[PAD]	0
[UNK]	0
[BOS]	0
[EOS]	0
[CLS]	0
[SEP]	0
[MASK]	0
▁이	-0
▁있	-1
에서	-2
으로	-3
▁그	-4
▁1	-5
▁사	-6
▁2	-7
▁아	-8
▁하	-9
▁수	-10
▁대	-11
▁가	-12
▁시	-13
▁한	-14
▁보	-15
▁전	-16
▁다	-17
▁것	-18
▁기	-19
▁자	-20
▁나	-21
지만	-22
하는	-23
▁일	-24
▁정	-25
▁있다	-26
▁마	-27
▁지	-28
▁모	-29
▁때	-30
▁상	-31
이다	-32
▁스	-33
▁유	-34
▁20	-35
었다	-36
▁공	-37
▁경	-38
▁제	-39
▁없	-40
▁주	-41
▁인	-42
▁중	-43
▁-	-44
▁3	-45
▁부	-46
▁않	-47
▁오	-48
▁등	-49
▁무	-50
▁소	-51
▁어	-52
에게	-53
▁비	-54
했다	-55
▁되	-56
▁위	-57
하고	-58
한다	-59
▁여	-60
▁미	-61
▁해	-62
이라	-63
▁만	-64
▁바	-65
▁고	-66
▁있는	-67
▁성	-68
▁조	-69
▁'	-70
▁201	-71
▁때문	-72
▁말	-73
▁4	-74
▁방	-75
▁동	-76
▁거	-77
▁내	-78
▁신	-79
▁도	-80
▁안	-81
▁연	-82
▁영	-83
▁개	-84
▁발	-85
▁후	-86
▁생	-87
▁장	-88
▁카	-89
▁구	-90
까지	-91
들이	-92
▁한다	-93
▁세	-94
▁선	-95
▁게	-96
▁5	-97
▁최	-98
는데	-99
▁적	-100
하게	-101
▁많	-102
▁의	-103
레이	-104
에는	-105
▁불	-106
된다	-107
면서	-108
▁타	-109
▁실	-110
에서는	-111
▁당	-112
▁더	-113
▁경우	-114
▁강	-115
▁원	-116
▁파	-117
▁특	-118
▁서	-119
▁문	-120
▁때문에	-121
▁우	-122
▁같	-123
▁진	-124
▁결	-125
하다	-126
▁노	-127
▁알	-128
00	-129
▁작	-130
▁관	-131
▁포	-132
▁반	-133
적으로	-134
▁아니	-135
▁역	-136
▁들	-137
▁단	-138
리고	-139
으며	-140
▁프	-141
▁리	-142
▁"	-143
적인	-144
▁라	-145
▁S	-146
▁19	-147
▁남	-148
해서	-149
▁받	-150
▁6	-151
▁사용	-152
▁못	-153
▁물	-154
▁차	-155
▁이후	-156
▁사람	-157
▁:	-158
▁자신	-159
▁배	-160
▁본	-161
기도	-162
..	-163
▁현	-164
▁출	-165
▁에	-166
▁추	-167
부터	-168
▁데	-169
다는	-170
▁따	-171
▁좋	-172
대로	-173
라는	-174
▁초	-175
▁매	-176
▁공격	-177
▁버	-178
▁드	-179
▁피	-180
▁코	-181
▁정도	-182
▁7	-183
스트	-184
라고	-185
▁레	-186
하면	-187
▁달	-188
▁또	-189
▁계	-190
이나	-191
▁등장	-192
▁건	-193
▁크	-194
다고	-195
하여	-196
▁참	-197
▁8	-198
▁국	-199
▁재	-200
▁통	-201
▁예	-202
▁감	-203
▁입	-204
▁M	-205
▁된다	-206
▁두	-207
▁요	-208
▁설	-209
▁다른	-210
▁함	-211
▁명	-212
▁분	-213
들은	-214
▁편	-215
▁패	-216
▁저	-217
▁쓰	-218
▁10	-219
▁A	-220
▁하지만	-221
▁캐	-222
였다	-223
하기	-224
▁죽	-225
에도	-226
▁점	-227
들을	-228
지는	-229
▁할	-230
▁로	-231
▁9	-232
▁메	-233
▁그리고	-234
▁사실	-235
▁평	-236
▁화	-237
▁외	-238
▁200	-239
▁잘	-240
으나	-241
▁김	-242
▁0	-243
▁걸	-244
리는	-245
▁교	-246
들의	-247
▁것이	-248
▁플	-249
▁가능	-250
▁게임	-251
▁애	-252
기에	-253
기를	-254
...	-255
▁돌	-256
▁C	-257
▁올	-258
▁T	-259
다가	-260
▁아이	-261
▁하는	-262
▁들어	-263
▁맞	-264
▁심	-265
하지	-266
되었다	-267
▁호	-268
▁같은	-269
▁직	-270
▁처	-271
▁살	-272
▁과	-273
▁속	-274
는다	-275
▁하나	-276
▁종	-277
▁변	-278
▁B	-279
거나	-280
되어	-281
▁확	-282
보다	-283
스터	-284
▁필	-285
▁치	-286
▁일본	-287
하며	-288
▁회	-289
er	-290
▁D	-291
▁뒤	-292
▁모습	-293
▁이름	-294
▁높	-295
▁나오	-296
▁대한	-297
▁학	-298
▁없다	-299
▁한국	-300
▁그러	-301
▁운	-302
▁약	-303
▁트	-304
이트	-305
▁체	-306
▁토	-307
▁히	-308
이라는	-309
기가	-310
어서	-311
▁존	-312
▁행	-313
▁언	-314
릭터	-315
▁목	-316
▁생각	-317
▁간	-318
▁문제	-319
이라고	-320
▁승	-321
▁했	-322
았다	-323
리를	-324
에서도	-325
▁번	-326
▁힘	-327
▁캐릭터	-328
▁만들	-329
▁함께	-330
▁활	-331
▁각	-332
▁이상	-333
▁디	-334
in	-335
▁날	-336
▁시작	-337
▁했다	-338
▁표	-339
▁P	-340
능력	-341
▁박	-342
▁양	-343
되는	-344
▁위해	-345
▁것을	-346
▁12	-347
▁L	-348
▁군	-349
▁야	-350
▁당시	-351
▁완	-352
▁키	-353
▁손	-354
처럼	-355
▁독	-356
▁F	-357
▁가장	-358
▁없는	-359
▁있었	-360
▁베	-361
▁사이	-362
리가	-363
라이	-364
▁순	-365
▁투	-366
▁끝	-367
▁잡	-368
▁또한	-369
▁볼	-370
리즈	-371
▁근	-372
▁막	-373
▁되었다	-374
▁집	-375
on	-376
으면	-377
▁상대	-378
▁따라	-379
▁프로	-380
지고	-381
▁판	-382
이지	-383
▁항	-384
▁G	-385
▁열	-386
▁보면	-387
▁형	-388
▁다시	-389
an	-390
기는	-391
▁다만	-392
▁클	-393
▁별	-394
▁것이다	-395
▁용	-396
▁결국	-397
니다	-398
▁효	-399
▁E	-400
▁많이	-401
▁폭	-402
▁그런	-403
▁상황	-404
▁난	-405
▁총	-406
▁듯	-407
▁테	-408
▁증	-409
이고	-410
▁팀	-411
▁/	-412
▁11	-413
▁모두	-414
지를	-415
▁것은	-416
▁음	-417
▁플레이	-418
이었	-419
▁능력	-420
▁블	-421
▁새	-422
▁먹	-423
▁존재	-424
▁왕	-425
▁루	-426
▁복	-427
▁친	-428
▁물론	-429
▁넘	-430
▁태	-431
▁H	-432
▁상태	-433
▁시리즈	-434
이며	-435
스의	-436
▁나온	-437
▁빠	-438
▁브	-439
이는	-440
▁모든	-441
▁추가	-442
▁있었다	-443
▁너	-444
▁시간	-445
▁커	-446
▁충	-447
▁그래	-448
or	-449
▁상당	-450
▁삼	-451
▁얼	-452
▁K	-453
▁N	-454
▁네	-455
▁악	-456
▁전투	-457
▁자신의	-458
▁앞	-459
력이	-460
▁보여	-461
▁눈	-462
▁싸	-463
▁것으로	-464
▁광	-465
▁하고	-466
▁R	-467
▁매우	-468
▁천	-469
스가	-470
▁현재	-471
력을	-472
▁이런	-473
스를	-474
학교	-475
▁실제	-476
▁병	-477
▁그러나	-478
▁큰	-479
▁자체	-480
▁카드	-481
▁및	-482
▁아니라	-483
하면서	-484
▁I	-485
▁검	-486
므로	-487
성이	-488
▁15	-489
▁채	-490
리아	-491
▁페	-492
▁+	-493
ar	-494
▁줄	-495
▁누	-496
인데	-497
▁된	-498
▁시즌	-499
▁엄	-500
가는	-501
▁많은	-502
▁취	-503
▁아닌	-504
▁임	-505
▁이유	-506
▁느	-507
되었	-508
▁합	-509
▁금	-510
▁그렇	-511
▁준	-512
th	-513
▁세계	-514
▁극	-515
들에게	-516
▁스킬	-517
▁이용	-518
인다	-519
▁거의	-520
가지	-521
▁식	-522
인지	-523
▁기술	-524
▁효과	-525
인이	-526
▁이미	-527
자가	-528
리스	-529
▁백	-530
▁찾	-531
▁슈	-532
▁팬	-533
▁얻	-534
▁바로	-535
▁역시	-536
부분	-537
▁절	-538
에선	-539
이었다	-540
▁미국	-541
▁일반	-542
▁떨	-543
▁O	-544
▁참고	-545
▁처음	-546
▁갈	-547
이지만	-548
▁길	-549
▁관련	-550
▁와	-551
▁첫	-552
▁엔	-553
▁머	-554
▁주인	-555
▁않는	-556
▁라이	-557
▁돌아	-558
▁산	-559
하였다	-560
▁선수	-561
진다	-562
지가	-563
▁벌	-564
▁되어	-565
▁온	-566
▁특히	-567
▁여러	-568
들과	-569
▁허	-570
▁마법	-571
▁W	-572
▁작품	-573
▁아무	-574
▁기본	-575
▁붙	-576
en	-577
사가	-578
▁밀	-579
졌다	-580
▁황	-581
하자	-582
린다	-583
▁이야	-584
at	-585
▁은	-586
▁업	-587
▁필요	-588
라도	-589
시키	-590
▁있는데	-591
사를	-592
▁몰	-593
▁해당	-594
▁199	-595
▁다음	-596
어나	-597
도가	-598
▁않고	-599
▁좀	-600
▁모습을	-601
▁곳	-602
▁창	-603
▁레이	-604
이스	-605
▁있으며	-606
▁수도	-607
거리	-608
로는	-609
▁그냥	-610
▁쿠	-611
▁즉	-612
▁민	-613
▁북	-614
아서	-615
.0	-616
▁잠	-617
▁둘	-618
▁떨어	-619
▁대부분	-620
지막	-621
▁혼	-622
▁철	-623
하지만	-624
기로	-625
.1	-626
▁같이	-627
▁인간	-628
▁스타	-629
000	-630
▁탈	-631
▁부분	-632
▁비슷	-633
▁주인공	-634
했던	-635
이가	-636
▁좋은	-637
st	-638
▁16	-639
▁않는다	-640
상을	-641
▁되는	-642
▁하다	-643
▁기록	-644
▁지역	-645
▁환	-646
▁정도로	-647
▁달리	-648
▁터	-649
▁몇	-650
해야	-651
시아	-652
▁곡	-653
주는	-654
▁영화	-655
▁귀	-656
▁18	-657
▁수준	-658
▁마지막	-659
으니	-660
▁케	-661
▁뿐	-662
al	-663
▁상당히	-664
▁골	-665
전히	-666
▁30	-667
▁13	-668
▁청	-669
▁제작	-670
▁인물	-671
▁몸	-672
▁사건	-673
▁V	-674
르는	-675
▁탄	-676
▁어느	-677
▁내용	-678
▁경기	-679
▁만들어	-680
▁레벨	-681
▁월	-682
▁가지고	-683
▁않은	-684
성을	-685
장을	-686
▁몬	-687
▁권	-688
▁일부	-689
▁엘	-690
▁워	-691
▁있을	-692
▁애니	-693
▁진행	-694
▁것도	-695
어가	-696
▁싶	-697
▁맡	-698
▁계속	-699
▁덕	-700
▁경우가	-701
▁밝	-702
▁성우	-703
▁헤	-704
▁범	-705
▁담	-706
20	-707
▁이전	-708
▁보고	-709
들도	-710
▁대신	-711
▁설정	-712
▁풀	-713
ou	-714
▁떠	-715
▁많다	-716
▁14	-717
▁않았	-718
▁그대로	-719
▁격	-720
▁통해	-721
▁있고	-722
주의	-723
▁피해	-724
▁지금	-725
▁올라	-726
이션	-727
렸다	-728
드는	-729
▁암	-730
▁인해	-731
지도	-732
있는	-733
▁보인다	-734
▁U	-735
-1	-736
▁낮	-737
▁접	-738
드를	-739
▁제외	-740
▁원래	-741
년에	-742
▁팔	-743
▁방송	-744
▁여기	-745
되고	-746
▁있어	-747
▁방어	-748
밖에	-749
했고	-750
▁나오는	-751
수가	-752
시간	-753
▁너무	-754
▁좋아	-755
인의	-756
▁2015	-757
re	-758
▁있지만	-759
▁될	-760
▁시절	-761
리에	-762
▁몬스터	-763
마다	-764
려고	-765
▁언급	-766
장이	-767
▁이를	-768
▁의미	-769
▁높은	-770
le	-771
▁서울	-772
▁#	-773
▁직접	-774
▁위치	-775
▁뛰	-776
▁성공	-777
▁없이	-778
▁면	-779
▁17	-780
트를	-781
▁쓸	-782
자를	-783
▁그녀	-784
도로	-785
▁타이	-786
▁100	-787
▁중국	-788
▁국가	-789
▁이는	-790
스로	-791
▁괴	-792
과는	-793
."	-794
▁기준	-795
사의	-796
시에	-797
▁실제로	-798
▁참고로	-799
와의	-800
▁엄청	-801
스는	-802
자의	-803
▁문서	-804
이드	-805
▁과거	-806
▁묘	-807
▁던	-808
▁꽤	-809
▁감독	-810
▁데미	-811
▁울	-812
▁활동	-813
▁대표	-814
대의	-815
▁질	-816
기의	-817
▁이것	-818
.2	-819
▁유명	-820
▁이동	-821
▁다르	-822
▁대해	-823
▁육	-824
▁증가	-825
▁나온다	-826
▁장면	-827
도록	-828
멤버	-829
▁등의	-830
치는	-831
▁유저	-832
▁관계	-833
중에	-834
리의	-835
▁되었	-836
▁축	-837
정을	-838
▁글	-839
어로	-840
▁아니다	-841
없이	-842
왔다	-843
▁자기	-844
▁개요	-845
▁자신이	-846
수를	-847
▁니	-848
하는데	-849
▁논	-850
리지	-851
▁X	-852
▁2016	-853
▁스토	-854
도를	-855
▁받아	-856
▁늘	-857
▁설명	-858
▁망	-859
▁2014	-860
▁홍	-861
▁그의	-862
▁25	-863
▁슬	-864
▁러	-865
▁전체	-866
▁~	-867
it	-868
▁나타	-869
▁쪽	-870
리어	-871
▁이어	-872
드의	-873
드가	-874
▁멤버	-875
이기	-876
▁법	-877
▁쉽	-878
ic	-879
▁있던	-880
▁마음	-881
▁넣	-882
하기도	-883
하던	-884
위를	-885
▁발매	-886
▁갖	-887
▁출연	-888
▁만든	-889
이자	-890
▁전쟁	-891
▁티	-892
▁혹	-893
▁당연	-894
▁최대	-895
하였	-896
로운	-897
전을	-898
▁퍼	-899
있다	-900
▁제대로	-901
▁아버	-902
▁그런데	-903
▁최고	-904
▁홈	-905
▁선택	-906
▁평가	-907
▁불가	-908
▁m	-909
준다	-910
치가	-911
▁돈	-912
▁유닛	-913
스타	-914
▁조금	-915
▁알려	-916
▁자주	-917
▁소속	-918
▁크게	-919
▁무기	-920
▁전부	-921
▁J	-922
와는	-923
자는	-924
▁198	-925
10	-926
만큼	-927
.5	-928
▁지나	-929
로서	-930
에서의	-931
▁먼	-932
대를	-933
이어	-934
▁방법	-935
▁찾아	-936
▁깨	-937
트가	-938
▁초반	-939
▁해도	-940
▁개발	-941
▁게다가	-942
▁이때	-943
▁사라	-944
▁아이템	-945
▁있다는	-946
▁비해	-947
▁칼	-948
같은	-949
▁말을	-950
▁이렇	-951
국의	-952
▁지원	-953
나는	-954
▁th	-955
▁최종	-956
▁보통	-957
치를	-958
화를	-959
▁적이	-960
▁컨	-961
▁급	-962
▁때문이다	-963
▁슈퍼	-964
▁2017	-965
▁정말	-966
ing	-967
▁마찬	-968
▁주로	-969
▁영향	-970
▁정보	-971
했을	-972
지어	-973
▁마찬가지	-974
히려	-975
▁그것	-976
이를	-977
▁결과	-978
▁비교	-979
▁사람이	-980
▁압	-981
he	-982
▁희	-983
▁아예	-984
▁있어서	-985
▁<	-986
▁50	-987
▁드래	-988
▁인터	-989
▁의해	-990
▁성격	-991
▁2013	-992
번째	-993
습니다	-994
▁사망	-995
어난	-996
인을	-997
▁소환	-998
년대	-999
▁오히려	-1000
▁2018	-1001
머니	-1002
▁놀	-1003
이크	-1004
▁뉴	-1005
is	-1006
▁출신	-1007
▁이에	-1008
정이	-1009
으로는	-1010
▁그래서	-1011
▁갑	-1012
▁공식	-1013
되지	-1014
▁뜻	-1015
▁찍	-1016
▁일단	-1017
▁하지	-1018
▁노선	-1019
▁듣	-1020
▁가능하다	-1021
▁기타	-1022
▁봉	-1023
상이	-1024
▁동안	-1025
이터	-1026
▁아직	-1027
▁파괴	-1028
▁침	-1029
▁친구	-1030
▁바람	-1031
▁-2	-1032
▁배우	-1033
▁규	-1034
▁[	-1035
▁프리	-1036
▁작중	-1037
▁강력	-1038
나마	-1039
▁정신	-1040
▁향	-1041
전에	-1042
이기도	-1043
랜드	-1044
▁빼	-1045
▁하면	-1046
▁심지어	-1047
▁책	-1048
점을	-1049
▁놓	-1050
▁서로	-1051
▁역할	-1052
▁가진	-1053
▁발생	-1054
과의	-1055
▁위한	-1056
▁살아	-1057
분에	-1058
▁포함	-1059
였던	-1060
▁비슷한	-1061
▁이러	-1062
메이션	-1063
라마	-1064
▁까	-1065
어도	-1066
▁멀	-1067
▁사랑	-1068
▁운영	-1069
▁원작	-1070
om	-1071
▁어떤	-1072
전에서	-1073
▁봐	-1074
▁기존	-1075
▁빨	-1076
는지	-1077
프트	-1078
▁여성	-1079
▁사실상	-1080
▁써	-1081
보면	-1082
▁않았다	-1083
▁중요	-1084
▁학교	-1085
▁끌	-1086
▁그래도	-1087
▁알고	-1088
am	-1089
▁우승	-1090
명이	-1091
▁공격력	-1092
▁착	-1093
원이	-1094
했지만	-1095
▁성능	-1096
▁2012	-1097
나가	-1098
▁항목	-1099
es	-1100
식을	-1101
자로	-1102
▁보여주	-1103
인물	-1104
하거나	-1105
▁왜	-1106
자인	-1107
▁탑	-1108
▁노래	-1109
이도	-1110
▁앨	-1111
▁이루	-1112
▁형태	-1113
▁농	-1114
▁유일	-1115
▁이렇게	-1116
▁최초	-1117
▁학생	-1118
▁특수	-1119
하려	-1120
▁빌	-1121
▁잔	-1122
▁좋다	-1123
▁모양	-1124
명을	-1125
▁궁	-1126
▁자세	-1127
50	-1128
▁가까	-1129
스템	-1130
버스	-1131
▁후반	-1132
▁도시	-1133
▁힘들	-1134
▁협	-1135
오는	-1136
서는	-1137
화가	-1138
점이	-1139
▁애니메이션	-1140
el	-1141
dd	-1142
트로	-1143
▁되고	-1144
▁버전	-1145
▁수록	-1146
동안	-1147
▁경우도	-1148
▁s	-1149
다면	-1150
지의	-1151
▁변경	-1152
리그	-1153
▁하며	-1154
▁바뀌	-1155
지로	-1156
▁측	-1157
▁이벤	-1158
했다고	-1159
ion	-1160
일에	-1161
▁21	-1162
라의	-1163
▁본인	-1164
▁리그	-1165
▁연구	-1166
▁완전히	-1167
격을	-1168
르면	-1169
as	-1170
.3	-1171
▁여담	-1172
운드	-1173
▁없었	-1174
▁흔	-1175
▁유지	-1176
▁여자	-1177
▁국내	-1178
화에서	-1179
▁들어가	-1180
▁o	-1181
어를	-1182
사는	-1183
▁드래곤	-1184
수의	-1185
▁참조	-1186
▁독일	-1187
리카	-1188
른다	-1189
▁폐	-1190
▁전혀	-1191
대가	-1192
시켜	-1193
ac	-1194
▁어려	-1195
▁발동	-1196
▁행동	-1197
▁2019	-1198
▁때는	-1199
▁흑	-1200
▁있다고	-1201
▁프랑	-1202
▁송	-1203
군의	-1204
음을	-1205
▁굉	-1206
!!	-1207
▁에피	-1208
▁그렇게	-1209
▁24	-1210
등학교	-1211
드로	-1212
▁같다	-1213
보다는	-1214
▁부족	-1215
▁보스	-1216
▁주변	-1217
▁아래	-1218
▁일이	-1219
▁이야기	-1220
▁그나마	-1221
더라도	-1222
리오	-1223
▁강화	-1224
▁22	-1225
▁등을	-1226
▁특징	-1227
▁혹은	-1228
▁불가능	-1229
▁회복	-1230
르고	-1231
▁쓰는	-1232
▁대한민	-1233
물을	-1234
▁결정	-1235
▁명칭	-1236
▁샤	-1237
▁시스템	-1238
스와	-1239
▁한번	-1240
▁숨	-1241
▁오브	-1242
▁덕분에	-1243
간다	-1244
▁없어	-1245
▁굉장	-1246
▁t	-1247
▁모델	-1248
▁등장하는	-1249
▁활약	-1250
▁먼저	-1251
▁드러	-1252
▁,	-1253
내는	-1254
▁뽑	-1255
▁에피소	-1256
▁방식	-1257
▁자체가	-1258
니아	-1259
▁영상	-1260
▁어떻	-1261
ol	-1262
▁센	-1263
▁역사	-1264
▁2010	-1265
▁40	-1266
▁쇼	-1267
▁the	-1268
디오	-1269
▁스테	-1270
▁잃	-1271
▁얼굴	-1272
▁차량	-1273
명의	-1274
▁확률	-1275
어버	-1276
▁음악	-1277
라가	-1278
▁스트	-1279
▁좌	-1280
▁기사	-1281
▁이러한	-1282
▁사회	-1283
▁w	-1284
▁동시에	-1285
간에	-1286
▁만큼	-1287
▁얼마	-1288
▁섬	-1289
▁휴	-1290
▁사진	-1291
적이	-1292
조차	-1293
겠지만	-1294
▁움	-1295
▁위해서	-1296
스크	-1297
▁남자	-1298
▁장비	-1299
▁내려	-1300
▁어떻게	-1301
니까	-1302
▁월드	-1303
▁정확	-1304
▁힘을	-1305
▁액	-1306
▁23	-1307
임을	-1308
▁나가	-1309
▁쓴	-1310
해도	-1311
▁b	-1312
상으로	-1313
▁전에	-1314
▁문제가	-1315
▁동일	-1316
▁2011	-1317
원을	-1318
라면	-1319
▁하루	-1320
▁아마	-1321
▁특성	-1322
▁만나	-1323
▁표현	-1324
시킨	-1325
!"	-1326
▁솔	-1327
▁싸우	-1328
▁히로	-1329
이었던	-1330
했는데	-1331
한다는	-1332
▁딸	-1333
▁있기	-1334
▁드라마	-1335
▁해서	-1336
▁하는데	-1337
▁딱	-1338
▁뭐	-1339
▁없었다	-1340
대에	-1341
▁가격	-1342
ch	-1343
▁싱	-1344
▁실패	-1345
ig	-1346
▁확인	-1347
▁차지	-1348
▁빈	-1349
km	-1350
▁당연히	-1351
구를	-1352
▁담당	-1353
▁딜	-1354
▁플레이어	-1355
▁사용하는	-1356
▁우주	-1357
▁했지만	-1358
▁적용	-1359
정도	-1360
▁영웅	-1361
il	-1362
그램	-1363
▁공개	-1364
▁녹	-1365
ed	-1366
으므로	-1367
지에	-1368
▁않아	-1369
▁주장	-1370
▁풍	-1371
▁편이다	-1372
ow	-1373
▁작가	-1374
▁콘	-1375
▁가면	-1376
트의	-1377
▁자유	-1378
대한	-1379
체를	-1380
BS	-1381
▁색	-1382
제가	-1383
▁새로운	-1384
▁않다	-1385
▁없고	-1386
▁구성	-1387
▁견	-1388
▁휘	-1389
▁사람들이	-1390
▁하이	-1391
▁콜	-1392
▁빛	-1393
▁1,	-1394
▁익	-1395
▁굉장히	-1396
우스	-1397
▁기억	-1398
▁움직	-1399
▁윤	-1400
▁우리	-1401
▁등이	-1402
▁생산	-1403
▁체력	-1404
▁그리	-1405
▁자신을	-1406
▁쉬	-1407
▁스페	-1408
이라면	-1409
▁발견	-1410
▁응	-1411
▁승리	-1412
et	-1413
▁입장	-1414
▁훈	-1415
▁반응	-1416
▁마을	-1417
▁진짜	-1418
▁시점	-1419
▁넘어	-1420
▁패배	-1421
▁영어	-1422
▁대체	-1423
▁판매	-1424
했다는	-1425
르게	-1426
▁그림	-1427
움을	-1428
한테	-1429
▁긴	-1430
▁인정	-1431
▁스토리	-1432
▁f	-1433
이의	-1434
치고	-1435
▁of	-1436
▁엄청난	-1437
▁바이	-1438
▁이름을	-1439
▁가지	-1440
▁받고	-1441
▁아주	-1442
▁확실	-1443
▁이제	-1444
▁따라서	-1445
▁가능한	-1446
▁출시	-1447
장의	-1448
ht	-1449
▁단순	-1450
▁마찬가지로	-1451
스러	-1452
▁또는	-1453
▁훨	-1454
까지는	-1455
했으며	-1456
▁엑	-1457
놓고	-1458
▁영국	-1459
30	-1460
▁맥	-1461
개의	-1462
부의	-1463
▁자동	-1464
▁소개	-1465
▁계획	-1466
▁현대	-1467
▁취급	-1468
▁등장인물	-1469
▁나와	-1470
▁어렵	-1471
▁현실	-1472
려서	-1473
▁맨	-1474
▁방면	-1475
▁어디	-1476
▁무시	-1477
▁밝혀	-1478
레벨	-1479
▁컴	-1480
▁강력한	-1481
▁정치	-1482
▁기능	-1483
▁지속	-1484
▁훨씬	-1485
▁약간	-1486
레이드	-1487
▁파워	-1488
▁링	-1489
▁이번	-1490
갔다	-1491
▁앨범	-1492
상의	-1493
▁d	-1494
▁대학	-1495
▁197	-1496
▁헬	-1497
▁지구	-1498
아가	-1499
났다	-1500
▁있게	-1501
었고	-1502
▁공격을	-1503
▁맵	-1504
▁결혼	-1505
▁상위	-1506
ad	-1507
▁받은	-1508
지지	-1509
▁Y	-1510
▁챔	-1511
▁못하고	-1512
▁어린	-1513
▁겨	-1514
▁말이	-1515
▁츠	-1516
▁퇴	-1517
만한	-1518
▁어머니	-1519
▁더욱	-1520
어진	-1521
▁순간	-1522
▁마이	-1523
▁한정	-1524
군이	-1525
들에	-1526
전이	-1527
▁마스터	-1528
▁패턴	-1529
▁위험	-1530
▁나왔	-1531
▁메이	-1532
▁폴	-1533
구하고	-1534
▁다이	-1535
경기	-1536
▁초기	-1537
▁엔딩	-1538
문에	-1539
히는	-1540
▁경우는	-1541
▁여기서	-1542
▁만화	-1543
▁남아	-1544
없는	-1545
▁방영	-1546
-2	-1547
▁등장한다	-1548
▁습	-1549
▁주의	-1550
리티	-1551
▁동료	-1552
으로서	-1553
▁싫	-1554
▁가는	-1555
▁믿	-1556
나라	-1557
ER	-1558
ro	-1559
ve	-1560
▁짓	-1561
▁수비	-1562
▁속성	-1563
사로	-1564
▁똑	-1565
체가	-1566
▁분위	-1567
도의	-1568
▁읽	-1569
원의	-1570
치로	-1571
▁쉽게	-1572
▁가능성이	-1573
▁폭발	-1574
▁26	-1575
▁시간이	-1576
.4	-1577
▁따르면	-1578
▁사고	-1579
제를	-1580
▁졸	-1581
▁땅	-1582
▁흡	-1583
▁문제는	-1584
▁술	-1585
▁못한	-1586
▁쓰러	-1587
▁포켓	-1588
▁상승	-1589
▁28	-1590
▁듀	-1591
▁여전히	-1592
▁대해서	-1593
▁개인	-1594
수로	-1595
▁가족	-1596
라인	-1597
▁있었던	-1598
▁가져	-1599
▁블랙	-1600
▁사용할	-1601
▁경험	-1602
▁TV	-1603
▁크로	-1604
▁후에	-1605
▁답	-1606
수록	-1607
,000	-1608
▁중심	-1609
게임	-1610
했으나	-1611
▁수가	-1612
나게	-1613
감을	-1614
▁보는	-1615
듯이	-1616
▁조선	-1617
▁나머	-1618
되면서	-1619
▁다양	-1620
▁푸	-1621
▁알아	-1622
and	-1623
ay	-1624
▁27	-1625
▁보내	-1626
▁강한	-1627
티브	-1628
▁아르	-1629
져서	-1630
리기	-1631
으면서	-1632
▁퀘	-1633
▁웃	-1634
계를	-1635
▁이유는	-1636
▁혼자	-1637
수는	-1638
▁c	-1639
▁나이	-1640
▁잘못	-1641
▁얘	-1642
▁헌	-1643
문을	-1644
▁-1	-1645
▁대전	-1646
▁불구하고	-1647
▁옆	-1648
▁경찰	-1649
적을	-1650
ff	-1651
말로	-1652
시키는	-1653
▁건물	-1654
▁맛	-1655
부에	-1656
었던	-1657
식이	-1658
초에	-1659
▁운행	-1660
▁일으	-1661
▁조건	-1662
▁감소	-1663
▁괜	-1664
리로	-1665
▁St	-1666
▁지하	-1667
권을	-1668
id	-1669
▁뮤	-1670
▁2000	-1671
▁대한민국	-1672
▁탓	-1673
▁&	-1674
량이	-1675
▁죄	-1676
▁에피소드	-1677
▁발사	-1678
대학교	-1679
회의	-1680
키는	-1681
▁고려	-1682
부를	-1683
이란	-1684
대는	-1685
▁느낌	-1686
이면	-1687
보니	-1688
▁활용	-1689
▁주는	-1690
▁끼	-1691
▁건담	-1692
라서	-1693
▁러시아	-1694
▁이벤트	-1695
un	-1696
겠다	-1697
▁주요	-1698
▁핵	-1699
▁각각	-1700
▁번역	-1701
▁적을	-1702
▁진출	-1703
▁Z	-1704
력은	-1705
▁하자	-1706
▁꾸	-1707
▁타입	-1708
▁요구	-1709
▁묻	-1710
▁받는	-1711
제로	-1712
60	-1713
▁숙	-1714
▁전용	-1715
▁낙	-1716
▁석	-1717
▁포켓몬	-1718
▁굴	-1719
▁부산	-1720
▁다니	-1721
▁그를	-1722
▁The	-1723
▁되면	-1724
▁류	-1725
▁구조	-1726
▁벨	-1727
▁도망	-1728
난다	-1729
▁여담으로	-1730
▁제한	-1731
피언	-1732
▁상대로	-1733
▁웨	-1734
▁제국	-1735
▁소설	-1736
▁꿈	-1737
▁유니	-1738
만이	-1739
▁대미	-1740
리와	-1741
▁굳	-1742
▁짧	-1743
▁참여	-1744
▁데뷔	-1745
▁p	-1746
▁부활	-1747
▁비판	-1748
도는	-1749
선을	-1750
mm	-1751
▁절대	-1752
한다고	-1753
▁욕	-1754
장에	-1755
▁벗	-1756
으로도	-1757
▁프로그램	-1758
us	-1759
▁배경	-1760
▁과정	-1761
정한	-1762
▁들고	-1763
▁아니고	-1764
통령	-1765
▁그가	-1766
▁보이는	-1767
▁설치	-1768
▁방향	-1769
▁대회	-1770
▁아버지	-1771
로가	-1772
▁가끔	-1773
야마	-1774
▁선발	-1775
▁해결	-1776
▁즐	-1777
▁홀	-1778
▁획	-1779
해주	-1780
▁60	-1781
▁오래	-1782
▁꼬	-1783
▁타카	-1784
사와	-1785
▁이유로	-1786
▁잡아	-1787
▁이해	-1788
인트	-1789
장으로	-1790
이즈	-1791
▁구간	-1792
심을	-1793
▁퀘스트	-1794
▁스스로	-1795
▁하기	-1796
▁영향을	-1797
▁소모	-1798
▁흥	-1799
▁나왔다	-1800
▁않을	-1801
▁끊	-1802
신이	-1803
하나	-1804
▁유명한	-1805
▁세이	-1806
장에서	-1807
▁펼	-1808
▁논란	-1809
장은	-1810
기고	-1811
▁챔피언	-1812
로를	-1813
▁쳐	-1814
40	-1815
▁충분	-1816
하다는	-1817
▁자세한	-1818
▁밤	-1819
▁스피	-1820
자기	-1821
▁일행	-1822
외로	-1823
▁종족	-1824
부가	-1825
▁타고	-1826
▁정도의	-1827
▁받았	-1828
유의	-1829
레스	-1830
▁최근	-1831
▁표기	-1832
▁의견	-1833
학생	-1834
▁셈	-1835
라를	-1836
▁중앙	-1837
▁역할을	-1838
▁준비	-1839
▁미사	-1840
▁갤	-1841
▁자랑	-1842
▁계열	-1843
다니	-1844
▁삼성	-1845
▁쿨	-1846
시즌	-1847
▁난이도	-1848
지션	-1849
신을	-1850
업을	-1851
▁전작	-1852
▁미션	-1853
위가	-1854
▁2009	-1855
▁그는	-1856
▁되지	-1857
세대	-1858
▁대부분의	-1859
▁브라	-1860
같이	-1861
개를	-1862
가를	-1863
시마	-1864
▁이쪽	-1865
▁것에	-1866
▁발표	-1867
▁탐	-1868
▁기준으로	-1869
▁높다	-1870
▁특별	-1871
▁물리	-1872
▁아이돌	-1873
만에	-1874
일을	-1875
▁클리어	-1876
▁정작	-1877
시로	-1878
▁목소	-1879
겠다고	-1880
▁묘사	-1881
▁중에	-1882
▁바람에	-1883
▁덤	-1884
▁대통령	-1885
▁프랑스	-1886
마저	-1887
▁전차	-1888
▁장착	-1889
전의	-1890
▁생긴	-1891
카이	-1892
ag	-1893
▁크리스	-1894
만을	-1895
▁반면	-1896
▁29	-1897
프를	-1898
▁나름	-1899
?"	-1900
▁제목	-1901
▁야구	-1902
▁v	-1903
▁생활	-1904
▁배틀	-1905
▁피해를	-1906
.7	-1907
에게는	-1908
▁낮은	-1909
▁근접	-1910
▁라인	-1911
▁거기	-1912
카와	-1913
▁시청	-1914
▁별로	-1915
우는	-1916
▁염	-1917
▁케이	-1918
ir	-1919
됐다	-1920
12	-1921
▁틀	-1922
▁사람은	-1923
위로	-1924
▁아키	-1925
▁애초에	-1926
리면	-1927
조건	-1928
여서	-1929
크로	-1930
▁연출	-1931
ST	-1932
▁유럽	-1933
구가	-1934
지게	-1935
당한	-1936
▁현재는	-1937
타를	-1938
어들	-1939
하다가	-1940
기와	-1941
야말로	-1942
▁콤	-1943
▁나무	-1944
자와	-1945
▁이걸	-1946
일이	-1947
되며	-1948
▁획득	-1949
▁모드	-1950
▁교육	-1951
.8	-1952
▁비롯	-1953
▁오른	-1954
▁능력을	-1955
되었고	-1956
▁처리	-1957
▁검은	-1958
▁최강	-1959
▁추정	-1960
▁밖에	-1961
.6	-1962
▁비행	-1963
▁메인	-1964
▁제공	-1965
▁항공	-1966
가가	-1967
▁작은	-1968
명은	-1969
▁따로	-1970
▁뒷	-1971
▁중요한	-1972
▁버스	-1973
▁이게	-1974
이로	-1975
▁곧	-1976
▁각종	-1977
학년	-1978
15	-1979
BC	-1980
인은	-1981
▁조합	-1982
단의	-1983
려는	-1984
▁덱	-1985
▁라고	-1986
▁이루어	-1987
▁일을	-1988
▁하면서	-1989
▁밴	-1990
▁정식	-1991
▁신경	-1992
공격	-1993
이라도	-1994
▁이름이	-1995
▁빅	-1996
▁스파	-1997
시의	-1998
▁항상	-1999
▁식으로	-2000
자들이	-2001
▁나머지	-2002
시가	-2003
지기	-2004
▁분노	-2005
미가	-2006
▁80	-2007
▁시전	-2008
▁만약	-2009
함을	-2010
겼다	-2011
트는	-2012
▁전문	-2013
▁기간	-2014
▁이상의	-2015
▁칭	-2016
였고	-2017
▁벽	-2018
▁엔진	-2019
비가	-2020
랭크	-2021
ub	-2022
▁냉	-2023
▁만드는	-2024
▁좋지	-2025
▁대사	-2026
▁일본의	-2027
▁계약	-2028
▁연기	-2029
▁참가	-2030
▁에너	-2031
▁위에	-2032
▁연결	-2033
하라	-2034
▁부르	-2035
하다고	-2036
종의	-2037
▁축구	-2038
▁자연	-2039
im	-2040
▁소재	-2041
▁물건	-2042
▁무엇	-2043
ot	-2044
▁일어나	-2045
▁전설	-2046
▁아군	-2047
성은	-2048
▁기동	-2049
▁예정	-2050
력으로	-2051
▁북한	-2052
▁제외한	-2053
▁한편	-2054
리게	-2055
버린	-2056
▁이외	-2057
▁다크	-2058
▁벌어	-2059
▁더불	-2060
▁칸	-2061
▁보호	-2062
▁다르게	-2063
▁적은	-2064
▁해야	-2065
▁사례	-2066
▁2008	-2067
스럽	-2068
▁유리	-2069
들로	-2070
타로	-2071
시를	-2072
모토	-2073
▁일러	-2074
▁스테이지	-2075
▁넓	-2076
신의	-2077
▁켄	-2078
데이트	-2079
디어	-2080
▁인터뷰	-2081
▁나는	-2082
▁성장	-2083
스러운	-2084
▁혈	-2085
소를	-2086
이니	-2087
▁랜	-2088
계의	-2089
▁옵	-2090
▁직업	-2091
상에	-2092
▁것과	-2093
▁악마	-2094
▁훈련	-2095
버렸다	-2096
었다고	-2097
스케	-2098
▁l	-2099
스에	-2100
▁최소	-2101
▁번째	-2102
▁자리	-2103
▁않게	-2104
▁모습이	-2105
▁나중에	-2106
cm	-2107
지면	-2108
▁괜찮	-2109
▁경우에는	-2110
▁a	-2111
▁없을	-2112
▁제일	-2113
▁못하는	-2114
▁생존	-2115
비아	-2116
▁공중	-2117
▁속도	-2118
▁n	-2119
부터는	-2120
37	-2121
월에	-2122
▁싸움	-2123
되기	-2124
▁수상	-2125
▁일정	-2126
▁사실을	-2127
19	-2128
어야	-2129
▁종류	-2130
▁보니	-2131
▁두고	-2132
▁흐	-2133
▁깔	-2134
▁나올	-2135
▁있으니	-2136
▁삭	-2137
▁하여	-2138
▁90	-2139
▁조직	-2140
나이	-2141
▁앤	-2142
▁업데이트	-2143
프로	-2144
▁개념	-2145
▁시도	-2146
의를	-2147
음에도	-2148
▁다양한	-2149
▁더불어	-2150
▁라는	-2151
점으로	-2152
▁꺼	-2153
▁연속	-2154
▁지휘	-2155
고는	-2156
od	-2157
▁특이	-2158
▁31	-2159
관이	-2160
▁등으로	-2161
',	-2162
▁예를	-2163
▁차이가	-2164
▁불러	-2165
해진	-2166
더니	-2167
위에	-2168
▁존재한다	-2169
▁빠른	-2170
▁아카	-2171
라운드	-2172
입니다	-2173
낸다	-2174
트라	-2175
▁엘리	-2176
▁하였다	-2177
▁있다면	-2178
▁끝나	-2179
리며	-2180
합니다	-2181
▁가까운	-2182
▁이건	-2183
대학	-2184
동을	-2185
▁머리	-2186
성의	-2187
▁종료	-2188
.9	-2189
▁소녀	-2190
▁흘	-2191
▁나서	-2192
▁야마	-2193
라며	-2194
비를	-2195
▁아니면	-2196
▁기체	-2197
▁누구	-2198
▁성우는	-2199
냈다	-2200
수한	-2201
▁상황에서	-2202
▁보이	-2203
▁득	-2204
▁이탈	-2205
▁찬	-2206
주고	-2207
▁기본적으로	-2208
▁있으나	-2209
▁위의	-2210
▁일러스트	-2211
▁쌍	-2212
세를	-2213
부로	-2214
▁달려	-2215
▁70	-2216
▁반대	-2217
▁모르	-2218
선이	-2219
▁본인이	-2220
물이	-2221
▁등장한	-2222
ur	-2223
▁뭔	-2224
▁관리	-2225
▁죽은	-2226
▁조종	-2227
▁미래	-2228
페이지	-2229
▁후보	-2230
▁받았다	-2231
▁얻을	-2232
▁쌓	-2233
주를	-2234
호가	-2235
▁그야말로	-2236
스티	-2237
▁본래	-2238
▁납	-2239
▁맹	-2240
▁의외로	-2241
녀석	-2242
▁압도	-2243
지라	-2244
▁씨	-2245
ent	-2246
11	-2247
▁비밀	-2248
▁변신	-2249
▁내가	-2250
어의	-2251
▁시리즈의	-2252
▁뒤에	-2253
▁상황이	-2254
▁보유	-2255
▁봐도	-2256
▁좋아하는	-2257
▁이후로	-2258
▁징	-2259
▁지방	-2260
▁최고의	-2261
나의	-2262
▁없다는	-2263
▁왼	-2264
▁롯	-2265
▁SK	-2266
▁옛	-2267
▁달성	-2268
▁문화	-2269
사에	-2270
시켰	-2271
▁있으면	-2272
▁공연	-2273
단을	-2274
▁갑자기	-2275
▁부모	-2276
▁게임을	-2277
계가	-2278
다운	-2279
▁개그	-2280
▁짜	-2281
행을	-2282
▁자체는	-2283
▁이용해	-2284
호를	-2285
원으로	-2286
▁옷	-2287
▁멸	-2288
▁싱글	-2289
▁워낙	-2290
버린다	-2291
▁연재	-2292
시는	-2293
▁Lv	-2294
▁이름은	-2295
▁클래	-2296
▁여기에	-2297
았던	-2298
▁목표	-2299
▁경제	-2300
▁털	-2301
▁쏘	-2302
80	-2303
었는데	-2304
▁사이트	-2305
▁하늘	-2306
▁특정	-2307
▁억	-2308
▁스포	-2309
▁듯하다	-2310
비스	-2311
내고	-2312
▁싫어	-2313
▁상당한	-2314
대전	-2315
▁사용한다	-2316
▁링크	-2317
AR	-2318
▁품	-2319
ver	-2320
운데	-2321
▁날아	-2322
▁기관	-2323
율이	-2324
▁수는	-2325
▁수정	-2326
▁언제	-2327
▁2007	-2328
▁디자인	-2329
▁도움	-2330
▁중에서	-2331
▁못했다	-2332
▁포지션	-2333
▁무슨	-2334
▁쓰고	-2335
▁아들	-2336
▁겪	-2337
▁파이	-2338
크래	-2339
ak	-2340
로의	-2341
▁완전	-2342
▁무장	-2343
▁말한다	-2344
....	-2345
▁나라	-2346
▁외국	-2347
▁하게	-2348
고를	-2349
즈의	-2350
▁닥	-2351
▁대상	-2352
▁보기	-2353
▁린	-2354
▁사냥	-2355
▁각성	-2356
▁달라	-2357
▁소련	-2358
ec	-2359
▁효과를	-2360
▁h	-2361
▁탈출	-2362
▁.	-2363
장판	-2364
▁역대	-2365
▁롤	-2366
ut	-2367
단이	-2368
우가	-2369
▁y	-2370
▁저지	-2371
▁독립	-2372
▁전국	-2373
▁제품	-2374
▁안에	-2375
무라	-2376
▁HP	-2377
▁빠져	-2378
보는	-2379
▁띄	-2380
▁옥	-2381
▁갖고	-2382
▁없어서	-2383
▁충격	-2384
▁없다고	-2385
인으로	-2386
▁나타나	-2387
▁무려	-2388
▁명령	-2389
방송	-2390
▁없지만	-2391
▁뜨	-2392
키가	-2393
▁깊	-2394
▁분류	-2395
▁이끌	-2396
▁칠	-2397
냐고	-2398
▁새로	-2399
AN	-2400
지와	-2401
▁상관	-2402
드시	-2403
▁상태에서	-2404
무를	-2405
▁돼	-2406
감이	-2407
▁해외	-2408
미를	-2409
▁타격	-2410
▁밑	-2411
▁유일하게	-2412
▁떡	-2413
스테	-2414
호선	-2415
▁포기	-2416
세가	-2417
▁생각해	-2418
▁지켜	-2419
년부터	-2420
역을	-2421
마가	-2422
▁어둠	-2423
세기	-2424
▁했으나	-2425
▁파티	-2426
▁196	-2427
▁반대로	-2428
치기	-2429
소가	-2430
마자	-2431
▁사람을	-2432
▁작곡	-2433
▁탱	-2434
▁전반	-2435
▁비중	-2436
터를	-2437
▁32	-2438
▁국민	-2439
▁도입	-2440
▁히어로	-2441
▁k	-2442
프가	-2443
용으로	-2444
,#	-2445
었지만	-2446
회를	-2447
▁근처	-2448
▁말에	-2449
-0	-2450
▁최후	-2451
키의	-2452
▁바꾸	-2453
▁국제	-2454
▁했던	-2455
em	-2456
▁과학	-2457
▁잠시	-2458
서를	-2459
치의	-2460
화의	-2461
▁남성	-2462
▁이야기를	-2463
▁EX	-2464
▁살해	-2465
▁듣고	-2466
심이	-2467
▁g	-2468
▁도쿄	-2469
▁중간	-2470
▁제외하면	-2471
▁고양	-2472
▁보여준다	-2473
▁인천	-2474
▁35	-2475
▁유일한	-2476
▁록	-2477
군은	-2478
▁카이	-2479
부는	-2480
▁오리지	-2481
▁기대	-2482
▁일어	-2483
▁했는데	-2484
▁생각하면	-2485
▁돌아가	-2486
였으나	-2487
▁아무리	-2488
▁소리	-2489
▁킹	-2490
▁꼭	-2491
▁평균	-2492
▁요시	-2493
▁옮	-2494
▁롯데	-2495
▁평범	-2496
▁2006	-2497
-3	-2498
▁필요한	-2499
라이더	-2500
▁마사	-2501
년에는	-2502
▁보아	-2503
▁준다	-2504
촬영	-2505
원은	-2506
▁굳이	-2507
▁종종	-2508
로그	-2509
들어	-2510
▁있었고	-2511
혔다	-2512
▁인터넷	-2513
▁부정	-2514
가의	-2515
▁녀석	-2516
▁느끼	-2517
▁쫓	-2518
▁몇몇	-2519
▁안정	-2520
▁트리	-2521
▁집중	-2522
▁동생	-2523
▁있었는데	-2524
▁교체	-2525
▁오프	-2526
타가	-2527
스토	-2528
▁예상	-2529
▁부하	-2530
▁분명	-2531
▁한글	-2532
▁많아	-2533
언을	-2534
에만	-2535
▁무한	-2536
▁삭제	-2537
▁죠	-2538
▁근데	-2539
▁기다	-2540
많은	-2541
▁졸업	-2542
.#	-2543
로우	-2544
▁고정	-2545
▁운동	-2546
▁가문	-2547
▁오오	-2548
냐는	-2549
▁알게	-2550
▁선거	-2551
▁시험	-2552
▁점을	-2553
▁확정	-2554
▁패러	-2555
차가	-2556
▁회사	-2557
▁블루	-2558
▁심각	-2559
▁그녀의	-2560
▁출전	-2561
▁마나	-2562
군을	-2563
▁경쟁	-2564
만의	-2565
▁가르	-2566
마의	-2567
▁완벽	-2568
▁반드시	-2569
으로써	-2570
레인	-2571
▁무조건	-2572
▁결승	-2573
▁뇌	-2574
제의	-2575
세이	-2576
크를	-2577
▁되는데	-2578
터가	-2579
▁정상	-2580
▁다루	-2581
래도	-2582
▁꽃	-2583
▁남은	-2584
▁발전	-2585
ON	-2586
▁힐	-2587
▁탓에	-2588
술을	-2589
▁그걸	-2590
▁점점	-2591
▁완성	-2592
▁대기	-2593
▁유사	-2594
▁붉	-2595
▁튀	-2596
임이	-2597
▁뛰어난	-2598
▁때마다	-2599
▁?	-2600
량을	-2601
▁그룹	-2602
▁효과가	-2603
지면서	-2604
▁죽음	-2605
모가	-2606
▁직후	-2607
▁건설	-2608
▁웹	-2609
선의	-2610
라스	-2611
▁한다는	-2612
하자면	-2613
▁제거	-2614
받은	-2615
것도	-2616
▁십	-2617
▁로봇	-2618
▁것이라고	-2619
▁겸	-2620
세계	-2621
▁전사	-2622
▁데미지	-2623
um	-2624
▁다소	-2625
▁암살	-2626
▁곤	-2627
▁가깝	-2628
기사	-2629
탄을	-2630
nd	-2631
되면	-2632
▁파일	-2633
속도	-2634
보다도	-2635
적으로는	-2636
▁본격	-2637
수도	-2638
▁연합	-2639
▁지도	-2640
점은	-2641
▁장면이	-2642
▁에이	-2643
레이션	-2644
▁않으면	-2645
▁받을	-2646
▁과정에서	-2647
받는	-2648
▁능	-2649
▁란	-2650
▁다행	-2651
▁접근	-2652
▁업그	-2653
일러	-2654
믹스	-2655
▁특유의	-2656
14	-2657
였지만	-2658
드와	-2659
▁턴	-2660
▁군사	-2661
위는	-2662
16	-2663
▁추측	-2664
온다	-2665
▁이하	-2666
ight	-2667
▁외에도	-2668
▁지상	-2669
▁사기	-2670
▁뿌	-2671
▁장갑	-2672
▁없음	-2673
이므로	-2674
버리는	-2675
▁거기에	-2676
▁왔	-2677
▁수많은	-2678
▁플래	-2679
▁벤	-2680
▁다르다	-2681
▁프레	-2682
▁기반	-2683
진이	-2684
르크	-2685
하였고	-2686
▁500	-2687
든지	-2688
했기	-2689
한다면	-2690
▁늦	-2691
▁FC	-2692
▁종교	-2693
▁홈페이지	-2694
▁나이트	-2695
▁상태로	-2696
리온	-2697
▁큐	-2698
▁높아	-2699
▁카운	-2700
▁밸	-2701
롭게	-2702
ri	-2703
▁짐	-2704
었을	-2705
▁촬영	-2706
▁민주	-2707
▁공포	-2708
러스	-2709
▁놈	-2710
▁밖	-2711
▁사람들은	-2712
▁척	-2713
니티	-2714
▁닌	-2715
적이다	-2716
▁맞추	-2717
▁필살	-2718
▁목록	-2719
▁부탁	-2720
▁운용	-2721
▁있었지만	-2722
▁전개	-2723
▁LG	-2724
48	-2725
▁생명	-2726
▁데미지를	-2727
▁도중	-2728
▁시작했다	-2729
▁멘	-2730
▁기계	-2731
파트	-2732
▁캠	-2733
려면	-2734
▁미니	-2735
▁앞에	-2736
▁오리지널	-2737
원에	-2738
▁지배	-2739
학과	-2740
주로	-2741
▁아내	-2742
▁타이틀	-2743
향이	-2744
▁치명	-2745
ra	-2746
▁것처럼	-2747
▁대중	-2748
▁중반	-2749
25	-2750
카가	-2751
보를	-2752
▁레드	-2753
▁후속	-2754
단한	-2755
▁올려	-2756
분이	-2757
▁동물	-2758
▁카드를	-2759
▁빠르게	-2760
ation	-2761
력과	-2762
▁때도	-2763
▁듯한	-2764
간의	-2765
주가	-2766
식으로	-2767
▁이름으로	-2768
▁상징	-2769
시킬	-2770
▁돈을	-2771
▁젊	-2772
동생	-2773
▁시나	-2774
인가	-2775
▁월드컵	-2776
▁인기	-2777
▁대구	-2778
스코	-2779
▁라이브	-2780
▁않지만	-2781
고등학교	-2782
상은	-2783
▁평소	-2784
▁멋	-2785
▁발음	-2786
▁복귀	-2787
13	-2788
▁자리를	-2789
▁2005	-2790
▁되었고	-2791
▁그린	-2792
▁삼국	-2793
역으로	-2794
▁사이에	-2795
▁사쿠	-2796
IC	-2797
▁수행	-2798
▁끝에	-2799
▁꽤나	-2800
▁화면	-2801
▁입고	-2802
os	-2803
▁어려운	-2804
미의	-2805
IN	-2806
ce	-2807
▁아니지만	-2808
▁가서	-2809
화된	-2810
▁베이	-2811
지에서	-2812
▁처음으로	-2813
▁안습	-2814
▁전략	-2815
▁옵션	-2816
▁우선	-2817
▁몽	-2818
▁말하는	-2819
▁충분히	-2820
크래프트	-2821
▁아스	-2822
모로	-2823
▁나오지	-2824
▁이곳	-2825
질을	-2826
▁디지	-2827
겠다는	-2828
▁주민	-2829
너스	-2830
되었으며	-2831
▁지금은	-2832
보고	-2833
▁투입	-2834
▁대결	-2835
부에서	-2836
▁버그	-2837
▁대표적인	-2838
▁다운	-2839
▁투수	-2840
▁힘든	-2841
▁잉	-2842
▁실험	-2843
▁구매	-2844
▁가수	-2845
▁배치	-2846
▁사격	-2847
▁전기	-2848
문이	-2849
▁능력이	-2850
▁영혼	-2851
때문에	-2852
▁얼마나	-2853
▁추천	-2854
▁도와	-2855
전쟁	-2856
시티	-2857
▁인한	-2858
▁to	-2859
▁보다	-2860
▁빙	-2861
▁불리	-2862
▁마무	-2863
▁점이	-2864
▁Q	-2865
▁개조	-2866
로도	-2867
▁텐	-2868
드에	-2869
▁걱	-2870
▁조작	-2871
▁희생	-2872
▁치료	-2873
고속	-2874
▁등급	-2875
▁의하면	-2876
판을	-2877
이라서	-2878
▁빨리	-2879
▁지키	-2880
형을	-2881
▁낫	-2882
▁시간을	-2883
▁2004	-2884
▁MA	-2885
▁부여	-2886
▁아프	-2887
위원	-2888
▁유우	-2889
▁적의	-2890
차를	-2891
▁환경	-2892
▁km	-2893
▁오늘	-2894
▁신체	-2895
▁이탈리아	-2896
모를	-2897
▁시기	-2898
▁도착	-2899
▁맞춰	-2900
▁내용은	-2901
▁이로	-2902
▁패치	-2903
▁모르는	-2904
▁뻔	-2905
▁스타일	-2906
두고	-2907
▁하드	-2908
▁점프	-2909
▁45	-2910
▁바다	-2911
▁대형	-2912
▁소유	-2913
▁네이	-2914
▁숫	-2915
▁2,	-2916
▁던전	-2917
▁웬	-2918
도에	-2919
금을	-2920
왕의	-2921
진을	-2922
▁찌	-2923
▁탈락	-2924
▁팩	-2925
▁e	-2926
이와	-2927
▁특성상	-2928
▁주고	-2929
▁셀	-2930
▁in	-2931
▁그저	-2932
역시	-2933
18	-2934
트리	-2935
▁레어	-2936
▁KBS	-2937
치게	-2938
▁맞는	-2939
하려고	-2940
▁소년	-2941
▁통합	-2942
▁갔	-2943
▁컴퓨	-2944
▁단순히	-2945
▁범죄	-2946
▁빼앗	-2947
에게서	-2948
▁아는	-2949
▁살아남	-2950
▁잊	-2951
▁떠나	-2952
▁붙어	-2953
▁흉	-2954
시대	-2955
▁극장판	-2956
▁비롯한	-2957
단계	-2958
아버	-2959
▁카오	-2960
카드	-2961
▁변화	-2962
개로	-2963
다른	-2964
▁끌어	-2965
▁무리	-2966
▁캡	-2967
▁부르는	-2968
▁난이	-2969
17	-2970
▁you	-2971
▁사는	-2972
▁쿄	-2973
90	-2974
미널	-2975
▁붕	-2976
▁코스	-2977
▁섞	-2978
▁마리	-2979
로드	-2980
▁붉은	-2981
크가	-2982
▁목숨	-2983
▁킬	-2984
▁회피	-2985
ul	-2986
▁전통	-2987
▁잭	-2988
전사	-2989
▁카즈	-2990
▁손을	-2991
▁기존의	-2992
▁뚫	-2993
▁윈	-2994
답게	-2995
▁뛰어	-2996
▁저항	-2997
바람	-2998
▁불과	-2999
▁하나로	-3000
력의	-3001
▁본인의	-3002
▁사정	-3003
▁더블	-3004
▁해석	-3005
▁있었으나	-3006
인과	-3007
▁캐릭터가	-3008
이었고	-3009
▁썼	-3010
▁부대	-3011
▁닮	-3012
▁합류	-3013
▁받는다	-3014
▁본편	-3015
만으로	-3016
kg	-3017
▁행정	-3018
▁2002	-3019
▁딱히	-3020
▁서술	-3021
▁오버	-3022
▁스코	-3023
▁인기가	-3024
▁인식	-3025
▁PC	-3026
▁공략	-3027
사카	-3028
▁지난	-3029
인들이	-3030
▁먹고	-3031
▁부분이	-3032
▁한국의	-3033
▁194	-3034
▁브레이	-3035
▁했고	-3036
▁미국의	-3037
▁장난	-3038
▁Ch	-3039
▁리더	-3040
하니	-3041
▁런	-3042
▁되면서	-3043
기관	-3044
▁몸을	-3045
▁날려	-3046
▁시대	-3047
방을	-3048
보자	-3049
▁거부	-3050
워서	-3051
나와	-3052
▁펜	-3053
▁화염	-3054
플레이	-3055
▁가운데	-3056
▁맺	-3057
▁내에서	-3058
▁인구	-3059
▁엄청나게	-3060
▁판단	-3061
▁vs	-3062
▁프로젝	-3063
▁해군	-3064
해진다	-3065
▁300	-3066
▁적절	-3067
▁장르	-3068
AL	-3069
▁위협	-3070
▁감안	-3071
▁얻어	-3072
▁컨셉	-3073
▁인도	-3074
▁장소	-3075
트와	-3076
▁MBC	-3077
▁멜	-3078
▁범위	-3079
▁차이	-3080
▁도전	-3081
▁컬	-3082
쪽으로	-3083
▁정체	-3084
▁이적	-3085
까지도	-3086
▁모티브	-3087
코의	-3088
▁택	-3089
▁스크	-3090
시키고	-3091
▁철도	-3092
▁카메	-3093
▁쥬	-3094
쳤다	-3095
아이	-3096
▁죽을	-3097
▁꾸준	-3098
역이	-3099
▁어찌	-3100
▁대응	-3101
놓은	-3102
▁앞에서	-3103
지자	-3104
세요	-3105
▁사람의	-3106
▁살인	-3107
한데	-3108
법을	-3109
ter	-3110
▁정규	-3111
▁점은	-3112
▁대놓고	-3113
▁잇	-3114
▁있지	-3115
트에	-3116
▁이와	-3117
▁보병	-3118
라우	-3119
▁관련된	-3120
▁둔	-3121
▁일반적인	-3122
시킨다	-3123
▁든	-3124
었다는	-3125
▁최초로	-3126
RA	-3127
시브	-3128
▁올라가	-3129
▁그려	-3130
지며	-3131
림픽	-3132
▁안전	-3133
소녀	-3134
연히	-3135
▁함정	-3136
▁윌	-3137
▁듀얼	-3138
▁33	-3139
▁상대가	-3140
▁오토	-3141
▁선생	-3142
▁모습으로	-3143
▁사태	-3144
리자	-3145
러가	-3146
▁지닌	-3147
▁트위	-3148
▁보조	-3149
▁상세	-3150
ia	-3151
▁구분	-3152
▁요리	-3153
▁정리	-3154
PC	-3155
코가	-3156
▁확실히	-3157
▁인류	-3158
▁맞아	-3159
EN	-3160
어는	-3161
▁오랜	-3162
70	-3163
이었으나	-3164
마를	-3165
▁겹	-3166
도시	-3167
▁*	-3168
▁진화	-3169
▁반복	-3170
이치	-3171
all	-3172
▁공간	-3173
▁기념	-3174
▁유키	-3175
ap	-3176
▁라이트	-3177
에게도	-3178
▁확장	-3179
요일	-3180
크의	-3181
아의	-3182
경을	-3183
▁마치	-3184
원에서	-3185
▁교통	-3186
▁봉인	-3187
▁그럼	-3188
관을	-3189
▁이유가	-3190
▁명중	-3191
▁시설	-3192
▁기업	-3193
해졌다	-3194
▁어느정도	-3195
AT	-3196
▁셋	-3197
▁나쁘	-3198
였는데	-3199
스럽게	-3200
▁오르	-3201
▁뜬	-3202
1,	-3203
▁데이터	-3204
▁일은	-3205
▁은퇴	-3206
▁앙	-3207
미야	-3208
▁좀비	-3209
▁널	-3210
하므로	-3211
▁주문	-3212
▁착용	-3213
▁꼽	-3214
▁덜	-3215
▁데려	-3216
uby	-3217
▁패러디	-3218
도우	-3219
▁연습	-3220
▁때의	-3221
티어	-3222
▁표시	-3223
▁BG	-3224
▁원래는	-3225
성에	-3226
▁1000	-3227
▁수밖에	-3228
시피	-3229
~2	-3230
카의	-3231
적은	-3232
방에	-3233
우고	-3234
즈가	-3235
▁손에	-3236
하도록	-3237
바이	-3238
▁등에	-3239
▁무사	-3240
▁훌	-3241
▁고속	-3242
▁이후에	-3243
▁앉	-3244
쳐서	-3245
▁거대한	-3246
단히	-3247
졌고	-3248
▁메가	-3249
▁비교적	-3250
▁예전	-3251
▁100%	-3252
▁위치한	-3253
을때	-3254
▁서브	-3255
▁2003	-3256
ack	-3257
▁기술을	-3258
▁이야기가	-3259
▁말았다	-3260
▁평범한	-3261
▁사무	-3262
▁먹는	-3263
▁본인은	-3264
▁재미	-3265
▁체력이	-3266
▁바닥	-3267
▁렌	-3268
시오	-3269
니스	-3270
형이	-3271
그룹	-3272
▁엠	-3273
복을	-3274
▁부른다	-3275
▁밥	-3276
▁스카	-3277
ruby	-3278
제에	-3279
▁포인트	-3280
사이	-3281
▁없기	-3282
리안	-3283
란드	-3284
힌다	-3285
▁원거리	-3286
에서만	-3287
▁불명	-3288
개월	-3289
▁사업	-3290
▁앞서	-3291
자들은	-3292
년이	-3293
마트	-3294
토가	-3295
▁때까지	-3296
▁알려져	-3297
루가	-3298
▁봤	-3299
▁팀의	-3300
모리	-3301
▁밸런	-3302
회가	-3303
자에	-3304
악의	-3305
▁나오고	-3306
▁저격	-3307
이닝	-3308
▁스탠	-3309
▁적극	-3310
▁그레이	-3311
성도	-3312
▁II	-3313
▁병사	-3314
▁아무래도	-3315
률이	-3316
▁마음을	-3317
▁이용한	-3318
화에	-3319
고가	-3320
▁그때	-3321
op	-3322
oc	-3323
▁상처	-3324
▁홈런	-3325
▁흔히	-3326
▁관한	-3327
▁점에서	-3328
키를	-3329
▁36	-3330
▁경기를	-3331
▁공동	-3332
▁상황을	-3333
명으로	-3334
▁돌려	-3335
▁걸로	-3336
터의	-3337
정의	-3338
로부터	-3339
▁요청	-3340
▁요소	-3341
TV	-3342
▁대해서는	-3343
▁뭔가	-3344
▁최초의	-3345
▁게임의	-3346
▁만한	-3347
▁조사	-3348
▁-3	-3349
▁받지	-3350
약을	-3351
▁댄	-3352
▁콤보	-3353
▁확률로	-3354
▁만다	-3355
▁힘들다	-3356
하려는	-3357
▁195	-3358
▁크다	-3359
았고	-3360
▁고대	-3361
방의	-3362
▁지지	-3363
▁이기	-3364
▁시나리오	-3365
▁마침	-3366
▁히트	-3367
▁데스	-3368
타임	-3369
가와	-3370
▁막아	-3371
하게도	-3372
▁단계	-3373
선수	-3374
리트	-3375
성과	-3376
▁갤러	-3377
▁작업	-3378
실을	-3379
토리	-3380
인지라	-3381
▁못한다	-3382
▁어렵다	-3383
▁능력치	-3384
▁잠깐	-3385
▁픽	-3386
구의	-3387
▁로마	-3388
프레	-3389
▁미리	-3390
자들의	-3391
▁눈에	-3392
▁관통	-3393
임에도	-3394
▁그에	-3395
2,	-3396
▁무게	-3397
쪽에	-3398
르기	-3399
정은	-3400
.'	-3401
▁유래	-3402
▁금지	-3403
▁바라	-3404
▁재료	-3405
르트	-3406
이야	-3407
▁승강	-3408
▁라디오	-3409
▁겨우	-3410
▁PS	-3411
▁료	-3412
나를	-3413
트롤	-3414
▁진입	-3415
▁다름	-3416
▁바뀌었다	-3417
▁통과	-3418
▁등등	-3419
▁VS	-3420
질이	-3421
ie	-3422
▁정부	-3423
▁묶	-3424
스에서	-3425
▁대화	-3426
▁만들어진	-3427
▁꼴	-3428
▁뿐이다	-3429
전으로	-3430
▁오프닝	-3431
▁가면라이더	-3432
▁맞고	-3433
▁되기	-3434
이상	-3435
▁넥	-3436
승을	-3437
▁이들은	-3438
▁가슴	-3439
▁일본어	-3440
판에서는	-3441
상태	-3442
▁and	-3443
▁몰아	-3444
▁미친	-3445
▁정의	-3446
:00	-3447
▁엉	-3448
▁멸망	-3449
▁지니	-3450
▁사실은	-3451
▁서버	-3452
▁분리	-3453
▁무너	-3454
▁바꿔	-3455
개가	-3456
▁판타	-3457
▁지옥	-3458
▁No	-3459
▁스포츠	-3460
교육	-3461
▁대비	-3462
▁누군	-3463
▁인기를	-3464
▁방해	-3465
35	-3466
▁중에서도	-3467
▁수준의	-3468
▁노력	-3469
체의	-3470
PS	-3471
▁드라이	-3472
권에서	-3473
▁모험	-3474
▁탑재	-3475
판이	-3476
//	-3477
▁수호	-3478
▁액션	-3479
▁그만	-3480
지역	-3481
▁언론	-3482
▁데이	-3483
▁자신은	-3484
▁거짓	-3485
▁타임	-3486
던가	-3487
분을	-3488
공을	-3489
▁느껴	-3490
▁말고	-3491
시한	-3492
▁1:	-3493
▁젊은	-3494
OR	-3495
▁보급	-3496
▁은근	-3497
▁거리	-3498
▁초반에	-3499
▁육군	-3500
▁보였다	-3501
대표	-3502
▁가게	-3503
용이	-3504
▁고통	-3505
▁바뀐	-3506
▁영입	-3507
▁사용한	-3508
▁선보	-3509
기인	-3510
▁필요가	-3511
▁덩	-3512
▁아쉬	-3513
▁생기	-3514
ate	-3515
타는	-3516
▁개봉	-3517
▁필수	-3518
라와	-3519
▁제압	-3520
조의	-3521
▁보컬	-3522
▁전환	-3523
▁지정	-3524
루스	-3525
▁가정	-3526
IA	-3527
▁적에게	-3528
▁스위	-3529
▁흡수	-3530
사키	-3531
이었지만	-3532
OS	-3533
미는	-3534
▁미사일	-3535
▁어울	-3536
▁비난	-3537
▁쥐	-3538
▁당장	-3539
▁아름	-3540
▁모른다	-3541
▁대답	-3542
르의	-3543
▁설립	-3544
▁끝까지	-3545
▁촉	-3546
▁메탈	-3547
구나	-3548
▁상대를	-3549
▁초대	-3550
▁남편	-3551
▁도움을	-3552
▁34	-3553
▁위에서	-3554
▁불안	-3555
▁이미지	-3556
▁디자	-3557
철도	-3558
▁애매	-3559
▁숲	-3560
▁+1	-3561
라리	-3562
373	-3563
▁넘어가	-3564
차로	-3565
나다	-3566
권이	-3567
▁SP	-3568
▁격투	-3569
▁용병	-3570
▁좁	-3571
▁온갖	-3572
▁사람도	-3573
art	-3574
▁파트	-3575
아웃	-3576
게도	-3577
이에	-3578
▁뱀	-3579
▁유튜	-3580
▁생겨	-3581
▁상대적으로	-3582
▁성향	-3583
▁실력	-3584
▁레이저	-3585
구에	-3586
ill	-3587
▁소울	-3588
▁죽이	-3589
▁그렇다고	-3590
로스	-3591
프의	-3592
화에서는	-3593
▁MP	-3594
먹는	-3595
▁이것이	-3596
▁울트라	-3597
▁걱정	-3598
▁탑승	-3599
▁중심으로	-3600
세의	-3601
자리	-3602
▁형태로	-3603
▁됐	-3604
▁연장	-3605
▁멈	-3606
▁자기가	-3607
▁문제로	-3608
호의	-3609
생활	-3610
▁챙	-3611
dddd	-3612
dddddd	-3613
센터	-3614
▁하나의	-3615
▁모자	-3616
함이	-3617
▁일종의	-3618
토의	-3619
ik	-3620
▁구입	-3621
단에	-3622
줬다	-3623
▁삽	-3624
즈를	-3625
▁마무리	-3626
/2	-3627
▁방패	-3628
▁빔	-3629
제는	-3630
▁유용	-3631
▁위키	-3632
어요	-3633
친다	-3634
▁시민	-3635
▁테마	-3636
▁상대의	-3637
교통	-3638
가로	-3639
▁그다	-3640
▁이후에는	-3641
▁구축	-3642
론을	-3643
▁다음과	-3644
▁앞으로	-3645
▁아오	-3646
▁무기를	-3647
▁자료	-3648
▁멀티	-3649
광역시	-3650
사항	-3651
▁아야	-3652
▁라이벌	-3653
▁아나	-3654
▁생성	-3655
▁38	-3656
▁공화	-3657
▁커뮤	-3658
리면서	-3659
▁주연	-3660
받고	-3661
신은	-3662
▁In	-3663
▁소리를	-3664
▁온라인	-3665
▁경기에서	-3666
▁뿐만	-3667
▁힘이	-3668
와서	-3669
▁보여주는	-3670
▁코너	-3671
차피	-3672
동이	-3673
▁얘기	-3674
▁직전	-3675
▁이전에	-3676
일부터	-3677
▁도로	-3678
년도	-3679
장과	-3680
▁대공	-3681
ED	-3682
▁여름	-3683
안을	-3684
-4	-3685
▁당시에는	-3686
▁태양	-3687
▁에어	-3688
▁페르	-3689
▁쓴다	-3690
기술	-3691
▁궁극	-3692
▁되며	-3693
진의	-3694
▁걸어	-3695
▁황금	-3696
▁잡고	-3697
▁처음부터	-3698
물로	-3699
발을	-3700
▁게시	-3701
▁전술	-3702
▁시내	-3703
지마	-3704
▁2001	-3705
▁희망	-3706
▁깎	-3707
▁배신	-3708
▁보이지	-3709
락을	-3710
히고	-3711
▁궤	-3712
▁제외하고	-3713
▁짧은	-3714
▁에이스	-3715
▁발휘	-3716
▁발언	-3717
▁안타	-3718
▁떨어지는	-3719
▁공통	-3720
AS	-3721
디아	-3722
▁를	-3723
끼리	-3724
상에서	-3725
규모	-3726
▁서비스	-3727
▁광고	-3728
▁때부터	-3729
▁대다	-3730
▁연주	-3731
▁]	-3732
▁광주	-3733
하긴	-3734
▁파이터	-3735
tp	-3736
▁점령	-3737
▁어째	-3738
격이	-3739
▁불리는	-3740
▁클럽	-3741
▁아사	-3742
▁최대한	-3743
▁미나	-3744
▁방어력	-3745
▁늘어나	-3746
르가	-3747
포를	-3748
▁1990	-3749
▁스펙	-3750
%,	-3751
리스트	-3752
▁소비	-3753
사에서	-3754
가능	-3755
▁스킬을	-3756
▁그리스	-3757
하의	-3758
▁거대	-3759
▁유도	-3760
특별	-3761
▁박살	-3762
▁필드	-3763
▁줄어들	-3764
해를	-3765
▁나카	-3766
ast	-3767
▁정보를	-3768
▁밀어	-3769
▁시작한다	-3770
▁한다고	-3771
자들	-3772
이던	-3773
▁끝난	-3774
▁떨어져	-3775
▁150	-3776
▁스케	-3777
▁그럴	-3778
조가	-3779
▁처음에는	-3780
▁제로	-3781
▁자살	-3782
▁속도가	-3783
▁추가로	-3784
▁하기도	-3785
▁문제를	-3786
▁장기	-3787
▁비고	-3788
음이	-3789
전은	-3790
▁실질	-3791
목을	-3792
▁덴	-3793
즈키	-3794
되기도	-3795
정으로	-3796
것이	-3797
http	-3798
▁떨어진	-3799
▁쉬운	-3800
▁그녀를	-3801
▁컨트롤	-3802
▁모아	-3803
▁설계	-3804
▁외모	-3805
▁그다지	-3806
▁을	-3807
▁로드	-3808
할때	-3809
오의	-3810
://	-3811
서가	-3812
▁사이에서	-3813
▁일어난	-3814
▁음식	-3815
▁뒤로	-3816
▁테러	-3817
▁마츠	-3818
▁x	-3819
까지의	-3820
▁논란이	-3821
▁때문인지	-3822
▁업그레이드	-3823
▁한국어	-3824
▁멀리	-3825
품을	-3826
권의	-3827
▁랭크	-3828
바로	-3829
▁조준	-3830
▁포함한	-3831
▁적도	-3832
느냐	-3833
산을	-3834
소년	-3835
▁아시아	-3836
▁말도	-3837
▁게임이	-3838
▁평가를	-3839
▁꾸준히	-3840
었으나	-3841
▁선언	-3842
▁케이스	-3843
파이어	-3844
론이	-3845
▁떡밥	-3846
▁없게	-3847
사건	-3848
▁하나가	-3849
▁중이다	-3850
▁곳에	-3851
다이	-3852
▁이쪽은	-3853
위의	-3854
▁개최	-3855
▁눈을	-3856
▁캔	-3857
▁무서	-3858
▁그것도	-3859
▁물어	-3860
▁부담	-3861
▁살짝	-3862
호는	-3863
적이고	-3864
▁고등학교	-3865
▁존재하는	-3866
▁어쩔	-3867
▁추가된	-3868
▁세계관	-3869
▁혁	-3870
▁게이	-3871
▁그게	-3872
▁어차피	-3873
▁혐	-3874
족의	-3875
▁임무	-3876
▁사람들	-3877
▁37	-3878
▁방문	-3879
▁측면	-3880
였다고	-3881
▁바탕	-3882
▁나오는데	-3883
▁나누	-3884
▁Re	-3885
자키	-3886
▁있긴	-3887
스킬	-3888
▁습격	-3889
▁머리를	-3890
회에서	-3891
▁크리	-3892
▁골드	-3893
▁마르	-3894
▁재생	-3895
석이	-3896
▁핸	-3897
▁주력	-3898
▁사과	-3899
▁플라	-3900
잖아	-3901
▁경유	-3902
▁폭탄	-3903
▁로켓	-3904
▁비하면	-3905
있던	-3906
기만	-3907
▁솔로	-3908
▁확보	-3909
▁끝내	-3910
▁이것은	-3911
▁에너지	-3912
대에서	-3913
▁집에	-3914
LC	-3915
▁없으며	-3916
시리즈	-3917
▁둘이	-3918
▁개편	-3919
먼트	-3920
▁상황에	-3921
▁75	-3922
▁여러가지	-3923
유키	-3924
▁강제	-3925
세트	-3926
석을	-3927
▁낳	-3928
▁이상한	-3929
마을	-3930
악한	-3931
/0	-3932
▁훌륭	-3933
▁i	-3934
▁진영	-3935
▁못해	-3936
ab	-3937
어져	-3938
▁않기	-3939
▁틈	-3940
량의	-3941
▁마법사	-3942
하러	-3943
▁내부	-3944
▁중간에	-3945
▁납치	-3946
▁모션	-3947
▁숨겨	-3948
마법	-3949
▁내용이	-3950
▁들어가는	-3951
▁정말로	-3952
▁레전	-3953
토를	-3954
▁받아들	-3955
▁사건이	-3956
▁않아서	-3957
▁도움이	-3958
▁컴퓨터	-3959
▁세트	-3960
▁누가	-3961
렸고	-3962
구는	-3963
▁여행	-3964
▁약한	-3965
▁시점에서	-3966
심히	-3967
▁투표	-3968
렀다	-3969
달라고	-3970
▁효율	-3971
▁일부러	-3972
드라	-3973
▁타이밍	-3974
▁팀이	-3975
▁자신에게	-3976
타의	-3977
▁반영	-3978
판의	-3979
▁인생	-3980
▁삶	-3981
▁지적	-3982
ue	-3983
▁=	-3984
▁데미지가	-3985
운동	-3986
▁트레이	-3987
으로부터	-3988
시스	-3989
▁했다고	-3990
▁때려	-3991
▁나쁜	-3992
▁등록	-3993
▁아라	-3994
▁갓	-3995
▁채널	-3996
▁프로듀	-3997
▁이름의	-3998
정에	-3999
▁명의	-4000
▁트랙	-4001
오가	-4002
판은	-4003
이긴	-4004
▁습득	-4005
▁어쨌	-4006
▁정도는	-4007
▁폰	-4008
▁따른	-4009
▁있으므로	-4010
▁안되는	-4011
년간	-4012
▁퓨	-4013
각을	-4014
▁탄생	-4015
▁않으며	-4016
▁스트라이	-4017
▁편집	-4018
주면	-4019
피아	-4020
AM	-4021
구로	-4022
▁왕국	-4023
▁유희	-4024
▁2020	-4025
▁길을	-4026
▁SBS	-4027
▁아케	-4028
체로	-4029
▁많았다	-4030
▁쓰지	-4031
▁이스	-4032
▁공격력이	-4033
되었는데	-4034
▁상태가	-4035
년의	-4036
일의	-4037
▁오는	-4038
▁만들었다	-4039
은행	-4040
▁밝혔다	-4041
EC	-4042
급의	-4043
계에	-4044
도와	-4045
되는데	-4046
▁한때	-4047
거리가	-4048
회에	-4049
▁선정	-4050
▁의한	-4051
▁Sh	-4052
▁생물	-4053
▁쏟	-4054
스트로	-4055
▁분야	-4056
리나	-4057
▁약속	-4058
▁실제로는	-4059
우의	-4060
▁거두	-4061
▁99	-4062
▁ST	-4063
▁단점	-4064
든가	-4065
▁외에	-4066
▁레인	-4067
▁닥터	-4068
▁덕에	-4069
▁관광	-4070
▁알렉	-4071
▁시작한	-4072
▁창작	-4073
▁설득	-4074
화로	-4075
▁거절	-4076
비의	-4077
웠다	-4078
▁55	-4079
▁나루	-4080
▁프로토	-4081
만은	-4082
로서의	-4083
▁연예	-4084
식의	-4085
▁비록	-4086
▁허용	-4087
시와	-4088
▁본선	-4089
었으며	-4090
▁간다	-4091
▁광역	-4092
면서도	-4093
마스	-4094
▁원하는	-4095
▁내용을	-4096
▁알려진	-4097
▁그것을	-4098
▁지하철	-4099
성으로	-4100
▁아웃	-4101
텐츠	-4102
▁2:	-4103
▁노멀	-4104
ard	-4105
▁올림픽	-4106
긴다	-4107
▁단독	-4108
▁그만큼	-4109
▁뒤집	-4110
▁정책	-4111
▁콩	-4112
▁떼	-4113
▁그런지	-4114
▁중단	-4115
▁놓고	-4116
▁늘어	-4117
▁원정	-4118
▁동맹	-4119
루의	-4120
▁개선	-4121
보스	-4122
▁들어서	-4123
하기에	-4124
▁유튜브	-4125
드리	-4126
았지만	-4127
up	-4128
~3	-4129
▁생각하는	-4130
▁부상	-4131
▁초월	-4132
▁자이	-4133
▁열린	-4134
기에는	-4135
▁대한민국의	-4136
자에게	-4137
▁완료	-4138
랐다	-4139
오카	-4140
▁베이스	-4141
▁보자	-4142
▁카페	-4143
▁파일럿	-4144
▁커버	-4145
판에	-4146
▁룰	-4147
▁후쿠	-4148
▁하나를	-4149
시켰다	-4150
▁입은	-4151
▁셰	-4152
스팅	-4153
▁북미	-4154
▁거주	-4155
▁계산	-4156
▁48	-4157
ea	-4158
▁연계	-4159
▁활동을	-4160
▁황제	-4161
▁맡은	-4162
▁미드	-4163
보단	-4164
방이	-4165
▁내구	-4166
▁낚	-4167
았는데	-4168
였으며	-4169
년까지	-4170
▁작성	-4171
▁사람들을	-4172
았다고	-4173
AC	-4174
▁카드가	-4175
▁들어간	-4176
▁인간의	-4177
▁대장	-4178
▁선배	-4179
스포	-4180
수와	-4181
▁수리	-4182
▁세력	-4183
▁미야	-4184
▁말해	-4185
▁싸우는	-4186
치지	-4187
▁CD	-4188
▁들어오	-4189
▁스페인	-4190
▁의미가	-4191
▁#373	-4192
▁왼쪽	-4193
▁갱	-4194
▁테크	-4195
▁차례	-4196
만원	-4197
▁포르	-4198
▁버튼	-4199
▁의심	-4200
▁스탯	-4201
▁경기도	-4202
▁융	-4203
24	-4204
수에	-4205
▁메이저	-4206
▁3,	-4207
▁당시의	-4208
들이다	-4209
▁집안	-4210
▁많고	-4211
▁쓰러뜨	-4212
-5	-4213
라기	-4214
ine	-4215
▁계급	-4216
▁하다가	-4217
▁암흑	-4218
군에	-4219
▁수요	-4220
▁쓰이는	-4221
▁디스	-4222
▁샌	-4223
디션	-4224
▁방식으로	-4225
▁가이	-4226
▁우려	-4227
▁제조	-4228
▁눈치	-4229
▁확률이	-4230
▁주인공이	-4231
▁보상	-4232
▁부분은	-4233
▁사령	-4234
▁와중에	-4235
▁막장	-4236
▁혼란	-4237
▁마지막으로	-4238
▁2.	-4239
▁더빙	-4240
ind	-4241
▁종합	-4242
무기	-4243
등장	-4244
▁거쳐	-4245
▁속에서	-4246
했다가	-4247
▁Sp	-4248
▁여동생	-4249
OL	-4250
ant	-4251
마리	-4252
시장	-4253
▁히로인	-4254
았을	-4255
받아	-4256
니가	-4257
▁사상	-4258
▁이사	-4259
▁이후로는	-4260
▁있습니다	-4261
▁토모	-4262
▁쓰면	-4263
▁타케	-4264
▁인사	-4265
▁없었던	-4266
PG	-4267
▁구단	-4268
▁싶은	-4269
▁붕괴	-4270
▁무력	-4271
▁건너	-4272
▁붙잡	-4273
▁열심히	-4274
효과	-4275
▁괴물	-4276
타입	-4277
▁루트	-4278
▁You	-4279
▁혜	-4280
부대	-4281
▁동방	-4282
ers	-4283
▁드립	-4284
▁수준으로	-4285
▁커뮤니티	-4286
▁or	-4287
▁NPC	-4288
▁캐릭터의	-4289
▁다니는	-4290
▁겁	-4291
님이	-4292
▁만들고	-4293
▁기획	-4294
▁핑	-4295
이었는데	-4296
▁찰	-4297
량은	-4298
▁않았고	-4299
스카	-4300
▁화살	-4301
ct	-4302
▁거기다	-4303
▁커맨	-4304
▁패시브	-4305
▁둘러	-4306
로봇	-4307
▁뛰어나	-4308
▁공주	-4309
▁사항	-4310
▁득점	-4311
▁해적	-4312
▁여러모로	-4313
▁클로	-4314
▁기절	-4315
▁장점	-4316
전에서는	-4317
▁Bl	-4318
▁전자	-4319
말을	-4320
▁돌격	-4321
▁반란	-4322
자들을	-4323
▁충돌	-4324
▁서포	-4325
▁대륙	-4326
▁스페셜	-4327
▁랜덤	-4328
▁강조	-4329
▁BGM	-4330
▁동일한	-4331
▁책임	-4332
색이	-4333
▁해설	-4334
▁버프	-4335
▁파이어	-4336
▁래	-4337
▁그렇지	-4338
▁고민	-4339
▁1999	-4340
▁다행히	-4341
▁1.	-4342
▁제법	-4343
▁것이라	-4344
▁아이템을	-4345
▁출발	-4346
일은	-4347
▁수원	-4348
▁마녀	-4349
▁신뢰	-4350
하지는	-4351
▁팀을	-4352
▁갑옷	-4353
▁핀	-4354
▁와서	-4355
▁역으로	-4356
▁42	-4357
▁이들이	-4358
▁밟	-4359
▁작전	-4360
▁뮤직	-4361
▁오리	-4362
▁재능	-4363
▁어디까지	-4364
▁쪽이	-4365
▁유명하다	-4366
▁끔	-4367
▁MS	-4368
▁뽑아	-4369
one	-4370
▁후지	-4371
▁고급	-4372
▁여겨	-4373
들에게는	-4374
▁아닐	-4375
▁격파	-4376
▁겨울	-4377
전대	-4378
▁춤	-4379
▁달러	-4380
해주는	-4381
▁정령	-4382
버리고	-4383
리다	-4384
ip	-4385
▁성적	-4386
▁얻은	-4387
▁하던	-4388
해져	-4389
IT	-4390
해지는	-4391
기에서	-4392
▁CP	-4393
▁실행	-4394
▁카나	-4395
▁플레이어가	-4396
우를	-4397
▁39	-4398
▁증거	-4399
조를	-4400
히로	-4401
▁가드	-4402
▁절반	-4403
▁아머	-4404
▁하위	-4405
▁행복	-4406
▁두번째	-4407
▁버티	-4408
▁이슬	-4409
왕이	-4410
사인	-4411
과학	-4412
리언	-4413
루를	-4414
선으로	-4415
▁지명	-4416
▁귀족	-4417
▁의도	-4418
▁짤	-4419
없다	-4420
▁말한	-4421
▁부터	-4422
▁그래픽	-4423
▁후속작	-4424
▁릴	-4425
▁흰	-4426
나무	-4427
▁러브	-4428
▁붙여	-4429
▁형제	-4430
▁사실이	-4431
▁코스트	-4432
▁활약을	-4433
▁내내	-4434
▁당황	-4435
▁옛날	-4436
▁해주	-4437
▁옆에	-4438
▁정확히	-4439
▁걸려	-4440
▁그녀가	-4441
▁미츠	-4442
▁고생	-4443
ang	-4444
HE	-4445
체는	-4446
▁밀려	-4447
속성	-4448
▁되자	-4449
▁쿠로	-4450
▁얼굴을	-4451
등을	-4452
▁한계	-4453
▁개통	-4454
주년	-4455
▁퀄	-4456
증을	-4457
▁사용하면	-4458
▁필요하다	-4459
▁쓰레	-4460
▁마도	-4461
▁싶어	-4462
▁근거	-4463
▁돌파	-4464
▁비용	-4465
▁http	-4466
▁행동을	-4467
▁이래	-4468
▁연애	-4469
▁죽는	-4470
역에서	-4471
▁승리를	-4472
웨이	-4473
▁바르	-4474
치에	-4475
▁순식	-4476
▁대미지	-4477
국이	-4478
▁맡았다	-4479
▁하나인	-4480
스에게	-4481
▁마지막에	-4482
▁위로	-4483
▁오로	-4484
▁1998	-4485
운다	-4486
▁응원	-4487
▁안드로	-4488
▁아무도	-4489
까지만	-4490
▁만난	-4491
▁네이버	-4492
▁아침	-4493
리티컬	-4494
▁얼음	-4495
점에서	-4496
▁공격이	-4497
▁추정된다	-4498
▁캐릭터를	-4499
▁폭풍	-4500
▁자체를	-4501
▁했을	-4502
화는	-4503
텔레	-4504
▁두산	-4505
▁못할	-4506
▁핵심	-4507
▁것이라는	-4508
▁전체적으로	-4509
▁생겼다	-4510
▁난이도가	-4511
▁역전	-4512
일로	-4513
▁아메	-4514
▁갖추	-4515
류가	-4516
렸을	-4517
▁드물	-4518
FA	-4519
형의	-4520
▁판타지	-4521
▁사이가	-4522
▁벗어나	-4523
▁출처	-4524
사람	-4525
패를	-4526
▁살고	-4527
카를	-4528
주인	-4529
ell	-4530
▁크로스	-4531
▁카운터	-4532
▁비슷하게	-4533
▁50%	-4534
▁치고	-4535
▁아무런	-4536
▁데리고	-4537
▁받게	-4538
▁동네	-4539
▁고유	-4540
▁목숨을	-4541
▁성능이	-4542
보기	-4543
▁겐	-4544
▁신의	-4545
▁한데	-4546
▁파악	-4547
▁언어	-4548
▁가로	-4549
▁페이	-4550
▁동영	-4551
▁있도록	-4552
ist	-4553
▁화려	-4554
▁선호	-4555
▁해금	-4556
▁일반적으로	-4557
▁순식간에	-4558
▁추가되었다	-4559
▁비중이	-4560
관계	-4561
비는	-4562
▁아프리카	-4563
▁파이널	-4564
가락	-4565
▁코드	-4566
거리는	-4567
▁만족	-4568
▁템	-4569
▁몹	-4570
동차	-4571
▁AT	-4572
정보	-4573
하기로	-4574
▁120	-4575
▁가입	-4576
▁가깝다	-4577
▁모습은	-4578
전투	-4579
▁민간	-4580
▁정당	-4581
'.	-4582
▁해제	-4583
▁후에는	-4584
▁순위	-4585
▁묵	-4586
시고	-4587
되자	-4588
버리	-4589
▁게이지	-4590
▁요즘	-4591
대와	-4592
▁이후의	-4593
▁추락	-4594
▁채용	-4595
▁밴드	-4596
▁덧	-4597
▁지급	-4598
▁들이	-4599
if	-4600
▁집단	-4601
원들이	-4602
▁명예	-4603
▁동아	-4604
▁단어	-4605
▁짝	-4606
▁최악의	-4607
▁불꽃	-4608
▁댓	-4609
▁수입	-4610
가에	-4611
▁아직도	-4612
▁오른쪽	-4613
▁정류	-4614
▁채로	-4615
▁불편	-4616
▁학원	-4617
▁혼자서	-4618
100	-4619
3,	-4620
▁등장했다	-4621
시간이	-4622
▁괜찮은	-4623
▁형성	-4624
▁크리티컬	-4625
▁속에	-4626
스트라	-4627
▁보여준	-4628
▁본격적으로	-4629
▁늑	-4630
▁엑스	-4631
MA	-4632
▁향해	-4633
더라	-4634
권에	-4635
▁홍보	-4636
되었던	-4637
▁견제	-4638
▁쏟아	-4639
▁소멸	-4640
45	-4641
▁넣어	-4642
▁쓰인다	-4643
▁회전	-4644
별로	-4645
디로	-4646
▁되돌	-4647
▁죽여	-4648
ort	-4649
▁드디어	-4650
▁마이크	-4651
병을	-4652
것을	-4653
지컬	-4654
▁상향	-4655
▁대체로	-4656
▁의식	-4657
▁몰래	-4658
▁작중에서	-4659
oo	-4660
력에	-4661
저히	-4662
▁말이다	-4663
전차	-4664
▁마련	-4665
▁가까이	-4666
▁주먹	-4667
99	-4668
▁노동	-4669
▁양산	-4670
▁덮	-4671
▁복잡	-4672
면을	-4673
▁바탕으로	-4674
▁패치로	-4675
ive	-4676
▁저그	-4677
▁왠	-4678
▁심각한	-4679
▁시티	-4680
메이크	-4681
▁봄	-4682
▁떠올	-4683
▁김성	-4684
▁말할	-4685
▁노출	-4686
ld	-4687
▁st	-4688
▁크레	-4689
▁한마	-4690
민주	-4691
▁당한	-4692
▁AP	-4693
▁코믹스	-4694
▁에스	-4695
▁내에	-4696
▁노트	-4697
▁이들	-4698
▁어지	-4699
터리	-4700
ee	-4701
▁년	-4702
▁클리	-4703
▁이승	-4704
▁국회의	-4705
오프	-4706
▁연사	-4707
▁하야	-4708
▁대로	-4709
▁아티	-4710
VE	-4711
▁르	-4712
▁설정이	-4713
▁최후의	-4714
▁화이트	-4715
▁방법이	-4716
공항	-4717
▁시야	-4718
▁겉	-4719
▁초창	-4720
▁즉시	-4721
▁공을	-4722
▁그들의	-4723
▁10%	-4724
술사	-4725
▁구현	-4726
▁캐릭터로	-4727
▁걷	-4728
편에서	-4729
▁규모	-4730
▁눈이	-4731
▁수치	-4732
▁돌아오	-4733
.10	-4734
▁1997	-4735
▁스파이	-4736
력도	-4737
▁현재의	-4738
▁롱	-4739
머리	-4740
▁사토	-4741
마저도	-4742
▁곳에서	-4743
▁본인도	-4744
▁공항	-4745
문의	-4746
▁진정한	-4747
▁먹을	-4748
▁제시	-4749
▁표준	-4750
▁단지	-4751
서의	-4752
▁전직	-4753
▁노래를	-4754
21	-4755
▁계승	-4756
▁그동안	-4757
ss	-4758
짜리	-4759
구역	-4760
▁Al	-4761
▁동원	-4762
▁Th	-4763
선에	-4764
▁어드	-4765
▁출현	-4766
군과	-4767
▁못하게	-4768
▁똑같은	-4769
당하고	-4770
▁최강의	-4771
▁검색	-4772
▁출생	-4773
▁44	-4774
ove	-4775
▁부족한	-4776
▁사거리	-4777
▁쪽으로	-4778
▁커플	-4779
▁성인	-4780
문화	-4781
▁예외	-4782
▁위해서는	-4783
▁목적	-4784
▁나름대로	-4785
▁복수	-4786
형으로	-4787
▁정도가	-4788
점에	-4789
시절	-4790
▁트위터	-4791
▁최상	-4792
▁입장에서는	-4793
▁몸에	-4794
▁말했다	-4795
인간	-4796
▁생겼	-4797
▁하니	-4798
▁리메이크	-4799
▁편이	-4800
즈는	-4801
▁됐다	-4802
▁붙은	-4803
▁등에서	-4804
으려	-4805
▁가득	-4806
드립	-4807
▁어디까지나	-4808
▁건강	-4809
▁영원	-4810
▁자리에	-4811
항공	-4812
▁참전	-4813
▁오해	-4814
▁학살	-4815
데미	-4816
RE	-4817
est	-4818
▁스프	-4819
기간	-4820
야구	-4821
▁소닉	-4822
▁드랍	-4823
코는	-4824
▁말은	-4825
▁똑같이	-4826
디언	-4827
▁에서	-4828
▁한자	-4829
아파트	-4830
▁랭	-4831
▁엮	-4832
▁팬들은	-4833
오를	-4834
▁조용	-4835
▁주어	-4836
▁서울특별	-4837
▁닿	-4838
▁이거	-4839
당하는	-4840
com	-4841
워드	-4842
▁몸이	-4843
▁어쩌	-4844
eat	-4845
▁베르	-4846
▁부분을	-4847
▁익숙	-4848
▁지금까지	-4849
▁근육	-4850
▁프로젝트	-4851
차전	-4852
▁없애	-4853
▁언제나	-4854
▁경계	-4855
▁횟	-4856
▁이것을	-4857
하시	-4858
▁은근히	-4859
▁집어	-4860
▁대폭	-4861
크는	-4862
▁1980	-4863
▁블러	-4864
▁고전	-4865
▁곳이	-4866
▁적어도	-4867
사관	-4868
▁기어	-4869
▁뉴욕	-4870
.11	-4871
▁국가대표	-4872
▁만든다	-4873
▁간혹	-4874
▁공유	-4875
골을	-4876
츠키	-4877
▁폭주	-4878
▁되찾	-4879
물의	-4880
기지	-4881
▁유저들이	-4882
▁센터	-4883
▁통일	-4884
▁안된다	-4885
하였으며	-4886
▁불가능하다	-4887
번호	-4888
▁된다는	-4889
▁한화	-4890
로로	-4891
▁작품의	-4892
줘야	-4893
▁성격이	-4894
▁것이었다	-4895
▁비슷하다	-4896
▁통해서	-4897
▁해병	-4898
▁갤럭	-4899
▁샘	-4900
▁권총	-4901
▁별명	-4902
우리	-4903
▁두려	-4904
▁마주	-4905
방어	-4906
라이언	-4907
▁삼국지	-4908
할수	-4909
▁정글	-4910
브를	-4911
피스	-4912
장인	-4913
▁400	-4914
ong	-4915
▁무적	-4916
▁있었다고	-4917
▁열차	-4918
▁프리큐	-4919
▁계속해서	-4920
▁팝	-4921
▁무난	-4922
▁스마트	-4923
▁사건을	-4924
▁외계	-4925
▁크루	-4926
▁조금씩	-4927
▁돌진	-4928
▁트레	-4929
▁구출	-4930
▁어쨌든	-4931
▁다수	-4932
▁절망	-4933
▁올리	-4934
▁보이고	-4935
▁브랜드	-4936
▁맞다	-4937
▁압박	-4938
▁랩	-4939
▁쇠	-4940
▁때가	-4941
ith	-4942
▁의견이	-4943
▁셔	-4944
▁정확히는	-4945
▁위기에	-4946
▁첫번째	-4947
▁해체	-4948
ne	-4949
▁KO	-4950
23	-4951
▁시키	-4952
▁43	-4953
▁이후에도	-4954
▁변형	-4955
500	-4956
▁놀라	-4957
▁마음에	-4958
▁생각을	-4959
▁넘는	-4960
▁모리	-4961
▁무엇보다	-4962
▁제안	-4963
▁취소	-4964
▁어둠의	-4965
▁47	-4966
▁알파	-4967
▁오빠	-4968
▁일도	-4969
조리	-4970
▁팬들이	-4971
당이	-4972
▁요괴	-4973
▁가리	-4974
▁훔	-4975
▁진지	-4976
▁NC	-4977
라이트	-4978
치와	-4979
▁하더라도	-4980
▁근무	-4981
▁DLC	-4982
편의	-4983
▁보너스	-4984
▁효과는	-4985
▁SS	-4986
▁갈아	-4987
류를	-4988
사랑	-4989
▁있어야	-4990
▁방향으로	-4991
▁심한	-4992
ain	-4993
야의	-4994
PM	-4995
▁자원	-4996
무원	-4997
▁조각	-4998
▁자동차	-4999
/3	-5000
니어	-5001
▁프린	-5002
▁감독이	-5003
▁운전	-5004
▁빨간	-5005
으론	-5006
다니는	-5007
다보니	-5008
▁히데	-5009
▁전함	-5010
▁처치	-5011
▁실시	-5012
▁값	-5013
니의	-5014
▁깃	-5015
▁말하면	-5016
▁많아서	-5017
▁해당하는	-5018
▁나나	-5019
▁푸른	-5020
마루	-5021
▁되지만	-5022
▁조정	-5023
▁00	-5024
거운	-5025
▁전투에서	-5026
▁레오	-5027
▁연상	-5028
end	-5029
▁아무것도	-5030
안타	-5031
▁관계가	-5032
▁메카	-5033
스트를	-5034
▁프리미	-5035
▁선수가	-5036
▁샷	-5037
▁시행	-5038
▁극단	-5039
▁텍	-5040
미와	-5041
▁때에는	-5042
▁전투를	-5043
▁하거나	-5044
▁살려	-5045
▁1996	-5046
▁기술이	-5047
번에	-5048
▁인지	-5049
▁어깨	-5050
▁자이언	-5051
▁락	-5052
에다	-5053
▁얻는	-5054
이라며	-5055
▁3.	-5056
되었으나	-5057
▁피아	-5058
▁키리	-5059
학을	-5060
▁64	-5061
▁나와서	-5062
▁대략	-5063
▁크고	-5064
▁카르	-5065
해졌	-5066
톨릭	-5067
▁거래	-5068
▁이시	-5069
보가	-5070
지원	-5071
▁신인	-5072
▁지나치게	-5073
▁3:	-5074
했었다	-5075
▁오픈	-5076
▁의사	-5077
러운	-5078
▁하필	-5079
▁거리가	-5080
리아의	-5081
▁정도다	-5082
▁DJ	-5083
▁요새	-5084
▁달아	-5085
▁브라질	-5086
▁전형	-5087
▁내는	-5088
중한	-5089
▁성능을	-5090
▁인상	-5091
작을	-5092
▁사람들의	-5093
▁통신	-5094
▁보여주었다	-5095
▁유령	-5096
▁환승	-5097
▁그것이	-5098
▁능력은	-5099
▁많은데	-5100
▁이들의	-5101
▁스타크래프트	-5102
▁맞이	-5103
▁테이	-5104
▁이르	-5105
진은	-5106
▁기습	-5107
▁대립	-5108
업이	-5109
22	-5110
부와	-5111
FC	-5112
비트	-5113
▁귀여	-5114
지는데	-5115
▁대학교	-5116
▁해방	-5117
▁공산	-5118
▁46	-5119
BO	-5120
연합	-5121
▁통한	-5122
▁관심을	-5123
▁대부분이	-5124
▁빠진	-5125
선은	-5126
▁1.5	-5127
장한	-5128
▁착각	-5129
▁라이더	-5130
당히	-5131
▁맡고	-5132
▁중에서는	-5133
▁독자	-5134
▁족	-5135
se	-5136
▁관계로	-5137
▁멀쩡	-5138
▁다리	-5139
▁댓글	-5140
▁지금도	-5141
독교	-5142
▁리버	-5143
구치	-5144
쟁이	-5145
▁추적	-5146
병이	-5147
▁넓은	-5148
▁투자	-5149
▁풀어	-5150
▁장교	-5151
▁주도	-5152
▁플레	-5153
▁점수	-5154
▁자신과	-5155
▁막기	-5156
▁빵	-5157
서관	-5158
▁장애	-5159
▁단순한	-5160
▁체육	-5161
▁아니었다	-5162
사용	-5163
▁감염	-5164
▁그에게	-5165
선에서	-5166
▁느낌이	-5167
▁차라리	-5168
▁테란	-5169
실에	-5170
▁지니고	-5171
▁작동	-5172
▁군단	-5173
메이	-5174
▁MAX	-5175
▁죄다	-5176
▁방법을	-5177
▁없으니	-5178
▁An	-5179
대장	-5180
▁무료	-5181
▁아버지가	-5182
▁프라	-5183
▁KT	-5184
▁보이며	-5185
▁주목	-5186
▁도중에	-5187
▁대사를	-5188
▁낭	-5189
▁흘러	-5190
▁증명	-5191
▁왔다	-5192
▁헤어	-5193
트남	-5194
널티	-5195
지않	-5196
▁강철	-5197
▁같지만	-5198
▁제국의	-5199
화되어	-5200
▁그럼에도	-5201
▁변경되었다	-5202
공의	-5203
경이	-5204
▁구해	-5205
하기는	-5206
▁잠수	-5207
시설	-5208
.12	-5209
▁달린	-5210
▁그랬	-5211
▁쾌	-5212
브리	-5213
▁델	-5214
였다는	-5215
▁호평	-5216
▁던져	-5217
IS	-5218
▁문을	-5219
▁괴롭	-5220
카는	-5221
링을	-5222
내기	-5223
▁곡을	-5224
▁튜	-5225
▁너무나	-5226
▁세계의	-5227
▁아바	-5228
판에서	-5229
▁알겠지만	-5230
스턴	-5231
마는	-5232
▁1995	-5233
▁꺾	-5234
▁나의	-5235
▁그곳	-5236
▁서양	-5237
중인	-5238
프는	-5239
▁모바	-5240
▁되어서	-5241
라에	-5242
슬러	-5243
▁마법을	-5244
제한	-5245
시안	-5246
▁사진을	-5247
▁단체	-5248
▁헤드	-5249
ly	-5250
▁마구	-5251
었기	-5252
해보	-5253
▁전원	-5254
▁마인	-5255
▁개의	-5256
▁공군	-5257
▁추가바람	-5258
▁소리가	-5259
▁반응을	-5260
연이	-5261
타이	-5262
▁고양이	-5263
▁싸울	-5264
▁아우	-5265
▁걸린	-5266
▁한동안	-5267
▁줄어	-5268
작의	-5269
▁눌	-5270
▁뒤를	-5271
시코	-5272
▁폼	-5273
▁없는데	-5274
▁관계를	-5275
실이	-5276
▁고향	-5277
▁제이	-5278
▁공부	-5279
▁행적	-5280
▁고백	-5281
▁중화	-5282
▁이슬람	-5283
묘한	-5284
▁대충	-5285
▁그녀는	-5286
▁없으면	-5287
▁비해서	-5288
면에	-5289
등급	-5290
▁65	-5291
▁거야	-5292
환이	-5293
▁옮겨	-5294
▁않았지만	-5295
▁우승을	-5296
고의	-5297
▁스킬이	-5298
▁긍	-5299
▁낮아	-5300
▁퀸	-5301
▁곰	-5302
▁기억을	-5303
단으로	-5304
형은	-5305
▁노예	-5306
▁그와	-5307
▁행사	-5308
▁빡	-5309
▁차별	-5310
▁당선	-5311
▁AK	-5312
격으로	-5313
▁유행	-5314
▁헌터	-5315
▁이식	-5316
▁폐지	-5317
▁만에	-5318
▁포인	-5319
▁똑같	-5320
▁카미	-5321
▁어떻게든	-5322
▁않아도	-5323
▁쉽다	-5324
▁소프트	-5325
주시	-5326
▁예능	-5327
▁교수	-5328
▁JR	-5329
▁상품	-5330
▁글로	-5331
▁아리	-5332
▁AC	-5333
▁편의	-5334
들과는	-5335
▁중인	-5336
았으나	-5337
▁튀어나	-5338
▁단일	-5339
▁쓰기	-5340
▁물러	-5341
▁번호	-5342
▁않았던	-5343
과도	-5344
▁보이지만	-5345
▁섹	-5346
당의	-5347
▁특이한	-5348
인들은	-5349
▁하나는	-5350
▁펀	-5351
▁수송	-5352
.25	-5353
▁주지	-5354
▁화장	-5355
▁06	-5356
▁스튜	-5357
▁신규	-5358
하면서도	-5359
▁모으	-5360
이게	-5361
▁깊은	-5362
▁몰려	-5363
▁흠	-5364
ore	-5365
▁스카이	-5366
▁중에는	-5367
전자	-5368
▁써서	-5369
▁보수	-5370
▁07	-5371
▁흔들	-5372
조차도	-5373
▁마크	-5374
▁강하다	-5375
법이	-5376
▁US	-5377
▁니시	-5378
▁우리가	-5379
▁블로그	-5380
유가	-5381
▁전철	-5382
당한다	-5383
▁사람들도	-5384
주지	-5385
▁사운드	-5386
▁글을	-5387
▁05	-5388
▁충전	-5389
▁빠르	-5390
인에게	-5391
▁잡는	-5392
▁안에서	-5393
▁목적으로	-5394
▁이뤄	-5395
▁193	-5396
▁입학	-5397
▁레전드	-5398
▁여왕	-5399
▁옹	-5400
▁매직	-5401
스키	-5402
▁세월	-5403
▁버리고	-5404
▁조심	-5405
라노	-5406
▁썩	-5407
▁자랑한다	-5408
베르	-5409
▁생각하고	-5410
▁산업	-5411
▁없었고	-5412
레이터	-5413
▁들은	-5414
▁흥행	-5415
▁경향이	-5416
▁이용하여	-5417
▁서울특별시	-5418
ry	-5419
▁판정	-5420
▁몬스터를	-5421
▁이성	-5422
▁합체	-5423
▁타이거	-5424
▁추진	-5425
▁섭	-5426
▁디지몬	-5427
▁분위기	-5428
아를	-5429
인지는	-5430
▁위험한	-5431
▁영문	-5432
▁01	-5433
▁작가가	-5434
▁외에는	-5435
트맨	-5436
▁꺼내	-5437
▁넘겨	-5438
▁써먹	-5439
▁비싸	-5440
▁전달	-5441
▁협력	-5442
og	-5443
▁달고	-5444
파를	-5445
▁모양이다	-5446
미네	-5447
▁경영	-5448
어리	-5449
▁행성	-5450
종이	-5451
의가	-5452
VP	-5453
▁관객	-5454
26	-5455
▁최소한	-5456
메달	-5457
만큼은	-5458
▁THE	-5459
▁거라고	-5460
당해	-5461
▁다룬	-5462
▁음반	-5463
했는지	-5464
▁언니	-5465
▁홍콩	-5466
▁필살기	-5467
▁분석	-5468
되었지만	-5469
▁명이	-5470
▁수련	-5471
남도	-5472
▁나뉘	-5473
▁닉	-5474
▁대표적으로	-5475
▁더더	-5476
색으로	-5477
고로	-5478
▁파란	-5479
▁위치를	-5480
이었다고	-5481
▁생일	-5482
그래	-5483
▁가볍	-5484
28	-5485
▁네오	-5486
▁20%	-5487
▁편성	-5488
실한	-5489
▁는	-5490
론의	-5491
▁인근	-5492
선거	-5493
였기	-5494
▁저주	-5495
츠의	-5496
친구	-5497
역의	-5498
▁다가	-5499
▁인간이	-5500
▁입력	-5501
인인	-5502
▁오랫	-5503
▁돌아온	-5504
▁낸	-5505
▁현지	-5506
식은	-5507
▁부진	-5508
▁있기에	-5509
▁1994	-5510
▁대개	-5511
▁베어	-5512
▁가톨릭	-5513
▁어지간	-5514
▁훗	-5515
소의	-5516
▁이득	-5517
▁컷	-5518
영화	-5519
가고	-5520
▁스폰	-5521
하는게	-5522
27	-5523
정부	-5524
▁파트너	-5525
▁조절	-5526
▁순서	-5527
▁서서	-5528
▁03	-5529
당했다	-5530
발이	-5531
▁존재하지	-5532
▁한국에서	-5533
▁날개	-5534
▁출판	-5535
으려고	-5536
▁닌자	-5537
▁더더욱	-5538
▁전성	-5539
▁디아	-5540
▁시각	-5541
▁그렇다	-5542
작이	-5543
▁SN	-5544
▁잦	-5545
국을	-5546
▁신성	-5547
▁길이	-5548
▁스톰	-5549
▁순수	-5550
하였으나	-5551
▁불린다	-5552
▁합쳐	-5553
▁것이고	-5554
▁캐스팅	-5555
▁신청	-5556
?'	-5557
가시	-5558
▁오후	-5559
▁프로필	-5560
▁마왕	-5561
▁수학	-5562
▁파견	-5563
▁막을	-5564
즈마	-5565
스탄	-5566
▁피를	-5567
▁평가가	-5568
▁무효	-5569
▁힘으로	-5570
▁제기	-5571
▁시기에	-5572
▁적극적으로	-5573
▁무언	-5574
▁정확한	-5575
▁시켜	-5576
▁가사	-5577
있고	-5578
▁아쉽	-5579
코와	-5580
▁스피드	-5581
▁공격에	-5582
▁페이지	-5583
▁들어간다	-5584
▁기능을	-5585
▁허나	-5586
되지만	-5587
▁한참	-5588
번이	-5589
버려	-5590
▁전까지	-5591
-7	-5592
▁민족	-5593
데스	-5594
노가	-5595
▁내놓	-5596
▁뜯	-5597
▁04	-5598
▁고용	-5599
▁보일	-5600
▁카와	-5601
▁08	-5602
▁대상으로	-5603
▁서비	-5604
단은	-5605
▁SD	-5606
▁점차	-5607
번의	-5608
▁말로	-5609
국가	-5610
▁오스	-5611
▁여담이지만	-5612
▁웹툰	-5613
▁총을	-5614
▁대원	-5615
색을	-5616
버트	-5617
▁압도적인	-5618
▁HD	-5619
▁교환	-5620
OT	-5621
▁인공	-5622
데다	-5623
파이	-5624
▁경상	-5625
▁기독교	-5626
▁등판	-5627
▁싫어하는	-5628
연구	-5629
▁비트	-5630
▁전쟁을	-5631
▁주변에	-5632
▁어른	-5633
▁짓을	-5634
▁스킨	-5635
▁실력을	-5636
▁탁	-5637
▁계획을	-5638
▁쏴	-5639
하이	-5640
▁데다가	-5641
▁멕	-5642
▁02	-5643
▁아닌가	-5644
▁기능이	-5645
되어서	-5646
님의	-5647
▁보낸	-5648
끄는	-5649
홈런	-5650
마스터	-5651
▁버려	-5652
▁바보	-5653
▁의미로	-5654
▁강제로	-5655
▁퀄리티	-5656
등이	-5657
리도	-5658
▁섀	-5659
age	-5660
▁것만	-5661
▁형태의	-5662
▁소화	-5663
▁노부	-5664
둥이	-5665
▁이들을	-5666
▁뉴스	-5667
▁절대로	-5668
뿐만	-5669
▁있다가	-5670
▁그라	-5671
▁어릴	-5672
역에	-5673
▁대항	-5674
▁대규모	-5675
파의	-5676
▁배우는	-5677
▁다루는	-5678
씨가	-5679
▁돕	-5680
심으로	-5681
▁끌고	-5682
▁트윈	-5683
▁수영	-5684
▁끝나고	-5685
ity	-5686
▁않는다는	-5687
▁안티	-5688
신으로	-5689
▁죽인	-5690
!'	-5691
▁작사	-5692
▁콘서	-5693
▁게임에서	-5694
▁융합	-5695
▁이중	-5696
슈타	-5697
▁도달	-5698
▁기반으로	-5699
~4	-5700
▁울산	-5701
▁했으며	-5702
▁외교	-5703
책을	-5704
▁일본에서	-5705
대회	-5706
▁예비	-5707
▁수십	-5708
▁세계를	-5709
▁젠	-5710
▁이전의	-5711
▁다들	-5712
▁미카	-5713
▁09	-5714
▁시절의	-5715
▁있었으며	-5716
▁아가	-5717
어버린	-5718
배를	-5719
▁가고	-5720
료를	-5721
체에	-5722
▁현상	-5723
▁곳으로	-5724
▁창조	-5725
▁자신도	-5726
▁49	-5727
▁소총	-5728
▁특별한	-5729
▁is	-5730
담을	-5731
-8	-5732
양이	-5733
▁카드의	-5734
▁마리오	-5735
권은	-5736
▁지능	-5737
▁모두가	-5738
▁텔레	-5739
▁목격	-5740
관의	-5741
았다는	-5742
메가	-5743
▁맞지	-5744
▁이리	-5745
▁태그	-5746
▁둥	-5747
▁지금의	-5748
▁기록을	-5749
전설	-5750
▁근처에	-5751
▁요코	-5752
▁역을	-5753
함에	-5754
▁AI	-5755
▁장수	-5756
하려면	-5757
▁협박	-5758
▁잡을	-5759
▁생각보다	-5760
▁등은	-5761
▁용의	-5762
▁뼈	-5763
▁제주	-5764
▁수록곡	-5765
▁이치	-5766
민이	-5767
▁인수	-5768
▁무기로	-5769
번을	-5770
▁코어	-5771
▁까다	-5772
▁그로	-5773
▁레벨이	-5774
▁소드	-5775
▁없던	-5776
자마자	-5777
▁체력을	-5778
▁팬들의	-5779
▁균	-5780
▁빗	-5781
기까지	-5782
▁체포	-5783
▁통상	-5784
사령	-5785
▁작용	-5786
인들의	-5787
되었을	-5788
▁미스	-5789
▁끌려	-5790
금이	-5791
▁매일	-5792
율을	-5793
네가	-5794
▁이지	-5795
▁뺏	-5796
▁낼	-5797
▁MC	-5798
▁오랫동안	-5799
▁쫓아	-5800
▁훌륭한	-5801
▁재현	-5802
▁즈	-5803
▁기초	-5804
▁프리큐어	-5805
▁갈수록	-5806
▁사용하고	-5807
모드	-5808
소에	-5809
▁땐	-5810
린이	-5811
프리	-5812
200	-5813
▁대사가	-5814
▁펠	-5815
내며	-5816
실에서	-5817
▁젤	-5818
노우	-5819
동의	-5820
▁은하	-5821
▁관심이	-5822
디가	-5823
▁했다는	-5824
▁for	-5825
▁강남	-5826
▁홀로	-5827
연의	-5828
▁4,	-5829
▁밸런스	-5830
직을	-5831
▁훗날	-5832
▁예술	-5833
량으로	-5834
회사	-5835
▁무대	-5836
▁자신들의	-5837
▁난다	-5838
▁특기	-5839
▁나가는	-5840
▁공급	-5841
▁조지	-5842
▁세워	-5843
▁내의	-5844
리얼	-5845
▁외부	-5846
▁다를	-5847
오리	-5848
▁깨닫	-5849
▁적대	-5850
▁비디오	-5851
계에서	-5852
▁입수	-5853
▁맞은	-5854
▁동시	-5855
▁장면을	-5856
▁수집	-5857
▁불법	-5858
오고	-5859
▁지역의	-5860
▁캐릭터는	-5861
▁쿨타임	-5862
▁드러나	-5863
▁re	-5864
▁반격	-5865
▁결코	-5866
일까지	-5867
▁대만	-5868
▁들을	-5869
▁한정으로	-5870
▁춘	-5871
▁GS	-5872
▁주말	-5873
동에	-5874
니와	-5875
▁전후	-5876
산이	-5877
▁베스트	-5878
마이	-5879
▁죽음을	-5880
다의	-5881
레나	-5882
소한	-5883
▁생각이	-5884
▁전면	-5885
▁이론	-5886
▁팀은	-5887
AD	-5888
▁Se	-5889
▁어그	-5890
▁선물	-5891
▁180	-5892
▁부상을	-5893
코를	-5894
▁다섯	-5895
▁매니	-5896
▁셈이다	-5897
▁클래스	-5898
OM	-5899
▁전형적인	-5900
▁보여주고	-5901
노의	-5902
▁말자	-5903
▁기본적인	-5904
린의	-5905
공이	-5906
▁비싼	-5907
▁봐야	-5908
이트를	-5909
▁이것도	-5910
▁슈퍼로봇	-5911
▁자가	-5912
▁안내	-5913
▁자식	-5914
토는	-5915
▁준우	-5916
ID	-5917
▁가격이	-5918
▁김영	-5919
인에	-5920
▁작가의	-5921
▁심하게	-5922
▁기회를	-5923
▁되었다고	-5924
▁말하자면	-5925
▁Ar	-5926
▁있었기	-5927
모델	-5928
▁의뢰	-5929
▁사용하지	-5930
표를	-5931
▁이상으로	-5932
재를	-5933
▁추격	-5934
▁가속	-5935
▁아일	-5936
▁모조리	-5937
▁까지	-5938
▁와타	-5939
▁대미지를	-5940
▁몰라도	-5941
▁갇	-5942
▁임명	-5943
▁전에는	-5944
▁아니냐는	-5945
ass	-5946
UN	-5947
▁아름다운	-5948
▁덤으로	-5949
치며	-5950
하에	-5951
유를	-5952
▁나타난	-5953
▁국방	-5954
ire	-5955
▁옷을	-5956
기나	-5957
▁FI	-5958
▁플레이를	-5959
ust	-5960
▁이외에도	-5961
▁버렸다	-5962
▁타워	-5963
▁페이스	-5964
▁한다면	-5965
▁있어도	-5966
▁탄약	-5967
▁자매	-5968
▁캐논	-5969
리우	-5970
▁잃은	-5971
65	-5972
▁널리	-5973
▁죽일	-5974
▁카오스	-5975
▁말아	-5976
구려	-5977
▁포탑	-5978
레인저	-5979
▁과거의	-5980
통을	-5981
▁험	-5982
▁시즈	-5983
▁전멸	-5984
▁신기	-5985
▁받아들이	-5986
버렸	-5987
닌다	-5988
▁파라	-5989
▁별다른	-5990
평가	-5991
함과	-5992
▁실버	-5993
▁이즈	-5994
▁구멍	-5995
▁태어난	-5996
▁곧바로	-5997
▁기록했다	-5998
",	-5999
마와	-6000
계열	-6001
중학교	-6002
▁원본	-6003
▁모바일	-6004
▁치는	-6005
▁씹	-6006
▁간부	-6007
▁실력이	-6008
▁트랜	-6009
▁귀찮	-6010
▁와이	-6011
ffff	-6012
▁대화를	-6013
키와	-6014
▁컨텐츠	-6015
▁일상	-6016
년을	-6017
야가	-6018
▁그렇지만	-6019
세로	-6020
▁보인	-6021
느라	-6022
▁불가능한	-6023
▁미디어	-6024
동으로	-6025
4,	-6026
▁소형	-6027
스톤	-6028
츠가	-6029
여객	-6030
▁Ne	-6031
▁할아버	-6032
▁주인공의	-6033
▁스코어	-6034
▁나이가	-6035
▁남겨	-6036
CG	-6037
▁밖으로	-6038
▁부품	-6039
▁천재	-6040
▁베트남	-6041
▁연도	-6042
▁공격하는	-6043
▁발매된	-6044
▁사마	-6045
75	-6046
▁이라는	-6047
▁처벌	-6048
▁승부	-6049
등의	-6050
타와	-6051
세에	-6052
▁!	-6053
름을	-6054
▁이길	-6055
▁어떠	-6056
▁감안하면	-6057
▁드라	-6058
▁대상이	-6059
~20	-6060
▁전화	-6061
▁사용해	-6062
BA	-6063
▁수준이다	-6064
▁190	-6065
▁싸움을	-6066
▁지속적으로	-6067
티아	-6068
▁죽는다	-6069
이기에	-6070
▁코우	-6071
▁영상을	-6072
▁코믹	-6073
▁댄스	-6074
▁정면	-6075
▁평이	-6076
▁챕	-6077
▁감옥	-6078
VA	-6079
안이	-6080
▁잡혀	-6081
되었다고	-6082
▁구사	-6083
▁일으키	-6084
▁나눠	-6085
졌을	-6086
▁부른	-6087
ffffff	-6088
▁사장	-6089
▁하트	-6090
▁네덜	-6091
▁포스	-6092
▁팬덤	-6093
▁간의	-6094
ide	-6095
▁전력	-6096
▁하얀	-6097
▁중학교	-6098
▁신이	-6099
▁방법은	-6100
적의	-6101
▁다이아	-6102
당할	-6103
해가	-6104
▁빚	-6105
▁사이의	-6106
커가	-6107
▁헨	-6108
▁사쿠라	-6109
▁지어	-6110
▁들어갈	-6111
▁평화	-6112
▁어택	-6113
림을	-6114
▁이글	-6115
▁킥	-6116
연을	-6117
의로	-6118
▁녹음	-6119
▁오사카	-6120
토와	-6121
▁신장	-6122
감독	-6123
▁...	-6124
것은	-6125
▁아니라는	-6126
▁여신	-6127
▁이외의	-6128
▁마리아	-6129
▁트로	-6130
▁캐나다	-6131
하기가	-6132
▁업무	-6133
▁좌우	-6134
▁세이버	-6135
과를	-6136
▁등장하지	-6137
▁꽂	-6138
▁유니폼	-6139
▁떨어진다	-6140
▁성별	-6141
▁나중	-6142
더스	-6143
▁합격	-6144
▁코미	-6145
▁모른	-6146
▁있었을	-6147
▁카타	-6148
▁콜라	-6149
급으로	-6150
▁곁	-6151
▁경비	-6152
졌지만	-6153
▁뭉	-6154
▁박정	-6155
▁맞게	-6156
색의	-6157
ark	-6158
▁잃고	-6159
▁제임	-6160
겠지	-6161
▁사람들에게	-6162
▁수도권	-6163
▁심리	-6164
▁어마	-6165
▁유희왕	-6166
▁핫	-6167
▁시장	-6168
▁경기가	-6169
▁가능하며	-6170
때는	-6171
▁앵	-6172
▁적혀	-6173
▁분위기가	-6174
마에	-6175
▁저런	-6176
기업	-6177
계로	-6178
▁갤럭시	-6179
▁죽어	-6180
▁이어지는	-6181
▁신고	-6182
▁싶다	-6183
▁모르고	-6184
▁당해	-6185
▁맘	-6186
▁주소	-6187
도르	-6188
▁고교	-6189
▁헛	-6190
▁쉴	-6191
소리	-6192
▁이영	-6193
단지	-6194
▁멍	-6195
▁이미지가	-6196
봐야	-6197
▁잡기	-6198
▁갤러리	-6199
▁편입	-6200
ax	-6201
플렉	-6202
가서	-6203
▁영업	-6204
▁56	-6205
원과	-6206
▁돈이	-6207
▁주기	-6208
방향	-6209
▁유로	-6210
심한	-6211
투를	-6212
세는	-6213
▁긍정	-6214
▁FA	-6215
▁66	-6216
▁OST	-6217
냐며	-6218
▁나아	-6219
▁휘두	-6220
▁환영	-6221
▁횡	-6222
▁사라진	-6223
▁우연히	-6224
▁스티	-6225
탄이	-6226
바라	-6227
▁방에	-6228
▁뜬금	-6229
하라고	-6230
▁군대	-6231
▁만났	-6232
▁보도	-6233
▁점이다	-6234
▁버린다	-6235
▁덧붙	-6236
▁변호	-6237
▁유저가	-6238
▁마침내	-6239
물에	-6240
▁가능성도	-6241
EM	-6242
▁아크	-6243
▁AR	-6244
였을	-6245
▁건축	-6246
▁방송을	-6247
▁이내	-6248
▁김태	-6249
고속도로	-6250
▁한명	-6251
▁회수	-6252
▁강하게	-6253
나카	-6254
ere	-6255
▁외국인	-6256
▁앱	-6257
▁무방	-6258
▁마이클	-6259
▁쓰레기	-6260
▁깜	-6261
▁아케이드	-6262
▁의존	-6263
▁안드로이드	-6264
▁드는	-6265
해의	-6266
▁제갈	-6267
▁자세히	-6268
▁블레이	-6269
▁적절한	-6270
▁생활을	-6271
▁가라	-6272
▁내장	-6273
▁수용	-6274
▁죽고	-6275
▁감독의	-6276
▁욕을	-6277
▁디지털	-6278
쿠라	-6279
주민	-6280
▁95	-6281
▁뱅	-6282
▁인형	-6283
▁이제는	-6284
베이	-6285
군으로	-6286
▁썬	-6287
ood	-6288
▁상급	-6289
▁이용해서	-6290
▁마음이	-6291
▁들면	-6292
ES	-6293
▁WW	-6294
▁De	-6295
북도	-6296
▁극복	-6297
▁독특	-6298
▁시달	-6299
▁헤비	-6300
▁보장	-6301
ge	-6302
소에서	-6303
▁관심	-6304
▁예측	-6305
-6	-6306
다시	-6307
▁대처	-6308
▁펼쳐	-6309
졌다고	-6310
US	-6311
▁예선	-6312
▁방사	-6313
르지	-6314
자면	-6315
▁태어	-6316
▁스페이스	-6317
▁식의	-6318
▁약간의	-6319
▁좋게	-6320
▁넷	-6321
▁내세	-6322
▁아빠	-6323
파가	-6324
▁반응이	-6325
▁무릎	-6326
▁일시	-6327
▁찔	-6328
▁뚜	-6329
▁연방	-6330
▁이날	-6331
회는	-6332
러를	-6333
▁가야	-6334
▁것일	-6335
-10	-6336
▁무덤	-6337
▁예로	-6338
ect	-6339
▁종점	-6340
▁스마트폰	-6341
버전	-6342
▁스태	-6343
곡을	-6344
경찰	-6345
▁접속	-6346
▁어두	-6347
▁리듬	-6348
설을	-6349
당을	-6350
▁분위기를	-6351
▁{	-6352
자도	-6353
▁에드	-6354
▁화력	-6355
▁성적을	-6356
▁지역에	-6357
▁일으킨	-6358
▁상황이다	-6359
▁한글판	-6360
▁CPU	-6361
▁당하는	-6362
받을	-6363
▁생략	-6364
에겐	-6365
환을	-6366
테인	-6367
▁국회의원	-6368
▁저렴	-6369
테이	-6370
▁헤이	-6371
포가	-6372
냄새	-6373
▁과거에	-6374
▁구속	-6375
29	-6376
▁보라	-6377
▁과연	-6378
▁높이	-6379
▁특집	-6380
시키기	-6381
츠를	-6382
▁되었는데	-6383
▁기점	-6384
▁85	-6385
▁나오기	-6386
▁보게	-6387
장갑	-6388
러의	-6389
▁마시	-6390
▁록맨	-6391
▁통제	-6392
▁의무	-6393
▁감정	-6394
▁언급한	-6395
▁.3	-6396
▁좋을	-6397
▁위주로	-6398
유럽	-6399
▁정체를	-6400
▁사카	-6401
▁킨	-6402
사업	-6403
▁당연한	-6404
▁성능은	-6405
..."	-6406
▁밝혀졌다	-6407
▁되었으며	-6408
그리	-6409
▁침공	-6410
▁모여	-6411
▁세상을	-6412
국어	-6413
주기	-6414
관은	-6415
▁작품이	-6416
▁경우에	-6417
▁이나	-6418
▁KIA	-6419
월부터	-6420
먹고	-6421
▁것인지	-6422
욕을	-6423
▁김정	-6424
▁보며	-6425
▁명령을	-6426
▁얼굴이	-6427
ure	-6428
▁오스트	-6429
▁룬	-6430
크와	-6431
▁찍어	-6432
▁충격을	-6433
▁인터뷰에서	-6434
등학생	-6435
▁블록	-6436
▁예고	-6437
화한	-6438
▁취급을	-6439
그라	-6440
▁30%	-6441
▁윌리	-6442
론은	-6443
▁한국에서는	-6444
▁머리가	-6445
웨어	-6446
av	-6447
▁캠페	-6448
▁네임	-6449
ome	-6450
▁수익	-6451
다나	-6452
▁이끌고	-6453
쪽의	-6454
▁믿고	-6455
▁77	-6456
▁혈액	-6457
터미널	-6458
▁윙	-6459
▁일명	-6460
▁네가	-6461
▁데몬	-6462
▁PD	-6463
▁어째서	-6464
▁차단	-6465
▁찾는	-6466
으러	-6467
▁둘째	-6468
▁정복	-6469
▁숨겨진	-6470
!!!	-6471
▁이용하는	-6472
▁장식	-6473
▁자체의	-6474
▁발달	-6475
▁원인	-6476
▁아즈	-6477
시하는	-6478
받았다	-6479
원도	-6480
▁대우	-6481
트에서	-6482
▁경험치	-6483
버스터	-6484
▁들어온	-6485
▁이루어진	-6486
퍼스	-6487
out	-6488
증이	-6489
▁팬들	-6490
▁600	-6491
▁나쁘지	-6492
▁물론이고	-6493
▁피격	-6494
▁희귀	-6495
됩니다	-6496
▁58	-6497
영이	-6498
▁뭘	-6499
▁수수	-6500
▁맞으면	-6501
are	-6502
즈와	-6503
▁접촉	-6504
▁캡틴	-6505
ob	-6506
▁프라이	-6507
.05	-6508
▁아버지의	-6509
▁GT	-6510
▁스미	-6511
▁합성	-6512
▁높고	-6513
▁물을	-6514
상한	-6515
▁남아있	-6516
▁사양	-6517
▁컸	-6518
▁Le	-6519
발로	-6520
▁1992	-6521
▁야스	-6522
로서는	-6523
▁인물이	-6524
▁목소리가	-6525
▁보지	-6526
▁빛의	-6527
관리	-6528
▁아마도	-6529
관으로	-6530
▁해상	-6531
▁불을	-6532
해지고	-6533
검을	-6534
▁의지	-6535
▁으	-6536
▁별개로	-6537
링이	-6538
▁군인	-6539
▁곽	-6540
▁골든	-6541
보드	-6542
▁조성	-6543
▁완결	-6544
음악	-6545
▁브루	-6546
▁플랫	-6547
▁정도였다	-6548
교를	-6549
▁정지	-6550
받는다	-6551
러니	-6552
▁on	-6553
▁일이다	-6554
▁고작	-6555
▁그건	-6556
▁등과	-6557
▁왠지	-6558
으로만	-6559
▁전의	-6560
▁농구	-6561
▁시그	-6562
▁싸워	-6563
▁자폭	-6564
티드	-6565
▁심지어는	-6566
36	-6567
▁SC	-6568
▁외의	-6569
▁중국의	-6570
▁모모	-6571
크라	-6572
VD	-6573
▁몰락	-6574
▁적응	-6575
▁컵	-6576
▁전체를	-6577
▁생각해보면	-6578
▁가짜	-6579
▁클래식	-6580
했다면	-6581
▁저장	-6582
▁테스트	-6583
▁웨이	-6584
▁최신	-6585
pe	-6586
으로서의	-6587
▁무척	-6588
▁역사상	-6589
지기도	-6590
▁주제에	-6591
▁딴	-6592
▁진짜로	-6593
민의	-6594
▁그러니까	-6595
▁되기도	-6596
▁스승	-6597
▁승격	-6598
▁첨	-6599
▁임시	-6600
가미	-6601
▁타락	-6602
분의	-6603
▁올리는	-6604
맨의	-6605
망을	-6606
▁좋고	-6607
▁57	-6608
▁미군	-6609
▁있었다는	-6610
▁유형	-6611
▁후계	-6612
▁이라	-6613
나라의	-6614
▁만나게	-6615
▁저작	-6616
our	-6617
▁엘프	-6618
▁지내	-6619
▁마이너	-6620
▁당신	-6621
▁뒤에서	-6622
류의	-6623
▁않았을	-6624
비로	-6625
▁향상	-6626
약한	-6627
▁게임에	-6628
령이	-6629
▁객	-6630
로와	-6631
▁1993	-6632
ance	-6633
일에는	-6634
브라	-6635
ess	-6636
▁격추	-6637
▁결과적으로	-6638
당에	-6639
령을	-6640
▁낫다	-6641
트릭	-6642
▁손으로	-6643
질로	-6644
▁이펙	-6645
▁메뉴	-6646
렬한	-6647
이었기	-6648
▁부각	-6649
▁사건의	-6650
▁일람	-6651
주차	-6652
▁유대	-6653
▁정찰	-6654
▁Me	-6655
지인	-6656
▁IS	-6657
▁눌러	-6658
▁날아가	-6659
▁끈	-6660
▁최다	-6661
▁사랑을	-6662
조는	-6663
▁자동으로	-6664
들만	-6665
▁아니라고	-6666
▁잉글	-6667
치면	-6668
▁죽이고	-6669
iv	-6670
ock	-6671
▁이집	-6672
▁오카	-6673
▁크기	-6674
▁입을	-6675
나서	-6676
▁41	-6677
▁후배	-6678
▁똥	-6679
▁크라	-6680
▁후술	-6681
렸던	-6682
▁중계	-6683
▁닫	-6684
▁곳은	-6685
▁레이더	-6686
▁신경쓰	-6687
▁출장	-6688
▁엄마	-6689
일드	-6690
▁간단	-6691
▁작품을	-6692
.01	-6693
▁가문의	-6694
▁이정	-6695
▁다수의	-6696
▁단편	-6697
▁상업	-6698
언이	-6699
▁당시에	-6700
줘서	-6701
타카	-6702
▁의료	-6703
용을	-6704
주자	-6705
한을	-6706
▁일찍	-6707
▁간신	-6708
▁규칙	-6709
▁연관	-6710
피를	-6711
▁적당히	-6712
티나	-6713
▁r	-6714
ord	-6715
▁자리에서	-6716
▁농담	-6717
▁죽음의	-6718
▁소수	-6719
▁있는지	-6720
▁부서	-6721
ime	-6722
▁아쿠	-6723
iz	-6724
▁it	-6725
현이	-6726
커의	-6727
▁하차	-6728
▁묘사가	-6729
훈련	-6730
▁공화국	-6731
▁라이온	-6732
▁넉	-6733
▁위장	-6734
▁걸쳐	-6735
방으로	-6736
OP	-6737
▁왕자	-6738
▁CC	-6739
재로	-6740
▁SM	-6741
▁늑대	-6742
어와	-6743
▁무시하고	-6744
졌는데	-6745
화와	-6746
▁느낄	-6747
▁힘들어	-6748
나이트	-6749
▁튕	-6750
필드	-6751
▁눈물을	-6752
▁98	-6753
▁서부	-6754
ound	-6755
신교	-6756
차량	-6757
▁트라이	-6758
▁상상	-6759
위키	-6760
것으로	-6761
▁상술	-6762
▁블레이드	-6763
막을	-6764
데이	-6765
▁흡혈	-6766
▁밝혀진	-6767
▁각본	-6768
▁기동전사	-6769
.03	-6770
▁신설	-6771
▁1988	-6772
▁휴대	-6773
▁컬러	-6774
지구	-6775
▁효과로	-6776
▁깡	-6777
▁88	-6778
▁총알	-6779
▁형식	-6780
▁Tr	-6781
팀이	-6782
▁승강장	-6783
어마	-6784
나가는	-6785
▁악역	-6786
▁깔끔	-6787
▁아이언	-6788
▁어려워	-6789
요시	-6790
▁니코	-6791
▁완벽한	-6792
▁하나도	-6793
▁나츠	-6794
▁시절에	-6795
하가	-6796
속도가	-6797
▁찢	-6798
▁왕의	-6799
▁며	-6800
▁설정을	-6801
▁정착	-6802
▁방법으로	-6803
▁멈추	-6804
▁초반에는	-6805
▁무기는	-6806
/4	-6807
▁승객	-6808
ix	-6809
▁은행	-6810
▁데드	-6811
▁이전에는	-6812
▁전진	-6813
종을	-6814
향을	-6815
LL	-6816
해준다	-6817
▁리가	-6818
▁브리	-6819
▁바이오	-6820
▁집에서	-6821
95	-6822
방에서	-6823
자들에게	-6824
▁기믹	-6825
▁보물	-6826
▁올린	-6827
▁일방	-6828
▁아이를	-6829
시즈	-6830
번은	-6831
▁랭킹	-6832
▁열쇠	-6833
다란	-6834
▁미스터	-6835
▁활발	-6836
재가	-6837
▁장군	-6838
▁망가	-6839
▁개량	-6840
르를	-6841
▁그들을	-6842
법은	-6843
▁위하여	-6844
▁자는	-6845
▁지나가	-6846
버릴	-6847
개발	-6848
히지	-6849
▁남긴	-6850
▁출신의	-6851
게이	-6852
▁단점이	-6853
▁쏠	-6854
▁터키	-6855
▁선수들이	-6856
지지만	-6857
▁어린이	-6858
▁태어나	-6859
▁갈라	-6860
▁He	-6861
▁전부터	-6862
▁된다고	-6863
커를	-6864
▁결말	-6865
▁그러다가	-6866
자고	-6867
▁드림	-6868
▁고스트	-6869
▁포스트	-6870
▁교황	-6871
▁칭찬	-6872
▁렉	-6873
▁기병	-6874
▁보유하고	-6875
▁유통	-6876
▁주전	-6877
▁54	-6878
▁패션	-6879
▁메시	-6880
▁거다	-6881
제국	-6882
▁갔다	-6883
▁행위	-6884
▁바꾼	-6885
▁나오면	-6886
구리	-6887
▁정신을	-6888
▁아티스트	-6889
▁톤	-6890
▁me	-6891
초등학교	-6892
▁아들이	-6893
▁하락	-6894
랑이	-6895
▁한쪽	-6896
▁구하기	-6897
▁액티브	-6898
▁할머니	-6899
▁신분	-6900
▁나면	-6901
▁의혹	-6902
▁플래그	-6903
▁53	-6904
▁블러드	-6905
Hz	-6906
▁버린	-6907
시에는	-6908
▁잡은	-6909
▁호텔	-6910
▁대단한	-6911
▁초기에는	-6912
▁찍은	-6913
▁물려	-6914
▁시스템을	-6915
▁식민	-6916
▁250	-6917
▁판정이	-6918
▁도구	-6919
▁결성	-6920
▁맞서	-6921
▁약점	-6922
▁지형	-6923
98	-6924
][	-6925
▁무기가	-6926
▁제어	-6927
▁폭격	-6928
▁자리잡	-6929
되었다는	-6930
보이	-6931
데레	-6932
▁찾기	-6933
▁내지	-6934
▁주었다	-6935
▁나오며	-6936
▁준우승	-6937
▁활성	-6938
▁어마어마	-6939
유닛	-6940
▁프로듀서	-6941
▁바깥	-6942
▁Wh	-6943
▁둘은	-6944
▁규정	-6945
▁저녁	-6946
▁마력	-6947
파로	-6948
▁들어갔	-6949
▁be	-6950
졌으며	-6951
▁동인	-6952
▁나를	-6953
▁52	-6954
돌이	-6955
▁마코	-6956
▁헐	-6957
▁넥센	-6958
드래	-6959
▁색깔	-6960
▁타쿠	-6961
리지만	-6962
▁최종보스	-6963
사이드	-6964
~5	-6965
저럭	-6966
페이	-6967
▁카라	-6968
▁드레	-6969
▁선생님	-6970
이었으며	-6971
▁사후	-6972
▁플로	-6973
하라는	-6974
▁무렵	-6975
▁우리나라	-6976
▁개입	-6977
탄의	-6978
▁방출	-6979
라엘	-6980
▁내보	-6981
▁가끔씩	-6982
▁국적	-6983
▁계약을	-6984
ite	-6985
럭저럭	-6986
▁커리어	-6987
▁잠재	-6988
▁5,	-6989
▁벌어진	-6990
포로	-6991
들보다	-6992
▁맛이	-6993
▁총기	-6994
▁이미지를	-6995
미터	-6996
▁걸고	-6997
▁공개된	-6998
와도	-6999
▁다음에	-7000
▁화를	-7001
능력을	-7002
▁Te	-7003
▁배트맨	-7004
▁게임은	-7005
▁거듭	-7006
▁편이라	-7007
uc	-7008
명한	-7009
EX	-7010
▁가볍게	-7011
▁이상을	-7012
▁히카	-7013
▁위치에	-7014
▁죽이는	-7015
▁슈팅	-7016
▁임무를	-7017
▁검사	-7018
▁안나	-7019
▁지원을	-7020
▁기분	-7021
▁직전에	-7022
▁카드는	-7023
▁사용이	-7024
▁보너	-7025
▁영국의	-7026
▁이다	-7027
▁슈퍼로봇대전	-7028
▁수준이	-7029
▁왈	-7030
▁아파트	-7031
▁천사	-7032
▁호칭	-7033
▁출연한	-7034
▁1970	-7035
▁그럭저럭	-7036
▁탄창	-7037
▁퀘스트를	-7038
루는	-7039
OW	-7040
.02	-7041
▁''	-7042
▁챕터	-7043
▁노란	-7044
▁시절에는	-7045
▁만들기	-7046
▁마술	-7047
▁금속	-7048
▁슬롯	-7049
병원	-7050
▁호위	-7051
공화	-7052
까진	-7053
.08	-7054
▁썰	-7055
▁MVP	-7056
▁알아서	-7057
▁초중	-7058
▁곤란	-7059
▁아쉬운	-7060
▁저질	-7061
▁꿈을	-7062
▁부수	-7063
▁면이	-7064
미니	-7065
▁강요	-7066
소로	-7067
▁공격할	-7068
▁핸드	-7069
사기	-7070
▁사우	-7071
▁접기	-7072
▁보관	-7073
시험	-7074
▁병력	-7075
▁장면은	-7076
▁사용되는	-7077
집을	-7078
▁시노	-7079
▁뜻하는	-7080
▁물고	-7081
▁영어판	-7082
▁카더라	-7083
▁가상	-7084
▁체인	-7085
▁처럼	-7086
▁스웨	-7087
▁메르	-7088
▁박사	-7089
버그	-7090
▁현역	-7091
된다는	-7092
일본	-7093
▁거기서	-7094
한국	-7095
식에	-7096
중이다	-7097
실로	-7098
후반	-7099
학자	-7100
▁검을	-7101
▁따온	-7102
▁자극	-7103
리는데	-7104
▁성공했다	-7105
OD	-7106
▁쉐	-7107
저씨	-7108
▁무서운	-7109
▁어떠한	-7110
▁틀어	-7111
이든	-7112
▁전설의	-7113
▁오늘날	-7114
▁유사한	-7115
▁대인	-7116
있어	-7117
▁느린	-7118
▁마키	-7119
▁이민	-7120
▁ㅣ	-7121
▁해피	-7122
▁Pro	-7123
▁학생들이	-7124
▁눈물	-7125
▁용도로	-7126
산업	-7127
내가	-7128
▁국립	-7129
▁공성	-7130
▁잡지	-7131
았으며	-7132
▁가스	-7133
역사	-7134
ath	-7135
▁체중	-7136
경에	-7137
II	-7138
▁구체	-7139
하더라도	-7140
▁감시	-7141
인데다	-7142
▁그들이	-7143
▁손가락	-7144
▁채워	-7145
년만에	-7146
이면서	-7147
률을	-7148
▁요정	-7149
▁모를	-7150
▁사야	-7151
▁성립	-7152
▁들여	-7153
보로	-7154
▁경우엔	-7155
▁패턴이	-7156
직한	-7157
▁빨라	-7158
▁소위	-7159
▁언급이	-7160
▁톰	-7161
던지	-7162
건을	-7163
▁넣고	-7164
관에	-7165
MP	-7166
▁육성	-7167
▁새벽	-7168
란다	-7169
▁1991	-7170
▁웅	-7171
▁떨어뜨	-7172
▁스틸	-7173
렇게	-7174
▁리얼	-7175
▁플레이어의	-7176
해서는	-7177
▁많지만	-7178
박을	-7179
▁76	-7180
▁데다	-7181
▁보다는	-7182
해보면	-7183
사고	-7184
▁애플	-7185
▁해주는	-7186
▁모래	-7187
차는	-7188
성능	-7189
터테인	-7190
▁정치적	-7191
▁웬만한	-7192
단과	-7193
한이	-7194
▁CV	-7195
▁층	-7196
▁확인할	-7197
실의	-7198
▁빛을	-7199
ake	-7200
▁루시	-7201
▁윌리엄	-7202
▁간신히	-7203
워크	-7204
▁디젤	-7205
듯한	-7206
명에	-7207
▁공식적으로	-7208
▁우리는	-7209
▁공작	-7210
▁부를	-7211
▁오직	-7212
▁자전	-7213
▁이재	-7214
로워	-7215
▁드리	-7216
함으로써	-7217
▁차원	-7218
역은	-7219
▁코멘	-7220
▁지팡	-7221
▁범위가	-7222
보병	-7223
▁카츠	-7224
▁장전	-7225
▁환상	-7226
▁일제	-7227
망이	-7228
▁휘말	-7229
석은	-7230
석에	-7231
▁심심	-7232
우기	-7233
▁스톤	-7234
▁되었을	-7235
니를	-7236
▁마그	-7237
판으로	-7238
▁카메라	-7239
▁답이	-7240
▁켈	-7241
▁소재로	-7242
▁우수	-7243
세스	-7244
▁정발	-7245
.07	-7246
▁Cl	-7247
▁패스	-7248
▁면에서	-7249
▁앉아	-7250
▁스튜디오	-7251
▁의문	-7252
졌다는	-7253
▁김동	-7254
▁단행	-7255
캐릭터	-7256
▁구글	-7257
▁유저들은	-7258
qu	-7259
.04	-7260
▁곡이	-7261
▁팬텀	-7262
▁기여	-7263
▁타는	-7264
▁율	-7265
▁거리를	-7266
▁시리즈에	-7267
▁로그	-7268
▁편곡	-7269
오와	-7270
▁체크	-7271
▁4.	-7272
있게	-7273
▁포켓몬스터	-7274
▁유닛을	-7275
▁이란	-7276
▁수류	-7277
▁쪽은	-7278
노스	-7279
인데도	-7280
나간	-7281
▁것이며	-7282
▁무관	-7283
▁|	-7284
경의	-7285
▁처형	-7286
▁그렇고	-7287
▁전공	-7288
▁중독	-7289
▁엿	-7290
▁인물로	-7291
▁청소년	-7292
▁브레이크	-7293
▁인증	-7294
▁클레	-7295
비와	-7296
▁사용하여	-7297
▁BPM	-7298
▁오마	-7299
드레	-7300
드에서	-7301
비에	-7302
▁동굴	-7303
안에	-7304
▁기종	-7305
▁메타	-7306
▁점도	-7307
▁돋	-7308
▁My	-7309
85	-7310
sh	-7311
ION	-7312
▁마법소녀	-7313
▁런던	-7314
배우	-7315
▁숙련	-7316
▁만날	-7317
▁잘못된	-7318
끄러	-7319
▁완벽하게	-7320
▁메리	-7321
▁무시무	-7322
▁비주	-7323
▁설정상	-7324
▁늘어난	-7325
▁유독	-7326
:30	-7327
▁발언을	-7328
▁등장하며	-7329
▁닭	-7330
는가	-7331
선과	-7332
▁0.5	-7333
▁라이플	-7334
생을	-7335
▁영구	-7336
▁챙겨	-7337
나기	-7338
▁적다	-7339
▁도주	-7340
▁??	-7341
바의	-7342
하고자	-7343
▁티어	-7344
나미	-7345
IG	-7346
벌레	-7347
▁체계	-7348
▁도끼	-7349
▁세계에서	-7350
▁미치	-7351
배가	-7352
▁공격력을	-7353
▁원칙	-7354
.09	-7355
▁난입	-7356
▁부러	-7357
▁램	-7358
▁레어도	-7359
졌던	-7360
▁근본	-7361
▁스턴	-7362
국제	-7363
전과	-7364
▁움직이는	-7365
▁존재를	-7366
▁언더	-7367
▁유치	-7368
▁쭉	-7369
팀의	-7370
▁않도록	-7371
▁업그레이	-7372
아는	-7373
▁내리	-7374
▁고구려	-7375
교의	-7376
▁멜로	-7377
▁생기는	-7378
▁무지	-7379
▁직원	-7380
▁존재가	-7381
▁뛰어넘	-7382
현의	-7383
▁통산	-7384
▁기원	-7385
▁스즈	-7386
▁정차	-7387
▁1989	-7388
다를	-7389
▁이른	-7390
+1	-7391
per	-7392
▁둘의	-7393
▁mm	-7394
ph	-7395
인들	-7396
▁냄새	-7397
▁멘탈	-7398
▁비교하면	-7399
▁귀환	-7400
▁남녀	-7401
▁노리	-7402
▁800	-7403
▁동작	-7404
렸다고	-7405
▁양쪽	-7406
블로	-7407
통이	-7408
47	-7409
▁1:1	-7410
▁괜히	-7411
▁개방	-7412
▁딜러	-7413
▁옳	-7414
▁가벼	-7415
KR	-7416
호와	-7417
▁사이버	-7418
▁목소리	-7419
▁사람에게	-7420
우와	-7421
▁전시	-7422
▁후반에	-7423
사거리	-7424
▁금방	-7425
▁왕이	-7426
▁간접	-7427
▁꿀	-7428
▁스텔	-7429
로만	-7430
▁명확	-7431
▁슛	-7432
기어	-7433
▁비공	-7434
▁경력	-7435
▁결과를	-7436
-20	-7437
▁넣는	-7438
▁사라졌다	-7439
▁죽기	-7440
▁집착	-7441
가며	-7442
▁고위	-7443
▁적어	-7444
▁화려한	-7445
▁익스	-7446
▁동일하다	-7447
oy	-7448
발의	-7449
▁들려	-7450
▁민첩	-7451
OC	-7452
ud	-7453
▁사례가	-7454
▁주포	-7455
▁마비	-7456
▁연금	-7457
▁기숙	-7458
네의	-7459
▁터뜨	-7460
▁당하고	-7461
▁세대	-7462
ame	-7463
▁쿼	-7464
▁동부	-7465
▁쉽지	-7466
▁한마디로	-7467
▁잔뜩	-7468
사이트	-7469
ows	-7470
▁아랍	-7471
▁소식을	-7472
바닥	-7473
▁더군	-7474
▁나타난다	-7475
▁것인데	-7476
고도	-7477
들과의	-7478
▁임팩	-7479
편에	-7480
부르크	-7481
▁물건을	-7482
사우	-7483
▁보여주며	-7484
위원회	-7485
▁아니며	-7486
저의	-7487
▁쿠키	-7488
▁정도이다	-7489
▁명을	-7490
▁몽골	-7491
하를	-7492
장전	-7493
▁전쟁이	-7494
▁외전	-7495
▁걸맞	-7496
▁첼	-7497
▁코난	-7498
▁비상	-7499
▁부분에	-7500
▁그림자	-7501
▁추구	-7502
되게	-7503
▁문서를	-7504
▁시스템이	-7505
▁기아	-7506
▁떠오	-7507
▁알바	-7508
▁연료	-7509
거야	-7510
양함	-7511
▁탈퇴	-7512
터는	-7513
▁고수	-7514
▁플랫폼	-7515
ET	-7516
▁메모리	-7517
▁친구가	-7518
▁칼날	-7519
▁타츠	-7520
인한	-7521
족이	-7522
간이	-7523
되던	-7524
▁호주	-7525
안의	-7526
▁뜻이다	-7527
▁없다면	-7528
▁치명타	-7529
타운	-7530
▁태평	-7531
▁가만	-7532
▁드럼	-7533
▁두들	-7534
▁96	-7535
▁추억	-7536
▁느낀	-7537
공원	-7538
디를	-7539
▁59	-7540
영의	-7541
나고	-7542
▁주인공인	-7543
▁하나씩	-7544
하자마자	-7545
구와	-7546
▁입단	-7547
▁받으며	-7548
▁인물이다	-7549
양을	-7550
국에	-7551
▁사망한	-7552
년생	-7553
▁반발	-7554
▁파생	-7555
스트가	-7556
석의	-7557
.06	-7558
▁재사용	-7559
▁성남	-7560
▁급격	-7561
우며	-7562
▁먹어	-7563
orld	-7564
편이	-7565
▁이끄는	-7566
급이	-7567
▁클라	-7568
▁아니라면	-7569
▁with	-7570
▁갖춘	-7571
▁기술로	-7572
▁감사	-7573
맨이	-7574
▁소지	-7575
네임	-7576
▁이겨	-7577
▁110	-7578
▁AD	-7579
▁포항	-7580
▁세종	-7581
▁파는	-7582
▁매년	-7583
▁게이트	-7584
▁삐	-7585
▁초창기	-7586
▁살펴	-7587
▁성우가	-7588
거를	-7589
▁감정을	-7590
▁보안	-7591
▁클랜	-7592
▁개막	-7593
FF	-7594
▁계기로	-7595
▁신화	-7596
▁전체적인	-7597
▁공룡	-7598
▁지역을	-7599
▁다음날	-7600
▁51	-7601
▁때에	-7602
스트의	-7603
▁RPG	-7604
▁부딪	-7605
가면	-7606
▁한번에	-7607
▁아이러니	-7608
▁휩	-7609
▁더군다나	-7610
스도	-7611
▁배차	-7612
각이	-7613
▁대대	-7614
▁언젠	-7615
▁주변의	-7616
▁집을	-7617
46	-7618
▁몰랐	-7619
▁채택	-7620
▁멤버들이	-7621
▁기자	-7622
한의	-7623
▁상관없이	-7624
▁윗	-7625
▁제작한	-7626
▁목을	-7627
인듯	-7628
▁인간을	-7629
모의	-7630
▁이라고	-7631
▁생긴다	-7632
▁조연	-7633
▁자연스럽게	-7634
▁KOF	-7635
▁엑스트라	-7636
▁죽지	-7637
▁무작	-7638
▁병력을	-7639
▁숭	-7640
▁침략	-7641
▁상기	-7642
▁몬스터가	-7643
▁그들은	-7644
▁SH	-7645
▁간단히	-7646
▁뿔	-7647
중앙	-7648
ace	-7649
▁무인	-7650
▁평타	-7651
▁언데	-7652
▁아이콘	-7653
anch	-7654
주었다	-7655
▁하이퍼	-7656
▁에너지를	-7657
▁후에도	-7658
▁책을	-7659
▁키워	-7660
▁확실한	-7661
▁대단히	-7662
▁나오기도	-7663
에서부터	-7664
IM	-7665
저가	-7666
▁기록이	-7667
우지	-7668
▁97	-7669
▁노르	-7670
▁전투에	-7671
▁펼치기	-7672
▁AM	-7673
▁늦게	-7674
▁이상이	-7675
▁SR	-7676
38	-7677
▁들어가면	-7678
▁빼면	-7679
▁개업	-7680
포인트	-7681
▁넣은	-7682
린을	-7683
▁시절부터	-7684
산의	-7685
▁낮다	-7686
▁철저	-7687
▁적합	-7688
슬링	-7689
투스	-7690
브가	-7691
▁커녕	-7692
▁있듯이	-7693
▁제임스	-7694
▁Pl	-7695
▁도발	-7696
▁효율이	-7697
......	-7698
▁입장에서	-7699
▁관중	-7700
▁연락	-7701
▁남부	-7702
▁메달	-7703
▁톱	-7704
▁반해	-7705
▁신문	-7706
브의	-7707
물은	-7708
설이	-7709
거리를	-7710
▁많지	-7711
5,	-7712
:0	-7713
▁Ex	-7714
▁김종	-7715
▁구원	-7716
▁새끼	-7717
▁반사	-7718
도에서	-7719
▁원인이	-7720
▁시라	-7721
aw	-7722
더러	-7723
▁미술	-7724
▁감독은	-7725
▁포르투	-7726
▁유이	-7727
▁이스라엘	-7728
▁느낌을	-7729
▁연극	-7730
▁모습도	-7731
▁유닛이	-7732
▁자막	-7733
▁단축	-7734
▁어딘	-7735
▁오지	-7736
▁요소가	-7737
▁오타	-7738
▁말하며	-7739
들인	-7740
프와	-7741
▁바퀴	-7742
년대에	-7743
시타	-7744
▁사용하기	-7745
▁켜	-7746
▁현재까지	-7747
후의	-7748
▁기관총	-7749
▁전작의	-7750
▁중의	-7751
▁스플	-7752
▁듣는	-7753
했기에	-7754
▁먹은	-7755
▁빼고	-7756
▁청년	-7757
▁군주	-7758
▁선전	-7759
39	-7760
▁커다란	-7761
로나	-7762
-9	-7763
▁성공한다	-7764
약이	-7765
해질	-7766
▁손오	-7767
▁미즈	-7768
▁처음에	-7769
▁재밌	-7770
▁신앙	-7771
대상	-7772
▁출입	-7773
▁성공한	-7774
엔딩	-7775
▁끔찍	-7776
▁우수한	-7777
▁그러다	-7778
리케	-7779
▁내고	-7780
조로	-7781
▁최근에는	-7782
▁장악	-7783
▁2~3	-7784
인치	-7785
▁이은	-7786
▁1~2	-7787
▁했었다	-7788
주며	-7789
▁조건을	-7790
▁수술	-7791
통신	-7792
▁일어났	-7793
▁아이스	-7794
▁오래된	-7795
▁버스터	-7796
▁전반적으로	-7797
▁130	-7798
▁지뢰	-7799
▁머리에	-7800
▁의미를	-7801
실점	-7802
ice	-7803
는지는	-7804
이동	-7805
지나	-7806
▁상처를	-7807
▁유저들의	-7808
▁공기	-7809
▁후손	-7810
공사	-7811
▁나아가	-7812
▁마법의	-7813
코어	-7814
▁68	-7815
▁실드	-7816
▁그것은	-7817
▁뻗	-7818
하진	-7819
▁분명히	-7820
바나	-7821
▁트롤	-7822
▁멕시코	-7823
버를	-7824
▁OVA	-7825
▁곳을	-7826
▁매력	-7827
▁악당	-7828
▁한국인	-7829
터널	-7830
▁결과는	-7831
서에	-7832
▁뿜	-7833
▁사막	-7834
▁지식	-7835
▁칼을	-7836
▁돌입	-7837
▁노선이	-7838
두는	-7839
▁명칭은	-7840
▁건지	-7841
사무	-7842
▁동양	-7843
마치	-7844
▁미라	-7845
▁편이지만	-7846
▁2.0	-7847
▁프레임	-7848
▁삽입	-7849
▁동영상	-7850
움이	-7851
▁시작으로	-7852
▁에반	-7853
▁가르쳐	-7854
기기	-7855
내지	-7856
▁문자	-7857
대사	-7858
▁고문	-7859
▁실망	-7860
▁그랜드	-7861
여자	-7862
▁이혼	-7863
▁다음으로	-7864
▁장면에서	-7865
▁공격한다	-7866
▁올라온	-7867
▁평을	-7868
▁펄	-7869
▁지역에서	-7870
SP	-7871
급을	-7872
▁정통	-7873
▁가지게	-7874
ies	-7875
▁싶다면	-7876
받지	-7877
타이어	-7878
▁버리는	-7879
ile	-7880
판과	-7881
▁건드	-7882
▁실존	-7883
▁찾을	-7884
▁이번에는	-7885
▁파리	-7886
▁특성을	-7887
▁꼼	-7888
▁확실하게	-7889
▁아틀	-7890
▁트레이드	-7891
▁당했다	-7892
▁메이플	-7893
▁알리	-7894
▁기울	-7895
▁김민	-7896
다리	-7897
▁시내버스	-7898
▁테일	-7899
▁아메리카	-7900
▁과정을	-7901
아키	-7902
▁같아	-7903
▁알렉산	-7904
▁곳곳	-7905
▁토끼	-7906
▁보여줬다	-7907
번과	-7908
데다가	-7909
▁의견도	-7910
▁유효	-7911
▁매체	-7912
소는	-7913
▁상대에게	-7914
▁사살	-7915
▁올스타	-7916
▁인하여	-7917
▁관할	-7918
▁적지	-7919
▁Be	-7920
▁히어로즈	-7921
▁노리고	-7922
▁쟈	-7923
▁타자	-7924
▁WWE	-7925
▁회의	-7926
▁독특한	-7927
정도로	-7928
아리	-7929
▁회원	-7930
▁크리스탈	-7931
▁플레이오프	-7932
야만	-7933
▁않는다고	-7934
가스	-7935
째로	-7936
▁캘	-7937
차례	-7938
▁캔슬	-7939
▁사도	-7940
▁Un	-7941
▁+2	-7942
어버리는	-7943
▁취향	-7944
더의	-7945
몬드	-7946
▁전투가	-7947
위해	-7948
own	-7949
▁자치	-7950
▁유카	-7951
▁다스	-7952
▁j	-7953
무장	-7954
▁터치	-7955
▁EP	-7956
▁그래서인지	-7957
▁무라	-7958
고에	-7959
▁버프를	-7960
▁뱀파이어	-7961
ave	-7962
온의	-7963
▁일행이	-7964
하마	-7965
▁수백	-7966
▁가동	-7967
▁철권	-7968
▁키가	-7969
▁이명	-7970
▁자랑하는	-7971
디의	-7972
머가	-7973
▁조조	-7974
▁부분에서	-7975
▁주인공은	-7976
▁가격은	-7977
왔던	-7978
▁개신교	-7979
▁장비를	-7980
이었다는	-7981
▁타겟	-7982
▁만화가	-7983
▁유전	-7984
▁속도를	-7985
생의	-7986
▁가을	-7987
▁차가	-7988
▁수업	-7989
▁지불	-7990
▁멋진	-7991
▁얻게	-7992
▁전신	-7993
것이다	-7994
빌리티	-7995
되어있다	-7996
▁사라진다	-7997
리거나	-7998
▁발생한다	-7999
▁넌	-8000
▁블라	-8001
▁발라	-8002
번으로	-8003
생이	-8004
▁수출	-8005
▁위력	-8006
▁두려워	-8007
▁사이드	-8008
▁문학	-8009
man	-8010
▁그러한	-8011
▁일으켜	-8012
▁코치	-8013
▁DVD	-8014
하겠다고	-8015
▁1987	-8016
▁세븐	-8017
▁과거에는	-8018
▁뜻을	-8019
경우	-8020
마츠	-8021
▁이자	-8022
닉스	-8023
▁이종	-8024
▁하나만	-8025
영웅	-8026
▁나은	-8027
▁워크래프트	-8028
▁어드벤	-8029
▁언급된	-8030
▁의미한다	-8031
▁War	-8032
▁피할	-8033
▁애매한	-8034
▁대거	-8035
▁목표로	-8036
▁폐쇄	-8037
▁열어	-8038
▁카를	-8039
▁스토리가	-8040
니는	-8041
▁상대는	-8042
▁위력을	-8043
▁위력이	-8044
▁극중	-8045
▁쏘는	-8046
old	-8047
▁전까지는	-8048
anchor	-8049
▁본다	-8050
▁받아들여	-8051
▁피가	-8052
▁시작하는	-8053
▁많기	-8054
▁부모님	-8055
되거나	-8056
▁사건으로	-8057
▁있겠지만	-8058
▁심장	-8059
▁엔젤	-8060
▁턱	-8061
▁BL	-8062
운을	-8063
법에	-8064
패로	-8065
문은	-8066
▁마다	-8067
▁숨어	-8068
▁주둔	-8069
▁필리	-8070
▁스팀	-8071
이거나	-8072
▁어머니가	-8073
▁뒤집어	-8074
▁술을	-8075
그러	-8076
▁Wind	-8077
▁대미지가	-8078
▁나고	-8079
웠던	-8080
제와	-8081
▁시드	-8082
학원	-8083
▁콜로	-8084
▁매달	-8085
복이	-8086
▁경기는	-8087
▁CG	-8088
있는데	-8089
▁귀여운	-8090
▁점수를	-8091
▁대단	-8092
▁TVA	-8093
▁시간에	-8094
▁미안	-8095
자동차	-8096
▁차이는	-8097
▁전해	-8098
행이	-8099
▁KBO	-8100
▁싹	-8101
▁아나운	-8102
▁마라	-8103
▁제독	-8104
▁코코	-8105
▁쓸데	-8106
▁넘어서	-8107
▁함선	-8108
▁사이코	-8109
▁가려	-8110
▁위대한	-8111
▁동성	-8112
▁아기	-8113
ber	-8114
▁오라	-8115
▁사용했다	-8116
▁자격	-8117
아와	-8118
33	-8119
▁억지로	-8120
▁차를	-8121
▁대부분은	-8122
GE	-8123
사단	-8124
▁치면	-8125
든다	-8126
▁전라	-8127
▁일원	-8128
▁정확하게	-8129
▁불렀	-8130
▁BS	-8131
▁사형	-8132
ok	-8133
▁팽	-8134
월드	-8135
▁박스	-8136
부터가	-8137
,8	-8138
바가	-8139
지방	-8140
▁사용된다	-8141
▁일어나는	-8142
▁곡명	-8143
▁진심으로	-8144
▁스파이더	-8145
-15	-8146
▁.2	-8147
▁가시	-8148
▁타격을	-8149
초간	-8150
▁얻고	-8151
▁영화를	-8152
▁전투기	-8153
▁빌려	-8154
▁혁명	-8155
▁실수로	-8156
▁부스터	-8157
▁화가	-8158
▁거짓말	-8159
션을	-8160
▁오류	-8161
▁충청	-8162
감한	-8163
역과	-8164
수인	-8165
서로	-8166
▁시합	-8167
▁닮은	-8168
▁스트리트	-8169
▁취미	-8170
▁해리	-8171
▁혹시	-8172
▁말하고	-8173
▁몬스터의	-8174
정과	-8175
▁커피	-8176
▁팬들에게	-8177
▁아르헨	-8178
▁72	-8179
▁사자	-8180
▁기사가	-8181
▁마블	-8182
▁생각할	-8183
▁정식으로	-8184
봤자	-8185
▁높게	-8186
▁기뻐	-8187
건이	-8188
▁사랑하는	-8189
▁연기를	-8190
▁펌	-8191
▁전체가	-8192
면이	-8193
▁아저씨	-8194
▁스트라이크	-8195
IP	-8196
▁중립	-8197
▁사냥꾼	-8198
▁등장하는데	-8199
▁브랜	-8200
▁부상으로	-8201
▁wh	-8202
했듯이	-8203
희가	-8204
▁관련이	-8205
▁걸리는	-8206
▁다리를	-8207
▁160	-8208
▁드롭	-8209
ick	-8210
▁좁은	-8211
▁엄밀	-8212
▁140	-8213
혀서	-8214
권에서는	-8215
▁사전	-8216
곡으로	-8217
상황	-8218
▁플레이어를	-8219
▁길드	-8220
노를	-8221
▁구할	-8222
▁비율	-8223
▁수사	-8224
▁아끼	-8225
▁따지면	-8226
▁아일랜드	-8227
고지	-8228
▁아테	-8229
▁네덜란드	-8230
바야	-8231
▁커맨드	-8232
▁거울	-8233
▁사귀	-8234
▁Love	-8235
▁시리즈를	-8236
▁펑	-8237
▁프리미엄	-8238
공학	-8239
▁디버	-8240
▁밑에	-8241
▁써야	-8242
▁지칭	-8243
▁압도적으로	-8244
ory	-8245
백을	-8246
▁비례	-8247
▁Com	-8248
▁음악을	-8249
▁과목	-8250
▁간단한	-8251
▁원작의	-8252
▁제외하고는	-8253
곡이	-8254
▁아파	-8255
▁후반부	-8256
▁로스	-8257
▁실은	-8258
▁LV	-8259
운의	-8260
▁또다시	-8261
편에서는	-8262
▁키스	-8263
▁건조	-8264
▁벌레	-8265
▁깨달	-8266
▁수능	-8267
미나	-8268
▁그외	-8269
▁맷	-8270
▁아래의	-8271
▁한두	-8272
▁세운	-8273
겠다며	-8274
▁영향으로	-8275
TE	-8276
루와	-8277
▁명중률	-8278
▁문명	-8279
▁공격으로	-8280
▁지휘관	-8281
▁없으므로	-8282
기능	-8283
▁일로	-8284
비한	-8285
▁들어올	-8286
▁마약	-8287
▁잠입	-8288
림이	-8289
▁첩	-8290
클럽	-8291
▁네트	-8292
▁하향	-8293
리라	-8294
▁1986	-8295
▁토너	-8296
주에	-8297
ng	-8298
▁67	-8299
▁스킬은	-8300
▁교회	-8301
▁번개	-8302
비디오	-8303
55	-8304
시다	-8305
▁시체	-8306
▁비판을	-8307
▁미국에서	-8308
▁카카	-8309
▁머물	-8310
▁뮤지컬	-8311
사도	-8312
▁폭력	-8313
▁발생하는	-8314
▁찾아가	-8315
ond	-8316
▁배경으로	-8317
▁방지	-8318
▁불렀다	-8319
▁사이즈	-8320
란의	-8321
▁아트	-8322
▁한국에	-8323
▁버그가	-8324
▁독일의	-8325
▁아래에	-8326
라고도	-8327
족을	-8328
포의	-8329
▁싱크로	-8330
▁이젠	-8331
추어	-8332
드러	-8333
슨이	-8334
▁속도로	-8335
운이	-8336
ov	-8337
왕을	-8338
치면서	-8339
▁이유를	-8340
▁흩	-8341
▁마린	-8342
▁전문가	-8343
▁얻기	-8344
▁ID	-8345
▁제도	-8346
▁챔피언스	-8347
걸로	-8348
무가	-8349
▁김대	-8350
▁막차	-8351
▁위치해	-8352
▁보통은	-8353
▁기가	-8354
▁ED	-8355
상과	-8356
▁매번	-8357
▁예언	-8358
팅을	-8359
▁나타나는	-8360
▁펫	-8361
는데도	-8362
▁he	-8363
소설	-8364
커스	-8365
인들을	-8366
히코	-8367
속에	-8368
저런	-8369
▁초등학교	-8370
품이	-8371
UM	-8372
34	-8373
▁경고	-8374
▁에그	-8375
▁좋아서	-8376
천시	-8377
▁가지는	-8378
▁키타	-8379
ream	-8380
▁사태가	-8381
▁스웨덴	-8382
▁보내는	-8383
▁가치가	-8384
▁이벤트가	-8385
▁나치	-8386
▁그레	-8387
▁차기	-8388
너가	-8389
▁미네	-8390
▁시즌을	-8391
단체	-8392
▁없으나	-8393
▁별명이	-8394
▁페널티	-8395
관광	-8396
소나	-8397
전기	-8398
▁방송에서	-8399
서야	-8400
월에는	-8401
강에	-8402
속이	-8403
아야	-8404
리기도	-8405
▁도저히	-8406
TS	-8407
▁용서	-8408
▁78	-8409
▁인원	-8410
▁시리즈에서	-8411
▁브로	-8412
▁FIFA	-8413
▁개정	-8414
▁못했고	-8415
집이	-8416
▁칩	-8417
▁노리는	-8418
하길	-8419
▁왜냐	-8420
▁단행본	-8421
▁닌텐	-8422
▁이주	-8423
LE	-8424
▁이벤트를	-8425
▁모에	-8426
진으로	-8427
이라고도	-8428
▁빠져나	-8429
▁자체도	-8430
▁나간	-8431
인이다	-8432
▁SE	-8433
▁끝날	-8434
▁우월	-8435
▁속한다	-8436
신과	-8437
치도	-8438
▁공격은	-8439
▁받아서	-8440
▁배를	-8441
▁회장	-8442
▁시너	-8443
▁된다면	-8444
사회	-8445
▁승점	-8446
르며	-8447
▁어빌리티	-8448
▁누적	-8449
▁돌아다니	-8450
▁도둑	-8451
▁일격	-8452
▁놓은	-8453
▁히가시	-8454
습을	-8455
진과	-8456
챌린	-8457
▁사고를	-8458
능력이	-8459
▁연속으로	-8460
▁나왔던	-8461
▁대다수	-8462
▁떠난	-8463
▁읽어	-8464
▁사라져	-8465
▁취임	-8466
로써	-8467
▁일치	-8468
▁타마	-8469
▁증가한다	-8470
▁굵	-8471
▁이어서	-8472
▁현상이	-8473
▁무사히	-8474
▁인지도	-8475
▁너프	-8476
▁실종	-8477
▁특히나	-8478
병의	-8479
더가	-8480
▁바뀐다	-8481
▁친한	-8482
▁오락	-8483
▁재활	-8484
▁다녔	-8485
▁신도	-8486
▁내야	-8487
/1	-8488
▁위기	-8489
▁홈런을	-8490
▁머리카	-8491
▁CJ	-8492
GB	-8493
▁보완	-8494
▁특수한	-8495
▁노려	-8496
▁발생한	-8497
▁탱커	-8498
라면서	-8499
위대	-8500
▁부가	-8501
▁주장하는	-8502
일과	-8503
▁천안	-8504
▁처음엔	-8505
▁답변	-8506
▁당할	-8507
▁별도의	-8508
▁통틀	-8509
저스	-8510
먹은	-8511
▁이하의	-8512
▁곳이다	-8513
▁녹색	-8514
▁스토리를	-8515
▁으로	-8516
▁게스트	-8517
▁세르	-8518
▁꿰	-8519
온이	-8520
▁와중	-8521
▁인피	-8522
▁요약	-8523
자라는	-8524
▁크기가	-8525
▁주사	-8526
▁my	-8527
▁주인공을	-8528
▁나선	-8529
▁날리는	-8530
▁테라	-8531
▁밝히	-8532
▁지나지	-8533
함은	-8534
▁용어	-8535
먹을	-8536
▁방식을	-8537
▁밝힌	-8538
▁바닥에	-8539
▁길어	-8540
▁카자	-8541
DS	-8542
▁히나	-8543
▁무의	-8544
▁로얄	-8545
▁발을	-8546
▁무술	-8547
으니까	-8548
▁능력치가	-8549
▁결과가	-8550
▁여기는	-8551
▁하나이다	-8552
▁기용	-8553
▁대지	-8554
▁콜라보	-8555
▁사실이다	-8556
▁비웃	-8557
세한	-8558
크스	-8559
▁팔을	-8560
▁시원	-8561
▁목소리를	-8562
▁카트	-8563
▁카구	-8564
▁경우에도	-8565
▁토우	-8566
▁장탄	-8567
▁구경	-8568
▁토오	-8569
▁집어넣	-8570
▁크리스마스	-8571
▁장점이	-8572
루타	-8573
}}	-8574
ther	-8575
▁인디	-8576
▁들었다	-8577
▁연타	-8578
고한	-8579
▁날짜	-8580
▁회차	-8581
스테이지	-8582
▁김재	-8583
▁의견을	-8584
tle	-8585
▁준수한	-8586
▁보충	-8587
▁엘리트	-8588
io	-8589
▁안좋	-8590
▁저택	-8591
▁상대방	-8592
▁국가의	-8593
▁그러자	-8594
▁제한이	-8595
에이	-8596
▁개시	-8597
▁모토	-8598
▁경험이	-8599
▁누르면	-8600
▁진실을	-8601
병으로	-8602
▁직접적으로	-8603
▁언덕	-8604
국에서	-8605
96	-8606
32	-8607
▁햄	-8608
▁결합	-8609
▁노벨	-8610
연한	-8611
▁속으로	-8612
▁올라오	-8613
▁집으로	-8614
▁만들어서	-8615
▁발매되었다	-8616
매를	-8617
소총	-8618
▁부르며	-8619
면에서	-8620
▁비정	-8621
▁쓰여	-8622
▁이끌어	-8623
▁퀴	-8624
▁악의	-8625
▁진보	-8626
▁또다른	-8627
▁기점으로	-8628
▁그랑	-8629
▁쏜	-8630
▁치유	-8631
▁라이프	-8632
코드	-8633
▁법률	-8634
ont	-8635
▁넘게	-8636
▁정황	-8637
▁세뇌	-8638
▁모니	-8639
▁영원히	-8640
▁발렌	-8641
▁식물	-8642
▁폴란드	-8643
▁동화	-8644
▁전역	-8645
▁출연했다	-8646
▁유격	-8647
▁근거리	-8648
▁어두운	-8649
▁플레이가	-8650
단에서	-8651
▁무력화	-8652
보이는	-8653
▁수를	-8654
na	-8655
▁버전이	-8656
▁아버지를	-8657
▁동기	-8658
▁불이	-8659
▁이상은	-8660
가드	-8661
▁와일드	-8662
▁시에	-8663
▁종류의	-8664
▁이누	-8665
▁5%	-8666
▁드래곤볼	-8667
▁끔살	-8668
▁유발	-8669
▁여기서는	-8670
▁미쿠	-8671
▁공공	-8672
▁소요	-8673
▁막는	-8674
▁오키	-8675
실은	-8676
교회	-8677
▁지경	-8678
▁운영하는	-8679
병기	-8680
▁확장팩	-8681
동은	-8682
▁이루어져	-8683
▁화학	-8684
▁돌아가는	-8685
야는	-8686
▁일본에서는	-8687
▁엑시즈	-8688
달러	-8689
▁de	-8690
▁설명은	-8691
▁않았다고	-8692
▁참석	-8693
▁방어력이	-8694
▁아츠	-8695
▁포르투갈	-8696
음에	-8697
▁모노	-8698
▁아미	-8699
▁굿	-8700
▁넣을	-8701
▁어필	-8702
워즈	-8703
▁모로	-8704
▁음성	-8705
~6	-8706
▁다닌다	-8707
니시	-8708
▁오디션	-8709
슨의	-8710
▁만남	-8711
▁구간이	-8712
pt	-8713
달라는	-8714
비드	-8715
▁AKB	-8716
▁일행을	-8717
▁출시된	-8718
▁질문	-8719
▁나머지는	-8720
▁능력으로	-8721
▁유력	-8722
▁쌍둥이	-8723
▁페이즈	-8724
▁서구	-8725
▁세상	-8726
▁탱크	-8727
▁특별히	-8728
스런	-8729
▁용사	-8730
하고는	-8731
▁배포	-8732
리에게	-8733
▁좋다고	-8734
▁곡은	-8735
겠습니다	-8736
▁데에	-8737
폭탄	-8738
▁태도를	-8739
침을	-8740
▁형식으로	-8741
▁교사	-8742
▁레지	-8743
▁블래	-8744
▁있겠다	-8745
▁되어버렸다	-8746
/10	-8747
▁씌	-8748
함으로	-8749
▁도서관	-8750
▁함대	-8751
▁챌린	-8752
▁여유	-8753
▁들어오는	-8754
▁초록	-8755
▁레알	-8756
렐라	-8757
▁커스	-8758
▁곡의	-8759
▁터미널	-8760
름이	-8761
▁교전	-8762
▁치명적인	-8763
▁과도	-8764
▁갑작	-8765
▁트럭	-8766
▁막상	-8767
▁올릴	-8768
▁새롭게	-8769
권으로	-8770
▁난이도는	-8771
▁대성	-8772
▁동의	-8773
▁럭	-8774
배로	-8775
▁역시나	-8776
▁있음을	-8777
▁2.5	-8778
▁시로	-8779
▁3000	-8780
▁신데	-8781
▁포트	-8782
▁시계	-8783
▁이슈	-8784
▁두들겨	-8785
티스	-8786
▁이용할	-8787
▁증언	-8788
▁공허	-8789
▁성격을	-8790
▁놔	-8791
감에	-8792
▁종목	-8793
럽게	-8794
▁배달	-8795
▁코토	-8796
▁남아있는	-8797
▁피해가	-8798
▁시리즈가	-8799
▁김경	-8800
▁존경	-8801
▁남북	-8802
ps	-8803
대기	-8804
▁충성	-8805
▁강의	-8806
▁되었지만	-8807
▁전무	-8808
▁보이는데	-8809
이랑	-8810
▁지키는	-8811
▁오크	-8812
▁시크	-8813
살을	-8814
▁박근	-8815
▁시간의	-8816
▁시대의	-8817
▁오랜만에	-8818
▁인종	-8819
▁라틴	-8820
▁스프링	-8821
▁카드로	-8822
▁거지	-8823
▁튼	-8824
건담	-8825
더를	-8826
▁첫차	-8827
▁한방에	-8828
▁교과	-8829
▁트리플	-8830
머스	-8831
▁데빌	-8832
▁얻어맞	-8833
▁중요하다	-8834
▁어이	-8835
▁갖추고	-8836
▁극히	-8837
▁어렸을	-8838
▁상호	-8839
▁느끼고	-8840
▁혐오	-8841
국은	-8842
▁앞두고	-8843
▁주역	-8844
▁짱	-8845
▁제정	-8846
속으로	-8847
▁세인트	-8848
▁둘을	-8849
▁듯이	-8850
▁업체	-8851
▁스크린	-8852
▁나폴	-8853
▁장거리	-8854
▁뜯어	-8855
▁경기에	-8856
▁말투	-8857
▁나중에는	-8858
작으로	-8859
탐정	-8860
▁뜬금없이	-8861
▁kt	-8862
▁항복	-8863
주일	-8864
▁데미지는	-8865
마크	-8866
▁중형	-8867
▁맞을	-8868
▁서서히	-8869
▁스타리그	-8870
반이	-8871
▁되었다는	-8872
▁글로벌	-8873
▁1985	-8874
▁대조	-8875
아시아	-8876
▁의원	-8877
▁여지가	-8878
▁음식을	-8879
▁슬라이	-8880
▁머신	-8881
▁프란	-8882
▁야쿠	-8883
▁이토	-8884
있었다	-8885
▁XX	-8886
▁득표	-8887
▁본작	-8888
▁포기하고	-8889
▁상의	-8890
▁바가	-8891
▁한타	-8892
▁측에서	-8893
▁관람	-8894
손으로	-8895
▁완전한	-8896
▁계통	-8897
▁화성	-8898
▁전세계	-8899
▁도시철도	-8900
STER	-8901
보의	-8902
▁것보다	-8903
▁항목을	-8904
터로	-8905
만화	-8906
진에	-8907
▁선행	-8908
▁위엄	-8909
▁기지	-8910
▁기록한	-8911
례를	-8912
전한	-8913
▁리뷰	-8914
▁나라의	-8915
인도	-8916
▁못해서	-8917
후에	-8918
▁토벌	-8919
▁땅에	-8920
노트	-8921
▁예전에	-8922
▁넘버	-8923
▁밀리	-8924
▁이런저런	-8925
▁때문이라고	-8926
▁볼트	-8927
지거나	-8928
▁보냈	-8929
되었기	-8930
▁700	-8931
네요	-8932
▁무시무시한	-8933
▁업데이트로	-8934
▁이유도	-8935
▁불교	-8936
31	-8937
▁SNS	-8938
▁1984	-8939
겠어	-8940
는게	-8941
▁작화	-8942
▁호환	-8943
▁사정거리	-8944
▁DC	-8945
▁처참	-8946
▁최하	-8947
▁후기	-8948
▁구성되어	-8949
▁올라가는	-8950
박스	-8951
▁포함되어	-8952
건의	-8953
▁성을	-8954
▁이야기는	-8955
▁속의	-8956
▁요구하는	-8957
우라	-8958
▁풀려	-8959
▁저지른	-8960
▁예정이다	-8961
rd	-8962
▁막내	-8963
ade	-8964
결을	-8965
▁AS	-8966
ian	-8967
브로	-8968
▁삶을	-8969
▁금액	-8970
났고	-8971
구에서	-8972
▁당신의	-8973
해주고	-8974
▁전주	-8975
▁끊어	-8976
??	-8977
▁즉사	-8978
76	-8979
릭스	-8980
▁선수를	-8981
▁영토	-8982
차별	-8983
▁메모	-8984
용의	-8985
▁Dr	-8986
▁병원	-8987
az	-8988
▁올드	-8989
▁죽게	-8990
▁침입	-8991
▁역사를	-8992
▁더이상	-8993
▁잘라	-8994
▁좋아한다	-8995
▁느려	-8996
야를	-8997
▁sh	-8998
▁에이지	-8999
▁해준다	-9000
절한	-9001
▁김현	-9002
하였는데	-9003
▁임신	-9004
▁북부	-9005
▁작품은	-9006
▁조금만	-9007
▁5.	-9008
▁GP	-9009
▁에로	-9010
300	-9011
▁가만히	-9012
▁람	-9013
▁1500	-9014
▁유재	-9015
▁미묘	-9016
▁부문	-9017
타니	-9018
▁별의	-9019
▁있기도	-9020
▁쯤	-9021
았기	-9022
▁무산	-9023
▁Station	-9024
~19	-9025
기록	-9026
▁보면서	-9027
▁보여줬	-9028
▁이수	-9029
▁EZ	-9030
▁많으며	-9031
열을	-9032
▁노가	-9033
환의	-9034
▁고기	-9035
림의	-9036
포스	-9037
▁가능성은	-9038
편을	-9039
▁For	-9040
▁되므로	-9041
리한	-9042
▁평생	-9043
▁정체는	-9044
▁남자가	-9045
계획	-9046
문학	-9047
▁정비	-9048
▁1960	-9049
▁상태였다	-9050
▁스펠	-9051
우주	-9052
▁여기저	-9053
▁증오	-9054
령의	-9055
▁귀엽	-9056
▁시작된	-9057
▁영광	-9058
부장	-9059
명과	-9060
▁여학생	-9061
▁죽었다	-9062
▁소속팀	-9063
▁요원	-9064
▁DD	-9065
▁썼다	-9066
우면	-9067
▁나이에	-9068
라딘	-9069
▁진압	-9070
▁캠페인	-9071
▁함부로	-9072
공격을	-9073
조직	-9074
▁구슬	-9075
▁편에	-9076
▁받기	-9077
▁피에	-9078
스러워	-9079
▁확대	-9080
▁흡사	-9081
▁6,	-9082
▁중복	-9083
▁소식이	-9084
있을	-9085
▁지키기	-9086
▁중국어	-9087
늦게	-9088
▁복잡한	-9089
▁루이	-9090
▁디스크	-9091
▁대치	-9092
네스	-9093
▁맡게	-9094
▁사가	-9095
▁넘어가는	-9096
▁창원	-9097
잡이	-9098
런트	-9099
▁재정	-9100
▁포위	-9101
세서	-9102
바시	-9103
▁되살	-9104
▁타율	-9105
몬의	-9106
▁정상적인	-9107
간을	-9108
▁이걸로	-9109
▁나오지만	-9110
▁쪼	-9111
▁오로지	-9112
▁트라우	-9113
셔널	-9114
하곤	-9115
었는지	-9116
노는	-9117
▁당신이	-9118
▁모티브로	-9119
▁문제점	-9120
▁이긴	-9121
▁출력	-9122
▁세계에	-9123
일지도	-9124
리아가	-9125
란이	-9126
▁쓸만한	-9127
▁훈련을	-9128
등한	-9129
▁추종	-9130
▁마케	-9131
▁대신에	-9132
▁마스크	-9133
▁지역은	-9134
▁주식	-9135
▁물질	-9136
▁끊임	-9137
▁에어로	-9138
마냥	-9139
르와	-9140
▁땅을	-9141
▁아서	-9142
▁잉여	-9143
▁버튼을	-9144
▁숫자	-9145
▁최우	-9146
▁변화가	-9147
▁날카	-9148
레인지	-9149
▁집행	-9150
반의	-9151
시키면	-9152
▁중후반	-9153
센트	-9154
회말	-9155
▁중세	-9156
ason	-9157
▁줄여	-9158
ww	-9159
카이도	-9160
▁간간	-9161
▁먹으면	-9162
▁노선을	-9163
▁말로는	-9164
있으며	-9165
싸움	-9166
열이	-9167
▁자본	-9168
▁기회가	-9169
▁아닌데	-9170
▁들어가서	-9171
▁리타이어	-9172
5%	-9173
mer	-9174
▁백성	-9175
디는	-9176
7,	-9177
▁마냥	-9178
러브	-9179
이었을	-9180
키아	-9181
▁플래시	-9182
들이나	-9183
▁얻었다	-9184
서울	-9185
▁이닝	-9186
▁나오면서	-9187
ost	-9188
▁나갈	-9189
렸는데	-9190
종은	-9191
봐도	-9192
▁토론	-9193
▁보정	-9194
국으로	-9195
▁호평을	-9196
rom	-9197
▁동남	-9198
▁영화의	-9199
▁가리지	-9200
▁기존에	-9201
▁나왔는데	-9202
테일	-9203
▁수치가	-9204
▁아니기	-9205
▁아이가	-9206
▁회상	-9207
▁재장전	-9208
미사	-9209
▁팀에	-9210
▁아이템이	-9211
▁비주얼	-9212
▁늙	-9213
▁제자	-9214
▁형사	-9215
▁69	-9216
▁Su	-9217
▁스킬로	-9218
▁유래는	-9219
▁디즈	-9220
숙한	-9221
▁기기	-9222
▁둠	-9223
▁콘솔	-9224
▁않았다는	-9225
▁가기	-9226
▁불의	-9227
▁천연	-9228
렸다는	-9229
해져서	-9230
▁변태	-9231
▁일에	-9232
포트	-9233
▁방식이	-9234
▁매치	-9235
▁해안	-9236
▁비극	-9237
▁생년	-9238
▁드래프트	-9239
▁벼	-9240
▁금융	-9241
▁자신들이	-9242
저를	-9243
동과	-9244
▁양성	-9245
▁스나이	-9246
킨다	-9247
▁재판	-9248
▁호흡	-9249
▁뮤직비디오	-9250
▁잇는	-9251
▁메이드	-9252
▁울트라맨	-9253
▁지은	-9254
▁화물	-9255
▁투구	-9256
6,	-9257
▁군대를	-9258
44	-9259
▁냈	-9260
ach	-9261
시켜서	-9262
▁철거	-9263
▁몫	-9264
▁아카데미	-9265
스피	-9266
▁조건이	-9267
▁되어있다	-9268
▁후퇴	-9269
▁윈도우	-9270
▁실질적인	-9271
▁남기고	-9272
▁바꿀	-9273
▁투어	-9274
▁수록된	-9275
하지도	-9276
▁개설	-9277
▁여럿	-9278
▁어디서	-9279
▁분당	-9280
▁루카	-9281
▁사신	-9282
▁거는	-9283
▁불만을	-9284
▁수요가	-9285
합이	-9286
▁맞는다	-9287
▁라운드	-9288
▁아버지는	-9289
▁1.2	-9290
▁보석	-9291
▁개념이	-9292
▁미노	-9293
▁인구가	-9294
▁신라	-9295
라이브	-9296
▁호불	-9297
▁유지하고	-9298
▁용인	-9299
건지	-9300
▁일본판	-9301
너의	-9302
▁엄격	-9303
희의	-9304
▁불사	-9305
▁브레	-9306
▁크래	-9307
우스의	-9308
스레	-9309
화점	-9310
▁끝난다	-9311
들처럼	-9312
켰다	-9313
▁가죽	-9314
▁딜레이	-9315
▁티켓	-9316
▁불펜	-9317
피가	-9318
베이터	-9319
적으로도	-9320
▁잉글랜드	-9321
▁전방	-9322
▁재개	-9323
필살	-9324
▁쉬워	-9325
AP	-9326
▁입는	-9327
▁달라고	-9328
▁부작	-9329
이라기	-9330
▁츠바	-9331
▁$	-9332
▁계기가	-9333
나로	-9334
▁라그	-9335
▁결정적인	-9336
▁무쌍	-9337
▁유리한	-9338
▁조별	-9339
▁감지	-9340
▁당일	-9341
▁건물을	-9342
▁사용된	-9343
▁콘서트	-9344
▁읽는	-9345
▁막강	-9346
▁Windows	-9347
▁힌	-9348
▁해킹	-9349
▁세이브	-9350
축구	-9351
▁온다	-9352
▁등장할	-9353
▁부인	-9354
▁크림	-9355
MS	-9356
법으로	-9357
동물	-9358
▁즉위	-9359
▁대전차	-9360
영을	-9361
www	-9362
▁퍼포	-9363
▁Fate	-9364
계는	-9365
▁명목	-9366
지니	-9367
▁자녀	-9368
▁나무위키	-9369
▁차이를	-9370
▁시상	-9371
▁소속의	-9372
경제	-9373
▁커서	-9374
▁개발한	-9375
▁말라고	-9376
ash	-9377
▁특징이다	-9378
▁빌드	-9379
매치	-9380
▁만일	-9381
▁거친	-9382
▁발동할	-9383
▁시간은	-9384
항목	-9385
과정	-9386
▁Star	-9387
▁25%	-9388
▁유인	-9389
▁투척	-9390
▁포격	-9391
▁기상	-9392
▁볼넷	-9393
인데다가	-9394
▁입장에선	-9395
▁허락	-9396
▁니콜	-9397
/5	-9398
▁흔한	-9399
▁베네	-9400
▁슬레이	-9401
▁도박	-9402
미에	-9403
주와	-9404
▁작업을	-9405
▁화력이	-9406
▁신호	-9407
▁히토	-9408
AK	-9409
sp	-9410
▁보이기도	-9411
▁헝	-9412
되므로	-9413
버가	-9414
▁쓰인	-9415
▁당한다	-9416
▁갈등	-9417
▁트루	-9418
▁있기는	-9419
▁이웃	-9420
▁아시안	-9421
씨는	-9422
▁한반	-9423
▁오전	-9424
▁간주	-9425
▁플레이어는	-9426
▁유의	-9427
▁자이언츠	-9428
층에	-9429
▁쪽에	-9430
▁할수	-9431
▁명백	-9432
▁후의	-9433
▁공지	-9434
▁신입	-9435
▁모티브는	-9436
▁마루	-9437
▁끝으로	-9438
▁최상위	-9439
상으로는	-9440
▁비틀	-9441
▁일렉	-9442
▁대상을	-9443
▁비유	-9444
iss	-9445
▁그러면	-9446
▁못하면	-9447
느니	-9448
▁전락	-9449
▁중첩	-9450
차원	-9451
▁자라	-9452
▁학교에	-9453
▁나지	-9454
ower	-9455
▁엘리자	-9456
▁싶으면	-9457
▁무지막	-9458
▁줬	-9459
노스케	-9460
▁각각의	-9461
러는	-9462
▁샌드	-9463
▁하쿠	-9464
▁서클	-9465
투표	-9466
▁기술은	-9467
CD	-9468
▁상점	-9469
▁시청률	-9470
▁일일	-9471
▁악몽	-9472
▁원자	-9473
▁거기다가	-9474
▁작곡가	-9475
▁충실	-9476
▁얽	-9477
종합	-9478
▁사립	-9479
경은	-9480
▁생길	-9481
기게	-9482
▁올랐다	-9483
게이트	-9484
배치	-9485
▁돌아와	-9486
▁성향이	-9487
▁어벤	-9488
▁종이	-9489
▁파멸	-9490
익을	-9491
▁일어판	-9492
▁4:	-9493
드래곤	-9494
▁삼아	-9495
▁쓰러트	-9496
준이	-9497
▁얘기를	-9498
▁학생회	-9499
▁사라지고	-9500
▁같다고	-9501
뉴얼	-9502
▁거미	-9503
▁파르	-9504
▁스포일러	-9505
▁기록하며	-9506
섰다	-9507
▁식당	-9508
▁디자인이	-9509
카미	-9510
▁짜증	-9511
▁대사는	-9512
마일	-9513
▁사유	-9514
▁팔아	-9515
▁토마	-9516
하르	-9517
▁맡아	-9518
▁발굴	-9519
▁무리가	-9520
▁수염	-9521
▁걸린다	-9522
▁잠수함	-9523
▁복수를	-9524
▁재회	-9525
▁번에	-9526
▁뒤에는	-9527
▁청소	-9528
▁변환	-9529
포르	-9530
▁우에	-9531
▁무지막지	-9532
▁법정	-9533
▁상륙	-9534
리우스	-9535
▁한방	-9536
▁너무나도	-9537
▁토요	-9538
▁결론	-9539
▁심판	-9540
▁생년월	-9541
무쌍	-9542
▁다녀	-9543
OU	-9544
▁지시	-9545
▁제작진	-9546
형태	-9547
▁히틀	-9548
▁단종	-9549
▁불량	-9550
란을	-9551
▁분기	-9552
▁어지간한	-9553
님을	-9554
▁직접적인	-9555
ish	-9556
▁재등장	-9557
▁나도	-9558
중간	-9559
니혼	-9560
▁귀신	-9561
▁클릭	-9562
했습니다	-9563
리코	-9564
▁배드	-9565
▁사고가	-9566
▁사용하며	-9567
▁아니라서	-9568
▁보존	-9569
▁우라	-9570
▁화력을	-9571
프라	-9572
▁로이	-9573
▁이순	-9574
▁헷	-9575
▁가디언	-9576
키지	-9577
▁간간히	-9578
▁시대에	-9579
▁세력이	-9580
▁의해서	-9581
키퍼	-9582
▁CF	-9583
▁62	-9584
▁올렸다	-9585
▁제트	-9586
열차	-9587
▁강등	-9588
▁하나다	-9589
▁번도	-9590
▁통칭	-9591
▁뒤늦게	-9592
매니아	-9593
▁본명은	-9594
▁무섭	-9595
▁드라이브	-9596
ky	-9597
▁실수	-9598
▁0.3	-9599
▁프로리그	-9600
▁독재	-9601
▁곡이다	-9602
▁It	-9603
▁운이	-9604
▁연령	-9605
▁간호	-9606
▁궁금	-9607
티를	-9608
▁상태를	-9609
▁어쩌면	-9610
▁최대의	-9611
수사	-9612
▁주간	-9613
▁패턴을	-9614
▁각자	-9615
▁대하여	-9616
들에겐	-9617
▁그림을	-9618
▁작전을	-9619
▁느끼는	-9620
▁아니더라도	-9621
▁수월	-9622
렸지만	-9623
▁소문이	-9624
군에게	-9625
아아	-9626
▁영역	-9627
번이나	-9628
ial	-9629
▁캐릭터들이	-9630
▁빅토	-9631
▁외야	-9632
된다고	-9633
▁Sc	-9634
▁며칠	-9635
▁본명	-9636
▁아인	-9637
페이스	-9638
▁We	-9639
▁나오게	-9640
▁좋지만	-9641
▁질투	-9642
9,	-9643
▁결정적으로	-9644
▁전장	-9645
강에서	-9646
▁툴	-9647
▁전승	-9648
▁출간	-9649
▁가치	-9650
▁조롱	-9651
▁계열의	-9652
▁병기	-9653
▁위기를	-9654
▁방치	-9655
CS	-9656
▁한창	-9657
▁되도록	-9658
▁기재	-9659
아니	-9660
▁만만	-9661
▁손꼽	-9662
블린	-9663
▁배려	-9664
자나	-9665
디에	-9666
서도	-9667
▁실전	-9668
▁하려고	-9669
ft	-9670
했으니	-9671
▁사거리가	-9672
씨를	-9673
▁리치	-9674
란히	-9675
▁휠	-9676
ble	-9677
▁안습한	-9678
▁오염	-9679
▁않다는	-9680
▁혈액형	-9681
ARD	-9682
▁똑같다	-9683
▁스텝	-9684
▁선수는	-9685
▁패밀	-9686
▁대량	-9687
▁초보	-9688
NA	-9689
▁마드리	-9690
▁BR	-9691
▁대리	-9692
▁적들을	-9693
▁기묘한	-9694
▁나노	-9695
▁부정적인	-9696
▁둘다	-9697
▁영상이	-9698
▁정부의	-9699
wik	-9700
▁대접	-9701
▁SF	-9702
▁국왕	-9703
▁용이	-9704
▁혼돈	-9705
▁대표팀	-9706
▁권장	-9707
ex	-9708
▁유니크	-9709
▁Fl	-9710
조에	-9711
▁성격은	-9712
▁터져	-9713
▁대차	-9714
▁지녔	-9715
▁UN	-9716
▁고객	-9717
▁퍼포먼	-9718
▁만들어낸	-9719
▁원더	-9720
씨의	-9721
▁피터	-9722
▁개체	-9723
관에서	-9724
▁전북	-9725
▁포수	-9726
시스트	-9727
파크	-9728
▁동급	-9729
▁시카	-9730
▁돼지	-9731
▁양의	-9732
▁신형	-9733
▁상대방의	-9734
ook	-9735
▁김상	-9736
▁왜곡	-9737
▁정도를	-9738
어지는	-9739
▁누나	-9740
▁신경을	-9741
▁활성화	-9742
▁OP	-9743
▁자유롭게	-9744
▁앨리스	-9745
▁조용히	-9746
있지	-9747
▁뚫고	-9748
▁미래를	-9749
▁선택할	-9750
▁스카우	-9751
▁제네	-9752
▁버전은	-9753
▁오다	-9754
ll	-9755
▁금메달	-9756
▁Wi	-9757
▁혜택	-9758
▁너희	-9759
▁설령	-9760
범위	-9761
히트	-9762
▁깜짝	-9763
룡의	-9764
▁로즈	-9765
▁초반부터	-9766
어스	-9767
▁경악	-9768
▁배출	-9769
ug	-9770
▁지속시간	-9771
▁이용객	-9772
▁마신	-9773
만으로도	-9774
관련	-9775
▁가난	-9776
▁길게	-9777
▁정부가	-9778
▁커스텀	-9779
▁프라임	-9780
▁위원	-9781
▁편이고	-9782
▁엎	-9783
영상	-9784
게이머	-9785
▁부착	-9786
▁에피소드에서	-9787
▁기갑	-9788
▁썬더	-9789
▁스킬의	-9790
▁연봉	-9791
▁일본에	-9792
▁세력을	-9793
▁폴아웃	-9794
act	-9795
▁어뢰	-9796
▁해골	-9797
▁미나미	-9798
▁권력	-9799
▁사망한다	-9800
▁스캔	-9801
▁가벼운	-9802
▁여행을	-9803
▁합니다	-9804
▁만나는	-9805
▁창설	-9806
▁와카	-9807
소드	-9808
오로	-9809
irl	-9810
▁실질적으로	-9811
▁세상에	-9812
대원	-9813
▁기회	-9814
길을	-9815
로소	-9816
▁테츠	-9817
▁쓰게	-9818
▁질문에	-9819
▁5000	-9820
민주당	-9821
▁정도면	-9822
▁형태를	-9823
▁인식이	-9824
경기에서	-9825
▁약탈	-9826
가리	-9827
▁편에서	-9828
▁긁	-9829
▁투명	-9830
장비	-9831
▁자국	-9832
일보	-9833
▁아래로	-9834
훈이	-9835
▁달리는	-9836
▁도움으로	-9837
▁막고	-9838
▁섀도우	-9839
▁힙	-9840
▁부드	-9841
▁키라	-9842
싱턴	-9843
▁이동속도	-9844
▁후반부에	-9845
▁횟수	-9846
▁엔진을	-9847
▁로빈	-9848
▁사나	-9849
▁솔직	-9850
▁화제가	-9851
▁차지하는	-9852
레가	-9853
▁미키	-9854
▁진학	-9855
달아	-9856
▁프렌	-9857
루수	-9858
▁반박	-9859
▁열혈	-9860
구청	-9861
▁남을	-9862
▁끄	-9863
▁탐험	-9864
▁일부를	-9865
전문	-9866
▁63	-9867
▁경직	-9868
바를	-9869
▁가해	-9870
▁에르	-9871
▁야마토	-9872
▁쟁	-9873
▁공사	-9874
▁구별	-9875
▁15%	-9876
블리	-9877
속을	-9878
능한	-9879
▁그러던	-9880
테랑	-9881
.18	-9882
품으로	-9883
▁튕겨	-9884
▁전원이	-9885
▁앞의	-9886
무의	-9887
▁눈치채	-9888
교가	-9889
▁7,	-9890
▁있거나	-9891
▁은신	-9892
▁백인	-9893
▁사이에서는	-9894
▁연인	-9895
▁같은데	-9896
▁찾아볼	-9897
▁츤	-9898
▁한일	-9899
지다	-9900
히게	-9901
▁폭탄을	-9902
67	-9903
▁모양의	-9904
▁지는	-9905
▁하츠	-9906
▁담당하는	-9907
▁빠르고	-9908
▁복구	-9909
▁your	-9910
▁폭파	-9911
▁살아남은	-9912
▁위치가	-9913
링크	-9914
▁법칙	-9915
가게	-9916
▁요금	-9917
▁좌절	-9918
▁치즈	-9919
▁성적이	-9920
▁PR	-9921
▁곱	-9922
▁쓸만	-9923
▁찍는	-9924
▁싼	-9925
▁안경	-9926
▁가까워	-9927
▁가능하지만	-9928
▁추정되는	-9929
orm	-9930
▁늘려	-9931
▁지나면	-9932
▁개별	-9933
▁미도	-9934
▁끝나는	-9935
▁일방적으로	-9936
▁상대할	-9937
▁그녀에게	-9938
▁드문	-9939
▁1982	-9940
시청	-9941
▁조우	-9942
▁that	-9943
군에서	-9944
▁옹호	-9945
▁수면	-9946
▁정수	-9947
감은	-9948
체인	-9949
▁묻자	-9950
▁태클	-9951
/20	-9952
▁이노	-9953
타자	-9954
▁출격	-9955
▁쫓겨	-9956
로이드	-9957
▁상실	-9958
▁현장	-9959
▁묘하게	-9960
범죄	-9961
▁주제	-9962
스토리	-9963
▁프레이	-9964
▁상반	-9965
▁셔틀	-9966
▁에픽	-9967
저리	-9968
97	-9969
▁주차	-9970
▁책임을	-9971
▁설명이	-9972
▁사제	-9973
▁불쌍	-9974
속의	-9975
자치	-9976
▁포획	-9977
▁정류장	-9978
▁주의해야	-9979
▁히비	-9980
▁Gr	-9981
▁장치	-9982
▁상황은	-9983
▁3.5	-9984
▁정보가	-9985
▁것과는	-9986
로에	-9987
▁여타	-9988
▁뷰	-9989
▁코르	-9990
회복	-9991
▁생각한	-9992
▁쳐들어	-9993
히면	-9994
▁공연을	-9995
▁엄연히	-9996
The	-9997
▁것이기	-9998
일리	-9999
였기에	-10000
▁일본은	-10001
크리	-10002
▁후일	-10003
회전	-10004
▁싶을	-10005
▁짐작	-10006
▁정신이	-10007
▁볼수	-10008
▁105	-10009
들에게도	-10010
.15	-10011
▁얼티	-10012
▁그날	-10013
▁하라	-10014
▁이때는	-10015
▁프로그램을	-10016
▁그중	-10017
▁토르	-10018
pl	-10019
▁원조	-10020
버튼	-10021
▁넘치는	-10022
▁얻는다	-10023
인칭	-10024
천사	-10025
▁유망	-10026
▁미루	-10027
리에이션	-10028
▁원작에서는	-10029
▁배가	-10030
▁삼각	-10031
▁쿨타	-10032
▁바에	-10033
▁신용	-10034
▁올랐	-10035
▁페이스북	-10036
질의	-10037
살이	-10038
▁자전거	-10039
▁골을	-10040
오스	-10041
▁74	-10042
▁주의할	-10043
▁이니	-10044
▁여의	-10045
▁Mk	-10046
▁주제가	-10047
정치	-10048
▁구축함	-10049
▁라인업	-10050
▁결투	-10051
▁폐기	-10052
▁DS	-10053
▁반응은	-10054
▁벙	-10055
▁의상	-10056
갔고	-10057
소리를	-10058
▁상영	-10059
▁당신은	-10060
▁공개되었다	-10061
▁음원	-10062
▁개혁	-10063
▁에릭	-10064
▁유혹	-10065
▁호소	-10066
▁시키는	-10067
▁옆에서	-10068
▁개업일	-10069
▁사회적	-10070
▁경남	-10071
▁부르고	-10072
▁오죽	-10073
▁헷갈	-10074
▁상자	-10075
▁무기의	-10076
▁모델은	-10077
▁들어갔다	-10078
놓는	-10079
▁그러니	-10080
▁61	-10081
▁아들을	-10082
▁사용시	-10083
▁공방	-10084
▁히메	-10085
▁속하는	-10086
분으로	-10087
▁체인지	-10088
▁즐겨	-10089
▁제노	-10090
▁할인	-10091
▁서로의	-10092
▁일어날	-10093
▁본격적인	-10094
▁즐기는	-10095
▁담긴	-10096
▁응용	-10097
▁기사단	-10098
▁비하	-10099
▁범용	-10100
▁체험	-10101
▁인지도가	-10102
층의	-10103
집에	-10104
▁털어	-10105
▁여자가	-10106
▁피해량	-10107
▁인격	-10108
▁모르게	-10109
▁적중	-10110
월의	-10111
▁지워	-10112
회차	-10113
▁모델이	-10114
츠는	-10115
파는	-10116
▁발행	-10117
▁경우를	-10118
▁사건에	-10119
▁챔피언십	-10120
▁행위를	-10121
▁흑인	-10122
네는	-10123
양의	-10124
미로	-10125
▁품고	-10126
▁론	-10127
해준	-10128
▁설이	-10129
▁불행	-10130
▁아스트	-10131
▁사천	-10132
▁메구	-10133
들로부터	-10134
예술	-10135
▁주장을	-10136
▁케이블	-10137
▁사무라이	-10138
왔고	-10139
▁보유한	-10140
▁필요는	-10141
▁쌀	-10142
▁트럼	-10143
▁던지는	-10144
▁에디	-10145
▁규모가	-10146
터테인먼트	-10147
▁평가는	-10148
권과	-10149
장애	-10150
린은	-10151
▁엘리자베	-10152
▁너의	-10153
▁전력을	-10154
▁하루카	-10155
▁하급	-10156
▁구성된	-10157
▁휘둘	-10158
▁벗어	-10159
▁별도로	-10160
▁났	-10161
▁세부	-10162
▁사령관	-10163
▁입장을	-10164
▁1983	-10165
민은	-10166
▁거론	-10167
거지	-10168
정하고	-10169
▁유나이	-10170
내에	-10171
▁중순	-10172
들끼리	-10173
▁의미는	-10174
▁참여한	-10175
으면서도	-10176
▁갚	-10177
▁입대	-10178
천만	-10179
랜드의	-10180
▁길고	-10181
토스	-10182
MAX	-10183
▁피아노	-10184
▁프랑스의	-10185
본부	-10186
▁비율이	-10187
▁상식	-10188
▁예시	-10189
라에게	-10190
처리	-10191
목록	-10192
▁그레이트	-10193
▁AN	-10194
▁실제로도	-10195
▁서로를	-10196
터와	-10197
▁우리의	-10198
플러	-10199
▁내린	-10200
▁상황이었다	-10201
▁아동	-10202
비용	-10203
연장	-10204
▁실사	-10205
렉션	-10206
▁교도	-10207
▁날이	-10208
▁대회에서	-10209
▁유산	-10210
▁소방	-10211
▁캐스터	-10212
▁해머	-10213
▁기생	-10214
▁계획이	-10215
백이	-10216
작은	-10217
▁훼	-10218
▁PP	-10219
▁모습에	-10220
▁오스트리아	-10221
내서	-10222
바야시	-10223
▁게이머	-10224
하기를	-10225
▁대통령이	-10226
뮤직	-10227
▁물에	-10228
하겠다는	-10229
▁여객	-10230
ype	-10231
▁퍼져	-10232
▁명문	-10233
층이	-10234
▁거라	-10235
▁철수	-10236
▁유닛의	-10237
▁86	-10238
했듯	-10239
▁간에	-10240
▁캐릭	-10241
호환	-10242
▁선제	-10243
▁편이며	-10244
▁야간	-10245
▁시작했고	-10246
▁어드벤처	-10247
▁이오	-10248
즈에	-10249
▁시종	-10250
▁적으로	-10251
▁{{	-10252
▁창단	-10253
▁통치	-10254
자라고	-10255
▁이집트	-10256
▁Go	-10257
▁수직	-10258
▁170	-10259
▁복제	-10260
▁받으면	-10261
▁사와	-10262
천의	-10263
▁ch	-10264
▁사용가능	-10265
거라	-10266
▁육체	-10267
▁일부는	-10268
▁영혼을	-10269
▁못했던	-10270
▁막대한	-10271
▁바꾸는	-10272
해선	-10273
박이	-10274
▁가질	-10275
▁선두	-10276
▁전체의	-10277
▁당사	-10278
▁카리스	-10279
▁생년월일	-10280
리던	-10281
창을	-10282
▁초중반	-10283
▁어색	-10284
▁LA	-10285
DX	-10286
▁남겼다	-10287
▁하반	-10288
비전	-10289
▁바위	-10290
▁연출이	-10291
▁싶다고	-10292
▁상태에	-10293
42	-10294
대문	-10295
어에	-10296
신도	-10297
▁가요	-10298
▁어리	-10299
▁드릴	-10300
주인공	-10301
▁일단은	-10302
▁쌓아	-10303
▁호시	-10304
▁주된	-10305
나베	-10306
▁배정	-10307
▁캐리	-10308
감과	-10309
음으로	-10310
▁{{{	-10311
▁살아있는	-10312
▁엄밀히	-10313
당은	-10314
▁가능하고	-10315
▁ML	-10316
▁UE	-10317
▁흡혈귀	-10318
▁얀	-10319
텐데	-10320
▁시마	-10321
▁구간은	-10322
▁축제	-10323
▁차량이	-10324
호로	-10325
▁상징하는	-10326
▁복무	-10327
▁자의	-10328
▁모자라	-10329
▁낸다	-10330
▁부임	-10331
▁싸움이	-10332
▁김기	-10333
▁DE	-10334
▁조리	-10335
▁체감	-10336
▁나이는	-10337
레일	-10338
▁정반	-10339
산역	-10340
▁단위	-10341
▁팀원	-10342
▁등번호	-10343
▁차지했다	-10344
▁슬라	-10345
▁적고	-10346
▁트릭	-10347
▁기술의	-10348
JP	-10349
▁튼튼	-10350
마로	-10351
▁합의	-10352
리드	-10353
▁1.3	-10354
▁수류탄	-10355
하루	-10356
▁크라이	-10357
▁부르기도	-10358
ous	-10359
▁새겨	-10360
▁반지	-10361
▁서바이	-10362
과가	-10363
▁출루	-10364
너는	-10365
▁측정	-10366
▁아닐까	-10367
▁순수한	-10368
▁인터뷰를	-10369
▁밝은	-10370
▁아지	-10371
▁프론	-10372
현은	-10373
▁신데렐라	-10374
추는	-10375
▁NE	-10376
▁극장	-10377
▁마음대로	-10378
거다	-10379
▁물이	-10380
▁안녕	-10381
?!	-10382
몬이	-10383
▁로버트	-10384
▁배차간	-10385
클래	-10386
▁+10	-10387
▁CH	-10388
▁취약	-10389
니코	-10390
▁공장	-10391
케이	-10392
▁생김	-10393
▁인용	-10394
▁풍부	-10395
▁검술	-10396
▁선사	-10397
▁치열	-10398
▁기사를	-10399
▁CS	-10400
amp	-10401
▁뻥	-10402
▁정기	-10403
▁세라	-10404
▁나빠	-10405
도도	-10406
▁출신으로	-10407
▁전화를	-10408
▁형태가	-10409
▁애칭	-10410
▁하늘을	-10411
▁난이도를	-10412
▁한가	-10413
▁있었기에	-10414
학의	-10415
▁몰라	-10416
리스의	-10417
▁SKT	-10418
▁코스튬	-10419
▁부적	-10420
▁우르	-10421
▁음모	-10422
▁여전	-10423
있지만	-10424
프리카	-10425
▁토미	-10426
▁항의	-10427
▁사진이	-10428
액션	-10429
내에서	-10430
▁상태의	-10431
후가	-10432
▁십자	-10433
산시	-10434
▁개를	-10435
▁아군이	-10436
매가	-10437
▁구미	-10438
▁쓰던	-10439
구간	-10440
▁특이하게도	-10441
▁든다	-10442
▁호불호가	-10443
부키	-10444
▁까는	-10445
▁좌석	-10446
▁싸움에서	-10447
▁중고	-10448
▁어울리는	-10449
비행	-10450
▁레인저	-10451
▁정체가	-10452
▁마유	-10453
▁감정이	-10454
▁봤을	-10455
▁사사	-10456
▁관찰	-10457
▁긴급	-10458
영은	-10459
▁마카	-10460
▁사단	-10461
▁사서	-10462
▁플러	-10463
강의	-10464
▁대마	-10465
▁전쟁의	-10466
▁시게	-10467
▁히든	-10468
족으로	-10469
▁관여	-10470
▁디시	-10471
▁싸우게	-10472
▁어설	-10473
▁모빌	-10474
▁편하다	-10475
례로	-10476
▁말라	-10477
▁벽을	-10478
▁작품에	-10479
▁오브젝	-10480
▁않나	-10481
▁하프	-10482
▁GSL	-10483
▁차고	-10484
▁레이드	-10485
▁소중한	-10486
/6	-10487
▁지목	-10488
ING	-10489
▁오우	-10490
▁끝났	-10491
▁어렵지	-10492
▁들어와	-10493
▁클라우	-10494
▁에피소드가	-10495
▁매그	-10496
▁드라이버	-10497
▁짙	-10498
▁kg	-10499
▁듣기	-10500
▁편으로	-10501
▁특전	-10502
▁등극	-10503
▁서포터	-10504
▁잡아먹	-10505
체육	-10506
▁아무튼	-10507
냐면	-10508
▁악마의	-10509
▁이름도	-10510
▁일기	-10511
▁평일	-10512
테르	-10513
▁빠르다	-10514
어버린다	-10515
▁메이저리그	-10516
▁매드	-10517
▁많을	-10518
▁승차	-10519
보우	-10520
▁진급	-10521
▁깔아	-10522
▁주면	-10523
▁약화	-10524
내어	-10525
야와	-10526
▁초콜	-10527
▁찍고	-10528
레어	-10529
▁결심	-10530
IX	-10531
두면	-10532
▁굉장한	-10533
소와	-10534
▁멘붕	-10535
▁아군의	-10536
▁프로레	-10537
▁우울	-10538
▁누군가	-10539
▁편인데	-10540
▁데이터를	-10541
▁작품이다	-10542
▁재미있는	-10543
0000	-10544
▁끓	-10545
▁단어를	-10546
혹한	-10547
▁자꾸	-10548
했어요	-10549
▁교토	-10550
목이	-10551
▁프로게이머	-10552
▁전파	-10553
▁낚시	-10554
▁안타까	-10555
▁맞춘	-10556
▁숫자가	-10557
졌으나	-10558
부인	-10559
▁이전부터	-10560
▁리스	-10561
선생	-10562
▁시점에서는	-10563
▁먹는다	-10564
▁사로	-10565
석에서	-10566
▁묘사된다	-10567
▁시공	-10568
▁싸운	-10569
▁정예	-10570
▁코리아	-10571
▁간지	-10572
▁공격해	-10573
▁수의	-10574
곡은	-10575
▁사고로	-10576
▁올라간다	-10577
▁역습	-10578
▁차지하고	-10579
▁약점을	-10580
▁증폭	-10581
누리	-10582
▁기록은	-10583
▁미드필	-10584
ary	-10585
책으로	-10586
▁토너먼트	-10587
▁뉘	-10588
▁박근혜	-10589
88	-10590
대교	-10591
▁겹쳐	-10592
▁일반인	-10593
고리	-10594
산에	-10595
▁주류	-10596
▁어마어마한	-10597
▁깎아	-10598
▁합병	-10599
▁움직임을	-10600
▁편지를	-10601
▁태평양	-10602
▁킬러	-10603
협회	-10604
▁초인	-10605
▁왜냐하면	-10606
▁언데드	-10607
▁머리카락	-10608
▁끼고	-10609
▁누구도	-10610
▁안양	-10611
프에	-10612
▁붙인	-10613
▁느꼈	-10614
공업	-10615
파워	-10616
외의	-10617
▁배터리	-10618
▁왕국의	-10619
▁정화	-10620
▁사람으로	-10621
▁거북	-10622
반을	-10623
▁무승	-10624
▁양손	-10625
▁열리는	-10626
계약	-10627
▁않았기	-10628
▁위주의	-10629
▁전동차	-10630
▁엔드	-10631
▁되려	-10632
▁원딜	-10633
네시아	-10634
줄이	-10635
▁신사	-10636
▁젖	-10637
기준	-10638
점의	-10639
▁발음이	-10640
▁이세	-10641
▁골키퍼	-10642
▁면역	-10643
▁스키	-10644
▁시외	-10645
본다	-10646
▁시체를	-10647
▁북쪽	-10648
▁축하	-10649
▁크레딧	-10650
ink	-10651
▁낙하	-10652
▁학력	-10653
▁지키고	-10654
▁차량을	-10655
▁테니	-10656
▁침묵	-10657
장도	-10658
oll	-10659
▁시바	-10660
디움	-10661
ear	-10662
▁표현을	-10663
▁항공모	-10664
▁서비스를	-10665
풍을	-10666
▁고증	-10667
▁등도	-10668
▁소문	-10669
▁1,2	-10670
▁설명을	-10671
강을	-10672
▁요리를	-10673
▁통째로	-10674
▁카네	-10675
▁평상	-10676
▁블리자	-10677
▁스피릿	-10678
▁하마	-10679
▁야생	-10680
▁벌어지는	-10681
왕은	-10682
사에게	-10683
▁의식을	-10684
라미	-10685
▁일종	-10686
▁역사가	-10687
산으로	-10688
▁거둔	-10689
ree	-10690
▁꽉	-10691
▁겟	-10692
▁가공	-10693
차에	-10694
▁바뀌는	-10695
▁주장이	-10696
DD	-10697
▁Pr	-10698
▁손이	-10699
▁신나게	-10700
▁드러난다	-10701
▁스트레	-10702
▁스핀	-10703
▁무효화	-10704
보지	-10705
▁클론	-10706
풍의	-10707
티가	-10708
▁다카	-10709
▁포스터	-10710
▁남는	-10711
▁수색	-10712
▁소음	-10713
▁뜻한다	-10714
박한	-10715
▁쿠데	-10716
▁스탠드	-10717
▁최근에	-10718
▁일시적으로	-10719
▁다큐	-10720
삼진	-10721
▁쓸모	-10722
▁모델로	-10723
도전	-10724
▁카게	-10725
▁끌어올	-10726
민을	-10727
심의	-10728
▁메카닉	-10729
▁이쯤	-10730
시스템	-10731
들고	-10732
▁벽에	-10733
▁불태	-10734
▁동반	-10735
▁한국시리즈	-10736
당초	-10737
레를	-10738
▁피규	-10739
▁부분이다	-10740
실점으로	-10741
ai	-10742
여행	-10743
▁이로써	-10744
작인	-10745
▁절친	-10746
▁없었지만	-10747
▁산탄	-10748
▁나라를	-10749
▁스즈키	-10750
▁감싸	-10751
▁진행하는	-10752
▁중장	-10753
▁파고	-10754
바르	-10755
▁스네	-10756
▁고쳐	-10757
벽을	-10758
▁동경	-10759
▁피부	-10760
▁학교에서	-10761
리버	-10762
~10	-10763
▁올리고	-10764
▁북한의	-10765
페르	-10766
▁자금	-10767
▁아버지와	-10768
▁기억이	-10769
▁공중에서	-10770
▁내리는	-10771
▁얼굴에	-10772
▁이외에	-10773
▁기본으로	-10774
92	-10775
▁선택한	-10776
▁영어로	-10777
▁듣는다	-10778
▁유출	-10779
▁엇	-10780
디스	-10781
▁얘기가	-10782
▁정해진	-10783
▁캐치	-10784
▁디바	-10785
▁유니콘	-10786
▁유용한	-10787
▁베테랑	-10788
학적	-10789
어버리고	-10790
께끼	-10791
릴라	-10792
▁아들인	-10793
루션	-10794
타마	-10795
▁차량은	-10796
▁제목은	-10797
▁치킨	-10798
400	-10799
▁따뜻	-10800
▁빛나는	-10801
▁World	-10802
▁적게	-10803
▁이득을	-10804
▁역의	-10805
으려는	-10806
▁스컬	-10807
▁오면	-10808
▁벌인	-10809
▁맥스	-10810
백과	-10811
▁오기	-10812
철이	-10813
▁Sup	-10814
▁1,000	-10815
▁상태이다	-10816
▁기대를	-10817
▁생애	-10818
▁엘레	-10819
▁국내에서	-10820
지능	-10821
버려서	-10822
▁안정적인	-10823
▁준비를	-10824
▁한나라	-10825
▁허무	-10826
장난	-10827
히메	-10828
▁바르셀	-10829
te	-10830
▁보내고	-10831
-16	-10832
▁소송	-10833
▁87	-10834
▁나왔을	-10835
▁따라서는	-10836
대화	-10837
▁40%	-10838
퍼가	-10839
당하게	-10840
개씩	-10841
▁Br	-10842
▁거인	-10843
▁아니게	-10844
ero	-10845
있다는	-10846
시키며	-10847
▁잊혀	-10848
▁더해	-10849
.00	-10850
▁하단	-10851
▁향한	-10852
▁역임	-10853
오지	-10854
리츠	-10855
▁도적	-10856
▁뜬다	-10857
▁하에	-10858
불가	-10859
▁베타	-10860
▁민주당	-10861
▁유료	-10862
▁가져다	-10863
.16	-10864
▁맞붙	-10865
▁만드	-10866
▁단위로	-10867
▁상한	-10868
리아를	-10869
▁끊임없이	-10870
▁공무원	-10871
▁웨스트	-10872
기면	-10873
쉬를	-10874
▁세번째	-10875
▁일대	-10876
▁배운	-10877
문제	-10878
▁자존	-10879
▁안으로	-10880
▁평행	-10881
▁건국	-10882
▁진격	-10883
▁이놈	-10884
▁하필이면	-10885
▁퇴장	-10886
▁퍼즐	-10887
가면서	-10888
려야	-10889
메라	-10890
▁극도로	-10891
▁언젠가	-10892
▁특성이	-10893
▁유비	-10894
면의	-10895
▁존재로	-10896
주의를	-10897
스미	-10898
▁슬로	-10899
▁다이스	-10900
입구	-10901
▁고속도로	-10902
▁이럴	-10903
▁OG	-10904
▁한계가	-10905
▁돌아왔다	-10906
▁트랜스포	-10907
▁발로	-10908
▁바뀌어	-10909
▁제가	-10910
▁닌텐도	-10911
▁사이클	-10912
▁따르는	-10913
▁부부	-10914
▁TR	-10915
▁괴수	-10916
▁방탄	-10917
▁지향	-10918
▁안의	-10919
▁남쪽	-10920
▁변해	-10921
▁철저히	-10922
▁랜드	-10923
▁뜻으로	-10924
루미	-10925
하겠지만	-10926
▁이케	-10927
▁지도자	-10928
▁시작해서	-10929
▁딸을	-10930
까봐	-10931
▁펀치	-10932
▁이해가	-10933
▁황제의	-10934
▁코스프레	-10935
▁바이러	-10936
▁한번도	-10937
▁글이	-10938
▁풋	-10939
사나	-10940
▁방사능	-10941
막이	-10942
▁않았으나	-10943
▁안타깝	-10944
▁도망치	-10945
▁동일하게	-10946
색은	-10947
▁적용된다	-10948
중의	-10949
▁움직임	-10950
▁이상하게	-10951
▁진실	-10952
▁사용해서	-10953
▁믿을	-10954
▁충분한	-10955
치아	-10956
기며	-10957
▁우호	-10958
▁버전으로	-10959
▁멋대로	-10960
▁촌	-10961
▁부유	-10962
▁극단적인	-10963
▁왕조	-10964
▁기분이	-10965
베리	-10966
위와	-10967
▁모드를	-10968
▁크레이	-10969
▁추방	-10970
무는	-10971
저래	-10972
▁분열	-10973
▁방향을	-10974
생활을	-10975
▁사랑의	-10976
▁유성	-10977
▁GB	-10978
▁취득	-10979
▁매니저	-10980
줄을	-10981
평을	-10982
▁심사	-10983
있어서	-10984
▁벌이는	-10985
▁슌	-10986
▁압권	-10987
▁스티븐	-10988
▁감수	-10989
▁가능성을	-10990
▁않는다면	-10991
ank	-10992
▁결승전	-10993
▁닛	-10994
▁사용자	-10995
너를	-10996
표가	-10997
▁표절	-10998
▁미소녀	-10999
▁위반	-11000
▁바이올	-11001
▁않으므로	-11002
86	-11003
▁할때	-11004
바퀴	-11005
▁루나	-11006
▁고마	-11007
▁닮았다	-11008
▁김진	-11009
▁시리즈는	-11010
▁피해자	-11011
관과	-11012
▁MF	-11013
▁워싱턴	-11014
▁공격력은	-11015
px	-11016
▁국가대표팀	-11017
!!"	-11018
▁여성의	-11019
보인다	-11020
관계를	-11021
▁데이트	-11022
▁Season	-11023
▁오메가	-11024
▁장성	-11025
▁생김새	-11026
병은	-11027
▁LP	-11028
▁싶지	-11029
▁뜻이	-11030
ah	-11031
졌기	-11032
▁곡으로	-11033
스티벌	-11034
온을	-11035
▁71	-11036
▁체제	-11037
작전	-11038
▁담배	-11039
▁쵸	-11040
▁이른바	-11041
▁저작권	-11042
▁대표하는	-11043
▁제출	-11044
▁패턴은	-11045
▁프린세스	-11046
▁le	-11047
▁인물은	-11048
▁쪽에서	-11049
▁PV	-11050
▁조언	-11051
▁도와주	-11052
교사	-11053
자이	-11054
▁이야기도	-11055
준의	-11056
▁고무	-11057
▁자칭	-11058
▁유입	-11059
이다보니	-11060
▁얇	-11061
킹을	-11062
▁신선	-11063
▁기다리고	-11064
아도	-11065
▁이후로도	-11066
▁94	-11067
▁능가	-11068
▁평양	-11069
길이	-11070
레옹	-11071
▁받았고	-11072
▁84	-11073
▁마감	-11074
께서	-11075
▁가졌다	-11076
▁에리	-11077
▁끼워	-11078
▁이룬	-11079
▁시청자	-11080
▁언급된다	-11081
▁잠실	-11082
▁헤르	-11083
▁끝나면	-11084
뿐이다	-11085
▁채팅	-11086
조사	-11087
▁몰살	-11088
IVE	-11089
네를	-11090
▁대해서도	-11091
▁작품에서	-11092
▁안심	-11093
타점	-11094
▁편은	-11095
으라고	-11096
재인	-11097
▁도루	-11098
▁결국은	-11099
▁공수	-11100
▁지리	-11101
▁능력치는	-11102
▁네임드	-11103
▁원주민	-11104
▁해당한다	-11105
노와	-11106
재판	-11107
▁다이아몬드	-11108
▁lv	-11109
▁않을까	-11110
▁탓인지	-11111
▁가량	-11112
들까지	-11113
라이즈	-11114
면으로	-11115
쉽게	-11116
▁리틀	-11117
미한	-11118
▁이어진	-11119
MB	-11120
ple	-11121
▁손님	-11122
▁때와	-11123
▁수수께끼	-11124
.20	-11125
십시오	-11126
▁기도	-11127
▁반면에	-11128
▁베를	-11129
레븐	-11130
▁지고	-11131
▁고로	-11132
▁프리미어	-11133
▁소용	-11134
롭다	-11135
▁표정을	-11136
▁내에서는	-11137
노선	-11138
▁성격으로	-11139
카운	-11140
▁BGA	-11141
해줄	-11142
▁관측	-11143
레의	-11144
치킨	-11145
▁회사의	-11146
▁73	-11147
투수	-11148
▁유적	-11149
77	-11150
▁후임	-11151
버스가	-11152
▁???	-11153
주교	-11154
▁대동	-11155
▁틈을	-11156
▁말해서	-11157
▁외형	-11158
▁비스	-11159
▁선수들의	-11160
▁멍청	-11161
▁호의	-11162
가에서	-11163
▁노선은	-11164
리타	-11165
문으로	-11166
▁박지	-11167
했을때	-11168
▁애용	-11169
ven	-11170
▁아베	-11171
▁어나	-11172
터스	-11173
▁레일	-11174
▁저렇게	-11175
▁프로토스	-11176
▁관계는	-11177
▁옐	-11178
▁선회	-11179
노미야	-11180
▁브라운	-11181
▁간단하게	-11182
▁GO	-11183
▁지나가는	-11184
버리면	-11185
▁빛이	-11186
▁순으로	-11187
▁옵션이	-11188
▁끝이	-11189
▁독점	-11190
-12	-11191
▁학부	-11192
▁모습과	-11193
▁홍진	-11194
▁단어가	-11195
스틱	-11196
▁어머니의	-11197
▁감상	-11198
▁애완	-11199
▁일본이	-11200
▁내성	-11201
린다는	-11202
▁여성이	-11203
oon	-11204
▁것들이	-11205
▁분쟁	-11206
▁훔쳐	-11207
▁모은	-11208
▁아수	-11209
▁서포트	-11210
▁업로드	-11211
▁이쪽도	-11212
▁디자이	-11213
▁납득	-11214
서와	-11215
▁분해	-11216
▁컴뱃	-11217
▁1950	-11218
▁검찰	-11219
▁by	-11220
▁수습	-11221
▁시크릿	-11222
▁버섯	-11223
▁성적은	-11224
▁이래저래	-11225
▁표지	-11226
▁개인의	-11227
ey	-11228
▁초기에	-11229
▁너는	-11230
시간에	-11231
▁받기도	-11232
▁이름에	-11233
▁후방	-11234
▁발매일	-11235
▁82	-11236
▁조기	-11237
주의자	-11238
▁갖게	-11239
▁찾아온	-11240
▁김해	-11241
▁감독을	-11242
▁사람과	-11243
▁스트라이커	-11244
▁강해	-11245
▁토시	-11246
▁생각한다	-11247
▁어째서인지	-11248
▁DP	-11249
▁거라는	-11250
▁DF	-11251
아머	-11252
▁죄책	-11253
~8	-11254
▁https	-11255
토니	-11256
▁칼로	-11257
AY	-11258
브레이	-11259
▁목적을	-11260
▁그러므로	-11261
ife	-11262
▁생명력	-11263
▁맞춰서	-11264
▁사항은	-11265
▁야수	-11266
▁과장	-11267
▁함락	-11268
▁쓰기도	-11269
었다가	-11270
▁피카	-11271
▁실현	-11272
용은	-11273
▁소속사	-11274
▁솜	-11275
und	-11276
하다면	-11277
▁영향이	-11278
ool	-11279
▁배경이	-11280
율은	-11281
▁바람의	-11282
▁특징이	-11283
편은	-11284
검사	-11285
순위	-11286
▁내용의	-11287
▁했기	-11288
▁라이온즈	-11289
▁중량	-11290
▁날뛰	-11291
▁누군가가	-11292
▁승률	-11293
▁좀더	-11294
▁때문이었다	-11295
▁현재도	-11296
▁트레일러	-11297
▁수단	-11298
▁OS	-11299
▁싸우고	-11300
▁아니었	-11301
▁동쪽	-11302
▁움직일	-11303
▁출시되었다	-11304
▁선고	-11305
▁호남	-11306
▁죽으면	-11307
▁여기저기	-11308
▁UEFA	-11309
▁시즌에	-11310
▁데모	-11311
녀가	-11312
▁능력도	-11313
▁디자인을	-11314
▁시작된다	-11315
▁이어진다	-11316
▁라며	-11317
▁New	-11318
▁때에도	-11319
▁일부가	-11320
▁부근	-11321
▁오페	-11322
▁왼손	-11323
쿠가	-11324
▁우익	-11325
▁이렇다	-11326
94	-11327
▁연구를	-11328
▁밤에	-11329
▁깨닫고	-11330
▁싱가	-11331
▁덧붙여	-11332
▁무거운	-11333
▁우스	-11334
▁민폐	-11335
▁나폴레옹	-11336
▁회색	-11337
나도	-11338
▁비교해	-11339
▁자체에	-11340
▁내용이다	-11341
▁제공하는	-11342
료가	-11343
8,	-11344
▁경부	-11345
▁나갔	-11346
▁모두를	-11347
▁상성	-11348
테츠	-11349
▁골렘	-11350
▁전격	-11351
▁뿐더러	-11352
▁개성	-11353
▁만능	-11354
▁떨어지고	-11355
▁무서워	-11356
포는	-11357
방식	-11358
▁뿌리	-11359
▁실시간	-11360
이후	-11361
".	-11362
▁기둥	-11363
▁가능하게	-11364
▁변화를	-11365
네마	-11366
세와	-11367
▁배울	-11368
▁헌법	-11369
▁플레이어에게	-11370
▁디펜	-11371
▁전성기	-11372
▁왕복	-11373
▁내에서도	-11374
▁세계대전	-11375
▁않으나	-11376
▁Mar	-11377
▁밀리는	-11378
▁선수로	-11379
랄한	-11380
▁원소	-11381
▁지구의	-11382
이한	-11383
▁일족	-11384
IR	-11385
▁의미하는	-11386
▁진주	-11387
▁써도	-11388
▁1981	-11389
퍼를	-11390
▁실력은	-11391
▁잡으면	-11392
방울	-11393
▁최적	-11394
초의	-11395
▁원작과	-11396
▁기껏	-11397
▁학과	-11398
▁한국판	-11399
▁릭	-11400
▁신지	-11401
▁주택	-11402
▁높아서	-11403
▁차트	-11404
▁시골	-11405
▁혀	-11406
맨을	-11407
▁편하게	-11408
▁이번엔	-11409
▁진지하게	-11410
3%	-11411
▁속성이	-11412
급은	-11413
▁없었기	-11414
진화	-11415
버드	-11416
▁사건은	-11417
돼서	-11418
▁김유	-11419
▁변한	-11420
사격	-11421
▁달하는	-11422
일자	-11423
▁방법도	-11424
▁불타는	-11425
▁다이어	-11426
▁통솔	-11427
▁지구를	-11428
▁연쇄	-11429
해온	-11430
▁고등학생	-11431
▁저렴한	-11432
▁세계로	-11433
모습	-11434
태를	-11435
▁브라이언	-11436
▁되니	-11437
▁복합	-11438
▁연대	-11439
으신	-11440
▁봐서	-11441
▁즐길	-11442
▁하므로	-11443
▁IN	-11444
▁미코	-11445
▁결혼을	-11446
▁En	-11447
▁죽이려	-11448
▁키요	-11449
▁아키라	-11450
▁출신지	-11451
공화국	-11452
▁해치	-11453
▁합동	-11454
질은	-11455
▁쇼핑	-11456
▁하시	-11457
등장인물	-11458
파괴	-11459
▁지원하는	-11460
우치	-11461
▁무소	-11462
▁않았으며	-11463
▁긴장	-11464
▁난사	-11465
▁원숭	-11466
▁고지	-11467
▁사투	-11468
▁1979	-11469
장치	-11470
▁죠죠	-11471
▁Vol	-11472
▁가진다	-11473
▁지역이	-11474
▁정상적으로	-11475
▁강원도	-11476
▁후회	-11477
▁올해의	-11478
ase	-11479
▁문장	-11480
▁서쪽	-11481
▁And	-11482
▁디즈니	-11483
▁생각은	-11484
▁에일	-11485
▁All	-11486
군요	-11487
▁EN	-11488
▁아르바	-11489
▁우치	-11490
니카	-11491
▁파울	-11492
▁고통을	-11493
▁설정은	-11494
풍이	-11495
▁출범	-11496
▁구간을	-11497
▁미국이	-11498
트론	-11499
▁친척	-11500
▁101	-11501
▁선수의	-11502
▁시작할	-11503
▁정치인	-11504
▁나뉜	-11505
▁리처	-11506
▁축소	-11507
▁대면	-11508
▁분산	-11509
▁.4	-11510
▁최저	-11511
▁전적	-11512
▁타치	-11513
▁깐	-11514
-11	-11515
병과	-11516
안은	-11517
미에게	-11518
스테이션	-11519
▁8,	-11520
▁수비력	-11521
▁것이나	-11522
▁81	-11523
▁3~4	-11524
▁승부를	-11525
음은	-11526
▁점과	-11527
▁앰	-11528
▁돌아간다	-11529
로마	-11530
▁이모	-11531
▁인민	-11532
고기	-11533
▁본토	-11534
슬라	-11535
▁버틸	-11536
▁게임으로	-11537
▁장신	-11538
▁네크로	-11539
▁하우스	-11540
▁드물게	-11541
▁굴러	-11542
▁씬	-11543
▁피의	-11544
▁대다수의	-11545
▁꼬리	-11546
오버	-11547
질적인	-11548
▁알려지지	-11549
▁식량	-11550
▁진정	-11551
▁반짝	-11552
▁짐승	-11553
▁구동	-11554
조합	-11555
▁잊지	-11556
ox	-11557
체와	-11558
스포츠	-11559
▁멤버들	-11560
▁형편	-11561
▁패널티	-11562
▁깨끗	-11563
년은	-11564
▁패널	-11565
▁타이틀을	-11566
▁무엇보다도	-11567
▁샐	-11568
함의	-11569
▁실패한	-11570
▁적절히	-11571
▁죄를	-11572
▁집권	-11573
▁연예인	-11574
▁일어났다	-11575
▁IM	-11576
현을	-11577
▁김포	-11578
▁리버풀	-11579
▁논리	-11580
득점	-11581
▁케빈	-11582
▁사로잡	-11583
▁인해서	-11584
▁일으키는	-11585
▁붙는	-11586
▁면모를	-11587
감도	-11588
▁부숴	-11589
석으로	-11590
▁제작된	-11591
▁하려	-11592
폰을	-11593
▁강경	-11594
▁섬의	-11595
▁등장은	-11596
▁우위를	-11597
▁반전	-11598
▁팰	-11599
▁규격	-11600
▁일본인	-11601
▁보자면	-11602
▁이어져	-11603
▁복원	-11604
▁도착한	-11605
▁천천	-11606
▁나간다	-11607
▁광명	-11608
▁레벨을	-11609
▁전투력	-11610
곡의	-11611
테니	-11612
▁웬만	-11613
▁흐름	-11614
▁과거를	-11615
▁치고는	-11616
▁고려하면	-11617
▁다운로드	-11618
▁동행	-11619
▁로보	-11620
▁오렌	-11621
슨은	-11622
▁섞여	-11623
▁하나하나	-11624
▁김준	-11625
▁시모	-11626
▁가능할	-11627
분은	-11628
▁면허	-11629
▁줘	-11630
▁SU	-11631
▁존재하며	-11632
▁이그	-11633
▁없었다고	-11634
▁닦	-11635
대고	-11636
타리	-11637
▁검열	-11638
▁쳤	-11639
▁알레	-11640
▁춤을	-11641
▁속한	-11642
▁시뮬	-11643
ment	-11644
▁박물	-11645
▁엔딩을	-11646
66	-11647
▁배제	-11648
▁오노	-11649
▁손쉽게	-11650
래시	-11651
▁주축	-11652
▁92	-11653
▁그렇기	-11654
▁스쿨	-11655
이치로	-11656
▁블로	-11657
▁권유	-11658
▁핑크	-11659
▁초능력	-11660
▁이해할	-11661
크라이나	-11662
▁마운	-11663
▁조차	-11664
초가	-11665
▁이브	-11666
▁창작물	-11667
테이션	-11668
▁an	-11669
▁공인	-11670
▁뽑는	-11671
▁이름만	-11672
▁모르지만	-11673
처를	-11674
▁가령	-11675
▁착한	-11676
▁모습이다	-11677
형인	-11678
▁추세	-11679
▁들어보면	-11680
▁아직까지	-11681
SS	-11682
▁표현이	-11683
모스	-11684
감으로	-11685
▁덱에서	-11686
초로	-11687
▁IIDX	-11688
▁방식의	-11689
▁최악	-11690
▁교육을	-11691
▁뽑을	-11692
패스	-11693
▁역이다	-11694
▁등장하고	-11695
절을	-11696
▁유물	-11697
류는	-11698
▁무자	-11699
▁틀린	-11700
▁아가씨	-11701
VER	-11702
▁로고	-11703
▁마을을	-11704
▁방어력을	-11705
▁엉덩	-11706
▁참모	-11707
츠카	-11708
▁주행	-11709
▁코미디	-11710
좀무	-11711
▁전남	-11712
▁대부분이다	-11713
▁On	-11714
▁충격과	-11715
▁중동	-11716
복지	-11717
▁큐어	-11718
변이	-11719
▁스탈	-11720
▁임대	-11721
▁위와	-11722
▁제왕	-11723
상가	-11724
▁판다	-11725
▁내부에	-11726
▁대결을	-11727
▁추측이	-11728
▁나누어	-11729
마귀	-11730
히기	-11731
▁사촌	-11732
▁놀라운	-11733
▁누구나	-11734
▁79	-11735
▁에밀	-11736
▁오스만	-11737
운수	-11738
▁믿는	-11739
▁승무원	-11740
▁클린	-11741
▁딜링	-11742
▁전쟁에서	-11743
▁활동하고	-11744
▁식민지	-11745
병에	-11746
▁카지	-11747
쪽이	-11748
▁올라갈	-11749
▁Ad	-11750
uk	-11751
▁돌고	-11752
▁명칭이	-11753
▁트랜스포머	-11754
▁둘러싸	-11755
▁감이	-11756
▁보험	-11757
▁드립을	-11758
▁주인공과	-11759
▁엘리베이터	-11760
▁차원에서	-11761
▁게시판	-11762
▁일하는	-11763
▁믹스	-11764
▁약을	-11765
▁원수	-11766
▁직통	-11767
▁입문	-11768
▁모드로	-11769
▁출마	-11770
대체	-11771
▁듣게	-11772
▁플라스	-11773
▁포인트를	-11774
▁뜨는	-11775
▁싸웠	-11776
▁헬멧	-11777
▁분노한	-11778
▁분노를	-11779
▁적당한	-11780
시간을	-11781
금으로	-11782
▁요소를	-11783
▁현대의	-11784
▁밝혀진다	-11785
들에서	-11786
▁먹었다	-11787
▁여섯	-11788
▁앓	-11789
▁이쿠	-11790
▁기름	-11791
▁올바	-11792
▁샀	-11793
초를	-11794
티의	-11795
▁살던	-11796
독한	-11797
▁가자	-11798
▁뭐가	-11799
▁필리핀	-11800
▁신부	-11801
▁힘입	-11802
▁않으니	-11803
▁차이로	-11804
▁프랜	-11805
구장	-11806
▁소꿉	-11807
▁노래가	-11808
담이	-11809
▁아스날	-11810
▁하긴	-11811
▁네트워크	-11812
▁비전	-11813
▁드로우	-11814
메이트	-11815
▁실점	-11816
▁끔찍한	-11817
만도	-11818
▁요한	-11819
치고는	-11820
펙트	-11821
▁침투	-11822
아나	-11823
사리	-11824
▁색이	-11825
▁내부의	-11826
▁구름	-11827
▁놀랍	-11828
▁소유자	-11829
▁시작하면	-11830
▁잃어버린	-11831
오기	-11832
▁로우	-11833
▁미드필더	-11834
▁마징	-11835
▁이곳에	-11836
▁로맨	-11837
▁이겼	-11838
▁해병대	-11839
티즌	-11840
▁유용하다	-11841
편으로	-11842
▁특화	-11843
▁없어도	-11844
▁올라왔다	-11845
▁경기장	-11846
자동	-11847
▁쫒	-11848
▁시가	-11849
▁끝났다	-11850
▁레이스	-11851
▁부동	-11852
▁브래	-11853
▁기술이다	-11854
▁360	-11855
▁걸그룹	-11856
.19	-11857
▁리드	-11858
▁육상	-11859
▁룩	-11860
▁주목을	-11861
▁골라	-11862
▁별명을	-11863
▁맡는	-11864
▁들어가지	-11865
▁압축	-11866
했음에도	-11867
▁사람이다	-11868
거든	-11869
앨범	-11870
채로	-11871
리즘	-11872
▁츄	-11873
▁조언을	-11874
▁않았는데	-11875
▁인가	-11876
▁강간	-11877
.....	-11878
▁약혼	-11879
▁강도	-11880
내면서	-11881
▁뿌려	-11882
▁후미	-11883
▁빠지는	-11884
엘의	-11885
▁못지	-11886
▁인스타	-11887
▁BE	-11888
▁건네	-11889
▁바나	-11890
애니	-11891
▁빌런	-11892
▁시작되었다	-11893
▁예쁘	-11894
▁인상을	-11895
출을	-11896
▁때만	-11897
▁터널	-11898
▁Day	-11899
▁이전까지	-11900
▁권력을	-11901
▁문제의	-11902
▁봉쇄	-11903
▁미국은	-11904
론가	-11905
▁여기에서	-11906
▁침몰	-11907
▁한꺼	-11908
▁초콜릿	-11909
▁웰	-11910
▁넘쳐	-11911
▁어드밴	-11912
▁아이들을	-11913
▁논쟁	-11914
▁병과	-11915
▁여론	-11916
▁흰색	-11917
▁영주	-11918
▁정부는	-11919
▁꼬마	-11920
▁이기고	-11921
▁됨	-11922
▁실수를	-11923
▁힘의	-11924
▁상태다	-11925
▁수장	-11926
▁얄	-11927
아라	-11928
중에서	-11929
▁전날	-11930
▁만렙	-11931
▁파츠	-11932
▁이라크	-11933
▁부산광역시	-11934
▁슬픔	-11935
▁신세	-11936
▁웃는	-11937
▁영화가	-11938
파와	-11939
▁라스트	-11940
▁다르지만	-11941
▁와이번	-11942
▁대가로	-11943
퍼의	-11944
호에	-11945
▁급행	-11946
▁무역	-11947
▁살인사건	-11948
▁심의	-11949
▁활동하는	-11950
DP	-11951
▁힙합	-11952
개는	-11953
버스터미널	-11954
▁캐릭터들의	-11955
▁리오	-11956
▁밑에서	-11957
64	-11958
▁투사	-11959
lect	-11960
▁후쿠시마	-11961
▁국내에서는	-11962
▁Man	-11963
모는	-11964
▁울프	-11965
▁스트리	-11966
▁매장	-11967
▁상하	-11968
:5	-11969
▁전대	-11970
▁폭행	-11971
▁답답	-11972
▁유비트	-11973
서스	-11974
자책	-11975
훈의	-11976
금은	-11977
▁노바	-11978
▁랄	-11979
아닌	-11980
▁비행기	-11981
▁이병	-11982
드라마	-11983
▁상태이상	-11984
▁그거	-11985
환으로	-11986
되지는	-11987
▁기적	-11988
연속	-11989
커는	-11990
▁라스	-11991
▁비가	-11992
▁경주	-11993
▁우크라이나	-11994
▁않는데	-11995
▁선진	-11996
토에게	-11997
▁뿐이지	-11998
▁퍼스트	-11999
▁가리키는	-12000
▁백업	-12001
▁아포	-12002
시기	-12003
▁높을	-12004
▁어려울	-12005
오면	-12006
▁양이	-12007
▁혼혈	-12008
▁남아있다	-12009
거가	-12010
▁파크	-12011
하고도	-12012
▁경험을	-12013
▁가성	-12014
▁탐정	-12015
▁피로	-12016
▁면도	-12017
▁당대	-12018
거의	-12019
▁하였으나	-12020
▁마치고	-12021
시내	-12022
▁구형	-12023
▁종결	-12024
▁떨어졌다	-12025
▁추천한다	-12026
▁한꺼번에	-12027
르도	-12028
▁89	-12029
▁리플렉	-12030
▁악명	-12031
▁시대를	-12032
▁퍽	-12033
이나마	-12034
yle	-12035
▁그도	-12036
▁황제가	-12037
▁여우	-12038
속에서	-12039
▁NBA	-12040
▁스카웃	-12041
▁양반	-12042
▁쿨타임이	-12043
▁조금이라도	-12044
▁문제다	-12045
▁입지	-12046
▁우측	-12047
공으로	-12048
▁마음의	-12049
이었기에	-12050
▁아르헨티나	-12051
련의	-12052
▁문제에	-12053
▁흥미	-12054
▁담은	-12055
기자	-12056
▁토요일	-12057
플로	-12058
▁이대	-12059
▁페어리	-12060
▁나타내는	-12061
▁탈취	-12062
▁없다며	-12063
▁들지	-12064
▁츠키	-12065
과대학	-12066
▁통틀어	-12067
▁텐데	-12068
▁가히	-12069
▁세팅	-12070
▁보이스	-12071
▁뒤의	-12072
▁띠	-12073
법의	-12074
▁식사	-12075
▁천천히	-12076
본을	-12077
▁분신	-12078
▁유미	-12079
▁목걸	-12080
ME	-12081
▁전향	-12082
▁코멘트	-12083
▁간섭	-12084
▁아유	-12085
▁할지	-12086
we	-12087
턴에	-12088
배의	-12089
▁싸운다	-12090
▁장착한	-12091
타인	-12092
▁멤버가	-12093
▁열매	-12094
접한	-12095
▁마스코	-12096
션이	-12097
▁주위	-12098
▁흠좀무	-12099
▁고난	-12100
ike	-12101
▁자제	-12102
거라고	-12103
▁대선	-12104
bl	-12105
▁선임	-12106
되었다가	-12107
▁등장해	-12108
-17	-12109
▁타이거즈	-12110
▁몸으로	-12111
▁돌연	-12112
▁심각하게	-12113
▁페르소나	-12114
내려	-12115
▁통하지	-12116
▁나기	-12117
▁미쳐	-12118
▁어그로를	-12119
▁드워	-12120
▁싶다는	-12121
▁덕분	-12122
▁아자	-12123
▁파란색	-12124
▁모순	-12125
▁짬	-12126
카게	-12127
ich	-12128
▁빙의	-12129
▁오죽하면	-12130
▁수동	-12131
atch	-12132
▁보스로	-12133
▁뽀	-12134
수리	-12135
▁용자	-12136
코에게	-12137
▁하였고	-12138
▁엽	-12139
▁전쟁에	-12140
▁평소에는	-12141
▁학교를	-12142
▁별개의	-12143
▁신속	-12144
우스가	-12145
▁125	-12146
▁갇혀	-12147
▁열고	-12148
▁주인공으로	-12149
▁6.	-12150
▁초상	-12151
▁도시를	-12152
▁주며	-12153
▁센트	-12154
▁바리에이션	-12155
▁던진	-12156
판에선	-12157
조선	-12158
▁지연	-12159
▁900	-12160
누스	-12161
▁라이트닝	-12162
▁천하	-12163
▁저주를	-12164
▁시에는	-12165
▁미사일을	-12166
▁땡	-12167
버렸고	-12168
▁행동이	-12169
▁떴	-12170
▁김일	-12171
▁추측된다	-12172
▁아이들이	-12173
▁페스티벌	-12174
리칸	-12175
ence	-12176
▁중거리	-12177
그가	-12178
▁레이븐	-12179
▁마을의	-12180
▁대가	-12181
▁딜을	-12182
체스터	-12183
▁워리어	-12184
▁요즘은	-12185
▁Part	-12186
way	-12187
▁경력이	-12188
▁그란	-12189
▁역이	-12190
▁이곳에서	-12191
보며	-12192
▁모음	-12193
▁장례	-12194
▁정도만	-12195
▁칼리	-12196
▁많다는	-12197
▁불참	-12198
▁NH	-12199
하기까지	-12200
▁경전	-12201
▁존중	-12202
▁캐시	-12203
지사	-12204
위인	-12205
now	-12206
▁다시금	-12207
▁잘하는	-12208
▁사키	-12209
▁보건	-12210
▁없기에	-12211
▁리볼	-12212
▁제라	-12213
▁판정을	-12214
▁갖다	-12215
▁호러	-12216
트랙	-12217
▁ON	-12218
▁여자를	-12219
▁랑	-12220
▁서식	-12221
▁있겠	-12222
화에선	-12223
주면서	-12224
해야만	-12225
▁속성을	-12226
▁첫째	-12227
▁갔다가	-12228
:20	-12229
▁팝픈	-12230
지수	-12231
▁남동생	-12232
▁씻	-12233
탄은	-12234
▁AV	-12235
▁소중	-12236
다보면	-12237
들한테	-12238
센스	-12239
▁같다는	-12240
▁보스가	-12241
에요	-12242
▁구울	-12243
▁사실에	-12244
▁것입니다	-12245
▁멤버들의	-12246
대신	-12247
▁노스	-12248
민족	-12249
▁말과	-12250
▁일어난다	-12251
▁마찰	-12252
▁스스로를	-12253
▁목적은	-12254
▁이벤트로	-12255
~1	-12256
▁강원	-12257
▁뱃	-12258
▁퇴각	-12259
왔다고	-12260
▁NT	-12261
▁일행과	-12262
▁카테	-12263
▁영양	-12264
변을	-12265
▁큐브	-12266
식과	-12267
▁위성	-12268
습니까	-12269
▁후보로	-12270
▁햇	-12271
▁껍	-12272
▁소라	-12273
▁쫄	-12274
▁다닐	-12275
▁달라진다	-12276
카드를	-12277
왔을	-12278
키스탄	-12279
▁좋다는	-12280
▁네티즌	-12281
▁일관	-12282
▁사용되었다	-12283
▁헨리	-12284
▁본래는	-12285
▁츤데레	-12286
▁재건	-12287
▁직전까지	-12288
▁이기는	-12289
▁대쉬	-12290
▁아까	-12291
▁로리	-12292
▁서번	-12293
▁억울	-12294
▁트래	-12295
▁기숙사	-12296
국민	-12297
하듯	-12298
▁채보	-12299
▁의지를	-12300
쾌한	-12301
▁작중에서는	-12302
▁굽	-12303
▁김용	-12304
▁플랜	-12305
▁곳곳에	-12306
개나	-12307
▁포스트시즌	-12308
▁핏	-12309
.5%	-12310
▁약하다	-12311
▁작품으로	-12312
▁보편	-12313
▁코노	-12314
다시피	-12315
▁반란을	-12316
▁클리셰	-12317
달라	-12318
▁스탭	-12319
타수	-12320
▁인간과	-12321
▁어머니는	-12322
쿠의	-12323
▁손해	-12324
▁건물이	-12325
마도	-12326
▁아시	-12327
▁여러번	-12328
받게	-12329
▁캄	-12330
▁체결	-12331
▁본다면	-12332
▁바꿨	-12333
▁키우	-12334
▁0.2	-12335
▁방식은	-12336
▁사망했다	-12337
인방	-12338
▁말고도	-12339
▁저글	-12340
▁캡슐	-12341
▁심해	-12342
▁여캐	-12343
▁떡밥이	-12344
▁개척	-12345
시아의	-12346
▁남게	-12347
▁허리	-12348
▁떨어질	-12349
▁고소	-12350
▁오른손	-12351
▁샷건	-12352
▁위해선	-12353
▁전체에	-12354
▁실용	-12355
▁원시	-12356
▁되어야	-12357
▁두드러	-12358
런스	-12359
▁Cr	-12360
▁한국은	-12361
▁발표했다	-12362
▁보드	-12363
성한	-12364
▁냈다	-12365
리포	-12366
▁소장	-12367
▁남매	-12368
▁뻔한	-12369
▁중지	-12370
▁노릇	-12371
▁성향을	-12372
▁까다로운	-12373
▁몰고	-12374
▁유나이티드	-12375
▁선출	-12376
시키지	-12377
.17	-12378
▁국가가	-12379
▁시리아	-12380
▁옴	-12381
▁we	-12382
▁비롯해	-12383
▁이가	-12384
니아의	-12385
▁가능하다는	-12386
▁노린	-12387
밀한	-12388
▁없어진	-12389
▁장남	-12390
▁턴에	-12391
▁상당수	-12392
▁미래의	-12393
▁얹	-12394
▁포탈	-12395
▁뮌	-12396
▁루이스	-12397
상승	-12398
ode	-12399
▁일컫	-12400
~7	-12401
ans	-12402
▁일본군	-12403
망의	-12404
▁돌아다	-12405
▁목적이	-12406
▁있을까	-12407
▁탔	-12408
해버렸다	-12409
때도	-12410
▁묶어	-12411
▁포함해	-12412
▁장본	-12413
▁항공기	-12414
▁III	-12415
버스를	-12416
▁시간대	-12417
▁감독으로	-12418
▁상냥	-12419
▁에메	-12420
등으로	-12421
적이며	-12422
년식	-12423
▁구역	-12424
▁의문을	-12425
▁그렇기에	-12426
▁재수	-12427
▁충격적인	-12428
▁모스크	-12429
▁최종적으로	-12430
▁할아버지	-12431
▁와타나베	-12432
▁조건으로	-12433
지대	-12434
▁발사하는	-12435
▁데이비드	-12436
▁주최	-12437
▁대해선	-12438
포인	-12439
프레임	-12440
▁모종의	-12441
무지	-12442
▁방영된	-12443
▁흙	-12444
▁태워	-12445
▁리버스	-12446
▁비스트	-12447
▁받았다고	-12448
청을	-12449
▁우정	-12450
▁시작해	-12451
▁유기	-12452
▁아이디	-12453
▁하루에	-12454
▁사정이	-12455
▁매주	-12456
▁도덕	-12457
▁운명	-12458
▁감동	-12459
출연	-12460
근이	-12461
볼을	-12462
채널	-12463
▁이카	-12464
로이	-12465
▁해산	-12466
▁EXT	-12467
▁1945	-12468
.14	-12469
▁작가는	-12470
▁노부나가	-12471
▁모집	-12472
▁통계	-12473
에게만	-12474
▁전작과	-12475
▁FM	-12476
▁그나마도	-12477
ork	-12478
▁임진	-12479
▁사업을	-12480
▁세일러	-12481
600	-12482
ens	-12483
ition	-12484
▁붐	-12485
▁주무	-12486
▁외계인	-12487
▁샤를	-12488
그를	-12489
▁아버지인	-12490
▁되돌아	-12491
▁비공식	-12492
▁올라간	-12493
▁툭	-12494
▁웃음	-12495
▁불리며	-12496
▁본작의	-12497
▁긍정적인	-12498
▁러시아의	-12499
▁베지	-12500
▁단독으로	-12501
▁반동	-12502
▁강하고	-12503
▁만나고	-12504
▁정권	-12505
▁버전의	-12506
크로스	-12507
84	-12508
▁화산	-12509
▁인피니티	-12510
나요	-12511
즈카	-12512
사들이	-12513
차의	-12514
▁업적	-12515
▁행정구역	-12516
iver	-12517
▁발키	-12518
▁즈음	-12519
리스타	-12520
▁걸즈	-12521
▁경호	-12522
▁신발	-12523
▁USB	-12524
▁것인가	-12525
▁오니	-12526
▁떠난다	-12527
▁비난을	-12528
글을	-12529
▁토리	-12530
플러스	-12531
▁후원	-12532
▁캐릭터인	-12533
동맹	-12534
이크를	-12535
▁부자	-12536
▁되었던	-12537
▁예산	-12538
▁유학	-12539
스와의	-12540
▁했다가	-12541
▁예전에는	-12542
▁소환할	-12543
해하는	-12544
▁패배한	-12545
그레	-12546
번째로	-12547
패턴	-12548
두로	-12549
▁80%	-12550
▁벡	-12551
▁단발	-12552
▁패배를	-12553
▁피하기	-12554
터에	-12555
▁at	-12556
▁노인	-12557
▁막강한	-12558
▁확정되었다	-12559
▁벨기에	-12560
엘이	-12561
관계가	-12562
▁돌아갈	-12563
:10	-12564
▁복선	-12565
▁원피스	-12566
▁너머	-12567
▁학습	-12568
▁행방	-12569
▁떠돌	-12570
▁시즌이	-12571
+2	-12572
▁공포의	-12573
거래	-12574
▁전담	-12575
▁성과를	-12576
▁취업	-12577
▁공격속도	-12578
▁있어서는	-12579
▁83	-12580
▁휴식	-12581
▁불리한	-12582
차전에서	-12583
무로	-12584
▁때를	-12585
▁원작에서	-12586
▁후유	-12587
▁찾고	-12588
▁인챈	-12589
▁확산	-12590
▁노력을	-12591
▁그리는	-12592
▁트러	-12593
▁소규모	-12594
▁교류	-12595
▁불멸	-12596
니버스	-12597
▁찍을	-12598
▁Mi	-12599
▁특징은	-12600
▁Ed	-12601
▁카피	-12602
▁다루고	-12603
▁마우스	-12604
▁약속을	-12605
▁그후	-12606
▁적들이	-12607
▁모르겠지만	-12608
▁격려	-12609
▁마틴	-12610
집에서	-12611
▁무방하다	-12612
▁상대방을	-12613
▁얼라이언	-12614
총을	-12615
▁살게	-12616
▁단검	-12617
지므로	-12618
▁실린	-12619
▁문제도	-12620
화되었다	-12621
05	-12622
▁생각하지	-12623
▁주문을	-12624
저는	-12625
▁다국어	-12626
어버렸다	-12627
량도	-12628
시에서	-12629
▁미션을	-12630
가요	-12631
비치	-12632
히토	-12633
▁DJMAX	-12634
사냥	-12635
견이	-12636
▁생체	-12637
▁규모의	-12638
▁철저하게	-12639
▁감탄	-12640
▁One	-12641
▁공용	-12642
▁원래대로	-12643
▁깨어나	-12644
▁0.4	-12645
▁화재	-12646
▁대기업	-12647
▁딸이	-12648
▁팬이	-12649
값을	-12650
▁짧게	-12651
▁아나운서	-12652
▁없습니다	-12653
▁캣	-12654
카페	-12655
▁고성능	-12656
두를	-12657
▁가루	-12658
▁갖춰	-12659
▁마땅	-12660
들어가	-12661
▁모아서	-12662
▁일행은	-12663
▁영향력을	-12664
▁유저들	-12665
철의	-12666
▁억제	-12667
inal	-12668
▁세레	-12669
▁입증	-12670
▁바라는	-12671
애를	-12672
▁방위	-12673
▁해양	-12674
시대의	-12675
▁전송	-12676
IL	-12677
량에	-12678
▁당연하지만	-12679
▁내지는	-12680
공주	-12681
▁설치되어	-12682
▁곳도	-12683
▁마산	-12684
▁키를	-12685
▁우루	-12686
▁부분도	-12687
▁히로시마	-12688
사라	-12689
▁착륙	-12690
▁새누리	-12691
▁여부	-12692
▁학교의	-12693
▁AA	-12694
▁이르는	-12695
쿠로	-12696
도라	-12697
▁교차	-12698
▁리스트	-12699
▁힘입어	-12700
하였지만	-12701
▁톨	-12702
▁10.	-12703
▁급격히	-12704
▁포함된	-12705
희는	-12706
니즘	-12707
립스	-12708
-14	-12709
▁남한	-12710
▁스티브	-12711
▁없었을	-12712
▁쓰이고	-12713
▁힐러	-12714
▁인류의	-12715
소모	-12716
오자	-12717
▁변한다	-12718
▁영웅이	-12719
테크	-12720
▁버서	-12721
소리가	-12722
▁이리저리	-12723
으려면	-12724
usic	-12725
▁줄거리	-12726
▁질문을	-12727
▁장타	-12728
▁포터	-12729
▁게이지가	-12730
▁보좌	-12731
무스	-12732
▁높지	-12733
▁밝혔	-12734
▁고블린	-12735
▁있음에도	-12736
▁주니어	-12737
▁하도	-12738
▁발레	-12739
▁매니아	-12740
▁가챠	-12741
▁타카하시	-12742
▁신경쓰지	-12743
▁돔	-12744
▁것이지	-12745
aster	-12746
▁박성	-12747
▁완공	-12748
적이지	-12749
조와	-12750
▁부천	-12751
▁미국과	-12752
▁홋	-12753
▁실패하고	-12754
창이	-12755
위권	-12756
하하	-12757
▁케리	-12758
▁포장	-12759
▁선수들을	-12760
!?	-12761
▁이마	-12762
▁플라이	-12763
▁사이로	-12764
▁마을에	-12765
▁인공지능	-12766
▁알지	-12767
MC	-12768
▁멤버로	-12769
▁보스를	-12770
사다	-12771
▁시상식	-12772
▁플라즈마	-12773
▁마물	-12774
▁줄여서	-12775
책이	-12776
▁실려	-12777
▁일요일	-12778
▁시리즈에서는	-12779
:40	-12780
▁남자의	-12781
배차	-12782
▁계략	-12783
링은	-12784
ail	-12785
▁프로야구	-12786
▁1978	-12787
팀을	-12788
어택	-12789
▁고등	-12790
orn	-12791
▁총합	-12792
91	-12793
▁인연	-12794
▁선보였다	-12795
동에서	-12796
▁테이블	-12797
그의	-12798
층을	-12799
▁아쉽게도	-12800
▁이번에도	-12801
불명	-12802
에다가	-12803
▁인간은	-12804
▁별명은	-12805
▁마찬가지다	-12806
가기	-12807
있다고	-12808
▁알려졌다	-12809
▁박명	-12810
▁찔러	-12811
딜이	-12812
▁과언이	-12813
▁지역으로	-12814
▁주인공에게	-12815
▁타이밍에	-12816
▁상관없	-12817
▁에디션	-12818
▁오고	-12819
▁군단의	-12820
▁발견한	-12821
▁쓰이지	-12822
▁눈의	-12823
▁리뉴얼	-12824
▁병력이	-12825
▁대령	-12826
▁버릴	-12827
▁세우	-12828
▁안겨	-12829
▁밖에서	-12830
▁종류가	-12831
▁플레이할	-12832
▁녹아	-12833
▁굶	-12834
▁조종하는	-12835
▁모듈	-12836
▁발각	-12837
▁가져온	-12838
더는	-12839
▁특징을	-12840
▁최연	-12841
▁해명	-12842
▁능력치를	-12843
▁엠블	-12844
▁DPS	-12845
▁Up	-12846
▁점유	-12847
igh	-12848
▁마스	-12849
기다	-12850
▁미남	-12851
때마다	-12852
래의	-12853
▁국경	-12854
계와	-12855
아트	-12856
형과	-12857
▁가담	-12858
나에게	-12859
▁두는	-12860
▁궤적	-12861
▁친다	-12862
권도	-12863
▁장관	-12864
▁팁	-12865
▁아사히	-12866
▁그릇	-12867
▁주자	-12868
▁토니	-12869
▁프로그래	-12870
▁마족	-12871
▁탄압	-12872
▁검은색	-12873
국과	-12874
딩을	-12875
▁만주	-12876
▁쏘아	-12877
행정	-12878
▁전반적인	-12879
꾸로	-12880
.30	-12881
▁팡	-12882
하르트	-12883
▁때려잡	-12884
▁점수가	-12885
▁어머니를	-12886
▁제안을	-12887
▁믹	-12888
▁경북	-12889
▁불과하다	-12890
▁제목으로	-12891
▁합리	-12892
▁공부를	-12893
▁테크닉	-12894
각의	-12895
▁김승	-12896
▁인벤	-12897
제작	-12898
월까지	-12899
▁쓰러진	-12900
▁콘텐츠	-12901
▁보낼	-12902
▁섞어	-12903
▁운행하는	-12904
EL	-12905
▁뚱	-12906
분한	-12907
▁주관	-12908
▁잦은	-12909
초부터	-12910
보라	-12911
▁청주	-12912
▁터트	-12913
▁휩쓸	-12914
가루	-12915
▁Ph	-12916
▁세컨	-12917
▁즐거	-12918
버의	-12919
▁사다	-12920
▁낮고	-12921
▁1.4	-12922
▁루비	-12923
▁받아야	-12924
▁늘어났다	-12925
▁사라지는	-12926
▁마모	-12927
제도	-12928
플라	-12929
▁93	-12930
▁특수능력	-12931
▁근대	-12932
▁특급	-12933
▁나뉜다	-12934
▁공헌	-12935
▁인게임	-12936
▁무난하게	-12937
IK	-12938
▁잘만	-12939
볼루션	-12940
량과	-12941
▁벗겨	-12942
▁철학	-12943
ib	-12944
▁얼마든지	-12945
▁버스를	-12946
▁뚜렷	-12947
▁자를	-12948
▁츠쿠	-12949
렸으며	-12950
▁충족	-12951
▁표정	-12952
▁불어	-12953
▁흑막	-12954
▁당시엔	-12955
갤러	-12956
▁다리가	-12957
▁어찌보면	-12958
▁전망	-12959
▁호수	-12960
온은	-12961
▁용도	-12962
▁않았다면	-12963
▁입에	-12964
▁쳐도	-12965
▁보라색	-12966
▁신을	-12967
▁철도역	-12968
법인	-12969
▁추리	-12970
할만한	-12971
▁몰아넣	-12972
▁한국과	-12973
자이다	-12974
▁미만	-12975
FL	-12976
▁이경	-12977
▁군의	-12978
▁나라가	-12979
▁그렇듯	-12980
생명	-12981
▁현실의	-12982
심에	-12983
wiki	-12984
올림픽	-12985
▁하나같이	-12986
신에	-12987
▁마오	-12988
▁곤충	-12989
▁맛을	-12990
▁지점	-12991
▁무난한	-12992
▁문서로	-12993
▁스텔스	-12994
▁Super	-12995
공에	-12996
▁실패했다	-12997
▁달의	-12998
▁김두	-12999
▁철갑	-13000
▁뜨거운	-13001
▁시리즈와	-13002
형에	-13003
▁터라	-13004
츠와	-13005
▁Mag	-13006
▁선호하는	-13007
▁우회	-13008
▁모션이	-13009
▁히로시	-13010
활동	-13011
▁돼서	-13012
▁매각	-13013
▁야마모토	-13014
▁달인	-13015
▁독보	-13016
자리를	-13017
▁학생들은	-13018
▁중력	-13019
리스는	-13020
▁간파	-13021
▁파동	-13022
▁과격	-13023
▁길다	-13024
장군	-13025
▁강림	-13026
▁위안	-13027
▁매출	-13028
▁중대	-13029
▁직선	-13030
▁불만이	-13031
ep	-13032
▁짓는	-13033
두의	-13034
anc	-13035
▁공업	-13036
도서관	-13037
▁너클	-13038
▁이윤	-13039
▁축복	-13040
▁스코틀	-13041
▁영원한	-13042
▁유지하는	-13043
▁오케	-13044
▁이듬	-13045
차이즈	-13046
르타	-13047
리아는	-13048
▁속해	-13049
▁여태	-13050
▁콤보를	-13051
중이	-13052
행성	-13053
리스가	-13054
▁공대	-13055
41	-13056
▁친애	-13057
▁옵티	-13058
▁프롤	-13059
만큼의	-13060
▁구조를	-13061
▁레이블	-13062
▁정신적	-13063
▁등장하여	-13064
▁뺨	-13065
▁버텨	-13066
▁나왔고	-13067
▁날린다	-13068
사우루스	-13069
▁인조	-13070
▁아래와	-13071
▁만들어졌다	-13072
▁내게	-13073
▁Or	-13074
그래도	-13075
▁재능을	-13076
즈에서	-13077
ung	-13078
▁상대로는	-13079
▁->	-13080
▁출산	-13081
▁1.0	-13082
▁순서대로	-13083
▁정도에	-13084
▁RA	-13085
▁주인이	-13086
다며	-13087
▁따위	-13088
▁방을	-13089
▁지혜	-13090
▁없지	-13091
절이	-13092
▁속도는	-13093
▁슬퍼	-13094
▁운송	-13095
▁원로	-13096
▁짝사랑	-13097
쓰고	-13098
▁노말	-13099
▁깔끔하게	-13100
▁반쯤	-13101
▁심히	-13102
▁평소에	-13103
▁초필살	-13104
-19	-13105
▁레이싱	-13106
노리	-13107
린과	-13108
학년도	-13109
장면	-13110
혼의	-13111
▁부실	-13112
▁하수	-13113
▁되어버린	-13114
CE	-13115
uck	-13116
▁바이러스	-13117
▁인도네시아	-13118
▁포로	-13119
▁이대로	-13120
▁게임이다	-13121
PER	-13122
▁저는	-13123
▁두꺼	-13124
▁시의	-13125
▁뮌헨	-13126
▁1.6	-13127
▁차이나	-13128
▁겪은	-13129
▁문이	-13130
인민	-13131
▁노조	-13132
▁점에	-13133
▁생략한다	-13134
▁LO	-13135
▁al	-13136
▁조상	-13137
87	-13138
▁소우	-13139
▁ne	-13140
▁스기	-13141
▁박아	-13142
▁작고	-13143
▁화폐	-13144
▁문재인	-13145
▁터지는	-13146
바위	-13147
ise	-13148
▁궤도	-13149
▁반도	-13150
GA	-13151
▁이때부터	-13152
▁모양이	-13153
경기를	-13154
▁상대방이	-13155
▁소련의	-13156
▁않다고	-13157
▁읽고	-13158
▁사악한	-13159
귤러	-13160
▁대시	-13161
▁일곱	-13162
▁성격의	-13163
▁순간에	-13164
▁아마추어	-13165
스틴	-13166
▁유언	-13167
▁토큰	-13168
▁입는다	-13169
▁라면	-13170
▁번의	-13171
▁조카	-13172
차기	-13173
▁10,	-13174
▁밀어붙	-13175
보호	-13176
골드	-13177
▁수상한	-13178
▁드러났다	-13179
▁루머	-13180
▁아랫	-13181
▁알았	-13182
▁메이지	-13183
▁유우키	-13184
에른	-13185
▁도서	-13186
▁중견	-13187
못미	-13188
▁크롬	-13189
▁장미	-13190
▁생명의	-13191
국인	-13192
들여	-13193
▁Con	-13194
▁유니버스	-13195
파에	-13196
피의	-13197
▁섬광	-13198
▁강호	-13199
▁헬리	-13200
▁적군	-13201
▁은폐	-13202
▁토키	-13203
▁방식이다	-13204
▁미소	-13205
▁늘어난다	-13206
89	-13207
레오	-13208
▁부위	-13209
▁언급되는	-13210
조각	-13211
▁고사	-13212
▁마코토	-13213
말이	-13214
▁사에	-13215
▁엘더	-13216
고교	-13217
훈을	-13218
▁특화된	-13219
▁최정	-13220
구조	-13221
▁운동을	-13222
쓰는	-13223
추가	-13224
▁측의	-13225
▁인물들이	-13226
▁ex	-13227
▁방송에	-13228
▁거꾸로	-13229
▁생방송	-13230
/12	-13231
▁회사가	-13232
해야한다	-13233
▁하늘의	-13234
의의	-13235
▁번째로	-13236
▁모양으로	-13237
▁엉뚱	-13238
좋게	-13239
파일	-13240
▁묻는	-13241
▁미성	-13242
▁마지	-13243
▁좌측	-13244
▁스태프	-13245
전용	-13246
▁있음	-13247
▁비용이	-13248
▁종영	-13249
리에서	-13250
▁맡았던	-13251
▁are	-13252
▁들어가게	-13253
하로	-13254
▁동해	-13255
▁올라와	-13256
▁텍스트	-13257
▁이처럼	-13258
▁중소	-13259
▁팬들도	-13260
vel	-13261
▁공간을	-13262
심은	-13263
▁줍	-13264
▁오를	-13265
▁1973	-13266
태가	-13267
▁꾀	-13268
덕션	-13269
루트	-13270
▁따르	-13271
▁필요로	-13272
워하는	-13273
▁김수	-13274
▁놓여	-13275
▁미궁	-13276
녀의	-13277
처가	-13278
oun	-13279
▁미러	-13280
건은	-13281
회초	-13282
▁노는	-13283
▁알기	-13284
▁출혈	-13285
▁토크	-13286
▁눈앞	-13287
▁강렬한	-13288
▁시험을	-13289
타에	-13290
▁우유	-13291
개조	-13292
▁쳐서	-13293
▁수준은	-13294
CH	-13295
파티	-13296
▁순환	-13297
▁신한	-13298
▁복사	-13299
▁과정이	-13300
▁초에	-13301
▁귀국	-13302
▁손상	-13303
오게	-13304
▁다이스케	-13305
맨은	-13306
▁So	-13307
▁읍	-13308
▁이현	-13309
확률	-13310
▁부대를	-13311
▁펭	-13312
민과	-13313
▁이빨	-13314
▁Ap	-13315
▁분홍	-13316
주기도	-13317
82	-13318
▁NO	-13319
▁주술	-13320
▁특정한	-13321
▁날아가는	-13322
▁고장	-13323
▁이듬해	-13324
▁명칭을	-13325
바는	-13326
▁+5	-13327
▁몸통	-13328
▁쪽을	-13329
▁하스	-13330
▁어려움	-13331
▁최종보	-13332
▁개장	-13333
▁전수	-13334
사이즈	-13335
▁원래의	-13336
▁진행되는	-13337
▁+3	-13338
math	-13339
▁보냈다	-13340
헤이	-13341
액을	-13342
900	-13343
체제	-13344
▁부담이	-13345
건설	-13346
▁들어서는	-13347
▁감옥에	-13348
▁약점이	-13349
이다가	-13350
▁Dream	-13351
드에게	-13352
신도시	-13353
▁하인	-13354
▁위력은	-13355
▁쉽고	-13356
▁만화를	-13357
▁발매한	-13358
▁제치고	-13359
▁발사한다	-13360
▁지지를	-13361
▁얌	-13362
▁노무	-13363
▁이도	-13364
▁스테이	-13365
▁엉망	-13366
▁지우	-13367
▁가깝게	-13368
.13	-13369
▁불타	-13370
▁초등학생	-13371
▁IT	-13372
▁연결되어	-13373
스나	-13374
▁터보	-13375
▁나루토	-13376
▁마피아	-13377
념을	-13378
▁녀석이	-13379
▁최초수록	-13380
있기	-13381
▁9,	-13382
▁뛰어들	-13383
▁젬	-13384
▁많았던	-13385
▁자료를	-13386
▁이외에는	-13387
▁상황에서도	-13388
▁멀쩡한	-13389
▁남의	-13390
▁선수들	-13391
▁키미	-13392
▁무료로	-13393
▁타이밍을	-13394
카라	-13395
▁고르	-13396
▁흉내	-13397
▁아니야	-13398
▁산다	-13399
영과	-13400
제품	-13401
▁상담	-13402
▁승리로	-13403
▁오이	-13404
▁기부	-13405
▁iOS	-13406
▁나고야	-13407
▁담아	-13408
▁묻혀	-13409
▁모의	-13410
▁시작하고	-13411
▁이용하면	-13412
▁작아	-13413
▁그보다	-13414
43	-13415
▁하치	-13416
▁상대하기	-13417
▁게임에서는	-13418
더링	-13419
행위	-13420
▁탐색	-13421
▁신동	-13422
▁너를	-13423
▁레벨업	-13424
▁힘에	-13425
▁소원을	-13426
▁제작사	-13427
▁모른다는	-13428
었기에	-13429
▁둘이서	-13430
사이어	-13431
▁개가	-13432
▁비참	-13433
▁신생	-13434
▁한대	-13435
빨리	-13436
여야	-13437
코치	-13438
화도	-13439
작에	-13440
▁삼고	-13441
▁무언가	-13442
▁민주주의	-13443
▁일레븐	-13444
▁오르는	-13445
▁죽이지	-13446
▁피닉스	-13447
▁지속적인	-13448
화하는	-13449
▁JT	-13450
▁다른데	-13451
나리	-13452
able	-13453
▁것에서	-13454
▁대학생	-13455
▁실로	-13456
▁씨앗	-13457
▁일산	-13458
▁가이드	-13459
▁스콜	-13460
▁이소	-13461
메다	-13462
▁냉장	-13463
▁덤벼	-13464
▁요격	-13465
▁자원을	-13466
겁게	-13467
▁날카로운	-13468
▁없어졌다	-13469
▁넘사	-13470
▁비중을	-13471
▁항해	-13472
항을	-13473
어에서	-13474
일차	-13475
▁보이기	-13476
▁정원	-13477
세계의	-13478
▁이름과	-13479
▁다큐멘	-13480
▁심하다	-13481
▁개명	-13482
밴드	-13483
록을	-13484
▁마력을	-13485
▁화해	-13486
당과	-13487
열의	-13488
▁난무	-13489
는다면	-13490
롭게도	-13491
▁주의하자	-13492
49	-13493
▁쓰리	-13494
▁진행된다	-13495
▁치바	-13496
▁소수의	-13497
▁믿지	-13498
▁선동	-13499
▁부패	-13500
범이	-13501
▁바둑	-13502
▁소프트웨어	-13503
수준	-13504
▁솟	-13505
▁전인	-13506
▁모인	-13507
▁발견하고	-13508
카나	-13509
▁안타를	-13510
▁시기가	-13511
환은	-13512
▁에서는	-13513
ron	-13514
▁연산	-13515
▁때문인	-13516
▁라이언	-13517
중국	-13518
.26	-13519
하늘	-13520
▁눈동	-13521
▁서머	-13522
▁에미	-13523
▁내렸다	-13524
▁화살을	-13525
노동	-13526
가이	-13527
▁모드가	-13528
몬을	-13529
▁TP	-13530
▁보상으로	-13531
▁탭	-13532
▁CM	-13533
▁순천	-13534
▁트라	-13535
오면서	-13536
▁도쿠	-13537
▁상대하는	-13538
▁주저	-13539
/7	-13540
▁적힌	-13541
▁야마다	-13542
▁답게	-13543
▁많다고	-13544
▁리즈	-13545
▁조커	-13546
▁아이들	-13547
▁해군의	-13548
▁드러내	-13549
▁이루어졌다	-13550
▁거짓말을	-13551
만명	-13552
▁정석	-13553
▁와중에도	-13554
▁소니	-13555
▁입주	-13556
텍스	-13557
▁안개	-13558
▁남학생	-13559
▁전력이	-13560
공간	-13561
▁나왔지만	-13562
▁인정하고	-13563
▁대부분을	-13564
▁목소리로	-13565
재의	-13566
▁up	-13567
▁공이	-13568
▁싸이	-13569
▁부탁을	-13570
▁이후부터	-13571
▁안정적으로	-13572
▁펴	-13573
스크롤	-13574
▁타이탄	-13575
▁위험이	-13576
룡이	-13577
ale	-13578
▁해당되는	-13579
포와	-13580
▁스칼	-13581
▁스매	-13582
▁쪽의	-13583
▁도시의	-13584
▁메트로	-13585
▁전개가	-13586
▁바이에른	-13587
▁발급	-13588
▁안고	-13589
▁통하는	-13590
공은	-13591
▁메디	-13592
미디어	-13593
▁의도적으로	-13594
ject	-13595
▁밀리언	-13596
▁하느	-13597
▁DI	-13598
에의	-13599
합을	-13600
▁진지한	-13601
▁진행된	-13602
▁0:	-13603
▁판결	-13604
▁보스턴	-13605
▁논의	-13606
▁복장	-13607
▁먹지	-13608
▁출동	-13609
▁배수	-13610
슈타인	-13611
자유	-13612
▁수천	-13613
▁측은	-13614
마나	-13615
▁저스티	-13616
▁발생했다	-13617
▁아이템은	-13618
▁봇	-13619
맥스	-13620
▁결제	-13621
▁제너	-13622
▁기체가	-13623
▁맞았다	-13624
▁어레인지	-13625
▁어렵게	-13626
▁페이크	-13627
▁활용할	-13628
int	-13629
▁표정이	-13630
▁아쿠아	-13631
팀은	-13632
▁음료	-13633
▁그려진	-13634
▁강릉	-13635
▁마계	-13636
▁나뉘어	-13637
▁이쪽이	-13638
▁정책을	-13639
▁지못미	-13640
▁활동이	-13641
ier	-13642
▁나락	-13643
▁전략을	-13644
고생	-13645
▁이름인	-13646
▁설정으로	-13647
▁이르러	-13648
ose	-13649
지옥	-13650
▁도깨	-13651
▁암시	-13652
▁신중	-13653
▁애쉬	-13654
하더니	-13655
▁능력에	-13656
▁아담	-13657
▁갈리는	-13658
urn	-13659
년동안	-13660
▁국어	-13661
▁트윗	-13662
▁힘은	-13663
▁어나더	-13664
▁기후	-13665
▁샬	-13666
하세요	-13667
▁떨어져서	-13668
▁쓸데없이	-13669
셨다	-13670
▁넘사벽	-13671
▁방어구	-13672
▁이루는	-13673
▁1974	-13674
ild	-13675
▁드러난	-13676
▁만나서	-13677
▁사람이라면	-13678
▁할로	-13679
▁영화에서	-13680
ult	-13681
▁침착	-13682
▁시카고	-13683
▁후술할	-13684
연맹	-13685
디와	-13686
▁어렵고	-13687
▁관계없이	-13688
▁김병	-13689
▁닐	-13690
▁유동	-13691
▁챠	-13692
▁앤드	-13693
우스를	-13694
▁갈색	-13695
▁운영하고	-13696
▁아폴	-13697
▁나서는	-13698
▁짠	-13699
리니	-13700
▁성씨	-13701
▁집필	-13702
▁Team	-13703
▁유틸	-13704
▁조약	-13705
▁초당	-13706
▁무언가를	-13707
▁그들	-13708
군주	-13709
▁스타워즈	-13710
올라	-13711
▁봐서는	-13712
하와	-13713
▁조던	-13714
▁최전	-13715
▁베이징	-13716
▁사이를	-13717
▁맡는다	-13718
▁그러면서	-13719
▁공중에	-13720
리시	-13721
보에	-13722
▁묘지로	-13723
대대	-13724
왔는데	-13725
▁눈으로	-13726
▁말고는	-13727
▁무시할	-13728
▁발견된	-13729
▁오른팔	-13730
▁올라오는	-13731
▁백제	-13732
▁필드에	-13733
▁브레이브	-13734
▁이동하는	-13735
AB	-13736
▁교장	-13737
▁스카우트	-13738
▁띄워	-13739
▁근원	-13740
▁도우	-13741
▁아비	-13742
▁108	-13743
냈고	-13744
▁1%	-13745
▁호크	-13746
▁MG	-13747
▁고립	-13748
▁상주	-13749
가타	-13750
키스	-13751
▁그곳에서	-13752
▁남지	-13753
▁망설	-13754
▁미묘한	-13755
▁직행	-13756
▁찬양	-13757
게리온	-13758
미즈	-13759
카타	-13760
▁창을	-13761
▁ERA	-13762
▁있는게	-13763
▁담당하고	-13764
그마	-13765
▁양자	-13766
▁전당	-13767
하신	-13768
▁목이	-13769
▁김성근	-13770
▁이원	-13771
▁섭취	-13772
▁앨런	-13773
▁효과도	-13774
▁고집	-13775
불능	-13776
▁CR	-13777
▁병역	-13778
▁용산	-13779
~200	-13780
▁유럽의	-13781
▁지나친	-13782
▁보여주기도	-13783
▁조치	-13784
워치	-13785
피는	-13786
히며	-13787
▁밀고	-13788
▁이방	-13789
음의	-13790
작품	-13791
▁경의	-13792
운동장	-13793
구니	-13794
▁Ver	-13795
가족	-13796
해요	-13797
▁감추	-13798
▁완벽히	-13799
~"	-13800
▁말레이	-13801
▁도감	-13802
▁아픈	-13803
운드를	-13804
▁준수	-13805
▁걸리면	-13806
▁붙어있는	-13807
▁잘생	-13808
▁1.8	-13809
▁유닛은	-13810
▁고아	-13811
▁시범	-13812
▁드래곤의	-13813
▁AL	-13814
▁수석	-13815
▁주입	-13816
렸으나	-13817
▁어스	-13818
실험	-13819
▁이단	-13820
▁환생	-13821
쪽에서	-13822
▁판매하는	-13823
▁앨범을	-13824
▁실내	-13825
▁치료를	-13826
▁못했지만	-13827
머신	-13828
코스	-13829
:50	-13830
님은	-13831
되어야	-13832
▁로스트	-13833
▁능력과	-13834
-18	-13835
▁카사	-13836
령으로	-13837
▁맞추는	-13838
▁제작진이	-13839
▁하후	-13840
▁벌어졌다	-13841
국제공항	-13842
▁위상	-13843
▁들어가기	-13844
▁친구인	-13845
머리를	-13846
▁장난감	-13847
▁간접적으로	-13848
▁떼어	-13849
▁앞선	-13850
업체	-13851
▁91	-13852
▁잡몹	-13853
▁연고	-13854
oh	-13855
분간	-13856
▁숙청	-13857
▁채찍	-13858
▁학생들의	-13859
자다	-13860
▁킹덤	-13861
년과	-13862
▁일조	-13863
▁지구에	-13864
▁도망가	-13865
▁이타	-13866
▁읽을	-13867
▁되었으나	-13868
▁병행	-13869
▁짧아	-13870
▁대체적으로	-13871
▁중부	-13872
▁지루	-13873
▁패치를	-13874
적으론	-13875
▁기간이	-13876
모션	-13877
▁해소	-13878
▁말하자	-13879
대구	-13880
▁약칭	-13881
▁이름이다	-13882
▁오게	-13883
▁움직이지	-13884
▁재미를	-13885
격인	-13886
례가	-13887
▁급속	-13888
디지	-13889
▁해준	-13890
▁발생할	-13891
▁피어	-13892
▁시위	-13893
▁생명을	-13894
▁지내는	-13895
두에	-13896
▁악화	-13897
▁세계가	-13898
▁키우는	-13899
하자는	-13900
▁신비	-13901
▁예수	-13902
▁MSL	-13903
기병	-13904
▁덱을	-13905
▁성배	-13906
▁개수	-13907
▁호감을	-13908
▁인생을	-13909
▁힘들고	-13910
역까지	-13911
▁보낸다	-13912
▁삭제되었다	-13913
▁중화민	-13914
▁타입의	-13915
▁다행히도	-13916
▁희대의	-13917
견을	-13918
▁고우	-13919
▁모던	-13920
▁수술을	-13921
되서	-13922
▁돌리는	-13923
▁순정	-13924
▁피난	-13925
▁시오	-13926
▁쥰	-13927
네이	-13928
▁상태이	-13929
▁안젤	-13930
▁인텔	-13931
▁태어났	-13932
very	-13933
▁라인을	-13934
▁자체적으로	-13935
▁350	-13936
▁외곽	-13937
▁CL	-13938
▁본능	-13939
티콘	-13940
▁훈훈	-13941
▁쓰였다	-13942
▁터진	-13943
▁붙었다	-13944
▁대량으로	-13945
벌을	-13946
▁얼티밋	-13947
▁스쿼	-13948
▁무엇을	-13949
▁느끼게	-13950
찮게	-13951
▁박진	-13952
▁서태	-13953
▁대변	-13954
▁니코니코	-13955
▁애니메이션에서는	-13956
질에	-13957
▁지극	-13958
▁리본	-13959
▁다가가	-13960
▁향후	-13961
지던	-13962
▁재앙	-13963
▁테일즈	-13964
▁스타일의	-13965
▁실상은	-13966
▁pl	-13967
▁tv	-13968
▁원인은	-13969
▁피오	-13970
▁중에선	-13971
▁비정상	-13972
▁호랑이	-13973
▁노선으로	-13974
▁막혀	-13975
성에서	-13976
▁더러운	-13977
▁숨을	-13978
▁피스	-13979
▁빨아	-13980
▁영화에	-13981
▁피니	-13982
▁128	-13983
▁베를린	-13984
진한	-13985
▁명은	-13986
▁미식	-13987
▁유메	-13988
▁입구	-13989
▁일어나지	-13990
▁국내에	-13991
▁뛰어나다	-13992
▁읽는다	-13993
▁공짜	-13994
▁삼진	-13995
▁1975	-13996
▁적용되는	-13997
▁에어로시티	-13998
레이트	-13999
▁무식	-14000
▁변호사	-14001
▁고대의	-14002
▁듣지	-14003
▁안하고	-14004
▁통하여	-14005
우로	-14006
▁공교	-14007
리스크	-14008
▁노란색	-14009
▁게르	-14010
▁계단	-14011
르면서	-14012
▁벗어난	-14013
▁필요할	-14014
▁동력	-14015
▁맞물	-14016
▁금강	-14017
▁명탐정	-14018
▁플레임	-14019
▁공간이	-14020
▁리그에서	-14021
▁것들을	-14022
▁목표를	-14023
▁존재하는데	-14024
▁탕	-14025
▁해태	-14026
▁두루	-14027
▁70%	-14028
▁못하다	-14029
▁꿰뚫	-14030
▁바닷	-14031
순환	-14032
▁고고	-14033
▁만나면	-14034
▁마법으로	-14035
▁동계	-14036
▁유머	-14037
▁기를	-14038
▁놈이	-14039
▁곁에	-14040
▁필사	-14041
▁중국에서	-14042
▁에반게리온	-14043
형제	-14044
▁연맹	-14045
▁유탄	-14046
▁흐르는	-14047
▁워프	-14048
▁용암	-14049
▁정교	-14050
▁캐릭터에	-14051
sc	-14052
▁상술한	-14053
▁오류가	-14054
▁바꾸고	-14055
해버린다	-14056
왕과	-14057
리프	-14058
▁말씀	-14059
▁버스트	-14060
▁가족을	-14061
▁beat	-14062
▁사법	-14063
▁돌아올	-14064
▁그렇다면	-14065
▁0.8	-14066
▁일례로	-14067
▁학생이	-14068
▁분대	-14069
▁차체	-14070
~30	-14071
▁극초	-14072
자이자	-14073
▁다시는	-14074
전공	-14075
▁무궁	-14076
라에몽	-14077
메탈	-14078
▁폴리	-14079
▁Night	-14080
▁온천	-14081
▁멤버들은	-14082
▁디자이너	-14083
▁플라스틱	-14084
결승	-14085
▁대수	-14086
▁두번	-14087
▁캐릭터들	-14088
▁디아블로	-14089
▁노골	-14090
▁먹여	-14091
▁성공적으로	-14092
▁수록되었다	-14093
▁OF	-14094
▁극한	-14095
사령관	-14096
였으니	-14097
술이	-14098
▁빌리	-14099
▁지켜보	-14100
▁내뱉	-14101
▁한계를	-14102
▁관리를	-14103
됨에	-14104
▁대피	-14105
때까지	-14106
▁양대	-14107
▁역할은	-14108
▁강탈	-14109
▁이동할	-14110
▁성의	-14111
▁슈트	-14112
▁예약	-14113
▁껴	-14114
▁트랩	-14115
▁써먹을	-14116
▁하나에	-14117
01	-14118
▁높여	-14119
▁마케팅	-14120
률은	-14121
▁대명	-14122
▁글자	-14123
▁60%	-14124
▁유즈	-14125
▁더구나	-14126
▁시작하면서	-14127
▁비판이	-14128
▁가오	-14129
▁두뇌	-14130
▁리카	-14131
▁토대로	-14132
▁무시하는	-14133
oug	-14134
▁병원에	-14135
▁카가	-14136
▁FPS	-14137
가수	-14138
칸센	-14139
▁고스	-14140
▁90%	-14141
▁재발	-14142
활약	-14143
▁정형	-14144
▁누르고	-14145
▁스바	-14146
▁단점은	-14147
▁브라더	-14148
▁붙어서	-14149
▁경험치를	-14150
▁정신나간	-14151
▁불릴	-14152
▁MM	-14153
석과	-14154
▁전제	-14155
▁115	-14156
▁동아리	-14157
▁세월호	-14158
전에서도	-14159
열에	-14160
▁갖는	-14161
▁미녀	-14162
▁청춘	-14163
▁바뀌고	-14164
스럽다	-14165
▁의미의	-14166
전도	-14167
▁마지막에는	-14168
.22	-14169
피안타	-14170
▁산맥	-14171
▁이틀	-14172
▁개발된	-14173
당시	-14174
▁To	-14175
▁가치를	-14176
.1%	-14177
▁받았던	-14178
▁우주의	-14179
▁대표적	-14180
▁이른다	-14181
▁퀵	-14182
▁Fr	-14183
반에	-14184
▁강동	-14185
▁싶어서	-14186
▁피지컬	-14187
▁농업	-14188
▁두개	-14189
▁1.7	-14190
▁LTE	-14191
해볼	-14192
▁sp	-14193
▁산하	-14194
▁히라	-14195
▁줄어든	-14196
▁스마일	-14197
▁미칠	-14198
▁MB	-14199
▁스윙	-14200
▁소환한다	-14201
▁배역	-14202
▁Col	-14203
▁작품인	-14204
▁도대체	-14205
▁프랑스어	-14206
▁항목에	-14207
▁획득할	-14208
▁보여주지	-14209
모어	-14210
▁명시	-14211
활동을	-14212
▁동료가	-14213
바다	-14214
▁TS	-14215
▁않자	-14216
▁이별	-14217
▁물건이	-14218
▁0.7	-14219
▁법을	-14220
▁돌아온다	-14221
산은	-14222
▁AB	-14223
▁신하	-14224
▁아내가	-14225
▁쥐어	-14226
파인	-14227
▁무작정	-14228
▁유사하다	-14229
▁수감	-14230
▁무기에	-14231
83	-14232
▁오딘	-14233
▁롬	-14234
▁다투	-14235
▁벤치	-14236
▁오렌지	-14237
▁추가된다	-14238
▁등재	-14239
▁코인	-14240
▁부스트	-14241
▁것이지만	-14242
▁잡힌	-14243
▁여기고	-14244
시민	-14245
▁아군을	-14246
▁can	-14247
가인	-14248
기면서	-14249
▁3.0	-14250
대륙	-14251
삼아	-14252
iel	-14253
▁자기를	-14254
▁당초	-14255
글라	-14256
▁이때의	-14257
▁가사를	-14258
▁개념을	-14259
샷을	-14260
▁것이니	-14261
▁차이점	-14262
▁김전	-14263
▁도트	-14264
디스크	-14265
불명의	-14266
자로서	-14267
▁걸려서	-14268
▁하는게	-14269
▁독일어	-14270
▁그랜	-14271
▁날린	-14272
▁여기까지	-14273
▁드루	-14274
라든가	-14275
했으면	-14276
▁1200	-14277
▁무도	-14278
▁여파로	-14279
년부터는	-14280
▁유닛으로	-14281
▁all	-14282
▁스나이퍼	-14283
▁과시	-14284
▁벌써	-14285
▁군수	-14286
▁이태	-14287
▁카카오	-14288
▁갯	-14289
▁소생	-14290
▁메이커	-14291
▁랜덤으로	-14292
OO	-14293
▁국회	-14294
▁남양	-14295
▁하행	-14296
▁사진은	-14297
▁주제로	-14298
▁나이를	-14299
▁스토리는	-14300
요리	-14301
▁놀러	-14302
▁차원의	-14303
▁모두에게	-14304
상태가	-14305
▁인원이	-14306
▁줌	-14307
▁야구장	-14308
사구	-14309
▁김광	-14310
▁소속으로	-14311
▁나눈	-14312
▁샤오	-14313
▁입사	-14314
기동	-14315
▁샘플	-14316
▁시킨	-14317
▁총리	-14318
안으로	-14319
▁기원전	-14320
▁활약으로	-14321
현과	-14322
▁자책	-14323
▁플러스	-14324
ign	-14325
▁공식적인	-14326
▁리믹스	-14327
▁1976	-14328
▁탁월	-14329
곡인	-14330
▁7.	-14331
▁선수들은	-14332
▁싫어한다	-14333
▁트레이너	-14334
련을	-14335
미츠	-14336
▁경찰이	-14337
▁연관이	-14338
▁기록하고	-14339
금의	-14340
리치	-14341
▁%	-14342
▁시대가	-14343
▁조선의	-14344
▁나타났다	-14345
이라고는	-14346
▁비슷하지만	-14347
▁백작	-14348
딜을	-14349
보그	-14350
고와	-14351
▁스크롤	-14352
▁살펴보면	-14353
▁1977	-14354
문과	-14355
▁늘어나고	-14356
▁깨알	-14357
▁리부	-14358
필로그	-14359
▁역할로	-14360
▁놀랍게도	-14361
▁시작부터	-14362
▁허가	-14363
염을	-14364
▁영등	-14365
▁덕후	-14366
▁뜻은	-14367
▁보이게	-14368
▁언급을	-14369
▁Type	-14370
▁신칸센	-14371
해라	-14372
▁치러	-14373
▁넬	-14374
▁물의	-14375
▁전두	-14376
▁기준으로는	-14377
▁프랭크	-14378
▁Girl	-14379
▁공감	-14380
▁동성애	-14381
▁부분의	-14382
▁역할이	-14383
▁헥	-14384
▁밀레	-14385
▁블럭	-14386
▁식품	-14387
▁{{{#	-14388
▁플레이하는	-14389
▁디자인은	-14390
▁no	-14391
▁걸릴	-14392
그리고	-14393
▁적립	-14394
▁일품	-14395
실과	-14396
▁GM	-14397
▁아슬	-14398
참모	-14399
이는데	-14400
▁수립	-14401
토시	-14402
▁깊이	-14403
▁공격력의	-14404
▁포지션을	-14405
▁들자면	-14406
▁Black	-14407
▁방송국	-14408
▁배리어	-14409
▁경상북도	-14410
자였던	-14411
훈은	-14412
▁리셋	-14413
▁실험을	-14414
▁태어났다	-14415
호쿠	-14416
▁영혼이	-14417
▁있다며	-14418
▁경향	-14419
▁중시	-14420
▁초청	-14421
타워	-14422
▁모두의	-14423
▁어긋	-14424
▁비판하는	-14425
▁뮤지션	-14426
▁나레이션	-14427
니클	-14428
짓을	-14429
▁높지만	-14430
▁폐선	-14431
버스의	-14432
검의	-14433
▁조합이	-14434
co	-14435
▁맥주	-14436
▁소속된	-14437
그런	-14438
없어	-14439
▁비밀을	-14440
▁입힌다	-14441
▁그마저도	-14442
700	-14443
▁초과	-14444
▁캐릭터이다	-14445
조작	-14446
▁따져	-14447
▁상행	-14448
놨다	-14449
측의	-14450
▁퍼펙트	-14451
문에서	-14452
▁KTX	-14453
▁장면도	-14454
▁전차를	-14455
▁마하	-14456
▁퇴치	-14457
우드	-14458
▁친절	-14459
▁낳은	-14460
▁얼어	-14461
▁종사	-14462
▁넘어갈	-14463
▁별칭	-14464
▁몇번	-14465
차지	-14466
▁다케	-14467
▁혈통	-14468
▁중학생	-14469
▁트러블	-14470
▁경기에서는	-14471
▁공격력과	-14472
▁사회주의	-14473
ye	-14474
▁여유가	-14475
▁프랜차이즈	-14476
▁텍사	-14477
▁유저의	-14478
▁주변을	-14479
▁공교롭게도	-14480
무게	-14481
▁아니냐	-14482
▁175	-14483
▁트릴	-14484
한지	-14485
▁선거에서	-14486
차대전	-14487
배틀	-14488
▁암컷	-14489
▁업그레이드를	-14490
맨과	-14491
▁일러스트레이터	-14492
▁메딕	-14493
▁모빌슈	-14494
▁설정에	-14495
▁Op	-14496
▁교복	-14497
▁주니	-14498
▁퇴역	-14499
▁꿈꾸	-14500
▁지식을	-14501
▁아냐	-14502
▁측면에서	-14503
미아	-14504
net	-14505
▁올려주는	-14506
▁걸맞게	-14507
▁몬스터는	-14508
교도	-14509
▁찾아서	-14510
▁팀으로	-14511
▁버블	-14512
▁수신	-14513
▁약물	-14514
▁유저는	-14515
▁밝혀지지	-14516
즈로	-14517
▁Gam	-14518
▁부대가	-14519
▁웨이브	-14520
▁팀에서	-14521
정책	-14522
포드	-14523
▁대상의	-14524
▁선발로	-14525
▁부속	-14526
▁히사	-14527
▁사람에	-14528
▁주기도	-14529
▁캘리포	-14530
▁거두었다	-14531
▁지팡이	-14532
거는	-14533
▁부활한	-14534
광역	-14535
800	-14536
▁본의	-14537
▁손잡	-14538
▁따라잡	-14539
▁인천광역시	-14540
▁확인되었다	-14541
론과	-14542
렉터	-14543
할지	-14544
▁보러	-14545
▁에필로그	-14546
▁미루어	-14547
▁비비	-14548
▁크지	-14549
년으로	-14550
▁기관단	-14551
▁냉동	-14552
▁표면	-14553
해버린	-14554
▁PSP	-14555
▁나란히	-14556
▁무제한	-14557
▁알아차	-14558
▁내용으로	-14559
▁보여줄	-14560
볼트	-14561
▁도라에몽	-14562
▁갸	-14563
ANI	-14564
▁RE	-14565
▁만났을	-14566
▁역관광	-14567
▁우두	-14568
▁설치된	-14569
UR	-14570
▁상무	-14571
▁시사	-14572
전까지	-14573
▁못한다는	-14574
▁스텟	-14575
▁알수	-14576
▁괴로워	-14577
▁플레이스테이션	-14578
플라이	-14579
▁여기서도	-14580
▁내며	-14581
▁단기	-14582
▁한양	-14583
▁운명을	-14584
▁맹독	-14585
▁친목	-14586
▁팬들을	-14587
생물	-14588
▁슬슬	-14589
▁업무를	-14590
하임	-14591
▁가격을	-14592
▁관광객	-14593
▁버전을	-14594
자료	-14595
▁그대	-14596
▁무용	-14597
음과	-14598
▁레이디	-14599
▁변하는	-14600
댄다	-14601
마력	-14602
회로	-14603
▁안경을	-14604
▁강민	-14605
▁입원	-14606
▁고개를	-14607
▁여러분	-14608
▁치하	-14609
▁하사	-14610
분기	-14611
▁자아	-14612
▁대통령의	-14613
채를	-14614
전에는	-14615
▁가라앉	-14616
▁강력하다	-14617
▁띄는	-14618
▁제품을	-14619
▁프로덕션	-14620
집의	-14621
▁태도	-14622
▁인정하지	-14623
▁사우스	-14624
▁어벤져	-14625
▁상인	-14626
포에	-14627
▁에일리언	-14628
▁우즈	-14629
▁룸	-14630
▁객관	-14631
▁마지막까지	-14632
▁전과	-14633
▁돌아오는	-14634
▁싱가포르	-14635
▁생각해서	-14636
대수	-14637
파이트	-14638
▁이전에도	-14639
▁인정하는	-14640
aby	-14641
▁Pre	-14642
▁가면을	-14643
▁달러를	-14644
▁묘사를	-14645
▁자리가	-14646
▁고인	-14647
개에	-14648
들리	-14649
스트림	-14650
▁출신이다	-14651
▁드라큘	-14652
중을	-14653
▁공원	-14654
▁인스타그램	-14655
▁내부에서	-14656
LS	-14657
발에	-14658
황을	-14659
리그에서	-14660
/+	-14661
▁노블	-14662
▁붙이는	-14663
▁중반에	-14664
▁예쁜	-14665
▁부친	-14666
▁북아	-14667
▁펌프	-14668
▁빨간색	-14669
▁솔직히	-14670
▁광산	-14671
ical	-14672
▁이글스	-14673
▁1972	-14674
▁아레나	-14675
▁현실은	-14676
▁사치	-14677
▁유망주	-14678
▁최상급	-14679
이라든가	-14680
4%	-14681
검은	-14682
ull	-14683
▁빈틈	-14684
▁찌질	-14685
카에게	-14686
▁연구소	-14687
▁조립	-14688
▁스타디움	-14689
미르	-14690
▁격퇴	-14691
▁도는	-14692
▁장비가	-14693
.21	-14694
▁레온	-14695
▁하이라	-14696
▁사람들과	-14697
▁동정	-14698
▁영화는	-14699
▁각자의	-14700
▁발표한	-14701
▁내버려	-14702
▁팝픈뮤직	-14703
따라	-14704
▁오자	-14705
▁조사를	-14706
파이터	-14707
▁미국에	-14708
▁희망을	-14709
▁미친듯이	-14710
▁조명	-14711
▁팔레	-14712
▁필요도	-14713
▁섞인	-14714
▁흑역사	-14715
격투	-14716
▁무한도전	-14717
▁원래부터	-14718
▁저승	-14719
그대로	-14720
미네이터	-14721
▁상당수가	-14722
▁피하는	-14723
▁부대의	-14724
▁한정판	-14725
▁절대적인	-14726
▁주력으로	-14727
▁바쿠	-14728
▁지원한다	-14729
연대	-14730
▁EV	-14731
▁빈번	-14732
▁무대를	-14733
▁뉘앙	-14734
▁발명	-14735
▁바뀌면서	-14736
▁밥을	-14737
▁정준	-14738
▁조회	-14739
▁앞으로도	-14740
▁란스	-14741
▁광고를	-14742
▁동아시아	-14743
▁마드리드	-14744
▁수인	-14745
▁지진	-14746
▁방공	-14747
▁키보드	-14748
▁섬에	-14749
▁카스	-14750
▁의사를	-14751
▁SA	-14752
▁남자는	-14753
▁성장한	-14754
네와	-14755
▁do	-14756
▁이후엔	-14757
▁사용을	-14758
me	-14759
▁상단	-14760
▁적에	-14761
▁다름없는	-14762
▁망했어요	-14763
노벨	-14764
▁장동	-14765
리라는	-14766
▁아랑	-14767
되니	-14768
▁Qu	-14769
▁다름아닌	-14770
테의	-14771
편성	-14772
▁검정	-14773
▁캐릭터와	-14774
▁택시	-14775
▁수준을	-14776
▁스위스	-14777
▁강아	-14778
▁로렌	-14779
▁성우인	-14780
▁워커	-14781
▁상황이라	-14782
커녕	-14783
▁자이언트	-14784
쪽은	-14785
풀이	-14786
▁카이사	-14787
년에도	-14788
▁자신들을	-14789
▁안될	-14790
▁제약	-14791
▁후루	-14792
하기에는	-14793
▁재벌	-14794
정당	-14795
▁모터	-14796
콤보	-14797
▁포착	-14798
▁포인트가	-14799
gin	-14800
▁공격의	-14801
▁외치는	-14802
▁인사를	-14803
어버릴	-14804
미션	-14805
▁수컷	-14806
강화	-14807
해보자	-14808
값이	-14809
한게	-14810
oul	-14811
▁마술사	-14812
▁증가합니다	-14813
야스	-14814
▁여긴	-14815
▁컸다	-14816
▁존재감이	-14817
▁사퇴	-14818
살인	-14819
주쿠	-14820
▁쇼크	-14821
▁호응	-14822
▁인질로	-14823
▁일본을	-14824
녀를	-14825
▁그루	-14826
였다면	-14827
▁나카무라	-14828
▁쿠루	-14829
▁현금	-14830
인드	-14831
▁지을	-14832
▁여론이	-14833
기보다는	-14834
▁루리	-14835
▁게스트로	-14836
.29	-14837
증으로	-14838
▁몰아붙	-14839
▁존재할	-14840
환경	-14841
▁모델을	-14842
▁번이나	-14843
▁루크	-14844
▁포탄	-14845
었으니	-14846
▁길에	-14847
▁마일	-14848
68	-14849
불을	-14850
▁빌딩	-14851
시스코	-14852
공영	-14853
▁해운	-14854
▁컨디션	-14855
▁뻘	-14856
▁드러나는	-14857
플레	-14858
▁Time	-14859
▁소꿉친구	-14860
▁사관	-14861
▁정해	-14862
▁바닥을	-14863
▁모험가	-14864
▁극단적으로	-14865
몬스터	-14866
▁변이	-14867
시까지	-14868
▁프레데	-14869
▁안동	-14870
▁절단	-14871
에서나	-14872
선지	-14873
▁편을	-14874
▁0.9	-14875
▁뒤에도	-14876
.28	-14877
▁국제공항	-14878
▁마친	-14879
▁마시는	-14880
▁딘	-14881
.27	-14882
부턴	-14883
▁에메랄	-14884
▁성과	-14885
▁월간	-14886
▁Wii	-14887
▁다룰	-14888
나가와	-14889
▁루트를	-14890
▁세츠	-14891
▁연간	-14892
57	-14893
▁>	-14894
▁냅	-14895
기념	-14896
자들과	-14897
▁일각	-14898
우에게	-14899
▁동료로	-14900
▁아이템으로	-14901
층은	-14902
▁콤비	-14903
▁경상남도	-14904
93	-14905
수에게	-14906
▁오타쿠	-14907
▁동점	-14908
코로	-14909
org	-14910
▁주황	-14911
▁그려져	-14912
▁출신인	-14913
▁낯	-14914
▁바르셀로나	-14915
▁구로	-14916
▁깔려	-14917
▁투쟁	-14918
적도	-14919
▁깽	-14920
▁평택	-14921
▁황태	-14922
우스는	-14923
▁축구선수	-14924
▁슬픈	-14925
▁시네마	-14926
▁워낙에	-14927
▁몹시	-14928
▁성직	-14929
▁아타	-14930
▁종로	-14931
하느라	-14932
캠퍼스	-14933
▁근처에서	-14934
▁모양새	-14935
▁민간인	-14936
▁등장이	-14937
▁안산	-14938
놓았다	-14939
▁아메리칸	-14940
▁에레	-14941
주세요	-14942
▁아오이	-14943
쿠리	-14944
▁맵을	-14945
▁선택을	-14946
▁외모가	-14947
에가	-14948
▁동맹을	-14949
삼국	-14950
▁타키	-14951
리다가	-14952
▁무색	-14953
▁BEM	-14954
▁구하는	-14955
나면	-14956
▁친구를	-14957
▁독자적인	-14958
▁리처드	-14959
▁태양의	-14960
▁미묘하게	-14961
▁세우고	-14962
▁서방	-14963
▁변하지	-14964
▁중에도	-14965
술의	-14966
▁IP	-14967
어지고	-14968
▁칭호	-14969
▁카렌	-14970
▁웜	-14971
~15	-14972
▁국도	-14973
▁편리	-14974
제일	-14975
▁맞추면	-14976
▁님	-14977
▁좋아하고	-14978
▁뺀	-14979
▁궁극기	-14980
▁as	-14981
▁나들	-14982
▁근처의	-14983
못해	-14984
함으로서	-14985
일때	-14986
▁맺고	-14987
▁산타	-14988
된다면	-14989
강이	-14990
▁하이드	-14991
▁감금	-14992
▁김주	-14993
▁정황상	-14994
군단	-14995
▁날개를	-14996
▁일으켰	-14997
▁겪고	-14998
▁고가	-14999
▁빙결	-15000
▁아마존	-15001
▁방법이다	-15002
▁카토	-15003
답시고	-15004
턴간	-15005
▁메세	-15006
▁콘스탄	-15007
▁후보가	-15008
요원	-15009
▁동서	-15010
▁지선	-15011
▁징역	-15012
▁홋카이도	-15013
ae	-15014
ERO	-15015
▁차용	-15016
idth	-15017
▁AFC	-15018
높은	-15019
도어	-15020
▁셜	-15021
브레	-15022
▁됩니다	-15023
▁멀리서	-15024
▁초반의	-15025
▁늘어나는	-15026
▁타다	-15027
▁역사적	-15028
▁이광	-15029
▁수치를	-15030
XX	-15031
쳤고	-15032
▁친일	-15033
▁갑옷을	-15034
▁Do	-15035
AND	-15036
▁고의	-15037
백화점	-15038
▁응급	-15039
쿠스	-15040
▁feat	-15041
▁멈춰	-15042
▁마을에서	-15043
▁전통적인	-15044
▁프롤로그	-15045
▁영상에서	-15046
듯하다	-15047
▁시뮬레이션	-15048
▁주워	-15049
등록	-15050
▁짓고	-15051
▁지옥의	-15052
▁절벽	-15053
삼거리	-15054
▁입히는	-15055
▁받았지만	-15056
▁태국	-15057
▁보너스를	-15058
▁특이하게	-15059
▁멀티플레이	-15060
재료	-15061
▁먹기	-15062
▁군용	-15063
▁맡겨	-15064
▁승진	-15065
▁면에서는	-15066
내의	-15067
▁아울	-15068
▁꼽힌다	-15069
▁명으로	-15070
▁때리는	-15071
▁프로토타입	-15072
▁한달	-15073
린다고	-15074
▁에드워드	-15075
▁특공	-15076
▁따위는	-15077
▁의미에서	-15078
▁얻지	-15079
▁들어있는	-15080
▁존재하고	-15081
모와	-15082
▁소서	-15083
하니까	-15084
함대	-15085
▁스톡	-15086
▁폐허	-15087
▁사이토	-15088
▁시작하여	-15089
▁뽑기	-15090
차게	-15091
마에게	-15092
▁열차가	-15093
▁언급했다	-15094
▁수여	-15095
어머니	-15096
층에서	-15097
▁오해를	-15098
▁흑역	-15099
▁현상을	-15100
▁면제	-15101
▁비아	-15102
▁립	-15103
▁저상	-15104
▁관리하는	-15105
▁후쿠오카	-15106
▁승자	-15107
▁추가되어	-15108
답지	-15109
▁이루고	-15110
▁조직의	-15111
▁클라이	-15112
▁끝을	-15113
▁로컬	-15114
드컵	-15115
▁교향	-15116
▁낭비	-15117
▁공격적인	-15118
▁테러리스트	-15119
ty	-15120
리아와	-15121
속도를	-15122
▁내놓은	-15123
▁from	-15124
cc	-15125
▁tr	-15126
▁자켓	-15127
▁죽음에	-15128
▁참으로	-15129
정지	-15130
▁감각	-15131
▁본체	-15132
▁선봉	-15133
▁개발이	-15134
▁적재	-15135
▁연출을	-15136
류로	-15137
송이	-15138
▁선박	-15139
▁중구	-15140
▁극대화	-15141
▁기체의	-15142
▁세웠다	-15143
▁팔이	-15144
▁운영기관	-15145
패가	-15146
▁내뿜	-15147
▁목욕	-15148
▁가사가	-15149
▁과도한	-15150
▁스노우	-15151
▁주머니	-15152
▁La	-15153
▁배터	-15154
슬롯	-15155
▁한신	-15156
▁않거나	-15157
▁움직임이	-15158
▁나비	-15159
▁무대에	-15160
▁사용하게	-15161
▁어렵다는	-15162
▁쿠니	-15163
▁JTBC	-15164
▁분할	-15165
▁연동	-15166
▁시작하였다	-15167
▁면을	-15168
▁넣으면	-15169
▁돌아가기	-15170
▁캐릭터들은	-15171
유저	-15172
▁보스의	-15173
▁수준에	-15174
유는	-15175
▁떠났다	-15176
브는	-15177
▁오시	-15178
▁한층	-15179
▁나서서	-15180
이서	-15181
▁우투	-15182
효과를	-15183
▁모드에서	-15184
▁BEMANI	-15185
▁220	-15186
▁비중은	-15187
▁무슬	-15188
▁넘어간	-15189
▁수시로	-15190
▁없거나	-15191
▁가나	-15192
▁인재	-15193
▁아바타	-15194
▁줄어들었다	-15195
▁갱신	-15196
▁방에서	-15197
▁숨기고	-15198
▁아무렇	-15199
▁자세를	-15200
놀이	-15201
프란	-15202
▁휴먼	-15203
▁나타났	-15204
▁문제점이	-15205
▁레슬링	-15206
▁1971	-15207
▁맑	-15208
▁이들도	-15209
app	-15210
▁패닉	-15211
▁남자를	-15212
▁DR	-15213
▁쳤다	-15214
▁무지막지한	-15215
▁동명의	-15216
▁등지에서	-15217
토미	-15218
▁마저	-15219
▁심야	-15220
▁극소	-15221
▁미끼	-15222
▁발발	-15223
▁강해서	-15224
▁상승한다	-15225
▁성전	-15226
생으로	-15227
라라	-15228
▁스토리의	-15229
▁EC	-15230
▁가위	-15231
▁비추	-15232
▁역사에	-15233
▁뛰는	-15234
▁GN	-15235
▁중급	-15236
▁최우수	-15237
클레	-15238
▁관료	-15239
▁대인배	-15240
학기	-15241
▁폭로	-15242
▁체력과	-15243
▁파밍	-15244
▁아이러니하게도	-15245
▁나르	-15246
더라면	-15247
▁차지한	-15248
▁격침	-15249
▁명성	-15250
하우스	-15251
시나	-15252
▁찾아와	-15253
▁애니메이션의	-15254
▁않던	-15255
▁좌익	-15256
▁다름없	-15257
마리를	-15258
▁Gre	-15259
▁발목을	-15260
▁마이크로	-15261
▁났다	-15262
▁맞출	-15263
▁복장을	-15264
▁1969	-15265
내면	-15266
저것	-15267
▁한가지	-15268
희를	-15269
▁바람을	-15270
▁트랜스	-15271
▁미션에서	-15272
▁파격	-15273
▁사태를	-15274
▁2:0	-15275
▁일일이	-15276
먹는다	-15277
▁오페라	-15278
▁일본어로	-15279
▁무신	-15280
▁블래스터	-15281
▁자부	-15282
느냐에	-15283
▁하여금	-15284
▁자율	-15285
▁정보는	-15286
▁쿠르	-15287
▁퓨처	-15288
▁앞뒤	-15289
▁어울리지	-15290
후보	-15291
▁로열	-15292
▁제목이	-15293
▁무공	-15294
▁240	-15295
탕을	-15296
명이다	-15297
▁등장으로	-15298
▁않습니다	-15299
▁말려	-15300
eel	-15301
▁제발	-15302
▁사전에	-15303
▁좋은데	-15304
72	-15305
인조	-15306
▁휘하	-15307
▁헬리콥	-15308
▁상쇄	-15309
▁유아	-15310
▁패배하고	-15311
편과	-15312
▁근거로	-15313
통합	-15314
▁코요	-15315
▁오비	-15316
▁기지를	-15317
▁대격	-15318
▁정밀	-15319
▁맞추기	-15320
▁진행할	-15321
BL	-15322
▁군림	-15323
▁대법	-15324
오르는	-15325
▁유연	-15326
▁인권	-15327
agon	-15328
▁상대식	-15329
▁특이사항	-15330
▁마을버스	-15331
▁0.6	-15332
▁먼치킨	-15333
▁십자가	-15334
▁정사	-15335
▁선을	-15336
▁단점을	-15337
▁HARD	-15338
▁자고	-15339
▁사랑에	-15340
▁내려가	-15341
▁만만치	-15342
▁있듯	-15343
▁지킬	-15344
▁내기	-15345
▁야만	-15346
▁폭스	-15347
▁생겨서	-15348
월호	-15349
▁--	-15350
▁NEW	-15351
▁트리거	-15352
▁화염방	-15353
▁확률은	-15354
▁그리하여	-15355
▁찾으러	-15356
▁엔딩에서	-15357
귀를	-15358
글이	-15359
▁빼앗아	-15360
▁불가사의	-15361
▁소환하는	-15362
▁줄어든다	-15363
시도	-15364
▁일리	-15365
▁차에	-15366
적이라	-15367
계에서는	-15368
▁시즌에는	-15369
▁썸	-15370
▁가로막	-15371
▁인연이	-15372
▁사용하던	-15373
▁도배	-15374
▁수중	-15375
▁여자친구	-15376
▁시킬	-15377
▁요코하마	-15378
TC	-15379
▁콧	-15380
▁파일을	-15381
연방	-15382
▁BJ	-15383
▁진행이	-15384
규가	-15385
▁웨폰	-15386
▁생기고	-15387
ution	-15388
▁자비	-15389
▁이미지는	-15390
to	-15391
▁쓰러져	-15392
▁)	-15393
우타	-15394
▁걸어서	-15395
▁패키지	-15396
▁위치하고	-15397
하트	-15398
▁행보를	-15399
▁액셀	-15400
▁범위를	-15401
몬과	-15402
▁높기	-15403
▁소스	-15404
▁일꾼	-15405
전부터	-15406
▁높으신	-15407
▁일베	-15408
메리카	-15409
스크림	-15410
보컬	-15411
▁원흉	-15412
▁부사관	-15413
▁BM	-15414
▁점멸	-15415
▁임팩트	-15416
▁할로윈	-15417
▁쿵	-15418
▁계정	-15419
▁UFC	-15420
▁가족이	-15421
와이	-15422
▁않겠	-15423
▁인쇄	-15424
▁볼드	-15425
▁세상의	-15426
▁모욕	-15427
일수록	-15428
▁수업을	-15429
▁재능이	-15430
▁가창	-15431
▁포텐	-15432
▁공산주의	-15433
고에서	-15434
▁거칠	-15435
천을	-15436
▁내린다	-15437
그린	-15438
명칭	-15439
▁오만	-15440
▁저하	-15441
▁레스	-15442
▁뛰어넘는	-15443
▁벌어진다	-15444
학부	-15445
▁배워	-15446
▁미국으로	-15447
팩트	-15448
▁세키	-15449
▁155	-15450
▁서바이벌	-15451
▁거리에	-15452
69	-15453
까요	-15454
호에게	-15455
▁올린다	-15456
▁걷어	-15457
▁검증	-15458
▁생각에	-15459
▁하이브리	-15460
▁뽑은	-15461
▁게임인	-15462
물과	-15463
▁캘리포니아	-15464
▁구한	-15465
어졌다	-15466
▁포스를	-15467
한정	-15468
▁지원이	-15469
▁서울시	-15470
라니	-15471
▁꼴찌	-15472
▁뿐이었다	-15473
▁창립	-15474
arm	-15475
▁무너뜨	-15476
▁상위권	-15477
▁그녀와	-15478
▁초기화	-15479
▁고맙	-15480
▁체육관	-15481
▁휴게	-15482
대결	-15483
▁시점에	-15484
▁발탁	-15485
▁성사	-15486
▁Gl	-15487
▁권한	-15488
TA	-15489
금지	-15490
▁최소한의	-15491
,0	-15492
소프트	-15493
였다가	-15494
다와	-15495
듈럼	-15496
▁데미지도	-15497
▁박혀	-15498
▁오퍼	-15499
▁일삼	-15500
▁전염	-15501
▁아수라	-15502
▁오른다	-15503
▁8.	-15504
▁부모가	-15505
▁친애도	-15506
▁설명하는	-15507
▁후타	-15508
▁밑으로	-15509
▁돈으로	-15510
▁기능은	-15511
다드	-15512
▁스스로의	-15513
받기	-15514
▁쳐다	-15515
▁행운	-15516
코스트	-15517
▁대하는	-15518
▁골프	-15519
▁not	-15520
▁참가한	-15521
▁페르시아	-15522
▁사정을	-15523
▁레인보우	-15524
▁취급하는	-15525
쉬가	-15526
▁예의	-15527
▁지붕	-15528
▁돌아간	-15529
▁디스플레이	-15530
슨을	-15531
베르크	-15532
▁그만두	-15533
▁전투의	-15534
▁머릿	-15535
▁장인	-15536
▁국민의	-15537
▁최후를	-15538
▁페어	-15539
리라고	-15540
▁재활용	-15541
▁부끄러	-15542
▁신세가	-15543
▁무녀	-15544
▁뒤통	-15545
▁탈환	-15546
▁쓸모가	-15547
▁부재	-15548
▁베어스	-15549
▁장탄수	-15550
▁피카츄	-15551
▁국정	-15552
▁버릇	-15553
▁블랙홀	-15554
▁늪	-15555
왔다는	-15556
▁루키	-15557
▁어쌔	-15558
블레이드	-15559
reak	-15560
▁서울대	-15561
▁정해져	-15562
▁음향	-15563
▁트리비아	-15564
야한다	-15565
▁로저	-15566
층으로	-15567
▁막판에	-15568
▁문서의	-15569
▁받으면서	-15570
야샤	-15571
▁아이의	-15572
▁이때문에	-15573
▁주어진	-15574
하였다고	-15575
술로	-15576
▁못하며	-15577
▁것이므로	-15578
▁안전하게	-15579
▁Gu	-15580
▁Ro	-15581
▁붙는다	-15582
적이었다	-15583
▁거점	-15584
▁발칸	-15585
▁세가	-15586
ings	-15587
▁달라붙	-15588
▁딸인	-15589
icro	-15590
▁찍었다	-15591
▁스타일을	-15592
무늬	-15593
▁엔터테인먼트	-15594
/8	-15595
▁나을	-15596
▁이것저것	-15597
▁넉넉	-15598
▁타우	-15599
▁아스카	-15600
▁연기가	-15601
▁시스템의	-15602
▁파괴하는	-15603
혁명	-15604
▁공존	-15605
▁비서	-15606
▁외래	-15607
왔지만	-15608
▁뒤로는	-15609
전함	-15610
▁암울	-15611
▁퀄리티가	-15612
미트	-15613
▁아처	-15614
▁해당된다	-15615
여도	-15616
노우에	-15617
▁베이스로	-15618
▁시궁	-15619
▁시흥	-15620
라운드에서	-15621
당에서	-15622
▁마디로	-15623
▁시도를	-15624
▁가브리	-15625
▁조합을	-15626
▁\	-15627
▁왓	-15628
▁인문	-15629
▁자유의	-15630
효율	-15631
.24	-15632
▁TCG	-15633
▁강서	-15634
▁소득	-15635
▁합친	-15636
▁호감	-15637
▁말그대로	-15638
킬을	-15639
▁단련	-15640
▁배우가	-15641
▁잡았다	-15642
▁가능했다	-15643
▁없다시피	-15644
▁측에서는	-15645
▁Sk	-15646
▁도심	-15647
▁짧고	-15648
▁대구광역시	-15649
금융	-15650
▁창의	-15651
▁불문	-15652
드립을	-15653
▁강철의	-15654
스파	-15655
▁국산	-15656
▁꺾고	-15657
극을	-15658
버스로	-15659
▁주장했다	-15660
복무	-15661
▁청룡	-15662
▁동생인	-15663
▁방패를	-15664
▁대외	-15665
▁미하	-15666
▁홀리	-15667
▁휴대폰	-15668
달이	-15669
▁소금	-15670
▁진행을	-15671
임은	-15672
▁MO	-15673
▁번씩	-15674
▁유난	-15675
▁히가시니혼	-15676
안전	-15677
▁바이킹	-15678
▁윈드	-15679
▁유지할	-15680
▁인명	-15681
▁실패로	-15682
▁Sch	-15683
▁패자	-15684
▁사소한	-15685
6%	-15686
▁낙선	-15687
령은	-15688
▁노트북	-15689
▁필드의	-15690
▁대한항공	-15691
▁성장을	-15692
▁순간이동	-15693
▁딥	-15694
피해	-15695
▁부지	-15696
테스	-15697
▁데스티	-15698
▁불편한	-15699
▁주파	-15700
▁괜찮다	-15701
▁괜찮아	-15702
▁적용되지	-15703
▁z	-15704
▁동호	-15705
▁느껴지는	-15706
▁갈등이	-15707
▁동북	-15708
▁의정부	-15709
▁드래곤을	-15710
위치	-15711
▁크로노	-15712
▁벚	-15713
▁첼시	-15714
▁직장	-15715
▁상태에서는	-15716
괴한	-15717
▁외야수	-15718
▁this	-15719
▁이벤트에서	-15720
▁타르	-15721
▁베이비	-15722
▁한국에서도	-15723
▁가능하기	-15724
퇴근	-15725
▁탐사	-15726
때부터	-15727
부에서는	-15728
봉을	-15729
▁성이	-15730
▁4000	-15731
▁IC	-15732
▁가져가	-15733
▁기준이	-15734
▁바른	-15735
▁자칫	-15736
▁출구	-15737
▁들으면	-15738
▁2%	-15739
▁한해	-15740
▁죽이려고	-15741
▁트렌	-15742
요한	-15743
▁무소속	-15744
▁양아	-15745
▁출고	-15746
해머	-15747
▁델타	-15748
▁엔딩이	-15749
▁제국이	-15750
▁웃음을	-15751
▁않더라도	-15752
ict	-15753
▁부장	-15754
ions	-15755
▁트윈스	-15756
▁하려는	-15757
▁탄환	-15758
▁프랑켄	-15759
▁파손	-15760
게이지	-15761
▁강화된	-15762
▁행동에	-15763
▁스타일이	-15764
군사	-15765
수용	-15766
▁학생들을	-15767
프터	-15768
▁펭귄	-15769
볼넷	-15770
▁내밀	-15771
▁합쳐서	-15772
▁나이트메	-15773
▁알려준다	-15774
▁BB	-15775
▁쉴드	-15776
한데다	-15777
▁만난다	-15778
족은	-15779
▁일정한	-15780
▁킷	-15781
지니어	-15782
▁롤드컵	-15783
▁본래의	-15784
광이	-15785
▁공손	-15786
▁Ser	-15787
▁드물다	-15788
바스	-15789
▁모르겠	-15790
루에	-15791
방법	-15792
▁했으니	-15793
▁당시에도	-15794
▁자신보다	-15795
▁연락을	-15796
▁있는가	-15797
▁수호자	-15798
▁반대하는	-15799
려나	-15800
▁담겨	-15801
▁이익	-15802
▁뱉	-15803
프스	-15804
▁위함	-15805
▁기체를	-15806
St	-15807
▁테마곡	-15808
▁후속작인	-15809
▁전에서	-15810
▁맨체스터	-15811
▁텔	-15812
▁직결	-15813
▁바다에	-15814
be	-15815
개와	-15816
타케	-15817
▁구조가	-15818
해버리는	-15819
thing	-15820
▁단장	-15821
▁드리블	-15822
▁행복한	-15823
▁재단	-15824
순양함	-15825
▁영혼의	-15826
대왕	-15827
▁문서에	-15828
▁때나	-15829
▁민병	-15830
▁정성	-15831
▁오세	-15832
▁구성원	-15833
▁보상을	-15834
부작	-15835
웠고	-15836
▁UC	-15837
▁go	-15838
▁사례도	-15839
▁나열	-15840
▁물품	-15841
▁번갈	-15842
▁찬성	-15843
▁테오	-15844
기계	-15845
락이	-15846
▁밤의	-15847
▁타운	-15848
베리아	-15849
attle	-15850
▁하이라이트	-15851
조한	-15852
▁한손	-15853
▁잡는다	-15854
▁김지	-15855
▁오쿠	-15856
▁워터	-15857
▁카무	-15858
▁코마	-15859
백으로	-15860
▁마법이	-15861
▁소재를	-15862
▁기다리는	-15863
▁마스코트	-15864
▁개교	-15865
▁걸면	-15866
았는지	-15867
▁ATK	-15868
▁바란다	-15869
▁헤어스타	-15870
▁맞지만	-15871
▁어느날	-15872
▁}}	-15873
▁멸종	-15874
▁뭐야	-15875
▁영등포	-15876
▁바로는	-15877
▁아리아	-15878
▁붓	-15879
▁EBS	-15880
▁현실을	-15881
요소	-15882
▁본진	-15883
▁통화	-15884
▁도리어	-15885
사실	-15886
▁명성을	-15887
▁정답	-15888
▁지력	-15889
▁출제	-15890
▁공허의	-15891
▁어디에	-15892
▁좋았다	-15893
▁공정	-15894
▁씹어	-15895
▁성경	-15896
류에	-15897
▁오디오	-15898
▁뚝	-15899
▁사원	-15900
▁패미	-15901
▁탐지	-15902
▁11.	-15903
▁이전까지는	-15904
때문	-15905
자드	-15906
년도에	-15907
▁주민들이	-15908
▁자작	-15909
▁비로소	-15910
시엔	-15911
▁벨트	-15912
▁하러	-15913
▁들어온다	-15914
▁천지	-15915
ster	-15916
▁박사가	-15917
▁싸움에	-15918
화부터	-15919
▁화면이	-15920
▁깃털	-15921
▁합작	-15922
▁공포를	-15923
▁빠지게	-15924
▁아름다	-15925
▁멤버들과	-15926
▁맵이	-15927
▁어그로	-15928
▁PK	-15929
▁단단	-15930
▁말하지	-15931
▁수단이	-15932
▁스크래	-15933
▁전지	-15934
▁개구리	-15935
▁떠나는	-15936
▁떡밥을	-15937
▁운영을	-15938
▁클리어하면	-15939
▁판매량	-15940
멘탈	-15941
ECT	-15942
마니아	-15943
▁향하는	-15944
▁대다수가	-15945
▁나인	-15946
▁스코틀랜드	-15947
▁무비	-15948
▁유유	-15949
▁푼	-15950
▁가도	-15951
▁펜듈럼	-15952
.23	-15953
▁성실	-15954
▁앞을	-15955
▁모으는	-15956
▁필두로	-15957
록의	-15958
▁상하이	-15959
▁군대가	-15960
▁화장실	-15961
론에	-15962
▁섬멸	-15963
ann	-15964
▁확신	-15965
려도	-15966
▁아그	-15967
->	-15968
▁185	-15969
▁하기에	-15970
▁없었다는	-15971
마르	-15972
▁나가서	-15973
▁마비노	-15974
▁쿨다운	-15975
▁한국이	-15976
▁윈터	-15977
지부	-15978
▁무늬	-15979
▁바꿔서	-15980
-13	-15981
▁요미	-15982
▁소재지	-15983
▁삿	-15984
▁DM	-15985
▁잔인	-15986
▁안전한	-15987
▁기관단총	-15988
▁Heart	-15989
▁사일	-15990
▁음악이	-15991
하다보니	-15992
▁게이지를	-15993
방위	-15994
▁빠진다	-15995
▁시선을	-15996
▁노선이다	-15997
▁리바	-15998
▁이호	-15999
▁지극히	-16000
해주면	-16001
▁갈등을	-16002
▁의하여	-16003
▁보였으나	-16004
▁At	-16005
▁남았다	-16006
덕후	-16007
연은	-16008
▁고든	-16009
▁온몸	-16010
나지	-16011
바리	-16012
나라는	-16013
▁내용에	-16014
▁추구하는	-16015
▁회사에서	-16016
▁가슴에	-16017
▁닉네임	-16018
▁운행한다	-16019
▁개인적인	-16020
돌파	-16021
▁사쿠라이	-16022
▁아니므로	-16023
▁소원	-16024
▁LED	-16025
▁도약	-16026
선다	-16027
▁지냈	-16028
▁해줄	-16029
▁다니며	-16030
62	-16031
▁손톱	-16032
▁키보	-16033
스트는	-16034
▁적어서	-16035
란은	-16036
▁구리	-16037
▁발이	-16038
▁등장했던	-16039
▁되게	-16040
▁합계	-16041
▁달라진	-16042
▁미치는	-16043
서버	-16044
ics	-16045
▁전장에	-16046
▁올라갔다	-16047
▁코이	-16048
키에게	-16049
ress	-16050
▁Dark	-16051
대인	-16052
▁배급	-16053
▁더욱이	-16054
▁소노	-16055
란트	-16056
▁바디	-16057
▁명중률이	-16058
▁옆으로	-16059
61	-16060
강점	-16061
두가	-16062
▁합법	-16063
▁따왔다	-16064
▁센트럴	-16065
▁아이폰	-16066
▁증발	-16067
▁재료를	-16068
▁임페	-16069
▁GTA	-16070
▁달성했다	-16071
▁극우	-16072
당하기	-16073
▁말하길	-16074
▁콤보가	-16075
하겠	-16076
▁치우	-16077
▁ADV	-16078
▁빠지고	-16079
▁자위	-16080
백의	-16081
▁전해진다	-16082
▁불평	-16083
▁앗	-16084
명도	-16085
▁퍼부	-16086
▁노래는	-16087
▁챌린지	-16088
롭고	-16089
▁원곡	-16090
▁포맷	-16091
▁컬렉션	-16092
돌프	-16093
아슬	-16094
▁경제적	-16095
▁지시를	-16096
▁필립	-16097
이에게	-16098
▁12.	-16099
▁도전과	-16100
▁떨어지면	-16101
카스	-16102
▁2:1	-16103
▁무장을	-16104
▁전광	-16105
▁다니엘	-16106
▁대의	-16107
가락을	-16108
▁차량의	-16109
▁길이가	-16110
▁바람이	-16111
▁화면에	-16112
빵을	-16113
▁주를	-16114
▁적극적인	-16115
78	-16116
▁10000	-16117
▁시트	-16118
▁넣었다	-16119
ham	-16120
▁연습을	-16121
▁유저들에게	-16122
바와	-16123
▁검토	-16124
▁마나를	-16125
▁건가	-16126
▁레코	-16127
▁본사	-16128
▁센티	-16129
▁삼는	-16130
▁글래	-16131
▁이진	-16132
▁녀석은	-16133
▁없었으나	-16134
▁연기한	-16135
▁총선거	-16136
▁드워프	-16137
링의	-16138
▁떠났	-16139
▁당신을	-16140
▁방송이	-16141
▁죽이면	-16142
▁1968	-16143
▁대기시간	-16144
▁인간으로	-16145
라시	-16146
작가	-16147
▁재배	-16148
다니며	-16149
▁내구도	-16150
▁사용해야	-16151
모에	-16152
학이	-16153
vol	-16154
▁끼어	-16155
▁상을	-16156
▁아님	-16157
▁따지자	-16158
▁알렉스	-16159
▁지방의	-16160
▁효율을	-16161
▁빠뜨	-16162
▁헤라	-16163
▁넣어서	-16164
▁활약이	-16165
▁초록색	-16166
▁패밀리	-16167
▁차는	-16168
▁깨어난	-16169
궁의	-16170
▁망치	-16171
63	-16172
▁손해를	-16173
▁프로그램이	-16174
▁보호막	-16175
▁있을지	-16176
결과	-16177
랑은	-16178
▁보직	-16179
▁기력	-16180
▁상성이	-16181
HT	-16182
▁보잉	-16183
▁템플	-16184
니에	-16185
먹기	-16186
지휘	-16187
취를	-16188
▁레스토	-16189
▁가면서	-16190
▁파워업	-16191
▁will	-16192
▁비꼬	-16193
▁패스트	-16194
▁5:	-16195
▁상기한	-16196
▁스킬이다	-16197
▁심어	-16198
자들도	-16199
▁에이전	-16200
대도	-16201
▁데려가	-16202
청이	-16203
▁죽이기	-16204
.9%	-16205
▁재산	-16206
▁이누야샤	-16207
▁속성의	-16208
▁날에	-16209
▁츠카	-16210
▁겹치는	-16211
▁행동은	-16212
무리	-16213
▁주의를	-16214
▁지오	-16215
▁이어가	-16216
▁깨고	-16217
시켜야	-16218
▁드레이	-16219
▁도요	-16220
박물	-16221
▁세컨드	-16222
역이다	-16223
▁그림이	-16224
▁마가	-16225
▁신은	-16226
▁실루	-16227
림으로	-16228
하려던	-16229
▁사스케	-16230
▁위치는	-16231
▁사용하는데	-16232
▁성향의	-16233
▁아줌	-16234
▁높다는	-16235
▁이하로	-16236
▁찰스	-16237
▁새누리당	-16238
▁확립	-16239
▁익숙한	-16240
▁프로레슬링	-16241
▁사직	-16242
▁주위에	-16243
▁분노의	-16244
▁사회의	-16245
▁Is	-16246
▁김윤	-16247
▁미국인	-16248
골로	-16249
또한	-16250
▁문의	-16251
▁초고	-16252
▁방송사	-16253
▁무지개	-16254
▁영웅의	-16255
하겠다	-16256
▁따지고	-16257
▁개그맨	-16258
▁낮아서	-16259
순이	-16260
▁다짐	-16261
▁해보	-16262
▁왕을	-16263
▁스쿠	-16264
▁이의	-16265
▁구분이	-16266
▁이즈미	-16267
겨서	-16268
▁무협	-16269
▁가능해	-16270
▁항공모함	-16271
▁DX	-16272
웠다고	-16273
▁못지않	-16274
벌이	-16275
▁이렇듯	-16276
▁걸친	-16277
▁쥐고	-16278
▁투기	-16279
▁옵션을	-16280
▁보여주면서	-16281
▁1~3	-16282
▁것만으로도	-16283
천군	-16284
▁뉴질	-16285
▁땀	-16286
▁선조	-16287
▁공무	-16288
▁일하고	-16289
▁전적이	-16290
블루	-16291
▁혼합	-16292
무기를	-16293
▁관장	-16294
▁길로	-16295
▁전생	-16296
▁GPU	-16297
▁광경을	-16298
▁토네	-16299
랍니다	-16300
루토	-16301
차고	-16302
▁장로	-16303
▁본편에서	-16304
지긴	-16305
▁너도	-16306
▁임요	-16307
실점을	-16308
cl	-16309
▁담고	-16310
▁이들에게	-16311
▁직책	-16312
▁캐릭터다	-16313
란한	-16314
방은	-16315
▁머무	-16316
리카와	-16317
▁국토	-16318
▁우세	-16319
OK	-16320
어찌	-16321
줘도	-16322
▁추모	-16323
▁기쁨	-16324
▁쓰일	-16325
▁오바	-16326
▁체코	-16327
▁뜻의	-16328
▁악기	-16329
▁싸우다가	-16330
명인	-16331
▁신흥	-16332
레드	-16333
▁단말	-16334
▁국가를	-16335
▁여부를	-16336
▁활용하는	-16337
▁우타	-16338
▁제니	-16339
▁혼란을	-16340
평균	-16341
▁묘한	-16342
▁장사	-16343
▁끌어들	-16344
▁미성년	-16345
호도	-16346
▁학사	-16347
▁마시고	-16348
교로	-16349
▁내리고	-16350
▁선포	-16351
▁포도	-16352
▁바라보는	-16353
락의	-16354
▁Of	-16355
▁사극	-16356
▁보기는	-16357
번대	-16358
▁구상	-16359
▁가격에	-16360
▁고기를	-16361
▁사실이지만	-16362
려던	-16363
ica	-16364
▁사용되고	-16365
▁입었다	-16366
▁평균자책	-16367
▁풀린	-16368
▁입지가	-16369
▁신비한	-16370
mania	-16371
회장	-16372
▁적과	-16373
▁늦은	-16374
▁일행에게	-16375
▁근로	-16376
▁사슬	-16377
▁포병	-16378
▁메테	-16379
▁제약이	-16380
▁정규시즌	-16381
▁자유자	-16382
▁힘과	-16383
▁본부	-16384
▁마법사의	-16385
루기	-16386
일으	-16387
ody	-16388
▁내면	-16389
▁도검	-16390
▁설마	-16391
▁만하다	-16392
▁아슬아슬	-16393
▁안타깝게도	-16394
▁상위항목	-16395
▁남기	-16396
이드의	-16397
▁이펙트	-16398
▁작중에	-16399
성인	-16400
▁유난히	-16401
▁궁합이	-16402
이사	-16403
▁돌을	-16404
▁주장도	-16405
▁그간	-16406
▁내셔널	-16407
▁원자력	-16408
▁포켓몬이	-16409
▁흐름을	-16410
▁안토니	-16411
▁캠퍼스	-16412
▁빠져나가	-16413
헤드	-16414
▁친하게	-16415
▁애정	-16416
인사이드	-16417
▁NM	-16418
▁[[	-16419
▁나이로	-16420
만으로는	-16421
파라	-16422
▁리나	-16423
▁가변	-16424
▁대포	-16425
▁얄짤	-16426
맥을	-16427
정류	-16428
▁아래에서	-16429
▁방심	-16430
▁Am	-16431
▁형상	-16432
▁엣	-16433
ors	-16434
▁만화의	-16435
▁일주일	-16436
업자	-16437
▁앞세	-16438
▁자란	-16439
▁혼다	-16440
▁지구로	-16441
▁오키나와	-16442
렌의	-16443
▁원문	-16444
▁명예의	-16445
▁김치	-16446
▁후반기	-16447
되나	-16448
▁굴욕	-16449
▁길거리	-16450
티는	-16451
▁캡콤	-16452
▁계획은	-16453
▁연달아	-16454
▁무기인	-16455
▁전투력이	-16456
8%	-16457
▁아깝	-16458
▁com	-16459
이건	-16460
카제	-16461
▁방어를	-16462
리스를	-16463
▁시스템은	-16464
▁처리하는	-16465
테스트	-16466
▁세력의	-16467
▁기록하였다	-16468
▁치안	-16469
▁평범하게	-16470
저항	-16471
▁럭키	-16472
▁건담의	-16473
▁모니터	-16474
오르	-16475
▁조력	-16476
▁다닌	-16477
▁스네이크	-16478
▁보강	-16479
▁잡아서	-16480
.,	-16481
▁분이	-16482
▁주거	-16483
▁우월한	-16484
▁추후	-16485
▁낀	-16486
▁장갑을	-16487
커로	-16488
▁장치를	-16489
▁진출을	-16490
려다	-16491
ins	-16492
▁올바른	-16493
▁불리기도	-16494
ACK	-16495
▁불만	-16496
▁탄탄	-16497
▁풀고	-16498
▁보정을	-16499
▁세포	-16500
▁대대로	-16501
슨과	-16502
▁감행	-16503
▁못했다고	-16504
▁한강	-16505
혁이	-16506
▁거뒀	-16507
▁신세계	-16508
▁느낌으로	-16509
▁사출	-16510
▁보았다	-16511
▁분량	-16512
mmer	-16513
▁과제	-16514
▁방언	-16515
▁말이야	-16516
▁유용하게	-16517
카즈	-16518
▁CE	-16519
▁담당한다	-16520
▁쿤	-16521
▁비단	-16522
▁멀쩡히	-16523
▁나타나서	-16524
랑을	-16525
오던	-16526
요가	-16527
.0%	-16528
▁FW	-16529
▁HS	-16530
▁앞면	-16531
종으로	-16532
그는	-16533
▁Co	-16534
▁성공을	-16535
▁외모를	-16536
▁현장에서	-16537
혼을	-16538
▁수확	-16539
▁제로의	-16540
▁소속되어	-16541
▁브라우	-16542
▁전투력을	-16543
밥을	-16544
▁BT	-16545
▁논란을	-16546
언정	-16547
▁김연	-16548
▁모자를	-16549
▁파워를	-16550
심과	-16551
▁미오	-16552
▁찾지	-16553
▁한반도	-16554
우먼	-16555
▁냉정	-16556
▁6.25	-16557
▁서울대학교	-16558
▁우린	-16559
▁목포	-16560
▁설상가	-16561
▁엔터	-16562
▁단원	-16563
▁해가	-16564
▁Car	-16565
것에	-16566
▁사격을	-16567
천이	-16568
▁호랑	-16569
렸다가	-16570
▁덩치가	-16571
년전	-16572
▁역은	-16573
▁생각하며	-16574
▁톡	-16575
▁갔을	-16576
▁몸무게	-16577
▁대검	-16578
회와	-16579
▁고래	-16580
멋대로	-16581
▁만들기도	-16582
▁엘리자베스	-16583
▁pro	-16584
네이션	-16585
▁DNA	-16586
▁나뭇	-16587
▁재빨리	-16588
▁못하지만	-16589
▁타치바나	-16590
아르	-16591
▁박종	-16592
▁인물의	-16593
▁혐의로	-16594
DJ	-16595
▁총독	-16596
▁에로게	-16597
▁소나	-16598
▁이인	-16599
클래스	-16600
▁have	-16601
▁여주인공	-16602
▁위험에	-16603
▁그들에게	-16604
▁느낌의	-16605
▁한몫	-16606
▁수록되어	-16607
몬은	-16608
ru	-16609
▁레시피	-16610
▁한국을	-16611
▁밸런스가	-16612
예요	-16613
▁HE	-16614
▁그레이드	-16615
▁일제강점	-16616
▁많았고	-16617
▁영어를	-16618
▁토마스	-16619
▁질풍	-16620
살의	-16621
▁농락	-16622
▁맵의	-16623
정도의	-16624
▁직후에	-16625
▁재밌는	-16626
시키면서	-16627
적이지만	-16628
점도	-16629
▁후예	-16630
▁오프라인	-16631
▁일본식	-16632
▁느껴진다	-16633
GM	-16634
▁아카이	-16635
▁보였지만	-16636
▁발악	-16637
▁Mr	-16638
▁키노	-16639
▁현재까지도	-16640
창에	-16641
등하게	-16642
▁일러스트가	-16643
FO	-16644
▁몸의	-16645
▁재학	-16646
▁전속	-16647
▁클레이	-16648
▁전설적인	-16649
▁Sy	-16650
▁포니	-16651
▁누워	-16652
▁4.5	-16653
▁연구가	-16654
▁따서	-16655
▁암호	-16656
었습니다	-16657
▁치열한	-16658
▁못했다는	-16659
▁유격수	-16660
▁귀가	-16661
▁런처	-16662
▁집계	-16663
빌딩	-16664
▁뚜껑	-16665
▁경찰에	-16666
▁해에	-16667
▁신조	-16668
▁어퍼	-16669
▁체력은	-16670
▁1967	-16671
▁대목	-16672
▁파이트	-16673
▁들어가고	-16674
▁가의	-16675
▁결국엔	-16676
▁구성이	-16677
mp	-16678
맛이	-16679
▁애니판	-16680
▁이치고	-16681
▁인기는	-16682
▁남발	-16683
▁석유	-16684
▁정면으로	-16685
▁없이도	-16686
▁휘말려	-16687
IV	-16688
▁안보	-16689
▁뿐이고	-16690
▁져	-16691
비도	-16692
▁흥분	-16693
▁부리는	-16694
자리에서	-16695
현실	-16696
▁위엄을	-16697
해에	-16698
▁임금	-16699
▁대중교통	-16700
,5	-16701
III	-16702
▁BD	-16703
▁클러	-16704
경기에	-16705
글로	-16706
말의	-16707
▁자기도	-16708
▁트레이닝	-16709
부문	-16710
업에	-16711
▁조건은	-16712
▁영향력이	-16713
주택	-16714
▁에피소드를	-16715
상태로	-16716
▁적절하게	-16717
▁사오	-16718
끄러운	-16719
▁LIVE	-16720
신인	-16721
▁투고	-16722
하기만	-16723
▁대신해	-16724
▁생각했다	-16725
▁낡	-16726
▁향한다	-16727
였는지	-16728
▁엔진이	-16729
▁상시	-16730
▁미치지	-16731
▁전라남도	-16732
▁MX	-16733
었어	-16734
좋은	-16735
테가	-16736
더와	-16737
▁인물을	-16738
▁보기에는	-16739
동네	-16740
▁의혹이	-16741
▁사과를	-16742
▁공통적으로	-16743
▁뿜어	-16744
▁의학	-16745
▁버스가	-16746
▁나미	-16747
기에서는	-16748
황제	-16749
▁지낸	-16750
▁이야기의	-16751
턴트	-16752
▁미미	-16753
▁크립	-16754
▁샹	-16755
▁넉백	-16756
▁바닐	-16757
▁넘어간다	-16758
▁살이	-16759
▁토트	-16760
▁삼촌	-16761
▁들린다	-16762
▁un	-16763
▁자유를	-16764
▁하려면	-16765
▁SCP	-16766
▁비싸다	-16767
▁뮤탈	-16768
.3%	-16769
▁전투는	-16770
루로	-16771
▁굴욕을	-16772
▁모드의	-16773
▁유전자	-16774
▁학교가	-16775
면허	-16776
▁훼손	-16777
아버지	-16778
▁135	-16779
▁명명	-16780
▁못했을	-16781
▁소환한	-16782
메의	-16783
▁국군	-16784
▁김구	-16785
▁생태	-16786
위까지	-16787
▁드립이	-16788
▁박수	-16789
▁베가	-16790
▁취재	-16791
괴수	-16792
▁마에	-16793
▁신곡	-16794
▁조조가	-16795
주공	-16796
▁준결승	-16797
▁대학원	-16798
▁잃게	-16799
▁되어버린다	-16800
▁넵	-16801
▁현실적으로	-16802
연패	-16803
▁멀어	-16804
▁만들면	-16805
▁것들	-16806
▁함재	-16807
오오	-16808
▁반영한	-16809
벽이	-16810
▁일절	-16811
▁손오공	-16812
▁차원이	-16813
▁패치가	-16814
화학	-16815
▁불안한	-16816
▁스위치	-16817
▁영상은	-16818
▁꿇	-16819
▁끝장	-16820
제에서	-16821
▁운명의	-16822
9%	-16823
▁빼고는	-16824
▁세월이	-16825
▁스폰서	-16826
▁가능한데	-16827
▁구하러	-16828
▁실루엣	-16829
▁그렇듯이	-16830
▁포지션은	-16831
▁박사의	-16832
▁아니니	-16833
▁수성	-16834
▁자처	-16835
▁유리하다	-16836
법과	-16837
▁이념	-16838
▁레벨에	-16839
▁애당초	-16840
▁편이었다	-16841
▁쥬얼	-16842
진다는	-16843
▁OCG	-16844
ws	-16845
드나	-16846
뿐인	-16847
▁모임	-16848
▁정우	-16849
▁스파이크	-16850
뱅크	-16851
전선	-16852
▁죽어서	-16853
▁4~5	-16854
▁냄새가	-16855
▁집이	-16856
▁튜닝	-16857
▁협상	-16858
기라는	-16859
장치를	-16860
▁부탁한다	-16861
타고	-16862
▁전선	-16863
갔지만	-16864
는다는	-16865
▁Light	-16866
▁말까지	-16867
▁제작자	-16868
▁간판	-16869
▁돌이	-16870
▁목동	-16871
▁부드러운	-16872
ater	-16873
▁Bo	-16874
▁쿼터	-16875
▁에너지가	-16876
▁같아서	-16877
.2%	-16878
▁동년	-16879
▁일체	-16880
▁터렛	-16881
▁병사들이	-16882
경과	-16883
▁배구	-16884
▁꽁	-16885
▁입성	-16886
족과	-16887
▁식사를	-16888
▁서치	-16889
▁급하게	-16890
▁받았을	-16891
▁생명체	-16892
▁결국에는	-16893
▁회사를	-16894
▁까였다	-16895
▁밈	-16896
▁수비를	-16897
▁대결에서	-16898
▁대도시	-16899
ium	-16900
▁자유로운	-16901
▁조폭	-16902
▁등장하면서	-16903
▁날씨	-16904
▁대왕	-16905
▁시부	-16906
▁노선의	-16907
▁잃어버	-16908
▁Your	-16909
▁증가하고	-16910
▁에도	-16911
71	-16912
구성	-16913
▁무리하게	-16914
마침	-16915
▁파티를	-16916
▁beatmania	-16917
그로	-16918
본이	-16919
▁응답	-16920
▁보였고	-16921
▁벅	-16922
▁외면	-16923
▁줄을	-16924
인만큼	-16925
▁무기와	-16926
▁그릴	-16927
▁바티	-16928
▁이례	-16929
▁묘사되는	-16930
▁영미	-16931
▁후려	-16932
▁쉽지만	-16933
▁꿈의	-16934
▁헌데	-16935
▁계획에	-16936
▁1963	-16937
▁올림	-16938
▁투니버스	-16939
모노	-16940
▁3%	-16941
▁개개	-16942
▁딱딱	-16943
▁포션	-16944
▁지위를	-16945
▁남겼	-16946
▁사인	-16947
▁뽐	-16948
▁WH	-16949
▁미들	-16950
▁스모	-16951
▁원형	-16952
▁테레	-16953
▁시간도	-16954
▁결전	-16955
▁대고	-16956
내는데	-16957
적에	-16958
▁라이징	-16959
▁초반부	-16960
▁이야기다	-16961
▁참여했다	-16962
그레이	-16963
더스트	-16964
▁표정으로	-16965
BM	-16966
▁돌아다니는	-16967
▁숭배	-16968
▁정체불명의	-16969
▁가던	-16970
▁일자	-16971
일부로	-16972
▁버프가	-16973
▁카운트	-16974
이런	-16975
~12	-16976
▁건데	-16977
▁성공하면	-16978
▁보고는	-16979
통에	-16980
▁여겼	-16981
▁있나	-16982
▁칭호를	-16983
일도	-16984
버스는	-16985
▁다르지	-16986
▁적시	-16987
▁탱킹	-16988
▁해변	-16989
▁늙은	-16990
끄럽	-16991
▁해고	-16992
▁아이템의	-16993
▁나들목	-16994
▁오브젝트	-16995
나시	-16996
▁성폭	-16997
▁직역	-16998
▁스파이더맨	-16999
판매	-17000
▁보기도	-17001
▁면접	-17002
▁의아	-17003
버리기	-17004
왔으며	-17005
▁대사로	-17006
절로	-17007
▁감자	-17008
tr	-17009
▁킴	-17010
▁말의	-17011
▁선물을	-17012
▁구체적인	-17013
▁모른다고	-17014
이라면서	-17015
ㅋㅋ	-17016
나오는	-17017
▁부려	-17018
▁불륜	-17019
가능한	-17020
▁휩싸	-17021
▁말장난	-17022
▁1/3	-17023
▁구입할	-17024
▁달려들	-17025
▁코바야시	-17026
▁동봉	-17027
▁결혼식	-17028
▁놀이	-17029
▁설도	-17030
▁쏘면	-17031
란드의	-17032
▁권한을	-17033
▁수급	-17034
▁순찰	-17035
▁연말	-17036
▁자신만의	-17037
▁AF	-17038
▁망명	-17039
▁얼핏	-17040
▁예가	-17041
산동	-17042
▁UP	-17043
▁불리고	-17044
▁배차간격	-17045
▁제공한다	-17046
▁높으며	-17047
▁시절을	-17048
▁내전	-17049
▁봉사	-17050
▁이름에서	-17051
▁박찬	-17052
▁파편	-17053
놓으면	-17054
▁시기를	-17055
UT	-17056
▁알을	-17057
▁이준	-17058
▁박정희	-17059
▁버젼	-17060
▁박탈	-17061
▁키쿠	-17062
라고는	-17063
▁버려진	-17064
기아	-17065
▁기피	-17066
▁신정	-17067
▁일당	-17068
!!!!	-17069
▁혼돈의	-17070
놈의	-17071
▁권위	-17072
▁블라디	-17073
▁일러스트를	-17074
▁부평	-17075
▁출퇴근	-17076
세기에	-17077
▁진출에	-17078
▁신작	-17079
▁전임	-17080
ould	-17081
▁주장한다	-17082
▁레슬	-17083
하였던	-17084
▁사천왕	-17085
기획	-17086
▁수라	-17087
▁원인을	-17088
7%	-17089
돌아	-17090
▁강습	-17091
▁꼴이	-17092
▁잠을	-17093
▁그룹의	-17094
▁활용한	-17095
▁업데이트가	-17096
▁깠	-17097
▁친분이	-17098
▁정신적으로	-17099
신다	-17100
▁헬기	-17101
▁쓰며	-17102
▁프레스	-17103
러와	-17104
▁사정으로	-17105
▁사이에서도	-17106
▁팜	-17107
황이	-17108
▁능력의	-17109
IE	-17110
▁깊게	-17111
▁디오	-17112
▁다음은	-17113
▁반성	-17114
▁혼동	-17115
▁되거나	-17116
▁말하지만	-17117
세력	-17118
▁양도	-17119
▁호기	-17120
▁말하기도	-17121
바지	-17122
▁타지	-17123
레는	-17124
▁어서	-17125
▁늘었다	-17126
▁커플링	-17127
▁부족으로	-17128
▁표현하는	-17129
▁뒤틀	-17130
▁사수	-17131
▁구매할	-17132
▁보스전	-17133
ange	-17134
▁물고기	-17135
뉴스	-17136
▁말만	-17137
▁서기	-17138
▁공학	-17139
▁발현	-17140
▁적합한	-17141
▁횟수가	-17142
골이	-17143
▁소집	-17144
▁일화	-17145
▁다니고	-17146
▁래퍼	-17147
▁살기	-17148
▁주유	-17149
토록	-17150
▁구도	-17151
▁휴가	-17152
▁어머니와	-17153
gr	-17154
▁통용	-17155
▁노릴	-17156
▁막지	-17157
▁웃긴	-17158
▁한편으로는	-17159
79	-17160
.4%	-17161
▁금발	-17162
▁오마쥬	-17163
▁끄는	-17164
일지	-17165
철은	-17166
혜를	-17167
▁Sw	-17168
▁복용	-17169
▁구해주	-17170
사진	-17171
재는	-17172
▁박쥐	-17173
▁편지	-17174
▁이루어지지	-17175
▁밑의	-17176
▁샐러	-17177
해지기	-17178
▁주먹을	-17179
하듯이	-17180
▁능가하는	-17181
▁예전부터	-17182
▁처한	-17183
라이어	-17184
구멍	-17185
▁건재	-17186
▁있었는지	-17187
▁현실적인	-17188
티노	-17189
▁BC	-17190
가지가	-17191
▁한나라당	-17192
▁자유자재로	-17193
수원	-17194
▁편한	-17195
▁Min	-17196
▁카탈	-17197
▁BAS	-17198
▁가슴을	-17199
▁이세계	-17200
구도	-17201
▁루미	-17202
▁있을지도	-17203
▁해주고	-17204
▁직속	-17205
tern	-17206
▁관계에	-17207
▁사랑이	-17208
▁급기	-17209
▁천년	-17210
▁동인지	-17211
▁아포칼	-17212
▁콕	-17213
▁애시	-17214
▁조치를	-17215
▁살아가는	-17216
▁원전	-17217
...?	-17218
▁마도카	-17219
▁맞추어	-17220
▁저글링	-17221
▁흥미를	-17222
▁love	-17223
▁진행되었다	-17224
▁얼굴로	-17225
▁+4	-17226
▁자쿠	-17227
▁대상에게	-17228
▁어찌어찌	-17229
▁출연하는	-17230
했어	-17231
▁IDOL	-17232
Lv	-17233
▁뛰쳐	-17234
▁망한	-17235
▁브론	-17236
▁낮지만	-17237
▁도깨비	-17238
▁발동이	-17239
돈을	-17240
하여야	-17241
축을	-17242
▁파수	-17243
▁증가하는	-17244
▁싣	-17245
▁450	-17246
▁LE	-17247
▁착지	-17248
▁캠프	-17249
▁5.5	-17250
▁복싱	-17251
한테는	-17252
▁인류가	-17253
거리며	-17254
▁리스크	-17255
▁무장이	-17256
생산	-17257
엔진	-17258
▁아름답	-17259
2%	-17260
▁고도	-17261
▁보스는	-17262
▁업그레이드가	-17263
아래	-17264
▁수만	-17265
▁가하는	-17266
▁말라는	-17267
▁언급한다	-17268
▁일어나고	-17269
af	-17270
엘은	-17271
▁재위	-17272
효과가	-17273
▁엔지니어	-17274
.8%	-17275
▁무선	-17276
▁변장	-17277
▁공지사항	-17278
▁서킷	-17279
리스와	-17280
che	-17281
▁기다려	-17282
▁넘기는	-17283
증가	-17284
▁법한	-17285
▁쇄	-17286
▁단역	-17287
▁지크	-17288
▁세계적으로	-17289
택에	-17290
▁기수	-17291
▁금요일	-17292
▁일행의	-17293
▁건다	-17294
ator	-17295
▁속도도	-17296
▁내릴	-17297
▁범인	-17298
트에게	-17299
▁까마귀	-17300
▁리프	-17301
▁심상	-17302
▁공격수	-17303
▁손꼽히는	-17304
▁플레이어블	-17305
▁랜턴	-17306
▁본관	-17307
▁불길	-17308
▁210	-17309
이냐	-17310
les	-17311
▁소설을	-17312
▁소대	-17313
▁추궁	-17314
▁노가다	-17315
▁단체로	-17316
복의	-17317
▁버림	-17318
▁시체가	-17319
▁양산형	-17320
▁재료로	-17321
▁맺어	-17322
▁대회에	-17323
▁만들지	-17324
▁암살자	-17325
▁동갑	-17326
▁셋째	-17327
중심	-17328
▁IV	-17329
▁OB	-17330
▁교수가	-17331
▁사용하기도	-17332
rain	-17333
▁열쇠를	-17334
let	-17335
▁원숭이	-17336
▁푹	-17337
▁가난한	-17338
▁설명할	-17339
▁발동하는	-17340
▁카우	-17341
▁필름	-17342
▁놀란	-17343
▁챔프	-17344
▁시리즈로	-17345
▁김택	-17346
▁포드	-17347
que	-17348
▁만루	-17349
▁관리가	-17350
토르	-17351
▁패왕	-17352
주게	-17353
▁무리한	-17354
▁역할도	-17355
▁청와	-17356
먹었다	-17357
▁시간과	-17358
▁표현한	-17359
피로	-17360
▁민주화	-17361
▁벌인다	-17362
▁케이지	-17363
vs	-17364
▁끼어들	-17365
▁CN	-17366
▁중상을	-17367
▁야마구치	-17368
81	-17369
후를	-17370
▁소소한	-17371
▁마에다	-17372
▁떠오르는	-17373
▁포함하여	-17374
▁하드코어	-17375
▁굵은	-17376
▁컴백	-17377
▁버티고	-17378
출한	-17379
▁공격과	-17380
▁미소를	-17381
▁쓰거나	-17382
▁액세서	-17383
▁맹세	-17384
▁결과로	-17385
▁성격도	-17386
시켜주는	-17387
▁필연	-17388
▁행보	-17389
▁멜로디	-17390
테라	-17391
▁사면	-17392
업으로	-17393
less	-17394
orea	-17395
▁점검	-17396
측에서	-17397
▁겔	-17398
▁교역	-17399
▁상자를	-17400
▁아니었고	-17401
▁특촬	-17402
루스의	-17403
▁구멍이	-17404
▁어느새	-17405
전생	-17406
▁오덕	-17407
.7%	-17408
▁머스	-17409
▁쿠라	-17410
▁남편이	-17411
▁다큐멘터리	-17412
▁DT	-17413
▁달콤	-17414
▁후면	-17415
▁일쑤	-17416
프레스	-17417
▁창세기	-17418
▁일본으로	-17419
ret	-17420
▁엄폐	-17421
▁저스티스	-17422
▁얕	-17423
▁개발을	-17424
▁변경된	-17425
점과	-17426
▁환자	-17427
▁기념으로	-17428
▁상점에서	-17429
▁콘셉	-17430
주의의	-17431
▁1944	-17432
▁깡패	-17433
▁타나카	-17434
복은	-17435
▁의외의	-17436
▁꽂아	-17437
▁의심을	-17438
▁크로니클	-17439
▁하이브리드	-17440
▁따뜻한	-17441
노래	-17442
토리얼	-17443
▁Red	-17444
주의적	-17445
▁입장이	-17446
▁의뢰를	-17447
▁모스크바	-17448
▁was	-17449
▁장소에	-17450
▁전작인	-17451
ICE	-17452
▁거느	-17453
가지로	-17454
나라가	-17455
이트가	-17456
▁단단한	-17457
▁일으킬	-17458
▁기본적으로는	-17459
클로	-17460
▁힘들게	-17461
등에	-17462
애가	-17463
▁좋아하지	-17464
개혁	-17465
카쿠	-17466
▁막판	-17467
▁인테	-17468
▁이것으로	-17469
▁만들었다고	-17470
유로	-17471
▁가급	-17472
▁서브컬	-17473
준은	-17474
▁스트레스	-17475
▁씨가	-17476
시켰고	-17477
▁연상시키는	-17478
▁안성	-17479
▁카리	-17480
림에	-17481
세인	-17482
▁리퍼	-17483
▁유저들도	-17484
▁듀티	-17485
▁발톱	-17486
▁존댓	-17487
▁높았다	-17488
▁쏟아져	-17489
시키는데	-17490
▁사각	-17491
▁왔을	-17492
▁점심	-17493
신문	-17494
▁간선	-17495
▁다다	-17496
▁빅뱅	-17497
▁그런거	-17498
▁담배를	-17499
▁리볼버	-17500
▁인간형	-17501
▁불러일으	-17502
캐슬	-17503
▁사기를	-17504
▁수비수	-17505
▁까닭	-17506
▁마요	-17507
▁징징	-17508
▁산탄총	-17509
▁활동한	-17510
▁모르겠다	-17511
▁짚	-17512
치다	-17513
▁표시로	-17514
▁했는지	-17515
▁라이센스	-17516
▁확인하고	-17517
▁한발	-17518
▁텍사스	-17519
나에	-17520
▁급히	-17521
▁놓는	-17522
▁이후부터는	-17523
▁카니	-17524
▁의지가	-17525
▁중국이	-17526
이센	-17527
▁출근	-17528
구경	-17529
eng	-17530
land	-17531
▁MLB	-17532
▁애매하다	-17533
▁퉁	-17534
▁대답을	-17535
▁HG	-17536
▁덱에	-17537
▁배에	-17538
▁고유의	-17539
▁아버지에게	-17540
▁않은데	-17541
SE	-17542
▁오즈	-17543
▁측이	-17544
▁요구한다	-17545
▁2.3	-17546
▁해결할	-17547
▁바꾸어	-17548
기구	-17549
스퍼	-17550
▁구석	-17551
▁매운	-17552
▁문화가	-17553
▁아레	-17554
▁저질렀	-17555
▁겪는	-17556
▁롤링	-17557
▁서열	-17558
▁상태라	-17559
▁광탈	-17560
▁테니스	-17561
▁각인	-17562
▁이노우에	-17563
▁bl	-17564
▁차로	-17565
▁입으로	-17566
▁상황에서는	-17567
KT	-17568
▁뜨고	-17569
▁1966	-17570
▁대니	-17571
이기는	-17572
▁ver	-17573
▁것까지	-17574
▁다이나	-17575
▁주어지는	-17576
장에게	-17577
히어로	-17578
▁던전에서	-17579
▁진행한다	-17580
▁고자	-17581
▁에인	-17582
▁슈퍼스타	-17583
▁동탁	-17584
▁문단	-17585
▁뒤이어	-17586
▁재조	-17587
▁미군의	-17588
▁연금술	-17589
▁공격하면	-17590
송을	-17591
▁여는	-17592
▁공격형	-17593
▁넨	-17594
▁울음	-17595
▁꼽히는	-17596
▁받았으며	-17597
▁볼륨	-17598
▁1.1	-17599
▁가득한	-17600
▁스칼렛	-17601
▁자각	-17602
▁보우	-17603
▁145	-17604
▁잘못을	-17605
▁부채	-17606
뜩이나	-17607
▁디버프	-17608
▁받았는데	-17609
▁인종차별	-17610
HD	-17611
▁질주	-17612
▁나에게	-17613
▁의문의	-17614
▁1940	-17615
▁이행	-17616
▁시기의	-17617
▁화면을	-17618
▁시장에서	-17619
▁포함해서	-17620
렉트	-17621
▁보스인	-17622
▁완성된	-17623
▁전개를	-17624
왕국	-17625
▁따라가	-17626
▁코다	-17627
▁성인이	-17628
▁블리자드	-17629
mar	-17630
▁사역	-17631
▁원활	-17632
▁이명박	-17633
공단	-17634
▁발음은	-17635
▁일컫는	-17636
▁콰	-17637
▁레버	-17638
▁솔저	-17639
▁제작에	-17640
▁하는지	-17641
▁죽었다고	-17642
▁메이플스토리	-17643
▁호노	-17644
려다가	-17645
류와	-17646
호기	-17647
▁지내고	-17648
▁올라가면	-17649
▁리부트	-17650
키로	-17651
▁나섰	-17652
▁무능	-17653
▁파티에	-17654
▁스테이지에서	-17655
▁넘은	-17656
▁코트	-17657
▁165	-17658
▁높이는	-17659
▁사망하고	-17660
▁이보다	-17661
.6%	-17662
/11	-17663
▁바이크	-17664
▁꼴을	-17665
▁후로	-17666
▁들리는	-17667
▁문화를	-17668
▁비치	-17669
▁올해	-17670
▁도망쳐	-17671
▁탄생한	-17672
▁Rock	-17673
▁찌르	-17674
▁단어는	-17675
▁컨셉을	-17676
오는데	-17677
106	-17678
▁안다	-17679
▁담당한	-17680
▁엄마가	-17681
랑의	-17682
▁오더	-17683
▁응시	-17684
▁이익을	-17685
▁전차의	-17686
목에	-17687
▁TEC	-17688
▁전동	-17689
▁상당하다	-17690
미스	-17691
▁세금	-17692
▁마징가	-17693
인들에게	-17694
▁법적	-17695
▁어딘가	-17696
인해	-17697
▁대량의	-17698
▁이마저도	-17699
비언	-17700
▁투수가	-17701
림은	-17702
▁국무	-17703
▁상위호환	-17704
▁그렇게까지	-17705
당으로	-17706
▁쓰는데	-17707
▁천주교	-17708
▁내려오는	-17709
받던	-17710
▁슬래	-17711
▁오아	-17712
▁예정이었으나	-17713
▁남는다	-17714
▁상관이	-17715
▁우려가	-17716
▁도와주는	-17717
▁뛴	-17718
alk	-17719
▁낮게	-17720
▁절규	-17721
▁ARM	-17722
▁너프를	-17723
충이	-17724
회관	-17725
타로가	-17726
▁선택하면	-17727
탄과	-17728
▁변속	-17729
▁부족하다	-17730
▁이해하기	-17731
자원	-17732
▁내비	-17733
▁따지자면	-17734
▁이어졌다	-17735
▁프로스트	-17736
▁눕	-17737
▁따돌	-17738
▁용량	-17739
공연	-17740
▁피닉	-17741
▁소녀의	-17742
▁카에	-17743
▁Per	-17744
▁비용을	-17745
▁웬만하면	-17746
경비	-17747
지에게	-17748
▁기대할	-17749
▁장소를	-17750
차고지	-17751
▁가뜩이나	-17752
결합	-17753
▁베니	-17754
▁신과	-17755
▁OK	-17756
▁반역	-17757
▁노무현	-17758
▁좀비가	-17759
▁중간중간	-17760
▁드라마의	-17761
▁이블	-17762
▁이미지로	-17763
가르	-17764
▁9.	-17765
▁딜이	-17766
▁포기하지	-17767
찬을	-17768
▁강대	-17769
▁리쿠	-17770
▁가능해졌다	-17771
▁해독	-17772
▁중이던	-17773
터테인먼	-17774
말고	-17775
▁마디	-17776
▁방호	-17777
▁벚꽃	-17778
▁앨범의	-17779
▁정명	-17780
▁끝나지	-17781
▁은퇴를	-17782
▁EU	-17783
▁협동	-17784
▁친구로	-17785
▁혜택을	-17786
년엔	-17787
▁수험	-17788
▁배우고	-17789
▁적용된	-17790
▁조별리그	-17791
▁벌이고	-17792
▁사이퍼	-17793
▁능숙	-17794
▁김원	-17795
▁불쾌	-17796
▁졌다	-17797
▁되었기	-17798
▁등장하기	-17799
▁친구들이	-17800
보험	-17801
크루	-17802
▁여자는	-17803
▁좋아한다고	-17804
▁정립	-17805
▁무게가	-17806
▁삭제된	-17807
▁식이다	-17808
▁지칭하는	-17809
▁모범	-17810
했음을	-17811
▁자원이	-17812
▁무죄	-17813
▁타면	-17814
▁팔고	-17815
▁퍼붓	-17816
▁우루과	-17817
▁언급하는	-17818
73	-17819
▁모친	-17820
▁엉뚱한	-17821
▁어쌔신	-17822
▁간략	-17823
▁타점	-17824
▁넣는다	-17825
▁아내를	-17826
▁그닥	-17827
1%	-17828
교는	-17829
▁자리는	-17830
▁어드밴스	-17831
▁Tw	-17832
▁대여	-17833
▁공격시	-17834
▁빠졌다	-17835
▁승강장의	-17836
▁친구들과	-17837
▁괴물이	-17838
▁때마침	-17839
▁알려주는	-17840
▁네코	-17841
▁팟	-17842
▁트와	-17843
시간은	-17844
▁102	-17845
▁때문으로	-17846
▁라인하르	-17847
도리	-17848
제네	-17849
▁가능성	-17850
▁나가고	-17851
▁시야를	-17852
▁크기의	-17853
▁헤일로	-17854
▁Fire	-17855
▁터미네이터	-17856
ART	-17857
▁Gen	-17858
▁시설을	-17859
▁주장은	-17860
중에는	-17861
▁750	-17862
▁세상에서	-17863
▁가상의	-17864
▁아스트랄	-17865
갔을	-17866
극장	-17867
▁박영	-17868
▁축에	-17869
▁사이트에서	-17870
▁샴	-17871
▁최약	-17872
▁홍성	-17873
판인	-17874
▁색상	-17875
▁잔류	-17876
▁콜롬	-17877
▁순양함	-17878
▁넘긴	-17879
▁쌓여	-17880
베이스	-17881
▁마나가	-17882
▁불안정	-17883
▁요시다	-17884
▁컨셉으로	-17885
▁홈페이지에	-17886
내야	-17887
▁별이	-17888
▁상용	-17889
▁세로	-17890
▁나무를	-17891
▁휘두르는	-17892
버릇	-17893
슈퍼	-17894
▁여성을	-17895
▁2500	-17896
▁쯔	-17897
로지	-17898
▁도타	-17899
▁열등	-17900
▁시기는	-17901
▁별을	-17902
▁장점을	-17903
차와	-17904
▁밀집	-17905
마사	-17906
플을	-17907
▁MK	-17908
▁바주	-17909
▁탄을	-17910
▁도시에	-17911
▁도쿠가와	-17912
빈이	-17913
▁Sl	-17914
거니와	-17915
▁미끄러	-17916
▁역사는	-17917
▁이동이	-17918
적이라는	-17919
와라	-17920
▁각오	-17921
▁교과서	-17922
▁103	-17923
▁등장해서	-17924
▁삼성전자	-17925
▁있었다면	-17926
▁잎	-17927
▁애를	-17928
▁Act	-17929
▁수명이	-17930
▁돌아갔다	-17931
03	-17932
74	-17933
▁똑똑	-17934
▁운운	-17935
▁나갔다	-17936
▁파괴할	-17937
▁교체되었다	-17938
▁애니에서는	-17939
모니	-17940
▁대도	-17941
▁시궁창	-17942
▁앉아서	-17943
AA	-17944
▁거리는	-17945
▁사사키	-17946
▁하렘	-17947
셔서	-17948
▁하하	-17949
게임넷	-17950
▁미인	-17951
▁사육	-17952
▁자잘	-17953
▁타서	-17954
▁제국을	-17955
번호를	-17956
▁1/2	-17957
kr	-17958
▁불려	-17959
▁사마의	-17960
▁도마	-17961
▁잔혹	-17962
▁학문	-17963
▁항목의	-17964
▁지속시간이	-17965
일라	-17966
▁밖의	-17967
▁외엔	-17968
▁조각을	-17969
ert	-17970
ony	-17971
▁TOP	-17972
▁건물에	-17973
▁취한	-17974
▁흔적이	-17975
월이	-17976
잡기	-17977
▁얼어붙	-17978
▁조종사	-17979
▁크기를	-17980
▁댐	-17981
버거	-17982
▁바바	-17983
▁악용	-17984
▁함대를	-17985
▁분쇄	-17986
▁자손	-17987
▁호전	-17988
▁나오자	-17989
▁전에도	-17990
bo	-17991
▁다뤄	-17992
▁초래	-17993
▁브레이커	-17994
▁유니폼을	-17995
▁등장하였다	-17996
▁같고	-17997
▁아아	-17998
▁발표된	-17999
▁죽인다	-18000
▁처리할	-18001
마켓	-18002
종과	-18003
▁심장을	-18004
안한	-18005
▁중앙에	-18006
▁1930	-18007
▁포켓몬을	-18008
▁유고	-18009
▁임기	-18010
▁이기지	-18011
르바	-18012
▁사례는	-18013
▁High	-18014
받침	-18015
▁퍼시	-18016
▁염두에	-18017
▁장점은	-18018
▁제멋대로	-18019
▁순간적으로	-18020
리어스	-18021
▁출연작	-18022
▁이끈	-18023
아이템	-18024
▁엑셀	-18025
▁재즈	-18026
▁줄어들고	-18027
샤의	-18028
직에	-18029
▁여수	-18030
▁총으로	-18031
▁반항	-18032
▁중국은	-18033
▁헝가리	-18034
페어	-18035
▁갈린다	-18036
▁히드라	-18037
▁조합으로	-18038
>,	-18039
▁다해	-18040
▁카부	-18041
▁미유	-18042
마법사	-18043
▁쑥	-18044
▁보통의	-18045
▁종족의	-18046
▁빼돌	-18047
▁화소	-18048
스타의	-18049
▁Par	-18050
▁맞아도	-18051
됐고	-18052
▁본디	-18053
▁승려	-18054
▁포크	-18055
▁시점이	-18056
▁떠날	-18057
▁퇴출	-18058
▁설상가상으로	-18059
▁집합	-18060
▁방으로	-18061
▁초보자	-18062
▁기술배치	-18063
아스	-18064
▁테리	-18065
▁끝내기	-18066
▁레벨은	-18067
▁코드를	-18068
▁작정하고	-18069
▁프로그래밍	-18070
AG	-18071
쉬의	-18072
▁승리한	-18073
반은	-18074
에너	-18075
▁녹화	-18076
▁일격을	-18077
게시	-18078
▁애정을	-18079
러서	-18080
회까지	-18081
▁열린다	-18082
▁문제점을	-18083
▁이해하지	-18084
▁결승전에서	-18085
▁떠서	-18086
▁롤러	-18087
▁영남	-18088
▁BRV	-18089
▁레이첼	-18090
▁쇠퇴	-18091
▁일격에	-18092
적이라고	-18093
▁모티브가	-18094
▁봐선	-18095
▁+20	-18096
▁스탯이	-18097
▁후반에는	-18098
02	-18099
▁결정을	-18100
▁딜레이가	-18101
▁시간동안	-18102
▁형이	-18103
▁4.0	-18104
▁Arm	-18105
▁제목을	-18106
▁리마스터	-18107
▁쏠쏠	-18108
홈런을	-18109
▁권리를	-18110
▁높다고	-18111
▁이야기로	-18112
▁상태에서도	-18113
▁런닝	-18114
▁원망	-18115
행으로	-18116
▁나누는	-18117
▁습격을	-18118
▁운수사	-18119
▁철저한	-18120
▁팔라딘	-18121
▁스팅	-18122
▁Don	-18123
놓을	-18124
클릭	-18125
▁작년	-18126
▁거주하는	-18127
란과	-18128
▁도시가	-18129
▁따른다	-18130
▁아래는	-18131
▁애국	-18132
▁전폭	-18133
▁대상은	-18134
▁죽었을	-18135
▁동구	-18136
▁바뀔	-18137
▁존재는	-18138
OID	-18139
▁캐롤	-18140
▁스피어	-18141
▁스콧	-18142
장이나	-18143
▁오로치	-18144
▁인구는	-18145
현대	-18146
▁라미	-18147
▁천마	-18148
캐스트	-18149
▁둘러보기	-18150
▁일렉트로	-18151
▁도망치는	-18152
▁당첨	-18153
▁무겁	-18154
▁저가	-18155
▁형식의	-18156
▁몸매	-18157
▁소재가	-18158
▁받았으나	-18159
UP	-18160
우에	-18161
▁담임	-18162
▁필라	-18163
▁목에	-18164
▁포기한	-18165
▁거냐	-18166
▁재임	-18167
▁모으고	-18168
▁풍부한	-18169
▁온게임넷	-18170
▁난민	-18171
▁러닝	-18172
▁섀도	-18173
▁요청을	-18174
▁style	-18175
▁맥락	-18176
▁일개	-18177
▁부담을	-18178
▁비교할	-18179
▁주는데	-18180
칭을	-18181
▁연설	-18182
▁창업	-18183
▁술에	-18184
▁정한	-18185
▁오인	-18186
▁의사가	-18187
▁줬다	-18188
▁태극	-18189
니스트	-18190
마리가	-18191
▁멧	-18192
나온	-18193
요의	-18194
▁위협을	-18195
▁하츠네	-18196
▁범죄를	-18197
선도	-18198
숨에	-18199
장기	-18200
▁하네	-18201
리우드	-18202
이어서	-18203
▁남미	-18204
▁육체를	-18205
▁점으로	-18206
시키거나	-18207
▁사회에서	-18208
▁씁	-18209
클리	-18210
▁신상	-18211
▁패전	-18212
▁헤븐	-18213
▁돌려보	-18214
▁드론	-18215
▁공격한	-18216
▁동료를	-18217
▁본편의	-18218
▁시스터	-18219
▁하라고	-18220
▁1962	-18221
▁감히	-18222
▁계절	-18223
▁아멜	-18224
▁일본과	-18225
red	-18226
치기를	-18227
프란시스코	-18228
▁부흥	-18229
▁대회를	-18230
▁변동	-18231
▁키사	-18232
▁개봉한	-18233
▁비해서는	-18234
급에	-18235
명이나	-18236
▁명나라	-18237
▁대책	-18238
▁마야	-18239
▁뿐인	-18240
▁국가에서	-18241
▁전작에서	-18242
요를	-18243
▁샤워	-18244
넌트	-18245
창의	-18246
▁Pv	-18247
레타	-18248
▁쉬는	-18249
▁자기는	-18250
▁출루율	-18251
▁안그래도	-18252
▁좁아	-18253
킵니다	-18254
▁약해	-18255
▁탄핵	-18256
▁별명으로	-18257
폴리스	-18258
▁안드레	-18259
▁한가운데	-18260
쪽을	-18261
▁공백	-18262
▁조이	-18263
air	-18264
▁테일러	-18265
▁선택하는	-18266
물인	-18267
▁불렸다	-18268
▁표기가	-18269
▁학생들	-18270
▁이동속도가	-18271
건과	-18272
▁마타	-18273
▁벨라	-18274
▁원주	-18275
▁입양	-18276
▁까이는	-18277
▁부동산	-18278
▁외치며	-18279
▁거부하고	-18280
▁통행	-18281
▁세르비아	-18282
▁상처가	-18283
▁2,000	-18284
십자	-18285
▁안좋은	-18286
▁후자는	-18287
시온	-18288
컨대	-18289
▁노숙	-18290
▁대우를	-18291
▁나온다는	-18292
▁SL	-18293
▁독을	-18294
▁말하면서	-18295
▁맥도	-18296
▁겁니다	-18297
▁얼굴은	-18298
▁도색	-18299
당하지	-18300
▁Champ	-18301
▁El	-18302
서비스	-18303
▁적들의	-18304
ml	-18305
▁우츠	-18306
▁빌보드	-18307
▁들어와서	-18308
좌석	-18309
▁접어들	-18310
▁사이보그	-18311
▁주변에서	-18312
팀으로	-18313
▁여자의	-18314
▁이겼다	-18315
▁사용자가	-18316
▁운수사명	-18317
▁모형	-18318
감하게	-18319
▁도쿄도	-18320
▁반경	-18321
▁군데	-18322
▁위를	-18323
▁반지를	-18324
▁임진왜	-18325
br	-18326
▁장풍	-18327
▁그립	-18328
각으로	-18329
적한	-18330
▁뭐고	-18331
시키려	-18332
▁노이즈	-18333
공개	-18334
▁덴마크	-18335
▁생각으로	-18336
▁놀고	-18337
▁명인	-18338
▁묶여	-18339
▁종전	-18340
▁진출한	-18341
▁대표되는	-18342
▁슬러	-18343
▁기사의	-18344
▁발음을	-18345
▁수정되었다	-18346
▁예외적으로	-18347
▁씩	-18348
연승	-18349
▁연결된	-18350
▁운반	-18351
주는데	-18352
▁변신한	-18353
▁시장에	-18354
▁골로	-18355
귀가	-18356
▁본거	-18357
이었다면	-18358
▁디시인사이드	-18359
이제	-18360
▁공모	-18361
▁나름의	-18362
▁초창기에는	-18363
▁팍	-18364
해방	-18365
쳤다고	-18366
▁2.4	-18367
크에	-18368
▁아드	-18369
▁걸맞는	-18370
▁시설이	-18371
▁시작하자마자	-18372
치오	-18373
▁직격	-18374
▁무슬림	-18375
▁되나	-18376
있으면	-18377
▁인기투표	-18378
초교	-18379
▁피트	-18380
▁소모량	-18381
▁럼	-18382
집단	-18383
▁박재	-18384
▁단숨에	-18385
사관학교	-18386
▁리베	-18387
▁길어서	-18388
▁이탈리아의	-18389
년작	-18390
▁비타	-18391
▁아이들의	-18392
질과	-18393
▁가설	-18394
싸움을	-18395
▁스토리에	-18396
▁슬레이어	-18397
▁도미	-18398
물이다	-18399
양으로	-18400
▁공격도	-18401
▁맵에서	-18402
▁북유럽	-18403
▁줄어드는	-18404
▁천둥	-18405
▁레귤러	-18406
▁크리스토	-18407
르노	-18408
▁당당히	-18409
▁출시한	-18410
▁취급이	-18411
적일	-18412
▁접수	-18413
▁각성한	-18414
▁스미스	-18415
▁김선	-18416
▁방울	-18417
▁벙커	-18418
▁주가	-18419
▁차가운	-18420
소환	-18421
▁사정거리가	-18422
경험	-18423
사한	-18424
▁더럽	-18425
▁없었는데	-18426
▁이용한다	-18427
리학	-18428
공학과	-18429
▁입히고	-18430
▁차지한다	-18431
▁에피소드는	-18432
▁넓게	-18433
▁달래	-18434
▁모닝	-18435
▁패를	-18436
사무소	-18437
▁붙여서	-18438
운전	-18439
융합	-18440
▁설명한	-18441
+1,	-18442
▁스타팅	-18443
▁확연히	-18444
▁마츠모토	-18445
▁왕위	-18446
운드가	-18447
▁퀘스트가	-18448
▁행방불명	-18449
그와	-18450
▁않음	-18451
▁루머가	-18452
▁1/	-18453
▁세탁	-18454
능력은	-18455
▁만나기	-18456
▁EMP	-18457
▁방영한	-18458
부족	-18459
▁내외	-18460
▁서독	-18461
▁대위	-18462
▁쌓인	-18463
▁쿠사	-18464
장까지	-18465
▁-10	-18466
▁구제	-18467
▁용기	-18468
▁타카시	-18469
▁완화	-18470
▁투수로	-18471
▁메탈슬러	-18472
네트	-18473
▁개연	-18474
▁동래	-18475
▁루프	-18476
▁비자	-18477
▁타인의	-18478
▁페미니	-18479
▁많았지만	-18480
▁우는	-18481
▁명칭으로	-18482
직원	-18483
▁//	-18484
▁XY	-18485
▁사내	-18486
▁단번에	-18487
▁전투로	-18488
~9	-18489
것과	-18490
▁믿어	-18491
▁지정된	-18492
점프	-18493
▁하우	-18494
▁아들의	-18495
▁드러내는	-18496
▁위주	-18497
▁GG	-18498
교차로	-18499
▁데뷔한	-18500
▁1964	-18501
널드	-18502
▁넵튠	-18503
▁다룬다	-18504
▁묻는다	-18505
▁기타사항	-18506
▁담당했다	-18507
▁무거	-18508
▁이상할	-18509
비어	-18510
▁티아	-18511
▁명백한	-18512
▁인물들	-18513
▁후인	-18514
▁그곳에	-18515
▁이나즈마	-18516
무와	-18517
▁전장에서	-18518
▁승인	-18519
▁외로	-18520
연하게	-18521
▁부하들을	-18522
▁중국과	-18523
▁허무하게	-18524
아니아	-18525
▁튜토리얼	-18526
▁아르바이트	-18527
▁항구	-18528
▁타격이	-18529
▁힘들다는	-18530
리터	-18531
▁맞먹는	-18532
▁심심찮게	-18533
▁한때는	-18534
▁야외	-18535
▁월등	-18536
▁모양을	-18537
▁표기는	-18538
▁넘어갔다	-18539
▁캐서	-18540
▁현장에	-18541
ittle	-18542
▁만드는데	-18543
▁부모님이	-18544
▁강타	-18545
▁어처	-18546
년대부터	-18547
▁진출했다	-18548
가메	-18549
▁나라는	-18550
▁환경에서	-18551
▁제지	-18552
▁퓨전	-18553
▁과일	-18554
▁뭐라	-18555
▁PL	-18556
▁퓨어	-18557
▁다르고	-18558
▁리턴	-18559
▁샌프란시스코	-18560
▁쪼개	-18561
병들이	-18562
부분이	-18563
▁STR	-18564
▁젝	-18565
▁돕는	-18566
▁코가	-18567
렸기	-18568
▁사지	-18569
▁포효	-18570
스럽고	-18571
▁아내와	-18572
▁재산을	-18573
▁눈빛	-18574
▁어떨	-18575
공격이	-18576
▁마인드	-18577
▁이번에	-18578
▁메시지를	-18579
▁살해한	-18580
▁활발한	-18581
▁왼팔	-18582
▁짙은	-18583
▁일환으로	-18584
▁임관	-18585
▁패키	-18586
▁패스를	-18587
욱이	-18588
지오	-18589
▁복지	-18590
▁릴리스	-18591
클린	-18592
▁집정	-18593
▁한마디	-18594
▁정전	-18595
▁한국어로	-18596
▁것의	-18597
▁파랑	-18598
갑을	-18599
▁비명	-18600
▁사이타마	-18601
슬로	-18602
▁렌즈	-18603
▁러셀	-18604
▁물어보	-18605
▁기호	-18606
▁팩션	-18607
▁만큼의	-18608
▁붉은색	-18609
▁알고보니	-18610
맞은	-18611
▁두목	-18612
▁AE	-18613
▁초토	-18614
복으로	-18615
▁나왔으며	-18616
▁지나가던	-18617
▁림	-18618
목적	-18619
▁미정	-18620
▁앙쥬	-18621
▁멤버는	-18622
▁충공	-18623
▁티가	-18624
느냐는	-18625
▁max	-18626
▁조준경	-18627
▁전술을	-18628
▁엘더스크롤	-18629
▁내각	-18630
▁ALL	-18631
결에	-18632
▁벌여	-18633
▁협조	-18634
▁서술한	-18635
부분을	-18636
터에서	-18637
▁고생을	-18638
▁so	-18639
▁승무	-18640
▁신전	-18641
이었다가	-18642
▁돌격소총	-18643
덕에	-18644
바인	-18645
▁남캐	-18646
▁정조	-18647
들이는	-18648
▁소환수	-18649
ENT	-18650
▁내로	-18651
▁있어요	-18652
▁토트넘	-18653
▁현실에서	-18654
▁지날	-18655
▁샤이닝	-18656
▁오락실	-18657
▁트로피	-18658
▁게임상	-18659
▁느껴질	-18660
▁케이크	-18661
방향으로	-18662
▁입힐	-18663
▁Let	-18664
▁숏	-18665
▁FB	-18666
이라니	-18667
패의	-18668
▁뛰고	-18669
▁극심한	-18670
FM	-18671
▁개발자	-18672
▁날개가	-18673
▁텅	-18674
▁대역	-18675
▁포커	-18676
▁피처	-18677
다닌다	-18678
▁지도를	-18679
격의	-18680
▁Li	-18681
카츠	-18682
▁말소	-18683
▁배송	-18684
▁카레	-18685
▁예시로	-18686
▁카메라를	-18687
~!	-18688
▁허리케	-18689
▁편에서는	-18690
희와	-18691
▁출몰	-18692
▁시장이	-18693
▁개더링	-18694
▁대미지는	-18695
▁인상적인	-18696
▁말레이시아	-18697
매체	-18698
▁실업	-18699
▁헬게이트	-18700
▁다툼	-18701
▁이데	-18702
▁앨범에	-18703
▁인터뷰에	-18704
▁이만	-18705
어진다	-18706
▁스트라	-18707
▁중전차	-18708
프로그램	-18709
급인	-18710
▁처녀	-18711
▁했다면	-18712
▁.5	-18713
선수권	-18714
히면서	-18715
▁LOVE	-18716
▁예방	-18717
걸이	-18718
임의	-18719
▁시초	-18720
▁장을	-18721
▁치며	-18722
▁바다의	-18723
▁쉐도우	-18724
▁프로그램의	-18725
▁루피	-18726
▁소통	-18727
▁아직은	-18728
▁관점에서	-18729
▁냉각	-18730
▁알리는	-18731
비나	-18732
▁놓아	-18733
▁애로우	-18734
▁죠죠의	-18735
▁1965	-18736
▁갭	-18737
스페	-18738
▁데는	-18739
점이다	-18740
▁에피소드에서는	-18741
발사	-18742
▁파이터즈	-18743
▁피치	-18744
▁부품을	-18745
▁선택이	-18746
▁특수부대	-18747
의회	-18748
▁삶의	-18749
▁서지	-18750
▁대격변	-18751
▁생기면	-18752
▁패러디한	-18753
▁업데이트를	-18754
되긴	-18755
코인	-18756
ield	-18757
▁평화를	-18758
▁명목으로	-18759
▁ES	-18760
▁밸런스를	-18761
오닉	-18762
갔다가	-18763
하자고	-18764
▁걸어가	-18765
▁변했다	-18766
▁펼쳤다	-18767
ott	-18768
▁불분	-18769
▁GDP	-18770
▁던지고	-18771
▁함정에	-18772
▁연막	-18773
▁표를	-18774
팀에	-18775
▁패배한다	-18776
▁Power	-18777
++	-18778
시부터	-18779
하려다	-18780
▁피규어	-18781
들아	-18782
▁MV	-18783
▁에코	-18784
▁설정되어	-18785
▁애니메이션에서	-18786
▁더한	-18787
▁실정	-18788
▁후한	-18789
▁업적을	-18790
▁공명	-18791
▁더러	-18792
▁호출	-18793
카드가	-18794
▁핀란드	-18795
철수	-18796
▁사용했던	-18797
예가	-18798
▁인근에	-18799
구단	-18800
너와	-18801
데르	-18802
찮은	-18803
▁연수	-18804
▁총선	-18805
▁12,	-18806
▁살리기	-18807
▁에스파	-18808
일생	-18809
▁혼인	-18810
▁장소로	-18811
▁높아진다	-18812
▁주면서	-18813
▁실책	-18814
▁제프	-18815
▁와서는	-18816
▁구르	-18817
▁발차	-18818
▁유목	-18819
▁육박	-18820
▁커먼	-18821
▁레이지	-18822
▁마음은	-18823
▁타고난	-18824
▁포함된다	-18825
이요	-18826
▁자연스레	-18827
▁초기의	-18828
미래	-18829
▁류현	-18830
▁FL	-18831
▁Sun	-18832
▁연상케	-18833
워커	-18834
틀링	-18835
티오	-18836
산에서	-18837
▁소모가	-18838
킹이	-18839
▁컴퍼	-18840
▁게임과	-18841
▁자격을	-18842
▁붙어있다	-18843
▁버티는	-18844
hammer	-18845
▁버전에서는	-18846
거진	-18847
▁고베	-18848
▁죽자	-18849
▁프리즘	-18850
과목	-18851
년경	-18852
▁산악	-18853
ons	-18854
▁김도	-18855
▁퀴즈	-18856
▁공포에	-18857
▁줘야	-18858
▁티베	-18859
▁미즈키	-18860
▁트위터에	-18861
▁대박	-18862
▁짝이	-18863
▁공통점이	-18864
▁위험하다	-18865
use	-18866
▁먹튀	-18867
▁호구	-18868
▁노홍	-18869
▁문서가	-18870
▁Blue	-18871
▁스토리에서	-18872
▁류의	-18873
▁검열삭	-18874
▁생겨난	-18875
▁와인	-18876
▁수익을	-18877
▁종점행	-18878
▁독립운동	-18879
▁찾은	-18880
모자	-18881
발매	-18882
▁속이	-18883
▁오가	-18884
▁이녀석	-18885
▁영동	-18886
▁책정	-18887
▁WCS	-18888
▁아리스	-18889
▁파우	-18890
UC	-18891
개념	-18892
▁비범	-18893
▁달라서	-18894
▁뭔가를	-18895
▁확실하다	-18896
▁파워레인저	-18897
이팅	-18898
▁콜라보레이션	-18899
[...]
