[PAD]
[UNK]
[BOS]
[EOS]
[CLS]
[SEP]
[MASK]
▁이
▁1
으로
에서
▁있
▁2
▁그
▁대
▁사
이다
었다
▁수
▁지
▁시
▁가
▁20
▁아
▁전
▁기
▁하
▁19
▁있다
▁다
▁제
했다
하였
▁일
▁한
▁정
▁중
▁주
▁자
하는
▁것
▁인
▁공
▁경
되었다
▁유
▁위
▁보
하고
▁부
▁등
하였다
▁조
▁3
하여
▁미
▁동
▁선
▁나
▁마
▁모
으며
▁연
▁오
▁영
▁의
▁발
▁소
에는
▁고
▁201
한다
▁세
▁개
▁스
▁구
▁비
▁국
▁도
▁상
▁서
▁후
▁여
▁때
▁200
▁해
▁관
▁성
▁프
▁신
▁대한
▁있는
▁4
부터
▁방
▁"
▁바
지만
▁5
▁역
▁만
▁않
▁또
되어
▁무
▁장
▁통
▁남
까지
▁내
▁교
에게
▁현
▁같
▁문
학교
▁포
▁우
▁출
▁거
▁결
적인
적으로
된다
▁진
▁불
이라
▁최
▁원
▁생
국의
▁어
▁작
▁노
▁알
▁강
▁당
▁6
▁반
▁파
▁따
▁10
▁계
▁리
▁분
들이
▁받
▁없
면서
▁말
▁사용
년에
▁실
▁두
되었
들은
▁'
▁에
▁단
▁배
에서는
▁명
▁이후
▁7
▁함
하기
▁예
▁안
▁8
▁재
▁차
▁로
하게
▁한다
▁설
▁데
▁일본
▁요
▁특
았다
였다
▁카
▁초
▁군
▁종
▁독
▁라
으나
00
▁9
▁추
▁다음
▁그는
▁199
리아
▁감
▁많
▁김
▁활
▁대한민
▁더
스트
▁되었다
▁타
▁및
▁건
▁태
는데
▁입
▁매
▁음
▁다른
▁지역
▁형
▁운
▁참
▁같은
주의
▁양
▁그리
▁올
▁18
▁산
▁위해
▁코
▁평
▁과
이며
▁미국
▁12
▁크
▁행
▁피
or
▁적
들의
▁열
레이
▁프로
▁왕
▁베
▁호
▁시작
▁본
들을
들어
▁때문
▁승
▁북
▁목
▁번
▁화
▁총
라는
기도
되는
▁회
▁따라
▁또한
▁그러
▁임
하며
▁함께
▁각
▁사람
▁변
▁외
▁S
▁표
▁처
▁11
▁속
▁달
▁물
▁자신
la
시아
라고
▁경우
▁민
이나
▁직
▁새
▁약
▁학
▁드
▁간
▁선수
하지
▁그의
▁영화
▁게
▁현재
▁집
▁세계
기에
▁메
▁한국
▁기록
▁f
▁저
▁A
▁이름
▁198
하다
▁가장
▁당시
▁사이
▁존
기를
▁하나
▁항
▁위치
되고
에도
▁때문에
▁체
▁점
▁것을
▁레
스의
▁그러나
▁확
▁박
▁국가
스는
리는
▁토
▁F
▁뒤
()
▁M
▁것으로
▁했다
▁브
▁C
▁청
▁조선
▁for
mu
▁있으며
▁축
▁투
▁있었다
▁복
▁의해
▁필
▁것이
mula
일에
이라고
▁천
▁광
▁formula
지는
▁된다
▁못
▁활동
▁야
▁디
▁그리고
▁통해
▁또는
▁삼
▁법
▁합
졌다
▁프랑
▁증
▁철
▁판
▁금
▁T
▁창
▁치
했고
▁근
▁15
▁편
등학교
▁버
▁언
▁살
▁대한민국
▁많은
▁첫
리를
▁것이다
▁심
▁197
▁돌
▁트
▁플
랜드
▁들어
▁아니
▁충
▁16
▁경기
이라는
▁황
▁페
하면서
▁높
▁애
하였고
▁쓰
▁하는
사를
▁다음과
▁네
▁가지
▁할
▁다시
는다
▁대해
▁완
▁서울
▁있었
▁은
이었다
▁루
▁백
▁포함
▁여러
▁뜻
▁17
대로
상을
이는
▁196
▁병
▁사회
▁되
로서
▁연구
er
▁시즌
▁패
▁클
개의
▁팀
▁순
▁용
▁큰
이고
▁독일
20
▁죽
▁K
되었고
▁모두
▁권
▁B
보다
장을
▁하였다
in
성을
▁D
▁히
▁대한민국의
위를
라이
▁모든
▁I
지를
▁채
▁중국
회의
▁194
▁취
▁규
▁아이
▁친
▁일부
▁처음
▁알려
니아
▁정부
▁전쟁
자가
▁이루
▁감독
이었
▁축구
대의
▁테
▁식
▁위한
▁등이
▁대표
▁제작
▁도시
리에
▁-
▁14
년부터
▁등의
lt
했으며
도의
▁뉴
▁배우
▁손
▁허
▁이용
▁정치
▁자신의
▁끝
도로
▁존재
▁영국
년에는
력을
▁있어
gt
▁구성
▁월
▁이상
▁이어
부분
▁리그
거나
▁논
▁길
이자
▁문제
▁것은
▁동안
▁러
▁프랑스
▁일반
▁P
▁즉
▁작품
▁13
리스
km
나라
on
시에
▁온
▁앞
▁환
▁나타
▁캐
▁가능
기의
▁&
▁195
▁개발
▁이러
▁맡
▁L
▁국제
▁걸
▁이러한
▁준
▁인구
▁같다
▁맞
▁새로
▁미국의
▁중심
로는
통령
년대
▁접
▁주장
기는
▁발견
▁협
▁게임
▁갖
다는
▁이는
▁곳
▁향
▁밀
군의
▁사건
들과
▁발표
▁농
▁하지만
도록
▁검
위원
▁등을
리가
사가
자의
▁별
다고
되었으며
하면
림픽
▁볼
000
시키
▁U
서는
리카
▁방송
로부터
기가
▁잘
▁되어
▁G
▁대부분
▁전투
▁대회
▁영향
▁N
▁폭
▁키
▁2010
▁귀
▁번째
▁음악
월에
an
리그
▁육
스를
▁이를
이트
▁문화
정을
▁밝
에서도
▁지방
▁대통령
▁담
▁사망
▁섬
났다
▁공격
▁홍
▁막
▁하고
▁대학
▁우승
인의
명의
란드
자는
년까지
하였으며
▁의미
했던
성이
-1
▁193
▁R
▁30
▁참여
▁석
자를
▁발생
▁극
들에게
▁효
▁얻
▁진행
▁결과
▁최초
어진
▁프로그
도를
▁H
▁관련
세기
▁관계
▁특히
▁앨
▁날
▁역사
리의
▁와
▁이에
▁줄
스가
▁태어
▁블
▁E
▁곡
와의
▁면
▁경제
▁유럽
쪽으로
디오
▁헤
▁설립
▁설치
▁절
▁일어
▁올림픽
▁선거
▁위치한
▁책
▁다양
자로
▁갈
▁발매
대를
스터
▁봉
르는
▁암
▁글
▁된
드는
▁[
▁그녀
▁2008
렸다
▁새로운
▁러시아
▁독립
▁이전
▁만들어
▁생각
▁인해
이스
요한
▁엔
▁폐
▁형태
▁사실
▁시간
▁자유
▁측
▁교육
▁같이
▁부분
▁좋
▁질
원을
▁받았다
▁소속
가지
▁커
도는
▁받아
▁참가
▁이것
식을
▁니
▁기술
번째
▁2011
▁머
사의
▁중앙
므로
▁범
▁이탈
▁침
en
▁2012
과의
▁로마
▁슈
화국
▁출신
▁주로
▁누
▁있고
▁프로그램
▁골
▁2009
▁결정
▁계속
▁2007
▁수도
▁송
인이
▁탈
▁잡
▁탄
▁W
▁음반
▁벌
부의
전을
▁구조
▁성공
▁2014
▁등장
사는
▁상태
▁매우
▁데뷔
▁운영
대학교
▁기준
리즈
학자
라마
르크
▁난
프트
▁있던
명을
ar
▁타이
▁혼
he
다가
비아
▁않았다
▁,
▁케
▁넘
기로
▁아버
▁2013
▁생산
▁가지고
▁몇
▁지정
으로서
▁고려
▁이탈리아
▁쿠
대에
▁아니라
장이
▁0
▁악
▁25
▁터
▁급
이션
▁돌아
▁찾
▁운동
도가
▁차지
이지
▁191
▁아들
▁윤
하기도
▁들
▁싱
처럼
▁만들
스타
▁라이
▁일본의
에서의
▁여성
,000
왔다
▁2018
▁해당
군은
우스
▁결국
▁2015
했지만
▁100
해서
▁없는
▁없다
▁최고
되지
▁2016
▁조직
▁폴
▁한편
▁계획
es
▁따르
권을
▁팔
명이
▁업
▁전체
▁출연
▁데이
FA
하자
화를
▁떨
수를
사로
원의
▁않고
▁주요
▁아래
간의
▁이유
운데
▁스타
수의
▁2006
▁지원
냈다
▁많이
▁행정
▁192
▁방법
▁좌
일부터
▁제공
▁떠
▁국민
스크
▁21
▁둘
▁내용
▁앨범
스템
인민
장은
▁2017
지의
남도
▁콘
▁다양한
나는
▁역할
스와
▁힘
초등학교
▁월드
▁빠
▁유명
▁대학교
▁남아
▁후보
으로써
선의
▁스페
▁O
at
음을
장으로
▁마이
▁칼
▁엘
▁가운데
▁묘
▁몸
_1
자인
▁인터
am
▁하여
▁J
▁헌
지가
▁거의
▁잠
진다
부에
▁출전
대학
어로
▁빌
가는
▁이루어
스로
▁모습
전에
지에
대표
▁컴
였던
했으나
▁않는다
▁열린
▁마지
시의
하던
▁표현
▁수상
▁각각
수가
민주
리고
▁바이
▁얼
성의
점을
인다
al
원이
됐다
▁t
▁드라마
하려
▁격
머니
운동
▁공식
▁영향을
사에
▁24
▁졸
위원회
▁따르면
▁연결
원은
▁이미
으로부터
▁필요
▁과정
▁2019
제로
▁높은
▁능
▁따라서
▁레이
▁진출
어를
▁마지막
▁시리즈
이가
▁이름을
니다
▁정보
▁임명
▁붙
▁알려져
▁몰
력이
▁공개
제를
▁2005
▁작은
어는
▁인정
▁직접
▁시스템
으로는
▁보고
ic
▁23
시켰
었고
▁22
▁경상
▁녹
텔레
치는
상의
▁쇼
인은
▁뛰
▁자연
문화
▁지구
▁센
▁인도
▁이야
▁민주
BS
▁개최
이드
군이
▁대전
해야
▁추가
▁2000
대한
▁평가
▁대신
▁풍
▁상황
▁기능
▁퍼
지고
21
▁유지
▁생활
▁프리
▁항공
▁울
▁브라
▁않은
▁눈
▁오스트
▁2004
▁활약
▁보여
▁그룹
대는
위에
▁먹
▁밴
들에
▁그리스
인을
▁아르
▁정의
대가
수는
▁그가
선을
▁가리
전에서
▁티
갔다
▁되는
르트
▁홈
▁제국
수로
▁관한
▁핵
▁그것
▁압
물을
▁발전
▁있는데
▁졸업
▁후에
부를
▁FC
is
트로
it
▁정도
▁노래
▁크게
▁서로
부는
비전
▁여자
▁비롯
북도
▁시절
▁않았
▁응
세의
▁중요한
▁결혼
▁변경
있다
인민공
▁부산
▁학교
▁역시
re
10
▁말한다
지로
▁모델
▁28
계를
업을
원으로
레스
▁희
▁이론
ou
▁26
▁낮
▁형성
문을
▁건설
▁190
▁뿐
]]
일까지
치를
▁공동
▁워
전히
식으로
▁V
▁나라
프리카
▁철도
▁2020
▁일으
▁관리
리오
▁분류
▁27
주는
▁요구
▁거쳐
▁뜻은
▁[[
▁기업
제가
▁군사
▁하였
▁지금
▁가진
회를
장의
▁시작했다
▁현대
임을
▁연합
▁플레이
광역
군을
▁중화
제의
▁딸
되면서
▁텔레
상이
스탄
▁노동
▁놓
▁반대
▁느
▁실시
▁색
▁경기도
▁사이에
▁않는
▁비판
성은
▁원래
▁기원
▁콜
드의
▁목록
▁만든
나다
▁동시에
le
특별
▁이르
▁싱글
▁어떤
▁혹
▁건물
키는
▁시대
▁전통
▁푸
▁기본
▁긴
▁계약
▁지도
과는
▁사랑
▁2002
트는
이의
▁학생
▁맥
장에
▁웨
▁야구
▁잉
▁역할을
상으로
▁휴
른다
이었던
▁상대
▁지역의
▁지하
하였으나
▁민족
▁아닌
▁자동
▁판매
▁개인
▁인물
드로
▁겸
자와
▁있다고
▁빈
▁샤
관은
▁위하여
정한
▁싸
하는데
▁소련
드를
▁2003
▁벨
▁기간
단의
▁특징
▁기반
▁망
▁인간
되며
."
▁초기
서를
체의
▁이동
▁처음으로
이를
군에
19
소를
▁최초의
▁전국
▁기타
▁수행
▁서비
▁승강
명은
▁견
▁그래
▁50
있는
▁혁
▁여기
▁~
▁운행
▁종교
이기도
▁도쿄
▁퇴
▁다이
▁교황
▁엄
▁의한
▁전문
장에서
▁29
구의
▁특별
▁이때
▁공간
▁정책
트를
▁도입
▁있을
호를
▁보통
트의
▁슬
명이다
▁개의
오는
격을
적을
린다
했는데
▁기준으로
▁궁
▁전라
▁월드컵
피언
▁기존
가와
체를
독교
시마
▁제외
▁달리
▁31
▁이끌
역이다
▁지나
혔다
▁과학
▁넓
▁마을
▁훈
리와
▁옮
▁출시
회는
▁명칭
▁비슷
50
고등학교
▁탑
호는
카이
▁하며
리로
무를
▁바로
▁애니
중에
세는
▁경기에서
▁되고
도에
연구
▁국내
▁될
▁공연
스코
스에
어의
▁어머니
관을
▁영화이다
▁경찰
▁이적
▁일반적으로
▁역임
호로
어가
▁지배
▁탐
▁유일
BC
▁연방
의를
▁과거
▁텔레비전
사와
▁사업
▁c
동안
▁아버지
▁윌
▁모양
▁증가
▁소설
마다
화가
광역시
▁있다는
▁태양
▁지휘
▁옥
위로
▁혹은
하지만
▁비교
▁컴퓨
▁뮤
르게
▁받은
시켰다
제는
▁FI
▁주변
▁보내
▁배우이다
▁이것은
st
시간
▁산업
▁적용
방송
▁챔
▁중심으로
▁그를
▁피해
학과
▁뉴욕
▁너
년의
.5
상은
▁확인
▁추정
▁먼
▁국가대표
▁흔
▁풀
▁받았
리지
▁가수
▁동일
정에
▁.
▁작곡
▁기독교
▁행동
▁기관
쪽에
▁1990
▁환경
▁지지
▁가족
▁건축
▁착
▁캐나다
▁규모
당의
▁곧
▁자기
단을
▁설명
쳤다
▁2001
▁통합
운드
▁밖
인으로
▁숙
▁때문이다
▁선정
-2
킨다
▁없이
체가
▁낙
▁염
▁분야
▁찾아
▁가까
▁클럽
▁획
▁앤
mm
▁받고
조의
▁떨어
크로
야마
경기
류의
▁챔피언
부가
인민공화국
하거나
▁갑
▁최대
▁실패
▁되었고
▁40
▁담당
드리
종의
▁어느
▁오늘
적은
단은
▁자신이
▁방향
▁충청
▁189
▁대부분의
원에
▁득
▁우주
▁사고
▁노선
▁차량
기와
▁활동을
▁컴퓨터
▁개념
▁기념
▁이런
▁부르
▁보호
▁어린
.1
이로
▁이와
기관
▁속하는
▁올라
메이션
▁멤
▁상당
▁는
▁몽
학적
▁두고
30
성과
▁이상의
▁늘
했다고
▁대체
▁TV
▁윈
▁방영
▁베이
▁스페인
▁지정되었다
식은
나무
▁있지만
▁열차
스카
움을
자들은
▁흑
▁그녀는
et
계의
▁FIFA
성에
치가
일에는
▁넣
▁기원전
글랜드
일을
▁데이터
el
▁1,
메리카
트리
면에
적이
▁/
▁태어났다
세가
교육
▁연주
식의
▁수록
▁걸쳐
▁선출
시켜
▁없었다
ion
렇게
▁조지
▁멤버
▁부족
▁위원
심을
▁나가
▁언어
▁인구는
트남
▁대하여
▁더욱
▁인천
▁잔
식이
동에
▁있어서
▁최종
호선
▁선택
▁있었던
▁최근
▁등에
▁옛
▁런
중학교
겼다
▁:
▁땅
세를
ing
▁수는
▁흐
▁솔
▁예정
▁작가
▁공산
했을
학을
으면
▁뛰어
▁마르
▁대구
리에서
포츠
▁서울특별
상에
역을
▁애니메이션
렀다
▁언급
▁최초로
▁결승
▁도로
▁크리스
시는
▁등으로
▁1999
널리
▁하다
▁변화
▁칸
▁불가
▁조사
▁자료
한다는
▁동물
▁시민
구에
▁획득
▁효과
▁선언
▁아시아
▁내려
▁1998
ol
▁평균
▁하나이다
▁잉글랜드
시키는
▁반응
프로
▁이름은
▁조건
▁국립
om
▁맺
▁메이
▁것이라고
법을
회에서
이에
▁보인다
▁칭
▁지역에
소가
인이다
▁어려
▁우리
▁지속
▁1980
▁북한
구하고
▁에너
정은
▁그들의
▁명령
전은
▁좋은
어서
amp
▁정당
스턴
▁연속
▁구간
자들이
구를
하도록
12
▁예를
▁이해
명으로
▁관할
▁점령
▁흥
난다
▁을
개월
▁선발
▁물리
▁유사
학의
함으로써
정이
라의
비를
▁전에
▁이들은
▁있게
소는
진을
▁국가대표팀
▁예술
▁컨
▁전기
▁거주
덜란드
▁X
체는
만이
되었으나
스에서
정부
▁m
▁겨
▁국회의
만을
▁표준
▁잃
▁익
라도
▁정규
▁목표
▁소유
▁팬
▁덴
▁움
.0
▁출판
▁징
▁고대
▁입단
▁이유로
▁왜
일랜드
모토
년간
내는
▁명의
바이
▁덕
▁돈
관이
신을
스티
▁소비
▁개봉
▁밝혔다
스키
▁후반
원에서
레일
▁이름으로
▁대중
▁모습을
시대
메달
▁페르
▁교통
▁세포
▁영국의
과에
▁포르
▁밤
▁네덜란드
▁선수이다
단이
웠다
가의
▁알렉
▁전자
▁사상
▁쌍
▁실험
지와
회가
▁휘
선거
▁1997
지방
.2
었으며
▁말했다
▁불구하고
베르
소의
랐다
▁사무
▁강화
▁웹
▁o
▁분석
나이
전의
▁베트남
▁주민
인데
▁드러
▁깊
▁액
60
이지만
골을
▁서울특별시
베이
▁제한
▁믿
▁홀
단에
▁승리
▁맡았다
▁Y
▁조약
▁시설
회에
스테
지역
▁거두
▁씨
▁사이의
▁하나의
금을
이란
▁구분
정의
로의
계에
▁오늘날
되기
▁현재는
▁남자
▁포함한
▁1996
▁사용하는
▁찬
버스
드가
▁끌
▁알려진
당은
월에는
러스
▁육군
▁1995
▁분리
직을
라스
▁아프리카
▁은퇴
cm
▁정확
장과
▁하지
▁아직
▁마음
민주주의
▁헌법
▁제품
들로
▁헬
▁폴란드
▁그런
▁이곳
▁하계
-0
형을
▁실제
▁핀
▁경험
ac
쪽으로는
▁그들은
▁크로
▁소프트
부로
구는
▁이듬
전이
부르크
▁공화국
▁방문
으므로
▁쓴
지지
▁하이
산을
월부터
▁결합
▁것에
▁언론
▁통과
치고
▁부여
▁그림
▁프로젝
▁치료
▁가문
아의
▁널리
▁작업
시코
▁하나로
▁비해
_2
우는
▁이사
▁공립
▁광주
▁괴
경을
▁런던
▁세워
▁제안
▁이듬해
▁완전히
▁비행
▁수준
▁기여
▁지상
▁중에
▁단체
▁제조
40
11
▁설계
▁발달
▁여겨
가를
로를
▁유래
트가
주를
▁요시
▁꽃
▁맨
▁우승을
▁의하여
사카
▁차례
▁못했다
▁물질
르의
▁주의
▁the
▁위에
인과
▁펼
▁UE
▁공항
▁불리
▁요청
지에서
▁움직
선에
▁아마
▁성장
르고
▁때까지
배우
들도
하의
구가
이어
▁중요
TV
루스
감을
톨릭
▁멀
▁고등학교
▁등과
▁188
▁UEFA
위가
▁1970
▁더불
▁프랑스의
▁인터넷
사에서
▁1994
▁사람이
▁자주
▁독일의
▁배치
스토
점이
▁현재의
▁정도로
de
▁나온
국은
▁슈퍼
▁정신
▁제주
▁나머
▁이로
관으로
▁스포츠
▁외국
▁멸
▁바탕
▁더불어
il
자리
▁있도록
위는
▁비롯한
▁마찬
▁전해
15
▁파괴
▁마찬가지
도와
▁갖고
▁영토
▁식민
▁통일
▁빛
위의
▁오래
▁접근
▁사라
▁칠
▁깨
조는
▁경쟁
▁주연
▁쉽
문에
▁확장
▁유전
선은
▁선수로
▁브라질
▁스스로
라인
카와
▁사람들이
선이
동을
▁않아
▁연기
▁오스트리아
▁KBS
▁몬
었던
▁감독의
▁추진
▁나오
▁록
▁아시
▁이들
아가
시를
▁논란
▁달러
▁지난
▁밴드
▁km
▁오른
as
한다고
▁패배
▁1992
물의
규모
▁혈
▁과정에서
ro
▁자리
▁촉
▁강원
▁불교
▁복귀
▁품
▁가르
▁개혁
력은
▁만나
▁서식
▁프레
▁짧
▁밝혀
▁수용
거리
▁유명한
받았다
▁p
▁소재
습니다
▁필리
▁그대로
▁스웨
▁주인
▁바뀌
▁60
주에
일의
▁선수권
▁빅
부에서
▁해석
화국의
▁앙
▁삼성
웨어
▁잇
▁of
군과
시즌
로나
▁법률
▁습
크의
▁술
되기도
▁스테
▁윌리
국이
▁초등학교
▁강력
18
지게
철도
ig
▁경우가
▁특정
▁작용
▁자치
행을
▁스트
▁제국의
▁일어나
ve
▁기초
디어
▁b
없이
▁되었
▁폐지
레일리아
▁스위
▁목적으로
▁기록했다
▁1960
▁것이었다
기술
▁가져
▁많다
▁먼저
▁s
소년
▁해결
형의
멕시코
▁회사
▁초대
많은
▁아카
고를
▁알고
▁단순
▁디자인
▁제시
▁이외
▁십
▁1991
▁가톨릭
▁근처
부와
졌고
▁그녀의
▁스웨덴
센터
▁자동차
량이
릭터
▁거부
▁제작된
크는
속도로
니는
▁엔진
▁들어가
디아
주로
▁그린
하라
▁친구
▁1993
▁노르
▁도착
이기
▁여름
프는
▁보다
▁외교
웨이
16
▁관측
종이다
▁미국에서
▁가능하다
자에
▁상호
▁불리는
▁상대로
▁있으나
▁결성
▁집합
▁부정
하였는데
▁아무
▁존재한다
하이
▁70
▁지역에서
▁반란
▁겪
▁생성
▁다카
▁구성되어
수한
인트
▁경영
자이다
▁수많은
▁유니
안을
▁라디오
지션
▁일제
▁않다
하다가
▁놀
했다는
▁다만
▁비슷한
▁조선민주주의
▁벤
▁여기서
▁위험
▁파견
▁팀의
13
하기로
간다
▁교수
량을
▁지진
▁삶
화의
▁살아
▁동맹
▁이주
▁캠
왕의
▁때는
▁임시
성으로
▁투표
▁캐릭터
▁의하면
▁엘리
▁것과
만의
▁분포
▁이야기
▁만에
▁다르
▁오스트레일리아
▁에서
▁조각
아시아
▁디지
어나
트워
▁의원
▁시도
▁주도
▁연극
▁바꾸
",
▁황제
▁훈련
▁궤
▁사용한다
▁시행
▁마찬가지로
▁지냈다
▁통치
▁근거
대와
▁야마
함을
▁중간
▁카를
▁공작
▁에이
년을
▁아일랜드
과학
▁의미한다
▁영어
▁윈도
▁캘
▁윌리엄
▁스튜
▁떨어진
조를
▁오브
▁나무
▁지역을
ed
▁곤
▁상징
▁뇌
▁1988
▁발행
▁흡
평양
▁교회
▁바르
트에서
정보
70
▁형태로
▁한국의
14
▁준비
▁성립
80
▁이렇게
낸다
▁끝에
▁시작하였다
▁재판
▁대표적인
화된
▁방어
사업
촬영
관의
▁활용
시가
▁대응
▁히로
▁바다
인들이
▁따른
▁붕
▁대해서
▁중단
였고
았고
▁처리
▁르
▁이루어진
▁일을
▁벽
▁꾸
▁숨
▁체포
▁지하철
버트
나가
▁북쪽
▁보유
▁몇몇
▁멕시코
▁사용된다
▁있었고
▁시험
▁미사
역은
교회
점으로
▁남쪽
▁문학
▁등록
▁센터
▁회의
▁좋아
NA
▁사용할
면을
로가
▁이스
▁위해서
▁있기
▁귀족
▁중에서
일은
소에
▁관련된
연합
▁타이틀
▁규정
▁The
▁시기
▁체결
▁가정
▁안정
▁비디오
▁이집
▁해안
▁베르
주시
으면서
량은
▁제기
▁낳
.3
티아
▁80
_3
▁알렉산
▁당선
▁정부는
▁다루
▁지적
▁직후
▁유로
us
▁승강장
▁얼마
크라
가로
▁사진
',
▁를
▁묘사
▁1989
▁번역
임스
치의
▁여객
당이
▁나머지
▁디지털
사회
▁로스
▁적이
▁억
▁혐
▁남부
▁살해
▁혁명
물이
od
▁금지
▁동생
▁하루
▁파이
▁이름이
력의
▁그렇
▁달성
▁떠나
▁둔
선에서
국을
▁나타나
오카
▁개통
▁젊
▁출생
▁계열
▁종합
▁내각
워드
▁가능한
리포
▁값
▁대사
ch
비는
▁있지
▁못한
단으로
▁유대
였으며
어졌다
▁보존
▁이슬
나라의
▁부른다
▁홍콩
▁계승
▁서비스
▁대륙
▁간의
▁완성
계가
▁해외
and
미터
회사
작용
▁곳에
▁2021
해졌다
러운
▁1950
치로
▁류
▁종료
소로
▁쌓
▁중국의
▁펜
산의
공항
▁포르투
니스
▁밑
▁촬영
라우
시로
자들의
▁가리킨다
▁강한
수이다
▁대해서는
▁즉위
▁조성
▁싶
▁유일한
학생
권의
와는
▁주인공
▁스코
▁폰
▁취임
론을
17
▁년
하에
가이다
▁본래
▁종류
▁못하고
▁발사
되자
▁보수
▁의견
시킨
▁뮤직
당을
▁꼬
역으로
피아
서로
두고
인지
▁소개
▁경기를
조가
▁옮겨
시키고
▁일어난
주교
ent
▁물론
력으로
▁1945
▁전환
-3
▁수비
▁벗
롭게
▁합류
▁정치적
▁낮은
▁멜
▁안에
▁완전
▁전달
▁인민
세에
▁충돌
관리
▁관계를
▁경상남도
▁것도
▁경상북도
▁굴
▁근무
나의
▁주목
▁승격
▁케이
▁죄
▁안전
계는
▁천황
▁필요한
내고
▁이래
▁표시
▁동쪽
▁후쿠
관에
▁만들었다
▁인근
▁중의
▁문제를
▁아내
려고
▁문제가
승을
되었던
▁사이에서
.4
▁반면
▁오후
▁남북
로로
▁32
▁제거
▁지명
▁평화
▁빨
ad
▁썼
▁관광
▁참여하였다
▁186
▁주는
문화재
요일
비가
▁전략
▁각종
▁미술
▁델
▁사망하였다
족의
▁보여주
▁즐
상과
▁왼
즈의
인들은
▁나누
▁해군
월까지
▁듣
▁명예
▁헨
▁비밀
석을
분을
▁통하여
량의
산으로
▁부모
▁가까운
신의
▁읽
▁종목
전으로
▁중화인민공화국
▁미래
준다
메달을
▁MBC
▁이루어져
▁베네
▁말을
종이
트에
▁수가
ot
과를
▁이용하여
▁표기
▁경우에는
▁인식
▁최고의
▁납
▁집중
▁네트워
헝가
미널
▁포지션
▁강조
▁주었다
▁위치하고
▁친일
분에
원과
화는
▁빼
그룹
은행
프가
▁너무
▁오르
▁위의
적으로는
▁가입
▁위치해
▁d
▁오사카
체로
▁뒤에
주가
▁셀
파의
▁보이
▁공급
▁기록을
▁카운
전쟁
un
▁실제로
만에
▁이슬람
상에서
▁생물
25
▁둘러
▁전투에서
▁아니다
ow
권이
메이
▁상업
▁만들어진
▁아우
▁제도
▁마이크로
해를
▁사실을
문이
▁녹음
대회
▁정착
▁출신의
▁187
▁마련
▁에드
▁만약
적이고
▁사람은
년대에
▁인한
▁전반
▁기존의
▁맹
가가
▁바탕으로
▁건너
차를
▁북부
▁되었으며
▁옆
▁오스
지도
▁최소
br
▁여전히
로스
드와
점에서
슨은
▁기후
▁저항
▁전시
기업
▁연장
▁던
▁샌
▁가는
▁그해
▁스토
48
▁문서
▁서쪽
▁구조를
생활
▁갖추
▁넘어
▁허용
고로
▁마리아
▁감소
▁성격
리어
▁제목
ct
.6
▁레코
▁아키
▁왔다
▁사용하여
▁정부의
2,
▁끼
화에
▁사회주의
▁이번
산은
▁실행
▁정식
▁35
▁프로듀
▁인디
▁대회에서
▁국회의원
년과
질을
▁배경
▁이후에
▁내부
..
▁적극
▁혜
▁작성
▁올랐다
▁의사
▁1987
호가
▁신라
▁뿐만
했기
▁무렵
▁재직
▁사람을
▁기능을
▁그려
▁a
▁확대
▁영화배우
▁바람
▁몽골
라노
▁에스
▁사회적
▁하기
산업
ur
▁블랙
▁정리
▁일반적인
사이
▁게이
▁받아들
교의
▁건강
졌으며
▁윈도우
자에게
▁불러
리스트
▁신문
▁=
▁국방
계에서
▁시기에
보다는
▁사령
▁입학
체에
트라
역에
▁위협
▁젊은
▁생활을
▁피아
▁전라남도
▁시대의
▁관찰
.7
▁국왕
▁뒷
▁나중에
▁포르투갈
▁n
▁객
▁만드는
세포
▁편집
▁찰
▁겨울
▁1986
FC
기고
동차
의로
시오
문학
실을
▁2,
▁루이
▁점차
▁불린다
리포니아
▁부문
되었는데
▁일이
▁제임스
▁1984
▁제외한
▁채택
▁터키
▁보도
이던
▁출발
▁동료
▁충분
▁옹
▁노력
▁유리
▁동계
▁자본
났으며
물로
▁계산
▁그래서
▁항상
로운
▁울산
▁유엔
▁범죄
사건
▁사용되는
▁채널
군으로
개발
장이다
▁춘
▁확보
▁외에도
▁판단
▁붕괴
▁사람들은
▁아나
▁여행
im
.8
▁St
트와
르타
역에서
밖에
해의
데미
래프트
▁계약을
▁흰
티브
▁제정
▁전개
▁이란
24
▁보면
▁성우
▁예선
▁데이비
▁감염
▁민간
설을
도시
▁컬
▁집단
사령
케이
▁구단
영화
▁마쓰
▁장기
세기에
라엘
았으며
▁스튜디오
▁라이브
당에
▁유형
▁남편
▁쉽게
▁합병
▁원자
종은
▁끊
id
끄는
▁시작되었다
▁봄
▁매년
일러
테인
▁장애
▁구축
세이
▁고구
▁500
▁척
대에서
▁발표했다
▁냉
계로
국에
▁측정
면의
ay
▁마사
▁동부
▁필리핀
모리
▁방식
▁다섯
▁증거
▁종종
▁만화
신이
일본
▁블루
▁간주
▁책임
시대의
▁부근
▁등은
ir
90
▁있었지만
자치
▁핀란드
▁뒤를
▁캘리포니아
경제
▁1985
▁세르
하다고
▁요리
라고도
니어
▁관심을
하려는
▁덴마
ut
▁탑재
▁자리를
리기
력과
▁엑
▁90
▁이승
▁주장했다
즈는
▁강력한
▁in
력에
▁경향
▁그곳
▁전사
▁꿈
▁밖에
라비아
▁교체
▁남성
초등학교는
▁신경
▁공공
이라고도
23
▁정보를
▁강원도
여자
▁수립
▁사례
▁공격을
로서의
▁승리를
▁쇠
단체
▁침공
▁모스크
티는
▁득점
레이션
▁파리
▁등에서
▁인간의
▁자신을
▁태평양
▁서부
▁방식으로
▁수입
키아
▁수학
um
▁균
▁잭
▁아름
까지의
▁변호
▁검은
법에
▁얼굴
▁한다고
▁경우도
▁높이
개를
▁쪽
서에
▁사용한
다이
인에
▁이스라엘
▁어떻
▁해방
민족
▁비용
선수
▁해체
당한
▁인수
약을
항공
▁헝가
▁떨어져
법은
▁텍
▁없어
씨는
되었지만
▁면적은
▁왔
셔널
제에
▁콩
▁남동
네시아
▁한다는
자들을
▁나폴
류를
▁대규모
법원
▁회복
면에서
▁세운
소에서
틀랜드
▁불과
▁아랍
▁평양
오프
▁털
▁연맹
에게는
▁주연으로
ver
후의
▁잠시
려는
▁알아
▁화학
시와
▁정상
▁흘
로도
신은
▁가리키는
▁당시의
역의
▁하게
▁갖춘
▁증명
▁좀
▁나카
▁인하여
▁하자
포르
▁농업
▁마리
▁다음을
먼트
었는데
받아
▁이끄는
▁링
사키
▁대형
데스
▁메이저
▁선의
▁둥
▁짓
▁임명되었다
박쥐
▁수정
붉은
▁에피
▁중학교
▁받는
▁힘을
▁내에서
티나
까지는
▁하면서
▁1982
▁45
▁기획
▁본관은
▁소프트웨어
▁어떻게
▁의해서
▁플로
수와
▁중화민
▁만족
▁길이
구로
▁회원
년이
싱턴
정으로
하고자
▁숲
▁비교적
▁사람의
▁쉬
▁시청
드에서
▁일종이다
▁개편
▁아시안
적이다
▁충청남도
▁귀국
형은
▁팀은
▁과정을
▁고전
라가
▁태어난
▁시장
▁셰
점에
어와
▁사후
▁원칙
법의
▁트리
▁말이다
▁복잡
바르
▁뛰어난
면은
▁폭발
서관
▁나뉘
다운
▁않을
▁기계
▁잎
형이
▁족
▁보이는
▁설립된
타이
▁기억
▁인기를
마스
▁편입
▁파일
▁전차
▁이것이
▁고양
었으나
▁속에
▁특수
▁죽은
22
▁죽음
▁섭
터테인
▁라틴
▁도움을
권은
동의
▁신설
▁대상
▁시내
▁조선민주주의인민공화국
▁인사
명한
▁은행
드에
▁발매되었다
▁포지션은
▁쓰인다
▁글로
▁시대에
일보
▁1983
▁홈런
▁본격
▁형식
▁통한
▁대립
대전
인들의
▁롤
▁LG
정책
▁대상으로
▁태풍
▁네트워크
품을
▁본선
▁가격
▁이전에
▁조정
▁저장
이었고
료를
유럽
▁개선
▁단백
물은
▁초반
▁지역은
▁토론
경에
▁띠
▁구성된
▁우선
▁사실상
▁카메
▁세이
▁오리
▁때에는
▁참석
▁속에서
▁있었으며
경의
도에서
어도
▁불가능
▁근대
▁고구려
▁캄
종으로
▁후손
공업
점은
▁시의
▁설치되어
프의
▁구체
CA
동은
분의
프리
.9
브리
▁앞두고
▁박물
▁행사
▁전혀
겠다고
▁아카데미
▁형태의
에르
▁에너지
하나
▁카이
kg
▁통신
em
를린
료로
▁사는
▁내용을
도르
▁짧은
▁핵심
▁고향
라운드
▁사용되었다
▁듀
▁외에
▁창설
권에
▁나오는
▁재정
▁발견된다
▁스피
▁잘못
수에
▁암살
▁했지만
리학
▁애플
라크
▁마드리
무원
경찰
▁아르헨
▁열대
▁유도
▁공유
▁스파
▁중반
▁300
▁1972
었지만
조선
▁편성
용으로
▁클래
같은
지기
▁조금
문의
▁펠
시킬
룬다
▁아주
▁짐
▁부인
▁비난
▁나서
▁현실
세계
▁w
▁다음은
함에
▁역사상
45
▁답
축구
음악
차례
▁확정
▁있었으나
미디
▁수여
▁묻
▁삼국
하려고
씨의
받은
▁수출
예술
▁뿌
▁흔히
▁문화재
▁1920
▁협력
▁등장하는
지면서
▁물러
서의
어져
▁추정된다
▁비율
학년
서가
번의
▁1979
자이
▁자체
▁보급
▁때에
▁브랜드
▁모스크바
▁뉴스
▁린
▁공부
주와
▁무역
협회
▁그것은
▁개봉한
ag
▁탄생
유의
▁설정
▁업무
스리그
다른
▁뜻이
▁요한
▁베이징
▁장착
▁했고
주에서
▁33
▁다니
▁유명하다
▁태어나
▁II
▁옷
▁동일한
▁초등학교이다
▁자는
▁위치한다
▁오히
▁하는데
▁그에
▁숫
▁경기에
이었으나
▁플랫
▁로버트
▁권한
▁선고
▁프란
▁단일
▁예상
▁심각
▁훨
▁역대
▁정도의
▁버스
▁항복
크라이나
▁붉은
▁워싱턴
▁하였고
▁되면서
▁고정
▁되지
▁박사
▁1930
▁현재까지
▁맛
▁노예
▁나이
호의
os
버그
▁세계에서
▁기사
▁나는
▁훨씬
▁36
▁적은
간에
문은
BO
▁180
200
▁시각
지원
▁세웠다
테르
았던
▁오랜
▁출마
▁있었는데
▁북서
가에
비의
▁가로
▁하늘
▁1981
▁브리
기에는
▁발생한
▁조합
▁시티
▁식물
▁얻었다
해진
▁1973
색을
니의
무라
터는
▁투입
▁타고
하다는
▁기반으로
▁왕국
▁했으나
스럽
▁길이는
▁정부가
▁수원
▁보였다
미는
▁형제
▁오픈
체육
로드
▁프로그램이다
▁내에
▁가능성이
▁머리
▁모리
▁차지했다
▁한때
의의
보를
▁투자
▁제작에
어들
▁금융
▁튀
구와
보는
▁덮
슈타
동이
▁이끌고
▁낭
보드
▁신앙
▁율
시설
▁마이클
리케
하마
▁국가의
▁추측
▁맡고
등을
▁없고
[]
▁계급
중앙
생의
▁정복
▁넓은
일이
▁세우
조에
▁광고
▁무장
▁북아
▁개정
▁이탈리아의
▁교토
아버
▁시즌을
▁반복
▁헤이
▁대항
▁오히려
경기에
▁그에게
▁첨
▁원작
교통
령을
마이
▁우크라이나
▁멸망
▁저지
35
▁관심
▁결과를
27
▁듯
▁이중
▁문자
26
▁욕
▁점에서
▁마침
▁만큼
▁1974
▁1940
안에
▁확실
▁뜻을
▁찍
▁구별
다면
▁시간이
▁앞서
타를
언을
소프트
산이
▁힐
▁절대
▁공포
▁니콜
▁주교
▁판결
▁도움
▁솔로
음에도
전과
▁거절
▁요새
▁제출
▁전쟁이
▁지닌
당했다
▁창립
▁함수
▁SBS
세대
비치
▁무기
▁방출
▁천문
op
▁활발
자기
▁러시아의
만은
_4
일로
▁목적
▁오토
▁38
▁융
소와
▁세종
▁전후
▁일본에서
▁스코틀랜드
▁뽑
▁계획을
▁1948
▁됐다
▁아메리카
OS
받고
판을
▁나와
▁킹
나와
리노
▁인터뷰
▁시작한
▁철도역이다
▁생겨
▁원정
▁머물
▁1968
화로
국민
역이
▁살고
▁이후에는
ce
▁1976
▁서양
▁아침
국에서
▁의료
▁전설
▁CD
나이티
▁했으며
▁인공
면이
▁e
▁어렵
리게
차로
▁산맥
▁원주
▁스크
▁거대한
▁단백질
▁지원을
28
▁끝나
▁오전
▁팀을
▁북동
▁논쟁
▁베를린
▁투수
▁차이가
쿠라
▁청소년
▁팀이
▁보는
▁185
▁행정구
이었으며
인민공화국의
▁점을
마의
▁발표한
▁플랫폼
▁1975
▁에피소
▁통제
추어
▁전용
키스탄
▁삭
사인
재를
저우
더라도
▁철학
▁숭
▁사용하고
석은
리우
▁전쟁을
▁이민
으로도
병을
▁세인트
년에서
▁건립
네스
▁공산주의
세와
▁하드
▁장악
▁비록
▁약간
▁주식
우리
ra
화와
리아의
당과
술을
▁식민지
▁통해서
익을
▁음력
▁합의
스러운
▁타이완
▁롯
▁1971
▁고등
▁1978
▁은하
▁래
제국
▁상당히
ter
▁붙여
▁도달
프레
법이
▁이르는
만큼
▁없다고
▁강제
▁대표팀
▁기자
▁부활
▁1963
▁포함되어
▁이른
▁이야기를
▁대비
안의
치에
▁유나이티
국가
지며
▁오래된
▁병사
▁에어
산에
렸고
▁트레이
▁삼각
▁그것을
▁양성
▁지낸
이와
에트
▁청년
▁반영
▁금속
▁되면
29
▁온라인
단과
▁이유는
시티
▁겐
경은
로그
▁위해서는
▁신인
▁취급
▁컵
▁취득
류가
리트
▁해당하는
▁각본
▁미드
▁이제
형으로
분이
노동
▁플라
ST
▁약속
에게서
▁청나라
게임
증을
▁일으켰
▁레드
▁In
▁하나님
진은
▁작전
라를
수록
▁아파
▁주어
▁남서
▁1969
자들
▁시간을
▁건국
▁150
▁출입
500
▁지식
▁벨기에
▁랭
▁처음에는
세로
▁그런데
지인
▁강의
▁보냈다
개가
▁높아
▁주고
▁무엇
▁혼란
▁운용
교를
▁Z
였으나
▁미나
국제
히는
▁사망했다
지이다
▁방법을
▁건조
▁공화
▁보아
메리
▁한번
연맹
▁거래
▁육상
▁1946
▁아테
▁독자
47
▁부임
▁자격
▁전라북도
드시
▁댄
▁의회
▁반발
▁해서
의회
▁400
▁올리
▁그레
리즘
지자
크를
▁대공
왕이
▁갤
▁백작
선으로
▁생명
▁호텔
▁동의
▁역을
▁잇는
▁웨스트
▁스티
▁얻어
기에서
러는
전문
▁슬로
▁이용한
음이
▁넘는
▁간단
석이
▁코미디
▁대략
ri
▁말레이
▁모여
▁대성
▁두었다
▁사건을
▁속한다
▁작품을
▁보조
▁빠른
생을
▁하면
▁이용해
▁경계
▁명이
▁포기
마르
▁개시
▁프리미
▁경성
스케
▁동남
누스
▁공식적으로
리나
▁1964
▁좁
▁받지
▁소수
▁미니
▁때부터
▁써
니아의
▁미디어
플레이
▁이것을
시스
아이
▁코로나
▁국도
▁후에는
_5
페이
▁방향으로
▁규칙
▁발표하였다
▁상륙
▁알게
▁장식
고는
론의
▁영입
▁경주
▁번째로
데이
▁흡수
기압
▁부터
▁활동하였다
▁노부
▁부상
모를
▁의존
▁시작하여
미가
▁켄
▁고용
▁그러한
분류
▁트로
▁후지
▁도망
▁준우
▁포위
▁히데
▁엔터테인
▁경기는
시킨다
타는
▁뜻한다
▁도중
▁버전
조합
머스
▁만주
▁and
▁렌
번째로
▁곳에서
▁쫓
▁않았고
▁행성
조사
마트
▁탈락
▁인도네시아
▁하나는
라와
▁것처럼
▁시작으로
▁벡
▁34
▁수상했다
▁공통
▁종류의
국으로
통신
▁트랙
▁논의
▁한반
앤젤
▁이들의
▁챔피언스리그
미의
▁거리
▁전주
▁김영
▁유사한
▁박정
▁선보
▁프로젝트
nd
▁기록하였다
▁출연하였고
뿐만
▁빠져
▁전공
▁체계
▁수사
▁국제공항
▁논란이
oc
▁베이스
▁수송
▁기록한
율을
igh
▁분쟁
▁이뤄
▁역임했다
▁보컬
▁생긴
▁1977
▁개최된
미를
th
▁수집
▁해에
▁보장
▁1949
▁불법
▁아들이
▁사태
명에
티노
▁진입
▁카르
▁탈출
동으로
차원
고속도로
식에
▁때의
▁앞에
▁피아노
▁이집트
베르크
▁고속
▁출신으로
▁집행
박물
▁총독
마을
▁각각의
▁프로세
▁자살
▁받게
▁데이비드
36
영은
▁보낸
▁콘서
▁선수가
▁제이
▁로스앤젤
차가
종을
▁공을
▁법칙
▁전철
▁특별한
ation
▁벼
▁했던
▁주둔
▁지니
▁검찰
▁피해를
▁기술을
▁도시로
▁그레이
▁대수
▁승인
▁헨리
▁1962
▁꼭
▁대학교에서
▁합격
바라
37
되면
▁g
▁활동했다
파는
▁탁
▁라인
▁참전
▁FA
▁채용
물이다
▁신성
터를
▁SK
▁가을
▁맡아
▁군대를
하였지만
▁브루
▁태어났으며
▁지키
▁운동을
르가
▁다르다
▁중이다
경이
미야
시에서
론은
▁어떠
▁총리
▁v
▁요코
라이언
▁공개된
아는
▁예측
▁말았다
▁37
▁이전의
▁1967
▁성인
▁달라
진의
▁빠르게
▁사건이
해도
▁국무
▁소녀
▁응용
적의
등이
▁열렸다
▁발매된
제와
▁킬
통을
▁사용되고
▁쥐
▁진압
▁동원
▁관할한다
행위
▁창조
▁것이며
▁제대로
▁지붕
▁롯데
▁반드시
없는
▁상승
▁잡아
▁소비에트
▁갈라
▁서비스를
▁깊은
▁방사
▁요소
▁돌아가
▁명명
▁셋
들이다
▁콘스탄
패를
▁1.
▁아사
구에서
▁출간
▁까
▁플레이오프
▁생존
▁선교
▁지어
▁가서
▁승진
▁외부
▁선거에서
▁기대
▁i
▁등급
▁장관
드라
▁능력을
▁에도
조판
리히
▁리더
▁중세
98
▁목표로
ER
▁층
▁자이
▁학문
▁아들로
▁여기에
▁왕국의
▁모아
▁오페
▁장군
프를
▁문헌
▁다수의
▁천연
▁구속
▁불안
▁발견된
▁임진
▁챔피언십
▁마케
▁늦
▁강점
▁복합
▁진보
실은
▁스미
▁평가를
▁내의
현의
▁끝난
▁좌우
▁서버
▁운전
▁라고
▁후속
▁연출
▁대기
▁배출
▁맞이
▁마지막으로
▁주관
▁남은
%,
에만
▁엠
곡을
▁꺾
▁톰
바로
▁둘째
▁소장
▁공군
▁독특
▁자녀
▁US
▁아미
▁왼쪽
리우스
▁알려졌다
▁정책을
▁존재하는
▁나치
▁농민
▁지급
▁최다
▁엄청
▁변경되었다
조로
ap
▁썼다
주의를
▁경우는
공사
▁연재
▁나타내는
▁치러
▁변환
▁가졌다
▁그와
겠다는
기까지
었다고
▁틀
공화국
▁파악
▁작품은
방을
▁전파
▁이후로
▁파라
▁라는
퍼드
▁저작
브라
▁목소
▁해양
면으로
▁받았고
▁형태를
▁1966
기간
▁쓰는
▁방영된
▁PC
리적
▁소년
▁이시
▁진화
▁지냈
38
▁창단
▁동작
안은
▁사법
▁세력
▁일부는
장인
▁이성
상태
명과
▁어떠한
타르
▁차별
▁지방의
▁우려
▁들어서
▁되자
부인
▁레오
▁1965
▁포도
46
▁않으며
▁향상
▁자신들의
터리
▁시카
▁일찍
▁베스트
▁국경
95
▁시즌에
▁한국에서
질랜드
▁제외하고
▁덧
토리
▁KBO
루는
▁합성
▁연구를
▁미야
▁체코
항을
▁풍부
▁정확한
선과
▁많아
▁대부분은
▁받을
▁계기로
▁그들이
▁양자
▁빼앗
▁차트
▁군주
▁일정
▁신뢰
섰다
▁개발한
평가
▁학습
▁위반
세한
표를
▁트랜
▁흉
들목
요시
▁없다는
▁횡
ON
으니
▁교환
입니다
기념
▁시에
▁오른쪽
▁해산
▁미군
▁켈
▁하였으나
▁것이라
리다
크가
▁반도
▁학위를
▁글을
▁국회
▁개신
린은
▁인기
▁실질
▁스페인의
레오
▁조작
락을
▁닥
▁관료
▁You
▁리처
▁늘어
▁전통적인
게는
▁점점
▁효율
▁세르비아
▁하였으며
▁Q
디션
▁갖는
▁이다
▁아버지는
▁검사
났고
▁55
주의의
▁작품이다
건을
▁헤르
되었을
-20
▁1961
사단
조직
ice
망을
복을
▁김일
▁완공
▁1000
▁택
토의
원이다
▁대통령이
▁3,
▁묶
겠다
▁분할
▁이룬다
▁성능
텐츠
▁로켓
▁무덤
▁민주당
▁지금의
▁제어
▁받는다
▁되며
▁분열
등의
계획
▁조별
▁마침내
▁팝
일과
▁것이라는
▁명확
▁연관
▁니시
▁노벨
▁오스만
▁홋
류는
75
해가
▁조절
▁둘러싸
▁역사적
ak
est
▁수영
▁올려
▁올랐
화되어
▁감독이
▁프로그램을
▁기록이
▁테이
진이
▁성적
산시
신으로
▁의미를
▁독립운동
▁주장하였다
▁동성
▁페이
▁보관
32
▁보안
▁예비
▁바라
치아
▁사우
고의
온은
▁지내
▁뉴질랜드
그라
책을
▁음식
사관
▁회전
▁샤를
▁성을
▁포함하고
▁상품
▁감독을
▁나이로
투스
사무
인도
▁마이크로소프트
▁동아
▁활성
마는
▁아라
▁사립
▁부산광역시
▁훗
▁특이
▁갔다
▁이루어졌다
▁완료
▁교육을
▁릴
천시
▁스탠
▁페르시아
▁반대로
▁새겨
▁단독
ia
▁인접
AR
비스
토니
▁학술
▁1919
코는
▁마치
▁신청
▁한정
▁있음을
왕은
판이
▁스위스
▁나뉜
▁느끼
연히
임이
산화
시험
자료
▁문제로
▁예수
으로서의
▁사단
▁스프
▁이후의
▁포함한다
-4
질이
▁삽
▁테러
▁출범
▁통산
▁처형
민주당
▁모양의
▁빅토
▁하나인
▁김정
▁관계가
▁그렇게
▁말에
▁쓸
▁연대
씨가
▁영화는
▁주전
자로서
소송
art
▁일치
사우
▁대개
▁위성
92
▁지은
하였던
▁프로듀서
▁황금
▁나왔다
▁1944
드레
▁도쿠
▁메시
▁작업을
하였다고
이므로
들로부터
보살
방의
ie
▁개막
▁함락
름을
▁적절
▁나타난다
부터는
오스
▁간행
뮤니
▁흘러
▁충청북도
니가
▁의무
▁방법으로
▁포함하여
▁가스
령이
한국
▁장치
▁향해
▁크고
▁형사
▁경제적
▁75
학에서
차는
▁거두었다
야구
▁불렀다
▁역이다
▁구현
▁오랫
▁꼽
▁시리아
▁조선의
▁코드
▁어린이
▁활동하고
개로
▁역은
▁48
▁스카
▁항성
▁의혹
▁1941
31
개혁
지컬
올림픽
▁메인
로마
시키기
▁취소
▁훌
▁캔
▁없으며
▁제공한다
재판
▁IS
▁후보로
▁창원
▁프라
▁급제
▁저서
시리즈
▁당시에는
▁아스
▁차이
▁제작한
▁훗날
96
학은
레인
34
▁쳐
천군
각을
▁인지
이센
▁그때
▁터미널
▁통계
들에서
▁뜻으로
▁감독으로
터가
▁성향
했었다
▁마크
▁질병
▁부르는
▁선정되었다
행정
▁상당한
스포
▁인종
▁추천
▁유행
▁덴마크
▁오랫동안
▁가나
▁근본
▁네이
고기
▁발굴
▁소속으로
▁만들어졌다
▁잉글랜드의
▁이하
▁중인
▁쓰고
자들에게
무부
▁역으로
▁음악을
▁사람들의
▁누구
▁지상역이다
▁합쳐
▁분위
▁지금까지
▁퀸
og
▁규모의
▁예정이다
▁혐의로
위와
▁무너
사이트
▁띄
▁주택
무늬
우주
색의
▁당초
▁공업
교는
▁시작된
▁목록이다
에이
▁1958
ly
▁샘
주었다
▁이름의
▁호는
거운
▁출장
카이도
터의
▁실현
▁소송
▁코파
화되었다
▁명을
▁속한
메리칸
▁DNA
▁쓰이는
▁주지
▁골든
▁고문
여서
;/
▁1947
▁찰스
▁보병
▁프리미어
▁알파
▁경우에
▁고속도로
▁해리
▁영상
▁플래
▁밀도는
ne
▁내용은
▁뜻하는
▁입장을
▁후기
▁발견되었다
▁희생
였지만
▁|
▁직업
▁1956
▁개입
▁기둥
리그의
▁언제
▁이르러
▁시작한다
▁출시되었다
양을
▁다다
공원
-5
▁아이돌
▁로스앤젤레스
▁재배
▁편찬
현은
▁텍사
▁펼쳐
네이
▁안동
화한
▁승객
비로
▁혼합
▁빙
론이
카는
▁졸업하고
▁등장한다
▁무시
▁세계의
▁마무
▁발발
▁가지는
고가
레옹
▁Ch
▁죽었다
▁공헌
▁안에서
▁부대
▁골을
▁접촉
▁침략
64
AT
성군
▁프린
▁연산
▁일부를
▁아르헨티나
▁국민의
▁하위
쿠스
▁높이는
▁바깥
▁지켜
동맹
▁유기
▁자극
▁뚜
▁프로그래
인들을
▁번의
▁마르크
▁변화를
▁받아들여
슨의
39
▁처벌
체스터
이었지만
총독
▁2.
▁크로아
▁저술
미니
▁중화민국
▁픽
치게
▁길을
루가
▁l
중의
▁사임
▁제일
▁올렸다
▁고유
▁확립
▁침입
ab
▁최우
BA
▁성적을
동과
▁망명
▁화재
내에
▁상위
▁Re
▁아티
▁구역
▁도와
해져
▁지시
▁섞
▁콤
르기
▁1939
▁철수
▁독특한
▁새롭게
로와
되었다가
▁심각한
▁이들을
▁대한민국에서는
▁유일하게
왜란
▁사냥
▁주최
영의
체와
▁곡을
▁나들목
▁확률
▁앉
라며
정과
▁기울
▁기회를
▁+
관계
▁미사일
▁k
▁가치가
▁단편
▁시위
▁거듭
▁정기
함과
▁다스
▁부분을
▁진행되었다
▁얻은
▁조종
▁일본에
▁가담
파를
▁인구가
1,
격한
76
▁h
안이
▁신호
se
가타
▁나폴레옹
IV
▁뜨
▁분명
▁임대
▁상황에서
▁주어진
▁갔
석의
▁왕조
▁작곡가
▁촌
트릭
ist
▁다운
▁받았으며
고등
▁않게
▁군의
▁사용된
▁묵
▁저녁
▁극장
기록
▁곡은
▁공연을
▁캐나다의
▁멀리
▁화물
▁정지
스럽게
ight
▁대표하는
식과
▁지역으로
▁임금
▁부상을
▁놓고
▁진주
▁어려운
▁이기
▁지위를
▁1954
▁제공하는
85
▁상태로
99
치와
디움
▁도요
▁인권
▁상대적으로
▁부하
목록
▁매일
▁등판
▁어디
▁금메달을
층의
▁방정
▁미드필
▁스마트
▁대리
▁임진왜란
베르트
디는
▁중에는
실의
▁구글
▁코르
▁이루고
▁노래를
야의
▁to
▁잡지
AS
▁1952
86
▁AFC
어야
▁로드
▁어깨
스트로
례를
▁보았다
타운
▁전형
연을
▁심지
▁행동을
▁닌
▁총선
▁가문의
▁앞에서
▁닛
▁교향
프랑
▁다케
되는데
▁다르게
▁명칭은
▁브라운
▁노출
▁후계
▁편이다
함이
우의
▁긍
론에
▁활약을
▁사람들을
▁내렸다
에른
▁따로
양의
▁절반
▁준다
▁자리잡
▁해당한다
▁나아가
▁인쇄
▁정비
▁드라이
▁아테네
카가
▁도모
▁곽
티오
▁하에
▁나타내
▁바뀌었다
▁후원
하지는
▁내셔널
▁유형문화재
▁으로
▁유럽의
▁돕
▁와이
관과
▁타임
▁안드로
▁선생
▁특정한
속에
아르
색으로
▁일으키
▁영웅
▁군이다
▁연결하는
▁득표
어이다
자키
▁만들고
▁미드필더
▁벌어
한의
▁장교
시장
▁해야
법으로
강의
▁연구에
▁설립되었다
츠는
▁알바
▁헝가리
▁폐쇄
▁피터
▁사업을
▁시인
▁효과를
▁정차
슬러
주의적
▁보유하고
포를
▁가와
▁평안
▁단계
▁들고
▁장남
자유
▁인디언
구이다
족이
▁루이스
▁상하이
베스
▁포켓
▁다수
▁재건
루를
▁그래픽
▁서울대학교
타의
▁다소
▁상을
;,
보고
▁추구
▁현역
되었다고
▁계통
▁리버
▁나뉜다
▁포항
물에
구치
▁한글
▁듣고
▁천주교
94
_6
▁노스
▁싱가
파가
▁조선시대
▁맡은
히고
▁시나
▁관여
데르
▁반란을
▁설치된
▁학살
▁이혼
▁데뷔하였다
▁1959
▁행위
▁아름다운
▁시상
▁변형
▁설득
미르
정치
▁카드
▁대회에
▁돼
▁단위
▁법정
▁탈퇴
▁커뮤니
▁대부분이
었기
▁두려
▁박정희
▁주장한다
▁프로이센
▁전직
▁사운드
▁단지
▁관련이
▁사망한
▁팽
▁돈을
▁한나라
하므로
▁소련의
▁필요가
▁김대
▁블라
▁다음의
▁발생하는
▁엄청난
▁참여했다
▁지도자
동생
혁명
▁동해
▁시스템을
▁존재하지
▁투쟁
▁세력을
▁일시
▁분노
별로
▁경남
▁현상
▁무한
▁여객철도
IA
▁중부
▁프랑크
▁랜
▁영업
▁선전
ove
▁앵
▁64
▁개신교
▁가진다
▁앤드
▁원소
▁바이에른
▁그로
▁나누어
▁유한
▁몰아
▁시리즈의
▁일어났다
▁사실이
▁작품으로
▁기다
▁뮤지컬
▁여겨진다
주고
▁개설
제에서
▁160
▁도시의
▁데에
▁올림픽에
강에
▁의심
▁더블
치지
▁나고
▁미국과
련의
if
레나
▁개조
▁1942
▁겹
▁돌아와
▁공사
▁부친
차전
키가
ess
▁오직
▁춤
▁라이트
▁벗어나
▁적합
▁홍보
▁지금은
▁뮌
비에
▁해상
▁참가했다
▁운영하고
점의
...
▁성공을
▁테스트
▁행렬
카의
리며
▁전까지
페르
▁신학
▁공화국의
▁광복
▁에르
▁통상
▁대통령은
▁에드워드
▁나타낸다
▁군인
▁역사를
▁곳으로
▁프로토
▁벌어진
▁한국어
▁녹색
▁내용이
▁리처드
▁파트
▁해도
공의
키의
▁맞아
▁세상을
▁음반은
▁발탁
ub
속의
▁NH
마를
▁가이
VD
-19
▁시카고
▁크기
▁소방
▁120
▁프리드리
▁1943
▁정치인이다
▁완전한
▁연예
가시
▁대통령의
▁소멸
▁깃
100
▁기록은
후에
▁김성
▁주간
▁이로써
▁필요하다
▁가게
타로
루의
질의
대장
▁전력
오의
▁일컫
우가
▁못하였다
▁루마
▁못하는
33
▁웅
▁루트
▁자전
▁초기의
▁갖추고
▁바닥
즈가
▁1953
▁프랭
▁수요
▁나타나는
ine
에서만
▁비례
▁전부
격으로
▁않지만
▁말레이시아
▁출연하였다
담을
▁자리에
▁1955
▁정교
▁재개
▁있었다고
▁밥
▁높다
리언
▁있었기
▁스케
생물
▁특징이다
▁파르
▁일어나는
리안
▁한일
▁희망
▁굳
▁징역
▁떠났다
▁1936
▁비상
었을
▁승려
▁전면
듯이
범위
▁도전
공산
다의
▁병합
▁화성
토는
▁살인
인에게
▁첼
보호
▁음반이다
▁39
▁주장을
▁레알
▁궤도
부대
▁빌보드
▁화이트
▁쓰여
▁연고
▁점이
▁여섯
▁잠수
시스코
라에
▁동안에
▁이른다
▁1910
▁대체로
문제
▁오프
▁이끌었다
직에
▁지지를
▁선박
판은
니스탄
▁보여준다
78
왕을
▁문을
▁인용
▁파워
EC
▁눈에
▁왕이
▁끌어
▁시사
▁스키
▁천안
▁개칭
▁논문
▁남아프리카
▁무게
파로
▁즉시
▁일정한
▁민법
▁사마
▁발언
▁사용하였다
피스
▁얻을
▁참가한
ue
▁속의
▁창작
서와
▁전쟁에
▁남쪽으로
▁이후에도
틀러
▁구입
▁대장
▁석유
▁부분이
▁힌
코스
▁속해
▁책임을
▁조선총독
65
▁즈
▁패션
소설
▁스티븐
▁세계적으로
▁선수단
자동차
="
▁남겼다
▁크리
되어야
▁카운티
▁Th
바일
ive
▁임의의
▁긍정
▁사건은
▁느낌
▁신체
▁위로
관에서
▁집권
거래
▁가슴
▁심리
▁정권
▁되는데
▁AT
▁65
▁액션
남도의
▁1957
제도
중을
▁초에
▁원주민
▁선임
▁기록하며
▁조지아
종합
▁구매
▁넓이는
족은
▁사용했다
독립
▁전쟁에서
감독
▁로마의
▁메이지
▁정체
평균
만으로
▁아들인
▁명령을
▁수상하였다
▁텍사스
중학교는
▁부진
▁순간
▁노르웨이
▁말하는
학자들은
느냐
▁김종
▁도덕
▁쿠데
▁티베
▁명나라
▁사우스
▁호소
▁지속적으로
▁게다가
▁종사
▁상황을
▁빚
▁SS
▁짜
▁동방
▁기소
▁태국
▁핑
▁다음날
처를
▁양의
▁지니고
▁1914
산과
영을
▁시드
▁일부가
▁이전에는
코의
▁보건
▁연습
▁방식을
▁분해
▁이상이
▁포스트
▁닫
▁츠
실이
▁비롯하여
목을
▁밀려
▁영화배우이다
백만
▁바르셀
▁이들이
호에
▁개체
▁동북
▁타이거
그램
▁어머니는
▁그것이
▁무사
레는
장애
행성
여래
▁바둑
▁곳이다
년부터는
공을
▁똑
▁왕의
평을
▁임무
▁의학
▁전남
▁전쟁의
▁도시이다
▁이름이다
활동을
전투
년도
▁선출되었다
▁달려
과대학
받는
▁만든다
▁돌려
▁터널
▁가치
학교를
▁기록되어
▁미쓰
▁다리
▁디스
▁투어
▁권력을
▁외국인
▁분야에서
▁표면
▁화려
▁나온다
▁후쿠오카
BM
▁암컷
▁1938
미술
마가
부장
▁전북
▁추가로
▁권력
▁동양
89
▁세웠
▁부분은
▁강릉
▁복원
▁운영하는
린의
▁자이언
▁북쪽으로
▁드래프트
▁섬의
▁수의
▁멘
▁없을
▁완벽
▁문제에
▁미국은
▁방해
▁글로벌
▁남아있
▁파크
▁공중
▁만한
▁장수
▁책을
▁알고리즘
만한
하시
▁여러가지
▁보스
▁유효
▁않으면
▁47
IN
▁이르렀다
▁올림픽에서
▁큐
▁연간
▁불렸다
학자이다
▁1900
▁수석
▁밝혀졌다
▁갑자기
▁로봇
▁힙
▁작동
▁위치를
▁방지
▁상태에서
▁크다
▁롱
▁만다
▁출전하여
청은
▁전송
▁나타났다
가인
감이
▁탐사
▁IC
중한
▁농구
▁맞서
환으로
▁초기에
▁지구의
▁사퇴
▁번호는
▁브레
즈를
▁복무
▁자금
사이다
▁의식
▁재학
▁복잡한
▁차지하고
▁수리
▁싸우
▁들어갔다
▁추기
▁벡터
▁알레
▁그리하여
▁46
▁내세
▁물을
▁서구
사람
튜브
너스
▁공주
▁싸움
▁측면
했다가
▁상속
▁포켓몬
▁1951
▁본질
▁게임을
▁검토
우를
클리
▁마무리
▁받아들이
계약
▁해발
▁1918
츠의
▁여성의
▁이른바
다란
▁청주
▁프리드리히
▁44
▁1932
▁선포
달러
호와
▁내놓
▁대한민국에서
▁윗
▁후임
되지만
▁아래와
▁올스타
▁서술
▁유학
▁특성
분으로
더스
타마
▁향토
▁개별
▁유치
▁스트리
▁이루는
▁되돌
베리아
▁근처에
▁1937
지마
▁대량
▁소식을
all
▁꾸준
▁말이
▁히트
97
모가
▁조카
▁협회
▁디스크
동물
역과
슬링
▁순위
pe
▁광범위
▁접한다
씨를
▁그곳에서
▁나왔
▁비트
▁형식으로
렸으며
▁문제는
our
44
어버
월의
▁따서
▁대의
▁덧붙
▁AP
▁강등
▁없게
포로
▁토지
▁발간
강을
열을
ore
▁화산
▁당시에
▁연결되어
▁아메리칸
▁달하는
는지
유가
▁히로시마
사전
발을
▁아이디
비시
양이
▁포트
▁일으켜
▁란
▁직원
▁아오
▁고위
▁폴리
▁1935
▁격파
집을
▁이웃
▁일은
에선
▁HD
▁성남
▁전투를
▁확산
▁능력
▁이명
▁방법은
▁사용자
렬한
천만
▁화합
크래프트
▁뮌헨
▁클레
▁조건을
특별자치
▁성경
▁최우수
▁토론토
▁드래
▁갖는다
너는
▁한자
▁개념을
쥐는
펙트
조차
▁스프링
▁핫
▁아버지의
▁십자
주의자
▁유배
▁영국에서
▁상실
▁언덕
비히
▁엘리자
중인
▁이라크
군에서
율이
▁기병
▁끝내
▁단순한
▁필수
▁항의
환을
▁대상이
▁위에서
▁추방
▁등장인
▁배포
▁폭탄
▁개방
▁왕조의
ID
▁사랑을
▁캠퍼
▁하기도
3,
▁암호
▁직전
친다
▁주기
하여야
▁양쪽
▁세부
파와
형에
▁현지
▁크레
▁하여금
됨에
▁상관
폴리스
87
기지
아나
▁카라
가락
▁오페라
▁사건으로
름이
니즘
▁태양의
▁계속해서
공간
▁입고
▁넷
이닝
▁참여한
▁화장
▁전동차
▁후인
▁역임하였다
아서
▁칼리
았으나
▁사람들에게
로에
▁충분히
▁쌀
목에
▁단어
▁명단
▁유고
▁내가
▁서쪽으로
유를
되게
▁개인의
▁권리를
법인
본부
본을
▁이온
▁중학교이다
▁독립을
▁덜
▁특징을
▁회장
하기를
▁가까이
▁겉
슬라
▁갈색
▁탄핵
▁업무를
▁전문가
▁했는데
보이
스트라
▁텐
▁열차가
조건
▁지향
▁그들을
▁1933
비와
▁장소
▁동쪽으로
▁곱
바는
▁거짓
▁자원
▁신도
▁분기
▁최대의
▁수십
▁성직
▁대표로
ul
파이
▁개국
ell
▁사전
▁미리
▁클라
▁본격적으로
▁좋지
▁인도의
▁사회의
▁몸을
▁수소
▁명칭을
▁반응을
▁42
▁흑인
제르
항은
▁보편
▁1928
▁나라의
야는
▁그라
▁우리는
신문
관광
▁포함하는
▁인천광역시
과정
▁고객
나카
▁보물
IC
연대
▁오카
▁체육
▁우수
▁걸친
되거나
▁별도의
서양
▁재능
▁탄압
▁메달
▁크루
목으로
▁프라이
민의
이상
이치
▁커버
▁마음을
▁아래에
▁마틴
▁1924
▁결의
▁알리
▁밝은
신인
▁산화
▁유나이티드
▁준우승
▁오키
▁앞으로
▁재임
▁의미하는
▁멈
▁삶을
▁손을
▁돌아온
우스는
▁제도를
▁골드
▁단순히
▁쾌
령의
▁CP
▁이어지는
▁바르셀로나
▁웨일
▁교류
▁상태를
비트
베리
▁낸
▁모바일
마에
▁위키
▁스타디움
▁연료
▁입장
▁가깝
▁억제
▁스탈
▁노선을
▁임무를
▁4,
ill
▁분자
▁상대식
기인
ain
코프
▁지불
▁웃
▁행복
즈니
무장
▁넣어
▁무대
▁일으켰다
실로
▁로렌
▁DVD
▁뻗
키퍼
투아
▁수컷
▁기본적으로
결승
▁집에
▁출연했다
였는데
▁보이지
모는
▁오다
▁원인이
-10
▁한성
주의는
▁포함된다
테이
▁가상
▁서서
▁역사가
재로
▁56
▁개척
▁이재
▁작사
▁인기가
▁출신이다
조참
▁고종
▁중추
▁영화의
▁함경
▁가난
군에게
당으로
▁있으므로
로서는
▁자라
▁차단
▁북아메리카
AM
▁재생
학에
▁정부에
The
▁예산
안전
▁조선민주주의인민공화국의
▁부동
▁기상
▁토착
▁하인
계와
해에
▁교회의
▁강남
방향
▁이상을
88
가능
차의
하를
▁드물
노스
▁경향이
▁역에서
▁위원회
▁비잔
▁경기가
▁모토
▁영구
국과
클레
▁체제
미아
▁도서관
▁Be
▁입력
▁비판을
같이
스팅
와이
층에
▁하나가
▁보여주는
-6
AN
▁검색
▁Al
▁구멍
▁성공했다
▁며
슬로
▁엑스
▁칠레
▁유통
93
▁놓여
비디오
▁그렇다면
▁일련의
43
▁풋
속은
노는
▁가설
▁되기
▁대부분을
▁상주
▁그녀가
▁용인
리브
▁거느
▁아버지가
▁양산
크와
▁뛰고
▁보험
▁사찰
▁이외에도
인인
ard
▁수술
▁실천
▁자랑
시스템
▁리그의
▁콜롬
ers
▁멀티
▁골키퍼
▁신의
하기에
법과
▁카운티는
▁생태
드리아
▁꼬리
▁짝
▁조선시대의
▁나뉘어
침을
▁아동
▁지중
▁노동자
▁대다
프란
▁사람들
▁틈
▁초청
다시
석탑
▁대대
▁상하
▁최근에는
지면
▁팔레
▁콘텐츠
▁주장하는
▁개찰
▁순환
▁도서
▁철거
▁1934
▁덩
▁마주
▁벼슬
▁안토니
▁시작했고
브로
르를
크스
바의
용을
▁이즈
▁주력
▁소프트웨
환경
end
▁크로아티아
중이다
프라
▁프로그래밍
▁고급
▁남녀
▁파키스탄
▁인구의
▁가수이다
▁일상
▁지리
▁현존
중이
▁이벤
▁그러므로
힌다
▁이외의
▁{
▁마감
▁아틀
OR
▁발음
▁코치
▁줄어들
▁열매
▁일종의
▁이적하였다
▁사건의
▁웹사이트
프가니스탄
41
▁본다
▁맨체스터
▁미국으로
▁원시
▁청구
▁명으로
42
▁\
▁보스턴
▁사막
▁위상
▁대동
하라는
▁블록
▁배경으로
▁공장
▁식품
▁신화
▁이익
▁에피소드
타카
▁공산당
▁메모리
미사
▁대법
▁이용할
▁말로
▁탓
▁톱
▁입은
▁상호작용
▁복음
▁환승
성에서
▁죽음을
▁백제
▁전화
▁위대한
우라
▁병원
름은
▁소득
▁우리가
용의
▁편의
공신
타가
▁특별히
보로
스피
▁타격
▁진격
▁바이러스
▁핸
▁주에
인가
▁강요
▁De
▁남극
▁올해의
▁모터
▁열리는
▁요코하마
대문
▁입법
▁혼자
절을
프와
▁포함되었다
▁오는
▁신고
▁게임의
▁이어서
▁사가
▁주된
▁보냈
▁적극적으로
▁매장
▁젠
▁수호
▁진학
▁마드리드
님의
문이다
원숭
▁뚜렷
슨이
▁혈액
▁펑
판에
▁수를
▁속도
▁가마
▁경북
▁그리스의
로지
보통
▁가속
▁매주
리티
▁Me
▁교차
▁아리
▁박물관
▁영토를
▁들면
보험
왕후
▁기도
운동을
▁소속의
▁홈런을
▁백성
▁r
년경
▁감시
▁오버
▁할아버
▁아티스트
지니아
▁대학교의
▁비공
▁홋카이도
브레
▁가치를
나르
치오
▁변호사
▁베어
▁선호
▁새끼
▁대학의
▁북미
▁세계대전
▁정식으로
니와
▁집필
▁원래는
발전
▁힙합
릭스
▁담고
▁대화
▁호주
▁도쿠가와
심이
▁위치에
의가
▁드라마이다
▁끝으로
▁갖게
▁질량
▁개량
▁쓰러
▁랑
▁소집
보다도
체인
▁43
▁유력
전자
▁싱어
령으로
▁알렉산더
▁닉
▁1931
사지
행이
▁일단
▁화가
_7
▁x
▁일원
▁공개되었다
▁MS
▁수도권
▁초기에는
▁셔
식에서
55
함은
▁우에
▁영향으로
모의
▁권리
▁생애
▁사건에
▁까지
▁물려
▁후퇴
마뱀
치기
현을
▁대원
배를
▁오이
향을
▁동서
▁콘스탄티노
▁훌륭
ang
▁다큐
▁지칭
▁부드
▁싱가포르
▁구사
▁장비
▁목숨
▁집을
작으로
49
하에서
무네
천의
▁부담
▁강하게
조와
▁발레
▁커다란
▁사도
▁크라
▁필립
관계를
▁의정부
▁데이터를
등급
기이다
자이자
라면
▁자가
▁방송을
사랑
▁소화
플로
▁OS
▁영화를
▁작품의
결을
일리
▁정통
오로
▁주재
▁나고야
통합
란색
▁첫째
▁기반을
대신
▁개명
필드
에서부터
▁부르기도
▁강을
▁발표된
대부
▁시가
▁인상
▁1921
▁축소
▁WW
율은
▁약탈
▁살아남
▁1929
IS
▁하느
▁붙어
▁경기장
▁이론을
▁600
▁3.
다이라
▁감독은
▁갈등
▁대변
▁심지어
▁소리
▁국정
▁새벽
▁또다른
폴리
훈련
▁멸종
▁연평균
-7
▁발휘
▁아프가니스탄
면과
▁타워
▁부르고
▁농촌
▁멜로
▁예방
▁근육
▁열었다
▁이끌어
어에
▁이념
▁1925
로써
▁상황에
▁김해
▁막기
▁명시
한다면
▁정확히
▁처음에
▁집안
카르
▁센트
▁당나라
▁클리
근혜
▁메탈
드라마
▁행위를
▁수준의
▁용어는
곡은
▁맺고
▁안내
▁연안
▁치렀다
▁상태가
▁논리
드르
▁몬테
▁1923
▁후에도
물과
▁보르
▁사다
▁많았다
▁루마니아
ew
▁발전을
▁일본은
졌던
▁군대
▁부속
▁중성
주의와
▁공기
▁구성원
▁딜
비행
편의
▁웨이
▁트라
▁문재
▁산하
▁자매
▁발매한
▁반대하는
버드
▁몸무
▁영양
았는데
▁불가리아
▁발표되었다
▁인터뷰에서
▁늑
건의
▁어두
▁메트로
▁스웨덴의
점과
▁가끔
▁게임이다
▁그만
▁허락
▁빅토리아
ity
▁군사를
국인
▁승부
▁그럼
체이다
▁미국에
▁게르
▁나타난
고리
청년
▁관객
▁쏘
연의
주군
▁잠재
▁서명
호선의
경기에서
권과
문과
▁적도
어에서
▁압도
▁제후
▁종이
령은
▁하던
▁남아메리카
▁가고
▁혼인
▁170
▁유전자
▁바이러
▁리그에서
▁전형적인
▁공원
▁동반
▁해협
았지만
▁오케
▁유발
▁보이고
▁주변의
▁세리에
▁기여했다
▁카자
▁파울
▁그려져
▁폭력
▁결승전
위원회는
▁시모
▁정수
▁닮
토미
▁증언
▁관계에
▁올라가
즈와
수도
▁실내
▁영원
▁퀘
임은
▁트럼
▁않기
▁800
▁관해
▁필라
▁맺었다
년까지는
-8
▁세계를
▁람
포스
▁영향력을
실에서
리코
밀한
▁사람이다
▁개장
▁동경
▁철저
▁방송된
이면
te
▁전체를
교도
▁민중
▁소스
▁서울시
▁1,000
자나
▁착용
민은
▁동굴
▁정치인
희는
▁말라
당에서
▁참가하였다
▁호흡
대상
층석탑
▁사이트
odice
▁촉진
▁주목을
청의
▁소요
▁원인
▁옵
▁재산
당하고
▁회사의
▁땅을
▁교사
▁독재
▁마그
▁부탁
▁몸길
▁주제
까지도
라이터
시스트
▁이은
머리
▁곤충
▁르네
▁목포
▁섹
▁방언
▁관계는
▁의견을
▁콘서트
▁뼈
말로
살이
▁좁은
단에서
적이며
▁되기도
▁랩
오고
▁비틀
▁추산으로
하면서도
▁대칭
▁데뷔했다
▁플로리다
▁41
▁구원
▁북극
대원
▁스크린
▁재료
▁판타
대사
▁황제의
합니다
▁극복
▁후보가
▁않았지만
티스
시대에
나마
올린
졌으나
▁갤럭
▁레인
▁시조
▁허가
67
▁레지
▁지었다
▁미국인
▁번주
차에
▁감정
▁나이에
▁토마스
니에
▁말해
류에
▁모습이
▁구성하는
▁감옥
도니아
.'
해는
▁발렌
▁다이묘
▁안양
▁동성애
▁성과를
상이다
AC
▁론
▁일곱
▁콜로
▁건물은
▁입단하였다
족을
▁대선
▁유대인
▁1922
▁영혼
▁이미지
갔고
▁만들기
▁되었는데
▁소규모
▁발생하였다
▁고안
이게
토를
▁콜롬비아
▁무릎
ip
토가
▁토너
문으로
각형
▁)
나를
▁가시
세기의
▁차트에서
▁원하는
▁일으킨
됐고
보의
유로
현이
▁와서
▁받으며
91
▁지나지
▁잡고
석으로
▁현상을
▁세월
▁시게
▁1912
ED
▁든
▁영광
케이팅
▁성격을
▁명칭으로
▁손에
▁이어졌다
쳤고
▁마법
▁준결승
▁남겨
되던
ong
스트는
▁꺼
보기
▁유용
▁클라우
▁에너지를
▁중에서도
▁EP
▁맞추
▁서방
▁소형
▁특허
▁본선에
고에
소수
주년
카드
위원회가
▁구성된다
▁원년
우스의
모델
▁없지만
▁힘들
▁스톤
▁운동에
영이
▁클로
아웃
▁했
받침
티움
▁교수로
▁세력이
본은
▁그들
▁넘겨
▁비롯해
▁담은
▁상태에
나게
트랙
▁도쿄도
▁영역
▁음성
▁죽자
▁뮤직비디오
타와
▁도메
▁선조
▁획득했다
꼬리
▁넥
▁불렀
▁체험
▁무산
▁해설
베이스
▁러브
마저
▁스트라이
▁부상으로
신과
▁운송
▁유적
▁설립한
턴은
▁적응
▁대회는
정도
▁삽입
였다고
래의
▁이날
▁블라디
중국
구조
오가
▁다루는
68
▁거리에
▁수직
▁포함된
▁정도이다
▁AC
▁부유
▁도움이
▁자체가
ld
▁그녀를
▁KT
▁엔터테인먼
▁폐지되었다
▁기부
OM
론과
사이드
▁1908
▁입사
▁이었다
up
그래
디스
훼손
▁과도
▁노무
▁토벌
률을
▁적어도
▁야스
▁대해서도
내의
▁반면에
▁끈
▁Se
▁기하
▁1906
보병
▁성질
▁추락
분은
기능
▁쇠퇴
▁de
북도의
▁삼았다
ss
▁코너
▁MV
▁압축
판의
▁감사
▁생기
▁수백
▁규슈
▁시절에
계열
▁세워진
ction
토벤
▁탑승
총리
▁매니
▁박근혜
DP
▁Sh
▁고고
▁윤치
▁없었고
▁한반도
▁결승전에서
▁요금
▁지역이
게이
우고
▁5,
▁곳은
▁발명
▁거리를
ind
▁구로
▁아무런
률이
▁접속
▁석사
▁앨범을
▁의미가
▁1917
▁서기
▁지원하는
▁codice
▁유아
▁레이블
▁1927
▁싫
카스
▁데려
▁의도
▁이행
광역시의
성도
호쿠
페이지
즈키
▁당사
▁뜻이다
▁국가가
▁차지하였다
▁st
▁운항
란다
센트
▁익스
▁빨간
▁그랜드
▁SM
이라며
▁수밖에
▁주요한
▁뱀
프스
▁1907
령에
▁먹는다
▁앨런
▁주변에
ES
▁사로
▁아울
▁이르기까지
▁수반
럼비아
산에서
건설
▁겨우
바다
▁기본적인
▁성과
▁지대
니스트
▁띤
널드
애나
▁모험
치며
터와
▁이세
▁중시
▁맞춰
▁심장
▁꾸준히
데스리가
▁아르메
오리
▁빌딩
▁순서
▁화폐
▁자신은
▁단행
▁토머스
자였던
루미
▁이정
▁밀라노
되었다는
▁금강
▁책은
지구
▁독점
▁인물로
ame
▁포유
▁기능이
▁연구는
▁1926
▁등도
▁망원
▁140
노의
이라면
▁다큐멘
av
▁57
▁있어야
▁모양으로
▁중국에서
▁남양
나라는
▁마치고
▁단선
▁전술
▁히틀러
▁예로
▁상황이
▁이어져
▁수록되어
투표
▁SC
▁급격
▁석방
▁주니어
▁돌아왔다
▁역의
▁우라
▁동일본
▁이하의
바키아
▁보이며
▁들여
▁상의
▁섬에
자들과
▁살았다
▁공정
▁수감
▁전작
▁권한을
▁실업
▁크기가
▁공간을
▁발생한다
▁법적
음은
▁사람으로
년만에
▁일본인
▁차지한다
▁퓨
류와
재는
▁리드
▁사촌
▁심사
▁페이스
▁현대의
▁경전
▁메리
▁유입
▁이종
에게도
▁모노
▁선형
스티벌
▁아이스
▁하우스
건은
▁그랑
▁장례
▁전한
▁툴
류로
▁무관
히로
▁고리
▁테오
▁도중에
▁베토벤
탄을
▁예외
▁종로
▁곧바로
▁변화가
▁본명은
▁95
▁패러
▁소리를
▁건담
▁차지하는
▁휴대
▁오리지
▁그리스도
▁실제로는
교가
▁재즈
▁기동
▁비정
주의에
프란시스코
곡이
▁리이다
▁대구광역시
▁창간
▁파티
ok
보에
실에
이었는데
▁걷
▁뷰
돌프
▁JR
▁BBC
마쓰
파에
▁졸업했다
우에
▁유키
▁1/
▁가쓰
▁거둔
▁코스
졌는데
▁밸
▁첩
▁영국과
기구
스톤
▁명성을
▁유튜브
▁역사는
▁남해
▁문신
▁찬성
▁크기는
ry
▁없었던
슬라비아
▁배열
▁유니버
끼리
마리
▁1905
ith
▁58
▁고통
▁전망
▁있다가
▁하사
위에서
▁세우고
▁옮겼다
▁졸업한
▁계층
▁음반을
▁동아시아
▁전해진다
▁전투는
▁못하게
▁실시된
▁에스파
▁창당
오와
▁파트너
▁거대
▁조기
보가
▁놀라
▁셋째
연구소
▁정부를
▁대학에서
▁감각
▁무리
▁파생
▁병력을
든지
▁참가하여
▁리눅
▁참고
PS
식이다
▁실수
하르트
해지고
-15
▁가야
▁추대
▁들었다
용은
▁성의
▁덕분에
▁라이프
리케이션
리시
지방법원
▁삭제
ik
ob
타나
▁내는
▁마라
▁주거
▁결과로
클린
병으로
▁사이를
▁메르
생활을
▁아래의
카미
▁별로
▁지역에서는
▁갱
▁되찾
루살
집합
ff
ant
▁박쥐
곡의
▁닌텐
졌지만
▁크기의
▁호남
유산
▁흰색
▁NHK
▁브레이
트롤
▁re
노미야
스컵
월드
▁중동
▁바람에
▁예전
▁얻게
▁에릭
칭은
편을
황후
▁부처
▁사형
▁섬식
▁비로
▁사용하지
▁결심
피를
▁관하여
▁한국인
▁두드
▁살펴
▁아웃
▁불리며
족과
▁54
▁만난
활동
▁납치
▁평론
▁크로스
▁이용하는
▁모래
▁플레
실한
▁트위
▁도시를
개국
▁중지
▁초래
▁라이벌
▁입단했다
▁퀴
▁테크
▁오늘날의
고등학교는
▁향년
▁웰
리크
음의
온의
▁걸려
ck
청이
▁먹는
▁사과
▁인증
▁황태
▁때마다
▁뚫
▁서북
▁등장한
▁붙잡
▁초상
▁풍부한
▁An
▁돌파
▁그럼에도
▁경유
루살렘
▁효과가
앨범
▁시달
▁이수
▁최상
레이드
▁종교적
▁브라질의
lu
▁모듈
▁싱어송
▁락
▁순수
▁학사
▁Love
▁SN
▁거친
▁곳을
▁매각
▁죽고
▁대단
▁삼아
▁회색
률은
르바
졌을
▁88
▁방위
화하는
▁적절한
▁긴급
▁면역
▁문화적
심의
▁빗
학회
one
▁크리스토
▁합동
▁개발을
구리
러리
▁동영
▁무인
▁왕립
▁대회이다
▁딱
▁쿼
학과를
▁생각을
▁브라이언
▁시를
▁방법이
▁고가
▁배급
▁외계
▁천체
▁공무원
▁레코드
▁획득하였다
▁크림
▁샌프란시스코
▁마카
▁코믹
▁작전을
▁정권을
▁하다가
▁되었다고
메르
▁110
▁딴
▁테마
하겠다고
▁아케
▁주말
▁명단에
▁브로
▁필요로
▁약간의
우옌
▁입증
▁중립
▁탐험
나고
플러
▁지표
병원
▁동시
▁때문이었다
AP
▁광역
▁의거
▁아들이다
iv
▁칙
클럽
▁옛날
▁유인
▁플루
▁집에서
▁버지니아
▁세계적인
▁문화를
▁1904
▁베네치아
▁프랑스는
슬림
▁강수
▁레벨
▁제네
▁갤럭시
팀이
▁레닌
▁일어난다
▁밴드의
▁히어로
▁참모
▁아마추어
긴다
▁올린
qu
▁모로
▁추적
복지
▁라이온
▁특성을
▁않았던
▁제공하고
▁나의
▁뤼
▁역전
▁오디션
▁게시
▁마스터
▁간섭
▁타입
지기도
▁의미로
전에서는
ate
▁연락
▁것이고
▁세계에
▁빵
등에
▁대승
▁두려워
기획
들인
목은
▁규모가
IT
환은
▁카페
▁흙
장군
데이트
▁밖으로
▁사진을
▁다음으로
▁마시
자였다
구역
▁모임
▁오염
▁않았으며
진흥
▁보기
▁해병
▁진출에
▁오리지널
방에
습을
300
▁리듬
▁습격
보면
▁49
▁봉해졌다
▁인류
▁방향을
▁물이
▁펄
▁요미
▁마쓰다이라
▁직무
▁입었다
▁시간에
▁행정구역이다
마루
▁드래곤
▁공룡
▁사제
▁이지
▁대회를
▁못한다
▁가능성을
_10
▁유럽에서
▁싱어송라이터
▁색깔
▁관심이
▁국경을
이즈
▁85
▁폭격
▁밀접
우치
펙트럼
도서관
소리
▁모습으로
▁크리스티
▁Go
▁접하고
▁나이트
▁모델로
▁뒤로
▁램
급의
▁가미
▁유성
▁퍼져
▁계기가
사상
ord
▁대만
▁지바
▁길이가
▁총선에서
▁명칭이
▁부분에
클라
▁자세
하였을
▁활동에
브를
▁운반
▁전체적으로
▁도시는
▁공식적인
챌린
니를
▁기용
▁가득
▁경력
▁엔진을
▁음악가
▁안드로이드
▁압박
▁인텔
ET
▁눈을
하라고
▁캡
▁벨라
▁분산
▁스승
▁유물
▁아직도
자이너
▁문화의
▁미국이
▁설치되었다
▁이루어진다
연한
도서
▁연설
▁프랜
면서도
▁대지
전한
▁홀로
▁유고슬라비아
▁입대
▁전의
▁타원
▁혁신
▁130
▁예루살렘
▁굽
▁근로
▁본토
▁탄소
▁과거에
▁아우구
▁냈다
▁자전거
▁자유를
▁읍
▁자료를
고한
▁친선
▁클래식
테스
▁사항
그로
▁막을
속으로
▁프리미어리그
글로
▁들어간
▁지원한다
▁지정되어
민이
▁지연
▁공동으로
▁스마트폰
부사
▁은퇴한
재의
▁다녔
66
▁내용의
▁못했고
년으로
▁뿐이다
▁극단
▁소위
파크
▁현급
▁WWE
된다는
▁카메라
ast
직에서
▁말하며
바이러스
▁엔터테인먼트
민족행위
▁상영
권으로
등한
▁고립
▁모르
▁장갑
초의
회로
▁다룬
▁비스
▁동맹을
로미터
▁작품이
▁이야기가
▁변신
▁벌였다
▁코리아
▁사양
▁선두
▁계획은
▁서식한다
작가
▁수익
곡으로
▁관련하여
공학
둥이
간을
형과
▁레이다
▁지내고
고자
▁산악
스포츠
▁조약을
▁일환으로
더는
▁스페셜
▁원자력
▁벗어
▁!
▁말은
▁우익
의에
▁깊이
▁전원
조판서
▁사이클
액을
▁전승
나라를
체에서
▁대한제국
▁유지하고
▁아니고
▁탱
▁존재를
83
▁51
▁보인
▁모순
▁옹호
▁청동
▁경험을
방이
▁유닛
▁돔
▁보살
▁간에
▁호르
▁형성된
▁아베
▁했다고
개는
바나
린이
▁흐르는
유는
▁신분
ort
▁심한
▁역이
▁이적했다
▁중화인민공화국의
닉스
▁피렌
▁커뮤니티
▁밝히
▁찾는
▁MVP
▁무슬림
작을
▁개성
▁참조
▁타이틀을
▁성공적으로
▁고시
▁우루
계올림픽
▁기타리스트
▁가요
런스
▁활동이
다니
▁당선되었다
▁이곳에
병이
▁52
▁미치는
본이
▁가해
▁구상
▁운동의
▁시대에는
랑이
르와
석에
아를
판으로
▁센트럴
▁이명박
▁지방에
▁발생했다
▁가라
▁분야의
환의
제품
반의
▁가공
하가
▁영주
▁비잔티움
▁앱
▁당해
▁아비
▁미분
▁점은
▁이곳에서
▁서쪽으로는
▁아울러
▁베이스볼
음에
현에
롤라
미와
▁고등학교이다
▁인간이
▁기록하고
▁애국
▁측은
▁하노
되었기
▁전향
▁험
▁목숨을
▁두번째
▁분포한다
연은
▁미네
▁빨리
▁원로
▁임신
▁퍼시
▁결과는
▁계획이
작은
▁남쪽으로는
▁문화재자료
▁티베트
▁랭킹
▁1896
▁아니었다
▁엘리자베스
▁동치
▁전염
▁케이블
▁구간은
▁스펙트럼
▁별도로
▁브라우
▁업데이트
금은
타임
▁66
▁전두
함으로
아프리카
▁미얀
▁수천
▁시스템은
▁동쪽으로는
ure
▁지질
▁데뷔전을
▁되었으나
▁네덜란드의
중은
▁내지
▁상무
▁쓴다
▁첫번째
년은
으려
▁미시
▁반사
▁패턴
▁결과가
▁페이지
Pa
화학
▁고교
▁부통령
▁결과적으로
▁짙
업이
▁DJ
▁확인할
▁활동한
출을
▁없기
▁우수한
▁남한
▁성벽
▁HIV
▁기구
▁설이
▁차이를
네는
말을
▁우승에
▁옆에
▁좌익
▁료
▁튜
뱅크
▁관광객
▁모양을
조약
▁일로
▁합계
▁낱
▁내륙
▁아들을
▁이라는
▁루트비히
▁오스트레일리아의
77
▁연계
.&
재가
▁선거에
마자
ock
▁동기
▁시호는
▁이글
▁이치
▁175
▁SF
▁국토
▁학교를
션을
페이스
▁일본이
유키
▁거기
▁댄스
▁250
▁빌헬
▁야기
▁전임
▁막대한
▁결정했다
▁잃고
▁들어와
▁이외에
▁후기의
커스
▁결정을
▁전체의
단계
현악
▁마르크스
석과
왔고
▁막아
▁과학자
▁낳았다
▁UN
▁보좌
▁우리의
▁메가
▁챌린
▁쏟
▁아나운
가루
금융
▁He
▁My
▁제도의
디의
▁밀양
▁일대
▁피난
수아
실록
▁당의
▁선제
▁진술
▁얼마나
▁추가되었다
▁애플리케이션
▁잊
▁AS
▁대조
▁무선
▁점성
▁이익을
▁배제
▁등이다
변을
전기
▁김동
▁왕위
▁용어
▁준공
산군
▁발효
▁간단한
▁활약하였다
▁데리고
▁리그에
▁요구하는
통일
▁고성
▁발족
▁노선이
▁신장
▁책봉
▁버리고
좌상
▁나선
▁이토
▁경력을
▁구간이
준은
▁사격
미디어
▁위기에
▁국가에서
발의
▁어드
▁서일본
▁그동안
▁가질
▁어릴
▁올림
▁나라를
▁지어진
▁예능
▁항구
▁당했다
▁쪽으로
글라
▁디젤
백과
수산
의원
▁성균
▁스카이
인들에게
▁경계를
반을
▁리가
▁스틸
▁현의
▁된다는
들과의
시켰고
▁교향곡
▁사령관
▁이오
▁포맷
▁과학적
▁간다
▁로빈
▁바티
▁자바
▁이승만
▁지방도
▁훈련을
▁정류
▁시마
▁트윈
스테이션
▁연애
▁독자적인
토스
▁떠난
▁주장이
식물
▁이스트
▁지역과
▁북쪽으로는
먼은
용이
▁열차는
▁미하
▁폐기
악의
▁구마
▁범주
▁모집
▁빛을
▁감독이다
▁동지
편이
▁대우
▁메디
▁찾을
▁디자이너
칸센
▁아가
소송법
▁톨
▁휩
피는
▁가면
▁말하고
안군
▁많고
▁용산
▁최신
리타
▁월간
▁최근에
니까
▁이자
▁타율
청을
토시
▁브래
▁담당하는
▁소속되어
▁하나님의
▁적대
경기를
과도
지대
▁이복
▁해제
그리
터로
▁적을
▁호수
▁힘이
박물관
▁출전했다
▁고베
▁스콧
▁신사
▁앨범은
▁장편
부문
문관
▁적색
▁푸른
▁능력이
▁스타크래프트
팩트
▁열어
▁주파
▁영감을
▁68
▁쿠바
▁지역이다
츠와
▁미카
▁입문
▁있으면
▁초점을
▁일원으로
▁자리에서
▁재단
▁돌아오
▁사카
▁여왕
▁타운
▁호환
안으로
▁직접적인
▁기재
▁협상
▁주제로
▁싱글이다
▁깔
▁무료
ML
림을
편에
▁청와
▁북한의
▁않도록
▁꺾고
▁달아
▁순천
▁아니며
▁충분한
▁편지를
▁항공기
▁개최되었다
▁정벌
▁조용
업에
▁재발
▁흩
▁서독
▁콩고
됐으며
▁이론은
▁천황의
▁탕
▁간접
▁모니
▁일렉
하러
연이
ime
▁백인
▁히가시
금이
▁군대가
▁값을
▁원래의
론적
된다고
▁개념은
▁인근에
바야
▁뒤인
▁대학원
▁언어로
▁ST
▁쿨
▁마산
트르
▁장르
▁한양
▁게임은
▁노르웨
공이
저는
블로
▁출현
▁스토리
▁아르메니아
▁자손
▁황후
버스터
▁인물이다
▁곁
바시
인조
▁군대는
▁곳곳
▁테일러
74
▁후의
▁마리오
천을
코가
▁못해
▁근거로
▁전투가
▁정도가
▁최종적으로
▁얇
▁그룹의
디에
▁충격
회와
▁발전에
▁사용을
▁우리나라
우드
▁대로
▁여의
▁응우옌
▁중이던
진과
▁아트
▁없애
▁연루
▁두드러
아와
ack
▁발라
▁중심지
▁비평가
▁있습니다
▁오렌
▁급진
▁야생
▁자격을
▁코치로
▁일본어
▁일어났
▁원형
성한
해진다
▁재위
▁여동생
▁보여주었다
OC
▁나열
▁조선총독부
주인
▁당한
▁적의
▁통화
라미
리자
_8
▁*
▁700
건이
▁법학
▁사용해
▁상태이다
세스
▁겸임
▁때도
▁사로잡
▁국가를
▁않는다는
▁계열의
▁곰
▁Un
▁말할
▁필라델
▁축제
▁덴마크의
▁AM
대학원
▁문재인
▁전투에
▁지배를
▁머무
▁목적은
중심
▁수단
▁착수
밀리
커는
▁군을
▁달의
▁한화
▁디즈니
▁1911
어스
▁소나
▁왕실
▁하나를
▁있다면
▁굉
▁힌두
▁메모
▁서남
▁항해
▁결혼을
군사
▁예언
▁좋아하는
▁한국에서는
io
▁내장
▁제국이
▁현존하는
후보
▁플라스
▁본격적인
▁승차
져서
▁53
소한
▁법무
▁서경
▁지목
▁화려한
▁불리기도
▁일본에서는
▁슐
투쟁
▁비극
▁달러를
▁불만을
▁주식회사
다리
등록
▁동남아시아
MS
▁트레
▁페루
▁대신에
▁믹
▁삶의
▁머리를
▁후반에
명인
받지
프에
▁경고
▁사람에게
▁지지하는
범죄
시절
패로
규칙
▁서브
▁요소를
▁모델이다
▁y
미에
색이
적이었다
ib
란을
온다
즈카
▁대답
▁여덟
▁가지게
뉴스
산맥
스틴
증이
▁주니
▁충남
▁연구가
란의
▁정원
▁잘못된
있고
지사
시타
▁양식
▁생각했다
▁제휴
▁목격
▁기술이
▁시기의
즈에
행은
▁내내
61
▁말한
▁방식의
▁남아있다
▁젖
▁교과
▁남긴
▁활성화
▁한강
선수권
▁시간은
▁일본군
교로
▁주립
▁졸업하였다
공동
렸던
▁대결
▁무늬
▁온도
▁이원
고속
▁번뇌
그는
팀인
▁약한
▁진단
▁언어를
▁발견했다
▁착륙
▁신칸센
▁이순
▁역사적으로
제이
▁곳이
▁모음
▁보잉
▁시드니
▁포함해
▁관점에서
목의
오르
조정
▁해적
보통학교
▁폼
▁후보에
시피
생이
역사
▁에우
▁포인
▁시작했으며
톤의
▁구름
스테르
▁사용자가
▁공략
▁사장
▁마친
▁인조
▁타카
▁실패했다
쪽의
▁음반의
년대부터
관찰
금의
▁빌리
▁충족
▁내부의
▁훌륭한
▁가능하게
검찰
▁친척
▁이처럼
▁컸
▁서서히
▁특수한
▁윙
▁거슬러
▁구조의
▁전쟁은
▁전통적으로
과로
▁태조
▁풋볼
동에서
▁승리로
▁하와이
▁맡았으며
▁바꾸었다
▁취약
서에서
▁북쪽에
켰다
▁다가
▁박영
▁비즈
▁제국은
▁시스템의
교회의
성이다
렀고
번호
온이
▁복수
▁의원이
▁해군의
▁구체적인
▁게재
▁사이에는
도사
모니
▁맞는
▁선진
▁아서
▁프로토콜
디아라비아
▁가사
▁전성
▁카자흐
ge
경과
age
▁술탄
시즌을
▁피에르
견을
▁때때
▁맞게
▁중력
▁현상이
4,
▁수록된
▁프로그램은
iz
▁닐
수엘
▁산타
▁말하였다
수사
her
▁바가
▁젤
▁응답
▁원산
▁기업의
▁어워드
▁일찍이
▁바이올린
▁악화
위원회의
62
터에
▁비가
▁지중해
▁민주주의
▁미스
▁뒤에는
▁무려
▁평생
▁다이아
차별
▁제약
▁판타지
▁다큐멘터리
카를
▁가즈
▁목조
▁몰락
▁주와
▁시작해
▁치료를
▁샬
▁조사를
▁무력
▁종전
▁포크
▁목적을
▁프로그램의
▁옐
백을
▁실용
▁굵
진에
▁방면
▁오세
▁시대를
였기
직한
▁부흥
▁착공
▁조치를
▁로맨
▁일부로
하니
▁형태가
▁페스티벌
▁한신
▁물리학
▁친일반
색은
겼고
중에서
▁쟁
▁손상
▁합리
▁항일
▁165
▁성공적인
▁꾀
▁중구
자이며
▁무대에
포는
▁측근
▁퇴각
론에서
▁방식은
▁위치하며
▁반환
사추
▁PS
경으로
▁마음작용
▁활약하고
병의
티에
▁리얼
▁융합
▁아파트
민당
씨와
▁늘어나
미나
분교
▁하버드
72
ud
▁어렵다
▁중앙에
:00
▁디아
▁법원
▁섭취
▁또다시
▁IP
▁마케팅
▁정의할
▁마케도니아
▁해임
태평양
▁다루고
▁가능하며
▁끝이
▁조치
▁주문
▁본선의
▁커피
▁이르고
▁체제를
▁프레임
▁1500
▁칩
▁복구
▁연구하는
▁마천
▁성은
우와
▁귀환
▁배정
▁애틀
▁여론
이사
▁박탈
▁시집
▁사상을
▁일관
▁어두운
▁떼
▁대서양
EN
▁구미
▁따르는
기관이다
슨과
플라
▁날개
내에서
차전에서
▁사우디아라비아
▁햄
▁토마
▁트럭
▁끝났다
▁1909
▁자유롭게
테쓰
▁99
▁마찰
▁토대로
▁한동안
분야
팀은
▁대주교
▁목록은
▁저택
▁채로
▁속도를
▁영화로
▁부정적인
열이
▁막부
▁때때로
▁규정하고
▁펴
네의
한을
▁82
▁현장
▁성질을
▁연고로
양군
렸을
▁밖의
▁ISO
▁무라
▁아리스
▁선수이자
▁한국방송
누리
모로
오를
▁털이
▁명예의
초에
▁자식
원의원
69
▁굿
레의
▁끊임
▁베타
▁죽을
▁합법
▁노선은
▁사용이
▁방영되었다
제프
▁회의에서
미로
▁피고
스에게
있으며
▁이영
63
▁정찰
버러
브는
▁피에
▁오디오
▁운동이
▁샹
측의
로동
▁하천
▁남쪽에
▁진정한
▁들은
▁곡으로
▁철학자
▁프랑스에서
▁펜실
▁동메달을
▁각기
▁면에서
▁받기도
▁관계로
71
▁기록에
▁속도로
▁김용
▁세로
▁쿠르
▁피부
▁스파이
▁항공모
질로
▁교섭
▁없으나
세츠
▁레전
▁무신
▁개발된
▁버전은
인명
▁김태
▁보여주고
▁바그
▁사유
▁차남
▁미스터
▁부패
▁오고
포트
▁알라
생으로
서이다
▁구조는
▁선을
▁친일반민족행위
▁얀
가스
▁갑작
▁이리
▁주에서
▁민속
▁김영삼
▁득점을
▁실험을
년대에는
▁제목으로
란이
▁바위
▁드림
▁여수
▁임상
▁초창
케이션
▁금메달
▁사고로
▁발견되는
▁고조
▁내외
▁반지
▁오가
▁병력
홈런
▁공무
두는
▁근처의
▁카이사
▁아르헨티
원군
층은
▁규제
▁주한
▁빌헬름
AD
▁굉장
▁이마
▁훼손
▁구체적으로
형태
▁공용
라이트
▁보내는
▁조직의
▁캘리포니아주
반응
타케
▁땅에
▁흔들
▁라운드
▁선언했다
▁의장
▁향한
금으로
▁달러의
▁동화
▁부른
▁와카
▁재편
▁비공식
▁은메달을
▁상임
▁포괄
▁희극
▁네이션
▁광범위한
종과
해방
▁최저
▁찾아가
▁사용하며
▁MC
▁얻는
▁사실은
▁몸무게는
▁도심
▁동구
▁둘은
▁무효
▁그림을
▁때로는
우며
▁맡게
▁부품
▁후한
투아니아
님이
▁CPU
▁근접
▁세워졌다
▁수치
▁주축
여객
▁고도
orld
▁군사적
79
▁세균
▁이나
세에게
▁거기에
▁왕으로
▁형식을
▁후보를
▁오스트리아의
공은
메라
았을
▁건의
▁꿈을
▁출력
▁기온은
▁임명되어
▁석조
▁안티
▁황제가
상으로는
사고
▁르네상
▁신라의
디가
▁살던
▁역과
심한
int
▁군은
▁미나미
▁사용하기
츠키
▁4.
▁부착
▁안타
주년을
치면서
▁연방의
숙한
▁길고
음으로
▁라틴어
▁한국에
간이
▁대외
▁양도
▁장면
▁발매했다
▁룩
▁에스토
▁껍
열의
-21
▁동독
▁부르며
▁중심의
▁회사는
▁템
업은
질은
▁낮아
▁소재로
▁작품에
소스
▁우즈
▁의원은
▁1915
▁제주특별자치
II
sp
아키
▁Ar
▁기생
▁모시
▁법을
▁얻기
받는다
해주
▁MP
▁급속
▁카탈
▁영국은
▁영화제
▁왕위를
▁대폭
▁아니면
▁포인트
▁롬
▁보니
▁거주하는
▁알려지지
▁얘
▁의지
사령부
▁출시된
▁학생들이
▁별의
▁보상
▁복사
▁공전
▁추증
▁건너가
▁일본으로
oy
▁스릴
▁위안
▁추모
▁유니폼
▁유소년
▁에스파냐
▁파리에서
▁디비전
연속
▁좋다
▁케네
▁노래는
▁성공한
누엘
몬드
▁무죄
▁사직
▁자발
버는
▁공의
▁중계
▁Pro
▁대전광역시
▁강이
▁안의
▁중순
▁진영
▁화면
형이다
▁나가사키
ov
▁럭
▁무용
▁사르
스트의
▁특유의
▁서울에서
▁관통
▁보충
▁뿌리
▁싫어
▁풀려
▁특징은
▁후지와
▁돌아갔다
▁석탄
네스코
▁이듬해인
▁시로
자리에
▁멤버로
▁주어졌다
82
▁학자
주일
▁이바
▁다니엘
▁도로이다
내셔널
▁둘러싼
▁전한다
이었다고
▁따뜻
▁과정은
과이
수수
▁점유
▁형식의
내기
▁반박
▁발생할
▁곡의
▁수신
라이더
시민
자원
행에
▁IT
▁기요
▁전부터
생산
▁신흥
▁이인
▁아이를
아메리카
▁1913
▁3000
▁노력을
▁5000
▁팩
▁향을
▁과거의
▁그러자
▁폴란드의
▁라트
▁창시
▁리메이
▁원자로
▁서머
▁끝나고
▁짓고
▁흐름
▁운행하는
란트
매치
▁안드레
▁시작하는
목이
▁침몰
▁베네수엘
▁정확하게
▁두산
▁출토
브리지
▁의견이
작전
▁팽창
▁된다고
스러
▁캠페
▁보스니아
철은
▁부천
▁빛의
▁전세계
▁알바니아
설이
▁공학
▁클린
중에는
▁펀
▁정부와
저스
▁감지
어진다
▁차례로
▁오키나와
예프
▁삼고
▁트라이
▁셈
▁배를
▁이슈
▁캄보
▁특급
▁인정받아
▁필라델피아
격이
▁작고
리아는
▁언제나
▁들어가는
적에
▁일조
▁줄어
▁침해
▁비슷하다
▁개업
거는
▁이광
▁장의
▁하얀
▁소닉
트리올
ph
학위를
▁재산을
▁분광
▁실종
▁사천
▁위기
▁과학기술
▁연속으로
84
란은
▁물에
바흐
▁DS
▁세대
▁시라
코드
행의
▁명문
▁생각된다
▁스파르타
▁링컨
▁사료
▁사육
▁약물
▁자율
▁건물을
▁특이한
▁하인리히
81
GC
▁기호
▁발견한
▁프랑스와
불교
▁요르
▁경우를
▁창업
▁풀어
▁1.5
▁리버풀
▁1895
▁독일에서
?"
▁강경
▁잃은
▁하야
▁이미지를
▁하였는데
각이
량으로
▁밴드는
▁조직을
▁섬을
▁강점기
▁제외하고는
▁스리
▁외의
▁닿
런트
번을
▁쓰인
▁판결을
▁지냈으며
▁설립하였다
스파
▁모델을
장관
풍을
▁72
▁사기
▁시그
▁진도
▁점이다
▁집으로
▁분리되어
카라
▁명백
▁수수
▁에디
진으로
▁네이버
▁분데스리가
▁삿
▁안산
하였다는
▁일으키는
티의
함의
▁창건
▁죽이고
▁전쟁으로
▁걱
▁톈
ome
▁조반
▁필름
▁영역을
▁시작되어
희의
▁김진
▁못할
▁생기는
▁기록하여
강점
레를
▁민주화
~3
▁달린
이라도
▁누르고
▁원작으로
▁역임한
▁김재
▁며칠
▁정책에
▁소속이다
▁어려움을
▁등재
▁심판
▁양키
▁왕족
▁않았기
▁지속적인
▁제작되었다
너의
ian
▁교외
▁밝혔
▁이틀
▁전당
▁운행을
▁일했다
▁다녀
▁시즌에는
400
▁모두가
▁시기는
▁하거나
▁부과
▁아폴
▁평행
▁우연히
▁지금도
▁당대
▁신용
▁호세
▁사용될
법인이다
▁플레이어
▁헐
경영
터스
▁함유
사추세츠
자연
▁인생
▁스테이지
▁거리가
▁남부의
▁중심이
▁홈페이지
초를
-11
▁77
▁그렇지
있던
지붕
▁컨트롤
▁분류된다
▁죄를
▁전에는
위대
학교에
▁PD
▁계곡
▁형태는
속을
▁유출
▁이반
▁선거를
-17
▁바꿔
▁평소
▁독일은
▁몬트리올
▁꽤
▁고분
▁유신
▁증권
하우스
▁진출했다
지나
▁두루
▁의병
▁리눅스
▁약화
▁이화
리면서
민을
▁""
▁느낀
▁건물이
,8
▁서해
ee
러가
▁친정
▁도호쿠
▁지명을
▁트레이드
pp
실과
▁라스
가에서
▁객관
▁써서
▁에버
▁촉구
IM
▁몰려
▁중독
점이다
▁총선거
▁비즈니스
▁팔레스타
손은
▁59
▁도구
▁용이
▁컬럼비아
층이
▁의사를
박스
▁닥터
▁아이슬
▁낙선
▁텔
▁팀에
▁형법
아리
인들
▁on
▁배틀
스카야
▁체계를
▁지방에서
트니
▁알코
▁좌파
▁정교회
▁확인되었다
예를
▁안장
▁제갈
▁목표를
▁식으로
왕에
츠가
▁외곽
▁일어날
▁잦
▁싶어
제국의
항으로
▁차지한
▁이루었다
:1
▁가벼
▁해인
▁관현악
▁친일인명
처리
시까지
스부르크
▁번호
▁화살
▁출전해
▁사적
화하고
롤라이나
▁갓
▁백악
▁여기에는
▁들어오
▁중기의
▁분야에
▁위협을
▁내고
▁멈추
▁불을
▁액체
▁145
▁소수의
▁자신에게
▁수평
▁신비
▁스릴러
▁아틀레
▁유네스코
주식
▁일에
정부의
▁영남
▁후안
▁대통령을
OV
▁쫓겨
▁멕시코의
▁시작된다
▁일제강점
▁날짜
▁긍정적인
수인
타니
▁학부
▁다음이
▁조건으로
범한
ace
ire
▁차기
▁155
▁Con
▁광주광역시
자도
티모
훈은
▁외야
▁출연한
르노
마사
▁김포
▁대처
▁무소
▁원내
▁과정에
▁맡았고
▁스티브
번뇌
▁내야
▁동물의
▁투르크
▁엉
각의
~19
▁애덤
▁레이저
▁설립했다
,0
환이
▁치열
▁페어
▁나갔다
주곡
▁대니
▁스쿨
능력
▁듯한
▁리스
▁숙종
▁포로
▁디스플레이
▁교구
자리를
▁모델은
▁활동은
마치
▁다중
▁바실
▁쉬운
▁라이언
▁퍼시픽
▁거주하고
▁진출하였다
▁비례대표
ber
▁신하
바이잔
소이다
▁만화가
▁준우승을
▁내보
▁영동
▁되었을
러의
▁CE
▁관습
▁관직
▁비단
▁장난
OP
마와
양은
-12
▁고지
▁미토
▁국가대표팀의
▁교도
▁동래
▁미치
▁바닷
화하여
▁부문에
▁아래로
▁주를
▁할당
▁했다는
▁고무
▁속도가
▁공사가
▁수행하는
ust
▁것인
▁루스
▁분배
▁평등
▁속으로
▁있어서는
도비
▁식별
▁전역
받을
식품
▁전세
▁국가에
▁미국에서는
시노
투를
▁마오
▁염색
▁사회에
▁아즈
기기
자본
전사
▁고발
▁소총
▁총괄
일에서
▁나이지
▁다음에
사우루스
!"
▁밟
▁라이선
▁수렴
▁추상
▁에티오
제르바이잔
▁기체
▁어울
▁편리
▁스튜어
▁되었지만
▁공채
▁구리
년간의
▁여행을
▁트랜스
▁상징하는
▁성씨
학자인
▁캐스팅
▁비서
▁제수
▁탓에
▁회담
▁영화에
73
책임
▁둥근
▁부를
▁아벨
▁가난한
작품
▁검증
▁진행된
공립
▁건물의
▁비슷하게
단이다
▁화제가
라리
에너
▁스핀
▁시는
▁식량
호선은
▁기념물
▁기갑
▁전신
▁종의
하였기
▁대회의
▁허리케
각은
보도
▁후일
▁나아
▁쌓아
▁열고
▁개혁을
르지
▁게오
▁급행
▁요크
▁시나리오
비나
▁바뀐
▁급격히
▁방송국
▁선교사
▁칼리지
▁끌려
▁내린
▁무거운
▁아이슬란드
▁닭
선언
▁교수는
▁키프로
하겠다는
OL
▁언더
▁지나치게
▁상원
▁전인
슈타인
편으로
▁이곳은
야가
▁봉사
▁알제
▁외무
▁은퇴를
▁움직이는
▁엔지
▁장로
▁강제로
▁붓
올로
▁광산
▁시즌의
▁제품을
▁엘리베이
▁자본주의
▁김상
▁이노
돌이
파일
포의
▁마이크
치료
▁간부
우주연
▁측면에서
▁훔
사태
▁자신과
▁조문이다
▁후쿠시마
▁신속
바닥
▁격퇴
▁누군
▁신생
-16
▁극히
▁고려의
▁기록된
▁승강장은
퍼스
▁들이
▁아세
SS
▁돌연
▁입체
▁개발에
항에
▁영향력
▁진나라
.25
▁버튼
▁볼리
▁중도
▁받았으나
ite
▁관람
▁작센
▁결과에
▁대학을
▁지점에
▁도움으로
▁리메이크
▁있었다는
▁지어졌다
▁||
▁동년
칭으로
▁구조로
이었기
▁오렌지
▁참여하여
▁계절
▁매출
▁숨겨
타리오
▁1916
▁설치류의
▁거론
▁뜻의
▁리비아
무기
▁걸어
▁메타
▁쇼핑
하였다가
▁않았으나
AL
고도
망이
▁63
▁손자
▁앓
해와
▁FM
▁찾기
▁마음이
▁어려움
▁제조업
▁남아있는
▁소유하고
▁이상으로
▁행성의
pt
결합
▁실린
▁종결
산성
▁레전드
▁치러진
▁선수들이
▁끓
▁글리
▁받기
▁사랑의
▁실시간
▁아이템
▁개관
▁스피드
▁단종
▁전념
하려면
▁봐
실험
▁병행
베르토
▁참가하는
미국
600
▁드럼
▁토니
해왔다
▁인물을
기준
분석
서울
일간
▁활발한
▁한국전쟁
IP
천은
▁전례
▁십자가
▁아버지와
▁뿔
노프
▁기지
▁일도
▁재활
▁조상
원들이
▁김대중
▁참가하고
시내
▁GT
▁나섰다
▁나이가
▁물리적
▁일시적으로
▁군수
▁통근
▁향후
▁행정구역
포가
▁라우
▁옷을
▁작위를
푸르트
▁것에서
▁기간에
▁마이너
▁작곡한
▁시절부터
▁전체가
고쿠
▁김수
▁부장
▁실려
▁중소
▁채권
스트를
▁휠
유적
▁매카
▁페르난
길을
크리
▁로열
▁미주
▁의뢰
▁지폐
▁막내
▁곡이다
▁나타낼
▁니콜라
▁페르디
▁마운
때문에
▁공간의
▁성공하였다
▁꼴
산면
▁김기
문제연구
그레
▁남원
▁힘입
▁깨달
로니
▁끝까지
음과
▁좌절
▁첨가
원들은
▁활약했다
▁시칠
▁지혜
래스카
▁Wh
▁오빠
▁해운
▁공화당
▁아니지만
▁날아
▁진짜
▁교수가
▁생각하는
감에
▁()
▁강과
▁눈이
▁치명
▁IBM
▁드러나
▁정이다
일드
자책
▁폐위
철도의
▁구조가
▁오하이
야를
▁사헌
▁대법원
▁시설이
▁주장하고
TC
해지는
▁공동체
▁노무현
▁히데요
▁찌
고래
▁리치
▁선구
▁성당
▁왕비
▁진동
▁소설을
▁중요하다
자스
▁곡이
▁군에
▁신규
▁나라에서
▁학교에서
HE
십자
▁성모
▁소환
▁평택
▁아마도
▁낼
▁관중
▁넣었다
▁새겨져
▁매사추세츠
▁Te
▁영상을
▁우승하였다
▁권위
▁딸을
▁평창
시부터
▁수록곡
▁로즈
▁매개
▁먹고
▁차가
▁장려
대한민
▁쓰이고
▁실질적인
톨레
▁현저
으로의
▁동명의
ark
▁관리하고
동시
칭을
▁복지
▁관장
▁여성이
림이
ies
▁레논
▁전진
▁공사를
▁별다른
▁방법이다
for
▁th
▁모방
▁줄기
▁해주
▁애틀랜
하우
▁It
▁매달
▁진정
▁계획에
▁주제가
▁활약한
란히
▁비오
▁플레이스테이션
턴의
▁대학에
▁조금씩
기관으로
서도
▁소실
▁충격을
▁결혼했다
▁왜냐
▁해밀
류이다
▁부대를
▁등장했다
▁생각하고
안타
청에
해군
황을
▁손해
_9
▁거행
▁맞지
▁한쪽
▁그레고
▁정부로부터
레아
쟁이
채를
▁놓은
▁오오
▁요소가
권도
대교
셰비
▁그중
▁노비
▁유격
▁증기
▁NBA
▁검은색
▁다리를
인치
주쿠
▁닛폰
▁해를
▁부분적으로
▁영의
▁춘천
▁피어
전도
왔으며
▁전선
▁운동은
▁인정하지
▁중심기압
석기
▁정면
▁전자기
▁군단
▁안쪽
클랜드
▁알렸다
▁일컫는
▁경비
▁서사
▁성균관
▁아제르바이잔
,7
▁코무네
▁울산광역시
무스
바스
▁모드
▁발원
▁의회는
▁존중
▁맞추어
▁프랭크
▁성립한다
고등학교를
▁경기에서는
봉을
▁정렬
▁주석
▁문서는
▁양식을
▁담당하고
빈은
▁공직
▁교차로
▁만나게
통이
풍의
▁나쁜
▁단층
▁목사
▁물고
년동안
▁아사히
▁라트비아
학이
▁구릉
▁아인
▁일요일
▁소니
▁시흥
▁우울
▁바꾸어
FM
inc
▁잭슨
▁헤드
▁학자들은
▁섬은
▁승인을
▁정리한
당하였다
▁나눌
~20
▁회고
▁스타일
소득
▁왕자
과정을
▁조선인
보안
사리
▁SP
▁협의
렸으나
시에는
▁옌
회장
▁사토
터미널
▁경험이
▁참고로
결정
포구
브의
헤이
▁충주
▁하락
쥐과에
▁이에야
▁보완
▁인플
ft
번에
▁쇼와
▁서쪽에
▁둘러싸고
▁일어나자
,5
▁시켜
스와의
▁사이가
리그에서
▁등장인물
▁펜실베이
▁솟
약품
짜리
▁Co
▁만의
▁부대는
▁인물이
▁앨범이다
리라
▁진행된다
▁명에
▁주차
▁본사는
▁음악의
▁칭호를
▁개발되었다
▁98
▁좌표
▁탈환
▁한미
▁군대의
려서
▁개화
▁총재
▁마쳤다
▁쓰였다
▁햇
▁거리는
▁데뷔를
▁진출을
▁부적
마르크
방은
▁길게
▁선수를
▁스케이팅
▁않았다고
▁하드웨어
▁준비를
▁회사를
nt
극장
작의
ran
▁경부
▁보지
▁전제
▁할리우
CD
▁바른
▁단위로
▁세계대
▁멋
니시
▁상반
▁이끈
▁귀중한
▁규모는
▁대상을
▁영어로
▁요구했다
위안
▁유언
▁방식이
▁휴스턴
▁관할하는
▁건물로
▁부족한
▁새누리
▁여기에서
▁탤
카타
▁모으
▁어휘
▁사회를
번은
회담
▁육성
▁게이트
MA
증으로
▁덧붙여
▁결정적인
▁mm
▁두어
▁상상
▁트루
달라고
▁최후의
됨으로써
▁시절에는
링은
만원
▁몸에
ile
▁대웅
되지는
▁비용을
버스터미널
냈고
▁kg
▁그날
▁잃어버
▁시점에서
놓은
일체
▁배구
화에서
▁권고
▁아예
▁환원
▁연구소
▁음식을
▁딘
미쓰
▁아부
▁야간
▁억압
▁지정된
려면
▁색을
▁이진
년이다
▁이집트의
프랑스
▁생겼다
가고
▁깨닫
▁말기
▁직선
▁정신적
서야
소방
차와
▁배웠다
▁존재하며
▁중에서는
시안
▁LP
▁왕은
▁이긴
도마뱀
▁펼쳤다
인들과
▁동쪽에
▁용어를
▁성우이다
말라
여성
▁갇
척의
▁유죄
권에서
▁경제학
▁시스템이
박한
▁cm
▁에이스
▁서식하는
▁쥬
▁부부
▁국가는
▁있으면서
▁2,000
다지
▁다항
▁담긴
▁라파
▁연세
xt
▁물고기
▁시작하였고
▁관념
▁전압
▁국가로
▁중간에
▁비판했다
▁구는
나우
▁슬라
▁일본을
▁사라졌다
통의
▁공인
▁평면
▁밑에서
▁신호를
▁요미우리
감과
▁높고
▁번식
▁송시
▁얻고
▁각본을
▁겪었다
▁불교의
▁승리한
▁제외하면
라트
정당
ide
▁충북
가이자
▁추정되는
▁하나였다
▁하더라도
▁활동하는
녀를
보건
작이
▁거제
▁닌텐도
▁기점으로
미노
장한
전선
ment
▁감정을
▁부동산
▁시설을
▁사무실은
벤처
▁개그
▁이라
▁코트
▁투구
지역의
▁거느리고
▁조선인민
▁대관
▁역설
▁주소
▁2.0
▁연결된
▁초반에
게이머
▁기리기
▁댐
▁제사
▁놓았다
▁지적했다
▁카자흐스탄
▁왓
▁턱
강에서
▁우라늄
▁않는다고
놓고
창을
▁갈아
▁계몽
▁느껴
▁산소
▁아는
▁쫓아
거리는
▁하나이며
▁변경하였다
▁62
▁왜냐하면
▁사건이다
▁선보였다
모와
▁구동
▁신이
▁오라
▁팀인
▁발매하였다
크에
▁띠고
▁시초
▁자금을
▁호평을
▁엽
▁빠진
▁동아일보
목적
열대
▁섬유
▁신념
▁연호
▁주류
▁카롤
▁도착한
▁생각해
▁시즌이
▁엔진은
▁웨일스
▁이산화
▁기습
▁추출
▁굉장히
▁얻는다
▁움직임
대회에서
▁참여하는
구성
루와
공산당
▁대한민국에
베트남
▁자체는
▁단단
항이
▁가짜
▁코어
▁프랑스어
▁펜실베이니아
▁고양이
▁기술의
▁특징이
학적으로
▁아일랜드의
▁미노
이면서
▁아미노
▁지식을
▁프랑수아
▁데이터베이스
리야
▁김경
▁임기
▁출산
▁최상위
▁이야기는
▁난징
▁몰래
▁총대
▁추격
▁통칭
▁해변
▁차원에서
▁블라디미르
▁이루어지고
제한
주기
▁기름
▁태종
▁태도를
▁태어났
▁선수이며
구르
▁찾아볼
▁셸
▁더글
▁종은
▁125
▁마을의
네가
▁초과
▁플랑
▁앨범의
▁지방을
르며
찬을
▁담겨
▁힘입어
▁월드컵에서
▁//
▁고수
▁기능은
▁문화체육
▁생각한다
택을
▁도주
▁디오
이거나
▁RNA
▁만났다
▁국방부
아일랜드
▁리틀
▁초등
▁봤
▁밑에
▁밀접한
▁시장을
▁생산하는
▁평균자책
현과
▁수업
▁채무
▁통틀
시키며
▁마을을
▁생각할
▁종으로
▁고려대학교
법제
▁신한
▁한계
갔으며
▁와중에
▁사망하고
디나
릴라
채널
▁사이드
▁중국과
▁낭만
▁기반의
▁논문을
▁잠수함
▁대신하여
▁돋
내어
만명
▁무승
▁서정
▁조달
▁조명
▁오하이오
▁AK
▁순회
거리를
▁수술을
▁AR
▁난이
▁부수
방에서
▁시계
▁토요
▁민족문제연구
구나
리조
층을
▁집계
▁최하
가들은
▁순수한
▁업적을
위원으로
국장
기나
어지는
▁것보다
▁아름다
▁의식을
▁주장한
▁자리잡고
강은
▁문장
▁설탕
▁이래로
rom
▁범위
▁이윤
연구원
왕으로
▁최대한
▁환경을
위원장
▁여름에
▁장치를
▁최근의
▁넬
▁나눠
▁사원
년대의
▁온타리오
▁내리
▁위탁
▁조건이
▁림
열은
철의
▁띤다
▁수동
▁초연
▁컬러
▁위기를
▁민사
▁잎은
▁학위
ound
▁조선일보
디언
▁성별
▁105
▁시호를
▁67
▁밤에
▁산다
▁야당
▁위임
▁이어진
▁학교에
▁기록하는
시즘
iver
즈에서
▁의미의
▁천문학
▁테이블
박사
▁안보
▁대회에서는
ory
▁붙은
▁쇼군
▁조르
▁취재
▁자세한
족에
▁결코
▁공로로
지방선거
▁두개
▁파스
▁관리하는
▁경상남도의
물질
▁매입
▁테레
▁뜨거운
▁카를로
님을
나갔다
방으로
정에서
▁북부의
부르
▁베니
▁이의
▁일컬
▁재무
▁왕위에
▁배치되어
▁조선로동
▁드문
▁시장에
~5
▁옴
▁마루
▁봉쇄
▁힘든
▁시내버스
벌레
외선
▁경사
▁올바
▁표명
▁설명했다
▁편입되었다
국사
버리
▁상수
▁정사
▁진군
▁청원
면에는
▁그쳤다
▁소관의
씨로
증은
are
▁앉아
▁싱글로
림의
▁시골
▁도시가
▁되돌아
급을
다르
▁시점
▁정한
▁카스
▁한스
▁대한민국은
▁자연스럽게
교에
▁재현
▁최적
자들에
▁무기를
▁장관을
▁저명한
프로그램
도어
터널
▁구제
▁먹이를
▁위험한
▁뉘
▁연령
▁투옥
▁파이어
만여
준의
천이
▁Le
▁회사가
▁근처에서
▁대피
▁체포되어
▁직접적으로
▁로저
▁아담
▁협약
▁인접한
▁철도의
루션
참모
▁발을
▁사사
▁것으로서
기사
나스
▁넣고
▁소셜
▁전도
선이다
▁자체를
▁대통령에
▁부문에서
▁크리스토퍼
▁프로게이머
▁$
원숭이
쳤으며
커니즘
▁통일신
▁문화방송
▁마약
▁마하
▁사이버
멘트
▁NC
▁모친
▁부딪
▁업그
▁로이
▁독립된
▁잃었다
▁코스타
병은
▁변수
▁부호
▁신임
▁애비
▁하마
본으로
▁일본과
▁전통을
▁신설되었다
▁쉐
▁엿
▁이내
▁가수로
▁전투기
종인
▁기아
▁국내외
▁엄격한
▁이후로는
▁땄
▁킨
평화
포드
▁떠올
▁칼라
▁경찰은
▁물질을
▁실패하였다
▁횟
▁팔라
▁실패로
▁자신도
▁달성했다
▁사이타마
계승
도리
축을
▁만남
▁패키
▁의회의
▁제주도
▁1894
▁자동으로
▁레바
▁모르는
신에
▁불이
▁어항
▁탐지
▁내부에
▁문제의
▁이론의
▁황해도
액은
파르
▁개원
▁보일
▁장성
누스는
▁만나는
▁사람과
▁시즌은
▁궁극
▁즉각
▁폭스
해양
▁Sp
▁상태였다
TS
▁후궁
▁것인데
▁들어온
▁이후부터
▁밀어
▁유래한
▁도입되었다
▁마츠
▁희귀
가지의
▁슬로베
▁제안을
마일
▁성취
▁시키
행으로
▁도미니
▁디비시
했습니다
▁카타
▁우주의
▁이어진다
▁지구에서
▁갈릴
▁앙리
▁회계
▁개발이
▁모델이
▁친일인명사전
로이
▁안성
▁지고
▁소속된
▁제국을
▁제사를
▁비평
▁뉴욕에서
▁디자인을
▁서재
▁스톡
▁예배
▁임용
▁제프
풍으로
▁바티칸
▁할머니
▁출전하였다
▁법조
▁이가
▁짙은
▁가지며
▁구간을
▁그러던
▁다양하다
man
▁그랜
▁범유
운드를
라기
집이
▁미즈
▁시뮬
▁그리스도의
▁리투아니아
플렉
▁78
▁원리
▁프랑크푸르트
▁국소
▁성주
▁통영
▁CON
지휘
▁네오
▁믿고
▁분명히
▁섬으로
▁참여하고
캐롤라이나
▁팜
가족
▁이케
▁스미스
위원회를
▁구출
▁보전
▁진흥
▁측의
▁프로레
▁기록했고
▁런던에서
왕조
▁영문
▁영조
▁오바
▁제압
스트리
▁알코올
▁직전에
▁함으로써
ng
로우
사나
애를
왕과
츠를
크에서
효소
희가
▁가죽
▁비유
▁다룬다
▁질량은
▁문법
▁받침
▁불어
▁이름인
▁지휘관
▁출전한
omp
▁고쳐
▁시즈
▁축하
▁스스로를
▁사자
▁장군의
▁입자
▁있었을
야만
절한
▁is
▁이룬
▁호위
▁비로소
학교에서
무역
스런
욕을
▁협박
주의가
책으로
▁주장은
▁그냥
▁어긋
▁적고
▁프로그램이
함마
임에도
▁요청을
▁대거
▁역에
▁이식
▁루이지
▁세상에
▁이유를
▁선언하였다
월과
▁간호
▁인격
▁재혼
▁제독
▁허브
▁크리스마스
정원
▁반해
▁2.5
▁전체에
▁월드컵에
ert
▁빈곤
▁석가
▁숭배
▁양주
▁에밀
▁토요일
▁아니라고
▁포르투갈의
▁톤
반은
소녀
액의
▁세션
작이다
훈장
▁수습
▁지능
▁규모로
▁다음해
풍속
▁말씀
▁명성
▁지점
▁여부를
~4
▁선이
▁춘추
▁태평
▁교황의
▁승부차
변이
▁복제
▁분화
▁인문
▁화석
군이다
칼라
▁사고가
▁1890
▁어머니의
글리
ial
▁61
▁개교
▁제노
▁캠프
등으로
루미늄
▁뒤집
▁문명
▁제트
까지만
▁구스타
▁환경에
TA
ign
▁엄격
적이지
▁비난을
▁오프닝
▁블로그
ich
▁가도
▁리우
▁부의
▁순교
▁야쿠
레스는
▁버전의
▁북쪽의
▁일컫는다
▁냄
먼드
▁감독과
▁속도는
▁특징으로
연방
▁76
▁고백
▁하우
▁요구를
▁존재했던
방울
▁나오지
▁변화에
▁심리학
▁외교관
▁중국에
▁황제로
▁사회에서
▁버려
▁수도인
▁줄여서
▁가마쿠라
▁지정하여
~2
▁강도
▁기록해
▁김일성
▁부유한
▁경우에도
▁그룹이다
▁어머니가
서원
▁일리노
▁프레스
레타
▁골프
▁미루
▁전속
▁진급
▁초월
▁이벤트
▁설명한다
▁움직임을
아파
ond
▁발트
▁아홉
▁입원
▁주가
렸는데
▁거기서
▁베네딕
▁일이다
나미
대책
▁했을
프라이
▁1898
▁랜드
▁롤링
박쥐는
운동에
▁배우로
항의
▁불평
▁쏟아
▁베트남의
▁도는
▁이경
▁노란색
▁언어의
▁인근의
▁등지에서
▁계속되었다
신도
▁차이는
▁그리스어
▁일종으로
▁넣은
▁상용
▁증손
▁프로듀싱
▁고체
▁말기의
▁본인의
▁프로젝트를
선생
열차
▁la
▁상처
▁연쇄
▁느낌을
▁가나가와
▁되었다가
약성
코쿠
▁부사
▁이남
▁뛰어나
▁불리게
▁프톨레
▁캄보디아
코르
▁냉각
▁투표를
▁중단되었다
▁#
푸스
]],
▁노리
▁불편
▁아랫
▁오를
▁증후
현으로
▁표현을
▁향하는
더니
▁맥스
▁통행
▁관련한
▁적극적인
판과
▁제자
▁문화체육관광
▁깎
퍼는
▁동명
▁에미
나라에
▁원인은
미스
어요
예정
act
▁기간을
▁오리콘
▁주민들이
즈로
총장
▁마스
▁승격되었다
▁나눈
▁오노
▁지각
▁획득한
-18
▁장학
▁북부에
▁프로리그
강이
순위
▁시와
▁옥스
▁트래
▁공격에
▁적합한
회의에서
▁공민
▁컨셉
▁피해가
▁결론
▁직면
▁블랙홀
▁과거에는
▁콘스탄티노폴리스
▁모형
▁소매
▁평일
▁부분의
과학기술
▁지방자치
국어
냐는
집에
▁be
▁불확
▁존속
▁폭넓
▁합창
▁유지하는
강과
악한
ass
▁경신
암으로
▁가리키
▁성격이
▁어려워
▁의미에서
▁에스토니아
▁바퀴
▁일러
겼으며
일이다
▁제도가
슬리
팀의
▁96
▁CF
▁공모
▁난민
▁낱말
▁카트
▁게르만
▁관리를
▁뭉
수용
▁누가
▁터뜨
▁10%
▁정도였다
▁사모
▁섬에서
▁소행성
▁방식이다
고와
링을
▁선물
기독교
▁연기를
▁회의를
측은
▁2-1
▁기술은
▁아버지를
▁됐
였을
운영
▁정신을
▁종류가
▁중의원
▁World
측에
▁뉴저
▁딸인
▁카를로스
감한
천여
▁가량
▁구할
▁우편
▁관직을
▁나가는
▁보호를
▁시기를
▁중추원
Hz
▁내전
▁성장을
▁타이틀곡
법칙
▁난다
▁천도
▁속하며
▁대학교에
▁해상에서
발이
▁김현
▁마우
▁쓰기
▁처녀
▁흥행
▁브라우저
▁봉안
▁제곱
있었다
▁우즈베
▁팀으로
▁기업이다
▁맏
▁물건
▁창의
▁책의
▁헤라
▁우승한
널티
루에
일으
▁최악의
▁지휘하는
▁환경에서
보르
▁봉건
께서
평군
▁말의
▁초록
▁문과에
▁왕국을
▁샘플
▁선사
▁업체
▁편곡
라이어
▁런던의
▁미얀마
▁민족의
▁존재가
▁결정되었다
▁덤
▁맑
▁빌려
▁101
▁선정한
량과
방위
▁협상을
▁더불어민주당
두를
자르
▁HT
▁두는
▁붙인
▁원수
▁선거는
▁테니스
▁감행
▁시트
▁자문
▁적혀
▁물러났다
▁이름에서
교수
느러
폭력
▁바꾼
라에서
▁용도로
▁시리즈를
동시지방선거
파인
▁존경
검찰청
▁않으나
▁인정하고
▁옹립
▁정밀
▁최후
▁토르
반이
재단
키와
토르
▁거울
▁상트
▁서초
▁채워
▁결성된
▁바이오
▁가톨릭교회
▁인터내셔널
▁펌
신경
▁맥도
▁방패
▁신중
▁아기
▁기사를
▁수상한
국제공항
▁메시지를
▁체코슬로
▁기록하면서
요는
▁라마
▁왕복
바이트
사령관
▁신선
▁흥선
▁크레이
▁아시안컵
▁방송되었다
▁얹
감은
거를
결과
▁네팔
가르
▁SE
▁브뤼
문에서
▁갈등을
▁많으며
▁안에는
lo
▁날에
▁뻗어
▁장거리
▁진행되고
테르부르크
DS
▁데스
▁이유가
▁줄무늬
▁차량은
▁확실히
▁노르웨이의
▁쇄
버린
▁부서
▁오쿠
▁흔한
화이다
▁독일이
하임
불교의
▁그룹은
▁기자회
▁부분으로
▁에티오피아
▁형성한다
블리
▁조리
값을
병에
▁디자
▁만일
▁임시정부
덕션
라톱
▁노트
지는데
▁미국을
▁옳
지능
▁밀집
▁시외
▁출처
▁남쪽의
▁터키의
▁평범한
셈부르크
상규
태후
▁김규
▁말기에
▁불러일으
수리
▁고민
▁합작
▁시위를
▁일하는
lic
▁CR
▁용의
▁선거구
▁아래는
▁급제하여
▁벌어졌다
대학교에서
노가
시게
▁펠리
서비스
매매
▁피츠
▁전라도
▁끊임없이
▁주민들은
▁정치인으로
코와
▁사범
▁암시
▁커널
▁설명하는
▁시베리아
▁크리스티안
urn
▁술을
▁일명
▁플러
▁필사
▁개념이
▁나폴리
▁본사를
▁차량을
▁1899
▁노동조합
정리
▁교역
▁등극
▁디렉
▁자택
▁최연
▁남부에
▁행사를
전문학교
군단
시나
▁김씨
▁피신
▁뒷받침
▁비판이
▁주식회
▁지구와
▁패배를
▁알루미늄
▁자격으로
▁자유주의
▁중앙위원회
생명
체제
▁고령
▁컴퍼
▁가지가
▁올랐고
▁추기경
▁존재하고
▁헌법재판
▁지주
▁공익
▁극동
▁단기
▁양호
▁케냐
▁해소
스키는
▁보유한
▁목을
▁기독교의
위인
허가
▁당일
▁상류
▁소금
▁신탁
▁축적
▁축출
▁학교의
대륙
열에
ens
▁던져
▁아야
감으로
▁이론에
▁자유로운
대구
▁시리즈는
OU
▁광장
▁나주
▁딸로
▁프톨레마이
요의
표는
▁쇼트
▁위장
▁차량이
인한
풍이
_11
▁느꼈
▁법인
▁부가
하자는
▁제목의
▁시즌이다
IG
▁페리
LS
대왕
림은
▁낸다
▁누르
▁양국
▁호의
▁가까워
▁물질의
▁그들에게
▁추측된다
▁닦
돌을
▁시범
▁실전
▁척추
▁교육과
나오
달아
술의
타우
▁그래프
▁버전이
▁스탈린
▁복귀하였다
줬다
▁EC
▁조언
▁버렸다
▁독립적인
▁결혼하였다
LE
운을
▁비자
▁숫자
▁승계
파이어
▁독일어
▁몬스터
▁별명을
▁다운로드
협력
▁리뷰
▁상장
▁싶은
▁유교
▁응원
▁나머지는
▁시장에서
래스
▁꽃은
▁이준
▁항소
▁홈구
스카르
▁베드로
▁카리브
▁페널티
로부터의
▁정부에서
량에
▁미디
▁왕세
▁중산
어지고
▁바오로
▁완벽한
▁머물렀다
근은
▁SU
▁We
▁밴드이다
▁선거구이다
버렸다
▁국제적인
언어
▁오타
▁철도가
▁강연
▁중공
▁레바논
▁민족주의
▁핀란드의
▁따온
▁아크
▁잡았다
▁회장을
▁1902
지아
▁스폰
▁자를
사업을
▁3.1
▁중국어
▁나올
레가
▁일방
▁교육의
▁달한다
▁목표는
▁장군이
▁별은
▁원더
▁중대
▁케임
▁해수
▁있기도
▁통틀어
▁구마모토
▁5,000
인간
▁광둥
▁그루
▁압둘
▁이천
▁플랜
▁광저우
▁밝히고
▁타격을
▁강수량은
▁들어간다
푸아
▁Pr
▁물어
▁사면
▁여신
▁카디
▁카우
▁미시간
▁아무도
갈색
도바
주얼
▁직결
▁리그를
▁수학자
격은
▁기각
▁얻지
▁이차
▁육군의
▁니콜라이
▁심의
▁정해
▁가벼운
▁DC
▁벌인
▁자오
▁주사
▁것들이
▁마음에
궁의
무는
위해
▁CJ
▁삼촌
▁유로파
▁지냈고
▁처음부터
아들
ary
▁00
▁69
▁무상
▁민영
▁양이
▁가족은
▁독일과
▁역사에
▁장면을
▁고구려의
▁시리즈에서
금지
함수
▁세속
▁중기
▁문자를
강전
▁존스
▁그래미
▁파이널
▁떨어지는
▁이용한다
▁토너먼트
▁3,000
▁대교
▁쓰지
▁청춘
▁카나
▁위치는
ree
▁리오
▁어른
▁정서
▁일대를
▁한나라당
폭탄
▁몸이
▁국립공
▁출신인
▁구분된다
▁고등학교를
영과
협의
out
▁New
▁단어는
▁설치한
▁아래에서
▁일리노이
▁페르디난
hPa
▁퀘벡
▁갈수록
▁뚜렷한
▁종로구
▁알려지게
다드
대손
잡이
▁담배
▁래퍼
▁우호
▁유동
▁침투
으려고
▁드러머
▁선수들을
▁승강장이
▁아시카가
근의
▁케빈
▁삼각형
▁쓰시마
▁일으킬
▁중요성을
▁있는지
▁총대주교
▁하트
동이다
▁팀에서
▁형태이다
▁얽
웠고
▁먹을
교육을
▁서유럽
▁출시한
▁역임하고
▁데뷔하였고
▁둥글
▁입성
▁아이치
▁역사의
대학교의
연료
net
▁JT
▁웹툰
▁헝가리의
▁제주특별자치도
:0
두로
하로
▁GS
▁IM
▁빛이
▁연꽃
▁제니
▁추산
▁것임을
▁연금
▁그다지
▁부작용
▁얼굴을
칸의
▁백색
▁분당
▁소말
▁정조
▁추가적인
키를
품이
▁선수는
▁아레나
!!
▁틸
에다
▁발현
▁따른다
▁조약에
설은
▁손꼽
▁견해를
▁남기고
▁결정하였다
미즈
반도
▁수면
세기부터
▁전국동시지방선거
미트
붙이
▁메소
▁유저
▁잡은
▁인터페이스
그러
트륨
_15
▁성분
▁자치구
▁자회사
▁프랑스에
산리
▁사절
▁유년
▁135
▁기초를
▁니가타
▁없었기
▁피하기
▁알려져있다
골로
▁마인
▁표방
▁경찰에
▁나가노
▁사망하자
▁아라비아
▁엔지니어
▁프로그램에
▁몫
피의
▁때인
▁수확
렸다고
▁가족의
▁비율은
▁경로
▁러셀
장치
제작
▁대치
▁문예
▁부지
▁성서
▁포획
법이다
해주는
▁대표적
▁연구의
▁클래스
불을
ach
▁달이
▁종속
▁간단히
▁용어로
▁주도로
▁협주곡
▁아리스토
▁역사적인
커의
내며
이후
투자
▁곳의
▁교전
▁만성
▁생략
▁중일
▁브로드
▁비율이
▁음악에
▁이라고
네시
본의
티코
히메
▁날카
▁노태
▁농림
▁동국
▁쓰촨
▁지형
▁헤비
주머니
▁360
▁더욱이
▁정해진
▁차량의
▁한국은
▁타이베이
반에
사기
▁완화
▁우르
▁패한
가들이
▁문화가
▁발언을
▁사고를
엔터테인
▁중화민국의
▁캉
길이
▁꼭짓
▁리만
▁바빌
▁사슬
▁존슨
▁촉매
▁일대에
▁정도를
▁연결된다
▁밖에도
분해
지리
▁즐겨
▁태극
자라고
▁전역에
▁시칠리아
해온
▁사살
▁워터
▁적지
▁무료로
▁계획이다
▁안토니오
▁플라스틱
▁왈
드릭
신학
▁수련
브리엘
▁1-0
▁아르헨티나의
▁바나
▁이관
나가는
ey
무가
▁우드
▁50%
▁고통을
▁시절의
▁스트리트
▁자신들이
▁전체적인
들과는
▁룩셈부르크
▁대합
▁모나
▁산란
▁군대에
▁언급한
▁재능을
▁발견하였다
산물
판매
▁국군
운동의
▁드물게
▁전력을
▁내용으로
,9
년하
.5%
▁마야
▁북구
▁수에
▁정보가
▁주장하며
전차
▁모서
▁호조
▁개인이
▁성공회
▁총리가
▁한성부
▁1901
기계
▁과정이
▁손가락
▁언어는
▁가져왔다
검사
오나
통제
▁Sc
▁만세
▁브란
하자면
▁병으로
▁아열대
두에
▁마일
▁공부를
▁회사이다
기니
추는
ase
▁루터
▁시바
▁입각
▁자선
▁피겨
▁사례가
마로
▁박스
층으로
▁취하고
▁강점기의
▁결정하는
▁할아버지
우지
▁맞은
▁스캔
▁효소
시키지
▁기존에
▁올리고
리얼
정책을
▁레슬링
▁즉위한
▁현재에
▁진행하고
가요
▁담아
▁안나
▁주체
▁죽이
▁KIA
▁대회가
▁수도원
▁사랑하는
황제
▁캐서
▁당연히
▁되지만
▁손으로
▁텍스트
▁개발하고
▁대통령으로
OD
▁밝힌
▁오비
▁왕을
▁중재
▁특집
▁Man
▁안으로
▁태양을
▁자이언츠
생은
세트
▁에콰
▁협동
▁무대를
▁바이킹
▁밴드를
▁전했다
▁1884
▁결혼하여
▁나이지리아
▁솜
클로
팀을
▁재미
▁살았던
단위
설에
▁Am
▁김창
▁지녔
▁목소리를
것도
종교
▁국영
▁철회
▁하남
협의회
▁매니저
▁왕국은
▁유학을
▁르네상스
런은
▁차이로
▁한국시리즈
홀름
ont
▁군이
▁도미
글라데
▁알렉산드로
차량
▁On
▁Su
▁무성
▁중복
▁기회가
▁물러나
▁지키는
변에
봉사
▁자의
▁하동
▁이루며
따라
▁군산
▁제국에
▁아버지인
▁세미
▁정말
스터는
▁무함마
▁방문한
▁인터페이
▁전역에서
▁평가된다
개와
한테
▁각자
▁고창
▁균형
▁선종
도이다
▁공간이
▁예수의
▁프로레슬링
▁높게
▁성사
▁전동
▁포병
양으로
▁삿포로
▁어려서
▁파일을
▁프란츠
▁조선로동당
아스
이시
주택
▁북방
▁수성
▁영등
▁들어갈
▁투어를
ost
▁금성
▁배신
▁불상
▁여진
자라는
▁일본국
sc
▁본부
▁소지
▁후보는
기게
ect
▁이소
▁콜린
▁소송을
▁맵
리사
한은
▁세상
▁오지
▁초신
▁게이지
▁부근에
▁차례의
▁시즌에서
▁올림픽의
▁유사하다
▁이스라엘의
▁까닭
▁년에
▁시종
▁산하에
▁알렉산드르
▁환상
것을
인권
품의
▁대가
▁각본가
▁이란의
▁실질적으로
문자
▁때에도
▁클라이
▁규범
▁두께
▁오피스
▁슬로바키아
SP
위성
작곡
▁맞붙
▁산림
▁유래된
▁점령한
집은
▁괴롭
▁브랜
▁잡혀
▁1903
cc
만과
푸르
▁Op
▁감안
▁고래
▁김홍
▁실망
▁점에
▁기초로
▁조정에
디를
머는
▁견해
▁다비
▁분비
▁중종
▁한층
▁사람도
▁존재할
▁파리의
▁미시시피
▁운행한다
▁해결하기
▁벵
▁발칸
▁서울의
▁가고시마
▁이루어지는
▁앞면
▁원을
▁도카이
▁동생인
▁문서를
▁근무했다
▁발렌시아
▁지정되었다가
ath
▁CC
▁김지
▁자국
▁하시
▁캔자스
▁차지하며
보수
빌딩
▁개종
▁단축
▁모은
▁정무
▁게임이
다를
모에
심은
온을
com
▁맥락
▁싸워
▁주행
▁한인
▁핸드
았다고
-200
▁표현하는
▁부설
▁실시한
▁쳐들어
▁몸길이는
▁포켓몬스터
연수
주간
▁해남
법에서
▁같은해
▁블루스
봉은
사용
운의
쪽은
▁무궁
▁보헤
▁도시철도
▁중앙아시아
벽을
▁알을
▁아나키
▁제안했다
▁북아프리카
▁눌
▁콰
▁모용
루이스
▁아케이드
조한
▁비타
▁일체
천으로
▁압력을
▁트리플
▁진행되는
준비
▁그릇
▁그후
▁놀이
▁더해
▁경기의
▁경상도
▁넘어가
▁뉴욕의
▁마르코
▁바르샤
▁상태의
▁작용을
▁붐
루아
▁글루
▁연상
사들이
▁성능을
▁받았지만
▁지나면서
시청
주지
화물
히토
▁86
▁진공
▁기준을
▁대가로
▁대전이
▁부분에서
▁하라
▁구단의
▁인상을
▁스위스의
서구
▁가옥
▁극대
▁대책
▁미들
▁나타낸
▁불리고
▁새겨진
▁정치가
▁결정된다
▁비밀리에
정신
▁권장
▁선배
▁설도
▁총칭
▁음악은
▁제도는
▁표면에
▁방글라데
▁사단법인이다
더의
학원
▁대명
▁응시
▁프랑스가
바둑
▁꼭대
▁슈팅
▁지장
▁파나
▁뮤지션
▁떨어졌다
▁보호하기
▁이때부터
순환
증의
친구
▁걱정
▁기저
▁아소
▁야마토
▁중반에
aw
들여
황이
▁가축
▁악기
▁온도가
▁전하는
▁조지프
▁복귀했다
OW
▁랴
▁개가
▁발급
▁벼슬을
▁실패한
▁죽였다
▁담당했다
▁위치하는
▁클라이언
▁범위를
▁프란체
산동
루에서
▁다이어
▁생산을
▁아미타
▁그렇지만
보와
적과
▁거북
레이터
▁기하여
▁변화는
▁함수의
▁국기
▁쓰레
▁아타
▁피트
▁해의
심에서
팀에
▁라오
▁세례
▁연고지로
으로부터의
인구
▁점프
▁칸의
▁전두환
▁확실한
▁메커니즘
-9
▁배상
▁산출
▁세금
▁신부
▁체류
▁편에
▁결론을
▁경기로
▁고유의
▁조선에
▁청와대
▁건륭
▁구의
▁품고
협회는
▁자료가
▁드라이버
이야
▁73
▁가오
▁걸린
▁기숙
행위를
▁그려진
▁대학생
▁무조건
▁킴
집의
▁물의
▁민병
▁안치
lude
▁수비수
▁없어서
▁제네바
▁코드를
적으로도
억원
▁북위
▁쌓은
는지는
ream
▁그레이트
무로
빈의
하루
▁97
▁Tr
공무원
▁도널드
▁볼리비아
▁설치하고
;&
그의
▁대안
▁동행
▁폭로
▁1897
▁스타리그
▁예선에서
당해
받게
위기
융합
▁불꽃
▁의미는
▁수준으로
▁평가했다
▁무의
▁세력의
▁원인을
▁이루어지지
▁렉
▁로버
▁신축
나무는
▁공격수
▁그레고리오
MP
너가
네마
돌은
양함
천사
▁74
▁다크
▁저렴
▁죽어
▁횡단
계약을
전이다
▁사쿠라
▁학문을
들에게는
▁스코틀랜드의
▁국장
▁돌입
▁쪽은
▁키워
왕후의
▁다니는
▁도입된
▁정치를
▁제작을
나서
테면
▁기슭
▁막시
▁선과
▁지옥
프레스
▁소비자
▁위험을
▁포로로
▁대통령과
▁로스앤젤레스에서
왔던
▁무지
▁병역
▁씨의
▁이북
▁피로
▁하원
▁관련해
▁노선의
▁단어를
▁필리프
▁사간
▁의석
▁소설가
▁영향이
▁전반에
▁위원회의
여우
▁6,
▁시노
▁새로이
▁형성하고
약한
▁김제
▁등용
▁잔류
▁센다이
▁건축물이다
▁만족시키는
▁AN
테이션
▁증거가
세르
수소
킨스
탄의
▁거뒀
▁무슨
▁이병
▁포드
▁운영을
▁정권의
▁주어진다
RA
전시
쿠버
▁석탑
월에서
▁연세대학교
하키
▁강희
▁영산
▁불가능한
▁효과적으로
페테르부르크
▁뱅
대대
메드
테크
▁Ne
▁깨끗
▁번에
▁유연
루스는
회의원
▁리더십
▁학생들의
브르
아야
운이
▁단절
▁게임에
▁국제적
▁생방송
▁쿠데타
▁크기를
▁입장에서
▁페이스북
▁주위
▁해명
판에서
▁말하면
▁영화가
▁이곳을
우기
주어
▁공손
▁대두
▁주오
▁창녕
선수단
▁1800
▁콜로라도
ii
그라드
레스의
▁건설되었다
공격
믹스
▁기증
▁끝날
▁남구
▁규정에
▁언급했다
▁때문이라고
▁비판하였다
▁87
자에서
▁최소한
▁1860
▁이를테면
US
올라
▁호응
▁900
▁미네소
▁본인이
▁작가의
▁카스티
▁하에서
▁도요토미
▁GP
▁감리
▁성숙
▁얼음
▁이데
▁나란히
▁동안의
▁알프레
▁기록으로
▁호출
호선과
▁에디션
▁정치에
한이
▁치른
▁미쳤다
▁시대부터
▁정의한다
국립
요를
화점
▁기어
▁왜곡
▁20%
▁서울대
▁조사에
▁공격하여
주자
표가
ake
▁서민
▁안테
▁오로
▁코코
▁유형의
▁있거나
▁해마다
▁포스트시즌
▁이탈리아에서
막을
▁81
▁패럴
▁더이상
▁승무원
노에
브스
▁아닐
▁온대
▁모양이
▁대학교를
▁예정이었으나
▁무실
▁산의
▁엔딩
▁포장
기록을
위원을
▁제치고
▁주목할
▁혁명의
근이
▁작업에
▁흥선대원
▁대표적으로
GB
▁꽃이
▁낳은
▁리베
▁슈트
▁시공
▁어둠
▁헬리
▁선생의
▁의원을
▁이내에
▁나중에는
▁설립되었으며
co
랑을
발은
준이
체고
혹한
▁견제
▁유라
▁요새를
▁캠퍼스
시켰으며
▁대학교는
슬레
▁공과
▁루시
▁본거
▁지름
품으로
▁산업의
▁장비를
발로
쿠니
▁세라
▁사업에
▁주장에
▁드러났다
관련
업의
직의
타워
▁ID
▁상세
▁이장
▁충실
▁효고
루스의
▁되었던
▁도입하였다
sh
내지
색과
▁강은
▁데뷔한
▁아름답
▁쿤
메다
칼리
▁알지
▁자크
▁보다는
트로이트
▁과일
▁말미
▁환영
렸지만
수에서
▁격렬한
발사
학부
▁간신
▁나섰
▁스노
▁테르
▁설명할
▁중대한
▁진행했다
계급
▁고기
▁보성
▁사정
▁키스
▁퇴임
GA
교와
야에
행동
iss
old
▁가볍
▁맺은
▁불명
▁서포
▁선도
▁조립
▁크롬
▁경제의
▁도시에
▁백제의
▁점령하고
▁포기하고
▁문화체육관광부
단지
통은
▁강동
▁달걀
▁경계로
▁영국에
▁접하며
미한
순은
▁낙동
▁신조
▁지나는
▁대한민국과
TP
타스
▁7,
▁임관
▁충성
▁수행할
▁주제를
▁러시아는
▁올라간다
독일
락이
▁창출
▁퇴역
▁화강
호선이
▁뒤에도
▁마천루
▁진출한
▁삼층석탑
▁출신이며
년하계올림픽
링턴
▁가동
▁지위
▁짐작
지역에
▁NGC
▁건설을
▁내려가
▁물건을
▁미래의
▁송나라
▁통일신라
▁검출
▁넓게
▁위와
▁현금
되므로
하이드
▁수익을
▁함부르크
▁고사
▁덮여
▁목록에
▁사이토
▁장군은
▁저작권
▁개인적인
own
▁니코
▁실버
▁쌍둥이
▁설치하여
인터
▁산하의
▁암호화
▁1880
▁취임하였다
역학
타입
▁볼로
▁수료
▁여운
▁영지
▁필드
들보다
▁각국의
▁음악적
▁겁
린을
▁히타
▁뒤이어
▁마을에
▁시작하면서
컨대
▁값이
▁법의
▁아바
▁이닝
터에서
▁30%
▁중점을
되어있다
MI
▁엮
▁김병
▁배가
▁빈번
▁중장
레이크
▁단계에서
▁대응하는
▁후임으로
▁킥
ick
▁뉴저지
▁비용이
▁그로부터
▁급성
▁남게
▁보게
▁생식
▁질환
▁칼뱅
▁교회를
▁재판을
▁태국의
▁푸에르
▁게임에서
▁스페이스
▁씌
보니
채가
▁간토
▁윤리
거리가
▁볼셰비
▁아마존
▁보도했다
▁디트로이트
변의
분과
티가
▁권총
▁병을
▁탁월
▁함대
브리아
차이나
▁딸이다
▁투수가
▁행동에
▁도시에서
기자
암은
에미
▁성종
▁입을
▁조화
▁진지
게이트
학교의
▁CEO
▁기업인
▁빔
공주
았기
운다
할때
▁CS
▁온갖
▁적다
▁탄도
끄러운
▁경향을
▁고향인
▁국왕의
▁결정한다
살의
▁받았다고
▁승강장을
▁시스템에
▁드래프트에서
병과
채는
히데
▁동참
▁들을
▁비치
▁이산
▁칭찬
▁프레데
▁상트페테르부르크
훈을
▁가환
▁두꺼
▁마블
▁온천
▁스즈키
▁지도를
▁환자의
▁휘하의
▁가려
▁실력
▁튀니
▁하차
웨이트
하기는
▁크라이
▁공개했다
거진
▁넘게
▁없었
▁청소
명에서
▁방사성
▁스리랑
▁웨스턴
대학교는
▁해당된다
ix
▁교리
▁벌금
▁유권
우스가
▁경찰의
▁끌었다
▁조직이
▁질량이
▁친일파
▁2022
▁위원회는
부상
▁전지
▁평정
족으로
▁구성되었다
RE
직은
▁땄다
▁장흥
▁패널
▁기간은
▁지역구
▁드라이브
▁부드러운
브루
철이
해튼
▁강에
▁보드
▁스태
▁영유
되도록
스트가
직으로
▁알리는
티시
▁위헌
▁회수
▁버전을
▁보내고
▁섬이다
▁연합군
▁열린다
▁종교개혁
▁79
▁반공
▁고려시대
▁천연기념
▁제기되었다
▁플레이어는
집단
테는
▁유러
▁이태
▁카카
▁투르
▁협정
▁붙여진
▁지구를
▁정치적인
▁커뮤니케이션
상업
▁구와
▁집결
키아의
▁문화와
▁마을에서
▁학생들은
▁시작하였으며
말에
심히
▁광양
▁아산
▁이고
▁룰
로프
점인
▁가네
▁판정
▁GDP
▁다녔다
▁똑같은
▁평화를
▁되어있다
애틀
피가
▁신정
▁메달을
▁부대가
▁시대가
▁인증을
▁일렉트로
▁문인
▁없던
업으로
▁가브리엘
St
커가
하와
▁고인
기관의
▁가지의
▁명이다
▁아돌프
▁파란색
▁미사일을
▁분위기를
▁LA
▁동위
▁어뢰
▁여우
▁개념이다
▁실시하고
▁프로덕션
GM
간은
평론
▁길에
▁시립
▁잘라
사회의
▁보여준
▁개념으로
▁의미하며
▁임명되었고
전략
코타
피에
호텔
▁Is
▁기회
▁김민
▁미친
▁세네
▁워너
▁사랑에
▁헌법에
▁꿀
스페
초는
▁84
▁CN
▁현악
▁화순
마스터
받았고
ence
▁세워져
▁인간을
전국
히트
▁BS
▁갱신
러시아
▁둘러싸여
캐슬
토와
▁정립
▁퍼포
▁편지
▁허가를
▁나타내고
▁불가능하다
▁냄새
▁원의
▁하부
▁기여를
▁역사와
▁위원장
▁그러다가
▁아니라는
▁음반으로
▁등장하였다
가수
유지
▁감마
▁메릴
▁성이
사단은
▁계약이
▁비하여
▁애비뉴
▁예이다
▁자기의
이한
▁권유
▁듀얼
▁소모
▁이규
▁헌정
림과
벨라
취를
ype
▁뽑아
여명의
▁것인지
▁정권이
▁가정에서
▁되었다는
▁어드벤처
▁최대풍속
▁적용되었다
ork
▁앞장
▁제퍼
▁조조
했음을
▁대표는
▁선출된
▁위험이
▁작업이
▁회사인
광을
루냐
벌을
상도
형사
당하는
▁소리가
명이었다
▁각지에서
▁스튜디오에서
-14
▁71
▁자아
▁중서
▁탐색
▁판사
▁외에는
▁토너먼
▁이적하여
▁향토문화
▁델라
▁동문
▁발각
▁측에
▁컴백
▁태백
▁건축물
MC
국적
▁공습
▁과의
▁돌을
▁다케다
▁상황은
▁토지를
CAF
▁사관
▁윤보
▁전격
번으로
▁공항은
▁선수로서
▁여우주연
▁로그
▁비영
안에서
▁우승했다
▁유가
▁궤도를
▁아스널
▁점수를
▁클레멘
▁사용하면
공연
▁나를
년대와
▁마다가
▁모습은
▁청주시
▁하이드
▁마닐
▁이빨
▁조세
▁허위
▁활발히
▁밭
지오
▁매매
▁믿는
▁추첨
▁치안
▁350
▁사전에
▁일제의
▁흔적이
▁No
크리트
▁합류했다
플레
▁자생
▁III
▁교수를
▁임명된
▁자세히
▁연구에서
염을
▁들려
▁지미
▁별개의
▁비행기
▁시험을
▁표현한
▁거부하고
▁각색
▁사바
▁유진
▁이방
도르프
▁기업이
▁엔진이
▁잡아먹
절이
.11
▁관악
▁나은
▁수장
▁호칭
테스트
▁마오쩌
▁서식지는
▁조별리그
노르
형인
▁다테
▁불태
▁카사
▁국가와
▁누구나
▁대도시
▁마르틴
니치
▁다마
▁배후
▁한해
것으로
조에서
▁데스크
▁미네소타
▁사용되며
▁쾰
▁팰
당인
복은
창의
▁국어
▁김옥
▁미셸
▁천재
▁하비
▁꼽힌다
▁선수들
▁1870
▁난을
▁지수
▁키는
▁황해
바야시
▁김정은
▁실력을
▁주머니
▁팔레스타인
FF
▁뾰
ear
▁..
▁라그
▁마녀
▁모인
▁숨어
▁프렌
▁기관총
▁모티브
▁이르렀
▁치열한
▁투수로
▁현재도
▁개를
▁견인
▁때가
▁별이
▁종착
▁해고
▁경찰이
▁주위에
▁공격으로
▁동일하다
irl
▁콜라
▁반도체
▁디비시온
▁출판되었다
include
OT
▁낫
형제
_12
▁나라는
▁세이부
▁스테이
▁예술가
▁일어나고
유도
▁마가
▁세비
▁양을
▁용병
▁퇴적
▁어렸을
▁저기압
▁형성되어
있게
집행
▁진실
맥스
에의
▁가문은
▁세력은
▁역까지
▁절차를
선수권대회
건축
▁발병
▁앤더
▁말까지
▁지구에
▁1885
▁프로젝트의
▁양반
▁전날
▁연구와
▁취임했다
망의
업과
중추
태를
▁경연
ox
부리
▁세조
▁입헌
석에서
▁주위를
▁것입니다
▁방송되는
▁연결되는
편은
위이다
▁오로지
▁올랐으며
▁섀
체계
▁곤란
▁연못
▁이룩
▁이타
▁줄여
▁히라
현에서
▁나오고
▁발생하여
▁릭
▁분출
▁암흑
▁피를
▁확신
lass
▁애리조
▁전략을
▁간주된다
▁통합하여
양성
▁가열
▁상인
▁숙청
▁유벤
▁제의
▁통용
클레오
▁NAS
▁가지로
▁기반한
▁벨기에의
▁선수단은
++
▁감싸
▁몸의
▁정유
▁조광
▁지평
▁헬륨
▁미술관
▁아폴로
▁작가이다
거의
롭고
▁SD
▁굵은
해졌고
▁무대로
▁붙었다
▁집안의
▁진행하는
▁방송되었던
▁시뮬레이션
▁프로젝트는
군다
▁89
▁살려
▁수녀
▁수색
▁유의
▁차용
▁갑옷
▁형상
▁들어올
▁로마에
▁이상한
▁기본으로
▁야마구치
au
록을
번이
ere
▁내정
▁돌출
▁둔다
▁공격해
▁기간이
▁뷔
능한
콜라
▁가구
▁가자
▁미터
▁연수
▁직장
팀으로
▁80%
▁구단은
▁여성을
▁요시노
▁파운드
CC
니오
복의
원인
▁가격이
▁가사를
▁구단이
▁케네디
▁1871
▁으
▁박지
▁장을
▁즈음
▁동영상
▁작성한
▁시즌부터
▁딕
모스
▁밀리
▁워크
관계가
사무소
▁길이의
▁열매는
▁올바른
▁이해할
▁인류의
▁카드를
▁경기도의
▁경기장이다
러드
출판
▁샌드
▁문제와
▁선발로
▁시간의
▁일대의
박쥐과에
위원회에
▁사용되지
령과
운은
처는
col
▁USS
▁아키텍
▁인정하는
▁우즈베키스탄
나리
▁박헌
▁생체
▁휴전
▁바꾸는
▁소련은
▁중국은
▁카르타
▁연합군의
▁케임브리지
▁합스부르크
날레
트루
▁상담
▁상해
▁관직에
▁반도의
▁컨트리
▁콤팩트
▁해군은
▁학생들을
감의
케는
▁장미
▁체인
▁투명
공으로
▁방법에
▁시장의
▁대대적인
▁부근에서
▁광명
▁김구
▁회피
▁자란다
▁접근할
▁창원시
▁혁명을
▁엇
창은
▁부드럽
▁공격했다
▁북아일랜드
비오
들었다
속에서
케라톱
▁도마뱀
▁본래의
▁소문이
▁위주로
▁인디애나
▁기록되었다
과가
러를
진보
▁곡선
▁끌고
▁동인
▁맞고
▁빌라
▁직할
▁묘사한
▁장소로
▁은퇴했다
▁평안남도
개에
포와
▁교양
▁만료
▁자칭
▁갈등이
▁물질이
▁센고쿠
▁스카우
▁자랐다
▁트로이
▁킬로미터
▁보라
▁삼척
▁리그인
▁올리는
▁수단으로
▁세기
▁원조
▁초빙
▁추종
▁103
▁가을에
▁극장판
▁높이가
▁도왔다
▁뛰었다
▁받으면서
▁유러피언
▁해체되었다
아래
▁고소
▁누적
▁박람
▁조병
▁환자
▁종교의
▁홍콩의
▁만났
개월간
▁극심한
▁게임으로
▁세종특별자치
액이
▁베른
▁함양
▁시애틀
▁인간은
▁병원에서
▁사람들과
랑은
마크
▁치고
▁논란을
▁흐름을
▁더불어민주
▁썬
도스
러브
이었을
▁가져온
▁건설된
▁그곳에
▁수도를
▁안전한
▁제시한
▁코치를
덴부르크
학자이자
ivers
▁일이었다
야와
직할
▁노란
▁닫힌
▁대행
▁드레
▁이건
▁체크
▁폭행
▁균형을
▁따뜻한
▁중국인
규는
암의
히코
▁경에
▁궁궐
▁돌로
▁부도
▁오크
▁스포르
▁허리케인
▁년간
▁동조
▁사리
▁선비
▁절차
▁표지
▁싸우는
▁자유형
▁종목은
▁정의된다
▁다이아몬드
700
▁늑대
▁서원
▁약혼
▁터보
▁All
▁스테파
▁제도에
▁오클랜드
토모
▁GN
▁강진
▁데모
▁목성
▁않자
▁양육
▁저널
▁마스크
▁역사에서
▁프로그램으로
az
▁앰
▁간선
▁구해
▁면허
▁발의
▁스칸
론으로
만명의
▁CBS
▁정책은
▁제한된
▁필요성을
,6
현대
▁차를
▁토끼
▁맨해튼
▁바꾸고
▁통치를
▁생물학적
▁활동하다가
▁뻔
민과
▁가솔
▁상경
▁태자
▁붙였다
▁사카이
▁안티오
▁의무를
주의적인
▁나타나고
▁노래이다
▁형성하는
▁아리스토텔레
어리
제학
▁내무
▁불린
▁수축
▁아날
▁작아
년에도
티아의
▁불규칙
▁j
▁공표
▁동점
▁주자
▁처분
▁대신해
▁독일에
▁with
▁알래스카
▁오사카부
▁얕
세다
화할
▁터치
루시아
회의를
▁나라가
▁음반에
▁지난날
티넘
▁규격
▁스텔
▁오류
▁총장
▁그룹을
▁동쪽의
▁완성된
▁실패하고
네르
.6%
▁노인
▁파동
▁Mus
▁One
▁슬라브
▁살아있는
▁독립운동가
▁사용하기도
▁맘
▁다를
▁데카
▁상응
▁팀과
▁회로
심으로
▁가족과
▁막부의
▁현상은
▁방문하여
▁%
메가
-13
▁올드
▁호프
궁을
전인
편성
▁가늘
▁음원
▁평을
제도를
학적인
▁사태가
▁고려하여
▁남북으로
▁연기했다
▁옥스퍼드
▁유래했다
▁클럽이다
▁싣
초로
▁어쩔
▁동일하게
▁운영되고
나에
들리
시한
야스
요리
ife
▁대북
아버지
▁이전까지
▁10,000
FL
안과
▁IN
▁부시
▁종을
▁포착
▁해저
누스의
▁분리된
▁비주얼
▁순위를
▁장애인
.2%
▁요약
경찰서
밀하게
▁건축가
▁마라톤
▁박쥐의
▁분석을
▁순으로
▁위에는
▁의혹이
▁책이다
▁플라이
난을
▁부각
▁읽고
▁펜싱
부에는
▁가족을
▁용어이다
▁평안북도
기갑
년동
_13
lat
▁앞의
▁의혹을
▁헥
람쥐
▁결선
▁고산
▁델타
▁맺어
▁미라
▁연소
▁유산
▁결정에
▁자체의
▁한국과
▁시기에는
▁요청했다
난성
.4%
▁경작
▁기단
▁명사
▁반경
▁배려
▁예하
▁제너
▁하치
자리의
▁EBS
▁동유럽
▁성적으로
▁낚
삼존
▁당주
▁뾰족
▁상표
▁원격
대통령
▁그룹이
▁서식지
▁디자인은
▁클라우드
▁오늘날에는
▁웬
공무
▁부재
▁순조
▁브리튼
▁퍼포먼
▁지원하고
▁손실
▁타당
▁모니터
▁민간인
▁선택할
▁오르는
▁조성된
▁도착했다
노를
님은
조각
▁카시
▁키가
▁하반
▁두개골
▁죽음의
▁추구하는
여자고등학교
루수
망에
▁실존
▁은거
▁최성
▁풍자
▁MTV
▁THE
▁구간의
▁플래시
▁관할했다
▁증가하고
보리
▁돌격
▁되던
▁성에
▁음료
▁현행
타이드
▁모두를
▁이전부터
▁슬로베니아
▁주어졌다고
▁83
▁감금
▁공수
▁서산
▁진해
▁후세
리스는
▁로마에서
Co
▁흠
작인
트레
▁명목
▁사서
▁요하
▁타협
▁가깝다
▁소련이
▁않아서
▁파이터
▁기여하였다
▁오케스트라
▁겪고
▁날이
▁종족
연으로
▁미치지
▁성으로
▁트럼프
는가
ild
▁무척
▁이븐
▁학원
▁내리는
▁사건과
▁손해배
▁싸움을
":
▁지쿠
▁히사
교에서
▁말부터
▁물체의
▁1600
▁개봉되었다
리니
▁늦게
▁소통
ical
▁법무부
▁쓰여진
▁와이번
▁전투의
킬로미터
▁가르쳤다
▁시리즈에
▁출연하여
나로
승의
질러
▁레온
▁체포되었다
풀이
▁''
▁내어
▁복용
▁불참
▁삼중
▁협조
▁머리에
▁사라진
▁생산된
▁소나타
▁연합의
계에서는
세기에는
~6
장로
창한
▁2-0
▁무렵에
▁수행한다
▁유지하기
LA
▁Ex
▁긴장
▁배속
▁선로
▁오아
▁방향에
▁서쪽의
▁판매를
▁노선이다
ah
▁샐
린과
▁독창
차례의
▁공간은
▁하도록
▁기념하여
감염
리던
사한
▁의결
▁레스토
▁못하여
▁미주리
▁변경했다
▁아무것도
EG
▁샀
리마
▁대패
▁합친
▁남쪽은
▁서재필
법상
▁93
▁공이
▁대마
▁바우
▁청산
정부는
▁서울에
▁총리는
▁선수들은
▁오케스트
".
▁단식
▁옵션
▁타구
▁성향의
▁에서는
▁발견되지
▁방면으로
▁상관없이
▁항공모함
▁스트라이커
▁찐
시킴
▁92
▁맞대
▁명은
▁짧고
▁파산
▁해가
영화제
▁국민당
▁긴테쓰
▁원나라
▁젊은이
▁서울특별시의
종에
lay
▁고든
▁번성
▁인산
▁제인
▁중퇴
지었다
쪽에는
▁왔으며
▁중심에
파리
▁농장
▁우정
해야만
▁5.1
▁생각이
▁서쪽은
▁애리조나
▁국가대표팀에
▁가맹
▁미만
▁부총
▁유타
▁티켓
▁표본
▁여파로
▁주연을
▁지진이
▁하워드
개국에서
▁1200
▁수여받았다
사르
▁방침
▁인명
▁확진
▁115
▁전기의
▁제국과
▁조정의
▁하루에
▁내용이다
▁퐁
쉽게
▁갈리아
▁마누엘
▁승리에
▁싸웠다
▁중국을
박물관에
▁야마가타
▁전국적으로
더가
더를
▁넷째
▁당원
▁데서
▁살라
▁전함
▁영국이
▁축구단
▁건물이다
▁도쿄에서
▁한편으로
묘한
배가
▁Ad
▁vs
▁공신
▁김원
▁백두
▁시어
▁안드
▁즐길
▁춤을
▁탐구
▁아이폰
▁앨범에
▁전쟁과
▁전통적
▁증상이
▁협력을
▁거부했다
▁효과적인
▁은퇴하였다
▁경질
▁예는
▁우측
▁충전
예정자
▁달러에
▁냈
che
▁석회
▁신형
▁안도
▁내용에
▁되도록
▁선수들의
▁않았다는
MB
ica
▁몽고
학교는
▁동대문
▁했었다
▁압도적인
▁필리핀의
츠크
▁al
▁방콕
▁방화
▁복소
▁비엔
▁아쿠
▁자산
▁파손
▁패전
▁흥미
티미터
▁일하고
▁제출한
▁클럽의
▁표현할
▁수록되었다
▁체코슬로바키아
ish
▁쾰른
대회를
비치는
▁간신히
▁앨범인
▁열차의
▁철학적
▁100%
▁관계없이
▁내에서는
▁대한항공
~10
▁결별
▁죽인
▁혐의
▁회화
▁경쟁을
▁받아야
▁유럽과
oh
.7%
▁나루
▁연인
▁정선
▁타케
▁권위를
▁나라에
▁솔로몬
▁저널리
▁제목은
▁평론가
▁영화제에서
/0
놀이
▁봉기
▁왼손
▁트렌
상규명
▁발견하고
심과
하늘
▁과반
▁리보
▁우회
▁원숭
▁취항
▁품질
▁무리를
▁신화의
▁내부에서
▁연극배우
▁맷
리온
▁갤러
▁것일
▁모셔
▁이현
▁코카
각형의
승으로
▁심하게
▁지역인
▁단독으로
▁하였지만
▁선수단이다
시인
▁바흐
▁세자
▁식당
▁온건
▁조류
▁증대
세였다
연대는
▁정도에
▁조약이
▁위키백과
▁이용된다
▁주관하는
ll
농업
독한
밀히
▁에게
▁도입한
▁설명하고
▁원인으로
간지
렉션
업체
-23
▁EU
▁Gr
▁다름
▁다툼
▁이렇
▁청룡
▁태그
▁한명
라디오
▁경제는
▁구하는
▁세포의
▁언론에
▁영역에
▁인테르
▁강조했다
무의
▁남미
▁동학
▁용암
▁투여
당하여
▁바다에
▁시도를
▁바르샤바
절의
정상
준을
티드
.3%
▁나비
▁아유
▁제임
▁차원
년도에
▁영지를
▁표현이
▁홍문관
▁회원국
위한
하르
▁고토
▁벌여
▁압력
▁이송
▁전이
▁휩쓸
블랜드
▁낳는다
▁떨어뜨
▁극장에서
▁명명되었다
▁종료되었다
ax
법률
청구
▁신동
▁투항
▁한중
탈리아
▁소나무
▁정의는
▁죽음에
▁혼란을
7,
나시
숙은
태는
평의
▁경희
▁고대의
▁대화를
▁코무네다
쿠르
▁Cl
▁겹쳐
▁진을
▁파기
▁헌신
능력을
▁효과는
년대까지
▁것의
▁시몬
▁요동
▁유혹
▁전래
▁피의
▁보한다
▁제정된
▁임명하였다
▁독일인
▁전당에
▁지키기
▁담당한다
디와
럴드
졌기
▁면적
▁음향
▁일일
▁취업
▁논쟁이
▁아랍에미
▁작품에서
▁하느님의
황의
▁셀레
▁좌석
▁똑같이
▁수도로
▁십자군
▁열차를
▁초창기
▁판매하는
▁형성되었다
일자
타고
터키
▁박종
▁서적
▁얇은
정부가
▁90%
▁동쪽은
▁목성의
▁전국의
▁정의를
▁주도한
▁지키고
▁헬리콥
▁에너지가
▁진행하였다
인당
추진
800
▁Bl
▁대각
▁미륵
▁조국
음보살
▁그렸다
▁인접해
▁1889
▁애틀랜타
pr
척을
▁김유
▁노면
▁전복
▁혼성
▁힘썼
▁열심히
▁참여할
▁인공지능
▁함경남도
▁수록예정자
어족
토로
▁주입
스키의
하기가
only
▁대대로
▁도덕적
▁조직은
▁정기적으로
6,
조부
▁강풍
▁바꿨
▁봄에
▁씨앗
▁유식
▁화를
▁남성의
▁세금을
▁시에서
▁역할은
▁체계는
▁한계를
▁떡
▁글자
▁기기
▁마셜
▁목판
▁미션
▁Mar
▁구역은
▁무궁화
▁사상은
▁상처를
▁혐의를
▁궁전
▁다투
▁몰수
▁시부
되어서
▁후지와라노
나기
월호
읍에
틴은
.8%
▁거창
▁로얄
▁막는
▁사쿠
▁입양
▁초고
▁선수의
▁와일드
원자
포에
▁바에
▁염기
▁윌슨
▁절단
치에서
▁당대의
▁알파벳
▁태권도
▁사용되기도
미타
제곱
▁공방
청에서
▁대기업
▁조반니
▁토스카
▁힘으로
CACAF
▁아이디얼
▁활동하던
▁활동하며
▁박사학위를
ous
▁문경
▁시정
▁첨단
▁축조
▁헬싱
▁대표가
▁도로를
▁동등한
▁헌법을
▁협정을
위원회에서
라니
셨다
약의
▁궁정
▁내걸
▁드는
▁헬레
▁개인적
▁미하일
▁삼국지
▁발표하고
락은
밴드
토록
▁대부
▁아키타
▁에스페
▁활발하게
부아
▁산지
▁최진
▁당하고
▁노선으로
RT
하겐
▁노조
▁돌고
▁미키
▁이득
▁장면이
▁황제는
▁다양하게
▁천문학자
▁선임되었다
▁그저
▁드라
▁딸이
▁하르
▁가리지
▁규정을
▁리그로
▁반응이
▁시작할
▁유리한
▁유학생
대한민국
▁국유
▁어찌
▁칼럼
▁검사를
▁노래가
▁사항을
▁축구를
▁패트릭
▁프리메라
서스
술은
합을
▁부에
▁테무
당이다
▁그보다
▁서울로
▁JTBC
성인
웠던
카쓰
▁구형
▁토크
▁프론
▁반응은
▁우려가
▁한국을
받았으며
▁스톡홀름
EL
▁장제
▁조형
▁호를
▁가르침
▁가상의
▁겉보기
▁아이가
우스와
지지만
▁천황이
결혼
▁대영
▁입지
▁천거
▁펑크
▁만들었고
▁점령했다
▁헤르체고
IL
카리
▁격투
▁김광
▁선은
▁아프
▁그래도
▁명확한
▁수학적
▁약속을
▁친구인
▁그녀에게
런의
미래
여단
지스
▁고쿠
▁동네
▁성리
▁일괄
▁정동
▁제대
▁짓는
▁프롤
▁행진
하게도
▁모시고
▁서대문
▁장르의
▁출판된
▁프레이
▁그룹으로
▁전반적인
▁이겨
▁내각의
▁지휘를
▁주민들의
알라
▁경의
▁때려
▁리옹
▁수령
▁아데
▁아빠
▁이언
▁처럼
▁게릴라
▁영업을
▁총리를
▁클리블랜드
거가
아트
▁의문
갔다가
▁건조한
▁교통의
▁열대폭
▁의사소
▁늘어났다
▁보존되어
▁지도자로
▁패럴림픽
스레
증권
_14
row
▁리바
▁정작
▁차출
▁교회는
▁하나다
▁간격으로
스기
▁갖지
▁벽돌
▁생일
▁장사
▁차로
▁치즈
▁파인
해지자
span
▁몽골의
▁앤드루
해석
▁선원
▁치세
틀러는
▁달라고
▁마리의
▁자유의
▁클레이
▁플래티넘
▁댓
데라
사범
어인
후가
▁SL
▁Sy
▁공천
▁기고
▁나노
▁방치
▁슬픔
개국이
경기장
▁것이나
▁생긴다
▁자메이
▁공격하는
.1%
▁이완
▁추서
리그에
▁강남구
▁전신인
▁스타일을
▁운행하고
▁출발하여
조리
▁고원
▁재일
▁저하
▁과도한
▁드디어
▁유지할
▁함수는
▁함수를
ern
▁ch
▁형인
▁황족
▁기술적
▁면이다
▁북쪽은
▁북한이
▁토리노
▁페트로
EM
버의
사유
▁산이
▁소울
▁수필
▁잠정
공사의
운동장
ance
▁ATP
▁목적이
▁바뀌어
▁불안정
▁빅토르
▁설립하여
네티
▁Br
▁김명
▁매체
▁메뉴
▁연봉
▁요인
▁우아
▁중형
▁출가
로이드
▁작전에
락의
▁보석
디자인
공화국의
▁1,500
경비
극을
트넘
▁EX
▁모호
▁요충
▁카즈
가능한
▁노래로
▁매카트
▁병원에
▁왕실의
▁작성된
▁관해서는
▁침묵
▁칸은
▁라파엘
▁명확히
▁부모의
▁제품의
▁1848
복음
부지
▁보증
▁세븐
▁이씨
▁집어
▁혼다
▁소피아
▁수용할
▁양식의
▁요제프
▁스크린도
▁아날로그
▁시즌에서는
PC
복합
▁기수
▁점과
▁회상
▁생겨난
▁엘리트
▁강조하는
과와
▁계수
▁모자
▁발령
▁발해
▁휴식
▁참가할
▁베네수엘라
▁업그레이드
onlyinclude
니라
▁격추
▁부합
▁브룩
▁쾌속
▁평평
버스는
위까지
▁난카이
▁모리스
▁개발했다
▁사망자가
현실
-09
orn
▁공존
▁광학
▁바꿀
▁정성
시간이
▁경로를
▁개통되었다
▁소프트웨어를
련된
▁상공
▁타자
▁파란
▁대전의
▁마을이
▁주위의
▁발견되어
▁자료이다
▁데뷔하였으며
▁늙
▁공백
▁싸이
▁차체
▁뉴캐슬
▁대단히
▁방안을
▁복소수
▁컴퓨팅
▁기간동안
코를
▁듣지
▁루카
▁무작
▁묶어
▁선행
▁승점
▁단체의
▁도로가
▁마르티
▁의지를
▁받아들였다
▁프란체스코
물인
▁AV
▁랴오
▁씨가
▁키르
고에서
▁아나톨
▁암컷은
▁고려시대의
▁대체되었다
▁앗
비서
수지
키타
▁다윈
▁산둥
에너지
▁사거리
▁음악과
▁한편으로는
세요
컴퓨
▁NT
▁느린
▁명인
▁이양
▁찍은
▁코소
▁핑크
▁빨간색
▁식물의
▁시작하고
▁여겨졌다
▁작용하는
▁실시되었다
기둥
▁개헌
▁저격
▁찬양
▁페니
▁놀라운
▁시청률
▁포스터
▁버전으로
▁이용해서
▁출전하지
자고
초가
ook
▁렌즈
▁섬과
▁앙골
▁적어
▁카테
▁...
▁보낸다
▁언론인
대학교를
▁국무총리
▁그랑프리
▁한국철도
벨트
시카
ows
▁노이
▁모의
▁병이
▁입주
▁줄리
▁철폐
순위로
조참판
화하기
▁노르망
▁마이애
▁여겼다
▁호르몬
▁입학하여
▁증가했다
바퀴
복이
에스
절에
▁중엽
▁밴쿠버
▁원칙을
▁전화를
▁해병대
▁사용되어
▁의회에서
▁일어나지
▁프랜시스
▁캐나다에서
▁쿡
미네
천년
▁강대
▁돼지
▁부채
▁현종
▁느끼고
▁단어가
▁득표율
▁신학자
▁연이어
▁서비스가
▁홉
노리
등과
정권
코딩
▁매킨
▁호크
▁끼쳤다
▁서로의
▁음반이
▁프란치
▁붙여졌다
료는
oll
▁MB
▁국한
▁매력
당한다
테리아
▁분야를
▁사이로
▁의문을
▁이름과
▁장소에
▁처분을
가게
교사
니코
치히
▁개항
▁떠오
▁생리
▁수양
▁자란
▁코시
그룹의
olog
▁AKB
▁무소속
▁않아도
▁후기에
▁흐르고
▁부족으로
▁생겨났다
▁청나라의
되나
몽골
▁값은
▁고아
▁전무
▁헤어
각으로
▁가져다
▁독일군
▁시에는
▁전략적
▁지리적
▁직위를
▁챌린지
▁투수이다
금과
호르
▁대왕
▁막스
▁모색
▁상급
▁서귀
▁정읍
관계에
대학의
▁220
▁손실을
▁에콰도르
공파
바브
▁가산
▁출석
가지가
▁다양체
▁미군의
▁비영리
▁않다고
▁왕가의
▁클럽인
▁마오쩌둥
▁z
디지
▁Ph
▁면이
▁무안
▁전전
▁고양시
▁부대의
▁어렵게
▁정책의
과정에서
▁대한민국을
▁정치적으로
부산
충은
ann
▁상행
▁접한
▁집회
만원을
▁대표를
▁따왔다
▁레드삭
▁미야기
▁부인은
▁새끼를
것이
방정
워서
▁WH
▁감수
▁기해
▁선동
우리는
테이너
▁고문을
▁정하고
▁충청도
세기까지
▁스튜어트
/3
▁기인
▁김형
▁블레
▁좌측
▁천천
▁생성된
▁예컨대
▁전자의
▁협회의
▁CONCACAF
비용
.9%
▁un
▁마애
▁죽게
▁희곡
▁가로지
▁금요일
▁영향력이
▁설치하였다
▁알렉산드리아
독을
라드
스퍼
▁스포
저기압
▁도시인
▁일본군의
▁지원하기
▁경상북도의
공작
두의
▁습윤
▁허드
▁ABC
▁각지의
▁논쟁을
▁소유한
▁영역에서
▁카탈루냐
▁콘크리트
▁김천
▁살게
▁쪽에
▁규모를
▁시장이
▁NASA
▁국내에서
_16
▁링크
▁우의
▁트란
▁넘어서
▁아이언
▁앨리스
▁유닉스
케의
▁지출
▁포수
▁안정된
년제
섬의
재산
▁전수
▁최강
▁3.5
▁자원을
▁증거를
▁해안에
▁수행했다
▁여겨지고
사도
▁전담
▁곳곳에
▁모른다
▁믿었다
▁정하는
▁1883
유예
▁동정
▁베리
▁유목
▁입구
▁입국
▁쿠빌
물리학
▁70%
▁대니얼
▁청동기
▁안정적인
▁금호
▁배수
▁질문
▁카지
▁내리고
▁비롯된
▁중심지로
▁캐릭터를
월을
좌를
ref
▁면제
▁산성
▁세트
▁주조
▁포터
▁되어야
▁소재의
▁무대에서
▁선수였다
▁쉴
견이
노와
불이
서인
▁복장
▁의령
▁인재
정이다
▁OST
▁기법을
▁노래의
▁행하는
▁동치이다
▁전까지는
▁맞춘
▁성곽
▁솟아
▁옮긴
▁제천
▁컴파
▁포스
▁거두며
▁공로를
▁남자가
▁유력한
▁의석을
▁성장하였다
EE
세손
▁경복
▁원통
▁아리아
▁공산당의
▁부르고뉴
▁튼
배의
소비
창이
▁SH
▁장이
▁타지
▁대사관
▁마르세
▁표현은
▁토착종이다
망은
시다
▁인간과
▁이번에는
배에
▁간략
▁다듬
▁로페
▁열을
▁인과
▁접수
▁견해가
▁정상적인
▁만들어진다
끄러
▁반포
▁클러
는다는
▁가솔린
▁규칙을
▁원리를
▁깜
내가
크레
▁간이
▁별세
▁사쓰
▁직통
▁채취
오스트
▁생명을
▁만들어져
▁창설되었다
됐던
철학
▁류큐
▁많지
▁타르
부분에
운동이
헝가리
▁공으로
▁양자로
▁미래통합
▁시즈오카
▁영화에서
공화
버른
암아
▁관동
▁서임
▁악의
▁구하기
▁사용자의
▁있어서의
▁해당되는
▁네이션스컵
▁프로그램인
▁딥
나비
바가
▁강간
▁극락
▁극우
▁스와
▁1-2
▁경제를
▁여지가
▁케이프
▁에스페란
균은
록은
▁가신
▁사의
▁자결
▁그것의
▁기관차
▁남동생
▁독립적으로
보장
손의
순의
▁실재
▁옥타
▁종군
▁하키
그리스
년경에
▁왕국이
▁보호하는
▁오카야마
▁경기장으로
▁숀
품은
▁간첩
▁경인
▁군부
▁선천
▁언니
▁은혜
▁콘솔
▁글로브
▁영국령
▁음악이
▁정상에
▁독자적으로
▁쑤
공단
광이
례로
저의
▁공감
▁구이
▁비늘
▁항목
레이트
▁리스트
▁수업을
▁이론이
▁피라미
여자중학교
▁전반적으로
메트
티를
▁5.
▁수락
▁음모
▁이모
▁죽기
▁컸다
▁페레
사들은
▁문화에
▁보내어
▁치렀고
▁따라서는
▁니혼
▁도래
▁보리
제이다
▁대륙의
▁대중의
▁친구가
▁물리치고
▁스트라이크
왕국
▁누이
▁야외
▁일차
▁점수
▁폭파
집으로
▁정보는
▁못했지만
▁죠
▁기와
▁느낄
▁생겼
층에서
▁바다의
▁용인시
▁이용객
적이라고
8,
▁찔
바리
테의
▁체조
▁성향을
▁조직에
▁밝혀지지
▁지배하는
▁프랑스령
▁아이스하키
▁아프리카의
지정
ink
▁고이
▁김인
▁농어
▁에레
▁자서
▁받았던
▁이기고
▁카메룬
▁새누리당
9,
히지
▁PR
▁번영
▁하프
단했다
▁40%
▁너무나
▁1882
▁코스타리카
▁형사소송법
궁에
지던
통상
▁고흥
▁낙하
▁동력
▁보강
▁불분
▁유료
▁유비
▁항쟁
▁최연소
▁파일럿
▁발전하였다
▁프로듀서이다
등은
속도
탄은
▁고다
▁우한
▁허리
내었다
익스피
퍼런스
▁1.0
▁목록을
▁월요일
▁지구가
▁패배한
▁차지했고
▁국회의원을
▁모범
▁보은
▁조인
▁평의
▁API
▁못했던
▁쓰기도
▁에어로
▁하느님
▁활동의
▁유지했다
▁정당이다
▁여객철도의
기며
대성
방과
▁모른
▁반전
▁부평
▁피핀
▁남았다
▁뉴욕주
▁목소리
▁수준을
▁종류는
▁지닌다
▁행성이
들이었다
▁일으킨다
▁세인트루이스
승지
▁세레
▁우치
▁혼동
역까지
▁단계를
▁시코쿠
▁Your
▁탈락했다
▁미드필더로
▁괄
랑의
청과
▁아메
▁오락
▁우파
▁칼로
▁감옥에
▁방식에
▁산업은
▁수사를
▁결승전에
▁개발하였다
▁싼
다와
▁드리
▁매수
▁미소
▁장안
▁집정
▁폭풍
▁단계에
▁달리는
▁마음의
▁방사능
▁예선에
것은
옆면
▁앞선
▁생전에
▁의미이다
▁플레이어가
OK
ru
전대
les
▁AD
▁가의
▁국적
▁새긴
▁실무
▁어느날
▁은메달
▁카이로
키스
포시
▁분지
▁지극
▁추억
르트의
▁가족이
▁급속히
▁기준이
▁시간대
▁진행을
▁들어가게
▁실시하는
▁진출한다
▁키프로스
oo
안보
▁BM
▁공고
▁대역
▁소극
▁잠깐
▁커리
민스터
▁미토콘
▁여배우
▁옮겨졌다
▁컴퓨터를
고속도로의
달의
당할
▁꿈꾸
▁스트레
▁체제로
권에서는
▁후계자로
산초등학교
길에
스콘
오에
타도
▁겪은
▁반격
▁선언을
▁위치가
▁역임했으며
▁피아니스트
마귀
부작
▁En
▁가타
▁글꼴
▁조로
▁해왕
좌상은
▁Sou
▁int
▁레오폴
▁루돌프
▁오일러
▁가나가와현
▁효율적으로
▁댈
▁룸
▁쟈
불의
죄로
▁강철
▁소외
▁잃게
▁레이싱
▁밖에서
▁예전에
▁원정을
▁미야자키
▁하나로서
▁활동했으며
먼의
예가
▁91
▁유해
▁재외
번이나
선거구
▁해밀턴
ec
남부
름의
▁노바
▁놓인
▁도네
▁수로
▁스퀘
▁승무
▁일기
▁작다
▁장덕
▁켈트
▁10,
▁구축함
▁측에서
▁케이스
▁단체이다
▁담당하였다
▁주인공으로
동성
지거나
펜하겐
▁보고서
▁증상을
▁퍼스트
스테르담
▁대항하여
▁적용된다
말의
약이
출력
▁사탕
▁예고
▁조이
▁파는
▁몬테네
했음에도
▁대항하는
▁최고인민
▁확정되었다
▁므
박이
지않
▁송신
▁역도
▁히메
시이다
▁명령에
▁학생이
▁여겨지는
AI
EX
여행
우로
욱은
▁국외
▁장인
들처럼
▁자기가
▁전하고
▁질문에
▁그레고리
공과
설의
▁영장
▁조슈
▁키보
▁공군의
▁상업적
▁용어가
▁작업은
▁말미암아
▁쿠데타를
▁통과하는
세력
세키
▁가중
▁김준
▁나갈
▁루키
▁중합
드리게
주이다
▁교회가
▁근거가
▁단계로
▁생활에
▁저항을
▁판정을
▁Live
▁결합하여
근을
료가
매김
모어
아과
▁정전
운드의
▁SNS
▁신앙을
▁신화에
▁클럽은
진상규명
▁첸
디로
아마
▁CM
▁더비
▁연립
▁정인
일체유
직하고
▁문학의
▁자료는
▁학교는
강전에서
▁나타나지
▁프랑스를
▁요구하였다
▁검거
▁마린
▁연동
▁정자
▁탄자
▁포토
▁피할
▁픽처
화되고
▁관련되어
▁비판하는
비언
훈이
▁FK
▁돕는
▁조셉
슬라프
▁느끼는
▁빠졌다
▁세우는
▁아라곤
▁자라는
▁1868
▁불과하다
▁프랑스로
▁아프리카계
와도
히게
▁비전
▁신입
▁위촉
▁좀더
▁강화를
▁기록과
▁차례에
▁기념하기
▁설립되어
증에
▁단원
▁송도
▁기타를
▁본부를
▁세르게
▁영원히
지역에서
▁벨라루스
▁서울중앙
정지
▁문하
▁에른
▁오기
▁구성은
▁대학은
▁체제의
▁피해자
▁것이므로
▁전해지는
변호
후는
▁고딕
▁관세
▁서스
▁와인
▁표를
▁본질적
▁북유럽
▁지시를
▁흥미를
▁흩어져
▁괌
곡리
라나
막이
▁교정
▁로비
▁산을
데이터
슬레틱
칸옆면
▁For
▁곡들은
▁당국은
▁등에게
▁모르고
▁연맹이
▁이바지
▁참석한
▁황제를
▁실시했다
▁올림피아
▁현장에서
당시
루로
절로
테른
▁1:
▁8,
▁GO
▁kt
▁염려
▁자작
▁화학적
▁Wind
▁사운드트랙
▁시작되었고
.)
BL
브가
▁블로
▁치는
하겠다
▁적었다
디나비아
▁아이들을
▁아직까지
▁광범위하게
처의
프턴
▁성전
▁파병
월드컵
▁도메인
▁멜버른
▁뿌리를
▁자유당
▁주민의
▁설일체유
▁예전에는
▁챙
유와
▁OB
▁과테
▁산호
▁이이
▁초콜
▁화엄
가지로
▁가이드
▁국적을
▁온도는
▁이스탄
▁패하였다
▁겔
▁금산
▁낮다
▁준수
▁차츰
▁휘말
▁등판해
▁혁명이
▁흐른다
▁가르침을
▁메릴랜드
▁홍콩에서
~8
▁닷
▁찢
저를
조치
▁백신
▁안토
바이러
▁거리의
▁교회에
▁바탕에
▁박사는
▁법칙을
▁외국어
▁유럽에
▁장소를
▁발표하여
▁랄
▁헛
토프
▁게리
▁닮은
▁러일
색이다
센터는
▁다나카
▁이사회
▁프로모
▁바오
웨스트
▁LED
▁가격은
▁각자의
▁공격은
▁그만큼
▁도야마
▁영어를
▁요시다
▁찬사를
▁투자를
▁더글러스
▁후반부터
▁공개적으로
도상
파울
▁미세
▁연한
▁포럼
조사를
▁맡기도
▁사상의
▁제이슨
▁철학을
고등법원
퍼레이션
▁설립하고
미치
양에
_21
▁비대
▁은신
▁피오
학과에
▁정당이
▁종래의
▁지상파
▁어머니와
▁프랭클린
▁국가대표로
누마
표의
▁모차
▁지류
▁현직
르트는
▁교육에
▁배터리
▁보이게
▁사랑과
▁사형을
▁안타를
▁작품인
▁주었고
▁철저히
군인
그마
ung
▁계단
▁성명
▁털은
▁자녀를
▁카타르
▁프리스
▁항복을
▁비교하여
노부
있어
▁통보
▁발달한
▁자료에
▁직책을
▁책에서
▁배우이자
▁경기장에서
양과
천면
▁누나
▁법에
▁세바
▁잦은
▁공장을
▁다리가
▁동로마
▁문화는
▁부근의
▁어머니를
~1
▁보복
▁중수
▁카프
▁pro
▁다목적
▁산티아
▁프랜차
▁스타일의
▁없었으며
▁영국으로
박을
코로
▁상연
▁적게
▁전미
▁징병
▁토미
번호는
▁나타날
▁언어가
▁예로는
▁의원의
▁파푸아
▁헤이안
음으로써
▁완벽하게
딘은
통치
_20
▁군정
▁김윤
▁폭이
▁풍속
▁비교해
▁이르게
▁이동하는
▁분리되었다
.,
길은
마케
문서
심에
해로
▁공성
▁송파
▁악마
▁전락
▁호쿠
시켜야
▁나이는
▁사실에
▁유니언
▁한다면
▁유니버설
▁프로세서
▁프로야구
순이
였다는
▁가라앉
▁공간에
▁동메달
▁형식은
▁언급하였다
분한
시브
증과
커를
토크
_17
▁지자
▁차관
분부터
페스트
▁걸쳐서
▁맡았던
▁시간과
▁중요하게
가며
자금
▁아다
▁원활
▁총을
▁칭송
▁강의를
▁비타민
▁서로를
▁은하의
▁테네시
▁행동이
거리에서
▁공장에서
▁할리우드
AE
경쟁
분열
선형
▁경과
▁말리
▁엄마
▁교사로
▁연주를
▁이론과
▁제한을
하더라도
나파
▁이누
▁첼시
▁합천
▁했기
▁IOC
▁급격한
▁단체인
▁비중이
▁근본적인
▁컴퓨터의
▁코펜하겐
TE
▁맬
쉬는
gin
▁럭비
▁맛을
▁불행
▁씨는
▁아와
▁이코
▁가공의
▁몇몇의
▁무역을
▁병력이
▁훈장을
▁스크린도어가
▁멍
녀의
용과
▁맡는
▁연희
▁하니
▁후배
▁경력이
▁샌디에
▁않다는
▁존재로
이었다는
▁나카무라
▁인기있는
▁우크라이나의
▁콕
개씩
그가
사자
승은
티넨
▁보령
▁상법
▁자회
▁게이오
▁계획의
▁시신은
▁의회에
도서관은
▁일본군은
▁치명적인
카에
▁높여
▁압록
▁재상
클리드
▁모았다
▁불확실
▁전역을
▁파견하여
번지
주아
통과
황은
ood
▁넣는
▁달고
▁사인
▁커플
▁해부
궐선거
▁3.0
▁달했다
▁메시지
▁시절을
▁오리온
▁천천히
▁코드는
▁Part
▁러시아와
▁이탈리아는
개미
광은
레니
송의
캠퍼
▁지오
▁캐시
▁하행
▁장점이
▁지방은
▁크리에
전달
▁동등
타나베
▁결혼한
▁상원의
▁요구에
▁의약품
▁줄리아
▁체제가
▁의과대학
▁04
▁말과
▁인원
▁잡는
▁포식
▁하코
▁상에서
▁성명을
▁중심을
▁지위에
▁활동과
▁회사에
▁쿠웨이트
▁투표에서
ai
▁널
수단
하되
▁격려
▁공휴
▁온다
▁회귀
갔으나
겠지만
▁감염된
▁느끼게
▁다카라
▁지역에는
▁프란시스코
▁인도네시아의
내려
바위
재와
컵을
lan
▁세습
▁실리
▁그밖에
▁나트륨
▁밝혀진
▁브뤼셀
▁왕조가
▁작사가
시키는데
▁게오르크
▁들어왔다
샤오
-08
▁무언
▁안녕
▁월터
▁파고
▁공격이
▁그리는
▁시신을
▁준우승에
군주
기동
살에
▁박성
▁자책
▁정몽
▁구성을
▁선거인
▁1893
▁사회민주
▁공개하였다
▁슛
러와
호대
▁김승
▁봉화
▁여인
으려는
▁모로코
▁언론의
▁함대를
▁현대에
▁문서이다
▁방지하기
▁우루과이
▁갚
바오
승이
▁기뻐
▁면을
▁몸은
▁백과
▁송출
▁입수
▁해역
이트는
▁계통의
▁서양의
▁주지사
▁전적으로
극의
어사
▁BC
▁무술
▁라오스
▁귀국하여
▁기관이다
▁들어오는
▁아오모리
▁히틀러는
▁설계되었다
줄기
▁문과
▁부다
▁따르고
▁시이다
▁알렉스
▁요청에
▁공화국이
▁살아남은
▁앨범으로
▁포함되지
▁푸에르토리
▁무서
▁이메
▁정이
▁집착
▁클루
▁것과는
▁로스쿨
▁발전소
▁볼티모
▁사이먼
▁책으로
▁침공을
▁받았는데
▁노스캐롤라이나
DA
티즌
_18
▁불변
▁1-1
▁가리는
▁질량을
▁거리에서
▁분포하고
▁유아기를
▁스칸디나비아
PG
▁촛
▁퉁
요가
회관
▁그릴
▁대출
▁도둑
▁상록
▁재팬
▁판례
▁450
▁가문이
▁강하다
▁활용하여
▁효율적인
보스
▁과장
▁읽는
▁조롱
▁해피
명이며
▁피렌체
▁공간으로
▁현대자동차
검은
천과
회원
▁규탄
▁답변
▁반감
나라가
로스의
▁무엇이
▁장기간
▁증거는
▁전달하는
▁선고받았다
▁향토문화유산
▁at
▁군용
▁한큐
▁함흥
▁해태
전에는
▁경주시
▁당선된
▁비중을
▁서바이
▁운행이
▁작가가
▁지내는
▁스페인은
▁승리했다
마니
▁숨을
▁요격
▁지침
▁페로
▁헌액
▁홍수
▁Day
▁광고를
▁끌어들
▁로마로
▁안되는
▁패했다
시키면서
▁미쓰비시
▁지칭하는
▁유래하였다
링겐
▁94
▁설문
▁포털
▁구조와
▁반란이
▁병사를
▁일반화
▁수행하고
▁입단하여
▁진행한다
르다
일인
ool
▁나미
▁알폰
▁기관이
▁미루어
▁캐서린
▁둘러싸인
▁암스테르담
▁제정되었다
년동계올림픽
강한
로워
변속
오브
▁나일
▁노후
▁별을
▁보낼
▁산시
▁수목
▁양측
▁외래
▁우세
억원을
전부터
청소년
▁것들을
▁맞았다
▁멤버가
▁사무를
▁소식이
▁평가가
▁콘서트를
▁활동으로
▁코로나바이러스
we
남자
니언
리쿠
▁서열
▁재선
놓았다
되다가
▁계속된
▁사용하게
▁시설관리
▁어항이다
득점
선택
▁대포
▁리조
▁오산
▁자카
▁파우
전까지
▁미래에
▁심리적
▁주파수
ublic
▁목소리가
▁플랫폼을
IR
▁김선
▁농경
미술관
▁조선후
▁지붕은
▁문신이다
▁시리즈이다
니티
두가
질에
화문
▁도출
▁리에
▁영천
▁육체
▁청계
▁팔아
이트를
▁대사헌
▁만난다
▁접근을
▁것이지만
▁대규모의
▁국제적으로
서비
플래
훈의
▁고추
▁전구
▁찾고
▁검찰은
▁독일군의
▁명확하게
▁스페인어
▁움직임이
짐에
▁기쁨
▁부당
▁상기
▁인자
달라는
대학을
▁과정의
▁세상의
▁전원이
▁총리로
▁공항으로
▁발견되며
▁성장했다
▁요하네스
▁채택되었다
네를
사항
쾌한
▁도피
▁모빌
▁재차
▁고유한
▁기관의
▁비율을
▁세네갈
▁연설을
▁장관이
▁전투로
▁계속되는
▁명령했다
▁셰익스피
▁맛이
▁싶다
▁영암
▁지는
▁혐오
▁미래를
▁자세를
▁펠리페
방향으로
▁동안에는
▁보이지만
▁이해하는
▁주인공이
▁추정하고
▁아틀레티코
나드
녀가
맨의
모르
사라
아라
임의
표로
▁달에
▁위를
▁철저한
맥을
부도
▁기성
▁냉전
▁다발
▁다저
▁돕기
▁암석
▁워드
▁이회
▁점거
분까지
협회의
▁여성은
▁위구르
▁중성자
▁클라크
▁일대에서
▁일제강점기
/4
▁쪼
대리
만년
청장
▁앤서
▁증폭
▁해독
기관이
문화의
▁그림은
▁생각한
▁순서로
▁오세아
▁집단의
▁매끄러운
▁이용되고
51
손이
피오
▁엔터
▁인력
▁쳤다
투스는
▁인정을
▁국립공원
▁추정되며
▁클럽에서
비노
성장
아카
▁경호
▁모하
▁불완
▁산요
▁신원
▁에마
▁에반
강으로
약으로
▁성적이
▁알제리
▁예선을
▁심지어는
▁없으므로
▁제작했다
ave
▁기니
▁스텝
▁전산
▁택시
▁폐렴
▁별명이
▁사회가
▁성격의
▁신주쿠
▁팬들의
▁애슬레틱
▁회장으로
▁승강장으로
▁인도차이나
▁그외
▁본인
▁수복
▁얘기
▁제로
▁찰리
▁평민
당했고
▁3-1
▁내무부
▁반정부
▁부르게
▁사업이
▁수요가
▁항성의
▁Girl
▁뿐이었다
든다
절은
피크
▁너머
▁때를
▁승용
▁오디
▁자제
▁재난
개이다
▁1888
▁없었지만
▁이론에서
▁증가하는
▁측정하는
▁현대적인
개인
섬은
움이
직이
패의
▁당진
▁바와
▁사슴
방송을
▁브루스
▁키예프
▁스테이션
▁아시아의
▁연합군은
▁체결했다
▁필수적인
▁대한민국민
"&
▁팡
고지
▁글렌
▁이범
▁충렬
▁음반인
▁작전은
▁from
▁야마모토
▁잃어버린
▁자리하고
▁장소에서
▁유래되었다
▁미토콘드리아
공장
▁LC
▁일요
▁관료로
▁머리가
▁산스크
▁상태는
▁주도는
▁중앙의
▁행위는
▁회장이
EP
동원
수입
언론
해질
ade
▁2~3
▁높았다
▁상소를
▁필요하다고
모노
몬트
뮤얼
하신
활성
▁볼프
▁산에
▁용서
▁직책
▁취한
▁측이
시켜서
▁극도로
▁밀도가
▁쌓았다
▁참여를
▁6.25
▁벌어지는
▁네트워크를
봉의
약은
하길
▁거인
▁결핵
▁길다
▁축성
▁탈취
자리는
지라도
▁방송이
▁역할로
▁체결된
▁거점으로
▁도입했다
▁소말리아
기일
바람
제인
타인
▁오대
▁천왕
▁사망자
▁진출할
▁케플러
▁핵융합
사회주의
▁Univers
▁뢰
기통
키에
▁신민
▁원천
▁위그
▁퍼즐
국이다
두었다
▁GNU
▁기원은
▁모델의
▁원소의
▁의회가
▁지점에서
▁활약으로
▁친일반민족행위진상규명
5,
감사
▁구한
▁넓고
▁쏘아
▁어우
▁일리
▁청송
사관학교
▁미나모토
▁줄어들었다
▁프랑스군은
▁굶
머가
사다
▁간혹
▁딸과
▁색이
▁현을
▁Sch
▁생산이
▁숫자는
▁시위가
▁1892
▁반대하였다
▁최고인민회의
▁사영
▁유희
로스는
르타뉴
▁기술과
▁나무를
▁도르트
▁두개의
▁아브라
▁하늘을
▁프린스턴
가미
문인
비안
▁남하
▁늦은
▁레일
▁번갈
쳤으나
▁가깝게
▁구조에
▁대사를
▁아들의
▁오이타
▁측면을
NG
땃쥐
소시
▁DF
▁급증
▁디에
▁배운
▁왕과
▁정려
연합회
▁간사이
▁과학의
▁북서부
▁이론적
▁자연의
대군
루이
예수
-50
▁So
▁관상
▁맞춤
▁시직
▁인가
▁장치가
▁정의에
▁예정이었다
per
▁생생
▁황도
차전은
land
▁시대는
▁이해를
▁전기를
▁주계열
▁장남으로
▁지나간다
디드
시경
워즈
▁성악
▁재래
리스가
스터의
▁그룹에
▁행동은
▁아카데미상
▁국가대표팀에서
공개
루엔
제일
좌의
▁당황
▁리차
▁배달
▁배에
▁버마
▁진한
▁커서
▁하급
▁0.0
▁대전차
▁데이빗
▁도로는
▁추가된
▁1886
▁기록이다
▁라이브러
▁모습이다
▁경제적으로
오자
자문
▁과연
▁나간
▁바울
▁아치
프로세
▁바다를
▁안전을
▁제안한
▁파나마
▁핼
원수
▁강행
▁고장
▁관제
▁나우
▁목회
나에서
▁같다고
▁성남시
▁가능성도
▁가르치는
▁국가들은
▁에른스트
▁이용하고
슨을
율과
층과
▁노보
▁농부
▁법은
▁보며
▁자진
▁240
▁되므로
▁튀르크
▁Tour
▁대한민국에는
비르
▁만드
▁메카
▁모금
▁물과
▁정보의
▁채널을
▁무시하고
▁제작하였다
구스
사적
위치
처가
.19
▁도스
▁불필
▁나누는
▁서부의
▁일주일
▁책임이
▁취임한
▁1876
▁국회에서
▁데스크톱
▁분류한다
▁소행
▁손잡
▁양평
▁증진
▁청색
▁카바
테스는
▁전해지고
▁프란치스코
▁마다가스카르
▁씻
옥은
▁몰두
▁미성
▁변광
▁온난
▁후예
▁손상을
▁원소는
▁가와사키
▁적용되는
▁함경북도
폐합
▁나뭇
▁익산
▁카툰
▁후진
▁1,0
▁북동부
▁향상을
▁니콜라스
▁대비하여
▁분류하고
▁브르타뉴
▁콘테스트
매를
호마
EST
▁CH
▁급히
▁온라
▁일화
▁접해
▁청도
▁걸리는
▁공세를
▁길이를
▁두각을
▁떠난다
▁머리카
▁밴드가
▁탁월한
▁1866
▁지명되었다
행과
▁SA
▁갖춰
▁원반
▁쪽이
▁콜레
▁0.5
▁USB
▁것이기
▁기여한
▁브래드
▁시기가
▁아카이
▁연주자
▁우간다
▁이사를
▁자격이
▁작가로
▁줄이기
대학으로
▁사용하던
▁서비스는
▁에너지의
▁조약으로
▁프레임워
▁산스크리트
▁민족문제연구소의
달라
렌은
분간
ble
▁매직
▁스킴
▁시속
한국당
▁가지지
▁결합을
▁속이다
▁제한이
▁주제에
▁익스플로
▁죽음으로
▁포유류의
▁개편되었다
월이
▁당내
▁대접
▁미에
▁순차
▁쉽다
▁옥천
▁거쳤다
▁기억을
▁일반적
▁종이다
▁1861
▁프로세스
▁판매되었다
네오
히드
▁거점
▁어업
대회에
세포의
▁교류를
▁리베르
▁번째는
▁타인의
▁국가보안
▁국가대표팀은
질환
▁대덕
▁리튬
▁밀란
▁사신
▁신종
▁우두
▁호랑
▁홍성
▁사후에
▁소유의
▁수원시
▁틴
맨스
축제
▁선봉
▁조현
▁타락
미사일
▁가문을
▁뛰어넘
▁먹이는
▁자료로
▁율리우스
목과
수염
▁pr
▁갈래
▁능동
▁말고
▁서인
▁오해
▁이별
▁테라
▁화랑
▁원칙에
▁이름에
▁출전을
표준
▁고마
▁날은
▁신진
▁적분
▁절벽
▁정제
라에몽
▁외부의
▁이같은
▁가르시아
▁존재했다
▁중소기업
▁받아들이지
▁아이디어를
▁전라남도의
투르
함대
▁굴절
▁번도
▁조에
▁단체가
▁단체는
▁보이스
▁있듯이
▁종교는
▁초콜릿
스케이팅
▁구성하고
다양
료의
제철
탄이
▁복권
▁비어
▁아흐
세이다
시간은
▁차세대
▁콘스탄티
▁취득하였다
늦게
데자
마라
이론
▁발동
▁변동
▁에두
▁입는
▁팔작
기면서
▁"20
▁Col
▁지원이
▁태생의
▁학문적
▁공화국은
▁덧붙였다
▁파괴되었다
▁국보
▁섭정
▁여주
▁하와
▁TBS
▁거뒀다
▁새뮤얼
▁앵글로
▁연맹의
법원에서
▁거칠
▁조영
▁즐거
▁캄파
▁한가
마리의
웠으며
▁것인가
▁레인저
▁방정식
▁위치로
▁천황은
▁하겠다
▁효고현
▁살펴보면
신앙
지어
▁결핍
▁상이
▁섞여
▁주권
▁중위
▁치환
사에게
lack
▁남편이
▁아이콘
▁예정인
▁행복한
▁1864
▁라이선스
▁충청남도의
▁몹
▁감자
▁부러
▁샤이
▁수교
▁예멘
미트리
학으로
▁성적은
▁거치면서
▁인도에서
▁가면라이더
▁룬
문트
척이
코토
하리
▁공명
▁나지
▁더빙
▁보자
▁임원
▁주세
▁한달
▁화해
지역을
▁108
▁교황은
▁버스를
▁별자리
▁비정상
▁설계를
잉글랜드
지역으로
▁생각하자
ep
관인
라르
▁상소
▁신을
▁양대
▁위생
▁좌의
세에서
▁올리브
▁인물은
▁지분을
▁보호하고
▁룽
▁관점
▁조회
▁편이
▁남동쪽
▁등지에
▁성에서
▁소재한
▁집합을
▁투쟁을
▁포유류
되었음을
▁취소되었다
ational
살을
심사
▁ML
▁띄는
▁병자
▁성폭
▁자민
자리가
▁노선에
▁예술의
▁패밀리
▁포로가
ition
▁운행되고
▁이산화탄
▁종목이다
▁`
▁늪
다오
정사
택은
▁남인
▁뚫고
▁빅뱅
▁1.2
▁믿는다
▁부부는
▁않았을
▁이동할
▁적당한
▁조약은
▁없었다고
여자대학교
리드
있지
정류
▁공예
▁사와
▁인적
▁읽을
단에는
▁본인은
▁사람에
▁아내가
▁인해서
▁조화를
▁대다수의
▁도카이도
▁임명했다
달마
배로
태가
ons
▁남작
▁내며
▁다쓰
▁열려
▁정주
▁파벌
▁헌병
로니아
stem
▁로베르
▁여자가
▁정도는
▁종류로
▁토트넘
▁국민들의
||
거스
주사
질과
_19
▁다우
▁만날
▁수중
▁예일
▁인형
▁칭기
▁한겨
시간에
▁배치된
▁사업은
▁엔진의
▁제공할
▁초부터
▁확인된
▁보고서를
▁아이치현
▁주변에서
▁인정받았다
▁현재까지도
gr
음반
탑을
▁구호
▁도이
▁정경
▁1,2
▁버린다
▁부모는
▁아들은
▁직후에
▁증가하였다
통에
▁귀속
▁복선
▁알맞
▁청량
▁후작
▁3-0
▁60%
▁건강한
▁동서로
▁이어지고
아에
움의
▁말도
▁자코
▁위스콘
▁이제는
▁이주한
▁1887
▁진출하여
▁제시하였다
▁애니메이션이다
확인
▁공자
▁남산
▁단말
▁명종
▁종신
▁빠져나
▁수페르
▁연맹은
▁이뤄진
▁1850
▁못하도록
▁성씨이다
▁연루되어
▁이베리아
▁공헌하였다
▁꽂
물리
▁고트
▁뉴턴
▁대도
▁민감
▁민정
▁포격
▁공헌을
▁방사선
▁없으면
▁자유와
▁적외선
▁남베트남
▁테스트를
오던
택이
학술
ike
▁군벌
▁마키
▁머신
▁셰이
▁이항
▁허블
데스는
▁네티즌
▁다시금
▁성매매
▁엑스박스
▁쿠빌라이
년엔
백의
▁각국
▁날로
▁물체
▁박상
▁저자
디아의
▁미카엘
▁산맥의
▁에이전
▁오스틴
▁자국의
체육대회
▁Rock
▁기념하는
▁소설이다
▁정보통신
▁주전으로
▁중앙정보
▁한국독립
▁Inter
궤도
대수
운트
▁끼고
▁조계
▁중등
▁코호
나가의
▁기대를
▁아무리
▁교회에서
▁대중교통
▁스트리밍
▁윌리엄스
▁시작되었으며
께끼
남에
바와
포타
.12
▁DD
▁당뇨
▁울릉
▁이창
▁캐논
코리아
▁글자를
▁노동당
▁대체할
▁법원은
▁전자는
▁조사한
▁달라진다
▁도미니카
▁주변에는
▁무산되었다
▁일반적이다
고등보통학교
마켓
인칭
초와
▁개미
▁거세
▁도사
▁뱅크
▁세분
▁신천
라이드
▁왕조를
▁저지대
▁하노버
▁고향으로
▁거절하였다
상황
인산
장사
▁Ge
▁동사
지느러
ject
▁공격할
▁지나면
▁브리티시
▁증권거래
▁사이에서는
▁Do
▁감찰
▁거룩
▁독서
▁베풀
▁산청
▁성북
▁시우
▁시크
▁위함
▁채굴
▁파주
▁기초한
▁남자의
▁동부에
▁설계된
▁세월호
▁화제를
▁한국프로
gh
명도
움과
▁예가
▁참수
▁퇴장
▁편안
정부를
▁이사벨
▁존재는
▁클린턴
데자네이
▁유명하며
▁합류하여
립트
뮬러
아노
플리
▁불균
▁신기
▁어리
▁이봉
▁정적
▁군대와
▁로맨틱
▁볼로냐
▁스트레스
▁자유민주
▁시설관리자는
▁끄
개소
리이
▁가토
▁네모
▁묻혀
▁시오
▁앞세
▁우월
▁피치
년마다
상태가
▁떠나는
▁무엇을
▁홈경기
▁1881
▁초등학교다
카쿠
헤드
▁도루
▁맥아
▁무솔
▁미식
▁미칠
▁살짝
▁일식
▁톈진
▁혼혈
▁논의가
▁데이브
▁중요시
▁완성되었다
BI
광의
바를
▁비는
▁석불
▁수산
▁우지
▁최장
▁캐리
▁틈을
▁한림
베스트
왔으나
▁영원한
▁차트에
▁하이퍼
▁혜택을
ae
합의
ION
▁마요
▁설비
▁열릴
▁주먹
▁카네
▁코리
민들이
보이는
부리그
▁마운트
▁아이의
▁오클라
▁운동과
▁페미니
▁날카로운
▁향토유적
▁러시아에서
▁영국에서는
▁쿄
녀로
면적
▁성운
▁아레
▁안고
▁요절
▁128
▁내린다
▁요르단
▁인물의
▁종목에서
▁배치되었다
군도
암이
언스
처분
▁tv
▁극한
▁문무
▁치렀
▁그러다
▁발전과
▁사명을
▁정의된
▁1872
▁국민투표
▁데뷔골을
▁이들에게
▁크리에이
RI
티와
▁아쉬
▁일간
▁죽여
▁Wii
▁끝나는
▁문자로
▁없음을
▁연안에
▁컨테이너
FI
SA
브나
선인
투로
▁직사
▁그러고
▁마르셀
▁바람이
▁비스타
▁시민의
▁참가해
▁항공사
▁공부했다
~7
▁쾨
▁by
▁기법
▁띠는
▁번창
▁신상
▁추존
▁평탄
▁기사가
▁영토로
▁우루과
▁레스토랑
공립보통학교
르카
후이
▁막대
▁천사
▁휩싸
▁각지에
▁기반이
▁본부는
▁카카오
▁1830
▁Time
▁유지하였다
▁마술
▁발기
▁쉽지
▁정재
▁참의
▁하타
▁그나마
▁장관은
▁자리매김
▁조사에서
기상
례가
아로
언은
외교
치면
▁습득
▁자와
▁중원
▁호족
하지도
▁능력은
▁장악하고
▁표기한다
륜구
▁넥센
▁분수
▁자립
▁절망
▁칼을
▁경계에
▁벗어난
▁솔루션
▁요소로
▁즐기는
▁연주하는
▁제공했다
라운드에서
지방검찰청
쓰고
지부
헌법
ics
▁Ro
▁뒤의
▁쌍대
▁이브
▁직행
결과를
야말로
▁남편의
▁벌이는
▁상품을
▁이겼다
여래좌상
▁사용자는
▁선출했다
▁자신만의
▁캐릭터가
▁도서관이다
▁메트로폴리
▁립
빌리
▁he
▁광물
▁마땅
▁목재
▁성도
▁우체
▁출동
▁칼슘
단체의
▁1/3
▁기지를
▁보였고
▁북서쪽
▁설립을
▁주장도
▁해석을
▁행위에
▁결승골을
결한
아지
전용
▁감상
▁긴키
▁내포
▁단장
▁둘이
▁삼림
▁이례
▁한창
프에서
▁교황이
▁국왕이
▁싱글은
▁팀이다
▁브루클린
▁대체적으로
▁안장되었다
▁막고
▁법이
▁상점
대서양
▁방어를
▁상파울
슈타인은
▁살아가는
▁아나운서
▁과학자들은
남은
서기
자동
제비
조지
▁과시
▁군중
▁부등
▁상부
▁신은
▁장쑤
레스트
사단의
▁범유행
▁법률에
▁시트콤
▁중이며
▁Comp
▁이야기의
▁자택에서
▁폐지하고
▁합격하여
▁유로파리그
▁지속되었다
▁컷
노미
데일
하곤
▁배터
▁백만
▁섬이
▁성행
기관인
▁iOS
▁등급을
▁사태를
▁탤런트
▁합의를
화하였다
▁전성기를
▁학생들에게
합성
ier
▁격리
▁월트
▁일각
▁형용
▁분쟁을
▁강력하게
▁조지아의
▁하이브리
▁인플레이션
▁웨스트민스터
UC
▁부파
▁삶에
▁임의
▁제재
▁지부
▁카피
▁레이더
▁레이크
▁여기는
▁현실을
▁스스로의
▁인터뷰를
▁제시했다
광년
기만
▁가드
▁고생
▁진사
▁구멍을
▁국내에
▁눈물을
▁법률을
▁시장은
▁연호를
▁오른손
▁핵무기
▁혼자서
▁미스터리
▁싱어송라이터이다
▁애완
▁우유
▁주주
▁쿠퍼
바라키
▁라이너
▁스트라
▁여학생
▁하늘의
▁기록했으며
기하
리면
언이
조작
▁식사
▁쓰나
▁유역
▁파면
해서는
▁겨울에
▁기준에
▁세군다
▁정권은
형문화재
▁1863
▁설치했다
▁언어이다
▁일러스트
▁진행되어
▁트레이닝
▁개칭되었다
링의
배치
▁SV
▁논산
▁붕어
▁학명은
▁근거하여
▁중앙은행
▁리우데자네이
▁뱃
강도
괘불
▁맹세
▁비싼
▁원고
▁의성
▁조수
▁필연
▁경전철
▁끝난다
▁세계로
▁일부의
▁정당의
▁클리어
▁통일을
▁가운데에
▁컴파일러
▁임명되었으며
QL
스텐
▁거꾸
▁과잉
▁구독
▁니켈
▁데미
▁도키
▁모신
▁비토
▁기호는
▁소설의
▁숫자를
▁신청을
▁회장은
조판서를
▁시도했다
▁원칙적으로
▁후쿠오카현
로폰
베트
▁CG
▁RT
▁대청
▁두지
▁반죽
▁신봉
▁어촌
▁영월
제도의
집에서
▁가리켜
▁데니스
▁산으로
▁여론이
▁올리버
▁총애를
▁대량으로
▁돌아가는
▁집안에서
▁프리미엄
▁이전하였다
▁쩐
▁객체
▁났다
▁증상
▁체스
▁코린
르면서
바브웨
▁결성한
▁규정이
▁북동쪽
▁정리에
▁처벌을
▁1865
▁수수께끼
▁위원으로
▁프톨레마이오스
골이
오게
▁반역
▁울프
▁조니
▁핵무
렸다는
지에는
▁보이기
▁얻었고
▁제의를
▁차이나
▁패하여
▁헤르만
▁1891
▁지진으로
공관
뮤직
진구
-35
▁덴쇼
스라는
▁스칼라
▁이름도
▁접어들
만으로는
▁말하자면
▁출연한다
▁공격하였다
▁다카라즈카
▁출간되었다
AF
블릿
▁앞둔
▁임계
▁햇빛
번지에
▁롬바르
▁성능이
▁철도는
▁희망을
▁4000
▁Life
▁물리학자
▁이승만은
ky
기병
아비
지하
▁if
▁공적
▁상고
▁그러면
▁두꺼운
▁보기도
▁선거가
▁안된다
▁줄이고
▁지바현
▁HTML
▁발매됐다
▁친일반민족행위진상규명위원회가
▁뭐
월은
협정
▁마니
▁아브
▁퇴직
역이며
▁수시로
▁후보의
▁휴대전
▁내놓았다
▁무함마드
▁설명하기
▁역임했고
▁깁
연화
▁깃털
▁수염
▁행사가
▁베스트셀
▁아드리아
▁우에스기
▁이주하여
▁협력하여
공에
라로
▁끝을
▁리포
▁산은
▁아델
▁한족
선수로
▁넘치는
▁방대한
▁법안을
▁일원이
▁종류에
▁특성상
▁형제는
▁1873
▁등에서는
▁마르쿠스
▁발탁되어
▁연관되어
▁중국에서는
54
발생
유전
저가
증후
차트
ise
▁가쿠
▁공안
▁세가
▁연말
▁잔존
▁제리
▁포츠
버스가
▁만주국
▁말에서
▁베르나
▁올스타전
가쿠
만인
보존
빈이
좌에
▁객원
▁금동
▁매리
▁무어
▁전위
▁종업
▁찍어
▁촉발
간으로
▁end
▁거쳐서
▁문자는
▁이보다
▁거두었고
▁유클리드
▁정차한다
급은
충이
팀과
▁신안
▁되어서
▁범위는
▁사업의
▁신학적
▁연대는
▁왕조는
▁도라에몽
▁이어주는
▁출시했다
▁추가적으로
방법
설과
여를
큐슈
▁길러
▁미합
▁보로
▁부회
▁분홍
▁조심
▁진흙
▁연락을
▁점성술
▁베네딕토
▁측에서는
▁크로아티아의
PD
▁5%
▁때와
▁승하
▁실각
▁영덕
▁전멸
▁갈라져
▁계승한
▁교회와
▁귀국한
▁보통의
▁슈퍼컵
월부터는
▁4,000
▁쑨
▁계엄
▁곱셈
▁굴복
▁내재
▁만인
▁보행
▁성동
▁이며
시험에
ower
▁대성당
▁목요일
▁받아서
▁적용된
▁하나씩
유산으로
▁심사위원
▁아들이자
▁유라시아
▁거부하였다
▁활동하면서
▁프로그램에서
수송
톤은
▁or
▁댓글
▁모스
▁신해
▁장벽
▁징수
산이다
▁Car
▁빛나는
▁삼성전
▁설명을
▁대표팀의
▁순서대로
▁시민들이
담당
▁Ed
▁Or
▁모욕
▁바스
▁부추
▁불에
▁유수
▁초당
▁총회
▁패해
로마치
▁ret
▁경우와
▁극작가
▁선수다
▁취리히
▁파시즘
▁학교가
▁선언하고
▁여름에는
▁유사하게
▁일부이다
▁팔작지붕
ha
▁튼튼
해살이
▁동부의
▁사단은
▁서부에
▁선으로
▁수준이
▁의회를
▁정교한
▁제주시
▁해에는
▁피아노를
▁루이지애나
▁통합되었다
ma
▁꿰
삼진
원칙
▁/&
▁군복
▁브렌
▁소의
▁의류
▁종영
메이트
분교는
reat
▁논란의
▁높이기
▁연대를
▁재료로
▁탄핵을
▁에너지는
▁조선왕조
ps
교구
향의
▁리히
▁불신
▁총무
▁사진이
▁조건에
▁집합의
▁표현의
▁형제가
▁대중적인
▁않았는데
시킴으로써
▁수행하였다
56
보국
부원
와서
입상
▁나빠
▁상에
▁인위
▁저해
▁건립된
▁기원을
▁수차례
▁당선되어
▁독일군은
▁손해배상
다카
모양
수이
▁말린
▁맹활
▁심포
▁요정
프스키
▁가격을
▁바닥에
▁시행된
▁여성과
▁옆으로
▁중국이
▁교수이다
▁대중에게
▁돗
렌스
모든
보지
인사
▁궁중
▁바리
▁서태
▁심야
▁심해
▁일산
▁책이
▁코난
무장관
회의에
▁권한이
▁박영효
▁영토가
▁제너럴
일부터는
▁경기장은
▁사라지고
▁정체성을
▁클럽으로
▁피츠버그
주의자들은
구멍
비크
▁관절
▁구금
▁농축
▁스윙
▁시선
▁완결
▁지분
▁직을
로맨스
운동가
▁교황청
▁뒤늦게
▁비해서
▁왕에게
▁장악한
▁장치는
▁취하는
▁텔레비
▁행위가
대학에서
▁양식으로
▁출마하여
소인
주도
▁이단
▁캄페
▁탈레
시설을
▁선택한
▁주제는
부에서는
▁이데올로
▁요청하였다
레드
사법
타에
▁다행
▁소문
▁여단
▁찾지
주식회
화했다
▁IMF
▁대나무
▁로렌스
▁면적의
▁무너뜨
▁세례를
▁연관이
▁옥수수
▁입자의
▁주의를
▁이슬람교
▁짐바브웨
▁집행유예
▁참여하지
▁뉴질랜드의
군수
막의
소재
lar
▁완도
▁중생
다니며
▁Sup
▁저지른
▁전국에
▁전차를
▁평안도
주식회사
▁계속하여
자비
학습
▁엇갈
▁일진
▁황폐
노스케
보았다
▁가르쳐
▁거꾸로
▁게스트
▁당하는
▁뒤에서
▁맡는다
▁선정된
▁정신과
▁직업을
노동조합
적이라는
▁생성되는
▁이주했다
▁활동했던
들고
예선
▁XP
▁구경
▁기장
▁떠났
▁사각
▁지탱
공사가
▁뜻에서
▁사쓰마
▁영국군
▁움직일
▁유용한
▁충돌이
▁통과한
▁관장하는
▁세력으로
▁아들이며
▁위스콘신
▁이동하여
▁들어서면서
▁혀
부시
운수
촌은
트맨
▁고르
▁손님
▁피카
▁한의
체제를
ings
▁다이빙
▁리믹스
▁마카오
▁입장에
▁키르기
▁폭넓은
▁구스타프
▁센터에서
▁주장으로
덕은
▁국악
▁버린
▁음이
▁차르
▁다국적
▁재정적
▁한사람
▁화재가
▁의원으로
▁북서쪽으로
uc
▁싹
버섯
채의
타수
▁경건
▁복역
▁상정
▁양보
▁일생
▁자켓
▁정형
▁개봉된
▁구간에
▁세번째
▁의사가
▁이와테
▁치료에
▁파견된
▁헌법의
▁1862
▁Open
▁개발하는
▁삼성전자
▁생산하고
▁뮐
그림
든가
백이
헌은
▁버펄
▁스몰
▁실은
▁조항
▁필하
rist
▁머리는
▁삼국시대
▁어시스트
천문
태수
▁격렬
▁교원
▁꾸며
▁마테
▁재앙
▁타인
▁토모
시키려
▁102
▁기술로
▁남자는
▁몸무게
▁무사히
▁여부에
▁지하에
▁세르게이
▁시리즈로
▁콘텐츠를
▁Music
▁Night
기본
버가
▁배드
▁불화
▁열두
▁요괴
▁피셔
▁힘의
급으로
대표팀
리오는
운동은
▁구분할
▁독일을
▁따르지
▁신체적
▁있다며
▁철학의
▁1867
▁공간이다
▁구조이다
▁단백질의
▁버라이어
▁후손들이
▁프로젝트에
토에
후로
▁대에
▁동요
▁안창
▁최영
▁파직
포인트
▁가졌고
▁나타났
▁미군정
▁앤서니
▁엑스포
▁인식을
▁정책이
▁출연해
▁크기와
▁시작되는
▁신한은행
▁인상적인
▁인정했다
▁중앙아메리카
년째
탑은
티야
▁배척
▁유스
▁조의
▁주저
▁지린
▁106
▁배우고
▁부정적
▁연구로
▁연달아
▁영역은
▁이루지
▁전제로
▁포르노
▁해준다
▁거절했다
▁괜
설계
움에
▁공로
▁누리
▁만장
▁온두
▁징계
▁앨범이
▁유래는
▁조조는
▁라틴어로
▁베르나르
레와
은하
타라
▁Up
▁에페
▁유포
▁초중
▁켈리
교회는
문제를
▁의식이
▁제품은
▁철학과
▁마이애미
▁사용했던
▁일치한다
방지
전적
책이
▁ex
▁듀오
▁로런
▁잠실
▁출품
▁판의
▁MSL
▁거두어
▁요인이
▁화재로
▁환자가
▁개최되는
▁국가정보
▁나타냈다
▁내려졌다
▁드라마로
▁선출하는
▁위치하여
▁집중되어
],
가장
니즈
로라
지진
코어
▁광해
▁김희
▁남방
▁순항
▁약칭
▁인테
▁입상
▁종식
시간을
▁가사는
▁조약의
▁코호몰
▁협회는
▁도입하여
▁발행하는
▁법적으로
금속
냐고
전력
충의
▁깊게
▁매슈
▁문정
▁섹스
▁을사
▁자위
▁줄일
▁소속사
▁자리는
▁회원이
아메리칸
▁무로마치
▁보수적인
ys
▁펩
개정
기아
백은
▁떠날
▁자행
▁적발
▁조부
▁컨설
▁필터
층에는
▁가설을
▁감독에
▁부모가
▁아내와
▁학생을
▁대학으로
▁시민들의
▁엥
례에
먼이
범은
부스
브란
틀리
희를
▁각성
▁기차
▁대위
▁박해
▁색의
▁풍경
부사로
코치로
▁Rec
▁명예를
▁분쟁이
▁생명의
▁역할이
▁확률이
▁유니폼을
▁만들었으며
OH
ug
바인
샤의
임에
▁가우
▁배향
▁생길
▁웨인
▁이홍
▁점검
▁종묘
▁취할
▁칠곡
▁코뮌
▁호기
▁단체를
▁마스코
▁활용한
▁평가받고
▁익스프레스
▁미드필더이다
네트
시기
업무
▁너비
▁서지
장에게
▁김옥균
▁남성이
▁북한은
▁불가피
▁집단이
▁컨텐츠
▁행성은
▁메소포타
▁개최하였다
궁은
농민
대중
벤션
보라
브러
let
▁바비
▁숙부
▁염소
▁피처
기술을
텔레콤
▁경찰관
▁나무로
▁보냈고
▁위험에
▁아우구스
▁아이들이
▁종교적인
▁오클라호마
▁정치가이다
▁롭
그와
워스
-07
▁얼룩
▁학과
만명이
▁강으로
▁구멍이
▁리프트
▁여러번
▁하므로
년까지의
▁관계자는
▁방송에서
▁이상적인
▁취득했다
남의
닌은
행렬
▁검열
▁단국
▁섞어
▁저는
▁전하
▁제명
▁평야
▁헌납
카에서
▁가능성
▁버스가
▁범위가
▁사신을
▁태양과
▁펠릭스
른베르크
▁극단적인
▁생각하여
▁안전하게
▁이승만의
▁있었기에
▁체결하였다
▁실증
▁유태
▁의용
▁내용과
▁대승을
▁삼국사
▁수단을
▁수준에
▁영향은
▁오스카
▁외야수
▁우위를
▁이곳의
▁겨울에는
▁디자인이
▁오세아니아
▁낡
교류
비츠
코치
.10
▁가던
▁겪게
▁충무
▁품은
부분이
연패를
피아의
▁HMS
▁국내의
▁산이다
▁있으니
▁구역으로
▁대학교와
▁동원하여
▁이노우에
▁처리하는
▁시스템에서
뉴얼
르스
투어
_22
▁나바
▁무네
▁키릴
리오스
었다는
▁개최한
▁등번호
▁바로크
▁방향의
▁선거로
▁쓰이지
▁참의원
▁히브리
▁공유하는
▁방정식을
▁타이완의
▁회원으로
52
진한
▁드루
▁부풀
▁자처
▁펼친
▁확고
네티컷
됩니다
▁가정용
▁독립한
▁수컷은
▁숨겨진
▁시티즌
▁신시내
▁아이젠
▁언급이
▁한국이
▁활주로
▁반대하여
▁지방선거
참찬
쿠로
ron
▁계의
▁근래
▁맥주
▁박진
▁장원
▁철강
▁강렬한
▁구성요
▁나오게
▁자체에
▁이시카와
▁캐릭터의
▁합류하였다
▁프리미어리그의
흐트
▁구례
▁불구
▁지사
▁훈장
▁세포가
▁여부는
▁인사를
▁처리를
▁패러디
▁편찬한
▁국가들의
section
,3
라서
림에
포도
▁나르
▁낮고
▁뛰는
▁라디
▁슈투
계획을
▁기초가
▁향했다
▁확장을
▁회의에
▁힘썼다
▁개발하여
▁교체되었다
▁시스템으로
농구
▁동탁
▁조소
▁카니
▁것들은
▁교향악
▁소련군
▁1878
▁로드리게
▁분포하는
▁중국으로
▁기록하였고
파괴
품에
해줄
▁To
▁길로
▁동형
▁아디
▁진수
▁총기
▁추론
▁그것에
▁면적이
▁차원의
▁회사로
▁비틀즈의
▁제작하는
▁Dream
▁완공되었다
▁증명하였다
천리
ose
▁걸프
▁그럴
▁동전
▁물결
▁별칭
▁오자
▁완비
▁처한
▁공적을
▁교수의
▁국가인
▁도시와
▁북부와
▁생각은
▁숫자가
▁이적한
▁지정한
▁지켰다
▁크기로
▁해군이
▁계속했다
▁대전에서
▁나폴레옹은
▁미니시리즈
▁승리하였다
록에
직원
찬은
▁모모
▁앤디
▁자릿
▁집적
~200
▁0.3
▁강력히
▁기관을
▁다리는
▁비율로
▁아이즈
필레이션
▁안드레아
▁역사학자
▁일찍부터
브와
효과
▁구니
▁날을
▁요즘
▁일족
▁점진
▁테리
▁편을
▁후유
부대를
▁로맨스
▁사상이
▁주변을
▁하려고
▁1869
▁국가들이
▁올림픽을
▁제공하기
▁회사에서
▁후지와라
▁개인적으로
▁엡
들만
토쿠
희와
▁TC
▁wh
▁거시
▁먹이
▁반입
▁팔린
▁포천
▁111
▁밝혀져
▁병력은
▁드러냈다
▁발전했다
영상
-30
▁경선
▁번은
▁였다
▁이륙
▁저질
▁절친
▁죽는
▁표출
▁형을
▁구조적
▁정해져
▁통하는
슈타인의
▁이바라키
▁조선인민군
단백
배는
▁발리
▁베오
▁비준
는지에
▁담당한
▁머물러
▁사라져
▁패하고
하기까지
▁페르난도
▁비스마르크
혔고
▁대담
▁시합
ount
▁1~2
▁기원후
▁분기점
▁삼국유
▁철도를
▁하기로
▁명령으로
▁자발적으로
▁썩
도라
▁열쇠
▁최남
▁헤겔
부분은
▁릴레이
▁제목을
▁조직된
▁파리로
▁페드로
▁함대는
▁미나모토노
고시
메스
번과
지상
▁경매
▁유망
▁팔꿈
▁한마
▁혜성
대회는
▁근거를
▁서초구
▁정리는
▁죽이는
▁초까지
▁출연을
▁팬들이
▁민주당의
▁않으므로
▁대한제국의
▁설명하였다
▁시상식에서
SC
itt
▁건널
▁그랬
▁김연
▁조차
▁간행된
▁고종의
▁다마스
▁돌연변
▁베네치
▁야구를
▁진행한
▁크기에
▁폼페이
▁제거하고
▁캐릭터로
율의
▁거머
투스의
▁규정한
▁시작을
▁종목에
▁후자의
▁멤버이다
▁지방으로
▁컴필레이션
고스
봉이
수상
절도
▁겪는
▁꽃잎
▁모닝
▁직계
▁공개한
▁방영한
▁숲에서
▁질문을
▁포도주
▁프로테
하자마자
▁나뉘었다
▁상원의원
▁조직하여
▁히어로즈
▁대한민국민법제
▁갯
다스
록의
루트
ium
▁구획
▁나인
▁대제
▁주창
▁칸이
▁토목
온에서
▁갔다가
▁발라드
▁시네마
▁앤드류
▁마지막에
두더
모음
일일
▁군청
▁밀도
▁성산
▁오시
▁의상
▁형의
팀이다
▁210
▁결합한
▁경찰서
▁내세워
▁단거리
▁살아가
▁실수로
▁유지를
▁인코딩
▁돌아오는
▁천연기념물
무관
무덤
▁납작
▁도봉
▁상서
▁시원
▁해트
▁후방
▁드레스
▁바이어
▁복수를
▁정당은
▁켄터키
▁쿠르드
▁시민권을
▁확대되었다
각에
메니
최고
할린
▁감추
▁날려
▁남매
▁소생
▁신전
▁진료
▁근거한
▁남서쪽
▁다수를
▁생활의
▁아닌가
▁와세다
▁조건은
▁뉴클레오
▁드라마는
▁님
두리
애니
▁UC
▁고치
▁복종
▁암모
너스컵
사로서
▁대수적
▁데에는
▁블레이
▁사망할
▁아이티
▁우승과
▁이용이
▁장면은
▁죽임을
▁평했다
▁1840
▁발생하고
▁이끌었고
▁이스탄불
▁어려서부터
▁파견되었다
큰롤
▁그란
▁깨고
▁디나
▁요원
▁휴게
비우스
했기에
▁단어의
▁반대를
▁신약성
▁작곡을
▁재료를
▁주니치
▁데이비스
▁설정되어
▁우승으로
▁유래한다
▁달성하였다
▁부산광역시의
,4
53
센은
ata
▁매립
▁수퍼
▁운수
▁정진
스터를
▁끝내기
▁달러로
▁성질이
▁신설된
▁영국인
▁탄생한
▁향하여
▁분위기가
▁와타나베
▁인테르나
▁발달하였다
▁베이시스트
▁캅
너드
너와
링이
술이
시외
적한
▁가든
▁골짜
▁이길
▁캐롤
▁패킷
▁공장이
▁동인도
▁살해한
▁성립된
▁여기고
▁행사에
▁결승에서
▁공화국을
▁레코드를
▁라이브러리
▁실시하였다
르에
시드
▁AI
▁it
▁곡물
▁데드
▁매디
▁에바
▁카와
▁타우
▁시체를
▁결정하고
▁베토벤의
▁확실하지
▁사회적으로
900
▁떼어
▁루비
▁마다
▁북경
▁사귀
▁재보
▁직교
▁친족
▁타는
기적인
예비치
활동에
▁1.6
▁빠르고
▁세웠고
▁속하게
▁스테판
▁원자핵
▁창설된
▁포뮬러
▁비교하면
▁입학했다
▁이야기이다
▁자체적으로
▁참석하였다
타리
▁AB
▁구에
▁박원
▁유영
▁체르
다니는
당하자
▁건물에
▁신앙의
▁요소는
▁정당한
▁통합을
▁한계가
▁호랑이
들에게도
▁공간에서
▁러시아가
▁코네티컷
57
텐셜
토바
▁가기
▁늘려
소리를
▁빠지게
▁새정치
▁아내인
▁지나친
▁충성을
▁가수이자
▁남아시아
▁만들어낸
▁성공한다
▁식민지를
▁이탈리아를
튼은
▁AG
▁고찰
▁도박
▁마나
▁사나
▁색은
▁서진
여명이
▁노태우
▁로마를
▁양상을
▁만들기도
▁유럽연합
▁프로축구
:2
돈의
way
▁Pe
▁기를
▁변모
▁서거
▁쓰게
교육청
다람쥐
베이성
학교로
▁개선을
▁동물을
▁바다로
▁버클리
▁지원했다
▁텍사스주
▁부임하였다
▁샌디에이고
▁즉위하였다
▁모스크바에서
송이
아우
토끼
필을
▁단정
▁응급
▁전방
▁제왕
▁119
▁그녀와
▁성소수
▁실행할
▁이상은
▁인원은
레타리아
▁]
보우
▁01
▁릴리
▁배의
▁불려
▁외환
반으로
집이다
▁대량의
▁배우는
▁상대를
▁이것에
▁장애를
▁전주시
▁파리에
▁후원을
▁거주한다
▁못하였고
▁산티아고
본과
▁괴물
▁해킹
▁흑백
구조를
▁다니며
▁살면서
▁세계적
▁생성된다
▁표현한다
하였으므로
▁줌
곡과
달은
또는
조연
▁림프
▁발착
▁심화
▁양은
▁친한
▁말에는
▁줄이는
▁헬싱키
▁중국공산당
란에
방식
▁갈리
▁보류
▁양조
▁입어
▁잠입
▁정글
▁성경의
▁영역의
▁전설의
▁해결할
▁부진으로
▁이주하였다
▁사용되었으며
▁셜
골의
누아
쿠치
ody
▁군과
▁납부
▁매진
▁병에
▁재벌
▁낙동강
▁사헌부
▁소설은
▁신뢰를
▁쓰레기
▁언어와
▁여자의
▁승진했다
▁return
닌다
집권
▁낮추
▁다룰
▁반성
▁삼은
▁있은
▁추축
정보를
▁같았다
▁거두고
▁외국의
▁대표이사
▁생산되었다
▁낯
▁원동
노동자
버린다
조사에
▁280
▁녹음을
▁듯하다
▁바꿨다
▁아이오
▁안정을
▁전자가
▁신분으로
▁아이디어
▁채택하고
새를
▁미츠
▁변질
▁유머
▁조나
▁한데
▁기술에
▁벌이고
▁사무총
▁하나에
▁고등교육
▁운동으로
▁페널티킥
▁라이프치히
▁마드리드의
▁발탁되었다
변수
▁비아
▁앨리
▁이문
▁태안
시키면
▁국정원
▁많지만
▁불분명
▁시점에
▁해안을
▁결혼식을
▁그것이다
▁사람들에
▁와카야마
▁인도유럽
집과
향이
▁단양
▁레버
▁박재
▁사물
▁송진
▁악성
노동당
▁KTX
▁국가들
▁무게는
▁버스는
▁오늘에
▁재개발
▁곳이기도
더와
데의
보자
역인
움은
▁감동
▁공국
▁기적
▁능가
▁모던
▁지을
리아스
림으로
▁결합된
▁영상이
▁오바마
▁인구를
▁제도와
▁지적이
▁기관으로
▁이듬해에
▁제거하는
ME
ale
▁광무
▁마비
▁물은
▁배양
▁버진
▁엘레
교수로
▁결승에
▁교리를
▁권유로
▁대표작
▁전설에
▁조조가
▁하노이
▁1875
▁정책으로
▁추진하고
▁발표하면서
▁북동쪽으로
▁;
도우
만화
제어
IVE
_24
▁기가
▁끼친
▁다닐
▁도청
▁몹시
▁번씩
▁변증
▁타오
▁투신
▁홀리
상태에
워드는
▁높이의
▁뜻하며
▁사회는
▁아랍어
▁온도를
▁이랜드
▁인생을
▁촬영을
▁플랑크
▁넘어갔다
▁어디까지
▁일본군이
▁통합되어
▁히틀러의
▁인터페이스를
▁벅
▁복직
▁사위
▁익숙
▁직속
▁광대한
▁박사가
▁오리건
▁제후로
▁몸길이가
▁부에노스
▁올라가는
▁해트트릭
▁강조하였다
▁유러피언컵
란과
학사
▁놓아
▁식을
▁연중
동물의
캠퍼스
▁권리가
▁대웅전
▁마을로
▁부임한
▁체계가
▁탑재한
▁효력을
▁고등학생
▁노르망디
▁보여주며
▁탄자니아
와라
채와
▁AL
▁Ab
▁만을
▁받던
▁지그
▁청자
▁문명의
▁미만의
▁복무를
▁생물학
▁언급된
▁일부러
▁지방과
▁코트디
▁편으로
▁총회에서
▁국가에서는
▁노력하였다
▁알고리즘은
▁플레이오프에
익은
중주
▁공대
▁담양
▁레즈
▁발산
▁여럿
▁정화
▁주며
▁키를
▁결정할
▁단점이
▁메르세
▁총사령
▁발발하자
▁키르기스
노선
드래
윽고
▁an
▁괜찮
▁라쿠
▁마에
▁성문
▁수은
▁여타
▁자궁
▁질서
지로서
▁끝냈다
▁달아나
▁방송은
▁분노를
▁시험에
▁원소를
▁이후인
▁도착하여
▁연구소의
▁참가한다
▁프로그래머
게르
데는
반대
즈마
.15
oon
▁KN
▁근사
▁데는
▁연도
▁오만
▁초음
▁페라
▁황실
에게만
하자고
▁능력과
▁돌아갈
▁비단털
▁차가운
▁기술이다
▁소수민족
▁승리하여
다발
발트
작업
쿠마
타노
펭귄
▁묘는
▁발로
▁윤휴
▁평원
중으로
하려던
▁경제가
▁권력의
▁명의로
▁성장한
▁인민군
▁정리를
▁튀어나
▁군인이다
▁떨어진다
▁일어나기
살인
혁은
▁마켓
▁벤처
▁저주
▁절감
▁제헌
▁짧게
port
▁Boy
▁떠나게
▁싱글을
▁연관된
▁정권에
▁주기로
▁플루토
▁개시했다
▁노력했다
▁데이터가
▁보헤미아
▁하였다고
▁핵심적인
▁보고되었다
▁자이언츠의
formula
립의
예의
왕복
창조
▁곡인
▁믿을
▁설교
▁소용
▁순식
▁신자
▁앨라
▁이호
▁콜럼
관이다
▁705
▁개발은
▁땅에서
▁알프스
▁저렴한
▁현장에
▁반대했다
▁작곡가이다
▁Windows
딘의
온과
유니
일스
장성
적일
쿠는
son
▁공양
▁노드
▁디비
▁파충
▁패스
▁휘발
네스는
바도르
▁선생님
▁이윽고
위원장을
자로부터
해졌으며
▁1592
▁생산되는
▁어려움이
▁제공된다
▁필요성이
▁매장되었다
▁전라북도의
▁가톨릭교회의
▁쥘
▁탬
광고
내각
노래
레네
룡은
화도
▁공영
▁배워
▁추리
단체인
아미타
외국어
▁경우의
▁글래스
▁번호를
▁분위기
▁질량의
▁타일러
▁형이상
▁후대에
▁후자는
▁연호이다
▁자연수이다
▁턴
다테
때는
수영
페라
▁경시
▁묶여
▁예약
▁이니
▁잡을
▁점도
네트워
로에서
▁광해군
▁설계한
▁위상을
▁조정은
▁해주는
▁그린란드
▁등장하며
▁문제점을
▁부르주아
▁생산한다
▁연구하고
▁확인했다
▁버라이어티
▁조선민주주의인민공화국은
DC
슈퍼
피탈
▁강성
▁노원
▁안젤
▁오일
▁정계
▁채소
사라는
▁노벨상
▁펼쳐져
▁논문에서
▁명칭이다
도마뱀붙이
▁뉘른베르크
민속
연과
120
eth
▁둘레
▁사비
산드로
일부로
▁개인용
▁나리타
▁대학이
▁미군이
▁변하지
▁트라야
세기에서
▁국토교통
▁여성들이
▁전문적인
▁클레멘스
▁프랜차이즈
풍은
▁대령
▁묘지
▁소작
▁시국
▁아끼
▁쪽의
리라는
중이던
▁AMD
▁끌어올
▁라치오
▁사고는
▁키보드
▁편이며
▁드미트리
▁말하기를
▁베를린에서
po
우회
▁교장
▁날인
▁로키
▁애착
▁줄을
▁피살
리기도
쳤지만
▁4.0
▁관리가
▁남서부
▁불교를
▁이상인
▁자극을
▁제공한
▁있어서도
~18
▁돈이
▁둘의
▁바트
▁살기
▁안경
▁용해
▁유령
▁일삼
▁전장
very
▁서울을
▁앨버트
▁정치의
▁칭기즈
▁통제를
▁항공의
▁감독직을
▁경우이다
구미
기원
나지
련을
제조
후를
▁GM
▁도리
▁삼는
▁임정
▁휴양
누스가
able
▁Can
▁Ser
▁비용은
▁사상에
▁생계를
▁집단을
▁총독부
받기
파라
▁Sm
▁규명
▁며느
▁보름
▁불량
▁살며
▁수다
▁순례
▁위조
▁청취
▁돌려보
▁두가지
▁못했으며
▁이해하고
▁중심지는
▁활동했고
▁오늘날까지
▁스타디움에서
너를
스틱
오버
110
▁me
▁걸고
▁변이
▁이룰
▁일주
▁직렬
▁징집
▁하의
▁해시
왕에게
▁노르드
▁따랐다
▁병자호
▁조언을
▁일으키고
Ch
UN
노트
ohn
▁개수
▁김두
▁사하
▁종말
▁책록
▁혈관
▁강하고
▁고성능
▁묻혔다
▁부인이
▁손해를
▁시도는
▁썼으며
▁얼굴에
▁염두에
▁유전적
▁임시로
▁명목으로
▁차지하게
▁어워드에서
▁의도적으로
건에
길의
일기
▁구슬
▁오우
▁월화
▁전대
▁줄곧
▁평형
크리스
▁경제에
▁기업은
▁동의를
▁센터는
▁일기로
▁특성이
▁곳이었다
▁국왕으로
▁스리랑카
▁보컬리스트
▁제안하였다
▁촐
분할
▁가군
▁멋진
▁볼록
▁오미
▁푸아
▁And
▁가량의
▁형제의
리우스는
▁명나라의
▁주인공인
▁항공사로
▁결성되었다
녀는
베는
분기
양구
팅을
품과
~15
▁가가
▁무단
▁사커
▁송환
▁안겨
▁왕정
▁질소
운드로
일자로
▁감리교
▁관계의
▁반격을
▁방송사
▁부부의
▁신석기
▁아들과
▁전해져
▁케이트
▁가졌으며
▁보편적인
▁본관으로
▁일하였다
▁치러졌다
▁상황이었다
값은
격의
숙이
ala
▁계룡
▁고을
▁안중
▁외할
▁절도
▁정예
▁주임
시설이
작전을
▁물체가
▁반발을
▁스탠리
▁팬들은
▁한번도
▁사업으로
▁이외에는
▁방글라데시
▁팻
공정
▁관구
▁교부
▁띠며
▁라자
▁맡겨
▁아뢰
▁오와
▁잔여
▁침체
▁호모
▁사고의
▁세포는
▁전력이
▁통폐합
스코리아
▁부분이다
▁제작하고
▁토스카나
▁판매량을
TR
섬유
스프
▁끝났
▁노랑
▁장병
▁조경
▁tvN
▁경성부
▁명백한
▁물질은
▁바뀌는
▁블루윙
▁영화와
▁장로교
▁재계약
▁주식을
▁체코의
▁개발도상
▁국가이다
▁급격하게
▁기사이다
▁당나라의
▁가입하였다
▁유명해졌다
▁지역에서만
58
게도
상인
app
▁경은
▁연화
▁왕래
▁음운
▁출구
▁피드
▁형이
리라고
▁기관은
▁기후는
▁스위치
▁알리고
▁적용할
▁혼란에
기보다는
조사에서
▁당하였다
▁문화예술
▁방문했다
▁소재지는
▁사이타마현
곡동
골은
노조
▁고의
▁대를
▁비지
▁사설
▁스쿠
▁안팎
▁엔트
▁장래
▁준동
▁초의
▁풍습
▁하쿠
가락을
됐지만
▁3-2
▁고시엔
▁남동부
▁보통은
▁부담을
▁오르게
▁왕국과
▁결성하여
▁운영한다
▁전시되어
▁총칭이다
▁훙
구간
후쿠
▁AA
▁과다
▁주성
▁지석
▁투하
▁후루
라이브
세기경
▁공연이
▁내전이
▁물러난
▁복수의
▁사보이
▁실권을
▁열리고
▁조선을
▁형식이
▁고전적인
▁시리즈가
▁요구한다
▁유로비전
▁출생하였다
▁University
▁쯔
곡면
화재
▁개로
▁로트
▁마티
▁무명
▁엘런
▁여부
▁월남
▁자랐
▁전교
▁통역
▁관점을
▁되풀이
▁산업이
▁성우는
▁수상자
▁없다며
▁장착한
▁정계에
▁지나가
▁순식간에
▁충청북도의
▁하이브리드
달이
록시
보며
송을
▁뉴올
▁라울
▁맑은
▁비옥
▁신당
▁싸울
▁노력이
▁도로의
▁사람인
▁사례는
▁스테인
▁시도가
▁스카우트
상공
엘은
킨은
▁IV
▁나쁘
▁아쓰
▁허정
▁황색
▁극적인
▁꼬리는
▁끝나면
▁남성과
▁드러내
▁별개로
▁부문을
▁스트로
▁예산을
▁이성질
▁재편성
▁러시아에
▁마음으로
▁시간대에
▁신기록을
▁인식하고
▁제기했다
망원
오세
츠카
▁금정
▁도도
▁스기
▁연행
▁은폐
▁픽셀
▁함은
▁향신
냈으며
▁드레이
▁무리가
▁무솔리
▁어디서
▁에스컬
▁저술한
▁하원의
▁후계자
▁가능성은
▁가로질러
▁서비스의
▁전사했다
▁지내다가
▁여러해살이
▁2011-12
덕을
락에
번대
_23
▁가다
▁공리
▁금환
▁다나
▁동창
▁들지
▁봉수
▁아놀
▁왕인
▁이심
갔지만
스키가
타에서
▁230
▁NBC
▁결정이
▁기능에
▁단계의
▁대회로
▁번이나
▁싱글인
▁운명을
▁지구로
▁보고했다
▁주어지는
립을
테러
▁경량
▁도산
▁애기
▁집은
▁치유
중공업
▁단단한
▁미군은
▁번역한
▁보고를
▁생명체
▁선수인
▁위주의
▁의장을
▁타타르
▁형태와
▁화요일
▁기자회견
▁슌
거와
산염
▁고집
▁구부
▁눈은
▁전적
보에서
부사를
▁걸린다
▁수요일
▁수입을
▁스케줄
▁영국을
▁임기를
▁제프리
▁진실을
▁병사들이
▁발매되었으며
값이
둘러
렐라
새가
연금
▁Ag
▁TR
▁군함
▁먼지
▁방공
▁씨를
▁앞뒤
▁치르
▁파열
▁가지를
▁거래를
▁계산할
▁다이노
▁단체로
▁물체를
▁아이들
▁카디널
▁행동의
▁힌두교
▁아테네에서
▁코퍼레이션
In
룡의
먹는
성공
회전
.20
ATO
_25
▁강변
▁김우
▁꽃을
▁덕에
▁되살
▁랭크
▁생선
▁슈타
▁완수
▁항만
캐스트
회사인
▁레이디
▁마그네
▁문헌에
▁셈이다
▁스퀘어
▁신임을
▁신학교
▁야마다
▁얼굴은
▁재구성
▁전면에
▁전자를
▁경제적인
▁과정이다
▁그만두고
▁상징으로
▁파견되어
▁힐베르트
▁마르크스주의
▁2009-10
천에
▁9,
▁Fe
▁병기
▁쓰일
▁원전
▁유우
▁클릭
▁히노
력발전
물에서
▁바라는
▁분류는
▁브리지
▁사회학
▁졸업생
▁초에는
▁촬영한
▁교황으로
▁남부에서
▁변화하는
▁의거하여
▁장관으로
▁절대적인
▁조직으로
▁추정되고
▁시스템이다
동지
맨은
빌은
▁불타
데스의
슬라브
▁리그는
▁세계는
▁자연과
▁기업으로
▁복귀하여
▁있음에도
▁제공하였다
TF
그를
심리
▁배로
▁원심
▁크며
▁현무
체계를
▁개그맨
▁그랑프
▁무기로
▁무늬가
▁수도는
▁없어진
▁합니다
▁해결을
그라운드
▁내려오는
▁루마니아의
▁생각하였다
▁2010-11
GO
▁띈
중대
▁둘다
▁목에
▁알기
▁요양
▁주일
▁출혈
궁에서
츠에서
▁1.1
▁그렇기
▁사용은
▁새마을
▁쓰러뜨
▁아침에
▁체포된
▁충돌을
▁필요할
▁요청으로
▁만들어지는
▁브란덴부르크
걸이
ict
▁MA
▁관목
▁문의
▁베테
▁아칸
▁안톤
▁집의
▁라이센
▁망원경
▁속했다
▁시대로
▁친환경
판에서는
▁연합군이
▁정의하고
▁지배하에
▁궐
가이
드루
약에
윤은
탄에
att
▁고난
▁글이
▁절충
▁차오
▁평상
사이클
▁104
▁건설이
▁꼬리를
▁높였다
▁달린다
▁서스펜
▁직원이
▁컬렉션
▁프레드
▁Song
▁야쿠르트
▁서아프리카
링크
친왕
▁거처
▁공시
▁미첼
▁비를
▁의정
▁결정은
▁고고학
▁기도를
▁범죄를
▁비교할
▁연구한
▁원소가
▁잭슨의
▁저스틴
▁점으로
▁주최한
▁패스트
▁행정부
▁환경이
▁Good
▁자신들을
▁현역에서
▁득점하였다
구니
순을
▁넷플
▁도르
▁배반
▁비둘
▁색소
▁천수
버스를
산업의
▁260
▁그림이
▁기온이
▁런던에
▁세력에
▁신분을
▁여의도
▁태양계
▁신성로마
▁위치에서
▁인정받고
▁항공기를
가라
규의
니카
본에
악을
▁땅이
▁사내
▁소를
▁식의
▁애드
▁영사
▁이그
▁정종
▁차고
▁통솔
어머니
이드의
▁기준은
▁다비드
▁마닐라
▁역할에
▁참여해
▁간단하게
▁등장하여
▁부산에서
▁이뤄졌다
▁선거구에서
▁중심지이다
▁끔
속이
으러
쳐서
클래
▁결제
▁본사
▁정박
▁고전적
▁대회인
▁리차드
▁미친다
▁변경을
▁악기를
대학교에
▁어머니인
▁집합이다
루크
신정
▁가뭄
▁기밀
▁끊어
▁듣는
▁맞물
▁모라
▁셀주
▁콜드
뿐이다
▁강에서
▁기슭에
▁내려와
▁선언한
▁업로드
▁없도록
▁필두로
▁뉴멕시코
▁반대하고
▁아이들은
▁참가하지
▁초반에는
▁파푸아뉴
질량
-06
▁구두
▁기압
▁내릴
▁되게
▁뒤덮
▁사림
▁석권
▁세키
▁손녀
▁싸운
▁아킬
▁제창
▁직경
▁촛불
▁카슈
▁캐치
거리에
캐나다
플라이
▁더블린
▁발행한
▁복귀를
▁소련과
▁여자를
▁종교를
▁컴퓨터에
▁비슷하지만
▁연구소에서
▁존재한다는
방어
-22
▁곤살
▁근위
▁김은
▁매표
▁버드
▁복싱
자마자
트레이
▁Don
▁고정된
▁교육은
▁선고했다
▁아이들의
▁대표적이다
투수
iel
▁NE
▁렌더
▁미겔
▁병렬
▁소가
▁이도
▁읽어
▁하후
▁ATC
▁게임과
▁바탕을
▁일본식
▁정체를
▁허드슨
▁개정으로
▁금지하는
▁이해하기
▁참석했다
▁카스티야
▁리베르타도
니크
암을
열과
향교
▁나나
▁동적
▁방탄
▁야전
▁조봉
▁헤센
문학상
연승을
▁로큰롤
▁사랑은
▁임무는
▁파스칼
▁호스트
받았으나
▁뉴올리언
▁사람들도
▁설치하는
▁아래에는
▁파라과이
▁활약하며
▁입학하였다
▁한국방송공사
59
기시
담은
수정
유대
지검
▁남을
▁백운
▁성화
▁위법
▁일가
▁정거
사회적
▁깨닫고
▁베이비
▁사무소
▁선조의
▁패키지
▁홋카이
▁휴대폰
▁1874
▁1877
▁슈퍼스타
▁시외버스
▁재판에서
▁주둔하고
▁남동쪽으로
범이
암사
주며
투는
ult
▁국의
▁깨어
▁스킬
▁1.8
▁2-3
▁교통국
▁나간다
▁머물렀
▁방송에
▁예수가
▁관리한다
▁대표되는
▁연합하여
▁주최하는
▁상업적으로
▁소속기관이다
▁플레이오프에서
섭은
찰을
que
▁YG
▁것만
▁고층
▁대여
▁올레
▁유틸
▁중견
▁프루
대군의
▁CIA
▁고쳤다
▁국무총
▁다수가
▁대다수
▁요시아
▁홈런과
시키려는
▁들어서는
▁기자회견을
엔터테인먼트
▁일반적으로는
~12
▁나름
▁도읍
▁목욕
▁무르
▁사수
▁실효
▁외손
▁유체
▁기능과
▁변하는
▁올렸고
▁요리토
▁전설이
▁죽었고
▁총학생
▁그레이엄
▁명나라에
▁명성황후
▁맞이하였다
▁탔
년생
란한
참여
▁08
▁검정
▁러닝
▁매도
▁믿음
▁본존
▁비싸
▁속편
▁오사
▁패망
▁현황
협회가
▁근대적
▁동작을
▁둥지를
▁레이스
▁맥스웰
▁앞에는
▁직후인
▁무렵부터
▁작용한다
▁초기부터
▁패배했다
▁유니버시아
▁애니메이션의
숙의
어류
유물
▁교단
▁셔틀
▁유정
▁추운
▁털어
▁해전
▁거두지
▁마을은
▁만장일
▁발전한
▁발행된
▁불리한
▁세대의
▁않거나
▁이사장
▁준비가
▁질서를
▁탄압을
▁파블로
해지면서
▁구성한다
▁노부나가
▁보수주의
▁최소한의
▁학자들이
▁한반도의
▁세르비아의
미카
부전
aby
oid
▁1%
▁남겼
▁불릴
▁스이
▁슬램
▁승낙
이스케
▁개기일
▁국가적
▁도쿄의
▁세력과
▁아내를
▁운동가
▁자민당
▁조각을
▁주이다
▁판매가
▁만드는데
▁발견되고
▁사건에서
▁시민들은
▁없었으나
▁주어졌을
▁트랜스포
HL
국도
영국
츠에
통계
포럼
효율
히라
▁닛산
▁대서
▁열정
▁원효
▁정칙
▁진상
▁you
▁가늘고
▁개발자
▁곧이어
▁등급은
▁먹기도
▁메디치
▁문자의
▁변한다
▁이때의
▁지구는
▁인종차별
▁착공하여
PM
노이
진군
탈을
태의
호인
▁WC
▁독도
▁부조
▁억울
▁에볼
▁에인
▁자명
우스를
이트의
팀에서
▁개념의
▁배경을
▁진단을
▁위원장을
▁호소카와
송은
▁군마
▁얕은
▁음의
▁자비
▁집이
것이다
훈련을
▁대학과
▁발견할
▁설명한
▁인식이
▁임기는
▁잭슨은
▁총리의
▁공직선거
▁승강장의
▁이용하면
▁조성되어
▁좋아한다
▁지나가는
▁표현하였다
▁출시되었으며
LC
격투
결의
배마
임과
▁KO
▁당신
▁정월
▁타마
명에게
▁공연은
▁등록된
▁마우스
▁만화를
▁이민을
▁임금이
▁타임스
▁계속되고
▁등장하고
▁부여하는
▁인수하여
▁재직했다
▁종목으로
▁중반부터
▁체계적인
엔터테인먼
▁메트로폴리탄
▁2007-08
HD
광장
규가
말은
짐을
패스
▁Bo
▁같아
▁싣고
▁캐나
쳤다고
▁270
▁감독인
▁경기인
▁돌아왔
▁야구장
▁이동을
▁일식은
▁조정을
▁포도당
▁단백질을
▁아이오와
▁제작되어
▁즉위하자
▁차량으로
▁현상이다
▁맴
개념
닷컴
소총
피트
"()
EEE
▁광년
▁민요
▁벽에
▁주부
▁캠벨
▁홍익
유가행
▁날개를
▁얼굴이
▁자살을
▁제작자
▁지위가
▁직무를
▁측정할
▁침략을
▁표기는
▁되어서야
▁등록되어
▁비판하고
▁신화에서
▁남서쪽으로
▁데뷔했으며
▁승진하였다
▁일렉트로닉
▁만들어졌으며
곤은
기반
▁강서
▁개개
▁달콤
▁멘델
▁수만
▁아지
▁이형
▁천장
▁태도
▁항등
세포는
▁많은데
▁사바나
▁사하라
▁정착한
▁1859
▁서식하고
▁여성주의
▁적용하여
▁본질적으로
▁안드로메다
VA
▁푼
:30
▁구장
▁발자
▁왕가
디스크
청으로
호에서
reak
▁나무의
▁누구도
▁대상에
▁데일리
▁백악기
▁사례를
▁지진의
▁천체의
했으므로
▁불안정한
▁알프레드
▁헤르체고비나
▁엣
보전
혁신
▁대진
▁떠돌
▁명륜
▁성실
▁전단
▁전리
▁폴라
▁효자
는지를
종공신
▁달성한
▁비잔틴
▁알베르
▁대학교로
▁두드러진
▁바다에서
▁활동하였으며
▁2008-09
선사
엔진
좌파
ank
▁글래
▁맞배
▁발포
▁분별
▁아편
▁야코
▁염화
▁장자
▁정관
▁탱크
▁표창
▁흥덕
대학은
문화를
▁보리스
▁성인이
▁시마즈
▁여자는
▁오가는
▁장르를
▁제니퍼
▁지대에
▁공격적인
▁구별된다
▁별명으로
▁표현하고
▁플루토늄
▁대조적으로
▁대통령에게
▁부다페스트
▁유식유가행
▁땀
분경
생성
순에
인물
전화
▁Qu
▁불사
▁자음
▁저수
▁주동
▁면모를
▁목적에
▁미카와
▁바뀌게
▁연예인
▁입자가
▁팬들에게
▁대한민국이
카테
▁BL
▁각료
▁마차
▁미켈
▁박용
▁산과
▁순창
▁심어
▁오게
▁유생
▁이석
▁첩보
▁충칭
방식을
웨이는
회의는
▁고도의
▁구원을
▁내에는
▁네바다
▁대표이
▁명령어
▁미성년
▁부분일
▁아키텐
▁어우러
▁영예를
▁전공을
▁체제는
▁초신성
▁출마를
▁소아시아
▁올림픽에서는
로쿠
법적
▁넓혀
▁두뇌
▁태생
궁으로
까지를
▁다이쇼
▁당하여
▁비행을
▁역할도
▁세웠으며
▁스미스는
▁않는다면
건과
근과
더릭
레앙
출장
▁묘소
▁바젤
▁분사
▁속초
▁제동
▁채색
▁책에
▁편향
스럽고
지방의
트라는
▁112
▁Let
▁능력에
▁대항해
▁불리던
▁수비를
▁일행은
▁가능하고
▁로베르토
▁사무라이
▁자동차의
.[
FS
리한
새는
▁구내
▁둘을
▁박찬
▁양극
▁후추
서에는
▁위원을
▁컴퍼니
▁시스템과
▁갑작스럽게
▁근무하였다
▁보도되었다
▁불가리아의
▁출시하였다
대도
섬에
▁NP
▁미르
▁반항
▁비리
▁안철
▁음주
▁조연
▁좋고
▁타밀
스러워
▁개발과
▁배경이
▁아스카
▁오리엔
▁죽는다
▁파생된
▁구역이다
▁아시리아
▁인터넷을
▁프로모션
▁곶
김씨
보컬
홍은
▁기마
▁당연
▁몰고
▁스쿼
▁앨버
▁완봉
▁초회
▁토양
▁파업
▁1.3
▁건강이
▁단어로
▁밑으로
▁반도에
▁서포터
▁신세계
▁어웨이
▁영역으로
▁증가한다
▁지배하고
▁챈
북면
인승
콜로
▁금액
▁눈치
▁무찌
▁법안
▁변속
▁외삼
▁이희
쇼에서
여개의
▁생물의
▁유능한
▁힘들다
▁것이라며
▁데이터의
▁작품들은
▁자연스러운
▁지원하였다
겁게
주민
준과
테가
▁격자
▁생도
▁쌍의
▁에노
▁여는
▁육식
▁장대
▁접합
▁테헤
▁티에
▁판명
▁할인
버그는
▁노르만
▁뇌물을
▁비정규
▁상세한
▁세계가
▁유니콘
▁존슨은
▁프린스
▁모양이다
▁묘사하고
▁사회과학
▁슈투트가
▁전설적인
▁집중적으로
오지
▁관성
▁독살
▁두터
▁배는
▁사치
▁양양
▁대군을
▁셀레우
▁이들과
▁입지를
▁재판에
▁6000
▁청나라에
▁포함되는
▁확실하게
▁Heart
▁대대적으로
▁체계적으로
건강
블라
파티
uck
▁09
▁갇혀
▁땅의
▁라벨
▁매스
▁선양
▁쉽고
▁육지
▁중용
▁푸젠
호이다
▁다르며
▁사간원
▁수행한
▁슬하에
▁시미즈
▁앙드레
▁유대교
▁있기에
▁재발매
▁찍었다
▁포항시
▁희귀한
▁나타나며
▁노동자의
▁제국주의
▁주도권을
▁표현했다
yn
관측
반과
보상
왕릉
타점
▁대문
▁배리
▁블룸
▁이선
▁지날
회의의
▁516
▁Out
▁연합국
▁장치의
▁증후군
▁참가를
▁모티브로
▁방정식은
▁수비수로
▁소개되었다
▁평균자책점
IX
▁콧
렌의
머의
바타
▁CO
▁모란
▁비야
▁안방
▁에는
▁이만
▁형벌
▁휘는
네이션
▁나왔고
▁만들게
▁묘소는
▁분야는
▁불만이
▁연결을
▁영토는
▁이루게
▁이적을
▁중거리
▁지점을
▁파악할
▁격파하고
▁묘사했다
▁일렉트릭
▁전해졌다
▁출생하여
분데스리가
▁아나키스트
▁추증되었다
▁설일체유부의
me
거북
빈을
청사
▁AU
▁리브
▁멀어
▁삶과
▁아그
▁알카
▁유선
▁조석
▁코로
▁퓨처
▁핵탄
▁흡사
기관을
▁공군기
▁부인의
▁어도비
▁등장하지
▁선제골을
▁식민지의
▁캄파니아
▁판매하고
▁위치해있다
▁추진하였다
또한
충을
▁대하
▁법령
▁봉황
▁신시
▁실어
▁쓰던
▁잎이
▁호가
남으로
스트롱
▁고기를
▁금환일
▁대립이
▁바람을
▁브라더
▁질병을
▁체제에
국회의원
▁대학이다
▁쇼트트랙
▁헤라클레
▁알렉산데르
▁투입되었다
▁랠
여개
티어
▁로우
▁중랑
스와프
▁330
▁기상청
▁김정일
▁복귀한
▁왔으나
▁작가는
▁크메르
▁러시아어
▁정도이며
▁캄페오나
▁표현된다
▁북극점에서
▁엔터프라이
달을
체험
콘서
▁눈의
▁복속
▁부교
▁부주
▁용맹
▁증발
▁현은
변으로
▁만나고
▁생각에
▁신학을
▁예술적
▁내부에는
▁언급하고
▁추천으로
▁사망하면서
▁유지되었다
▁쯤
막에
빨리
지배
▁날씨
▁농산
▁북중
▁사교
▁싸웠
▁의논
▁중개
지였다
▁Gen
▁건설에
▁교육이
▁기리는
▁다시는
▁방법과
▁왕국에
▁공동체의
▁다르지만
▁작품들을
▁포인트를
▁유럽에서는
각과
귀족
림사
▁결여
▁공세
▁길은
▁다치
▁대인
▁지우
▁쳐서
▁카리
▁쿠로
건으로
로그램
▁1.4
▁2/3
▁구체적
▁높이고
▁무죄를
▁문자가
▁브레멘
▁영토의
▁인구밀
▁폭탄을
▁대표팀에
▁메모리얼
▁시설이다
▁예정되어
▁친구들과
▁석방되었다
▁자리잡았다
네프
임금
현재
▁La
▁리프
▁서면
▁왔던
▁접두
▁정정
▁증조
▁진전
때까지
사우스
▁가볍게
▁궤도에
▁모양은
▁쇼핑몰
▁아이누
▁알폰소
▁작위는
▁치르게
축구연맹
▁IEEE
▁구분한다
▁달아났다
▁자랑하는
▁함수이다
범의
죄를
커우
ash
▁눈물
▁오트
▁제가
▁개념에
▁바쳤다
▁사무실
▁서구의
▁선수와
▁아이다
센터에서
▁해결하는
▁그러고나서
▁사람이었다
▁작품으로는
▁진행되었고
Re
▁뜬
급이
무르
월말
커와
ute
▁le
▁그대
▁누에
▁대좌
▁불복
▁우상
▁적당
▁708
▁선생이
▁승부를
▁신성한
▁데뷔하여
▁브레이브
▁실시한다
▁아이스크
▁이론이다
▁플레이를
▁비롯되었다
실장
RNA
ars
▁게일
▁경무
▁돌이
▁리어
▁불의
▁쌓고
▁제르
▁죽일
▁처칠
▁177
▁가스가
▁구약성
▁문장을
▁부족을
▁부친은
▁북조선
▁승정원
▁양쪽에
▁여왕의
▁출범한
▁학술적
▁후쿠이
하기에는
▁분포하며
▁소장되어
▁자카르타
▁중심지가
▁메르세데스
▁베이징에서
▁오늘날에도
▁일방적으로
▁세종특별자치시
▁멧
▁썰
강화
모닉
묘는
▁로컬
▁소식
▁자사
▁토리
랜드는
리스와
제도가
▁내각이
▁대상의
▁바뀐다
▁붙이는
▁형상을
▁드라마의
▁모두에게
▁불상이다
▁사망한다
차전에서는
▁크리스티나
▁알렉산드로스
--
NT
ke
수스
입을
행사
▁기금
▁단속
▁미수
▁버밍
▁수증
▁재회
하느냐
▁공국의
▁느낌이
▁대의원
▁붉은색
▁쓰이며
▁영역이
▁집합은
▁컴파일
▁퍼텐셜
▁오디션을
▁인플루엔
▁클라이언트
▁볶
명령
수학
혈압
▁적법
부대가
▁107
▁가정을
▁감소로
▁구분이
▁부장판
▁육군은
▁이조참
▁증가한
▁펼쳐진
▁구성되며
▁주민등록
▁공부하였다
▁뉴잉글랜드
연극
enc
▁AE
▁교량
▁됐고
▁문맥
▁상가
▁샤오
▁수인
▁올릴
▁입당
▁주역
▁착취
됐으나
▁당사자
▁대단한
▁반기를
▁비하면
▁와이드
▁전선을
▁출생한
▁팔렸다
▁프리큐
▁ICBM
▁소장하고
▁이후로도
그린
벌리
▁국수
▁근원
▁다윗
▁바쳐
▁세토
▁영미
▁족의
▁행해
▁휘하
분이다
▁농어촌
▁다항식
▁바스크
▁수있는
▁신문에
▁영어의
▁태양이
▁해운대
▁해협을
▁마리아의
▁소유권을
▁지하철의
▁고등학교에
▁지구로부터
블릭
자형
젝트
키로
alt
▁거미
▁부엌
▁블랑
▁이강
▁인체
▁잉여
▁치우
▁탁구
▁편견
▁항생
리스를
▁공항이
▁군으로
▁매거진
▁무게를
▁원로원
▁특허를
▁표면의
▁보내졌다
▁전국에서
▁확인하고
Wh
▁꾸몄
▁눌러
▁뚜껑
▁설리
▁옮겼
▁테베
나라와
오면서
인지는
here
▁연기한
▁예수회
▁우주선
▁이순신
▁인생의
▁프리킥
▁과테말라
▁무승부를
▁브레이크
▁비난했다
▁신시내티
▁전선에서
▁정의하는
동초등학교
▁참여했으며
레븐
책은
처벌
카로
평이
▁벵골
▁사당
▁약사
▁풀이
밖에도
▁공작의
▁도입을
▁모자이
▁붙잡혀
▁실수를
▁외무부
▁제품이
▁진주시
▁캠페인
▁표트르
▁보이기도
▁생성한다
▁예로부터
▁지배권을
▁1,200
실업
육군
질서
▁면직
▁속을
▁우물
▁전학
▁조승
들에는
▁걸렸다
▁글리코
▁방송의
▁연료를
▁주한미
▁클레오
▁트위터
▁사실상의
▁선출되어
▁요구하고
▁컴퓨터가
▁있었으므로
""
▁쏜
▁짚
년여
소유
탐정
▁격하
▁넘버
▁담보
▁등산
▁물류
▁밝고
▁조던
▁탈당
▁할양
▁녹음한
▁도구를
▁부분과
▁사례로
▁요리는
▁인정한
▁일부에
▁중공업
▁출입구
▁히트를
▁서바이벌
▁스탈린은
▁심각하게
바드
별한
암에
여지
중계
탄과
▁At
▁꼬마
▁데르
▁부양
▁신지
▁어지
▁왔고
▁유방
▁저우
▁조제
▁탄수
갔는데
미아의
법원은
올해의
▁4.5
▁방송인
▁방향이
▁선택을
▁패러다
▁학생의
▁1700
▁1812
▁명확하지
▁보이는데
▁쓰이기도
▁인민해방
▁주인공은
▁지역구의
SI
담의
됨을
마타
전설
크루
DOS
aff
▁05
▁김치
▁분단
▁서위
▁양서
▁취해
▁타쿠
▁팔을
으로만
일일식
▁누렸다
▁단계는
▁생산한
▁엔진과
▁입구에
▁전역의
▁천안시
▁환경의
▁1879
▁개최하고
▁무엇보다
▁언급된다
▁집단으로
▁패배하여
▁표시한다
▁6,000
DI
교인
다에
담이
소나
소닉
연패
▁몰랐
▁박경
▁배분
▁베드
▁봉인
▁빨라
▁양천
▁유카
▁가면서
▁돌아간
▁루도비
▁신체의
▁싶다는
▁영토에
▁지식의
▁편성이
▁필요에
▁다스리는
▁대법원은
▁요리이다
▁유전자를
▁파시스트
▁후손으로
▁받아들이는
▁상하이에서
▁점령하였다
▁멱
네와
히며
▁가극
▁가모
▁남지
▁머큐
▁백업
▁벽을
▁스펜
세포를
▁0.1
▁고려에
▁언어에
▁찾아서
▁칠레의
▁코끼리
▁거부하는
▁높아졌다
▁간접적으로
▁페르시아의
암동
▁가온
▁낮게
▁따돌
▁리는
▁리사
▁바쿠
▁버섯
▁사생
▁한민
▁한산
경이다
기관에
림에서
브리어
▁도구로
▁머리와
▁모양인
▁제도로
▁태어날
▁테크놀
▁결성했다
▁바이마르
▁영국군은
▁허용하는
▁연구자들은
레르
려야
복과
사대
에어
플릿
▁경순
▁레몬
▁마늘
▁샤프
▁식용
▁신곡
▁적힌
▁전봉
▁호스
▁히스
에게로
▁들어선
▁발전이
▁분류할
▁있는가
▁잠비아
▁장소가
▁찾아와
▁콘크리
▁앨라배마
▁여우주연상
등기
매의
사장
채로
▁동백
▁미생
▁버터
▁불로
▁수식
▁온실
▁지팡
▁회유
전쟁이
화된다
▁바깥쪽
▁설치할
▁행성을
▁상황이다
▁이루어질
▁지지하였다
▁평가하였다
colspan
"|
광주
답게
위도
▁김시
▁딱딱
▁로고
▁바늘
▁보정
▁삶은
▁신발
▁열거
▁감정이
▁뉴욕에
▁어깨를
▁치른다
▁행사할
▁휴대용
바키아의
▁8000
▁대중음악
▁비판적인
▁아니냐는
▁없어졌다
▁이것들은
▁크리스틴
▁활동한다
so
균의
변화
비어
▁내구
▁묘역
▁묻는
▁발톱
▁성지
▁센서
▁수와
▁실체
▁조장
▁클랜
노카미
습니까
▁0.2
▁게이밍
▁동물로
▁스타트
▁히트곡
▁수여하는
▁여기서는
▁월드컵의
▁전투이다
▁종류이다
▁진나라의
▁카메라를
식민
전철
틱스
▁As
▁그도
▁김덕
▁알로
▁재해
▁조시
▁하리
생활에
질적인
▁리모델
▁모임을
▁밀가루
▁양자역
▁음모를
▁개발되어
▁생각하지
▁이미지가
▁태어났고
▁등록되었다
▁연구에서는
▁아프리카에서
레알
보조
보트
_27
▁군데
▁믿지
▁범람
▁산남
▁일과
▁읽기
▁저그
▁대상은
▁빼앗아
▁성우로
▁싱가포
▁용산구
▁인류가
▁독일군이
▁레오나르
▁병원으로
▁생성하는
▁혁명으로
고교
덩이
_26
▁Dr
▁왕당
▁인하
▁조준
▁최용
▁호른
▁호리
▁3~4
▁곡들을
▁공민왕
▁공사는
▁교통사
▁국민이
▁날이다
▁마포구
▁명단의
▁문학을
▁시켰다
▁인프라
▁전통에
▁중부에
▁멤버들이
▁시인이다
▁근본적으로
▁닝
내면
레닌
처에
▁가닥
▁반달
▁자갈
▁청일
▁혼잡
▁힘은
조차도
▁320
▁건전한
▁과거를
▁국제선
▁단위의
▁선보인
▁원자가
▁장점을
▁전통의
▁체계의
▁출간된
▁한민족
▁화합물
▁환자는
▁실시하여
▁인사들이
▁조정에서
▁지지했다
▁출전하는
▁툰
런던
▁강우
▁구가
▁머릿
▁무도
▁버티
▁생을
▁종파
▁하류
▁힘에
나무를
아시안
▁650
▁권력이
▁남부와
▁법원의
▁생기게
▁성직자
▁식물을
▁영광을
▁올라와
▁처리할
▁브랜드를
▁대승불교의
쓰는
ull
▁리즈
▁버클
▁부안
▁세울
▁식이
▁워낙
▁황소
▁공주시
▁사냥을
▁성분이
▁에이즈
▁조직과
▁관할하고
▁맥락에서
▁마련하였다
▁말레이시아의
▁사회민주주의
렉스
ail
▁불만
▁아드
▁제철
▁퇴출
▁플리
▁후이
▁휴가
들로는
억원의
▁Vol
▁계약에
▁공기를
▁높으며
▁마에다
▁믿음을
▁시가지
▁실패를
▁이하로
▁지식인
▁폭력을
▁다음날인
▁일치하는
▁제작하여
▁배출하였다
▁소프트웨어는
,000,000
댄스
바우
상대
측이
현동
▁거란
▁르완
▁만이
▁소피
실점을
▁보상을
▁산업을
▁헌법은
적이지만
▁그때까지
▁기동전사
▁음악으로
▁지시했다
▁처형되었다
▁뜯
가슴
날을
일반
쳤던
흐는
▁동상
▁로타
▁백혈
▁별도
▁삼위
▁서자
▁쌍성
도움을
버스의
▁2.4
▁802
▁따위의
▁부진한
▁취했다
▁기록한다
▁헬레니즘
돈은
사토
재해
정비
▁국사
▁내게
▁복식
▁선우
▁숙박
▁아말
▁유길
▁중건
▁진천
▁퇴위
우리가
장치를
▁남편과
▁느꼈다
▁리그가
▁문서에
▁백화점
▁보컬을
▁부대로
▁사실과
▁주민이
▁진행할
▁프리츠
▁병사들은
▁위반으로
▁인터넷에
계사
탄올
▁케르
▁학대
리아노
주의로
쳤는데
플렉스
▁고인돌
▁관해서
▁몰도바
▁사랑이
▁사무엘
▁사할린
▁업무는
▁입후보
▁찾았다
▁차지했으며
▁인테르나치오
례는
여년
잡지
▁균일
▁넘지
▁래리
▁벨리
▁재구
▁정명
▁호찌
능력이
▁거짓말
▁수백만
▁태블릿
▁피해는
▁행해진
▁호흡을
▁경기장을
▁브랜드로
▁수행하기
▁캄페오나투
▁텅
▁끔찍
▁낡은
▁내림
▁대입
▁도약
▁색상
▁양념
▁영락
▁인계
▁침범
▁투니
▁혈통
토스는
▁데포르
▁랴오닝
▁바치는
▁세련된
▁앤더슨
▁통합된
▁트레일
▁파괴된
▁플러그
▁흔하게
▁사회적인
▁선정했다
▁이야기에
▁작곡했다
국수
마력
분리
인수
ual
▁거문
▁김주
▁물자
▁비에
▁비하
▁스베
▁시할
▁원에
▁잃어
▁중후
▁캐슬
마저도
임으로
카드를
타니아
▁걸었다
▁사가미
▁사령부
▁수도가
▁식사를
▁영혼을
▁인도양
▁지극히
▁화장품
▁마감했다
▁바라보는
▁상대방의
▁순위에서
▁스페인과
▁올라갔다
▁위원회가
▁확장되었다
EA
기소
노마
메랄
틀을
MBC
▁as
▁규합
▁사민
▁엿볼
▁지브
▁부모님
▁아내의
▁조용히
▁증거로
▁판단을
▁민주당은
▁행동으로
▁시작했는데
▁아시아에서
▁완료되었다
▁public
be
고트
박람
상어
영웅
이니
티엔
~30
▁넬슨
▁목이
▁인제
▁절제
리아와
백으로
▁109
▁결정된
▁디렉터
▁소크라
▁지식과
▁지위는
▁확장된
▁Soul
▁볼셰비키
▁운영되는
▁폐지되고
거릿
바에
시미
und
▁3-
▁균등
▁김도
▁드로
▁변해
▁정세
▁포에
▁포화
▁횡령
륜구동
스트림
지이며
차례에
ogle
▁글리제
▁메시에
▁방식과
▁브리스
▁시대와
▁원년에
▁의심을
▁있어도
▁전사한
▁지명은
▁침입을
▁클로드
▁타원형
▁소설가이다
▁Christ
샤는
외의
▁고로
▁당수
▁상자
▁경고를
▁나뉘며
▁로널드
▁로타르
▁분야로
▁브라이
▁성경을
▁성향이
▁엔리케
▁화면에
▁황태자
▁경제학자
▁레코드에
by
사진
올리
윤이
▁글씨
▁단군
▁분파
▁안기
▁역학
정부에
▁논의를
▁방법의
▁부친의
▁북한에
▁않기로
▁위패를
▁남아있지
▁녹음했다
▁성격으로
▁이마가와
▁철저하게
▁파키스탄의
05
IF
레로
부족
▁SR
▁과목
▁구강
▁궁내
▁드나
▁뜻에
▁명제
▁양수
▁이덕
▁이조
▁이한
▁조동
그리고
▁분자의
▁세포를
▁열렸고
▁외부에
▁유일하다
▁지도자가
▁인정하였다
▁열대폭풍으로
BN
찬성
ret
▁Gl
▁배타
▁실사
▁착각
▁토로
▁현미
▁가했다
▁약칭은
▁작전이
▁차별을
▁규정되어
▁보관되어
▁영등포구
▁평가하는
▁멀티미디어
▁타지키스탄
암과
우체
▁겨냥
▁산책
▁시중
▁아츠
▁침례
심리학
▁분명한
▁선제후
▁정점을
▁토마토
▁핸드볼
적이었던
▁다카하시
▁자동차를
▁표현으로
뛰기
명씩
소장
_31
▁기종
▁내적
▁대방
▁러시
▁변혁
▁샀다
▁세컨
▁양궁
▁자존
▁창덕
▁태화
▁폭은
나무가
조선의
▁등에도
▁시니어
▁없는데
▁열렬한
▁재결합
▁지식이
▁패턴을
▁개최했다
▁참가하게
▁표시하는
▁합병하여
▁받아들이고
오스트레일리아
af
▁벚
직과
▁노골
▁놓는
▁느슨
▁물가
▁바디
▁앓고
▁오피
해져서
lect
▁되돌려
▁보너스
▁운영에
▁프랑코
시장에서
▁관여하는
▁도쿠시마
▁몰아내고
▁현재에도
▁국내에서는
▁사임하였다
▁플로리다주
▁Record
로트
막은
무지
펠트
▁갔고
▁귀가
▁금천
▁도부
▁선별
▁신익
▁알마
▁외척
▁정문
▁주름
▁테살
▁학파
대대는
로서도
해준다
▁결정한
▁나무가
▁대전에
▁성당의
▁위키백
자에게는
▁오른쪽에
▁이야기로
▁정규리그
▁Black
▁발매되었고
▁방문하였다
~9
▁놈
가정
색슨
없다
연장
▁경원
▁동진
▁볼드
▁북반
▁새우
▁서류
▁서예
▁시발
▁영적
▁예편
▁이철
▁조너
▁출국
공격을
▁강서구
▁고성군
▁기관지
▁남편을
▁다행히
▁엘리엇
▁황제에
▁노력으로
▁다루었다
▁박물관에
▁스파이더
▁악화되어
▁이것으로
▁지칭한다
▁국회의원이다
▁탭
북부
▁IR
▁미미
▁봉헌
▁부리
▁브릿
▁에일
▁우스
▁유족
▁일종
▁재검
▁지킬
▁홍천
▁황산
기구의
니우스
리아를
타점을
form
▁Not
▁모형을
▁소련에
▁임금을
▁함대의
▁1789
▁공급하는
▁받아들인
▁이동했다
▁일으켰고
▁합의했다
▁가로지르는
의는
익의
있을
테일
협동
▁국공
▁김보
▁루크
▁린다
▁부전
▁사에
▁절약
▁쥐고
▁틀어
방송의
컴퓨터
프랑크
▁부르봉
▁여주인
▁정당인
▁특성에
법에서는
▁기독교를
▁볼티모어
▁유틸리티
▁조선후기
공무원으로
▁2,500
▁개명하였다
▁저널리스트
08
뤘다
불은
카시
키지
▁가변
▁김학
▁명왕
▁백화
▁수심
▁심상
▁아람
▁위축
▁초식
▁카미
▁펌프
편성이
▁계급은
▁국회에
▁기구를
▁니카라
▁보면서
▁차량에
▁1801
▁계획하고
▁드러난다
▁미야기현
▁예상된다
▁제도이다
▁판단하여
▁네트워크의
▁무엇보다도
▁사용자들이
▁선거에서는
정동
토지
한지
▁권의
▁즉흥
번호를
프리드
ames
▁광둥성
▁끝내고
▁변화의
▁별명은
▁사실로
▁수행을
▁신들의
▁원조를
▁일체의
▁자사의
선거관리
▁디자인의
▁지명으로
▁레코드에서
▁발족하였으며
관념
커로
▁가루
▁경보
▁기권
▁방호
▁애프
▁재가
▁친히
베를린
▁교육부
▁소재를
▁출판사
▁영화감독
▁이리하여
▁태풍으로
▁어디까지나
▁구역상으로는
mp
남을
대비
립은
민정
불상
선도
호프
▁MM
▁계량
▁단면
▁사대
▁상설
▁오웬
▁장녀
▁튜브
ward
▁사정을
▁역에는
▁행위로
▁결승전은
▁부정하는
▁사실이다
▁살인사건
▁합리적인
▁프로이센의
▁프롤레타리아
07
면체
무대
져야
헤르
▁방을
▁슈고
세계의
있는데
inal
▁레코딩
▁모습과
▁순서를
▁오류를
▁이케다
▁주소를
▁타자로
▁물론이고
▁언어에서
▁감독이었던
▁궁극적으로
▁탈락하였다
▁푸에르토리코
레트
무에
세인
스탕
착륙
▁기온
▁뇌의
▁문이
▁부왕
▁빚을
▁진원
▁학회
▁같지만
▁건강을
▁나누고
▁단위는
▁아파치
▁알아차
▁의병을
▁장소는
▁전조선
▁평평한
▁폭넓게
▁플러스
▁현대적
교회에서
▁급속도로
▁나미비아
▁주축으로
▁확보하기
▁사망하였고
▁삐
사실
천동
헌의
▁군림
▁박은
▁베를
▁부실
▁뷰티
▁성수
▁에리
▁염증
▁적재
▁화염
도르의
사단이
센터를
왔다고
▁공군은
▁느리게
▁부족의
▁산업에
▁쇠고기
▁앞바다
▁어둠의
▁유럽을
▁일정을
▁자체로
▁화면을
아카데미
▁개최하는
▁발생하지
▁시작하게
▁않으면서
▁알고리즘을
▁전문가들은
▁조선시대에
▁지적하였다
▁페르디난트
TN
▁났
닌의
불가
질라
-29
▁경산
▁남기
▁노론
▁매치
▁빈민
▁어미
▁중상
▁피니
플러스
▁col
▁뉴기니
▁성격은
▁안동시
▁영의정
▁지대한
▁지휘자
▁팀들은
▁하려는
▁홈페이
▁히타치
▁This
▁구간에서
▁의존하는
▁포틀랜드
▁지도자이다
년차
짓는
▁RC
▁남반
▁단결
▁베티
▁선대
▁성체
▁약을
▁표는
지역은
▁가담한
▁강이다
▁갖가지
▁그들과
▁남자와
▁대우를
▁목사가
▁올라갈
▁위협이
▁유적이
▁초전도
▁강조하고
▁개찰구는
▁나타내기
▁내에서도
▁브라더스
▁시즌으로
▁우리에게
▁정치경제
▁지휘했다
▁참여한다
▁가장자리에
▁개시하였다
상가
상속
시도
new
▁Mi
▁가니
▁골로
▁나탈
▁유이
▁주둥
▁파파
기구는
▁518
▁동물이
▁부처의
▁사업가
▁아내는
▁요시쓰
▁판소리
▁확대를
보병사단
▁개편으로
▁제공되는
▁사령관으로
▁인물이었다
▁필요하다는
보레
용에
임시
▁El
▁리비
▁서클
▁어둡
▁완주
▁천명
▁총애
▁한꺼
야에서
▁113
▁25%
▁가정의
▁부진을
▁비밀을
▁아이작
▁자라고
▁정했다
▁행하여
▁중단하고
▁귀국하였다
▁네덜란드는
▁덱
겐의
▁TS
▁처해
운드는
제에게
▁가혹한
▁글씨를
▁로마는
▁마거릿
▁멜로디
▁명성이
▁발전된
▁방문객
▁방침을
▁부천시
▁카스트
▁페르미
▁편의를
▁내에서의
▁문서에서는
▁메소포타미아
▁받아들여지지
▁퀄
운송
일라
장도
필의
▁내기
▁배기
▁백지
▁아루
▁출자
순으로
일간의
티스트
▁고개를
▁공항을
▁교수와
▁긴밀한
▁드러난
▁디에고
▁민족이
▁법칙은
▁시도한
▁일종인
▁조선이
▁골키퍼로
▁그러면서
▁노력하고
▁발표한다
▁분야이다
▁스타일로
▁암스트롱
▁한꺼번에
▁소프트웨어의
▁출생하였으며
▁쐐
귀를
수호
aut
▁격침
▁결렬
▁도끼
▁레퍼
▁원본
▁의인
▁장은
▁Com
▁독일계
▁속하지
▁위안부
▁유효한
▁조르주
▁취득한
▁트럼펫
▁거주하던
▁구분하는
▁기타큐슈
▁대체하기
▁일어났고
▁주도하는
▁평가되고
▁히브리어
NE
ex
▁둠
▁뭔
▁밧
랭크
부정
소련
술에
쓰카
쿠의
타바
▁et
▁갑오
▁국철
▁레스
▁명중
▁벗겨
▁섞인
▁에픽
▁윤곽
▁주화
▁처방
▁추계
▁카터
▁칼륨
▁커넥
▁통킹
▁후로
부대는
브고로
비이다
크로스
▁구역을
▁물질로
▁변형된
▁안쪽에
▁일제히
▁전선에
▁하드웨
▁현이다
▁NATO
▁과정으로
▁들어가서
▁중시하는
덕이
상블
점도
표에
▁고온
▁반납
▁소라
▁춘계
▁할로
버리고
작업을
퍼센트
▁750
▁거치며
▁동원해
▁라이더
▁막시밀
▁발전의
▁보도가
▁제작이
▁촌이다
▁동물이다
▁보루시아
▁북대서양
▁싸움에서
▁오스트로
▁주민들을
▁혁신적인
▁뫼
랄라
향에
▁6.
▁동두
▁미완
▁절을
▁죄로
▁협업
코스는
평의회
▁550
▁고려할
▁당시는
▁돼지고
▁일었다
▁잡지에
▁철수를
ature
ology
▁건국훈장
▁그대로의
▁발달하여
▁상업적인
▁상징적인
▁임명되고
▁풀려났다
▁전사하였다
공업고등학교
BT
▁뿜
분투
치카
▁DR
▁RS
▁골라
▁늙은
▁도우
▁맞닿
▁오마
▁창을
▁파랑
▁행한
▁흔적
곡이다
나이다
든버러
조약을
화되는
▁도치기
▁막강한
▁발가락
▁양국의
▁역사학
▁입장이
▁장착된
▁정책과
▁토요타
▁파이프
▁함부로
▁합하여
었습니다
▁가입했다
▁내각에서
▁만족하는
▁추가하여
▁한국어로
▁켜
능을
소니
식스
엄을
조류
혼의
_30
▁HP
▁그늘
▁던진
▁듣게
▁장신
세기와
열차가
이어야
트릭스
학교가
▁123
▁갈색을
▁인정할
▁하얀색
▁후보자
텔레비전
▁득표율을
▁멤버들은
▁수준이다
▁오사카시
▁저서로는
▁지원하지
▁강등되었다
▁이탈리아에
▁2006-07
/2
03
▁}
▁럼
돼지
설로
아사
쿠사
패드
▁가창
▁굳이
▁라미
▁신약
▁운명
▁윤원
노비치
▁눈으로
▁돌아올
▁동위원
▁생산에
▁선전포
▁설정을
▁실리콘
▁측면에
츠부르크
▁강원도의
▁관료이다
▁국립중앙
▁귀족들은
▁복음주의
▁소개하는
▁움직이지
▁일부로서
▁중앙일보
▁해전에서
끄럽
버려
상수
CoA
▁구비
▁낙엽
▁니케
▁베컴
▁세무
▁진언
▁커져
나이트
회사의
▁625
▁개찰구
▁대결을
▁드물다
▁정체성
▁주세페
▁회의가
▁흔적을
개월만에
으로서는
▁John
▁기다리고
▁박테리아
▁원내대표
▁종사하는
▁헝
나치
완은
자산
▁가계
▁끼워
▁당은
▁대주
▁무쓰
▁티모
▁해지
구역은
졌다고
▁가끔씩
▁거리로
▁대회와
▁사상과
▁셀주크
▁화장실
▁Best
▁동점골을
▁묘사된다
▁북쪽에서
▁생활하는
▁아미노산
▁안드레이
▁취급하는
▁활동하기도
▁핏
견은
피와
환과
ors
▁NX
▁밀러
▁북벌
▁선에
▁임실
▁전범
▁코이
▁호화
ange
▁MIT
▁계급의
▁나라로
▁논리적
▁부대에
▁유치원
▁처음엔
▁헌법이
적이거나
▁강조한다
▁곳곳에서
▁공화국에
▁부임했다
▁사정으로
▁상징한다
▁하원의원
▁개봉하였다
YP
▁쑹
궁이
대행
라다
절과
히사
▁공상
▁국산
▁내성
▁매튜
▁방한
▁벨트
▁생포
▁창고
▁테일
개에서
득점을
모토는
세포가
▁과정과
▁나눈다
▁문학과
▁반감을
▁부문의
▁분노한
▁안데스
▁연구원
▁의도를
▁화성시
시키기도
▁구성하여
▁들어갔고
▁음식이다
▁시행되었다
▁지방에서는
▁이루어졌으며
▁샴
곡에
망과
여름
▁Gu
▁가역
▁게놈
▁겸직
▁구루
▁기이
▁도자
▁순종
▁줄이
▁질투
▁초원
▁함을
▁록히드
▁문서의
▁용기를
▁의무가
▁활용할
▁1815
▁구장으로
▁리하르트
▁승강장에
▁신속하게
▁외부에서
▁전국적인
▁제공하며
▁제한하는
▁지장보살
▁확보하고
▁주장하면서
▁벙
날드
캥거
_28
ero
▁가평
▁넘은
▁뒤따
▁모잠
▁반동
▁변성
▁빅터
▁총통
프레이
▁Par
▁과학과
▁내몽골
▁더하여
▁무게가
▁시상식
▁원했다
▁무렵에는
▁살해하고
▁얻었으며
▁박물관이다
▁참여하였고
▁히데요시의
▁량
자라
창원
▁오인
▁위태
▁진리
▁콘셉
▁클럭
▁포를
▁피쳐
루수로
문과에
제도는
ions
▁Way
▁공작이
▁내지는
▁던지는
▁동일시
▁모조리
▁오토모
▁우려를
▁의견도
▁적절히
▁절반을
▁경쟁에서
▁나왔으며
▁로베르트
▁성공하여
▁타이거즈
▁항공우주
▁가능하도록
▁아르바이트
▁부에노스아이
공로
ART
enn
ina
▁ar
▁동거
▁수지
▁스펙
▁운하
▁차차
▁깨끗한
▁내각은
▁대륙에
▁바이트
▁베테랑
▁설치류
▁시각을
▁우에노
▁유격수
▁인스타
시내버스
▁관계에서
▁들어섰다
▁미사일은
▁병사들을
▁불리었다
▁중심부에
▁참여하게
▁베스트셀러
▁브로드웨이
▁같고
▁때로
▁비긴
▁셀틱
▁우니
▁트러
사업에
▁App
▁hPa
▁같으며
▁공작은
▁그룹인
▁마시는
▁발발한
▁오른다
▁지명이
▁징계를
▁클라리
▁가족들은
▁공격수로
▁수준에서
▁않겠다고
▁결성하였다
▁출판하였다
모습
슐리
옥의
참한
킨슨
-05
▁김장
▁몰타
▁상한
▁추후
▁COV
▁Spe
▁까닭에
▁문학적
▁법원에
▁섬세한
▁시설은
▁왕자의
▁입단한
▁중심핵
▁패배로
▁폐지된
시키거나
시키려고
▁게오르기
▁데이터는
▁보건복지
▁속에서도
▁참여했고
▁출전했고
▁몬테네그로
za
볼을
생생
첩을
ley
ode
▁도나
▁마흐
▁비석
▁시제
▁애버
▁전과
▁지에
▁첫날
▁총영
▁통찰
▁기체의
▁독일로
▁밝히는
▁번호가
▁손자인
▁아이는
▁연안의
▁오우치
▁주기도
▁출구는
▁선택하는
▁세바스티
▁아테네의
▁있었음을
▁지원하며
▁출생으로
되었습니다
▁Super
▁출전하였고
▁등장인물이다
▁뤄
가나
곳의
데냐
eng
▁김석
▁뇌물
▁멜라
▁요셉
▁최전
▁케인
▁테니
▁하버
그룹은
▁2.2
▁나열한
▁나오며
▁내각을
▁미생물
▁본래는
▁시그마
▁양자가
▁예비역
▁제기한
▁중에도
▁학업을
▁효력이
▁결국에는
▁나들목은
▁베르사유
▁선호하는
▁엘리자베
▁자메이카
▁해석하는
▁형성하였다
UI
▁랍
엔젤
오기
총을
_29
vel
▁my
▁격상
▁급여
▁면에
▁신구
▁좋게
▁중남
▁천마
▁치아
▁타도
▁티저
▁파문
▁펜타
왔는데
홈런을
▁대비해
▁대책을
▁도망쳐
▁로이드
▁멤버는
▁멸망한
▁배경은
▁사용에
▁승객이
▁있지는
▁조카인
▁확인한
▁1820
▁갑작스런
▁방문하는
▁알베르트
▁임명하여
▁단종되었다
▁자연적으로
▁콜롬비아의
▁프톨레마이오
▁2012-13
라시
장비
▁가락
▁나스
▁데다
▁매듭
▁명과
▁장경
▁총격
▁헌터
사회에
차대전
▁고립된
▁기자로
▁남북조
▁비추어
▁좌우에
▁출판한
▁한때는
▁합병해
▁합쳐져
▁혁명에
▁회담을
▁마을버스
▁사이트를
▁제시하고
▁주장하여
▁보고하였다
방면
호흡
▁DB
▁빌드
▁참된
국가의
되기에
레이스
민들은
부대의
화한다
▁Per
▁나오기
▁민영화
▁비틀즈
▁오르고
▁지포스
들에서는
시킨다는
▁1858
▁내각총리
▁맞배지붕
▁준비하고
▁진출하게
▁나폴레옹의
렸기
빛을
사슴
심판
윤리
필로
▁EA
▁기욤
▁낳고
▁박태
▁자부
▁휘두
교회를
나라로
단체가
본부는
챔피언
▁건설한
▁베이커
▁실험은
▁야행성
▁어려울
▁요리를
▁전차는
▁코스트
▁트란스
위너스컵
▁감옥에서
▁리얼리티
▁방송하는
▁인간에게
▁한가운데
▁국제공항이
만장
테로
▁가령
▁곳도
▁국세
▁로리
▁마디
▁부제
▁사산
▁손수
▁시찰
▁원유
▁유독
▁유미
▁일한
▁좌천
▁카오
▁크지
▁패퇴
▁헤더
과에서
버리는
시아의
코스트
킨스는
▁0-1
▁개구리
▁개막전
▁당신의
▁받았을
▁영등포
▁작가인
▁항공은
▁레코드와
▁묘사되어
▁받아들일
▁엄청나게
▁없습니다
▁월드컵을
▁일조했다
▁중반까지
▁통과한다
▁각본가이다
손을
애는
장교
▁가결
▁듀엣
▁매복
▁상층
▁섬세
▁원료
▁틈타
▁효종
끼리의
자료를
ring
▁개념과
▁내야수
▁못하며
▁법칙에
▁변화와
▁보았을
▁올라온
▁이즈미
▁지시에
센티미터
▁금지하고
▁대응하기
▁민주공화
▁에두아르
▁동아프리카
▁익스플로러
기스
▁PL
▁등단
▁목동
▁바를
▁법제
▁스톰
▁알비
▁유다
▁잇따
▁탄약
▁통로
예수교
▁무너져
▁반대의
▁봉기를
▁수비형
▁안티고
▁원자의
▁크라우
▁하늘에
▁형태에
▁브라운은
▁에든버러
▁형성된다
▁진행되었으며
공군
례의
반트
쥐속
탑이
한데
▁공은
▁비의
▁생모
▁연천
▁예시
▁유재
들였다
리어스
토에서
▁객관적
▁고종은
▁공격형
▁되었기
▁떠났고
▁미요시
▁바실리
▁상품의
▁서명을
▁윤리적
▁중상을
▁펠로폰
▁함대가
▁함수가
▁근무하는
▁보고서에
▁진출하는
▁세계대전이
▁정부에서는
),
레미
신저
엘리
필은
▁건네
▁견훤
▁급수
▁동산
▁방울
▁불쾌
▁서천
▁소중
▁슬퍼
▁주선
▁철원
란으로
시스의
행위에
▁공의회
▁기업을
▁모델에
▁볼프강
▁부모를
▁에치고
▁증명할
▁파라과
▁함경도
교육지원
▁경기이다
▁귀족들의
▁바뀌었고
▁사운드를
▁승진하여
▁인정된다
▁표시된다
▁가운데에는
▁수학하였다
▁활동하였고
가리
남북
들러
창작
총은
평면
▁더한
▁도화
▁밀고
▁외면
▁장차
▁접목
▁증오
▁추이
고양이
만명을
아파트
ater
▁국왕은
▁기계를
▁매니지
▁박사의
▁울트라
▁자원이
▁재빨리
▁치르고
▁테마로
▁트로트
▁표준을
▁성립되었다
▁연기되었다
▁해트트릭을
매는
시고
외로
터너
포인
▁대적
▁벨로
▁시아
▁오호
▁초계
▁친화
▁투병
▁함안
관계의
부원군
연대를
평론가
▁2-2
▁가문과
▁글씨는
▁기본적
▁내었다
▁맡겼다
▁원숭이
▁카스텔
▁나타나기
▁마음대로
▁사용해서
▁형성되는
▁금지되었다
▁쏠
▁엎
골에
그란
혼을
화해
▁견고
▁곡에
▁소사
▁에뮬
▁나가지
▁내려온
▁미트라
▁발달해
▁적용한
▁결과이다
▁나가시마
▁대체하는
▁승부차기
▁요구되는
▁만들어내는
▁민사소송법
▁엘리베이터
▁예정이었지만
병마
블랙
애의
웰은
윤을
프셔
alk
▁CA
▁경마
▁구도
▁귀여
▁많기
▁미적
▁수군
▁장시
▁증축
▁캔터
교육의
받기도
이즈미
▁MLB
▁[20
▁닛폰햄
▁부름을
▁불상의
▁인도와
▁조조의
▁2500
▁제도에서
▁지지하고
▁체제에서
▁출연하며
▁온타리오주
▁한양대학교
▁인천국제공항
▁사우스캐롤라이나
강원
눈에
동부
바꿈
발에
봉과
운전
즘의
지라
학위
▁Fr
▁Kn
▁감축
▁대정
▁루프
▁양심
▁올랭
▁위배
▁이안
▁있음
▁추밀
▁출격
▁키에
공사를
분에서
였기에
위원에
▁군주의
▁성우극
▁신부는
▁양식이
▁연기자
▁트랜싯
▁7000
▁공유하고
▁소속사는
▁일어나게
▁정규시즌
▁평양에서
▁하늘에서
▁고가역이다
▁마이크로프로세
악장
예는
진화
▁국문
▁다짐
▁단조
▁도하
▁딸의
▁밤의
▁병마
▁숙주
▁쌍용
▁인노
▁직관
▁퍼플
▁포섭
▁하강
▁형편
기에도
ello
▁걸그룹
▁노트북
▁도나우
▁라그랑
▁민중의
▁신선한
▁열차로
▁은행의
▁전한의
▁조종사
▁행정동
▁연결하여
▁해외에서
▁살해당했다
데오
든은
무와
염은
지다
▁OK
▁금은
▁딸은
▁로만
▁마틸
▁소원
▁육박
▁잡기
▁확충
▁환산
불좌상
▁결정적
▁남양주
▁많아서
▁수상을
▁어드밴
▁자리가
▁전년도
▁종들은
▁지나고
▁초자연
▁출발한
▁통신을
▁판매량
▁학교로
▁1795
▁요소이다
▁원칙으로
▁이글스의
▁장착되어
▁적용되어
▁스페인에서
▁이탈리아로
즐리
춘추
ins
▁LS
▁Of
▁강타
▁겐지
▁광시
▁농작
▁민물
▁보트
▁사미
▁옵티
▁전류
▁피가
▁후미
플레잉
효과를
▁127
▁가슴에
▁고종이
▁공기가
▁두었고
▁라쿠텐
▁송파구
▁옮기는
▁인스턴
▁프로방
▁합쳐서
▁협상이
▁슈퍼리그
▁일자리를
▁바이러스의
▁발행되었다
▁팟
가서
노라
사당
이동
▁귀순
▁메일
▁복위
▁아약
▁체력
▁트램
▁판본
▁페인
▁하단
감염증
들이나
스타운
영에서
▁TBC
▁가치는
▁기구의
▁다이라
▁도자기
▁연대기
▁자식을
▁장애가
▁지진은
▁참전한
▁향상된
▁호모토
▁1814
▁유전자의
▁이전했다
▁접근하는
▁판매되고
▁미스코리아
DD
견의
극은
극이
녀와
리터
바트
섬과
술과
절제
ery
▁다채
▁코넬
부아르
스타인
▁LCK
▁꼭짓점
▁논쟁의
▁달리고
▁답했다
▁양국은
▁일대는
▁작전의
▁잘못을
▁파트리
▁보였으나
▁세상에서
▁내셔널리그
▁만들어냈다
▁주기적으로
▁통과시켰다
06
년인
제나
폭격
▁sh
▁네브
▁도라
▁블러
▁이효
▁청각
▁해는
▁후견
기간이
시험을
인들에
토스의
▁가디언
▁모형은
▁바로잡
▁선에서
▁유일의
▁전투와
▁정신의
▁제품에
민주연합
▁매킨토시
▁사용되기
▁자동변속
▁조선에서
▁총사령관
▁파악하고
▁도착하였다
▁발표하였고
▁프로젝트가
고문
무트
버를
컴퍼
펠러
ING
yle
▁몬태
▁상금
▁슈테
▁어쨌
▁흉내
스타는
판에는
▁GPS
▁개혁에
▁떠나고
▁만들며
▁부회장
▁사소한
▁손쉽게
▁알리기
▁앙상블
▁타율을
▁포격을
▁현상에
▁당시부터
▁사망하여
▁삼각형의
▁여성들은
▁탑재하고
▁오래전부터
대항
여야
지법
테라
회말
▁PA
▁관음
▁몸통
▁서신
▁안심
▁역동
▁용기
▁찾은
▁환관
▁그림의
▁모델인
▁무차별
▁순양함
▁앙골라
▁지상에
▁튀니지
▁휴식을
▁구분하여
▁대학교가
▁도시이며
▁동생이다
▁발원하여
▁프레더릭
▁살해되었다
▁2018-19
▁잼
대기
독재
빈과
왕전
▁VS
▁고갈
▁성추
▁아픔
▁인질
▁재조
▁증강
▁진안
▁카세
▁특혜
▁하산
▁하층
▁화북
레스테
효소는
▁2.3
▁747
▁con
▁가사가
▁강사로
▁메이커
▁수명이
▁없다면
▁저조한
▁학문에
▁현실에
방송에서
▁갈릴레오
▁남양주시
▁기업인이다
▁소멸하였다
검을
글루
사노
시니
췄다
쿠젠
키오
포칼
하트
ans
▁개축
▁기분
▁무주
▁백자
▁서리
▁애매
▁잔인
▁정령
▁취직
▁탐정
▁히토
차에서
▁911
▁des
▁군주가
▁나와서
▁못하자
▁부지에
▁사각형
▁승객을
▁증상은
▁질병의
▁찾는다
경찰서는
▁연구개발
▁임명하고
▁줄무늬가
▁차지하여
▁헬리콥터
고등학교와
▁사이트에서
▁상호작용을
▁아우구스트
▁홈구장으로
산읍
▁남궁
▁모건
▁무비
▁은평
▁출사
▁타라
▁현이
구역에
대학에
▁것에는
▁넘는다
▁반영한
▁순위는
▁암컷이
▁원작의
▁의사의
▁친위대
▁해군에
▁히말라
▁대륙에서
▁문제들을
▁사임했다
▁중앙집권
▁즉위했다
▁라이베리아
▁열대저기압
▁이탈리아와
▁플레이오프를
09
▁녀
퍼런
▁내면
▁레나
▁마구
▁발광
▁안다
▁열람
▁으뜸
▁잠을
▁흥분
아에서
▁121
▁대사가
▁모델과
▁불상은
▁뽑혔다
▁사냥꾼
▁시멘트
▁아르테
▁에이지
▁장난감
▁전술을
▁주변은
▁채택한
▁초고층
▁회의는
▁Cent
▁공헌했다
▁문하에서
▁열린우리
▁쿠데타로
▁편입되어
▁공통적으로
▁노부나가의
▁선발되었다
04
▁킵
관한
남면
멸의
중량
OVE
▁비핵
▁상동
▁송광
▁영도
▁이등
▁지선
▁차장
▁창씨
경찰청
년형을
투쟁을
ough
▁WHO
▁갖추어
▁그랜트
▁사도세
▁아세틸
▁액세스
▁이브라
학자들이
▁name
▁공연에서
▁대항하기
▁동영상을
▁시작하며
▁이동한다
플레이오프
▁COVID
▁만장일치로
▁실시간으로
▁이용되었다
예산
이은
중간
▁김세
▁니키
▁발췌
▁수마
▁어쩌
▁코나
▁폭포
▁하세
▁Win
▁거부한
▁귀족의
▁박람회
▁번갈아
▁쌍방울
▁애플의
▁필요는
▁혁명적
▁대다수가
▁변경되어
▁상응하는
▁퍼포먼스
▁베트남에서
▁할아버지는
▁Google
(,
▁걸맞
▁문양
▁소프
▁용문
▁유계
▁천태
법연화
설에는
스타의
회의가
▁APG
▁건물과
▁견해도
▁기네스
▁무엇인
▁살다가
▁오류가
▁집안은
▁파주시
자이기도
▁거절하고
▁마쓰모토
▁변호사로
▁비디오를
▁세계보건
▁아틀레틱
▁오르기도
▁크리스탈
▁항공기의
▁이르러서는
▁조선왕조실록
LL
돈을
바니
화산
rop
▁se
▁간을
▁관내
▁굶주
▁귀를
▁버크
▁산체
▁선명
▁섹션
▁소탕
▁아자
▁에그
▁월북
▁조우
▁크래
▁함자
요시의
재판소
쿠스틱
▁Mon
▁단체에
▁동티모
▁어디에
▁연합을
▁장교로
▁제정한
▁체결한
▁것으로도
▁스케이트
가치
악기
즈미
틴의
101
org
▁광대
▁괴멸
▁탤런
▁푸스
절도사
▁건축의
▁사회와
▁시키는
▁에히메
▁유스티
▁중세의
▁알렉세이
▁유럽으로
▁채택했다
▁판매고를
▁호텔에서
종합운동장
▁공화국에서
▁시상식이다
▁출전하면서
현상
▁과실
▁괴뢰
▁띄게
▁발터
▁버그
▁장택
▁조문
▁조엘
▁퍼센
거리와
사항을
시스는
티스는
▁개혁의
▁경계가
▁달랐다
▁마련한
▁무정부
▁사항은
▁서해안
▁압력이
▁자신에
▁제시카
▁출력을
▁코소보
▁확정된
더레이션
▁1793
▁기술적인
▁동성결혼
▁완전하게
▁데이터베이
▁시리즈에서는
▁2019-20
근무
룡이
서리
서면
성면
▁경합
▁단발
▁동호
▁루즈
▁산마
▁안재
▁어딘
▁여긴
▁폐교
니아는
러스는
판이다
▁나카노
▁발표를
▁성폭행
▁세키가
▁정보에
▁정치와
▁조직한
▁총선을
▁페이퍼
▁히로부
▁이로부터
▁이어갔다
▁주인공의
▁피라미드
▁필요했다
▁한국으로
▁형사소송
▁부여받았다
▁이듬해에는
▁임명되었으나
▁렘
고르
근대
금에
높은
두스
보게
살라
수면
vis
▁교대
▁대뇌
▁동급
▁발상
▁배재
▁변한
▁죄수
▁중고
▁지뢰
▁짧아
기부터
됐다고
손으로
정주어
▁개편에
▁레스터
▁막았다
▁배우기
▁설치해
▁자연을
▁정치학
▁출토된
▁돌아간다
▁롤플레잉
▁유지되고
▁파견했다
▁이탈리아어
▁패배하였다
▁프랑스군의
NS
▁뺏
사냥
자격
좋은
하드
▁0.
▁런칭
▁부자
▁승을
▁아핀
▁짧다
▁참사
▁총살
하고도
하마드
▁분석한
▁수록한
▁아종이
▁압박을
▁예문관
▁이주해
▁천도교
▁학문의
▁1839
▁물리적인
▁방정식의
▁불렸으며
▁인근에서
▁자리잡은
▁정상회담
▁조선중앙
▁지원으로
▁형식이다
▁노동자들의
▁어촌정주어
tr
빛이
▁끝은
▁딜런
▁사흘
▁스완
▁스커
▁우문
▁워커
▁적자
▁형은
성이나
티넨털
필드는
향으로
▁144
▁군사정
▁기후를
▁남편인
▁당했고
▁방면의
▁부진에
▁산에서
▁지난다
▁클럽이
▁평가는
리우스의
▁기하학적
▁끌어들이
▁슈투트가르트
간과
업자
칙을
히기
anc
▁고승
▁골은
▁법과
▁씨족
▁큐브
▁킹스
▁탈북
▁퍼스
▁하려
▁흡입
루스가
백화점
했는지
▁공작을
▁발전해
▁시위에
▁접근이
▁지형을
▁포스코
스트리트
▁1300
▁Kore
▁데포르티
▁명예훼손
▁월드컵과
▁재직하던
▁조직하고
▁진행되며
▁애니메이션을
링거
유기
책의
ott
▁Vf
▁근교
▁오도
▁오차
▁우디
▁임베
▁표적
▁하얼
기간을
받으며
▁고려해
▁국적의
▁기리고
▁늘어난
▁땅으로
▁못하면
▁사장을
▁순위가
▁알칼리
▁패트리
▁한하여
▁북서부에
▁시즌까지
▁영국군의
▁참전했다
▁총선부터
▁표현되어
공공
레에
버터
▁가파
▁규장
▁끓는
▁덮개
▁민선
▁부는
▁사피
▁유화
▁있겠
▁지체
▁캡틴
▁후백
계이다
티우스
해에서
▁5.5
▁규정은
▁끝에서
▁당한다
▁동료인
▁모서리
▁식물이
▁언덕에
▁1846
▁다스렸다
▁북동부에
▁불과했다
▁이어받아
▁System
▁중앙아프리카
교환
도도
세나
암리
_32
▁날의
▁댄서
▁옷주
▁주상
▁출항
▁표절
atch
▁꾸준한
▁대수의
▁디스코
▁목적의
▁보도를
▁상으로
▁스텔스
▁안산시
▁전에서
▁제안된
▁조너선
▁테이프
▁퍼졌다
▁한국계
▁힘들어
학과에서
▁1854
▁Back
▁기초하여
▁맞이했다
▁유지한다
▁특징적인
▁프랑스군
▁피해자의
▁현상으로
애니메이션
▁임진왜란이
▁켐
계통
급에
철을
퍼가
For
▁KD
▁간파
▁니콘
▁모세
▁오코
▁차종
▁추력
▁측량
보스토
생활의
절에서
▁거머쥐
▁기능의
▁법으로
▁아니기
▁어깨에
▁예선은
▁옮기고
▁주권을
▁플라톤
소송법제
▁1400
▁갈릴레이
▁변경하여
▁수학에서
▁적용하는
▁종합격투
▁타이거즈의
▁콥
각류
곳에
답을
블린
원장
으론
지명
찬의
평등
▁PH
▁글은
▁담임
▁두껍
▁마른
▁매번
▁쓰네
▁알프
▁업계
▁의왕
▁자르
▁증원
▁기관에
▁기업에
▁모두의
▁모시는
▁부지를
▁삼는다
▁시조로
▁잇따라
▁중학생
▁클럽을
▁가나자와
▁곳에서는
▁그리스와
▁이론으로
▁초반부터
▁한국영화
▁히틀러가
▁등재되었다
▁이전까지는
▁조선시대에는
▁키르기스스탄
▁앳
쓰키
언의
엽은
전지
▁깜짝
▁매춘
▁비욘
▁유서
▁키우
기간은
씨이다
정책에
코프는
편에서
▁고려사
▁색으로
▁손바닥
▁위협에
▁지니는
▁혼란이
▁시작해서
▁아키텍처
▁에어버스
▁일시적인
▁정해졌다
▁매사추세츠주
▁윔
레프
쓰기
찬이
혈을
▁DM
▁강호
▁고모
▁극작
▁리본
▁불문
▁섰다
▁스즈
▁에코
▁좁아
▁파피
▁팔로
▁합산
단계로
카드의
▁까마귀
▁동시대
▁밤에는
▁부당한
▁상대의
▁성분을
▁수치를
▁에스타
▁인재를
▁절대로
▁컨벤션
▁프로에
▁협정에
인으로서
▁나가노현
▁불필요한
▁사회복지
▁확인하는
▁발전시켰다
메오
목사
생태
징어
한정
▁극소
▁기공
▁든다
▁로라
▁엔젤
▁장단
▁태워
▁현에
부분을
이닝을
있다는
▁Mag
▁교과서
▁로마가
▁사과를
▁수명은
▁싸움이
▁일하던
▁정신이
▁표현된
▁가능했다
▁고속버스
▁나타나게
▁버전이다
▁보통이다
▁소련군의
덕왕
무용
발과
불로
야르
▁SG
▁가선
▁강사
▁국부
▁독주
▁로코
▁술에
▁스턴
▁썼고
▁양정
▁엠블
▁제지
▁퀘이
당하게
플라스
▁기록도
▁부인인
▁여긴다
▁집어넣
▁통과할
▁특성은
▁표면을
▁프레슬
▁형성에
▁흐름에
메니스탄
▁극적으로
▁보고서는
▁알렉산드
▁통합진보
▁필하모닉
▁파견하였다
메틸
시트
편과
ude
▁KS
▁광서
▁노던
▁박승
▁소시
▁순찰
▁숭실
▁옹정
▁짝짓
▁천하
▁콜론
▁한복
마리아
센터가
첸시오
훈장을
▁기지로
▁내부는
▁누군가
▁동명이
▁무릎을
▁불과한
▁선조는
▁오슬로
▁외교적
▁장군을
▁코드의
▁태양광
▁해안의
▁김일성의
▁대응하여
▁들어가지
▁배치하고
▁승강장과
▁주도이다
▁출연하는
▁학문이다
▁개칭하였다
▁사용자에게
▁프로그램과
▁후쿠시마현
두와
리프
말이
빌의
유공
줄을
킨의
chn
▁NA
▁궁수
▁단호
▁메틸
▁몰리
▁묘비
▁무겁
▁박준
▁벤치
▁비키
▁시체
▁예속
▁인피
▁개최국
▁공통된
▁디나모
▁범위에
▁정유재
▁진지를
▁트랜지
▁하나도
▁나타내며
▁떨어지고
▁발표했고
▁선거이다
▁바이러스가
▁사회민주당
▁인스타그램
▁자유민주당
▁참여하였으며
넷은
됨과
루브
위권
퍼를
호크
훈과
▁Tw
▁감성
▁고노
▁권투
▁기독
▁따랐
▁보어
▁수렵
▁의자
▁한참
▁후회
식품부
지대에
▁마련해
▁모으고
▁무장한
▁밴드에
▁범위의
▁보나파
▁상대방
▁상세히
▁설명이
▁신경을
▁쓰여져
▁이들에
▁조치가
▁환자를
국민학교
▁대선에서
▁모두에서
▁정당으로
▁판단된다
▁사용되었고
▁제기하였다
WS
보유
본다
시온
저널
▁구세
▁예천
▁잡힌
▁채플
▁카잔
▁캐럴
▁USA
▁무지개
▁발사할
▁사이는
▁없거나
▁원리는
▁유산을
▁이유에
▁자본의
▁태평천
▁통일된
▁해석할
▁활동할
▁것으로는
▁두번째로
▁북부에서
▁생산된다
▁열렸으며
드라마이다
력도
유리
잠수
중독
▁것들
▁과제
▁내로
▁녹아
▁무색
▁물품
▁믹스
▁유상
▁이우
▁책정
▁툴루
▁팔려
▁할리
랜드의
▁FBI
▁Res
▁결국은
▁규칙에
▁생제르
▁서신을
▁우리를
▁인질로
▁임의로
▁전차의
▁조각이
▁주기를
▁판결이
▁표준화
▁협약을
▁1851
▁늘어나고
▁들어있는
▁지배적인
▁캐릭터는
▁패배하고
국가대표팀
▁입단하면서
).
신당
열로
율에
테아
▁결탁
▁방에
▁브람
▁삭감
▁스칼
▁신군
▁싶지
▁에로
▁영위
▁작게
▁흡연
나가와
방송은
부대로
▁가입한
▁남자를
▁말라고
▁명단을
▁묘지에
▁사진은
▁예부터
▁인연을
▁좌우로
▁펼치고
▁활동도
▁1849
▁만들어서
▁발생하자
▁사라진다
▁시리아의
▁지향하는
▁추가되어
▁트로피를
곡초등학교
▁계승하였다
▁그리스어로
▁시도하였다
▁어촌정주어항으로
▁짠
볼트
▁거스
▁까다
▁망가
▁벤피
▁본관
▁오면
▁접어
▁정여
▁탈피
▁힘과
가지를
투표를
2000
▁물었다
▁보니파
▁부인과
▁알았다
▁액티브
▁오르지
▁자릿수
▁찾아온
▁콘라트
▁효과에
▁후대의
▁다이아몬
▁말하기도
▁직전까지
▁트리니다
▁악화되었다
▁엔터테인먼트의
HT
동기
오염
▁급기
▁르노
▁바투
▁불충
▁샤르
▁요아
▁일당
▁착안
▁탑의
▁피스
된다면
장로회
▁Hot
▁가환환
▁면적을
▁모여서
▁분포를
▁상태다
▁신분이
▁제퍼슨
▁즐거운
▁총선에
▁고문으로
▁공화국과
▁국민의당
▁나누었다
▁불렀으며
▁없어지고
▁재직하였다
▁지금까지의
▁최종전에서
▁사용하였으며
▁촘
▁훅
래는
예방
▁결장
▁고해
▁금요
▁넣을
▁덮고
▁독성
▁본초
▁오즈
▁와해
▁유폐
▁윤석
▁잉카
▁주황
▁천주
▁초점
▁푸에
▁함정
rans
▁교사가
▁남조선
▁돗토리
▁동맹의
▁반응에
▁상대성
▁선생은
▁센터의
▁유엔의
▁임금의
▁텔레노
▁가르치고
▁강점기에
▁강화하고
▁공격하고
▁남우주연
▁아우르는
▁운행된다
▁위원회에
▁출전하며
▁발견되었으며
▁뛴
악산
율로
자다
코파
호아
▁개표
▁귀는
▁세그
▁속성
▁신촌
▁외관
▁정은
▁정일
▁종친
▁학업
▁황보
르트가
시키게
히어로
▁구성이
▁규정된
▁로마자
▁맡으며
▁본사가
▁비판도
▁스나이
▁압하지
▁오늘의
▁원주시
▁존재에
▁한자를
▁환경과
▁가까스로
▁스테파노
▁아이디는
▁우승하는
▁제기되고
▁여러해살이풀
▁펜실베이니아주
교향
년작
_35
▁금전
▁꺼내
▁나면
▁숙명
▁하스
왔지만
▁공연에
▁그만두
▁논문은
▁몇가지
▁무작위
▁민감한
▁방문해
▁불렀고
▁영화상
▁지내며
▁컨디션
▁1857
▁반발하여
▁아이템을
▁어쿠스틱
▁요코스카
▁인물들이
▁가능하다는
▁공격수이다
▁자동적으로
▁아랍에미리트
HS
▁붉
▁씬
가야
덕의
익이
협상
-60
▁국화
▁대흥
▁베일
▁빛깔
▁쇼팽
▁예의
▁청사
▁최북
▁하구
▁함평
▁호전
▁호지
달러를
▁갖추게
▁교통이
▁녹음된
▁번영을
▁약물을
▁자유가
▁존경을
▁집회를
▁쿠바의
▁MPEG
▁라스베이
▁모니터링
▁비행기를
▁알베르토
▁올랐으나
▁이용되는
▁이루어지며
▁존재한다고
fr
ux
교섭
리치
영양
토키
편집
▁다쿠
▁루손
▁소홀
▁쌓여
▁압송
▁외과
▁쪼개
▁친위
▁플뢰
▁호평
▁히가
기능을
때부터
사업의
시오날
▁거치지
▁그림자
▁낮에는
▁단행본
▁라인을
▁마찰을
▁화살을
▁광장에서
▁나오기도
▁원나라의
▁펠로폰네
▁프로그레
▁독립운동을
▁투르크메니스탄
▁벳
보아
의료
지수
하워
▁단사
▁매월
▁박수
▁밤을
▁스터
▁열도
▁이대
▁카보
리거나
철도가
▁20,
▁반하여
▁변경된
▁성장과
▁시나노
▁이념을
▁재활용
▁정신병
▁허버트
▁등에서도
▁마그네슘
▁발표하며
▁사라지게
▁운영된다
▁조조에게
▁후반에는
▁이론적으로
▁뵈
공포
남동
상담
파트
팔로
퍼의
화나
iet
▁거병
▁경멸
▁관문
▁마코
▁막지
▁바덴
▁박중
▁분쇄
▁숲과
▁압수
▁왕릉
▁지카
▁총알
▁카다
▁캐피
▁코덱
기관은
다코타
연대가
운동과
주었고
중이며
호선을
▁15%
▁4-1
▁구단을
▁그곳의
▁라스트
▁버리는
▁세운다
▁신뢰할
▁이렇다
▁이상에
▁접촉을
▁프라임
▁향한다
▁공과대학
▁아나톨리아
▁일각에서는
결에
기타
던트
루프
지향
치부
칸은
▁남용
▁야권
▁억류
▁언젠
▁오닐
▁우쓰
▁위쪽
▁치루
▁컨페
대에는
메네스
▁그림과
▁배우가
▁연대가
▁올리며
▁위치와
▁이어질
▁죽이려
▁집단은
▁하카타
▁학교와
▁향하고
▁현장을
▁1776
▁급진적인
▁부분에는
▁사르데냐
▁실전배치
천초등학교
▁아랍에미리
▁일리노이주
▁프로듀서로
▁2013-14
-&
▁째
날개
삼성
세라
안정
양식
지점
할을
-80
III
▁고취
▁극중
▁대종
▁문종
▁묻자
▁소아
▁첨부
▁흐루
루스와
연하게
▁내려다
▁대륙간
▁대표의
▁받으면
▁밝혔고
▁상륙한
▁아칸소
▁인가를
▁패하며
▁페르세
자리에서
▁1855
▁1856
▁밀접하게
▁소장으로
▁웨일스의
▁대학원에서
▁아우구스티
▁총선에서는
▁비단털쥐과에
:3
공예
메의
여대
이끼
인해
톤을
패가
▁DA
▁무수
▁스택
▁어류
▁칸타
▁한문
모양의
icro
▁Mac
▁갑신정
▁도달한
▁도달할
▁리그컵
▁밴드로
▁소중한
▁싶다고
▁역량을
▁영향에
▁프로페
▁한겨레
사업으로
화에서는
▁귀국했다
▁달성하기
▁센티미터
▁알려주는
▁초등학생
▁한반도에
▁class
▁국제공항은
▁남아있었다
▁세키가하라
장수
표현
▁관을
▁농성
▁디바
▁바하
▁백조
▁보그
▁상사
▁수잔
▁잊지
▁자수
▁퀴즈
▁휘트
▁가격에
▁가시마
▁결혼식
▁나서는
▁시에라
▁양성자
▁저서로
▁적에게
▁전후로
▁관측된다
▁명이었다
▁받았다는
▁자랑한다
▁제출했다
▁프랑스인
▁건립되었다
▁부파불교의
▁편성되었다
개선
구락
▁당을
▁때만
▁랜덤
▁중신
▁하수
▁휠체
드래곤
부분의
스턴은
▁가르치
▁간행한
▁곳에는
▁도리어
▁문장이
▁바람직
▁사우디
▁쓰러져
▁아테나
▁알브레
▁예수를
▁작품과
▁전후에
▁줄기는
▁근본번뇌
▁금지되어
▁베이징에
▁분석하는
▁성우극회
▁시리즈와
▁다이묘이다
▁유일종이다
▁캔자스시티
▁신설되었으며
▁준결승전에서
교양
턴이
oss
▁데쓰
▁등기
▁라흐
▁말소
▁모션
▁반려
▁불거
▁상은
▁세탁
▁쓰며
▁아누
▁와중
▁켄트
개월이
들까지
사단과
을수록
-100
▁가졌던
▁계급을
▁노선과
▁라리가
▁사격을
▁수컷이
▁실험실
▁없이는
▁오르며
▁외교부
▁해석이
▁사범대학
▁스탈린의
격인
경사
렉트
메탈
투안
▁Fl
▁과선
▁달마
▁도가
▁막판
▁몸돌
▁범용
▁소켓
▁주앙
가면서
▁광복군
▁모나코
▁발생해
▁버려진
▁사장이
▁성적인
▁스폰서
▁아쉽게
▁열악한
▁정치국
▁축구의
▁남아있던
▁분류되는
▁서식하며
▁의존하고
▁활용하는
▁출생하였고
▁코트디부아르
갔을
내로
톨로
▁IA
▁나도
▁덕수
▁빠뜨
▁짐승
▁참패
민들의
이였다
▁게이초
▁문하시
▁북한군
▁산맥을
▁서둘러
▁쓰촨성
▁양산시
▁양호한
▁일부인
▁천체가
▁친분이
▁투표에
실점으로
전문대학
▁마련되어
▁반응하여
▁선거구로
▁약속했다
▁탄생했다
▁대중들에게
▁서비스이다
▁유지하면서
▁평가받는다
▁코로나바이러스감염증
곡사
시계
우수
_33
▁im
▁마포
▁알론
▁탑은
▁폐차
▁현수
관계는
대부로
▁1,3
▁농도가
▁대립을
▁두바이
▁부품을
▁비트코
▁생산할
▁소비에
▁원정에
▁전기에
▁조사가
▁카드의
▁토지의
이었기에
▁있는지를
▁지대에서
▁폭발적인
▁한국에는
▁리베르타도레스
동면
든의
사촌
저로
칼레
품질
its
▁Mr
▁내쫓
▁쓰쿠
▁유승
▁장준
▁청문
irst
▁구역에
▁기호를
▁끝나자
▁뉴스를
▁다카우
▁대사로
▁발전은
▁불구속
▁신호가
▁야구의
▁이므로
▁제목이
▁주교가
▁프라하
▁With
▁계약으로
▁드라마에
▁분리하여
▁상파울루
▁유벤투스
▁자치권을
▁잠재적인
▁활약했던
▁브랜드이다
▁사용되었던
▁에스페란토
소프
출산
출신
탑의
티카
페리
▁기질
▁로제
▁리키
▁숨은
▁승선
▁쓰루
▁안락
▁에나
▁여겼
▁임종
▁점의
▁케리
▁코민
▁트롤
▁학창
▁해치
▁헤로
▁화상
▁1.7
▁DFB
▁무과에
▁바나나
▁부부가
▁북쪽과
▁불완전
▁왼쪽에
▁잠재적
▁크루즈
▁프리랜
▁해리스
▁후보와
이었다가
▁High
▁농림수산
▁러시아를
▁문제이다
▁오프라인
▁인정되는
▁자연과학
▁헌액되었다
▁서울고등법원
▁홈경기장으로
▁이화여자대학교
맨이
수원
튼의
red
▁KB
▁Ma
▁qu
▁도의
▁볼넷
▁봤다
▁소르
▁여고
▁윈터
▁인삼
▁일환
▁최치
▁현립
정책의
▁개정된
▁경험한
▁공사에
▁리카르
▁사나이
▁시대적
▁일생을
▁자리로
▁전국을
▁주인이
▁핵실험
▁구별되는
▁미국과의
▁분명하게
▁비디오는
▁장편소설
▁정규앨범
▁전문적으로
__
나며
능이
도호
레노
웍스
포항
▁mu
▁공소
▁도난
▁반군
▁북상
▁소음
▁신에
▁체첸
▁행선
더니즘
우리의
파에서
▁XML
▁관리에
▁관리의
▁김해시
▁넘겼다
▁무서운
▁비판적
▁소련을
▁시부야
▁오메가
▁전환을
▁협회가
▁남서부에
▁선수들과
▁어렵다는
▁올림픽과
▁카이사르는
대조
먼과
변경
분자
슈는
시프
_36
▁공병
▁대본
▁대소
▁덩어
▁만수
▁미추
▁서문
▁잊혀
▁증류
▁현생
라스노
일만에
▁Art
▁교체로
▁구실을
▁남해군
▁도쿄에
▁상황과
▁이익이
▁태조의
▁펼치는
▁하이델
▁개인정보
▁공격하기
▁대한축구
▁발각되어
▁발달되어
▁성장하는
▁이전에도
▁재계약을
기성
메는
설립
속과
쇼핑
▁기민
▁박인
▁완산
▁은둔
▁헤지
▁헬로
빌에서
생물학
▁Int
▁Sun
▁가능할
▁리조트
▁생산의
▁센타우
▁순위에
▁스피어
▁차이에
▁가입하여
▁군인으로
▁마리아는
▁문제점이
▁사상자가
▁사이트에
▁이용했다
▁장식되어
▁통과하여
▁행해졌다
▁예외적으로
▁지리적으로
▁블라디보스토
PA
발표
투명
▁군자
▁낯선
▁뇌졸
▁벤저
▁브롱
▁세일
▁수년
▁수분
▁중점
▁형광
사회를
씨에게
은행의
쿠스는
호선에
회사가
▁미우라
▁민족적
▁분석에
▁어원은
▁오타와
▁입장은
▁커졌다
▁피스톤
해야한다
▁단백질은
▁못했다고
▁반대되는
▁우승컵을
▁우주왕복
▁노동자들이
▁확산되었다
=2
▁꼼
▁썸
가량
객이
밖의
오린
옥을
파니
해수
▁구룡
▁구운
▁길어
▁김한
▁메콩
▁모티
▁미인
▁부피
▁수뇌
▁일행
▁최경
▁파격
▁퍼뜨
두더지
망으로
▁1:1
▁거룩한
▁금강산
▁당국에
▁반대한
▁반응의
▁복음서
▁빈센트
▁사단의
▁생활이
▁성공은
▁엔트로
▁유해는
▁자라며
▁조직인
▁주연의
지에서는
▁소규모의
▁제시하는
▁항복했다
▁히데요시
▁제외되었다
노헤
르나
맥이
발라
▁고압
▁껍질
▁대광
▁무거
▁미워
▁비슈
▁산술
▁시영
▁참배
▁철로
▁특산
공간을
차원의
▁경찰과
▁공항의
▁군단은
▁다이나
▁마리가
▁무덤을
▁안데르
▁최하위
▁한정된
조판서에
▁멸종위기
▁이슬람의
▁인정되지
▁정교회의
▁주장이다
▁합류한다
▁브라질에서
▁텔레노벨라
▁전세계적으로
▁크리에이티브
▁프로그레시브
렬히
메인
쥐의
카게
▁GR
▁개구
▁괴팅
▁남의
▁방안
▁분개
▁성형
▁않던
▁알자
▁적시
▁출정
▁토기
▁폭주
▁훔쳐
교이다
던지기
레에서
장애인
▁개인전
▁관찰할
▁넘었다
▁먹으며
▁색상은
▁설치를
▁압록강
▁오가며
▁이후는
▁측면이
▁흐름이
▁뉴사우스
▁니가타현
▁두었으며
▁부드럽고
▁아비달마
▁요소들을
▁이조판서
▁일본과의
▁장학금을
▁줄어들고
▁필요하지
▁현실적인
▁8,000
▁begin
▁참가했으며
▁홈페이지를
Th
너지
돈이
름한
방사
형식
▁Ac
▁강북
▁고후
▁바바
▁속씨
▁저가
▁커먼
나무의
마니아
업무를
연대의
이다가
콘텐츠
피안타
▁과이다
▁급속한
▁등록을
▁많았던
▁성격에
▁시내의
▁이득을
터너티브
▁가운데서
▁공부하고
▁스타일은
▁여론조사
▁유니버스
자들로부터
작곡하였다
▁설치되었고
▁지금까지도
▁프로토타입
리버
분쟁
IDS
▁감히
▁기는
▁디펜
▁서던
▁아일
▁중첩
▁칠성
▁판이
시즌에
은행은
인터넷
학교와
▁Med
▁건강에
▁기간의
▁기념비
▁기사에
▁독실한
▁명백히
▁벌였고
▁습격을
▁승격을
▁실험에
▁예카테
▁유물이
▁이동이
▁피닉스
▁해왔다
▁Beat
▁갖추었다
▁말하면서
▁전체에서
▁바이러스는
▁발견되었고
▁입장에서는
▁힉
계수
수석
수준
승에
퍼트
▁IF
▁땅은
▁영은
▁올해
▁집전
▁침수
도서로
▁군단의
▁매디슨
▁부여군
▁성리학
▁시종착
▁신도비
▁연맹에
▁열매를
▁충실한
▁하플로
▁학문과
▁한자로
정보통신
▁1853
▁개최된다
▁마르세유
▁왕국으로
▁일어났을
▁지정한다
등록문화재
▁막시밀리안
▁법조인이다
▁앵글로색슨
▁꽝
▁뮈
곡인
더블
리도
리츠
점대
▁녹화
▁소양
▁수구
▁스콜
▁시성
▁시퀀
▁앵커
▁적에
▁키타
▁팔자
▁피사
이라서
직할시
ital
mmer
▁Cor
▁가수가
▁교토부
▁넣으며
▁노래와
▁루카스
▁멤버인
▁법률이
▁선물로
▁성폭력
▁왕이다
▁입각한
▁종교와
▁태종의
▁1792
▁분류했다
▁캠페인을
▁대부분이다
▁지역에서도
▁탄생하였다
▁공개되었으며
,&
베쓰
책에
▁구스
▁남는
▁내란
▁당장
▁덩굴
▁사명
▁사파
▁성간
▁스캐
▁앞을
▁의례
▁종양
▁최단
▁파드
▁파출
▁페터
사상을
스케는
▁겨울철
▁공급을
▁맞추고
▁목사의
▁비판의
▁사자를
▁선로를
▁심장마
▁연습을
▁전통이
▁절대적
▁좀처럼
▁항구를
▁핵분열
▁공산당에
▁돌아온다
▁사단법인
▁생제르맹
▁선발되어
▁설명이다
▁여성들의
▁위원회를
▁처음이다
▁획기적인
대한민국의
▁민주주의를
▁알렉산드라
겨울
도나
린트
매가
벽에
오밍
요와
하긴
key
▁괴산
▁말려
▁밸리
▁신영
▁유익
▁중량
▁차에
▁한라
▁허물
파운드
rain
▁거처를
▁경찰청
▁동안은
▁분열을
▁생산은
▁주축이
▁지름은
▁진리를
▁충돌로
▁Mnet
▁기다리는
▁동성애자
▁선정됐다
▁스포르팅
▁업그레이
▁원정에서
▁주었으며
▁중국인민
▁포함하지
▁print
▁조정에서는
▁애니메이션으로
과장
누이
단인
데를
부키
상선
소형
처로
테를
▁7.
▁NS
▁RA
▁가에
▁공약
▁기묘
▁납품
▁덧셈
▁면담
▁몸과
▁문교
▁미러
▁치킨
▁코모
▁헬렌
▁회부
경제의
사건을
▁BMW
▁Dis
▁감싸고
▁구별할
▁그치지
▁당국의
▁모드를
▁생산과
▁예정된
▁인도를
▁인도에
▁자녀가
▁정류장
▁카리스
▁특권을
▁남쪽에는
▁델라웨어
▁문신으로
▁사망했고
▁실험에서
▁옥타비아
▁이라크의
▁네브래스카
▁싱가포르의
▁믈
갔던
크트
파스
화합
▁Cr
▁과천
▁내비
▁배울
▁산인
▁생김
▁서주
▁슬럼
▁안식
▁엘살
▁요네
▁이매
▁주시
▁창안
▁천지
기업의
스터가
▁글러브
▁모습에
▁비옥한
▁산소를
▁자산을
▁제노바
▁종류를
▁클럽에
▁Amer
▁Baby
▁규정하는
▁사람이나
▁선택했다
▁올랭피크
▁추진하는
▁편성으로
▁화이트삭
▁선출하였다
▁아이젠하워
KA
높이
디안
삼아
상품
소서
차이
페어
_38
oup
▁관개
▁깎아
▁대면
▁도를
▁띈다
▁미망
▁산탄
▁선회
▁신재
▁이서
▁접착
▁취미
부사에
스크는
▁166
▁공간과
▁놀라게
▁명명된
▁순천시
▁요시히
▁우주를
▁원리에
▁유비가
▁입었고
▁제자인
▁콜라보
▁현실의
▁황제인
▁1852
▁Will
▁거느렸다
▁계열에서
▁도달하는
▁윤치호는
▁이곳에는
▁제시한다
▁하시모토
▁경희대학교
▁계속하였다
▁연구하였다
▁제한적으로
uk
▁싯
경험
노예
롭다
릭은
엔의
월경
제주
팔렌
▁상계
▁우마
▁이삭
▁인슐
▁졌다
▁조개
▁출루
▁쿠페
▁한진
그룹이
컨트리
1000
▁내세운
▁상대적
▁생활은
▁슬라이
▁식량을
▁재능이
▁정조의
▁존스는
▁치르는
▁1791
▁과학적인
▁만화이다
▁벗어나지
▁입대하여
▁재판부는
▁활약하는
▁흥미로운
▁수비수이다
▁역임하였고
▁남동쪽으로는
▁돛
범을
텍스
_39
▁간도
▁간편
▁볼륨
▁수아
▁심근
▁아구
▁오두
▁인출
▁튜링
버스와
ouse
▁궤도는
▁긍정적
▁닮았다
▁모험을
▁바람의
▁소설이
▁수용체
▁에리트
▁에트루
▁육군에
▁추가한
▁크라운
▁트로피
▁평화의
▁한번에
▁가격으로
▁가족들과
▁김일성은
▁발표하는
▁석가모니
▁영향력은
▁증가하여
▁파괴하는
▁형성했다
▁정착하였다
▁프랑스어로
▁유니버시아드
CO
료에
브룩
향은
-04
ROM
add
▁ES
▁SI
▁대고
▁불펜
▁수족
▁첼로
▁카마
▁키드
단체로
담으로
미터의
연맹은
▁나서서
▁더구나
▁리바이
▁문서가
▁에인절
▁연장은
▁재단의
▁필립스
▁현저히
▁화석이
▁후반의
년경부터
▁LIVE
▁경우에만
▁김일성이
▁드라마를
▁베토벤은
▁일하면서
▁현지에서
▁사퇴하였다
▁이루어졌고
▁총선거에서
▁빽
던스
마뉴
미분
센의
파워
▁CV
▁귀신
▁남짓
▁도마
▁딸린
▁사주
▁새턴
▁여유
▁용접
▁우랄
▁토성
▁학력
▁헤일
▁1,5
▁LCD
▁가오슝
▁관측할
▁던졌다
▁뒤부터
▁버밍엄
▁세계관
▁슈퍼주
▁신문을
▁어렵고
▁없애고
▁연합은
▁영화인
▁울주군
▁인터콘
▁청교도
▁합류한
이탈리아
▁발견한다
▁방면에서
▁선정되어
▁미래통합당
균이
승람
신호
입자
▁고스
▁낚시
▁바야
▁버락
▁수류
▁수하
▁아랑
▁여당
▁인신
▁잎을
▁틀을
▁폭동
극이다
▁
이
다
.
에
의
는
로
하
,
을
1
가
고
지
서
한
은
기
0
사
리
으
대
시
스
를
2
도
인
년
아
자
어
라
수
있
일
나
부
그
전
정
되
국
9
과
해
주
었
제
들
성
장
구
여
상
적
동
했
와
3
위
원
선
공
게
였
마
트
보
드
만
5
조
며
중
4
화
월
8
우
미
경
학
소
유
교
비
세
오
신
르
6
문
치
7
개
계
명
역
회
연
후
관
면
진
것
된
등
터
모
영
용
프
발
군
산
러
무
니
당
"
타
작
민
데
방
단
레
재
거
음
카
e
통
바
간
반
분
안
크
생
a
포
차
체
행
내
호
운
식
노
o
파
본
현
남
할
물
t
요
'
출
양
r
종
때
m
속
실
야
임
두
토
루
결
함
l
던
형
강
코
설
표
려
키
히
i
-
각
법
초
디
승
배
업
태
n
독
건
직
버
까
불
래
입
록
합
력
S
피
점
A
매
최
번
예
또
않
받
C
티
았
같
천
베
른
권
약
메
브
말
더
왕
알
목
심
격
판
감
립
u
청
투
s
금
추
처
항
달
북
란
네
없
활
평
린
따
외
저
열
언
집
특
즈
테
석
편
복
향
T
병
류
F
변
광
준
질
령
B
M
족
난
근
페
올
I
랑
름
람
황
급
존
축
총
송
많
김
능
c
론
술
박
참
울
철
쪽
별
g
f
살
D
환
증
악
온
및
창
P
품
E
절
쿠
;
육
곡
료
백
플
d
h
망
새
쓰
애
필
림
케
졌
순
돌
께
&
져
든
머
확
량
글
워
패
규
팀
클
탈
극
색
N
범
쟁
견
련
너
)
날
삼
탄
k
O
랜
L
친
째
R
충
K
막
손
봉
책
접
p
퍼
완
_
G
못
뒤
츠
협
런
션
(
담
V
밀
채
블
골
습
길
/
녀
엔
측
혼
누
취
럽
험
즌
커
귀
슬
암
곳
슈
벌
찰
H
겨
갈
[
]
앙
웨
씨
U
첫
y
뉴
허
침
높
칭
쳐
효
널
볼
났
:
죽
획
센
뜻
응
락
착
큰
례
폭
검
논
움
헌
징
잡
렸
~
득
희
엘
b
농
픽
캐
섬
걸
틀
럼
홍
풍
느
퇴
택
폴
%
W
좌
헤
먼
왔
될
층
폐
끝
싱
압
줄
념
덕
턴
앞
맞
즉
슨
혁
찬
윤
긴
율
맡
익
릭
링
늘
갖
써
텔
빈
델
염
잘
빌
얼
램
v
벨
묘
킨
컵
엄
콘
냈
궁
맹
앨
닌
렌
칸
균
억
밝
몇
팔
흥
훈
휘
객
옥
칼
얻
콜
푸
쇼
맥
갔
됐
숙
J
괴
넘
샤
므
좋
뷔
흐
몰
핵
찾
떠
덴
붙
w
릴
빠
둘
낸
켰
템
X
률
혀
몬
액
컴
탑
뿐
룹
혹
욕
쥐
굴
놓
끌
십
잠
힘
롯
죄
칙
갑
떨
핀
싸
촌
벽
척
벤
먹
졸
몸
략
끼
맨
눈
춘
잉
렉
풀
잔
휴
틴
켜
몽
녹
쳤
!
컬
홈
칠
앤
뮤
곤
밖
밴
렇
폰
털
뛰
륙
탁
셀
꾸
탕
멸
혜
둥
솔
겼
렀
톤
웠
돈
Y
홀
혔
혈
윈
팅
x
컨
넷
님
겸
딸
텐
롤
낮
냐
둔
쿄
랐
탐
톨
욱
퓨
겠
헨
촉
셔
낙
떤
콩
넓
킬
꽃
펜
왜
랙
뇌
렬
읍
옹
붕
킹
=
멘
튜
덜
융
섭
흔
놀
슷
옮
윌
닝
젤
듬
빛
헬
넣
깨
흑
챔
겐
땅
쉬
곧
힌
쌍
딩
롭
답
팬
룬
켓
즘
멤
쇄
큐
튼
짓
룡
듀
밤
젠
닉
값
릉
뢰
웅
렵
옛
흡
랭
납
씩
롱
맺
짜
랫
멜
닥
쉽
젝
웃
숭
꼬
궤
펠
z
듯
숨
섯
빙
멀
깊
잃
+
셰
핑
캠
웹
잇
|
즐
틱
밍
믿
쓴
빅
끄
뷰
뜨
큼
텍
찍
덤
짐
펼
돼
잎
틸
멕
럭
빨
엽
힐
롬
쇠
짧
뀌
럴
삭
딘
폼
릿
켈
곱
랍
첨
혐
캘
?
Z
켄
랄
삶
겪
닐
낭
촬
썼
얀
컷
Q
벗
옆
콤
밑
꿈
흘
싶
첩
곽
젊
낳
쌓
뉘
셜
냥
룩
옷
헝
빼
듣
냉
닛
톱
븐
맛
읽
샌
엑
왼
믹
퀴
봄
픈
엇
벡
띠
숲
잭
튀
뱅
낼
쿨
묵
넬
흰
셋
섰
뒷
됨
캄
벼
괄
앗
댄
엠
붉
좀
끊
슴
뿌
둑
씬
웰
첼
뤄
떻
덮
늄
밥
녕
톰
앵
륜
찌
팽
탱
팩
뤼
묻
숫
뱀
짝
늬
캔
춤
렐
j
렴
셈
샘
쓸
쾌
옌
훨
팝
꼽
쫓
륨
깔
겔
닫
갤
횡
뽑
꺼
늦
룸
렘
뼈
끈
앉
덩
딜
꼭
흉
좁
끔
멍
룰
햄
봇
뚜
펙
깃
꾼
딕
춰
윗
탠
륭
랩
퀸
빗
퀘
궐
덧
킴
첸
쿼
듭
싼
펴
삽
윙
꺾
뮌
슐
긍
셉
q
묶
쌀
홋
렛
넌
펑
펄
툰
눌
꼴
겹
훌
훗
섞
녁
*
뉜
넥
녔
넨
돔
띄
펀
곰
밭
\
깥
낌
섹
돕
툴
셸
닷
랴
빵
엉
똑
핸
콧
훼
딱
톡
갱
깝
뿔
늑
팡
닭
틈
풋
킷
{
콕
콰
굳
맷
힙
컫
흙
콥
룽
뇨
빚
밸
핫
겁
뮬
굽
옵
쏘
킥
껍
벳
멈
굿
겉
턱
봐
푼
떼
럿
샹
딴
왈
퉁
뻗
캡
탓
홉
죠
렷
꿀
샬
닮
눅
쑤
쯤
엣
툼
붓
쁜
쉐
굉
띤
뚫
릇
릎
줬
셨
쥬
듈
칩
댐
싫
웬
걷
헐
놈
앱
닿
퐁
쩌
낀
갓
챌
낱
슘
젖
흠
옴
삿
톈
쿤
얄
펌
걱
둠
쯔
봤
솟
#
잊
옐
팜
륵
렁
솜
캉
냄
덟
짙
멋
곁
쏟
돋
탤
휩
떡
흩
껴
$
얇
긋
밟
핍
얘
굵
뚝
컸
꾀
덱
뭉
텀
왓
훔
꿔
쁘
맵
휠
끓
햇
댓
맘
썬
밋
빔
꽤
픔
뀐
괘
촨
펫
잦
앓
씀
횟
붐
벅
엿
줌
샨
슭
벵
싯
멧
}
뒀
짱
팟
갇
헥
눠
딪
꼈
츄
줘
땄
랏
깎
튬
땃
맑
얹
몫
`
곶
뭇
낫
찐
닦
텝
팰
찔
걀
팍
옳
윅
맏
쟈
얽
깐
슛
캅
끗
씌
엥
뻔
앰
쭉
핏
귄
궈
뱃
욘
뚱
듐
낚
볍
찮
믈
챙
뻐
섀
탬
촐
헛
캣
엮
훙
쩔
귤
넛
쾰
숀
뫼
샐
쿡
꿨
쉴
렝
뭄
뜬
@
싹
뾰
녜
갯
푹
셴
뮈
챈
돗
싣
얕
삐
딥
뤘
낄
랬
샀
깜
댈
웍
늙
렙
눔
펩
딧
샵
꽂
슌
탭
쾨
겟
맬
냅
볶
췄
갚
껏
뇽
촛
펭
쩐
꽝
몹
쁨
깁
썩
큘
뜸
짚
퀼
쪼
늪
짖
릅
츰
췌
괌
즙
찢
훤
숍
엡
쿰
룻
뜰
넉
롄
빽
퓌
뮐
핼
뿜
씻
잼
굶
젯
뭐
뵈
퀄
쵸
샴
쥘
잣
똥
쑨
벚
샷
탔
촘
슝
뜯
욤
팻
벙
엎
퓰
젓
멩
윽
밧
썰
껑
땀
댕
괜
켐
꿰
둡
둬
킵
밈
쥔
튠
낡
됩
텅
낯
뽀
꼼
츨
랠
깅
뇰
쉰
캇
뎀
멱
^
퀀
좡
맴
딤
쑹
챠
팎
뮴
썸
헴
웜
엌
뱌
쿵
띈
칫
팥
캥
쏜
꽁
왁
솥
쏠
몄
앳
훅
댁
ㅣ
갸
짠
욜
윔
먀
뭔
옙
쐐
뎅
쉘
젬
퍽
얌
덥
폈
넴
깡
칵
쨌
잖
뽕
돛
쑥
툭
콴
쩍
뺏
눕
뛴
놉
핌
힉
웁
찻
찜
늠
룀
팁
캬
옅
닙
읊
갠
ㄱ
볕
뺨
쭈
꼰
땐
뛸
봅
딛
샛
썹
뀔
넵
뎌
뺀
팸
퀵
븀
숄
텡
쉼
쌈
꿇
엷
횃
냇
젼
웸
펨
웡
텃
줍
깬
쎄
힝
짤
씹
튿
땡
춧
텟
깼
씽
뻘
긁
휼
켤
꽉
댑
깍
귈
폄
ㅇ
솝
눗
쇤
찼
솅
떴
뱉
꺽
랗
얏
뢴
쏴
홑
뤽
뎃
뎬
윳
ㅅ
ㅡ
ㄷ
젱
됭
뜩
쭤
숯
ㄹ
잰
륀
꿩
ㅁ
쩡
숏
춥
텁
찹
ㄴ
륄
빴
맙
잿
탸
놔
놨
푀
꿉
헵
뽐
숱
굼
컹
셍
볜
헹
튕
빡
볏
쌌
땜
옻
갬
묄
흄
넋
묀
랸
챕
댜
좇
녘
낵
뵤
첵
꿋
껌
놋
댔
밌
햐
몯
뷸
얗
냑
줏
짬
헷
뻣
핥
썽
챗
탯
셤
쳇
뎠
쥰
짊
툇
쌔
똘
쁠
쟝
탉
갭
덫
눙
휜
넝
욧
겜
듦
넙
쿱
췬
괭
뷜
앴
젭
쭝
훠
뵐
앎
쨩
껀
눴
뉠
ㅂ
귓
콸
솽
뺄
숴
닳
튤
폿
텨
긱
넜
꾹
윕
궂
벰
섣
헉
뚤
쏙
팹
햅
몐
셧
셩
늉
깟
돤
ㅈ
펍
뭘
ㅋ
씰
쳅
톳
뷴
숟
괵
긔
뗀
껄
떳
ㅎ
뗏
믐
빤
숑
쫄
팠
왑
푈
끽
냘
솁
켠
냔
닻
쥴
쬐
겅
쳄
듄
챘
텼
왐
꿍
힛
맣
톄
꼿
갉
욥
왠
샥
묽
쉔
쪄
챤
넹
샅
쩨
뻑
칡
쳉
믄
뺑
웩
퉈
뭍
ㅏ
켁
땔
퓸
죤
휨
뒬
꽈
륌
횔
껫
윰
쭐
뎁
갛
튈
됴
섐
짰
넸
뻬
탰
팃
뀜
뢸
틋
뜀
빳
씁
ㅗ
휫
쾡
빻
윷
쾅
퍄
뗄
츤
튄
녓
섕
좨
잽
잴
틔
홰
웻
켕
솀
ㅊ
멎
뵙
찧
쫑
냠
밉
퓔
ㅍ
짼
퀜
훑
웽
녠
띵
쐈
꽌
깻
뵘
뺐
쎈
찡
셌
둣
깰
햘
뼛
쟌
쉥
빕
ㅌ
졍
쫒
쯩
깽
뷧
뻤
쿈
쏭
ㅜ
쇳
얍
홧
겊
뎨
땋
욀
읜
짭
졔
맸
뱁
볐
잤
젋
꽹
먄
혓
롼
섶
쿳
멥
삯
옘
줴
틍
ㅓ
듸
켑
헙
똔
뻥
궬
쭌
뒹
쌘
쌩
ㅐ
뎐
삵
낟
묠
뿍
읏
푄
닢
붑
찟
쳔
룅
룔
큅
낏
뷘
씸
큔
텄
ㅔ
묜
녤
떫
굄
뚬
띌
엾
쑈
ㅆ
뇬
숩
쏨
헀
뽁
읫
폽
껐
젹
컥
ㅕ
갗
띨
쇽
큄
툐
툠
겡
벋
쉿
ㄲ
뉼
섄
츈
괸
쮸
툽
똠
뿡
얉
ㅠ
뗐
졈
귐
땠
퇼
귬
룝
쐬
퇘
믜
뱐
퓐
ㅑ
빰
쌤
툉
푯
띔
졀
짢
펏
뒨
뽈
솎
옝
죌
쯕
촙
괼
밂
쇨
좆
ㅃ
낑
륑
벱
슥
큉
ㅛ
갹
뮨
싀
쾃
틂
ㅉ
궉
셱
숌
삔
ㄸ
넒
죈
죵
캑
쌉
짦
갰
궜
돠
뺌
짇
덞
떵
쓱
큇
퉜
녯
쉈
옇
츳
캴
꾐
뱡
쨍
훵
ㅢ
뼉
삥
얭
ㅒ
뵬
붇
쌕
옭
쨋
ㅖ
덛
뿅
샾
썻
쎌
쫀
휙
딨
쩜
퀠
틉
ㅟ
묑
쟀
퇀
푁
햏
끙
뚠
뵌
횬
곗
껩
꿎
뎡
맟
몌
흭
ㅚ
곪
귿
꿴
됸
땝
묏
벧
볘
븓
븡
잌
젔
쳥
캰
쿌
큥
걔
븨
샙
쒀
웟
푤
겋
랖
뼘
솃
쉑
펐
랼
솨
앏
윾
굠
떰
쏸
왬
챵
ㅘ
긷
놘
돝
똣
롸
싁
졉
텬
팼
꺅
뤠
슙
읒
쳬
쳰
걍
겍
굣
꾜
륍
밞
슉
쪘
큭
킁
퇸
퍌
ㅄ
꽥
멓
쉭
죗
킈
튐
곬
궃
끎
덖
릐
쁩
섈
쌋
좐
짹
춉
췐
탼
귁
녈
닑
닯
뭡
뭣
엳
읗
쟉
쫌
챨
췰
쿽
풰
ㅙ
ㅝ
갼
겯
뀨
낍
냣
뉸
댠
됙
뜷
롹
몆
밎
뱟
뽄
삑
슯
얜
옯
츌
햔
뉵
똬
믯
붸
쀼
쌰
읕
읖
쟤
찿
켸
큽
햑
흗
ㅞ
궨
긑
녬
늡
듕
샜
솬
읻
죡
쫙
쵤
춍
핬
혠
훕
휀
늴
댱
돐
먁
셕
셥
쑬
얠
왝
윁
읔
쥣
즁
쬔
찝
틑
퍈
겝
굘
뇩
됀
뒴
떱
룟
왱
좃
즛
쨈
쨔
쬘
캤
쾍
튱
ㄺ
ㄼ
껭
꿘
뀍
녑
묫
믕
엊
읓
졘
쥠
쳡
햣
겻
곯
낢
뉨
밪
볓
붜
삘
슾
옉
죔
짯
쩬
쮠
챡
캪
텽
풂
ㄳ
ㄻ
ㅀ
걲
깸
꺄
뙈
뚧
륏
륩
맻
벛
섥
앝
엹
읃
잍
잛
쭘
쯧
촤
퀑
큠
튁
푠
횐

ㄿ
꼍
뇸
뉙
뙤
뜽
렜
뢱
밷
봬
뻰
솓
썅
쎅
쏱
쒸
욺
윱
첬
촹
츔
퀌
턔
햠
헸
ㄽ
겇
꼳
꾄
눞
늣
딫
맽
멨
뱔
섁
섦
슁
씐
엤
왹
욍
읠
읺
짫
츼
픙
ㄵ
ㄾ
겄
귑
껸
꽛
눼
닏
뎜
듧
묭
묾
뵨
븜
빋
빱
뺘
삳
얆
얐
얶
옜
왯
욷
웤
졋
쨘
쭙
쮜
켯
콀
쾬
쿙
푕
픕
휭
ㄶ
갣
겿
꿕
낻
뉻
닸
덪
돟
둗
듁
땟
뚯
띡
렫
롐
룐
멉
벴
쏫
얾
욋
잏
잗
쟛
쫏
챰
쳑
컁
켬
콱
탘
퍙
픠
햤
횻
흴
곂
곈
곷
괏
깯
꽅
꾿
넗
뉩
늗
닜
닺
땁
땨
땸
떄
뙡
랟
럇
룁
몃
뭏
볻
봔
븍
뺴
뻴
섿
슽
쌴
씼
엶
옫
옸
쟐
좔
짔
쩝
쬼
쯘
챱
촥
쵹
쵼
춋
쾀
톺
톼
퐝
혤
훽
휑
걈
걺
겆
곙
굥
깆
깩
꽆
꾕
끕
넀
넖
넢
넫
녇
닽
댛
덨
뎰
됫
뒸
뗑
띰
럄
뢨
뤗
먈
멂
몔
뫃
뮹
믓
믾
뱄
뷁
빝
샇
쇵
싻
쎙
쐰
쑜
욈
읆
쟂
쟙
젇
쩽
쬠
찓
쳘
쳣
춈
츅
츙
콛
콬
퀍
탙
텦
툿
튽
폘
햗
헿
홤
홥
횰
횽
흝
흫
힁
갂
갘
걑
걘
곌
괂
깉
깠
꺠
껜
껶
꽦
꿏
꿸
뀀
뀝
냬
녣
놰
뇻
늇
덝
뎍
뎦
돴
됄
됏
됮
둄
뒈
듫
떽
뗬
뗴
띱
럅
렢
롈
뤀
륻
뫄
밣
붘
뷕
븥
빎
뽓
뿟
삠
삡
삮
샏
섓
셖
솦
솻
쇘
숰
숳
쉉
쉡
쎔
쓔
앟
앧
얖
얺
엜
엵
욌
욯
윶
읭
읳
읹
쟘
졜
졷
좽
줫
쩄
쩰
쫜
쬬
찣
챦
쵝
츕
츩
칲
콮
퀭
텉
툥
튝
푱
풉
퓬
핟
핮
핶
핻
홛
홱
횄
횩
훍
훓
훝
흿
갃
걋
겂
겣
곅
곘
굑
굔
궅
귝
깂
깢
깹
껙
껼
꼇
꼐
꽐
뀠
냡
넎
넡
넶
녝
뇐
뇔
뉫
늚
늰
댤
덣
돎
돚
돵
돽
둰
둴
둿
뒁
뒥
뒫
듥
딷
뗌
뗘
똫
뙨
뛔
뜁
뜌
띳
랒
럐
럔
렡
롑
롓
뤌
맄
맆
맜
먗
먿
몀
몴
뫙
뭅
뭰
뮝
믏
믠
밒
밨
밫
밯
뱆
뱜
벉
봍
봘
뵉
뵷
붏
붖
붛
붴
뷋
뺩
뺵
뼁
뼤
삣
삻
샂
샊
셑
쇗
숡
숸
슼
싈
싰
싲
싾
쎕
쎴
쏩
쏳
쐇
쑴
쒜
쓿
씃
씉
앃
앋
얅
얬
엩
옄
옰
옲
옺
왰
윘
윟
읅
읶
읿
잋
잩
쟨
젣
젿
죕
죰
줃
줓
쥭
즤
짗
쨉
쩸
쫃
쫍
쫗
춴
췅
칳
캌
캭
컈
켙
콙
퀏
킼
턀
텥
톹
퇌
퇻
퉤
틧
팈
팉
팯
퍅
퍠
폅
폔
폳
퐈
푣
풜
핔
핳
햊
햋
헜
혿
홅
홯
횓
횢
휄
휏
힜
갅
갆
갊
갋
갌
갍
갎
갏
갞
갟
갡
갢
갥
갦
갧
갨
갩
갪
갫
갮
갲
갳
갴
갵
갶
갷
갺
갻
갽
갾
갿
걁
걂
걃
걄
걅
걆
걇
걉
걊
걌
걎
걏
걐
걒
걓
걕
걖
걗
걙
걚
걛
걜
걝
걞
걟
걠
걡
걢
걣
걤
걥
걦
걧
걨
걩
걪
걫
걬
걭
걮
걯
걳
걵
걶
걹
걻
걼
걽
걾
걿
겈
겎
겏
겑
겒
겓
겕
겖
겘
겙
겚
겛
겞
겢
겤
겥
겦
겧
겫
겭
겮
겱
겲
겳
겴
겵
겶
겷
겺
겾
곀
곃
곆
곇
곉
곊
곋
곍
곎
곏
곐
곑
곒
곓
곔
곕
곖
곚
곛
곜
곝
곲
곹
곺
괁
괍
괕
괗
괠
굇
굦
굻
궇
궎
궘
궝
궡
궷
귯
긆
긜
긧
긪
긾
깄
깋
깓
깖
꺌
껠
껬
꼮
꾈
꿧
끟
낛
낣
낲
냤
넁
넏
넑
넚
넞
녋
녙
놃
놧
놩
뇍
뇓
뇜
눋
눝
늅
늏
늕
늩
늿
닁
닞
닟
닠
댇
댚
댝
댸
덙
덯
뎗
뎝
돇
돍
돓
돰
됍
됢
됬
됰
됼
둉
둏
둙
둚
둟
둧
뒵
듲
듳
듹
듼
딀
딈
딭
딯
딲
땍
땽
떘
떙
떢
떥
떦
떪
떯
뗼
뚷
뚸
뚼
뜹
띁
띅
랃
랓
랕
랛
랢
랰
랲
럈
럘
럲
럻
렃
렆
렗
렠
렣
롣
롲
뢀
뢉
룍
룧
룯
뤈
뤨
뤰
뤳
뤵
륐
륫
륱
륽
릌
릍
릏
릘
릫
릳
맀
맃
맊
맍
맔
맕
맗
맠
맢
먓
먕
먘
먾
멏
멪
멵
몊
몪
뫂
뫈
뫔
묺
뭌
뭬
뭴
믁
밚
밠
밬
뱍
뱓
벏
벐
벓
벹
볃
볈
볿
봋
봌
봣
봥
뵛
뵝
붊
붔
붠
붵
뷀
뷃
뷤
븃
븕
븝
븟
빍
빧
빩
뺙
뺬
뺸
뺼
뻇
뻠
뻡
뻩
뻼
뽝
뿗
뿝
쀍
쁭
삜
샆
샞
섊
섡
섧
섨
섵
섷
셒
솏
솑
쇡
쇰
숔
숖
숮
쉅
쉠
슢
슦
슳
싄
싡
싦
싪
싵
싿
쌁
썊
썪
쎗
쎘
쎼
쎾
쐉
쐑
쐼
쑷
쒼
쓘
씜
앀
앆
앖
앚
앛
앹
앾
얂
얃
얊
얨
얫
엗
엪
옂
옏
옽
옾
왇
왘
왙
왤
왿
욨
욽
욿
웆
웇
웑
웝
윋
윥
읂
읇
읋
읐
읙
읟
읷
잂
잆
잙
잚
잧
잨
쟃
쟇
쟎
쟬
젃
젆
젏
젗
젙
젲
젵
졩
졶
좍
좧
죳
줜
줼
쥉
쥤
쥥
쥼
쥿
즑
즞
짎
짛
짥
쨀
쨜
쨤
쩟
쩩
쩹
쩻
쪗
쪤
쫘
쭁
찯
챂
첟
첮
첯
첲
쳠
촏
촣
쵀
쵣
춛
춝
춟
춭
췍
췡
췩
췽
츹
칯
칱
캎
캿
컀
컅
컺
켭
켱
켼
콭
쾁
쾩
쾻
쾽
쿸
쿹
퀩
퀫
큎
큣
큹
킄
킌
킽
탇
탣
탶
턚
텛
텤
텰
텸
텻
툅
툘
툱
튭
튻
틜
틩
팑
팤
팦
퍁
펲
폏
폶
퐃
퐅
퐌
퐷
푓
푝
픅
픝
픞
핃
핓
핝
핞
핢
핦
핧
핱
핲
햝
햡
햬
햿
헏
혅
혬
혯
혱
