▁▃ -0
▁ㅇ -1
▁ㄱ -2
▁ㄷ -3
▁ㅎ -4
▁ㅇㅣ -5
▁ㅈ -6
▁ㅅ -7
▁ㄴ -8
▁ㅇㅡ -9
▁ㅎㅏ -10
▁ㄷㅏ -11
▁ㅂ -12
▁. -13
▁ㅇㅔ -14
ㅡㄴ -15
▁ㅁ -16
▁ㄹ -17
▁ㅇㅢ -18
▁ㄴㅡㄴ -19
▁ᆫ -20
▁ㅇㅏ -21
ㅕㄴ -22
ㅡㄹ -23
ㅓㄴ -24
ㅏㅇ -25
ㅏㄴ -26
▁ㅇㅓ -27
▁, -28
ㅗㅇ -29
▁ㅇㅡㄹ -30
ㅅㅓ -31
ㅇㅣ -32
▁ㅊ -33
ㅕㅇ -34
▁ㄱㅏ -35
ㄹㅗ -36
ㄹㅣ -37
▁ㅇㅡㄴ -38
ㅜㄴ -39
▁ㅈㅣ -40
▁ㄱㅗ -41
ㅎㅏ -42
▁ㅍ -43
▁1 -44
ㅈㅣ -45
ㅓㅇ -46
▁ㄷㅚ -47
ㅅㅣ -48
▁ㄹㅡㄹ -49
ㅜㄱ -50
▁ㅅㅣ -51
▁ㅇㅕ -52
ㅅㅡ -53
▁ㅇㅓㅆ -54
▁ㅌ -55
▁ㄴㅕㄴ -56
▁ㄹㅗ -57
ㅗㄱ -58
▁ㄱㅣ -59
▁2 -60
ㄷㅏ -61
▁ㄱㅘ -62
▁ㅇㅣㅆ -63
▁ㄷㅐ -64
ㅜㄹ -65
▁ㅅㅏ -66
▁ㅇㅏㅆ -67
▁ㅈㅜ -68
▁ㄱㅡ -69
ㅏㄹ -70
▁ㅋ -71
ㅏㄱ -72
▁ㄷㅗ -73
ㅡㅇ -74
ㄴㅏ -75
ㅓㄱ -76
ㄱㅣ -77
ㅝㄴ -78
▁ㅇㅣㄹ -79
ㄹㅡ -80
ㅐㅇ -81
ㅗㄴ -82
ㅇㅓ -83
▁ㅇㅘ -84
▁ㄸ -85
▁ᆫㄷㅏ -86
ㄱㅜㄱ -87
ㄹㅏ -88
ㅅㅏ -89
▁ㄱㅓ -90
ㅕㄱ -91
▁ㄷㅡㄹ -92
▁ㅅㅜ -93
▁ㄴㅏ -94
▁ㅈㅏ -95
ㄷㅗ -96
ㄱㅏ -97
ㅈㅏ -98
▁ㅈㅓㄴ -99
▁ㅁㅣ -100
ㅊㅣ -101
▁20 -102
▁ㅈㅓㄱ -103
ㅝㄹ -104
▁ㅂㅜ -105
ㅓㄹ -106
ㄱㅗ -107
ㄷㅡ -108
ㅎㅘ -109
ㅌㅡ -110
ㅇㅏ -111
▁ㅇㅝㄹ -112
ㅁㅣ -113
ㅂㅜ -114
▁ㅁㅏ -115
ㅈㅏㅇ -116
ㅈㅜ -117
▁ㅈㅔ -118
▁19 -119
ㅇㅛ -120
▁ㅇㅗ -121
ㅑㅇ -122
ㅓㅁ -123
ㅈㅓㅇ -124
▁ㄹㅏ -125
▁ㅂㅗ -126
▁ㅇㅟ -127
ㄷㅐ -128
▁ㅈㅓㅇ -129
▁ᆯ -130
▁ㅈㅜㅇ -131
ㅅㅜ -132
▁ㅇㅠ -133
ㄱㅜ -134
▁ㅎㅘ -135
▁ㅅㅔ -136
ㅕㄹ -137
ㅇㅜ -138
ㅇㅝㄴ -139
▁ㅂㅏ -140
▁ㅇㅣㄴ -141
ㅐㄱ -142
ㅇㅣㄴ -143
▁ㅇㅕㅆ -144
▁ㄱㅗㅇ -145
▁ㅈㅗ -146
ㅓㅂ -147
ㅅㅓㅇ -148
▁ㄱㅔ -149
ㅈㅓㄴ -150
▁ㄱㅕㅇ -151
▁ㅁㅗ -152
ㅅㅏㅇ -153
▁ㄱㅐ -154
ㅈㅔ -155
ㅌㅓ -156
ㄱㅘ -157
ㄴㅣ -158
▁ㄱㅓㅅ -159
ㄷㅗㅇ -160
▁3 -161
ㄱㅡ -162
ㄹㄹㅣ -163
ㅎㅏㄱ -164
▁ㅂㅣ -165
▁ㅅㅡ -166
▁" -167
ㅇㅛㅇ -168
ㅎㅚ -169
▁ㄷㅡㅇ -170
▁ㅅㅓㄴ -171
▁ㄲ -172
▁ㅅㅓㅇ -173
▁ㄱㅜ -174
ㄱㅛ -175
▁ㅊㅏ -176
▁ㅁㅏㄴ -177
▁ㅅㅗ -178
▁ㄷㅗㅇ -179
▁ㅇㅕㄴ -180
ㄹㅓ -181
▁ㅅㅓ -182
ㄹㅔ -183
ㄴㅡㄴ -184
▁ㅅㅏㅇ -185
ㄹㅐ -186
▁ㅎㅏㄴ -187
▁ㅁㅕ -188
ㅁㅕ -189
▁ㅇㅕㅇ -190
▁ㄱㅜㄱ -191
ㅁㅏ -192
ㅂㅣ -193
▁ㅂㅏㄹ -194
ㅋㅣ -195
▁ㅁㅕㄴ -196
ㄱㅖ -197
ㅁㅜㄴ -198
ㅇㅗ -199
▁201 -200
ㅅㅓㄴ -201
▁ㄴㅗ -202
ㅅㅏㄴ -203
ㅇㅢ -204
ㅡㅁ -205
ㅁㅣㄴ -206
ㅇㅕㄱ -207
▁4 -208
ㅎㅏㄴ -209
ㅇㅠ -210
▁' -211
ㅇㅑ -212
ㄷㅔ -213
ㅅㅣㄴ -214
ㅌㅏ -215
ㅇㅣㄹ -216
ㅡㄱ -217
▁ㅎㅜ -218
▁ㄹㅣ -219
▁ㄱㅘㄴ -220
▁ㅁㅕㅇ -221
ㅁㅏㄴ -222
▁ㅅㅣㄴ -223
ㅅㅗ -224
▁ㅍㅡ -225
▁5 -226
ㅅㅣㄱ -227
▁200 -228
▁ㄸㅐ -229
▁- -230
ㅊㅔ -231
ㅇㅡㅁ -232
ㅈㅐ -233
▁ㅈㅏㅇ -234
▁ㅍㅗ -235
▁ㅂㅏㅇ -236
▁ㅇㅜ -237
ㅁㅕㅇ -238
ㄹㅜ -239
ㅎㅣ -240
ㅋㅡ -241
ㄱㅔ -242
▁ㄷㅓㄴ -243
▁ㅎㅐ -244
ㅇㅟ -245
▁ㅇㅛ -246
▁ㄱㅛ -247
▁ㅁㅜ -248
ㅈㅗ -249
ㄱㅜㄴ -250
ㅋㅏ -251
▁ㅇㅕㄱ -252
ㅈㅏㄱ -253
▁ㅁㅜㄴ -254
ㄷㅏㄴ -255
▁ㄴㅐ -256
ㄱㅘㄴ -257
ㄱㅏㄴ -258
▁ㅆ -259
ㅎㅜ -260
ㅎㅐㅇ -261
▁ㅍㅣ -262
ㅌㅣ -263
▁ㅎㅗ -264
▁ㄷㅏㅇ -265
ㄱㅗㅇ -266
▁ㅇㅝㄴ -267
▁ㅎㅕㄴ -268
ㅍㅡ -269
▁ㅌㅗㅇ -270
ㅁㅜ -271
▁ㄴㅏㅁ -272
▁ㄱㅖ -273
ㅂㅗ -274
ㅁㅜㄹ -275
▁ㄱㅜㄴ -276
ㄱㅓ -277
▁ㅊㅣ -278
▁ㅂㅜㄴ -279
ㅂㅗㄴ -280
▁6 -281
ㄹㅗㄱ -282
ㄹㅕㄱ -283
▁ㄲㅏ -284
▁ㅎㅏㄱ -285
ㅌㅗ -286
▁ㄸㅗ -287
▁ㅇㅑ -288
ㄷㅏㅇ -289
▁ㅍㅏ -290
ㅇㅓㅂ -291
▁ㅂㅐ -292
▁ㄷㅔ -293
▁ㅇㅏㄶ -294
▁ㅊㅜ -295
▁ㅅㅐㅇ -296
▁ㄱㅏㅌ -297
▁ㅌㅏ -298
ㅇㅏㄴ -299
▁ㅈㅏㄱ -300
▁ㅊㅜㄹ -301
▁ㄱㅏㅇ -302
ㅍㅣ -303
▁ㅎㅚ -304
▁ㄱㅕㄹ -305
ㅁㅕㄴ -306
▁ㅊㅓ -307
▁ㅋㅡ -308
ㅂㅏㄴ -309
▁ㅈㅣㄴ -310
ㄷㅣ -311
ㄴㅐ -312
▁ㅂㅏㄷ -313
ㅇㅑㅇ -314
▁7 -315
▁ㄷㅏㄴ -316
▁ㅂㅓㄴ -317
ㅅㅔ -318
▁10 -319
ㅅㅗㄱ -320
▁ㄷㅜ -321
ㄹㅠ -322
▁8 -323
▁ㅇㅖ -324
▁ㅊㅚ -325
▁ㅋㅏ -326
▁ㅂㅏㄴ -327
▁ㅂㅜㄹ -328
ㅇㅣㅁ -329
ㄹㅣㅂ -330
ㄷㅡㄹ -331
ㅎㅗ -332
ㅂㅏㅇ -333
▁ㅂㅔ -334
ㅍㅗ -335
▁ㅊㅗ -336
▁ㅋㅗ -337
▁ㅇㅏㄴ -338
▁ㅎㅕㅇ -339
ㅁㅗ -340
ㅍㅛ -341
▁ㄸㅏ -342
ㄱㅕㅇ -343
ㅅㅐㅇ -344
▁ㅈㅐ -345
▁ㅁㅏㄹ -346
ㅌㅗㅇ -347
ㅈㅣㄴ -348
ㅋㅗ -349
ㅂㅜㄴ -350
▁ㅅㅣㄹ -351
▁ㅁㅐ -352
ㅂㅏ -353
▁ㄹㅔ -354
ㅈㅗㅇ -355
▁9 -356
ㅇㅕㅇ -357
▁ㅇㅓㅄ -358
▁ㅌㅣ -359
ㄱㅕㄱ -360
▁ㅈㅗㅇ -361
▁ㅇㅡㅁ -362
ㅇㅕㄴ -363
ㄱㅏㄱ -364
ㅌㅔ -365
▁ㅅㅓㄹ -366
ㅎㅐ -367
ㅈㅡ -368
▁ㅎㅏㅁ -369
ㄷㅜ -370
▁ㅁㅔ -371
ㅂㅓㅂ -372
ㅎㅏㅂ -373
ㅂㅓ -374
ㅈㅓㄱ -375
▁ㅌㅡㄱ -376
▁ㅇㅣㄹㅂㅗㄴ -377
ㄹㅡㄴ -378
ㅊㅏ -379
▁ㅉ -380
ㅇㅘ -381
▁ㄷㅓ -382
▁ㅁㅕㄴㅅㅓ -383
▁ㅅㅏㄴ -384
ㅂㅏㄹ -385
ㄹㅡㅁ -386
▁ㅇㅜㄴ -387
ㄴㅗ -388
ㅍㅏ -389
▁ㄷㅡ -390
ㅍㅜ -391
ㄹㅕ -392
▁ㄱㅝㄴ -393
ㄹㅕㅇ -394
ㅇㅕ -395
▁ㄱㅏㅁ -396
▁ㄴㅡㄴㄷㅔ -397
ㅇㅔ -398
▁ㅎㅘㄹ -399
ㄹㅏㄴ -400
▁ㄷㅗㄱ -401
▁ㅇㅐ -402
ㅈㅣㄱ -403
ㅁㅣㄴㄱㅜㄱ -404
ㄹㅏㅇ -405
ㄹㅏㅁ -406
▁ㅎㅐㅇ -407
▁ㅇㅘㅇ -408
▁ㅌㅐ -409
▁199 -410
▁ㄱㅣㅁ -411
ㅅㅡㅇ -412
ㅅㅓㄹ -413
▁ㅇㅑㅇ -414
▁ㅁㅣㄴ -415
ㅌㅐ -416
ㅎㅏㄴㅁㅣㄴㄱㅜㄱ -417
▁12 -418
▁ㄱㅓㄴ -419
▁ㅍㅕㅇ -420
ㄹㅛ -421
▁ㅌㅔ -422
▁ㅁㅏㄶ -423
▁18 -424
▁ㅇㅣㅂ -425
ㅈㅓㅁ -426
▁ㅁㅣㅊ -427
▁ㅊㅏㅁ -428
ㅅㅣㄹ -429
▁ㅇㅏㄹ -430
▁ㄱㅏㄴ -431
ㅁㅔ -432
▁ㄱㅕㅇㄱㅣ -433
ㅈㅗㄱ -434
▁ㅅㅡㅇ -435
▁ㅁㅗㄱ -436
ㅈㅜㅇ -437
ㅎㅏㄱㄱㅛ -438
ㄴㅕ -439
00 -440
ㅂㅔ -441
ㄴㅔ -442
⊸⊸ -443
▁; -444
▁ㅌㅗ -445
ㅅㅜㄹ -446
or -447
▁ㅅㅗㄱ -448
▁ㅊㅗㅇ -449
ㅉㅗㄱ -450
▁ㅊㅔ -451
▁ㅇㅚ -452
ㅎㅕㅇ -453
ㅊㅜㄹ -454
▁ㅂㅜㄱ -455
▁S -456
ㅇㅜㄴ -457
ㅅㅣㅁ -458
▁ㅈㅓ -459
ㄴㅏㅁ -460
ㅇㅑㄱ -461
ㅎㅕㄴ -462
ㄷㅗㄱ -463
ㅂㅡ -464
ㄹㅗㄴ -465
▁11 -466
▁ㅎㅣ -467
ㄱㅓㄴ -468
▁ㅃ -469
ㅅㅓㄱ -470
ㄷㅡㅇ -471
▁ㅈㅣㅂ -472
▁ㅂㅓㅂ -473
▁ㅌㅡ -474
▁ㄱㅏㄱ -475
ㅎㅑㅇ -476
▁ㅊㅓㄴ -477
▁ㅇㅣㅁ -478
▁ㅍㅛ -479
▁ㄷㅣ -480
▁ㅅㅐ -481
ㅁㅐ -482
▁ㅂㅕㄴ -483
ㅊㅓㄴ -484
▁ㅁㅜㄹ -485
ㄴㅡㅇ -486
ㅇㅣㅂ -487
▁ㅈㅣㄱ -488
▁ㄴㅔ -489
ㄱㅡㅁ -490
▁ㅂㅓ -491
▁ㄴㅣ -492
▁ㅂㅗㄴ -493
▁ㅍㅔ -494
ㅍㅜㅁ -495
ㄴㄷㅡ -496
▁& -497
▁A -498
ㄲㅔ -499
▁ㅆㅡ -500
▁ᄆ -501
▁) -502
▁⊸⊸ -503
ㅅㅗㅇ -504
ㅇㅜㄹ -505
▁ㅎㅏㅁㄲㅔ -506
▁ㅌㅣㅁ -507
▁ㅈㅓㅁ -508
▁ㅅㅓㄴㅅㅜ -509
la -510
▁ㅂㅏㄱ -511
▁ㅌㅜ -512
▁ㅎㅏㄴㄱㅜㄱ -513
ㅍㅏㄴ -514
▁ㅊㅓㅇ -515
▁ㅇㅕㅇㅎㅘ -516
▁ㅎㅏㅇ -517
▁ㅂㅡ -518
▁ㄹㅜ -519
▁f -520
ㄹㅑㅇ -521
▁ㄱㅘㅇ -522
▁C -523
ㅌㅜ -524
ㅈㅐㅇ -525
▁M -526
▁ㅇㅑㄱ -527
ㄹㅕㄴ -528
ㄱㅡㅂ -529
ㄱㅐ -530
ㅊㅓㅇ -531
▁ㅇㅛㅇ -532
▁ㄱㅕㅇㅇㅜ -533
ㅈㅣㄹ -534
▁ㅊㅜㄱ -535
ㅊㅜ -536
▁T -537
▁ㅎㅕㄴㅈㅐ -538
ㅇㅓㄴ -539
▁F -540
ㅕㅂ -541
▁ㅌㅗㅇㅎㅏ -542
ㅎㅏㅁ -543
▁ㅍㅏㄴ -544
▁_ -545
▁198 -546
ㅍㅔ -547
▁ㄷㅟ -548
ㅈㅜㄴ -549
▁ㅂㅗㄱ -550
▁ㄱㅜㄱㄱㅏ -551
ㅁㅏㅇ -552
ㄹㄹㅏ -553
▁ㅈㅗㄴ -554
ㅊㅗ -555
▁ㅍㅕㄴ -556
▁( -557
ㄹㅓㅂ -558
▁ㅅㅏㅁ -559
▁ㅋㅣ -560
▁ㅎㅏㄱㄱㅛ -561
▁ㅋㅐ -562
▁for -563
ㅎㅏㅇ -564
ㅇㅏㄱ -565
▁ㅎㅘㄱ -566
mu -567
▁ㄷㅏㅇㅅㅣ -568
▁ㅊㅐ -569
▁ㅎㅘㄹㄷㅗㅇ -570
▁ㅍㅐ -571
▁ㅊㅓㄹ -572
ㅋㅔ -573
ㄱㅕㄹ -574
▁15 -575
ㄴㅕㄴ -576
mula -577
▁formula -578
▁ㅁㅏㄴㄷㅡㄹ -579
▁ㄱㅠ -580
ㄱㅏㅇ -581
ㅂㅕㅇ -582
▁ㄱㅡㅁ -583
ㅂㅐ -584
ㄴㅓ -585
ㅅㅕㄴ -586
▁ㅇㅕㄹ -587
▁ㅉㅐ -588
▁ㅍㅡㄹ -589
▁ㅎㅏㅂ -590
▁ㅈㅡㅇ -591
▁ㅂㅐㄱ -592
ㄹㄹㅔ -593
▁ㅊㅏㅇ -594
▁ㅇㅓㄴ -595
ㅍㅕㄴ -596
ㄱㅕㄴ -597
ㅁㅗㄱ -598
▁ㅅㅣㄱ -599
▁ㅅㅣㅁ -600
▁16 -601
ㅈㅓ -602
▁ㅍㅜ -603
ㅅㅐㄱ -604
▁ㄷㅏㄹ -605
▁/ -606
▁ㅇㅕㄴㄱㅜ -607
ㅂㅕㄹ -608
▁ㄱㅡㄴ -609
ㅂㅗㄱ -610
▁ㅂㅕㅇ -611
ㅈㅓㄹ -612
▁m -613
ㄷㅡㄴ -614
▁ㅅㅏㄹ -615
ㅋㅜ -616
ㅊㅡ -617
ㅈㅡㄴ -618
▁0 -619
▁ㅎㅘㅇ -620
ㅎㅘㄴ -621
▁ㄸㅡ -622
▁D -623
▁ㅁㅗㅅ -624
▁ㅇㅗㄹㄹㅣ -625
▁ㄹㅓ -626
ㅇㅠㄱ -627
▁17 -628
ㄱㅡㄴ -629
▁ㅊㅜㅇ -630
ㅂㅜㄱ -631
▁197 -632
ㅎㅓㅁ -633
ㅎㅘㅇ -634
ㅡㄹㄹㅣ -635
▁B -636
▁ㅅㅜㄴ -637
▁ㅎㅔ -638
▁ㅆㅣ -639
ㅁㅓ -640
ㅏㄹㄹㅣ -641
▁ㅊㅓㅅ -642
ㄱㅝㄴ -643
▁ㅇㅏㄹㄹㅣ -644
ㅇㅚ -645
▁ㅈㅜㅇㄱㅜㄱ -646
▁] -647
ㄷㅏㄹ -648
▁[ -649
▁ㅇㅘㄴ -650
ㄱㅠ -651
▁I -652
▁K -653
▁: -654
ㅇㅘㅇ -655
▁ㄴㅗㅍ -656
ㅁㅍㅣ -657
▁ㅎㅕㅂ -658
▁ㄱㅣㄹ -659
ㄹㅏㅇㅅㅡ -660
▁ㄷㅗㄹ -661
▁ㄸㅡㅅ -662
▁ㅇㅕㅇㄱㅜㄱ -663
▁k -664
ㄱㅡㄹ -665
▁ㅈㅓㅇㅂㅜ -666
ㄷㅓ -667
▁ㅁㅗㅅㅎㅏ -668
ㄱㅗㄱ -669
▁ㄴㅡㄴㄷㅏ -670
ㄹㅐㄴㄷㅡ -671
▁ㅍㅣㄹ -672
▁196 -673
▁14 -674
▁ㄲㅡ -675
ㅂㅓㅁ -676
ㅊㅏㄹ -677
ㅈㅣㅂ -678
ㄱㅘㅇ -679
ㄹㅓㄴ -680
er -681
▁~ -682
▁ㅊㅜㄱㄱㅜ -683
▁ㄴㅓ -684
▁ㅈㅓㄴㅈㅐㅇ -685
▁ㅋㅔ -686
▁ㅁㅜㄴㅎㅘ -687
ㄹㅖ -688
ㅍㅓ -689
▁ㄷㅗㄱㅇㅣㄹ -690
▁13 -691
▁g -692
in -693
▁P -694
▁ㅎㅓ -695
▁ㄴㅠ -696
▁ㅂㅕㄹ -697
▁ㅈㅜㄱ -698
▁ㅊㅟ -699
ㄱㅓㅅ -700
ㅌㅏㄴ -701
▁ㅋㅡㄹ -702
▁ㅂㅏㅇㅅㅗㅇ -703
ㅇㅏㅇ -704
ㄹㅏㄱ -705
▁194 -706
▁ㅈㅓㅇㅊㅣ -707
▁ㅊㅣㄴ -708
▁ㄱㅏㅁㄷㅗㄱ -709
▁ㄷㅗㅇㅇㅏㄴ -710
▁ㄱㅗㄱ -711
ㅇㅕㄹ -712
ㄱㅡㄱ -713
▁ㅇㅣㄹㅂㅜ -714
▁ㅅㅗㄴ -715
▁l -716
▁ㅎㅘㄴ -717
▁ㅅㅓㄱ -718
ㄹㄹㅗ -719
▁L -720
ㅈㅗㄴ -721
ㅊㅜㄱ -722
▁ㄱㅜㄱㅈㅔ -723
ㅅㅡㅂ -724
ㅇㅖ -725
▁ㅁㅜㄴㅈㅔ -726
▁ㅌㅓ -727
ㅊㅣㅇ -728
▁ㄱㅓㅁ -729
ㄴㅓㄹ -730
ㅍㅕㅇ -731
▁ㄴㅗㅇ -732
▁% -733
ㅇㅡㄴ -734
▁ㅇㅣㄹㅂㅏㄴ -735
ㅎㅏㄹ -736
ㅊㅓㄹ -737
▁ㅇㅣㄴㅎㅏ -738
▁G -739
▁ㅋㅜ -740
ㅇㅡ -741
ㅇㅞ -742
▁ㅅㅠ -743
ㄹㅣㅁ -744
ㄱㅏㅁ -745
▁ㅈㅗㄴㅈㅐ -746
▁ㅇㅣㄴㄱㅜ -747
ㄹㅓㅁ -748
ㄴㅕㅁ -749
▁ㅎㅑㅇ -750
▁ㄴㅗㄴ -751
▁ㅈㅏㄱㅍㅜㅁ -752
▁N -753
▁ㄱㅗㄹ -754
▁ㄲㅡㅌ -755
on -756
▁ㅅㅓㅁ -757
ㅊㅓ -758
▁gt -759
▁ㅇㅜㄴㄷㅗㅇ -760
▁km -761
▁ㅇㅕㄱㅅㅏ -762
▁ㄱㅡㅂ -763
▁195 -764
▁ㅈㅓㅇㄷㅗ -765
▁ㄱㅗㅅ -766
▁ㅍㅗㄱ -767
▁ㄱㅕ -768
ㅇㅐ -769
▁U -770
ㄹㅗㅂ -771
▁ㅇㅠㄱ -772
▁ㅈㅡㄱ -773
▁ㅎㅛ -774
ㅅㅏㄹ -775
▁ㅈㅓㅂ -776
▁lt -777
ㅌㅐㄱ -778
▁ㅁㅏㅌ -779
ㅎㅚㄱ -780
▁ㅇㅏㅍ -781
▁ㄱㅟ -782
▁ㅇㅡㅁㅇㅏㄱ -783
▁ㄱㅘㄴㄱㅖ -784
▁ㅇㅞ -785
▁R -786
ㅅㅡㄴ -787
▁ㅈㅜㅇㅅㅣㅁ -788
ㅂㅗㅇ -789
▁30 -790
ㄱㅅㅡ -791
▁ㄹㅕ -792
▁H -793
▁ㄴㅜ -794
▁ㄴㅏㄹ -795
ㅁㅏㄱ -796
ㅊㅏㅇ -797
▁E -798
▁ㄱㅡㄱ -799
▁ㅂㅏㄹㄱㅕㄴ -800
▁ㅅㅓㄴㄱㅓ -801
ㅂㅕㄴ -802
▁ㅈㅓㄹ -803
▁ㄷㅏㅁ -804
ㅌㅓㄴ -805
▁ㅂㅗㅇ -806
ㅁㅍㅣㄱ -807
▁ㅎㅗㅇ -808
ㅊㅐㄱ -809
ㅌㅗㅇㄹㅕㅇ -810
▁ㄱㅕㅇㅈㅔ -811
▁ㅈㅓㄴㅌㅜ -812
ㅈㅡㅇ -813
▁ㅂㅏㄹㅍㅛ -814
▁ㅁㅏㅈ -815
ㅌㅡㄹ -816
▁ㄱㅏㅈ -817
ㄹㅣㄴ -818
▁ㅇㅏㅁ -819
▁2010 -820
▁ㅂㅡㄹ -821
▁ㅇㅗㄹㄹㅣㅁㅍㅣㄱ -822
ㅊㅏㄱ -823
▁ㅁㅣㄴㅈㅜ -824
▁ㅊㅡㄱ -825
ㅋㅓ -826
ㅈㅣㅇ -827
an -828
ㅇㅝ -829
ㄹㅐㅁ -830
▁ㅊㅐㄱ -831
▁ㅁㅏㄱ -832
ㅎㅘㄹ -833
▁ㅇㅕㄹㄹㅣ -834
▁ㅂㅜㄹㄹㅣ -835
000 -836
▁ㅁㅓ -837
▁ㅅㅗㅇ -838
▁ㅇㅔㄴ -839
▁ㄱㅡㄹ -840
▁ㄷㅡㄹㅇㅓ -841
ㅈㅓㅂ -842
▁193 -843
▁ㄱㅗㅇㄱㅕㄱ -844
▁ㅇㅕㅇㅎㅑㅇ -845
▁c -846
ㅇㄱㅡㄹ -847
▁ㅈㅏㄹ -848
ㅅㅜㄴ -849
▁ㅈㅜㅇㅇㅏㅇ -850
▁ㅊㅏㅁㅇㅕ -851
▁ㄹㅠ -852
▁ㅂㅏㄺ -853
ㅆㅡ -854
20 -855
▁ㄱㅘㄴㄹㅕㄴ -856
▁ㅈㅏㅂ -857
▁ㄱㅕㄹㄱㅘ -858
▁ㅇㅓㅂ -859
ㅎㅗㄴ -860
▁ㅂㅏㄹㅅㅐㅇ -861
▁25 -862
ㄹㅏㄴㄷㅡ -863
▁ㅈㅣㄹ -864
▁ㅈㅣㄴㅎㅐㅇ -865
▁ㅅㅗㄱㅎㅏ -866
▁ㅅㅓㄹㄹㅣㅂ -867
▁ㅂㅓㅁ -868
▁ㅅㅓㄹㅊㅣ -869
▁ㅈㅜㄴ -870
▁ㄷㅗㄱㄹㅣㅂ -871
ㄷㅡㄱ -872
ㅇㅗㄴ -873
▁ㅎㅡ -874
▁ㅂㅏㄹㅁㅐ -875
▁ㅇㅓㄷ -876
ㅆㅓ -877
▁2008 -878
ㅂㅐㄱ -879
▁W -880
▁ㅍㅖ -881
▁ㅋㅓ -882
▁ㅌㅡㄱㅎㅣ -883
▁ㅁㅣㄹ -884
▁ㅎㅕㅇㅌㅐ -885
ㅍㅐ -886
▁ㅇㅗㄴ -887
▁ㅈㅘ -888
ㄴㅏㄴ -889
ㅓㄹㅇㅓ -890
▁ㅅㅔㄴ -891
▁ㅌㅏㄴ -892
ㅇㅜㅁ -893
▁21 -894
▁ㄱㅕㄹㅈㅓㅇ -895
ㄴㅜ -896
▁ㅇㅐㄹ -897
ㅇㅡㅇ -898
ㄷㅏㅁ -899
ㅂㅜㄹ -900
▁ㄹㅡ -901
▁ㅅㅏㅇㅌㅐ -902
ㄴㅏㄹ -903
ㅌㅏㄹㄹㅣ -904
ㅇㅝㄴㅎㅚ -905
ㅅㅡㄹ -906
▁ㄱㅏㅌㅇㅣ -907
ㅂㅓㄹ -908
▁ㅇㅣㄹㅇㅓ -909
ㅇㅝㄹ -910
▁ㄷㅏㅇㅎㅏ -911
▁ㅇㅏㄱ -912
▁ㅈㅜㄹ -913
▁ㄲㅗ -914
▁ㅇㅣㄴㅁㅣㄴ -915
▁2012 -916
▁ㅈㅗㅎ -917
▁2011 -918
▁ㅊㅏㅁㄱㅏ -919
▁ㅊㅣㅁ -920
▁ㅊㅜㄹㅅㅣㄴ -921
en -922
▁ㅇㅜㄴㅇㅕㅇ -923
▁2007 -924
▁t -925
▁ㄱㅘㄴㄹㅣ -926
▁2009 -927
▁2014 -928
ㅅㅗㄴ -929
▁100 -930
ㅂㅏㄱ -931
▁ㅎㅗㄴ -932
ㄷㅗㄹ -933
▁ㅎㅐㅇㅈㅓㅇ -934
▁ㅌㅏㄹ -935
▁ㅇㅠㄴ -936
ㅂㅟ -937
▁ㅍㅣㄹㅇㅛ -938
▁a -939
▁ㄹㅏㄴ -940
▁ㅇㅡㅁㅂㅏㄴ -941
▁ㄷㅡㅇㅈㅏㅇ -942
▁ㅈㅓㅇㅂㅗ -943
▁ㅅㅐㅇㅅㅏㄴ -944
ㄷㅓㄱ -945
▁ㅈㅜㅇㅇㅛ -946
▁ㅅㅛ -947
▁2013 -948
ㅎㅢ -949
▁O -950
▁ㅊㅓㄹㄷㅗ -951
ㅌㅚ -952
ㅇㅡㄹ -953
he -954
▁ㅅㅐㅇㄱㅏㄱ -955
ㅅㅠ -956
▁ㅍㅏㄹ -957
▁ㅋㅗㄴ -958
▁ㅎㅢ -959
▁ㅅㅏㅇㄷㅐ -960
ㄲㅏ -961
ㄹㅜㅂ -962
ㄴㅏㅁㄷㅗ -963
▁ㄴㅡ -964
ㅁㅐㅇ -965
ㄱㅐㄱ -966
ㄴㅅㅡ -967
ㄱㅠㄴ -968
▁ㅁㅛ -969
▁ㄱㅜㄱㅁㅣㄴ -970
▁ㅅㅓㅇㄱㅗㅇ -971
▁191 -972
▁23 -973
ar -974
ㄸㅐ -975
▁2018 -976
▁2015 -977
▁24 -978
ㅊㅏㄴ -979
▁ㅅㅑ -980
▁ㄴㅓㅁ -981
▁ㄱㅓㄹ -982
ㅌㅔㅁ -983
▁2016 -984
▁000 -985
▁ㅂㅏㄺㅎㅣ -986
▁ㅂㅏㄹㅈㅓㄴ -987
▁ㅁㅕㅊ -988
ㅊㅡㄱ -989
ㄷㅡㅇㅎㅏㄱㄱㅛ -990
▁ㅃㅜㄴ -991
▁ㅎㅓㄴ -992
ㄷㅔㄹ -993
▁J -994
▁ㅇㅓㄱ -995
▁ㅂㅏㅇㅂㅓㅂ -996
▁ㅇㅝㄹㄷㅡ -997
▁ㅆㅏ -998
es -999
▁ㅇㅣㄴㄷㅗ -1000
▁ㅊㅜㄹㅇㅕㄴ -1001
▁ㅊㅏㅈ -1002
▁ㅇㅐㄹㅂㅓㅁ -1003
ㅇㅠㄹ -1004
▁ㅇㅝ -1005
▁ㄴㅡㅇ -1006
▁2006 -1007
▁22 -1008
ㄴㅡㄹ -1009
ㅇㅏㅁ -1010
▁192 -1011
ㄹㅑ -1012
FA -1013
ㅇㅣㄱ -1014
▁ㅈㅓㄴㅊㅔ -1015
▁ㄱㅗㅇㅎㅘ -1016
▁ㅅㅐㅇㅎㅘㄹ -1017
▁2017 -1018
▁ㅊㅡㅇ -1019
▁ㄱㅘㄴㅎㅏ -1020
ㅂㅡㄹ -1021
ㅊㅣㅁ -1022
ㅊㅚ -1023
▁ㄷㅗㄹㅇㅏ -1024
▁ㅎㅏㅇㄱㅗㅇ -1025
▁ㅃㅏ -1026
▁ㄹㅐ -1027
▁ㅋㅓㅁ -1028
▁ㅇㅓㄹ -1029
▁ㅂㅏㅇㅅㅣㄱ -1030
ㅇㅜㄴㄷㅔ -1031
▁ㅇㅣㄴㅌㅓ -1032
▁ㄱㅗㅇㅅㅣㄱ -1033
▁ㅇㅕㄴㅎㅏㅂ -1034
ㄹㅓㅎ -1035
▁ㅁㅏㄶㅇㅣ -1036
ㅍㅡㄹ -1037
▁ㅍㅜㅇ -1038
▁ㅎㅏㄴㅍㅕㄴ -1039
▁ㄱㅕㄱ -1040
▁s -1041
▁ㅊㅜㄹㅈㅓㄴ -1042
▁ㅁㅗㅁ -1043
ㄹㅑㄱ -1044
▁ㅎㅠ -1045
▁ㅍㅡㄹㄹㅔ -1046
ㅎㅏㄱㅈㅏ -1047
▁ㅂㅜㄴㄹㅠ -1048
▁ㄱㅕㄹㄱㅜㄱ -1049
ㄱㅟ -1050
▁ㅇㅕㄱㅎㅏㄹ -1051
▁ㅈㅏㅁ -1052
▁ㅁㅣㄴㅈㅗㄱ -1053
ㄴㅡ -1054
ㄲㅣ -1055
▁ㅅㅐㄱ -1056
▁ㄱㅜㄴㅅㅏ -1057
▁ㅍㅓ -1058
▁ㅎㅣㅁ -1059
▁ㅇㅜㄹ -1060
▁! -1061
▁ㅇㅣㄴㄱㅏㄴ -1062
at -1063
▁ㄷㅏㄹㄹㅣ -1064
ㅎㅓㄴ -1065
▁26 -1066
ㅋㅡㄹ -1067
▁ㄷㅜㄹ -1068
▁ㅇㅓㄴㅇㅓ -1069
▁ㄴㅗㅎ -1070
▁ㅂㅏㄴㄷㅐ -1071
▁2019 -1072
▁ㅌㅡㄱㅂㅕㄹ -1073
▁28 -1074
ㅊㅣㄱ -1075
ㅌㅏㄹ -1076
ㅂㅜㄱㄷㅗ -1077
ㅇㅕㅁ -1078
▁ㄸㅓㄹㅇㅓ -1079
▁ㅎㅕㄴㄷㅐ -1080
▁ㄴㅗㄱ -1081
▁ㅇㅕㄴㄱㅕㄹ -1082
ㅎㅔ -1083
▁ㅇㅡㅇ -1084
▁27 -1085
▁ㅂㅓㄹ -1086
▁ㅍㅕㅇㄱㅏ -1087
▁ㄱㅗㅇㄱㅐ -1088
▁ㅁㅗㄱㄹㅗㄱ -1089
▁ㄸㅓ -1090
ㅆㅣ -1091
▁ㄱㅏㄱㄱㅏㄱ -1092
▁ㄱㅕㅇㅅㅏㅇ -1093
▁ㅎㅗㅁ -1094
ㅁㅣㄹ -1095
▁2005 -1096
▁ㄸㅟ -1097
▁ㄷㅗㅇㅅㅣ -1098
▁V -1099
▁ㅈㅓㄴㅎㅏ -1100
▁ㄷㅏㄴㅊㅔ -1101
ㅎㅟ -1102
▁ㅂㅜㅌ -1103
ㅇㅏㅂ -1104
▁2000 -1105
▁ㅅㅟ -1106
▁ㅈㅗㄹ -1107
ic -1108
▁ㅇㅣㅁㅁㅕㅇ -1109
▁ㅎㅐㄱ -1110
ㅁㅓㄴ -1111
ㅊㅗㅇ -1112
al -1113
▁ㅈㅓㅇㅇㅢ -1114
ㅁㅏㄹ -1115
ㄱㅗㄹ -1116
▁ㅈㅣㄴㅊㅜㄹ -1117
▁ㅈㅓㄴㅁㅜㄴ -1118
▁ㅈㅗㄱ -1119
ㅂㅓㄴ -1120
▁ㄴㅏㄴ -1121
▁ㅁㅗㄱㅈㅓㄱ -1122
▁ㅁㅓㄹ -1123
ㅍㅜㅇ -1124
ㅍㅣㄹ -1125
▁ㅇㅣㄴㅈㅓㅇ -1126
ㅎㅡㅇ -1127
▁ㅅㅏㄴㅇㅓㅂ -1128
▁ㅂㅏㄲ -1129
BS -1130
▁ㅅㅡㅇㄹㅣ -1131
ㅋㅓㅂ -1132
ㅇㅛㄱ -1133
▁2004 -1134
▁ㅍㅗㄹ -1135
ㄹㅔㄴ -1136
ㅌㅣㄴ -1137
▁ㅁㅓㄱ -1138
▁ㅋㅏㄹ -1139
▁FC -1140
▁ㄱㅏㄹ -1141
▁ㄱㅗㅇㄱㅏㄴ -1142
ㄹㅕㅂ -1143
▁ㅈㅓㅇㅊㅐㄱ -1144
▁ㄱㅓㄴㅁㅜㄹ -1145
▁ㄴㅜㄴ -1146
ㄱㅚ -1147
▁b -1148
▁ㄱㅓㄴㅅㅓㄹ -1149
▁ㅈㅣㄱㅈㅓㅂ -1150
▁ㅎㅕㄱ -1151
▁ㅌㅔㄹㄹㅔ -1152
▁ㄱㅗㅇㄷㅗㅇ -1153
ㅊㅜㅇ -1154
▁31 -1155
▁50 -1156
▁TV -1157
ㄹㅗㅅ -1158
▁ㅎㅘㄹㅇㅑㄱ -1159
▁ㅇㅏㅂ -1160
▁ㅁㅏㅇ -1161
ㄱㅌㅓ -1162
▁ㅈㅗㄹㅇㅓㅂ -1163
▁ㅅㅡㅂ -1164
is -1165
▁29 -1166
▁ㅋㅏㄴ -1167
ㄱㅗㅇㅎㅘ -1168
re -1169
ㄹㅠㄹ -1170
it -1171
ㅎㅕㄱ -1172
ㄹㅠㄱ -1173
▁ㄱㅕㅇㅊㅏㄹ -1174
▁ㅎㅕㅇㅅㅓㅇ -1175
ㅊㅡㅇ -1176
▁ㅅㅏㅇㅎㅘㅇ -1177
▁ㅎㅜㄴ -1178
▁ㄱㅕㄹㅎㅗㄴ -1179
▁ㅂㅕㄴㄱㅕㅇ -1180
ㄱㅗㅅ -1181
▁ㄱㅜㄱㅎㅚ -1182
ㄷㅓㄴ -1183
ㅅㅔㄴ -1184
▁ㅈㅜㅇㅎㅏㄱㄱㅛ -1185
ㅇㅓㅁ -1186
▁ㅇㅗㄹ -1187
▁2020 -1188
▁190 -1189
▁ㅇㅣㄴㅁㅜㄹ -1190
ㅇㅔㄹ -1191
▁ㅇㅣㄴㅁㅣㄴㄱㅗㅇㅎㅘ -1192
ㄲㅜ -1193
▁ㅂㅕㄴㅎㅘ -1194
▁ㅅㅡㄹ -1195
ou -1196
▁ㄱㅜㅇ -1197
ㄹㄹㅓ -1198
▁ㅇㅘㄴㅈㅓㄴ -1199
▁ㄴㅏㅈ -1200
ㅎㅡ -1201
▁ㅁㅐㄱ -1202
▁ㅌㅏㅂ -1203
ㅇㅕㄱㅅㅣ -1204
ㅋㅛ -1205
ㄹㅐㄴ -1206
▁ㅈㅜㅇㅎㅘ -1207
▁ㅎㅏㄱㅅㅐㅇ -1208
ㄱㅌㅡ -1209
▁ㅈㅓㄴㄱㅜㄱ -1210
▁ㅁㅗㄹ -1211
ㄱㅜㄹ -1212
▁ㄱㅕㅁ -1213
▁ㅅㅣㄹㅈㅔ -1214
▁ㅇㅕㄱㅅㅣ -1215
▁ㅅㅣㄹㅅㅣ -1216
▁ㄱㅕㄴ -1217
ㄱㅏㄹ -1218
ㅌㅏㅇ -1219
ㅌㅣㅇ -1220
▁ㅇㅗㄱ -1221
▁ㅇㅝㄴㄹㅐ -1222
▁ㅅㅣㅇㄱㅡㄹ -1223
▁ㅁㅏㄴㄴㅏ -1224
▁ㅇㅣㄹㅇㅡ -1225
▁ㅎㅗㄱ -1226
▁2002 -1227
▁ㅂㅐㄴㄷㅡ -1228
▁ㄴㅗㅍㅇㅣ -1229
▁ㅍㅏㄴㅁㅐ -1230
ㅇㅜㄴㄷㅡ -1231
ㄱㅜㅇ -1232
▁ㅈㅓㄴㅌㅗㅇ -1233
ㅎㅘㄱ -1234
▁ㅂㅣㄹ -1235
▁ㄸㅏㄹ -1236
▁ㅌㅚ -1237
▁ㅌㅏㅁ -1238
▁ㅅㅡㅇㄱㅏㅇ -1239
▁ㅎㅘㅇㅈㅔ -1240
▁2003 -1241
ㅂㅣㄴ -1242
▁ㅇㅜㄴㅎㅐㅇ -1243
▁40 -1244
▁ㄹㅗㄴ -1245
▁ㅅㅔㄴㅌㅓ -1246
▁ㅇㅓㅄㅇㅣ -1247
▁ㅁㅕㅇㅊㅣㅇ -1248
▁ㅇㅓㅁ -1249
▁ㅈㅗㅇㄱㅛ -1250
▁ㅁㅡ -1251
ㄸㅓㄴ -1252
▁ㅈㅓㄴㄱㅣ -1253
ㅊㅗㄴ -1254
▁ㅁㅠ -1255
le -1256
▁ㅋㅓㅂ -1257
▁ㅎㅘㄴㄱㅕㅇ -1258
ㅈㅚ -1259
mp -1260
▁ㅈㅓㄴㄹㅏ -1261
▁ㅈㅓㄴㅈㅏ -1262
▁ㅌㅡㄱㅈㅣㅇ -1263
ㅇㅗㄱ -1264
ㅌㅡㄱ -1265
▁ㅍㅜㄹ -1266
ㅍㅠ -1267
▁ㅂㅜㄴㅇㅑ -1268
▁ㄱㅓㄹㅊㅣ -1269
▁= -1270
ㅇㅜㄱ -1271
▁ㅎㅟ -1272
ㅅㅐ -1273
▁ㄱㅔㅆ -1274
▁ㄲㅜ -1275
▁ㄴㅏㅁㅈㅏ -1276
ㄲㅡㄹ -1277
▁ㅇㅕㅁ -1278
▁ㄷㅗㅇㅁㅜㄹ -1279
ㄹㅐㄱ -1280
▁ㅇㅕㄴㅂㅏㅇ -1281
▁ㄱㅗㅇㅇㅕㄴ -1282
ㅈㅟ -1283
ㅓㄹㄹㅣ -1284
▁ㅅㅡㅇㄱㅏㅇㅈㅏㅇ -1285
ㅇㅘㄴ -1286
▁ㅉㅏ -1287
▁ㄴㅏㅁㅉㅗㄱ -1288
▁ㅂㅜㄱㅉㅗㄱ -1289
▁ㅅㅓㄴㅈㅓㅇ -1290
ㅅㅜㄱ -1291
ㄹㅕㄹ -1292
▁ㅅㅜㄱ -1293
▁ㄴㅓㄼ -1294
▁ㅊㅜㄹㅅㅣ -1295
ㄷㅗㅇㅊㅏ -1296
▁ㅇㅕㄱㅇㅣㅁ -1297
▁ㅈㅏㄱㅇㅛㅇ -1298
ㄴㅠ -1299
ㅌㅏㄱ -1300
▁ㅈㅏㄱㅇㅓㅂ -1301
▁ㅌㅗㅇㅎㅏㅂ -1302
▁ㅅㅓㄹㅁㅕㅇ -1303
▁ㅋㅡㄹㄹㅓㅂ -1304
▁ㅂㅏㅇㅎㅑㅇ -1305
ㅎㅛ -1306
▁ㅇㅕㄹㅊㅏ -1307
ㅈㅏㅂ -1308
▁ㅋㅓㅁㅍㅠ -1309
ㅅㅡㅅ -1310
▁ㅁㅜㄴㅎㅏㄱ -1311
▁ㅈㅏㄱㄱㅏ -1312
▁ㅎㅐㅇㄷㅗㅇ -1313
▁ㅇㅗㄻ -1314
▁ㅈㅡㅇㄱㅏ -1315
▁ㅎㅕㅇㅅㅣㄱ -1316
ㅂㅔㄹ -1317
ㅎㅜㄴ -1318
▁ㅊㅏㄱ -1319
▁ㅅㅣㅂ -1320
▁ㄱㅜㄱㄴㅐ -1321
ㅇㅔㄴ -1322
ㄷㅗㄱㄱㅛ -1323
▁ㄴㅡㅇㄹㅕㄱ -1324
▁ㅎㅘㄱㅇㅣㄴ -1325
▁ㄹㅓㄴ -1326
▁ㅈㅏㄱㄱㅗㄱ -1327
▁FI -1328
ㅎㅕㅂ -1329
BC -1330
▁ㅎㅐㅇㅇㅟ -1331
▁ㅁㅗㅇ -1332
▁ㅎㅕㅂㅎㅚ -1333
▁ㄱㅜㄴㄷㅐ -1334
ㄷㅔㄴ -1335
ㄷㅡㄹㅇㅣ -1336
▁ㅎㅕㄱㅁㅕㅇ -1337
▁ㅇㅏㄹㄹㅔ -1338
▁ㅈㅡ -1339
▁ㅇㅘㅇㄱㅜㄱ -1340
▁ㄴㅏㄱ -1341
ㄴㅔㅅ -1342
ㅁㅗㄴ -1343
▁ㅇㅗㄻㄱㅣ -1344
ㄷㅡㅁ -1345
▁ㄷㅡㄱ -1346
ㅁㅂㅓ -1347
▁ㄴㅏㅁㅂㅜ -1348
▁ㅎㅗㄱㅇㅡㄴ -1349
ㅂㅕㄱ -1350
▁ㅅㅐㅇㄱㅣ -1351
▁p -1352
▁ㅇㅠㄱㄱㅜㄴ -1353
▁ㄱㅏㅇㅎㅏ -1354
▁ㄱㅏㅈㅊㅜ -1355
ㅅㅣㅇ -1356
▁ㅎㅡㅇ -1357
▁2001 -1358
▁ㄷㅗㅇㅉㅗㄱ -1359
▁X -1360
▁ㄷㅏㅁㄷㅏㅇ -1361
▁1990 -1362
▁ㅎㅡㄴ -1363
▁ㅂㅣㄴ -1364
▁ㄷㅗㅇㅇㅣㄹ -1365
▁ㅊㅜㅇㅊㅓㅇ -1366
ㅌㅠ -1367
▁ㄱㅏㅂ -1368
ㅋㅔㅅ -1369
▁ㅈㅏㅇㄱㅘㄴ -1370
▁ㅎㅚㄱ -1371
▁ㄱㅓㄴㅊㅜㄱ -1372
▁ㅁㅜㄹㄹㅣ -1373
ㅌㅓㄹ -1374
ㅇㅣㄹㄹㅣ -1375
▁ㄱㅗㅇㅅㅏ -1376
▁189 -1377
ㅊㅐ -1378
▁ㅈㅟ -1379
▁ㄱㅗㅇㅅㅏㄴ -1380
▁ㅊㅐㅁㅍㅣ -1381
ㅁㅐㄱ -1382
▁ㅇㅣㄴㄱㅣ -1383
ㅋㅏㄴ -1384
▁d -1385
▁ㄴㅓㅎ -1386
▁ㅈㅓㅇㄷㅏㅇ -1387
▁ㅍㅜㅁ -1388
▁ㅂㅏㅇㅇㅕㅇ -1389
ㅂㅏㄷ -1390
ㄷㅜㅇ -1391
▁ㅇㅐㄱ -1392
ㅋㅓㄹ -1393
ㅈㅘ -1394
ㅌㅔㄴ -1395
▁ㅉㅗㄱ -1396
▁ㄱㅚ -1397
▁ㅅㅓㅇㅈㅏㅇ -1398
▁ㅂㅗㄹ -1399
▁ㅈㅓㄱㅇㅛㅇ -1400
▁ㅎㅡㄱ -1401
▁ㄱㅜㄱㄹㅣㅂ -1402
▁ㅁㅐㄴ -1403
▁ㅊㅣㅇ -1404
▁ㄱㅗㅇㅎㅏㅇ -1405
▁ㄹㅗㄱ -1406
▁ㅈㅣㅇ -1407
▁ᆫㄷㅔ -1408
▁FIFA -1409
ㅇㅐㄱ -1410
▁ㅈㅏㄴ -1411
et -1412
▁ㅅㅏㅇㄷㅏㅇ -1413
el -1414
▁ㄷㅓㄱ -1415
▁ㅆㅏㅇ -1416
▁ㄸㅏㅇ -1417
▁ㅇㅜㅁ -1418
▁ㅈㅗㅇㄹㅠ -1419
▁ㄷㅗㄴ -1420
▁ㅋㅓㄴ -1421
▁ㅍㅣㄹㄹㅣ -1422
ㅁㅡ -1423
ㄲㅏㅂ -1424
ㄹㅣㅇ -1425
▁ㄱㅗㄷ -1426
▁ㅂㅏㄴㅇㅡㅇ -1427
▁ㅈㅏㄱㅈㅓㄴ -1428
▁ㅌㅡㄱㅈㅓㅇ -1429
ㄴㅣㅇ -1430
ㅡㄹㄹㅣㄴ -1431
▁ㅇㅟㄴ -1432
ion -1433
ㅇㅝㄴㅈㅓㄴ -1434
ㅊㅟ -1435
▁ㅂㅜㄱㅂㅜ -1436
ㄴㅑ -1437
▁ㅅㅓㄴㅊㅜㄹ -1438
▁ㅇㅕㄴㄱㅣ -1439
▁ㅅㅓㄴㅇㅓㄴ -1440
▁ㅇㅕㄴㅈㅜ -1441
▁ㅁㅔㅁㅂㅓ -1442
▁ㅅㅗㄱㄷㅗ -1443
▁ㅅㅟㅂ -1444
▁ㅇㅕㄴㅅㅗㄱ -1445
ㅈㅡㅁ -1446
▁ㅇㅕㅇㅇㅓ -1447
▁ㅅㅣㄹㅍㅐ -1448
ㄷㅣㅇ -1449
▁ㅇㅖㅅ -1450
▁ㅇㅣㄴㅊㅓㄴ -1451
▁ㅅㅓㄴㅌㅐㄱ -1452
ㅇㄱㅡㄹㄹㅐㄴㄷㅡ -1453
▁ㅎㅓㄴㅂㅓㅂ -1454
ing -1455
▁ㄱㅕㄹㅅㅡㅇ -1456
▁ㄹㅣㅇ -1457
▁ㅇㅕㄴㄷㅐ -1458
▁ㅎㅏㅁㅅㅜ -1459
▁ㅅㅓㄹㄱㅖ -1460
21 -1461
ol -1462
▁ㅂㅔㄹ -1463
ㅍㅣㄴ -1464
▁1999 -1465
▁ㄷㅏㄴㄱㅖ -1466
▁ㅇㅙ -1467
ㅌㅔㄹ -1468
▁ㄱㅗㅇㄹㅣㅂ -1469
▁ㅁㅜㄹㅈㅣㄹ -1470
▁ㄷㅏㄹㄹㅓ -1471
▁cm -1472
▁1998 -1473
▁o -1474
▁ㅊㅜㄹㅍㅏㄴ -1475
▁ㅍㅕㅇㄱㅠㄴ -1476
ㄹㅡㄹ -1477
▁ㅊㅓㄱ -1478
▁ㄱㅘㄴㅎㅏㄹ -1479
▁ㄱㅗㅇㅇㅝㄴ -1480
▁ㅁㅕㅇㄹㅕㅇ -1481
ㄹㅡㅇ -1482
▁ㅂㅏㅁ -1483
ㅇㅓㄹ -1484
▁Y -1485
▁ㅈㅓㅇㅅㅣㄴ -1486
ㄱㅣㄹ -1487
ㄹㅛㅇ -1488
▁ㅂㅜㄴㅅㅓㄱ -1489
▁ㅇㅣㅇㄱㅡㄹㄹㅐㄴㄷㅡ -1490
ㄷㅓㄹ -1491
▁ㅁㅓㄴ -1492
▁ㅊㅣㄴㄱㅜ -1493
▁ㄴㅡㄴㅈㅣ -1494
▁ㅇㅣㅂㄷㅏㄴ -1495
▁ㅅㅜㄹ -1496
ㄷㅏㅂ -1497
ㅌㅗㄴ -1498
ㅅㅕ -1499
▁1980 -1500
▁ㅅㅣㅇ -1501
ㄹㅚ -1502
ㅍㅖ -1503
▁ㄱㅏㅇㅎㅘ -1504
▁ㅆㅣㄱ -1505
▁ㅎㅚㄱㄷㅡㄱ -1506
▁mm -1507
▁ㅁㅜㄴㅈㅏ -1508
ㅊㅓㄱ -1509
▁ㅂㅜㄴㄹㅣ -1510
▁60 -1511
▁35 -1512
▁ㄲㅗㅊ -1513
ㅌㅡㄴ -1514
ㄱㅘㅇㅇㅕㄱㅅㅣ -1515
▁n -1516
▁ㅂㅜㄱㅎㅏㄴ -1517
▁ㄹㅗㅂ -1518
▁ㄱㅗㄴ -1519
▁ㅎㅘㄱㅈㅏㅇ -1520
ㅅㅙ -1521
▁ㅂㅓㅂㅇㅝㄴ -1522
ㅉㅐ -1523
▁ㅈㅣㅂㄷㅏㄴ -1524
▁ㄴㅏㅁㄱㅣ -1525
▁ᆫㅈㅣ -1526
▁ㅍㅐㄴ -1527
▁ㅇㅝㄴㅈㅏ -1528
ㅍㅗㄴ -1529
ㄹㅐㅅ -1530
▁ㅇㅣㄹㅈㅗㅇ -1531
▁ㅇㅓㄴㄱㅡㅂ -1532
▁ㅎㅕㄴㅅㅏㅇ -1533
▁ㅇㅞㅂ -1534
▁ㅂㅔㄴ -1535
ㅅㅑ -1536
▁ㅈㅓㅇㄱㅠ -1537
ㄲㅟ -1538
▁ㅁㅐㅈ -1539
▁ㄱㅣㄹㅇㅣ -1540
ㅅㅓㅅ -1541
ㅇㅡㅂ -1542
▁ㅅㅣㄹㅎㅓㅁ -1543
▁ㅇㅔㄴㅈㅣㄴ -1544
▁ㄱㅘㄴㅅㅣㅁ -1545
▁ㅅㅓㄴㅂㅏㄹ -1546
▁ㅍㅕㄴㅅㅓㅇ -1547
om -1548
▁ㅌㅗㅇㅇㅣㄹ -1549
▁ㅁㅗㄱㅍㅛ -1550
ㅇㅠㄴ -1551
▁ㅌㅗㅇㅅㅣㄴ -1552
▁ㅂㅗㄴㅅㅓㄴ -1553
▁ㅈㅏㅇㄱㅜㄴ -1554
▁ㅂㅜㄹㄱㅛ -1555
▁ㅇㅏㅇ -1556
ㅆㅏ -1557
ㄷㅓㄹㄹㅏㄴㄷㅡ -1558
ㅎㅖ -1559
▁ㅇㅣㅅ -1560
ㄷㅚ -1561
▁1997 -1562
▁ㄷㅔㄴ -1563
▁ㅈㅏㅇㅊㅣ -1564
ㅈㅔㄱㅌㅡ -1565
▁ㅁㅜㄴㅅㅓ -1566
▁ㄱㅕㄹㅎㅏㅂ -1567
▁ㄱㅘㅇㅈㅜ -1568
ㅇㅣㄹㄹㅐㄴㄷㅡ -1569
st -1570
▁ㅎㅏㄱㅈㅏ -1571
▁ㅎㅏㄹ -1572
ㄲㅗ -1573
▁ㅎㅐㅇㅅㅏ -1574
▁ㅈㅓㅁㄹㅕㅇ -1575
ㅁㅛ -1576
ㄱㅏㅂ -1577
ㅌㅡㄱㅂㅕㄹ -1578
▁ㅅㅖ -1579
ㄹㄹㅣㄴ -1580
▁ㅇㅔㄹ -1581
▁ㅉㅣ -1582
ㅂㅔㄴ -1583
▁ㅎㅕㄹ -1584
▁1995 -1585
ㄱㅅㅣ -1586
▁1996 -1587
▁ㅁㅗㄴ -1588
▁ㅇㅏㄴㅈㅓㅇ -1589
ㅕㅁ -1590
▁The -1591
▁ㄷㅗㅇㅁㅐㅇ -1592
▁ㅈㅓㅇㄹㅣ -1593
▁ㅇㅠㄹ -1594
▁ㅎㅑㅇㅎㅏ -1595
▁amp -1596
▁ㅋㅐㅁ -1597
▁ㅇㅣㅀ -1598
▁ㅇㅛㅇㅇㅓ -1599
▁ㅇㅓㄴㄹㅗㄴ -1600
▁32 -1601
▁ㅅㅣㄴㅁㅜㄴ -1602
ㅌㅗㄹㄹㅣ -1603
▁ㅈㅓㅇㅎㅏ -1604
ㄹㅓㅎㄱㅔ -1605
▁ㄱㅏㅄ -1606
▁ㄱㅣㅍ -1607
▁ㅊㅗㄱ -1608
▁70 -1609
▁ㅇㅣㄹㅈㅔ -1610
▁ㅂㅣㅊ -1611
▁ㅇㅡㄴㅌㅚ -1612
▁ㅊㅐㄱㅇㅣㅁ -1613
▁ㅁㅕㄴㅈㅓㄱ -1614
▁ㄲㅡㅌㄴㅏ -1615
▁ㅂㅏㅇㅁㅜㄴ -1616
ㄲㅡ -1617
ㅎㅓ -1618
▁ㅌㅗㅇㄱㅘ -1619
▁ㅍㅣㄴ -1620
▁ㅍㅗㄹㄹㅏㄴㄷㅡ -1621
▁ㅈㅓㅇㅎㅘㄱ -1622
▁ㄴㅡㄹ -1623
▁ㄴㅓㄹㄹㅣ -1624
▁ㅇㅘㅇㅈㅗ -1625
▁ㅈㅗㅇㅎㅏㅂ -1626
ㄴㅡㄹㄴㅏㄹ -1627
▁the -1628
▁ㅈㅜㄴㅂㅣ -1629
▁ㅁㅏㄴㅎㅘ -1630
▁ㄹㅓㄴㄷㅓㄴ -1631
am -1632
ㅇㅣㄴㅌㅡ -1633
▁ㅈㅓㅂㅎㅏ -1634
▁ㅂㅕㅇㅇㅝㄴ -1635
▁500 -1636
▁ㅁㅕㄹ -1637
▁ㅈㅓㅇㄱㅝㄴ -1638
▁ㄲㅣ -1639
▁ㅅㅓㅇㅈㅓㄱ -1640
ㅋㅠ -1641
▁ㅂㅓㄴㅎㅗ -1642
ㄴㅟ -1643
▁ㅍㅕㅇㅎㅘ -1644
▁ㄷㅡㅅ -1645
▁ㅅㅣㄴㄹㅏ -1646
▁ᄇ -1647
▁ㅇㅝㄴㅇㅣㄴ -1648
ㅇㅓㅆ -1649
▁ㄱㅕㅇㅎㅓㅁ -1650
ㄸㅓ -1651
▁80 -1652
▁ㅇㅗㄹㄹㅏ -1653
▁+ -1654
ㅅㅣㅂ -1655
▁188 -1656
▁ㅊㅗㅇㄹㅣ -1657
▁ㅇㅕㄴㅁㅐㅇ -1658
il -1659
▁ㅊㅏㄴ -1660
▁ㅂㅜㄹㄱㅜ -1661
▁ㅊㅡ -1662
▁UE -1663
ㅊㅣㄴ -1664
▁ㅇㅔㄹㄹㅣ -1665
▁ㅇㅕㅇㅇㅕㄱ -1666
▁ㅎㅜㄴㄹㅕㄴ -1667
▁1994 -1668
▁ㄱㅞ -1669
▁ㅌㅗㅇㅊㅣ -1670
ㄹㅣㄱ -1671
▁ㄲㅐ -1672
▁ㄷㅗㅇㅂㅜ -1673
▁ㅎㅗㄹ -1674
▁UEFA -1675
ㄷㅡㅁㅎㅐ -1676
▁ㄱㅕㅇㅈㅐㅇ -1677
▁ㄱㅏㅇㅇㅝㄴ -1678
▁ㄲㅡㄹ -1679
▁ㄱㅕㅇㅇㅕㅇ -1680
▁ㄱㅕㅇㄱㅖ -1681
ac -1682
▁ㅁㅣㄷ -1683
▁ㅂㅏㅇㅇㅓ -1684
▁ㅅㅐㅇㅁㅜㄹ -1685
ㅋㅗㅇ -1686
▁ㅍㅗㄴ -1687
▁ㅅㅏㅁㅅㅓㅇ -1688
▁ㅂㅏㄱㅁㅜㄹ -1689
▁1970 -1690
▁ㅎㅐㅇㅅㅓㅇ -1691
▁ㄷㅡㅇㄹㅗㄱ -1692
▁ㅂㅏㄹㅅㅏ -1693
▁ㅂㅓㅂㄹㅠㄹ -1694
▁KBS -1695
ㅎㅔㄴ -1696
▁ㅇㅣㄱ -1697
▁ㄴㅏㅁㅅㅓㅇ -1698
ㅇㅣㅁㅅㅡ -1699
▁ㅈㅓㅇㅅㅏㅇ -1700
▁ㅅㅣㄱㅁㅣㄴ -1701
ㅉㅣ -1702
ㅁㅣㅇ -1703
▁ㅂㅏㄹㄷㅏㄹ -1704
ro -1705
▁ㅋㅡㄹㄹㅏ -1706
▁ㅇㅘㄴㅈㅓㄴㅎㅣ -1707
▁1992 -1708
▁ㅈㅓㅇㅅㅣㄱ -1709
ㅌㅗㄹㄹㅣㄱ -1710
▁ㅈㅜㄱㅇㅣ -1711
▁ㄱㅕㄹㅅㅓㅇ -1712
▁ㄱㅡㅁㅈㅣ -1713
▁ㄴㅚ -1714
ed -1715
▁ᄇㄴㅣ -1716
ㄴㅣㅁ -1717
▁ㅇㅣㅂㅈㅏㅇ -1718
▁45 -1719
▁ㅇㅓㅂㅁㅜ -1720
▁ㅇㅟㄹㄹㅣ -1721
▁ㅈㅣㅂㅎㅏㅂ -1722
▁ㄷㅗㅂ -1723
▁ㅂㅜㅌㅇㅣ -1724
ㄸㅡ -1725
ㅋㅡㅁ -1726
▁ㅂㅏㄱㅁㅜㄹㄱㅘㄴ -1727
▁of -1728
ㅅㅏㅁ -1729
▁ㅂㅕㄱ -1730
▁ㅈㅓㅂㄱㅡㄴ -1731
▁ㅂㅓㄹㅇㅣ -1732
ㅊㅏㄴㄱㅏ -1733
▁ㅇㅡㄴㅎㅐㅇ -1734
▁ㅉㅏㄼ -1735
▁ㅇㅕㅇㅌㅗ -1736
▁36 -1737
▁ㅍㅕㄹ -1738
ㅅㅓㅂ -1739
▁ㄱㅜㄹ -1740
▁ㅇㅣㄴㅅㅣㄱ -1741
▁ㅂㅏㄱㅅㅏ -1742
▁ㅇㅣㅁㅅㅣ -1743
▁ㅇㅏㄹㄹㅔㄱ -1744
▁ㅇㅜㅁㅈㅣㄱ -1745
ㅁㅔㄴ -1746
ig -1747
▁ㄱㅗㅇㅈㅏㄱ -1748
ㄷㅠ -1749
ㅌㅏㅂ -1750
▁ㅈㅏㅇㅇㅐ -1751
▁ㅂㅏㄴㅁㅕㄴ -1752
ㅂㅗㄹ -1753
ㅁㅕㄹ -1754
▁ㅊㅓㄹㅎㅏㄱ -1755
ㅋㅣㅇ -1756
ㅇㅠㅇ -1757
▁ㅅㅏㅇㅎㅗ -1758
▁1991 -1759
▁ㅂㅗㄱㄱㅟ -1760
▁ㅈㅏㅇㅅㅗ -1761
▁ㅅㅣㄱㅁㅜㄹ -1762
▁ㅇㅕㄴㄱㅡㄱ -1763
▁ㅂㅏㄷㅇㅏ -1764
ㅇㅜㅇ -1765
ㅌㅡㄱㅂㅕㄹㅅㅣ -1766
▁1960 -1767
▁ㄱㅓㅁㅅㅏ -1768
▁ㄹㅣㄴ -1769
ㅇㅜㄹㅌㅡㄱㅂㅕㄹㅅㅣ -1770
▁ㅂㅜㄴㅍㅗ -1771
ㅁㅠ -1772
▁ㅅㅓㅇㄱㅕㄱ -1773
▁ㅍㅔㄴ -1774
▁1993 -1775
▁ㅊㅏㅈㅇㅏ -1776
▁ㄱㅣㄴ -1777
▁ㄱㅘㄴㅊㅡㄱ -1778
ㅁㅕㄴㅅㅓ -1779
▁ㄴㅗㄴㄹㅏㄴ -1780
od -1781
▁33 -1782
▁ㅍㅡㄹㄹㅏ -1783
ㅈㅏㄴ -1784
▁ㅂㅣㄱ -1785
▁ㄱㅕㅇㅅㅏㅇㄴㅏㅁㄷㅗ -1786
ㅍㅗㄱ -1787
▁ㄸㅣ -1788
▁ㅅㅡㅂㄴㅣ -1789
▁ㅂㅏㄹㅎㅐㅇ -1790
▁ㅎㅘㄹㅇㅛㅇ -1791
ㅎㅗㄱ -1792
▁ㄱㅡㄴㅊㅓ -1793
▁ㅇㅟㄴㄷㅗ -1794
▁ㄷㅏㄴㅅㅜㄴ -1795
ㅎㅗㅇ -1796
ㄱㅜㄱㅇㅣㄴ -1797
▁ㅇㅏㄴㅈㅓㄴ -1798
▁ㄱㅕㅇㅅㅏㅇㅂㅜㄱㄷㅗ -1799
▁ㅈㅜㅇㄱㅏㄴ -1800
▁ㄷㅡㄱㅈㅓㅁ -1801
as -1802
▁ㄹㅑㅇ -1803
▁ㅂㅜㅇ -1804
▁ㄷㅏㄴㅇㅓ -1805
▁ㅎㅕㅇㅈㅔ -1806
ve -1807
▁186 -1808
ㅅㅗㄱㄷㅗ -1809
▁ㅇㅣㄴㅅㅏ -1810
▁ㅎㅡㅂ -1811
▁ㅊㅗㅇㅅㅓㄴ -1812
▁ㄱㅏㅇㄹㅕㄱ -1813
ㄹㅣㄱㅌㅓ -1814
▁ㅈㅜㅇㄷㅏㄴ -1815
ㅋㅗㄴ -1816
ㄷㅓㅁ -1817
▁ㅅㅐㅇㅅㅓㅇ -1818
▁ㅋㅟ -1819
▁ㄱㅘㄴㄱㅘㅇ -1820
▁ㅅㅜㄴㅇㅟ -1821
▁ㅈㅓㄴㅅㅣ -1822
▁ㄱㅡㄴㄱㅓ -1823
▁ㅎㅖ -1824
▁ㅇㅣㄹㅈㅓㅇ -1825
▁ㅂㅗㄴㅂㅜ -1826
▁ㅂㅓㄴㅇㅕㄱ -1827
▁ㅎㅕㅂㄹㅕㄱ -1828
ㅇㅝㄴㅈㅏㅇ -1829
ㄱㅕ -1830
▁", -1831
▁ㄱㅝㄴㄹㅕㄱ -1832
▁ㅂㅏㄴㄹㅏㄴ -1833
▁1988 -1834
▁ㅊㅗㄴ -1835
ㅈㅓㄴㅈㅏ -1836
▁ㅇㅕㄴㅈㅏㅇ -1837
▁ㅁㅏㅈㅊㅜ -1838
▁ㅇㅝㄴㅅㅗ -1839
▁ㅁㅔㄱㅅㅣ -1840
▁ㅁㅓㄴㅈㅓ -1841
▁ㄱㅗㅇㅈㅏㅇ -1842
ㅁㅏㄶ -1843
ㅘㄹ -1844
▁ㄷㅗㅇㅅㅐㅇ -1845
▁ㅇㅗㅇ -1846
▁ㅁㅏㄴㅋㅡㅁ -1847
▁187 -1848
▁ㄹㅔㄴ -1849
ㄱㅗㄴ -1850
▁ㅎㅏㄱㅇㅟ -1851
▁ㅈㅜㄱㅇㅡㅁ -1852
▁ㅇㅑㅇㅅㅣㄱ -1853
▁ㄱㅏㅁㅅㅗ -1854
ㅇㅓㅄ -1855
▁ㄱㅡㄱㅈㅏㅇ -1856
▁ㄱㅡㄴㅁㅜ -1857
▁ㅅㅏㅇㅈㅣㅇ -1858
▁ㅈㅗㅇㅁㅗㄱ -1859
▁ㅈㅚ -1860
ㅇㅓㄱ -1861
id -1862
▁ㄷㅏㄴㅇㅟ -1863
▁ㅅㅏㄻ -1864
▁2021 -1865
▁ㅇㅕㅇㅅㅏㅇ -1866
ㅇㅏㄹ -1867
▁ㅅㅏㅇㅇㅓㅂ -1868
▁ㄱㅠㄴ -1869
▁ㅊㅘㄹ -1870
ㅈㅔㄴ -1871
▁34 -1872
▁ㄷㅠ -1873
ㅇㅣㄴㄱㅗㅇ -1874
▁ㅅㅓㅇㄹㅣㅂ -1875
ec -1876
▁ㅎㅘㄱㄷㅐ -1877
▁ㅇㅕㅍ -1878
▁ㅂㅓㄹㅇㅓ -1879
▁ᆫㄱㅏ -1880
▁ㄱㅕㄲ -1881
▁38 -1882
▁ㅎㅕㅁ -1883
▁ㄷㅗㅇㄱㅖ -1884
▁ㄷㅏㄹㅅㅓㅇ -1885
▁ㅅㅡㅇㄱㅕㄱ -1886
ㅁㅗㅇ -1887
ㅇㅜㅅ -1888
▁ㅅㅜㅁ -1889
▁1989 -1890
▁ㅂㅗㄴㄱㅘㄴ -1891
ㅎㅕㄹ -1892
▁ㅌㅡㄱㅅㅜ -1893
▁ㅌㅗㄴ -1894
▁90 -1895
▁ㅇㅘㄴㅅㅓㅇ -1896
and -1897
▁ㅊㅘㄹㅇㅕㅇ -1898
▁ㅎㅗㅇㅋㅗㅇ -1899
▁ㅇㅏㄹㄹㅔㄱㅅㅏㄴ -1900
▁? -1901
us -1902
▁ㄱㅓㄹㄹㅣ -1903
▁ㄱㅜㄱㅇㅘㅇ -1904
▁ㅈㅓㄴㄹㅑㄱ -1905
▁48 -1906
ㅍㅕㅇㅇㅑㅇ -1907
▁ㅈㅣㅅ -1908
ㅈㅣㅂㅌㅡ -1909
▁e -1910
▁h -1911
ㅈㅕ -1912
▁ㄹㅠㄹ -1913
▁ㄷㅡㄷ -1914
ㅁㅕㅊ -1915
▁ㅁㅕㅊㅁㅕㅊ -1916
▁ㅃㅐ -1917
▁ㅅㅣㄱㅁㅣㄴㅈㅣ -1918
▁ㄴㅣㅁ -1919
ㄷㅗㅇㅈㅏ -1920
▁ㄷㅏㅇㅅㅓㄴ -1921
▁ㅈㅓㄴㄷㅏㄹ -1922
▁ㅊㅡㄱㅈㅓㅇ -1923
▁ㄴㅏㅎ -1924
▁ㅅㅓㄹㅈㅓㅇ -1925
▁ㄱㅝㄴㄹㅣ -1926
▁ㅁㅣㅌ -1927
▁ㅊㅜㄹㅅㅐㅇ -1928
▁ㅁㅐㅇ -1929
▁ㅅㅐㅇㅁㅕㅇ -1930
ㅍㅜㄹ -1931
▁ㅅㅏㅇㅎㅏ -1932
▁| -1933
▁ㅊㅣㄹ -1934
▁ㅈㅡㄹ -1935
ent -1936
▁MBC -1937
ad -1938
▁ㅈㅣㄱㅎㅜ -1939
ㅐㅇㅋㅡ -1940
▁ㅋㅗㄹ -1941
▁1950 -1942
▁ㅆㅏㅎ -1943
NA -1944
▁ㅌㅡㄱㅅㅓㅇ -1945
▁ㄱㅕㄹㅅㅡㅇㅈㅓㄴ -1946
▁300 -1947
▁ㅊㅜㄴ -1948
▁ㅈㅗㅇㄹㅛ -1949
▁ㅇㅡㄴㅎㅏ -1950
▁ㅈㅓㄴㅎㅘㄴ -1951
▁ㅅㅣㄴㄱㅕㅇ -1952
▁ㅅㅓㅇㅇㅜ -1953
▁ㅊㅓㅇㄴㅕㄴ -1954
▁', -1955
ㄹㅗㅇ -1956
▁ㅈㅓㄻ -1957
▁ㅇㅡㅁㅅㅣㄱ -1958
▁ㄴㅏㅂ -1959
▁ㄱㅘㄴㅊㅏㄹ -1960
▁ㅍㅕㄹㅊㅣ -1961
▁1945 -1962
ㅊㅜㄴ -1963
ㅎㅐㄱ -1964
▁ㅂㅡㄹㄹㅜ -1965
▁ㅂㅓㅁㅈㅚ -1966
▁ㄷㅏㄹㅎㅏ -1967
▁ㅍㅏㄴㄷㅏㄴ -1968
ㅅㅡㄹㄹㅣ -1969
ㅇㅕㅂ -1970
▁ㅈㅡㄱㅇㅟ -1971
ㅂㅠ -1972
▁ㅎㅓㅇ -1973
▁ㅈㅓㄴㅊㅏ -1974
▁ㅁㅕㅇㄷㅏㄴ -1975
50 -1976
▁ㅅㅣㅍ -1977
▁ㅇㅣㄴㄱㅡㄴ -1978
ㅁㅐㄴ -1979
▁ㄴㅏㅁㅂㅜㄱ -1980
▁ㄱㅕㅇㅈㅜ -1981
▁ㅂㅗㄴㄹㅐ -1982
▁ㄱㅗㅇㄱㅜㄴ -1983
▁ㄱㅗㅇㄱㅡㅂ -1984
▁x -1985
▁ㅊㅜㅇㄷㅗㄹ -1986
▁ㄴㅗㄱㅇㅡㅁ -1987
▁ㅇㅏㅆㅇㅓㅆ -1988
▁ㅇㅐㄴ -1989
▁ㄱㅗㅇㅂㅜ -1990
ㅂㅡㄴ -1991
▁ㅁㅕㅇㅇㅖ -1992
▁ㄱㅏㅁㅇㅕㅁ -1993
▁ㄱㅓㄴㄱㅏㅇ -1994
▁ㅁㅏㄴㄷㅡ -1995
ㅇㅣㄹㄹㅓ -1996
▁ㅇㅓㄹㅁㅏ -1997
▁ㄱㅗㅇㅈㅜ -1998
▁ㅎㅏㅂㄹㅠ -1999
▁ㅍㅗㄹㄹㅣ -2000
▁ㅇㅜㄹㅅㅏㄴ -2001
▁ㅈㅏㅇㄱㅣ -2002
ㅊㅓㄹㄷㅗ -2003
▁ㅊㅓㄴㅎㅘㅇ -2004
▁ㄷㅏㅂ -2005
▁ㅊㅓㅇㅅㅗ -2006
▁ㄱㅏㅇㅇㅝㄴㄷㅗ -2007
▁St -2008
▁ㅈㅏㄱㅅㅓㅇ -2009
▁ㅇㅣㄴㄷㅣ -2010
▁ㄴㅏㅁㅇㅏ -2011
▁ㅊㅓㄴㅁㅜㄴ -2012
▁ㅎㅔㄴ -2013
▁ㅇㅚㄴ -2014
▁ㅎㅔㄹ -2015
ㄹㅓㄱ -2016
ot -2017
▁ㄱㅓㄴㄴㅓ -2018
▁ㄱㅜㄱㄱㅕㅇ -2019
ㅂㅜㅇ -2020
ㅇㅗㅇ -2021
▁ㅅㅣㄴㅎㅗ -2022
▁ㅇㅣㅍ -2023
▁ㅈㅣㄹㄹㅑㅇ -2024
▁ㅇㅣㅂㅎㅏㄱ -2025
▁ㄱㅏㄱㅈㅗㅇ -2026
▁ㄱㅜㄴㅇㅣㄴ -2027
▁in -2028
▁ㅇㅣㄴㅅㅜ -2029
▁ㅋㅗㅇ -2030
▁ㅅㅚ -2031
ㄴㅣㄴ -2032
un -2033
▁ㄹㅏㅇ -2034
▁ㅈㅓㄴㅅㅏ -2035
▁ㅈㅜㄹㅇㅣ -2036
▁ㄴㅗㅇㅇㅓㅂ -2037
▁ㅇㅣㄺ -2038
▁ㅍㅡㄹㄹㅗ -2039
▁ㄱㅐㄱ -2040
▁ㅅㅣㄹㅎㅐㅇ -2041
ㅊㅏㅁ -2042
ㅅㅡㄹㄹㅏㅁ -2043
▁ㅂㅡㄹㄹㅐㄱ -2044
▁ㅇㅝㄴㅈㅓㅇ -2045
▁ㅂㅓㅅ -2046
ow -2047
▁ㅅㅣㅁㄹㅣ -2048
▁ㅁㅣㄹㄷㅗ -2049
▁ㅊㅜㅇㅊㅓㅇㄴㅏㅁㄷㅗ -2050
ㄷㅏㄱ -2051
ㅅㅟ -2052
▁ㅋㅐㄹㄹㅣ -2053
▁37 -2054
▁ㅅㅣㄴㅎㅏㄱ -2055
▁ㅌㅓㄹ -2056
ㅈㅓㄴㅎㅣ -2057
▁ㅈㅣㅂㅈㅜㅇ -2058
▁ㅎㅏㄱㅁㅜㄴ -2059
ㅌㅣㄱ -2060
▁ㅍㅕㄴㅈㅣㅂ -2061
▁ㅁㅏㄴㅇㅑㄱ -2062
ㅋㅐ -2063
ㄹㅏㅂ -2064
▁w -2065
▁ㅇㅑㄱㄱㅏㄴ -2066
▁ㄱㅜㄱㅂㅏㅇ -2067
▁ㅈㅓㅇㅊㅏㄱ -2068
▁ㅈㅡㅇㅁㅕㅇ -2069
▁ㅊㅡㄱㅁㅕㄴ -2070
▁1987 -2071
▁ㅁㅗㅇㄱㅗㄹ -2072
▁ㅁㅜㄹㄹㅗㄴ -2073
ㅎㅏㄱㅇㅝㄴ -2074
▁ㅇㅑㅇㅈㅏ -2075
ㅅㅛ -2076
▁ㅌㅗㅇㅈㅔ -2077
▁ㄱㅡㅁㅇㅠㅇ -2078
▁ㅂㅕㄴㅎㅗ -2079
▁ㄱㅘㅇㄱㅗ -2080
▁ㅎㅏㅂㅂㅕㅇ -2081
ur -2082
ㅋㅓㅅ -2083
▁ㄷㅡㅇㄱㅡㅂ -2084
▁ㅅㅜㅍ -2085
▁1984 -2086
ㄹㅓㄹ -2087
▁ㅎㅗㅁㄹㅓㄴ -2088
ㄱㅔㄴ -2089
▁ㅂㅕㅇㄹㅕㄱ -2090
▁ㅋㅣㅇ -2091
▁1986 -2092
▁41 -2093
ㅂㅜㅌ -2094
ㅋㅣㄴ -2095
▁ㄴㅐㅇ -2096
ㄷㅗㅇㅇㅏㄴ -2097
▁ㅎㅏㄱㄴㅕㄴ -2098
▁ㅎㅘㄴㅈㅏ -2099
▁ㅇㅑㅇㅅㅓㅇ -2100
ㅂㅣㄹ -2101
▁51 -2102
▁ㅇㅏㄴㄷㅡ -2103
▁ㄱㅏㅇㅈㅗ -2104
▁ㅅㅗㄹ -2105
▁ㅇㅔㄴㅌㅓ -2106
ㅁㅗㅅ -2107
▁ㄹㅕㅇ -2108
▁ㅈㅓㄴㄹㅕㄱ -2109
▁ㅅㅓㅇㄱㅘ -2110
ㅅㅕㄹ -2111
▁ㅂㅕㅇㅅㅏ -2112
▁ㅍㅣㄴㄹㅏㄴㄷㅡ -2113
▁ㅌㅟ -2114
▁ㄱㅗㅇㄱㅗㅇ -2115
▁ㅂㅜㅇㄱㅚ -2116
▁ㅁㅣㄴㄱㅏㄴ -2117
▁ㅇㅓㅂㅊㅔ -2118
▁ㅈㅓㄴㅇㅕㄱ -2119
ㄴㅣㄱ -2120
ㅍㅣㄱ -2121
▁ㄷㅟㅅ -2122
ㅍㅔㄴ -2123
▁ㅂㅗㅁ -2124
▁ㅎㅓㅇㄱㅏ -2125
▁ㅎㅕㅁㅇㅢ -2126
▁ㄷㅗㅇㅇㅏ -2127
ch -2128
ㄴㅑㅇ -2129
▁ㄱㅜㄴㅈㅜ -2130
ㅊㅗㄱ -2131
ㅕㅅㅓ -2132
▁ㄱㅕㅇㄹㅕㄱ -2133
▁ㅎㅐㅇㅎㅏ -2134
▁ㅈㅏㅂㅈㅣ -2135
▁ㅇㅗㄴㄷㅗ -2136
ㅅㅓㅁ -2137
▁ㅊㅓㅁ -2138
▁ㄸㅜ -2139
ㄴㅚ -2140
▁39 -2141
▁ㅅㅓㅇㅇㅣㄴ -2142
▁ㅅㅡㅇㅇㅣㄴ -2143
▁ㅋㅓㄹ -2144
▁1985 -2145
▁ㅇㅣㅁㅁㅜ -2146
▁64 -2147
▁ㅋㅡㄹㄹㅐ -2148
▁ㅈㅓㄴㅂㅏㄴ -2149
▁ㅊㅜㅇㅂㅜㄴ -2150
▁400 -2151
▁ㄱㅡㄴㄷㅐ -2152
▁ㄱㅏㅇㅇㅢ -2153
▁ㅂㅓㅁㅇㅟ -2154
▁ㄱㅏㅇㅈㅔ -2155
ㅅㅔㄹ -2156
▁br -2157
▁ㅅㅓㄴㅅㅐㅇ -2158
▁II -2159
ㅍㅣㅇ -2160
▁ㅎㅏㅇㅅㅏㅇ -2161
ㅎㅕ -2162
ㄷㅎㅣ -2163
▁ㅈㅓㄱㄱㅡㄱ -2164
ut -2165
▁i -2166
▁ㅈㅗㅇㅇㅣ -2167
ㅂㅎㅣ -2168
▁ㄲㅜㅁ -2169
ㅇㅜㄴㅌㅣ -2170
▁ㅂㅏㄱㅈㅟ -2171
▁ㅈㅓㄴㅅㅓㄴ -2172
▁ㅇㅣㄹㅇㅝㄴ -2173
ㅈㅣㅅ -2174
ay -2175
▁ㅅㅓㅂ -2176
▁ㅊㅜㄹㅂㅏㄹ -2177
▁ㅂㅜㄺ -2178
▁ㄱㅏㅇㅈㅓㅁ -2179
um -2180
▁ㅁㅏㄴㅈㅗㄱ -2181
ㅉㅏ -2182
ㄹㅕㅇㄱㅘㄴ -2183
▁ㄴㅏㅁㅍㅕㄴ -2184
▁ㅈㅓㄴㄱㅐ -2185
▁ㄷㅗㅇㄹㅛ -2186
▁ㅎㅕㄴㅅㅣㄹ -2187
▁ㅈㅏㅇㅂㅣ -2188
▁ㅎㅏㅇㅅㅓㅇ -2189
▁ㅇㅝㄴㅊㅣㄱ -2190
▁ㄱㅗㅇㅅㅏㄴㄷㅏㅇ -2191
▁ㄴㅗㄴㅁㅜㄴ -2192
ㅇㅓㅅ -2193
▁ㄱㅗㅇㅇㅓㅂ -2194
▁ㄱㅏㄴㅈㅜ -2195
ㅈㅓㅇㅂㅜ -2196
▁ㅁㅏㅅ -2197
▁ㅈㅗㅇㅈㅗㅇ -2198
▁ㅇㅏㅍㄷㅜ -2199
▁ㅇㅓㄹㄱㅜㄹ -2200
▁ㅌㅏㅂㅈㅐ -2201
▁ㅈㅐㄱ -2202
▁43 -2203
ir -2204
▁ㅍㅗㄱㅂㅏㄹ -2205
▁ㅂㅜㄹㄱㅏ -2206
▁ㅎㅘㄱㅂㅗ -2207
ㅇㅝㄴㄱㅜㄴ -2208
▁ㅋㅏㄹㄹㅣ -2209
▁ㄱㅗㅇㅁㅜ -2210
▁ㅂㅜㄴㅈㅏ -2211
▁ㅈㅡㅇㄱㅓ -2212
ㅂㅐㄱㅈㅣㄹ -2213
▁ㄷㅜㄹㄹㅓ -2214
▁ㄲㅓ -2215
▁ㅌㅡㄹ -2216
▁ㄴㅏㅁㄷㅗㅇ -2217
ㅅㅏㅇㅈㅏ -2218
▁42 -2219
ㄴㅗㄴ -2220
▁ㅃㅜ -2221
ㄱㅓㅂ -2222
ㅏㅅㅓ -2223
▁ㅈㅓㅁㅊㅏ -2224
▁ㅍㅕㅇㅇㅑㅇ -2225
▁ㄷㅡㄴ -2226
▁ㅇㅛㄱ -2227
ver -2228
▁ㅈㅣㄴㅎㅘ -2229
▁ㅅㅣㄴㅎㅘ -2230
▁ㅇㅝㄴㅈㅜ -2231
▁ㄱㅜㄴㄷㅏㄴ -2232
▁ㅋㅏㅁ -2233
▁ㅊㅏㄹ -2234
▁ㄴㅏㅇ -2235
▁1982 -2236
▁ㅎㅏㅂㅇㅢ -2237
▁ㅅㅣㄴㅅㅓㄹ -2238
▁ㄱㅘㅇㅇㅕㄱㅅㅣ -2239
im -2240
ㅅㅡㅁ -2241
▁ㅈㅣㅁ -2242
▁55 -2243
▁ㄲㅡㄶ -2244
▁ㅇㅏㅍㅅㅓ -2245
ㅂㅣㅇ -2246
ㄴㅠㅁ -2247
▁ㄷㅔㄴㅁㅏ -2248
ㅍㅡㄴ -2249
▁ㅎㅑㅇㅅㅏㅇ -2250
▁ㅇㅠㅇ -2251
▁ㅇㅜㅁㅈㅣㄱㅇㅣ -2252
ㄷㅜㄱ -2253
▁ㅈㅏㅇㅅㅣㄱ -2254
▁ㅈㅏㅇㅁㅕㄴ -2255
▁ㅍㅕㄴㅇㅣㅂ -2256
ㅂㅅㅡ -2257
▁1983 -2258
▁ㅍㅗㅁ -2259
▁ㅊㅓㅇㄴㅏ -2260
ㄹㅡㅁㄷㅏㅂ -2261
ㄹㅗㄹ -2262
▁ㅅㅣㅁㅎㅏ -2263
ㅌㅡㄹㄹㅐㄴㄷㅡ -2264
FC -2265
▁ㄱㅕㅇㅎㅑㅇ -2266
▁ㅇㅗㄴㄹㅏ -2267
▁ㅆㅗ -2268
▁ㄷㅏㄴㅂㅐㄱㅈㅣㄹ -2269
▁ㅅㅜㅇ -2270
▁ㅎㅏㅂㅊㅣ -2271
ㅋㅗㄹ -2272
▁ㅁㅏㄴㅈㅜ -2273
ㅍㅗㄹㄹㅣ -2274
▁ㅊㅏㅇㅅㅓㄹ -2275
▁44 -2276
ㄸㅓㅎ -2277
▁ㅎㅘㄱㅅㅣㄹ -2278
▁ㅂㅓㅂㅇㅣㄴ -2279
▁ㅊㅣㅁㄱㅗㅇ -2280
▁ㅂㅕㄴㅎㅏ -2281
ㄱㅓㅁ -2282
▁ㄱㅏㅇㅈㅓㅁㄱㅣ -2283
ㅁㅜㄴㅎㅘ -2284
▁ㄴㅑ -2285
▁ㅈㅗㅁ -2286
▁ㅋㅔㄴ -2287
▁LG -2288
▁ㄷㅏㄴㅈㅣ -2289
▁47 -2290
▁ㅃㅗ -2291
▁ㅅㅏㄹㅎㅐ -2292
▁ㅈㅓㄴㅅㅓㄹ -2293
ㅇㅜㄴㄷㅗㅇ -2294
▁ㅋㅗㄹㄹㅗ -2295
▁ㄷㅗㄱㅈㅏ -2296
▁ㅅㅏㅁㄱㅜㄱ -2297
ㅅㅜㅇ -2298
▁Z -2299
▁ㅇㅘㅇㅇㅟ -2300
▁ㅈㅏㅁㅅㅣ -2301
ㅋㅓㄴ -2302
▁ㄱㅗㅇㅇㅠ -2303
ㄴㅢ -2304
▁ㅈㅓㄴㅎㅘ -2305
▁ㅅㅓㄴㄱㅗ -2306
ㅎㅏㄱㅅㅐㅇ -2307
▁75 -2308
▁ㅎㅣㄹ -2309
▁ㅅㅓㅇㄷㅏㅇ -2310
▁ㅅㅏㄴㅁㅐㄱ -2311
▁ㅂㅏㄴㄷㅗ -2312
▁ㅂㅗㄱㅈㅏㅂ -2313
▁ㄴㅡㄹㅇㅓ -2314
▁ㅎㅘㄱㅈㅓㅇ -2315
▁ㅎㅏㅁㄷㅐ -2316
ㅅㅖ -2317
▁ㅅㅣㄴㅇㅏㅇ -2318
▁ㅇㅠㄱㅅㅏㅇ -2319
▁ㅇㅕㄴㄱㅗ -2320
ㄱㅏㄱㅎㅕㅇ -2321
ㅎㅠ -2322
▁ㅅㅗㄹㄹㅗ -2323
▁1972 -2324
▁ㅅㅜㄴㅅㅓ -2325
ㅅㅣㅇㅌㅓㄴ -2326
▁ㅇㅕㄱㄷㅐ -2327
ㄴㄷㅏ -2328
ㅅㅈㅏ -2329
ㄹㅏㅇㅋㅡ -2330
CA -2331
▁184 -2332
▁ㅍㅡㄹㄹㅐㅅ -2333
ㄱㅗㅂ -2334
▁180 -2335
▁ㅂㅣㄹㄹㅣ -2336
▁46 -2337
ㄷㅜㄴ -2338
ㄹㅣㄴㅇㅣ -2339
▁ㄱㅗㅇㅎㅏㄱ -2340
▁ㄴㅗㄹ -2341
▁ㅂㅜㄹㄱㅘ -2342
▁ㅈㅓㄴㅇㅛㅇ -2343
▁ㅁㅏㄹㄱㅣ -2344
▁ㄴㅓㅁㅇㅓ -2345
ㅍㅡㄹㄹㅔ -2346
▁ㅂㅓㅂㅊㅣㄱ -2347
▁ㅈㅜㅇㅅㅣㅁㅈㅣ -2348
ㅇㅐㄴ -2349
▁ㅈㅓㄹㄷㅐ -2350
▁ㅇㅣㅇ -2351
▁ㅇㅏㅁㅅㅏㄹ -2352
▁ㅊㅏㅁㅅㅓㄱ -2353
▁ㅎㅐㄱㅅㅣㅁ -2354
▁CD -2355
▁1979 -2356
▁ㄷㅗㅇㅇㅢ -2357
▁ㄱㅏㅁㅈㅓㅇ -2358
ㅎㅔㄴㅌㅣ -2359
▁ㄱㅡㄹㄹㅗ -2360
▁ㅈㅜㅇㅂㅏㄴ -2361
▁ㅌㅏㄴㅅㅐㅇ -2362
ㅈㅔㄹ -2363
▁ㅍㅏㄴㄱㅕㄹ -2364
ra -2365
▁ㅂㅕㄹㄷㅗ -2366
▁ㅁㅣㄹㄹㅣ -2367
▁ㅎㅡㄴㅎㅣ -2368
▁kg -2369
▁1920 -2370
ㅊㅣㄹ -2371
▁ㄴㅗㄴㄹㅣ -2372
▁ㅅㅣㄹㄹㅣ -2373
ㄹㅡㄹㄹㅣㄴ -2374
▁ㅌㅗㅇㄱㅖ -2375
▁ㅈㅣㅂㅎㅐㅇ -2376
ㅂㅏㄴㄷㅗ -2377
▁ㅂㅗㄴㄱㅕㄱ -2378
▁ㄷㅏㄴㅇㅣㄹ -2379
▁v -2380
▁In -2381
ㄹㅕㅇㅂㅜ -2382
▁1981 -2383
▁ㅅㅏㄹㅇㅏ -2384
▁ㄱㅡㅁㅁㅔ -2385
ㅇㅗㄹ -2386
ㄲㅗㅊ -2387
▁ㄹㅗㅅ -2388
▁ㄱㅘㄴㄹㅛ -2389
▁ㅂㅏㅇㅁㅕㄴ -2390
ㄷㅗㄴ -2391
10 -2392
▁ㄱㅓㅁㅊㅏㄹ -2393
▁ㅅㅐㄴ -2394
▁ㄱㅗㅇㄱㅣ -2395
▁1973 -2396
▁ㄱㅗㅇㅍㅗ -2397
ㄹㅜㄱ -2398
▁ㄷㅓㅍ -2399
ㄷㅣㄴ -2400
ㄱㅘㄹ -2401
▁1930 -2402
▁ㅅㅏㄴㅎㅏ -2403
ㅋㅏㄹ -2404
▁ㅎㅕㅂㅅㅏㅇ -2405
▁ㄱㅝㄴㅎㅏㄴ -2406
ㅅㅏㄴㅅㅣ -2407
▁ㅈㅣㄱㅇㅝㄴ -2408
os -2409
BO -2410
▁ㅈㅓㄴㅎㅜ -2411
▁150 -2412
▁ㅈㅏㄱㄱㅗㄱㄱㅏ -2413
▁ㅇㅝㄴㅈㅏㄱ -2414
▁ㅅㅏㅇㅍㅜㅁ -2415
▁ㅉㅗ -2416
em -2417
▁ㅈㅜㅇㅂㅜ -2418
▁ㅎㅕㅂㅈㅓㅇ -2419
ㅇㅓㅄㅇㅣ -2420
▁ㄱㅓㄴㄱㅜㄱ -2421
ㅎㅗㄹ -2422
ㅆㅣㄴ -2423
▁ㅊㅏㅇㄹㅣㅂ -2424
ㄹㅠㅁ -2425
ter -2426
▁ㄱㅓㄴㅈㅗ -2427
ㄹㅕㅁ -2428
▁ㅇㅗㅅ -2429
ㅁㅗㄹ -2430
▁ㄱㅣㅁㅈㅓㅇ -2431
▁ㅈㅓㄴㅊㅓㄹ -2432
▁ㅈㅓㅇㄱㅛ -2433
ㄹㅡㄴㅉㅗㄱ -2434
▁ㅇㅣㄴㅅㅏㅇ -2435
▁ㅈㅓㄴㅈㅜ -2436
▁ㄱㅜㄴㅅㅜ -2437
▁1974 -2438
30 -2439
▁ㅅㅔㅅ -2440
▁ㄴㅗㅎㅇㅣ -2441
▁ㅇㅡㅂ -2442
▁ㅇㅕㄴㅅㅏㄴ -2443
▁ㅇㅣㄴㄱㅝㄴ -2444
▁ㅎㅔㄴㄹㅣ -2445
ㄹㅣㄹ -2446
ㄴㅕㅇ -2447
▁ㅂㅜㄱㅅㅓ -2448
▁ㅈㅏㅇㅊㅏㄱ -2449
▁ㅋㅡㄹㄹㅔ -2450
▁ㄱㅏㄱㅂㅗㄴ -2451
▁ㅂㅗㄱㅎㅏㅂ -2452
▁ㅇㅚㄴㅉㅗㄱ -2453
▁1940 -2454
▁ㅎㅕㅇㅅㅏ -2455
▁ㄱㅡㅁㅅㅗㄱ -2456
ㅇㅏㅅ -2457
▁ㅈㅜㅇㅅㅔ -2458
▁ㅌㅔㄱ -2459
▁ㅎㅕㄴㅈㅏㅇ -2460
▁ㅎㅏㄴㄸㅐ -2461
ㅉㅣㄱ -2462
▁185 -2463
▁ㅌㅐㄱ -2464
▁ㅈㅏㄹㅁㅗㅅ -2465
▁ㅂㅣㅇ -2466
▁ㄱㅜㄱㄷㅗ -2467
▁SBS -2468
▁ㅌㅏㄱ -2469
▁ㅅㅓㅇㅈㅣㄹ -2470
▁ㅇㅣㄴㅈㅗ -2471
▁ㅊㅏㅇㅈㅗ -2472
▁ㄹㅐㅇ -2473
▁ㅈㅓㄴㅎㅕ -2474
ㅃㅡ -2475
▁ㅇㅔㅁ -2476
▁ㅇㅜㄴㅇㅛㅇ -2477
▁1948 -2478
▁1968 -2479
▁ㅇㅣㄴㅈㅓㅇㅂㅏㄷ -2480
▁ㅈㅓㅇㅂㅗㄱ -2481
▁1976 -2482
▁ㅎㅏㅇㅂㅗㄱ -2483
▁ㅎㅏㅂㅅㅓㅇ -2484
▁ㅇㅣㄴㄹㅠ -2485
▁ㅂㅏㅇㅊㅜㄹ -2486
▁54 -2487
ㅍㅡㄹㄹㅣ -2488
ㄲㅐ -2489
▁ㅇㅡㅁㄹㅕㄱ -2490
▁ㅋㅡㄹㄹㅣ -2491
ㄱㅐㄱㅊㅓㄹㄷㅗ -2492
▁ㄱㅕㅇㅅㅓㅇ -2493
▁ㅁㅜㄹㄹㅓ -2494
▁ㅅㅜㅅㅈㅏ -2495
▁ㅈㅓㅇㅂㅣ -2496
▁ㅇㅣㅂㅈㅏ -2497
▁ㅅㅓㅇㄱㅕㅇ -2498
▁ㅇㅣㄴㄱㅗㅇ -2499
ㅇㅣㄹㅂㅗ -2500
ㅇㅣㅇ -2501
▁ㅂㅜㄱㄷㅗㅇ -2502
▁ㅊㅜㄹㅇㅣㅂ -2503
▁ㄱㅓㄴㄹㅣㅂ -2504
▁ㅎㅝㄹ -2505
▁ㅂㅗㅇㅎㅏ -2506
▁1975 -2507
▁ㅁㅕㄹㅁㅏㅇ -2508
▁ㄱㅗㅇㅅㅏㄴㅈㅜ -2509
▁ㅅㅣㅁㄱㅏㄱ -2510
op -2511
ㄹㅣㅅ -2512
ag -2513
▁ㅊㅜㄹㅈㅏㅇ -2514
▁ㅅㅡㄹㄹㅗ -2515
▁ㅈㅣㄴㅈㅜ -2516
▁ㅎㅝㄹㅆㅣㄴ -2517
▁ㅇㅔㄱㅅㅡ -2518
▁ㅎㅏㄴㅈㅏ -2519
▁ㅈㅓㄴㄱㅗㅇ -2520
▁ㅅㅏㄱ -2521
▁ㅉㅣㄱ -2522
▁ㅎㅡㅂㅅㅜ -2523
▁ㅈㅣㅂㅇㅏㄴ -2524
▁ㅊㅜㄱㅈㅔ -2525
▁ㅂㅗㄴㅇㅣㄴ -2526
ㅍㅏㄹ -2527
▁ㅅㅓㄴㄱㅛ -2528
▁56 -2529
▁1978 -2530
▁ㄴㅗㄴㅇㅢ -2531
▁ㅊㅓㅇㅈㅜ -2532
ㄹㅏㄹ -2533
▁ㅇㅣㄴㅈㅗㅇ -2534
▁ㄱㅜㄱㅈㅏㅇ -2535
▁1963 -2536
▁ㄱㅏㄹㄷㅡㅇ -2537
▁ㅇㅝㄴㄹㅣ -2538
▁ㅂㅏㄴㅂㅗㄱ -2539
▁ㅂㅜㄱㅇㅏ -2540
▁1971 -2541
ㅊㅓㅂ -2542
▁ㅇㅕㄴㅎㅏㅂㄱㅜㄴ -2543
▁ㅂㅗㄴㅅㅏ -2544
▁ㅁㅗㄱㅅㅏ -2545
▁ㅁㅔㄹ -2546
ㅁㅍㅡ -2547
▁ㅈㅡㄹㄱㅣ -2548
▁ㅎㅏㄴㄱㅜㄱㅇㅓ -2549
▁52 -2550
ㅅㅓㅇㄱㅜㄴ -2551
▁ㄴㅗㄴㅈㅐㅇ -2552
▁00 -2553
▁ㅇㅟㄹ -2554
▁65 -2555
▁ㅅㅣㄴㅊㅔ -2556
▁ㅇㅕㄴㄱㅘㄴ -2557
▁ㅁㅕㅇㅅㅓㅇ -2558
▁ㅎㅘㄹㅅㅓㅇ -2559
▁ㄴㅣㄴ -2560
ㅂㅜㅌㅇㅣ -2561
▁Q -2562
▁ㅁㅟ -2563
ce -2564
▁ㄱㅜㄱㅁㅜ -2565
ㄹㄹㅣㅇ -2566
▁ㅎㅏㄱㅅㅡㅂ -2567
▁ㅊㅗㅇㄷㅗㄱ -2568
▁ㅈㅜㅇㄷㅐ -2569
▁ㅌㅔㄴ -2570
▁49 -2571
▁ㅎㅘㄹㅂㅏㄹ -2572
▁ㅊㅜㄹㅁㅏ -2573
ㅈㅔㄹㄹㅔ -2574
▁ㅂㅓㅅㅇㅓ -2575
ㄸㅓㅎㄱㅔ -2576
ㄱㅗㅇㅎㅏㅇ -2577
▁ㅂㅕ -2578
▁ㄱㅘㄴㅈㅣㄱ -2579
▁ㄹㅛ -2580
▁ㅊㅓㄴㅊㅔ -2581
▁ㅇㅕㄴㅈㅐ -2582
▁ㅊㅜㅇㅊㅓㅇㅂㅜㄱㄷㅗ -2583
OS -2584
▁ㄷㅓㄴㅈㅣ -2585
▁ㅁㅏㄹㄹㅔ -2586
▁ㅂㅜㄴㅈㅐㅇ -2587
ㄴㅗㅎ -2588
▁ㄴㅔㅅ -2589
▁ㅁㅕㅇㅁㅕㅇ -2590
▁1969 -2591
▁179 -2592
ㅅㅣㄱㅎㅚ -2593
▁ㅂㅜㄹㅅㅏㅇ -2594
▁ㅇㅕㄴㄹㅛ -2595
ㅅㅓㅇㅇㅝㄴ -2596
ㅂㅕㅇㄷㅐ -2597
ㄹㅏㅎ -2598
ㅅㅡㄹㄹㅏ -2599
▁ㅇㅕㅇㅇㅓㅂ -2600
▁ㅎㅏㅇㄱㅗㅇㄱㅣ -2601
▁ㅎㅏㄱㅅㅜㄹ -2602
▁ㅋㅗㄴㅅㅡ -2603
▁1946 -2604
▁ㅇㅣㄹㅊㅣ -2605
▁ㅈㅓㄴㅂㅜ -2606
▁ㄴㅓㅁㄱㅣ -2607
▁ㅈㅣㄴㅂㅗ -2608
oc -2609
▁ㄷㅗㅇㅇㅝㄴ -2610
▁53 -2611
▁ㄱㅕㄴㅎㅐ -2612
▁ㄴㅗㅇㅁㅣㄴ -2613
▁ㅋㅠ -2614
ㅁㅂㅣ -2615
▁ㅈㅏㅇㅇㅏㄱ -2616
ri -2617
▁ㅅㅓㅇㄴㅡㅇ -2618
▁and -2619
▁ㅇㅜㄴㅈㅓㄴ -2620
ㅈㅓㅇㅅㅣㄱ -2621
▁1964 -2622
▁US -2623
ㅋㅟ -2624
▁ㅂㅏㅇㅅㅏ -2625
▁ㅇㅣㄹㄷㅐ -2626
▁ㅂㅜㄹㅂㅓㅂ -2627
▁ㅅㅣㄴㅅㅓㅇ -2628
▁ㅈㅣㄱㅈㅓㄴ -2629
▁ㅈㅓㅇㅇㅝㄴ -2630
▁ㅂㅐㄱㅈㅏㄱ -2631
▁ㅈㅏㅇㄱㅛ -2632
▁ㅃㅏㄹ -2633
▁ㅂㅏㄱㅈㅓㅇ -2634
▁ㅈㅣㄱㅇㅓㅂ -2635
ㄱㅓㄹ -2636
ㄴㅗㅇ -2637
▁58 -2638
▁ㅈㅓㅇㅊㅔ -2639
ㅊㅓㄴㄱㅜㄴ -2640
▁ㅎㅏㄱㅂㅜ -2641
▁ㅇㅏㄴㅌㅏ -2642
▁ㅍㅣㅇ -2643
▁ㅂㅐㄱㅈㅔ -2644
▁ㅂㅕㄴㅎㅘㄴ -2645
▁ㅇㅣㅁㄱㅡㅁ -2646
▁PC -2647
▁ㅂㅔㄹㄱㅣ -2648
▁ㅎㅏㄱㅇㅝㄴ -2649
▁ㅍㅗㄱㄹㅕㄱ -2650
▁ㅋㅗㄴㅅㅓ -2651
▁ㅎㅏㄱㅎㅚ -2652
▁ㅅㅣㄱㅍㅜㅁ -2653
▁ㅁㅣㄴㅂㅓㅂ -2654
▁ㅇㅣㅁㅇㅢ -2655
▁ㅅㅏㅇㄷㅏㅇㅎㅣ -2656
▁ㅂㅏㄴㅇㅕㅇ -2657
▁ㅋㅐㅁㅍㅓ -2658
▁ㄱㅏㄴㄷㅏㄴ -2659
▁ㅇㅡㅇㅇㅛㅇ -2660
▁ㅈㅓㄴㅍㅏ -2661
▁ㄱㅘㄴㅈㅓㅁ -2662
▁ㅈㅏㄱㅅㅏ -2663
▁ㅎㅏㅇㄱㅜ -2664
▁1977 -2665
▁ㅊㅓㄹㅅㅜ -2666
ㅈㅜㄹ -2667
▁ㅈㅓㅇㅈㅣ -2668
ㄹㅠㄴ -2669
▁ㅎㅗㄴㄹㅏㄴ -2670
▁ㅊㅣㄴㅇㅣㄹ -2671
▁ㅊㅏㅇㄷㅏㄴ -2672
ㄴㅏㅂ -2673
▁ㅁㅓㄱㅇㅣ -2674
▁ㅈㅓㄴㅁㅜㄴㄱㅏ -2675
ㅁㅣㄹㄹㅣ -2676
ㅇㅑㄴ -2677
igh -2678
▁r -2679
▁ㅎㅕㅂㅇㅢ -2680
▁ㄱㅗㅇㅌㅗㅇ -2681
▁ㅂㅏㅇㅅㅗㅇㄱㅜㄱ -2682
▁ㄹㅏㄱ -2683
▁ㅅㅏㄹㅇㅣㄴ -2684
▁ㅅㅡㅇㅈㅣㄴ -2685
▁ㅍㅕㄴㅈㅣ -2686
▁ㅂㅏㄲㅇㅔ -2687
ㅇㅐㄴㅈㅔㄹㄹㅔ -2688
▁88 -2689
▁ㅎㅚㅇ -2690
▁ㄲㅡㅌㄴㅐ -2691
▁ㅁㅜㄴㅈㅏㅇ -2692
▁ㄲㅗㄱ -2693
ㅋㅗㄹㄹㅏ -2694
▁ㅇㅏㄹㄹㅔㄱㅅㅏㄴㄷㅡ -2695
ation -2696
▁1000 -2697
▁ㄱㅔㄴ -2698
▁ㅂㅗㄱㅁㅜ -2699
▁ㅇㅣㅁㄷㅐ -2700
▁ㅈㅣㄹㅂㅕㅇ -2701
▁ㄱㅣㅁㅇㅕㅇ -2702
▁ㅎㅏㅂㄱㅕㄱ -2703
ㅊㅓㄴㅅㅣ -2704
▁ㅌㅗㅇㅅㅏㅇ -2705
▁99 -2706
▁ㅅㅓㄴㅈㅗ -2707
▁ㅈㅏㅇㅅㅜ -2708
▁ㅅㅣㄴㅂㅜㄴ -2709
▁1949 -2710
▁ㅍㅏㅂ -2711
▁ㅇㅏㄹㅇㅏ -2712
▁ㅎㅏㄱㄱㅘ -2713
▁ㄷㅗㅇㄴㅏㅁ -2714
▁ㄹㅗㅅㄷㅔ -2715
▁ㅇㅑㄱㅅㅗㄱ -2716
▁ㅈㅣㄴㅇㅣㅂ -2717
▁ㅁㅏㅇㅁㅕㅇ -2718
▁ㅁㅜㄴㅎㅓㄴ -2719
▁1962 -2720
▁ㅊㅏㅁㅈㅓㄴ -2721
▁62 -2722
▁SK -2723
▁1967 -2724
▁FA -2725
▁ㄴㅏㅁㅅㅓ -2726
▁ㅈㅣㄴㅇㅏㅂ -2727
▁57 -2728
▁ㅊㅣㅇㅎㅏ -2729
▁ㄹㅐㄴ -2730
▁ㅅㅣㅂㅈㅏ -2731
▁ㅎㅕㄴㅇㅕㄱ -2732
▁ㅌㅏㄴㅅㅗ -2733
▁ㅂㅏㄴㅂㅏㄹ -2734
▁ㄴㅗㅇㄱㅜ -2735
▁ㄱㅗㅇㄷㅗㅇㅊㅔ -2736
▁ㅂㅕㄴㅎㅕㅇ -2737
▁ㄷㅗㅇㅈㅏㄱ -2738
ㅈㅜㄱ -2739
▁ㅇㅕㅇㅎㅑㅇㄹㅕㄱ -2740
▁ㅈㅓㅇㄱㅣ -2741
▁ㅈㅡㅇㅅㅏㅇ -2742
▁ㅇㅑㄱㅎㅏ -2743
▁ㅇㅕㄴㅊㅜㄹ -2744
▁ㄱㅘㅇㅈㅏㅇ -2745
▁ㅇㅕㄴㅇㅏㄴ -2746
▁ㅅㅔㄹ -2747
▁Ch -2748
▁ㅊㅏㄹㅅㅡ -2749
▁ㅅㅏㅇㅅㅡㅇ -2750
▁ㅊㅜㄹㄱㅏㄴ -2751
ㅂㅏㅇㅅㅗㅇ -2752
▁ㅅㅏㅇㄹㅠㄱ -2753
▁ㅅㅏㅇㅇㅝㄴ -2754
▁ㅇㅣㄹㅅㅣㄱ -2755
▁ㅊㅓㄴㅇㅕㄴ -2756
▁ㅌㅗㅁ -2757
▁ㅇㅣㅁㅈㅣㄴ -2758
▁ㅎㅏㄴㅂㅏㄴㄷㅗ -2759
ㄲㅇㅣ -2760
▁ㄹㅗㅇ -2761
▁ㅂㅏㅇㅈㅓㅇㅅㅣㄱ -2762
▁KBO -2763
▁You -2764
▁ㄷㅡㅇㅈㅣ -2765
▁ㅅㅣㄹㅅㅜ -2766
▁ㄸㅢ -2767
▁ㅇㅕㅇㅇㅣㅂ -2768
nd -2769
▁ㅇㅝㄴㅎㅏ -2770
▁ㅎㅘㅇㄱㅡㅁ -2771
▁.. -2772
▁ㅎㅠㅇ -2773
▁ㄱㅡㄹㅈㅏ -2774
▁ㅈㅏㅇㄹㅡ -2775
▁ㅂㅡㄹㄹㅏ -2776
▁66 -2777
▁ㅇㅐㅇ -2778
▁ㅌㅡㄱㅇㅣ -2779
ㄷㅡㄹㅁㅗㄱ -2780
▁ㅌㅏㄹㅊㅜㄹ -2781
▁ㅌㅏㄹㄹㅏㄱ -2782
ㅅㅡㅇㅁㅏㄴ -2783
▁ㅅㅣㄴㅊㅓㅇ -2784
▁ㄷㅗㄱㄹㅣㅂㅇㅜㄴㄷㅗㅇ -2785
▁181 -2786
▁ㅂㅏㄴㄷㅡ -2787
▁ㄷㅗㅇㅅㅓㅇ -2788
▁ㅉㅗㅊ -2789
▁ㅅㅣㄴㅇㅣㄴ -2790
▁68 -2791
▁ㅈㅗㅂ -2792
ㄹㅓㄴㄷㅔ -2793
▁ㅍㅣㄱ -2794
▁1966 -2795
▁1965 -2796
▁ㅎㅗㅅ -2797
▁ㅇㅘㅇㅈㅏ -2798
▁ㅎㅕㄴㅈㅣ -2799
▁ㅂㅏㅇㅈㅣ -2800
ST -2801
ice -2802
▁ㅊㅓㅇㄱㅜ -2803
▁ㄱㅏㄴㅎㅐㅇ -2804
▁ㅁㅏㄱㅂㅜ -2805
▁ㄷㅗㄹㄹㅣ -2806
▁ㅂㅜㄴㅇㅕㄹ -2807
▁ㅈㅓㄹㅊㅏ -2808
▁ㅍㅡㄹㄹㅐ -2809
▁ㅂㅏㄹㅇㅓㄴ -2810
▁61 -2811
▁ㄴㅗㄱㅅㅐㄱ -2812
▁ㄱㅕㅇㄹㅗ -2813
▁ㅊㅓㄴㅈㅜ -2814
▁ㄱㅗㅂ -2815
▁ㄷㅜㄹㅉㅐ -2816
▁ㅌㅠ -2817
▁ㅂㅔㄱㅌㅓ -2818
▁ㄱㅏㅁㅅㅏ -2819
▁ㅇㅣㄹㅂㅗㄴㄱㅜㄴ -2820
▁ㅅㅓㄴㅈㅓㄴ -2821
▁ㄱㅏㄹㅅㅐㄱ -2822
▁ㅅㅗㄴㅈㅏ -2823
▁ㅂㅓㅁㅈㅜ -2824
▁%, -2825
▁ㅍㅏㄴㅅㅓ -2826
▁ㅂㅜㄴㅎㅐ -2827
▁ㄹㅟ -2828
ER -2829
▁ㅅㅐㅇㅈㅗㄴ -2830
▁ㄹㅏㅁ -2831
▁ㅁㅜㄱ -2832
▁183 -2833
▁ㅂㅓㅂㅈㅓㅇ -2834
▁IS -2835
art -2836
▁ㄱㅗㅇㅈㅓㅇ -2837
▁ㄱㅏㄹㄹㅣ -2838
▁ㅅㅓㄴㅂㅗ -2839
ON -2840
▁ㅎㅡㄱㅇㅣㄴ -2841
▁ㅈㅓㄴㅎㅕㅇ -2842
▁ㅈㅓㄴㅁㅕㄴ -2843
▁ㄹㅗㄹ -2844
▁ㅁㅜㄹㅊㅔ -2845
▁ㅂㅣㄱㅌㅗ -2846
▁ㄴㅓㄼㅇㅣ -2847
ㅈㅣㄹㄹㅐㄴㄷㅡ -2848
▁ㄷㅗㄱㅌㅡㄱ -2849
▁ㅂㅏㅂ -2850
▁1961 -2851
ㅌㅣㄹ -2852
▁ㅈㅜㅇㄱㅣ -2853
▁ㅅㅏㅂ -2854
▁ㅂㅕㄹㅁㅕㅇ -2855
ㅎㅕㅇㅁㅜㄴㅎㅘ -2856
▁re -2857
▁ㅇㅘㄴㄱㅗㅇ -2858
▁ㅂㅜㄴㄱㅣ -2859
ㄷㅡㅂ -2860
▁ㅇㅘㄴㄹㅛ -2861
▁ㅂㅜㄴㅎㅏㄹ -2862
ㅁㅓㄴㅌㅡ -2863
▁ㅇㅣㄹㅉㅣㄱ -2864
▁ㅎㅣㅁㄷㅡㄹ -2865
▁ㅅㅜㄴㅎㅘㄴ -2866
ap -2867
▁86 -2868
▁ㅇㅏㅂㄹㅕㄱ -2869
▁800 -2870
▁ㅌㅗㅂ -2871
▁ㄱㅣㅁㅇㅣㄹ -2872
est -2873
ak -2874
▁ㄷㅓㅅ -2875
▁600 -2876
▁ㅋㅡㄹㄹㅗ -2877
▁ㅊㅏㅇㅇㅝㄴ -2878
▁ㅇㅜㅇ -2879
▁ㅁㅏㅈㅅㅓ -2880
▁ㅂㅗㄱㅈㅣ -2881
▁ㄴㅡㅈ -2882
ㅌㅔㄴㅊㅡ -2883
▁ㅇㅐㄴㄷㅡ -2884
▁ㅇㅏㄹㅍㅏ -2885
▁120 -2886
▁ㅁㅔㄴ -2887
ㅇㅟㄴ -2888
▁ㅅㅕㄴ -2889
▁ㅍㅜㅇㅂㅜ -2890
▁ㅎㅢㄴ -2891
▁ㅅㅣㄴㄹㅚ -2892
▁ㄴㅣㅅ -2893
ㄹㅐㅇ -2894
ia -2895
ㅊㅕ -2896
ㅌㅡㄹㄹㅓ -2897
▁ㅇㅣㄴㅈㅣ -2898
▁ㄴㅡㄴㄱㅏ -2899
▁ㅇㅣㄴㅈㅓㅂ -2900
ㅂㅣㅊ -2901
▁ㄴㅏㄹㄱㅐ -2902
▁ㅈㅜㄹㅇㅓ -2903
AR -2904
▁ㅁㅗㄱㅅㅗ -2905
ㅇㅡㄴㅎㅐㅇ -2906
▁ㅅㅣㄹㅈㅣㄹ -2907
▁98 -2908
ㅅㅣㄹㅅㅏㅇ -2909
ㅋㅜㄹ -2910
ㅅㅣㄴㄱㅛ -2911
TV -2912
▁ㅁㅏㅈㅇㅣ -2913
▁ㅍㅕㄴㅊㅏㄴ -2914
▁ㅎㅏㄴㅈㅓㅇ -2915
ct -2916
▁ㅅㅏㅇㅇㅟ -2917
▁ㅇㅣㄴㅈㅡㅇ -2918
▁ㅎㅐㅇㄹㅕㄹ -2919
▁ㅈㅓㄴㅇㅝㄴ -2920
▁63 -2921
ㄲㅡㅁ -2922
▁ㅋㅐㄴ -2923
▁ㅎㅘㄱㅅㅏㄴ -2924
▁1919 -2925
▁ㅊㅜㄹㅂㅓㅁ -2926
▁1944 -2927
▁ㅁㅕㅇㄴㅏ -2928
▁ㅂㅕㄴㅅㅜ -2929
▁ㅂㅜㄴㅁㅕㅇ -2930
▁ㄷㅗㅇㄱㅣ -2931
▁ㄷㅗㅇㅅㅓ -2932
▁ㅌㅏㅁㅅㅏ -2933
▁ㅈㅣㅂㄱㅝㄴ -2934
▁ㅍㅕㅇㄷㅡㅇ -2935
▁ㄱㅘㄱ -2936
▁IC -2937
▁ㅇㅣㄹㅂㅗㄴㅇㅣㄴ -2938
▁ㅇㅕㄴㄱㅏㄴ -2939
▁ㄱㅘㅇㅂㅗㄱ -2940
▁ㅅㅓㅇㅎㅑㅇ -2941
▁;/ -2942
▁ㄱㅗㅇㄹㅗ -2943
ㅅㅜㅇㅇㅣ -2944
▁ㅂㅏㄹㄱㅜㄹ -2945
ㄹㅠㅇ -2946
▁95 -2947
▁ㅅㅓㅇㅂㅜㄴ -2948
ㅇㅕㄴㅎㅣ -2949
▁ㅅㅏㄹㄹㅣ -2950
▁ㅁㅕㅇㅎㅘㄱ -2951
ㅁㅣㄴㅈㅜ -2952
▁ㅂㅏㅇㅎㅐ -2953
▁ㅍㅏㄴㅅㅏ -2954
▁ㅇㅓㅁㅊㅓㅇ -2955
▁ㄱㅕㅇㅈㅓㄴ -2956
▁1941 -2957
ㄷㅏㄹㄹㅣ -2958
ㅇㅙ -2959
▁ㅌㅡㄱㅂㅕㄹㅅㅣ -2960
▁59 -2961
og -2962
▁82 -2963
▁74 -2964
ㅋㅓㅁ -2965
ㄴㅕㄱ -2966
▁ㄱㅗㄹㄷㅡㄴ -2967
▁ㄱㅡㄴㅂㅗㄴ -2968
▁ㅌㅗㅇㅅㅏㄴ -2969
▁ㅎㅜㅅ -2970
▁ㅇㅕㅇㅇㅜㅇ -2971
▁ㄷㅏㅇㅊㅗ -2972
▁ㅎㅘㄱㄹㅠㄹ -2973
ul -2974
▁ㅅㅐㅁ -2975
▁ㄷㅏㄴㄷㅗㄱ -2976
ㅍㅗㄹㄹㅔ -2977
▁to -2978
▁178 -2979
▁ㅍㅏㄹㄹㅣ -2980
▁1958 -2981
▁ㅇㅏㄴㄷㅗㅇ -2982
ㅂㅗㅅ -2983
▁ㅎㅗㅇㅂㅗ -2984
▁ㅎㅏㄴㄱㅖ -2985
▁ㅇㅣㅂㄹㅕㄱ -2986
ㄹㅗㅁ -2987
▁ㄱㅏㄱㅈㅣ -2988
▁ㅁㅜㄴㅁㅕㅇ -2989
▁ㅌㅔㄱㅅㅏ -2990
▁ㅈㅓㄱㅈㅓㄹ -2991
▁ㅊㅜㄹㄹㅕㄱ -2992
ㄹㅏㄴㅅㅣ -2993
▁ㅈㅜㄹㄱㅣ -2994
ㅅㅗㄹ -2995
▁ㅅㅐㅇㄱㅕ -2996
▁ㄹㅐㄴㄷㅡ -2997
▁SS -2998
▁1947 -2999
▁76 -3000
▁ㄹㅓㅆ -3001
▁ㄱㅗㅇㅎㅓㄴ -3002
ㄴㅓㅁ -3003
▁ㄷㅗㅇㅁㅕㅇ -3004
▁72 -3005
▁ㅊㅜㅇㄱㅕㄱ -3006
▁ㅎㅗㄴㅎㅏㅂ -3007
ㄴㅛ -3008
▁ㅎㅏㄴㄱㅜㄱㅇㅣㄴ -3009
▁ㅇㅣㅁㄱㅣ -3010
▁DNA -3011
▁1956 -3012
▁ㅇㅗㄹㅎㅐ -3013
ㅋㅡㄹㄹㅣ -3014
ㅋㅡㄹㄹㅔ -3015
▁ㅈㅏㄱㅇㅟ -3016
▁ㅇㅝㄴㅎㅕㅇ -3017
▁ㅇㅏㄱㅎㅘ -3018
▁ㅇㅑㅇㅉㅗㄱ -3019
ie -3020
▁ㅈㅓㅁㅈㅓㅁ -3021
▁ㅅㅡㅇㄱㅐㄱ -3022
ud -3023
ㅇㅑㅇㅇㅣ -3024
▁ㄱㅕㅇㄴㅏㅁ -3025
▁ㅎㅏㄱㅅㅏㄹ -3026
▁77 -3027
▁ㅅㅜㄴㅅㅜ -3028
ㅋㅗㅁ -3029
▁ㅂㅏㅇㅇㅟ -3030
▁ㅇㅓㅁㅊㅓㅇㄴㅏ -3031
ㅊㅣㅁㄴㅐ -3032
▁ㅈㅓㅇㅅㅜ -3033
ly -3034
▁ㅂㅠ -3035
▁ㅅㅣㅁㅅㅏ -3036
ㅇㅣㄹㅅㅡ -3037
▁ㅈㅓㅂㅊㅗㄱ -3038
▁ㅈㅣㅇㅇㅕㄱ -3039
▁ㄷㅏㄴㅍㅕㄴ -3040
▁ㄷㅏㄹㄹㅏ -3041
▁67 -3042
th -3043
▁ㅅㅔㄴㅌㅡ -3044
ㅅㅔㅂ -3045
▁ㅈㅏㅁㅅㅜ -3046
▁AFC -3047
▁ㅋㅗㅁ -3048
▁160 -3049
▁ㅇㅣㅂㅂㅓㅂ -3050
▁ㅎㅏㄴㄱㅡㄹ -3051
▁ㅎㅏㅁㄹㅏㄱ -3052
▁ㅇㅏㄱㄱㅣ -3053
ㅅㅔㅁ -3054
▁ㅂㅜㄴㅇㅟ -3055
▁ㄷㅏㅇㄴㅏ -3056
▁Th -3057
ㅅㅣㄱㅈㅣ -3058
▁ㄱㅜㄱㄱㅣ -3059
▁ㄱㅏㅁㅅㅣ -3060
▁ㅍㅐㅇ -3061
ㄹㅐㅅㄷㅗㅇㅇㅏㄴ -3062
▁ㅎㅜㄹ -3063
▁ㄴㅕ -3064
▁Lo -3065
▁1939 -3066
▁ㅇㅓㄴㅈㅔ -3067
▁ㅊㅏㅁㄱㅗ -3068
▁ㅅㅣㄹㅎㅕㄴ -3069
▁ㅂㅐㄱㅅㅓㅇ -3070
▁ㅂㅕㅇㅎㅏㅂ -3071
▁ㅂㅗㄱㅇㅝㄴ -3072
ist -3073
▁ㅊㅜㅁ -3074
▁ㅇㅘㅇㅅㅣㄹ -3075
▁ㅇㅏㅁㅎㅗ -3076
ight -3077
▁ㅎㅜㅅㄴㅏㄹ -3078
▁85 -3079
▁ㅎㅜㄴㅈㅏㅇ -3080
AS -3081
▁ㅅㅕ -3082
▁ㅇㅣㅁㅈㅣㄴㅇㅙ -3083
▁ㅈㅣㄴㅈㅓㅇ -3084
▁* -3085
▁ㄷㅜㅇ -3086
▁1954 -3087
ㅎㅡㅂ -3088
▁ㅂㅏㄹㅂㅏㄹ -3089
▁ㅇㅣㄴㅅㅙ -3090
▁ㄷㅡㅇㅍㅏㄴ -3091
▁ㅍㅕㅇㅇㅏㄴ -3092
▁ㅅㅏㅇㅇㅕㄱ -3093
▁ㅍㅗㄱㅌㅏㄴ -3094
▁ㅈㅓㅁㅅㅜ -3095
ㄲㅏㅌ -3096
▁ㅂㅏㄹㅇㅡㅁ -3097
▁ㅆㅏㄹ -3098
ㅃㅏ -3099
▁ㅁㅓㄹㄹㅣ -3100
ㄴㅣㅅ -3101
▁ㅅㅣㄴㅂㅜ -3102
▁ㄱㅠㄴㅎㅕㅇ -3103
▁ㄲㅓㄲ -3104
▁ㅇㅝㄴㅅㅜ -3105
ㅁㅓㄱ -3106
▁ㅇㅕㄴㅇㅖ -3107
▁ㄱㅡㅂㅈㅔ -3108
▁ㄷㅗㄱㅇㅣㄹㄱㅜㄴ -3109
▁ㅇㅕㅇㅈㅣ -3110
ㄴㅕㅁㅁㅜㄹ -3111
AT -3112
▁1952 -3113
▁ㅅㅏㅇㅈㅜ -3114
▁73 -3115
▁ㅅㅓㄱㅇㅠ -3116
▁ㅇㅏㄴㅌㅗ -3117
▁ㄱㅣㅅ -3118
▁ㄱㅏㄹㄹㅏ -3119
▁202 -3120
▁ㅅㅏㄴㅎㅘ -3121
ㄹㅡㄹㄹㅗ -3122
▁ㅂㅣㄹㅂㅗ -3123
▁ㄷㅗㅇㅇㅑㅇ -3124
▁ㄱㅕㅂ -3125
▁ㄴㅗㄹㄹㅏ -3126
▁ㅇㅣㄹㅅㅏㅇ -3127
▁ㅇㅣㄹㅈㅏ -3128
▁ㅅㅜㄴㄱㅏㄴ -3129
▁ㅂㅗㄱㅅㅜ -3130
ㄴㅗㄹ -3131
▁ㅊㅏㅁㅁㅗ -3132
▁ㅋㅟㄴ -3133
▁ㅁㅜㄴㅅㅣㄴ -3134
▁ㅇㅣㄹㅅㅣ -3135
▁ㅎㅘㄱㄹㅣㅂ -3136
▁ㅊㅣㅁㄹㅑㄱ -3137
▁ㅊㅣㅁㅇㅣㅂ -3138
ㄱㅝㄹ -3139
ㄹㄹㅓㄴ -3140
▁78 -3141
▁ㄱㅗㅇㅈㅜㅇ -3142
▁96 -3143
ㅁㅓㅇ -3144
▁ㅂㅗㄱㅇㅡㅁ -3145
▁81 -3146
ess -3147
▁ㅈㅏㅇㄴㅏㅁ -3148
▁ㅈㅓㄴㅅㅣㄴ -3149
▁ㅊㅏㅇㅈㅏㄱ -3150
▁ㅂㅏㄱㅈㅓㅇㅎㅢ -3151
▁Al -3152
▁ㄱㅝㄴㅇㅟ -3153
ㅍㅣㄹㄷㅓ -3154
▁ㅇㅣㄹㅋㅓ -3155
▁ㅁㅣㄴㅈㅜㅇ -3156
▁ㅂㅣㄹㄷㅣㅇ -3157
▁ㅇㅏㄵ -3158
▁ㄷㅓㄹ -3159
▁DV -3160
▁ㅇㅣㄹㅋㅓㄷ -3161
▁ㅎㅕㄱㅅㅣㄴ -3162
▁\ -3163
▁ㅅㅣㄴㅈㅏ -3164
▁ㄷㅏㅇㄱㅜㄱ -3165
▁ㅈㅓㄴㅈㅣㄱ -3166
▁ㅎㅣㄴ -3167
▁NH -3168
▁ㅅㅡㅇㅂㅜ -3169
▁ㅈㅗㅇㅅㅏ -3170
▁ㅇㅏㄹㅂㅏ -3171
▁ㄱㅜㅂ -3172
▁ㅊㅗㅇㅎㅚ -3173
▁ㅎㅗㅅㅋㅏ -3174
▁Li -3175
▁ㅊㅓㄴㅇㅏㄴ -3176
▁71 -3177
▁1959 -3178
▁st -3179
▁ㅈㅓㄴㄴㅏㅁ -3180
ㅎㅐㅇㄱㅣ -3181
▁ㅎㅘㅇㅎㅜ -3182
ㅇㅣㄴㅁㅜㄹ -3183
▁AT -3184
ㅅㅏㄴㄱㅘㅇㅇㅕㄱㅅㅣ -3185
▁ㄹㅕㄱ -3186
▁ㅇㅐㄱㅅㅕㄴ -3187
▁ㅍㅕㅇㄹㅗㄴ -3188
▁ㄷㅗㅇㅂㅏㅇ -3189
▁ㄱㅡㅇ -3190
BA -3191
▁91 -3192
▁ㅅㅣㄴㄱㅗ -3193
ㅇㅛㅇㅈㅏ -3194
▁ㅂㅗㄴㅈㅣㄹ -3195
▁177 -3196
▁ㄷㅗㅇㅎㅐ -3197
▁ㅈㅜㅇㄹㅕㄱ -3198
▁ㅂㅜㅅ -3199
▁ㅇㅟㅅ -3200
▁ㅈㅔㄴ -3201
ub -3202
ㅅㅏㄴㅁㅜㄹ -3203
▁ㅅㅡㅇㄹㅕ -3204
▁ㅌㅏㄹㅌㅚ -3205
▁ㅈㅗㅎㅇㅏ -3206
ㅖㄴ -3207
▁ㅎㅐㅇㅂㅗㄱ -3208
▁ㅈㅣㄹㅎㅘㄴ -3209
▁ㄷㅡㄹㅇㅣ -3210
▁ㅅㅐㅇㅁㅜㄹㅎㅏㄱ -3211
▁ㄱㅗㄹㄷㅡ -3212
▁ㅈㅓㄹㅂㅏㄴ -3213
▁ㅅㅣㄴㅅㅏ -3214
▁AP -3215
▁1942 -3216
▁ㅇㅘㅇㅎㅜ -3217
▁ㅈㅓㅇㅊㅏ -3218
▁ㄱㅜㄱㄱㅜㄴ -3219
▁ㅇㅣㄴㅇㅛㅇ -3220
▁ㅂㅐㄱㅁㅏㄴ -3221
▁87 -3222
▁ㅅㅣㄹㄹㅕㄱ -3223
▁ㅇㅣㄹㅂㅗㄴㅇㅓ -3224
▁ㅅㅣㅇㄱㅏ -3225
▁159 -3226
ㅅㅔㄹㄹㅗ -3227
▁ㅅㅏㄴㅅㅗ -3228
▁ㅅㅗㄴㅅㅏㅇ -3229
ab -3230
▁ㅎㅗㄴㅇㅣㄴ -3231
▁ㅇㅕㅇㅈㅜ -3232
▁ㅅㅏㅇㄱㅘㄴ -3233
▁ㅇㅣㄴㅅㅐㅇ -3234
▁ㅅㅣㅁㅈㅏㅇ -3235
▁1955 -3236
▁ㅈㅏㄱㄷㅗㅇ -3237
ㅅㅏㄱ -3238
▁ㅇㅘㅇㅂㅣ -3239
▁ㅍㅠ -3240
ㅅㅜㄹㄱㅘㄴ -3241
▁ㅇㅝㄴㄴㅕㄴ -3242
▁1953 -3243
ㅇㅓㅂㅈㅏ -3244
▁ㅈㅓㄴㄷㅗㅇㅊㅏ -3245
▁84 -3246
IA -3247
▁ㄱㅘㄴㅇㅕ -3248
▁ㅇㅑㄱㅁㅜㄹ -3249
▁1943 -3250
ㅇㅗㄹㄹㅣ -3251
▁1936 -3252
▁ㅇㅏㄹㄱㅗ -3253
▁ㅇㅜㅁㅈㅣㄱㅇㅣㅁ -3254
▁ㄱㅣㅁㅅㅓㅇ -3255
ew -3256
▁ㅅㅓㄴㅂㅏㄱ -3257
▁ㅈㅣㄴㄷㅏㄴ -3258
▁ㅌㅗㅇㅎㅘ -3259
▁ㅂㅓㅂㅁㅜ -3260
▁ㅅㅣㅁㅈㅣ -3261
▁ㅂㅗㄴㅁㅕㅇ -3262
ine -3263
▁=" -3264
▁ㅅㅓㄴㅇㅣㅁ -3265
▁ㅇㅕㄱㅎㅏㄱ -3266
▁ㄱㅏㅇㄹㅡㅇ -3267
▁ㅍㅣㄹㄷㅡ -3268
▁700 -3269
▁ㄷㅡㅅㅇㅣ -3270
▁ㅂㅏㄹㅌㅏㄱ -3271
ㄷㅗㄱㅂㅜ -3272
▁ㄱㅣㅁㅇㅣㄹㅅㅓㅇ -3273
ㄸㅏ -3274
▁ㅈㅓㄴㅂㅜㄱ -3275
▁ㅇㅣㄹㅊㅔ -3276
ㅅㄱㅏ -3277
▁ㅈㅓㄱㅎㅏㅂ -3278
▁ㅎㅣㅂ -3279
IV -3280
▁ㄱㅕㄹㅇㅢ -3281
▁ㅎㅏㄱㅅㅏ -3282
ㄹㅏㄴㅅㅐㄱ -3283
▁Re -3284
ㅌㅏㄴㅌㅣ -3285
ㄹㅗㄴㅌㅗ -3286
▁1910 -3287
▁ㅊㅗㅇㅈㅏㅇ -3288
▁ㅈㅓㄴㄷㅏㅇ -3289
▁ㄱㅣㅁㄷㅐ -3290
▁ㄱㅜㄱㅈㅓㅇ -3291
▁ㅇㅣㄴㅇㅝㄴ -3292
ㅇㅖㄴ -3293
ㄲㅣㅁ -3294
▁ㅇㅡㅁㅇㅏㄱㄱㅏ -3295
▁ㅇㅡㅁㅅㅓㅇ -3296
ㅈㅣㄱㅈㅏ -3297
▁1957 -3298
▁ㅊㅏㅇㄷㅏㅇ -3299
▁ㅅㅣㅁㅍㅏㄴ -3300
▁ㅁㅜㄷ -3301
▁ㄱㅣㅁㅈㅗㅇ -3302
ㄴㅎㅔㄴ -3303
▁ㅇㅕㄴㅅㅡㅂ -3304
▁1914 -3305
▁ㄷㅡㄱㅍㅛ -3306
ㅇㅓㄴㅅㅣㅂ -3307
▁ㅅㅏㅇㅅㅣㄹ -3308
▁69 -3309
ue -3310
▁ㄷㅣㄴ -3311
▁ㅇㅣㄹㄱㅣ -3312
▁ㅈㅓㄴㅅㅗㅇ -3313
▁1900 -3314
▁ㄱㅓㅁㅌㅗ -3315
▁97 -3316
ㄹㅜㄴ -3317
ㅇㅞㄹ -3318
▁ㅅㅐㅇㅌㅐ -3319
▁{ -3320
▁ᆯㅈㅣ -3321
▁ㅇㅓㄱㅈㅔ -3322
EC -3323
▁ㄱㅓㅁㅅㅐㄱ -3324
▁HD -3325
▁ㅎㅡㄴㅎㅏ -3326
▁ㅂㅜㄹㅁㅏㄴ -3327
ㄹㅌㅡ -3328
▁ㄲㅔ -3329
ㅅㅜㄹㄱㅏ -3330
▁ㅋㅗㄴㅌㅔㄴㅊㅡ -3331
▁ㅋㅙ -3332
▁ㄱㅜㅇㅈㅓㄴ -3333
▁ㅇㅕㄴㅍㅕㅇ -3334
▁ㅅㅓㄱㅅㅏ -3335
▁01 -3336
▁ㅈㅗㄴㅅㅡ -3337
ㄹㅔㅁ -3338
▁DVD -3339
ㅅㅓㄴㅊㅗㅇ -3340
▁ㅂㅏㄹㅁㅕㅇ -3341
ㅋㅔㅅㅁㅗㄴ -3342
▁ㄷㅗㅇㅂㅜㄱ -3343
▁ㅇㅣㄱㅅㅡ -3344
▁;, -3345
▁ㅅㅓㄴㅎㅕㅇ -3346
▁92 -3347
ㅇㅝㄴㄱㅕㅇ -3348
▁ㅅㅣㄴㄷㅗ -3349
ㅌㅣㅁ -3350
▁1938 -3351
ㅅㅓㄴㅊㅗㅇㄷㅗㄱㅂㅜ -3352
▁ㅍㅜㅅ -3353
▁ㅍㅗㄱㄱㅕㄱ -3354
▁ㅂㅜㄴㄱㅛ -3355
▁ㅃㅓ -3356
▁101 -3357
▁ㄱㅕㄹㄹㅗㄴ -3358
▁ㅈㅐㄱㅅㅡㄴ -3359
BM -3360
▁on -3361
▁ㄱㅣㅍㅇㅣ -3362
▁ㅁㅗㄹㄹㅣ -3363
▁ㅁㅏㄹㄹㅣ -3364
ㄹㅔㄱ -3365
ㅂㅐㅁ -3366
▁ㄷㅓㅇ -3367
▁ㅅㅏㅇㅅㅗㄱ -3368
▁ㅃㅗㅂ -3369
▁ㅅㅏㅇㅅㅜ -3370
▁ㅅㅣㄴㅈㅏㅇ -3371
ect -3372
▁ㅍㅓㅇ -3373
▁ㅍㅣㄹㅅㅜ -3374
▁ㄷㅡㅇㅈㅏㅇㅇㅣㄴㅁㅜㄹ -3375
▁ㅎㅘㄴㅅㅡㅇ -3376
▁ㅅㅓㄹㄷㅡㄱ -3377
▁ㅎㅏㅅ -3378
▁ㅊㅓㄴㅁㅏㄴ -3379
ㅊㅗㅇㄹㅣ -3380
▁ㅇㅕㅇㅇㅑㅇ -3381
▁ㅂㅜㄴㄴㅗ -3382
▁ㅈㅡㄱㅅㅣ -3383
▁ㅇㅟㅇ -3384
ㅍㅗㅁ -3385
▁1932 -3386
▁ㅂㅏㅇㅇㅓㄴ -3387
▁ㅋㅓㄴㅌㅡ -3388
▁ㄱㅘㅇㅂㅓㅁ -3389
▁ㅈㅣㄴㅇㅕㅇ -3390
▁1951 -3391
ㄲㅏㄹ -3392
▁ㅋㅞ -3393
▁ㄷㅏㅁㄱㅣ -3394
▁ㄱㅡㅇㅈㅓㅇ -3395
▁ㅅㅣㅇㅇㅓ -3396
▁ㄱㅏㅂㅈㅏ -3397
▁ㅇㅓㄴㄷㅓㄱ -3398
▁ㅇㅓㅂㅈㅓㄱ -3399
▁ㅇㅛㅇㅇㅣㄴ -3400
▁ㅁㅏㄱㄷㅐ -3401
▁ㅇㅜㄴㅎㅏㅇ -3402
▁1918 -3403
ㅍㅐㄱ -3404
ㅌㅣㄴㅇㅓ -3405
▁ㅂㅡㄹㄹㅗㄱ -3406
▁ㅇㅏㅁㅋㅓㅅ -3407
▁89 -3408
▁ㄴㅡㄹㄹㅣ -3409
▁ㅂㅏㄴㅅㅏ -3410
ㅂㅡㄹㄹㅣ -3411
▁ㅂㅏㄹㄹㅔ -3412
▁ㄹㅓㅆㄷㅏ -3413
▁ㅈㅜㅇㅊㅜ -3414
▁ㅇㅓㄴㅅㅡ -3415
▁ㅋㅣㄹㄹㅗ -3416
▁1935 -3417
▁ㅂㅜㄹㅇㅏㄴ -3418
▁ㅎㅢㄴㅅㅐㄱ -3419
▁ㄴㅣㄱ -3420
ㅅㅏㄴㅎㅘ -3421
▁ㅇㅕㄴㅅㅓㄹ -3422
▁ㄷㅗㄱㅈㅐ -3423
▁1937 -3424
▁ㅇㅕㄴㄹㅏㄱ -3425
ㄱㅘㄱ -3426
▁ㄱㅜㄱㅈㅓㄱ -3427
▁ㅂㅓㄴㅈㅣ -3428
▁FM -3429
▁ㄷㅜㅇㄱㅡㄹ -3430
▁ㅁㅜㄹㄱㅗ -3431
▁ㅇㅗㄹㅅㅡ -3432
▁ㅊㅓㅂ -3433
ㄱㅗㅇㅅㅏ -3434
▁ㄱㅗㅇㅅㅣㄴ -3435
IN -3436
ㅍㅔㄱㅌㅡ -3437
▁ㅁㅏㄴㄷㅡㄴ -3438
▁OS -3439
▁ㄱㅏㄱㄱㅜㄱ -3440
▁Be -3441
▁93 -3442
▁ㅉㅏㄱ -3443
▁ㅈㅏㅂㅎㅣ -3444
ore -3445
ㅂㅗㄴㅈㅜ -3446
▁ㅋㅝ -3447
▁182 -3448
▁ㅂㅏㄹㄱㅏㄴ -3449
▁ㄱㅕㅇㅂㅣ -3450
▁ㅊㅣㅇㅎㅗ -3451
▁ㅇㅣㄹㄹㅕㄴ -3452
ㅌㅐㄴ -3453
▁ㅍㅏㄹㄹㅔ -3454
▁ㅂㅣㅈ -3455
▁ㅁㅟㄴㅎㅔㄴ -3456
▁ㄱㅗㄱㅅㅓㄴ -3457
▁ㅅㅓㅇㄴㅏㅁ -3458
▁ㅇㅠㄴㄹㅣ -3459
▁ㅎㅏㅇㄱㅗㅇㅅㅏ -3460
▁ㅁㅕㄴㅇㅕㄱ -3461
▁ㅅㅏㅇㅇㅣㄴ -3462
▁ㄱㅡㅂㄱㅕㄱ -3463
▁ㄸㅗㄱ -3464
▁ㅅㅜㅁㄱㅣ -3465
▁ㅈㅣㄴㄱㅕㄱ -3466
▁ㅈㅣㄴㅎㅏㄱ -3467
▁ㅅㅣㄹㅊㅓㄴ -3468
▁ㅂㅓㅂㅎㅏㄱ -3469
▁1928 -3470
ㄹㄹㅔㄴ -3471
▁94 -3472
ㅅㅔㄴㅌㅡ -3473
▁ㅁㅗㄱㅅㅓㅇ -3474
▁ㅌㅏㅇ -3475
▁ㅇㅑㅇㅅㅏㄴ -3476
▁ㅂㅏㄴㅈㅣ -3477
▁ㅂㅐㄱㅇㅣㄴ -3478
ㄷㅗㅇㅅㅐㅇ -3479
▁ㄱㅓㅌ -3480
▁ㅂㅜㄴㅎㅘ -3481
ㅁㅏㅇㅈㅏ -3482
▁ㄴㅏㅁㄴㅕ -3483
▁ㄲㅡㄹㅇㅓ -3484
▁ㄱㅘㅇㅂㅓㅁㅇㅟ -3485
ㅂㅔㄴㅌㅡ -3486
▁ㅇㅘㄴㅂㅕㄱ -3487
end -3488
our -3489
ㄴㅣㄱㅅㅡ -3490
▁ㅅㅗㄴㅅㅣㄹ -3491
▁ㅋㅜㄹ -3492
▁ㄷㅗㅇㄱㅕㅇ -3493
▁ㅈㅓㄴㅅㅜㄹ -3494
▁1933 -3495
ㄷㅜㅂ -3496
▁CP -3497
ㅅㅜㅁ -3498
▁ㄱㅏㅇㄴㅏㅁ -3499
▁ㅍㅐㄱ -3500
▁ㅁㅜㄹㄱㅓㄴ -3501
▁1924 -3502
ell -3503
▁ㄷㅗㅇㅎㅘ -3504
▁ㅌㅜㄹ -3505
▁ㄱㅕㅇㅅㅏ -3506
▁79 -3507
▁ㅊㅣㄹㄹㅔ -3508
▁ㅊㅏㄴㅅㅓㅇ -3509
ㅍㅏㄴㅅㅗ -3510
▁ㅅㅓㄴㅍㅗ -3511
▁ㅇㅕㄹㅁㅐ -3512
▁09 -3513
ain -3514
ㅌㅗㅂ -3515
▁ㅈㅓㅇㄹㅠ -3516
▁ㅈㅣㄹㅁㅜㄴ -3517
▁ㄱㅕㄱㅍㅏ -3518
ㅅㅡㄹㄹㅣㅇ -3519
▁ㄷㅏㅇㅇㅝㄴ -3520
▁04 -3521
▁ㅇㅕㅇㄱㅜ -3522
▁110 -3523
ㅉㅓ -3524
▁ㅁㅜㄲ -3525
▁ㅂㅗㅇㅅㅏ -3526
▁ㄷㅗㅇㄱㅜㄹ -3527
▁ㅁㅓㄹㅌㅣ -3528
ㄷㅗㅇㅈㅗ -3529
ㅌㅜㄴ -3530
ㅍㅣㄹㄷㅡ -3531
▁ㅌㅏㄴㅇㅏㅂ -3532
ㄴㅔㄹ -3533
▁ㄹㅐㅂ -3534
▁ㅈㅣㅂㅎㅚ -3535
▁ㅊㅗㄱㅈㅣㄴ -3536
▁08 -3537
ㅇㅣㅍ -3538
▁ㅇㅛㅇㄷㅗ -3539
ill -3540
ers -3541
▁ㅃㅕ -3542
▁ㄱㅣㅁㅎㅐ -3543
ㄹㅟ -3544
▁ㅅㅡㄹㄹㅏ -3545
▁83 -3546
▁ㄷㅗㅇㅈㅣ -3547
▁ㅇㅝㄴㅅㅣ -3548
▁ㅎㅏㅇㅇㅢ -3549
▁ㄱㅏㅁㄱㅏㄱ -3550
▁ㅇㅣㄹㄹㅣ -3551
▁ㅍㅕㅇㅁㅕㄴ -3552
ID -3553
▁ㅍㅓㄴ -3554
ㅌㅗㄹㄹㅣㄱㄱㅛ -3555
ㄱㅔㄹ -3556
ㅇㅑㅇㅅㅣ -3557
▁ㄷㅐㄴㅅㅡ -3558
▁ㅍㅏㄴㅌㅏ -3559
▁ㅍㅕ -3560
AN -3561
▁ㄹㅣㅂ -3562
▁ㅇㅏㄴㅌㅣ -3563
▁ㅇㅣㅂㄷㅐ -3564
▁Co -3565
ㅜㄱㅅㅡ -3566
ard -3567
▁ㅎㅏㅁㄱㅕㅇ -3568
▁ㄱㅐㄹ -3569
▁ㅅㅓㄴㄹㅗ -3570
▁ㄱㅜㄴㅂㅜ -3571
▁ㅅㅣㄹㄴㅐ -3572
▁ㅇㅜㄴㅅㅗㅇ -3573
▁ㄴㅏㅁㄱㅡㄱ -3574
▁ㅇㅕㅇㅇㅝㄴ -3575
▁ㅌㅏㄴㅎㅐㄱ -3576
▁ㅊㅜㄱㅅㅗ -3577
▁ㅈㅓㄴㅁㅏㅇ -3578
▁ㄸㅔ -3579
▁ㄱㅜㄱㅌㅗ -3580
▁ㄱㅡㄱㄷㅏㄴ -3581
▁170 -3582
▁ㅈㅓㄴㅈㅓㄱ -3583
▁ㅌㅣㄴ -3584
ㅁㅕㅇㅅㅏ -3585
▁ㅈㅓㅇㅁㅕㄴ -3586
▁ㅇㅜㅅ -3587
▁MS -3588
▁ㅎㅏㄹㅇㅏ -3589
▁ㅎㅣㅂㅎㅏㅂ -3590
▁ㄷㅓㅅㅂㅜㅌㅇㅣ -3591
▁ㅇㅗㅂ -3592
▁ㅃㅏㅇ -3593
▁ㄱㅏㄴㅂㅜ -3594
▁ㅅㅓㄴㅎㅗ -3595
ㄷㅗㅇㄷㅏㅇ -3596
▁ㅇㅡㄴㅁㅔ -3597
▁ㅃㅓㄷ -3598
▁ㅊㅗㅇㅈㅐ -3599
▁ㄱㅕㅇㅊㅏㄹㅅㅓ -3600
▁ㄱㅕㅇㅂㅜㄱ -3601
▁ㅅㅡㅂㄱㅕㄱ -3602
▁ㄷㅗㅇㅁㅔ -3603
▁ㅈㅣㄹㅅㅓ -3604
ㅇㅏㄴㄱㅜㄴ -3605
▁ㅈㅡㅇㅇㅓㄴ -3606
▁1934 -3607
▁ㅁㅣㄹㄹㅏ -3608
▁ㄴㅡㄱ -3609
▁cod -3610
▁ㅂㅔㄹㄹㅏ -3611
▁th -3612
▁130 -3613
ㅎㅏㅂㅁㅜㄹ -3614
▁ㄴㅗㄹㅇㅣ -3615
▁De -3616
▁ㅎㅕㅇㅅㅏㅇ -3617
ㅇㅑㅇㄱㅜㄴ -3618
▁ㅎㅡㄴㅈㅓㄱ -3619
▁ㄹㅏㄹ -3620
▁ㄷㅗㅇㄱㅜ -3621
▁ㅈㅏㅇㄹㅗ -3622
▁ㄱㅜㄱㅂㅏㅇㅂㅜ -3623
▁ㅍㅕㄴㅇㅢ -3624
▁ㅊㅓㄹㄱㅓ -3625
▁ㅇㅏㄴㅉㅗㄱ -3626
OR -3627
▁ㄱㅡㄹㄹㅣ -3628
▁ㅎㅗㄴㅈㅏ -3629
▁ㅈㅓㅂㅅㅗㄱ -3630
ne -3631
▁140 -3632
ㅍㅕㅇㄱㅏ -3633
▁ㅈㅜㅇㄷㅗㅇ -3634
ㄹㅐㄴㅅㅡ -3635
ㄷㅡㄹㄹㅣ -3636
▁ㅇㅐㄱㅊㅔ -3637
ㅋㅗㅅ -3638
▁ㅇㅣㅂㄱㅜ -3639
▁ㅇㅓㅇ -3640
ㄴㅓㄴ -3641
▁Sh -3642
▁ㅈㅓㅇㅈㅗ -3643
▁ㄹㅜㅁ -3644
▁ㅌㅔㄹ -3645
▁ㅇㅏㄹㄹㅔㄱㅅㅏㄴㄷㅓ -3646
▁ㅈㅐㅇ -3647
ㅎㅔㄹ -3648
▁ST -3649
▁ㄷㅏㅇㄷㅐ -3650
▁ㄱㅘㅇㅅㅏㄴ -3651
▁ㅈㅓㅇㅌㅗㅇ -3652
▁Me -3653
▁ㅎㅕㄴㅈㅗㄴ -3654
▁ㅈㅏㅇㄹㅖ -3655
ㅍㅗㄹ -3656
▁ㅁㅓㅁ -3657
▁ㄴㅗㅇㅈㅏㅇ -3658
▁ㅂㅏㄹㅈㅓㄴㅅㅗ -3659
▁ㄱㅗㄴㅊㅜㅇ -3660
AM -3661
▁ㅂㅗㄱㅅㅏ -3662
ㅁㅜㄱ -3663
ㄱㅗㅇㅇㅓㅂ -3664
▁ㄱㅡㄴㅇㅠㄱ -3665
▁ㅈㅜㄹㄹㅣ -3666
▁ㄷㅏㄴㅅㅜㄴㅎㅣ -3667
▁ㅈㅜㅇㅅㅓㅇ -3668
ㅇㅠㄱㄱㅘㄴ -3669
▁ㅎㅏㄴㅅㅓㅇ -3670
▁ㅎㅏㅂㄷㅗㅇ -3671
▁ㄷㅏㄱㅌㅓ -3672
▁ㅅㅓㅇㅅㅓ -3673
▁ㅆㅏㅎㅇㅣ -3674
▁ㄱㅡㅁㄱㅏㅇ -3675
▁ㅂㅓㅂㅇㅏㄴ -3676
▁ㅇㅕㄴㅎㅗ -3677
▁1931 -3678
▁ㅂㅐㄴ -3679
▁ㅊㅜㅇㅂㅜㄴㅎㅣ -3680
▁ㅎㅕㄹㅇㅐㄱ -3681
▁ㅍㅏㄴㅈㅓㅇ -3682
▁ㅂㅏㄴㅎㅏ -3683
▁ㅈㅣㄱㅁㅜ -3684
▁ㅈㅜㅇㅈㅣ -3685
▁ㄱㅏㅇㄷㅗ -3686
▁ㅂㅐㅁ -3687
▁ㅌㅡㅁ -3688
▁ㄷㅏㅇㅅㅣㄴ -3689
▁ㅈㅓㅇㅎㅘㄱㅎㅣ -3690
▁ㅂㅗㄴㅌㅗ -3691
▁ㄴㅣㄹ -3692
▁ㅁㅕㄹㅈㅗㅇ -3693
▁ㄱㅏㅇㄷㅡㅇ -3694
▁ㅇㅕㄴㅍㅕㅇㄱㅠㄴ -3695
▁ㅈㅜㅇㄱㅖ -3696
▁y -3697
all -3698
▁ㄱㅣㅁㄱㅜ -3699
▁ㅈㅠ -3700
▁ㅂㅜㄱㅁㅣ -3701
▁ㅍㅔㄹㄹㅣ -3702
▁ㅈㅡㅇㄱㅝㄴ -3703
▁ㄱㅗㄹㅋㅣ -3704
▁ㅅㅣㄹㅇㅓㅂ -3705
▁ㄹㅑ -3706
ㅇㅑㅇㅊㅔ -3707
▁ㅂㅗㅇㄱㅣ -3708
ㅋㅣㅅ -3709
▁ㅇㅓㅁㄱㅕㄱ -3710
ㅘㄴ -3711
▁ㅂㅡㄹㄹㅗ -3712
▁ㄱㅐㄹㄹㅓㄱ -3713
ㄱㅏㅌ -3714
▁ㅇㅏㄴㄴㅐ -3715
▁An -3716
ㄱㅜㄱㅇㅓ -3717
▁05 -3718
ㄹㅣㄴㅅㅡ -3719
▁ㄷㅏㄴㅅㅓㄴ -3720
▁ㄱㅓㄷ -3721
▁ㅅㅜㄱㅈㅗㅇ -3722
ㄹㅡㄴㅂㅏ -3723
▁ㅁㅗㄱㅍㅗ -3724
ㄷㅣㄱ -3725
▁ㅅㅓㄴㅁㅜㄹ -3726
▁ㅁㅗㄹㅇㅏ -3727
▁ㅈㅣㄴㅅㅣㄹ -3728
ang -3729
▁ㅌㅡㄱㅎㅓ -3730
▁ㄱㅏㄴㄱㅕㄱ -3731
▁ㄱㅐㄹㄹㅓㄱㅅㅣ -3732
ㅂㅐㅇ -3733
▁ㄷㅗㅁ -3734
ㅌㅗㄱ -3735
▁ㅊㅓㄹㅎㅏㄱㅈㅏ -3736
ss -3737
ㅂㅕㅂ -3738
ㅋㅔㄹ -3739
ㄷㅗㄹㅍㅡ -3740
▁ㅇㅣㄹㄱㅗㅂ -3741
▁ㅇㅜㄴㄷㅗㅇㄱㅏ -3742
▁ㅁㅗㅁㅁㅜ -3743
▁ㅌㅗㄹ -3744
▁ㅇㅣㅂㅅㅏ -3745
▁176 -3746
▁1929 -3747
▁codice -3748
▁ㅇㅣㄹㄹㅔ -3749
▁ㅍㅓㄹ -3750
ㅅㅏㄴㄱㅜㄴ -3751
▁ㅈㅗㅇㅈㅓㄴ -3752
▁ㅈㅓㄴㅈㅔ -3753
ㄹㅕㅅ -3754
▁1921 -3755
ㄴㅓㄹㄷㅡ -3756
▁07 -3757
▁ㅅㅏㅁㄱㅏㄱ -3758
▁ㅎㅐㅁ -3759
▁ㅁㅏㅌㄱㅣ -3760
ㅎㅏㄴㅈㅔ -3761
▁ㅇㅑㅇㄱㅜㄱ -3762
ity -3763
▁ㅇㅑㄴ -3764
▁ㅇㅏㄹㅍㅡ -3765
▁ㅇㅑㅇㅈㅜ -3766
▁250 -3767
▁ㅌㅡㄱㅂㅕㄹㅎㅣ -3768
▁ㅎㅞ -3769
▁ㅇㅣㄴㅁㅣㄴㄱㅜㄴ -3770
▁ㅂㅜㄹㄹㅓ -3771
ㄷㅜㅇㅇㅣ -3772
▁ㅅㅐㅇㅇㅐ -3773
▁1925 -3774
ㅅㅡㅇㅈㅏ -3775
▁ㅎㅏㅇㅎㅐ -3776
▁SC -3777
▁ㅁㅐㄴㅊㅔ -3778
▁ㅎㅑㅇㅌㅗ -3779
▁ㅈㅗㄴㅅㅡㄴ -3780
▁ㅌㅏㅅ -3781
ㅅㅚ -3782
▁ㄷㅏㄻ -3783
▁ㅁㅕㅇㅅㅣ -3784
▁ㅍㅣㄹㄹㅏ -3785
▁ㅎㅏㄹㄹㅣ -3786
▁ㅌㅔㄱㅅㅡ -3787
ㅉㅏㄱ -3788
▁ㅂㅡㄹㄹㅔ -3789
▁ㅁㅓㅁㅊㅜ -3790
ㅅㅏㅇㅅㅣㄱ -3791
▁ㅅㅣㄱㄹㅑㅇ -3792
▁1923 -3793
▁ㅇㅣㄹㄷㅏㄴ -3794
▁ㅂㅜㄴㅅㅏㄴ -3795
▁ㄴㅗㅇㅊㅗㄴ -3796
ㅈㅏㅇㄱㅜㄴ -3797
▁ㅋㅐㅁㅍㅡ -3798
▁ㅈㅓㄱㅇㅓ -3799
▁ㄱㅗㅇㄹㅛㅇ -3800
▁ㄱㅕㅇㄱㅗ -3801
▁ㅈㅏㅇㅈㅓㅁ -3802
ㄱㅘㄴㅊㅏ -3803
▁ㅅㅓㄱㅂㅏㅇ -3804
▁ㄱㅗㅁ -3805
ㅇㅓㄴㅅㅡ -3806
ㅇㅣㄹㅂㅗㄴ -3807
▁ㅈㅣㄴㅎㅡㅇ -3808
▁ㅊㅏㄱㅇㅛㅇ -3809
▁ㅋㅗㄹㄹㅗㅁㅂㅣ -3810
▁ㄷㅏㅇㅅㅏ -3811
▁ㅂㅜㄱㄱㅡㄱ -3812
▁ㅅㅗㄴㅎㅐ -3813
▁ㅈㅣㅂㅍㅣㄹ -3814
▁ㅇㅏㅂㅊㅜㄱ -3815
▁ㅇㅣㄹㅎㅘㄴ -3816
▁ㅅㅏㅁㄱㅏㄱㅎㅕㅇ -3817
▁ㅇㅠㄴㅊㅣ -3818
ff -3819
▁ㅁㅣㄴㅅㅗㄱ -3820
▁AC -3821
ㄴㅜㄱㅅㅡ -3822
▁ㅂㅏㄱㅅㅡ -3823
▁ㅎㅗㄹㄹㅗ -3824
▁ㄱㅗㅇㄱㅜㄱ -3825
▁ㅍㅣㄹㄹㅡㅁ -3826
▁ㅇㅣㄴㅊㅓㄴㄱㅘㅇㅇㅕㄱㅅㅣ -3827
ㅌㅏㄹㄹㅣㄴ -3828
▁ㄷㅗㄱㅈㅓㅁ -3829
▁ㅌㅣㄱ -3830
ㅇㅓㄴㅊㅡ -3831
▁ㅁㅕㅇㅅㅏ -3832
▁ㅅㅓㅇㅆㅣ -3833
ㅎㅐㅇㅅㅓㅇ -3834
▁ㅈㅗㅇㄹㅗ -3835
▁ㄹㅗㅁ -3836
▁ㅇㅝㄴㅈㅗ -3837
ㅂㅏㄴㄱㅣ -3838
▁ㄷㅗㅇㅇㅣㄹㅂㅗㄴ -3839
▁ㅂㅜㄹㅎㅘ -3840
▁ㄲㅜㄴ -3841
▁de -3842
▁ㅈㅜㅇㄱㅜ -3843
▁ㄷㅔㄹ -3844
▁ㅇㅣㄹㅇㅛ -3845
▁ㅎㅕㅂㅇㅑㄱ -3846
▁ㄱㅏㅇㅇㅛ -3847
▁ㄱㅓㄴㄷㅏㅁ -3848
ㅋㅔㄴ -3849
ㅎㅑㅇㄱㅗㄱ -3850
▁ㅊㅣㄱ -3851
▁ㅇㅑㄱㅎㅘ -3852
▁ㄱㅏㅁㅇㅗㄱ -3853
▁ㅁㅜㄴㅇㅣㄴ -3854
▁ㄷㅏㄴㅈㅏㅇ -3855
▁ㅅㅗㅇㄹㅏ -3856
▁ㅅㅓㅁㅇㅠ -3857
▁ㅇㅕㄴㄱㅖ -3858
▁ㄱㅏㅇㅈㅓㄴ -3859
▁ㅊㅓㅇㄷㅗㅇ -3860
▁ㄷㅗㅇㅂㅏㄴ -3861
ㄹㅓㄴㅅㅡ -3862
▁ㅍㅡㄹㄹㅓ -3863
▁ㄱㅡㄹㅆㅣ -3864
▁EP -3865
▁ㅁㅗㄱㅈㅗ -3866
▁161 -3867
▁1922 -3868
▁ㅅㅞ -3869
▁ㅎㅡㄹ -3870
up -3871
▁ㅊㅔㄴ -3872
▁ㄱㅕㅁㅎㅏ -3873
ㅋㅡㄹㄹㅣㄴ -3874
ㅅㅓㅇㄱㅣ -3875
▁ㅊㅓㅅㅉㅐ -3876
ㄹㅔㅅ -3877
ㅁㅔㄴㅌㅡ -3878
▁My -3879
▁1912 -3880
▁ㅁㅜㄴㅂㅓㅂ -3881
▁ㄸㅏㄱ -3882
▁ㅎㅏㄴㄴㅏ -3883
▁ㅇㅝㄴㅈㅏㅇ -3884
ㅅㅓㄹㄱㅏ -3885
▁ㅈㅏㅇㄱㅏㅂ -3886
ㅌㅗㅇㅎㅏㄱㄱㅛ -3887
▁ㅇㅕㄴㅅㅏㅇ -3888
▁ㄷㅜㄴ -3889
▁175 -3890
ㅈㅓㄴㄱㅓ -3891
▁ㄱㅏㅇㅅㅜ -3892
▁ㅈㅜㄴㅇㅜ -3893
▁06 -3894
▁ㄲㅗㅂㅎㅣ -3895
▁ㅇㅣㅁㅅㅣㄴ -3896
▁Go -3897
▁ㄴㅡㄱㄷㅐ -3898
▁ㅇㅞㄹ -3899
▁ㄷㅗㅇㅅㅓㅇㅇㅐ -3900
▁ㅇㅕㄱㅈㅓㄴ -3901
ong -3902
▁ㄱㅐㅇ -3903
▁ㄱㅘㄴㄱㅐㄱ -3904
▁ㄱㅓㄴㅊㅜㄱㅁㅜㄹ -3905
▁ㅅㅓㅇㅁㅕㅇ -3906
▁03 -3907
▁ㅈㅏㅁㅈㅐ -3908
▁ㅁㅗㄱㅅㅜㅁ -3909
▁ㅍㅕㅇㄹㅗㄴㄱㅏ -3910
▁ㄷㅗㅇㅇㅣㄴ -3911
▁ㅁㅏㅇㅇㅝㄴㄱㅕㅇ -3912
ip -3913
▁"" -3914
▁JR -3915
▁ㅋㅐㅂ -3916
▁1906 -3917
▁ㅈㅣㄱㅅㅓㄴ -3918
▁ㅅㅏㄴㅌㅏ -3919
▁ㅅㅓㄱㅈㅗ -3920
▁ㄷㅙ -3921
▁ㅂㅗㄱㄱㅜ -3922
▁ㄴㅏㅁㄷㅗㅇㅉㅗㄱ -3923
ㅁㅔㄴㅌㅓ -3924
OM -3925
▁ㅈㅓㅇㅈㅏ -3926
▁ㄹㅐㅇㅋㅣㅇ -3927
▁ㅊㅜㅇㅈㅜ -3928
▁1908 -3929
▁|| -3930
▁ㅇㅕㅂ -3931
ㅁㅏㅇㅊㅣ -3932
▁ㅂㅕㄴㅅㅣㄴ -3933
▁ㅈㅣㄴㄷㅗㅇ -3934
▁164 -3935
▁ㅎㅘㅇㅌㅐ -3936
▁ㅅㅓㄹㅂㅣ -3937
ㄹㅡㅅ -3938
▁ㅇㅕㅇㄱㅘㅇ -3939
ㅊㅓㅁ -3940
▁ㅇㅕㅇㅈㅗ -3941
IS -3942
▁ㅁㅗㄴㅌㅔ -3943
ld -3944
▁ㄱㅡㄴㄹㅗ -3945
▁ㄱㅕㅇㅇㅠ -3946
▁ㅅㅏㄱㅈㅔ -3947
ㅁㅏㅈ -3948
▁ㅉㅡㅁ -3949
▁Love -3950
▁ㅎㅏㅂㄹㅣ -3951
▁ㅈㅜㅇㄹㅣㅂ -3952
▁ㅍㅕㅇㅅㅐㅇ -3953
▁ㅎㅜㄹㄹㅠㅇ -3954
▁KT -3955
▁ㅂㅜㄱㄷㅗㅇㅉㅗㄱ -3956
▁ㄹㅓㄱ -3957
ㄷㅗㅇㅅㅏㄴ -3958
▁ㄱㅡㄱㅂㅗㄱ -3959
▁ㅂㅏㄹㄹㅔㄴ -3960
▁ㅇㅕㅇㄱㅏㅁ -3961
▁ㄱㅗㅇㄱㅕㄱㅅㅜ -3962
ㅅㅐㅇㅁㅜㄹ -3963
▁ㅈㅏㅇㅅㅏ -3964
ㅅㅓㄴㅇㅣㄴ -3965
▁ㅇㅑㄱㅌㅏㄹ -3966
▁ㅁㅜㄴㅎㅏ -3967
▁ㅊㅓㅇㅎㅏ -3968
▁ㅂㅣㅅ -3969
▁ㅅㅓㅇㅈㅣㄱㅈㅏ -3970
av -3971
▁1927 -3972
▁ㄷㅗㅇㅅㅏ -3973
▁1907 -3974
▁ㅈㅜㅇㅅㅣ -3975
▁ㅅㅏㄴㅇㅏㄱ -3976
▁SM -3977
▁ㄱㅗㅇㅅㅔ -3978
▁ㅊㅏㅇㄱㅏㄴ -3979
▁ㅇㅘㅇㄱㅏ -3980
ㄷㅗㄹㄹㅣ -3981
▁ㅇㅕㄴㅅㅗ -3982
▁ㅇㅕㄴㄹㅕㅇ -3983
ant -3984
ㅁㅣㄱㅅㅡ -3985
ㅈㅜㅇㅎㅐ -3986
▁ㅅㅏㄴㅈㅣ -3987
▁ㅇㅕㄱㄱㅘ -3988
ㅁㅏㄹㄹㅣ -3989
▁ㅌㅗㅇㄹㅗ -3990
ㄴㅏㄱ -3991
ㅇㅕㅇㅅㅏㅇ -3992
▁ㅈㅜㅇㅇㅏㅇㅇㅏ -3993
▁ㄱㅜㅅ -3994
▁ㅇㅣㄴㅈㅏ -3995
ㄹㅣㄱㅅㅡ -3996
ED -3997
▁BBC -3998
▁ㄷㅓㄱㅂㅜㄴ -3999
▁ㅅㅏㅂㅇㅣㅂ -4000
se -4001
ㅌㅔㄴㄷㅗ -4002
▁ㅍㅗㄱㅍㅜㅇ -4003
ame -4004
▁ㅂㅏㄹㅎㅟ -4005
▁ㄸㅗㄱㄱㅏㅌ -4006
▁ㅂㅏㄱㄱㅡㄴ -4007
▁ㄴㅣㄴㅌㅔㄴㄷㅗ -4008
AC -4009
▁NHK -4010
ㄹㅡㅍ -4011
▁ㅈㅛ -4012
▁1917 -4013
▁1926 -4014
▁He -4015
▁ㅂㅐㅇㅋㅡ -4016
▁ㅁㅕㅇㅁㅜㄴ -4017
▁ㅌㅏㅁㅎㅓㅁ -4018
▁ㅎㅡㄺ -4019
▁ㅋㅗㅇㄱㅗ -4020
▁ㅇㅕㅇㅎㅗㄴ -4021
ㅇㅜㄹㄹㅣ -4022
▁ㅈㅣㄱㅇㅟ -4023
▁ㅈㅓㄴㅈㅏㄱ -4024
▁ㅎㅏㅇㅁㅗㄱ -4025
▁ㄷㅗㄹㅍㅏ -4026
▁ㅊㅏㅁㅈㅗ -4027
▁ㅎㅏㅂㄱㅖ -4028
ㄷㅜㄹ -4029
ㅂㅔㅅ -4030
ㅇㅔㄹㄹㅏ -4031
▁ㄴㅏㅂㅊㅣ -4032
▁ㄷㅗㅇㅊㅣ -4033
ㅅㅡㄹㄹㅗ -4034
▁ㅇㅣㄴㄹㅕㄱ -4035
▁ㅈㅓㄴㅎㅑㅇ -4036
ㅇㅕㄴㅅㅜ -4037
ind -4038
▁MV -4039
▁ㅇㅘㅇㄹㅣㅂ -4040
ort -4041
▁SN -4042
▁ㅇㅓㅄㅇㅐ -4043
▁ㅅㅏㅇㅇㅕㅇ -4044
▁ㅈㅗㅇㅈㅗㄱ -4045
▁ㄷㅗㄱㅇㅣㄹㅇㅓ -4046
▁ㅂㅟ -4047
▁ㅇㅠㄱㅅㅓㅇ -4048
ith -4049
▁ㅈㅓㅇㅅㅏ -4050
▁ㄱㅏㄱㅈㅏ -4051
ㅁㅗㄴㄷㅡ -4052
▁PD -4053
▁ㅌㅡㄱㄱㅡㅂ -4054
▁ㅈㅣㄴㅅㅜㄹ -4055
▁ㄱㅜㄱㅁㅣㄴㄷㅏㅇ -4056
ㄹㅐㅇㅋㅡ -4057
▁ㅊㅣㅁㅎㅐ -4058
▁ㅇㅐㄹㄹㅣ -4059
▁ㅇㅡㅁㅁㅗ -4060
▁ㄷㅗㅇㄴㅏㅁㅇㅏ -4061
ry -4062
▁02 -4063
ㄴㅏㅇ -4064
ES -4065
▁ㅇㅝㄴㅅㅏㄴ -4066
▁ㅍㅡㄹㄹㅜ -4067
▁ㅅㅐㄱㅅㅏㅇ -4068
▁ㄱㅕㄹㅅㅣㅁ -4069
▁ㅅㅏㅇㅁㅜ -4070
ok -4071
▁151 -4072
ㅇㅝㄴㄱㅜㄱ -4073
▁ㅎㅑㅇㄴㅕㄴ -4074
▁162 -4075
▁Sp -4076
▁ㅇㅏㄹㄹㅏ -4077
▁ㅇㅐㄹㄹㅓㄴ -4078
ㅌㅔㄱ -4079
▁ㅇㅐㅂ -4080
ㅂㅓㅂㅇㅝㄴ -4081
▁168 -4082
▁ㅅㅓㄱㅌㅏㅂ -4083
▁1905 -4084
ㅇㅓㄴㅌㅡ -4085
▁ㄷㅏㄴㅎㅐㅇ -4086
▁ㄹㅣㅇㅋㅡ -4087
▁ㅈㅓㄱㅇㅡㅇ -4088
▁166 -4089
▁158 -4090
▁ㅁㅜㄷㅎㅣ -4091
▁ㅂㅕㄹㄹㅗ -4092
▁ㄱㅘㅇㅇㅕㄱ -4093
ㅇㅕㄱㄱㅜ -4094
▁ㅇㅏㅂㄷㅗ -4095
▁ㅈㅓㅇㅅㅓ -4096
ㅂㅏㄹㅈㅏ -4097
▁ㅎㅗㅁㅍㅔ -4098
▁ㄱㅏㄴㅅㅓㅂ -4099
▁ㅍㅜㅁㅈㅣㄹ -4100
▁ㅈㅓㄴㅅㅡㅇ -4101
▁ㄷㅏㄴㅊㅡㅇ -4102
ㅊㅗㅇㅈㅏㅇ -4103
▁ㄹㅣㅁ -4104
ㄱㅡㄹㄹㅏ -4105
▁ㅈㅣㄴㄷㅗ -4106
▁ㅁㅜㄴㄱㅘ -4107
▁ㅈㅡㅇㄱㅣ -4108
▁ㅅㅏㅇㅅㅗ -4109
▁ㄱㅡㅂㅎㅐㅇ -4110
ㅁㅐㅅ -4111
▁1904 -4112
ㄹㅗㄹㄹㅏ -4113
▁ㅁㅜㄴㅈㅐ -4114
▁ㅇㅓㅁㅁㅏ -4115
▁ㄷㅗㅇㅇㅕㅇㅅㅏㅇ -4116
▁ㅅㅣㅀ -4117
▁ㄹㅣㄱ -4118
▁ㅇㅣㅂㅁㅜㄴ -4119
▁ㅊㅜㄹㅎㅕㄴ -4120
ord -4121
▁ㄹㅔㄴㅈㅡ -4122
▁Un -4123
▁ㄱㅜㄷ -4124
▁ㅂㅏㄱㄱㅡㄴㅎㅖ -4125
▁ㅊㅔㄹ -4126
▁ㅅㅐㄱㄲㅏㄹ -4127
ㅇㅜㄴㅌㅡ -4128
ㅇㅣㄴㄹㅣ -4129
▁ㅁㅗㄴㅌㅡ -4130
ㄲㅓ -4131
ate -4132
▁ㄱㅘㄴㅈㅏㅇ -4133
▁ㅅㅏㅇㅊㅓ -4134
▁ㅊㅣㅂ -4135
▁ㅁㅜㄹㄹㅕ -4136
▁ㅇㅗㅇㅎㅗ -4137
▁ㅂㅏㄷㅊㅣㅁ -4138
qu -4139
▁IP -4140
▁ㅅㅔㅅㅉㅐ -4141
▁ㅎㅓㅁ -4142
▁ㄷㅗㅇㅈㅓㄴ -4143
ob -4144
▁Se -4145
ㅈㅜㄴㅎㅣ -4146
ㅊㅏㅈ -4147
▁ㄴㅔㄱ -4148
ㅅㅏㄴㄹㅣ -4149
▁ㅅㅐㄴㅍㅡ -4150
▁SF -4151
▁ㅊㅓㄹㅈㅓ -4152
▁ㄱㅙ -4153
▁165 -4154
▁ㄸㅓㄹ -4155
ㅇㅈㅏㅇ -4156
ㄱㅣㄹㅇㅣ -4157
▁ㅇㅖㅅㄴㅏㄹ -4158
▁ㅂㅏㄴㅎㅘㄴ -4159
▁Wh -4160
▁ㅅㅓㅇㅈㅜ -4161
▁ㅇㅘㅇㅈㅗㄱ -4162
▁ㄱㅘㄴㅈㅜㅇ -4163
▁ㅊㅜㄹㅍㅏㄴㅅㅏ -4164
▁ㅈㅓㄱㅅㅐㄱ -4165
▁ㅇㅏㄴㅂㅗ -4166
▁ㅁㅣㄴㅈㅗㄱㅈㅜ -4167
ㅌㅐㅇ -4168
▁ㄷㅐㄴ -4169
▁ㅈㅣㄴㅈㅣ -4170
▁ㄹㅚ -4171
ㅁㅣㄱ -4172
▁154 -4173
▁156 -4174
▁ㅍㅗㄱㅅㅡ -4175
▁ㅅㅓㄴㅈㅣㄴ -4176
▁ㅅㅣㄴㅂㅣ -4177
IC -4178
▁ㅈㅓㅁㅅㅓㅇ -4179
ㄹㅓㅁㅂㅣ -4180
▁ㅍㅜㅇㅅㅗㄱ -4181
▁ㅇㅕㄴㄱㅡㅁ -4182
▁ㅂㅗㄱㅈㅔ -4183
ㅁㅜㄴㅎㅏㄱ -4184
▁163 -4185
▁ㅇㅕㄴㅇㅐ -4186
▁ㅎㅏㄴㅇㅑㅇ -4187
▁ㄹㅜㄱ -4188
▁ㅊㅜㅇㄴㅏㅁ -4189
▁ㅊㅜㄹㅅㅏㄴ -4190
▁ㅁㅗㅁㄱㅣㄹㅇㅣ -4191
▁ㅂㅓㄴㅈㅜ -4192
▁ㅎㅏㅂㅈㅏㄱ -4193
▁ㅇㅝㄴㄹㅗ -4194
▁ㅈㅣㄱㅈㅏㅇ -4195
▁ㅂㅜㄴㅈㅣ -4196
ㄹㅓㅁㅍㅡ -4197
▁167 -4198
▁ㅅㅓㄴㅅㅏ -4199
ㅈㅡㄹ -4200
ㄹㅏㅇㅇㅣ -4201
▁ㅈㅏㅇㅍㅕㄴ -4202
▁ㅎㅡㅇㅁㅣ -4203
ㅅㅏㄴㅁㅕㄴ -4204
▁ㅎㅏㅇㅇㅣㄹ -4205
▁ㅇㅜㄴㅂㅏㄴ -4206
▁DJ -4207
▁139 -4208
▁AM -4209
▁ㅇㅜㄴㅁㅕㅇ -4210
ㅍㅡㄹㄹㅓ -4211
▁AS -4212
▁ㅁㅗㄱㄱㅕㄱ -4213
▁ㄴㅏㅌ -4214
ast -4215
▁ㅂㅏㄹㅎㅛ -4216
ET -4217
▁ㅇㅣㄴㅊㅣ -4218
▁900 -4219
ㅈㅗㄹ -4220
▁ㄸㅜㅀ -4221
ㅋㅣㄴㅅㅡ -4222
▁ㄱㅘㄴㄱㅘㅇㄱㅐㄱ -4223
▁ㄱㅣㄴㄱㅡㅂ -4224
▁ㅅㅡㅇㅁㅜ -4225
▁ㅇㅏㄱㅈㅏㅇ -4226
▁ㅇㅡㅇㅇㅜ -4227
ㅅㅏㄹㄹㅔㅁ -4228
▁ㅅㅣㄴㅎㅏ -4229
▁ㅅㅓㅇㅈㅗㅇ -4230
▁ㅍㅕㅇㅅㅗ -4231
▁DS -4232
▁ㅅㅑㅇ -4233
ㅓㅂㅈㅣㄹ -4234
▁ㅅㅏㅇㅇㅣㅁ -4235
▁ㅊㅏㄱㄹㅠㄱ -4236
ㅋㅙ -4237
▁ㅂㅏㅇㅇㅏㄴ -4238
▁ㅇㅛㅇㄹㅑㅇ -4239
▁ㄹㅕㄴ -4240
▁145 -4241
▁ㅂㅜㄴㅂㅐ -4242
▁ㅈㅜㅇㄱㅜㄱㅇㅓ -4243
▁ㅈㅣㄴㅅㅏㅇ -4244
if -4245
ㄴㅣㄹ -4246
ㅈㅏㅂㅇㅣ -4247
▁ㅅㅣㄴㅇㅛㅇ -4248
ㅈㅏㅂㅎㅣ -4249
▁ㅂㅏㄹㅈㅗㄱ -4250
▁ㅇㅝㄹㄱㅏㄴ -4251
ㄱㅕㅇㄱㅣ -4252
▁ㄱㅝㄴㄱㅗ -4253
▁ㅈㅣㄴㄴㅏ -4254
▁ㅃㅏㄹㄹㅣ -4255
▁ㅊㅐㄹㄹㅣㄴ -4256
ure -4257
▁ㅌㅔㅁ -4258
▁ㅌㅣㅇ -4259
▁ㅇㅛㅇㄱㅣ -4260
PS -4261
▁ㅂㅗㄱㅅㅗ -4262
ㅅㅗㅇㅂㅓㅂ -4263
▁ㄷㅏㄴㅈㅗㅇ -4264
▁ㄱㅕㅂㅊㅣ -4265
ㄱㅣㅁ -4266
▁ㄱㅗㅇㅇㅛㅇ -4267
▁1896 -4268
ㄹㅏㄴㅌㅡ -4269
▁ㄱㅗㄷㅂㅏ -4270
▁ㅈㅓㅇㄱㅖ -4271
ㅁㅜㄴㄱㅘㄴ -4272
ㅅㅣㄱㅁㅜㄹ -4273
▁ㅅㅓㄴㅈㅔ -4274
AD -4275
▁ㅆㅜ -4276
▁ㅇㅓㅂㄷㅔ -4277
▁ㅇㅣㅁㅅㅏㅇ -4278
▁ㄱㅗㅇㄱㅘ -4279
▁ㅇㅛㅇㅅㅏㄴ -4280
ㅅㅡㄹㄹㅣㅁ -4281
▁UN -4282
▁ㅊㅣㄴㅈㅓㅇ -4283
▁ㄴㅗㅇㄷㅗ -4284
IT -4285
ㅅㅠㅁ -4286
ㅇㅗㄹㄹㅣㄴ -4287
ㅍㅐㅇ -4288
ㄹㅔㄴㅊㅔ -4289
▁ㅅㅓㅇㄱㅗㅇㅎㅚ -4290
ㄸㅡㅅ -4291
▁ㅊㅣㄴㅅㅓㄴ -4292
▁ㅇㅣㄹㅎㅐㅇ -4293
ㅇㅜㄹㅅㅣ -4294
▁ㅈㅓㄴㅈㅣ -4295
▁ㅈㅓㄴㅇㅕㅁ -4296
ㅇㅓㅂㄱㅏ -4297
ack -4298
▁ㅍㅕㅇㅇㅢ -4299
iv -4300
ive -4301
▁ㅊㅏㅁㅇㅢ -4302
▁ㅅㅣㄴㅇㅣㅁ -4303
▁ㄱㅏㅇㅇㅕㄴ -4304
ㄷㅓㄼ -4305
ㅇㅜㄴㅅㅓ -4306
▁ㅎㅕㅇㅂㅓㅂ -4307
▁ㅈㅓㄴㅇㅣ -4308
▁j -4309
▁ㅋㅔㄹ -4310
▁ㅅㅣㄱㅅㅏ -4311
▁ㅇㅣㅂㅈㅡㅇ -4312
▁ㅋㅚ -4313
▁ㄱㅗㅇㅈㅓㄴ -4314
▁ㅁㅣㄹㅈㅓㅂ -4315
ㅃㅕ -4316
ock -4317
▁ㅇㅣㅂㅎㅣ -4318
▁ㅇㅓㅆㅇㅓㅆ -4319
▁ㅂㅓㄴㄴㅚ -4320
▁ㅈㅜㅇㄷㅗ -4321
▁ㅌㅏㅂㅅㅡㅇ -4322
▁ㅅㅣㄴㅋㅏㄴ -4323
▁Ar -4324
▁ㄴㅏㄹㄹㅣ -4325
ㅇㅗㅅ -4326
ㅇㅝㄴㅅㅜㅇㅇㅣ -4327
ㄲㅗㄹ -4328
▁ㅇㅓㄹㅇㅡㅁ -4329
▁ㅇㅕㄴㅅㅜ -4330
▁ㄱㅣㅁㄷㅗㅇ -4331
▁ㅂㅐㄱㅅㅣㄴ -4332
▁ㅈㅜㄴㄱㅗㅇ -4333
▁ㅆㅢ -4334
▁ㅇㅠㄹㄹㅣ -4335
▁ㅈㅓㄴㄷㅗ -4336
ㅇㅜㄹㄹㅓ -4337
▁ㅈㅓㄴㄹㅠ -4338
ㅇㅣㄹㄷㅡ -4339
▁ㅈㅓㅇㅂㅓㄹ -4340
▁5000 -4341
▁ㅇㅠㅇㅎㅏㅂ -4342
▁174 -4343
▁ㅎㅏㄴㄱㅏㅇ -4344
ㄱㅠㄴㄱㅘㄴ -4345
ㄱㅝㄴㅈㅏ -4346
ck -4347
▁157 -4348
▁ᆯㅅㅜ -4349
▁ㅇㅜㄹㄹㅣ -4350
ㅅㅏㅇㅎㅘ -4351
ㅂㅏㅂ -4352
▁ㄱㅡㅁㅅㅓㅇ -4353
12 -4354
▁ISO -4355
▁ㅌㅓㄴ -4356
▁ㅈㅓㄴㅇㅣㅁ -4357
▁ㅎㅐㅇㅈㅓㅇㅂㅜ -4358
▁ㅊㅜㄹㄱㅜ -4359
▁ㅅㅣㄴㅋㅏㄴㅅㅔㄴ -4360
▁ㅊㅐㄱㅂㅗㅇ -4361
▁152 -4362
▁ㄲㅗㄹ -4363
▁ㅈㅣㅌ -4364
ㅓㅇㅇㅣ -4365
▁ㄴㅏㅁㅇㅑㅇ -4366
▁ㅇㅣㄴㅌㅔㄹ -4367
▁ㄱㅕㅇㅅㅓㄴ -4368
▁ㄱㅏㄴㅈㅓㅂ -4369
▁146 -4370
▁ㅈㅓㅁㅇㅠ -4371
▁ㅁㅐㄱㅅㅡ -4372
▁ㅎㅏㄱㅍㅏ -4373
ime -4374
ㅇㅑㄴㅁㅏ -4375
▁ㅎㅏㄴㅎㅘ -4376
▁ㅈㅏㅇㅅㅓㅇ -4377
▁ㅊㅡㄱㄱㅡㄴ -4378
ㅁㅔㄹ -4379
ML -4380
ㅊㅓㅇㅈㅏ -4381
▁ㅈㅓㄴㅁㅜㄴㅎㅏㄱㄱㅛ -4382
▁ㅈㅓㅇㅊㅏㄹ -4383
▁ㄱㅜㄱㅇㅓ -4384
▁ㄷㅗㅇㅇㅟ -4385
ㅍㅐㄱㅌㅡ -4386
▁ㄱㅏㄱㅂㅗㄴㄱㅏ -4387
▁ㅈㅓㅈ -4388
▁ㅈㅜㅇㄷㅗㄱ -4389
ㅇㅏㄱㄱㅣ -4390
▁125 -4391
▁MVP -4392
▁ㅅㅓㅇㄱㅠㄴㄱㅘㄴ -4393
▁ㄹㅣㄹㄹㅣ -4394
▁MP -4395
ㅋㅗㄱ -4396
▁ㅊㅏㄱㅅㅜ -4397
▁ㅇㅕㅁㅅㅐㄱ -4398
▁ㅊㅏㄱㄱㅗㅇ -4399
▁ㅎㅏㄹㄷㅏㅇ -4400
▁ㄷㅏㅁㅂㅐ -4401
▁ㅅㅡㅇㅊㅏ -4402
▁ㅅㅜㄴㅊㅓㄴ -4403
▁ㅅㅣㄹㅈㅓㅁ -4404
▁Pro -4405
▁ㅅㅓㄱㅌㅏㄴ -4406
▁105 -4407
▁ㅂㅏㄱㅇㅕㅇ -4408
▁ㅅㅓㅇㅂㅕㄱ -4409
▁ㅌㅗㅇㅎㅐㅇ -4410
▁ㅇㅣㅈ -4411
▁ㅅㅣㄱㄷㅏㅇ -4412
▁HIV -4413
▁Le -4414
▁ㄱㅕㅌ -4415
one -4416
▁ㄱㅏㅇㅅㅏ -4417
▁ㄱㅘㄴㅊㅏㄹㅅㅏ -4418
▁ㅈㅡㅇㅎㅜ -4419
▁ㄱㅘㄴㅅㅡㅂ -4420
▁ㅇㅖㄴ -4421
▁ㄴㅏㅁㅇㅣㄴ -4422
▁ㅊㅜㄹㅇㅣㅂㄱㅜ -4423
▁ㅊㅓㅇㅅㅏ -4424
ㄹㅔㄹ -4425
▁ㅇㅘㄴㅎㅘ -4426
ㄱㅕㄹㅅㅡㅇ -4427
▁ㅅㅓㄴㄷㅜ -4428
ㄹㅔㄴㅈㅣ -4429
▁ㅇㅝㄴㄴㅏ -4430
▁ㅎㅏㅇㄱㅗㅇㅁㅗ -4431
▁ㅅㅓㄱㄱㅏ -4432
▁ㅇㅏㅂㅂㅏㄱ -4433
▁ㅊㅏㅁㅍㅏㄴ -4434
ㅇㅣㄴㅈㅣ -4435
▁ㅇㅔㄱ -4436
▁ㅈㅏㅂㅇㅏ -4437
▁ㅎㅣㅁㅆㅡ -4438
▁ㅇㅏㅍㅁㅕㄴ -4439
▁1911 -4440
▁1500 -4441
ㅊㅏㄹㄱㅜ -4442
ㅇㅏㄱㄷㅏㄴ -4443
▁ㅇㅟㄹㅅㅡㄴ -4444
▁PS -4445
ㅁㅕㅇㅂㅏㄱ -4446
▁ㅅㅣㄹㅇㅛㅇ -4447
ㅁㅊㅣ -4448
▁WW -4449
▁ㄱㅝㄴㅇㅠ -4450
▁ㄱㅣㅁㅇㅛㅇ -4451
▁ㄷㅗㄱㄹㅣㅂㅇㅜㄴㄷㅗㅇㄱㅏ -4452
ㅈㅏㄴㅌㅣ -4453
AP -4454
▁ㅋㅣㄴ -4455
▁ㅈㅏㅇㅇㅣㄴ -4456
ㅎㅕㄱㅁㅕㅇ -4457
▁ㅅㅣㄴㅈㅓㄴ -4458
▁ㄷㅏㄺ -4459
ㄹㅐㄴㅅㅣ -4460
▁ㅂㅓㄴㅅㅣㄱ -4461
▁ㅂㅣㄹㅎㅔㄹ -4462
▁ㅊㅜㅇㅅㅓㅇ -4463
▁ㄱㅓㅁㅈㅡㅇ -4464
▁3000 -4465
▁ㅈㅜㅇㅈㅗㅇ -4466
▁ㄱㅗㅇㅈㅏ -4467
te -4468
▁ㄲㅡㄴ -4469
▁ㅅㅏㅇㄹㅠ -4470
▁ㅇㅑㄼ -4471
▁ㅇㅣㄴㄱㅘ -4472
▁ㄱㅕㅁㅇㅣㅁ -4473
▁ㅂㅕㄴㄷㅗㅇ -4474
▁ㅇㅣㄹㄹㅔㄱㅌㅡ -4475
▁ㄱㅘㄴㅎㅕㄴ -4476
▁153 -4477
ㅇㅜㄹㅇㅣ -4478
▁ㄱㅡㅂㅈㅣㄴ -4479
▁ㅅㅣㅁㅇㅢ -4480
▁ㅃㅜㄹ -4481
ㄹㅔㄴㅅㅡ -4482
▁ㅈㅗㄴㄱㅕㅇ -4483
▁ㅈㅓㄱㅎㅣ -4484
▁ㅎㅐㅇㅈㅣㄴ -4485
▁ㅂㅜㄱㄷㅗㅇㅂㅜ -4486
▁ㅁㅣㄴㄱㅜㄱ -4487
ㄷㅠㄹ -4488
▁ㄱㅜㄺ -4489
▁ㅎㅑㅇㄱㅛ -4490
OC -4491
▁ㄷㅏㄴㅇㅝㄴ -4492
▁ㅈㅓㄴㅈㅏㅇ -4493
▁ㅅㅜㄹㅌㅏㄴ -4494
ㅈㅏㅇㅈㅏ -4495
▁ㅈㅓㄴㅈㅣㄴ -4496
▁ㅈㅜㅇㅈㅓㅁ -4497
▁103 -4498
ㅇㅣㄴㅈㅓ -4499
▁ㅎㅘㄴㅇㅝㄴ -4500
▁ㅊㅓㄴㅁㅜㄴㅎㅏㄱ -4501
▁Con -4502
ㅈㅏㄱㅈㅏ -4503
ㅅㅈㅣ -4504
▁MC -4505
▁ㅇㅕㄴㄹㅜ -4506
▁ㅍㅕㄴㄱㅗㄱ -4507
▁ㅊㅓㄴㅅㅏ -4508
ㅅㅓㅇㅈㅓㄴ -4509
▁ㅂㅏㅌ -4510
▁ㅇㅕㅇㄷㅗㅇ -4511
ㅈㅣㅂㅎㅏㅂ -4512
▁ㅁㅗㄹㄹㅏㄱ -4513
▁ㅇㅕㄴㅇㅣㄴ -4514
ㄹㅡㄱ -4515
▁155 -4516
▁108 -4517
io -4518
▁Bo -4519
ㄷㅔㄹㅍㅣ -4520
▁ㅊㅜㅇㅈㅗㄱ -4521
▁IT -4522
▁ㅈㅓㅁㅍㅡ -4523
▁# -4524
ㅂㅐㄱㄱㅘ -4525
▁ㅂㅕㄹㅈㅏ -4526
ㄷㅗㅇㅁㅜㄹ -4527
▁ㄴㅏㄹㅇㅏ -4528
▁ㅇㅡㅇㄷㅏㅂ -4529
▁ㅈㅜㅇㅈㅏㅇ -4530
ㄴㅔㄴ -4531
▁ㅎㅡㅇㅎㅐㅇ -4532
▁ㅅㅙ -4533
▁ㅌㅐㅇ -4534
ㅁㅏㄴㄷㅜ -4535
▁ㅅㅓㅇㅈㅓㄴ -4536
▁ㅇㅣㄴㅎㅕㅇ -4537
▁ㅍㅕㅇㅎㅐㅇ -4538
▁ㅎㅡㅌ -4539
▁ㅎㅣㄴㄷㅜ -4540
age -4541
▁ㅊㅕ -4542
▁128 -4543
ㅇㅝㄴㅅㅣ -4544
▁ㅇㅏㄱㅁㅏ -4545
▁$ -4546
▁ㅇㅣㄴㅌㅔ -4547
▁ㄱㅗㅇㅇㅣㄴ -4548
ber -4549
▁ㅅㅐㅇㅇㅣㄹ -4550
▁ㄷㅏㄹㅇㅏ -4551
▁ㅁㅐㅂ -4552
▁ㅋㅓㅁㅍㅓ -4553
▁ㄷㅡㄹㄹㅣ -4554
ㅇㅛㅇㅅㅗ -4555
ㅊㅐㄱㅈㅓㅁ -4556
▁ㅂㅣㄹㅎㅔㄹㄹㅡㅁ -4557
▁ㅅㅓㅇㅁㅗ -4558
▁ㅁㅣㄴㅇㅕㅇ -4559
▁ㅋㅗㄹㄹㅏ -4560
sp -4561
ㅍㅐㄴ -4562
▁ㅂㅏㄹㅇㅝㄴ -4563
iz -4564
▁ㅇㅏㄴㅈㅏㅇ -4565
▁ㅎㅘㄴㅅㅏㅇ -4566
▁ㅌㅖㄴ -4567
▁ㄱㅡㄴㅈㅓㅂ -4568
▁1909 -4569
▁ㅇㅕㄴㄷㅗ -4570
▁ㄱㅗㅅㄱㅗㅅ -4571
▁ㅊㅣㄴㅊㅓㄱ -4572
▁ㅈㅓㄱㄷㅐ -4573
ㅍㅏㅇ -4574
▁ㅁㅣㄴㅅㅏ -4575
▁ㅈㅓㄴㄷㅜ -4576
▁ㅇㅕㄱㅁㅕㅇ -4577
▁ㅂㅕㄹㄱㅐ -4578
▁ㅌㅡㄱㅇㅠ -4579
▁ㅋㅘ -4580
ㄱㅡㄹㄹㅣ -4581
▁ㅅㅏㅇㅈㅏ -4582
▁ㅇㅕㄴㅅㅔ -4583
▁102 -4584
▁ㅈㅣㄴㄹㅣ -4585
ㄹㅏㅁㅎㅚ -4586
▁ㄱㅏㅁㅈㅣ -4587
ㅈㅓㄴㄷㅡ -4588
ㅋㅡㄹㄹㅏ -4589
ㅌㅡㄹㅈㅡ -4590
▁149 -4591
▁ㅎㅗㅇㅅㅜ -4592
▁ㅁㅣㄷㅇㅡㅁ -4593
▁ㄹㅜㅇ -4594
▁ㄱㅏㄱㄱㅣ -4595
▁ㄱㅓㄴㅇㅢ -4596
▁ㅂㅓㅂㄹㅕㅇ -4597
▁ㅇㅣㄹㅉㅣㄱㅇㅣ -4598
ge -4599
ㅍㅕ -4600
▁ㅊㅓㅇㅇㅘ -4601
▁ㄹㅜㄹ -4602
ㅂㅏㄷㅊㅣㅁ -4603
▁ㅅㅏㅇㅂㅜ -4604
▁ㅅㅏㅇㅅㅏㅇ -4605
ㅁㅐㄴㅅㅡ -4606
▁ㅈㅣㅂㄱㅖ -4607
DP -4608
▁ㅂㅗㄱㅈㅏㅇ -4609
ㅌㅡㄱㅂㅕㄹㅈㅏ -4610
▁ㅇㅜㄴㄷㅗㅇㅈㅏㅇ -4611
▁Bl -4612
▁ㄷㅗㅇㄷㅡㅇ -4613
ㄹㅏㅇㅍㅡ -4614
ㅈㅗㅇㅅㅏ -4615
▁ㅅㅏㄹㅍㅕ -4616
▁ㅇㅏㅇㄹㅣ -4617
▁ㄱㅏㅅ -4618
▁ㄱㅕㅇㅂㅜ -4619
▁ㄱㅓㄴㅊㅜㄱㄱㅏ -4620
▁ㅆㅗㄷ -4621
▁ㄴㅜㄴㅁㅜㄹ -4622
ㅂㅏㄱㅈㅟ -4623
▁ㅈㅓㄴㄷㅐ -4624
▁ㄷㅗㅇㄷㅏㅇ -4625
ㅅㅕㄴㅅㅡ -4626
▁ㄱㅘㄴㄴㅕㅁ -4627
ㅅㅡㄹㄹㅏㅁㄱㅛ -4628
▁CPU -4629
ㅂㅜㄴㄱㅜㄴ -4630
▁ㅈㅜㄴㄱㅕㄹㅅㅡㅇ -4631
ㅁㅓㄴㄷㅡ -4632
ㄱㅜㄱㅈㅜ -4633
▁ㄷㅜㄹㄹㅔ -4634
▁ㄱㅘㅇㄴㅕㄴ -4635
▁ㅋㅐㅁㅍㅔ -4636
▁ㅎㅘㅇㅎㅐ -4637
ㅊㅏㅇㄱㅜㄴ -4638
▁ㅈㅓㄴㄹㅖ -4639
▁ㅂㅜㄴㄱㅘㅇ -4640
▁ㅇㅣㅂㅅㅏㅇ -4641
ㅅㅏㅇㅅㅡ -4642
▁ㅋㅗㄹㄹㅔ -4643
▁ㅂㅗㄹㄹㅣ -4644
orld -4645
▁147 -4646
▁ㅅㅓㄴㅇㅝㄴ -4647
▁ㅇㅣㄴㄱㅕㄱ -4648
▁al -4649
▁ㅂㅏㄱㅌㅏㄹ -4650
▁ㅊㅏㅇㄱㅓㄴ -4651
ㅇㅏㅅㄱㅣ -4652
▁ㄱㅏㅇㄱㅘ -4653
▁ㅁㅕㅇㅇㅢ -4654
▁ㅅㅐㅇㅁㅕㅇㅊㅔ -4655
▁ㄱㅗㄹㅍㅡ -4656
ㅍㅕㅇㄱㅜㄴ -4657
▁ㄱㅗㅇㄹㅑㄱ -4658
ㅇㅓㅁㅅㅡ -4659
ㅂㅡㄹㄹㅗ -4660
ㅎㅏㅇㄱㅗㅇ -4661
▁ㅅㅏㅅ -4662
▁ㅇㅣㄹㅈㅗㄱ -4663
▁ㅌㅗㅇㅊㅣㅇ -4664
▁ㅇㅣㄹㄱㅘㄴ -4665
▁171 -4666
▁ㅅㅔㅁ -4667
▁ㅎㅟㅂ -4668
▁1915 -4669
▁ㅁㅜㄴㅇㅑㅇ -4670
▁ㄷㅗㅇㄹㅐ -4671
▁ㅅㅔㄴㅅㅓ -4672
▁ㅁㅜㄴㅎㅏㄱㅅㅏㅇ -4673
▁ㄱㅘㅇㅂㅜ -4674
ㅁㅠㄹㄹㅔ -4675
▁ㅂㅜㄱㄱㅜ -4676
▁ㅅㅓㄲㅇㅣ -4677
▁ㅇㅗㄴㅊㅓㄴ -4678
▁ㅈㅣㄱㅊㅐㄱ -4679
▁1913 -4680
▁ㅌㅏㅁㅈㅣ -4681
ㅊㅏㅇㄱㅣ -4682
ㄴㄷㅡㄹ -4683
▁ㅍㅜㅅㅂㅗㄹ -4684
▁ㅈㅜㅇㄱㅜㄱㅇㅣㄴ -4685
EN -4686
▁ㅂㅏㄹㅎㅕㄴ -4687
ik -4688
▁SP -4689
▁ㅇㅒ -4690
▁ㄹㅣㄹ -4691
▁ㅊㅓㅇㅈㅏㅇ -4692
▁ㅈㅓㄱㅈㅏ -4693
▁ㅋㅏㄹㄹㅏ -4694
▁127 -4695
▁ㅅㅓㄲ -4696
ㅂㅓㄹㄹㅔ -4697
▁ㄴㅏㅁㅎㅏㄴ -4698
▁ㅂㅓㅂㅈㅔ -4699
▁ㅊㅜㄹㅌㅗ -4700
ㄱㅗㅇㅅㅣㄴ -4701
▁GT -4702
▁141 -4703
ㅊㅣㄹㄹㅣ -4704
ㄷㅏㄷ -4705
▁ㅈㅓㅇㅁㅣㄹ -4706
ㅍㅔㄹ -4707
▁1895 -4708
▁ㄲㅚ -4709
ㅌㅡㄹㄹㅣ -4710
ㅇㅜㄴㄹㅗ -4711
▁ㄱㅡㅁㅇㅐㄱ -4712
int -4713
▁ㅎㅏㅂㅂㅓㅂ -4714
ㅂㅏㅌ -4715
ㅂㅣㅅ -4716
▁ㅇㅏㄹㅋㅗ -4717
MS -4718
▁Tr -4719
ㅅㅓㄴㄷㅐ -4720
▁ㅈㅏㅇㅁㅣ -4721
ㅇㅣㄴㅁㅕㅇㅅㅏ -4722
▁ㅊㅣㄴㅇㅣㄹㅇㅣㄴㅁㅕㅇㅅㅏ -4723
▁ㅍㅕㄹㅊㅕ -4724
ㅁㅅㅐ -4725
▁ㅎㅡㄹㄹㅓ -4726
▁ㅇㅏㄹㅂㅔ -4727
▁ㅋㅏㅁㅂㅗ -4728
ㄱㅡㄹㅅㅡ -4729
▁ㄷㅏㄴㄱㅣ -4730
▁ㅅㅗㄱㅅㅓㅇ -4731
▁ㄸㅏㄴ -4732
▁ㅅㅣㄹㅈㅗㅇ -4733
▁ㅇㅓㄴㄹㅗㄴㅇㅣㄴ -4734
▁ㄱㅜㄱㅅㅏ -4735
▁ㅇㅑㅇㅅㅏㅇ -4736
ust -4737
ㅅㅖㄹ -4738
▁ㅅㅣㄴㅎㅡㅇ -4739
▁ㅂㅜㄱㅂㅏㅇ -4740
GC -4741
▁ㅅㅗㄴㄱㅏ -4742
▁ㄷㅏㄴㅈㅓㅁ -4743
▁ㅍㅣㄹㄹㅣㅂ -4744
ㅋㅘ -4745
▁ㄱㅣㅁㅅㅜ -4746
▁ㅋㅓㄹㄹㅓ -4747
▁ㅇㅝㄴㅂㅏㄴ -4748
▁ㅅㅏㅇㅅㅔ -4749
▁ㅇㅣㅂㅊㅔ -4750
▁144 -4751
ㅌㅡㄹㄹㅔ -4752
▁ㅎㅑㅇㅎㅜ -4753
ep -4754
ㅈㅏㅁ -4755
ㄹㅏㅇㅅㅜ -4756
▁ㄱㅗㅇㅊㅐ -4757
▁ㅈㅓㅇㅁㅜ -4758
▁135 -4759
▁ㄷㅐㅁ -4760
▁ㄱㅣㅁㅍㅗ -4761
▁ㅅㅓㅂㅊㅟ -4762
▁ㅊㅓㄴㅁㅜㄴㅎㅏㄱㅈㅏ -4763
▁ㅃㅗㅂㅎㅣ -4764
ude -4765
▁ㅇㅗㄱㅅㅡ -4766
▁CO -4767
▁ㅅㅣㄴㅅㅔ -4768
▁169 -4769
▁111 -4770
▁TH -4771
ㄹㅣㄹㄹㅓ -4772
▁ㄱㅏㄴㅅㅏ -4773
▁ㅅㅗㅇㄴㅏ -4774
▁ㅊㅏㅇㅅㅣ -4775
▁ㄱㅜㅇㅈㅓㅇ -4776
▁119 -4777
ㅅㅓㄱㄱㅣ -4778
▁ㅊㅗㅇㅅㅓㄴㄱㅓ -4779
▁ㅍㅕㅇㅇㅣㄹ -4780
▁ㅁㅏㄴㅅㅔ -4781
▁ㅂㅐㄱㅎㅘ -4782
▁ㄱㅏㅇㄱㅕㅇ -4783
▁ㄱㅣㅁㅈㅐ -4784
ㅂㅌㅓ -4785
▁ㄷㅗㅇㄴㅕㄴ -4786
ㅅㅏㄴㄷㅗㅇ -4787
▁ㄱㅕㄱㄹㅕㄹ -4788
▁ㅇㅏㄴㅇㅑㅇ -4789
▁ㅋㅓㄹㄹㅓㅁㅂㅣ -4790
▁ㄱㅣㅁㅇㅕㅇㅅㅏㅁ -4791
▁ㅌㅓㄱ -4792
▁ㅍㅔㄹ -4793
▁ㄷㅣㅇ -4794
▁ㄷㅗㅇㄷㅐ -4795
▁ㅇㅔㄴㅈㅣ -4796
▁ㅈㅜㅇㅈㅐ -4797
▁ㅁㅕㅇㅁㅗㄱ -4798
▁ㅂㅕㄹㅊㅣㅇ -4799
ㅇㅐㅇ -4800
▁ㅊㅗㅇㄱㅘㄹ -4801
▁ㅍㅐㅇㅊㅏㅇ -4802
▁ㄱㅣㅁㅈㅣㄴ -4803
▁ㄷㅗㅇㄷㅗㄱ -4804
▁ㅍㅏㅁ -4805
ㄱㅡㄹㄹㅓ -4806
ㅇㅜㄹㄷㅐ -4807
ib -4808
▁ㅈㅓㄴㅎㅏㅁ -4809
▁ㅇㅕㅇㄹㅣ -4810
▁ㄴㅏㄴㅁㅣㄴ -4811
ㅅㅐㅇㅎㅘㄹ -4812
ㅓㄱㅈㅓㅇ -4813
▁ㅊㅓㅁㄱㅏ -4814
▁ㅊㅓㄴㄷㅗ -4815
▁172 -4816
▁ㅁㅜㄹㅈㅏ -4817
ㅁㅣㄴㅈㅏ -4818
▁ㅍㅕㅇㅇㅑ -4819
▁ㅋㅡㄴ -4820
ㅅㅅㅜ -4821
▁ㄹㅛㅇ -4822
▁ㅂㅜㄱㅇㅟ -4823
▁ㄱㅣㄴㅈㅏㅇ -4824
ㅅㅡㄹㄹㅏㄴㄷㅡ -4825
ㅇㅇㅣ -4826
▁106 -4827
ㅁㅏㄹㄹㅏ -4828
▁ㅂㅏㄹㅌㅡ -4829
▁ㅋㅏㅇ -4830
▁ㄴㅓㄼㅎㅣ -4831
▁ㅊㅣㅁㅁㅗㄹ -4832
ㅎㅐㅇㅇㅟ -4833
ㅅㅓㄴㄱㅓ -4834
▁ㅂㅏㄴㄱㅕㄱ -4835
▁ㅅㅣㄱㅂㅕㄹ -4836
▁ㅊㅜㅇㅂㅜㄱ -4837
▁ㄱㅗㅇㅇㅢ -4838
▁ㄷㅏㄷㅎㅣ -4839
▁ㅂㅕㅇㅇㅕㄱ -4840
▁ㄱㅣㅁㅌㅐ -4841
▁ㅇㅣㄴㅈㅐ -4842
▁ㄴㅏㅌㅁㅏㄹ -4843
▁ㄷㅏㅎ -4844
▁ㅅㅓㅂㅈㅓㅇ -4845
ㅅㅓㄱㅌㅏㅂ -4846
ㅇㅣㄴㅇㅓ -4847
ㅊㅡㅇㅅㅓㄱㅌㅏㅂ -4848
ㅅㅓㄴㅅㅡ -4849
▁ㄷㅡㅇㅈㅐ -4850
▁ㅈㅗㄴㅈㅜㅇ -4851
ome -4852
pe -4853
ment -4854
▁ㅅㅜㅇㅂㅐ -4855
▁ㅈㅓㅇㄹㅕㄹ -4856
ㅈㅓㄴㄱㅘㅇㅇㅕㄱㅅㅣ -4857
▁ㅅㅣㄴㅎㅏㄱㄱㅛ -4858
▁ㅇㅑㅇㅋㅣ -4859
▁ㅋㅡㄹㄹㅣㄴ -4860
▁ㄷㅓㅁ -4861
▁ㅇㅡㅁㅇㅝㄴ -4862
ㅊㅔㄴ -4863
ㅅㅣㄹㄹㅣ -4864
▁ㄴㅏㅈㅊㅜ -4865
▁ㅈㅜㅇㄹㅑㅇ -4866
▁ㅋㅗㄴㅋㅡ -4867
▁ㅎㅔㄹㄹㅣ -4868
▁We -4869
▁ㅍㅕㄴㄹㅣ -4870
ian -4871
▁ㅈㅜㅇㅅㅗ -4872
▁ㅈㅓㅇㅈㅓㄴ -4873
▁ㅅㅏㅇㄷㅏㅇㅅㅜ -4874
▁It -4875
▁ㄷㅗㅇㄹㅕㄱ -4876
▁ㅈㅓㄴㅇㅏㅂ -4877
▁ㅍㅕㅇㅌㅐㄱ -4878
▁HT -4879
▁ㄱㅘㄴㄱㅜ -4880
ire -4881
▁ㅎㅕㅂㅈㅗ -4882
▁ㅎㅏㄴㄷㅗㅇㅇㅏㄴ -4883
▁CE -4884
▁ㄱㅏㅂㅈㅏㄱ -4885
▁ㅅㅏㅇㅅㅓ -4886
▁ㅂㅏㅇㅍㅐ -4887
▁ㅅㅣㄴㅈㅜㅇ -4888
▁ㅈㅏㅇㅇㅏㄴ -4889
▁ㅍㅏㄹㄹㅏ -4890
▁ㅇㅓㄴㄷㅓ -4891
▁ㅁㅔㄹㄹㅗ -4892
▁ㄱㅚㅇㅈㅏㅇ -4893
▁ㅌㅗㅇㄱㅡㄴ -4894
IM -4895
▁ㄱㅘㄴㄹㅏㅁ -4896
▁ㅎㅏㅁㅂㅜ -4897
▁ㅎㅕㅂㅈㅜ -4898
▁ㄲㅓㅂㅈㅣㄹ -4899
ere -4900
▁ᆯㄲㅏ -4901
▁ㄲㅙ -4902
▁ㅎㅏㅁㅇㅠ -4903
ㄹㅏㅁㅈㅟ -4904
cl -4905
ㄴㅓㄹㄹㅣ -4906
▁ㄱㅐㄹㄹㅓ -4907
▁ㅈㅡㅇㅈㅣㄴ -4908
ace -4909
▁ㄴㅏㄹㅉㅏ -4910
▁ㅅㅐㅇㄹㅣ -4911
ㅎㅐㅇㅈㅏ -4912
▁ㅅㅣㄴㄱㅣ -4913
▁ㅂㅏㅇㅊㅣㅁ -4914
▁ㅊㅓㅇㅇㅝㄴ -4915
ide -4916
▁ㄱㅏㄴㅎㅗ -4917
▁ㅅㅓㄴㄱㅜ -4918
▁ㅎㅡㅌㅇㅓ -4919
ㅈㅜㅇㄱㅜㄱ -4920
▁ㄷㅏㄴㅅㅣㄱ -4921
▁ㅍㅜㅇㄱㅕㅇ -4922
▁ㄱㅗㅇㄷㅏㄴ -4923
▁ㅅㅓㄴㅈㅗㅇ -4924
▁ㄹㅣㅇㅋㅓㄴ -4925
ㅅㅣㄹㄹㅗㄱ -4926
▁ㅊㅗㄱㄱㅜ -4927
▁TO -4928
ㅅㅡㅇㅈㅣ -4929
▁ㅅㅣㄹㅈㅓㄴ -4930
▁ㅈㅗㅇㄱㅕㄹ -4931
▁ㄱㅗㅇㅁㅗ -4932
▁ㅇㅑㄱㅊㅣㅇ -4933
▁ㅇㅣㄴㅅㅏㄴ -4934
▁ㄱㅡㅂㅅㅗㄱ -4935
▁ㅇㅘㄹ -4936
▁IBM -4937
▁ㄴㅣㅇ -4938
▁ㅊㅗㅇㅅㅏ -4939
▁ㄱㅕㅇㅂㅗ -4940
▁ㄷㅗㅇㅇㅣ -4941
▁ㅂㅓㄴㅇㅕㅇ -4942
▁ㅅㅏㅇㅈㅏㅇ -4943
▁ㄴㅏㄱㅅㅓㄴ -4944
▁ㅂㅜㄹㅍㅕㄴ -4945
▁ㅅㅐㅇㅈㅓㄴ -4946
▁⊸ -4947
ㄱㅗㄱㄹㅣ -4948
▁ㅌㅏㄹㅎㅘㄴ -4949
▁ㄱㅘㄴㅌㅗㅇ -4950
▁ㅇㅏㄴㅅㅓㅇ -4951
ㄷㅗㄹㅇㅏ -4952
▁ㅇㅝㄴㄱㅗ -4953
▁ㅁㅕㄴㅎㅏ -4954
▁ㅅㅣㄴㅎㅏㄱㅈㅏ -4955
▁ㅊㅗㅇㄷㅐ -4956
▁ㅇㅕㅇㅇㅢ -4957
▁ㅈㅜㅇㅅㅜㄴ -4958
▁ㅇㅣㄹㅎㅘ -4959
▁ㅈㅜㅇㅇㅢ -4960
ㅋㅣㅁ -4961
▁ㅅㅓㅇㄹㅣ -4962
▁ㅇㅏㅁㅅㅓㄱ -4963
ㄱㅏㄴㅈㅣ -4964
ㄱㅞ -4965
▁ㄱㅕㄹㅅㅓㄴ -4966
▁ㅎㅕ -4967
▁ㄷㅗㅇㅅㅏㅇ -4968
▁ㅊㅐㄱㅇㅣㅁㅈㅏ -4969
▁la -4970
▁148 -4971
▁ㅁㅣㄹㅇㅑㅇ -4972
▁ㅂㅡㄹㄹㅣ -4973
▁ㄱㅣㅁㅅㅏㅇ -4974
▁ㅌㅡㄱㅈㅣㅂ -4975
▁ㅈㅓㄴㅅㅓㅇㄱㅣ -4976
▁ㄲㅡㅀ -4977
ㅅㅡㄺ -4978
▁ㄴㅣㅅㅍㅗㄴ -4979
▁ㄱㅐㄱㅊㅔ -4980
▁ㅇㅠㄱㅈㅣ -4981
ㄱㅡㅅ -4982
▁ㅎㅏㄴㅅㅡ -4983
▁ㅈㅜㅇㅅㅣㅁㅂㅜ -4984
▁ㄱㅗㅇㅈㅣㄱ -4985
▁ㅈㅔㄹ -4986
ㅁㅕㄴㅊㅔ -4987
ㅈㅓㅇㅈㅏ -4988
▁136 -4989
▁ㅁㅕㅇㅈㅔ -4990
▁138 -4991
▁ㅎㅏㄴㅅㅓㅇㅂㅜ -4992
ㄸㅜ -4993
▁1916 -4994
▁ㄱㅐㄱㄱㅘㄴ -4995
▁ㅅㅏㄴㄹㅣㅁ -4996
ㅅㅏㅇㅇㅟ -4997
ㄱㅕㅁ -4998
▁ㄹㅡㅇ -4999
▁ㅇㅝㄴㄴㅐ -5000
▁ㅅㅓㅇㅇㅜㄴ -5001
▁ㅋㅜㄴ -5002
▁ㅂㅜㄹㅁㅕㅇ -5003
▁ㅅㅡㅇㅈㅓㅁ -5004
▁ㅆㅏㅇㄷㅜㅇㅇㅣ -5005
▁ㅅㅜㄴㅎㅚ -5006
▁ㅎㅕㄴㄱㅡㅁ -5007
▁ㅂㅕㅇㅈㅗ -5008
▁ㅇㅕㄹㄷㅐ -5009
▁ㅇㅕㄱㅅㅓㄹ -5010
▁ㄱㅕㄱㅌㅜ -5011
▁DC -5012
▁ㅇㅓㅂㄱㅖ -5013
▁ㅈㅏㅇㄴㅏㄴ -5014
▁ㅈㅣㄴㄱㅜㄴ -5015
▁ㅍㅕㅇㅂㅓㅁ -5016
▁En -5017
▁ㄷㅓㅍㅇㅣ -5018
ㅇㅜㅇㅈㅓㄴ -5019
▁ㅇㅣㄴㅇㅕㄴ -5020
ㄹㅏㅇㅋㅏ -5021
▁ㅂㅜㄴㄷㅏㅇ -5022
▁ㄱㅕㅇㅇㅕㄴ -5023
▁ㅊㅜㅇㅅㅣㄹ -5024
▁ㅍㅜㄴ -5025
ㅌㅜㅁ -5026
ㄹㅣㄹㄹㅏ -5027
▁ㅍㅕㅇㅇㅝㄴ -5028
▁ㅁㅗㄱㅍㅏㄴ -5029
▁ㅇㅣㄹㅈㅗ -5030
▁ㅇㅝㄴㅅㅜㅇㅇㅣ -5031
▁ㄴㅏㅁㅎㅐ -5032
▁ㅊㅜㄴㅊㅓㄴ -5033
▁ㅅㅗㅅ -5034
▁ㄷㅡㄴㅈㅣ -5035
▁ㅁㅏㄱㄴㅐ -5036
▁ㅈㅏㅇㄹㅕ -5037
▁ㅊㅔㄹㅅㅣ -5038
▁ㅌㅐㅇㅋㅡ -5039
▁ㅈㅜㅇㅅㅓㅇㅈㅏ -5040
▁ㅊㅜㄴㅊㅜ -5041
▁ㅇㅣㅂㄷㅏㅇ -5042
▁ㄷㅗㄹㅇㅕㄴ -5043
▁ㅎㅕㄴㅈㅗㅇ -5044
▁ㅁㅕㅇㄹㅕㅇㅇㅓ -5045
▁NBA -5046
ㄴㅜㄴ -5047
▁ㅇㅕㅇㄴㅏㅁ -5048
▁360 -5049
▁104 -5050
▁ㅈㅏㅈ -5051
▁ㅇㅕㄴㅍㅐ -5052
▁ㅈㅏㄱㅅㅔㄴ -5053
ㅊㅘㄴ -5054
▁col -5055
▁ㅈㅜㅇㅇㅟ -5056
▁ㅅㅣㄴㅅㅐㅇ -5057
▁ㅇㅕㄴㅎㅏㅂㅎㅚ -5058
ark -5059
▁ㅍㅡㄹㄹㅣ -5060
▁ㅂㅗㄱㅅㅓㄴ -5061
▁ㅅㅏㅇㄷㅏㅁ -5062
▁ㅋㅓㅁㅍㅏ -5063
▁ㅈㅓㄱㅂㅜㄴ -5064
▁ㅊㅏㅇㄱㅗ -5065
▁ㄱㅡㄱㄷㅗㅇ -5066
▁ㄱㅏㅁㄹㅣ -5067
ㅌㅡㄹㄹㅐㄴ -5068
▁ㅂㅏㄴㄱㅏㅁ -5069
▁ㅈㅓㄴㄴㅕㅁ -5070
▁ㅇㅕㅇㅈㅏㅇ -5071
▁123 -5072
▁ㅇㅣㅂㅈㅣ -5073
▁ㄷㅏㅇㅇㅣㄹ -5074
▁AR -5075
▁143 -5076
▁ㅅㅗㅁ -5077
ㅇㅣㅁㅈㅡ -5078
▁ㅇㅑㅇㄷㅗ -5079
▁109 -5080
▁ㅍㅕㅇㅎㅏ -5081
▁ㅊㅣㄴㅎㅏ -5082
▁ㅅㅏㅇㄱㅗㅇ -5083
▁ㄱㅓㄱㅈㅓㅇ -5084
▁ㅎㅏㅂㅊㅏㅇ -5085
ile -5086
▁CS -5087
▁ㅁㅣㄴㅎㅚ -5088
▁ㅅㅓㅁㄱㅣ -5089
▁ㅂㅐㄱㅅㅐㄱ -5090
ㅌㅏㅁ -5091
▁ㅇㅣㄱㅎㅣ -5092
▁ㅂㅏㄴㅂㅏㄱ -5093
▁ㅂㅕㅇㅎㅐㅇ -5094
▁ㅍㅓㅁ -5095
▁ㅅㅣㄴㅈㅜ -5096
▁ㅌㅐㄱㅅㅣ -5097
ㄱㅘㄴㅊㅗㅇ -5098
▁ㅅㅗㅇㅅㅣ -5099
ㅇㅡㄴㅅㅐㄱ -5100
▁ㅁㅕㄴㅎㅓ -5101
▁ㅌㅣㄹ -5102
▁ㅇㅏㅁㅅㅡ -5103
▁ㅇㅔㄹㄹㅔ -5104
▁ㅎㅐㅇㅈㅓㄱ -5105
ㄲㅓㅂ -5106
▁ㅇㅔㄴㅌㅡ -5107
▁ㅇㅗㅁ -5108
▁ㄱㅕㄴㄷㅣ -5109
AL -5110
▁AK -5111
ㄹㅏㅂㅇㅓ -5112
ㅅㅗㄱㄱㅣ -5113
ㅅㅣㄹㅂㅔ -5114
▁ㄲㅡㄶㅇㅣㅁ -5115
▁ㅍㅏㅇ -5116
▁ㅎㅡㄹㄹㅣ -5117
ㅍㅡㅁ -5118
▁ㄱㅡㅁㅇㅛ -5119
▁ㄱㅣㅁㄱㅣ -5120
▁ㄱㅕㅇㄱㅘㄴ -5121
▁CON -5122
▁ㅁㅜㅇ -5123
ㅂㅓㅂㅇㅣㄴ -5124
▁ㅍㅔㄴㅅㅣㄹㅂㅔ -5125
▁ㅅㅣㄴㅅㅗㄱ -5126
▁ㅅㅣㄴㅅㅣ -5127
▁ㄱㅕㄹㅎㅗㄴㅅㅣㄱ -5128
▁ㅇㅕㄴㅎㅏ -5129
▁ㅊㅜㄹㅊㅓ -5130
▁ㄴㅐㅇㄱㅏㄱ -5131
▁ㅇㅕㅍㅁㅕㄴ -5132
ㅎㅓㄴㅂㅜ -5133
▁ㅅㅏㅁㅊㅡㅇㅅㅓㄱㅌㅏㅂ -5134
▁ㅈㅏㅇㄱㅓ -5135
▁is -5136
▁ㅇㅏㅀ -5137
▁ㅊㅓㅇㅊㅜㄴ -5138
▁NC -5139
▁ㅂㅏㄼ -5140
xt -5141
▁ㄱㅜㄱㅅㅗ -5142
▁ㅈㅣㄴㅉㅏ -5143
▁ㅅㅏㄴㄹㅏㄴ -5144
▁Pr -5145
ㅈㅣㅁ -5146
▁ㄴㅏㅁㄷㅗㅇㅂㅜ -5147
▁CC -5148
▁Op -5149
▁ㅂㅏㄹㄹㅏ -5150
▁ㅎㅏㄴㅉㅗㄱ -5151
▁ㅁㅗㄴㅅㅡ -5152
▁ㅊㅣㄴㅇㅘㅇ -5153
▁ㅅㅣㄹㅈㅏㅇ -5154
ㅅㅔㅅ -5155
▁ㅇㅗㄹㅂㅏ -5156
ㅑㄹ -5157
ㅎㅗㅂ -5158
▁ㅁㅏㄹㄹㅏ -5159
▁ㅈㅓㅇㅈㅜ -5160
ㅋㅡㄹㄹㅐㄴㄷㅡ -5161
▁ㅂㅜㄴㅂㅣ -5162
▁ㅂㅏㅇㅅㅗㅇㅅㅏ -5163
ft -5164
ㅌㅓㅁ -5165
▁ㅌㅏㄹㄷㅏㅇ -5166
▁ㅅㅐㅇㅅㅣㄱ -5167
▁ㅇㅣㅁㅇㅛㅇ -5168
▁ㅈㅏㅇㅎㅏㄱ -5169
▁ㅂㅏㄱㅎㅐ -5170
▁ㅂㅗㅇㅅㅙ -5171
▁ㅅㅣㄴㄱㅠ -5172
ㅇㅣㄴㅈㅓㄴ -5173
▁ㅅㅜㄴㄱㅛ -5174
ㅈㅏㅇㅅㅣㄹ -5175
▁ㅁㅕㅇㅂㅐㄱ -5176
ㅅㅏㄹㅇㅣ -5177
▁ㅎㅚㅅㅅㅜ -5178
▁ㅌㅗㅇㅇㅕㅇ -5179
ㅇㅝㄴㅅㅜ -5180
▁ㅂㅏㄱㄹㅏㅁㅎㅚ -5181
▁ㅅㅣㄴㅈㅗ -5182
▁ㅇㅏㄹㄹㅜ -5183
ㅈㅓㅇㄹㅣ -5184
▁ㅇㅏㄹㅈㅔ -5185
▁ㅅㅏㅇㅈㅓㅁ -5186
ㄹㅐㄴㅌㅡ -5187
▁ㅈㅏㄴㄹㅠ -5188
▁ㅊㅣㄴㅇㅣㄹㅍㅏ -5189
▁ㄹㅜㄴ -5190
▁ㅅㅏㅁㅈㅣㄴ -5191
▁ㅅㅏㅇㄷㅏㄴ -5192
▁ㅎㅕㄹㅌㅗㅇ -5193
ㄴㅈㅣ -5194
ㄴㅓㄼ -5195
▁ㅃㅏㄹㄱㅏㄴ -5196
▁ㄱㅗㅇㄱㅘㄴ -5197
▁ㄱㅘㅇㅁㅜㄹ -5198
▁ㄴㅏㅇㅁㅏㄴ -5199
ㅇㅑㅇㅎㅏㅁ -5200
▁ㅅㅣㄴㅎㅏㄴ -5201
ite -5202
▁ㅈㅓㅇㅁㅏㄹ -5203
ㅇㅑㅇㄱㅖ -5204
▁ㅅㅓㄹㅌㅏㅇ -5205
▁ㅌㅗㅇㅈㅡㅇ -5206
▁ㄸㅏㅅ -5207
▁ㅅㅏㅇㅇㅛㅇ -5208
▁ㄷㅏㅅ -5209
▁ㄱㅗㅇㅅㅜ -5210
▁SE -5211
ㅅㅏㅇㄷㅗ -5212
▁ㅇㅕㅁㄱㅣ -5213
▁ㅇㅡㅁㄹㅛ -5214
▁ㅍㅓㅇㅋㅡ -5215
▁ㅂㅓㅂㅈㅗ -5216
▁ㅅㅓㅇㄷㅏㄴ -5217
▁LP -5218
▁WWE -5219
▁107 -5220
▁ㅊㅜㅇㅈㅓㄴ -5221
▁ㄱㅕㄱㅌㅚ -5222
ㄱㅏㄹㅅㅐㄱ -5223
▁ㄱㅕㅇㅅㅏㅇㄷㅗ -5224
ㅇㅝㄴㅈㅏ -5225
▁ㄹㅗㄹㄹㅣㅇ -5226
▁ㄷㅗㄹㄹㅕ -5227
▁ㅈㅜㄹㅁㅜ -5228
▁ㄷㅏㄷ -5229
▁ㄷㅏㅇㅈㅜ -5230
▁ㅁㅗㄱㅈㅐ -5231
▁ㅇㅡㄹㅈㅣ -5232
▁112 -5233
▁ㅊㅜㄱㅎㅏ -5234
▁ㅌㅏㅁㄱㅜ -5235
▁ㅅㅣㄴㅌㅏㄱ -5236
▁ㄱㅡㄴㄱㅛ -5237
▁ㅎㅏㅇㅅㅗ -5238
▁Te -5239
▁ㅈㅓㄱㄷㅏㅇ -5240
▁ㄱㅕㅇㅊㅏㄹㅊㅓㅇ -5241
▁ㅁㅐㄱㅈㅜ -5242
▁126 -5243
▁117 -5244
▁ㅇㅜㄴㅎㅏ -5245
▁ㅎㅏㅂㅎㅏ -5246
▁ㄱㅡㅂㄱㅕㄱㅎㅣ -5247
ies -5248
ㅇㅟㄴㅅㅡ -5249
▁ㄱㅘㅇㅎㅏㄱ -5250
ㅎㅘㅇㅊㅓㅇ -5251
ㅅㅓㄴㅇㅣㄹㅂㅗ -5252
ㅍㅣㅂ -5253
▁com -5254
▁ㅅㅓㅇㅅㅜㄱ -5255
▁ㅃㅏㄹㄱㅏㄴㅅㅐㄱ -5256
ㅍㅗㄹㄹㅗ -5257
▁ㅈㅗㄴㅅㅗㄱ -5258
ㅋㅕ -5259
▁ㅂㅣㄹㄹㅏ -5260
OL -5261
ㅆㅜ -5262
▁ㅁㅚ -5263
ㅊㅜㄱㅎㅏㅁ -5264
▁ㅂㅓㅁㅇㅠ -5265
▁ㄷㅗㅇㄱㅜㄱ -5266
▁ㅈㅓㅇㅈㅓㅁ -5267
▁ㅍㅗㄱㄷㅗㅇ -5268
▁ㅅㅓㅇㅊㅔ -5269
ㅇㅡㄴㅇㅣ -5270
▁ㄴㅔㄹ -5271
▁ㄱㅡㄱㅎㅣ -5272
▁ㄷㅗㄹㅂㅗ -5273
▁ㅋㅗㄹㄹㅣ -5274
▁ㅋㅣㅁ -5275
▁ㅎㅐㅅ -5276
ㅅㅐㅇㅈㅏ -5277
▁ㅂㅏㄹㄹㅣ -5278
ond -5279
ㄷㅗㅇㄹㅕㄱ -5280
▁ㅅㅣㄴㅁㅣㄴ -5281
▁z -5282
ㅅㅜㄴㅅㅣㄴ -5283
▁ㅅㅐㅇㅅㅏㄴㄹㅑㅇ -5284
ov -5285
ound -5286
▁113 -5287
▁ㅇㅏㄴㄱㅣ -5288
ㄹㅏㄴㅎㅣ -5289
▁ㅇㅕㄴㅅㅙ -5290
▁ㅍㅣㄹㅌㅓ -5291
▁be -5292
▁ㄸㅏㅅㅈㅟ -5293
▁ㅍㅜㅁㅈㅗㅇ -5294
ㅂㅐㅁㅂㅜㅌㅇㅣ -5295
▁ㄷㅗㅇㅁㅜㄴ -5296
ㅊㅔㄹ -5297
▁ㄱㅗㅇㅇㅣㄱ -5298
▁ㅎㅡㅁ -5299
ㅋㅞ -5300
ath -5301
▁137 -5302
▁ㅅㅏㅁㅅㅓㅇㅈㅓㄴㅈㅏ -5303
ory -5304
▁ㅂㅕㄹㄷㅏ -5305
▁ㄷㅗㄷ -5306
▁ㄱㅣㅁㄱㅕㅇ -5307
▁ㄲㅏㄹ -5308
▁ㄱㅘㅇㅎㅐ -5309
▁ㅎㅐㄴㄷㅡ -5310
▁ㅇㅘㅇㅂㅗㄱ -5311
ㅍㅡㄹㄹㅏ -5312
▁ㄱㅏㅂㅈㅏㄱㅅㅡ -5313
ㅍㅓㄹ -5314
▁ㅁㅣㄱㅅㅡ -5315
▁ㅊㅜㄱㅈㅓㄱ -5316
▁ㄴㅗㅇㄹㅣㅁ -5317
▁ㅎㅏㄴㅇㅣㄴ -5318
▁ㅊㅏㅇㅇㅝㄴㅅㅣ -5319
▁ㅇㅓㄴㄴㅣ -5320
▁1894 -5321
▁ㅂㅔㄹㄹㅣ -5322
▁ㅅㅓㅇㅊㅟ -5323
▁ㄱㅘㄴㅇㅡㅁ -5324
▁ㅌㅐㄹㄹㅓㄴ -5325
ㅇㅔㅅ -5326
▁121 -5327
▁173 -5328
▁ㄱㅏㅇㅅㅓ -5329
▁ㅂㅓㄹㄱㅡㅁ -5330
▁ㅍㅗㅇ -5331
▁ㅇㅣㄴㅊㅔ -5332
▁ㅍㅜㄹㄹㅣ -5333
▁ㅇㅡㅇㅇㅝㄴ -5334
▁ㅌㅐㄹㄹㅓㄴㅌㅡ -5335
ㅅㅓㅇㄷㅏㅇ -5336
▁ㅎㅘㅇㅅㅣㄹ -5337
▁ㅇㅘㅅ -5338
ㅇㅓㅂㅇㅣㄴ -5339
▁RNA -5340
▁ㅂㅏㅇㅎㅘ -5341
▁ㅎㅐㄱㅁㅜ -5342
▁ㅎㅘㄴㅇㅕㅇ -5343
▁ㅇㅓㄱㅇㅏㅂ -5344
ㅂㅔㄱ -5345
▁ㅊㅗㅇㄷㅗㄱㅂㅜ -5346
▁ㄴㅟ -5347
▁ㄱㅔㄹ -5348
▁ㅇㅕㅇㅅㅏㄴ -5349
ㄴㅗㅁ -5350
▁350 -5351
▁ㅇㅓㅂㄱㅡ -5352
iver -5353
▁ㄷㅟㅅㅁㅕㄴ -5354
▁ㅈㅓㄱㄷㅗ -5355
▁ㅌㅏㅁㅅㅐㄱ -5356
▁ㅇㅣㄹㅂㅏㄴㅇㅣㄴ -5357
▁CF -5358
ㅂㅓㄴㅅㅡ -5359
▁ㄷㅏㄴㄷㅏㄴ -5360
ㄹㅜㅁ -5361
▁ㅅㅏㅇㅅㅏ -5362
▁ㅎㅕㄴㅈㅓ -5363
▁ㅈㅡㅇㅅㅗㄴ -5364
▁ㅊㅓㄴㅈㅏㅇ -5365
▁ㄹㅠㄱ -5366
▁ㅅㅓㅇㅅㅏ -5367
▁ㅊㅏㅇㅇㅓㅂ -5368
▁ㅈㅑ -5369
▁ㅅㅣㄴㅇㅑㄱ -5370
ㅌㅠㅁ -5371
▁ㅈㅣㄴㄱㅡㅂ -5372
▁ㅎㅚㅇㄷㅏㄴ -5373
ㅇㅛㅇㅊㅔ -5374
▁ㅋㅣㄱ -5375
▁ㅁㅏㄹㅆ -5376
ㅂㅏㄱㅅㅡ -5377
ㅈㅜㄹㄱㅣ -5378
ign -5379
▁ㅇㅣㅁㅎㅏ -5380
ㅇㅕㄴㅎㅏㅂ -5381
▁New -5382
▁ㄴㅏㄹㅆㅣ -5383
MA -5384
▁World -5385
▁ㄱㅗㅇㅁㅣㄴ -5386
▁On -5387
▁ㅅㅡㅇㄱㅖ -5388
▁ㄱㅏㅁㅈㅏ -5389
▁ㅇㅕㄹㅈㅓㅇ -5390
▁ㄱㅕㄴㅈㅔ -5391
man -5392
▁ㅇㅑㅇㅎㅗ -5393
▁ㅁㅏㄴㄴㅏㅁ -5394
▁ㅅㅣㄴㅅㅓㄴ -5395
▁ㅇㅣㅂㅇㅝㄴ -5396
ial -5397
▁114 -5398
▁ㅈㅣㄴㄱㅗㅇ -5399
▁". -5400
ㅅㅟㅂ -5401
▁ㅇㅣㄴㅁㅜㄴ -5402
ㄸㅜㄱ -5403
▁ㅇㅠㄱㅊㅔ -5404
ㄷㅏㄴㅊㅔ -5405
▁ㅎㅏㄱㅁㅕㅇ -5406
▁ㅂㅓㅁㅇㅣㄴ -5407
▁ㅎㅣㅁㅇㅣㅂ -5408
mer -5409
▁ㅅㅓㅇㄷㅗ -5410
ㅌㅗㄹ -5411
▁ㅁㅏㅁ -5412
▁ㅇㅝㄹㅇㅛ -5413
▁ㄱㅡㄱㅈㅏㅇㅍㅏㄴ -5414
ㅇㅕㄹㅅㅏ -5415
▁ㅈㅗㅇㅊㅏㄱ -5416
ich -5417
▁ㅁㅓㄴㅈㅣ -5418
▁ㄱㅣㅁㅈㅓㅇㅇㅣㄹ -5419
▁118 -5420
▁124 -5421
▁ㄱㅡㄴㅇㅝㄴ -5422
▁ㅅㅓㅇㅂㅕㄹ -5423
▁ㅅㅖㄹ -5424
▁ㅇㅏㅁㅅㅣ -5425
▁ㄱㅗㄱㅇㅣㄴ -5426
▁EC -5427
▁Sc -5428
▁ㄷㅣㄱ -5429
▁ㅇㅕㅅ -5430
▁CR -5431
▁ㅅㅓㄴㅂㅣ -5432
▁ㅌㅗㅇㅌㅡㄹ -5433
ㅇㅑㄱㅍㅜㅁ -5434
▁ㅍㅏㄴㅂㅗㄴ -5435
▁ㅍㅗㄱㅎㅐㅇ -5436
▁ㄷㅜㅇㅈㅣ -5437
▁ㅁㅜㄴㅇㅖ -5438
▁ㅇㅣㄹㄱㅏ -5439
▁ㅎㅏㄹㅁㅓ -5440
▁ㄱㅗㅇㅅㅡㅂ -5441
▁ㅁㅐㄱㄹㅏㄱ -5442
▁SD -5443
ㅅㅜㄹㅈㅏ -5444
ㅎㅘㅇㅎㅜ -5445
ㄷㅏㄺ -5446
▁ㅁㅜㄴㄱㅜ -5447
▁ㅅㅏㅇㅍㅛ -5448
▁ㅅㅣㄹㅊㅔ -5449
▁ㅌㅡㄹㄹㅣ -5450
ㅋㅝ -5451
ㅇㅑㅎ -5452
▁ㄹㅐㅁ -5453
▁ㅂㅏㄹㅎㅐ -5454
▁GP -5455
▁ㅈㅣㄴㅎㅏ -5456
ㅊㅜㄱㄱㅜ -5457
ㅅㅓㅇㄱㅖ -5458
ㅊㅓㄴㄹㅣ -5459
▁ㅂㅜㄹㅌㅏ -5460
▁ㄴㅗㄹㄹㅏㅂ -5461
hn -5462
ㄱㅏㅄ -5463
▁1890 -5464
▁ㄴㅏㅁㅇㅝㄴ -5465
▁ㄱㅜㄴㅈㅓㅇ -5466
ㅂㅏㅇㅅㅗㅇㄱㅗㅇㅅㅏ -5467
▁GS -5468
▁ㅈㅡㅇㄷㅐ -5469
▁ㅁㅏㄺ -5470
▁ㅈㅣㄴㅅㅏ -5471
ㅎㅏㅇㅅㅣㄱ -5472
▁ㄴㅏㅁㄱㅜ -5473
▁ㄱㅣㅁㄱㅠ -5474
▁ㅅㅓㅇㅁㅜㄴ -5475
▁ㅎㅕㄹㄱㅘㄴ -5476
▁ㄷㅗㄱㅇㅣㄹㅇㅣㄴ -5477
▁ㅊㅐㄹㄹㅣㄴㅈㅣ -5478
ㄷㅓㄱㅅㅕㄴ -5479
▁ㅂㅗㅇㅇㅏㄴ -5480
IP -5481
ㅅㅂㅜㄹ -5482
ㄹㅣㅂㅌㅡ -5483
ㅇㅗㄴㅈㅡ -5484
ㅇㅣㅁㅂㅡ -5485
▁ㅍㅜㅇㅈㅏ -5486
ㅂㅕㄴㅇㅣㄴ -5487
▁SU -5488
ㅆㅏㅇ -5489
▁ㅇㅏㄱㄷㅏㄴ -5490
ㄱㅗㅇㅈㅜ -5491
ㅎㅏㅁㅅㅜ -5492
▁1898 -5493
ㅌㅗㅁ -5494
▁III -5495
▁ㅋㅛ -5496
▁ㅅㅣㄴㄴㅕㅁ -5497
▁ㅇㅞㅂㅌㅜㄴ -5498
▁ㅇㅗㄴㅌㅏ -5499
▁ㅎㅏㄱㄱㅖ -5500
▁ㄱㅚㅇㅈㅏㅇㅎㅣ -5501
ㅌㅗㄹㄹㅔ -5502
▁ㅂㅗㄹㅍㅡ -5503
▁ㅇㅣㄹㅅㅐㅇ -5504
▁ㅇㅕㄴㅎㅏㅂㄱㅜㄱ -5505
ㅅㅡㄹㄹㅓ -5506
▁ㅎㅔㄹㄱㅣ -5507
▁ㅇㅝㄴㅈㅓㄴ -5508
▁ㄴㅏㅅ -5509
ㅎㅏㅁㅁㅏ -5510
▁ㅈㅓㅇㄹㅕ -5511
▁ㅇㅛㅇㅂㅕㅇ -5512
▁ㅎㅕㅂㅂㅏㄱ -5513
ㄷㅣㅈ -5514
ㅇㅠㄱㅂㅜ -5515
▁ㅍㅗㄱㅍㅗ -5516
▁ㄱㅣㅁㅎㅕㄴ -5517
rom -5518
ㅃㅜㄹ -5519
▁115 -5520
▁129 -5521
▁ㄹㅣㅅ -5522
▁ㄱㅗㅇㅂㅐㄱ -5523
▁ㅅㅔㄴㅌㅣ -5524
▁ㄱㅓㅁㅊㅏㄹㅊㅓㅇ -5525
▁ㅉㅡ -5526
ㄹㅏㄴㅊㅡ -5527
ㅇㅣㄴㅅㅡ -5528
▁ㅋㅔㄹㄹㅣ -5529
Pa -5530
▁JT -5531
▁ㅁㅏㄷ -5532
ction -5533
▁ㅂㅣㄴㄱㅗㄴ -5534
▁ㅅㅒ -5535
urn -5536
ㅅㄱㅏㅄ -5537
▁ㅎㅏㅇㅈㅐㅇ -5538
▁ㅇㅘㅇㅅㅔ -5539
▁ㅇㅝㄴㄷㅓ -5540
ㄴㅣㄹㄹㅏ -5541
▁ㄱㅡㄱㅅㅣㅁ -5542
▁ㅊㅗㅇㅊㅣㅇ -5543
ㅋㅏㄹㄹㅏ -5544
▁ㅇㅗㅂㅅㅕㄴ -5545
▁ㅅㅓㄴㄷㅗ -5546
▁ㅇㅕㄴㅅㅏㄴㅈㅏ -5547
▁ㅇㅕㅇㅅㅏ -5548
▁ㅎㅘㄱㅅㅣㄴ -5549
▁142 -5550
ㅎㅐㅇㅅㅏ -5551
▁ㅁㅏㄴㄹㅛ -5552
ㅇㅣㅆ -5553
▁ㄴㅏㅁㅁㅣ -5554
▁ㅇㅣㄴㅅㅡ -5555
ㅈㅣㄴㄱㅜㄴ -5556
▁ㄴㅐㅇㅈㅓㄴ -5557
▁ㅊㅓㄹㅎㅚ -5558
▁ㄱㅗㅇㅂㅏㅇ -5559
▁ㅍㅕㅇㅈㅓㅇ -5560
▁ㄱㅏㄷㅎㅣ -5561
▁ㄴㅓㅁㅊㅣ -5562
▁ㅇㅑㅇㅊㅡㄱ -5563
▁ㅊㅓㄴㅁㅜㄴㄷㅐ -5564
▁ㅁㅕㅇㅎㅏ -5565
▁ㅁㅗㄹㄹㅐ -5566
▁ㄷㅗㅇㅈㅓㅁ -5567
▁ㅂㅏㄺㄱㅣ -5568
▁ㅋㅐㄴㅈㅏ -5569
▁ㄱㅡㄱㅈㅏㄱ -5570
▁ㅇㅣㄴㅁㅕㅇ -5571
▁ㅊㅜㄱㅁㅜㄹ -5572
▁ㅇㅡㄴㄷㅔ -5573
ㅈㅏㄱㅇㅛㅇ -5574
▁ㄱㅕㄹㅎㅏㅁ -5575
▁ㅇㅣㄹㅂㅏㅇ -5576
▁ㅅㅡㅇㅈㅏ -5577
ㅎㅐㅇㅈㅏㅇ -5578
ph -5579
▁ch -5580
ㅈㅓㄴㅊㅏ -5581
ㅊㅏㄱㅈㅗㅇ -5582
▁ㅎㅘㅇㅈㅗㄱ -5583
ㅌㅗㅇㄱㅜㄱ -5584
▁ㅊㅓㅁㄷㅏㄴ -5585
pp -5586
▁ㅂㅏㄴㄱㅕㅇ -5587
▁1899 -5588
▁ㄱㅘㅇㅈㅓ -5589
lic -5590
TS -5591
▁Ne -5592
ㄹㅣㅁㅈㅏ -5593
▁ㅅㅔㄹㄹㅔ -5594
▁ㄱㅜㅇㄱㅡㄱ -5595
▁ㅈㅓㅇㅂㅕㄴ -5596
▁ㅌㅜㅇ -5597
▁ㅂㅣㅊㄴㅏ -5598
ㅂㅡㄹㄹㅣㄴ -5599
ㅅㅡㅇㅂㅜ -5600
▁ㅅㅜㄴㅈㅗ -5601
▁ㅍㅣㅇㅋㅡ -5602
▁ㅊㅣㄴㅇㅟ -5603
▁ㅁㅕㅇㅈㅗㅇ -5604
▁ㅊㅜㄱㅊㅜㄹ -5605
▁ㄱㅗㄴㄹㅏㄴ -5606
▁CJ -5607
▁ㄱㅘㄴㅅㅔ -5608
▁ㅌㅐㄱㅎㅏ -5609
▁ㅍㅜㄹㄹㅕ -5610
▁ID -5611
▁ㅁㅐㄱㄷㅗ -5612
ㅂㅏㄴㄴㅣ -5613
▁ㅇㅛㄱㄱㅜ -5614
ㅇㅣㄴㅅㅠ -5615
▁ㅇㅛㅇㅇㅣ -5616
▁ㅂㅔㅇ -5617
▁LC -5618
ㅓㅅㅓ -5619
▁ㅋㅗㄱ -5620
▁ㄱㅘㄴㅈㅔ -5621
▁BS -5622
▁1902 -5623
▁ㄹㅓㅁ -5624
▁ㅂㅕㄴㅇㅣ -5625
▁ㅇㅕㄴㄲㅗㅊ -5626
▁ㅍㅡㄹㄹㅐㅅㅍㅗㅁ -5627
▁` -5628
lan -5629
ㄱㅜㄱㅅㅏ -5630
ㅈㅐㅇㅇㅣ -5631
▁ㄱㅡㄹㄹㅜ -5632
▁ㄸㅓㄹㅊㅣ -5633
▁ㅂㅡㄹㄹㅐㄱㅎㅗㄹ -5634
▁ㄱㅕㅇㅅㅣㄴ -5635
▁ㄱㅘㅇㄷㅜㅇ -5636
▁Man -5637
▁ㅂㅏㄹㄱㅣ -5638
ㅈㅏㅇㅍㅜㅁ -5639
▁ㅍㅗㄱㄴㅓㄼ -5640
▁ㄹㅔㄱ -5641
ㅈㅓㄱㅈㅣ -5642
▁ㅂㅕㄱㄷㅗㄹ -5643
ㅁㅣㄹㅌㅓㄴ -5644
▁ㅈㅡㄱㄱㅏㄱ -5645
ens -5646
▁ㅂㅐㅇ -5647
ㅂㅏㅇㅅㅓ -5648
ㅎㅡㅇㄱㅜㄴ -5649
▁ㅅㅜㄱㅊㅓㅇ -5650
▁ㅇㅜㄴㅅㅜ -5651
ary -5652
ㄹㅓㅇ -5653
▁ㄴㅗㅎㅊㅣ -5654
▁ㄷㅗㄱㅅㅓ -5655
▁ㅈㅓㅇㅅㅔ -5656
▁ㅊㅣㅁㅌㅜ -5657
▁ㅂㅏㄹㅂㅕㅇ -5658
▁ㅁㅏㄴㅇㅣㄹ -5659
▁ㅎㅗㄴㄷㅗㅇ -5660
TC -5661
▁ㅋㅓㅅ -5662
▁ㄱㅣㅁㅈㅣ -5663
▁ㅍㅣㄹㅅㅏ -5664
▁ㄱㅏㅇㄷㅗㅇ -5665
▁ㄱㅕㅇㅊㅏㄹㄱㅘㄴ -5666
▁ㅌㅏㄴㄷㅗ -5667
▁ㄱㅏㅁㅆㅏ -5668
ㄷㅗㅇㄱㅏㅇ -5669
▁ㄴㅏㄴㅈㅣㅇ -5670
▁ㅁㅣㄹㅈㅣㅂ -5671
▁ㅈㅜㅇㅅㅏㄴ -5672
▁ㅇㅏㄴㅌㅔ -5673
▁ㅇㅣㄹㅋㅓㄹ -5674
▁ㅊㅓㄱㅊㅜ -5675
ㅇㅑㄹ -5676
▁ㅅㅣㄹㅂㅓ -5677
▁'' -5678
▁ㅊㅓㄴㅎㅏ -5679
ㅈㅣㅅㅈㅓㅁ -5680
▁ㅇㅑㅇㅂㅏㄴ -5681
▁ㅇㅗㅇㄹㅣㅂ -5682
ㄱㅡㅅㄴㅏ -5683
▁ㄱㅏㅁㅁㅏ -5684
▁ㅅㅓㄹㅎㅘ -5685
▁ㄷㅗㄹㄱㅕㄱ -5686
▁ㅂㅗㄴㄱㅜㄱ -5687
▁ㄲㅗㄱㅈㅣㅅㅈㅓㅁ -5688
▁ㅅㅡㅂㅈㅣ -5689
▁ㅁㅏㄴㅅㅓㅇ -5690
▁ㅇㅕㅇㄷㅡㅇ -5691
▁ㅇㅝㄴㅈㅗㅇ -5692
▁ㄱㅕㅇㅅㅓㅇㅂㅜ -5693
ㅁㅜㄴㅌㅡ -5694
▁ㅇㅜㄹㅅㅏㄴㄱㅘㅇㅇㅕㄱㅅㅣ -5695
ㅅㅔㅁㅂㅜ -5696
ㅇㅛㄱㅈㅜ -5697
▁ㄹㅜㄱㅅㅔㅁㅂㅜ -5698
▁ㅁㅣㅇ -5699
ㄹㅏㄴㅊㅔ -5700
ㅅㅏㅇㄱㅏ -5701
▁ㅎㅔㄹㄹㅔ -5702
▁ㅈㅓㄴㄴㅕㄴ -5703
▁ㅎㅏㄱㅇㅓㅂ -5704
▁ㅈㅜㅇㅂㅗㄱ -5705
▁ㅋㅓㄴㅅㅔㅂ -5706
▁} -5707
▁ㅇㅓㅅ -5708
ㄹㅓㄹㄷㅡ -5709
▁ㅇㅣㅁㅇㅝㄴ -5710
▁ㅈㅓㄻㅇㅡㄴㅇㅣ -5711
▁ㅂㅣㅁ -5712
▁ㄱㅏㄱㄷㅗ -5713
▁ㅎㅕㄴㅇㅡㄴ -5714
▁ㅉㅗㅊㄱㅕ -5715
▁ㄱㅏㄴㅅㅓㄴ -5716
▁IM -5717
▁ㅅㅐㅇㅊㅔ -5718
▁ㄱㅜㄱㅇㅕㅇ -5719
▁ㅎㅔㄱ -5720
▁ㅇㅡㅇㅅㅣ -5721
▁ㅎㅏㄱㄱㅣ -5722
▁ㄷㅗㅇㅎㅏㄱ -5723
▁ㅈㅓㄴㅅㅗㄱ -5724
LE -5725
ㅋㅔㅅㅁㅗㄴㅅㅡ -5726
▁No -5727
▁ㅁㅣㄱ -5728
ㅂㅔㄹㅌㅡ -5729
▁ㅇㅓㄵ -5730
ㅂㅔㄹㄹㅏ -5731
▁ㄷㅗㅇㅈㅓㅇ -5732
ach -5733
▁ㅁㅏㄹㅁㅣ -5734
▁ㅇㅕㅇㅁㅜㄴ -5735
▁ㅊㅣㅇㅊㅏㄴ -5736
▁ㅅㅐㅇㅅㅐㅇ -5737
ㅅㅁㅜㄹ -5738
▁ㅇㅕㄹㄷㅗ -5739
▁ㄱㅗㅇㅈㅓㄱ -5740
▁ㄱㅏㅇㅂㅕㄴ -5741
TA -5742
ㅌㅣㄱㅅㅡ -5743
▁ㅇㅚㄴㅅㅗㄴ -5744
▁ㅈㅗㅇㅅㅗㄱ -5745
ㅍㅔㄴㅎㅏ -5746
▁ㅅㅣㄴㅇㅝㄴ -5747
ㄱㅑㄹ -5748
ㄹㅜㄹ -5749
▁ㅂㅕㅇㄱㅣ -5750
ert -5751
▁ㅈㅣㅇㄱㅖ -5752
ㅋㅡㄴ -5753
▁ㄱㅗㅇㄹㅣ -5754
▁ㅂㅔㄹㅌㅡ -5755
▁ㄷㅏㄴㅊㅜㄱ -5756
▁ㅂㅏㄹㄱㅡㅂ -5757
▁ㅅㅐㅇㄹㅑㄱ -5758
ㅁㅏㄱㅈㅓㄴ -5759
▁1901 -5760
▁ㅊㅜㄱㅈㅗ -5761
IG -5762
LS -5763
ㄷㅓㅇㅇㅣ -5764
▁ㄱㅗㅇㅈㅗ -5765
ㅁㅓㄴㅅㅡ -5766
ㅋㅏㄹㄹㅣ -5767
out -5768
▁ㅅㅏㅅㅍㅗ -5769
ㄲㅏㅌㅉㅗㄱ -5770
ㅌㅔㄱㅊㅓ -5771
▁ㄱㅣㅅㅂㅏㄹ -5772
▁ㄹㅖ -5773
▁THE -5774
▁ㄷㅏㄱ -5775
▁ㅊㅜㅂ -5776
ㄷㅜㅁ -5777
▁ㅈㅓㅇㅁㅜㄴ -5778
▁MB -5779
▁ㅌㅗㅇㅂㅗ -5780
▁ㅇㅐㄹㅂㅓ -5781
▁ㅇㅑㄱㅈㅏ -5782
▁ㅇㅗㄱㅅㅜ -5783
▁ㅂㅗㄴㅁㅜㄴ -5784
ㅁㅟ -5785
ug -5786
▁AN -5787
▁134 -5788
▁ㅅㅓㅇㅍㅗㄱ -5789
▁ㅈㅜㅇㅎㅕㅇ -5790
▁ㅈㅣㄱㄱㅕㄹ -5791
▁ㅊㅗㄱㅁㅐ -5792
▁ㄲㅗㅂ -5793
ㅁㅗㄹㄹㅗ -5794
▁ㅇㅜㄹㅍㅡ -5795
▁ㅌㅏㄹㄹㅣ -5796
▁ㄱㅘㄴㄱㅘㅇㅈㅣ -5797
ㅋㅣㄱ -5798
▁ㅇㅞㄴ -5799
▁ㅇㅕㄴㅅㅡㅇ -5800
▁ㅊㅏㅇㅊㅜㄹ -5801
▁ㄱㅣㅁㅈㅔ -5802
▁ㅅㅐㄴㄷㅡ -5803
▁ㄱㅗㅇㄱㅏㅁ -5804
▁ㅋㅗㅁㅍㅐㄱㅌㅡ -5805
▁ㄷㅏㄲ -5806
ㅂㅣㄹㄹㅏ -5807
▁ㄷㅗㄱㅅㅓㅇ -5808
▁ㅅㅏㅇㄱㅡㅁ -5809
▁ㅆㅓㄹ -5810
▁ㅎㅏㄴㅈㅗㄱ -5811
▁ㄱㅕㄹㅋㅗ -5812
▁ㄷㅗㅇㄴㅔ -5813
▁ㅇㅏㅂㄷㅜㄹ -5814
▁ㅇㅝㄴㅊㅓㄴ -5815
▁ㅈㅓㅇㅅㅓㄴ -5816
ys -5817
ase -5818
▁ㅊㅓㄴㅈㅐ -5819
ㅋㅗㄹㄹㅣ -5820
▁ㄷㅏㄴㅇㅢ -5821
▁ㅇㅣㄹㄹㅓ -5822
▁1903 -5823
▁ㄷㅔㄹㄹㅏ -5824
▁ㅇㅏㅅ -5825
▁ㅁㅏㄹㅆㅡㅁ -5826
▁ㅈㅓㅇㅈㅓㄱ -5827
▁ㅇㅕㄴㅇㅣ -5828
▁ㄷㅏㅂㅂㅕㄴ -5829
▁ㅁㅝ -5830
▁ㅅㅡㄹㄹㅣ -5831
ㅂㅓㄴㄴㅚ -5832
▁ㅎㅗㅁㄱㅜ -5833
▁ㅈㅜㅇㅅㅜ -5834
▁ㅇㅕㅁㅈㅡㅇ -5835
▁EX -5836
▁ㅂㅜㄴㅅㅜ -5837
▁ㄷㅏㄹㄱㅑㄹ -5838
▁ㅈㅓㅇㅅㅓㅇ -5839
▁ㅇㅣㅀㅇㅓ -5840
ㅎㅡㄹ -5841
▁ㅊㅗㅇㅁㅜ -5842
▁ㄱㅘㅇㅁㅕㅇ -5843
▁ㅂㅗㄱㅇㅛㅇ -5844
▁ㅈㅜㅇㄱㅗㅇ -5845
▁ㅂㅜㄴㅁㅕㅇㅎㅣ -5846
▁ㅅㅏㅁㄱㅜㄱㅈㅣ -5847
▁ㅁㅗㄳ -5848
▁ㅇㅔㄴㄷㅣㅇ -5849
▁1884 -5850
ㄴㅏㄴㄷㅗ -5851
▁ㅅㅗㄴㄲㅗ -5852
▁Gr -5853
▁ㄱㅗㅇㅇㅖ -5854
ㄸㅏㄹ -5855
▁One -5856
▁ㄱㅝㄴㅊㅗㅇ -5857
▁ㅈㅣㄱㅁㅕㄴ -5858
▁ㄱㅏㄴㄷㅏㄴㅎㅣ -5859
▁ㄴㅏㅁㅈㅏㄱ -5860
▁ㅂㅗㅇㄱㅓㄴ -5861
▁hPa -5862
▁ㅅㅔㄱㅅㅡ -5863
▁ㄱㅣㅁㅊㅏㅇ -5864
▁ㅇㅕㅁㅅㅐㄱㅊㅔ -5865
ㄴㅕㄴㄱㅣ -5866
ree -5867
ㅎㅣㄹ -5868
▁with -5869
ㅂㅜㄹㄱㅛ -5870
▁ㅅㅓㅇㅈㅣ -5871
▁ㅎㅏㅁㅈㅓㅇ -5872
▁ㅈㅓㄴㅇㅟ -5873
▁ㅂㅜㄹㄲㅗㅊ -5874
▁ㅇㅣㅁㄱㅘㄴ -5875
▁ㄴㅏㅁㅈㅗ -5876
▁ㅈㅣㄱㄱㅕㅇ -5877
▁ㅂㅗㄱㅎㅏㅂㅊㅔ -5878
▁IN -5879
11 -5880
▁All -5881
▁ㄴㅏㅁㅁㅐ -5882
▁KIA -5883
ㄱㅗㄱㄷㅗㅇ -5884
ㄴㅓㅎ -5885
ㅅㅣㄱㅇㅣㄴ -5886
▁ㅍㅗㄱㄱㅕㄱㄱㅣ -5887
▁ㅂㅏㄹㄹㅔㄴㅅㅣ -5888
▁ㄱㅡㄱㄷㅐ -5889
▁ㄷㅏㄴㅈㅓㄹ -5890
▁ㅇㅕㄱㄹㅑㅇ -5891
▁ㄱㅕㅇㅇㅣㄴ -5892
▁ㅁㅜㄹㅍㅜㅁ -5893
ke -5894
▁ㅈㅓㅇㅇㅠ -5895
ㄴㅕㅁㄱㅘㄴ -5896
▁ㄱㅜㄴㅅㅏㄴ -5897
▁ㅊㅏㅇㄴㅕㅇ -5898
▁GO -5899
ㅈㅏㄱㅈㅣ -5900
▁ㅈㅓㄹㄷㅗ -5901
▁ㄱㅗㅇㅁㅕㅇ -5902
▁ㅇㅓㄺ -5903
▁ㄱㅘㅇㄷㅐ -5904
▁ㅂㅜㅌㅈㅏㅂㅎㅣ -5905
ㄷㅗㅇㄱㅣ -5906
ㅈㅓㅇㄷㅗㅇ -5907
▁ㅇㅗㅀ -5908
▁ㅅㅓㄱㅂㅜㄹ -5909
▁Cl -5910
ㄷㅏㅎ -5911
▁ㄷㅟㅅㅂㅏㄷㅊㅣㅁ -5912
pt -5913
act -5914
ㅎㅡㄱ -5915
▁ㅇㅣㅂㄱㅜㄱ -5916
▁Ad -5917
ㅁㅏㅅ -5918
▁ㅅㅓㄴㅇㅜ -5919
▁ㄹㅔㅁ -5920
▁ㄱㅓㅁㅊㅜㄹ -5921
▁ㅂㅏㅇㄱㅡㄹㄹㅏ -5922
▁LA -5923
▁ㅍㅏㅅ -5924
▁ㄱㅏㄴㅌㅗ -5925
▁ㅅㅓㄴㅂㅐ -5926
▁ㄷㅏㄴㅁㅕㄴ -5927
▁ㅅㅓㄴㅎㅐㅇ -5928
▁ㅂㅡㄹㄹㅓ -5929
ㅅㅏㄴㅁㅐㄱ -5930
▁1800 -5931
▁ㅈㅓㅁㅅㅓㅇㅅㅜㄹ -5932
▁ㅂㅜㄱㅈㅗ -5933
▁ㅇㅕㅁㅅㅗ -5934
▁ㅇㅣㄹㅅㅏㄴ -5935
▁ㅇㅣㅂㅅㅓㅇ -5936
▁ㅎㅕㄴㄱㅏㅁ -5937
▁ㄱㅐㅇㅅㅣㄴ -5938
▁ㄷㅗㅇㅎㅕㅇ -5939
▁ㅊㅜㅇㅊㅓㅇㄷㅗ -5940
▁ㅅㅏㅇㅌㅡ -5941
▁ㅂㅜㄴㅊㅜㄹ -5942
ㄱㅕㄱㅅㅜ -5943
▁ㅁㅕㄴㅈㅔ -5944
▁ㅈㅜㄴㅈㅜ -5945
ㅇㅠㄱㅊㅓㅇ -5946
▁ㄱㅜㄴㅈㅜㅇ -5947
▁ㄲㅗㄱㄷㅐ -5948
▁ㅂㅏㄱㅈㅣ -5949
▁ㄱㅓㅁㅇㅕㄹ -5950
ㄴㅕㅁㅂㅣ -5951
▁ㄱㅏㄹㅅㅜ -5952
▁ㅇㅝㄴㅂㅗㄴ -5953
▁116 -5954
ㅅㅏㄴㅅㅓㅇ -5955
▁ㅅㅏㅇㅇㅡㅇ -5956
▁ㅎㅘㄱㅅㅣㄹㅎㅣ -5957
ㄲㅡㅅ -5958
▁ㅎㅟㄹ -5959
▁ㄷㅔㄹㅌㅏ -5960
▁ㅈㅗㅇㄹㅐ -5961
▁ㅂㅏㅇㅅㅗㅇㅇㅣㄴ -5962
ㅎㅣㅁ -5963
▁ㅇㅝㄴㄹㅛ -5964
▁ㅉㅗㅊㅇㅏ -5965
ㄷㅡㅇㅎㅏㄱㅅㅐㅇ -5966
▁ㄷㅏㅇㅅㅜ -5967
▁ㄱㅣㅁㅎㅗㅇ -5968
▁ㅇㅕㅇㄱㅜㄱㅇㅣㄴ -5969
▁ㄱㅜㄴㅎㅏㅁ -5970
▁ㅁㅣㄴㄱㅏㅁ -5971
▁NGC -5972
▁ㄱㅝㄴㅈㅏㅇ -5973
▁2022 -5974
▁ㄱㅕㅇㄱㅘ -5975
▁ㅈㅣㄹㅅㅗ -5976
▁ㅋㅓㅁㅂㅐㄱ -5977
ass -5978
▁con -5979
▁ㄱㅡㅂㅅㅜ -5980
▁ㅈㅓㄴㄱㅜ -5981
▁ㅈㅜㅇㄹㅕㅇ -5982
▁ㅋㅗㄴㅌㅔ -5983
▁ㄱㅏㄱㅅㅐㄱ -5984
▁ㄴㅏㅁㄷㅗㅇㅅㅐㅇ -5985
▁ㅎㅘㄹㅈㅜ -5986
▁ㄱㅘㄴㅈㅓㄹ -5987
▁ㄱㅜㅇㅈㅜㅇ -5988
▁ㄱㅏㅇㄴㅏㅁㄱㅜ -5989
▁Br -5990
▁ㅊㅓㄹㅍㅖ -5991
▁ㅊㅓㄴㅇㅕㄴㄱㅣ -5992
▁ㄲㅜㄹ -5993
▁ㅈㅗㅇㅈㅓㅁ -5994
▁ㅎㅘㄱㅈㅣㄴ -5995
▁ㅎㅡㄴㄷㅡㄹㄹㅣ -5996
ㅂㅔㄴㅊㅓ -5997
▁ㅂㅜㄴㄹㅑㅇ -5998
▁ㅂㅓㅂㅈㅓㅇㄷㅗㅇ -5999
ream -6000
ㅅㅓㄴㅇㅘㅇ -6001
▁ㅈㅓㄴㅇㅕㅁㅂㅕㅇ -6002
▁CN -6003
▁122 -6004
▁ㅅㅐㄱㅊㅐ -6005
▁ㅇㅡㅇㅎㅏ -6006
▁ㄱㅗㄱㅁㅜㄹ -6007
▁ㅅㅏㅁㅊㅗㄴ -6008
▁ㅍㅕㅇㅊㅏㅇ -6009
▁;& -6010
clude -6011
ㅂㅏㄴㄱㅜ -6012
▁ㄷㅗㅇㅈㅗ -6013
▁ㅅㅏㅇㄱㅏ -6014
▁ㅇㅐㄴㄷㅓ -6015
ㅁㅜㄴㅅㅓ -6016
▁ㄴㅗㅇㅂㅜ -6017
▁ㅇㅗㄹㄷㅡ -6018
▁ㅇㅕㄴㅂㅗㅇ -6019
▁1860 -6020
▁1897 -6021
▁ㅅㅣㄹㅁㅜ -6022
▁Ex -6023
ㅇㅕㄱㅎㅏㄱ -6024
▁ㄱㅏㅁㅎㅐㅇ -6025
▁ㅈㅓㅇㄹㅣㅂ -6026
▁ㄴㅏㄹㅋㅏ -6027
▁ㅂㅏㄹㄹㅕㅇ -6028
▁ㄱㅜㄴㅊㅓㅇ -6029
▁ㅈㅓㅇㄷㅗㅇ -6030
▁ㅅㅣㄴㅊㅜㄱ -6031
▁ㄹㅏㅂ -6032
▁ㅅㅐㄴㄷㅣ -6033
▁ㅅㅏㄴㅊㅜㄹ -6034
ㄷㅠㅁ -6035
ㅃㅏㄹ -6036
▁220 -6037
▁ㅍㅔㄴㅅㅣㅇ -6038
▁ㅊㅓㅇㅅㅏㄴ -6039
▁Is -6040
ㅇㅏㄵ -6041
▁ㄱㅗㅇㄱㅗ -6042
▁ㅅㅗㄹㄹㅜ -6043
▁ㅇㅏㄴㅊㅣ -6044
▁ㅅㅣㄹㅁㅏㅇ -6045
▁ㅌㅡㄱㅂㅕㄹㅈㅏ -6046
▁ㄱㅏㅇㄱㅏㄴ -6047
▁ㅇㅣㅂㄱㅏㄱ -6048
ㅌㅣㄹㄹㅣ -6049
▁ㅅㅏㅇㅂㅓㅂ -6050
▁ㄱㅏㄹㄹㅐ -6051
▁ㄴㅗㄴㅎㅏ -6052
▁ㅈㅓㄴㅂㅗㄱ -6053
▁ㅈㅓㄴㅅㅏㄴ -6054
▁ㅇㅏㄴㄱㅕㅇ -6055
▁ㅎㅏㅁㅇㅑㅇ -6056
▁ㅇㅕㅇㄷㅡㅇㅍㅗ -6057
▁ㅇㅣㄹㅍㅏ -6058
ii -6059
▁ㄸㅓㄱ -6060
▁ㅎㅕㅁㅇㅗ -6061
▁ㅇㅛㅇㅇㅏㅁ -6062
ㄹㅓㄹㄹㅣ -6063
▁ㅅㅓㄹㄱㅛ -6064
▁ㄱㅗㅇㅇㅛㅇㅇㅓ -6065
▁ㄴㅛ -6066
▁ㅈㅜㅇㄱㅗㅇㅇㅓㅂ -6067
ㅂㅏㅇㅅㅏㄴ -6068
▁ㅈㅏㅇㅂㅕㄱ -6069
▁++ -6070
▁ㅇㅏㄴㅅㅏㄴ -6071
▁133 -6072
▁ㅇㅠㄴㅂㅗ -6073
▁ㄷㅡㅇㅇㅛㅇ -6074
▁ㅇㅣㄹㄱㅘㄹ -6075
ㅅㅓㅇㅈㅜ -6076
ㅈㅏㄱㅅㅏ -6077
ㅋㅗㅂㅌㅓ -6078
ㅌㅔㄹㄹㅔ -6079
▁ㅁㅜㄲㅇㅣ -6080
▁ㅎㅕㅇㅈㅗ -6081
▁ㅎㅗㄹㄹㅣ -6082
▁ㅈㅓㄴㅂㅏㅇ -6083
ake -6084
▁ㅅㅏㅇㄱㅕㅇ -6085
▁ㅌㅡㄱㄱㅝㄴ -6086
▁ㅎㅓㄴㅅㅣㄴ -6087
▁ㄴㅏㅁㅇㅑㅇㅈㅜ -6088
▁ㄴㅐㅁㅅㅐ -6089
▁ㅅㅓㄱㅎㅚ -6090
▁ㅎㅓㄴㅈㅓㅇ -6091
ㄱㅏㅎ -6092
ㅇㅣㄹㅇㅡ -6093
▁ㄱㅡㄹㄹㅐ -6094
▁ㅁㅜㄴㄱㅕㅇ -6095
ㄹㅔㄱㅌㅓ -6096
▁ㄱㅏㅇㄷㅐ -6097
▁ㅅㅜㄱㅂㅜ -6098
▁ㅇㅣㅂㅈㅜ -6099
▁ㅈㅗㅇㅍㅏ -6100
▁ㅁㅏㄱㅅㅡ -6101
own -6102
▁ㄱㅡㄱㄹㅏㄱ -6103
▁ㅂㅜㄹㅅㅣㄴ -6104
▁ㅅㅓㄹㄹㅣㅂㅈㅏ -6105
▁ㅈㅣㄴㅎㅐㅇㅈㅏ -6106
iss -6107
▁1880 -6108
ㅇㅗㄹㄹㅗ -6109
▁ㅈㅓㄹㄷㅏㄴ -6110
▁ㅅㅕㄹ -6111
▁ㄷㅡㅇㄱㅣ -6112
ㅈㅓㅇㅇㅝㄴ -6113
▁ㅂㅏㄹㅋㅏㄴ -6114
▁ㅎㅏㅁㅅㅓㄴ -6115
▁ㅎㅡㅇㅅㅓㄴㄷㅐ -6116
HO -6117
ㄹㅓㅅ -6118
▁ㅁㅗㄱㅇㅛ -6119
▁ㅂㅣㄴㄷㅗ -6120
CAF -6121
ㅂㅏㅇㅇㅜㄹ -6122
▁ㄲㅡㄶㅇㅣㅁㅇㅓㅄㅇㅣ -6123
Hz -6124
▁CBS -6125
▁ㄴㅗㅇㅇㅓ -6126
▁ㅂㅜㅌㅇㅕ -6127
▁ㅈㅏㅇㅈㅏ -6128
▁ㄱㅓㅌㅂㅗ -6129
▁ㅅㅓㄴㄷㅗㅇ -6130
▁ㄱㅕㄴㅇㅣㄴ -6131
▁ㅂㅏㄴㅈㅓㄴ -6132
▁ㅊㅓㅇㅅㅐㄱ -6133
▁BM -6134
▁ㄷㅣㄹ -6135
▁ㅁㅣㄹㄹㅓ -6136
ㄱㅜㅇㅎㅘ -6137
▁or -6138
▁ㅎㅜㅁㅊㅣ -6139
▁ㄷㅗㄹㄱㅣ -6140
▁ㅂㅜㄹㅇㅓ -6141
▁ㅎㅏㄴㅌㅔ -6142
▁ㄱㅕㄱㅈㅏ -6143
▁ㄴㅗㅇㅅㅏ -6144
ㅘㅇ -6145
▁pro -6146
▁ㅈㅓㅇㅎㅘ -6147
ㄱㅘㄴㅎㅏㄱㄱㅛ -6148
ork -6149
ㅍㅡㄹㄹㅗ -6150
▁ㅅㅣㅁㅇㅑ -6151
▁ㅊㅓㅇㅈㅏ -6152
ㄷㅗㅇㄱㅜㄴ -6153
▁ㄱㅏㅇㅊㅓㄹ -6154
▁ㄱㅗㅇㅎㅘㅇ -6155
GA -6156
▁ㅂㅕㄱㅎㅘ -6157
▁ㅅㅏㅇㄱㅗ -6158
▁ㅇㅑㄱㅅㅏ -6159
▁ㅇㅣㄴㅈㅣㄹ -6160
▁ㅅㅗㄴㄲㅗㅂㅎㅣ -6161
ㄹㅓㄹㄹㅣㅁㅍㅣㄱ -6162
UR -6163
▁ㅂㅏㄴㄱㅜㄴ -6164
▁ㅅㅣㄴㄷㅗㅇ -6165
▁ㅁㅜㄹㄱㅏ -6166
▁ㄱㅡㄱㅈㅏㄱㄱㅏ -6167
▁ㅁㅣㄴㄱㅏㄴㅇㅣㄴ -6168
() -6169
▁ㅎㅔㄹㄹㅠㅁ -6170
▁ㅎㅕㅂㄷㅗㅇ -6171
ㅇㅟㅇ -6172
▁ㄱㅜㄱㅅㅜ -6173
▁ㅁㅏㄱㅅㅣ -6174
▁ㅂㅜㄱㄱㅕㅇ -6175
▁ㅈㅏㅇㅈㅔ -6176
▁ㅋㅣㄹ -6177
▁ㅂㅗㄹㅅㅖ -6178
▁ㅎㅏㄱㄷㅐ -6179
ㅈㅣㄱㅇㅝㄴ -6180
▁ㅇㅕㄴㅁㅗㅅ -6181
ㄷㅗㅇㅎㅏ -6182
ㅂㅓㅂㅅㅏ -6183
lo -6184
▁ㅈㅣㄴㅅㅜ -6185
▁ㅇㅕㄴㄷㅗㅇ -6186
▁only -6187
ㅊㅓㄴㅁㅕㄴ -6188
▁ㄱㅗㅇㅅㅗㄴ -6189
▁ㄱㅜㄱㅁㅣㄴㅎㅚ -6190
▁ㅂㅜㅁ -6191
ection -6192
▁ㄷㅏㄴㅎㅐㅇㅂㅗㄴ -6193
▁ㅃㅛ -6194
▁Mus -6195
ㅅㅗㄱㅈㅏㄱ -6196
▁ㅅㅣㄹㅈㅓㄱ -6197
▁ㅇㅝㄴㄱㅕㄱ -6198
old -6199
▁ㅅㅣㄹㅈㅐ -6200
▁ㅁㅣㄴㅈㅓㅇ -6201
ㅌㅔㅂ -6202
▁ㅇㅏㄴㄷㅔ -6203
▁ㅇㅡㅁㅎㅑㅇ -6204
▁ㅇㅣㅂㅇㅑㅇ -6205
▁ㅅㅓㄴㄷㅐ -6206
▁ㅈㅓㅂㅅㅜ -6207
▁ㅂㅗㄱㄱㅝㄴ -6208
ㅌㅡㄹㄹㅐㄴㅌㅏ -6209
ㄷㅗㅁ -6210
ㄱㅗㅁ -6211
▁GDP -6212
▁132 -6213
▁ㅂㅕㅇㅁㅏ -6214
▁ㅈㅣㄴㅈㅓㄴ -6215
▁ㅌㅜㄴ -6216
▁ㄱㅏㅁㅇㅏㄴ -6217
▁ㅇㅐㅇㄱㅡㄹ -6218
▁USS -6219
ㅇㅣㅂㅈㅏ -6220
▁ㅊㅏㄹㄹㅣ -6221
ㄱㅗㅇㅅㅏㄴ -6222
▁ㅁㅏㅈㅂㅜㅌ -6223
ㄷㅏㄴㅈㅏㅇ -6224
▁ㅈㅓㅇㄱㅕㅇ -6225
▁DM -6226
ㅎㅡㄴ -6227
ㅎㅏㄹㅅㅣ -6228
ㅎㅗㄹㄹㅡㅁ -6229
▁ㅍㅕㅇㅇㅏㄴㅂㅜㄱㄷㅗ -6230
ix -6231
▁Ph -6232
▁ㄲㅏㄲ -6233
▁ㅈㅜㅇㅇㅝㄴ -6234
▁ㅁㅗㅇㄱㅗ -6235
▁ㅂㅓㄴㅅㅓㅇ -6236
▁ㅈㅓㄴㄱㅕㄱ -6237
▁ES -6238
▁ㅂㅔㄱ -6239
▁ㅊㅏㅇㅇㅢ -6240
ick -6241
▁ㄱㅕㄹㅈㅔ -6242
▁ㅊㅣㅁㅊㅔ -6243
▁ㄱㅕㄹㅍㅣㅂ -6244
▁ㅅㅗㄱㅍㅕㄴ -6245
▁PR -6246
ㅁㅔㄴㅅㅡ -6247
▁ㅂㅗㅇㅅㅜ -6248
▁ㅈㅣㄴㄹㅛ -6249
▁ㅈㅏㅇㅇㅝㄴ -6250
▁kt -6251
▁ㅉㅏㅇ -6252
▁ㅈㅣㅁㅈㅏㄱ -6253
▁ㅅㅏㅁㄱㅜㄱㅅㅏ -6254
▁ㅍㅕㅇㅇㅏㄴㄴㅏㅁㄷㅗ -6255
lass -6256
ㄹㅡㄹㅌㅔ -6257
▁ㄱㅣㅁㅇㅗㄱ -6258
ence -6259
▁ㄴㅏㄲ -6260
▁ㅍㅗㄱㄹㅗ -6261
▁ㅎㅕㄴㅎㅘㅇ -6262
▁GN -6263
▁Ro -6264
▁ㅇㅗㄹㄹㅣㅁㅍㅣ -6265
▁ㅈㅜㄴㄱㅕㄹㅅㅡㅇㅈㅓㄴ -6266
▁NE -6267
▁ㅅㅏㄴㅌㅣ -6268
▁ㅇㅏㅇㄱㅗ -6269
▁ㅇㅕㄱㄷㅗ -6270
ㅇㅓㅂㅅㅗ -6271
ㄸㅏㅇ -6272
▁ㄴㅗㅇㅅㅏㄴㅁㅜㄹ -6273
▁ㅇㅘㅇㅈㅓㅇ -6274
▁La -6275
ㅇㅣㄹㅈㅡ -6276
▁ㅅㅏㄹㅍㅣ -6277
▁ㅊㅗㅇㄱㅣ -6278
▁ㅎㅏㅁㅈㅏ -6279
▁ㅂㅗㄱㅅㅣㄱ -6280
ㅅㅡㄹㄹㅔ -6281
▁ㅇㅡㄹㄲㅏ -6282
ㄹㅗㄱㅅㅐㄱ -6283
ㄸㅟ -6284
▁un -6285
▁ㅅㅜㄱㅈㅜ -6286
▁ㄱㅓㄴㄹㅠㅇ -6287
▁ㅎㅘㅇㄷㅗ -6288
include -6289
▁ㅊㅓㅇㄷㅗㅇㄱㅣ -6290
▁ㄱㅕㅇㅈㅐㅇㄹㅕㄱ -6291
ild -6292
ㅊㅓㄴㅅㅏ -6293
▁ㅌㅏㄱㅇㅝㄹ -6294
ㅅㅣㄴㅅㅓㅇ -6295
ㅋㅣㄹ -6296
▁ㅌㅏㅂㅅㅣㄴ -6297
ㄹㅡㄴㅅㅗㄴ -6298
▁ㅁㅣㄹㄹㅏㄴ -6299
▁ㅇㅑㅇㅅㅓㅇㅈㅏ -6300
ㄹㅐㅇㅋㅡㄹㄹㅣㄴ -6301
▁1885 -6302
▁ㄷㅏㄴㄱㅘ -6303
ㅈㅣㅅㅁㅏㄹ -6304
▁ㄱㅏㅂㅇㅗㅅ -6305
▁ㅎㅏㅂㄷㅏㅇ -6306
▁ㅎㅗㅇㅁㅜㄴㄱㅘㄴ -6307
ype -6308
▁": -6309
ㅇㅟㅅ -6310
▁450 -6311
ㅅㅜㄹㅅㅏ -6312
▁ㅈㅣㅂㄱㅕㄹ -6313
▁To -6314
▁NAS -6315
ㅎㅓㄴㅇㅕㅇ -6316
▁ㅈㅜㅇㅅㅐㅇ -6317
▁ㅈㅜㅇㅇㅏㅇㅂㅜ -6318
▁ㄲㅡㄹㄹㅕ -6319
▁ㄷㅗㅇㅎㅐㅇ -6320
▁ㅈㅗㅇㅁㅏㄹ -6321
▁ㅎㅕㄴㅈㅣㄱ -6322
▁ㅅㅣㄴㅅㅏㅇ -6323
▁ㅎㅏㄴㅊㅡㅇ -6324
▁ㅁㅏㄴㄴㅕㄴ -6325
▁ㅌㅡㄱㅅㅐㄱ -6326
▁ㄱㅗㅇㅇㅑㄱ -6327
ear -6328
ㅁㅓㄹ -6329
ㅅㅏㅇㅅㅣ -6330
▁ㅇㅣㄴㅍㅡ -6331
▁ㅈㅡㄹㄱㅓㅂ -6332
▁ㅊㅜㄹㅅㅓㄱ -6333
▁SL -6334
ance -6335
▁ㅁㅐㄴㅎㅐ -6336
▁ㅁㅏㄹㄴㅕㄴ -6337
▁CEO -6338
▁ㄹㅡㄴ -6339
▁ㅁㅐㅅ -6340
ㄹㅗㅂㅎㅣ -6341
▁ㅅㅔㄴㄱㅗ -6342
▁ㅅㅜㅁㅈㅣ -6343
▁ㅇㅛㅇㅅㅓ -6344
▁ㅈㅏㅇㄷㅐ -6345
▁EBS -6346
▁1871 -6347
▁ㅈㅜㅇㅅㅓ -6348
▁vs -6349
ㅇㅜㄱㅇㅣ -6350
▁ㅅㅣㅁㅎㅘ -6351
ㅎㅏㅂㅅㅣㄹ -6352
▁@ -6353
OV -6354
▁ㅅㅣㄷ -6355
▁ㄱㅣㅁㅁㅣㄴ -6356
▁ㅅㅐㅇㅅㅓㄴ -6357
ㅅㅣㅂㅈㅏ -6358
▁Sy -6359
▁ㄱㅗㅇㅍㅏ -6360
▁ㅇㅏㄹㄹㅐ -6361
ㄱㅜㄱㅁㅣㄴ -6362
ㄱㅘㄴㄹㅣ -6363
▁ㅁㅜㄴㄱㅗ -6364
▁ㄴㅏㅁㅅㅏㄴ -6365
▁Mar -6366
▁ㄱㅜㄱㅇㅠ -6367
▁240 -6368
▁ㅂㅜㄹㅅㅏ -6369
▁ㅍㅕㅇㅁㅣㄴ -6370
ivers -6371
▁1200 -6372
▁ㄱㅏㅁㅊㅜ -6373
▁ㄱㅜㄱㅇㅏㄱ -6374
▁ㅂㅏㄴㅇㅕㄱ -6375
▁1870 -6376
▁ㄷㅏㅇㅇㅕㄴㅎㅣ -6377
▁AD -6378
▁ㄷㅐㅅ -6379
▁ㅅㅏㅇㄱㅣ -6380
▁ㄲㅜㅁㄲㅜ -6381
ㄴㅕㅁㅇㅣㄹ -6382
ㄷㅡㅇㅅㅣㄱ -6383
▁ㅇㅏㅍㅉㅗㄱ -6384
▁ex -6385
▁ㅅㅓㅇㄴㅏㅁㅅㅣ -6386
▁sc -6387
ㄱㅏㅈ -6388
ㅌㅓㄱ -6389
▁ㄱㅜㄱㅂㅗ -6390
▁1600 -6391
TP -6392
▁ㅅㅑㄹ -6393
ㅅㅓㄴㅈㅓㄴ -6394
ans -6395
▁ㄷㅡㅇㄱㅡㄱ -6396
▁ㅈㅓㅇㄱㅜㄱ -6397
GM -6398
ㅈㅓㄴㄱㅣ -6399
▁ㅅㅣㄴㅈㅗㅇ -6400
EM -6401
▁ㅋㅜㄱ -6402
▁ㅋㅣㅇㅅㅡ -6403
▁ㅎㅕㄴㅎㅐㅇ -6404
ㄹㅓㅎㅈㅣ -6405
ㅈㅏㄱㅁㅜㄹ -6406
ish -6407
▁ㄱㅏㅇㅎㅢ -6408
▁ㅅㅏㅇㅇㅕㄴ -6409
▁ㅂㅏㄹㄱㅏㄱ -6410
▁ㅃㅏㄹㄱㅏㅎ -6411
▁ㅇㅏㅍㅈㅏㅇ -6412
▁ㅂㅗㄱㅇㅡㅁㅅㅓ -6413
▁ㄷㅗㅇㅁㅜㄹㅇㅝㄴ -6414
ㅇㅓㄴㅈㅏ -6415
▁ㄴㅏㄴㅇㅣ -6416
ㄱㅏㅇㅇㅏㅁ -6417
▁ㅊㅓㅇㄹㅛㅇ -6418
▁ㅍㅕㄴㅈㅣㅂㅈㅏ -6419
AF -6420
▁ㄱㅗㅇㅍㅛ -6421
▁ㄷㅗㄹㅇㅣㅂ -6422
▁ㅅㅓㄴㅈㅏㅇ -6423
▁ㅈㅓㄱㄱㅜㄴ -6424
ㅓㄹㄹㅣㅇ -6425
▁ㄷㅏㄹㄹㅕ -6426
▁ㅅㅗㅇㄷㅗ -6427
▁ㅇㅏㅁㅎㅡㄱ -6428
▁ㅈㅏㅇㄷㅏㄴ -6429
▁ㄱㅘㄴㅁㅜㄴ -6430
▁ㅅㅣㄴㅈㅓㅇ -6431
ㄷㅏㄴㅂㅓㅂㅇㅣㄴ -6432
▁ㅎㅏㅁㄱㅕㅇㄴㅏㅁㄷㅗ -6433
▁ㄱㅣㅁㅂㅕㅇ -6434
▁ㅂㅣㄴㅂㅓㄴ -6435
OD -6436
▁ㄱㅘㄹ -6437
ㄱㅅㅕㄴ -6438
ㅁㅜㄴㅈㅏ -6439
▁CM -6440
ㅊㅓㄴㄷㅗㅇ -6441
▁ㅅㅛㄴ -6442
▁ㄱㅕㅇㅎㅢ -6443
▁ㅌㅗㅇㅌㅡㄹㅇㅓ -6444
▁ㄴㅡㅇㅅㅓㄴ -6445
▁ㄱㅗㅇㅊㅓㄴ -6446
▁ㅅㅗㄱㅇㅣ -6447
▁ㄷㅗㄹㅊㅜㄹ -6448
▁ㅃㅓㄴ -6449
ㅈㅜㅇㅊㅜ -6450
▁ㅁㅗㅁㅌㅗㅇ -6451
▁ㄱㅣㅁㅈㅓㅇㅇㅡㄴ -6452
ㅇㅔㅁ -6453
▁ㄱㅡㄱㄷㅗ -6454
▁ㄷㅗㅇㅇㅛ -6455
▁ㄱㅏㄴㅅㅣㄴ -6456
▁ㄱㅜㅇㄱㅝㄹ -6457
ㅌㅗㄱㅎㅗㄹㄹㅡㅁ -6458
EG -6459
oun -6460
ㅂㅕㄴㅇㅣ -6461
ㅇㅣㄴㄷㅡ -6462
▁ㄷㅗㅇㅇㅠ -6463
▁ㅈㅓㅇㅈㅔ -6464
▁ㅎㅠㅇㄴㅗ -6465
▁ㅍㅡㄹㄹㅐㄴ -6466
▁ㄷㅗㄹㅇㅕㄴㅂㅕㄴㅇㅣ -6467
▁ㅇㅣㅂㅅㅜ -6468
▁ㅈㅣㄴㅎㅐ -6469
▁ㅇㅏㄹㄹㅔㄱㅅㅡ -6470
▁ㄴㅏㄱㅎㅏ -6471
▁ㅁㅕㅇㅂㅜㄴ -6472
▁ㅂㅏㄱㅎㅓㄴㅇㅕㅇ -6473
lat -6474
ㅇㅣㅅ -6475
▁ㅇㅑㅌ -6476
▁ㄹㅓㄱㅂㅣ -6477
▁ㅎㅏㅂㅅㅡ -6478
ㅎㅐㅇㅅㅓㄴ -6479
▁ㅇㅕㄹㅅㅣㅁ -6480
▁ㄱㅗㅇㅁㅣㄴㅇㅘㅇ -6481
▁ㅅㅗㄱㅈㅜ -6482
ㄱㅜㄴㅈㅓㅇ -6483
▁ㄱㅏㅁㄷㅗㅇ -6484
▁ㄷㅗㅇㅊㅏㅁ -6485
▁pr -6486
ㅁㅜㄴㄱㅜ -6487
ㅇㅗㄹㄹㅏ -6488
▁ㄱㅡㄱㅎㅏㄴ -6489
▁DD -6490
ㅅㅓㅇㅅㅣ -6491
▁ㄱㅘㅇㄷㅗ -6492
▁ㅊㅜㄹㄱㅏ -6493
are -6494
▁ㅇㅛㅇㅇㅣㄴㅅㅣ -6495
▁ㅁㅓㅇ -6496
▁ㅇㅗㄴㄱㅏㅈ -6497
▁ㅌㅗㅇㅇㅕㄱ -6498
fe -6499
▁ㅆㅡㄹ -6500
ㅊㅏㅇㅎㅗ -6501
▁ㅅㅏㄴㅎㅗ -6502
▁ㅈㅓㅇㄱㅘㄴ -6503
▁NT -6504
▁ㅈㅡㅁ -6505
ㅇㅏㅁㄷㅗㅇ -6506
▁ㅇㅕㄴㄱㅡㄱㅂㅐ -6507
▁CH -6508
ical -6509
▁ㅅㅏㅁㅈㅗㄴ -6510
▁ㅅㅓㅇㄹㅕㅇ -6511
▁ㅇㅏㄴㄴㅕㅇ -6512
ㅊㅓㄴㄹㅜ -6513
▁ㅂㅜㄴㄱㅘ -6514
▁ㄱㅏㄹㄹㅣㄹㄹㅔ -6515
ㅈㅓㅇㅅㅏ -6516
EE -6517
▁ㄱㅓㅁㅈㅓㅇ -6518
▁ㅅㅏㅇㄱㅡㅂ -6519
▁ㅈㅣㅇㅂㅕㅇ -6520
irl -6521
▁ㄱㅕㅇㅅㅣ -6522
▁ㅈㅡㅇㅈㅗ -6523
▁ㅅㅣㄴㅁㅜㄴㅅㅏ -6524
▁ㅎㅘㄹㅂㅏㄹㅎㅣ -6525
▁ㅁㅣㄴㅇㅛ -6526
▁ㅊㅏㅁㅅㅏ -6527
▁ㅌㅗㅇㅇㅛㅇ -6528
▁ㄱㅘㄴㅊㅓㅇ -6529
▁ㄱㅡㄴㅅㅏ -6530
IR -6531
▁Jo -6532
ㅂㅏㅁ -6533
▁ㅎㅘㄱㄱㅗ -6534
ㄹㅏㅇㅋㅗ -6535
ㅇㅠㄱㅈㅏ -6536
▁ㅁㅣㄹㄹㅕ -6537
▁ㅈㅜㄹㄱㅓ -6538
▁ㄱㅏㅁㄱㅡㅁ -6539
▁ㅎㅔㄹㅅㅣㅇ -6540
▁CONCA -6541
▁ㅅㅏㄹㄹㅏ -6542
▁ㅅㅓㅁㅅㅔ -6543
▁ㄱㅣㅁㅇㅝㄴ -6544
FL -6545
▁210 -6546
▁ㅂㅗㅇㅎㅘ -6547
▁ㅋㅏㄹㄹㅓㅁ -6548
▁ㅅㅣㄹㅎㅓㅁㅅㅣㄹ -6549
▁AV -6550
ㅊㅏㄶ -6551
▁ㅅㅐㅇㄱㅖ -6552
ㅅㅡㅇㅂㅜㄹㄱㅛ -6553
▁CONCACAF -6554
60 -6555
ㅅㅏㄱㅅㅡ -6556
▁ㅁㅐㅇㅅㅔ -6557
▁ㅈㅓㄴㄴㅏㄹ -6558
▁ㅍㅕㅇㅎㅕㅇ -6559
▁he -6560
▁ㅂㅔㄴㅊㅣ -6561
ㄴㅏㄴㅅㅓㅇ -6562
ㅎㅕㄴㄷㅗㅇ -6563
▁ㄴㅗㅇㄱㅕㅇ -6564
▁ㅊㅣㄴㅂㅜㄴ -6565
▁ㄱㅣㄴㅌㅔ -6566
▁ㅁㅏㅈㄷㅐ -6567
▁ㅂㅏㅇㅋㅗㄱ -6568
▁ㅈㅓㄴㄹㅐ -6569
▁ㅎㅘㅇㅅㅗ -6570
ㅌㅏㄹㄹㅜ -6571
▁ㅇㅝㄴㅌㅗㅇ -6572
ㄹㄹㅡㄴ -6573
▁ㅎㅏㄴㅎㅏ -6574
▁ㅂㅜㄹㅎㅐㅇ -6575
ㄹㅏㄴㅌㅗ -6576
▁ㅂㅐㄱㄷㅜ -6577
▁ㅊㅗㅇㅇㅐ -6578
ㅌㅗㅇㅇㅣㄹ -6579
▁ㅁㅔㅅ -6580
ㅁㅐㄱㅅㅡ -6581
ㅇㅜㄴㄷㅐ -6582
ㅌㅗㅇㅂㅜ -6583
ㅍㅗㄴㅅㅓ -6584
▁ㅈㅓㅂㅇㅓ -6585
ㅎㅘㄴㄱㅕㅇ -6586
▁ㅈㅓㅇㅇㅡㅂ -6587
▁ㅇㅕㅇㅈㅓㅇ -6588
▁ㅊㅏㅇㅁㅜㄴ -6589
▁ㄱㅏㅁㅅㅜ -6590
ㄴㅗㄹㅇㅣ -6591
ㅁㅗㅇㅈㅜ -6592
▁ㅋㅡㄹㄹㅣㄴㅌㅓㄴ -6593
▁ㅇㅔㅇ -6594
▁ㅅㅣㄴㅂㅏㄹ -6595
▁ㅊㅓㄴㄱㅓ -6596
▁ㅂㅗㄴㅈㅏㄱ -6597
▁ㅂㅜㄹㅂㅕㄴ -6598
▁ㅌㅡㄱㅈㅓㄴ -6599
▁ㄷㅗㄱㄷㅗ -6600
▁Ma -6601
▁ㅅㅗㅇㅅㅣㄴ -6602
▁ㅅㅡㅂㅇㅠㄴ -6603
▁ㅌㅖㄴㅈㅣㄴ -6604
▁ㅂㅏㄴㄹㅏㄴㄱㅜㄴ -6605
▁ㄴㅔㅅㅉㅐ -6606
▁ㅇㅝㄴㅅㅣㅁ -6607
▁ㄱㅕㅇㅈㅓㄴㅊㅓㄹ -6608
ㄱㅜㄴㄷㅏ -6609
ㅁㅏㅇㄱㅏ -6610
ㅈㅓㅇㅇㅏㄴ -6611
▁ㅂㅚ -6612
▁int -6613
▁ㄱㅜㄱㄱㅛ -6614
▁ㅂㅏㄴㅅㅓㅇ -6615
▁ㅇㅕㄴㅅㅏㄴㄱㅜㄴ -6616
▁ㅎㅓㅅ -6617
ㅂㅜㄱㄱㅜ -6618
▁ㅂㅔㄴㅊㅓ -6619
▁ㄱㅏㄱㅅㅓㅇ -6620
EL -6621
ica -6622
ㅆㅡㄹ -6623
span -6624
▁ㅂㅓㄱ -6625
ㅇㅓㄹㄹㅣ -6626
▁ㅈㅏㅇㅅㅣ -6627
ey -6628
▁ABC -6629
ㅅㅗㄱㅂㅓ -6630
▁ㅂㅗㄹㄹㅗ -6631
▁ㅅㅐㄱㅅㅗ -6632
▁onlyinclude -6633
▁ㄹㅔㄹ -6634
▁Live -6635
▁ㅇㅏㄴㄴㅏ -6636
▁ㅈㅡㅇㅇㅣㄴ -6637
▁ㅊㅓㄴㅇㅘㅇ -6638
▁ㅈㅓㅇㄱㅓ -6639
▁ㄱㅏㅇㄹㅕㅇ -6640
▁ㅇㅑㄱㅎㅗㄴ -6641
▁ㅋㅏㄴㄱㅜㄱ -6642
ㄱㅘㄴㅈㅣ -6643
▁ㅁㅏㄱㅎㅣ -6644
▁ㅅㅡㄹㅎㅏ -6645
▁ㅇㅐㄱㅅㅔ -6646
▁ㄱㅘㄴㅎㅐㅇ -6647
▁ㅇㅣㄹㄷㅏㅇ -6648
▁1889 -6649
▁ㄱㅗㅇㅎㅠ -6650
▁ㅈㅜㅇㅌㅚ -6651
▁ㅂㅐㄹㄹㅣ -6652
▁ㅍㅣㄱㅊㅓ -6653
▁ㅂㅏㄱㅈㅗㅇ -6654
▁ㅈㅓㅇㅈㅗㅇ -6655
▁ㅅㅓㅇㅎㅘ -6656
▁ㅍㅔㄹㄹㅗ -6657
ㅅㅣㄴㅁㅜㄴ -6658
ㅂㅅㅣ -6659
▁JTBC -6660
▁ㄷㅏㅇㄴㅐ -6661
▁ㅇㅓㅁㅁㅣㄹ -6662
▁Fr -6663
▁ㅂㅕㄹㅅㅔ -6664
▁ㅈㅓㄱㅇㅚ -6665
▁ㅋㅓㄴㅌㅔ -6666
▁ㄱㅕㅇㅈㅣㄹ -6667
▁So -6668
▁ㅂㅜㄴㅍㅏ -6669
▁ㅋㅏㄹㅂㅐㅇ -6670
▁ㄱㅕㅇㅎㅗ -6671
▁ㅇㅕㅅㅂㅗ -6672
▁ㄱㅣㅁㅎㅕㅇ -6673
▁ㄴㅏㅁㅇㅛㅇ -6674
▁ㅊㅠ -6675
tern -6676
▁ㄱㅣㅁㅇㅠ -6677
▁ㅅㅏㄴㅅㅓㅇ -6678
▁ㅅㅓㅇㅅㅣㄹ -6679
▁ㅊㅓㄴㄱㅜㄱ -6680
▁ㅎㅏㄱㅅㅓㄹ -6681
▁ㅂㅏㄴㅍㅗ -6682
▁ㅈㅓㄴㅁㅜ -6683
▁ㅈㅜㅇㅅㅏㅇ -6684
bo -6685
ㅍㅓㅇ -6686
ㄴㅓㄹㅌㅣ -6687
ㅅㅓㅇㄱㅜ -6688
▁ㅇㅡㄴㄱㅓ -6689
▁ㅈㅓㄴㄷㅏㅁ -6690
▁GB -6691
▁ㅂㅐㄴㅋㅜ -6692
▁ㅁㅏㄴㅈㅏㅇ -6693
▁ㅈㅣㄱㅌㅗㅇ -6694
ous -6695
▁ㅁㅜㅇㅊㅣ -6696
▁ㅇㅝㄹㅌㅓ -6697
IL -6698
ㄹㅜㅇ -6699
▁ㄱㅏㄹㅇㅏ -6700
▁ㅅㅏㅁㄹㅣㅁ -6701
▁ㅊㅣㄱㄹㅕㅇ -6702
ㄱㅗㅇㅅㅏㄴㄷㅏㅇ -6703
ost -6704
▁ㄱㅜㄱㄱㅗㅇ -6705
▁MTV -6706
ㅂㅣㄹㄹㅣ -6707
ㅊㅜㅇㄹㅠ -6708
▁For -6709
▁ㄱㅡㄹㄹㅏ -6710
▁ㅂㅜㄹㅌㅐ -6711
ㅂㅏㅇㄱㅜㄴ -6712
▁ㄷㅗㄱㅊㅏㅇ -6713
▁ㅅㅓㄴㅊㅓㄴ -6714
▁ㅅㅗㅇㅊㅜㄹ -6715
▁Com -6716
▁ㄱㅡㅁㅅㅏㄴ -6717
sh -6718
▁ㅈㅗㅇㅈㅏ -6719
▁ㅍㅏㄴㄹㅖ -6720
▁ㅁㅜㄴㅈㅣㅂ -6721
▁ㅋㅚㄹㄹㅡㄴ -6722
▁Col -6723
▁ㄴㅡㅇㅎㅏ -6724
▁ㅈㅜㅇㅎㅏㅂ -6725
▁ㄱㅕㄱㅊㅏ -6726
▁ㅂㅏㄴㄱㅣ -6727
▁ㅎㅏㄴㄹㅣㅁ -6728
▁TR -6729
ㄷㅔㄴㅂㅜ -6730
▁ㄷㅡㄹㅇㅕ -6731
ㅅㅏㄴㅇㅓㅂ -6732
ㅇㅣㄴㄷㅗㄹ -6733
▁ㅂㅐㄱㄱㅘ -6734
▁ㅈㅜㄴㅅㅜ -6735
▁ㅎㅏㅇㅁㅏㄴ -6736
▁ㅇㅣㄹㅂㅗㄴㄱㅜㄱ -6737
▁ATP -6738
ㄹㅗㄹㄹㅓ -6739
ㄹㅡㄴㅅㅡ -6740
▁ㅋㅔㄹㅌㅡ -6741
▁Time -6742
▁ㅂㅏㄷㅊㅣ -6743
ㅐㅇㅇㅣ -6744
▁ㅇㅗㄹㄹㅔ -6745
▁ㅅㅓㅇㄱㅘㄱ -6746
▁ㅅㅣㄹㄹㅗㄱ -6747
▁ㅅㅣㄹㅈㅗㄴ -6748
▁ㄷㅣㅂ -6749
▁ㄷㅐㄴㅅㅓ -6750
▁ㅅㅣㄹㄱㅝㄴ -6751
▁ㅇㅡㅁㅈㅓㄹ -6752
ㅅㅏㅇㅍㅏ -6753
▁ㅂㅏㄱㅌㅔ -6754
▁Part -6755
row -6756
▁AKB -6757
▁ㅍㅓㅁㅍㅡ -6758
ㄹㅔㄱㅅㅕㄴ -6759
▁u -6760
ㄱㅣㅅ -6761
ㄴㅏㄹㄹㅗ -6762
▁ㅇㅣㄴㄱㅏ -6763
▁ㅈㅓㅇㅎㅕㅇ -6764
ㄲㅏㄴ -6765
ㅂㅡㄹㄹㅐㄴㄷㅡ -6766
▁API -6767
▁ㅇㅕㅇㅇㅠ -6768
▁ㄱㅡㄹㄲㅗㄹ -6769
▁ㅅㅣㄹㅈㅓㅇ -6770
▁ㅂㅐㄹ -6771
ㄱㅏㄴㄷㅏ -6772
ㅌㅓㄴㅌㅡ -6773
▁ㄱㅕㄱㄹㅣ -6774
▁ㅇㅕㅇㅇㅖ -6775
ㅅㅣㄴㄹㅗㄴ -6776
▁ㅇㅣㄴㅊㅣㅇ -6777
▁ㄱㅣㅁㅈㅜㄴ -6778
▁ㅅㅏㅁㅈㅜㅇ -6779
▁ㅇㅛㄱㅁㅏㅇ -6780
▁ㄱㅓㅁㅇㅡㄴㅅㅐㄱ -6781
▁at -6782
▁ㄱㅗㅇㄷㅐ -6783
▁ㅈㅏㄱㅁㅜㄹ -6784
ood -6785
▁Sou -6786
▁ㄱㅕㄹㅂㅕㄹ -6787
lay -6788
▁"& -6789
▁ㄴㅜㅂ -6790
▁ㅂㅗㄹㅌㅡ -6791
▁ㅅㅠㄹㄹㅔ -6792
▁ㅊㅐㄱㅇㅣㅁㅈㅣ -6793
ㅈㅓㅇㄱㅘㄴ -6794
az -6795
ows -6796
▁ㅂㅏㅇㅊㅣ -6797
▁ㅈㅓㄴㅅㅔ -6798
▁ㄱㅗㅇㅈㅗㄴ -6799
▁ㅇㅣㅁㅈㅓㅇ -6800
▁ㅂㅕㅇㅈㅏ -6801
▁ㅆㅏㅇㄷㅐ -6802
▁ㄱㅘㅇㅂㅗㄱㄱㅜㄴ -6803
ㅍㅇㅣ -6804
▁ㄱㅓㅂ -6805
▁ㅁㅕㅇㅅㅗ -6806
▁ㅇㅘㄴㅈㅜ -6807
uc -6808
▁ㄱㅏㅁㅊㅏㄹ -6809
▁ㅈㅗㅇㅅㅣㄱ -6810
▁ㅇㅏㅍㅈㅏㅇㅅㅓ -6811
ㅅㅏㄴㄷㅡ -6812
▁ㅎㅏㄴㅁㅣ -6813
ㅅㅜㄱㅅㅏ -6814
▁ㅂㅜㄹㅊㅏㅁ -6815
▁ㅅㅐㅁㅍㅡㄹ -6816
▁131 -6817
▁ㄱㅕㅇㅂㅗㄱ -6818
▁ㅊㅣㅁㅁㅜㄱ -6819
▁ㅍㅕㅇㅍㅕㅇ -6820
▁ㅇㅕㄴㅎㅚ -6821
▁ㅇㅘㅇㄱㅝㄴ -6822
OP -6823
▁ㄱㅗㅈ -6824
▁ㅇㅕㄲ -6825
ㅇㅣㄹㄹㅗ -6826
▁ㅌㅡㄱㅎㅘ -6827
▁ㅂㅜㄹㄹㅑㅇ -6828
▁ㅈㅗㅇㄱㅜㄴ -6829
▁ㅍㅕㅇㅈㅣ -6830
▁ㅇㅝㄴㄱㅜㄴ -6831
▁ㅈㅓㄹㅁㅏㅇ -6832
▁ㅌㅡㄴ -6833
ㅋㅓㄴㄷㅐ -6834
▁ㅅㅏㄴㅅㅣ -6835
▁ㅊㅏㄴㅅㅏ -6836
CC -6837
▁ㄱㅕㅇㅇㅕㅇㅈㅏ -6838
ㄹㅏㅂㅇㅔ -6839
▁ㄹㅣㄹㄹㅔ -6840
▁ㅅㅡㄹㅍㅡㅁ -6841
▁ㅈㅓㄴㅎㅏㄴ -6842
▁ㅊㅏㄴㅇㅑㅇ -6843
ㅅㅏㅇㅊㅓㅇ -6844
▁ㅈㅓㄴㅈㅓㄴ -6845
▁ㅎㅏㄴㅈㅜㅇ -6846
▁ㅇㅕㄴㅁㅏㄹ -6847
▁ㅊㅗㅇㅌㅗㅇ -6848
olog -6849
▁ㄴㅕㅇ -6850
▁ㅌㅏㄴㅈㅏ -6851
▁ㅍㅗㄱㅍㅏ -6852
▁ㄱㅣㅁㅁㅕㅇ -6853
▁ㅅㅜㄴㅈㅗㅇ -6854
▁ㄱㅏㄴㅊㅓㅂ -6855
▁ㅅㅠㅅ -6856
▁ㄷㅏㅇㄱㅣ -6857
80 -6858
▁ㄱㅓㄴㅈㅓㄴ -6859
▁EM -6860
▁ㅇㅜㄱ -6861
▁ㅈㅣㅇㅅㅜ -6862
ann -6863
▁ㅈㅏㅇㅎㅏㄱㄱㅡㅁ -6864
▁tv -6865
▁ㅎㅜㅇ -6866
ㅅㅔㄴㅅㅡ -6867
▁ㄱㅗㅇㅇㅕㅇ -6868
ㄸㅣ -6869
ㅁㅣㅅ -6870
ㅍㅓㄴ -6871
▁ㅎㅏㅇㅊㅔ -6872
▁Bla -6873
▁ㅈㅓㄱㄹㅛ -6874
▁ㄱㅜㄹㅈㅓㄹ -6875
▁ㅅㅓㅇㄷㅗㅇ -6876
ern -6877
▁OST -6878
▁Wind -6879
ㄹㅣㄴㅌㅡ -6880
▁ㅎㅘㅇㅅㅐㄱ -6881
▁new -6882
▁ㅁㅗㄱㅎㅚ -6883
ㅂㅜㅇㄷㅗㄹ -6884
▁ㅇㅕㄴㅈㅓㅇ -6885
▁ㅈㅏㅁㅈㅓㅇ -6886
40 -6887
▁FK -6888
▁ㅎㅗㅂ -6889
ㅇㅜㄹㄹㅜ -6890
ㅈㅓㄴㅊㅔ -6891
▁ㅇㅣㅅㄸㅏ -6892
▁ㅍㅏㄴㅅㅗ -6893
▁ㅂㅗㄴㅅㅓㅇ -6894
▁ㅅㅏㄴㄷㅜㅇ -6895
▁EU -6896
▁ㅈㅓㅇㅇㅣㄴ -6897
▁ㄴㅡㄺ -6898
▁NASA -6899
▁ㅅㅏㄴㅅㅡ -6900
▁ㅇㅕㄴㅎㅢ -6901
▁ㄴㅏㅁㅂㅏㅇ -6902
▁ㄷㅓㅍㄱㅐ -6903
▁ㅅㅏㄴㅇㅛ -6904
▁ㅋㅡㄹㄹㅓ -6905
▁ㅎㅗㄴㄷㅏ -6906
▁ㅅㅏㅇㄹㅗㄱ -6907
▁ㅇㅛㅇㅇㅢ -6908
ㄷㅗㅇㅅㅓㅇ -6909
▁ㅎㅕㅇㅈㅣㄹ -6910
▁ㅇㅣㄴㄱㅗㅇㅈㅣ -6911
ㅈㅓㄴㅌㅡ -6912
▁ㅂㅗㄴㄸㅡ -6913
▁ㄱㅘㄴㅎㅕㄴㅇㅏㄱㄷㅏㄴ -6914
▁BC -6915
▁1848 -6916
▁ㄱㅡㄱㅇㅜ -6917
▁ㅇㅔㄴㄷㅡ -6918
ㅂㅔㄹㅅㅏㅇ -6919
▁ㄱㅏㅁㅅㅓㅇ -6920
▁ㄱㅘㄴㅁㅗㄱ -6921
orn -6922
▁1883 -6923
▁Your -6924
ㅇㅣㄴㅅㅏ -6925
▁ㅁㅣㄹㄹㅔ -6926
▁ㄱㅣㅁㄱㅘㅇ -6927
▁ㅇㅛㅇㅇㅐㄱ -6928
▁ㅇㅝㄴㅅㅏㄴㅈㅣ -6929
▁RP -6930
▁ㅁㅗㄹㅌㅏ -6931
▁ㅎㅓㄴㅌㅓ -6932
▁ㅇㅗㄴㄴㅏㄴ -6933
▁RS -6934
▁ㅇㅏㄴㅂㅏㅇ -6935
▁ref -6936
▁ㅎㅓㄹ -6937
▁ㄱㅕㄱㅊㅜ -6938
▁ㅇㅡㅇㄱㅡㅂ -6939
▁ㅅㅐㅇㅈㅗㄴㅈㅏ -6940
ㅎㅐㅁ -6941
ㅇㅛㅇㄱㅐㄱ -6942
▁ㅎㅏㄴㅅㅣㄴ -6943
ㄷㅟ -6944
▁ㅅㅏㅂㅎㅘ -6945
▁ㄱㅏㄴㄹㅑㄱ -6946
▁ㄱㅏㅇㄹㅕㄹ -6947
▁ㄷㅏㄴㄱㅜㄴ -6948
▁colspan -6949
▁ㅋㅏㅂ -6950
▁ㄴㅏㅁㄱㅜㄴ -6951
▁ㄷㅏㅇㅇㅕㄴ -6952
ㅈㅏㄹ -6953
ㄱㅏㄹㄹㅑㅇ -6954
▁ㄴㅏㄱㄷㅗㅇㄱㅏㅇ -6955
II -6956
▁Ge -6957
ㄷㅡㄹㅇㅓ -6958
▁ㄷㅗㅇㄹㅗ -6959
▁ㅅㅓㄴㅁㅕㅇ -6960
ㄷㅏㄴㅎㅣ -6961
▁ㅇㅑㅇㅅㅜ -6962
▁ㄷㅗㅇㅈㅣㄴ -6963
ink -6964
▁ㄱㅗㅇㅅㅗ -6965
▁ㅈㅣㄴㄹㅗ -6966
ㅈㅓㄴㅎㅏㄱ -6967
▁ㄷㅗㅇㅅㅏㄴ -6968
▁ㅈㅓㄹㅂㅕㄱ -6969
ㅊㅜㅇㅈㅣ -6970
ㅂㅏㅇㄱㅘㄴ -6971
▁ㅈㅓㅇㅇㅡㄴ -6972
▁Sch -6973
ㄷㅏㄴㅇㅟ -6974
ㅁㅏㄱㅅㅣㄱ -6975
OT -6976
▁ㄱㅡㅁㅎㅗ -6977
▁ㅅㅣㄱㅅㅡ -6978
▁ㅁㅜㄴㄷㅏㄴ -6979
▁ㅈㅓㄹㅈㅓㅇ -6980
ㄱㅏㄹㄹㅣ -6981
▁ㄴㅗㄱㅎㅘ -6982
▁ㅁㅔㄹㅂㅓ -6983
▁ㅊㅓㅇㄷㅗ -6984
ㄱㅗㅇㄱㅏㄴ -6985
ㅁㅣㄴㅅㅡ -6986
▁ㄱㅝㄴㅎㅏ -6987
▁end -6988
ㅂㅓㅂㄱㅘㄴ -6989
▁ㅅㅑㄴ -6990
ㄷㅗㄹㅇㅣ -6991
ㅁㅏㅇㄷㅣ -6992
▁ㅌㅏㄴㅇㅑㄱ -6993
▁ㅎㅏㅁㄹㅑㅇ -6994
▁ㄲㅏㅁ -6995
ㄷㅣㅈㅎㅣ -6996
ㅈㅡㄹㄹㅣ -6997
▁ㅇㅏㄴㄱㅐ -6998
▁ㄱㅣㅁㅇㅣㄴ -6999
▁ㅇㅘㅇㄱㅓㄴ -7000
▁ㄸㅗㄱㄱㅏㅌㅇㅣ -7001
▁1882 -7002
▁ㄱㅡㅂㅇㅕ -7003
▁ㄴㅏㄲㅅㅣ -7004
▁ㄷㅗㄱㅅㅜ -7005
▁ㅇㅏㄱㅂㅗ -7006
ㅇㅏㄴㅅㅓㄴ -7007
ㅇㅣㄹㄹㅓㅅ -7008
ㅎㅑㅇㅇㅏㄱㄷㅏㄴ -7009
▁ㅂㅏㅇㄷㅐ -7010
▁ㄱㅏㅁㅅㅏㅇ -7011
▁ㄱㅜㄱㄷㅏㅇ -7012
▁ㅇㅏㅇㄱㅗㄹㄹㅏ -7013
▁ㅅㅗㅇㅍㅏ -7014
▁ㅈㅓㅁㅍㅗ -7015
ㅁㅐㄴㅌㅣㄱ -7016
▁ㅂㅓㅂㅇㅝㄴㅈㅏㅇ -7017
▁ㄱㅘㄴㅇㅏㄱ -7018
▁ㅇㅕㅇㄷㅓㄱ -7019
ㅓㅇㅑ -7020
▁ㅂㅗㅅ -7021
ㅎㅏㅂㅅㅓㅇ -7022
▁ㄱㅏㅇㄷㅏㅇ -7023
▁Day -7024
ㅂㅣㄴㅅㅡㄴ -7025
▁ㅇㅕㅇㅇㅏㅁ -7026
▁ㅇㅕㅇㅇㅝㄹ -7027
▁ㅎㅕㅇㅂㅓㄹ -7028
ㅍㅜㄹㅇㅣ -7029
▁ㅅㅓㄹㅁㅜㄴ -7030
▁ㅇㅑㅇㅇㅠㄱ -7031
▁ㅁㅕㅇㅎㅘㄱㅎㅣ -7032
ㅃㅜ -7033
ㄹㅐㄴㅊㅏ -7034
▁ㄱㅓㅁㄱㅓ -7035
ㅌㅏㄴㅂㅜㄹ -7036
▁ㅂㅜㄹㄱㅖ -7037
ㅈㅓㄴㅅㅓㄴ -7038
▁ㅇㅕㄴㄹㅣㅂ -7039
▁SNS -7040
▁ㅇㅓㅂㅈㅏ -7041
▁ㄷㅏㄴㄱㅕㄹ -7042
▁ㅇㅑㅇㅅㅣㅁ -7043
▁ㅊㅗㅇㄱㅕㄱ -7044
▁ㅂㅓㄴㅊㅏㅇ -7045
ㅂㅗㄴㅂㅜ -7046
▁ㅊㅜㅇㄹㅕㄹ -7047
▁ㅇㅕㄹㅅㅣㅁㅎㅣ -7048
▁ㅍㅣㄹㄹㅣㅂㅅㅡ -7049
▁Or -7050
ㅁㅏㄴㅋㅡㅁ -7051
▁ㄴㅔㄹㅅㅡㄴ -7052
▁ㅎㅕㅂㅇㅓㅂ -7053
▁ㅈㅗㅇㅇㅕㅇ -7054
▁ㅇㅔㄴㄹㅣ -7055
▁ㅅㅗㄱㄹㅕㄱ -7056
ㅇㅞㄴ -7057
▁4000 -7058
▁ㅇㅕㄴㅎㅘ -7059
▁ㄷㅗㅇㅈㅓㄱ -7060
▁ㅇㅕㄹㄱㅏㅇ -7061
▁ㅈㅓㅇㅇㅝㄹ -7062
▁ㅈㅗㅇㅇㅑㅇ -7063
gin -7064
▁by -7065
▁ㅂㅏㄷㄷㅡㄹ -7066
▁ㅅㅓㄴㅂㅗㅇ -7067
▁ㅋㅗㄴㅅㅗㄹ -7068
US -7069
ㄹㅔㄹㄹㅣ -7070
ㅈㅔㄹㄹㅗ -7071
▁ㅅㅏㅇㅇㅓ -7072
▁ㄷㅏㄴㅅㅗㄱ -7073
▁ㅈㅣㄱㅅㅗㄱ -7074
amp -7075
▁ㅅㅣㄱㅇㅛㅇ -7076
▁ㅇㅕㄹㅈㅓㄴ -7077
▁ㅈㅜㅇㅇㅕㅂ -7078
ㄹㅓㄴㅌㅡ -7079
RT -7080
▁ㄱㅜㄱㅎㅏㄴ -7081
▁ㅊㅐㅇ -7082
▁ㅎㅏㅇㅇㅝㄴ -7083
ㄹㅣㄹㄹㅐㄴㄷㅡ -7084
▁SA -7085
▁330 -7086
▁ㄱㅕㅇㅇㅟ -7087
▁ㅁㅜㄴㅈㅗㅇ -7088
▁ㅈㅓㄹㄱㅏㅁ -7089
▁ㅊㅣㄴㅈㅗㄱ -7090
ㅇㅛㅇㅅㅜ -7091
▁ㅂㅜㄴㅅㅏ -7092
▁GM -7093
ㄴㅔㄹㄹㅣ -7094
▁ㅎㅏㅇㅇㅜ -7095
▁ㅅㅓㅇㅅㅏㄴ -7096
gr -7097
▁ㄱㅘㄴㄹㅖ -7098
▁ㄱㅜㄱㅇㅚ -7099
▁ㅈㅓㄴㅂㅗ -7100
▁ㄱㅗㄹㄱㅕㄱ -7101
▁ㄱㅝㄴㅇㅕㄱ -7102
▁ㅌㅗㅇㅅㅣㄴㅅㅏ -7103
▁OB -7104
▁1868 -7105
ㅇㅠㅇㅎㅏㅂ -7106
▁DF -7107
▁ㅇㅕㅇㅊㅓㄴ -7108
▁ㅈㅓㅂㅈㅗㅇ -7109
▁ㅊㅓㄴㅇㅏㄴㅅㅣ -7110
OW -7111
ㅍㅕㅇㄹㅣ -7112
▁ㅂㅣㅇㅎㅏ -7113
▁ㅊㅓㄴㅅㅜ -7114
▁ㅅㅣㄴㄱㅗㄱ -7115
▁ㅈㅓㅇㄹㅕㅇ -7116
▁ㅈㅓㅇㅈㅏㄱ -7117
▁ㅎㅏㄹㅇㅣㄴ -7118
ㄹㅐㅂ -7119
▁320 -7120
ㄱㅏㄴㄷㅐ -7121
ㅍㅏㅇㅇㅣ -7122
▁ㅎㅐㄱㅇㅠㅇㅎㅏㅂ -7123
ㄷㅡㅇㄱㅛ -7124
ㅉㅜㄱ -7125
ㅍㅡㄹㄹㅣㅇ -7126
▁ㄱㅏㅇㅍㅜㅇ -7127
▁ㄷㅣㄹㄹㅓㄴ -7128
ㅇㅜㄹㅈㅡㅇ -7129
▁ㅂㅗㅇㅇㅣㄴ -7130
▁ㅋㅓㄴㅅㅓㄹ -7131
▁ㄱㅣㅁㅇㅗㄱㄱㅠㄴ -7132
oll -7133
▁203 -7134
▁ㅇㅘㅇㄱㅜㅇ -7135
▁ㅇㅣㄱㅅㅜㄱ -7136
▁ㅋㅗㄹㄹㅓㅁ -7137
▁Fe -7138
▁le -7139
ㄷㅓㄴㅈㅣ -7140
▁ㄷㅏㄴㅁㅏㄹ -7141
▁ㅂㅏㄹㅅㅏㅇ -7142
ㅋㅗㄴㄷㅡ -7143
▁ㄲㅡㅀㅇㅣ -7144
▁ㅊㅓㄴㅁㅏ -7145
ㄱㅘㄴㄱㅖ -7146
ㄷㅓㅁㅅㅡ -7147
ㅊㅓㄴㅇㅘㅇ -7148
▁ㄷㅏㄴㅈㅓㅇ -7149
▁ㅍㅕㅇㅍㅏㄴ -7150
ㄷㅏㄴㅈㅣ -7151
ㅁㅗㄴㅌㅡ -7152
▁ㄹㅐㅇㅋㅡ -7153
▁ㅂㅜㄱㅇㅠ -7154
ㄷㅗㅇㅁㅕㄴ -7155
▁ㅈㅗㅇㅅㅣㄴ -7156
▁ㅎㅏㅁㄱㅕㅇㅂㅜㄱㄷㅗ -7157
ung -7158
ㄴㅓㅅ -7159
ublic -7160
ㅎㅕㅂㅎㅚ -7161
▁ㅎㅏㅁㅎㅡㅇ -7162
▁GNU -7163
▁ㄴㅏㅁㅎㅏ -7164
ㄹㅏㄴㅊㅣ -7165
ㅇㅏㄴㅂㅜ -7166
▁ㄱㅘㄴㅇㅜ -7167
▁ㅈㅗㄱㅂㅗ -7168
▁ㄱㅜㄴㅂㅓㄹ -7169
▁ㅈㅣㄱㅎㅐㅇ -7170
ㅈㅣㄴㅇㅜ -7171
▁ㅊㅜㅇㅁㅜ -7172
▁ㄱㅕㄹㅅㅏ -7173
▁ㄱㅡㅁㄷㅗㅇ -7174
▁ㅊㅡㄱㄹㅑㅇ -7175
ㅈㅏㄱㅇㅟ -7176
▁ㄱㅘㄴㅅㅏㅇ -7177
▁ㅂㅜㄹㄱㅕㅇ -7178
▁ㅅㅣㄴㅇㅣㅂ -7179
▁ㅇㅠㄱㄱㅜㄴㅅㅏ -7180
ㄸㅏㄱ -7181
▁ㄱㅣㅁㅊㅣ -7182
▁ㅇㅡㄴㅎㅖ -7183
▁ㅎㅏㅇㄹㅗ -7184
▁ㄱㅕㄹㅎㅐㄱ -7185
▁ㄱㅡㅂㅈㅡㅇ -7186
▁ㅎㅏㄱㄹㅕㄱ -7187
▁1893 -7188
▁ㅈㅓㄴㅁㅣ -7189
▁ㅂㅏㄹㅈㅓㄴㄱㅣ -7190
▁NP -7191
▁ㄴㅗㅇㅈㅣ -7192
▁Univers -7193
ㅇㅟㄱ -7194
▁Rec -7195
▁ㅇㅡㄴㅅㅣㄴ -7196
▁ㅍㅔㄹㄹㅣㄱㅅㅡ -7197
ㅇㅣㄱㅅㅡ -7198
▁ㄱㅣㅁㅊㅓㄴ -7199
▁ㅅㅓㅇㅇㅝㄴ -7200
▁ㅈㅓㅇㅈㅓㅇ -7201
ㅅㅏㅇㄱㅡㅁ -7202
ㅋㅐㄴㄷㅡㄹ -7203
ㅍㅗㄱㅌㅏㄴ -7204
▁ㅅㅣㄹㅈㅡㅇ -7205
▁ㅌㅗㄱ -7206
▁Rock -7207
▁ㅂㅜㄱㄱㅜㄴ -7208
▁ㅈㅓㅇㅂㅏㄴ -7209
▁Girl -7210
ㅎㅏㄱㅂㅜ -7211
▁ㅈㅡㅇㅍㅗㄱ -7212
▁ㅎㅓㄴㅈㅏㅇ -7213
▁ㅎㅕㄴㅍㅏㄴ -7214
ㅇㅛㅇㅊㅏ -7215
▁ㄱㅣㅁㅅㅓㄴ -7216
▁ㅂㅗㄱㅇㅡㅁㅈㅜ -7217
▁TBS -7218
▁ㅈㅜㄴㅈㅏㅇ -7219
▁ㅅㅓㄴㅈㅣㄴㄱㅜㄱ -7220
▁ㅂㅐㄱㅈㅏ -7221
▁ㅎㅏㄴㅋㅠ -7222
▁ㅊㅓㅇㅅㅗㅇ -7223
▁LED -7224
▁Comp -7225
▁ㅈㅏㅇㄴㅕ -7226
▁ㅍㅕㄴㄱㅕㄴ -7227
▁ㅈㅓㄴㅂㅏㄴㄱㅣ -7228
▁IV -7229
ㄹㅕㅇㄱㅜㄴ -7230
▁ㄱㅣㅁㅇㅠㄴ -7231
▁ㄷㅗㅇㅍㅗ -7232
▁ㅅㅏㅇㄱㅜㄱ -7233
▁AB -7234
▁IOC -7235
▁ㄹㅔㅅ -7236
▁from -7237
ㅁㅏㄹㄹㅗ -7238
▁ㅂㅓㅂㄱㅘㄴ -7239
▁ㄷㅓㅂ -7240
ㄱㅓㄹㅇㅣ -7241
▁ㅅㅜㄴㅊㅏ -7242
▁ㅊㅓㅇㄱㅖ -7243
▁ㅌㅏㄹㄹㅔ -7244
▁ㅈㅏㅇㅂㅕㅇ -7245
▁ㅇㅣㄴㄱㅗㅇㅇㅟ -7246
▁ㄴㅑㅇ -7247
▁ㅁㅓㅅㅈㅣ -7248
▁ㅅㅏㄴㅅㅜ -7249
▁ㅅㅏㄴㅌㅗ -7250
▁ㅅㅓㄴㅇㅣㄴ -7251
▁ㄱㅏㄴㅅㅣㄴㅎㅣ -7252
les -7253
▁ar -7254
▁Sup -7255
ㅋㅏㄴㄷㅣ -7256
▁ㅂㅏㄺㅎㅕ -7257
ㅋㅗㄹㄹㅣㅅ -7258
▁ㄱㅏㅇㅈㅣㄴ -7259
▁ㅂㅏㄱㅅㅏㅇ -7260
▁ㅎㅏㄱㅈㅏㅇ -7261
▁Mo -7262
▁ㅎㅐㄴ -7263
▁ㄲㅡㄶㄱㅣ -7264
▁ㅇㅓㄺㅎㅣ -7265
▁ㅇㅟㅅㅂㅜ -7266
▁ㄷㅗㅇㅎㅑㅇ -7267
▁ㅅㅏㄴㅊㅓㅇ -7268
▁ㄱㅗㅇㄱㅜㄴㄱㅣ -7269
AI -7270
LA -7271
oth -7272
▁ㅇㅘㄴㄷㅗ -7273
▁ㅇㅜㄹㅈㅜ -7274
ㅅㅏㄹㅅㅏㅇ -7275
▁ㄴㅡㅇㄷㅗㅇ -7276
▁ㅈㅏㅇㅎㅡㅇ -7277
▁ㅋㅏㄹㅅㅠㅁ -7278
▁ㄴㅗㄱㅅㅐㄱㄷㅏㅇ -7279
▁ㅇㅗㄴㅎㅘ -7280
▁ㅂㅐㄱㅇㅏㄱ -7281
eth -7282
▁Am -7283
ㅅㅔㄹㄹㅓ -7284
▁ㅈㅏㅁㄲㅏㄴ -7285
▁ㅍㅡㄹㄹㅏㅇㅋㅡ -7286
ㅁㅕㄴㄹㅏ -7287
▁ㅅㅣㅁㅍㅗ -7288
▁ㅇㅝㄹㅌㅡ -7289
ㅅㅣㄹㅈㅓㅁ -7290
ㅈㅣㄱㄱㅕㅇ -7291
▁ㅎㅘㅇㅅㅏㄴ -7292
ㅂㅣㄹㄹㅗ -7293
▁ㅇㅏㅂㄹㅗㄱ -7294
▁ㅈㅏㅇㄷㅓㄱ -7295
▁ㅈㅓㄴㅎㅏㄱ -7296
▁ㅊㅓㅇㄹㅑㅇ -7297
▁wh -7298
▁230 -7299
ㅇㅣㅁㅇㅝ -7300
▁ㅁㅜㄴㅁㅜ -7301
▁ㅊㅓㄱㄷㅗ -7302
▁Su -7303
▁ㄱㅜㄱㅊㅓㄹ -7304
▁280 -7305
▁ㅅㅠㄹ -7306
▁ㄱㅐㄱㅊㅏ -7307
▁ㅇㅜㄹㄹㅡㅇ -7308
▁1892 -7309
ㅇㅏㄴㄱㅏ -7310
▁ㅇㅑㅇㄷㅐ -7311
▁ㅈㅓㄴㅅㅜ -7312
▁ㄷㅗㅇㅈㅗㅇ -7313
▁ㅈㅜㅇㅇㅏㅇㅇㅡㄴㅎㅐㅇ -7314
ㅃㅏㅇ -7315
ㄹㅜㄱㅅㅡ -7316
▁ㄱㅣㅁㅅㅡㅇ -7317
▁ㅌㅗㅁㅅㅡㄴ -7318
▁ㄱㅡㅂㅅㅗㄱㅎㅣ -7319
▁IR -7320
▁ㄱㅘㅁ -7321
ㅌㅐㄴㄹㅣ -7322
▁ㄷㅏㅇㄴㅛ -7323
▁ㅂㅜㄴㄷㅏㄴ -7324
ㅇㅏㅁㄹㅣ -7325
▁ㅆㅗㄷㅇㅏ -7326
▁ㅇㅣㄴㅋㅗ -7327
▁ㅇㅛㅇㅍㅜㅁ -7328
▁ㅊㅜㄹㄷㅗㅇ -7329
▁1888 -7330
▁ㅎㅑㅇㄱㅣ -7331
▁ㅎㅡㅂㅅㅏ -7332
▁ㅇㅣㄹㄱㅏㄱ -7333
▁ㅊㅣㅇㅅㅗㅇ -7334
▁ㅇㅕㅇㅇㅝㄴㅎㅣ -7335
ron -7336
▁co -7337
ㅈㅏㅇㅅㅏ -7338
▁ㅋㅏㅁㅍㅏ -7339
▁ㅋㅔㄴㅌㅡ -7340
▁ㅈㅜㅇㄱㅗㅇㄱㅜㄴ -7341
▁Sw -7342
▁ㅉㅣㅈ -7343
ㅅㅓㄴㄷㅗ -7344
▁ㅅㅓㅇㅇㅏㄱ -7345
▁ㅎㅏㄴㅁㅜㄴ -7346
▁ㅎㅏㅂㅊㅓㄴ -7347
▁ㄱㅏㄱㄹㅛ -7348
▁ㅁㅣㄹㅇㅓ -7349
▁ㅇㅐㄴㅅㅓ -7350
ㄱㅜㄱㅈㅓㄱ -7351
▁ㄱㅗㅇㅇㅑㅇ -7352
ㅂㅔㄹㄹㅣ -7353
ㅎㅗㅇㅅㅐㄱ -7354
▁ㅂㅏㄱㅅㅓㅇ -7355
▁ㅇㅕㄴㅈㅏㅇㅈㅓㄴ -7356
▁ㄹㅣㅁㅍㅡ -7357
ㄱㅘㅇㅅㅓㅇ -7358
▁ㅂㅓㅁㅎㅐㅇ -7359
▁ㅋㅓㄹㄹㅔㄱㅅㅕㄴ -7360
▁ㅈㅓㄴㄱㅛ -7361
▁ㅇㅡㅁㅇㅜㄴ -7362
▁ㅇㅣㄴㅍㅡㄹㄹㅔ -7363
EST -7364
ㅇㅡㄹㅂㅓ -7365
ㅇㅣㄴㅇㅓㅂ -7366
▁CG -7367
▁ㄱㅡㄴㅇㅟ -7368
▁ㄷㅏㅁㅂㅗ -7369
▁ㅊㅜㄹㅈㅏ -7370
▁ㄱㅏㄴㅈㅣㄱ -7371
▁ㄴㅡㅍ -7372
▁ㅅㅣㅁㅂㅜ -7373
▁ㅇㅔㄹㄹㅏ -7374
ㄱㅗㅇㄱㅜㄱ -7375
▁ㄴㅗㅇㅊㅜㄱ -7376
▁ㅂㅗㄱㅅㅣㅇ -7377
AE -7378
ㅌㅣㄹㄹㅓ -7379
▁ㅂㅜㅌㅈㅏㅂ -7380
▁ㅇㅣㄴㅈㅔ -7381
▁ㅈㅓㄹㅈㅔ -7382
ㄷㅗㄱㄹㅣㅂ -7383
▁ㄱㅡㅁㅈㅓㄴ -7384
ㄴㅜㄹ -7385
▁ㅈㅜㅇㄱㅗ -7386
▁ㅇㅜㄴㅇㅣㅁ -7387
ㅎㅡㄺ -7388
ㅋㅡㄹㄹㅗ -7389
▁ㅇㅕㅁㄹㅕ -7390
▁ㅈㅓㅇㅈㅐ -7391
▁ㅊㅔㄹㄹㅗ -7392
▁ㄱㅗㅇㅇㅏㄴ -7393
▁ㅅㅓㄴㅇㅑㅇ -7394
ㄷㅏㅇㄱㅣ -7395
ㄷㅗㅇㄹㅣ -7396
ㅌㅗㅇㅅㅏ -7397
▁ㄱㅣㄴㅋㅣ -7398
▁ㅍㅗㄹㄹㅏ -7399
ah -7400
ㄲㅓㅅ -7401
ㅅㄷㅐ -7402
▁ㅇㅖㄹ -7403
ㄱㅡㅁㅂㅜ -7404
ㄹㅡㄹㄹㅔ -7405
▁ㅇㅏㄴㅁㅜ -7406
▁ㅈㅏㄴㅇㅣㄴ -7407
land -7408
▁270 -7409
▁ㅂㅏㄹㄷㅗㅇ -7410
▁ㅇㅣㅂㅎㅓㄴ -7411
▁Car -7412
▁ㄱㅡㅁㄴㅏ -7413
▁ㅌㅗㅂㄴㅣ -7414
▁ㅅㅡㅂㄱㅘㄴ -7415
▁ㅅㅏㅁㄱㅏㄱㅈㅜ -7416
▁Do -7417
▁ㅅㅗㄴㄴㅕ -7418
▁ㅇㅐㄴㄷㅣ -7419
▁ㅇㅣㅁㄱㅖ -7420
ㄷㅗㅇㅈㅓㄴ -7421
▁ㅅㅡㅇㄷㅏㄴ -7422
aw -7423
▁ㄴㅗㅁ -7424
ㄱㅘㅇㅅㅜ -7425
▁ㅂㅏㄹㅎㅏ -7426
▁ㅈㅓㅁㄱㅓ -7427
▁KB -7428
▁ㅍㅔㅅ -7429
ㅇㅘㅇㅎㅜ -7430
▁ㅈㅣㅁㅂㅏ -7431
▁Gre -7432
▁ㅍㅔㅇ -7433
ㄱㅡㅁㅅㅗ -7434
▁ㄷㅏㄴㄱㅓ -7435
▁ㅎㅕㅇㅍㅕㄴ -7436
ㅍㅗㅇ -7437
▁ㄱㅗㅇㅂㅓㅂ -7438
▁ㄱㅜㄴㄷㅔ -7439
▁ㅍㅔㄹㅌㅡ -7440
▁ㄱㅏㄴㅎㅗㄱ -7441
▁if -7442
▁260 -7443
ㅇㅝㄴㅅㅏ -7444
▁ㅁㅕㅇㅂㅜ -7445
▁ㅂㅓㅁㅎㅏ -7446
▁ㅌㅗㅇㅍㅖ -7447
▁ㅊㅜㄱㅅㅓㅇ -7448
▁ㅊㅓㄴㅊㅓㄴ -7449
▁ㅅㅐㅇㅁㅗ -7450
▁ㅋㅗㄴㄹㅏ -7451
▁ㅍㅓㄴㄷㅡ -7452
▁ㅅㅜㄴㅇㅑㅇㅎㅏㅁ -7453
19 -7454
ㄴㅓㄹㅅㅡ -7455
▁ㅇㅑㅇㅂㅗ -7456
▁ㅈㅣㄱㅅㅏ -7457
▁ㅎㅕㄴㄱㅘ -7458
▁ㄱㅕㅇㅇㅕㅇㅎㅏㄱ -7459
▁ㅈㅣㄱㄱㅖ -7460
▁ㄴㅏㄱㅇㅑㅇ -7461
▁ㅇㅝㄴㅎㅘㄹ -7462
▁ㅎㅐㅇㅈㅓㅇㄷㅗㅇ -7463
▁1876 -7464
ㅇㅣㄴㅊㅡ -7465
▁ㄱㅕㄱㅎㅏ -7466
▁ㄱㅕㅇㅁㅜ -7467
▁ㄱㅗㅇㅅㅣ -7468
▁ㅊㅓㄴㅊㅓㄴㅎㅣ -7469
▁it -7470
▁USB -7471
▁ㅁㅏㅇㅊㅣ -7472
▁ㅊㅣㅁㄹㅖ -7473
▁ㅌㅏㄹㅊㅟ -7474
▁ㅈㅣㅂㅊㅏㄱ -7475
ble -7476
▁SV -7477
ㅇㅕㄹㅊㅏ -7478
▁ㅈㅡㅇㅇㅗ -7479
ㅂㅜㄴㅇㅕㄹ -7480
ㅅㅞ -7481
▁SH -7482
ㅅㅓㄱㅎㅏㄱ -7483
▁ㅇㅏㄹㅍㅗㄴ -7484
ㄴㅛㅇ -7485
▁1886 -7486
ㄴㅏㄴㄷㅔ -7487
▁ㅅㅔㄴㄷㅏ -7488
▁ㅈㅓㅁㄱㅓㅁ -7489
ㅍㅔㅅ -7490
▁ㄸㅏㄹㄹㅣ -7491
▁ㅂㅗㄱㅈㅗㅇ -7492
▁ㅈㅣㅁㅅㅡㅇ -7493
▁ㅊㅜㄹㅎㅕㄹ -7494
▁ㅎㅕㅇㅇㅛㅇ -7495
▁Wii -7496
ition -7497
▁1864 -7498
ㅌㅐㄴㄷㅡ -7499
▁ㅈㅏㄹㄹㅣ -7500
▁ㅅㅏㅇㄱㅘㄴㅇㅓㅄㅇㅣ -7501
▁RT -7502
ㄷㅣㅇㅅㅡ -7503
▁ㅅㅓㅇㄱㅣ -7504
▁ㅂㅏㄹㄱㅏ -7505
▁ㅂㅓㄹㄹㅔ -7506
▁ㅅㅣㄴㅈㅣㄴ -7507
▁Up -7508
▁1866 -7509
▁ㄷㅓㅇㅇㅓ -7510
▁ㅍㅕㅇㅇㅏㄴㄷㅗ -7511
DA -7512
▁ㄱㅜㄴㄱㅘㄴ -7513
▁ㅈㅓㄴㄱㅝㄴ -7514
▁ㄷㅗㅇㅁㅐㅇㄱㅜㄱ -7515
▁ㅇㅓㄹㄹㅜㄱ -7516
▁ㅇㅣㄹㅈㅣㄴ -7517
ㄷㅣㄹ -7518
▁ㄹㅔㅂ -7519
▁ㅇㅑㅇㅈㅗ -7520
▁ㄱㅘㅇㅇㅑㅇ -7521
▁ㅅㅏㅁㅊㅓㄱ -7522
▁ㅇㅘㄴㄱㅕㄹ -7523
▁ㅍㅕㅇㅌㅏㄴ -7524
▁ㅂㅐㄱㅇㅏㄱㄱㅣ -7525
ave -7526
▁ML -7527
ㅊㅡㅁ -7528
▁ㅆㅣㅅ -7529
▁Life -7530
ult -7531
▁Dream -7532
▁ㅇㅝㄴㅇㅠ -7533
ㅍㅏㄴㄱㅘㄴ -7534
▁ㅂㅓㄴㄱㅏㄹ -7535
ㅍㅣㄹㄹㅔ -7536
▁ㄱㅣㄴㅁㅣㄹ -7537
▁ㅂㅏㄴㄷㅗㅇ -7538
▁ㅎㅏㄴㅂㅓㄴ -7539
▁ㅁㅣㄴㅂㅕㅇㄷㅐ -7540
▁AG -7541
▁1887 -7542
ㄷㅏㄹㅁㅏ -7543
▁ㄱㅕㄴㄱㅗ -7544
▁ㅅㅓㅇㅁㅐ -7545
ject -7546
▁ㄴㅏㅁㅂㅔ -7547
▁ㅁㅗㅁㄷㅗㄹ -7548
▁ㄱㅔㅅ -7549
▁Open -7550
ㅇㅗㄴㅅㅡ -7551
▁ㄹㅗㅁㅂㅏ -7552
▁ㅂㅗㄹㅌㅣ -7553
▁ㅎㅗㅇㅅㅓㅇ -7554
▁ㅋㅓㄴㅌㅔㄴㅊㅡ -7555
▁ㅎㅘㄹㄷㅗㅇㄱㅏ -7556
▁ㄷㅗㄱㄹㅣㅂㄱㅜㄴ -7557
ㅁㅜㅅ -7558
▁ㅁㅗㄹㄹㅕ -7559
▁ㅇㅣㄱㅅㅏㄴ -7560
▁ㅍㅕㄴㅎㅑㅇ -7561
ㄴㄷㅔ -7562
▁ㅂㅗㄴㅊㅔ -7563
▁ㅅㅜㄴㄹㅖ -7564
▁ㄱㅡㄹㄹㅓ -7565
▁ㄷㅗㅇㅊㅏ -7566
▁ㄹㅐㅁㅍㅡ -7567
▁ㅅㅗㄹㄹㅏ -7568
ational -7569
▁ㄷㅗㅇㅊㅏㅇ -7570
▁ㅅㅏㅇㅂㅏㄴ -7571
▁TC -7572
▁ㅊㅛ -7573
ㅍㅡㄹㄹㅣㄴ -7574
▁ㅁㅣㄴㅁㅜㄹ -7575
ㄹㅣㅁㅅㅏ -7576
▁ㅈㅏㄴㄷㅣ -7577
▁ㅅㅏㅇㅈㅓㅇ -7578
▁ㅍㅜㅇㅅㅡㅂ -7579
▁te -7580
ㄸㅓㄱ -7581
▁ㄷㅏㅇㅈㅣㄴ -7582
▁ㄷㅐㅅㄱㅡㄹ -7583
▁ㅁㅜㄹㄱㅕㄹ -7584
▁ㅅㅣㅁㅅㅏㅇ -7585
▁ㄱㅗㅇㅂㅏㅇㅈㅓㄴ -7586
orm -7587
ㅈㅜㅇㄱㅛ -7588
▁ㅂㅜㅇㅇㅓ -7589
▁ㅈㅏㅇㄹㅐ -7590
▁ㅅㅣㅁㅁㅜㄴ -7591
▁ㄱㅗㅇㅇㅕㄴㅈㅏㅇ -7592
ㅉㅡ -7593
▁BL -7594
▁ㅅㅡㅇㅎㅏ -7595
▁ㄱㅜㄱㅈㅓㅇㅇㅝㄴ -7596
▁ㅅㅐㅇㅅㅓㅇㅁㅜㄹ -7597
▁Ed -7598
ㄷㅜㄹㄱㅣ -7599
▁ㄱㅏㅇㅎㅐㅇ -7600
▁ㄱㅣㅅㅌㅓㄹ -7601
ㄱㅏㄴㅇㅝㄴ -7602
▁ㅈㅏㅇㅈㅓㄴ -7603
▁1861 -7604
▁ㄷㅗㄷㅂㅗ -7605
▁ㅂㅏㄹㅌㅗㅂ -7606
ㅃㅡㅁ -7607
▁ㅊㅏㅁㅅㅜ -7608
▁ㅌㅡㄱㄱㅣ -7609
▁ㄱㅗㅂㅅㅔㅁ -7610
▁ㅇㅏㄱㄱㅗㄱ -7611
ton -7612
▁an -7613
▁en -7614
▁ret -7615
▁ㄱㅐㅅ -7616
▁1881 -7617
▁ㄱㅘㄴㄴㅐ -7618
▁ㅂㅗㅇㅇㅜ -7619
ION -7620
▁ㅋㅐㄹ -7621
ㄷㅣㄱㅌㅗ -7622
▁ㅇㅏㅁㅁㅗ -7623
▁ㅈㅜㅇㄱㅐ -7624
ㅋㅗㄴㅅㅣㄴ -7625
▁XP -7626
▁Tour -7627
▁ㄴㅏㅂㅂㅜ -7628
▁ㅁㅜㄹㄹㅠ -7629
ㅇㅑㄴㅅㅐㄱ -7630
▁ㅂㅏㅇㄱㅗㅇ -7631
▁ㅈㅓㄴㄹㅏㄱ -7632
ics -7633
ㅅㅏㅇㅅㅏ -7634
▁ㄱㅏㅇㅅㅓㅇ -7635
▁ㅁㅣㄴㅇㅕㅇㅎㅘ -7636
▁ㅊㅓㅇㄴㅕㄴㅎㅚ -7637
▁iOS -7638
▁HTML -7639
ㄱㅡㅂㅅㅣ -7640
▁Music -7641
▁ㅇㅘㅇㄱㅘㄴ -7642
▁ㅎㅡㅇㅂㅜㄴ -7643
ㅇㅣㄴㅂㅗ -7644
▁ㄱㅕㄱㄹㅕ -7645
▁ㅌㅡㄱㅅㅏ -7646
ru -7647
▁ㄱㅏㅍ -7648
▁ㄱㅗㄱㅁㅕㄴ -7649
ㅅㅏㄴㄷㅐ -7650
▁ㅁㅗㄹㄷㅗ -7651
▁ㄱㅐㄱㅇㅝㄴ -7652
▁ㅂㅜㄹㅂㅜㄴ -7653
▁ㅂㅏㄷㅊㅣㅁㄷㅗㄹ -7654
▁ㅃㅣ -7655
▁ㅍㅣㅅ -7656
ㄴㅗㄹㄹㅗ -7657
▁ㅁㅕㄴㅁㅗ -7658
▁ㅂㅏㄱㅈㅏ -7659
▁ㅅㅏㄴㅁㅏ -7660
▁ㅇㅗㄴㄷㅐ -7661
▁ㅅㅡㅇㅅㅏㅇ -7662
▁ㄲㅗㅈ -7663
▁ㅁㅣㄹㄱㅏ -7664
▁ㅈㅡㅇㅅㅔ -7665
▁ㄴㅣㄱㅅㅡㄴ -7666
▁ㅈㅏㅁㅅㅣㄹ -7667
▁ㄱㅘㄴㅎㅕㄴㅇㅏㄱ -7668
TE -7669
ode -7670
▁ㅂㅏㄹㅁㅗㄱ -7671
▁ㅍㅏㄴㄱㅘㄴ -7672
ㅅㅗㄹㄹㅣ -7673
▁ㅁㅔㄹㄹㅏ -7674
▁ㅇㅜㅅㅇㅡㅁ -7675
▁ㄱㅕㅇㄷㅗ -7676
▁ㅇㅗㅇㅈㅜ -7677
▁ㅊㅓㄴㅈㅣ -7678
ㄷㅓㄱㅇㅘㅇ -7679
▁ㅅㅏㄴㅁㅜㄹ -7680
▁ㅎㅐㅇㅂㅏㅇ -7681
▁ㅎㅗㅁㄱㅕㅇㄱㅣ -7682
ㅇㅣㄴㄱㅜ -7683
▁ㅇㅛㅇㅅㅏ -7684
ㅅㅗㄹㄹㅣㄴ -7685
▁ㅇㅣㄱㅁㅕㅇ -7686
▁ㅈㅜㅇㄹㅏㅇ -7687
▁1850 -7688
ㅎㅜㄴㅈㅏㅇ -7689
▁ㅅㅗㅇㅎㅘㄴ -7690
▁ㅇㅑㅇㅎㅕㄴ -7691
ㅇㅣㅁㅈㅏ -7692
ㅈㅣㄴㄱㅜ -7693
▁ㅂㅏㄹㅇㅢ -7694
▁ㅋㅔㄴㅌㅓ -7695
▁ㅍㅣㄹㅎㅏ -7696
▁ㄷㅏㄴㄱㅜㄱ -7697
▁ㅂㅐㄱㅇㅓㅂ -7698
▁ㅇㅝㄴㅅㅏㅇ -7699
▁section -7700
▁ㅍㅏㄹㅈㅏㄱㅈㅣ -7701
▁"- -7702
ㅁㅗㅁ -7703
▁1872 -7704
▁ㅇㅏㅂㅅㅜ -7705
▁ㅍㅣㄱㅅㅔㄹ -7706
▁ㅎㅘㄴㄱㅘㄴ -7707
QL -7708
▁ㄱㅜㄻ -7709
▁ㅂㅗㄱㅇㅟ -7710
▁ㄴㅏㅁㅅㅗㅇ -7711
▁ㅁㅏㄱㅍㅏㄴ -7712
▁ㅂㅏㄱㅇㅕㅇㅎㅛ -7713
UC -7714
▁ㅇㅖㄹㄹㅗ -7715
▁ㅊㅓㄹㅈㅗㅇ -7716
▁ㅌㅏㅁㅎㅓㅁㄱㅏ -7717
EP -7718
ier -7719
ㄱㅣㄴ -7720
stem -7721
▁1863 -7722
▁ㅂㅏㄱㅅㅜ -7723
▁ㅈㅏㅇㅆㅜ -7724
▁ㅅㅡㅂㄷㅡㄱ -7725
▁750 -7726
▁ㅍㅜㄱ -7727
▁ㄱㅜㄷㅎㅣ -7728
▁ㅅㅏㄴㄱㅣ -7729
ㅈㅓㄹㄷㅏㄴ -7730
▁ㄴㅣㅅㅅㅏㄴ -7731
▁ㅂㅕㄴㅈㅗㅇ -7732
▁ㅌㅏㅁㅈㅓㅇ -7733
▁ㅎㅡㄱㅂㅐㄱ -7734
▁MA -7735
▁ㅎㅏㅇㅇㅏ -7736
▁ㅂㅏㄹㅅㅏㄴ -7737
▁ㅅㅣㄹㄱㅏㄱ -7738
▁ㅈㅏㅇㄴㅏㄴㄱㅏㅁ -7739
ㅈㅓㅇㄱㅜ -7740
ㅋㅓㄹㄹㅣ -7741
ㅍㅓㄹㄹㅗ -7742
▁ㅎㅕㄴㅁㅜ -7743
▁ㅅㅡㄹㄹㅐㅁ -7744
▁ㅇㅡㅁㅇㅏㄱㅇㅝㄴ -7745
▁ㄱㅏㅇㅅㅔ -7746
▁ㄱㅡㄴㄹㅐ -7747
▁ㅎㅕㄴㅁㅣ -7748
▁ㅍㅕㄴㅇㅏㄴ -7749
▁NS -7750
ㅅㅣㄴㄹㅛ -7751
ㅎㅏㅇㅅㅣ -7752
▁ㄱㅣㅁㅎㅢ -7753
▁ㅋㅗㄴㅌㅣ -7754
▁ㄱㅘㅇㅅㅓㄴ -7755
▁ㅂㅗㅇㅎㅘㅇ -7756
▁ㅅㅣㅇㅋㅡ -7757
▁ㅁㅏㄹㄷㅏㄴ -7758
▁ㅅㅜㄴㅎㅏㅇ -7759
ㅈㅓㄹㄷㅗ -7760
▁Night -7761
▁ㅂㅏㄴㅈㅜ -7762
▁ㅇㅘㄴㅂㅣ -7763
▁ㅊㅓㄹㄱㅏㅇ -7764
▁ㅌㅏㄴㅅㅏㄴ -7765
70 -7766
ool -7767
ㄴㅡㅈ -7768
ㅊㅜㅁ -7769
▁1830 -7770
▁ㄹㅏㄴㅅㅡ -7771
▁ㅁㅏㅇㅎㅏ -7772
▁ㅈㅏㄱㅍㅜㅁㅅㅏㅇ -7773
▁1865 -7774
▁ㄱㅕㅇㅁㅏ -7775
▁ㄷㅏㄴㅈㅗ -7776
▁ㅈㅓㄴㄹㅣ -7777
▁ㅊㅏㄱㅎㅏ -7778
▁ㄱㅕㅇㅂㅗㄱㄱㅜㅇ -7779
ㄲㅜㅁㅊㅣ -7780
ㅅㅓㄴㅅㅗ -7781
▁ㄷㅗㄹㄱㅗ -7782
▁ㅂㅏㄴㅈㅜㄱ -7783
ai -7784
▁-- -7785
▁Sm -7786
▁705 -7787
▁ㅉㅓㄹ -7788
ㅇㅠㄱㅎㅚ -7789
▁ㄱㅘㅇㅂㅐ -7790
ㅈㅣㄴㅈㅗㄱ -7791
▁ㄱㅕㅇㄹㅑㅇ -7792
▁ㅇㅑㅇㄱㅜㅇ -7793
▁ㄱㅘㅇㅈㅏ -7794
▁ㅂㅏㄴㅈㅓㅁ -7795
ise -7796
▁ㄴㅣㄴㅈㅏ -7797
▁ㄱㅗㅇㅍㅏㄴ -7798
▁ㅂㅗㄱㅇㅕㄱ -7799
▁ㅇㅏㄴㅅㅏㄴㅅㅣ -7800
▁ㄷㅗㅇㅁㅐㅇㄱㅜㄴ -7801
▁DR -7802
▁Don -7803
▁ㅇㅔㄹㅂㅣ -7804
▁ㅇㅏㅂㄹㅗㄱㄱㅏㅇ -7805
▁ㅅㅏㅇㅍㅏ -7806
▁ㅅㅡㄹㅍㅡ -7807
NG -7808
▁Ab -7809
▁ㅂㅏㄴㄷㅏ -7810
▁ㅎㅕㄴㄷㅗ -7811
▁ㅎㅐㅅㅂㅣㅊ -7812
ㅍㅡㄹㄹㅔㄱㅅㅡ -7813
▁ㅂㅜㄹㅂㅜㄴㅁㅕㅇ -7814
▁1891 -7815
ㅁㅠㄹㄹㅓ -7816
▁ㄷㅔㄴㅅㅛ -7817
▁ㅂㅏㄹㅈㅏ -7818
ㄱㅗㄱㅁㅕㄴ -7819
▁qu -7820
ower -7821
▁ㅁㅡㄹ -7822
▁ㅂㅓㅁㅇㅓ -7823
▁ㅈㅗㅇㅁㅛ -7824
▁ㅇㅑㄱㅈㅓㅁ -7825
▁ㅋㅡㄹㄹㅣㄱ -7826
▁ㅎㅗㄴㅎㅕㄹ -7827
▁ㄱㅘㄴㄹㅕㄴㅈㅏ -7828
▁AL -7829
▁ㄷㅏㄴㅈㅏ -7830
▁q -7831
ㅌㅓㅂ -7832
▁ㅋㅗㅂ -7833
▁-& -7834
▁MM -7835
ㄴㅏㄴㅌㅡ -7836
ㅇㅝㄴㅈㅣ -7837
▁ㄷㅗㅇㅈㅏ -7838
▁ㅊㅣㅁㄷㅐ -7839
ㄱㅕㄹㅊㅐㄱ -7840
ㅋㅡㄹㄹㅓㅂ -7841
▁ㄷㅡㅇㄷㅏㄴ -7842
▁ㅈㅓㅂㅎㅏㅂ -7843
▁ㅅㅡㅇㅈㅓㅇㅇㅝㄴ -7844
▁ㅎㅏㅂㅊㅏㅇㄷㅏㄴ -7845
ㅊㅣㄴㅇㅘㅇ -7846
ㅅㅣㄴㄱㅣ -7847
▁ㄷㅔㄹㄹㅣ -7848
▁ㅁㅏㅇㄱㅏ -7849
▁ㅎㅗㅁㅈㅡ -7850
▁ㄴㅏㅂㅈㅏㄱ -7851
▁ㅂㅕㄹㅈㅏㅇ -7852
▁ㅂㅗㄱㅈㅣㄱ -7853
ㅅㅏㅇㅇㅓ -7854
▁ㅍㅕㄴㅈㅔ -7855
ㄴㅗㄱ -7856
▁Good -7857
ㄹㅏㅇㄷㅡ -7858
▁ㅈㅓㅇㅇㅖ -7859
▁ㄱㅕㅇㄱㅓㄴ -7860
▁ㅁㅗㄱㅇㅛㄱ -7861
▁ㅇㅑㅇㅁㅕㄴ -7862
▁Can -7863
ㄹㅡㄹㄹㅣ -7864
▁ㅁㅐㄱㅇㅏ -7865
ㅅㅓㅇㄱㅕㅇ -7866
▁ㅂㅓㅂㅈㅓㄴ -7867
ㅁㅟㄴ -7868
▁1873 -7869
▁ㅁㅜㄴㅈㅓㅇ -7870
▁ㅇㅏㄹㅁㅏㅈ -7871
▁ㄷㅗㅅ -7872
▁ㄱㅡㅁㄱㅗ -7873
▁ㅇㅡㅁㅈㅜ -7874
▁ㅍㅕㄴㅎㅏ -7875
DS -7876
▁ㄲㅞ -7877
▁Black -7878
▁ㅅㅏㄱㅅㅡ -7879
▁ㅉㅣㄱㅎㅣ -7880
▁ㄱㅘㄴㅇㅛㅇ -7881
▁ㅅㅏㅇㅎㅐㅇ -7882
ㅎㅞ -7883
hem -7884
▁AU -7885
▁550 -7886
▁802 -7887
▁ㅇㅔㄹㄹㅓㄴ -7888
ings -7889
ㅅㅔㄴㅌㅓ -7890
ㅋㅣㄴㅌㅗ -7891
▁ㄱㅜㄴㅈㅏ -7892
▁ㅅㅣㄴㄷㅐ -7893
▁ㅎㅘㄹㅈㅏ -7894
▁ㅇㅘㅇㅅㅓㅇ -7895
▁ㅂㅕㄴㄱㅘㅇㅅㅓㅇ -7896
IX -7897
ㅉㅗ -7898
▁ㅅㅑㅂ -7899
▁ㄱㅘㄹㅎㅗ -7900
ㄱㅘㄴㅅㅣㄱ -7901
▁ㅇㅛㅇㅅㅏㄴㄱㅜ -7902
▁ㅂㅕㅇㄱㅘ -7903
▁ㅅㅐㅇㄷㅗ -7904
▁ㅅㅓㅇㄱㅏ -7905
▁ㅇㅕㅁㅎㅘ -7906
ㄹㄹㅣㄴㄷㅓ -7907
ky -7908
▁ㅇㅗㄱㅅㅣ -7909
ㅂㅜㄱㅁㅕㄴ -7910
▁ㅁㅏㅈㅊㅜㅁ -7911
▁ㅅㅏㄴㅊㅐㄱ -7912
▁ㅈㅓㅇㅈㅣㄴ -7913
ㅅㅓㄴㅇㅘㅇㅈㅗ -7914
ㅌㅜㅇ -7915
ㅎㅡㅁ -7916
ㅎㅚㄱㅅㅏ -7917
▁ㅌㅗㅇㄷㅗ -7918
▁ㅅㅏㄴㅅㅣㄴ -7919
ta -7920
▁ㅇㅣㅂㅅㅣ -7921
▁ㅁㅏㄴㅈㅓㅁ -7922
▁Let -7923
▁ㅅㅑㅁ -7924
▁ㅇㅡㄹㅅㅏ -7925
ㅇㅕㅇㅈㅏㅇ -7926
▁ㅊㅗㅅㅂㅜㄹ -7927
▁ㅎㅕㅂㄷㅗㅇㅈㅗ -7928
▁ㄱㅏㅁㅇㅕㅁㅈㅡㅇ -7929
▁NAD -7930
▁ㄱㅣㅁㅅㅓㅇㅅㅜ -7931
▁ㄱㅜㄱㅁㅣㄴㅎㅏㄱㄱㅛ -7932
▁ㅆㅏㄱ -7933
▁1867 -7934
ㅋㅣㄴㅅㅡㄴ -7935
▁ㅎㅕㄹㅇㅏㅂ -7936
ㅅㅐㅁ -7937
tr -7938
ㅍㅏㄴㅂㅜ -7939
▁ㄱㅓㄹㅍㅡ -7940
▁ㄷㅗㄱㅈㅜ -7941
▁ㄱㅘㄴㅅㅓㅇ -7942
▁ㅂㅜㄱㅂㅓㄹ -7943
▁ㅅㅗㄴㅈㅏㅂㅇㅣ -7944
ㅎㅏㅂㅈㅜㅇㄱㅜㄱ -7945
ank -7946
lar -7947
ㅈㅓㅇㄱㅣ -7948
▁ㅂㅜㄱㄷㅐ -7949
▁ㅇㅗㄴㄷㅜ -7950
▁ㅈㅣㄱㄱㅛ -7951
▁ㅇㅑㅇㅇㅑㅇ -7952
▁ㅇㅏㄴㄷㅗㅇㅅㅣ -7953
▁650 -7954
ㄹㅡㄴㅂㅔ -7955
▁ㄱㅡㅂㅎㅣ -7956
▁ㅎㅣㄹㅂㅔ -7957
▁ㄲㅗㅊㅇㅣㅍ -7958
▁El -7959
▁ㅋㅕ -7960
▁ㅁㅗㄹㄷㅜ -7961
ㄷㅗㅇㅁㅐㅇ -7962
▁Ac -7963
▁PM -7964
▁Qu -7965
ㅅㅓㅇㅈㅣㄹ -7966
▁ㅎㅡㅂㅇㅕㄴ -7967
▁ㅇㅕㄴㅊㅜㄹㄱㅏ -7968
▁ㅇㅣㄹㅂㅗㄴㅅㅣㄱ -7969
▁ㅈㅣㅂㅈㅓㅇㄱㅘㄴ -7970
ㅃㅓ -7971
ㅈㅏㅇㅈㅗ -7972
ㅎㅡㅂㄱㅣ -7973
▁ㅅㅣㄴㅂㅗㅇ -7974
▁ㅇㅗㄱㅊㅓㄴ -7975
▁ㅂㅐㄱㅇㅏㄱㄱㅘㄴ -7976
▁ㄱㅜㄱㅎㅗ -7977
▁ㅅㅏㅁㄱㅜㄱㅇㅠ -7978
▁ㅎㅗㄹㄷㅣㅇㅅㅡ -7979
▁UC -7980
▁Ser -7981
ㅇㅕㅇㅅㅏ -7982
▁ㅈㅗㅇㅇㅓㅂ -7983
▁ㅈㅣㄴㅇㅓㄴ -7984
▁ㄷㅏㅇㅅㅓㄴㅈㅏ -7985
ㄲㅡㄴ -7986
▁ㅋㅐㅅ -7987
ㄹㅣㅅㅅㅜ -7988
ㅅㅏㄴㅂㅜ -7989
▁ㅁㅣㄴㅅㅡ -7990
▁ㅅㅡㅇㅈㅣ -7991
▁ㅇㅑㅇㅈㅣ -7992
▁ㄴㅔㄱㅅㅡ -7993
▁ㅈㅣㅂㅎㅐㅇㅇㅠ -7994
ㄹㅔㄹㄹㅏ -7995
▁ㅅㅣㄴㅇㅢ -7996
▁ㅌㅏㄱㄱㅜ -7997
▁return -7998
▁ㄷㅗㅇㅌㅏㄱ -7999
▁ㅎㅓㄴㄴㅏㅂ -8000
ㅎㅏㄴㅎㅏㅇㄱㅗㅇ -8001
▁ㅊㅜㄹㅇㅣㅂㅁㅜㄴ -8002
ee -8003
▁And -8004
▁HMS -8005
▁6000 -8006
ㅍㅣㄱㅅㅡ -8007
▁ㅌㅡㄴㅌㅡㄴ -8008
▁ㄱㅕㅌㄷㅡㄹㅇㅣ -8009
▁ㅇㅏㄹㅍㅗㄴㅅㅗ -8010
▁LS -8011
ㄱㅟㄴ -8012
ㄹㅗㄹㄹㅔ -8013
▁ㅅㅓㅇㅅㅜ -8014
▁ㅅㅜㄹㄹㅏ -8015
▁ㅈㅏㄱㄴㅕㄴ -8016
▁ㅊㅓㅇㅁㅜㄴ -8017
▁ㅊㅜㅇㅅㅣㄴ -8018
▁ㅍㅕㄴㅈㅣㅂㅈㅏㅇ -8019
▁Ag -8020
rist -8021
▁1862 -8022
ㅅㅏㄹㄹㅣ -8023
ㅇㅝㄴㅎㅜ -8024
ㅌㅜㅇㅇㅣ -8025
ㅂㅔㄴㅅㅕㄴ -8026
▁ㅊㅜㅇㅊㅣㅇ -8027
▁ㅎㅏㅂㄱㅡㅁ -8028
▁ㅍㅐㅅ -8029
▁1878 -8030
▁AA -8031
▁ㅋㅣㅅ -8032
▁ㅅㅣㅁㅅㅗ -8033
▁ㄴㅔㄱㅅㅔㄴ -8034
▁ㄷㅏㅇㅎㅘㅇ -8035
▁ㅈㅓㅇㅎㅘㅇ -8036
IF -8037
ㅌㅟ -8038
▁tr -8039
▁1869 -8040
ㅂㅓㄴㅇㅔ -8041
▁ㄱㅕㅇㅁㅐ -8042
▁ㄱㅕㅇㅈㅣ -8043
▁ㅂㅓㄹㄹㅣ -8044
▁ㅂㅣㄱㅂㅐㅇ -8045
▁ㅊㅜㄱㅅㅏㄴ -8046
▁ㅂㅏㄴㅈㅓㅇㅂㅜ -8047
ㅁㅜㅁ -8048
ㅇㅏㅁㅅㅏ -8049
▁ㄱㅜㄱㅎㅘ -8050
▁ㅅㅗㄹㄹㅣ -8051
▁ㅈㅏㅁㄱㅣ -8052
▁ㄱㅏㄴㅍㅏㄴ -8053
▁ㅈㅣㄴㅎㅡㄺ -8054
ㄱㅕㅂ -8055
▁ㄴㅜㄴㅊㅣ -8056
▁ㅍㅣㄹㄷㅜ -8057
ㅇㅓㅁㄱㅕㅇ -8058
▁ㄱㅡㅂㅅㅓㅇ -8059
▁ㅇㅣㅂㅅㅜㄹ -8060
▁ㅈㅓㄱㅂㅏㄹ -8061
ae -8062
ㅍㅔㄹㄹㅓ -8063
ㅁㅕㄴㅈㅓㄱ -8064
▁ㅊㅜㅇㄷㅏㅇ -8065
▁ㅊㅐㄹㄹㅣㄴㅈㅓ -8066
▁ㅂㅏㄹㅍㅗ -8067
ㄹㅏㅁㅈㅣㄱ -8068
▁ㄱㅕㅇㅇㅡㄴ -8069
▁ㅈㅡㅇㅅㅣㄱ -8070
▁ㅎㅏㄴㅊㅏㅇ -8071
▁ㅁㅕㅇㅅㅓㅇㅎㅘㅇㅎㅜ -8072
▁me -8073
ㅇㅏㄴㅂㅓㅂ -8074
▁ㅅㅏㄹㅉㅏㄱ -8075
▁ㅍㅣㄹㅁㅕㅇ -8076
▁1592 -8077
ㅈㅓㅇㅂㅗ -8078
ㅂㅡㄹㄹㅣㅅ -8079
▁ㄱㅓㄹㅈㅏㄱ -8080
▁ㄷㅡㅇㄷㅡㅇ -8081
▁ㄴㅏㅇㅁㅏㄴㅈㅜ -8082
▁ㄱㅗㅇㅌㅗㅇㅈㅓㅁ -8083
▁ㅎㅐㄱㅂㅜㄴㅇㅕㄹ -8084
pr -8085
▁KN -8086
▁ㅇㅏㄴㄷㅗ -8087
▁ㅊㅣㅇㄱㅣ -8088
▁ㄴㅗㄴㅅㅏㄴ -8089
▁ab -8090
ㅍㅕㅇㄱㅜ -8091
▁ㅇㅏㅇㅌㅜ -8092
ㅇㅣㄹㅅㅣㄴ -8093
▁ㅇㅘㄴㅁㅏㄴ -8094
▁ㅇㅣㅂㅊㅜㄹ -8095
▁ㅈㅓㄹㅇㅑㄱ -8096
90 -8097
▁ㄴㅓㄹ -8098
ㅅㅣㄴㅈㅏ -8099
▁ㅅㅐㅇㅎㅘ -8100
▁ㅇㅣㄹㅅㅓㄹ -8101
▁RC -8102
ㅈㅏㅇㅂㅗ -8103
▁ㅅㅏㅇㅇㅢ -8104
▁ㅇㅐㅇㅋㅓ -8105
▁ㄱㅜㄱㅇㅣㄴ -8106
▁ㅇㅘㅅㅅㅡㄴ -8107
▁ㅊㅣㄴㅁㅣㄹ -8108
▁ㅊㅣㄴㅅㅓㄴㄱㅕㅇㄱㅣ -8109
▁ㄱㅜㄱㅂㅜ -8110
▁ㅇㅓㅂㄹㅗ -8111
▁ㄱㅏㄴㄱㅕㄹ -8112
▁ㄱㅘㅇㅇㅓㅂ -8113
▁ㄱㅡㄹㄹㅔㄴ -8114
▁ㅇㅛㅇㄱㅏㅁ -8115
OU -8116
ade -8117
▁Mon -8118
▁ㅆㅓㄴ -8119
▁ㅍㅏㄱ -8120
ㅌㅔㄹㄹㅏ -8121
▁ㄷㅏㅇㄷㅏㅇ -8122
▁ㅈㅗㅇㅊㅏㄱㅇㅕㄱ -8123
ㅉㅗㅊ -8124
▁ㅂㅗㄲ -8125
▁ㄴㅏㅁㄷㅐ -8126
▁ㅎㅕㅇㅈㅜ -8127
che -8128
ount -8129
▁ㅇㅐㅁ -8130
ㄷㅡㄹㄹㅔ -8131
▁ㅂㅓㄴㄱㅐ -8132
▁ㅇㅑㅇㄱㅜㄴ -8133
▁ㅈㅏㅇㅅㅣㄴ -8134
▁ㄱㅡㄴㅂㅗㄴㅂㅓㄴㄴㅚ -8135
ㄲㅓㅇ -8136
▁MSL -8137
ㅊㅗㄴㄹㅣ -8138
▁ㅊㅐㅇㄱㅣ -8139
▁ㅈㅓㅇㅁㅕㅇ -8140
▁ㅈㅡㅇㅂㅏㄹ -8141
▁ㅊㅓㅇㄱㅏㄱ -8142
▁ㅎㅓㄴㅂㅕㅇ -8143
▁ㅇㅜㄴㄷㅗㅇㄹㅑㅇ -8144
▁DB -8145
ㅇㅣㄴㅅㅏㄴ -8146
▁ㅂㅕㅇㅍㅜㅇ -8147
▁ㅈㅜㄴㄷㅗㅇ -8148
▁ㄱㅝㄹ -8149
▁ㄱㅜㄴㅅㅔ -8150
▁ㅂㅔㄹㄹㅔ -8151
▁ㅌㅔㄴㅅㅓ -8152
▁ㅇㅗㄴㄱㅓㄴ -8153
▁ㅇㅓㄴㄹㅗㄴㅅㅏ -8154
ㅂㅕ -8155
ata -8156
▁ㄴㅣㄱㅅㅡ -8157
▁ㅅㅏㅇㄱㅘ -8158
▁ㅅㅣㄴㅈㅣ -8159
▁ㅇㅛㅇㅎㅐ -8160
▁ㅂㅜㄴㄱㅕㅇ -8161
▁ㅇㅣㅂㅂㅓㅂㅂㅜ -8162
per -8163
▁ㄴㅓㅁㅂㅓ -8164
▁ㄷㅏㅇㄱㅘ -8165
▁ㄹㅣㄴㄷㅏ -8166
ㅂㅕㅇㅈㅏㅇ -8167
ㅅㅓㄹㅁㅜㄹ -8168
▁ㅇㅕㄹㄹㅕㄹ -8169
▁ㅇㅠㄱㅅㅣㄱ -8170
▁ㅋㅓㅁㅍㅣㄹㄹㅔ -8171
▁ㅇㅜㄹㅌㅡ -8172
▁ㅂㅏㄹㅊㅏㄱ -8173
▁ㅈㅣㄱㄱㅘㄴ -8174
▁ㅍㅣㄹㅇㅕㄴ -8175
ㄹㅣㄴㄹㅏㄴㄷㅡ -8176
▁As -8177
▁ㄹㅐㄱ -8178
ㅌㅏㄴㄷㅜ -8179
▁ㄱㅏㅇㅎㅗ -8180
▁ㅇㅏㅍㅂㅏ -8181
▁ㅇㅏㅍㅅㅔ -8182
ㅇㅛㄱㅈㅏㅇ -8183
▁ㅅㅣㄴㅎㅏㄴㅇㅡㄴㅎㅐㅇ -8184
ㅌㅡㄹㄹㅏ -8185
▁ㄱㅗㄹㅉㅏ -8186
▁ㅋㅗㄹㄷㅡ -8187
▁ㅎㅘㅇㅈㅏ -8188
▁ㅈㅏㄱㅈㅜㅇ -8189
▁ㅈㅡㅇㄱㅏㅇ -8190
▁ㅎㅟㅂㅆㅡㄹ -8191
▁Windows -8192
▁ㅊㅏㅇㄹㅣㅂㅈㅏ -8193
▁ㅂㅜㄱㄱㅡㄱㅈㅓㅁ -8194
▁sh -8195
▁ㄱㅡㅂㅎㅏ -8196
▁ㄷㅏㄴㅇㅕㄱ -8197
▁ㅇㅛㅇㅅㅜ -8198
ㅎㅘㄴㅎㅘㄴ -8199
▁ㄱㅡㅁㄱㅏㅇㅅㅏㄴ -8200
▁ㄱㅓㄴㄴㅔ -8201
▁ㅇㅣㄴㅇㅟ -8202
▁ㅇㅣㅇㅋㅡ -8203
▁ㅅㅓㅇㅍㅜㅁ -8204
▁ㅈㅗㅇㅇㅓㅂㅇㅝㄴ -8205
▁516 -8206
▁Heart -8207
▁ㅁㅗㅁㅊㅔ -8208
▁ㅂㅣㄱㅌㅓ -8209
▁ㅇㅘㄴㅅㅜ -8210
▁ㅇㅕㄴㅈㅜㅇ -8211
▁ㅈㅏㄴㅈㅗㄴ -8212
▁AMD -8213
▁ㄱㅐㄱㅅㅣㄹ -8214
▁ㄱㅕㅇㅈㅏㄱ -8215
▁ㅂㅏㄱㅈㅣㄴ -8216
▁ㅂㅜㄴㅂㅕㄹ -8217
▁ㅈㅓㄴㄷㅏㄴ -8218
ㅇㅣㄹㄹㅏ -8219
▁ㄱㅘㅇㅁㅜ -8220
▁ㄱㅙㄴ -8221
▁Song -8222
▁ㅇㅗㄱㅅㅏ -8223
▁ㅇㅝㄹㅎㅘ -8224
ㄷㅏㄴㅌㅓㄹ -8225
▁ㄱㅡㄴㅂㅏㅇ -8226
▁ㄱㅡㅁㅅㅐㄱ -8227
▁ㅊㅗㄱㅂㅏㄹ -8228
▁ㅊㅜㄱㅇㅣㄹ -8229
ium -8230
ㄹㅔㄴㅌㅡ -8231
▁ㅇㅝㄱㅅㅡ -8232
▁ㄱㅜㄹㅂㅗㄱ -8233
▁ㅁㅕㄴㅈㅣㄱ -8234
▁ㅎㅡㄴㄷㅡㄹ -8235
▁ㅎㅡㅇㅇㅝㄴ -8236
ㄷㅏㄴㅌㅓㄹㅈㅟ -8237
▁ㅇㅣㄴㅁㅣㄴㅎㅐ -8238
▁Aw -8239
▁Out -8240
▁ㅎㅏㅇㅅㅐㅇ -8241
ㄱㅏㄹㅇㅓ -8242
ㄱㅘㅇㅈㅗ -8243
ㅈㅓㅇㅈㅣ -8244
▁ㄲㅗㅊㅊㅏ -8245
▁ㄷㅗㅇㄱㅓ -8246
▁ㅍㅜㅇㄱㅣ -8247
▁ㅁㅜㄴㅈㅜㅇ -8248
ㄱㅐㄱㄱㅣ -8249
ㄷㅏㄴㅈㅜ -8250
▁ㄱㅘㅇㅎㅘ -8251
▁ㅊㅏㄱㅊㅟ -8252
▁ㅅㅡㅇㅇㅛㅇㅊㅏ -8253
able -8254
▁ㅂㅜㄱㅁㅏ -8255
▁ㅇㅕㄹㅅㅚ -8256
▁ㅊㅓㄹㅈㅏ -8257
▁Pe -8258
▁ㅅㅠㄴ -8259
▁8000 -8260
▁ㄹㅔㄱㅅㅡ -8261
▁ㅌㅗㅇㅈㅣ -8262
▁ㅍㅗㅁㅍㅔ -8263
▁ㅈㅓㅇㅊㅣㄱ -8264
▁ㅂㅏㄴㄱㅏㅁㄱㅣ -8265
▁Gl -8266
▁708 -8267
ㅎㅏㄱㅅㅏ -8268
▁ㄷㅏㅇㅍㅏ -8269
▁ㅈㅓㄴㅁㅕㄹ -8270
▁ㅇㅏㄴㅊㅏㅇㅎㅗ -8271
▁ㄱㅏㅇㅇㅜ -8272
▁ㅇㅕㅇㅁㅣ -8273
▁ㅈㅓㄱㅈㅓㅇ -8274
▁ㅈㅣㄱㅁㅜㄹ -8275
▁IMF -8276
▁ㅂㅜㄹㄹㅗ -8277
ㅈㅏㅇㄱㅕㅇ -8278
▁ㅂㅏㄴㅎㅏㅇ -8279
▁ㅆㅏㅇㅅㅓㅇ -8280
▁ㅈㅓㅇㅂㅏㄱ -8281
▁ㅋㅓㄴㅂㅔㄴㅅㅕㄴ -8282
▁ㅂㅏㄱㅇㅝㄴ -8283
▁ㅈㅜㅇㅇㅛㅇ -8284
▁ㅇㅓㅅㄱㅏㄹㄹㅣ -8285
▁VS -8286
▁ㄱㅣㅁㄷㅜ -8287
▁ㄷㅏㄴㅇㅑㅇ -8288
ng -8289
ㅇㅣㄹㅊㅣ -8290
▁ㄷㅐㄹㄹㅓ -8291
ㅈㅏㄱㅈㅓㄴ -8292
▁ㅅㅗㄴㄴㅣㅁ -8293
▁ㅇㅕㄴㅎㅐㅇ -8294
▁ㄱㅕㅇㅈㅐㅇㅈㅏ -8295
▁1840 -8296
▁ㄴㅗㅇㄱㅏ -8297
▁ㅎㅘㅇㅍㅖ -8298
▁ㅁㅗㄱㅈㅓㄱㅈㅣ -8299
▁ㄱㅗㅇㅅㅣㄱㅈㅓㄴ -8300
▁"() -8301
▁ㄱㅣㅂ -8302
ㅂㅏㄱㅅㅏ -8303
▁ㅅㅓㅇㄷㅐ -8304
▁ㅇㅏㅁㅅㅜ -8305
▁ㅇㅝㄴㅎㅛ -8306
▁ㅇㅠㄴㅎㅠ -8307
ㅇㅠㄱㅎㅏㄱ -8308
▁ㄱㅡㄱㅊㅏㄴ -8309
▁ㄱㅡㅁㅎㅘㄴ -8310
▁ㅇㅗㄴㅅㅣㄹ -8311
▁JC -8312
▁ㅁㅐㄹ -8313
ㄷㅓㄴㅌㅡ -8314
▁ㄷㅗㅇㅎㅗ -8315
▁ㅇㅗㄱㅌㅏ -8316
▁ㅈㅓㅇㅇㅔ -8317
▁ㅎㅚㅇㄹㅕㅇ -8318
itt -8319
▁ㅁㅣㅅ -8320
ㅇㅏㄹㄹㅏ -8321
ㅇㅣㅁㄱㅣ -8322
▁ㅅㅓㅇㄱㅛ -8323
▁ㅊㅜㄹㅅㅔ -8324
▁ㅈㅓㄹㅊㅣㄴ -8325
▁ㅂㅐㅅ -8326
ㅇㅕㄴㅅㅏ -8327
▁ㅇㅐㄱㅌㅣ -8328
▁ㅇㅑㅇㅍㅏ -8329
ㄴㅕㅁㅈㅏㅇ -8330
ㅎㅘㄹㅇㅑㄱ -8331
▁ㅂㅣㄴㅁㅣㄴ -8332
▁ㅅㅏㅇㅅㅓㄴ -8333
▁ㅈㅓㅁㅈㅣㄴ -8334
▁ㄴㅏㅁㄱㅡㄱㅈㅓㅁ -8335
▁ㅇㅕㄴㅅㅗㄱㄱㅡㄱ -8336
ㄹㅔㄴㅈㅡ -8337
ㄹㅗㄱㄷㅐ -8338
ㄹㅗㄴㄱㅏ -8339
▁ㅈㅣㅂㅇㅓ -8340
▁ㅊㅓㅇㅊㅟ -8341
▁ㅅㅣㄴㅅㅓㄱㄱㅣ -8342
▁ㅁㅐㅇㅎㅘㄹㅇㅑㄱ -8343
▁AI -8344
ㅅㅑㄴ -8345
▁1875 -8346
▁ㅂㅕㄴㅁㅗ -8347
▁ㅅㅓㄹㄹㅣ -8348
▁ㅎㅏㅇㄱㅗㅇㄷㅐ -8349
▁ㄱㅘㅇㄷㅜㅇㅅㅓㅇ -8350
▁PL -8351
ㅅㅑㅇ -8352
▁ㄴㅏㄺ -8353
ㅁㅜㄴㅅㅏ -8354
ㅊㅓㅇㅅㅏ -8355
ㅎㅐㅇㅍㅏ -8356
▁ㅅㅐㅇㅈㅟ -8357
▁ㄱㅕㅁㅈㅣㄱ -8358
▁ㅂㅔㅇㄱㅗㄹ -8359
▁ㅂㅗㄹㄴㅔㅅ -8360
▁ㅋㅗㄹㄹㅣㄴ -8361
▁ㅈㅓㄱㅅㅣㅂㅈㅏ -8362
ale -8363
ㅂㅏㄴㅅㅜ -8364
▁ㅇㅣㅇㅇㅕ -8365
ㄷㅏㅅㅁㅜㄹ -8366
ㅍㅣㅇㅁㅗㄹ -8367
▁ㄱㅝㄴㅇㅣㄱ -8368
▁ㅇㅕㄴㄷㅏㄹ -8369
▁ㅎㅗㄴㅈㅏㅂ -8370
son -8371
▁ATC -8372
▁ㅆㅓㄱ -8373
ㄴㅏㄹㄷㅡ -8374
ㅊㅓㄹㅇㅕㄱ -8375
▁ㅇㅣㄹㅅㅓㄴ -8376
▁ㅊㅜㄹㄱㅜㄱ -8377
▁ㅎㅕㅇㅇㅛㅇㅅㅏ -8378
▁ㅌㅡㄱㅂㅕㄹㅂㅓㅂ -8379
ㅂㅌㅏ -8380
▁Gen -8381
▁Par -8382
▁ㅅㅣㄴㅎㅐ -8383
▁ㅈㅏㄴㅎㅐ -8384
▁ㅎㅏㄹㄹㅗ -8385
ㅋㅡㄹㄹㅗㄴ -8386
▁ㅇㅣㅁㅈㅗㅇ -8387
▁ㄱㅘㄴㅇㅡㅁㅂㅗ -8388
▁ㅎㅏㅂㅅㅓㅇㅇㅓ -8389
ㅇㅡㄴㅅㅏ -8390
ㅍㅕㅇㅁㅕㄴ -8391
ㅍㅡㄹㄹㅜ -8392
▁ㄷㅗㄱㅅㅏㄹ -8393
▁ㅁㅗㄱㅈㅏㅇ -8394
▁ㅇㅗㄹㄹㅣㅁ -8395
so -8396
ㅇㅑㅇㄱㅜ -8397
ㅇㅕㅂㅅㅜ -8398
ㅈㅣㄹㅎㅏㄱ -8399
ㅊㅏㄴㅅㅓㅇ -8400
▁ㅅㅓㄴㅅㅏㅇ -8401
▁University -8402
▁TS -8403
▁Vol -8404
▁ㄱㅜㄱㅅㅔ -8405
▁ㄹㅏㄴㅌㅡ -8406
▁ㅇㅕㅇㅅㅜ -8407
▁ㅇㅛㅇㅈㅣ -8408
▁ㅎㅟㅂㅆㅏ -8409
▁ㅂㅗㄹㄹㅗㄱ -8410
▁ㅇㅏㄴㅈㅜㅇ -8411
▁ㅎㅏㅁㄱㅕㅇㄷㅗ -8412
ㄱㅗㄷ -8413
▁ㅁㅏㅅㅂㅗ -8414
▁ㅁㅜㄴㅅㅜ -8415
ㅌㅔㄴㅅㅕㄹ -8416
ㅎㅏㄹㄹㅣㄴ -8417
▁ㄷㅏㄹㅋㅗㅁ -8418
▁ㅇㅏㄹㄹㅔㄱㅅㅔ -8419
▁ㅊㅑ -8420
▁ㅇㅕㄹㄱㅣ -8421
ㅂㅏㅇㅎㅑㅇ -8422
▁ㅎㅕㄴㅇㅏㄱ -8423
▁ㅊㅣㄴㅎㅘㄴㄱㅕㅇ -8424
▁NBC -8425
▁ㄱㅣㄹㄷㅡ -8426
▁ㅎㅐㅇㅎㅐ -8427
▁ㄱㅗㅇㅅㅏㅇ -8428
▁ㄷㅡㅇㅅㅏㄴ -8429
▁ㅇㅑㅇㅍㅕㅇ -8430
▁At -8431
▁205 -8432
ㄴㅏㄹㄹㅔ -8433
ㄴㅓㄴㅌㅡ -8434
ㄹㅗㄴㅌㅡ -8435
ㅇㅣㄹㄱㅣ -8436
▁ㅂㅔㄴㅊㅡ -8437
▁ㅅㅓㄴㅇㅠㄹ -8438
ㅁㅠㅁ -8439
ㅍㅔㄱ -8440
▁380 -8441
▁DOS -8442
▁ㅂㅔㅅ -8443
▁ㄱㅡㄱㅅㅗ -8444
▁ㅊㅜㄹㅍㅜㅁ -8445
ㅇㅣㄴㅈㅜ -8446
ㅊㅓㄹㅅㅜ -8447
▁ㅂㅐㄱㅈㅗ -8448
▁ㅅㅏㅇㄱㅖ -8449
▁ㅅㅓㅇㅍㅗㄱㅎㅐㅇ -8450
▁ㅌㅗㅇㅅㅣㄴㅁㅏㅇ -8451
BI -8452
▁ㅂㅏㅅ -8453
ㄹㅔㄴㄷㅡ -8454
▁ㅈㅗㅇㄱㅏ -8455
▁ㅋㅓㅂㅅㅡ -8456
▁ㅋㅗㄴㅍㅓ -8457
▁ㄷㅗㅇㅂㅐㄱ -8458
▁ㅇㅝㄴㄷㅏㄴ -8459
ㅍㅡㄹㄹㅣㄱㅅㅡ -8460
▁ㅈㅜㅇㅇㅏㅇㅅㅓㄴ -8461
▁ㄴㅔㅅㅍㅡㄹㄹㅣㄱㅅㅡ -8462
yn -8463
ala -8464
ㅂㅓㄹㄹㅣ -8465
ㅇㅔㄴㅈㅏ -8466
ㅇㅜㄴㅅㅜ -8467
ㅈㅣㅇㅇㅓ -8468
▁ㅇㅏㄹㄹㅗ -8469
▁ㄱㅕㅇㅅㅜㄴ -8470
▁ㅇㅔㄴㅈㅔㄹ -8471
▁GR -8472
very -8473
▁tvN -8474
▁ㄴㅜㄹ -8475
▁name -8476
ㅋㅓㄹㄹㅔ -8477
▁ㅊㅏㅇㄱㅜ -8478
▁WC -8479
▁KTX -8480
▁ㅇㅝㄹㄹㅣ -8481
ㄴㅏㅁㅁㅕㄴ -8482
▁ㅈㅏㅇㄱㅏㅂㅊㅏ -8483
18 -8484
▁235 -8485
ㄹㅏㄴㄷㅏ -8486
▁ㅌㅏㄴㄷㅜ -8487
ㅇㅛㅇㄹㅑㅇ -8488
▁ㅂㅕㅇㄹㅕㄹ -8489
▁ㅂㅏㅇㅎㅗ -8490
▁ㄱㅏㅇㅅㅡㅂ -8491
▁ㄱㅏㅇㅇㅣㄴ -8492
▁ㅂㅏㅇㅇㅜㄹ -8493
ㄷㅔㄹㄹㅣ -8494
▁ㅇㅣㄹㅁㅕㅇ -8495
▁ㅍㅏㄹㄲㅜㅁㅊㅣ -8496
co -8497
ㄱㅓㄴㅅㅓㄹ -8498
▁ㅇㅕㅇㄹㅏㄱ -8499
▁APG -8500
ㅁㅗㅇㄱㅗㄹ -8501
▁ㅈㅣㅂㅈㅓㄴ -8502
ax -8503
ㅎㅏㄱㅅㅏㅇ -8504
▁ㅇㅝㄹㄴㅏㅁ -8505
▁ㅎㅘㄴㅇㅠㄹ -8506
ㄹㅏㄴㄷㅔㄴㅂㅜ -8507
oid -8508
▁ㅁㅜㄴㅊㅔ -8509
▁ㅅㅓㄱㄱㅣ -8510
▁ㅈㅓㄱㅅㅣ -8511
▁ㄱㅜㄱㄹㅕㄱ -8512
▁ㄴㅏㅁㄷㅏㄴ -8513
▁ㅈㅓㅇㄱㅡㄹ -8514
22 -8515
ㅁㅜㄹㄹㅣ -8516
ㅇㅕㄴㄱㅜ -8517
▁ㅊㅏㅁㅍㅐ -8518
ㄱㅏㄱㅅㅏㅇ -8519
▁ㅁㅕㅇㅇㅣㄴ -8520
▁ㅊㅣㅁㅅㅣㄱ -8521
▁ㅎㅐㅇㄱㅜㄴ -8522
▁ㅇㅏㄴㅇㅑㅇㅅㅣ -8523
▁ㅎㅏㄱㅅㅜㄹㅈㅣ -8524
▁ㄷㅗㅇㄴㅏㅁㅉㅗㄱ -8525
IVE -8526
▁ㄴㅏㅊ -8527
▁ㅌㅓㅇ -8528
▁ㅊㅓㅂㅂㅗ -8529
ㄷㅗㅇㅇㅝㄴ -8530
▁ㄴㅗㅇㅅㅓㅇ -8531
▁ㅅㅏㅇㅂㅏㄴㄱㅣ -8532
ㅅㅓㄴㄱㅗㅇㅅㅏㄴㄷㅏㅇ -8533
ATO -8534
▁ㅅㅏㄹㄹㅔ -8535
ㅅㅓㄴㅇㅓㄴ -8536
ㅈㅏㄱㅈㅣㄴ -8537
▁ㄱㅘㄴㄷㅗㅇ -8538
▁ㅇㅡㄴㅁㅣㄹ -8539
▁ㄹㅝ -8540
ㅎㅕㄴㅈㅜ -8541
▁ㄷㅏㄴㅅㅓ -8542
▁ㅅㅣㄹㅁㅕㅇ -8543
▁ㅎㅗㅇㅇㅣㄱ -8544
▁us -8545
▁ㅌㅐㅂ -8546
ㅈㅓㄴㄷㅗ -8547
▁ㅊㅓㄴㄹㅣ -8548
ㄱㅕㄱㅈㅡㅇ -8549
▁ㅁㅣㄴㅅㅣㅁ -8550
▁ㄱㅗㅇㅎㅏㄱㅈㅏ -8551
▁ㅇㅜㄴㅈㅓㄴㅈㅏ -8552
ㅈㅣㅈ -8553
ㅂㅕㄴㅅㅜ -8554
▁ㄱㅕㅇㅎㅘ -8555
▁ㅅㅣㄹㅅㅏ -8556
ㅇㅏㄱㅅㅏㄴ -8557
▁ㄱㅙㄴㅊㅏㄶ -8558
▁ㅁㅜㄴㄱㅘㄴ -8559
▁ㅂㅏㄴㄹㅗㄴ -8560
▁ㄷㅏㅁㄷㅏㅇㅈㅏ -8561
▁ㅅㅖㄴ -8562
▁ㅅㅣㅀㅇㅓ -8563
ㅋㅡㄴㄹㅗㄹ -8564
ㅎㅏㅇㅈㅓㄴ -8565
ㅎㅘㅇㅅㅐㄱ -8566
▁ㅊㅣㄹㅅㅓㅇ -8567
EEE -8568
▁sp -8569
ㅌㅔㄹㅅㅡ -8570
▁ㄴㅡㅇㄱㅏ -8571
▁ㅉㅗㅊㄱㅣ -8572
▁ㅌㅏㄹㅅㅜ -8573
▁ㅎㅏㄴㅁㅣㄴ -8574
ㄴㅖ -8575
▁KS -8576
ㅇㅓㅋ -8577
▁ㅂㅓㅈ -8578
▁ㅂㅣㄹㅂㅏ -8579
▁ㅈㅏㅁㅂㅣ -8580
▁ㅈㅔㄹㄹㅣ -8581
▁ㅈㅜㅇㄱㅕㄴ -8582
▁ㅈㅜㅇㄴㅏㅁ -8583
▁ㅋㅏㄹㄹㅠㅁ -8584
▁ㅂㅓㅇ -8585
▁1874 -8586
▁ㅅㅜㄱㅅㅗ -8587
▁ㅇㅘㅇㄹㅐ -8588
▁ㅅㅏㅇㅅㅣㄱ -8589
ㅇㅕㄹㄷㅐ -8590
▁ㅅㅗㅇㅇㅣ -8591
▁ㅊㅣㄴㅎㅘ -8592
ㅇㅠㄱㄱㅏㅁ -8593
▁ㅇㅏㄱㅁㅕㅇ -8594
▁ㅇㅣㄴㅅㅡㅇ -8595
▁ㅇㅏㄴㅈㅜ -8596
▁ㅅㅜㄱㄹㅕㄴ -8597
▁ㅇㅏㄴㅅㅣㄱ -8598
▁ㅇㅣㄴㅁㅓㄴ -8599
▁ㅈㅣㄱㄹㅕㄹ -8600
▁ㅋㅐㅁㅂㅔㄹ -8601
ㅌㅜㄹ -8602
ㅎㅕㅇㅈㅔ -8603
▁ㄱㅏㅁㄱㅣ -8604
▁ㄱㅓㄹㅇㅡㅁ -8605
▁ㄱㅕㅇㅈㅗㅇ -8606
▁ㅇㅡㅂㅅㅓㅇ -8607
PA -8608
▁204 -8609
▁ㄷㅡㄹㄹㅡ -8610
▁ㅈㅓㄴㅈㅗ -8611
▁ㅈㅡㄹㄱㅓ -8612
▁ㅁㅕㅇㅅㅏㅇ -8613
▁ㅈㅜㅇㅇㅣㄹ -8614
▁ㅎㅏㄱㄷㅏㅇ -8615
▁KO -8616
▁This -8617
▁ㄹㅗㄹㄹㅓ -8618
▁ㅇㅣㄹㅈㅜ -8619
▁ㅈㅜㅇㄱㅓ -8620
▁ㅋㅓㄴㅍㅓ -8621
▁ㅊㅏㄱㄱㅏㄱ -8622
▁^ -8623
▁ㅇㅣㄹㅊㅏ -8624
▁ㅌㅏㄴㅅㅜ -8625
ㄱㅝㄴㅂㅓㅂ -8626
▁ㄱㅗㄴㅅㅏㄹ -8627
▁ㅈㅣㅇㅈㅣㅂ -8628
▁ㄱㅘㄴㅅㅣㅁㅅㅏ -8629
15 -8630
▁IEEE -8631
▁ㅈㅓㄹㅊㅜㅇ -8632
▁ㅎㅐㄱㅌㅏㄴㄷㅜ -8633
14 -8634
▁ㅈㅓㅂㅁㅣ -8635
ㅈㅓㄱㅈㅓㄹ -8636
▁ㅅㅏㄴㄴㅏㅁ -8637
▁ㅎㅏㅇㄱㅗㅇㅍㅕㄴ -8638
GB -8639
ash -8640
▁et -8641
ㅇㅜㄹㄹㅗ -8642
▁ㅂㅣㄹㄷㅡ -8643
ㅅㅏㅇㅎㅏㄱ -8644
▁ㅈㅓㅇㅅㅡㅇ -8645
▁ㅍㅜㄹㅂㅐㄱ -8646
▁ㅍㅜㅁㅁㅗㄱ -8647
▁ㅇㅣㄴㅍㅡㄹㄹㅜ -8648
▁ㅈㅣㅂㄷㅏㄴㄱㅜㄴ -8649
▁ㅅㅏㄴㅈㅗ -8650
▁ㅅㅓㄴㄱㅘ -8651
▁ㅈㅓㅂㄷㅜ -8652
▁ㅈㅓㅇㅇㅗ -8653
▁ㅈㅔㄴㄷㅓ -8654
▁ㅅㅓㅇㅎㅐㅇ -8655
▁ㅈㅜㅇㄱㅓㄴ -8656
▁ㄱㅏㅇㄹㅕㄱㅎㅣ -8657
ㄹㅗㄹㄹㅣ -8658
▁ㅈㅣㄹㄹㅣ -8659
▁ㄱㅣㅁㅇㅕㄴ -8660
▁ㅂㅕㄴㅈㅡㅇ -8661
▁ㅅㅏㄱㄱㅏㅁ -8662
▁ㅅㅏㅇㄱㅏㅁ -8663
▁ㅎㅘㄴㅅㅡㅇㅇㅕㄱ -8664
▁Best -8665
ㄱㅏㄱㄱㅏ -8666
▁ㅅㅓㄴㅊㅔ -8667
▁ㅇㅑㅇㅅㅓ -8668
▁ㅂㅗㄴㅈㅗㄴ -8669
▁ㅇㅑㅇㅊㅓㄴ -8670
HL -8671
ps -8672
▁ㅁㅕㄱ -8673
▁ㄱㅕㅇㄴㅐ -8674
▁ㅈㅣㅂㅅㅏ -8675
▁ㄱㅗㄹㅈㅓㄹ -8676
▁ㅅㅜㄱㅂㅏㄱ -8677
▁ㅇㅏㄴㅌㅗㄴ -8678
▁ㅇㅕㄹㅇㅕㄱㅎㅏㄱ -8679
▁ㅋㅓㄴㅅㅓㄹㅌㅣㅇ -8680
ict -8681
ㅁㅔㄱㅅㅣ -8682
ㅅㅣㄴㅈㅓ -8683
▁ㅊㅜㄹㅅㅏ -8684
ㄴㅡㄴㅈㅓㅁ -8685
ㅍㅕㅇㅅㅓㄴ -8686
▁ㅇㅣㄹㄱㅏㄴ -8687
ㅎㅚㅇ -8688
▁ㅇㅏㄴㅍㅏ -8689
▁ㅎㅕㅂㄱㅗㄱ -8690
▁ㅊㅏㅁㅈㅓㄴㅎㅏ -8691
▁se -8692
▁Bab -8693
▁ㄱㅘㄴㅇㅏ -8694
▁ㅅㅏㅁㄱㅓ -8695
▁ㅇㅣㅇㅋㅏ -8696
ㅇㅝㄴㄱㅡㅁ -8697
VA -8698
au -8699
▁ad -8700
ㅁㅂㅏ -8701
ㅅㅓㄱㅁㅛ -8702
▁ㅋㅏㄹㄷㅔ -8703
▁ㅁㅏㄱㄱㅏㅇ -8704
▁ㅈㅓㅇㅇㅕㄱ -8705
ㅈㅣㅂㄱㅏ -8706
▁ㄹㅐㄴㄷㅓ -8707
▁ㅇㅏㅇㄷㅡ -8708
▁ㅇㅝㄴㅅㅏ -8709
▁ㅋㅟㄴㅅㅡ -8710
▁ㅎㅐㅇㅂㅗ -8711
▁ㄷㅏㄴㅂㅏㄹ -8712
▁ㅋㅝㄹ -8713
▁7000 -8714
▁Hell -8715
ㅈㅓㅇㄷㅐ -8716
ㅅㅣㄴㅈㅓㅇ -8717
ㅇㅘㄴㅇㅛㅇ -8718
▁ㅁㅕㅇㅇㅘㅇ -8719
▁ㅅㅣㄹㅇㅡㄴ -8720
▁AF -8721
ㄹㅖㄴ -8722
▁ㄲㅡㄹㄹㅣ -8723
▁ㅅㅏㄴㅊㅔ -8724
ㅅㅏㅁㅁㅜㄴ -8725
▁ㄱㅜㄴㅂㅗㄱ -8726
▁ㅈㅏㅁㅇㅣㅂ -8727
anc -8728
ose -8729
▁ㄱㅕㅇㅇㅢ -8730
▁ㅇㅕㅁㄷㅜ -8731
▁ㅍㅣㄹㄹㅗ -8732
ㄹㅣㅇㄱㅔㄴ -8733
ㅊㅘㄴㅅㅓㅇ -8734
▁ㄷㅏㅁㅇㅑㅇ -8735
▁ㅅㅜㄴㅊㅓㄴㅅㅣ -8736
ody -8737
ㅋㅗㅂㅅㅡ -8738
▁ㅅㅗㅁㅆㅣ -8739
▁ㅍㅏㄴㄷㅗ -8740
ㅁㅜㄹㅅㅓㄴ -8741
ㅇㅔㄴㄱㅜㄴ -8742
▁ㅈㅗㄱㅈㅏㅇ -8743
▁ㅎㅐㅇㅅㅓㄴ -8744
▁ㅋㅗㄹㄹㅣㄴㅅㅡ -8745
me -8746
▁1877 -8747
▁ㅁㅜㄴㅁㅐㄱ -8748
▁ㅂㅏㄴㄱㅗㅇ -8749
ㅇㅡㄱ -8750
ㅈㅣㄴㅂㅗ -8751
▁ㄱㅏㄹㄹㅔ -8752
▁ㄱㅡㅁㅎㅏ -8753
▁ㅈㅓㅂㅈㅓㄴ -8754
▁ㅊㅜㄱㅂㅗㄱ -8755
▁ㅊㅜㄹㅈㅏㅇㅅㅗ -8756
▁ㅋㅗㄹㄹㅓㅁㅂㅓ -8757
ail -8758
ㅅㅏㅇㅈㅜ -8759
ㅂㅐㄱㅁㅏㄴ -8760
▁ㅅㅏㅇㅎㅏㄴ -8761
▁ㅈㅣㄴㅊㅓㄴ -8762
▁SR -8763
▁ㅁㅐㅁ -8764
▁ㅂㅏㄱㅈㅐ -8765
▁ㅂㅗㄱㅂㅜ -8766
▁ㅎㅏㄴㄱㅕ -8767
▁ㄱㅕㄹㅈㅓㄴ -8768
▁ㅅㅏㄴㅅㅜㄹ -8769
▁ㅅㅜㄱㅁㅕㅇ -8770
▁ㅌㅗㅇㅅㅗㄹ -8771
▁ㅌㅡㄱㅁㅕㅇ -8772
▁SO -8773
▁as -8774
▁ㄹㅏㅅ -8775
ㄴㅣㄴㄱㅡ -8776
TF -8777
reak -8778
▁ㅈㅐㅁ -8779
▁ㅁㅏㄱㅇㅏ -8780
▁ㅁㅏㅈㅂㅐ -8781
▁ㅅㅏㄴㅈㅐ -8782
▁ㄴㅏㄴㅈㅐㅇㅇㅣ -8783
▁ㅎㅑㅇㅅㅣㄴㄹㅛ -8784
59 -8785
de -8786
▁FF -8787
▁ㅅㅣㅅ -8788
▁ㅂㅕㅇㄹㅣ -8789
▁ㅅㅣㄹㅎㅛ -8790
net -8791
▁209 -8792
ㄱㅕㄱㄷㅐ -8793
▁ㅈㅏㄴㅇㅕ -8794
▁ㅇㅘㄴㅈㅏㅇ -8795
ㄴㅗㅍㅇㅣ -8796
ㅋㅣㄹㄹㅔ -8797
▁ㄱㅏㅇㅈㅘ -8798
▁ㅇㅏㅍㄷㅟ -8799
▁ㅇㅏㄴㅍㅏㄲ -8800
oo -8801
▁ᄇㅅㅣ -8802
ㅂㅣㄴㅅㅡ -8803
ㅅㅣㄱㅅㅡ -8804
▁ㅈㅣㄹㅌㅜ -8805
▁ㅁㅕㅇㄹㅠㄴ -8806
▁ㅅㅣㄴㅂㅕㅇ -8807
▁ㅇㅑㅇㄱㅡㄱ -8808
▁ㅇㅘㅇㅁㅕㅇ -8809
▁ㅌㅡㄱㄱㅗㅇ -8810
▁ㅎㅏㄴㅂㅗㄱ -8811
ㅅㅠㄹ -8812
▁ㅅㅑㅅ -8813
ㄱㅘㄴㅅㅏ -8814
▁ㅁㅗㅂㅅㅣ -8815
▁ㅂㅜㄹㅋㅙ -8816
▁ㄱㅠㄴㅇㅣㄹ -8817
▁ㅁㅕㄴㄷㅏㅁ -8818
▁ㅂㅗㄱㅅㅗㄱ -8819
▁ㅇㅏㄴㅅㅣㅁ -8820
uck -8821
▁ᆫㄷㅏㄴ -8822
▁ㅂㅏㄱㅎㅣ -8823
▁ㅍㅗㄹㄹㅗ -8824
▁ㅂㅏㅇㅎㅏㄱ -8825
ㅇㅛㄴ -8826
▁ㅇㅐㄹㄹㅏ -8827
▁ㅂㅐㄱㅎㅕㄹ -8828
▁ㅇㅏㄱㄷㅏㅇ -8829
▁ㅂㅣㄴㅅㅔㄴㅌㅡ -8830
13 -8831
ㅍㅏㄱ -8832
▁1859 -8833
ㄱㅗㅇㅈㅏ -8834
▁ㅈㅏㅇㅈㅣ -8835
▁ㅎㅚㄱㄱㅣ -8836
▁ㅂㅏㄱㅇㅛㅇ -8837
▁ㅇㅣㄴㅅㅓㅇ -8838
▁ㅇㅝㅁ -8839
▁Super -8840
▁ㅅㅡㄹㄹㅓ -8841
▁ㅎㅘㄹㄱㅣ -8842
▁ㅂㅏㄹㅈㅏㄱ -8843
▁ㅂㅐㄱㅇㅜㄴ -8844
▁ㅇㅏㄹㄹㅔㄱㅅㅏㄴㄷㅔ -8845
▁my -8846
▁Her -8847
▁ICBM -8848
ㄹㅣㄴㅌㅓ -8849
ㅇㅘㄴㄷㅏ -8850
▁ㄷㅏㄱㅊㅣ -8851
▁ㅈㅣㄴㅇㅟ -8852
▁ㅂㅕㅇㄷㅏㄴ -8853
▁ㅇㅕㄹㅇㅏㄱ -8854
▁ㅍㅔㅇㄱㅟㄴ -8855
▁ㄱㅓㄴㄹㅠㅇㅈㅔ -8856
▁206 -8857
ㅅㅣㄱㅈㅏ -8858
▁ㅁㅣㄴㅇㅢ -8859
▁ㅂㅐㄹㅂㅡ -8860
▁ㅇㅣㄴㄱㅖ -8861
▁ㅁㅜㄴㅁㅜㄹ -8862
▁ㅇㅝㄴㅁㅜㄴ -8863
▁ㅈㅏㄴㅎㅗㄱ -8864
▁ㅊㅜㄹㄱㅕㄱ -8865
▁CIA -8866
▁ㅂㅕㄴㅎㅕㄱ -8867
▁ㅈㅏㅇㄱㅕㅇ -8868
▁ㄱㅑ -8869
▁Sun -8870
▁1700 -8871
ㅅㅏㄴㄱㅣ -8872
▁ㅂㅔㄹㄹㅗ -8873
▁ㅇㅓㄹㄹㅏ -8874
ㅈㅓㅇㄴㅏㄴ -8875
▁ㅈㅜㄹㄱㅗㄷ -8876
▁ㅊㅣㅁㅂㅓㅁ -8877
ㅋㅐㄴ -8878
▁518 -8879
▁ㄱㅗㄷㅇㅣ -8880
▁ㄱㅏㅁㅊㅜㄱ -8881
▁ㅃㅏㄹㄱㅏㅇ -8882
▁ㅅㅓㄴㄷㅏㄴ -8883
▁ㅅㅡㅇㄹㅠㄹ -8884
▁ㅊㅜㄹㅍㅏㄴㅁㅜㄹ -8885
▁ㄱㅓㄴㄱㅜㄱㅎㅜㄴㅈㅏㅇ -8886
▁310 -8887
▁ㄱㅗㄱㅅㅣㄱ -8888
EA -8889
▁ㅍㅟ -8890
ㄹㅡㅂ -8891
▁340 -8892
▁ㅋㅜㅁ -8893
ㄱㅘㅇㅅㅏ -8894
▁ㅁㅗㄹㅅㅜ -8895
▁ㅅㅏㄴㅌㅜ -8896
▁ㅅㅗㄱㅊㅗ -8897
▁ㅈㅓㄴㅅㅓ -8898
ㅇㅜㄴㅎㅕㅇ -8899
▁ㅈㅓㅇㅊㅓㅇ -8900
▁ㅊㅓㄴㅅㅏㅇ -8901
▁ㅍㅕㅇㅂㅏㅇ -8902
▁ㅎㅏㅁㅈㅏㅇ -8903
TR -8904
▁Star -8905
ㅇㅕㄴㅈㅜ -8906
ㅇㅝㄴㄱㅜ -8907
ㅈㅓㅇㅈㅔ -8908
▁ㄹㅔㄴㄷㅓ -8909
▁ㅂㅗㄴㅎㅚ -8910
▁ㅅㅏㄴㄹㅣ -8911
▁ㅇㅡㄴㅍㅖ -8912
▁ㅉㅏㄱㅅㅜ -8913
▁ㄷㅗㅇㄱㅜㄴ -8914
vel -8915
▁cc -8916
ㅅㅣㄹㅈㅜ -8917
▁ㅎㅗㄹㅅㅜ -8918
▁ㅇㅠㄹㅂㅓㅂ -8919
▁ㅈㅓㄴㅂㅗㅇ -8920
▁ㅍㅏㄴㅁㅕㅇ -8921
▁ㅎㅗㄴㅎㅏㅂㅁㅜㄹ -8922
OK -8923
▁"| -8924
▁you -8925
ㅇㅜㄹㅇㅓ -8926
▁print -8927
▁ㅎㅏㄹㄱㅜ -8928
▁ㅎㅑㅇㅅㅜ -8929
▁ㅅㅔㄱㅅㅕㄴ -8930
▁ㅅㅗㄴㅁㅗㄱ -8931
▁ㅇㅘㅇㄷㅏㅇ -8932
▁ㅈㅏㅇㅈㅓㅇ -8933
▁ㅈㅓㅇㅅㅣㄹ -8934
▁ㅇㅡㅁㅅㅣㄱㅈㅓㅁ -8935
▁App -8936
▁des -8937
ㅂㅜㄴㅈㅏ -8938
▁ㅂㅓㅂㄱㅠ -8939
▁ㅅㅔㄴㅌㅏ -8940
▁ㅅㅜㄴㅅㅣㄱ -8941
▁ㅈㅓㅇㅇㅓㄴ -8942
▁Kn -8943
ㅂㅓㅁㅈㅚ -8944
ㅅㅓㅇㅁㅕㄴ -8945
▁public -8946
▁ㅁㅣㄴㅇㅝㄴ -8947
▁ㅅㅓㅇㅈㅗ -8948
ㅅㅓㅇㄴㅕㄴ -8949
▁ㄱㅕㅇㅇㅝㄴ -8950
▁ㄱㅘㄴㄱㅜㄴ -8951
▁ㅅㅗㄱㄱㅜㄱ -8952
▁ㅇㅣㄹㅅㅏㅁ -8953
▁ㅌㅔㅁㅍㅡㄹ -8954
▁625 -8955
ㅅㅓㄴㄱㅛ -8956
▁ㄲㅏㄹㄹㅣ -8957
▁ㄴㅗㄴㅈㅡㅇ -8958
▁ㅂㅜㄱㅇㅣㄴ -8959
▁ㅋㅗㄹㄹㅗㄴ -8960
▁ㅎㅘㄱㅊㅜㅇ -8961
ㅇㅓㅂㅊㅔ -8962
▁ㅎㅏㄹㄹㅔ -8963
▁ㅎㅔㄹㅅㅡ -8964
ㄷㅡㄹㄹㅐㄴㄷㅡ -8965
▁ㅅㅗㅇㅈㅣㄴㅇㅜ -8966
▁ㅁㅏㄴㅈㅏㅇㅇㅣㄹㅊㅣ -8967
▁Soul -8968
▁ㅇㅓㅁㅈㅣ -8969
ㅂㅣㄹㄹㅗㄴ -8970
ㅊㅏㅁㅊㅏㄴ -8971
▁ㅂㅏㄱㅊㅏㄴ -8972
▁ㅂㅜㄱㅊㅡㄱ -8973
▁ㅅㅏㄴㅇㅣㄴ -8974
▁ㅇㅣㅁㅅㅣㄹ -8975
▁ㅋㅓㄹㄹㅣㅇ -8976
▁ㅅㅣㄹㄹㅣㄴㄷㅓ -8977
▁ㅇㅏㄹㄹㅔㄱㅅㅣ -8978
ㅂㅏㅇㅅㅡ -8979
▁ㄱㅣㅁㅈㅜ -8980
▁ㄱㅕㄹㅁㅏㄹ -8981
▁ㅂㅏㄹㄱㅘㅇ -8982
▁ㅅㅏㄴㅁㅜㄴ -8983
▁ㅅㅜㄴㅊㅏㄹ -8984
▁ㅊㅗㅇㄱㅏㅁ -8985
ute -8986
▁AE -8987
▁IF -8988
▁po -8989
ㄹㅣㅅㅈㅣ -8990
ㅋㅗㄹㄹㅗ -8991
▁ㅈㅣㅂㅈㅓㄱ -8992
▁ON -8993
ㅂㅣㄱ -8994
▁ㄸㅏㅁ -8995
▁1879 -8996
▁ㄱㅓㄴㅈㅣ -8997
▁ㅂㅗㄹㄷㅡ -8998
▁ㅇㅕㄹㅅㅔ -8999
▁ㄱㅕㄱㅈㅓㄴ -9000
▁ㅂㅏㄴㅇㅣㅂ -9001
▁ㅈㅓㄴㅂㅓㅁ -9002
HC -9003
▁Mi -9004
▁ㄲㅘㅇ -9005
▁ㄱㅡㄴㅅㅔ -9006
▁ㄱㅣㄹㄱㅓ -9007
▁ㅇㅜㄹㄹㅜ -9008
▁Christ -9009
▁Record -9010
ㅅㅗㄱㅊㅓㄹㄷㅗ -9011
▁HP -9012
ㅂㅡㄴㅅㅡ -9013
ㅅㅠㄹㄹㅣ -9014
▁ㄱㅜㅇㅈㅜ -9015
▁ㄱㅣㅁㄷㅗ -9016
▁ㄱㅣㅁㄷㅓㄱ -9017
▁ㅇㅕㅇㅈㅗㅇ -9018
▁ㅊㅜㄱㅈㅓㄴ -9019
ㄷㅏㅅ -9020
▁ㅂㅏㄹㅌㅓ -9021
▁ㅂㅐㄱㅈㅣ -9022
▁ㄱㅗㅇㅂㅕㅇ -9023
▁ㄱㅡㅁㅊㅓㄴ -9024
▁ㅂㅏㄹㅈㅣㄴ -9025
▁ㅇㅣㅂㅊㅏㄹ -9026
▁ㅇㅝㄴㅈㅗㅇㄱㅗㅇㅅㅣㄴ -9027
gh -9028
ㅃㅐ -9029
▁Tw -9030
ㄱㅓㄴㅂㅜ -9031
ㅂㅜㄴㅌㅜ -9032
ㅇㅣㄱㅅㅜ -9033
▁ㅇㅡㄴㅈㅣ -9034
▁ㅍㅣㄹㄱㅣ -9035
▁ㅈㅓㅇㅊㅏㄱㅈㅣ -9036
ㅍㅜㄴ -9037
ogle -9038
▁ㅌㅐㅁ -9039
ㄹㅗㅂㅅㅡ -9040
▁ㄹㅗㄱㅎㅣ -9041
▁ㅅㅣㄹㅂㅔ -9042
▁ㅇㅕㅇㄷㅗ -9043
▁ㅇㅟㄴㅌㅓ -9044
▁ㄱㅡㄴㄱㅏㄴ -9045
▁ㅅㅏㅇㅅㅓㄹ -9046
▁ㅈㅏㅇㄱㅏㅇ -9047
▁ㅎㅏㄴㄱㅜㄱㄱㅜㄴ -9048
▁ㄱㅘㄴㅇㅟ -9049
▁ㄱㅝㄴㅌㅜ -9050
▁ㅈㅓㅁㅌㅗ -9051
▁ㄱㅣㅁㅎㅏㄱ -9052
▁ㅇㅝㄴㅈㅓㅁ -9053
▁ㅇㅕㄴㅂㅏㅇㄱㅜㄴ -9054
ㄷㅣㅅ -9055
▁ㅆㅜㅇ -9056
▁ㅍㅔㄱ -9057
ㄹㅔㄴㅊㅡ -9058
ㅊㅓㄱㅈㅏ -9059
▁ㅇㅏㄹㅁㅏ -9060
▁ㅇㅏㄹㅈㅏ -9061
▁ㅊㅓㄹㄱㅣ -9062
▁ㅂㅏㄹㅍㅏㄴ -9063
▁ㅂㅓㅂㅅㅏㅇ -9064
▁ㅊㅓㅇㅁㅜㄴㅎㅚ -9065
16 -9066
ull -9067
▁1812 -9068
ㅈㅏㄴㅌㅣㄴ -9069
▁ㄱㅏㅇㄱㅜㄱ -9070
▁ㅂㅕㄴㅅㅓㅇ -9071
▁ㅋㅡㄹㄹㅓㄱ -9072
▁ㅅㅓㅇㅍㅗㄱㄹㅕㄱ -9073
▁ㅅㅜㄴㅅㅣㄱㄱㅏㄴ -9074
▁ㄱㅘㅇㅅㅣ -9075
ㄱㅕㄹㅎㅏㅂ -9076
▁ㅅㅣㄴㅇㅣㄱ -9077
▁ㄷㅏㄴㅁㅏㄹㄱㅣ -9078
▁ㅊㅗㅇㅇㅕㅇㅅㅏ -9079
▁ㄹㅡㅁ -9080
▁ㅂㅓㅅㄱㅣ -9081
▁ㄷㅏㅅㅋㅓㅁ -9082
▁ㅅㅓㄱㄱㅝㄴ -9083
▁ㅇㅏㄴㅁㅕㄴ -9084
▁PA -9085
ㅍㅓㅁ -9086
▁John -9087
▁ㄱㅜㄴㅍㅗ -9088
▁ㅁㅏㄴㅈㅣ -9089
▁ㅈㅏㅁㅈㅏ -9090
ㅂㅗㅇㅇㅏㅁ -9091
ㅅㅣㅁㅇㅝㄴ -9092
▁ㅂㅕㄴㅈㅣㄹ -9093
▁ㅎㅘㄴㅅㅏㄴ -9094
▁420 -9095
▁Per -9096
▁Win -9097
▁ㅋㅜㅇ -9098
ㄷㅏㅅㄱㅏ -9099
ㅎㅏㄹㅇㅏ -9100
▁ㄴㅏㅇㅂㅣ -9101
▁ㅎㅘㄴㅊㅗ -9102
ㅌㅏㄴㅇㅗㄹ -9103
ual -9104
▁ㅋㅏㄴㅌㅡ -9105
ㅂㅏㄴㅈㅓㅇ -9106
ㅅㅏㄴㅇㅕㄱ -9107
ㅇㅕㄴㅁㅐㅇ -9108
▁ㅇㅝㄴㅁㅏㄴ -9109
▁ㅇㅝㄴㅈㅓㅇㄷㅐ -9110
VID -9111
ㄹㅜㅅ -9112
▁ㅁㅏㄴㄹㅠ -9113
▁ㅅㅗㄴㅅㅜ -9114
▁ㅅㅣㄹㅂㅣ -9115
ㅅㅐㅇㅅㅏㄴ -9116
ㅍㅕㅇㄷㅗㅇ -9117
▁ㄱㅕㄹㅈㅏㅇ -9118
▁ㅇㅑㅇㅇㅝㄴ -9119
▁ㅊㅓㄴㅁㅜㄴㄷㅏㄴㅇㅟ -9120
25 -9121
▁ㄱㅜㄴㅁㅏ -9122
▁ㄱㅣㅁㅅㅣ -9123
▁ㅇㅕㄴㅎㅐ -9124
▁ㅎㅣㄹㅅㅡ -9125
▁Gu -9126
ㅇㅓㅇ -9127
ㅎㅝㄴ -9128
ㅇㅡㄱㄱㅗ -9129
▁ㄱㅜㄴㄱㅣ -9130
▁ㅁㅟㄹㄹㅓ -9131
ㅁㅣㄴㅈㅓㅇ -9132
▁ㅅㅓㅇㅎㅕㄴ -9133
▁ㅎㅏㅂㅂㅕㅇㅈㅡㅇ -9134
ㄸㅜㅇ -9135
▁Str -9136
▁ㅈㅣㅍ -9137
ㄹㅡㄹㄹㅜ -9138
▁ㅅㅏㄴㅅㅏ -9139
▁ㅇㅑㅇㄱㅜ -9140
▁ㅁㅗㄱㄷㅗㅇ -9141
iel -9142
▁ㄱㅗㅇㄱㅛ -9143
▁ㅍㅜㄹㅇㅣ -9144
▁ㅈㅓㄱㅂㅓㅂ -9145
▁HS -9146
▁256 -9147
ㅇㅣㄴㅌㅓ -9148
▁ㅇㅣㄹㅂㅗ -9149
▁ㅈㅓㅁㅎㅏ -9150
▁ㅋㅣㄹㄹㅓ -9151
▁ㅌㅜㄹㄹㅜ -9152
▁ㅎㅕㄴㅅㅜ -9153
ㄷㅗㅇㅂㅕㄴ -9154
▁ㅇㅓㄱㅇㅜㄹ -9155
▁ㅌㅗㅇㄱㅏㅁ -9156
UN -9157
▁208 -9158
ㅅㅐㅇㅊㅜㅇ -9159
▁ㄷㅗㅇㅁㅐㄱ -9160
▁ㅅㅏㅇㅎㅘㄴ -9161
▁ㅈㅜㅇㅇㅏㅇㅇㅣㄹㅂㅗ -9162
▁ㅇㅐㅅ -9163
ㄹㅣㄴㅅㅔ -9164
ㅈㅜㅇㅈㅜ -9165
▁ㅅㅏㄴㅈㅓㅇ -9166
▁ㅅㅣㅁㅈㅓㅇ -9167
ㅅㅣㄴㅈㅓㅇㅂㅕㄴ -9168
▁ㄱㅘㄴㄱㅐ -9169
▁ㄷㅏㅁㅅㅜ -9170
▁ㅂㅓㅁㄹㅏㅁ -9171
▁KD -9172
▁mu -9173
ㅇㅣㄴㅈㅡ -9174
▁ㄱㅡㄱㅎㅚ -9175
▁ㄱㅣㅁㅇㅜ -9176
▁ㄷㅗㅇㅎㅏ -9177
ㅂㅡㄹㄹㅣㄱ -9178
ㅍㅡㄹㄹㅔㄱ -9179
▁ㄱㅗㅇㅅㅓㄱ -9180
▁ㅂㅏㄴㅈㅓㅇ -9181
▁YG -9182
ㅅㅛㅂ -9183
▁CoA -9184
ㅅㅓㅅㅉㅐ -9185
ㅎㅏㄱㅍㅏ -9186
▁ㅂㅏㅇㅌㅏㄴ -9187
▁ㅇㅣㄴㅊㅓㄱ -9188
▁ㄱㅡㅅ -9189
▁ㄱㅜㄴㄷㅗ -9190
▁ㅈㅏㅇㅇㅣ -9191
ㄱㅡㄱㅈㅏㅇ -9192
ㄴㅕㄴㄷㅏㄴ -9193
ㄷㅓㄱㄱㅜㅇ -9194
ㄷㅗㅇㅅㅣㄱ -9195
▁ㅂㅏㄱㄱㅕㅇ -9196
▁ㅇㅑㅇㅅㅏㄴㅅㅣ -9197
▁nm -9198
▁ㅁㅑ -9199
ㄷㅔㄹㄹㅏ -9200
ㅂㅏㄱㅇㅣ -9201
▁ㅅㅓㄴㅂㅕㄹ -9202
ll -9203
▁ER -9204
▁Mr -9205
▁ㅇㅔㅅ -9206
▁ㅁㅜㄴㅇㅓ -9207
ㄱㅣㄹㅈㅜㄴ -9208
▁ㄴㅏㅁㄱㅕㅇ -9209
▁ㅅㅏㅇㄷㅗㅇ -9210
▁ㅇㅣㄹㅁㅕㄴ -9211
▁ㅈㅓㅇㅁㅐㄱ -9212
▁Kore -9213
▁ㄱㅓㄹㅅㅡ -9214
▁ㅊㅜㄴㅊㅓㄴㅅㅣ -9215
▁ㄱㅜㄱㅂㅏㅇㄱㅜㄴ -9216
ㅇㅣㅇㄱㅡㄹㄹㅐㄴㄷㅡ -9217
ㅇㅕㄴㅎㅘ -9218
ㅇㅕㅇㅎㅗ -9219
▁ㅇㅘㅇㄴㅕ -9220
ㅂㅕㅇㅇㅗㄱ -9221
▁ㄴㅗㅇㅎㅕㅂ -9222
▁ㅇㅑㅇㅈㅓㅇ -9223
▁ㅇㅛㅇㅁㅐㅇ -9224
▁DO -9225
▁ㅇㅣㄴㄷㅓ -9226
ㄴㅏㅁㄷㅗㅇ -9227
▁ㅊㅗㅇㄱㅜㄱ -9228
▁ㅌㅗㅇㅊㅏㄹ -9229
▁ㅇㅑㅇㅍㅕㅇㄱㅜㄴ -9230
ㄱㅜㅅ -9231
ㅂㅏㄹㄹㅣ -9232
▁ㄱㅗㅂㅎㅏ -9233
▁ㅁㅔㄹㄹㅣ -9234
ㄴㅡㅇㄹㅕㄱ -9235
▁Intern -9236
▁ㄷㅏㄹㄹㅕㄱ -9237
▁ㄷㅗㅇㄱㅡㅂ -9238
▁ㅂㅗㅇㅂㅜㄴ -9239
▁ㅅㅓㅇㅎㅕㅇ -9240
▁ㅈㅗㅇㅅㅣㄹ -9241
▁ㅊㅓㅇㅇㅣㄹ -9242
17 -9243
lect -9244
▁ㅆㅜㄴ -9245
ㅂㅏㅇㄷㅗ -9246
▁ㄷㅗㅇㄷㅜ -9247
▁ㅅㅐㄹㄹㅓ -9248
▁ㅊㅜㄴㄱㅖ -9249
▁ㅋㅏㄹㄹㅔ -9250
ㅁㅏㅇㄹㅠㄹ -9251
▁ㅂㅕㄴㄹㅗㄴ -9252
▁ㄷㅏㄴㅅㅜ -9253
▁ㄷㅓㅍㅊㅣ -9254
▁ㅅㅓㅇㄴㅐ -9255
▁ㅎㅔㄹㄹㅗ -9256
▁ㅇㅣㄴㅅㅏㅁ -9257
▁ㅈㅏㅇㅅㅡㅇ -9258
▁ㅆㅓㅁ -9259
▁ㅋㅐㅇ -9260
ㄴㅣㄴㅈㅜ -9261
▁ㅁㅏㄴㄷㅏ -9262
▁ㅊㅓㄴㅈㅏ -9263
▁ㅊㅜㅇㄷㅗㅇ -9264
▁ㅊㅣㄹㄱㅗㄱ -9265
▁ㅎㅏㅇㅁㅜㄴ -9266
ox -9267
▁Fl -9268
▁ㄱㅏㅇㄱㅏ -9269
▁ㅋㅏㅂㅋㅏ -9270
▁ㅎㅑㅇㄹㅗ -9271
ㅂㅗㄴㅂㅓㅂ -9272
▁ㄷㅏㅇㅅㅏㅇ -9273
▁ㅂㅏㄴㄴㅏㅂ -9274
▁ㅅㅏㅇㅊㅡㅇ -9275
▁ㅇㅕㅇㅁㅜㄴㅎㅏㄱ -9276
ames -9277
▁370 -9278
ature -9279
▁ㅅㅣㄱㅇㅣ -9280
▁ㅇㅕㄹㄱㅓ -9281
ㅎㅘㅇㄹㅕㅇ -9282
▁ㅁㅜㄴㄱㅓㄴ -9283
▁ㅁㅣㄴㅅㅓㄴ -9284
▁ㅂㅣㅊㄲㅏㄹ -9285
ㄷㅗㅇㅂㅕㄴㅅㅗㄱㄱㅣ -9286
▁NATO -9287
ㄷㅗㅇㅅㅏ -9288
▁ㅁㅏㄴㅅㅜ -9289
▁ㅂㅏㄹㄹㅜ -9290
ㅇㅜㄴㅌㅣㄴ -9291
▁ㅂㅜㄹㅁㅜㄴ -9292
ty -9293
▁MD -9294
▁440 -9295
▁ㄸㅜㅀㄹㅣ -9296
▁ㅅㅏㅇㅇㅣ -9297
▁ㅅㅓㅇㅈㅏ -9298
▁ㅇㅏㄴㅅㅣ -9299
▁ㅇㅡㄹㅅㅜ -9300
▁ㅍㅔㄹㄹㅔ -9301
ㅂㅓㅁㅅㅓㄱ -9302
▁ㄱㅗㅇㄱㅕㅇ -9303
▁ㄴㅗㅇㄷㅏㅁ -9304
▁ㄴㅏㅁㅂㅜㄱㅈㅗ -9305
▁ㄹㅕㄹ -9306
▁2500 -9307
ㄷㅔㄱㅅㅡ -9308
▁ㄱㅣㄹㅂㅓ -9309
▁ㅅㅔㄹㅈㅜ -9310
▁ㅇㅝㄴㅎㅏㄴ -9311
▁ㅎㅏㅇㅅㅐㅇㅈㅔ -9312
▁ㄱㅕㄹㅇㅕ -9313
▁ㄱㅡㅁㄱㅣ -9314
ㄴㅏㅁㅅㅓㄴ -9315
ㅇㅕㄴㅅㅏㅇ -9316
▁ㄸㅏㄱㄸㅏㄱ -9317
▁ㅂㅏㄴㄷㅏㄹ -9318
▁ㅇㅘㅇㄹㅡㅇ -9319
ㅅㅣㄱㅊㅜㄱㄱㅜ -9320
▁ㅎㅏㅇㄱㅗㅇㅇㅜ -9321
▁ㅌㅜㅁ -9322
ㅇㅣㄹㅊㅔ -9323
▁ㄱㅏㅇㅇㅠ -9324
▁ㄹㅗㄹㄹㅣ -9325
▁ㄱㅠㄴㄷㅡㅇ -9326
▁ㅇㅑㅇㄴㅕㅁ -9327
▁ㅇㅕㄹㄹㅏㅁ -9328
▁ㅊㅓㅇㅈㅓㅇ -9329
▁ㅇㅏㄹㅋㅏㄹㄹㅣ -9330
▁ㅈㅓㅂㄱㅡㄴㅅㅓㅇ -9331
ㅇㅛㅁ -9332
ㄹㄹㅣㅁ -9333
ㅂㅏㄹㅌㅡ -9334
ㅎㅘㅇㅈㅔ -9335
▁ㅈㅓㅂㅅㅣ -9336
▁ㅎㅔㄴㄷㅡ -9337
ㅊㅜㄱㄱㅜㄱ -9338
▁ㅇㅏㅇㅅㅏㅇ -9339
▁ㅇㅡㅇㄹㅕㄱ -9340
▁ㅈㅡㅇㅊㅜㄱ -9341
▁ㅇㅘㅇㄷㅏㅇㅍㅏ -9342
ove -9343
ㅂㅓㄱ -9344
▁747 -9345
▁Hot -9346
24 -9347
▁Mag -9348
ㄷㅜㄴㅈㅣ -9349
▁ㄱㅜㄴㅇㅟ -9350
▁ㅇㅗㅁㄴㅣ -9351
ㄱㅡㄱㄷㅏㄴ -9352
ㅅㅡㅇㅎㅜㄴ -9353
ㅊㅓㅇㅈㅏㅇ -9354
▁ㄱㅕㅇㅎㅏㅂ -9355
▁ㄱㅘㅇㅎㅏㅂㅅㅓㅇ -9356
▁ㅅㅣㄴㅇㅏㄴㄱㅜㄴ -9357
▁NM -9358
▁Get -9359
▁1400 -9360
▁ㅍㅜㅇㅇㅛ -9361
ㅅㅜㄹㅍㅜㅁ -9362
ㅈㅓㄴㄹㅕㄱ -9363
ㄸㅡㅁ -9364
▁MIT -9365
▁Back -9366
ㄴㅕㅁㅅㅏ -9367
▁ㄷㅗㅇㅊㅔ -9368
▁ㅊㅓㅇㄱㅛ -9369
▁ㅎㅓㄹㄹㅣ -9370
ㅇㅣㄴㄷㅏㄴ -9371
ㅎㅏㅂㅇㅝㄴ -9372
▁ㅂㅜㄹㅂㅗㄱ -9373
▁ㅈㅣㄴㅇㅝㄴ -9374
▁ㅍㅜㅅㅅㅏㄹ -9375
▁ㄱㅏㅇㄹㅡㅇㅅㅣ -9376
▁ㅇㅔㅂ -9377
ㅍㅔㄴㅅㅓ -9378
▁ㄱㅘㄴㅈㅓ -9379
▁ㅅㅡㅇㅁㅏ -9380
▁ㅋㅗㅁㅂㅣ -9381
▁ㅈㅓㄴㄱㅗㄱ -9382
BN -9383
ㄷㅙ -9384
▁DA -9385
▁class -9386
▁ㄱㅓㄹㅇㅓ -9387
▁ㅁㅓㄴㄹㅗ -9388
▁System -9389
▁ㄱㅡㅁㄱㅘㄴ -9390
▁ㅂㅏㄹㅇㅕㄹ -9391
▁ㅇㅏㅂㄷㅜㄹㄹㅏ -9392
▁ㄴㅖ -9393
▁ㅋㅣㅂ -9394
ology -9395
▁ㅂㅗㄴㄱㅓ -9396
▁ㅅㅓㄱㅈㅐ -9397
▁ㅊㅓㄴㅌㅐ -9398
▁ㄱㅘㄴㅇㅝㄴ -9399
▁ㄱㅜㄱㅁㅜㄴ -9400
▁ㅇㅑㄱㅍㅜㅁ -9401
▁ㄱㅣㅁㅈㅗㅇㅈㅣㄱ -9402
▁CA -9403
▁207 -9404
▁ㄲㅡㅁ -9405
ㄱㅗㄴㅈㅡ -9406
▁ㄱㅜㅇㅅㅜ -9407
▁ㅈㅏㅇㄹㅗㄴ -9408
▁ㅈㅣㄴㅅㅓㅇ -9409
▁ㄴㅏㅁㅎㅏㄴㅅㅏㄴㅅㅓㅇ -9410
ors -9411
▁225 -9412
▁1789 -9413
▁1801 -9414
▁ㅁㅕㅇㄷㅗㅇ -9415
▁ㅅㅣㄴㅊㅓㄴ -9416
▁ㅈㅓㄴㄷㅗㅇ -9417
▁365 -9418
ㄷㅡㄴㅂㅓ -9419
ㄸㅓㄹㅇㅓ -9420
ㅂㅓㅂㅂㅜ -9421
ㅂㅗㄴㄱㅏ -9422
ㅅㅏㄹㅍㅣ -9423
ㅅㅓㄴㅅㅏ -9424
ㅍㅐㄱㅅㅡ -9425
▁ㅇㅘㅇㅈㅘ -9426
ㄹㅣㅁㄷㅗㅇ -9427
ㅅㅏㄴㅇㅡㅂ -9428
▁ㅎㅏㅂㅈㅏㅇ -9429
▁ㄷㅗㅇㅂㅜㄱㅂㅜ -9430
app -9431
▁Baby -9432
▁ㅂㅓㄱㅅㅡ -9433
▁ㅇㅑㄱㅅㅜ -9434
ㅇㅑㅇㄱㅘㅇ -9435
▁ㅅㅗㄴㅅㅟㅂ -9436
▁ㅇㅛㅇㅇㅕㄱ -9437
▁ㅇㅝㄴㄱㅗㄱ -9438
▁ㅊㅓㄹㄱㅡㄴ -9439
▁ㅋㅐㅂㅌㅣㄴ -9440
ㅅㅓㅇㅈㅣㄹㅊㅔ -9441
▁ㅂㅏㅇㅁㅜㄴㄱㅐㄱ -9442
ㅁㅕㅇㅅㅔ -9443
ㅂㅐㄱㅅㅐㄱ -9444
▁ㅇㅝㄹㄱㅕㅇ -9445
▁ㅎㅕㄹㅇㅐㄱㅎㅕㅇ -9446
ART -9447
let -9448
▁IEC -9449
▁Cent -9450
▁ㅅㅐㅇㄱㅏ -9451
▁ㅇㅕㄴㅇㅓ -9452
ㅍㅜㅁㄱㅜㄴ -9453
▁ㅁㅐㅇㄹㅕㄹ -9454
▁ㅌㅏㄴㄱㅘㅇ -9455
ㄴㅈㅣㅂㅎㅏㅂ -9456
▁GPS -9457
▁type -9458
ㄹㅏㄱㅂㅜ -9459
ㄹㅗㄱㅅㅣ -9460
ㅌㅗㅇㅅㅜ -9461
▁ㄲㅡㄶㅇㅣ -9462
▁ㅈㅜㄴㅎㅏ -9463
ㄹㅐㄴㅅㅣㅅ -9464
▁ㅅㅣㄴㄱㅜㅇ -9465
YP -9466
▁'- -9467
▁Cr -9468
▁ㅇㅗㄴㅈㅓㄴ -9469
▁ㅎㅏㅇㅈㅓㄴ -9470
▁ㅈㅓㄴㅊㅓㄹㅇㅕㄱ -9471
za -9472
ㅍㅏㅂ -9473
▁Res -9474
▁ㄷㅔㄱ -9475
▁ㅂㅕㄴㅈㅗ -9476
▁ㅋㅐㄴㅌㅓ -9477
▁ㅇㅘㄴㅅㅏㄴ -9478
▁ㅈㅓㅂㅁㅗㄱ -9479
▁ㅅㅣㄴㅇㅣㄱㅎㅢ -9480
▁ㅇㅕㅇㅈㅏㅇㄹㅠ -9481
▁ㄱㅗㅇㅅㅓㅇㅈㅓㄴ -9482
▁ㅂㅜㄺㅇㅡㄴㅅㅐㄱ -9483
FS -9484
▁SW -9485
▁ㄷㅓㄱㅅㅜ -9486
▁ㅂㅣㄹㄹㅔ -9487
▁ㅋㅡㄹㄹㅜ -9488
▁ㅎㅘㅇㅇㅟ -9489
▁Google -9490
▁ㄱㅗㅇㅎㅜㄴ -9491
▁ㄱㅜㄱㅅㅏㄴ -9492
▁ㄴㅏㅊㅅㅓㄹ -9493
▁ㄴㅡㅇㅅㅜㄱ -9494
▁ㅈㅓㄴㄷㅗㅇㄱㅣ -9495
enn -9496
▁BO -9497
▁Ke -9498
ㄷㅓㄱㄱㅜ -9499
▁ㄴㅡㅈㅊㅜ -9500
▁ㅅㅓㅇㅈㅔ -9501
▁ㄱㅏㅁㄷㅏㅇ -9502
▁ㄱㅣㅁㅈㅏㅇ -9503
▁ㅂㅕㄴㅊㅓㄴ -9504
▁ㅂㅜㄱㅅㅗㅇ -9505
▁ㅈㅓㄴㅇㅕㄹ -9506
▁ㅌㅏㄴㅅㅓㅇ -9507
▁ㅅㅐㅇㅁㅜㄹㅎㅏㄱㅈㅏ -9508
inal -9509
▁ㄴㅗㄱㅁㅏㄹ -9510
▁ㅅㅓㄱㄷㅡㅇ -9511
▁ㅇㅏㄴㄹㅏㄱ -9512
▁ㅎㅕㄴㄱㅘㄴ -9513
▁ㅇㅏㅇㅅㅏㅇㅂㅡㄹ -9514
RNA -9515
▁ㅆㅣㄴ -9516
▁ㅁㅔㄴㅌㅗ -9517
▁ㅇㅓㄹㄹㅣ -9518
ㅍㅕㅇㅊㅓㄴ -9519
▁ㅁㅏㅈㄷㅏㅎ -9520
▁ㅈㅓㄴㄱㅡㄱ -9521
▁ㅈㅓㄴㅁㅏㅇㄷㅐ -9522
GO -9523
▁1815 -9524
▁Amer -9525
▁ㅇㅏㄱㅇㅓ -9526
▁ㅂㅏㄴㅎㅑㅇ -9527
▁ㅅㅣㄴㅇㅏㄴ -9528
▁ㅇㅑㅇㄷㅗㅇ -9529
▁ㅈㅜㅇㅅㅣㄴ -9530
MP -9531
▁OK -9532
▁Mac -9533
ㅈㅏㅁㅂㅣ -9534
▁ㄷㅗㅇㅍㅡ -9535
▁ㅂㅏㄴㅈㅏ -9536
ㅊㅗㄴㄷㅗㅇ -9537
▁ㅇㅕㄱㄷㅗㅇ -9538
▁ㅈㅣㄴㅅㅣㅁ -9539
▁ㅂㅏㅇㅂㅓㅂㄹㅗㄴ -9540
ina -9541
▁Dr -9542
▁911 -9543
ㅈㅓㄴㄹㅣ -9544
▁ㅂㅓㅂㅎㅘ -9545
▁ㅅㅏㅇㅎㅚ -9546
▁ㅇㅣㅅㄷㅏㄹ -9547
▁ㅅㅐㅇㅅㅏㄴㅈㅏ -9548
▁Tra -9549
▁ㅅㅡㅂㄷㅗ -9550
▁ㅈㅓㄴㄱㅘ -9551
ㅂㅜㄹㅁㅕㅇ -9552
▁ㄱㅣㅁㅇㅡㄴ -9553
▁ㅆㅏㅇㅇㅛㅇ -9554
▁ㅇㅕㅇㅅㅓㅇ -9555
▁ㄱㅜㄴㅅㅏㄴㅅㅣ -9556
▁ㅅㅓㅇㅂㅜㄱㄱㅜ -9557
ux -9558
▁FS -9559
▁SG -9560
ange -9561
▁ㄸㅡㄷ -9562
▁ㄴㅗㄱㅇㅣ -9563
▁ㅇㅏㄹㅂㅣ -9564
▁ㅇㅔㅁㅁㅏ -9565
▁ㅈㅓㅇㅇㅜ -9566
▁ㅎㅏㄴㄹㅏ -9567
▁ㄷㅏㅁㅈㅏㅇ -9568
ㄴㅛㄹ -9569
ㄴㅗㄹㄷㅡ -9570
▁ㅂㅗㄴㅊㅗ -9571
▁ㅇㅑㅇㅇㅟ -9572
▁ㅇㅗㅂㅌㅣ -9573
▁ㅈㅏㄴㅊㅣ -9574
▁ㅈㅣㄴㄱㅜ -9575
▁ㅊㅏㄴㄷㅡ -9576
▁ㅋㅏㅁㅍㅗ -9577
▁ㄷㅗㅇㅇㅣㄹㅅㅣ -9578
ons -9579
ㅁㅔㅅ -9580
▁ㅈㅏㄱㅈㅏ -9581
▁ㅈㅏㅇㅅㅓ -9582
▁ㅊㅏㅇㅆㅣ -9583
▁ㅋㅐㄴㄷㅣ -9584
ㄴㅓㄹㅁㅗㄱ -9585
▁ㄴㅗㄴㅍㅕㅇ -9586
▁ㄷㅏㅁㅇㅣㅁ -9587
▁ㅇㅣㄴㅅㅏㄴㅎㅘ -9588
▁ㄱㅓㄴㄴㅓㄹㅁㅗㄱ -9589
▁ㅂㅑ -9590
ㅅㅠㅇ -9591
ㄱㅡㄱㅎㅣ -9592
ㅈㅔㄹㄹㅣ -9593
ㄱㅕㅇㅊㅏㄹ -9594
▁ㄱㅕㅇㅅㅏㄴ -9595
▁ㅂㅜㄹㄴㅡㅇ -9596
▁ㅇㅜㄴㅅㅓㄱ -9597
▁ㅈㅓㅇㅈㅜㅇ -9598
▁ㅈㅣㄱㅎㅏㄹㅅㅣ -9599
ㅇㅏㅍ -9600
▁WHO -9601
▁ㄷㅜㅁ -9602
ㅌㅓㄴㅅㅡ -9603
▁ㄱㅏㅇㅌㅏ -9604
▁ㄱㅗㄴㄷㅗ -9605
▁ㄴㅏㅁㅍㅗ -9606
▁ㅈㅓㅇㄱㅘ -9607
▁ㅈㅣㄱㄹㅠ -9608
▁ㅊㅣㅁㅅㅜ -9609
ㄱㅡㅁㅅㅗㄱ -9610
▁ㅈㅡㅇㅈㅣㄱ -9611
▁ㅈㅣㄱㄱㅏㄱ -9612
▁ㅎㅕㄱㅁㅕㅇㄱㅏ -9613
▁Int -9614
▁1858 -9615
ㄷㅏㅇㄹㅠ -9616
ㄹㅑㅇㄱㅣ -9617
ㅅㅏㄹㅂㅏ -9618
ㅇㅝㄹㄷㅡ -9619
▁ㅁㅕㅇㅈㅜ -9620
▁ㅅㅡㅇㅅㅓㄴ -9621
▁ㅈㅡㄱㅎㅡㅇ -9622
▁ㅊㅜㄹㅈㅓㅇ -9623
▁ㅎㅐㅇㅇㅜㄴ -9624
▁ㅎㅡㄱㅅㅐㄱ -9625
▁ㅂㅜㄴㅎㅗㅇㅅㅐㄱ -9626
yle -9627
▁ㅆㅓ -9628
▁ㄷㅏㅁㄱㅡ -9629
▁ㅂㅏㄱㅌㅐ -9630
▁ㅇㅏㅁㅊㅗ -9631
▁ㅇㅟㄴㅅㅡ -9632
▁ㅊㅣㄴㅎㅣ -9633
▁ㅎㅘㅇㅎㅏ -9634
ㄷㅔㄹㄹㅣㅇ -9635
▁ㅈㅓㅇㅈㅣㄱ -9636
ㅂㅓㅂㅇㅝㄴㅈㅏㅇ -9637
ater -9638
▁ㅍㅐㄹ -9639
ㅈㅡㅇㄱㅣ -9640
▁ㅌㅏㄹㅍㅣ -9641
▁ㅁㅕㅇㅈㅏㅇ -9642
▁ㅇㅟㅅㅁㅕㄴ -9643
▁ㅊㅗㅇㅅㅐㅇㅅㅏㄴ -9644
▁Dis -9645
ㄷㅡㅂㄴㅏ -9646
ㄹㅏㄹㄷㅡ -9647
▁ㅈㅡㅇㄹㅠ -9648
▁ㄴㅏㅁㄱㅜㅇ -9649
▁ㅅㅡㅇㄴㅏㄱ -9650
▁ㅅㅣㄹㅅㅏㅇ -9651
▁ㅇㅣㄱㅅㅏㄴㅅㅣ -9652
▁ㅇㅣㄹㅈㅣㄴㅎㅚ -9653
ㅋㅗㅂ -9654
▁MHz -9655
ㄱㅐㅇㅇㅣ -9656
ㅌㅏㄹㄹㅗ -9657
▁ㄱㅏㄴㅈㅣ -9658
▁ㄱㅜㅇㄴㅐ -9659
▁ㅁㅗㄱㅎㅘ -9660
▁ㅈㅏㄱㅇㅏ -9661
▁ㅎㅠㅇㄴㅐ -9662
ㅈㅣㄹㄹㅑㅇ -9663
ㅎㅜㄴㄹㅕㄴ -9664
▁ㅊㅐㄱㅈㅓㅇ -9665
▁ㅊㅓㄴㅈㅓㄱ -9666
▁ㅈㅓㅇㅁㅗㅇㅈㅜ -9667
▁ㄷㅗㄱㄹㅣㅂㅅㅓㄴㅇㅓㄴ -9668
▁kW -9669
▁Not -9670
▁ㅇㅛㄴ -9671
ㄹㅔㄴㅊㅗ -9672
ㅈㅓㅇㄱㅠ -9673
TN -9674
att -9675
ret -9676
▁PH -9677
ㄷㅔㄱ -9678
ions -9679
▁USA -9680
▁ㄱㅗㅇㅂㅗ -9681
▁ㅇㅏㄴㅈㅐ -9682
▁ㅂㅔㄹㅂㅔㅅ -9683
▁ㅇㅏㄴㄱㅓㄴ -9684
▁ㅇㅠㄴㄱㅘㄱ -9685
▁ㅎㅡㅂㅇㅣㅂ -9686
▁ㅂㅜㄹㅂㅓㅂㅎㅐㅇㅇㅟ -9687
ㅊㅞ -9688
▁238 -9689
▁TBC -9690
▁War -9691
▁Way -9692
ㅇㅜㄴㅌㅓ -9693
▁ㄱㅏㄹㅂㅣ -9694
ㄱㅗㅇㅇㅝㄴ -9695
▁ㅂㅐㄹㄹㅓㄴ -9696
▁ㅂㅗㅇㅎㅓㄴ -9697
▁ㅊㅓㅅㄴㅏㄹ -9698
▁ㅊㅜㄹㅂㅕㅇ -9699
▁ㅌㅏㄴㄹㅕㄱ -9700
26 -9701
▁ㅆㅙ -9702
ㄱㅡㄱㄱㅣ -9703
▁ㅂㅕㄴㅈㅜ -9704
▁ㅅㅓㄹㄱㅘ -9705
▁ㅅㅔㄹㄹㅓ -9706
ㄷㅡㄱㅈㅓㅁ -9707
ㅅㅣㄹㅎㅓㅁ -9708
▁ㄱㅘㅇㄷㅗㅇ -9709
▁ㄱㅠㄴㅇㅕㄹ -9710
▁ㅈㅏㅇㅈㅜㄴ -9711
▁ㅍㅡㄹㄹㅏㅇㄷㅡ -9712
▁1300 -9713
▁What -9714
ㅂㅏㄴㅂㅜ -9715
▁ㄱㅏㅇㅈㅏ -9716
▁ㄱㅕㅇㄱㅜ -9717
▁ㄱㅡㅁㄹㅣ -9718
▁ㅅㅓㄴㄷㅔ -9719
▁ㄷㅓㄴㅈㅓㄴ -9720
▁ㅈㅓㄴㅈㅣㅂ -9721
▁ㅎㅕㅇㄱㅘㅇ -9722
▁ㅍㅕㅇㅌㅐㄱㅅㅣ -9723
▁ㅋㅔㅅ -9724
▁ㄱㅗㅇㅈㅣ -9725
▁ㅇㅏㄵㅎㅣ -9726
ㄹㅓㅁㅍㅔㅅ -9727
ㅅㅓㅇㄷㅗㅇ -9728
ㅅㅡㄹㄹㅗㄴ -9729
▁ㅁㅕㄴㅇㅡㄴ -9730
▁ㅈㅗㅇㄷㅏㄴ -9731
IO -9732
UI -9733
▁1820 -9734
▁High -9735
ㄷㅓㄴㅅㅡ -9736
ㅇㅡㅁㅅㅗㄱ -9737
▁ㄱㅣㅁㅅㅓㄱ -9738
▁ㄷㅓㅇㄱㅜㄹ -9739
▁ㄷㅗㅇㄹㅠㄹ -9740
▁ㅈㅓㅇㄱㅗㅇ -9741
▁ㅌㅗㅇㅋㅣㅇ -9742
▁ㅎㅗㅇㅊㅓㄴ -9743
▁ㅁㅏㅈㅁㅜㄹㄹㅣ -9744
▁ㅎㅔㄹㅅㅣㅇㅋㅣ -9745
ley -9746
▁NL -9747
▁Of -9748
ㅈㅜㅁ -9749
▁time -9750
ㅇㅑㄱㅅㅓ -9751
ㅋㅓㄴㄷㅡ -9752
▁ㄱㅣㅁㅅㅔ -9753
▁ㄷㅗㅇㅌㅣ -9754
▁ㅇㅣㄹㄹㅏ -9755
▁ㄱㅕㄱㅊㅣㅁ -9756
▁ㄱㅣㅍㅅㅜㄱ -9757
ㅂㅓㅂㅇㅕㄴㅎㅘ -9758
▁ㅇㅣㄴㅁㅜㄴㅎㅏㄱ -9759
▁ㅎㅏㅂㅊㅓㄴㄱㅜㄴ -9760
▁ㅅㅏㄴㅇㅓㅂㄷㅏㄴㅈㅣ -9761
ㄹㅏㅅ -9762
▁MPEG -9763
ㅎㅐㅇㅎㅣ -9764
▁COVID -9765
▁ㅁㅣㄴㄱㅏ -9766
▁ㅂㅏㄹㄷㅔ -9767
▁ㅅㅏㅇㅌㅜ -9768
▁ㅅㅏㅇㅎㅐ -9769
▁ㅊㅏㅇㅅㅔ -9770
▁ㄱㅕㄱㅅㅏㅇ -9771
▁ㄱㅘㅇㅌㅐㄱ -9772
▁ㄱㅣㅂㅅㅡㄴ -9773
▁ㅈㅓㅇㅎㅕㄴ -9774
▁ㅍㅕㅇㅅㅏㅇㅅㅣ -9775
▁ㅎㅏㄴㅈㅓㅇㅍㅏㄴ -9776
ㅊㅠ -9777
ger -9778
▁ㄷㅜㄱ -9779
▁Blue -9780
ㄱㅏㄴㅈㅜ -9781
▁ㄱㅏㅇㄱㅜ -9782
▁ㅂㅏㄴㅇㅑ -9783
▁ㅎㅘㄴㄱㅣ -9784
▁ㅈㅓㅇㅇㅣㄹ -9785
ye -9786
ㄹㅐㄴㅈㅣ -9787
▁ㅇㅑㅇㅊㅣ -9788
▁ㅇㅓㄹㅅㅡ -9789
▁ㅈㅓㅇㅇㅕ -9790
ㅅㅏㅁㅊㅗㄴ -9791
▁ㄱㅜㄴㄹㅣㅁ -9792
▁BB -9793
▁EN -9794
▁ㄱㅏㅂㅇㅗ -9795
▁ㅅㅐㅇㅍㅗ -9796
▁ㅎㅐㄹㄹㅣ -9797
▁ㅋㅔㄹㅂㅣㄴ -9798
▁ㅂㅜㄱㅂㅏㄴㄱㅜ -9799
▁ㄱㅜㄱㅁㅜㄴㅎㅏㄱ -9800
▁ㄴㅗㅇㅁㅣㄴㄱㅜㄴ -9801
enc -9802
▁MR -9803
▁ㄷㅏㄹㅁㅏ -9804
▁ㅇㅕㄱㅁㅜ -9805
▁ㅍㅐㄹㄹㅣ -9806
ㅇㅑㄱㅈㅓㅁ -9807
▁ㅅㅐㅇㅈㅏㅇ -9808
▁ㅇㅝㄴㅅㅐㅇ -9809
▁ㅈㅏㅇㅌㅐㄱ -9810
▁ㄴㅏㅁㅂㅏㄴㄱㅜ -9811
▁ㅎㅗㅂㅋㅣㄴㅅㅡ -9812
▁COM -9813
▁1814 -9814
▁ㄴㅏㅁㅌㅐ -9815
▁ㅅㅓㄴㅅㅓ -9816
▁ㅌㅡㄱㅇㅟ -9817
ㄱㅏㄱㅅㅓㄴ -9818
▁ㅁㅏㄴㅁㅜㄹ -9819
▁ㅂㅏㄱㄷㅗㅇ -9820
▁ㅇㅛㅇㅈㅓㅂ -9821
▁ㅇㅡㅁㅇㅕㄱ -9822
▁480 -9823
▁With -9824
ㅇㅔㄹㄹㅔ -9825
▁ㄱㅗㄹㅅㅜ -9826
▁ㅇㅏㄱㅇㅢ -9827
▁ㅇㅞㄹㅅㅡ -9828
▁ㅍㅜㅇㅅㅜ -9829
▁ㄲㅡㅁㅉㅣㄱ -9830
▁ㅌㅗㅇㅅㅣㄴㅂㅜ -9831
28 -9832
▁1795 -9833
ㅁㅜㄴㄱㅗ -9834
ㅇㅛㅇㅎㅣ -9835
▁ㅇㅕㅇㅈㅐ -9836
▁ㅇㅣㄴㄴㅗ -9837
ㅌㅏㅁㅈㅓㅇ -9838
▁ㅊㅜㄴㅎㅑㅇ -9839
▁ㅊㅜㄹㅎㅏㅇ -9840
▁290 -9841
▁ㅃㅜㅁ -9842
ㄹㅗㄹㄹㅜ -9843
ㅎㅏㅇㅎㅐ -9844
▁ㅅㅓㅇㅂㅜ -9845
▁ㅊㅗㅇㅅㅜ -9846
▁ㄱㅜㄴㄹㅏㄱ -9847
▁ㄷㅡㄱㅅㅣㄹ -9848
▁ㅅㅜㄹㅈㅣㅂ -9849
▁ㅋㅗㄴㅅㅔㅂ -9850
▁ㅎㅏㅂㅅㅏㄴ -9851
▁ㅎㅔㄹㄹㅔㄴ -9852
▁ㄹㅗㄹㅍㅡㄹㄹㅔ -9853
▁ㅊㅓㄴㅇㅕㄴㄱㅏ -9854
ㅈㅓㄴㅈㅜ -9855
ㅊㅜㄹㅅㅗ -9856
▁ㅇㅠㅇㄱㅣ -9857
▁ㅊㅏㅇㅇㅓㅂㅈㅏ -9858
der -9859
▁850 -9860
▁Art -9861
▁ㄷㅗㅅㅌㅗ -9862
▁ㅁㅗㄴㅌㅐ -9863
▁ㅍㅗㄱㅈㅜ -9864
ㅌㅣㄹㄹㅔㄴ -9865
▁ㄱㅜㄴㄹㅑㅇ -9866
OVE -9867
ㅋㅜㄴ -9868
▁ㅋㅗㅅ -9869
▁ㅅㅣㄴㅇㅣ -9870
▁ㄱㅕㄹㄹㅕㄹ -9871
▁ㅅㅏㄴㄷㅜㅇㅅㅓㅇ -9872
▁ㅊㅏㅇㄷㅓㄱㄱㅜㅇ -9873
ING -9874
ump -9875
▁MLB -9876
ㅅㅣㄴㄷㅗ -9877
ㅇㅑㅇㅈㅣ -9878
▁ㄷㅏㄴㅅㅏ -9879
▁ㄷㅏㅇㅈㅏㅇ -9880
▁ㅅㅏㅇㅈㅏㄱ -9881
▁ㅊㅓㅇㅈㅜㅇ -9882
▁ㅇㅕㄴㅅㅡㅂㅅㅐㅇ -9883
alk -9884
▁214 -9885
▁1846 -9886
ㅂㅏㄴㅌㅡ -9887
ㅂㅗㄹㄹㅏ -9888
ㅇㅣㄴㅈㅏ -9889
▁ㅂㅜㄹㄱㅓ -9890
▁ㅎㅏㄴㄲㅓ -9891
ㄷㅏㄹㅇㅡㅁ -9892
ㅎㅏㄱㅅㅏㄹ -9893
▁ㅁㅕㅇㅈㅜㅇ -9894
▁ㅂㅜㄹㄱㅣㄹ -9895
▁ㅅㅣㄴㄱㅘㄴ -9896
▁ㅊㅗㄴㅇㅡㄴ -9897
▁ㅊㅜㅇㄹㅕㄹㅇㅘㅇ -9898
23 -9899
ough -9900
▁737 -9901
ㄷㅗㄱㅈㅏ -9902
ㅃㅏㄹㄹㅣ -9903
ㅇㅛㅇㄱㅣ -9904
▁ㄱㅡㅂㅅㅏ -9905
▁ㅂㅏㄹㅊㅞ -9906
▁ㅇㅕㅇㅇㅟ -9907
▁ㅎㅏㄱㄷㅗ -9908
ㅅㅡㅇㅋㅓㅂ -9909
ㅇㅜㄹㅊㅓㄹ -9910
ㅊㅜㄹㅇㅐㄱ -9911
▁ㄹㅐㄴㄷㅓㅁ -9912
▁ㅇㅣㅂㅊㅜㄹㄹㅕㄱ -9913
▁ㅇㅓㄹㅌㅓ -9914
▁ㅍㅐㄴㅇㅏ -9915
▁ㄱㅗㅇㄷㅓㄱ -9916
▁ㅈㅗㄴㅅㅏㅇ -9917
▁ㄱㅡㅂㅅㅗㄱㄷㅗ -9918
ㄹㅓㅂㅇㅕㄴㅎㅏㅂ -9919
ㅋㅏㄴㅅㅗ -9920
▁ㅅㅣㄴㄱㅜ -9921
▁ㅈㅏㅇㅊㅏ -9922
▁ㅅㅗㄴㅊㅐㄱ -9923
▁ㅈㅜㅇㅅㅣㅁㅎㅐㄱ -9924
▁'. -9925
▁ㄱㅗㅇㅎㅐ -9926
▁ㄱㅘㅇㅅㅓ -9927
▁ㅅㅣㄹㅋㅡ -9928
▁ㅋㅣㄹㄹㅣ -9929
ㅈㅓㄱㅂㅜㄴ -9930
▁ㅊㅗㅇㅅㅏㄹ -9931
ㅈㅣㄱㅎㅏㄹㅅㅣ -9932
▁ㅎㅏㄱㅅㅐㅇㅎㅚ -9933
▁"' -9934
▁BR -9935
▁Di -9936
▁Vf -9937
ㅎㅐㅇㄷㅐ -9938
▁ㅈㅏㅇㅈㅗ -9939
▁ㄱㅏㄴㅇㅕㅁ -9940
ㄴㅏㅈ -9941
ㄹㅓㅇㅇㅣ -9942
▁ㄷㅡㅇㄷㅐ -9943
▁ㅇㅕㄱㅁㅗ -9944
▁ㅌㅡㅁㅌㅏ -9945
▁ㅎㅗㄴㅁㅏ -9946
ㄱㅓㄴㅈㅓㄱ -9947
▁ㅈㅣㄱㅎㅏㅁ -9948
ㄱㅏㄱㅊㅗㅇㄹㅣ -9949
▁ㅂㅏㄹㄹㅔㄴㅌㅣ -9950
▁ED -9951
ㅌㅠㄴ -9952
▁ㅁㅣㄹㅅㅡ -9953
▁ㅊㅓㅁㅂㅜ -9954
▁ㅍㅐㄱㅌㅗ -9955
▁ㅂㅗㄴㄷㅏㅇ -9956
▁ㅎㅐㄱㅍㅗㄱㅌㅏㄴ -9957
▁ME -9958
▁Rev -9959
▁ㅇㅑㄹ -9960
▁ㅈㅘㅇ -9961
ㅍㅐㅇㅇㅣ -9962
▁ㄴㅏㅂㅍㅜㅁ -9963
▁ㅁㅔㄹㄹㅗㄴ -9964
▁ㅅㅜㄴㅈㅓㅇ -9965
▁ㅅㅜㅇㅅㅣㄹ -9966
▁ㅈㅏㅇㅎㅏㅇ -9967
▁ㄹㅐㄴㄷㅣ -9968
▁ㅇㅣㅈㅎㅣ -9969
ㅇㅝㄴㅎㅕㅇ -9970
▁ㅁㅏㅅㅇㅣㅆ -9971
▁ㅇㅑㄱㅎㅏㄱ -9972
▁ㅈㅗㅇㅊㅣㄴ -9973
▁ㅂㅜㄱㄱㅡㄱㅎㅐ -9974
▁ㅈㅓㅇㅎㅘㄱㄷㅗ -9975
que -9976
atch -9977
▁Min -9978
ㄹㅗㄴㅎㅚ -9979
ㅌㅏㅇㅅㅜ -9980
▁ㄱㅕㄱㅎㅘ -9981
▁ㄱㅜㄴㅂㅣ -9982
▁ㅍㅔㄴㅅㅡ -9983
ㄱㅐㄱㅅㅓㄴ -9984
▁ㅈㅓㄱㅈㅓㄹㅎㅣ -9985
▁ㅇㅝㄴㅈㅓㅇㄱㅜㄴ -9986
▁ㄱㅏㄴㄷㅣ -9987
▁ㄱㅜㄱㄱㅘ -9988
▁ㅂㅜㄴㄷㅏㅁ -9989
▁ㅊㅗㅇㅇㅐㄱ -9990
▁Mic -9991
ㄷㅏㄹㄹㅜ -9992
ㅇㅣㄴㅅㅜ -9993
▁ㅇㅟㄴㄷㅡ -9994
▁ㄱㅕㄹㅅㅣㄹ -9995
▁ㅂㅏㄱㅅㅡㅇ -9996
▁ㅂㅓㅁㅇㅛㅇ -9997
▁ㅅㅗㄹㅈㅣㄱ -9998
▁ㅇㅝㄹㅂㅜㄱ -9999
▁ㅊㅓㄴㅈㅓㅇ -10000
▁ㄱㅓㄴㄱㅜㄱㄷㅐ -10001
▁ㅎㅕㄱㅁㅕㅇㄱㅜㄴ -10002
ery -10003
ㅂㅐㄴㅅㅡ -10004
ㅂㅗㄱㅈㅣ -10005
▁ㄱㅕㄹㅌㅜ -10006
▁ㅅㅏㅁㅋㅣ -10007
▁ㅍㅏㄹㅈㅏ -10008
▁ㅎㅏㄴㅅㅓ -10009
▁ㅇㅏㄹㄹㅔㄴ -10010
▁ㅇㅑㅇㅂㅜㄴ -10011
▁ㅈㅓㄴㄹㅏㄴ -10012
▁ㅅㅓㄴㅇㅓㄴㅁㅜㄴ -10013
▁TG -10014
cess -10015
▁LCD -10016
ㅇㅑㄱㅅㅡ -10017
ㅎㅓㅁㅈㅏ -10018
▁ㅁㅏㅇㄹㅜ -10019
▁ㅂㅏㄱㄱㅣ -10020
▁ㅂㅜㄱㅎㅐ -10021
▁ㅅㅗㄹㅌㅡ -10022
▁ㅇㅕㄴㅇㅠ -10023
▁ㅇㅣㄴㄷㅐ -10024
ㅂㅏㄴㅈㅓㄴ -10025
▁ㄱㅏㄴㅈㅏㅇ -10026
▁ㅅㅏㄴㄷㅗㅇ -10027
▁ㄱㅘㄴㅊㅏㄹㅈㅏ -10028
▁ㅁㅓㅅ -10029
ㅅㅓㅇㄹㅣ -10030
ㅎㅐㅇㅇㅓ -10031
▁ㅂㅏㅇㅈㅗ -10032
▁ㅂㅜㄴㄷㅐ -10033
▁ㄱㅏㄱㄱㅘㅇ -10034
▁ㄱㅕㄹㄷㅏㄴ -10035
▁ㄷㅏㅇㅁㅕㅇ -10036
▁ㅎㅕㄴㅊㅜㅇ -10037
86 -10038
▁RA -10039
▁XML -10040
▁ㄱㅜㄱㅈㅣ -10041
▁ㅇㅐㄹㅍㅡ -10042
▁ㅇㅕㅇㅎㅐ -10043
▁ㅇㅣㅁㅂㅔ -10044
▁ㅈㅓㅇㅅㅣ -10045
ㄴㅕㅁㅅㅣㄱ -10046
ㅇㅑㄱㄱㅡㅁ -10047
▁ㄱㅏㅂㄱㅏㄱ -10048
▁ㄴㅗㄴㅅㅓㄹ -10049
▁ㅂㅡㄹㄹㅏㅇ -10050
▁ㅇㅣㄴㅅㅣㄴ -10051
▁ㅅㅣㄱㅁㅜㄹㅇㅝㄴ -10052
ㅁㅏㅌ -10053
ㅁㅏㅎ -10054
▁ㄱㅠㄹ -10055
▁1851 -10056
ㄹㅐㅇㅍㅣ -10057
ㅂㅗㅇㅅㅏ -10058
▁ㅎㅏㅁㅇㅢ -10059
▁ㄷㅗㄱㅅㅣㄹ -10060
▁ㅈㅓㅇㅂㅕㅇ -10061
▁ㅇㅗㄹㄹㅐㅇㅍㅣ -10062
▁ㄱㅏㅂㅅㅣㄴㅈㅓㅇㅂㅕㄴ -10063
▁CL -10064
▁1856 -10065
ㅈㅏㅇㄱㅗ -10066
ㅎㅡㅇㅅㅏ -10067
▁ㄷㅗㄱㅅㅗ -10068
▁ㅇㅝㄴㅈㅔ -10069
▁ㅅㅣㄴㅈㅏㄱ -10070
▁ㅇㅠㄱㅂㅏㄱ -10071
▁ㅇㅠㄹㄹㅕㅇ -10072
▁223 -10073
▁ㅊㅗㅁ -10074
▁1793 -10075
ㄷㅡㄹㄹㅓ -10076
▁ㄱㅜㄷㅇㅣ -10077
▁ㅇㅓㄱㅈㅣ -10078
▁ㅈㅗㄹㄹㅣ -10079
ㅁㅜㄹㄹㅗㄴ -10080
▁ㄴㅏㄱㅇㅕㅂ -10081
▁ㅂㅗㄹㄹㅠㅁ -10082
▁ㅅㅓㅇㄱㅏㄴ -10083
▁ㅊㅓㄹㅇㅝㄴ -10084
▁ㅎㅕㄴㄹㅕㅇ -10085
▁ㅅㅓㅇㅁㅕㅇㅅㅓ -10086
▁ㅇㅕㅇㅅㅏㄴㅎㅚ -10087
▁IA -10088
▁ne -10089
▁1854 -10090
▁Free -10091
ㅅㅗㄴㅈㅏ -10092
▁ㅍㅗㄴㅌㅡ -10093
ㅇㅣㄴㅇㅕㄱ -10094
▁ㅎㅕㄴㅊㅓㅇ -10095
▁ㅇㅓㅇㄷㅓㅇㅇㅣ -10096
▁UR -10097
▁301 -10098
▁1839 -10099
▁ㅇㅣㄴㅍㅣ -10100
▁ㅈㅣㄹㄹㅔ -10101
▁ㅊㅜㅇㄱㅗ -10102
▁ㅌㅡㄱㅎㅖ -10103
▁ㅇㅏㄴㅈㅜㅇㄱㅡㄴ -10104
27 -10105
HD -10106
▁FR -10107
▁Beat -10108
▁ㅁㅕㅇㅈㅣ -10109
▁ㅇㅠㄱㅇㅏ -10110
▁ㅋㅐㅇㄱㅓ -10111
▁ㅍㅓㄴㅊㅣ -10112
ㅈㅣㄴㅅㅣㄹ -10113
▁ㅅㅓㅇㅊㅏㄴ -10114
▁ㅇㅡㅁㄱㅕㅇ -10115
▁ㅎㅐㄴㄷㅡㄹ -10116
29 -10117
ont -10118
ㄱㅗㅈ -10119
▁ㄱㅘㄴㄷㅐ -10120
▁ㄴㅏㄱㅌㅐ -10121
▁ㅊㅜㅁㅊㅜ -10122
▁ㅌㅐㄱㅈㅣ -10123
▁ㅍㅣㅇㄱㅖ -10124
ㅇㅕㄹㅅㅓㅇ -10125
▁ㅁㅗㅁㅈㅣㅂ -10126
▁ㅅㅣㅁㄱㅡㄴ -10127
▁ㅇㅜㅇㅈㅣㄴ -10128
▁ㅈㅓㅇㄱㅏㅇ -10129
▁ㄴㅗㅇㅈㅏㄱㅁㅜㄹ -10130
▁ㅎㅙ -10131
▁1849 -10132
ㄹㅔㄴㅊㅣ -10133
ㄹㅣㅇㅅㅡ -10134
ㄹㅣㅇㅋㅡ -10135
▁ㄱㅜㄴㅁㅜ -10136
▁ㅁㅏㄴㄱㅜㄱ -10137
▁ㅂㅏㄱㅈㅜㄴ -10138
▁ㅂㅗㄴㄴㅡㅇ -10139
▁211 -10140
ㅅㅓㄹㅈㅏ -10141
ㅈㅜㄴㅇㅓ -10142
▁begin -10143
▁ㄷㅏㅁㅎㅘ -10144
ㅇㅠㄱㅅㅣㄴ -10145
ㅅㅓㅇㄴㅕㄴㅈㅏ -10146
ㅇㅛㅇㄷㅗㄹㅇㅣ -10147
▁ㅈㅜㅇㅇㅏㅇㅈㅓㅇㅂㅗ -10148
▁ㄷㅗㅊ -10149
▁1855 -10150
▁ㄷㅗㅇㄱㅗ -10151
ㅈㅏㅇㄱㅏㄱ -10152
▁ㄱㅗㅇㅍㅕㅇ -10153
▁ㅅㅣㅁㅅㅡㄴ -10154
▁ㅇㅕㄴㅇㅣㅁ -10155
▁ㅇㅕㄹㅂㅏㄴ -10156
▁ㅇㅡㅁㅇㅑㅇ -10157
▁ㅎㅏㄱㅊㅏㅇ -10158
▁MW -10159
ㄴㅐㅇ -10160
▁430 -10161
▁Med -10162
ㅎㅡㅇㅅㅣ -10163
▁ㅂㅗㄴㄷㅣ -10164
▁ㅊㅓㄴㄱㅜ -10165
ㅂㅜㄱㅉㅗㄱ -10166
▁ㅂㅓㅈㄲㅗㅊ -10167
▁ㅈㅣㄴㅇㅏㄴ -10168
▁ㅎㅏㄱㄱㅡㅂ -10169
ㄴㄱㅏ -10170
ㅅㅏㅇㅎㅕㄴ -10171
▁ㅂㅗㄴㅈㅣㄴ -10172
▁ㅇㅗㄱㅅㅏㅇ -10173
▁ㅇㅠㄴㅇㅕㅇ -10174
▁ㅇㅠㄹㄱㅗㄱ -10175
▁ㅇㅣㄴㅊㅜㄹ -10176
▁ㅈㅡㅇㅇㅝㄴ -10177
ㅆㅏㄹ -10178
ㅎㅣㄴ -10179
▁ㄹㅔㅇ -10180
▁void -10181
ㄹㅕㄱㅈㅏ -10182
▁10000 -10183
▁ㅅㅓㄹㅅㅏ -10184
▁ㅊㅜㄹㄹㅜ -10185
▁ㅎㅟㄹㅊㅔ -10186
▁ㅈㅗㅇㅌㅐㄱ -10187
▁ㅊㅏㄴㅌㅏㄹ -10188
▁ㅌㅣㅁㅈㅏㅇ -10189
▁ㅎㅗㄴㄷㅗㄴ -10190
▁419 -10191
▁Top -10192
▁ㅇㅓㅍ -10193
ㅁㅂㅡㄹ -10194
ㄹㅏㄹㄹㅏ -10195
ㅇㅑㅇㅅㅜ -10196
▁ㄱㅕㅇㅊㅣ -10197
▁ㄴㅏㅁㄹㅗ -10198
▁ㅅㅓㄴㅎㅚ -10199
▁ㄱㅜㄴㅈㅣㅂ -10200
▁ㅂㅕㅇㅇㅝㄴㅊㅔ -10201
ma -10202
aff -10203
▁ㅁㅏㄴㄹㅣ -10204
▁ㅈㅓㄱㅈㅐ -10205
▁ㄴㅏㄱㄹㅏㅇ -10206
▁ㅁㅣㄴㄱㅝㄴ -10207
▁ㅂㅗㅇㅈㅏㄱ -10208
day -10209
▁KC -10210
▁Po -10211
▁set -10212
ㄹㅏㄴㄷㅔ -10213
▁ㄱㅕㄴㅈㅣ -10214
▁ㄱㅗㅇㄴㅕ -10215
▁ㅂㅏㄴㄹㅕ -10216
▁ㅅㅏㄴㅂㅜ -10217
▁ㅅㅏㅇㅊㅔ -10218
▁ㅌㅡㄱㄹㅖ -10219
ㅈㅓㄴㅈㅐㅇ -10220
▁ㅍㅕㅇㄴㅕㄴ -10221
▁ㄲㅏㅇ -10222
▁ㄹㅓㄹ -10223
ㅇㅕㄴㅇㅢ -10224
ㅌㅐㄴㅍㅓ -10225
▁ㄷㅡㄹㄹㅕ -10226
▁ㅂㅔㄴㅍㅣ -10227
▁ㅂㅜㄴㅇㅑㅇ -10228
▁ㅈㅏㅇㄹㅕㅇ -10229
▁ㅈㅓㄴㅇㅐㄱ -10230
▁ㅊㅣㄴㅁㅗㄱ -10231
ㅍㅕㅇㅊㅓㄴㄱㅜㄱ -10232
ㅂㅓㅅ -10233
ㄷㅗㅇㄷㅐ -10234
ㄹㅏㅁㅅㅡ -10235
ㅅㅗㅇㄱㅣ -10236
ㅈㅏㄱㅅㅗ -10237
▁ㅅㅗㄴㅂㅏ -10238
▁ㄷㅓㅅㅅㅔㅁ -10239
▁ㅂㅕㄴㅂㅏㅇ -10240
▁ㅊㅓㅇㄱㅜㄴ -10241
ㅇㅣㄹㅅㅣㄴㅂㅗ -10242
▁ㅈㅏㅇㅌㅐㄱㅅㅏㅇ -10243
▁HK -10244
ㅅㅗㅁ -10245
irst -10246
▁ㄴㅓㄱ -10247
ㅎㅏㄴㄷㅗ -10248
▁ㅅㅣㄹㅌㅐ -10249
▁ㅈㅗㅇㅈㅜ -10250
ㅈㅣㄴㅂㅓㅂ -10251
▁ㄱㅣㅁㅁㅜㄴ -10252
▁ㄷㅏㅇㅂㅜㄴ -10253
▁ㄸㅏㅇㅋㅗㅇ -10254
▁ㅁㅏㄴㅇㅕㄴ -10255
▁ㅂㅕㄱㅁㅕㄴ -10256
▁ㅂㅜㄱㅅㅏㅇ -10257
▁ㅅㅓㄱㅅㅏㅇ -10258
▁ㅎㅏㄹㅇㅑㅇ -10259
▁ㄱㅏㅁㅇㅕㅁㅈㅏ -10260
▁ㅎㅐㄱㅅㅣㄹㅎㅓㅁ -10261
ㅈㅏㅇㅅㅓㅇ -10262
▁ㅅㅡㅇㅈㅓㄴ -10263
▁ㅌㅗㄹㅋㅣㄴ -10264
BT -10265
ㅇㅕㅇㅅㅜ -10266
ㅊㅏㄹㄱㅣ -10267
▁ㄱㅕㅇㅅㅜ -10268
▁ㅁㅗㄱㄷㅗ -10269
▁ㅇㅑㄱㅈㅔ -10270
ㅇㅜㄴㅈㅓㄴ -10271
▁ㄱㅕㄴㅅㅡㅂ -10272
▁ㅅㅣㄹㅊㅐㄱ -10273
▁ㅇㅕㄹㅍㅜㅇ -10274
▁ㄴㅗㄴㅅㅏㄴㅅㅣ -10275
▁DL -10276
▁Big -10277
▁FBI -10278
▁ㄷㅏㄹㄹㅐ -10279
▁ㅁㅏㄴㄱㅣ -10280
▁ㅊㅓㅇㅎㅘ -10281
▁ㅎㅘㅇㅂㅗ -10282
ㄱㅘㅇㅅㅓㄴ -10283
▁ㄷㅗㄱㄱㅏㅁ -10284
▁ㅁㅜㄴㅅㅓㅇ -10285
▁ㄷㅗㅇㅂㅜㄱㅉㅗㄱ -10286
aut -10287
▁YM -10288
▁1857 -10289
ㅇㅔㄴㄴㅏ -10290
▁ㄹㅣㄴㄷㅡ -10291
▁ㅂㅜㄴㅅㅙ -10292
▁ㅇㅔㄹㅍㅡ -10293
▁ㅊㅏㅁㅂㅐ -10294
ㅅㅣㄴㄱㅏㅁ -10295
▁ㄱㅓㄹㅁㅏㅈ -10296
▁ㅈㅣㄴㅈㅓㅇㅎㅏ -10297
▁SI -10298
▁239 -10299
▁End -10300
ㅂㅗㄹㅌㅡ -10301
ㅇㅕㄴㄹㅛ -10302
▁ㅅㅣㄹㄹㅗ -10303
▁ㅍㅜㄹㅇㅓ -10304
▁ㅎㅕㅇㅁㅜ -10305
▁ㄷㅓㅁㅂㅜㄹ -10306
▁ㅁㅣㅌㅁㅕㄴ -10307
▁ㅎㅏㅁㅇㅏㄴ -10308
▁ㅎㅐㄱㅅㅏㄴ -10309
▁ㄲㅗㅊㅂㅏㄷㅊㅣㅁ -10310
▁FN -10311
▁TN -10312
▁215 -10313
▁Bro -10314
▁ㅂㅏㄹㅎㅘ -10315
▁ㅈㅏㅇㄱㅜ -10316
▁ㄱㅕㄹㅈㅣㅂ -10317
ㄷㅗㄱㄹㅣㅂㄷㅏㅇ -10318
▁ㅎㅏㄴㄱㅜㄱㄷㅗㄱㄹㅣㅂㄷㅏㅇ -10319
▁JP -10320
ㅅㅓㅇㅇㅐ -10321
ㅈㅓㄴㅅㅣ -10322
▁ㅂㅔㄴㅈㅓ -10323
▁ㅅㅣㄴㄱㅛ -10324
▁ㅅㅣㄹㄹㅏ -10325
▁ㅇㅣㄴㅌㅡ -10326
▁ㅅㅏㄴㅂㅜㄹ -10327
▁ㄱㅗㅇㅈㅣㄱㅈㅏ -10328
its -10329
▁do -10330
▁Will -10331
▁ㄴㅏㄱㅌㅏ -10332
ㄴㅏㅁㅉㅗㄱ -10333
▁ㄱㅜㄹㅇㅛㄱ -10334
▁ㅂㅏㅂㅅㅏㅇ -10335
▁ㅈㅏㅁㄷㅡㄹ -10336
▁ㅊㅏㄱㅇㅏㄴ -10337
BL -10338
▁ㄱㅜㄻㅈㅜ -10339
▁ㅅㅏㅇㅅㅣ -10340
▁ㅅㅣㄴㄴㅏ -10341
▁ㅇㅓㄱㄹㅠ -10342
▁ㅋㅐㄴㅂㅓ -10343
▁ㄱㅕㅇㅅㅐㄱ -10344
▁ㅇㅏㅂㅅㅗㅇ -10345
▁ㄱㅜㄱㅁㅣㄴㅈㅜ -10346
▁ㅊㅜㄹㅅㅐㅇㅈㅣ -10347
ㄷㅗㄷ -10348
▁ㅁㅏㄹㅅㅗ -10349
▁ㅇㅣㄺㅎㅣ -10350
▁ㅈㅓㅇㄱㅜ -10351
▁ㅊㅗㄹㄹㅏ -10352
ㄴㅏㅁㄱㅜㄴ -10353
ㅇㅘㅇㄱㅜㄱ -10354
▁ㅂㅏㄱㄱㅕㄱ -10355
▁ㅈㅏㅁㅂㅗㄱ -10356
▁ㅈㅓㅇㅊㅓㄹ -10357
▁PP -10358
ㅈㅐㄱ -10359
ement -10360
ㅈㅣㄴㄱㅣ -10361
ㅋㅓㄴㅌㅡ -10362
ㅎㅏㅇㅈㅔ -10363
▁ㄱㅕㅇㅇㅣ -10364
▁ㅅㅗㄱㅆㅣ -10365
▁ㅇㅕㄴㅈㅘ -10366
▁ㅇㅘㄹㄹㅏ -10367
▁ㅇㅛㅇㅈㅏ -10368
▁ㄱㅣㅁㅎㅏㄴ -10369
▁ㅅㅏㄹㄹㅣㅁ -10370
ㅈㅡㄹㄹㅐㄴㄷㅡ -10371
▁ㅈㅡㅇㅁㅕㅇㅅㅓ -10372
vis -10373
▁RE -10374
▁ㅂㅗㄴㄱㅣ -10375
ㅂㅗㅇㅅㅏㄴ -10376
ㅇㅝㄴㅂㅕㅇ -10377
▁ㄱㅗㄹㅁㅗㄱ -10378
▁ㅂㅏㅇㅎㅏㄴ -10379
▁ㅇㅕㄹㅁㅏㅇ -10380
▁ㅇㅝㄴㅅㅓㅇ -10381
▁ㅈㅣㄱㄱㅝㄴ -10382
ㅎㅏㄱㅅㅐㅇㅎㅚ -10383
▁ㅅㅓㅇㄷㅗㅇㄱㅜ -10384
▁ㅇㅔㄹㅅㅏㄹㅂㅏ -10385
▁ㄱㅣㅁㅈㅗㅇㅍㅣㄹ -10386
▁ㅋㅟㄴㅈㅡㄹㄹㅐㄴㄷㅡ -10387
▁NK -10388
▁es -10389
ㅎㅠㅇ -10390
▁ㄸㅜㅇ -10391
▁ㅅㅜㅅ -10392
▁Rain -10393
ㅅㅐㅇㅇㅏ -10394
ㅍㅗㄴㄴㅔ -10395
▁ㄱㅝㄴㅅㅔ -10396
▁ㅁㅜㄴㄱㅛ -10397
▁ㅅㅔㄴㅅㅡ -10398
▁ㅊㅗㅇㅊㅔ -10399
▁ㅋㅓㄴㄷㅣ -10400
▁ㄱㅕㄹㅌㅏㄱ -10401
▁ㅇㅓㄴㅇㅑㄱ -10402
▁ㅇㅕㄱㅎㅐㅇ -10403
▁ㅇㅛㄱㅅㅓㄹ -10404
▁ㅇㅣㅂㅈㅓㄱ -10405
▁ㅍㅣㄱㅅㅕㄴ -10406
▁ㅅㅏㅇㅅㅗㄱㅇㅣㄴ -10407
HS -10408
▁WH -10409
▁Des -10410
▁1776 -10411
ㄴㅏㄴㅎㅐ -10412
ㅂㅡㄹㄹㅔ -10413
▁ㄱㅏㄴㅅㅗ -10414
▁ㅇㅣㅍㅈㅏ -10415
▁ㅍㅡㄹㄹㅚ -10416
▁ㅅㅏㄴㅌㅏㄴ -10417
▁ㅇㅕㄴㅊㅓㄴ -10418
▁ㅈㅗㄴㅇㅓㅁ -10419
▁ㅈㅜㅇㅊㅓㅂ -10420
▁ㅎㅘㅇㄱㅏㄹㅅㅐㄱ -10421
▁ㅍㅚ -10422
▁510 -10423
▁LIVE -10424
ㅅㅓㅁㅇㅠ -10425
▁ㅅㅐㅇㅅㅏ -10426
ㅇㅝㄴㄷㅗㅇ -10427
▁ㅂㅜㄴㅈㅏㅇ -10428
▁ㅇㅞㄹㄹㅣㅇ -10429
▁ㅇㅣㄹㄱㅏㄴㅈㅣ -10430
ㅇㅕㄴㄷㅐ -10431
ㅇㅜㄴㅌㅏ -10432
▁ㅇㅝㄴㄱㅏ -10433
▁ㅋㅗㄴㅌㅡ -10434
ㅁㅏㄱㅇㅕㅁ -10435
▁ㄱㅕㅇㅁㅕㄹ -10436
▁ㅈㅓㅇㅇㅑㄱ -10437
br -10438
▁BMW -10439
▁ㅂㅏㄹㅈㅜ -10440
▁ㅈㅜㄴㅇㅟ -10441
▁ㅈㅣㅇㅎㅜ -10442
▁ㅋㅏㄹㄹㅗ -10443
ㅅㅣㄱㅅㅓㅇ -10444
▁ㄱㅏㅁㅌㅏㄴ -10445
▁ㅂㅜㄹㅍㅕㅇ -10446
▁ㅅㅡㅂㅅㅓㅇ -10447
▁ㅇㅣㄹㄹㅏㅁ -10448
▁ㄷㅗㄱㄹㅣㅂㄱㅜㄱ -10449
▁ㅁㅣㄴㅅㅗㄱㅁㅜㄴㅎㅘ -10450
oup -10451
▁OC -10452
ㅎㅓㄹ -10453
▁233 -10454
▁del -10455
ㄹㅔㄱㅌㅡ -10456
ㅈㅣㄴㅎㅗ -10457
▁ㄱㅜㄱㅊㅐ -10458
▁ㅅㅑㄹㄹㅓ -10459
▁ㅈㅏㅇㅂㅗ -10460
ㄱㅕㅇㄱㅜㅇ -10461
ㅊㅓㄴㄴㅕㄴ -10462
▁ㄷㅏㅁㄹㅗㄴ -10463
▁ㅋㅗㄴㅇㅝㄹ -10464
▁ㄷㅗㅇㅁㅕㅇㅇㅣ -10465
▁ㅎㅕㄴㄱㅡㅂㅅㅣ -10466
ouse -10467
▁Pop -10468
ㄷㅡㄴㅈㅣ -10469
▁ㄱㅡㅁㅎㅘ -10470
▁ㅅㅏㄹㅂㅏ -10471
▁ㅅㅏㅇㅍㅣ -10472
▁ㄷㅗㅇㅂㅗㄱ -10473
▁ㅂㅏㄴㅇㅣㄹ -10474
▁ㅂㅕㄴㅈㅏㅇ -10475
▁ㅅㅣㄹㅅㅡㅂ -10476
▁ㅅㅣㅁㅅㅣㄴ -10477
▁ㅇㅜㅇㅈㅏㅇ -10478
▁ㅎㅗㅇㅂㅐㄱ -10479
▁ㅆㅏㅇㅂㅏㅇㅇㅜㄹ -10480
▁1792 -10481
ㅇㅓㄹㅂㅣㄴ -10482
ㅇㅣㄴㅈㅓㄹ -10483
ㅈㅜㄴㅇㅛㅇ -10484
▁ㅈㅓㅇㄴㅕㄴ -10485
▁ㅈㅜㅇㅅㅐㅇㄷㅐ -10486
WS -10487
▁DFB -10488
▁LOVE -10489
▁ㅇㅡㅁㅅㅗ -10490
▁ㅇㅏㄴㅊㅓㄹㅅㅜ -10491
▁ㅇㅡㄴㅎㅐㅇㄴㅏ -10492
▁ㅅㅐㅁㅍㅡㄹㄹㅣㅇ -10493
▁ㅅㅣㄹㄷㅡ -10494
▁ㅇㅗㄹㅃㅐ -10495
ㅂㅏㅇㅅㅣㄱ -10496
▁ㄱㅕㄴㅎㅝㄴ -10497
▁ㄴㅏㄴㄱㅏㄴ -10498
▁ㅂㅏㄹㅅㅗㅇ -10499
▁ㅅㅐㄱㅇㅣㄴ -10500
▁ㅇㅑㅇㄹㅕㄱ -10501
be -10502
▁CT -10503
▁mg -10504
▁TOP -10505
▁1791 -10506
▁1852 -10507
▁ㅁㅏㄴㄷㅜ -10508
▁ㅅㅣㄴㅈㅐ -10509
▁ㅅㅣㄴㅁㅕㅇ -10510
▁ㅅㅣㄴㅅㅜㄱ -10511
▁ㅌㅏㄴㅎㅘㄴ -10512
▁ㄷㅗㅇㅂㅜㄱㅇㅏ -10513
ㅎㅐㄱㅅㅐㅇㅁㅜㄹ -10514
aj -10515
▁EF -10516
▁NX -10517
ㅍㅗㄹㅌㅡ -10518
▁ㅎㅏㅇㅁㅗ -10519
ㅁㅣㅇㅇㅓㅁ -10520
ㅂㅜㄱㄷㅏㄴ -10521
ㅅㅏㅇㅎㅜㄴ -10522
ㅈㅓㅇㅅㅜㄱ -10523
ㅈㅡㅇㄱㅝㄴ -10524
▁ㅁㅕㅇㅈㅓㄹ -10525
▁FX -10526
▁RD -10527
ㄷㅓㅇ -10528
ㅇㄱㅣ -10529
▁Net -10530
▁Show -10531
▁ㄱㅜㄹㄹㅣ -10532
▁ㄱㅡㅂㄱㅣ -10533
▁ㅂㅓㄴㅅㅡ -10534
▁ㅋㅏㄴㅌㅏ -10535
ㅊㅏㄹㅇㅡㅁ -10536
ㅍㅏㄹㄹㅔㄴ -10537
▁ㄱㅏㄱㅂㅕㄹ -10538
▁ㄱㅜㄱㅁㅜㄹ -10539
▁ㅈㅓㄹㅁㅕㄹ -10540
▁ㅊㅣㄴㅈㅓㄹ -10541
▁ㅎㅏㄴㅂㅏㅇ -10542
▁ㅁㅗㄱㄱㅓㄹㅇㅣ -10543
▁ㅇㅡㄴㅅㅏ -10544
▁ㅈㅓㅇㅍㅏ -10545
▁ㅈㅗㄱㅈㅔ -10546
▁ㅋㅗㄴㄷㅗ -10547
▁ㅎㅗㄹㄷㅡ -10548
ㄷㅗㅇㅁㅐㄱ -10549
▁ㅅㅔㄹㄹㅜㄹ -10550
▁ㄱㅗㄴㅅㅏㄹㄹㅔ -10551
▁ㅎㅐㅇㅈㅓㅇㄱㅘㄴ -10552
▁Red -10553
▁fun -10554
▁ㅈㅡㅂ -10555
ㅇㅡㅁㄷㅐ -10556
▁ㄱㅏㅈㄱㅏ -10557
▁ㅍㅜㅁㄱㅖ -10558
▁ㅎㅏㄴㅁㅏ -10559
ech -10560
▁ㄲㅘ -10561
▁Eng -10562
▁ㄴㅐㄴ -10563
▁ㅃㅐㄱ -10564
▁ㅇㅏㄴㅎㅜ -10565
▁ㅈㅏㅇㅌㅓ -10566
▁ㅇㅡㅁㄹㅏㄴ -10567
oss -10568
▁ㅋㅔㅁ -10569
▁ㄱㅓㄹㅈㅡ -10570
▁ㅂㅏㅇㄱㅘ -10571
▁ㅅㅓㅇㅊㅜ -10572
▁ㅇㅏㄴㄱㅜ -10573
▁ㅋㅗㄱㅅㅡ -10574
▁ㅌㅏㄴㅎㅘ -10575
▁ㅎㅏㅂㅊㅔ -10576
ㅅㅜㄴㄱㅜㄴ -10577
ㅈㅓㅇㄱㅝㄴ -10578
ㅍㅏㄴㅈㅏㅇ -10579
ㅎㅘㄹㅅㅓㅇ -10580
▁ㄱㅡㄴㅇㅕㄴ -10581
▁ㅅㅣㄹㅎㅘㅇ -10582
▁JS -10583
▁231 -10584
▁ㅇㅕㅌ -10585
▁1847 -10586
▁1853 -10587
▁ㅅㅏㄴㄷㅡ -10588
▁ㅅㅓㄴㄷㅓ -10589
▁ㅅㅣㄱㄹㅛ -10590
▁ㅅㅣㄹㅂㅏ -10591
▁ㅇㅕㅇㅇㅏ -10592
▁ㅈㅣㄱㅈㅔ -10593
▁ㅂㅏㄱㅈㅜㅇ -10594
▁ㅂㅜㄱㄷㅏㄴ -10595
▁ㅇㅕㅇㅇㅕㄴ -10596
▁ㅎㅕㄴㅁㅕㅇ -10597
ㅇㅏㄶ -10598
▁Over -10599
ㄹㅐㄴㅅㅓ -10600
▁ㅂㅜㄱㅈㅔ -10601
▁ㅌㅏㄹㄹㅏ -10602
ㄴㅔㄴㅌㅓㄹ -10603
▁ㅂㅏㄴㅇㅕㄹ -10604
▁ㅇㅏㄱㅇㅕㄱ -10605
▁ㅇㅑㄱㄱㅜㄱ -10606
▁ㅂㅏㄴㄱㅗㅇㅈㅜ -10607
▁ㅎㅐㄱㅇㅕㄴㄹㅛ -10608
▁ㅁㅕㅇㄹㅠㄴㄷㅏㅇ -10609
▁UK -10610
▁221 -10611
▁Bar -10612
▁Light -10613
▁ㅂㅜㄴㄱㅐ -10614
▁ㅅㅓㅇㅊㅐ -10615
▁ㅅㅣㄹㅎㅘ -10616
▁ㅇㅑㅇㅂㅜ -10617
ㄱㅗㄱㅅㅓㄴ -10618
ㅂㅐㄱㅅㅏㄴ -10619
ㅅㅠㄹㄹㅣㄴ -10620
▁ㄱㅘㅇㄱㅕㅇ -10621
▁ㄱㅡㅁㄱㅘㅇ -10622
▁ㅇㅕㄴㅈㅏㄱ -10623
▁ㅈㅐㅇㅈㅓㅁ -10624
red -10625
▁MX -10626
▁TA -10627
▁ro -10628
ㄷㅏㅁㅎㅚ -10629
▁ㄱㅏㄹㄹㅜ -10630
▁ㅅㅓㄴㅅㅡㅇ -10631
▁ㅅㅜㄱㅅㅓㅇ -10632
▁ㅇㅓㄴㅈㅔㄴ -10633
▁ㅇㅔㅁㅂㅡㄹ -10634
▁ㅎㅕㄴㅅㅐㅇ -10635
▁ㄷㅡㅇㄹㅗㄱㄱㅡㅁ -10636
echn -10637
▁212 -10638
▁228 -10639
ㅈㅓㄴㅎㅏ -10640
▁ㄱㅏㄴㅍㅏ -10641
▁ㄱㅘㄴㅅㅓ -10642
▁ㄴㅏㅁㅅㅜ -10643
▁ㅇㅏㄴㅅㅔ -10644
ㄴㅏㅁㄷㅏㄴ -10645
ㅇㅛㅇㅅㅓㅇ -10646
ㅈㅓㄴㄱㅜㄴ -10647
▁ㅈㅓㄴㄱㅏㄹ -10648
▁ㅇㅓㄴㅈㅔㄴㄱㅏ -10649
▁ac -10650
ㅈㅓㄱㅎㅘ -10651
ㅌㅗㄴㅅㅡ -10652
▁ㄱㅘㄴㅅㅏ -10653
▁ㅇㅝㄴㅎㅘ -10654
▁ㅁㅕㅇㅍㅜㅁ -10655
▁ㅂㅗㅇㅅㅏㄴ -10656
▁ㄱㅘㄴㅇㅏㄱㄱㅜ -10657
▁ㅁㅗㄱㅍㅏㄴㅂㅗㄴ -10658
▁ㅌㅗㅇㅎㅏㅂㅈㅣㄴㅂㅗ -10659
99 -10660
ason -10661
▁Har -10662
ㄱㅏㅁㅈㅏ -10663
ㅇㅗㅇㅈㅜ -10664
▁ㅇㅕㄴㅅㅏ -10665
▁ㅈㅏㅇㅌㅏ -10666
▁ㅁㅏㄴㄱㅕㅇ -10667
▁ㅅㅡㄹㄹㅗㅅ -10668
▁ㅅㅣㄱㄴㅕㄴ -10669
▁ㅊㅏㅇㅇㅏㄴ -10670
07 -10671
ㅈㅡㅂ -10672
▁ㄲㅡㄶㅇㅓ -10673
▁ㅂㅏㅇㅅㅜ -10674
▁ㅅㅏㅁㅂㅜ -10675
▁ㅎㅕㄴㄴㅐ -10676
▁ㄱㅡㅂㅅㅡㅂ -10677
▁ㄴㅡㅇㅌㅗㅇ -10678
▁ㅈㅏㅇㅇㅕㅇ -10679
ㄱㅜㅂ -10680
▁ㄲㅗㅁ -10681
▁ㄸㅜㄱ -10682
▁1100 -10683
▁1844 -10684
ㅌㅐㄱㅈㅣ -10685
▁ㅁㅣㄹㄹㅗ -10686
▁ㅂㅜㄱㄹㅗ -10687
▁ㅅㅐㅇㅈㅔ -10688
▁ㅅㅓㅇㅎㅏ -10689
▁ㅇㅣㄱㅈㅜ -10690
▁ㅌㅔㅁㅍㅗ -10691
▁ㅂㅜㄱㅁㅕㄴ -10692
▁ㅇㅕㄴㅇㅣㄹ -10693
▁ㅊㅗㄴㄹㅏㄱ -10694
▁ㅁㅗㄱㄱㅕㄱㅈㅏ -10695
▁ㅊㅗㅇㅎㅏㄱㅅㅐㅇㅎㅚ -10696
08 -10697
IE -10698
iet -10699
▁LTE -10700
▁ㄱㅜㄷㅇㅓ -10701
▁ㅅㅏㅁㄱㅏ -10702
ㄲㅓㅂㅈㅣㄹ -10703
ㅅㅣㄹㄹㅗㄴ -10704
ㅈㅏㅇㅅㅣㄱ -10705
ㅍㅔㄴㅅㅕㄴ -10706
▁ㄱㅏㅂㅅㅏㅇ -10707
▁ㄲㅏㅁㅉㅏㄱ -10708
▁ㅎㅕㄹㅊㅓㅇ -10709
ㄷㅓㄹㄹㅐㄴㄷㅡ -10710
▁ㅈㅡㅇㅅㅗㄴㅈㅏ -10711
▁ㅍㅕㅇㅊㅏㅇㄱㅜㄴ -10712
ㅌㅔㄴㅅㅠ -10713
▁ㅅㅓㅇㅎㅗ -10714
▁ㅇㅝㄴㄱㅣ -10715
▁ㅈㅏㅁㄱㅡ -10716
▁ㄴㅏㅇㄷㅗㄱ -10717
▁ㅆㅜㄴㅇㅝㄴ -10718
▁ㅊㅗㅇㅇㅏㄹ -10719
▁ㅇㅗㅇㅈㅣㄴㄱㅜㄴ -10720
way -10721
▁CV -10722
ㄲㅜㅁ -10723
▁ㄱㅠㄴㄹㅠ -10724
▁ㄱㅣㅁㅎㅗ -10725
▁ㅂㅣㄹㅁㅣ -10726
▁ㅇㅐㄱㅅㅜ -10727
▁ㅋㅏㄹㅊㅗ -10728
ㅁㅗㄱㅁㅣㄴ -10729
▁ㅇㅠㄴㅅㅓㄱ -10730
▁ㅈㅓㅇㅊㅏㄹㄱㅣ -10731
▁el -10732
ㅂㅜㅅ -10733
▁Sec -10734
▁ㄸㅗㅇ -10735
▁ㄱㅏㅇㅇㅏ -10736
▁ㅂㅏㄴㄷㅣ -10737
ㄷㅏㅇㄷㅗㅇ -10738
▁ㅅㅣㄴㅇㅕㅇ -10739
▁ㅇㅏㄹㄹㅗㄴ -10740
▁ㄱㅏㅂㄱㅏㄱㄹㅠ -10741
▁ㅇㅕㄴㅊㅓㄴㄱㅜㄴ -10742
ator -10743
ㅂㅏㄹㄱㅗ -10744
▁Sound -10745
▁ㅂㅜㄱㅂㅔ -10746
▁ㅌㅡㅁㅅㅐ -10747
ㅈㅗㄹㅈㅜㅇ -10748
▁ㅁㅣㄹㅌㅓㄴ -10749
▁ㅂㅏㄱㅇㅣㄴ -10750
▁ㅅㅏㅇㄱㅝㄴ -10751
▁ㅋㅡㄹㄹㅗㄴ -10752
▁ㅍㅏㄹㄱㅏㄱ -10753
▁ㅎㅏㅂㅂㅏㅇ -10754
▁ㅈㅜㅇㅎㅏㄱㅅㅐㅇ -10755
04 -10756
▁757 -10757
▁ㅅㅏㅇㄷㅗ -10758
▁ㅎㅏㄴㄷㅗ -10759
▁ㅎㅏㅇㅈㅓ -10760
▁ㄱㅜㄱㅁㅕㄴ -10761
▁ㅁㅣㅁ -10762
▁ㅇㅏㄹㅋㅏ -10763
▁ㅇㅏㅇㅋㅏ -10764
ㄹㅡㅁㅊㅓㄹ -10765
ㄹㅣㅇㅌㅓㄴ -10766
ㅁㅏㅇㅇㅣㄴ -10767
▁ㄱㅏㄴㅍㅕㄴ -10768
▁ㅇㅓㅁㅈㅓㅇ -10769
▁ㅇㅣㅂㅇㅏㄴ -10770
▁ㅊㅓㄴㅁㅕㅇ -10771
▁ㅍㅣㄱㅇㅓㅂ -10772
▁ㅁㅣㄹㅇㅑㅇㅅㅣ -10773
▁ㅈㅓㄴㄴㅕㄴㄷㅗ -10774
▁ㅃㅐㅅ -10775
ㄷㅡㄴㄱㅏ -10776
▁Hello -10777
▁ㅍㅕㅇㅅㅏ -10778
▁ㅎㅣㄹㄹㅓ -10779
ㅅㅡㅇㄹㅏㅁ -10780
ㅇㅘㄴㅅㅓㅇ -10781
ㅈㅗㄱㅇㅝㄴ -10782
ㅎㅘㄹㅈㅓㄹ -10783
▁ㅅㅏㄹㅅㅏㅇ -10784
▁ㅇㅡㄴㄷㅜㄴ -10785
▁ㅈㅓㅂㅊㅏㄱ -10786
▁ㅎㅏㄱㅈㅓㅁ -10787
▁ㄱㅝㄴㄹㅕㄱㅈㅏ -10788
▁ㅂㅏㄹㅁㅕㅇㄱㅏ -10789
▁ㅂㅕㄴㅅㅗㄱㄱㅣ -10790
ㅌㅡㅁ -10791
vent -10792
▁Road -10793
▁ㄱㅔㄴㅈㅣ -10794
▁ㅈㅓㄴㅊㅓ -10795
▁ㄱㅏㅇㅁㅜㄹ -10796
▁ㅅㅜㄴㅊㅏㅇ -10797
▁ㅎㅏㄴㅇㅗㄱ -10798
ㅈㅜㅇㄱㅜㄱㅎㅐ -10799
▁Af -10800
▁HE -10801
ㄱㅡㅇ -10802
▁Sum -10803
▁wid -10804
▁1837 -10805
ㅈㅓㅇㅈㅜ -10806
▁ㅈㅓㄹㅌㅓ -10807
▁ㅍㅏㄹㄹㅗ -10808
▁ㅎㅗㅇㄷㅐ -10809
▁ㄱㅓㄴㅇㅏㄴ -10810
▁ㅅㅓㄹㅂㅓㅂ -10811
▁ㅊㅐㄱㅍㅏㄴ -10812
▁ㅌㅏㄴㅇㅝㄴ -10813
▁ㅇㅐㅇㄱㅡㄹㄹㅗ -10814
▁ㄱㅏㄴㅎㅐㅇㅁㅜㄹ -10815
yl -10816
ric -10817
ㅋㅐㅅ -10818
ital -10819
▁Like -10820
ㅇㅔㄴㅌㅡ -10821
▁ㄹㅗㄹㅅㅡ -10822
▁ㅁㅜㄴㅂㅜ -10823
▁ㅇㅣㄱㅅㅏ -10824
ㅅㅜㄹㅇㅝㄴ -10825
▁ㅁㅏㅇㅅㅏㅇ -10826
▁ㅅㅏㅇㅅㅓㄱ -10827
▁ㅊㅓㄱㅌㅏㄴ -10828
▁ㅇㅜㄹㄹㅡㅇㄷㅗ -10829
▁ㅇㅡㅁㅇㅏㄱㅎㅚ -10830
▁ㅍㅡㄹㄹㅐㄴㅌㅡ -10831
ㅁㅣㄴㅈㅓㅇㅇㅡㅁ -10832
ana -10833
▁OF -10834
ㅆㅓㄴ -10835
ㄹㅏㅇㅈㅜ -10836
ㅇㅣㄴㅎㅚ -10837
▁ㅅㅐㄱㅈㅗ -10838
▁ㅅㅣㄴㅇㅖ -10839
▁ㅇㅣㅁㅇㅓㅂ -10840
HT -10841
ner -10842
ven -10843
▁007 -10844
▁217 -10845
▁RPG -10846
▁SQL -10847
ㅌㅗㅇㅈㅔ -10848
▁ㅇㅛㄱㄱㅖ -10849
▁ㅊㅜㄹㅅㅗ -10850
ㅇㅑㅇㅅㅓㅇ -10851
ㅈㅓㅇㅅㅣㄴ -10852
▁ㅁㅏㅇㅁㅏㄱ -10853
▁ㅂㅏㅇㅈㅓㄴ -10854
▁ㅎㅏㄴㅊㅏㅁ -10855
▁ㅎㅡㅂㅎㅕㄹ -10856
▁ㅂㅏㄱㄱㅕㄱㅍㅗ -10857
IDS -10858
▁EV -10859
ㅅㅖㄴ -10860
▁ㅌㅣㅂ -10861
ㅅㅈㅣㅂ -10862
▁1794 -10863
ㅇㅑㅇㄷㅐ -10864
ㅈㅔㄴㅎㅏ -10865
▁ㅂㅏㄱㅈㅔ -10866
▁ㅂㅓㅇㅋㅓ -10867
▁ㅆㅓㄴㄷㅓ -10868
▁ㅈㅜㅇㅈㅜ -10869
ㄹㅣㄴㅅㅓㅇ -10870
▁ㅂㅏㄴㅁㅣㄴ -10871
▁ㅇㅝㄴㅍㅏㄴ -10872
▁ㅇㅠㄴㅂㅗㅇ -10873
▁Pa -10874
ㄴㄷㅐ -10875
ㅉㅏㅇ -10876
ㅂㅐㄱㅈㅔ -10877
▁ㄷㅔㄴㅂㅓ -10878
▁ㅅㅓㄴㅎㅏ -10879
▁ㅅㅜㄱㅇㅢ -10880
▁ㅈㅣㄴㄱㅘ -10881
▁ㄱㅘㅇㅈㅗㅇ -10882
▁ㅅㅐㅇㅇㅝㄴ -10883
▁ㅇㅐㄱㅈㅓㅇ -10884
▁ㅊㅣㄴㅎㅕㅇ -10885
▁ㅎㅜㄴㅁㅣㄴㅈㅓㅇㅇㅡㅁ -10886
ㄹㅔㅇ -10887
orce -10888
port -10889
▁Sci -10890
ution -10891
▁Mnet -10892
▁ㅅㅡㅂㅎㅏ -10893
▁ㅇㅕㅇㅅㅔ -10894
▁ㅊㅏㄱㅇㅗ -10895
ㄱㅕㄴㅇㅣㄴ -10896
▁ㄱㅣㅁㅇㅡㅇ -10897
▁ㄷㅏㄴㅍㅏㄴ -10898
▁ㅈㅓㅇㄹㅑㅇ -10899
▁ㅈㅣㅂㅎㅕㄴ -10900
▁ㅈㅣㅂㅎㅏㅂㄹㅗㄴ -10901
ism -10902
ㅇㅋㅡ -10903
▁315 -10904
▁ㅈㅔㅁ -10905
ㅈㅔㄴㄷㅓ -10906
▁ㄱㅗㅇㅎㅚ -10907
▁ㅇㅑㅇㅈㅐ -10908
▁ㅍㅕㄴㅁㅗ -10909
▁ㅎㅏㄴㄹㅠ -10910
▁ㅎㅓㄴㅈㅔ -10911
ㅇㅣㅁㅅㅣㄱ -10912
▁ㄱㅏㅂㅍㅏㄴ -10913
▁ㄱㅜㄴㅎㅕㄴ -10914
▁ㅅㅗㅇㄱㅡㅁ -10915
▁ㅅㅗㅇㅈㅓㅇ -10916
▁ㅅㅣㄴㅎㅕㄴ -10917
▁ㅇㅏㅁㅂㅕㄱ -10918
▁ㅈㅓㄱㅅㅓㅇ -10919
▁ㄷㅗㅇㅇㅣㄴㄷㅗ -10920
▁ㅈㅓㅁㅅㅓㅇㄱㅏ -10921
▁ㅌㅡㄱㄱㅗㅇㄷㅐ -10922
▁ㄱㅜㄴㄷㅏㄴㅈㅏㅇ -10923
▁ㅇㅣㄴㅅㅠㄹㄹㅣㄴ -10924
▁720 -10925
ㄹㅕㅇㅅㅣ -10926
ㄹㅣㄹㄹㅣ -10927
▁ㅂㅏㄴㄱㅜ -10928
▁ㅊㅓㄱㅅㅜ -10929
▁ㅋㅓㄴㅅㅗ -10930
ㅅㅓㅂㄷㅏㄴㅊㅔ -10931
bum -10932
▁226 -10933
▁min -10934
▁ㅋㅟㄹ -10935
▁CCTV -10936
▁ㄷㅏㄴㅎㅗ -10937
▁ㄹㅏㅁㅂㅗ -10938
▁ㅁㅔㅁㅍㅣ -10939
▁ㅁㅣㄹㅇㅝ -10940
▁ㅇㅏㄹㅌㅏ -10941
▁ㅇㅓㅂㅅㅗ -10942
▁ㅋㅜㄹㄹㅣ -10943
ㄹㅜㅇㅈㅏㅇ -10944
▁ㅇㅝㄹㄱㅡㅂ -10945
▁ㅇㅣㄹㅈㅣㄱ -10946
▁ㅊㅣㄴㅅㅜㄱ -10947
▁ㅎㅗㄱㄷㅗㄱ -10948
▁ㅇㅝㄴㅌㅗㅇㅎㅕㅇ -10949
▁ㄱㅕㅇㅎㅑㅇㅅㅣㄴㅁㅜㄴ -10950
uk -10951
ㄱㅝ -10952
▁IB -10953
▁1836 -10954
ㄱㅏㅇㄷㅐ -10955
ㄹㅐㄱㅌㅣ -10956
▁ㄴㅏㄴㅅㅏ -10957
▁ㅁㅜㄴㅁㅛ -10958
▁ㅂㅐㅁㅍㅏ -10959
▁ㅇㅕㅇㅎㅏ -10960
▁ㅈㅜㅇㅅㅏ -10961
▁ㅎㅑㅇㄹㅣ -10962
ㅈㅣㄴㅇㅕㅇ -10963
▁ㄱㅘㄴㄱㅗㅇ -10964
▁ㄷㅗㅇㅈㅗㄱ -10965
▁ㅊㅓㅇㄹㅕㅁ -10966
▁ㅎㅏㅁㅍㅕㅇ -10967
▁ㅇㅟㄴㄴㅏㄴㅅㅓㅇ -10968
▁520 -10969
▁ㅈㅡㄴ -10970
ㅍㅔㄴㅅㅡ -10971
▁ㅅㅡㄹㄹㅔ -10972
ㅅㅐㄱㅅㅡㄴ -10973
ㅈㅔㄹㄹㅏㄴ -10974
▁ㅇㅡㅁㅅㅐㄱ -10975
▁ㅈㅓㅇㅅㅜㄴ -10976
▁ㅎㅏㅂㅈㅓㄴ -10977
ㄱㅜㄱㅁㅣㄴㄷㅏㅇ -10978
ㅈㅗㅇㅅㅣㄹㄹㅗㄱ -10979
▁ㄷㅗㅇㅅㅣㄱㅁㅜㄹ -10980
▁ㅁㅕㅇㅌㅏㅁㅈㅓㅇ -10981
▁KR -10982
▁ㅃㅡ -10983
▁ㅅㅔㄱ -10984
ㄷㅣㅈㅊㅣ -10985
ㅊㅓㄱㅊㅜ -10986
▁ㅅㅓㄴㅁㅜ -10987
▁ㅅㅓㅂㅆㅣ -10988
ㅂㅕㅇㅇㅝㄴ -10989
ㅎㅐㅇㄷㅏㄴ -10990
▁ㅁㅏㄴㅅㅓㄱ -10991
▁ㅅㅓㅇㅊㅜㅇ -10992
▁ㅅㅣㄴㄱㅏㄴ -10993
▁ㅈㅣㅇㅂㅕㅇㅈㅔ -10994
▁ㅋㅗㄴㅅㅔㅂㅌㅡ -10995
▁XX -10996
▁610 -10997
ㄹㅏㄴㅅㅡ -10998
ㅂㅗㄹㄹㅜ -10999
ㅇㅕㅇㅎㅘ -11000
ㅍㅣㄹㄱㅏ -11001
▁ㄹㅓㄱㅋㅣ -11002
▁ㅅㅓㅇㄴㅕ -11003
▁ㅆㅏㅇㄱㅖ -11004
▁ㅇㅡㅂㄴㅐ -11005
▁ㄱㅡㅁㅅㅏㅇ -11006
▁ㄱㅣㄹㅁㅗㄱ -11007
▁ㅁㅏㄴㅊㅏㄴ -11008
▁ㅅㅏㄴㄱㅏㄴ -11009
▁ㅅㅡㅇㅌㅏㅂ -11010
▁ㅈㅓㅂㄱㅕㅇ -11011
▁ㄲㅗㅇ -11012
▁ㄸㅡㄹ -11013
▁ㅇㅜㅂ -11014
▁Stud -11015
ㄱㅜㄱㅅㅜ -11016
▁ㅅㅡㄹㅍㅓ -11017
ㅌㅏㄴㅌㅣㄴ -11018
▁ㄴㅏㄱㄴㅗㅇ -11019
▁ㅂㅜㄹㅎㅘㅇ -11020
▁ㅇㅏㅁㅅㅜㄹ -11021
ㅑㅁ -11022
▁OP -11023
▁ㅇㅡㄿ -11024
ㄷㅗㅇㅅㅗ -11025
ㄹㅏㄴㄷㅗ -11026
ㅁㅏㅇㅅㅡ -11027
▁ㅊㅓㄹㅈㅔ -11028
▁ㅊㅗㅇㅈㅣ -11029
▁ㅍㅕㄴㅅㅜ -11030
ㅅㅐㅇㅁㅕㅇ -11031
▁ㅅㅓㅁㅁㅕㄹ -11032
▁ㄴㅗㅇㄱㅕㅇㅈㅣ -11033
IST -11034
▁RO -11035
▁222 -11036
▁ㄷㅗㄱㄹㅕ -11037
▁ㅃㅗㅂㅇㅏ -11038
▁ㅇㅠㄴㅎㅚ -11039
ㅌㅣㅇㄱㅔㄴ -11040
▁ㄱㅣㅁㅁㅏㄴ -11041
▁ㅅㅓㄴㄷㅓㄱ -11042
▁ㅊㅏㅁㅂㅗㅇ -11043
▁ㅇㅣㅇㄱㅡㄹㄹㅣ -11044
▁ㅈㅓㅇㅊㅏㄱㅁㅣㄴ -11045
ony -11046
▁Play -11047
▁ㅇㅏㅇㅈㅜ -11048
▁ㅇㅗㄱㄱㅐ -11049
▁ㅇㅛㅇㅁㅐ -11050
ㅁㅜㄴㅈㅓㅁ -11051
▁ㅁㅗㄹㅇㅣㅂ -11052
▁ㅂㅐㄱㄱㅜㄱ -11053
▁ㅈㅓㄴㄱㅘㅇ -11054
YS -11055
oney -11056
▁width -11057
▁ㅁㅏㄹㄹㅓ -11058
▁ㄱㅜㅇㄱㅡㅁ -11059
▁ㄱㅕㅇㅈㅏㄱㅈㅣ -11060
05 -11061
09 -11062
▁232 -11063
▁ROM -11064
ㅅㅓㄴㅈㅗ -11065
▁align -11066
▁ㄴㅐㄴㅅㅣ -11067
▁ㄸㅏㄹㄱㅣ -11068
▁ㅂㅏㄱㅅㅔ -11069
▁ㅇㅔㅁㅍㅏ -11070
▁ㅈㅗㄴㅎㅗ -11071
▁ㄱㅏㅁㅁㅕㅇ -11072
▁ㅁㅔㄴㄷㅔㄹ -11073
▁ㅅㅗㅇㅂㅕㅇ -11074
▁ㅈㅓㅁㅅㅣㅁ -11075
▁ㅊㅓㅇㅈㅣㄴ -11076
ㄱㅝㄹㅅㅓㄴㄱㅓ -11077
▁ㅇㅏㄴㅅㅓㅇㅅㅣ -11078
▁ㅎㅕㄴㅇㅏㄱㄱㅣ -11079
▁ㅇㅕㄴㅈㅏㅇㅅㅓㄴ -11080
▁no -11081
▁2030 -11082
ㅈㅏㄱㅂㅣ -11083
▁ㅅㅜㄱㄱㅗ -11084
▁ㅇㅕㄴㅁㅏ -11085
▁ㅈㅓㅇㅎㅢ -11086
▁ㅈㅗㅇㄱㅘ -11087
▁ㄴㅏㄱㅎㅑㅇ -11088
▁ㅂㅕㅇㅇㅕㅇ -11089
▁ㅅㅓㅇㄴㅕㄴ -11090
▁ㅇㅝㄴㅁㅏㅇ -11091
▁ㅎㅘㄴㄱㅕㅇㅂㅜ -11092
▁ㅇㅞㄹㄹㅣㅇㅌㅓㄴ -11093
▁1806 -11094
ㅌㅔㅁㅈㅡ -11095
▁ㅍㅕㄴㅊㅏ -11096
ㅇㅕㅇㅂㅗㄱ -11097
▁ㄱㅏㅇㅇㅏㅂ -11098
▁ㄴㅏㅁㅈㅣㅅ -11099
▁ㅁㅏㄴㄴㅡㅇ -11100
▁ㅅㅑㄹㄹㅓㅅ -11101
▁ㅇㅛㄱㅅㅣㅁ -11102
▁ㄱㅘㄴㄷㅗㅇㄱㅜㄴ -11103
ㄸㅔ -11104
▁ㅋㅏㄱ -11105
ㄱㅜㄱㄱㅏ -11106
▁ㄴㅏㄴㅈㅏ -11107
▁ㄷㅏㄺㄱㅗ -11108
▁ㅇㅣㅁㅅㅏ -11109
▁ㅋㅗㅇㅋㅜ -11110
▁ㄱㅘㄴㅂㅏㅇ -11111
▁ㄴㅏㄱㅇㅣㄴ -11112
▁ㅂㅏㅇㄹㅏㅇ -11113
▁ㅌㅏㄹㅅㅓㄴ -11114
▁ㅇㅣㅁㅍㅐㄱㅌㅡ -11115
▁390 -11116
▁Boy -11117
▁LCK -11118
▁not -11119
▁ㅈㅔㅅ -11120
▁1842 -11121
▁that -11122
ㄱㅏㄱㅎㅘ -11123
ㄷㅏㄹㄹㅏ -11124
▁ㅁㅜㄴㅈㅣ -11125
▁ㅁㅣㄴㅈㅏ -11126
▁ㅇㅏㄴㅌㅡ -11127
▁ㅇㅏㄹㅌㅗ -11128
▁ㅇㅣㄹㄹㅠ -11129
▁ㅍㅕㄴㄷㅗ -11130
ㅁㅣㄹㅇㅝㄴ -11131
▁ㄷㅗㄴㄴㅕㅇ -11132
▁ㅅㅣㅁㅊㅡㅇ -11133
▁ㅋㅐㅂㅅㅠㄹ -11134
▁ㄱㅏㄱㅇㅜㄴㄷㅗㅇ -11135
▁ㅇㅣㄹㅂㅗㄴㄱㅜㄱㅇㅠ -11136
ush -11137
ㅅㅑㄹ -11138
▁Colle -11139
▁ㄱㅏㅁㅎㅣ -11140
▁ㄱㅜㄱㄱㅗ -11141
▁ㄷㅏㄹㅅㅓ -11142
▁ㅇㅣㄴㅎㅚ -11143
▁ㅋㅔㄹㄹㅓ -11144
ㅇㅕㄴㅈㅏㅇ -11145
▁ㅁㅕㅇㅇㅡㄴ -11146
▁ㅂㅏㄴㅈㅡㅇ -11147
▁ㅁㅜㄴㅎㅏㄱㄱㅏ -11148
af -11149
▁MT -11150
ㅉㅓㄱ -11151
ㄹㅛㅇㅅㅏ -11152
ㅅㅓㅇㅇㅣ -11153
▁ㄴㅗㄱㅅㅡ -11154
▁ㄷㅗㅇㄱㅘ -11155
▁ㅇㅘㄴㅌㅜ -11156
▁ㅊㅏㄴㄱㅏ -11157
ㅌㅓㄹㄹㅣㅇ -11158
▁ㅊㅗㄱㅎㅏㄴ -11159
▁ㅍㅏㄴㅂㅕㄹ -11160
▁ㅍㅣㄹㅅㅏㄹ -11161
▁ㅎㅏㄴㅅㅏㄴ -11162
UM -11163
sc -11164
ㄹㅍㅡ -11165
▁King -11166
▁That -11167
▁this -11168
ㅈㅜㄴㅎㅗ -11169
ㅎㅐㅁㅍㅡ -11170
▁ㄹㅐㅇㅋㅓ -11171
▁ㅅㅏㄴㄷㅗ -11172
▁ㄷㅗㄱㅅㅣㄴ -11173
▁ㅂㅕㅇㅇㅣㄴ -11174
▁ㅇㅕㄹㄱㅘㅇ -11175
▁ㅇㅜㄹㅇㅡㅁ -11176
▁ㅈㅣㄴㅇㅑㅇ -11177
▁ㅊㅜㄹㄱㅡㄴ -11178
▁ㅁㅜㄴㅎㅏㄱㅅㅏ -11179
▁ㅂㅗㄱㅈㅏㅂㄷㅗ -11180
ㅊㅡㄹ -11181
ㅋㅝㄴ -11182
▁ㅎㅜㄱ -11183
▁Sing -11184
▁ㅊㅓㄹㄹㅗ -11185
ㅅㅏㅇㄱㅜㄴ -11186
▁ㄷㅏㄴㅅㅓㅇ -11187
▁ㅉㅏㄱㅈㅣㅅ -11188
▁ㅊㅣㅁㅈㅓㄴ -11189
▁we -11190
▁216 -11191
▁Rem -11192
▁ㄱㅜㅂㅎㅣ -11193
▁ㅅㅓㄴㅈㅣ -11194
▁ㅅㅔㄹㅍㅡ -11195
▁ㅇㅑㅇㅅㅣ -11196
▁ㅇㅕㅁㄹㅛ -11197
▁ㅇㅕㅍㄱㅜ -11198
▁ㅎㅗㅇㅈㅜ -11199
▁ㅈㅓㄹㅇㅕㄴ -11200
ㅌㅡㄹㄹㅐㄴㅌㅣㄱ -11201
▁ㅅㅜㄹㅌㅏㄴㄱㅜㄱ -11202
KA -11203
form -11204
ㄱㅡㅂㅅㅜ -11205
ㄷㅏㄴㅈㅗ -11206
ㄹㅡㄴㅎㅏ -11207
▁ㅂㅔㄴㅈㅏ -11208
▁ㅇㅟㄴㅈㅓ -11209
▁ㅈㅓㅇㅌㅗ -11210
ㅁㅜㅅㅇㅣㅍ -11211
ㅊㅗㅇㄱㅘㄴ -11212
▁ㄱㅜㄱㅁㅕㅇ -11213
▁ㄷㅏㄹㅅㅓㅇㄱㅜㄴ -11214
▁ㅊㅓㄹㅇㅝㄴㄱㅜㄴ -11215
WA -11216
ㄱㅠㄹ -11217
ㄹㅣㅁㅍㅏ -11218
lement -11219
▁Great -11220
▁ㄱㅣㅁㄴㅏ -11221
▁ㅂㅏㅇㄱㅖ -11222
▁ㅂㅜㄹㄷㅗ -11223
▁ㅅㅣㄴㄷㅣ -11224
▁ㅈㅓㅇㅌㅐ -11225
▁ㅊㅓㅇㄷㅜ -11226
▁ㅍㅓㄹㅅㅡ -11227
▁ㅍㅗㄱㅇㅜ -11228
ㄹㅗㄹㄹㅣㅇ -11229
▁ㅅㅓㄴㅍㅜㅇ -11230
▁ㅊㅓㅇㅌㅏㄱ -11231
ㅋㅓㄹㄹㅓㅁㅂㅣ -11232
▁ㄱㅏㄱㅇㅜㄴㄷㅗㅇㄹㅑㅇ -11233
UT -11234
raph -11235
▁1796 -11236
ㅍㅗㄱㅅㅡ -11237
▁ㄹㅣㄴㅅㅡ -11238
▁ㅅㅡㅂㄱㅣ -11239
▁ㅇㅣㄹㄱㅜ -11240
▁ㄹㅣㄴㅌㅓㄴ -11241
▁ㅇㅕㄴㅅㅓㅇ -11242
▁ㅈㅡㅇㅅㅏㄴ -11243
▁ㅅㅐㅇㅅㅏㄴㅈㅣ -11244
▁ㅅㅓㅇㅂㅓㅁㅈㅚ -11245
▁ㅇㅏㅍㄷㅏㅇㄱㅣ -11246
▁pH -11247
▁key -11248
▁1832 -11249
ㅇㅣㅁㅅㅜ -11250
▁ㄱㅡㄱㅈㅘ -11251
▁ㅁㅜㄹㅇㅢ -11252
▁ㅁㅣㄹㄱㅛ -11253
▁ㅇㅑㅇㅇㅏ -11254
▁ㅈㅡㅇㅅㅓ -11255
▁ㅍㅜㅇㅌㅗ -11256
ㅂㅜㄹㅌㅐㅇ -11257
▁ㄴㅐㅇㅂㅏㅇ -11258
▁ㅁㅕㅇㅊㅏㅇ -11259
▁ㅁㅜㄹㅂㅕㅇ -11260
ㅅㅣㅇㅌㅓㄴㅈㅜ -11261
▁ㅊㅓㄱㅌㅏㄴㅂㅕㅇ -11262
ㄸㅏㄴ -11263
▁660 -11264
▁950 -11265
▁ㅋㅏㅅ -11266
▁1790 -11267
ㅁㅣㄴㅌㅔ -11268
ㅅㅏㄹㄹㅏ -11269
▁score -11270
▁ㄱㅜㄱㅈㅏ -11271
▁ㅅㅐㄱㄱㅖ -11272
▁ㅅㅓㄹㄱㅏ -11273
▁ㅅㅓㅇㅊㅡㅇ -11274
▁ㅎㅜㄴㅈㅗㄱ -11275
▁ㄱㅏㅇㅈㅣㄴㄱㅜㄴ -11276
▁ㅂㅕㄴㅈㅡㅇㅂㅓㅂ -11277
ㄱㅙ -11278
iew -11279
▁UI -11280
tain -11281
▁815 -11282
ㅊㅗㄴㅂㅓ -11283
▁20120 -11284
▁ㄱㅗㄹㅈㅏ -11285
▁ㅈㅓㄴㅎㅐ -11286
ㄹㅏㅂㅇㅣㄴ -11287
ㅈㅓㄴㄷㅗㅇ -11288
▁ㄱㅕㅇㄱㅏㅁ -11289
▁ㄱㅗㅇㅅㅐㅇ -11290
▁ㅅㅏㅁㄴㅏㅁ -11291
▁ㅇㅕㄱㅅㅡㅂ -11292
▁ㅈㅓㄴㅍㅗㄱ -11293
▁ㅈㅓㅇㅅㅓㄹ -11294
▁ㅊㅓㅇㅍㅜㅇ -11295
▁ㅇㅓㅁㅁㅣㄹㅎㅣ -11296
ize -11297
▁EOS -11298
▁1810 -11299
▁Inst -11300
ㅇㅛㅇㅈㅜ -11301
▁ㄱㅏㄹㅁㅐ -11302
▁ㄹㅣㄱㅅㅡ -11303
▁ㄹㅣㄴㅊㅣ -11304
▁ㅅㅓㄱㅎㅗ -11305
▁ㅈㅏㅇㅁㅏ -11306
▁ㅎㅏㄱㅈㅔ -11307
▁ㅎㅔㄱㅌㅏ -11308
ㅇㅑㅇㅅㅣㄱ -11309
▁ㄴㅏㅁㅁㅜㄴ -11310
▁ㅅㅓㅇㅇㅘㅇ -11311
▁ㅅㅗㄱㅎㅕㄴ -11312
▁ㅇㅕㄹㄷㅡㅇ -11313
▁ㅇㅣㄴㅎㅕㄴ -11314
▁ㅈㅓㄴㄹㅑㅇ -11315
▁Project -11316
▁GL -11317
▁460 -11318
▁Run -11319
▁1798 -11320
ㅌㅔㄱㅅㅡ -11321
ㅌㅗㄹㄹㅗ -11322
▁ㄱㅏㅁㄹㅗ -11323
▁ㄱㅣㅁㅂㅗ -11324
▁ㅁㅏㄴㅎㅏ -11325
▁ㅇㅔㅅㅈㅣ -11326
▁ㅇㅝㄴㅇㅖ -11327
▁ㅈㅐㅇㅊㅟ -11328
▁ㅈㅓㅇㄴㅏ -11329
▁ㅎㅔㄹㄹㅏ -11330
ㅇㅏㅁㅁㅕㄴ -11331
▁ㄱㅗㅇㅁㅜㄹ -11332
▁ㅇㅣㄴㅈㅏㅇ -11333
▁ㅈㅏㄴㄷㅏㅇ -11334
▁ㅈㅏㅇㅇㅓㅁ -11335
▁ㅊㅣㄴㅍㅣㄹ -11336
lex -11337
▁GD -11338
ㄱㅓㄱ -11339
ript -11340
▁234 -11341
▁264 -11342
▁Are -11343
ㄴㅔㄹㄹㅏ -11344
▁ㄱㅡㄴㅎㅐ -11345
▁ㅇㅏㄱㅎㅏ -11346
▁ㅇㅏㅍㅂㅜ -11347
▁ㅊㅓㄹㄱㅛ -11348
▁ㅍㅔㄴㅌㅣ -11349
▁ㅍㅠㄹㄹㅣ -11350
▁ㅁㅕㅇㅁㅐㄱ -11351
▁ㅂㅣㄴㅇㅑㄱ -11352
▁ㅋㅏㄹㅂㅣㄴ -11353
▁ㅍㅏㄴㄱㅏㄱ -11354
▁ㅈㅣㅂㅎㅕㄴㅈㅓㄴ -11355
ady -11356
rop -11357
▁nt -11358
ㄴㅐㅂ -11359
▁val -11360
ㄱㅜㄱㄷㅐ -11361
ㅁㅣㄹㄹㅏ -11362
ㅈㅏㅇㅅㅜ -11363
▁ㄱㅣㅁㅎㅖ -11364
▁ㅁㅜㄱㅅㅣ -11365
▁ㅇㅠㄴㅈㅣ -11366
▁ㄷㅗㅇㅇㅡㅁ -11367
▁ㅇㅕㄴㅅㅓㄴ -11368
▁ㄱㅡㄴㅂㅗㄴㅈㅜ -11369
▁ㄴㅏㅁㅇㅝㄴㅅㅣ -11370
▁ㅍㅕㄴㅈㅣㅂㄱㅣ -11371
▁ㄱㅏㅁㄷㅗㄱㅅㅏㅇ -11372
SI -11373
elf -11374
rag -11375
ㄱㅚㅇ -11376
▁ㄷㅣㅁ -11377
▁ㅅㅓㅇㅎㅢ -11378
▁ㅈㅓㅇㅎㅚ -11379
▁ㅎㅏㄴㅈㅣ -11380
▁ㅎㅐㅁㅍㅡ -11381
ㄹㅣㄱㅅㅡㄴ -11382
ㅇㅑㅇㄷㅗㅇ -11383
ㅇㅣㅂㅅㅏㅇ -11384
▁ㅅㅓㅇㅈㅣㄱ -11385
▁ㅅㅣㄴㅂㅣㅇ -11386
▁ㅈㅓㄴㅎㅘㅇ -11387
▁ㄱㅣㅁㅊㅓㄴㅅㅣ -11388
▁FL -11389
▁PK -11390
ㅃㅐㄱ -11391
▁410 -11392
▁Met -11393
ㅇㅣㄴㄱㅘ -11394
ㅇㅣㄴㄷㅓ -11395
ㅋㅓㄹㄹㅓ -11396
▁Every -11397
▁ㄱㅣㅁㅅㅗ -11398
▁ㅅㅓㅇㅅㅣ -11399
▁ㅇㅝㄴㅊㅜ -11400
▁ㅈㅓㄴㅅㅗ -11401
▁ㅌㅗㅇㅅㅏ -11402
▁ㅌㅡㄹㅇㅓ -11403
▁ㅅㅓㅇㄱㅡㅂ -11404
▁ㅈㅓㄴㄱㅕㅇ -11405
▁ㅊㅗㅇㅎㅏㅂ -11406
▁ㅊㅜㄹㅈㅣㄴ -11407
▁ㄱㅕㅇㅇㅕㅇㅈㅣㄴ -11408
ane -11409
ene -11410
ott -11411
▁EL -11412
▁up -11413
▁640 -11414
▁NHL -11415
▁Sub -11416
ㄱㅝㄴㄷㅗ -11417
ㄷㅗㅇㅂㅜ -11418
ㄹㅓㄱㅅㅡ -11419
ㅋㅏㄹㄹㅔ -11420
▁ㅂㅏㄴㅇㅠ -11421
▁ㅎㅏㄱㅂㅣ -11422
▁ㄱㅘㅇㅅㅓㄱ -11423
▁ㄴㅔㄱㅅㅡㄴ -11424
▁ㅃㅐㄱㅃㅐㄱ -11425
▁ㅅㅣㄴㄴㅕㄴ -11426
▁ㅅㅣㄴㅊㅏㅇ -11427
▁ㅇㅕㅇㅇㅣㄹ -11428
▁ㅈㅣㄹㅅㅏㄴ -11429
▁ㅎㅓㄴㅈㅗㅇ -11430
▁ㅅㅐㅇㄱㅣㅁㅅㅐ -11431
▁ㄷㅏㅁㅇㅑㅇㄱㅜㄴ -11432
▁ㅇㅔㅂㅅㅣㄹㄹㅗㄴ -11433
ㅆㅓㅂ -11434
▁Bad -11435
▁ㅇㅕㄼ -11436
ㄴㅏㄹㄹㅣ -11437
ㅈㅏㅇㅇㅓ -11438
▁ㅁㅕㅇㅎㅚ -11439
▁ㅂㅗㄹㄹㅏ -11440
▁ㅅㅗㄱㅈㅚ -11441
▁ㅅㅣㄴㅍㅏ -11442
▁School -11443
▁ㄱㅏㄴㅌㅗㅇ -11444
▁ㄷㅏㄴㄹㅕㄴ -11445
▁ㅅㅓㄴㅂㅓㅂ -11446
▁ㄱㅏㅇㄷㅗㅇㄱㅜ -11447
▁ㅂㅓㅂㅎㅏㄱㅈㅏ -11448
▁ㅌㅗㅇㅇㅕㅇㅅㅣ -11449
pm -11450
ㅈㅜㅇㅁㅣ -11451
ㅍㅔㄹㅌㅡ -11452
▁ㄱㅜㄱㅍㅏㄴ -11453
▁ㅇㅏㄹㅎㅕㄴ -11454
▁ㅇㅑㅇㅅㅗㄴ -11455
▁ㅇㅕㄹㅈㅜㅇ -11456
▁ㅍㅣㄹㅈㅓㄱ -11457
▁ㅂㅜㄱㅈㅜㅇㅁㅣ -11458
▁ㅅㅣㄴㅇㅣㄴㅇㅘㅇ -11459
atic -11460
▁Cor -11461
▁Rad -11462
ㅂㅏㄹㄹㅏ -11463
▁ㅁㅏㄴㄱㅘ -11464
▁ㅇㅏㄹㅂㅡ -11465
▁ㅊㅜㄹㅈㅔ -11466
ㅁㅣㄴㅌㅓㄴ -11467
▁ㄷㅗㄹㅂㅏㅇ -11468
▁ㅂㅜㄱㅈㅣㄴ -11469
▁ㅂㅜㄹㅍㅔㄴ -11470
▁ㅅㅓㄱㅁㅜㄹ -11471
▁ㅅㅣㅁㅂㅗㄹ -11472
▁ㅇㅜㄹㅈㅣㄴ -11473
▁ㅊㅜㅇㅅㅣㄹㅎㅣ -11474
▁ㅁㅕㅇㅁㅕㅇㅂㅓㅂ -11475
uth -11476
ㅍㅓㄱ -11477
▁255 -11478
▁EMI -11479
▁GPU -11480
▁ㅎㅜㅁ -11481
ㅆㅇㅓㅆ -11482
▁ㅂㅏㄱㅈㅜ -11483
▁ㅊㅣㅇㄷㅏ -11484
▁ㄷㅗㅇㅁㅕㄴ -11485
▁ㅁㅐㄴㅌㅡㄹ -11486
▁ㅂㅓㅂㄷㅏㅇ -11487
▁ㅂㅜㄹㅅㅜㄴ -11488
▁ㅂㅡㄹㄹㅜㅁ -11489
▁ㅅㅏㄹㄱㅠㄴ -11490
▁ㅇㅔㄹㅌㅡㄴ -11491
▁ㅍㅏㄴㄱㅝㄴ -11492
▁ㅊㅏㅁㅈㅓㅇㄱㅝㄴ -11493
ney -11494
▁1831 -11495
ㄴㅗㅇㅅㅏ -11496
ㄹㅡㄹㅁㅏ -11497
▁20100 -11498
▁ㅁㅗㅇㅋㅔ -11499
▁ㅂㅏㅁㅎㅏ -11500
▁ㅇㅕㄴㄴㅏ -11501
▁ㅅㅏㅇㅇㅗㄴ -11502
▁ㅅㅣㄹㄱㅕㄱ -11503
▁ㅇㅣㄴㅅㅗㄹ -11504
▁ㅈㅗㅇㅇㅣㄹ -11505
▁ㄷㅏㄹㅍㅐㅇㅇㅣ -11506
▁ㄱㅏㅁㅇㅕㅁㅂㅕㅇ -11507
▁ㅂㅏㄹㅎㅐㅇㅇㅣㄴ -11508
▁ㅈㅣㄴㅎㅡㅇㅇㅘㅇ -11509
▁UAE -11510
▁Web -11511
ㄹㅓㄴㅊㅡ -11512
▁ㄱㅡㅁㅇㅗ -11513
▁ㄴㅜㄴㅂㅜ -11514
▁ㄷㅏㄴㅂㅏ -11515
▁ㅅㅜㄱㅇㅣ -11516
▁ㅈㅓㅂㄷㅐ -11517
▁ㅋㅓㅁㅍㅗ -11518
▁ㅇㅏㄴㅅㅏㅇ -11519
▁ㅎㅗㄴㅇㅛㅇ -11520
▁ㅇㅏㄹㄹㅗㄴㅅㅗ -11521
▁ㅅㅏㅇㄹㅠㄱㅈㅏㄱㅈㅓㄴ -11522
ama -11523
▁219 -11524
▁ㅇㅣㄹㄱㅐ -11525
▁ㅊㅏㅁㅅㅐ -11526
▁ㅅㅓㄴㅇㅘㅇ -11527
▁ㅈㅜㅇㅎㅡㅇ -11528
▁ㅅㅗㅇㄱㅘㅇㅅㅏ -11529
▁ㅇㅗㄴㅈㅓㄴㅎㅣ -11530
▁ㅈㅓㅇㅁㅏㄹㄹㅗ -11531
▁ㄷㅗㄱㄹㅣㅂㄷㅏㅇ -11532
▁UF -11533
▁ㅆㅔ -11534
▁Mod -11535
▁ㅇㅑㅁ -11536
ㅂㅡㄹㄹㅓ -11537
▁ㅇㅜㄹㅌㅏ -11538
ㅂㅜㄱㄷㅗㅇ -11539
▁ㄱㅏㄴㄱㅏㄴ -11540
▁ㄱㅡㄱㅅㅓㅇ -11541
▁ㄴㅏㄴㅂㅏㅇ -11542
▁ㅅㅏㄴㄱㅜㄴ -11543
▁ㅅㅣㄹㅁㅜㄹ -11544
▁ㅈㅓㅇㅈㅏㅇ -11545
▁ㅈㅣㄴㅂㅗㅇ -11546
▁ㅌㅏㅁㅇㅛㄱ -11547
▁ㅂㅜㄹㅁㅕㅇㅇㅖ -11548
▁ㅅㅣㄴㅅㅜㄱㅈㅜ -11549
EX -11550
eng -11551
▁ㅈㅜㅁ -11552
ㅅㅜㅇㅇㅏ -11553
▁ㄱㅡㅂㅇㅠ -11554
▁ㄱㅣㅁㅂㅜ -11555
▁ㅂㅗㄱㄱㅗ -11556
▁ㅂㅣㅈㅇㅓ -11557
▁ㅇㅝㄴㅈㅣ -11558
▁ㅇㅣㅁㅈㅣ -11559
▁ㅈㅏㅇㅂㅜ -11560
▁ㅎㅗㅅㅅㅡ -11561
▁ㄱㅣㅁㅂㅗㅇ -11562
▁ㅈㅓㅇㅅㅏㄴ -11563
▁ㄱㅘㄴㄱㅘㅇㅇㅓㅂ -11564
▁ㅇㅕㅇㄷㅗㅇㄱㅜㄴ -11565
▁DP -11566
▁MY -11567
▁ㅅㅓㄴㅎㅘ -11568
▁ㄴㅐㅇㄷㅗㅇ -11569
▁ㅁㅣㄹㅊㅏㄱ -11570
▁ㅂㅏㅇㅎㅕㅇ -11571
▁ㅅㅏㄹㄹㅗㅇ -11572
▁ㅅㅏㅇㅎㅑㅇ -11573
▁ㅇㅏㅁㅂㅏㄴ -11574
▁ㅈㅏㅇㅎㅕㄴ -11575
▁ㅈㅣㅂㅇㅑㄱ -11576
ins -11577
▁am -11578
ㅂㅠㅁ -11579
ㅈㅔㅅ -11580
▁213 -11581
▁ARM -11582
▁1841 -11583
ㅅㅓㄱㅅㅜ -11584
ㅇㅛㅇㄱㅏ -11585
▁ㅇㅝㄴㅂㅜ -11586
ㄷㅓㄱㅁㅕㄴ -11587
▁ㄱㅏㄱㅇㅣㄴ -11588
▁ㅇㅛㅇㅁㅜㄴ -11589
▁ㅊㅓㄹㄱㅝㄴ -11590
▁ㅁㅕㅇㅂㅐㄱㅎㅣ -11591
▁ㅋㅟㄱ -11592
ㅍㅏㄹㄹㅗ -11593
▁ㅂㅏㅇㅂㅣ -11594
▁ㅂㅓㄴㅅㅏ -11595
▁ㅇㅑㅇㅅㅏ -11596
▁ㅎㅏㄴㄴㅣ -11597
▁ㅁㅕㄴㅈㅓㅂ -11598
▁ㅇㅕㄴㄱㅗㄹ -11599
▁ㅊㅜㄱㅇㅑㄱ -11600
▁ㅊㅜㅇㅈㅓㄹ -11601
▁ㅋㅡㄹㄹㅏㄱ -11602
▁ㅌㅏㄱㅂㅏㄹ -11603
▁ㅇㅡㄴㅍㅕㅇㄱㅜ -11604
▁ㅈㅏㄱㅇㅛㅇㅅㅗ -11605
▁ㅍㅕㅇㅇㅑㅇㅈㅣㄱㅎㅏㄹㅅㅣ -11606
▁Je -11607
▁WK -11608
▁RCA -11609
▁1843 -11610
ㅅㅏㄹㄹㅗ -11611
ㅎㅏㅁㄷㅐ -11612
▁ㄱㅜㅇㅈㅣ -11613
▁ㄹㅣㄴㄴㅔ -11614
▁ㅇㅏㄹㄷㅔ -11615
▁ㅈㅓㅇㄷㅐ -11616
▁ㅈㅗㅁㅊㅓ -11617
▁ㅍㅏㄴㄱㅛ -11618
ㄱㅘㅇㅅㅓㄱ -11619
▁ㅇㅝㄴㄱㅠㄴ -11620
▁ㅈㅏㅇㅈㅣㄱ -11621
▁ㅋㅡㄹㄹㅣㅂ -11622
▁ㅎㅗㄱㅍㅕㅇ -11623
03 -11624
▁Im -11625
▁UP -11626
▁VV -11627
▁Rob -11628
▁YTN -11629
▁ㅃㅑㅁ -11630
ㄹㅗㄹㅌㅓ -11631
ㅅㅐㅇㄱㅣ -11632
ㅎㅕㄱㅈㅜ -11633
▁ㅌㅐㅇㅎㅘ -11634
▁ㅎㅗㄴㅅㅠ -11635
▁ㅂㅏㄴㅈㅏㅇ -11636
▁ㅂㅓㄴㅇㅕㄱㄱㅏ -11637
▁ㅈㅓㅇㅇㅡㅂㅅㅣ -11638
▁ㅎㅏㅁㅇㅑㅇㄱㅜㄴ -11639
na -11640
ams -11641
▁ㅅㅐㅅ -11642
▁1809 -11643
▁HTTP -11644
▁ㄴㅐㅇㅈㅓㅇ -11645
▁ㅅㅏㄴㅇㅑㅇ -11646
▁ㅅㅓㄱㅎㅏㄱ -11647
▁ㅇㅑㄱㅈㅓㅇ -11648
▁ㅈㅓㅇㄹㅏㅇ -11649
▁ㅎㅏㅂㅂㅓㅂㅎㅘ -11650
▁ㄲㅡㄶㅇㅣㅁㅇㅓㅄ -11651
ㅍㅟ -11652
oph -11653
▁1821 -11654
ㄱㅗㄱㅅㅏ -11655
ㄴㅏㄴㄷㅡ -11656
▁ㅂㅐㄱㅁㅏ -11657
▁ㅇㅕㄴㅊㅔ -11658
▁ㅇㅣㄹㄹㅖ -11659
▁ㅁㅐㄹㅋㅓㅁ -11660
▁ㅂㅓㄴㅂㅓㄴ -11661
▁ㅂㅗㄴㅈㅓㅁ -11662
▁ㅅㅏㄴㅎㅏㄱ -11663
▁ㅇㅣㄴㅌㅓㄴ -11664
▁ㅅㅓㄴㅂㅏㄹㅈㅓㄴ -11665
▁ㅇㅡㅁㅅㅣㄱㅁㅜㄹ -11666
06 -11667
▁BSD -11668
ㅂㅏㅇㅇㅟ -11669
▁ㅅㅔㄹㄹㅏ -11670
▁ㅇㅣㅂㄱㅛ -11671
▁ㄱㅕㄹㅅㅗㄱ -11672
▁ㅈㅓㄴㅎㅚㅇ -11673
ㅂㅓㅂㅇㅕㄴㅅㅜ -11674
▁ㅂㅏㅇㅁㅜㄴㅈㅏ -11675
▁ㄱㅡㅁㅅㅏㄴㄱㅜㄴ -11676
▁ㅇㅡㅁㅅㅓㅇㄱㅜㄴ -11677
▁ㅊㅏㅇㄴㅕㅇㄱㅜㄴ -11678
xy -11679
ㅋㅏㅇ -11680
▁ㅍㅏㅌ -11681
ㄲㅡㄹㅇㅓ -11682
ㅈㅜㄴㅅㅣ -11683
▁ㄷㅗㅇㅌㅐ -11684
▁ㅁㅣㅌㅂㅜ -11685
▁ㅅㅏㅇㄴㅏ -11686
▁ㅇㅣㄹㅈㅣ -11687
ㄴㅏㄴㅁㅣㄴ -11688
ㅇㅏㄴㅁㅕㄴ -11689
ㅇㅣㄴㅇㅣㄴ -11690
ㅊㅏㄱㅁㅣㄴ -11691
▁ㄱㅏㄴㅎㅓㄹ -11692
▁ㄲㅏㄹㄲㅡㅁ -11693
▁ㅂㅜㄹㅁㅕㄹ -11694
▁ㅅㅓㄴㅅㅏㄴ -11695
▁ㅎㅘㅇㄱㅜㅇ -11696
▁ㅈㅡㅇㄱㅝㄴㄱㅓ -11697
▁... -11698
▁ㄱㅟㄴ -11699
▁ㅅㅟㅁ -11700
ㅁㅣㅇㄱㅗ -11701
ㅎㅏㄹㅁㅓ -11702
ations -11703
▁ㄹㅐㅇㅅㅡ -11704
▁ㅁㅕㅇㄱㅣ -11705
▁ㅅㅣㄴㄷㅡ -11706
▁ㅈㅏㄹㅊㅡ -11707
▁ㅊㅜㄹㅌㅚ -11708
ㅁㅜㄹㅈㅣㄹ -11709
▁ㅅㅡㅇㅊㅓㄴ -11710
▁ㅇㅠㄴㅈㅗㅇ -11711
▁ㅊㅗㅇㅅㅏㅇ -11712
▁ㅎㅘㅇㅅㅓㅇ -11713
▁ㅊㅗㅇㄷㅗㅇㅇㅝㄴ -11714
air -11715
▁Mc -11716
▁ver -11717
▁ㅋㅡㅁ -11718
▁ㅇㅏㄹㅂㅓ -11719
▁ㅇㅏㅇㅋㅗ -11720
▁ㅇㅑㅇㅈㅔ -11721
▁ㅊㅏㅁㅎㅗ -11722
▁ㅌㅔㄴㅌㅡ -11723
▁ㅎㅓㅁㅍㅡ -11724
▁ㄷㅗㅇㄱㅕㄹ -11725
▁ㅅㅣㄴㅊㅗㄴ -11726
▁ㅇㅝㄴㅅㅜㄴ -11727
▁ㅊㅗㅇㄱㅘㄴ -11728
▁ㄷㅗㄱㄹㅣㅂㅅㅓㅇ -11729
erm -11730
▁ㅉㅜ -11731
ㄲㅜㄴ -11732
▁OVA -11733
▁ㄱㅣㅇ -11734
▁1623 -11735
▁1783 -11736
▁ㅁㅣㄹㅋㅡ -11737
▁ㅂㅏㄱㅊㅏ -11738
▁ㅂㅏㄴㄱㅏ -11739
▁ㅂㅐㄱㅅㅡ -11740
▁ㅅㅐㅇㅂㅜ -11741
▁ㅅㅜㄴㅅㅏ -11742
▁ㅈㅡㅇㅇㅕ -11743
▁ㅂㅜㄴㅅㅣㄹ -11744
ㅅㅐㅇㅁㅜㄹㅎㅏㄱ -11745
▁ㅎㅕㄱㅁㅕㅇㄷㅏㅇ -11746
▁1803 -11747
▁Down -11748
ㅊㅜㄴㄱㅣ -11749
▁ㄱㅕㄴㄱㅘ -11750
▁ㄷㅣㄹㄹㅔ -11751
▁ㅂㅗㄴㄷㅡ -11752
▁ㅇㅗㄹㄱㅏ -11753
▁ㅈㅣㅂㄷㅐ -11754
ㄱㅜㄱㅈㅏㅇ -11755
ㄹㅜㄴㄱㅜㅇ -11756
▁ㅂㅏㅇㅎㅘㅇ -11757
▁ㅇㅝㄴㅃㅜㄹ -11758
▁ㅊㅓㅇㅊㅓㄴ -11759
▁ㅇㅓㅁㄱㅕㄱㅎㅣ -11760
▁ㅇㅑㅇㅂㅏㅇㅎㅑㅇ -11761
▁EA -11762
▁1819 -11763
▁1835 -11764
ㄱㅔㄴㅅㅠ -11765
▁ㄷㅏㅇㄷㅗ -11766
▁ㅎㅐㄱㅁㅣ -11767
ㅇㅕㅇㅎㅑㅇ -11768
▁ㄱㅣㄹㅉㅜㄱ -11769
▁ㅇㅔㄹㄹㅔㄴ -11770
▁ㅇㅣㄹㄱㅘㅇ -11771
▁ㅈㅓㅇㅂㅏㄴㄷㅐ -11772
▁ㅇㅕㅇㅇㅏㅁㄱㅜㄴ -11773
▁International -11774
▁OR -11775
▁ㅇㅞㅁ -11776
ㄷㅓㄱㄹㅣ -11777
▁ㄱㅕㄴㅈㅜ -11778
▁ㄱㅡㅂㅂㅜ -11779
▁ㅅㅡㅇㅅㅗ -11780
▁ㅇㅝㄴㄷㅐ -11781
▁ㅊㅡㄱㄷㅗ -11782
▁ㅎㅘㅇㅎㅘ -11783
▁ㄱㅘㅇㅇㅝㄴ -11784
▁ㄱㅡㄴㅊㅣㄴ -11785
▁ㅁㅗㄹㅅㅏㄹ -11786
▁ㅁㅣㄴㅈㅣㄴ -11787
▁GE -11788
▁Sk -11789
▁227 -11790
▁Inc -11791
ㄷㄴㅏㄹ -11792
▁1799 -11793
ㄹㅐㄴㄷㅗ -11794
ㅂㅡㄹㄹㅏ -11795
▁Korea -11796
▁ㄴㅏㅁㅋㅗ -11797
▁ㅁㅔㅅㄷㅙ -11798
▁ㅅㅐㅇㅎㅜ -11799
▁ㅇㅕㄴㄹㅖ -11800
▁ㅈㅓㅇㅁㅣ -11801
▁ㅌㅗㅇㄱㅏ -11802
▁ㅎㅏㅇㄱㅓ -11803
▁ㅎㅘㅇㅈㅜ -11804
▁ㄴㅗㅇㅇㅏㄱ -11805
▁ㅅㅓㄴㅂㅏㅇ -11806
▁ㅆㅏㅇㅂㅏㅇ -11807
▁ㅇㅓㅂㅈㅗㅇ -11808
▁ㅇㅕㄴㅍㅣㄹ -11809
▁ㅇㅡㄴㅅㅏㅇ -11810
▁ㅈㅏㅇㄹㅕㄱ -11811
▁ㅈㅣㄴㄷㅗㅇㅅㅜ -11812
▁ㄱㅕㅇㅅㅜㄴㅇㅘㅇ -11813
▁ㅊㅣㄴㄷㅗㅇㅅㅐㅇ -11814
NS -11815
du -11816
ㄹㅚㅁ -11817
▁275 -11818
▁316 -11819
▁Off -11820
▁She -11821
▁ㅇㅝㅇ -11822
ㅎㅓㄴㄷㅐ -11823
▁ㄱㅏㄱㅇㅗ -11824
▁ㅅㅔㄱㅌㅓ -11825
▁ㅅㅣㄴㄷㅔ -11826
▁ㅌㅡㄱㅍㅏ -11827
ㄱㅝㄴㄹㅕㄱ -11828
ㅈㅓㅇㅍㅏㄴ -11829
ㅊㅓㅇㅈㅓㅇ -11830
▁ㄱㅕㄹㅂㅓㄴ -11831
▁ㄱㅜㄴㅇㅘㅇ -11832
▁ㄱㅝㄴㅅㅓㄴ -11833
▁ㄴㅏㅁㅊㅡㄱ -11834
▁ㅂㅏㅁㅈㅜㅇ -11835
▁ㅊㅗㅇㄹㅕㄱ -11836
atur -11837
▁Ste -11838
ㄹㅐㄴㅈㅡ -11839
ㅇㅣㄴㄱㅣ -11840
▁ㅎㅓㄴㅌㅡ -11841
ㅂㅗㄱㅇㅡㅁ -11842
▁ㄱㅘㄴㅊㅓㄹ -11843
▁ㅅㅐㄱㅅㅡㄴ -11844
▁ㄱㅘㅇㅁㅕㅇㅅㅣ -11845
ㅈㅛ -11846
▁VR -11847
▁are -11848
▁1813 -11849
▁1845 -11850
ㄱㅜㄴㄱㅣ -11851
ㄴㅜㄹㅍㅡ -11852
▁Award -11853
▁ㄱㅣㅁㅎㅛ -11854
▁ㄷㅓㄴㅅㅡ -11855
▁ㅅㅣㄴㅌㅗ -11856
▁ㅇㅡㅇㄱㅗ -11857
▁ㅎㅡㄱㅅㅏ -11858
ㅅㅡㄹㄹㅏㄴ -11859
ㅊㅗㄴㅁㅕㄴ -11860
▁ㅅㅣㄴㅂㅕㄴ -11861
▁ㅇㅗㄴㅇㅑㅇ -11862
▁ㅈㅜㅇㅁㅜㄴ -11863
▁ㄷㅓㄱㅇㅑㅇㄱㅜ -11864
45 -11865
▁RF -11866
▁POS -11867
▁1804 -11868
▁comp -11869
ㄱㅜㄴㄱㅏ -11870
▁Micro -11871
▁ㅅㅏㅇㄱㅓ -11872
▁ㅆㅡㄹㅁㅗ -11873
▁ㅈㅏㅇㅇㅠ -11874
▁ㅈㅗㅂㅎㅣ -11875
▁ㅎㅏㄴㅅㅜ -11876
▁ㅎㅕㅇㅇㅣ -11877
ㅈㅓㄱㄷㅏㄴ -11878
ㅈㅜㄴㄱㅕㅇ -11879
▁ㄷㅗㅇㄱㅘㄴ -11880
▁ㅁㅣㄹㅈㅓㅇ -11881
▁ㅂㅏㄹㄷㅏㄴ -11882
▁ㅅㅏㄴㅎㅕㄴ -11883
▁ㅇㅑㅇㄱㅗㅇ -11884
▁ㅇㅘㄴㅊㅜㅇ -11885
▁ㅇㅘㅇㅈㅓㄴ -11886
▁ㅇㅜㄹㄹㅣㅁ -11887
▁ㅎㅐㅇㅂㅓㅂ -11888
▁ㅂㅓㄴㅇㅕㄱㅂㅗㄴ -11889
▁ㅊㅓㅇㄴㅕㄴㄷㅏㄴ -11890
we -11891
▁Act -11892
▁2023 -11893
ㅋㅔㄹㄹㅔ -11894
▁ㄱㅏㄱㄱㅖ -11895
▁ㅊㅓㅇㅈㅗ -11896
▁ㅊㅗㅇㅅㅓ -11897
ㅅㅓㅇㄹㅛㅇ -11898
ㅌㅗㅇㄹㅑㅇ -11899
▁ㅂㅓㄴㅂㅗㄱ -11900
▁ㅅㅜㄴㄱㅜㄱ -11901
▁ㅊㅓㅇㅇㅑㅇ -11902
▁ㅎㅏㄴㅈㅣㄴ -11903
▁ㅎㅜㄴㄹㅕㄴㅅㅗ -11904
ava -11905
riv -11906
▁1802 -11907
ㅁㅏㅇㅈㅜ -11908
▁ㅁㅏㅈㅇㅏ -11909
▁ㅅㅓㅇㅇㅠ -11910
▁ㅊㅏㅇㅅㅏ -11911
▁ㅎㅓㅁㅎㅏ -11912
ㅊㅓㄴㅇㅡㅂ -11913
▁ㄱㅏㄴㅊㅓㄱ -11914
▁ㅈㅓㅇㅇㅠㄱ -11915
▁ㅎㅗㅇㅁㅕㅇ -11916
▁Bel -11917
▁Che -11918
aster -11919
▁Power -11920
▁ㄱㅐㄱㅅㅏ -11921
▁ㅁㅣㄹㅅㅜ -11922
▁ㅋㅏㄴㅌㅗ -11923
▁ㅌㅏㅂㅂㅣ -11924
ㄷㅗㅇㄱㅜㄱ -11925
ㅎㅏㄱㅅㅣㄱ -11926
▁ㄱㅡㅁㄷㅏㅇ -11927
▁ㅅㅓㄴㅂㅜㄴ -11928
▁ㅇㅡㄴㅅㅐㄱ -11929
▁ㅈㅐㅇㅌㅏㄹ -11930
▁ㅈㅣㄴㅍㅗㄱ -11931
▁ㅎㅕㄴㅇㅏㄴ -11932
▁ㅎㅘㄴㅅㅐㅇ -11933
▁ㅈㅜㅇㅎㅏㅂㅎㅛ -11934
▁ㅎㅗㅇㅅㅓㅇㄱㅜㄴ -11935
ues -11936
ates -11937
▁218 -11938
▁ㅋㅘㄴ -11939
▁1824 -11940
ㅍㅕㅇㄷㅐ -11941
▁ㅁㅏㄴㅎㅗ -11942
▁ㅅㅣㄴㅂㅗ -11943
▁ㄱㅏㄴㅊㅓㅇ -11944
▁ㅎㅙㅅㅂㅜㄹ -11945
▁ㄷㅏㅇㄱㅏㄴㅈㅣ -11946
▁ㅊㅞ -11947
▁OEC -11948
▁all -11949
▁par -11950
ㅇㅌㅓㄴ -11951
irect -11952
▁ㅂㅕㄴㅇㅢ -11953
▁ㅅㅓㄴㅈㅜ -11954
▁ㅇㅟㅇㅅㅡ -11955
▁ㅇㅣㅂㅅㅗ -11956
▁ㅎㅗㄴㅈㅐ -11957
▁ㅎㅗㅇㅁㅜ -11958
ㄹㅡㄴㅅㅐㄱ -11959
ㅅㅜㄹㄹㅕㄱ -11960
▁ㄱㅡㄴㅅㅣㅁ -11961
▁ㄴㅏㅁㅁㅕㅇ -11962
ittle -11963
▁1805 -11964
▁Just -11965
▁YMCA -11966
ㅌㅏㄴㅌㅡ -11967
ㅎㅐㄱㅎㅘ -11968
▁ㄱㅓㅌㅁㅗ -11969
▁ㄱㅡㅁㅈㅜ -11970
▁ㄲㅗㄱㄷㅜ -11971
▁ㅎㅐㅇㅈㅜ -11972
ㅅㅣㄴㄱㅕㅇ -11973
ㅍㅡㄹㄹㅣㅅ -11974
▁ㅇㅔㅇㄱㅔㄹ -11975
▁ㅈㅓㅇㅇㅜㄴ -11976
ㅇㅣㄴㅈㅓㄹㅅㅡ -11977
▁ha -11978
▁ㅎㅔㅁ -11979
▁Game -11980
ㅇㅏㄴㅅㅡ -11981
▁ㄱㅏㄴㅆㅜ -11982
▁ㅂㅓㅂㅈㅜ -11983
ㄱㅕㄱㅈㅓㄴ -11984
ㅁㅏㄴㄱㅡㅁ -11985
▁ㅂㅏㄴㅌㅏㄱ -11986
▁ㅇㅣㅂㅅㅓㄴ -11987
▁ㅈㅓㄴㄱㅜㄴ -11988
▁ㅊㅣㅁㅊㅏㄱ -11989
▁ㅁㅜㄴㅇㅣㄴㅅㅓㄱ -11990
▁ㅈㅓㄴㅅㅏㄴㅁㅏㅇ -11991
▁501 -11992
▁512 -11993
▁Ang -11994
▁Ind -11995
▁ㅌㅏㄹㅂㅏ -11996
ㄷㅗㅇㅈㅣㄴ -11997
▁ㄴㅓㄼㅈㅓㄱ -11998
▁ㄷㅗㄱㄷㅏㄴ -11999
▁ㄷㅗㄹㅈㅣㄴ -12000
▁ㅅㅓㅇㅅㅏㅇ -12001
▁ㅇㅗㄱㅈㅜㅇ -12002
▁ㅇㅣㄴㅁㅐㄱ -12003
▁ㅊㅗㅇㅅㅣㄴ -12004
▁ㅌㅡㄱㅅㅏㄴ -12005
▁ㄷㅗㅇㅂㅏㄴㅈㅏ -12006
▁ㄷㅗㅇㅈㅏㄱㄱㅜ -12007
▁ㅊㅜㄹㅇㅕㄴㅈㅣㄴ -12008
▁ㅎㅏㅁㅇㅏㄴㄱㅜㄴ -12009
MI -12010
ARD -12011
ㅂㅕㅌ -12012
▁ㄲㅓㅂ -12013
ㄹㅐㅅㅂㅜ -12014
ㅃㅜㄹㅅㅗ -12015
▁ㄱㅜㅇㄴㅕ -12016
▁ㄴㅓㅁㄴㅏ -12017
▁ㄷㅏㄴㅌㅔ -12018
▁ㄹㅏㄹㅍㅡ -12019
▁ㅁㅏㄴㄴㅔ -12020
▁ㅂㅔㄴㅌㅜ -12021
▁ㅅㅜㄴㅊㅣ -12022
▁ㅈㅓㄹㄱㅐ -12023
ㅁㅜㄴㅇㅘㅇ -12024
▁ㄱㅕㅁㅅㅗㄴ -12025
▁ㅈㅏㅂㅇㅡㅁ -12026
▁ㅎㅕㄹㅇㅕㄴ -12027
ㄴㅏㅁㅅㅣ -12028
ㄹㅗㅇㅋㅡ -12029
▁ㅇㅠㄱㄹㅠ -12030
▁ㅎㅏㅁㅍㅗ -12031
▁ㄷㅏㄴㄴㅕㅁ -12032
▁ㅂㅐㄱㄱㅡㅁ -12033
▁ㅅㅗㅇㅈㅜㄴ -12034
▁ㅎㅏㄴㄴㅜㄴ -12035
▁ㅅㅐㅇㅁㅜㄹㅊㅔ -12036
ape -12037
▁ㄱㅣㅁㅈㅘ -12038
▁ㄹㅏㄹㄹㅣ -12039
▁ㅁㅏㄱㅂㅏ -12040
▁ㅂㅜㄹㅇㅢ -12041
▁ㅇㅡㅁㅅㅜ -12042
▁ㅁㅜㄴㄱㅗㅇ -12043
▁ㅇㅘㅇㅁㅏㅇ -12044
▁ㅈㅏㅇㅊㅜㅇ -12045
▁ㅈㅓㄴㄹㅠㄴ -12046
▁ㅈㅜㅇㅊㅏㅇ -12047
▁ㅊㅏㄴㅂㅏㄴ -12048
▁ㅇㅝㄴㄷㅗㅇㄹㅕㄱ -12049
▁ㅅㅣㄴㅇㅑㄱㅅㅓㅇㄱㅕㅇ -12050
TO -12051
▁Em -12052
ㄱㅐㅇ -12053
ㅁㅡㄹ -12054
▁ㄷㅐㄱ -12055
▁ㅁㅔㄱ -12056
▁1775 -12057
ㄹㅜㄴㄷㅣ -12058
ㄹㅜㄹㄹㅜ -12059
▁ㄱㅜㄴㅅㅗ -12060
▁ㄱㅣㄴㄲㅗ -12061
▁ㄷㅏㅇㅂㅜ -12062
▁ㄷㅗㅇㅇㅜ -12063
▁ㄹㅗㄱㅅㅡ -12064
▁ㅂㅗㄴㄱㅏ -12065
▁ㅅㅡㅇㅍㅐ -12066
▁ㅈㅜㅇㄹㅠ -12067
▁ㄷㅗㅇㅊㅓㄴ -12068
▁ㅅㅣㅁㅎㅕㄹ -12069
▁ㅇㅡㅁㄱㅡㄱ -12070
ㄴㅗㄹㄹㅜㄹㄹㅜ -12071
▁ㅇㅞㅁㅂㅡㄹㄹㅣ -12072
▁ㅈㅓㄴㅈㅐㅇㅌㅓ -12073
▁ㅎㅏㄱㄴㅕㄴㄷㅗ -12074
▁Bu -12075
▁303 -12076
▁305 -12077
▁1392 -12078
▁1808 -12079
ㅇㅕㄹㅅㅡ -12080
▁ㄱㅏㄱㅅㅓ -12081
▁ㅂㅗㄹㄱㅏ -12082
▁ㅅㅏㅇㅇㅏ -12083
▁ㅇㅜㄹㄹㅏ -12084
▁ㅇㅡㅇㅁㅗ -12085
▁ㅈㅏㄱㅎㅘ -12086
▁ㅈㅏㅇㅁㅗ -12087
▁ㅎㅢㄴㄱㅐ -12088
ㅁㅏㄴㄱㅏㅇ -12089
▁ㅅㅐㅇㄴㅕㄴ -12090
▁ㅇㅠㄴㅅㅏㅇ -12091
▁ㅈㅏㅇㅂㅏㅇ -12092
▁ㅈㅏㅇㅂㅗㄴ -12093
▁Records -12094
▁ㅋㅗㅁㅍㅡㄹㄹㅔㄱㅅㅡ -12095
▁DX -12096
▁Tim -12097
▁Who -12098
▁OECD -12099
▁ㅇㅛㅇㄷㅜ -12100
▁ㄱㅜㄹㄱㅗㄱ -12101
▁ㄷㅗㄹㅍㅜㅇ -12102
▁ㄹㅗㄱㅁㅐㄴ -12103
▁ㅁㅜㄴㄷㅏㅂ -12104
▁ㅂㅗㄱㄱㅓㄴ -12105
▁ㅂㅜㄴㄹㅣㅂ -12106
▁ㅇㅕㅇㅎㅡㅇ -12107
▁ㅇㅡㅁㄱㅏㄱ -12108
DR -12109
▁401 -12110
▁ㅍㅣㅂ -12111
ㄷㅓㄱㅅㅏ -12112
ㄹㅣㄴㅌㅗ -12113
ㅎㅕㄴㄹㅣ -12114
▁ㄷㅗㅇㅈㅜ -12115
▁ㅅㅏㄴㄴㅗ -12116
▁ㅇㅕㅇㅈㅔ -12117
▁ㅇㅝㄴㄱㅓ -12118
▁ㅌㅣㄹㄹㅣ -12119
ㅈㅗㄱㄱㅘㄴ -12120
ㅎㅐㅇㅇㅝㄴ -12121
▁ㄱㅏㅁㅅㅗㄱ -12122
▁ㅁㅏㄴㄹㅕㄱ -12123
▁ㅂㅏㄱㅊㅓㄹ -12124
▁ㅅㅓㅇㄱㅕㄹ -12125
▁ㅇㅠㄴㅅㅓㄴㄷㅗ -12126
▁ㅎㅏㅂㅈㅜㅇㄱㅜㄱ -12127
▁TP -12128
▁325 -12129
▁Ass -12130
▁RFC -12131
▁9000 -12132
ㄱㅕㅇㅈㅔ -12133
ㄷㅡㅂㅈㅔ -12134
ㅅㅐㅁㅍㅡ -12135
▁ㄹㅐㄴㅅㅡ -12136
▁ㅅㅏㅇㅂㅗ -12137
▁ㅊㅏㄴㅅㅡ -12138
▁ㅊㅔㄹㄹㅣ -12139
ㅇㅣㅁㄱㅘㄴ -12140
ㅈㅓㄱㅁㅜㄹ -12141
▁ㄱㅕㅇㅈㅣㄱ -12142
▁ㅅㅓㄱㅊㅜㄱ -12143
▁ㅅㅣㄴㄱㅔㄴ -12144
▁ㅈㅡㅇㅅㅓㄹ -12145
CO -12146
ari -12147
ster -12148
▁Dav -12149
▁FTA -12150
▁How -12151
▁1807 -12152
▁Mark -12153
ㄴㅏㄹㄷㅜ -12154
ㅂㅗㅇㄱㅜ -12155
▁ㄱㅕㅁㅂㅣ -12156
▁ㅅㅏㄴㅅㅔ -12157
▁ㅇㅐㅇㅁㅜ -12158
▁ㅇㅠㄱㅈㅗ -12159
▁ㅇㅣㄴㅂㅓ -12160
▁ㅇㅣㄴㅇㅓ -12161
▁ㅇㅣㄴㅎㅘ -12162
ㅈㅓㅇㅊㅐㄱ -12163
▁ㄱㅣㅁㅇㅣㄱ -12164
▁ㅈㅓㅇㅅㅓㄱ -12165
▁di -12166
ㄲㅜㄹ -12167
▁KAI -12168
▁Pre -12169
▁Tri -12170
▁1834 -12171
ㅇㅜㄹㄱㅣ -12172
▁ㄱㅕㄹㅂㅜ -12173
▁ㄷㅏㅁㅇㅏ -12174
▁ㅂㅏㄱㅎㅢ -12175
▁ㅂㅗㅁㅂㅏ -12176
▁ㄱㅏㅁㅇㅕㅇ -12177
▁ㄷㅏㄴㅍㅜㅇ -12178
▁ㅂㅏㄴㅇㅝㄹ -12179
▁ㅇㅖㄹㅊㅣㄴ -12180
▁ㅈㅓㄴㅂㅓㅂ -12181
ㅅㅗㅅ -12182
▁777 -12183
ㅅㅔㄹㄷㅗ -12184
▁ㄱㅗㅇㅈㅔ -12185
▁ㄲㅡㅌㅁㅏ -12186
▁ㄴㅏㄴㅂㅜ -12187
ㄴㄷㅡㄹㄹㅓ -12188
▁ㄱㅣㅁㅅㅜㄴ -12189
▁ㄷㅗㄹㄱㅝㄹ -12190
▁ㅁㅕㅇㄱㅗㄱ -12191
▁ㅁㅣㄴㅂㅕㅇ -12192
▁ㅇㅣㄴㅂㅏㅇ -12193
▁ㅈㅓㄴㄱㅏㄱ -12194
▁ㅎㅘㄹㄹㅕㄱ -12195
▁ㅅㅐㅇㅅㅏㄴㄹㅕㄱ -12196
▁ㅇㅕㅇㅇㅕㄴㅂㅏㅇ -12197
▁ㅈㅜㅇㅇㅏㅇㄷㅏㅇ -12198
▁ㅍㅗㄱㅂㅏㄹㅁㅜㄹ -12199
ㅊㅣㅅ -12200
ㅋㅟㄴ -12201
▁224 -12202
▁244 -12203
▁CNN -12204
▁net -12205
▁ㅅㅛㄹ -12206
ㅅㅂㅣㅊ -12207
▁20200 -12208
▁ㄱㅗㅇㄱㅜ -12209
▁ㄱㅜㅇㅇㅖ -12210
▁ㄲㅓㅂㄷㅔ -12211
▁ㄴㅏㄴㅂㅏ -12212
▁ㅂㅏㄴㅅㅣ -12213
▁ㅈㅗㅇㅈㅗ -12214
▁ㄱㅡㅁㅍㅜㅁ -12215
▁ㅂㅕㅇㅈㅏㅇ -12216
▁ㅅㅓㄱㄱㅜㄹ -12217
▁ㅇㅕㄱㅂㅓㅂ -12218
▁ㅅㅣㄴㅅㅐㅇㅇㅏ -12219
▁ㄱㅘㄴㄹㅏㅁㄱㅐㄱ -12220
▁ㅁㅗㅇㄱㅗㄹㅈㅗㄱ -12221
▁ㅈㅜㅇㄱㅜㄱㅅㅣㄱ -12222
▁ㅈㅜㅇㄹㅏㅇㅈㅏㅇ -12223
▁ㅈㅣㅇㅇㅕㄱㅎㅕㅇ -12224
ther -12225
▁Air -12226
▁Fire -12227
ㄹㅣㄴㅇㅏ -12228
ㅅㅔㄹㄹㅏ -12229
ㅋㅗㄴㅌㅣ -12230
▁ㄲㅓㄲㅇㅣ -12231
▁ㅅㅐㄴㅌㅏ -12232
▁ㅉㅏㄱㅅㅏ -12233
▁ㅎㅗㅇㅈㅗ -12234
ㄹㅗㅁㅇㅞㄹ -12235
ㄹㅡㅁㅇㅓㅄ -12236
ㅂㅓㄹㄹㅣㄴ -12237
ㅅㅓㄴㅈㅗㄱ -12238
▁ㅂㅐㄱㅂㅓㅁ -12239
▁ㅂㅗㅇㅅㅡㅇ -12240
▁ㅅㅓㅇㅊㅏㄹ -12241
▁ㅇㅑㅇㄷㅏㅇ -12242
▁ㅇㅕㅇㅊㅏㅇ -12243
ㄱㅓㄴㅂㅗㄱㅈㅣ -12244
▁ㅎㅗㅇㅊㅓㄴㄱㅜㄴ -12245
▁gr -12246
ited -12247
ring -12248
▁940 -12249
▁Hol -12250
▁1597 -12251
▁Real -12252
ㄲㅡㄹㄹㅣ -12253
ㅇㅡㅁㅍㅏ -12254
ㅌㅔㄹㄹㅣ -12255
ㅌㅠㄴㅈㅡ -12256
ㅍㅔㄹㄹㅣ -12257
▁Dance -12258
▁ㅇㅗㄴㄱㅔ -12259
▁ㅎㅘㅇㅁㅜ -12260
▁ㅎㅘㅇㅈㅗ -12261
ㄹㅜㅅㅂㅏㅁ -12262
ㅇㅣㅁㄴㅔㅅ -12263
▁ㄱㅏㅇㅍㅏㄴ -12264
▁ㄷㅟㅅㄴㅏㄹ -12265
▁ㅅㅜㄴㅈㅓㄹ -12266
▁ㅌㅏㄴㅌㅏㄴ -12267
▁ㅅㅣㄹㅈㅗㅇㅈㅏ -12268
▁ㅈㅓㄴㅇㅣㅁㅈㅏ -12269
▁ㅎㅐㅇㅈㅣㄴㄱㅗㄱ -12270
▁IL -12271
ㅉㅐㅆ -12272
▁imp -12273
▁ㄷㅏㅇㄱㅜ -12274
▁ㅁㅏㄹㅂㅓ -12275
▁ㅁㅣㄴㄷㅏ -12276
▁ㅈㅗㅇㅈㅣ -12277
▁ㅈㅣㄴㅇㅔ -12278
▁ㅊㅣㄴㄱㅛ -12279
▁ㅎㅐㅇㅊㅏ -12280
▁ㄱㅝㄴㅇㅕㅇ -12281
▁ㅅㅗㅇㅇㅕㅇ -12282
▁ㅈㅏㅂㅈㅗㅇ -12283
▁ㅅㅏㅇㄹㅗㄱㅅㅜ -12284
▁ㅇㅗㄹㄹㅐㄴㄷㅗ -12285
▁ㄱㅜㄱㄱㅕㅇㅅㅓㄴ -12286
▁Cal -12287
▁Und -12288
Force -12289
ㄹㅜㅁㅍㅜ -12290
▁ㄱㅜㄴㄴㅐ -12291
▁ㅂㅜㄴㅌㅜ -12292
▁ㅈㅓㄴㅌㅐ -12293
▁ㅍㅗㄴㅌㅣ -12294
▁ㄱㅕㄹㅈㅓㅁ -12295
▁ㄴㅏㄴㅇㅣㅂ -12296
▁ㅂㅏㅇㅁㅗㄱ -12297
▁ㅇㅕㄱㄱㅏㄴ -12298
▁ㅊㅜㅇㅈㅓㅇ -12299
▁ㅌㅡㄹㄹㅣㅁ -12300
▁ㅂㅏㄹㅅㅏㅇㅈㅣ -12301
▁ㅈㅓㅁㄹㅕㅇㅈㅣ -12302
▁TF -12303
▁999 -12304
▁Fre -12305
▁ㅂㅗㅂ -12306
ㄱㅏㄱㅅㅏ -12307
ㄴㅏㄴㅎㅣ -12308
▁ㅈㅓㄴㅊㅣ -12309
ㄹㅏㅇㅋㅔㄴ -12310
▁ㄱㅣㅁㅌㅐㄱ -12311
▁ㄷㅏㄹㅇㅣㄴ -12312
▁ㅌㅡㄱㅈㅣㄴ -12313
ATA -12314
OCA -12315
▁237 -12316
▁253 -12317
▁263 -12318
▁ㄲㅜㅀ -12319
▁ㅉㅣㅁ -12320
ㄱㅓㄴㅈㅜ -12321
▁ㄹㅏㄱㅅㅡ -12322
▁ㅅㅐㄴㄷㅓ -12323
▁ㅅㅗㄱㄱㅣ -12324
▁ㅈㅓㅇㄷㅏ -12325
ㄱㅓㄴㅊㅜㄱ -12326
ㄱㅗㅂㄱㅡㄴ -12327
ㅈㅜㅇㅅㅓㅇ -12328
▁ㄱㅏㅇㅁㅣㄴ -12329
▁ㅁㅜㄲㅇㅡㅁ -12330
▁ㅂㅏㄱㅁㅕㅇ -12331
▁ㅈㅜㅇㄱㅜㄴ -12332
▁ㅈㅜㅇㄴㅕㄴ -12333
▁ㅈㅣㄴㅇㅘㅇ -12334
▁ㅍㅜㄹㅂㅏㅌ -12335
▁ㅇㅘㄴㅅㅓㅇㄷㅗ -12336
▁ㄱㅗㅇㅇㅑㅇㅇㅘㅇ -12337
▁ㅇㅡㅁㅇㅏㄱㅅㅏㅇ -12338
▁;" -12339
▁DE -12340
▁321 -12341
▁UTC -12342
▁org -12343
ㅈㅏㅇㅇㅣ -12344
▁ㅂㅗㄹㄹㅔ -12345
▁ㅊㅗㅇㅍㅏ -12346
▁ㅍㅏㄴㅁㅜ -12347
ㅁㅜㄴㅇㅝㄴ -12348
▁ㄴㅏㅁㅁㅏㄴ -12349
▁ㅁㅗㄱㅊㅜㄱ -12350
▁ㅁㅜㄴㅎㅏㅇ -12351
▁ㅍㅕㄴㅍㅕㅇ -12352
▁ㅍㅜㅇㅅㅏㄴ -12353
AV -12354
ook -12355
oud -12356
▁MK -12357
ated -12358
▁265 -12359
▁DMB -12360
▁ㅅㅞㄹ -12361
ㄴㅣㅇㄱㅜ -12362
ㅂㅏㄹㅇㅠ -12363
ㅈㅣㄴㄱㅏ -12364
▁ㄷㅓㅇㅊㅣ -12365
▁ㅅㅏㅁㅁㅐ -12366
▁ㅈㅏㅇㄷㅗ -12367
▁ㅈㅓㅇㅎㅖ -12368
ㄷㅐㅅㄱㅏㅄ -12369
▁ㄱㅏㅇㅂㅏㄱ -12370
▁ㄱㅜㄴㅇㅕㄱ -12371
▁ㅁㅣㄴㅊㅓㅂ -12372
▁ㅂㅏㄹㅁㅜㄴ -12373
▁ㅂㅗㄹㄹㅣㅇ -12374
▁ㅅㅗㄱㅂㅏㄱ -12375
▁ㅇㅟㅁㅂㅡㄹ -12376
▁ㅇㅡㅇㅊㅜㄱ -12377
▁ㅈㅓㄴㄹㅕㅇ -12378
▁ㅈㅓㅇㅇㅕㄴ -12379
▁ㅍㅐㄴㅋㅡㄹㄹㅓㅂ -12380
▁KF -12381
ㅂㅏㄲ -12382
▁Pol -12383
▁Jour -12384
ㅁㅗㄱㄱㅜ -12385
▁ㄱㅣㄹㄱㅏ -12386
▁ㅇㅐㄴㅌㅡ -12387
▁ㅍㅔㄹㄹㅏ -12388
ㅅㅏㄴㅎㅏㅇ -12389
ㅈㅗㄴㅅㅣㅁ -12390
▁ㄴㅏㅂㅂㅜㄱ -12391
▁ㅇㅑㅇㅌㅓㄹ -12392
▁ㅈㅜㅇㄱㅕㅇ -12393
▁ㅈㅣㄴㅍㅕㅇ -12394
ㄹㅗㄹㄹㅣㅇㄱㅓ -12395
▁ㅎㅗㅇㅂㅐㄱㄱㅏ -12396
▁ㄱㅗㅇㄱㅕㄱㄹㅕㄱ -12397
▁ㄷㅏㄴㅇㅑㅇㄱㅜㄴ -12398
GE -12399
ㅆㄷㅏ -12400
other -12401
▁ㅁㅜㄴㄹㅣ -12402
▁ㅈㅏㅇㅎㅘ -12403
▁ㅈㅣㅂㅅㅣ -12404
▁ㅁㅕㅇㅅㅡㅇ -12405
▁ㅁㅜㄴㄹㅏㄴ -12406
▁ㅎㅐㅅㅂㅕㅌ -12407
▁ㅂㅗㄱㅅㅜㅇㅇㅏ -12408
▁ㅇㅟㅁㅂㅡㄹㄷㅓㄴ -12409
▁ㅎㅐㅇㅂㅏㅇㅂㅜㄹㅁㅕㅇ -12410
MC -12411
bs -12412
zy -12413
▁Si -12414
ning -12415
▁530 -12416
▁left -12417
ㄴㅐㅂㅅㅡ -12418
▁ㅅㅏㅁㅇㅟ -12419
▁ㅅㅗㄴㅇㅗ -12420
▁ㅇㅗㄱㄱㅗ -12421
▁ㅇㅝㄹㄱㅖ -12422
ㅇㅡㅁㄱㅗㄱ -12423
▁ㅇㅑㅇㄱㅏㄱ -12424
▁ㅊㅏㄴㅅㅗㅇ -12425
ㅇㅔㄴㄴㅏㄹㄹㅔ -12426
▁ㅅㅓㄹㄷㅡㄱㄹㅕㄱ -12427
mas -12428
▁Ig -12429
▁OG -12430
ㄷㅐㅇ -12431
▁245 -12432
▁def -12433
ㅌㅔㅁㅂㅔ -12434
▁Again -12435
▁ㄱㅘㄴㅂㅜ -12436
▁ㅇㅣㅂㅎㅚ -12437
▁ㅋㅓㄹㄹㅣ -12438
▁ㅎㅡㄱㅈㅏ -12439
ㅂㅜㄴㅂㅕㄹ -12440
▁ㄱㅡㄴㅎㅕㄴ -12441
▁ㄸㅏㄱㅈㅓㅇ -12442
▁ㅇㅛㅇㅂㅓㅂ -12443
▁ㅈㅓㄴㅇㅕㅇ -12444
▁ㅎㅏㄱㄱㅘㄴ -12445
▁ㄴㅜㄴㄷㅗㅇㅈㅏ -12446
▁ㅇㅕㄴㄲㅗㅊㅁㅜ -12447
▁ㅊㅜㄹㅂㅏㄹㅈㅓㅁ -12448
ME -12449
▁LD -12450
ㄴㅔㅁ -12451
ㅌㅖㄴ -12452
▁Now -12453
▁out -12454
▁ㅌㅓㅁ -12455
ㅍㅜㄹㄹㅣ -12456
▁ㄱㅘㅇㄱㅛ -12457
▁ㅂㅜㄹㅎㅓ -12458
▁ㅇㅏㄴㅅㅗ -12459
▁ㅇㅝㄴㅎㅗ -12460
▁ㅋㅣㅂㅊㅏ -12461
▁ㅌㅡㄱㅂㅗ -12462
▁ㅎㅣㄱㅅㅡ -12463
ㅈㅏㅇㄹㅑㅇ -12464
▁ㄱㅏㅇㅌㅏㄹ -12465
▁ㄷㅡㄹㅍㅏㄴ -12466
▁ㅅㅓㅇㅇㅕㄱ -12467
▁ㅅㅣㄱㅇㅡㅂ -12468
▁ㅇㅣㅂㅅㅓㄱ -12469
▁ㅎㅔㄹㅁㅔㅅ -12470
▁ㄷㅡㄱㅈㅓㅁㅈㅏ -12471
▁ㅅㅣㄴㅇㅏㅇㄱㅗ -12472
lt -12473
▁386 -12474
▁540 -12475
ㄹㅔㄴㅌㅣ -12476
▁ㄴㅣㅅㅋㅗ -12477
▁ㅁㅕㄴㅎㅘ -12478
▁ㅂㅏㄴㅌㅜ -12479
▁ㅂㅣㅅㄷㅐ -12480
▁ㅅㅏㄴㅊㅗ -12481
▁ㅅㅏㄴㅎㅜ -12482
▁ㅅㅑㄹㄹㅗ -12483
▁ㅅㅣㄴㅅㅜ -12484
▁ㅈㅣㄱㄱㅜ -12485
▁ㅊㅓㄹㅅㅐ -12486
▁ㅎㅐㅇㅋㅡ -12487
ㅌㅡㄷㄴㅏㄹ -12488
▁ㅂㅏㄱㅇㅝㄴㅅㅜㄴ -12489
▁ㅈㅓㅇㅅㅓㄴㄱㅜㄴ -12490
▁ㅊㅣㄹㄱㅗㄱㄱㅜㄴ -12491
any -12492
▁-. -12493
▁311 -12494
▁Mer -12495
▁mod -12496
▁ㅅㅔㅂ -12497
▁ㅈㅜㅂ -12498
▁1833 -12499
▁Type -12500
▁ㄷㅗㅇㄹㅣ -12501
▁ㅂㅕㅇㅂㅜ -12502
▁ㅅㅡㅇㅎㅘ -12503
▁ㅇㅡㄹㅁㅣ -12504
▁ㅋㅓㄴㅂㅓ -12505
▁ㅍㅜㅇㅁㅣ -12506
ㄷㅗㅇㅎㅏㄴ -12507
▁ㄱㅜㄹㄸㅜㄱ -12508
▁ㅅㅣㄱㅅㅐㅇ -12509
▁ㅇㅕㄴㅎㅕㄱ -12510
▁ㅇㅣㄹㅅㅣㄴ -12511
▁ㅈㅓㄱㅎㅕㄹ -12512
▁ㅈㅗㅇㅇㅛㅇ -12513
▁ㅈㅣㄴㄴㅏㅁ -12514
▁ㅍㅏㄴㄷㅗㄱ -12515
▁ㄱㅘㄴㄱㅗㅇㅅㅓ -12516
ㄴㅓㄱ -12517
▁City -12518
ㅈㅓㄱㅇㅡ -12519
▁ㄱㅣㅁㅎㅘ -12520
▁ㅂㅓㅂㄷㅐ -12521
▁ㅅㅏㅇㅅㅙ -12522
▁ㅅㅜㄴㅎㅘ -12523
▁ㅅㅡㄹㄹㅐ -12524
▁ㅍㅜㅇㅎㅘ -12525
▁ㅍㅣㄹㅈㅡ -12526
ㅅㅓㄱㅂㅏㅇ -12527
▁ㄱㅕㄱㄷㅗㄹ -12528
▁ㅂㅗㅇㅊㅓㄴ -12529
▁ㅇㅔㄹㄹㅏㅁ -12530
▁ㅈㅓㄴㅇㅓㅂ -12531
▁ㅋㅐㅂㅋㅗㅁ -12532
▁ㅅㅏㄴㅊㅓㅇㄱㅜㄴ -12533
▁ㅇㅕㄹㄹㅣㄴㅈㅣㅂㅎㅏㅂ -12534
▁OH -12535
▁1787 -12536
▁2600 -12537
▁AIDS -12538
ㅈㅓㅇㅎㅢ -12539
▁ㅂㅏㄹㅂㅜ -12540
▁ㅂㅜㄴㄱㅜ -12541
▁ㅇㅣㅁㅊㅏ -12542
▁ㅈㅣㄹㅇㅢ -12543
▁ㅊㅐㄱㅈㅏ -12544
▁ㅅㅓㅇㅅㅣㅁ -12545
▁ㅇㅡㅇㅈㅣㅂ -12546
▁ㅊㅐㄱㅅㅏㅇ -12547
▁ㅍㅐㄴㅌㅓㅁ -12548
▁ㄱㅗㅇㅎㅏㄱㅂㅜ -12549
ㅇㅑㄱㅅㅓㅇㄱㅕㅇ -12550
▁ㅈㅓㅇㅇㅑㄱㅇㅛㅇ -12551
▁ㄸㅏㄱㅈㅓㅇㅂㅓㄹㄹㅔ -12552
▁Fri -12553
▁Home -12554
ㄹㅡㅂㅆㅡ -12555
ㅌㅐㄴㄷㅓ -12556
▁ㄱㅏㄹㄷㅐ -12557
▁ㄷㅓㅇㅅㅑ -12558
▁ㅅㅔㄱㅅㅣ -12559
▁ㅇㅑㄱㅇㅓ -12560
▁ㅇㅠㄱㅅㅏ -12561
▁ㅉㅣㅈㅇㅓ -12562
▁ㅍㅓㄴㅈㅏ -12563
▁ㄴㅜㄴㅇㅏㅍ -12564
▁ㅁㅣㄴㅅㅐㅇ -12565
▁ㅅㅓㅇㅎㅗㄴ -12566
▁ㅇㅑㅇㅇㅘㅇ -12567
▁ㅊㅗㅇㅁㅕㅇ -12568
▁ㅇㅕㅇㅊㅓㄴㅅㅣ -12569
▁ㅈㅓㄱㄱㅏㄹㅅㅐㄱ -12570
yp -12571
ㄸㅗㅇ -12572
ield -12573
ㅈㅓㄹㅈㅔ -12574
▁ㄱㅏㄹㄱㅗ -12575
▁ㅇㅝㄴㅍㅣ -12576
▁ㅇㅣㅇㅇㅓ -12577
▁ㅈㅣㄴㅁㅜ -12578
▁ㅋㅏㄴㄴㅏ -12579
ㅌㅗㅇㄱㅏㅁ -12580
▁ㄴㅏㅁㅈㅣㄴ -12581
▁ㄷㅏㄴㄹㅏㄱ -12582
▁ㄷㅏㅇㅅㅏㄴ -12583
▁ㅁㅏㄹㄱㅏㄹ -12584
▁ㅅㅗㄱㅁㅕㅇ -12585
▁ㅅㅣㄱㄷㅏㄴ -12586
▁ㅅㅣㄹㄹㅣㅇ -12587
▁ㄷㅗㅇㅇㅣㄴㅈㅣ -12588
▁ㅂㅏㄱㅈㅜㅇㅇㅑㅇ -12589
ek -12590
vil -12591
▁BJ -12592
▁PV -12593
▁UD -12594
▁ㅈㅏㅅ -12595
▁1816 -12596
▁1818 -12597
ㄱㅗㅁㅈㅏ -12598
ㄱㅗㅇㅍㅗ -12599
ㅅㅓㅇㅅㅏ -12600
ㅌㅣㄹㄷㅏ -12601
ㅂㅕㅇㅊㅓㄹ -12602
▁ㅂㅣㅇㅍㅏㄴ -12603
▁ㅇㅡㄴㅊㅗㅇ -12604
▁ㅈㅓㅇㅇㅕㄹ -12605
▁ㅈㅜㅇㅎㅏㄱ -12606
▁ㅁㅕㅇㅁㅗㄱㅅㅏㅇ -12607
▁ㅈㅣㄴㅇㅏㄴㄱㅜㄴ -12608
▁ㅌㅡㄱㅅㅏㄴㅁㅜㄹ -12609
inc -12610
lin -12611
▁HR -12612
work -12613
▁Ber -12614
ㅅㅔㄴㅌㅣ -12615
ㅋㅓㅁㅍㅠ -12616
▁ㄲㅗㅊㄱㅏ -12617
▁ㅂㅕㄴㅌㅐ -12618
▁ㅍㅏㄴㅎㅘ -12619
ㅇㅕㄴㅅㅓㄱ -12620
▁ㄱㅏㄴㅌㅐㄱ -12621
▁ㄱㅘㄴㅇㅣㅂ -12622
▁ㅂㅜㄹㅂㅏㄹ -12623
▁ㅇㅣㅁㅂㅏㄱ -12624
▁ㅊㅣㄴㄱㅡㄴ -12625
▁ㅅㅓㅇㅎㅐㅇㅇㅟ -12626
▁ㄱㅣㅁㅇㅝㄴㅂㅗㅇ -12627
▁ㅍㅕㅇㅇㅑㅇㅅㅓㅇ -12628
▁Wr -12629
ㄷㅓㅍ -12630
▁Vis -12631
▁ㄴㅜㅁ -12632
▁ㅃㅗㅇ -12633
ㄷㅠㄹㄹㅓ -12634
ㅅㅡㅇㅎㅢ -12635
ㅍㅔㄹㄹㅏ -12636
▁Techn -12637
▁ㅈㅣㄴㅈㅓ -12638
▁ㅎㅐㅇㅌㅐ -12639
▁ㄱㅏㅁㅎㅕㅇ -12640
▁ㅂㅏㄱㅇㅡㄴ -12641
▁ㅎㅏㄱㅅㅣㄱ -12642
▁ㅎㅓㄴㅌㅣㅇ -12643
▁ㅂㅐㄹㄹㅓㄴㅅㅡ -12644
▁ㅇㅝㄴㅈㅏㄱㅈㅏ -12645
▁ㅊㅓㅇㄹㅑㅇㄹㅣ -12646
ㅌㅗㅇㄹㅕㅇㄹㅕㅇ -12647
▁ㅈㅓㄴㅎㅘㄴㅈㅓㅁ -12648
gy -12649
▁560 -12650
▁680 -12651
ㄷㅏㄱㅊㅣ -12652
ㅊㅜㅇㅅㅏ -12653
▁ㄹㅓㄴㅌㅏ -12654
▁ㅂㅏㄹㅊㅏ -12655
▁ㅂㅕㄴㅈㅔ -12656
▁ㅍㅜㅁㄹㅠ -12657
ㅇㅓㅁㄹㅕㅇ -12658
ㅈㅣㄴㄹㅕㄱ -12659
ㅎㅚㄱㅇㅏㄴ -12660
▁Summer -12661
▁ㄴㅜㄴㄱㅣㄹ -12662
▁ㅁㅕㅇㅈㅏㄱ -12663
▁ㅂㅏㄴㄴㅕㄴ -12664
▁ㅂㅕㅇㅊㅏㅁ -12665
▁ㅂㅣㄹㄹㅓㅁ -12666
▁ㅅㅓㅇㅇㅏㄴ -12667
▁ㅍㅜㄹㄹㅓㅁ -12668
▁ㅍㅜㅇㄹㅕㄱ -12669
▁ㅍㅜㅇㅅㅓㄴ -12670
▁ㅎㅏㄴㅎㅏㄱ -12671
▁Hz -12672
▁Nt -12673
▁ㅉㅓ -12674
apan -12675
▁262 -12676
▁Die -12677
▁ㅃㅓㄹ -12678
ouble -12679
ㄱㅏㄴㄷㅡ -12680
ㄷㅔㄴㅇㅓ -12681
ㄹㅓㅂㅌㅡ -12682
ㅅㅓㅇㅂㅜ -12683
ㅇㅏㄴㄷㅔ -12684
▁ㅇㅏㄴㅅㅏ -12685
▁ㅇㅔㄴㅅㅣ -12686
▁ㅈㅣㄴㅈㅏ -12687
▁ㅅㅣㅁㅂㅗㄱ -12688
▁ㅇㅝㄴㄱㅘㅇ -12689
▁ㅇㅣㄴㅇㅘㅇ -12690
▁ㅊㅣㅂㅅㅔㅅ -12691
▁ㅍㅐㄴㄷㅓㅁ -12692
▁ㅍㅐㄹㅋㅓㄴ -12693
▁ㅎㅏㅇㅂㅓㅂ -12694
▁ㅇㅕㅇㄱㅘㅇㄱㅜㄴ -12695
▁NO -12696
▁Ver -12697
▁ㅁㅔㅇ -12698
▁ㅈㅟㄹ -12699
ㄱㅏㅇㄷㅗ -12700
ㅇㅜㄴㅅㅏ -12701
▁ㄱㅣㅁㅁㅣ -12702
▁ㅅㅣㅁㄷㅗ -12703
▁ㅈㅣㅂㅁㅜ -12704
▁ㅎㅏㅂㅅㅔ -12705
ㅈㅓㄴㅊㅜㄱ -12706
▁ㄱㅕㄱㅂㅜㄴ -12707
▁ㄱㅕㅇㅇㅘㅇ -12708
▁ㄴㅜㄴㅆㅓㅂ -12709
▁ㄷㅏㄹㅂㅣㅊ -12710
▁ㅂㅏㄱㅎㅕㄴ -12711
▁ㅂㅕㅇㄷㅡㄹ -12712
▁ㅅㅕㄹㄹㅗㄱ -12713
▁ㅇㅕㄱㅇㅣㄴ -12714
▁ㅈㅣㄴㅂㅓㅂ -12715
▁ㅌㅏㄹㅇㅗㄱ -12716
▁ㅁㅜㄴㅎㅏㄱㅂㅜ -12717
▁ㄱㅕㅇㄷㅓㄱㅇㅘㅇ -12718
▁ㄱㅡㄱㄹㅏㄱㅈㅓㄴ -12719
▁ㅂㅜㄹㅁㅕㅇㅎㅘㄱ -12720
▁Mk -12721
▁fe -12722
ling -12723
▁Fun -12724
▁Soc -12725
ㅁㅔㄴㅌㅗ -12726
ㅌㅐㄴㄷㅏ -12727
▁ㄱㅕㅇㅋㅙ -12728
▁ㄴㅣㄹㅅㅡ -12729
▁ㄷㅗㅇㄱㅡ -12730
▁ㅈㅏㅇㅈㅜ -12731
▁ㅍㅕㄴㄷㅐ -12732
ㄱㅡㄱㅇㅣㄴ -12733
ㅍㅗㄹㄹㅗㄴ -12734
ㅎㅐㅇㄹㅕㅇ -12735
▁ㅁㅏㄹㅇㅕㅂ -12736
▁ㅅㅡㅂㅈㅏㄱ -12737
▁ㅈㅏㅇㄱㅗㅇ -12738
UL -12739
raw -12740
itch -12741
▁MLS -12742
▁Swe -12743
▁Moon -12744
ㄱㅏㄴㅍㅛ -12745
ㅁㅐㄴㄷㅡ -12746
ㅂㅏㄹㄷㅣ -12747
ㅇㅝㄹㅈㅜ -12748
ㅇㅣㄴㅎㅏ -12749
▁Enter -12750
▁ㄱㅏㄱㅎㅏ -12751
▁ㅂㅏㅇㅍㅏ -12752
▁ㄴㅏㄱㅇㅝㄴ -12753
▁ㅂㅏㅇㅈㅣㄱ -12754
▁ㅂㅐㄱㄹㅕㄴ -12755
▁ㅂㅗㄴㅈㅓㄱ -12756
▁ㅊㅓㄹㄱㅏㅂ -12757
▁ㅍㅕㅇㅇㅗㄴ -12758
▁ㅎㅏㄴㅅㅏㅇ -12759
▁ㄱㅕㄹㄹㅗㄴㅈㅣ -12760
▁ㄱㅘㅇㅅㅏㄴㄱㅜ -12761
▁ㅈㅜㅇㄱㅕㄴㅅㅜ -12762
▁Sn -12763
ㅍㅣㅅ -12764
▁AEK -12765
▁ㅆㅣㅂ -12766
ㄱㅏㄴㄱㅗ -12767
▁ㄴㅗㅇㄴㅗ -12768
▁ㅂㅓㅂㅅㅏ -12769
▁ㅇㅓㅁㅎㅗ -12770
▁ㅈㅣㅂㄱㅔ -12771
▁ㅎㅘㄴㅎㅗ -12772
ㄱㅘㄴㅊㅏㄹ -12773
ㅅㅓㅇㅇㅣㄴ -12774
▁ㅇㅠㄱㅇㅏㄴ -12775
▁ㅎㅘㄴㄱㅏㄱ -12776
▁ㅇㅘㄴㅂㅕㄱㅎㅣ -12777
▁ㄷㅗㅇㅇㅕㄱㅎㅏㄱ -12778
▁ㅎㅏㄱㅅㅜㄹㅇㅝㄴ -12779
▁ㅎㅏㅇㄷㅡㅇㅅㅣㄱ -12780
▁KM -12781
ㄸㅗㄱ -12782
▁ㄱㅡㄺ -12783
▁Team -12784
▁poem -12785
ㄸㅏㅇㅎㅣ -12786
ㄹㅣㅁㄹㅣ -12787
▁ㄴㅏㄴㅎㅐ -12788
▁ㅁㅗㅇㄱㅜ -12789
▁ㅁㅗㅇㅋㅣ -12790
▁ㅁㅜㄴㅇㅢ -12791
▁ㅅㅏㄴㄱㅐ -12792
▁ㅇㅝㄴㅊㅗ -12793
▁ㅎㅏㄱㅁㅜ -12794
ㄱㅗㅇㄱㅕㄱ -12795
ㅇㅘㅇㅅㅓㅇ -12796
ㅈㅣㄴㄷㅗㅇ -12797
▁ㅂㅐㄱㅎㅏㅂ -12798
▁ㅂㅣㅇㅅㅏㅇ -12799
▁ㅅㅣㄴㅊㅜㄴ -12800
▁ㅇㅜㄴㅁㅜㄴ -12801
▁ㅊㅓㄴㅅㅓㅇ -12802
▁ㄱㅘㅇㅇㅑㅇㅅㅣ -12803
▁ㄷㅏㅇㅂㅜㄴㄱㅏㄴ -12804
▁ㅂㅜㄹㅇㅏㄴㄱㅏㅁ -12805
ㄹㄷㅡ -12806
ㅋㅏㅁ -12807
reet -12808
ress -12809
▁1453 -12810
▁1778 -12811
▁1780 -12812
▁1817 -12813
ㄷㅔㄹㅂㅔ -12814
ㅂㅏㄴㅅㅡ -12815
▁ㄱㅏㅇㅌㅐ -12816
▁ㄱㅡㄹㅆㅡ -12817
▁ㅁㅣㅌㅂㅏ -12818
▁ㅂㅓㄴㄱㅏ -12819
▁ㅅㅣㄹㅁㅏ -12820
▁ㅇㅕㅇㄱㅏ -12821
ㅈㅏㄱㅈㅓㅁ -12822
▁ㄱㅡㅁㅈㅓㅇ -12823
▁ㄱㅡㅂㅅㅣㄱ -12824
▁ㅇㅝㄴㄱㅕㅇ -12825
▁ㅈㅣㄴㅅㅏㄴ -12826
▁ㅋㅡㄹㄹㅐㄴ -12827
▁ㅋㅡㄹㄹㅐㅂ -12828
▁ㅍㅕㅇㄷㅏㄴ -12829
▁ㄱㅏㄴㄷㅏㅁㅎㅚ -12830
▁ㄱㅏㅇㄱㅕㅇㅍㅏ -12831
▁ㅁㅗㅇㄱㅗㄹㅇㅓ -12832
▁ㅈㅣㄱㅅㅓㄴㅈㅔ -12833
▁ㅅㅓㅇㅈㅏㅇㄹㅠㄹ -12834
▁Sil -12835
▁ㅉㅜㄱ -12836
▁1763 -12837
▁SEED -12838
ㄱㅕㄹㅅㅏ -12839
▁First -12840
▁Stage -12841
▁ㄱㅣㄹㄹㅣ -12842
▁ㄱㅣㅁㅅㅏ -12843
▁ㅇㅕㄴㅈㅔ -12844
▁ㅇㅝㄴㄹㅠ -12845
▁ㅎㅏㄴㅇㅜ -12846
ㄹㅗㄱㅁㅜㄹ -12847
ㄹㅠㄱㄱㅜㄴ -12848
▁ㄴㅜㄴㄱㅡㅁ -12849
▁ㅇㅑㅇㅁㅕㅇ -12850
▁ㅇㅣㅁㅇㅕㅇ -12851
▁ㅈㅘㅇㅈㅗㄱ -12852
▁ㅎㅏㄴㅇㅣㄹ -12853
ㅇㅕㅁㅂㅏㄱㅈㅟ -12854
▁ㅂㅓㅂㅅㅏㅇㅈㅗㅇ -12855
ope -12856
ival -12857
▁ㄲㅘㄱ -12858
▁1825 -12859
▁ㅈㅓㅁㅈㅏ -12860
▁ㅎㅗㄴㅅㅜ -12861
ㄷㅗㄱㅅㅓㅇ -12862
ㅈㅏㄱㄴㅗㅇ -12863
▁ㅂㅏㄴㅅㅗㅇ -12864
▁ㅂㅣㄴㅎㅕㄹ -12865
▁ㅈㅏㅇㄷㅗㅇ -12866
▁ㅎㅡㅇㄱㅜㄱ -12867
▁ㄱㅘㄴㅂㅏㄱㅈㅟ -12868
▁ㄱㅡㅁㅈㅓㅇㄱㅜ -12869
▁ㅈㅜㅇㅇㅏㅇㅇㅠ -12870
▁ㅅㅓㄴㅇㅣㄴㅈㅏㅇ -12871
▁ed -12872
▁333 -12873
▁ㄴㅔㅂ -12874
ㅊㅗㅇㅈㅐ -12875
▁Album -12876
▁ㅅㅓㅁㄴㅔ -12877
▁ㅇㅝㄴㅇㅓ -12878
▁ㅋㅗㅂㅌㅡ -12879
ㅈㅜㅇㅇㅏㅇ -12880
▁ㄱㅣㅁㄴㅏㅁ -12881
▁ㅇㅛㅇㄷㅏㅁ -12882
▁ㅇㅜㄹㅊㅏㅇ -12883
▁ㅊㅓㄴㅇㅓㄱ -12884
▁ㅌㅗㅇㅎㅏㄱ -12885
▁ㅎㅡㄱㅇㅕㄴ -12886
▁ㅈㅣㅂㅈㅓㄱㅎㅚ -12887
▁ㅎㅜㄴㄹㅕㄴㅈㅏㅇ -12888
▁ㅎㅏㄴㄱㅜㄱㅈㅓㄴㄹㅕㄱ -12889
▁ㄱㅝ -12890
ㄲㅘㅇ -12891
ican -12892
▁Cre -12893
▁ㅌㅜㄱ -12894
ㄴㅑㅇㄱㅐ -12895
ㄷㅓㅍㅇㅣ -12896
ㅂㅕㄴㅅㅏ -12897
ㅅㅏㅇㅂㅜ -12898
▁ㄹㅏㅁㄷㅏ -12899
▁ㅂㅗㄹㅅㅡ -12900
▁ㅂㅗㅇㅌㅗ -12901
▁ㅇㅕㄹㄴㅕ -12902
▁ㅈㅗㅇㅇㅟ -12903
ㄱㅗㄱㅈㅓㄹ -12904
ㄹㅛㅇㅅㅏㄴ -12905
▁ㄱㅏㄴㄱㅡㄱ -12906
▁ㄱㅘㄴㄹㅣㅂ -12907
▁ㄱㅣㅁㅊㅓㄹ -12908
▁ㄷㅗㄱㅎㅏㄱ -12909
▁ㅇㅣㄴㅁㅗㄱ -12910
▁ㄱㅏㅇㅇㅕㄴㅎㅚ -12911
ino -12912
oom -12913
▁AW -12914
ㅈㅓㅅ -12915
▁Dig -12916
ㅇㄱㅔㄴ -12917
▁Happ -12918
ㅊㅏㄹㅅㅏ -12919
▁ㄱㅗㄱㅅㅏ -12920
▁ㄷㅏㄴㄷㅏ -12921
▁ㅅㅓㅇㄴㅏ -12922
▁ㅇㅑㅇㅌㅐ -12923
▁ㅇㅝㄴㄱㅜ -12924
▁ㅎㅚㅇㅍㅗ -12925
ㅂㅏㅇㄱㅘㅇ -12926
ㅇㅣㄹㅈㅓㅁ -12927
▁Little -12928
▁ㄱㅐㅅㅂㅓㄹ -12929
▁ㄷㅗㅇㄱㅜㅇ -12930
▁ㅂㅓㅁㅈㅗㅇ -12931
▁ㅈㅓㅇㅇㅐㄱ -12932
▁ㄱㅘㄴㅊㅡㄱㅈㅏ -12933
ha -12934
ely -12935
▁Pet -12936
ㄷㅗㄴㄴㅏ -12937
ㄹㅓㄴㄷㅡ -12938
ㄹㅔㄴㅂㅜ -12939
ㅊㅔㄹㄹㅣ -12940
▁ㅁㅐㄱㄱㅡ -12941
▁ㅁㅐㅇㅈㅏ -12942
▁ㅅㅣㄱㅅㅜ -12943
▁ㅅㅣㄹㄹㅔ -12944
▁ㅅㅣㅁㅊㅟ -12945
▁ㅇㅑㅇㄱㅣ -12946
▁ㅇㅗㄻㄱㅕ -12947
▁ㅈㅓㄴㅊㅗ -12948
▁ㅍㅗㄹㄷㅡ -12949
▁ㄱㅗㄱㅅㅓㅇ -12950
▁ㄴㅗㄱㅎㅜㄴ -12951
▁ㅅㅏㅇㅈㅓㄴ -12952
▁ㅅㅓㅇㄱㅜㄴ -12953
▁ㅇㅣㅂㅂㅏㅇ -12954
▁ㅈㅓㄴㄷㅡㅇ -12955
▁ㅎㅏㅇㄷㅡㅇ -12956
▁ㅎㅗㅇㅈㅜㄴ -12957
▁ㅂㅐㄱㅎㅕㄹㅂㅕㅇ -12958
▁ㅅㅗㅇㅈㅜㄴㄱㅣㄹ -12959
yr -12960
ㅃㅣ -12961
ves -12962
▁313 -12963
▁var -12964
▁1593 -12965
▁1788 -12966
▁2024 -12967
ㄱㅏㄱㄱㅣ -12968
▁ㄱㅜㄴㅇㅢ -12969
▁ㅇㅟㅅㅅㅜ -12970
ㅅㅣㄴㅎㅕㅇ -12971
ㅇㅛㅇㄱㅜㄴ -12972
ㅈㅏㅇㅇㅏㅁ -12973
▁ㄱㅓㅁㅇㅕㄱ -12974
▁ㅅㅣㄴㅅㅣㄱ -12975
▁ㅇㅑㅇㄱㅘㅇ -12976
▁ㅇㅕㄹㅎㅕㄹ -12977
▁ㅇㅘㄴㄱㅏㅇ -12978
▁ㅈㅓㅇㅁㅗㅇ -12979
▁ㅈㅡㄱㅅㅓㄱ -12980
▁ㄱㅜㄱㅁㅣㄴㄷㅐ -12981
▁ㅁㅜㄹㅂㅕㅇㅈㅏ -12982
▁ㅈㅓㄱㅎㅕㄹㄱㅜ -12983
▁ㅈㅓㅇㅅㅏㅇㅂㅜ -12984
▁ㄱㅣㅁㅎㅗㅇㅈㅣㅂ -12985
▁ㅅㅣㄴㄱㅕㅇㅁㅏㅇ -12986
PG -12987
ts -12988
ird -12989
ㅇㅏㄴㅌㅏ -12990
ㅇㅣㅁㅅㅐ -12991
▁ㄴㅏㅁㄷㅗ -12992
▁ㅁㅜㄴㅎㅗ -12993
ㅅㅐㄱㅂㅣㅊ -12994
▁ㄷㅗㅇㅅㅓㄴ -12995
▁ㅅㅓㄴㅈㅓㄱ -12996
▁ㅇㅕㅂㄹㅗㄱ -12997
▁ㅇㅕㅇㄱㅗㅇ -12998
▁function -12999
▁ㄱㅣㅁㅈㅓㅇㅎㅢ -13000
▁ㅂㅏㅇㅌㅏㄴㅅㅗ -13001
▁ㅅㅐㅇㅅㅏㄴㅁㅜㄹ -13002
ike -13003
▁MI -13004
ㄴㅡㅁ -13005
▁SAR -13006
▁main -13007
ㅈㅓㄴㅅㅓ -13008
▁Never -13009
▁ㅎㅘㄹㅎㅘ -13010
ㅅㅓㅇㅂㅜㄴ -13011
ㅉㅐㅆㄷㅡㄴ -13012
▁ㅋㅏㄹㄴㅏㄹ -13013
ze -13014
ler -13015
ris -13016
▁OL -13017
ㅁㅜㅅㄱㅏ -13018
ㅇㅑㄱㅈㅏ -13019
ㅈㅣㄹㄱㅣ -13020
ㅋㅝㄴㅅㅡ -13021
ㅌㅓㄹㄹㅜ -13022
ㅍㅣㄴㅅㅡ -13023
▁ㅁㅣㄴㅋㅗ -13024
▁ㅈㅜㄴㅇㅣ -13025
▁ㅍㅓㅁㅇㅞ -13026
▁ㄴㅏㄱㄱㅘㄴ -13027
▁ㅁㅏㄱㅁㅏㄹ -13028
▁ㅅㅜㄴㅇㅡㅇ -13029
▁ㅇㅑㅇㅈㅣㄹ -13030
▁ㅇㅕㄱㅈㅓㄱ -13031
▁ㅊㅏㅁㄱㅘㄴ -13032
▁ㅎㅐㅇㄱㅏㄱ -13033
▁ㄴㅏㅁㄷㅗㅇㄱㅜ -13034
▁ㅂㅏㄴㅎㅕㄱㅁㅕㅇ -13035
get -13036
▁VL -13037
▁323 -13038
▁MBN -13039
▁PSP -13040
▁ㄷㅚㄴ -13041
▁ㅎㅗㅌ -13042
ㅇㅓㅂㅂㅣ -13043
ㅋㅔㄴㅈㅣ -13044
▁right -13045
▁ㄱㅗㅇㅇㅟ -13046
▁ㄱㅘㅇㄱㅐ -13047
▁ㄴㅗㄱㅈㅗ -13048
▁ㅁㅏㄱㅅㅏ -13049
▁ㅁㅏㅇㄹㅏ -13050
▁ㅂㅕㅇㅅㅔ -13051
▁ㅅㅔㄹㄹㅣ -13052
▁ㅅㅗㅇㅅㅜ -13053
▁ㅇㅑㅇㅎㅘ -13054
▁ㅇㅘㄴㅍㅐ -13055
ㅇㅜㄹㅇㅕㄱ -13056
▁ㅂㅏㄱㅅㅜㄴ -13057
▁ㅊㅗㅇㅌㅏㄴ -13058
▁ㅍㅕㄴㄴㅕㄴ -13059
▁ㅍㅕㅇㅇㅕㅇ -13060
▁ㄱㅕㅇㅅㅏㄴㅅㅣ -13061
▁ㄱㅘㄴㅊㅡㄱㅅㅗ -13062
▁ㅅㅗㄱㅇㅣㅁㅅㅜ -13063
▁ㅅㅏㅇㅅㅏㅇㄹㅕㄱ -13064
▁ㅇㅏㄱㅇㅕㅇㅎㅑㅇ -13065
RA -13066
yc -13067
ECT -13068
ESA -13069
uman -13070
▁229 -13071
▁960 -13072
▁ㅈㅓㅅ -13073
▁ㄷㅏㄴㅂㅜ -13074
▁ㅇㅑㄱㅊㅔ -13075
▁ㅇㅞㅂㅅㅡ -13076
▁ㅌㅓㅇㅅㅡ -13077
▁ㅎㅜㄴㄱㅜ -13078
ㅅㅏㅇㄱㅡㅂ -13079
ㅇㅕㄹㅇㅡㅁ -13080
▁ㅁㅏㄴㅎㅐㅇ -13081
▁ㅅㅏㅇㅎㅏㄱ -13082
▁ㅅㅓㅇㅅㅣㄴ -13083
▁ㅇㅓㅁㅈㅜㅇ -13084
▁ㅇㅕㄴㄱㅕㅇ -13085
▁ㅈㅓㄴㅍㅕㄴ -13086
▁ㅈㅣㄴㄷㅏㄹ -13087
▁ㅍㅕㄴㄱㅘㅇ -13088
uro -13089
▁Sky -13090
▁Plan -13091
ㅅㅓㄴㅇㅓ -13092
ㅇㅓㅁㅊㅣ -13093
▁ㄴㅏㅂㅅㅔ -13094
▁ㅇㅑㄱㅊㅗ -13095
▁ㅇㅛㅇㅁㅗ -13096
▁ㅈㅡㅇㅂㅗ -13097
ㄱㅣㄹㄷㅗㅇ -13098
▁ㄱㅜㄹㅊㅏㄱ -13099
▁ㄴㅏㅁㅁㅕㄴ -13100
▁ㄷㅗㅇㄱㅏㅇ -13101
▁ㅁㅜㄱㅅㅏㄹ -13102
▁ㅅㅣㅁㄱㅕㅇ -13103
▁ㅇㅘㅇㅅㅏㅇ -13104
▁ㅌㅣㅁㅇㅝㄴ -13105
▁ㅎㅏㄱㅅㅏㅇ -13106
▁ㅅㅣㄴㄱㅏㄴㅎㅚ -13107
▁ㅈㅣㄴㅎㅐㅇㅎㅏ -13108
▁860 -13109
ㅕㄹㄹㅔ -13110
▁1797 -13111
▁1838 -13112
ㄱㅜㄴㅈㅜ -13113
ㅅㅏㅇㄱㅜ -13114
▁ㅌㅗㅇㅅㅜ -13115
▁ㄱㅗㅇㄹㅗㄴ -13116
▁ㄱㅜㄱㄱㅝㄴ -13117
▁ㅂㅐㄱㅅㅓㄱ -13118
▁ㅇㅏㄹㄹㅏㄴ -13119
▁ㄲㅡㄴㅈㅣㄹㄱㅣ -13120
▁ㅈㅏㅇㄷㅓㄱㅅㅜ -13121
▁ㅈㅣㅂㅎㅏㅂㅊㅔ -13122
▁ㅈㅣㄴㅊㅓㄴㄱㅜㄴ -13123
▁ㄱㅜㄱㅁㅣㄴㅈㅓㅇㅂㅜ -13124
AND -13125
▁If -13126
▁MG -13127
ㅂㅌㅣ -13128
▁353 -13129
▁Pla -13130
▁1636 -13131
▁1828 -13132
ㅂㅕㄹㅊㅗ -13133
ㅇㅏㄴㄷㅐ -13134
ㅊㅜㄴㅊㅜ -13135
▁ㅂㅓㅂㅇㅢ -13136
▁ㅇㅛㅇㅎㅗ -13137
▁ㅊㅏㅁㅇㅡ -13138
▁ㅎㅘㅇㄱㅣ -13139
ㅂㅏㅇㅇㅝㄴ -13140
ㅌㅡㄹㄹㅏㄴ -13141
▁ㄱㅡㅁㅂㅏㄹ -13142
▁ㅁㅏㅈㅁㅓㄱ -13143
▁ㅅㅣㄴㄱㅕㄱ -13144
▁ㅅㅣㄴㅈㅡㅇ -13145
▁ㅇㅕㄱㄱㅘㄴ -13146
▁ㅇㅣㅁㅅㅓㅇ -13147
▁ㅈㅏㅇㅁㅏㄱ -13148
▁ㅈㅓㄴㄱㅡㄴ -13149
▁ㅋㅡㅁㅈㅣㄱ -13150
▁ㄹㅗㄱㅍㅔㄹㄹㅓ -13151
▁ㅇㅑㅇㅅㅓㅇㅅㅗ -13152
▁ㅋㅗㄴㅋㅡㄹㄹㅏ -13153
▁ㅅㅜㄴㅎㅘㄴㅅㅓㄴ -13154
ars -13155
umb -13156
▁306 -13157
▁POP -13158
▁TCP -13159
▁Tom -13160
ㅅㅏㅇㄱㅣ -13161
ㅎㅏㄱㅎㅚ -13162
▁ㄱㅓㄴㄷㅡ -13163
▁ㄷㅗㄹㅇㅣ -13164
▁ㅂㅏㄴㅈㅔ -13165
▁ㅊㅏㅁㄴㅏ -13166
▁ㅎㅘㅇㅌㅗ -13167
ㄱㅘㄴㄱㅘㅇ -13168
ㅂㅜㄴㅂㅓㅂ -13169
▁ㄱㅘㅇㄹㅡㅇ -13170
▁ㅁㅓㄹㄹㅣㄴ -13171
▁ㅂㅏㄴㅉㅏㄱ -13172
▁ㅂㅏㅇㅈㅣㄴ -13173
▁ㅇㅝㄴㄷㅏㅇ -13174
▁ㅈㅓㅂㄱㅕㄴ -13175
▁ㅈㅓㅇㅈㅜㄴ -13176
▁ㅈㅣㅇㅂㅏㄹ -13177
▁ㅌㅏㅁㅎㅓㅁㄷㅐ -13178
▁ㅎㅏㅂㄱㅕㄱㅈㅏ -13179
▁ㄱㅗㅇㅈㅏㄱㅇㅝㄴ -13180
▁ㄴㅏㅁㅂㅜㄱㅎㅏㄴ -13181
ACK -13182
▁Ap -13183
▁RAM -13184
▁app -13185
▁Conc -13186
▁Hist -13187
▁part -13188
▁ㅂㅜㅅㄷㅏ -13189
▁ㅂㅣㅇㄱㅡ -13190
▁ㅇㅏㅁㅅㅏ -13191
▁ㅊㅣㄴㅇㅏ -13192
ㄱㅡㅂㅍㅜㅁ -13193
ㅅㅓㅇㅈㅏㅇ -13194
ㅊㅏㄱㄹㅠㄱ -13195
ㅊㅣㅁㅂㅏㄴ -13196
▁ㄱㅓㅁㄷㅏㄴ -13197
▁ㄱㅕㅇㄷㅏㅇ -13198
▁ㄱㅜㅇㅍㅣㅂ -13199
▁ㅁㅏㄹㄸㅜㄱ -13200
▁ㅇㅏㄱㅁㅗㅇ -13201
▁ㅇㅕㅁㅈㅓㄴ -13202
▁ㅎㅗㅇㅈㅜㄴㅍㅛ -13203
ㅂㅐㄱㅅㅏㄴㅁㅐㄱ -13204
▁ㅈㅏㅇㅎㅡㅇㄱㅜㄴ -13205
▁ㅈㅓㄴㅂㅗㅇㅈㅜㄴ -13206
▁ph -13207
▁so -13208
ㅂㅣㅁ -13209
▁266 -13210
ㄱㅓㄴㅅㅡ -13211
ㅁㅔㄹㄹㅗ -13212
ㅌㅗㅂㅅㅡ -13213
ㅎㅏㄴㄴㅏ -13214
▁Gener -13215
▁ㄷㅏㄴㅊㅜ -13216
▁ㅁㅕㅇㄹㅏㅇ -13217
▁ㅈㅗㅇㅂㅕㄹ -13218
▁ㅊㅜㄹㅁㅗㄹ -13219
▁ㅎㅏㄴㄱㅜㄱㅇㅣㄹㅂㅗ -13220
err -13221
▁Sa -13222
ㄴㅜㅅ -13223
▁810 -13224
▁980 -13225
▁STX -13226
▁bes -13227
▁der -13228
▁1777 -13229
▁8859 -13230
ㄷㅏㄹㄹㅔ -13231
ㅇㅘㅇㄷㅗ -13232
▁ㄱㅏㅇㄱㅣ -13233
▁ㄹㅜㄴㄷㅡ -13234
▁ㅁㅏㅇㅌㅗ -13235
▁ㅁㅐㄱㄹㅏ -13236
▁ㅇㅡㅁㄱㅖ -13237
▁ㅈㅏㄴㅈㅐ -13238
▁ㅌㅏㅁㄹㅏ -13239
▁ㅍㅏㄴㅇㅢ -13240
▁ㅍㅣㄴㅊㅣ -13241
ㄱㅕㅇㅅㅓㄱ -13242
▁ㅁㅜㄹㄹㅑㅇ -13243
▁ㅅㅓㄱㅅㅣㄹ -13244
▁ㅅㅓㅂㄷㅗㅇ -13245
▁ㅇㅏㄱㅇㅛㅇ -13246
▁ㅇㅕㄱㄱㅕㅇ -13247
▁ㅅㅡㄹㄹㅓㅁㅍㅡ -13248
▁ㄱㅏㅂㅅㅏㅇㅅㅓㄴ -13249
▁ㅊㅜㅇㅅㅓㄴㅇㅘㅇ -13250
ㅝㅇ -13251
▁Da -13252
▁__ -13253
▁px -13254
ㅌㅐㅂ -13255
▁May -13256
▁SUV -13257
▁ㅌㅓㅅ -13258
ㅇㅔㄴㄷㅡ -13259
▁ㄴㅏㄴㅅㅗ -13260
▁ㄴㅏㅁㅅㅏ -13261
▁ㄴㅔㄹㄹㅣ -13262
▁ㅂㅜㄴㄱㅏ -13263
▁ㅇㅣㄴㄴㅐ -13264
▁ㅈㅓㄴㅇㅜ -13265
▁ㅍㅕㅇㅅㅣ -13266
▁ㄴㅗㅇㅅㅣㅁ -13267
▁ㅅㅓㄱㅈㅏㅇ -13268
▁ㅈㅓㅇㄹㅡㅇ -13269
▁ㅈㅜㄴㅇㅛㅇ -13270
▁ㅈㅣㄴㅈㅜㅇ -13271
▁ㅎㅏㄴㅌㅏㄴ -13272
▁ㅅㅏㅁㅅㅓㅇㄱㅡ -13273
▁ㅈㅓㄴㅇㅛㅇㄷㅗ -13274
ific -13275
▁Gold -13276
ㄱㅏㄱㅅㅣ -13277
ㅂㅏㄹㄹㅔ -13278
ㅅㅡㅇㅎㅗ -13279
ㅇㅏㄹㄷㅔ -13280
ㅇㅜㄴㅅㅠ -13281
ㅎㅘㄴㅈㅏ -13282
▁ㄷㅟㅅㅂㅜ -13283
▁ㅅㅏㄹㅍㅗ -13284
▁ㄴㅏㄱㅈㅓㅁ -13285
▁ㅂㅏㄴㅊㅣㄱ -13286
▁ㅅㅏㅇㅅㅏㄴ -13287
▁ㅇㅏㄱㅎㅐㅇ -13288
▁ㅇㅗㄱㅅㅏㄴ -13289
▁ㅇㅝㄹㄷㅡㅇ -13290
▁ㅈㅏㅇㅁㅕㅇ -13291
▁ㅈㅣㄱㅇㅕㄱ -13292
▁ㅈㅣㄹㄱㅏㅁ -13293
▁ㅈㅏㅇㅅㅣㄴㄱㅜ -13294
▁ㅈㅓㅇㅅㅣㄴㅂㅕㅇ -13295
▁ㅎㅏㄴㄱㅜㄱㅇㅡㄴㅎㅐㅇ -13296
ero -13297
▁DT -13298
▁.." -13299
▁249 -13300
▁257 -13301
▁273 -13302
▁GHz -13303
▁Nor -13304
itude -13305
umber -13306
ㄹㅡㅇㅈㅣ -13307
ㅅㅓㅇㅊㅔ -13308
ㅎㅏㄴㄷㅐ -13309
▁ㅂㅜㄱㅈㅜ -13310
▁ㅅㅏㅁㄷㅗ -13311
ㅂㅏㅇㅇㅣㄴ -13312
ㅇㅕㄱㅍㅗㄱ -13313
ㅈㅓㄴㅅㅓㄹ -13314
▁ㄱㅘㄴㅇㅣㄴ -13315
▁ㅁㅏㅇㅅㅓㄹ -13316
▁ㅂㅕㄴㅁㅕㅇ -13317
▁ㅇㅏㄴㄱㅜㄱ -13318
ㅎㅏㄴㅊㅜㄱㄱㅜ -13319
▁ㅇㅣㄴㄷㅔㄱㅅㅡ -13320
▁ㅈㅓㄴㄹㅏㅁㅎㅚ -13321
▁ㅈㅜㅇㅇㅏㅇㄷㅗㅇ -13322
▁MO -13323
▁Vo -13324
▁880 -13325
▁OFC -13326
ㄹㄹㅔㅅ -13327
▁ㄹㅣㅂㅅㅡ -13328
▁ㅇㅏㄴㅁㅏ -13329
▁ㅇㅓㅁㅎㅏ -13330
ㅅㅓㄴㅁㅜㄴ -13331
ㅇㅑㅇㅇㅣㄴ -13332
▁ㅇㅕㄴㅈㅓㅂ -13333
▁ㄱㅡㄴㅇㅕㄴㅈㅗㅇ -13334
▁ㅇㅑㅇㅇㅑㅇㄱㅜㄴ -13335
▁ㅇㅕㄴㅁㅕㄴㅈㅓㄱ -13336
▁ㅅㅓㄱㅂㅜㄹㅇㅣㅂㅅㅏㅇ -13337
ren -13338
▁ㄹㅓㅂ -13339
ㄹㅗㄱㅅㅡ -13340
▁ㅁㅏㅁㄹㅜ -13341
▁ㅂㅣㄴㅅㅡ -13342
▁ㅍㅐㄱㅌㅓ -13343
ㅂㅗㄴㄱㅡㅁ -13344
ㅅㅜㄹㅇㅣㄴ -13345
▁ㅅㅗㄱㅇㅗㅅ -13346
▁ㅅㅗㄴㅈㅏㅂ -13347
▁ㅈㅓㅇㄱㅘㅇ -13348
ㅋㅗㄴㅅㅣㄴㅈㅜ -13349
▁ㅂㅡㄹㄹㅗㄱㅊㅔ -13350
▁ㅈㅜㅇㄴㅏㅁㅂㅜ -13351
▁KP -13352
▁TE -13353
▁ㄹㅕㅁ -13354
▁ㅊㅏㅅ -13355
ㄱㅏㄹㄹㅗ -13356
ㄷㅡㄱㅅㅔ -13357
▁ㅅㅏㅁㅂㅗ -13358
ㅁㅣㅇㅌㅓㄴ -13359
ㅈㅓㄴㅇㅕㄱ -13360
olution -13361
▁ㅁㅏㄴㅇㅣㄴ -13362
▁ㅂㅜㄹㅇㅕㄴ -13363
▁ㅅㅗㄱㄱㅗㄱ -13364
▁ㅇㅓㄴㅇㅑㅇ -13365
▁ㅇㅗㄴㅁㅗㅁ -13366
▁ㅎㅘㄴㄱㅗㅇ -13367
▁ㅇㅠㄴㅇㅝㄴㅎㅕㅇ -13368
ㅍㅓㄴㄷㅡㄹㄹㅐㄴㄷㅡ -13369
▁Pi -13370
▁RX -13371
▁ㅋㅑ -13372
ross -13373
▁404 -13374
▁SNK -13375
ㅅㅔㄹㄹㅣ -13376
▁ㅊㅓㄴㅎㅗ -13377
▁ㅋㅗㄹㅌㅡ -13378
▁ㄱㅕㅇㅎㅏㄱ -13379
▁ㄱㅗㅇㅂㅓㅁ -13380
▁ㄱㅗㅇㅅㅓㅇ -13381
▁ㄱㅣㅁㅅㅣㄴ -13382
ㅂㅏㅇㅂㅗㄴㅂㅜ -13383
▁ㅊㅗㅇㄱㅏㅁㄷㅗㄱ -13384
▁ㄱㅜㄱㅁㅣㄴㅇㅡㄴㅎㅐㅇ -13385
els -13386
ㄷㅔㅁ -13387
▁620 -13388
▁Vir -13389
▁res -13390
ㅅㅏㄴㅈㅗ -13391
ㅌㅔㄴㄷㅣ -13392
▁Japan -13393
▁ㄱㅓㄴㄱㅣ -13394
▁ㅂㅓㄹㅆㅓ -13395
▁ㅂㅕㄴㅇㅟ -13396
▁ㅂㅗㄹㅊㅡ -13397
▁ㅈㅣㄴㅅㅣ -13398
▁ㅋㅕㄹㄹㅔ -13399
▁ㄱㅡㄴㅈㅓㄹ -13400
▁ㅁㅜㄹㄷㅡㄹ -13401
▁ㅇㅏㅂㅅㅡㅇ -13402
▁ㅋㅐㄹㅂㅣㄴ -13403
▁ㅅㅏㅁㅊㅓㄱㅅㅣ -13404
▁ㅅㅔㄹㄹㅜㄹㄹㅗ -13405
▁ㅇㅕㅇㅇㅑㅇㅂㅜㄴ -13406
era -13407
▁CW -13408
▁Rh -13409
ㅅㅣㅅ -13410
less -13411
▁236 -13412
▁But -13413
▁1784 -13414
▁ISIL -13415
ㄷㅡㅇㄱㅣ -13416
ㄹㅣㄴㅎㅘ -13417
ㅈㅓㅇㅅㅓ -13418
▁ㄱㅐㄹㄹㅣ -13419
▁ㅂㅏㅇㅇㅏ -13420
▁ㅂㅓㅂㅊㅣ -13421
▁ㅂㅗㄹㄱㅓ -13422
▁ㅅㅓㄱㅈㅘ -13423
▁ㅉㅣㄹㄹㅣ -13424
▁ㅍㅔㄴㅌㅏ -13425
▁ㅍㅗㄹㄷㅓ -13426
ㄷㅓㄱㄷㅗㅇ -13427
ㅁㅏㄴㅈㅗㄱ -13428
ㅋㅔㄹㄹㅏㄴ -13429
▁ㄴㅏㅁㄱㅏㅇ -13430
▁ㅂㅜㄱㅁㅜㄴ -13431
▁ㅈㅓㅇㅊㅗㄴ -13432
▁ㅎㅣㄹㅌㅡㄴ -13433
ㅎㅕㄱㅁㅕㅇㄷㅏㅇ -13434
▁ㅈㅏㅇㅂㅗㄴㅇㅣㄴ -13435
ㅂㅗㅁ -13436
▁Aut -13437
▁Fla -13438
▁TOUR -13439
ㄴㅗㄹㅈㅡ -13440
ㅁㅜㄴㅇㅖ -13441
ㅅㅏㅇㅎㅏ -13442
▁ㄱㅘㅇㅇㅜ -13443
▁ㅁㅕㄴㄷㅗ -13444
▁ㅁㅕㅇㄹㅛ -13445
▁ㅂㅗㄴㄷㅐ -13446
▁ㅇㅑㄱㅈㅐ -13447
▁ㅇㅣㄴㅍㅗ -13448
▁ㅈㅓㄹㅇㅣ -13449
ㅅㅣㅁㄹㅠㄹ -13450
ㅇㅜㄹㅈㅏㅁ -13451
▁ㄱㅗㄱㄹㅠㄹ -13452
▁ㄷㅡㅇㅅㅣㄱ -13453
▁ㅂㅜㄱㅊㅓㅇ -13454
▁ㅂㅜㄴㅂㅜㄴ -13455
▁ㅇㅝㄴㅇㅏㄴ -13456
▁ㅊㅓㄴㅈㅣㄴ -13457
▁ㅂㅏㄹㅇㅝㄴㅁㅜㄴ -13458
ius -13459
▁Km -13460
▁Ret -13461
▁ㅎㅣㅇ -13462
ㅇㅘㅇㅅㅣ -13463
▁Class -13464
▁ㄱㅓㅁㄱㅛ -13465
▁ㄱㅔㄴㅌㅏ -13466
▁ㄱㅗㅇㅂㅣ -13467
▁ㅁㅗㄴㅌㅣ -13468
▁ㅅㅗㅇㅅㅏ -13469
▁ㅇㅏㄴㄹㅛ -13470
▁ㅈㅏㅂㅅㅡ -13471
ㄱㅏㅇㅇㅝㄴ -13472
ㄱㅓㅁㅊㅏㄹ -13473
ㄹㅕㅇㅌㅏㅂ -13474
ㅅㅣㅂㅁㅏㄴ -13475
▁ㅂㅏㄱㅁㅜㄴ -13476
▁ㅂㅏㅇㅅㅏㄴ -13477
▁ㅅㅣㄴㄹㅕㅇ -13478
▁ㅊㅓㄴㄱㅗㅇ -13479
▁ㅊㅣㅁㅅㅣㄹ -13480
▁ㄱㅗㅇㄱㅕㄱㅈㅏ -13481
▁ㅇㅗㄴㄱㅓㄴㅍㅏ -13482
▁ㅅㅏㅇㅈㅣㅇㅁㅜㄹ -13483
ful -13484
▁630 -13485
▁GUI -13486
▁Long -13487
▁ㄱㅡㄱㅎㅏ -13488
▁ㄴㅏㅁㅊㅗ -13489
▁ㅂㅜㄱㅋㅣ -13490
ㄷㅜㄴㄱㅜㄴ -13491
▁ㄱㅜㄴㄱㅗㅇ -13492
▁ㄷㅓㄱㅎㅡㅇ -13493
GS -13494
to -13495
▁OM -13496
▁ESP -13497
ㄱㅡㅂㅅㅏ -13498
ㅇㅔㄹㄹㅣ -13499
ㅎㅏㄴㅎㅣ -13500
▁ㄱㅜㅇㄷㅗ -13501
▁ㄱㅡㅁㄱㅘ -13502
▁ㅈㅣㄹㅈㅜ -13503
▁ㅍㅔㅂㅌㅏ -13504
ㅅㅗㄱㅊㅓㄹ -13505
ㅇㅓㄴㄱㅜㄴ -13506
ㅇㅣㄹㄹㅣㅇ -13507
▁ㅇㅛㅇㄱㅗㄹ -13508
▁ㅇㅡㄴㄴㅣㄱ -13509
▁ㅇㅣㄴㄷㅗㅇ -13510
▁ㅅㅓㄴㄷㅓㄹㄹㅐㄴㄷㅡ -13511
▁Sl -13512
line -13513
ople -13514
▁304 -13515
▁570 -13516
ative -13517
▁Year -13518
ㄷㅐㅂㅌㅓ -13519
ㅇㅛㄴㅅㅔ -13520
ㅎㅕㄴㅇㅜ -13521
▁ㄱㅕㅇㅅㅓ -13522
▁ㄱㅡㄴㅅㅗ -13523
▁ㄴㅗㅇㅅㅜ -13524
▁ㅇㅛㅇㅈㅜ -13525
▁ㅇㅣㅁㅇㅗ -13526
▁ㅎㅏㅁㅈㅐ -13527
ㅅㅏㄴㅇㅕㅁ -13528
ㅊㅜㄹㅇㅣㅂ -13529
ㅎㅏㅇㅅㅓㅇ -13530
▁ㄱㅡㅁㅂㅏㅇ -13531
▁ㅂㅗㄴㅂㅏㄷ -13532
▁ㅅㅏㄴㅂㅏㄹ -13533
▁ㅇㅣㄹㅇㅑㄱ -13534
▁ㅈㅓㅇㅊㅏㅇ -13535
▁GeForce -13536
▁ㅅㅔㄹㅌㅣㄱㅅㅡ -13537
▁ㅅㅣㄴㅈㅜㅇㄷㅗ -13538
▁ㅇㅑㅇㅊㅓㄴㄱㅜ -13539
▁ㅇㅕㄴㅎㅏㅂㅊㅔ -13540
▁ㄱㅘㄴㅅㅡㅂㅂㅓㅂ -13541
▁ㅇㅣㄹㅂㅏㄴㅈㅣㄱ -13542
▁ㅈㅣㄴㅎㅐㄱㅅㅐㅇㅁㅜㄹ -13543
ㄲㅗㄱ -13544
▁ㅆㅜㄱ -13545
▁ㅇㅟㄱ -13546
▁ㅊㅏㅂ -13547
▁Char -13548
ㅁㅔㄹㄹㅣ -13549
ㅁㅜㄴㅈㅔ -13550
▁Beaut -13551
▁ㄴㅏㅁㅇㅣ -13552
▁ㅁㅓㄱㅎㅣ -13553
▁ㅁㅣㄴㅌㅡ -13554
▁ㅂㅏㄴㅁㅣ -13555
▁ㅅㅏㄴㄷㅐ -13556
▁ㅇㅣㅁㅈㅐ -13557
▁ㅋㅗㅇㅋㅗ -13558
▁ㅍㅏㄴㄷㅏ -13559
▁ㅎㅜㄹㄹㅣ -13560
ㅇㅣㄴㅇㅝㄴ -13561
ㅈㅏㅇㄱㅘㄴ -13562
▁ㄷㅏㅇㅁㅕㄴ -13563
▁ㅂㅜㄹㅅㅓㄴ -13564
▁ㅈㅏㅇㅅㅓㄱ -13565
▁ㅈㅏㅇㅇㅕㄴ -13566
▁ㅈㅓㅂㅇㅕㅇ -13567
▁ㅎㅘㅇㄱㅡㅁㄱㅣ -13568
ㄸㅗ -13569
▁AH -13570
▁470 -13571
▁Bus -13572
▁God -13573
iness -13574
▁More -13575
ㄹㅓㅂㅎㅣ -13576
ㅇㅜㄴㅅㅡ -13577
▁Group -13578
▁ㅇㅑㅇㅎㅐ -13579
▁ㅇㅡㄴㅎㅘ -13580
ㅇㅝㄴㄹㅗㄴ -13581
ㅇㅡㄴㄱㅜㄴ -13582
ㅇㅣㄴㅅㅓㄱ -13583
ㅈㅓㅇㅎㅕㄴ -13584
▁ㄱㅏㄴㅈㅓㄹ -13585
▁ㅅㅏㅇㄱㅜㄴ -13586
▁ㅅㅓㄹㄴㅏㄹ -13587
▁ㅊㅓㅇㅂㅐㄱ -13588
▁ㄱㅗㅇㅁㅜㄴㅅㅓ -13589
▁ㅅㅓㄱㅂㅜㄹㅈㅘ -13590
▁ㅇㅕㄴㅂㅏㅇㅈㅜ -13591
▁ㅇㅗㅇㅈㅓㅇㅈㅔ -13592
ㅂㅗㄱㄷㅗㅇㅅㅐㅇ -13593
▁ㄴㅏㅁㅎㅏㄱㅅㅐㅇ -13594
ㄲㅡㅌ -13595
ㅁㅐㅂ -13596
ㅅㅔㄱ -13597
▁1826 -13598
▁Dark -13599
ㄱㅡㅁㄱㅏ -13600
▁ㄱㅕㅇㄹㅣ -13601
▁ㄴㅗㄱㅈㅣ -13602
▁ㅇㅐㄱㅈㅏ -13603
▁ㅇㅣㅇㅌㅐ -13604
▁ㅈㅏㅂㅇㅣ -13605
▁ㅎㅔㄱㅅㅏ -13606
▁ㅎㅔㄹㅁㅜ -13607
▁ㅎㅕㄴㅈㅏ -13608
ㅂㅏㅇㅁㅕㄴ -13609
ㅂㅡㄴㅅㅡㄴ -13610
ㅈㅓㅇㅎㅏㄱ -13611
▁ㅂㅏㄱㅂㅕㅇ -13612
▁ㅅㅓㅇㅌㅏㄴ -13613
▁ㅅㅜㄴㅇㅕㄹ -13614
▁ㅇㅡㄴㅇㅓㄴㄱㅜㄴ -13615
BSD -13616
▁BP -13617
ㅂㅐㅅ -13618
ㅍㅏㅅ -13619
ㅂㅜㄱㅇㅣ -13620
ㅈㅗㅇㄱㅛ -13621
ㅊㅓㄴㅎㅜ -13622
ㅊㅔㄹㄹㅗ -13623
▁Sweet -13624
▁ㄱㅣㅁㅇㅣ -13625
▁ㄴㅔㄱㅅㅓ -13626
▁ㄹㅐㄹㄹㅣ -13627
▁ㅁㅕㄹㅊㅣ -13628
▁ㅅㅏㅁㅈㅣ -13629
▁ㅇㅛㅇㅎㅘ -13630
▁ㅊㅏㄹㄴㅏ -13631
▁ㅊㅓㅇㄷㅐ -13632
▁ㅊㅜㄹㅎㅏ -13633
▁ㅋㅝㄹㄹㅣ -13634
ㄸㅓㄱㅇㅣㅍ -13635
ㅁㅏㄴㅅㅣㄱ -13636
ㅁㅜㄴㅈㅏㅇ -13637
▁ㅅㅗㄱㅊㅜㄹ -13638
▁ㅊㅓㄴㅇㅣㄴ -13639
▁ㅍㅜㅇㅅㅓㅇ -13640
▁ㅎㅕㅂㅇㅕㄴ -13641
▁ㅅㅡㅇㅁㅜㄴㅇㅝㄴ -13642
▁ㅇㅔㅁㅂㅡㄹㄹㅓㅁ -13643
ㅊㅓㄴㄴㅕㄴㅁㅣㄴㅈㅜ -13644
ㅋㅔㄹㄹㅏㄴㅈㅔㄹㄹㅗ -13645
▁ㅈㅓㄴㅌㅗㅇㅁㅜㄴㅎㅘ -13646
ㅁㄷㅗㄹ -13647
▁IDOL -13648
▁Stand -13649
▁ㄱㅜㄹㄷㅡ -13650
▁ㄹㅣㅇㅅㅡ -13651
▁ㅁㅐㄱㅅㅣ -13652
▁ㅂㅜㄴㅁㅛ -13653
▁ㅇㅏㄱㅅㅏ -13654
▁ㅇㅝㄴㅅㅔ -13655
▁ㅈㅓㅇㅎㅗ -13656
▁ㅊㅣㄱㅅㅓ -13657
ㅅㅗㅇㅅㅓㄴ -13658
ㅈㅓㅇㅎㅘㄴ -13659
▁Direct -13660
▁ㄱㅕㅇㅈㅏㅇ -13661
▁ㅂㅕㅇㅅㅓㄹ -13662
▁ㅂㅣㅅㅁㅜㄹ -13663
▁ㅅㅓㄴㅊㅏㄱ -13664
▁ㅅㅣㄴㄹㅏㅇ -13665
▁ㅇㅠㅇㅅㅓㅇ -13666
▁ㅊㅡㄱㅅㅣㄹ -13667
▁ㄱㅘㅇㅈㅣㄴㄱㅜ -13668
▁ㅂㅗㅂㅅㅡㄹㄹㅔ -13669
▁ㅇㅕㅇㄴㅏㅁㄷㅐ -13670
▁ㅈㅜㅇㅅㅣㅁㄱㅏ -13671
▁ㅍㅣㄹㅅㅏㄹㄱㅣ -13672
CE -13673
ml -13674
▁Tu -13675
▁nd -13676
ㅋㅏㅂ -13677
▁SHO -13678
▁ㄴㅏㄴㅅㅣ -13679
▁ㅂㅔㄴㅌㅡ -13680
▁ㅅㅓㅇㅌㅗ -13681
ㅅㅡㅇㅎㅘㄴ -13682
ㅈㅗㅇㅎㅏㅂ -13683
▁ㄱㅗㅇㅇㅕㄱ -13684
▁ㄱㅡㅂㄱㅏㅁ -13685
▁ㅁㅕㅇㅁㅏㅇ -13686
▁ㄷㅗㅇㅇㅡㅁㅇㅣ -13687
fr -13688
▁KL -13689
ㅁㅜㅇ -13690
▁710 -13691
▁MGM -13692
▁Fall -13693
ㅇㅐㅇㅋㅏ -13694
▁Elect -13695
▁Staff -13696
▁White -13697
▁ㄴㅏㄹㄹㅗ -13698
▁ㅁㅏㄹㅌㅜ -13699
▁ㅅㅜㄴㅁㅜ -13700
▁ㅈㅐㅇㅇㅣ -13701
▁ㅈㅣㄴㅂㅜ -13702
ㅈㅣㄴㅎㅡㅇ -13703
ㅎㅡㅇㄷㅗㅇ -13704
▁ㄴㅏㄴㅍㅗㄱ -13705
▁ㅈㅜㅇㅈㅣㄴ -13706
▁ㅎㅏㅁㅊㅜㄱ -13707
▁ㅎㅏㅇㅇㅏㅁ -13708
▁ㅎㅕㄹㅈㅓㄴ -13709
▁ㅁㅜㄹㅂㅏㅇㅇㅜㄹ -13710
▁ㅋㅡㄹㄹㅐㅂㅌㅡㄴ -13711
bc -13712
▁345 -13713
▁415 -13714
▁Bra -13715
▁UFC -13716
▁STER -13717
ㅁㅕㅇㅌㅏ -13718
ㅁㅗㄹㄹㅔ -13719
ㅂㅏㄴㅌㅔ -13720
▁ㄴㅣㄱㄴㅔ -13721
▁ㅂㅗㄱㄷㅗ -13722
▁ㅇㅣㄴㄷㅜ -13723
▁ㅇㅣㅁㅍㅔ -13724
▁ㅈㅓㄹㄱㅣ -13725
▁ㅊㅏㄴㅁㅣ -13726
ㅈㅣㅇㄱㅡㅁ -13727
ㅊㅓㄴㅇㅕㄱ -13728
ㅍㅗㄱㄹㅕㄱ -13729
▁ㄱㅏㄱㅁㅏㄱ -13730
▁ㄱㅏㅁㄱㅠㄹ -13731
▁ㅂㅐㄱㄴㅏㅁ -13732
▁ㅅㅓㄴㄱㅜㄴ -13733
▁ㅇㅏㄹㅋㅗㄹ -13734
▁ㅇㅣㅂㄱㅜㅇ -13735
▁ㅈㅣㄴㅈㅗㅇ -13736
▁ㄱㅗㅁㅍㅏㅇㅇㅣ -13737
▁ㅇㅕㅇㅇㅝㄹㄱㅜㄴ -13738
▁ㅇㅜㄹㅈㅣㄴㄱㅜㄴ -13739
▁ㅎㅕㄴㅊㅜㅇㅇㅝㄴ -13740
nal -13741
ㅋㅏㅅ -13742
▁243 -13743
▁NCA -13744
▁NGO -13745
▁ㅅㅗㅌ -13746
ㅈㅏㅇㄱㅣ -13747
▁ㄴㅏㄹㅈㅗ -13748
▁ㅅㅏㄴㅈㅏ -13749
▁ㅅㅣㅁㅎㅐ -13750
▁ㅇㅏㄴㅅㅜ -13751
▁ㅇㅏㅂㄹㅠ -13752
▁ㅈㅓㅂㅎㅣ -13753
ㄱㅗㄴㅂㅗㄹ -13754
▁ㄱㅏㄴㅇㅓㄴ -13755
▁ㄷㅏㄴㅊㅗㅇ -13756
▁ㅇㅕㄹㅂㅕㅇ -13757
▁ㅈㅏㄱㅇㅡㄴ -13758
▁ㅈㅗㅇㅂㅏㄴ -13759
▁ㅎㅏㅇㅂㅕㄴ -13760
▁ㅇㅜㄴㅈㅓㄴㅅㅏ -13761
▁ㅈㅜㅇㅅㅣㅁㅈㅜ -13762
▁ㅇㅣㅁㅅㅣㄹㄱㅜㄴ -13763
▁ㅊㅓㅇㅅㅗㅇㄱㅜㄴ -13764
▁ㅎㅏㄴㄹㅣㅁㅇㅝㄴ -13765
▁Cry -13766
▁mac -13767
▁ㅇㅛㄹ -13768
▁1811 -13769
▁ㅂㅜㄱㄷㅜ -13770
▁ㅋㅐㄹㄹㅓ -13771
▁ㅂㅏㅇㄱㅘㅇ -13772
▁ㅂㅏㅇㅇㅕㄱ -13773
▁ㅅㅗㅇㄱㅏㅇ -13774
▁ㅇㅕㄱㅂㅕㅇ -13775
▁ㅇㅛㅇㄴㅏㅂ -13776
▁ㅅㅣㄹㄹㅕㄱㅈㅏ -13777
▁ㅇㅡㄴㅁㅣㄹㅎㅣ -13778
▁ㅍㅡㄹㄹㅔㄱㅅㅡ -13779
▁ㅎㅗㄹㄹㅐㄴㄷㅡ -13780
▁ㅈㅏㅇㅅㅓㅇㄱㅜㄴ -13781
▁ㅈㅗㄹㅇㅓㅂㅅㅣㄱ -13782
▁ㅊㅜㅇㅅㅓㅇㅅㅣㅁ -13783
89 -13784
mb -13785
▁ㅎㅑ -13786
ㄱㅣㅇ -13787
▁Comm -13788
▁Miss -13789
▁Roll -13790
ㅎㅘㄴㄱㅣ -13791
▁ㄱㅘㅇㄱㅣ -13792
▁ㄷㅟㅅㄷㅏ -13793
▁ㄷㅡㄹㄸㅡ -13794
▁ㅂㅏㅇㅈㅐ -13795
▁ㅂㅕㄹㅅㅣ -13796
▁ㅅㅣㄹㅇㅚ -13797
▁ㅈㅏㄴㄱㅣ -13798
▁ㅈㅣㅇㅅㅣ -13799
ㄹㅐㄴㅈㅐㄱ -13800
▁ㅊㅏㅇㅂㅓㅂ -13801
▁ㅍㅏㄹㄷㅏㄹ -13802
▁ㅎㅐㅇㅅㅏㅇ -13803
ㄹㅐㄴㅈㅐㄱㅅㅕㄴ -13804
▁ㅂㅕㄴㄱㅕㅇㅂㅐㄱ -13805
▁ㅊㅜㄹㅇㅣㅂㄱㅜㄱ -13806
▁ㅎㅗㅇㄱㅓㄴㅈㅓㄱ -13807
▁QS -13808
▁UH -13809
ㅁㅏㅂ -13810
▁247 -13811
▁286 -13812
▁DDR -13813
▁Mem -13814
ㅂㅏㅇㄱㅏ -13815
ㅇㅜㄱㄷㅓ -13816
ㅇㅣㄹㅇㅣ -13817
ㅈㅓㄴㅅㅏ -13818
ㅌㅐㄴㅍㅗ -13819
▁Girls -13820
▁ㄱㅏㄴㅇㅣ -13821
▁ㄱㅏㅂㄱㅘ -13822
▁ㄱㅕㄱㄴㅗ -13823
▁ㅁㅗㄹㄷㅣ -13824
ㄱㅜㄱㅅㅣㄱ -13825
ㅅㅗㄱㄹㅕㄱ -13826
▁ㄱㅜㄱㅎㅏㄱ -13827
▁ㅁㅜㄹㅅㅏㄴ -13828
▁ㅂㅏㄴㅅㅡㅇ -13829
▁ㅂㅜㄹㅇㅜㄴ -13830
▁ㅅㅓㅇㅎㅘㅇ -13831
▁ㅊㅓㅁㅌㅏㅂ -13832
▁ㅌㅏㄴㅊㅏㅇ -13833
▁ㅎㅔㄹㄹㅡㅁ -13834
▁ㄱㅗㅇㄱㅕㄱㄱㅣ -13835
▁ㅂㅜㄹㅅㅣㄴㅇㅣㅁ -13836
erv -13837
▁Ca -13838
▁Fi -13839
aven -13840
▁UFO -13841
▁mark -13842
ㅂㅔㄴㄴㅏ -13843
ㅅㅏㅇㅈㅐ -13844
▁ㅂㅓㄴㅎㅘ -13845
▁ㅅㅏㅇㅂㅣ -13846
▁ㅅㅣㄴㅇㅑ -13847
▁ㅇㅕㅇㄴㅐ -13848
▁ㅇㅞㄴㄷㅣ -13849
▁ㅈㅏㅇㅎㅗ -13850
ㅇㅣㄴㅅㅓㅇ -13851
ㅋㅗㅇㄱㅏㅇ -13852
▁ㅂㅜㄴㅁㅏㄹ -13853
▁ㅅㅗㄴㄱㅕㄴ -13854
▁ㅇㅏㄴㅎㅕㄴ -13855
▁ㅇㅐㄱㅁㅕㄴ -13856
▁ㅇㅛㅇㅇㅠㅇ -13857
▁ㅈㅣㄱㅎㅏㄹ -13858
▁ㅈㅣㅇㅇㅛㅇ -13859
▁ㅍㅡㄹㄹㅗㅅ -13860
ㅅㅔㅁㅂㅡㄹㄹㅣ -13861
▁ㄱㅘㄴㅈㅜㅇㅅㅓㄱ -13862
ㄸㅓㄱㅇㅣㅍㅅㅣㄱㅁㅜㄹ -13863
ka -13864
led -13865
▁Er -13866
▁LL -13867
ㅆㅏㄱ -13868
ible -13869
▁map -13870
▁1680 -13871
▁ㄴㅡㄹㅇㅣ -13872
▁ㄹㅏㄴㄷㅏ -13873
▁ㄹㅣㅇㄱㅗ -13874
▁ㅁㅕㄴㅅㅔ -13875
▁ㅂㅓㅂㅊㅔ -13876
▁ㅅㅣㄴㅊㅐ -13877
▁ㅇㅝㄹㅅㅡ -13878
▁ㅎㅡㄱㄱㅣ -13879
▁ㅎㅣㅁㅊㅏ -13880
ㅅㅡㅇㅁㅣㄴ -13881
▁ㄱㅓㅁㅈㅣㄴ -13882
▁ㄴㅡㅇㄹㅠㄹ -13883
▁ㅂㅓㄹㅁㅗㄱ -13884
▁ㅅㅜㄴㅂㅏㅇ -13885
▁ㅇㅕㄱㅇㅝㄴ -13886
▁ㅋㅣㅇㄷㅓㅁ -13887
▁ㅂㅜㄴㅊㅓㅇㅅㅏ -13888
▁ㅇㅗㄹㄹㅣㅁㅍㅜ -13889
▁ㅎㅘㄱㅈㅏㅇㅈㅏ -13890
▁Christmas -13891
83 -13892
▁jp -13893
illa -13894
▁Lee -13895
▁TNA -13896
▁pop -13897
▁1620 -13898
▁char -13899
ㄹㅡㄴㅈㅜ -13900
▁ㅂㅗㄴㄱㅘ -13901
▁ㅂㅜㄹㅇㅜ -13902
▁ㅇㅑㅇㅁㅗ -13903
▁ㅇㅣㄴㅂㅜ -13904
▁ㄱㅏㄹㅁㅏㅇ -13905
▁ㄷㅗㅇㅈㅣㄹ -13906
▁ㅁㅗㄱㄹㅕㄴ -13907
▁ㅇㅐㄴㅈㅔㄹ -13908
▁ㅈㅓㅇㅍㅕㅇ -13909
▁ㅋㅓㄴㅅㅔㅂㅌㅡ -13910
ㄱㅓㅁㅊㅏㄹㅊㅓㅇ -13911
ㅅㅜㄴㅇㅑㅇㅎㅏㅁ -13912
▁ㄱㅏㅁㄷㅗㄱㄱㅘㄴ -13913
85 -13914
fin -13915
▁Us -13916
▁Mat -13917
▁ㅅㅛㅂ -13918
ㅁㅕㅇㄷㅗ -13919
ㅇㅏㄴㅌㅗ -13920
▁Young -13921
▁style -13922
▁ㅇㅓㄺㅁㅐ -13923
▁ㅇㅘㄴㄱㅜ -13924
▁ㅇㅝㄴㅇㅚ -13925
▁ㅇㅣㅍㄱㅕ -13926
▁ㅊㅣㄹㄹㅣ -13927
▁ㅍㅐㄴㅌㅓ -13928
▁ㅎㅣㅁㄹㅓ -13929
ㄴㅔㄴㅌㅏㄹ -13930
ㄴㅜㅅㅅㅔㅁ -13931
ㄷㅗㅇㅂㅓㅂ -13932
ㅇㅡㅁㅇㅏㄱ -13933
▁ㄷㅏㄴㅎㅕㅇ -13934
▁ㄷㅡㅇㄱㅏㄱ -13935
▁ㅂㅐㄱㅇㅑㅇ -13936
▁ㅂㅗㅇㅅㅣㄴ -13937
▁ㅅㅓㄴㄹㅑㅇ -13938
▁ㅇㅕㄴㅂㅕㄴ -13939
▁ㅌㅗㅇㅎㅐㅇㄹㅛ -13940
asy -13941
bit -13942
▁JO -13943
▁302 -13944
▁1822 -13945
ㅂㅐㄴㄷㅡ -13946
ㅎㅏㄱㄱㅣ -13947
▁ㄷㅏㄴㅍㅏ -13948
▁ㅇㅏㄹㅋㅔ -13949
ㅇㅝㄹㄷㅗㅇ -13950
▁ㄷㅔㄴㅂㅜㄴ -13951
▁ㅂㅏㄱㅊㅏㅇ -13952
▁ㅅㅏㅇㄹㅑㅇ -13953
▁ㅈㅓㅇㄱㅏㄱ -13954
▁ㅈㅓㅇㅁㅣㄴ -13955
▁ㅈㅗㅇㅅㅓㅇ -13956
▁ㅎㅡㅇㅇㅓㅂ -13957
ㅇㅣㅁㅂㅓㄹㄹㅣㄴ -13958
▁ㅇㅗㄱㅊㅓㄴㄱㅜㄴ -13959
▁ㅌㅡㄱㅂㅕㄹㅅㅏㅇ -13960
▁HM -13961
soft -13962
▁URL -13963
▁ㄲㅏㄱ -13964
▁1770 -13965
▁LGBT -13966
ㄷㅔㅇㅇㅣ -13967
ㅈㅔㄹㄹㅏ -13968
ㅎㅡㅇㄱㅜ -13969
▁Inter -13970
▁Story -13971
▁ㄱㅡㄹㄹㅔ -13972
▁ㄷㅗㅇㅈㅔ -13973
▁ㅁㅗㄱㅊㅗ -13974
▁ㅌㅓㄹㅇㅓ -13975
▁ㅌㅗㄹㄹㅔ -13976
▁ㅎㅑㅇㅇㅠ -13977
ㄱㅜㄱㅅㅣㅁ -13978
ㅇㅏㄴㄱㅜㄱ -13979
▁ㅅㅏㅁㅅㅐㄱ -13980
▁ㅇㅑㅇㅂㅗㅇ -13981
▁ㅇㅓㄴㅎㅐㅇ -13982
▁ㅇㅕㅆㅇㅓㅆ -13983
▁ㅎㅗㅇㅇㅕㅇ -13984
▁ㅈㅓㅇㅂㅗㄱㅈㅏ -13985
▁ㅊㅏㅁㅅㅓㄱㅈㅏ -13986
▁ㅊㅗㅇㅇㅣㄴㄱㅜ -13987
▁ㅌㅗㅇㅇㅣㄹㅂㅜ -13988
▁ㅌㅗㅇㅈㅓㅇㄷㅐ -13989
▁ㅅㅣㄱㅁㅜㄹㅎㅏㄱ -13990
▁ㅇㅡㅁㅇㅏㄱㅇㅣㄴ -13991
▁ㅇㅣㅁㅈㅣㄴㄱㅏㅇ -13992
ㅁㅏㅁ -13993
ents -13994
oman -13995
▁Sur -13996
▁TTC -13997
▁dis -13998
▁ㅁㅣㅂ -13999
lease -14000
ㄱㅣㄴㅅㅡ -14001
▁ㅂㅜㄹㄱㅣ -14002
▁ㅂㅕㅇㅇㅑㄱ -14003
▁ㅅㅏㄴㄱㅜㄱ -14004
▁ㅇㅕㅁㅇㅝㄴ -14005
▁ㅈㅓㄱㄹㅣㅂ -14006
▁ㅍㅡㄹㄹㅣㄴ -14007
▁ㅇㅕㅇㅇㅑㅇㅅㅗ -14008
▁ㅈㅣㄴㄷㅏㄹㄹㅐ -14009
▁ㄱㅣㄴㅈㅏㅇㄱㅏㅁ -14010
▁ㅂㅜㄴㄷㅏㅇㅅㅓㄴ -14011
▁ㅅㅐㅇㅂㅏㅇㅅㅗㅇ -14012
li -14013
▁307 -14014
▁add -14015
ㄹㅡㄱㅅㅏ -14016
ㅁㅣㄹㄹㅗ -14017
ㅂㅜㄴㄹㅣ -14018
▁Under -14019
▁color -14020
▁ㅁㅏㄴㄹㅜ -14021
▁ㅂㅗㄴㅇㅟ -14022
▁ㅇㅏㄱㅌㅣ -14023
▁ㅇㅏㄹㅅㅡ -14024
▁ㅇㅔㄱㅅㅗ -14025
▁ㅈㅓㄹㅈㅣ -14026
▁ㅋㅗㅁㅍㅡ -14027
▁ㅎㅏㄴㅅㅣ -14028
▁ㅎㅘㄴㅅㅜ -14029
▁ㅅㅣㄴㅅㅣㅁ -14030
▁ㅇㅑㅇㅇㅏㄴ -14031
▁ㅇㅕㅇㅇㅏㄴ -14032
▁ㅇㅣㅂㄱㅓㄴ -14033
▁ㅈㅣㄴㄱㅘㄴ -14034
▁ㅍㅗㄱㅅㅓㄹ -14035
▁ㅎㅏㄴㄱㅕㄹ -14036
▁ㄱㅣㅁㅈㅗㅇㅅㅓ -14037
▁ㅍㅕㅇㅅㅣㄴㄷㅗ -14038
▁ㄱㅕㅇㅇㅕㅇㄴㅏㄴ -14039
gg -14040
sy -14041
ald -14042
▁251 -14043
▁1018 -14044
▁1660 -14045
ㄱㅕㅇㅅㅏ -14046
ㄱㅜㄴㅌㅡ -14047
ㄴㅏㅁㅇㅓ -14048
ㄹㅓㅇㅋㅡ -14049
ㅅㅏㄴㅅㅗ -14050
ㅅㅏㅇㄷㅡ -14051
ㅇㅣㄴㅎㅗ -14052
▁ㄹㅐㅁㅈㅣ -14053
▁ㅁㅐㄱㅂㅔ -14054
▁ㅅㅗㅅㅇㅏ -14055
▁ㅇㅡㅁㅍㅏ -14056
▁ㅎㅏㄴㄱㅏ -14057
ㅁㅜㄹㄱㅘㄴ -14058
ㅅㅗㄱㅅㅓㄴ -14059
▁Season -14060
▁ㅅㅐㅇㄱㅏㅇ -14061
▁ㅇㅣㄹㅇㅣㄴ -14062
▁ㅈㅜㅇㅇㅣㅁ -14063
▁ㄴㅡㅇㄹㅕㄱㅈㅏ -14064
▁ㄷㅏㅇㅈㅣㄴㅅㅣ -14065
▁ㅈㅜㅇㄴㅏㅁㅁㅣ -14066
▁ㅇㅠㄴㅂㅗㅇㄱㅣㄹ -14067
VF -14068
▁Na -14069
gram -14070
▁285 -14071
▁LNG -14072
▁1519 -14073
▁BEST -14074
▁chem -14075
▁ㅎㅟㅂㅆ -14076
ㄱㅕㄴㄷㅐ -14077
ㅌㅏㅇㅅㅡ -14078
▁ㄱㅔㄴㄹㅗ -14079
▁ㅅㅣㅁㅈㅐ -14080
▁ㅇㅘㅇㅅㅏ -14081
▁ㅊㅏㅁㄷㅚ -14082
ㅈㅏㄱㄱㅗㄱ -14083
ㅎㅏㄴㅅㅏㅇ -14084
▁ㄱㅏㅇㄹㅗㄴ -14085
▁ㄱㅜㄷㄱㅓㄴ -14086
▁ㄴㅗㅇㅅㅏㅇ -14087
▁ㄷㅏㄴㅇㅓㄴ -14088
▁ㅁㅏㄱㄹㅗㄴ -14089
▁ㅇㅕㄴㅁㅕㅇ -14090
▁ㅇㅝㄴㅎㅘㄴ -14091
ㅎㅐㅇㅅㅓㅇㄷㅐ -14092
▁ㅂㅜㄴㄷㅏㅇㄱㅜ -14093
▁ㅇㅣㄴㅊㅓㄴㅅㅣ -14094
▁ㅋㅡㄴㄱㅗㅁㅈㅏ -14095
▁ㅎㅟㅂㅆㅡㄹㄹㅣ -14096
▁ㅎㅚㅇㅅㅓㅇㄱㅜㄴ -14097
by -14098
ms -14099
ㅆㅗ -14100
ISC -14101
oon -14102
▁Son -14103
▁1604 -14104
ㅂㅜㄴㅂㅣ -14105
ㅅㅏㄴㅅㅏ -14106
ㅅㅓㅇㄷㅐ -14107
ㅇㅝㄴㄹㅣ -14108
▁ㅅㅓㄱㅈㅜ -14109
▁ㅋㅔㄴㅌㅏ -14110
ㄱㅕㅇㅇㅝㄴ -14111
ㅇㅛㅇㅂㅓㅂ -14112
▁ㄱㅏㅇㅈㅓㅇ -14113
▁ㅇㅑㄱㄱㅘㄴ -14114
▁ㅇㅛㅇㄱㅏㅇ -14115
▁ㅈㅓㄹㅅㅣㄹ -14116
▁ㅊㅓㅇㄷㅏㅁ -14117
ㅇㅕㄴㅎㅘㄴㄱㅕㅇ -14118
ㅎㅏㄱㅇㅝㄴㅅㅐㅇ -14119
▁ㅈㅓㄴㅂㅏㄴㅈㅓㄴ -14120
lus -14121
ㄹㄹㅜ -14122
▁PCI -14123
▁PHP -14124
▁per -14125
▁ㅈㅔㅇ -14126
ㅈㅓㄴㅍㅏ -14127
▁ㅇㅕㄴㅇㅢ -14128
▁ㅈㅓㅇㅁㅛ -14129
▁ㅊㅜㅇㅎㅛ -14130
▁ㅎㅐㅁㅂㅓ -14131
▁ㄷㅏㅇㄱㅡㄴ -14132
▁ㄸㅗㄱㄸㅗㄱ -14133
▁ㅇㅓㅇㄸㅜㅇ -14134
▁ㅇㅣㄹㅈㅓㄹ -14135
▁ㅈㅜㅇㅈㅓㅇ -14136
▁ㅂㅜㄹㄱㅜㄱㅅㅏ -14137
▁ㅈㅜㅇㅅㅓㄴㄱㅓ -14138
▁ㅌㅗㅇㄱㅏㅁㅂㅜ -14139
DC -14140
▁*/ -14141
▁CI -14142
▁246 -14143
▁403 -14144
▁ㅅㅜㅊ -14145
▁1610 -14146
▁Spec -14147
ㅅㅓㅇㅇㅜ -14148
ㅈㅣㄴㅅㅜ -14149
▁ㄱㅓㅁㅅㅗ -14150
▁ㄴㅡㅇㅎㅣ -14151
▁ㅂㅔㄹㄹㅓ -14152
▁ㅂㅜㄹㅍㅗ -14153
▁ㅅㅏㅇㄹㅣ -14154
▁ㅌㅐㅇㄱㅗ -14155
▁ㅌㅗㅇㅉㅐ -14156
▁ㅍㅏㄴㅅㅣ -14157
ㄱㅏㅇㅈㅓㄴ -14158
ㅂㅗㅇㄷㅗㅇ -14159
ㅊㅜㄱㅇㅣㄹ -14160
▁ㄴㅏㅁㅇㅕㄴ -14161
▁ㅁㅜㄴㅁㅐㅇ -14162
▁ㅂㅓㄴㅇㅏㄴ -14163
▁ㅇㅕㅇㅇㅣㄴ -14164
▁ㅌㅏㄹㅇㅕㅇ -14165
▁ㅌㅡㄱㄱㅓㅁ -14166
▁ㅎㅕㅂㅊㅏㄴ -14167
▁American -14168
▁ㅇㅡㄴㅅㅣㄴㅊㅓ -14169
▁ㅇㅣㄴㅌㅔㄹㄹㅣ -14170
▁ㅂㅡㄹㄹㅐㄱㅂㅓㄴ -14171
▁ㅇㅘㄴㅈㅓㄴㅇㅕㄹ -14172
▁ㅎㅘㄱㅈㅏㅇㅍㅐㄱ -14173
mun -14174
und -14175
▁288 -14176
▁1829 -14177
▁Kiss -14178
ㄹㅡㅁㄴㅏ -14179
ㅇㅞㄹㅅㅡ -14180
ㅊㅗㅇㅂㅜ -14181
▁ㄴㅗㅇㄱㅣ -14182
▁ㅂㅏㄱㄴㅗ -14183
▁ㅅㅏㅇㅈㅘ -14184
▁ㅅㅓㅇㅂㅣ -14185
▁ㅅㅣㄴㅇㅗ -14186
▁ㅇㅔㄴㄷㅗ -14187
▁ㅇㅘㄴㅊㅣ -14188
▁ㅊㅓㄴㅂㅜ -14189
ㄱㅘㄴㅈㅏㅇ -14190
ㅂㅏㄹㅈㅓㅁ -14191
ㅇㅣㄱㅎㅕㄴ -14192
▁ㅂㅗㄹㅌㅓㄴ -14193
▁ㅅㅓㄴㄱㅜㄱ -14194
▁ㅅㅣㄴㄱㅘㅇ -14195
▁ㅇㅝㄹㅅㅓㅇ -14196
▁ㅌㅏㅁㅈㅣㄴ -14197
▁ㅎㅕㄹㄷㅏㅇ -14198
▁ㅁㅗㄱㅈㅓㄱㅇㅓ -14199
▁ㅂㅐㄱㅎㅕㄹㄱㅜ -14200
▁ㄲㅡㅀㄴㅡㄴㅈㅓㅁ -14201
100 -14202
ㅅㅜㅍ -14203
ends -14204
▁242 -14205
▁580 -14206
▁ㄷㅔㅁ -14207
▁Last -14208
ㅁㅏㄴㄷㅏ -14209
ㅂㅡㄹㅋㅏ -14210
ㅅㅏㄴㅈㅣ -14211
ㅊㅜㄹㅁㅏ -14212
▁ㄹㅗㄴㄷㅗ -14213
▁ㅂㅏㄴㅂㅜ -14214
▁ㅂㅣㄱㅅㅡ -14215
▁ㅅㅣㄹㄱㅣ -14216
▁ㅈㅣㄹㅌㅏ -14217
ㅇㅣㄴㅅㅓㄴ -14218
ㅌㅗㅇㅅㅣㄴ -14219
ㅎㅕㅇㅁㅜㄹ -14220
ㅎㅘㄴㄱㅜㄱ -14221
▁ㄱㅜㄴㅇㅏㄱ -14222
▁ㄷㅗㅇㅈㅜㅇ -14223
▁ㅆㅏㅇㄱㅡㄱ -14224
▁ㅇㅗㅅㄱㅏㅁ -14225
▁ㅈㅜㅇㅌㅓㄱ -14226
▁ㅂㅏㄴㅇㅕㄱㅈㅏ -14227
▁ㅅㅓㅇㅇㅏㄱㄱㅏ -14228
▁ㅈㅜㅇㅎㅏㅂㅊㅔ -14229
▁ㅎㅏㄴㄱㅜㄱㅇㅖ -14230
▁ㅎㅡㅇㄷㅓㄱㄱㅜ -14231
ㅅㅜㄹㅈㅗㅇㅎㅏㅂ -14232
▁ㄱㅗㅇㄱㅡㅂㅇㅝㄴ -14233
▁ㅇㅏㄹㄹㅔㄱㅅㅏㅇㄷㅡ -14234
ㅅㅜㄹㅈㅗㅇㅎㅏㅂㅎㅏㄱㄱㅛ -14235
UE -14236
▁GSL -14237
▁ㅆㅏㄴ -14238
▁ㅈㅕㄴ -14239
ㅂㅔㄱㅈㅜ -14240
ㅅㅡㅁㄷㅗ -14241
ㅇㅔㄱㅅㅡ -14242
▁Child -14243
▁ㄱㅘㅇㅇㅢ -14244
▁ㄴㅗㄹㄹㅣ -14245
▁ㄹㅜㄹㄹㅏ -14246
▁ㅂㅏㄴㅅㅡ -14247
▁ㅈㅓㄴㄱㅏ -14248
▁ㅊㅏㅁㅈㅣ -14249
▁ㅊㅓㅇㅅㅓ -14250
▁ㅍㅏㅅㅋㅐ -14251
▁ㅍㅣㅇㄱㅓ -14252
▁ㅎㅏㄴㄷㅜ -14253
ㅁㅣㄴㄱㅘㄴ -14254
ㅇㅑㅇㅁㅕㄴ -14255
ㅊㅐㄱㄱㅏㅁ -14256
ㅋㅣㄱㅇㅡㄹ -14257
▁ㄱㅏㄱㅊㅣㄱ -14258
▁ㄱㅕㄱㄴㅏㅂ -14259
▁ㄱㅗㅇㅈㅣㄴ -14260
▁ㅁㅜㄱㅇㅣㄴ -14261
▁ㅁㅜㄹㅇㅡㅁ -14262
▁ㅅㅜㄴㅈㅣㄴ -14263
▁ㅇㅣㄹㅊㅜㄱ -14264
▁ㅋㅗㄹㄹㅗㅁ -14265
▁ㅂㅜㄴㅅㅓㄱㄱㅏ -14266
▁ㄱㅗㅇㅅㅗㄴㅊㅏㄴ -14267
▁ㅊㅓㅇㅇㅑㅇㄱㅜㄴ -14268
ex -14269
SQL -14270
▁CB -14271
▁HC -14272
▁gl -14273
ㅅㅗㅌ -14274
▁274 -14275
▁930 -14276
ATION -14277
▁1598 -14278
▁1823 -14279
▁1827 -14280
▁3500 -14281
ㅁㅏㄴㅎㅣ -14282
ㅍㅗㄹㄷㅡ -14283
▁ㄱㅡㅁㅅㅜ -14284
▁ㄴㅏㄴㄹㅠ -14285
▁ㅇㅕㄱㅅㅜ -14286
▁ㅊㅓㅁㅈㅣ -14287
▁ㅍㅜㄹㅌㅏ -14288
▁ㄱㅓㄴㅇㅝㄴ -14289
▁ㄱㅕㅇㄱㅗㅇ -14290
▁ㅂㅗㅇㄱㅡㅂ -14291
▁ㅂㅗㅇㅎㅐㅇ -14292
▁ㅅㅏㅇㅅㅜㄹ -14293
▁ㅈㅓㅁㅁㅏㄱ -14294
▁ㅇㅏㄴㄷㅏㄹㄹㅜ -14295
▁ㅎㅘㄹㅇㅕㅂㅅㅜ -14296
yo -14297
ㅇㅘㄱ -14298
iano -14299
ould -14300
▁Val -14301
▁2025 -14302
▁long -14303
ㅅㅐㄱㄱㅖ -14304
ㅌㅐㄱㄱㅏ -14305
ㅎㅕㄱㄱㅏ -14306
ㅎㅕㅇㅅㅜ -14307
▁ㄴㅏㅇㅌㅡ -14308
▁ㄹㅣㅇㄴㅔ -14309
▁ㅂㅔㄴㄷㅓ -14310
▁ㅂㅗㅇㅌㅜ -14311
▁ㅇㅕㄴㅂㅗ -14312
▁ㅇㅡㄴㅇㅠ -14313
▁ㅊㅐㅁㅂㅓ -14314
▁ㅎㅗㅇㄱㅏ -14315
ㅂㅏㄴㅇㅡㅇ -14316
ㅅㅡㅇㄷㅏㄹ -14317
ㅈㅡㅇㅇㅣㄴ -14318
▁ㄱㅏㅇㅅㅓㄴ -14319
▁ㄱㅗㅇㅁㅜㄴ -14320
▁ㅁㅕㅇㅅㅣㄴ -14321
▁ㅇㅏㄹㄹㅐㅇ -14322
▁ㅈㅏㅇㅍㅏㄴ -14323
▁ㅊㅓㄴㄷㅗㅇ -14324
▁ㅋㅣㄹㄹㅣㅇ -14325
▁ㅌㅗㅇㄷㅏㄹ -14326
▁ㅎㅏㄴㅇㅕㅇ -14327
▁ㄱㅏㅇㅂㅜㄱㄱㅜ -14328
▁ㅁㅜㄴㄱㅕㅇㅅㅣ -14329
▁ㅂㅓㅂㄹㅠㄹㄱㅏ -14330
▁ㅅㅏㅇㄷㅏㅇㄱㅜ -14331
▁ㅈㅏㅇㅂㅏㅇㅎㅕㅇ -14332
▁ㄴㅏㅁㅈㅜㅇㄱㅜㄱㅎㅐ -14333
96 -14334
ki -14335
ㅉㅜ -14336
iter -14337
rown -14338
▁346 -14339
▁temp -14340
ㄴㅏㅁㄱㅗ -14341
▁ㄱㅜㄱㅈㅗ -14342
▁ㅅㅣㄱㅊㅗ -14343
▁ㅇㅡㅁㅍㅛ -14344
▁ㅎㅔㄴㄷㅓ -14345
ㅇㅑㅇㅍㅜㅇ -14346
▁ㄱㅓㅁㅅㅜㄹ -14347
▁ㄷㅏㅂㅅㅡㅂ -14348
▁ㅅㅡㄹㄹㅣㅂ -14349
▁ㅇㅏㄱㅅㅓㅇ -14350
▁ㅈㅓㄴㅅㅐㅇ -14351
▁ㅊㅓㄴㄷㅜㅇ -14352
▁ㄱㅣㄹㄷㅡㄹㅇㅣ -14353
▁ㅇㅣㄹㅇㅣㄹㅇㅣ -14354
▁ㅊㅜㄱㅈㅓㄴㄱㅣ -14355
▁ㄱㅗㄱㅅㅓㅇㄱㅜㄴ -14356
▁ㅅㅏㅇㅎㅐㅇㅅㅓㄴ -14357
46 -14358
WC -14359
ㅃㅜㅁ -14360
▁312 -14361
▁615 -14362
▁ㅋㅝㄴ -14363
ㄱㅡㅂㅈㅏ -14364
ㅂㅐㅇㅋㅡ -14365
▁ㄷㅗㄱㅂㅗ -14366
▁ㅁㅔㄴㄷㅔ -14367
▁ㅁㅕㅇㄷㅐ -14368
▁ㅇㅔㄹㅂㅔ -14369
▁ㅍㅏㄴㅈㅏ -14370
ㄷㅣㅇㅌㅓㄴ -14371
ㄹㅠㄱㅅㅓㅇ -14372
ㅈㅓㄱㅎㅏㅂ -14373
ㅊㅜㅇㅎㅓㄴ -14374
▁ㄱㅜㄴㅈㅏㅇ -14375
▁ㄱㅣㅁㅊㅐㄱ -14376
▁ㅂㅜㄴㅅㅣㄴ -14377
▁ㅅㅗㄴㅌㅗㅂ -14378
▁ㅎㅘㄱㅈㅡㅇ -14379
ㄹㅣㅇㅍㅣㄹㄷㅡ -14380
▁ㄱㅏㄴㅅㅓㄴㄷㅗ -14381
▁ㅇㅕㅇㄹㅏㄱㅈㅔ -14382
ㅅㅏㅁㄱㅏㄱㅎㅕㅇ -14383
▁ㄱㅕㅇㅈㅓㄴㅅㅓㄴ -14384
▁ㅁㅏㅈㅊㅜㅁㅂㅓㅂ -14385
▁ㅍㅏㄴㅁㅜㄴㅈㅓㅁ -14386
ㅊㅗㅁ -14387
▁EXO -14388
▁OBS -14389
▁ㅍㅔㅁ -14390
▁1689 -14391
ㄹㅐㄱㅅㅡ -14392
ㅁㅏㄴㄷㅗ -14393
ㅁㅗㄴㅌㅔ -14394
ㅅㅣㄹㅂㅏ -14395
ㅋㅓㅅㅈㅜ -14396
▁Party -14397
▁ㄱㅏㅁㅂㅣ -14398
▁ㄱㅕㅇㅈㅗ -14399
▁ㅁㅏㅇㅈㅜ -14400
▁ㅁㅗㄱㄱㅘ -14401
▁ㅁㅗㄴㅌㅏ -14402
▁ㅁㅣㄹㅍㅖ -14403
▁ㅂㅔㄴㅈㅗ -14404
▁ㅅㅏㄴㄹㅗ -14405
▁ㅅㅐㄹㄹㅣ -14406
▁ㅍㅜㅇㅈㅗ -14407
ㅇㅣㄹㄷㅗㅇ -14408
▁ㄱㅗㄷㅈㅏㅇ -14409
▁ㄱㅡㄴㅅㅣㄴ -14410
▁ㅅㅓㄱㄱㅘㄴ -14411
▁ㅅㅣㄱㅇㅛㄱ -14412
▁ㅈㅏㅇㅅㅗㄴ -14413
▁ㅈㅣㄹㅊㅐㄱ -14414
▁ㅋㅓㄹㄹㅓㅁ -14415
▁ㅍㅕㅇㅈㅓㅁ -14416
▁ㅎㅕㅇㅍㅕㅇ -14417
ㅍㅡㄹㄹㅔㄱㅌㅣㄱ -14418
▁ㅁㅜㄴㅎㅏㄱㄱㅘㄴ -14419
▁ㅅㅓㅇㅈㅓㄴㅎㅘㄴ -14420
▁ㅈㅓㄴㅇㅛㅇㅅㅓㄴ -14421
▁ㅅㅣㅁㅍㅡㄹㄹㅔㄱㅌㅣㄱ -14422
ada -14423
rib -14424
▁252 -14425
▁Cap -14426
▁GTX -14427
▁ㄴㅓㄴ -14428
erson -14429
▁Core -14430
ㄱㅓㄹㅅㅡ -14431
ㅂㅏㄱㅎㅐ -14432
ㅅㅏㄴㅈㅐ -14433
ㅇㅜㄴㅈㅣ -14434
▁Radio -14435
▁ㄷㅔㄱㅅㅡ -14436
▁ㅂㅐㄱㄱㅣ -14437
▁ㅈㅗㅇㅅㅗ -14438
ㅊㅏㅇㄷㅗㅇ -14439
▁ㄱㅏㅇㅈㅣㄱ -14440
▁ㅅㅓㅇㄱㅡㅁ -14441
▁ㅅㅖㅇㄱㅔㄴ -14442
▁ㅇㅕㅇㅂㅕㄴ -14443
▁ㅈㅓㄱㄱㅜㄱ -14444
▁ㄱㅗㅇㅂㅐㄱㄱㅣ -14445
▁ㅎㅏㄴㅇㅑㅇㄷㅐ -14446
▁ㄴㅏㅁㅂㅜㄱㄱㅜㄱ -14447
▁ㅎㅏㅁㅍㅕㅇㄱㅜㄴ -14448
izza -14449
▁ㄹㅓㅅ -14450
▁ㅁㅠㄹ -14451
ㄴㅅㅕㄹ -14452
▁1774 -14453
▁NCAA -14454
▁will -14455
ㄹㅣㄹㄹㅗ -14456
▁ㄷㅏㄴㅅㅣ -14457
▁ㄹㅗㄱㄱㅘ -14458
▁ㅁㅗㅁㅅㅗ -14459
▁ㅂㅏㄱㄷㅐ -14460
▁ㅇㅑㄱㅅㅗ -14461
▁ㅇㅑㅇㄱㅗ -14462
▁ㅋㅏㅁㅊㅏ -14463
▁ㅌㅡㄱㅁㅜ -14464
▁ㅎㅜㄹㄹㅏ -14465
ㄹㅐㄴㅁㅏㄴ -14466
ㅂㅏㅇㅅㅓㄴ -14467
ㅇㅛㅇㅇㅐㄱ -14468
▁ㄱㅕㄹㅂㅏㅇ -14469
▁ㅁㅗㄱㄱㅗㅇ -14470
▁ㅂㅏㅅㅈㅜㄹ -14471
▁ㅂㅏㅇㅂㅕㄱ -14472
▁ㅂㅓㄹㅈㅣㅂ -14473
▁ㅅㅣㅂㅇㅠㄱ -14474
▁ㅌㅗㅇㅅㅓㄹ -14475
▁National -14476
▁ㅇㅏㅁㅅㅏㄹㅈㅏ -14477
lad -14478
oul -14479
▁-" -14480
▁IG -14481
▁Oh -14482
▁670 -14483
▁1080 -14484
▁1413 -14485
▁1617 -14486
▁1624 -14487
ㄷㅡㅁㅇㅣ -14488
ㅂㅏㅇㄷㅐ -14489
▁ㄱㅏㅁㅂㅏ -14490
▁ㅁㅏㄹㅊㅗ -14491
▁ㅇㅣㄹㄲㅐ -14492
▁ㅎㅡㄱㅎㅐ -14493
▁ㄱㅏㅇㅅㅏㄴ -14494
▁ㅇㅑㅇㄹㅣㅂ -14495
▁ㅇㅕㄴㅇㅝㄴ -14496
▁ㅈㅓㅇㅇㅠㄴ -14497
▁ㅊㅗㅁㅊㅗㅁ -14498
▁== -14499
▁FP -14500
▁GA -14501
ㅂㅏㄼ -14502
▁276 -14503
▁295 -14504
▁910 -14505
▁cle -14506
ㄴㅣㅇㅅㅡ -14507
ㅂㅔㄴㅌㅗ -14508
ㅇㅣㄹㄹㅔ -14509
ㅍㅓㄹㅅㅡ -14510
▁David -14511
▁ㄱㅏㄱㄹㅠ -14512
▁ㄱㅘㅇㄱㅜ -14513
▁ㅁㅕㅇㄱㅘ -14514
▁ㅅㅓㅇㅁㅜ -14515
▁ㅅㅓㅇㅌㅓ -14516
▁ㅇㅕㄴㄱㅐ -14517
▁ㅈㅓㅇㅇㅟ -14518
▁ㅊㅓㄹㅈㅗ -14519
▁ㅊㅓㅇㅎㅐ -14520
ㅈㅣㅂㄷㅏㄴ -14521
▁ㅁㅏㄹㅅㅏㄹ -14522
▁ㅎㅐㅇㅈㅏㅇ -14523
▁ㅎㅏㄴㄱㅜㄱㅅㅏ -14524
▁ㅎㅜㄴㄹㅕㄴㄱㅣ -14525
▁ㅇㅕㄱㅈㅓㄴㅅㅡㅇ -14526
LD -14527
110 -14528
ube -14529
▁RB -14530
arth -14531
ㄷㅗㅇㅎㅐ -14532
▁ㅇㅏㄴㅈㅣ -14533
▁ㅎㅏㄴㅇㅢ -14534
ㅇㅠㅅㄱㅏㅄ -14535
ㅎㅐㅇㅈㅓㅇ -14536
ㅎㅗㅇㅈㅏㅇ -14537
▁ㄴㅏㅁㅈㅜㅇ -14538
▁ㄴㅏㅂㄷㅡㄱ -14539
▁ㄷㅏㄴㅁㅏㅅ -14540
▁ㅈㅗㅇㅇㅣㄴ -14541
▁ㅈㅡㅇㄷㅡㄱ -14542
▁ㅊㅏㅇㄱㅡㄱ -14543
KO -14544
LO -14545
▁Kh -14546
ㄴㅡㄱ -14547
▁PSV -14548
▁Som -14549
▁0000 -14550
▁1750 -14551
▁News -14552
ㄱㅡㅁㅈㅏ -14553
ㅅㅡㄴㅅㅡ -14554
ㅋㅏㄹㄹㅗ -14555
ㅍㅔㄱㅌㅓ -14556
▁ㄱㅘㄴㅂㅗ -14557
▁ㄴㅏㅁㄷㅏ -14558
▁ㅁㅏㄴㅌㅗ -14559
▁ㅅㅐㄱㄷㅏ -14560
▁ㅌㅐㄱㅂㅐ -14561
▁ㅌㅗㅁㅍㅡ -14562
▁ㅎㅏㄴㄱㅣ -14563
▁ㅎㅐㅇㅇㅢ -14564
ㅅㅏㅁㄱㅜㄱ -14565
ㅇㅠㄱㅂㅓㅂ -14566
ㅈㅗㅇㅅㅓㄱ -14567
▁ㄱㅓㅁㅁㅜㄴ -14568
▁ㄱㅘㅇㅊㅓㄴ -14569
▁ㄱㅜㄴㅊㅜㄱ -14570
▁ㅁㅜㄴㅇㅣㄱ -14571
▁ㅅㅏㄴㄱㅗㄹ -14572
▁ㅇㅕㅁㅂㅜㄴ -14573
▁ㅇㅘㄴㅂㅗㅇ -14574
▁ㅇㅚㄴㅂㅏㄹ -14575
▁ㅎㅗㄹㄹㅡㅁ -14576
ㅂㅏㅇㅈㅓㄴㅅㅓㄴ -14577
▁ㅊㅗㅇㅁㅕㄴㅈㅓㄱ -14578
▁ㅅㅣㄴㅊㅜㄴㅁㅜㄴㅇㅖ -14579
ENT -14580
fer -14581
iful -14582
obal -14583
▁KNN -14584
▁MiG -14585
▁maj -14586
ember -14587
▁Come -14588
▁PROD -14589
▁Park -14590
▁cent -14591
ㄱㅜㄱㅈㅏ -14592
ㄱㅡㄹㄹㅗ -14593
ㅁㅏㄱㅇㅣ -14594
ㅅㅣㅂㄹㅣ -14595
ㅎㅏㄴㄴㅔ -14596
ㅎㅏㄴㄷㅡ -14597
▁There -14598
▁ㄱㅏㅇㄱㅖ -14599
ㄴㅐㄴㅅㅕㄹ -14600
ㅅㅣㄴㄷㅗㅇ -14601
ㅇㅏㄴㄱㅕㅇ -14602
ㅇㅣㅂㄱㅜㄱ -14603
▁ㄱㅝㄴㅅㅣㄴ -14604
▁ㅂㅏㄴㅊㅜㄹ -14605
▁ㅅㅣㄴㅎㅗㄴ -14606
▁ㅇㅑㅇㄱㅗㄴ -14607
▁ㅇㅑㅇㅂㅗㄱ -14608
▁ㅇㅑㅇㅈㅜㄴ -14609
▁ㅊㅜㄹㅇㅝㄴ -14610
▁ㅌㅏㄹㅂㅜㄱ -14611
▁ㅍㅗㄱㄹㅏㄱ -14612
▁ㅂㅏㄹㅇㅝㄴㅈㅣ -14613
▁ㅇㅝㄹㄱㅏㄴㅈㅣ -14614
ㅁㅏㅇㅇㅝㄴㄱㅕㅇ -14615
▁ㅇㅕㄴㄱㅡㅁㅅㅜㄹ -14616
▁ㅈㅜㅇㄹㅣㅂㄱㅜㄱ -14617
ㅏㅇㅑ -14618
ters -14619
▁248 -14620
▁254 -14621
▁299 -14622
▁324 -14623
▁text -14624
ㄱㅗㅂㅁㅣ -14625
ㄷㅗㅇㅎㅘ -14626
ㅅㅗㄱㅎㅘ -14627
ㅇㅡㄴㅎㅏ -14628
▁ㄱㅗㅇㅎㅓ -14629
▁ㅁㅏㅇㄱㅗ -14630
▁ㅇㅝㄴㅎㅚ -14631
▁ㅊㅏㅁㅎㅚ -14632
ㄱㅗㅇㅇㅕㄴ -14633
ㅈㅏㅇㄱㅜㄱ -14634
ㅍㅜㅁㅈㅣㄹ -14635
ㅎㅏㄴㅁㅏㄹ -14636
▁ㄲㅜㄹㅂㅓㄹ -14637
▁ㅁㅏㄱㅅㅣㅁ -14638
▁ㅂㅐㄱㅅㅏㅇ -14639
▁ㅂㅓㅂㅁㅕㅇ -14640
▁ㅇㅏㅇㅎㅔㄹ -14641
▁ㅊㅓㄴㅇㅣㄹ -14642
▁ㅍㅓㄴㄷㅣㅇ -14643
▁ㅎㅏㄱㅅㅏㄴ -14644
▁ㅂㅣㄴㅂㅓㄴㅎㅣ -14645
▁ㅇㅡㅇㅇㅝㄴㄱㅏ -14646
▁ㅎㅐㅇㄹㅕㄹㅅㅣㄱ -14647
▁;- -14648
▁GC -14649
ache -14650
▁269 -14651
▁308 -14652
▁581 -14653
▁und -14654
▁ㄹㅠㅇ -14655
▁ㅍㅕㅁ -14656
earch -14657
▁Take -14658
ㄷㅣㄱㅌㅡ -14659
ㅂㅏㄹㄹㅜ -14660
ㅅㅏㄴㅎㅐ -14661
▁IDOLM -14662
▁ㅁㅕㄴㅅㅏ -14663
▁ㅅㅏㄴㅁㅗ -14664
▁ㅇㅏㄹㅌㅡ -14665
▁ㅇㅣㅁㅆㅣ -14666
▁ㅍㅗㄹㅅㅡ -14667
▁ㅎㅣㄹㄷㅔ -14668
ㅇㅓㅂㅈㅏㅇ -14669
ㅎㅏㄱㄷㅗㅇ -14670
▁ㅂㅏㄴㅇㅝㄴ -14671
▁ㅂㅐㄱㅅㅓㄴ -14672
▁ㅅㅣㅁㅊㅓㅇ -14673
▁ㅊㅓㅇㅎㅗㄴ -14674
▁ㅅㅏㅇㅊㅡㅇㅂㅜ -14675
▁ㅅㅣㄹㅈㅡㅇㅈㅜ -14676
▁ㅋㅓㅁㅍㅐㄱㅌㅡ -14677
▁ㅎㅕㅂㄹㅕㄱㅈㅏ -14678
▁ㅅㅓㄴㅈㅓㄴㄱㅘㄴ -14679
SS -14680
VB -14681
INE -14682
ift -14683
▁Hy -14684
▁NR -14685
ㅍㅜㅅ -14686
ruct -14687
▁241 -14688
▁TBN -14689
press -14690
▁over -14691
ㅂㅔㄱㅅㅡ -14692
▁ㅂㅜㅁㅂㅣ -14693
▁ㅃㅏㄹㅊㅣ -14694
▁ㅈㅓㄱㅇㅟ -14695
▁ㅈㅓㄴㅍㅐ -14696
▁ㅎㅕㄴㅅㅔ -14697
ㅇㅣㄹㄱㅏㅇ -14698
ㅋㅣㅇㅇㅓㅁ -14699
▁ㄸㅡㅅㅂㅏㄲ -14700
▁ㅂㅕㄴㅈㅓㄹ -14701
▁ㅂㅕㅇㅅㅏㅇ -14702
▁ㅈㅏㄱㅂㅕㄹ -14703
▁ㅈㅓㄴㅇㅕㄴ -14704
▁ㅍㅜㅇㄴㅕㄴ -14705
▁ㅊㅗㅇㅇㅕㄴㅈㅏㅇ -14706
con -14707
▁JA -14708
▁279 -14709
▁JYP -14710
▁ㄸㅡㅁ -14711
▁1758 -14712
▁ㄴㅏㄱㅎㅜ -14713
▁ㅅㅏㄱㄱㅘ -14714
▁ㅅㅣㄹㄹㅜ -14715
▁ㅇㅗㅇㄱㅣ -14716
ㅇㅛㅇㅁㅜㄹ -14717
ㅎㅐㅇㄱㅐㄱ -14718
▁ㄷㅗㅇㄷㅏㄴ -14719
▁ㅁㅕㄴㅊㅐㄱ -14720
▁ㅁㅜㄴㅅㅓㄴ -14721
▁ㅇㅘㄴㅅㅡㅇ -14722
▁ㅍㅜㅇㅁㅜㄹ -14723
ㅁㅓㄴㅇㅞㄹㅅㅡ -14724
ㅍㅕㅇㅈㅏㅇㅅㅏ -14725
▁ㅁㅏㅇㅅㅓㄹㅇㅣ -14726
▁ㅅㅏㅁㅂㅕㄹㅊㅗ -14727
▁ㅅㅣㄱㅁㅣㄴㅈㅜ -14728
▁ㅅㅣㄹㅇㅓㅂㅈㅏ -14729
▁ㅁㅗㄱㅇㅛㄱㅌㅏㅇ -14730
▁ㅇㅣㅂㅎㅓㄴㄱㅜㄴㅈㅜ -14731
31 -14732
UB -14733
▁318 -14734
▁1506 -14735
▁1603 -14736
▁Songs -14737
▁Trans -14738
▁ㄱㅏㅄㅆㅏ -14739
▁ㄱㅏㅇㅈㅜ -14740
▁ㄷㅏㄹㄹㅔ -14741
▁ㄷㅗㅇㅊㅗ -14742
▁ㅁㅡㄹㄹㅏ -14743
▁ㅅㅕㄹㄹㅣ -14744
▁ㅅㅣㄴㅅㅡ -14745
▁ㅇㅕㄱㄴㅐ -14746
▁ㅍㅐㄴㄷㅓ -14747
ㄹㅡㄴㅍㅏㄹ -14748
▁ㄱㅓㄴㅂㅏㄴ -14749
▁ㄱㅝㄴㅅㅗㄱ -14750
▁ㅁㅜㄹㅁㅏㅇ -14751
▁ㅂㅗㅇㅅㅓㄴ -14752
▁ㅈㅏㅇㅁㅜㄴ -14753
▁ㅎㅕㄹㅈㅡㅇ -14754
▁ㅅㅣㄴㅈㅓㅇㅂㅜ -14755
▁ㅌㅏㄹㅂㅜㄱㅈㅏ -14756
▁ㅅㅓㅇㅅㅏㅁㅁㅜㄴ -14757
ERT -14758
ㅎㅔㅁ -14759
▁BGM -14760
▁ITV -14761
▁Lin -14762
▁Que -14763
▁ㄴㅓㅅ -14764
▁1786 -14765
▁Mach -14766
▁ㄱㅣㅁㅁㅜ -14767
▁ㄴㅗㄱㅊㅏ -14768
▁ㅁㅕㄹㅎㅏ -14769
▁ㅂㅓㅁㅍㅓ -14770
▁ㅅㅣㄴㅌㅐ -14771
▁ㅇㅝㄴㅈㅚ -14772
▁ㅌㅏㄱㅈㅏ -14773
ㅎㅕㄴㅅㅏㅇ -14774
▁ㄱㅕㄹㅈㅓㄹ -14775
▁ㄷㅟㅅㅅㅏㄴ -14776
▁ㅅㅓㄱㅇㅕㅇ -14777
▁ㅇㅠㄱㅅㅣㄴ -14778
▁ㅈㅣㄹㅅㅣㄱ -14779
▁ㅅㅣㄴㅊㅓㄴㅈㅣ -14780
▁ㄱㅣㅁㅅㅓㅇㄱㅡㄴ -14781
▁ㄱㅣㅁㅈㅏㅇㅅㅐㅇ -14782
▁ㄷㅗㅇㄱㅡㅂㅅㅐㅇ -14783
▁TW -14784
ㅍㅐㅁ -14785
ider -14786
▁293 -14787
▁Del -14788
▁ㄹㅜㅂ -14789
▁ㅁㅔㅁ -14790
▁Club -14791
ㄷㅣㅇㄱㅓ -14792
ㅂㅓㄱㅈㅣ -14793
▁ㄴㅗㄱㅇㅏ -14794
▁ㅅㅏㄹㄹㅗ -14795
▁ㅇㅘㅇㄷㅐ -14796
▁ㄱㅜㄱㅇㅡㄹ -14797
▁ㅅㅏㅇㅇㅘㅇ -14798
▁ㅇㅏㄹㅅㅓㄴ -14799
▁ㅈㅓㄴㄹㅣㅂ -14800
▁ㅎㅏㄴㅅㅣㄱ -14801
ㄹㅏㄴㅅㅣㄹㅂㅏ -14802
▁ㅅㅣㄱㅂㅕㄹㅈㅏ -14803
ㅂㅜㄴㅈㅣㅂㅎㅏㅂ -14804
▁ㅅㅏㅂㅇㅣㅂㄱㅗㄱ -14805
▁ㅇㅕㅇㅅㅏㅇㅁㅜㄹ -14806
121 -14807
ets -14808
ㄸㅡㄱ -14809
ㅍㅏㅁ -14810
▁490 -14811
▁TNT -14812
▁1050 -14813
▁1718 -14814
▁Boys -14815
ㅍㅐㄴㅈㅣ -14816
ㅎㅏㄴㅊㅔ -14817
▁ㄱㅏㅁㄷㅗ -14818
▁ㄹㅣㄴㅈㅣ -14819
▁ㅇㅏㅍㄷㅏ -14820
▁ㅇㅓㄹㅌㅣ -14821
▁ㅇㅜㄴㅌㅡ -14822
▁ㅈㅏㅇㄴㅐ -14823
▁ㅊㅣㄴㅂㅜ -14824
▁ㅎㅕㅂㅅㅣ -14825
▁ㅎㅘㅇㅇㅜ -14826
ㅅㅜㄱㅇㅘㅇ -14827
ㅅㅡㅇㅇㅕㅂ -14828
ㅇㅕㄴㅂㅓㅂ -14829
▁PRODUC -14830
▁ㅁㅜㄴㄷㅗㅇ -14831
▁ㅂㅜㄴㄷㅗㅇ -14832
▁ㅅㅐㅇㄷㅗㅇ -14833
▁ㅇㅕㅇㄹㅡㅇ -14834
▁ㅇㅜㅇㅂㅕㄴ -14835
ㅂㅓㄹㄹㅐㄴㄷㅡ -14836
▁ㅎㅓㄴㅂㅕㅇㄷㅐ -14837
▁ㅊㅜㅇㅅㅜㄱㅇㅘㅇ -14838
▁JK -14839
▁TT -14840
▁272 -14841
▁335 -14842
▁421 -14843
▁Ext -14844
▁JAP -14845
▁rem -14846
bject -14847
▁1614 -14848
▁1650 -14849
▁cont -14850
ㄱㅓㄹㄹㅣ -14851
ㄷㅏㅇㅅㅓ -14852
▁ㄹㅐㄹㅍㅡ -14853
▁ㅂㅐㄱㅎㅗ -14854
▁ㅂㅜㄹㄱㅡ -14855
▁ㅅㅣㄹㄹㅓ -14856
▁ㅈㅏㅇㅇㅓ -14857
▁ㅈㅓㅇㄱㅏ -14858
▁ㅈㅓㅇㅆㅣ -14859
▁ㅋㅔㄴㅈㅣ -14860
▁ㄱㅗㅇㄴㅏㅂ -14861
▁ㅁㅏㅈㅇㅡㄴ -14862
▁ㅂㅐㄱㄱㅜㄴ -14863
▁ㅇㅣㅁㅊㅓㄴ -14864
▁ㄱㅗㅇㄷㅗㅇㅁㅛ -14865
▁ㅅㅐㅇㅎㅘㄹㅂㅣ -14866
▁ㅊㅣㅁㅍㅐㄴㅈㅣ -14867
▁ㅋㅏㄹㅂㅐㅇㅈㅜ -14868
▁ㅅㅏㄹㅇㅣㄴㅂㅓㅁ -14869
▁ㅈㅏㅇㅎㅏㄱㅅㅐㅇ -14870
▁ㅌㅗㅇㄱㅡㄴㅇㅕㄹㅊㅏ -14871
HA -14872
ㄹㅅㅜ -14873
▁351 -14874
▁405 -14875
▁CSS -14876
▁HBO -14877
▁Mot -14878
▁USD -14879
cript -14880
▁1618 -14881
▁1785 -14882
▁Band -14883
▁Work -14884
ㄹㅏㅇㅅㅣ -14885
ㅇㅑㅇㄹㅣ -14886
ㅈㅏㅇㄱㅛ -14887
ㅊㅗㅇㅅㅏ -14888
▁ㄴㅏㅁㅇㅜ -14889
▁ㄷㅔㄹㄹㅗ -14890
▁ㅁㅜㅁㅂㅏ -14891
▁ㅅㅣㄴㅅㅓ -14892
▁ㅋㅓㄹㅌㅡ -14893
▁ㅎㅕㅂㅅㅗ -14894
▁ㅎㅗㄴㄹㅖ -14895
ㅎㅕㄴㅅㅣㄱ -14896
▁ㅅㅏㄴㅊㅓㄴ -14897
▁ㅅㅔㄹㅌㅣㄱ -14898
▁ㅇㅏㅁㅁㅜㄱ -14899
▁ㅊㅡㄱㅅㅓㄴ -14900
▁ㅍㅐㄴㅌㅐㄱ -14901
▁ㄱㅕㅇㅈㅓㄴㅊㅏ -14902
▁ㅈㅓㄱㄷㅏㅇㅎㅣ -14903
▁ㅊㅓㄹㄱㅘㅇㅅㅓㄱ -14904
ㅁㅔㅇ -14905
ious -14906
▁525 -14907
▁VfL -14908
ㄱㅜㄴㅅㅏ -14909
ㅅㅣㄱㅈㅜ -14910
ㅇㅛㅇㅎㅐ -14911
▁ㄱㅝㄴㅈㅔ -14912
▁ㄷㅏㄴㄱㅏ -14913
▁ㄷㅏㅂㅅㅏ -14914
▁ㅁㅏㄴㅎㅚ -14915
▁ㅂㅏㄱㄱㅠ -14916
▁ㅅㅠㄹㅊㅡ -14917
▁ㅅㅣㄴㅇㅏ -14918
▁ㅇㅕㄴㄱㅏ -14919
▁ㅊㅓㅁㅅㅏ -14920
▁ㅍㅕㄴㅇㅣ -14921
ㅇㅣㅁㄷㅏㅇ -14922
▁ㄱㅕㅇㄹㅕㄴ -14923
▁ㄱㅗㅇㅇㅓㄴ -14924
▁ㄱㅣㅁㅈㅜㅇ -14925
▁ㄴㅏㅁㅈㅓㅇ -14926
▁ㅂㅏㅇㅍㅕㄴ -14927
▁ㅂㅕㅇㅇㅛㅇ -14928
▁ㅂㅗㄲㅇㅡㅁ -14929
▁ㅅㅓㄴㅁㅏㅇ -14930
▁ㅅㅓㅇㄱㅘㄴ -14931
▁ㅅㅜㄴㄱㅕㅇ -14932
▁ㅊㅜㅇㅁㅏㄴ -14933
▁ㅌㅏㄹㄹㅣㄴ -14934
▁ㅌㅗㅇㅍㅜㅇ -14935
▁ㅌㅡㄱㅈㅣㄹ -14936
▁ㄴㅗㄱㄴㅡㄴㅈㅓㅁ -14937
▁ㄷㅗㄱㄹㅣㅂㅅㅣㄴㅁㅜㄴ -14938
35 -14939
mus -14940
▁GPL -14941
▁WOR -14942
ㅇㅕㅇㄱㅜ -14943
ㅇㅡㅁㄱㅣ -14944
▁ㄹㅏㅂㅂㅣ -14945
▁ㅇㅜㄴㅈㅜ -14946
▁ㅎㅗㄹㅌㅡ -14947
▁ㅎㅣㄴㄷㅣ -14948
ㅇㅕㄹㅇㅘㅇ -14949
▁ㅅㅜㄱㅈㅓㄱ -14950
▁ㅅㅜㄴㄱㅕㄹ -14951
▁ㅇㅕㅇㅌㅗㅇ -14952
▁ㅇㅣㄱㄹㅛㅇ -14953
▁ㅈㅣㄴㅊㅓㄱ -14954
▁ㅎㅘㅇㅈㅣㄴ -14955
▁Microsoft -14956
▁ㅅㅜㄴㅊㅏㅇㄱㅜㄴ -14957
▁ㅌㅗㅇㅊㅏㄹㄹㅕㄱ -14958
▁ㅍㅕㄴㅈㅣㅂㅇㅣㄴ -14959
pl -14960
sch -14961
▁BA -14962
▁LE -14963
▁UM -14964
ㄲㅜㅂ -14965
▁730 -14966
▁Fly -14967
▁Mad -14968
▁jpg -14969
▁ㅅㅗㅂ -14970
▁Want -14971
ㅂㅓㅂㅅㅗ -14972
ㅂㅣㄴㅊㅣ -14973
ㅇㅕㅇㅎㅢ -14974
▁major -14975
▁ㄱㅜㄹㅈㅣ -14976
▁ㄷㅡㄹㅋㅣ -14977
▁ㅂㅗㅇㅈㅣ -14978
▁ㅇㅠㄱㄹㅗ -14979
▁ㅇㅣㄹㄹㅗ -14980
▁ㅇㅣㅁㅈㅏ -14981
▁ㅈㅏㅂㅎㅕ -14982
▁ㅍㅏㄹㅁㅏ -14983
▁ㅍㅐㄱㅅㅡ -14984
ㅇㅓㅂㄷㅏㄴ -14985
ㅈㅜㅇㄹㅕㄱ -14986
▁ㅁㅜㄴㅇㅘㅇ -14987
▁ㅅㅑㄹㄹㅗㅅ -14988
▁ㅈㅜㅇㅈㅡㅇ -14989
▁ㅈㅣㄴㄱㅕㅇ -14990
ㅇㅣㄴㄹㅏㄴㅌㅡ -14991
▁ㅇㅚㄴㅅㅗㄴㅈㅏㅂㅇㅣ -14992
48 -14993
ga -14994
put -14995
uss -14996
▁870 -14997
▁ㄱㅚㅇ -14998
▁ㅃㅗㅁ -14999
ㄹㅏㅇㅊㅐ -15000
ㅂㅓㄴㅌㅡ -15001
ㅎㅏㄴㅎㅚ -15002
▁ㅁㅕㄹㅅㅣ -15003
▁ㅁㅗㄱㅅㅜ -15004
▁ㅅㅓㄹㅍㅏ -15005
▁ㅇㅣㄹㄹㅜ -15006
▁ㅈㅓㅇㅇㅣ -15007
▁ㅊㅓㅇㅇㅓ -15008
▁ㅋㅜㄹㄹㅏ -15009
▁ㅌㅔㄹㅇㅏ -15010
ㄷㅗㄷㅇㅜㅁ -15011
ㅇㅓㄴㅈㅏㅇ -15012
▁ㄱㅘㄴㅈㅏㄱ -15013
▁ㄱㅜㄱㅇㅝㄴ -15014
▁ㅅㅣㄴㅇㅣㄹ -15015
▁ㅅㅣㄹㅎㅕㅇ -15016
▁ㅈㅏㄱㅍㅜㅇ -15017
▁ㄷㅓㄱㅎㅡㅇㄷㅐ -15018
▁ㄷㅗㄹㅍㅣㄴㅅㅡ -15019
▁ㅂㅏㄷㅊㅣㅁㄷㅐ -15020
▁ㅁㅏㅈㅇㅡㄴㅍㅕㄴ -15021
ti -15022
ray -15023
▁BN -15024
▁Dec -15025
▁Kid -15026
▁Say -15027
▁ㄹㅖㄴ -15028
▁Mind -15029
ㄱㅕㄱㄱㅣ -15030
ㄷㅡㄱㅇㅣ -15031
ㄷㅡㅇㅇㅓ -15032
ㅂㅡㄹㅇㅠ -15033
ㅅㅔㄴㅌㅔ -15034
ㅈㅏㅇㅊㅣ -15035
▁ㄱㅕㅇㅁㅣ -15036
▁ㄴㅏㅁㅇㅟ -15037
▁ㄹㅗㄹㄹㅏ -15038
▁ㅅㅓㄱㅂㅣ -15039
▁ㅅㅣㄹㅅㅔ -15040
▁ㅇㅏㄹㄱㅏ -15041
▁ㅇㅕㅇㅁㅛ -15042
▁ㅈㅏㅇㅈㅐ -15043
▁ㄱㅏㄱㄱㅡㅂ -15044
▁ㄹㅗㅁㅁㅔㄹ -15045
▁ㅁㅕㅇㅈㅓㅇ -15046
▁ㅅㅏㅇㅎㅕㅇ -15047
▁ㅅㅓㅁㅇㅣㄴ -15048
▁ㅅㅓㅁㅈㅣㄴ -15049
▁ㅇㅕㅇㄷㅏㅇ -15050
▁ㅊㅓㄹㅇㅣㄴ -15051
▁ㅎㅘㅇㄱㅜㄱ -15052
▁ㅅㅣㄴㅅㅗㄱㅎㅣ -15053
▁ㅈㅏㄱㅇㅛㅇㄱㅣ -15054
▁ㅊㅜㄹㅅㅣㄴㅈㅏ -15055
▁go -15056
ving -15057
▁258 -15058
ㅍㅏㄹㅌㅡ -15059
▁ㄱㅡㅁㅅㅔ -15060
▁ㅇㅏㄱㅅㅜ -15061
▁ㅍㅜㅁㅇㅟ -15062
ㅈㅜㅇㅅㅣㅁ -15063
▁ㄱㅗㄴㅈㅏㄹ -15064
▁ㄴㅏㅁㅇㅏㄴ -15065
▁ㅂㅜㄹㄱㅗㅇ -15066
▁ㅅㅏㄴㅈㅓㄴ -15067
▁ㅅㅏㅇㄴㅑㅇ -15068
▁ㅈㅜㅇㅎㅐㄱ -15069
▁ㅅㅡㅇㄱㅏㅇㄱㅣ -15070
▁ㅈㅣㅂㅎㅐㅇㅂㅜ -15071
▁ㅎㅡㅂㅎㅕㄹㄱㅟ -15072
▁ㅈㅓㄴㅁㅜㄴㅈㅓㅁ -15073
III -15074
▁KA -15075
▁XL -15076
▁Cat -15077
▁EFL -15078
▁log -15079
▁NADP -15080
ㄹㅔㄱㅅㅡ -15081
ㅅㅏㅇㄷㅐ -15082
▁ㄴㅗㄴㅇㅓ -15083
▁ㅃㅏㄹㅇㅏ -15084
▁ㅈㅏㅇㄱㅏ -15085
▁ㅈㅣㅂㅇㅛ -15086
▁ㅊㅏㅁㅍㅏ -15087
▁ㅊㅓㄴㅂㅗ -15088
▁ㅊㅗㄴㅇㅢ -15089
▁ㅍㅏㄴㄱㅘ -15090
ㅅㅓㅇㅇㅡㅁ -15091
ㅅㅡㄹㄹㅣㄴ -15092
ㅇㅣㄹㄹㅓㄴ -15093
▁ㄱㅘㄴㄷㅡㅇ -15094
▁ㄱㅜㄴㅅㅣㄴ -15095
▁ㄱㅡㅁㅇㅕㄴ -15096
▁ㅂㅕㄴㅊㅣㄱ -15097
▁ㅅㅓㄱㅅㅓㅇ -15098
▁ㅇㅝㄴㄷㅏㅁ -15099
▁ㅈㅓㅁㄱㅡㄴ -15100
▁ㅈㅓㅂㅈㅓㅁ -15101
▁ㅌㅗㅇㄱㅗㄱ -15102
▁ㅎㅕㄹㅈㅜㅇ -15103
▁ㅅㅣㄴㅊㅓㅇㅅㅓ -15104
▁ㄱㅓㄴㅊㅜㄱㅎㅏㄱ -15105
▁ㅂㅏㄹㄷㅗㄷㅇㅜㅁ -15106
▁LM -15107
▁MF -15108
▁TOK -15109
▁1590 -15110
▁1781 -15111
▁Hard -15112
▁Perf -15113
ㅇㅔㄴㅌㅔ -15114
ㅈㅏㅇㅈㅣ -15115
▁Count -15116
▁ㄱㅓㄴㄷㅐ -15117
▁ㅈㅏㅇㄱㅖ -15118
▁ㅊㅏㅇㅎㅗ -15119
▁ㅍㅜㄹㄹㅓ -15120
ㄱㅏㄱㄱㅏㄱ -15121
ㅇㅕㅇㅎㅜㄴ -15122
ㅇㅜㄹㄹㅣㅁ -15123
ㅈㅓㅇㅁㅣㄴ -15124
ㅌㅗㅇㅁㅏㅇ -15125
▁Street -15126
▁ㄱㅡㅁㅇㅡㄴ -15127
▁ㅂㅏㅁㄴㅏㅈ -15128
▁ㅂㅏㅇㅁㅏㅇ -15129
▁ㅇㅑㅇㅁㅏㄹ -15130
▁ㅇㅑㅇㅁㅣㄴ -15131
▁ㅇㅗㄹㅅㅡㄴ -15132
▁ㅈㅏㅇㅅㅏㄴ -15133
▁ㅈㅏㅇㅎㅕㅇ -15134
▁ㅎㅐㅇㅅㅣㄹ -15135
▁ㄱㅕㅇㅊㅏㄹㄷㅐ -15136
▁ㅂㅗㅇㅇㅡㄴㅅㅏ -15137
▁ㅅㅓㄴㄷㅓㄱㅇㅕ -15138
▁Hi -15139
▁Feel -15140
ㄴㅏㄴㅊㅓ -15141
ㄷㅏㅁㅅㅡ -15142
▁JAPAN -15143
▁ㄱㅏㅂㅅㅏ -15144
▁ㄱㅔㄴㄴㅏ -15145
▁ㅁㅏㅈㅎㅣ -15146
▁ㅁㅗㅇㅌㅔ -15147
▁ㅂㅜㄱㅅㅡ -15148
▁ㅂㅣㄴㅂㅜ -15149
▁ㅅㅏㅇㅈㅣ -15150
▁ㅅㅓㅇㅅㅗ -15151
▁ㅇㅕㅁㅇㅗ -15152
▁ㅇㅡㅁㄷㅐ -15153
▁ㅌㅜㄹㄹㅏ -15154
▁ㅍㅔㅂㅅㅣ -15155
▁ㅎㅏㅂㅈㅜ -15156
ㄱㅕㄹㄱㅝㄴ -15157
ㄱㅗㅇㄷㅏㄴ -15158
ㅂㅏㅇㅇㅏㅁ -15159
▁ㄱㅏㅁㅅㅣㄹ -15160
▁ㄱㅘㄴㅂㅗㄱ -15161
▁ㄱㅜㄴㅇㅕㅇ -15162
▁ㄴㅓㄱㄴㅓㄱ -15163
▁ㅁㅗㅁㄷㅏㅁ -15164
▁ㅂㅏㄱㅅㅓㄴ -15165
▁ㅂㅜㄴㅎㅗㅇ -15166
▁ㅅㅏㅇㅂㅗㄱ -15167
▁ㅊㅗㅇㅇㅕㄹ -15168
▁ㅅㅣㄹㅎㅏㄱㅈㅏ -15169
▁ㅇㅐㄹㄹㅣㄱㅅㅡ -15170
▁ㅂㅜㄱㄱㅡㄱㅅㅓㅇ -15171
▁ㅅㅐㅇㅅㅏㄴㅍㅜㅁ -15172
GL -15173
ula -15174
▁was -15175
▁ㅅㅠㅇ -15176
ㅂㅐㅇㅇㅣ -15177
ㅈㅓㄴㅈㅔ -15178
ㅈㅓㅇㅅㅣ -15179
ㅊㅜㅇㅈㅔ -15180
▁while -15181
▁ㄱㅏㄴㅅㅔ -15182
▁ㄷㅏㅇㅎㅐ -15183
▁ㅂㅕㅇㅁㅜ -15184
▁ㅈㅓㄴㅇㅢ -15185
▁ㅍㅏㄹㅊㅡ -15186
ㅅㅣㄹㄹㅣㄴ -15187
ㅈㅓㄴㅈㅡㅇ -15188
▁ㄷㅗㄹㄹㅣㅁ -15189
▁ㅅㅣㅁㅇㅑㅇ -15190
▁ㅇㅜㄴㄴㅏㅁ -15191
▁ㅈㅓㅇㅂㅏㅇ -15192
▁ㅊㅓㄴㅅㅣㄱ -15193
▁ㅊㅗㄱㅌㅏㄱ -15194
ㅅㅜㅇㄹㅗㄱㄷㅐ -15195
▁ㄱㅡㅁㅊㅓㄴㄱㅜ -15196
▁ㅎㅡㅇㅊㅓㄴㅅㅏ -15197
▁ㅍㅗㄱㅂㅏㄹㄹㅕㄱ -15198
ICA -15199
▁HN -15200
▁OO -15201
edia -15202
▁Max -15203
▁SSG -15204
▁Sal -15205
▁fis -15206
▁one -15207
ㅁㅜㅇㅊㅣ -15208
ㅇㅣㄴㅎㅘ -15209
ㅈㅏㄴㄷㅣ -15210
ㅈㅓㅇㄱㅓ -15211
▁ㅂㅐㄴㄷㅓ -15212
▁ㅅㅓㄴㅇㅢ -15213
▁ㅇㅖㅂㅅㅡ -15214
▁ㅇㅠㄱㄱㅖ -15215
▁ㅇㅣㄹㅎㅚ -15216
▁ㅈㅓㄴㄱㅖ -15217
▁ㅍㅣㄹㅊㅣ -15218
▁ㅎㅐㅁㅅㅡ -15219
▁Instit -15220
▁ㄱㅕㅇㄷㅗㅇ -15221
▁ㄱㅜㄱㅊㅐㄱ -15222
▁ㄱㅜㄴㄱㅜㄱ -15223
▁ㄴㅏㅁㅊㅣㅁ -15224
▁ㄴㅏㅁㅍㅕㅇ -15225
▁ㄷㅗㅇㄱㅘㅇ -15226
▁ㅂㅏㄴㅊㅏㄴ -15227
▁ㅇㅕㄴㅈㅓㄴ -15228
▁ㅈㅗㅇㅈㅜㅇ -15229
▁ㅈㅣㅇㅂㅓㄹ -15230
▁ㅎㅗㅇㅈㅗㅇ -15231
▁ㅅㅓㅇㅈㅏㅇㄱㅣ -15232
▁ㅇㅕㅇㅇㅓㅂㅅㅗ -15233
▁ㅇㅣㅁㅅㅏㄴㅂㅜ -15234
▁ㅊㅏㅇㅇㅓㅂㅈㅜ -15235
▁ㅊㅏㅇㄱㅕㅇㄱㅜㅇ -15236
▁ㅎㅜㄴㄹㅕㄴㅇㅝㄴ -15237
ㄱㅜㄱㅅㅜㅇㄹㅗㄱㄷㅐ -15238
ㅎㅠㄹ -15239
ular -15240
▁AAA -15241
▁NFL -15242
▁ㅆㅏㅁ -15243
▁FIBA -15244
ㅂㅜㄴㅅㅜ -15245
ㅅㅔㄴㅈㅜ -15246
ㅇㅝㄹㄹㅣ -15247
ㅈㅏㅇㄴㅏ -15248
ㅍㅣㅇㅋㅡ -15249
▁Break -15250
▁ㄴㅏㅁㅇㅗ -15251
▁ㅁㅗㄱㅁㅏ -15252
▁ㅂㅐㄱㅅㅓ -15253
▁ㅅㅗㄱㄹㅣ -15254
▁ㅇㅜㄹㅂㅓ -15255
▁ㅇㅠㄱㅅㅜ -15256
▁ㅈㅗㅇㅅㅜ -15257
▁ㅊㅏㅇㄱㅏ -15258
ㅌㅣㅇㅇㅓㅁ -15259
ㅎㅕㄴㅈㅣㄴ -15260
▁ㄱㅜㄴㅂㅓㅂ -15261
▁ㄴㅏㅇㅇㅣㄴ -15262
▁ㄴㅣㄹㅅㅡㄴ -15263
▁ㅁㅏㄴㅁㅣㄴ -15264
▁ㅅㅐㅇㅎㅏㅂ -15265
▁ㅅㅣㅁㅂㅓㄹ -15266
▁ㅅㅣㅁㅅㅓㅇ -15267
▁ㅊㅓㄴㄱㅜㅇ -15268
▁ㅊㅜㄹㅇㅗㄱ -15269
ㅋㅡㄹㄹㅔㄴㅂㅜ -15270
▁ㅁㅏㄹㄹㅣㄴㅅㅡ -15271
▁ㅇㅣㄴㅈㅡㅇㅅㅓ -15272
▁ㅊㅐㄴㄷㅡㄹㄹㅓ -15273
ㅂㅏㄱㅁㅜㄹㄱㅘㄴ -15274
▁ㄷㅗㅇㅁㅜㄹㅎㅏㄱㅈㅏ -15275
▁ㄷㅗㄱㄹㅣㅂㅅㅓㄴㅇㅓㄴㅅㅓ -15276
IME -15277
PER -15278
ense -15279
▁259 -15280
▁ㄴㅓㄳ -15281
▁ㄴㅠㅁ -15282
▁ㅁㅗㄷ -15283
▁ㅅㅜㅌ -15284
▁Only -15285
▁When -15286
ㄴㅔㄱㅌㅓ -15287
ㅊㅜㄱㅈㅔ -15288
▁ㄱㅓㅁㅈㅣ -15289
▁ㅂㅏㄴㄱㅡ -15290
▁ㅂㅓㄹㄱㅓ -15291
▁ㅅㅓㄱㄱㅗ -15292
▁ㅅㅣㄴㅌㅏ -15293
▁ㅇㅣㅁㅍㅣ -15294
▁ㅇㅣㅁㅎㅐ -15295
▁ㅊㅜㄹㄱㅗ -15296
▁ㅊㅣㅇㅎㅘ -15297
▁ㅎㅑㅇㅅㅏ -15298
ㅅㅓㄴㅇㅣㅁ -15299
ㅈㅣㄱㅂㅓㅂ -15300
ㅊㅜㄹㅍㅜㅁ -15301
▁ㄱㅏㅇㄹㅣㅁ -15302
▁ㅁㅣㄹㅈㅣㄱ -15303
▁ㅂㅗㄴㅇㅕㄴ -15304
▁ㅅㅏㄴㅁㅕㄴ -15305
▁ㅅㅐㅇㅇㅠㄱ -15306
▁ㅈㅓㅇㄱㅏㄴ -15307
▁ㅈㅓㅇㅂㅓㅂ -15308
▁ㅊㅓㄴㅁㅣㄴ -15309
▁ㅋㅗㄹㅁㅓㄴ -15310
▁ㅎㅓㅁㅈㅜㄴ -15311
▁ㅎㅕㄴㅅㅗㄴ -15312
▁ㅎㅕㅂㄱㅗㅇ -15313
▁ㄱㅕㅇㄱㅜㄱㄷㅐ -15314
▁ㄱㅡㅂㅅㅓㅇㅈㅏㅇ -15315
▁ㅅㅣㅂㅈㅣㄴㅂㅓㅂ -15316
▁ㅇㅕㅇㄷㅓㄱㄱㅜㄴ -15317
SA -15318
ily -15319
▁Cy -15320
▁284 -15321
▁780 -15322
▁Two -15323
▁ㄲㅝㅇ -15324
▁ㄷㅡㅁ -15325
▁ㄹㅐㅂㅍㅓ -15326
▁ㅇㅏㄹㄹㅠ -15327
▁ㅇㅐㄴㅌㅣ -15328
▁ㅈㅗㅇㅅㅣ -15329
▁ㅋㅏㄱㅌㅔ -15330
▁ㅍㅕㄴㅁㅣ -15331
ㅅㅏㄴㅂㅓㅂ -15332
ㅈㅏㅇㄱㅠㄴ -15333
▁ㄱㅕㅇㅈㅓㅇ -15334
▁ㅂㅓㄴㅈㅣㄴ -15335
▁ㅈㅏㅇㅇㅠㄴ -15336
▁ㅍㅕㅇㄱㅏㅇ -15337
▁ㅎㅏㅇㅅㅗㄱ -15338
▁ㄱㅓㄴㅊㅜㄱㅅㅏ -15339
▁ㅌㅡㄹㄹㅣㅁㅇㅓㅄ -15340
oy -15341
ㅁㅚ -15342
ola -15343
oot -15344
une -15345
▁cl -15346
▁ㅅㅔㅇ -15347
ㄹㅣㅂㅅㅡ -15348
ㅁㅜㄹㅍㅗ -15349
ㅂㅜㄹㅎㅘ -15350
ㅅㅓㄲㅇㅣ -15351
▁ㄱㅓㄴㅈㅐ -15352
▁ㅂㅓㄴㄷㅔ -15353
▁ㅅㅓㄴㄴㅕ -15354
▁ㅇㅘㄴㄱㅗ -15355
▁ㅇㅣㄹㅅㅗ -15356
▁ㅍㅗㄴㅌㅔ -15357
ㄹㅕㅇㅇㅘㅇ -15358
ㅇㅑㅇㅅㅣㄴ -15359
ㅈㅏㅇㅁㅕㄴ -15360
ㅍㅕㄴㅁㅜㄹ -15361
▁ㄱㅡㄱㅈㅣㄴ -15362
▁ㅂㅕㄴㅎㅏㅁ -15363
▁ㅂㅜㄹㅆㅏㅇ -15364
▁ㅇㅔㄱㅅㅔㄹ -15365
▁ㅇㅕㅇㅅㅐㅇ -15366
▁ㅇㅣㄴㄷㅓㄱ -15367
ㄷㅗㅇㄱㅜㄱㅇㅕ -15368
▁ㅅㅓㄴㄷㅐㄴㅅㅡ -15369
▁ㅇㅗㄹㄹㅣㅁㅍㅗ -15370
▁ㅈㅏㅇㅈㅜㄴㅎㅏ -15371
▁ㅈㅏㄱㅇㅓㅂㅈㅏㅇ -15372
▁ㅈㅣㄴㅊㅜㄹㄱㅝㄴ -15373
▁ㅅㅣㄴㅈㅡㅇㄷㅗㅇㄱㅜㄱㅇㅕ -15374
▁ag -15375
▁830 -15376
▁MBA -15377
▁SIG -15378
▁ㅌㅐㄴ -15379
ㄱㅘㄴㅅㅗ -15380
ㅅㅏㄴㅈㅏ -15381
ㅅㅓㄴㄱㅟ -15382
▁ㄱㅓㄴㅅㅜ -15383
▁ㅈㅐㅇㅇㅢ -15384
▁ㅍㅏㄱㅅㅡ -15385
ㄱㅕㅇㄷㅏㄴ -15386
ㅇㅕㄹㄷㅏㄴ -15387
▁ㄱㅣㅁㄱㅡㄴ -15388
▁ㅁㅏㅇㄱㅏㄱ -15389
▁ㅅㅗㄱㅅㅗㄱ -15390
▁ㅅㅗㄴㅂㅏㄹ -15391
▁ㅇㅕㄱㅅㅏㅁ -15392
▁ㅇㅕㄴㅇㅑㄱ -15393
▁ㅈㅣㄱㅇㅕㅇ -15394
▁ㅍㅗㄱㅈㅓㅇ -15395
ㅇㅔㄴㅈㅔㄹㄹㅔ -15396
▁ㅅㅐㄴㅇㅏㄴㅌㅗ -15397
▁ㅆㅏㅇㄱㅡㄱㅈㅏ -15398
▁ㄱㅏㄱㅂㅗㄴㅅㅏㅇ -15399
120 -15400
▁BE -15401
▁Ju -15402
alth -15403
▁268 -15404
▁277 -15405
▁Bet -15406
▁NET -15407
ㄹㅏㄹㄷㅏ -15408
ㅇㅣㄴㅇㅐ -15409
ㅋㅡㄹㅅㅡ -15410
▁ㄱㅡㄱㅈㅣ -15411
▁ㄴㅏㄱㅁㅏ -15412
▁ㅅㅜㄴㅇㅣ -15413
▁ㅅㅣㄴㅈㅔ -15414
▁ㅇㅏㅁㅌㅡ -15415
▁ㅇㅏㅂㄱㅜ -15416
▁ㅇㅟㄴㅊㅔ -15417
▁ㅈㅏㅇㄱㅗ -15418
▁ㅎㅗㅁㅅㅡ -15419
▁ㅎㅡㅇㅅㅏ -15420
▁ㅎㅣㄹㄹㅣ -15421
ㅁㅜㄴㄷㅗㅇ -15422
▁ㄱㅣㅅㄷㅡㄹ -15423
▁ㄷㅣㄱㅅㅡㄴ -15424
▁ㄹㅓㄴㄴㅣㅇ -15425
▁ㅁㅣㄴㅂㅏㅇ -15426
▁ㅅㅏㄴㅇㅕㄱ -15427
▁ㅅㅓㄱㅍㅏㄴ -15428
▁ㅅㅜㅇㅅㅏㅇ -15429
▁ㅈㅣㄱㄱㅡㅂ -15430
▁ㅈㅏㄱㄱㅗㄱㅈㅏ -15431
▁ㅋㅗㄹㄹㅗㄴㅌㅏ -15432
▁ㅎㅡㅇㄱㅜㄱㅅㅏ -15433
irc -15434
▁NA -15435
▁328 -15436
▁475 -15437
▁707 -15438
▁840 -15439
▁ㄲㅗㄴ -15440
▁ㄴㅕㅁ -15441
ㅅㅐㅇㄷㅐ -15442
ㅅㅣㄱㄱㅣ -15443
ㅇㅏㅂㅂㅜ -15444
ㅊㅓㄹㅅㅗ -15445
ㅎㅡㄹㄹㅣ -15446
▁House -15447
▁ㄱㅗㅇㅈㅓ -15448
▁ㅂㅜㄴㄱㅗ -15449
▁ㅅㅏㅁㄱㅖ -15450
▁ㅇㅣㄹㅉㅣ -15451
▁ㅈㅣㅂㅌㅓ -15452
▁ㅍㅓㄹㅍㅡ -15453
▁ㅎㅕㄹㄹㅠ -15454
▁ㅎㅘㅇㅅㅐ -15455
▁ㅁㅣㅅㅁㅣㅅ -15456
▁ㅇㅗㄴㄷㅗㄹ -15457
▁ㅇㅝㄴㅍㅗㄱ -15458
▁ㅍㅗㅇㅌㅔㄴ -15459
▁PRODUCE -15460
▁ㄱㅗㅇㄱㅡㅂㅈㅏ -15461
▁ㅅㅏㅁㅊㅗㅇㅅㅏ -15462
▁ㅇㅏㅁㅎㅐㅇㅇㅓ -15463
▁ㄷㅏㅇㅅㅏㅇㄱㅘㄴ -15464
▁ㄹㅓㄴㄷㅓㄴㅌㅏㅂ -15465
▁ㅈㅜㅇㄷㅡㅇㅎㅏㄱㄱㅛ -15466
uch -15467
▁BY -15468
▁267 -15469
▁Reg -15470
▁ㄹㅐㅅ -15471
▁1637 -15472
▁1644 -15473
▁Some -15474
ㄷㅡㅇㄱㅗ -15475
ㄹㅏㅇㅋㅐ -15476
ㅂㅐㄱㅅㅣ -15477
ㅈㅔㄴㅂㅔ -15478
▁Apple -15479
▁ㄱㅜㄴㅈㅔ -15480
▁ㄴㅏㄱㅅㅓ -15481
▁ㄷㅗㅇㄷㅗ -15482
▁ㄸㅏㄱㅎㅣ -15483
▁ㅁㅣㄴㅅㅜ -15484
▁ㅊㅏㅇㅈㅔ -15485
ㄴㅕㅁㅌㅏㅂ -15486
ㅇㅕㅇㄷㅗㅇ -15487
ㅌㅡㄹㄹㅣㄴ -15488
▁ㄱㅗㅇㅊㅓㅇ -15489
▁ㄴㅗㅇㅇㅑㄱ -15490
▁ㄷㅟㅅㅂㅏㄹ -15491
▁ㅂㅜㅇㄷㅏㅇ -15492
▁ㅇㅣㄴㅇㅑㅇ -15493
▁ㅈㅓㄱㅅㅓㄹ -15494
▁ㅈㅓㄻㅇㅡㅁ -15495
▁ㅊㅓㅁㅈㅓㅇ -15496
▁ㅎㅘㄴㅁㅕㄹ -15497
ㄱㅜㄴㅈㅓㄹㄷㅗ -15498
▁ㅁㅕㄴㅇㅕㄱㄱㅖ -15499
▁ㅋㅡㄹㄹㅐㄴㅅㅣ -15500
▁ㅎㅐㅇㅅㅓㄴㅈㅣ -15501
▁ㅈㅜㅇㄹㅕㄱㅈㅏㅇ -15502
43 -15503
ICE -15504
ury -15505
lish -15506
▁990 -15507
▁Face -15508
ㄷㅐㄴㅅㅡ -15509
ㅅㅏㄴㄱㅏ -15510
ㅅㅓㄱㅅㅏ -15511
ㅇㅡㄹㄹㅣ -15512
ㅈㅔㄴㅌㅔ -15513
ㅌㅏㄹㄹㅔ -15514
ㅎㅓㅁㄹㅛ -15515
▁ㄱㅏㄱㅈㅜ -15516
▁ㄱㅕㄴㄷㅗ -15517
▁ㄷㅣㄹㄹㅣ -15518
▁ㅂㅏㄴㅅㅜ -15519
▁ㅂㅗㅇㄹㅐ -15520
▁ㅅㅓㅇㅈㅘ -15521
▁ㅍㅣㄹㄹㅓ -15522
▁ㅎㅘㅇㅅㅏ -15523
[...]
