▁▃ -0
▁이 -1
▁. -2
▁에 -3
▁는 -4
▁다 -5
▁의 -6
▁을 -7
▁하 -8
▁가 -9
▁, -10
▁한 -11
▁고 -12
▁를 -13
▁은 -14
▁지 -15
▁도 -16
▁으 -17
▁기 -18
▁있 -19
▁로 -20
▁1 -21
▁아 -22
▁에서 -23
▁그 -24
▁으로 -25
▁사 -26
▁2 -27
▁인 -28
▁들 -29
▁어 -30
▁시 -31
▁대 -32
▁라 -33
▁게 -34
▁수 -35
▁보 -36
▁자 -37
▁나 -38
▁되 -39
▁일 -40
▁전 -41
▁었 -42
▁해 -43
▁과 -44
▁면 -45
▁적 -46
▁것 -47
▁마 -48
▁만 -49
▁와 -50
▁- -51
▁스 -52
▁했 -53
▁주 -54
▁정 -55
▁부 -56
▁상 -57
▁때 -58
▁' -59
▁모 -60
▁3 -61
▁한다 -62
▁년 -63
▁여 -64
▁공 -65
▁중 -66
▁제 -67
▁20 -68
▁유 -69
▁경 -70
▁된 -71
▁오 -72
▁없 -73
▁지만 -74
▁위 -75
▁등 -76
▁비 -77
▁무 -78
▁소 -79
▁성 -80
▁: -81
▁거 -82
▁할 -83
▁않 -84
▁던 -85
▁미 -86
▁에게 -87
▁개 -88
▁세 -89
▁4 -90
▁조 -91
▁바 -92
▁서 -93
▁며 -94
▁" -95
▁장 -96
▁동 -97
▁5 -98
▁방 -99
▁내 -100
▁카 -101
▁신 -102
▁연 -103
▁구 -104
▁선 -105
▁월 -106
▁타 -107
▁안 -108
▁당 -109
▁말 -110
▁영 -111
▁때문 -112
▁후 -113
▁생 -114
▁201 -115
▁화 -116
▁까 -117
▁발 -118
▁는데 -119
▁/ -120
▁버 -121
▁리 -122
▁더 -123
▁레 -124
▁진 -125
▁차 -126
▁원 -127
▁0 -128
▁파 -129
▁까지 -130
▁우 -131
▁실 -132
▁강 -133
▁노 -134
▁라는 -135
▁불 -136
▁최 -137
▁같 -138
▁문 -139
▁명 -140
▁라고 -141
▁단 -142
▁많 -143
▁데 -144
▁번 -145
▁였 -146
▁된다 -147
▁포 -148
▁관 -149
▁특 -150
▁작 -151
▁받 -152
▁6 -153
▁역 -154
▁경우 -155
▁결 -156
▁반 -157
▁았 -158
▁다고 -159
▁10 -160
▁드 -161
▁프 -162
▁알 -163
▁초 -164
▁처 -165
▁면서 -166
▁계 -167
▁배 -168
▁회 -169
▁S -170
▁7 -171
▁코 -172
▁아니 -173
▁건 -174
▁남 -175
▁19 -176
▁분 -177
▁다는 -178
▁! -179
▁8 -180
▁물 -181
▁함 -182
▁본 -183
▁편 -184
▁피 -185
▁현 -186
▁출 -187
▁사용 -188
▁못 -189
▁국 -190
▁크 -191
▁정도 -192
▁사람 -193
▁달 -194
▁매 -195
▁이후 -196
▁공격 -197
▁야 -198
▁추 -199
▁자신 -200
▁니 -201
▁치 -202
▁좋 -203
▁9 -204
▁따 -205
레이 -206
▁요 -207
▁호 -208
▁점 -209
▁입 -210
▁감 -211
▁A -212
▁패 -213
▁두 -214
▁그리 -215
▁트 -216
▁재 -217
▁저 -218
▁통 -219
▁M -220
▁교 -221
▁메 -222
▁학 -223
▁등장 -224
▁캐 -225
▁예 -226
▁또 -227
▁참 -228
▁가능 -229
▁설 -230
▁형 -231
▁걸 -232
▁속 -233
▁군 -234
▁이나 -235
▁쓰 -236
▁플 -237
스트 -238
▁다른 -239
▁부터 -240
▁판 -241
▁죽 -242
▁살 -243
▁보다 -244
▁T -245
▁C -246
▁평 -247
▁외 -248
▁권 -249
▁게임 -250
▁으며 -251
▁토 -252
▁200 -253
▁종 -254
▁돌 -255
▁간 -256
▁키 -257
▁해서 -258
▁용 -259
▁.. -260
▁는다 -261
▁김 -262
▁애 -263
▁D -264
▁사실 -265
▁그리고 -266
▁아이 -267
▁B -268
▁올 -269
▁음 -270
▁잘 -271
▁심 -272
▁체 -273
▁% -274
▁~ -275
▁직 -276
▁듯 -277
▁맞 -278
▁하나 -279
▁다가 -280
▁엔 -281
▁루 -282
▁변 -283
▁승 -284
▁운 -285
▁필 -286
▁네 -287
▁히 -288
▁행 -289
▁위해 -290
▁확 -291
▁테 -292
▁디 -293
▁+ -294
▁뒤 -295
▁? -296
▁사이 -297
▁팀 -298
▁일본 -299
▁날 -300
▁나오 -301
지만 -302
▁베 -303
▁높 -304
▁언 -305
▁이름 -306
er -307
▁모습 -308
▁12 -309
▁박 -310
▁약 -311
▁집 -312
▁P -313
▁투 -314
▁목 -315
▁시간 -316
▁이상 -317
▁대한 -318
00 -319
▁존 -320
▁그러 -321
▁어서 -322
▁활 -323
▁거나 -324
▁표 -325
스터 -326
▁능 -327
▁양 -328
▁문제 -329
▁캐릭 -330
▁하지만 -331
▁L -332
▁한국 -333
▁려 -334
▁각 -335
▁상대 -336
▁볼 -337
▁캐릭터 -338
▁F -339
▁생각 -340
▁왕 -341
▁순 -342
▁힘 -343
▁준 -344
▁병 -345
▁별 -346
▁G -347
▁잡 -348
▁함께 -349
▁만들 -350
▁클 -351
▁손 -352
▁시작 -353
▁으면 -354
▁천 -355
대로 -356
in -357
▁항 -358
▁11 -359
▁완 -360
▁E -361
▁독 -362
▁경기 -363
▁들어 -364
▁다시 -365
▁임 -366
▁난 -367
▁막 -368
▁브 -369
▁열 -370
▁당시 -371
▁프로 -372
▁겠 -373
▁능력 -374
▁먹 -375
▁처럼 -376
▁폭 -377
▁근 -378
▁블 -379
▁식 -380
▁가지 -381
▁효 -382
▁커 -383
▁끝 -384
▁가장 -385
▁K -386
▁복 -387
이트 -388
▁너 -389
▁시리 -390
▁또한 -391
▁따라 -392
on -393
▁쿠 -394
▁증 -395
▁총 -396
▁다만 -397
▁줄 -398
▁삼 -399
▁광 -400
▁검 -401
▁친 -402
▁합 -403
▁태 -404
▁페 -405
▁플레이 -406
an -407
▁15 -408
▁상황 -409
▁느 -410
▁결국 -411
▁상태 -412
▁H -413
▁시리즈 -414
▁그런 -415
▁R -416
▁시즌 -417
▁새 -418
▁많이 -419
▁악 -420
▁카드 -421
미지 -422
▁빠 -423
니다 -424
▁I -425
▁모두 -426
▁충 -427
▁N -428
▁산 -429
▁얼 -430
▁백 -431
▁누 -432
▁터 -433
▁넘 -434
▁그래 -435
▁세계 -436
▁나온 -437
▁길 -438
▁급 -439
▁슈 -440
▁곡 -441
▁존재 -442
▁m -443
▁러 -444
▁채 -445
▁물론 -446
▁보이 -447
▁전투 -448
▁금 -449
▁싸 -450
▁온 -451
▁모든 -452
▁추가 -453
▁앞 -454
▁업 -455
▁티 -456
▁상당 -457
▁눈 -458
or -459
▁될 -460
▁머 -461
▁t -462
라이 -463
▁보여 -464
▁긴 -465
▁케 -466
▁으나 -467
▁기술 -468
▁스킬 -469
▁이런 -470
▁라이 -471
▁현재 -472
▁매우 -473
▁큰 -474
▁자체 -475
▁극 -476
▁취 -477
▁실제 -478
▁그러나 -479
▁및 -480
▁효과 -481
▁선수 -482
▁팬 -483
▁무기 -484
▁# -485
▁엄 -486
▁절 -487
▁O -488
▁레이 -489
므로 -490
▁민 -491
▁레벨 -492
▁뿐 -493
▁갈 -494
▁스타 -495
ar -496
▁이유 -497
▁그렇 -498
▁아닌 -499
인다 -500
▁거의 -501
▁탄 -502
▁다면 -503
▁W -504
▁마법 -505
▁인데 -506
▁이용 -507
▁주인 -508
▁창 -509
▁철 -510
▁몬 -511
▁인지 -512
▁황 -513
▁찾 -514
▁역시 -515
▁관련 -516
▁16 -517
▁골 -518
▁30 -519
▁여기 -520
▁벌 -521
▁시키 -522
▁밀 -523
▁떨 -524
으나 -525
▁얻 -526
at -527
▁환 -528
▁미국 -529
▁같이 -530
▁해야 -531
▁에선 -532
▁바로 -533
린다 -534
▁일반 -535
▁처음 -536
he -537
▁란 -538
▁탈 -539
▁첫 -540
▁허 -541
▁18 -542
▁지역 -543
▁해당 -544
▁북 -545
▁곳 -546
▁작품 -547
▁이야 -548
▁13 -549
▁붙 -550
▁참고 -551
▁청 -552
거리 -553
▁질 -554
▁워 -555
이지 -556
이스 -557
▁기본 -558
▁특히 -559
▁아무 -560
▁여러 -561
▁몰 -562
▁귀 -563
▁격 -564
▁돌아 -565
▁대해 -566
▁필요 -567
▁199 -568
▁인간 -569
▁혼 -570
▁다음 -571
▁좀 -572
▁100 -573
▁부분 -574
으며 -575
▁둘 -576
▁습 -577
▁이야기 -578
부분 -579
▁놓 -580
▁c -581
▁14 -582
▁잠 -583
▁영화 -584
▁s -585
▁대학 -586
▁밖 -587
리스 -588
▁달리 -589
▁는지 -590
▁사건 -591
▁아서 -592
en -593
▁그냥 -594
진다 -595
▁법 -596
▁즉 -597
▁글 -598
▁없이 -599
▁엘 -600
▁V -601
▁떨어 -602
▁기록 -603
▁해도 -604
▁대부분 -605
▁라면 -606
▁방송 -607
▁범 -608
지막 -609
▁덕 -610
▁버리 -611
리아 -612
▁인물 -613
▁헤 -614
▁주인공 -615
▁수준 -616
▁째 -617
▁못하 -618
▁비슷 -619
▁자기 -620
▁본인 -621
▁통해 -622
▁냐 -623
▁든 -624
▁몸 -625
▁몇 -626
▁담 -627
▁제작 -628
▁17 -629
▁25 -630
▁쪽 -631
▁슬 -632
▁방어 -633
▁마지막 -634
▁만큼 -635
▁팔 -636
▁k -637
▁싶 -638
al -639
▁상당히 -640
▁풀 -641
▁U -642
▁내용 -643
전히 -644
▁암 -645
▁일부 -646
▁어느 -647
▁피해 -648
▁관계 -649
▁시절 -650
▁진행 -651
▁리그 -652
▁보인다 -653
어나 -654
▁국가 -655
▁00 -656
▁학교 -657
▁대신 -658
▁X -659
▁인해 -660
▁실제로 -661
▁성우 -662
▁이전 -663
▁그대로 -664
▁대표 -665
▁맡 -666
▁계속 -667
▁설정 -668
▁밝 -669
▁지금 -670
▁속도 -671
▁떠 -672
▁애니 -673
▁접 -674
ou -675
▁전쟁 -676
토리 -677
▁괴 -678
▁올라 -679
es -680
다가 -681
▁축 -682
▁규 -683
▁보스 -684
한다 -685
▁타이 -686
▁낮 -687
▁활동 -688
시아 -689
▁퍼 -690
▁위치 -691
▁원래 -692
▁제외 -693
▁동안 -694
▁울 -695
▁서울 -696
▁몬스터 -697
▁므로 -698
▁기사 -699
▁2015 -700
▁감독 -701
▁너무 -702
▁츠 -703
▁기준 -704
▁의미 -705
▁평가 -706
▁망 -707
it -708
▁맨 -709
버지 -710
▁육 -711
▁쓸 -712
▁묘 -713
▁대로 -714
▁나온다 -715
▁마다 -716
▁언급 -717
▁이미 -718
▁] -719
▁홈 -720
▁중국 -721
▁넣 -722
▁뛰 -723
▁공격력 -724
▁직접 -725
▁50 -726
▁성공 -727
▁논 -728
▁그녀 -729
▁도시 -730
▁먼 -731
▁우리 -732
▁J -733
▁문서 -734
▁증가 -735
▁다르 -736
▁센 -737
이션 -738
▁유저 -739
▁홍 -740
▁엄청 -741
▁과거 -742
▁데미지 -743
▁장면 -744
▁으니 -745
▁돈 -746
▁이것 -747
▁쉽 -748
▁칼 -749
▁자리 -750
▁머리 -751
▁꽤 -752
▁[ -753
▁여자 -754
▁도록 -755
▁유명 -756
is -757
▁최대 -758
▁& -759
▁정보 -760
▁바람 -761
▁비해 -762
▁멤 -763
▁지원 -764
▁봉 -765
▁유닛 -766
▁차이 -767
가지 -768
라도 -769
▁버전 -770
▁봐 -771
▁2016 -772
▁들어가 -773
▁2014 -774
▁나왔 -775
▁멤버 -776
▁빌 -777
▁설명 -778
▁개요 -779
▁개발 -780
▁씩 -781
re -782
▁출연 -783
▁늘 -784
랜드 -785
▁결과 -786
le -787
▁전체 -788
▁나가 -789
▁혹 -790
▁체력 -791
▁21 -792
▁측 -793
▁소속 -794
▁나타 -795
▁로서 -796
▁마음 -797
▁님 -798
▁방법 -799
▁딜 -800
▁친구 -801
▁d -802
▁역사 -803
▁뉴 -804
▁협 -805
▁즈 -806
▁스토리 -807
ic -808
▁갖 -809
▁영상 -810
▁만든 -811
▁희 -812
▁선택 -813
▁당하 -814
이드 -815
▁컨 -816
▁소리 -817
▁당연 -818
▁링 -819
▁갑 -820
▁새로 -821
▁프리 -822
▁198 -823
▁아버지 -824
▁됐 -825
▁그런데 -826
▁지나 -827
▁파이 -828
▁제대로 -829
as -830
▁남자 -831
▁22 -832
▁조금 -833
▁드래 -834
▁전부 -835
▁자주 -836
▁깨 -837
▁려고 -838
▁거리 -839
▁의해 -840
▁이동 -841
▁아이템 -842
▁알려 -843
▁놀 -844
▁< -845
▁플레이어 -846
▁노선 -847
▁최고 -848
▁압 -849
▁류 -850
▁준다 -851
▁사라 -852
▁책 -853
▁탑 -854
▁공식 -855
▁인기 -856
▁주로 -857
▁게다가 -858
▁여성 -859
▁w -860
▁대전 -861
▁슈퍼 -862
▁나라 -863
▁이렇 -864
▁빨 -865
▁침 -866
▁나이 -867
▁발매 -868
▁보통 -869
▁24 -870
▁대사 -871
▁2017 -872
▁정말 -873
▁쇼 -874
▁초반 -875
▁40 -876
▁최종 -877
▁이어 -878
▁향 -879
▁답 -880
▁파괴 -881
▁샤 -882
▁인터 -883
▁사랑 -884
▁2013 -885
▁송 -886
▁승리 -887
▁출신 -888
▁농 -889
▁그것 -890
▁시스 -891
▁씨 -892
▁한다는 -893
▁영향 -894
▁찍 -895
▁배우 -896
ing -897
▁2018 -898
▁마찬 -899
▁버스 -900
▁드라 -901
▁마찬가지 -902
▁색 -903
▁모르 -904
▁모드 -905
▁듣 -906
▁대상 -907
▁방식 -908
▁성능 -909
▁연구 -910
▁동시 -911
▁비교 -912
▁기타 -913
▁아예 -914
▁작중 -915
▁성격 -916
▁이때 -917
▁사망 -918
▁오히 -919
▁시대 -920
▁라도 -921
이도 -922
▁잔 -923
▁그래서 -924
▁습니다 -925
운드 -926
▁항목 -927
▁오히려 -928
▁후반 -929
▁정신 -930
▁서로 -931
▁쉬 -932
▁써 -933
▁뜻 -934
른다 -935
▁궁 -936
▁일단 -937
▁우승 -938
▁아직 -939
어난 -940
부터 -941
▁시켜 -942
▁착 -943
▁수록 -944
▁형태 -945
▁멀 -946
▁왜 -947
▁강력 -948
▁앨 -949
▁그래도 -950
▁빼 -951
▁유지 -952
▁a -953
▁심지 -954
▁차량 -955
▁b -956
▁마이 -957
▁역할 -958
▁위한 -959
▁f -960
▁부르 -961
프트 -962
▁23 -963
▁했으나 -964
▁이러 -965
▁심지어 -966
▁발생 -967
▁학생 -968
학교 -969
▁스테 -970
▁특성 -971
▁버렸 -972
▁콘 -973
머니 -974
▁포함 -975
▁마리 -976
▁애니메 -977
▁속성 -978
▁어떤 -979
▁술 -980
▁소환 -981
▁모양 -982
▁노래 -983
▁가진 -984
▁운영 -985
▁만화 -986
▁월드 -987
▁원작 -988
▁특수 -989
▁2012 -990
▁기존 -991
om -992
▁끌 -993
▁중요 -994
우스 -995
벤트 -996
▁움 -997
▁섬 -998
▁자세 -999
▁억 -1000
▁사회 -1001
▁이루 -1002
▁h -1003
▁끼 -1004
▁o -1005
▁졌 -1006
▁변경 -1007
▁르 -1008
▁좌 -1009
▁최초 -1010
▁풍 -1011
▁애니메이션 -1012
▁결정 -1013
▁유일 -1014
▁액 -1015
▁층 -1016
▁이렇게 -1017
▁석 -1018
▁폐 -1019
▁음악 -1020
▁흑 -1021
▁과정 -1022
▁거기 -1023
▁덕분 -1024
▁가까 -1025
el -1026
▁회복 -1027
▁이벤트 -1028
리어 -1029
▁힘들 -1030
▁마을 -1031
▁시스템 -1032
▁우주 -1033
▁주장 -1034
▁행동 -1035
▁모델 -1036
버스 -1037
▁장비 -1038
▁부대 -1039
▁강화 -1040
▁못했 -1041
▁솔 -1042
am -1043
▁독일 -1044
▁바뀌 -1045
▁흔 -1046
▁싱 -1047
▁p -1048
ion -1049
▁곤 -1050
▁빈 -1051
▁부족 -1052
▁넘어 -1053
▁참조 -1054
▁국내 -1055
▁라인 -1056
▁완전히 -1057
레이드 -1058
▁여담 -1059
▁난이도 -1060
▁영어 -1061
▁명칭 -1062
▁프랑 -1063
▁2019 -1064
소드 -1065
▁지구 -1066
▁휴 -1067
▁구성 -1068
▁작가 -1069
▁바이 -1070
나마 -1071
▁스트 -1072
▁드래곤 -1073
▁찾아 -1074
▁훈 -1075
▁확률 -1076
▁굉 -1077
▁어려 -1078
▁전혀 -1079
▁따르 -1080
▁왔 -1081
▁아래 -1082
민국 -1083
주의 -1084
▁입장 -1085
▁만나 -1086
간다 -1087
▁발동 -1088
▁사진 -1089
▁활약 -1090
▁에피 -1091
▁아들 -1092
▁숨 -1093
▁그나마 -1094
▁n -1095
▁갤 -1096
▁혹은 -1097
▁현대 -1098
▁오브 -1099
▁뽑 -1100
▁특징 -1101
▁the -1102
▁시킨 -1103
▁정치 -1104
▁가격 -1105
▁26 -1106
▁주변 -1107
▁더라도 -1108
▁2010 -1109
▁다이 -1110
▁콜 -1111
▁대회 -1112
▁영국 -1113
▁굉장 -1114
▁얼굴 -1115
▁어떻 -1116
▁칸 -1117
▁하이 -1118
▁먼저 -1119
▁에피소드 -1120
▁어야 -1121
▁드러 -1122
▁메이 -1123
▁자동 -1124
▁28 -1125
▁차지 -1126
ac -1127
▁녹 -1128
▁제국 -1129
▁응 -1130
ol -1131
▁영웅 -1132
없이 -1133
▁잃 -1134
▁짓 -1135
▁빛 -1136
▁TV -1137
▁드라마 -1138
▁27 -1139
▁정확 -1140
▁다니 -1141
▁하루 -1142
▁밖에 -1143
▁쓴 -1144
▁묘사 -1145
▁확인 -1146
▁웨 -1147
▁시점 -1148
▁뭐 -1149
▁조차 -1150
▁죠 -1151
▁히로 -1152
▁윤 -1153
▁반대 -1154
▁벨 -1155
▁대한민국 -1156
▁얼마 -1157
▁내려 -1158
▁회사 -1159
▁쳐 -1160
▁딸 -1161
▁공개 -1162
▁마스터 -1163
▁라서 -1164
▁위해서 -1165
▁턴 -1166
▁견 -1167
▁시기 -1168
▁2011 -1169
▁표현 -1170
▁초기 -1171
디오 -1172
▁익 -1173
▁담당 -1174
▁푸 -1175
▁맵 -1176
▁기능 -1177
인트 -1178
▁실력 -1179
▁연기 -1180
▁아마 -1181
레스 -1182
▁000 -1183
▁계획 -1184
▁한다고 -1185
▁휘 -1186
▁관리 -1187
▁폴 -1188
▁동일 -1189
▁생산 -1190
▁딱 -1191
▁따라서 -1192
인물 -1193
▁= -1194
▁맥 -1195
▁자유 -1196
▁싸우 -1197
▁정부 -1198
▁실패 -1199
▁어도 -1200
▁그렇게 -1201
et -1202
▁보내 -1203
▁듀 -1204
▁순간 -1205
▁판매 -1206
▁사고 -1207
▁야구 -1208
▁건물 -1209
▁엔딩 -1210
▁맛 -1211
▁헬 -1212
▁개인 -1213
▁등장인물 -1214
▁기관 -1215
▁컴 -1216
▁뮤 -1217
▁그림 -1218
il -1219
▁이제 -1220
▁이미지 -1221
ig -1222
▁인정 -1223
▁당연히 -1224
▁불리 -1225
▁적용 -1226
ed -1227
▁교육 -1228
▁Y -1229
▁스페 -1230
▁경찰 -1231
▁라며 -1232
▁반응 -1233
▁고등 -1234
▁앨범 -1235
▁헌 -1236
▁세대 -1237
▁나와 -1238
▁새로운 -1239
▁조건 -1240
▁죽이 -1241
▁기억 -1242
▁랑 -1243
▁세이 -1244
▁챔 -1245
▁했으며 -1246
▁파워 -1247
▁60 -1248
▁km -1249
▁엑 -1250
ow -1251
▁으로서 -1252
▁문화 -1253
▁진짜 -1254
소리 -1255
▁족 -1256
▁기간 -1257
▁발견 -1258
▁패치 -1259
▁움직 -1260
▁생활 -1261
▁확실 -1262
▁퀘 -1263
▁오리 -1264
us -1265
BS -1266
▁표기 -1267
▁굉장히 -1268
▁디자 -1269
▁도움 -1270
▁방면 -1271
▁취급 -1272
▁퇴 -1273
▁듯이 -1274
▁땅 -1275
▁프랑스 -1276
▁패턴 -1277
▁현실 -1278
▁of -1279
▁무시 -1280
▁아주 -1281
로스 -1282
▁처리 -1283
▁타입 -1284
▁출시 -1285
▁자면 -1286
▁29 -1287
▁소개 -1288
▁패배 -1289
▁홀 -1290
▁한테 -1291
▁무장 -1292
▁겨 -1293
▁틀 -1294
너지 -1295
▁려는 -1296
▁데이 -1297
▁엄청난 -1298
▁킹 -1299
▁어린 -1300
▁또는 -1301
▁대체 -1302
▁폭발 -1303
▁아야 -1304
▁단순 -1305
▁건담 -1306
▁Z -1307
▁중간 -1308
▁어디 -1309
▁소설 -1310
▁결혼 -1311
▁프로그 -1312
▁지속 -1313
▁197 -1314
▁훨 -1315
▁굴 -1316
▁구간 -1317
▁싸움 -1318
▁한정 -1319
▁가족 -1320
▁단계 -1321
▁짜 -1322
▁계열 -1323
▁돼 -1324
▁콤 -1325
▁졸 -1326
스크 -1327
▁주의 -1328
▁흡 -1329
▁대학교 -1330
▁어렵 -1331
▁사실상 -1332
▁35 -1333
▁약간 -1334
▁조선 -1335
▁방향 -1336
▁발사 -1337
▁밝혀 -1338
어지 -1339
▁랭 -1340
▁31 -1341
▁어머니 -1342
▁훨씬 -1343
▁어떻게 -1344
▁이번 -1345
▁v -1346
▁구조 -1347
▁버린다 -1348
▁아르 -1349
▁The -1350
▁스러 -1351
▁경험 -1352
▁위험 -1353
▁상승 -1354
▁중심 -1355
▁아군 -1356
▁죄 -1357
▁세트 -1358
▁기에 -1359
ad -1360
▁웃 -1361
▁믿 -1362
▁동료 -1363
▁싫 -1364
▁블랙 -1365
▁운동 -1366
▁론 -1367
▁더욱 -1368
▁덱 -1369
▁활용 -1370
▁특별 -1371
▁분위 -1372
▁욕 -1373
▁요구 -1374
▁떨어지 -1375
▁2000 -1376
▁상위 -1377
▁으므로 -1378
▁범위 -1379
▁읽 -1380
▁제한 -1381
▁낙 -1382
▁낸 -1383
▁숙 -1384
▁포켓 -1385
▁운행 -1386
▁r -1387
▁분위기 -1388
▁똑 -1389
이크 -1390
▁빠르 -1391
▁쿨 -1392
▁핵 -1393
▁80 -1394
▁쌍 -1395
▁탐 -1396
▁린 -1397
▁탓 -1398
▁디자인 -1399
▁수비 -1400
▁불구 -1401
▁혼자 -1402
려서 -1403
니아 -1404
▁감소 -1405
▁소모 -1406
▁줬 -1407
▁시장 -1408
▁유리 -1409
▁목적 -1410
▁중앙 -1411
▁St -1412
ER -1413
▁여전히 -1414
▁옆 -1415
▁지하 -1416
▁대해서 -1417
▁가져 -1418
▁그룹 -1419
▁얘 -1420
비스 -1421
▁밤 -1422
▁갔 -1423
▁염 -1424
▁나중 -1425
▁꼬 -1426
▁트리 -1427
▁텐 -1428
▁살아 -1429
▁나머 -1430
▁십 -1431
▁다양 -1432
▁꾸 -1433
▁37 -1434
▁500 -1435
▁진출 -1436
id -1437
▁져 -1438
ot -1439
▁강한 -1440
▁율 -1441
▁나머지 -1442
▁항공 -1443
▁켄 -1444
and -1445
▁브라 -1446
▁밴 -1447
ay -1448
▁전용 -1449
▁못한 -1450
스로 -1451
▁흥 -1452
▁괜 -1453
▁세력 -1454
▁설치 -1455
▁방영 -1456
▁기체 -1457
▁전차 -1458
▁꿈 -1459
▁프로그램 -1460
▁잘못 -1461
▁다며 -1462
▁일으 -1463
▁즐 -1464
▁축구 -1465
▁부산 -1466
리카 -1467
▁포인트 -1468
▁고려 -1469
▁러시아 -1470
▁런 -1471
ve -1472
▁미사 -1473
▁선발 -1474
▁느낌 -1475
▁번역 -1476
ch -1477
▁종족 -1478
▁시청 -1479
▁미션 -1480
▁성장 -1481
▁90 -1482
▁포켓몬 -1483
▁퀘스트 -1484
▁묻 -1485
▁시도 -1486
▁각각 -1487
▁대미지 -1488
un -1489
▁스테이지 -1490
▁스피 -1491
▁주요 -1492
▁계약 -1493
▁득 -1494
▁굳 -1495
티브 -1496
▁비판 -1497
20 -1498
▁크리스 -1499
▁mm -1500
▁물리 -1501
▁획 -1502
▁도망 -1503
▁참여 -1504
▁성적 -1505
▁이라 -1506
▁l -1507
▁고등학교 -1508
▁올리 -1509
다는 -1510
▁로봇 -1511
▁녀 -1512
▁타카 -1513
▁짧 -1514
▁절대 -1515
▁옵 -1516
▁전문 -1517
▁투수 -1518
▁마저 -1519
▁거대 -1520
▁데뷔 -1521
dd -1522
▁보여준 -1523
▁과학 -1524
▁버린 -1525
▁벗 -1526
▁유니 -1527
▁애초 -1528
▁부활 -1529
▁척 -1530
▁만드 -1531
▁훈련 -1532
▁셈 -1533
▁나무 -1534
▁쓰러 -1535
▁70 -1536
▁준비 -1537
▁해결 -1538
▁렌 -1539
▁이해 -1540
▁충격 -1541
▁으면서 -1542
▁지방 -1543
▁펼 -1544
▁배틀 -1545
▁논란 -1546
▁챔피 -1547
▁칭 -1548
▁스스로 -1549
▁일행 -1550
▁가끔 -1551
▁징 -1552
▁경제 -1553
▁생명 -1554
▁비행 -1555
▁g -1556
▁배경 -1557
▁오래 -1558
▁요소 -1559
▁소녀 -1560
▁삭 -1561
▁전설 -1562
▁보였 -1563
▁엔진 -1564
▁조직 -1565
▁부상 -1566
▁전작 -1567
▁철도 -1568
▁량 -1569
▁똑같 -1570
▁강하 -1571
▁규모 -1572
▁야마 -1573
통령 -1574
▁률 -1575
▁도중 -1576
ro -1577
▁정상 -1578
▁끊 -1579
▁자랑 -1580
▁옥 -1581
▁발표 -1582
▁2009 -1583
▁큐 -1584
▁삼성 -1585
▁롤 -1586
▁한데 -1587
▁의견 -1588
▁충분 -1589
▁무리 -1590
▁일정 -1591
▁랜 -1592
▁다운 -1593
▁덤 -1594
▁죽음 -1595
▁학년 -1596
▁벽 -1597
▁변화 -1598
▁01 -1599
▁스파 -1600
▁혈 -1601
▁스카 -1602
▁직업 -1603
▁메인 -1604
▁팩 -1605
▁최근 -1606
▁사이트 -1607
▁당했 -1608
▁정체 -1609
▁... -1610
▁유럽 -1611
▁기대 -1612
▁스타일 -1613
▁45 -1614
▁빅 -1615
▁찬 -1616
▁작전 -1617
▁기동 -1618
▁앤 -1619
▁보호 -1620
▁봤 -1621
▁공중 -1622
▁날아 -1623
▁예정 -1624
▁이쪽 -1625
인지 -1626
▁대통령 -1627
▁종류 -1628
▁이게 -1629
▁품 -1630
▁조합 -1631
▁했었 -1632
▁목소리 -1633
▁연속 -1634
▁300 -1635
▁쓰이 -1636
▁요리 -1637
▁록 -1638
▁정작 -1639
▁제목 -1640
▁근접 -1641
▁전사 -1642
스타 -1643
▁지도 -1644
▁버프 -1645
▁별로 -1646
▁신경 -1647
▁력 -1648
▁나타나 -1649
▁멘 -1650
▁생긴 -1651
▁안타 -1652
▁장착 -1653
▁반면 -1654
▁연출 -1655
▁세상 -1656
▁줘 -1657
▁빙 -1658
▁나름 -1659
ir -1660
▁이걸 -1661
▁흐 -1662
▁아키 -1663
▁자연 -1664
▁추정 -1665
▁킬 -1666
▁냉 -1667
▁32 -1668
▁케이 -1669
어들 -1670
▁악마 -1671
▁캠 -1672
▁카이 -1673
▁합니다 -1674
▁소재 -1675
▁라운드 -1676
▁수도 -1677
▁그만 -1678
▁대화 -1679
▁돌아가 -1680
▁타격 -1681
▁번호 -1682
▁오른 -1683
ter -1684
▁전기 -1685
난다 -1686
▁로부터 -1687
▁탱 -1688
▁남성 -1689
▁벤 -1690
▁뒷 -1691
▁국제 -1692
▁제공 -1693
▁참가 -1694
▁등급 -1695
▁196 -1696
▁멸 -1697
▁연합 -1698
▁다크 -1699
▁획득 -1700
리오 -1701
▁방어력 -1702
▁판정 -1703
수록 -1704
▁동물 -1705
▁링크 -1706
▁비롯 -1707
▁따로 -1708
▁후보 -1709
말로 -1710
▁곧 -1711
▁당신 -1712
▁의외 -1713
▁수정 -1714
▁만약 -1715
자기 -1716
▁아이돌 -1717
im -1718
▁배치 -1719
▁각종 -1720
▁래 -1721
▁위기 -1722
▁) -1723
▁정식 -1724
▁롯 -1725
아들 -1726
▁교통 -1727
▁연결 -1728
▁관심 -1729
▁안정 -1730
디어 -1731
▁꺼 -1732
▁극장 -1733
해서 -1734
▁48 -1735
▁레어 -1736
▁파일 -1737
▁던전 -1738
▁칠 -1739
▁개념 -1740
▁항상 -1741
▁센터 -1742
▁사업 -1743
▁수상 -1744
▁시험 -1745
▁분노 -1746
▁사례 -1747
▁내부 -1748
▁쥬 -1749
▁특정 -1750
지션 -1751
▁북한 -1752
▁한다면 -1753
▁황제 -1754
▁에너지 -1755
▁맹 -1756
▁이외 -1757
러스 -1758
▁이건 -1759
▁2008 -1760
▁변신 -1761
▁민주 -1762
▁단점 -1763
▁지휘 -1764
BC -1765
▁사격 -1766
▁무엇 -1767
나라 -1768
▁얘기 -1769
▁종료 -1770
ub -1771
▁힐 -1772
▁누구 -1773
▁제일 -1774
▁단어 -1775
▁다리 -1776
▁필드 -1777
▁cm -1778
▁나이트 -1779
ag -1780
▁일어나 -1781
▁루트 -1782
▁36 -1783
▁조사 -1784
▁시켰 -1785
▁발전 -1786
▁크리 -1787
▁공연 -1788
▁쯤 -1789
▁장갑 -1790
▁일러 -1791
▁나올 -1792
▁더불 -1793
▁지상 -1794
▁넓 -1795
▁물건 -1796
▁봐도 -1797
▁놈 -1798
▁사정 -1799
▁y -1800
▁한편 -1801
▁미래 -1802
▁스포 -1803
▁션 -1804
너스 -1805
▁인터뷰 -1806
동안 -1807
▁털 -1808
▁챔피언 -1809
▁33 -1810
▁괜찮 -1811
▁였으나 -1812
▁사냥 -1813
▁클래 -1814
▁서비스 -1815
▁엘리 -1816
▁각성 -1817
다고 -1818
▁외국 -1819
▁기계 -1820
어났 -1821
▁선거 -1822
▁깔 -1823
▁군사 -1824
▁x -1825
▁최소 -1826
▁도로 -1827
▁으려 -1828
▁* -1829
라인 -1830
▁옷 -1831
▁기업 -1832
▁둔 -1833
데이트 -1834
▁파티 -1835
▁아카 -1836
▁업데이트 -1837
▁Lv -1838
▁흘 -1839
▁특이 -1840
▁닥 -1841
▁점수 -1842
▁이탈 -1843
▁인구 -1844
▁별명 -1845
▁빠른 -1846
이치 -1847
▁인식 -1848
▁아도 -1849
믹스 -1850
▁완전 -1851
▁사항 -1852
▁e -1853
▁입니다 -1854
▁코스 -1855
▁오르 -1856
▁납 -1857
▁시설 -1858
어진 -1859
▁해군 -1860
▁시티 -1861
▁국민 -1862
▁시전 -1863
ur -1864
▁화력 -1865
▁세기 -1866
▁당한 -1867
▁불러 -1868
▁로드 -1869
od -1870
▁05 -1871
▁히트 -1872
야마 -1873
▁쏘 -1874
▁조종 -1875
▁고속 -1876
▁하늘 -1877
어로 -1878
▁스러운 -1879
▁위력 -1880
▁직전 -1881
os -1882
▁생기 -1883
▁달성 -1884
▁프레 -1885
▁가까운 -1886
▁니까 -1887
▁닌 -1888
▁최강 -1889
▁제품 -1890
▁생존 -1891
▁상관 -1892
▁02 -1893
▁컬 -1894
▁알아 -1895
▁가문 -1896
▁가수 -1897
▁뭔 -1898
▁비밀 -1899
▁그야 -1900
▁개그 -1901
▁SK -1902
▁뜨 -1903
져서 -1904
▁th -1905
▁마나 -1906
▁점프 -1907
▁인가 -1908
▁오프 -1909
▁아파 -1910
▁03 -1911
▁순위 -1912
▁', -1913
▁삭제 -1914
ST -1915
▁가르 -1916
▁감정 -1917
▁교체 -1918
▁달려 -1919
▁쌓 -1920
▁달라 -1921
▁옛 -1922
▁사기 -1923
▁히어로 -1924
▁홈런 -1925
▁장소 -1926
▁일러스트 -1927
▁싱글 -1928
▁위원 -1929
▁보유 -1930
▁전국 -1931
▁왼 -1932
▁그야말로 -1933
▁역대 -1934
▁목표 -1935
▁녀석 -1936
▁학원 -1937
▁EX -1938
▁본래 -1939
▁몽 -1940
▁부모 -1941
▁군대 -1942
▁압도 -1943
▁명령 -1944
▁목록 -1945
▁뇌 -1946
▁요시 -1947
▁튀 -1948
▁지키 -1949
▁려면 -1950
▁깊 -1951
▁분류 -1952
▁가드 -1953
▁주제 -1954
▁출전 -1955
▁꽃 -1956
▁독립 -1957
▁펜 -1958
▁붕 -1959
▁은데 -1960
▁픽 -1961
▁던지 -1962
▁갑자기 -1963
▁스럽 -1964
▁무슨 -1965
▁2007 -1966
모토 -1967
▁잉 -1968
▁언제 -1969
▁포지션 -1970
▁마사 -1971
▁예전 -1972
▁이기 -1973
▁더니 -1974
▁공간 -1975
▁워낙 -1976
um -1977
▁탈출 -1978
▁마치 -1979
▁연재 -1980
▁사거리 -1981
▁아스 -1982
▁병력 -1983
▁위키 -1984
▁진화 -1985
▁데스 -1986
▁짐 -1987
▁어둠 -1988
igh -1989
▁34 -1990
▁전개 -1991
▁라이트 -1992
▁표시 -1993
▁구하 -1994
▁폰 -1995
▁HP -1996
▁작업 -1997
ff -1998
▁중반 -1999
▁병원 -2000
▁작곡 -2001
▁떡 -2002
▁고양 -2003
▁예상 -2004
▁소련 -2005
ut -2006
▁포기 -2007
▁크기 -2008
ent -2009
50 -2010
▁셀 -2011
▁의식 -2012
▁레드 -2013
▁원인 -2014
라스 -2015
▁병사 -2016
▁09 -2017
▁수치 -2018
▁가리 -2019
▁밑 -2020
▁건설 -2021
▁톤 -2022
▁올라가 -2023
▁겪 -2024
▁노력 -2025
▁04 -2026
▁현상 -2027
▁겸 -2028
시마 -2029
▁살인 -2030
▁떠나 -2031
▁보상 -2032
▁무대 -2033
▁띄 -2034
▁노트 -2035
▁전력 -2036
트라 -2037
ak -2038
▁행위 -2039
▁생겼 -2040
▁저지 -2041
▁장점 -2042
▁강제 -2043
다니 -2044
▁포스 -2045
AR -2046
▁윈 -2047
ver -2048
▁레인 -2049
▁졸업 -2050
▁카운 -2051
▁07 -2052
▁08 -2053
▁미사일 -2054
▁클리어 -2055
▁빠져 -2056
▁동생 -2057
▁부정 -2058
학생 -2059
▁효율 -2060
▁06 -2061
▁무려 -2062
▁밸 -2063
▁전자 -2064
▁경쟁 -2065
▁웹 -2066
▁도쿄 -2067
▁비중 -2068
▁임무 -2069
▁롯데 -2070
젝트 -2071
ec -2072
▁차원 -2073
▁이끌 -2074
▁바라 -2075
▁194 -2076
운데 -2077
▁확정 -2078
▁뿌 -2079
▁도입 -2080
▁크로 -2081
▁Q -2082
▁지켜 -2083
▁고정 -2084
▁티어 -2085
▁인천 -2086
▁전반 -2087
▁발음 -2088
▁파트 -2089
마자 -2090
▁부하 -2091
▁이하 -2092
▁해외 -2093
▁근처 -2094
▁노리 -2095
▁꾼 -2096
▁잠시 -2097
▁2006 -2098
▁화면 -2099
▁완성 -2100
무라 -2101
▁필살 -2102
▁음식 -2103
▁인터넷 -2104
▁가면 -2105
▁끝나 -2106
▁집중 -2107
▁주문 -2108
▁보병 -2109
▁으로써 -2110
▁촬 -2111
▁바꾸 -2112
▁아프 -2113
▁신체 -2114
▁꼭 -2115
▁공주 -2116
▁시킬 -2117
▁무한 -2118
▁밀리 -2119
AN -2120
▁셋 -2121
▁아무리 -2122
▁인도 -2123
▁오리지 -2124
▁분명 -2125
▁평균 -2126
▁인사 -2127
▁결승 -2128
▁라이브 -2129
▁롭 -2130
▁하드 -2131
▁마법사 -2132
▁정확히 -2133
▁평범 -2134
▁38 -2135
▁판단 -2136
▁가사 -2137
▁한글 -2138
▁타임 -2139
▁> -2140
▁택 -2141
▁근데 -2142
▁여행 -2143
▁붉 -2144
▁굳이 -2145
▁환경 -2146
▁재미 -2147
르트 -2148
▁보여준다 -2149
▁옮 -2150
▁유사 -2151
▁주민 -2152
▁행정 -2153
▁쫓 -2154
▁수행 -2155
▁걸로 -2156
▁종교 -2157
▁느끼 -2158
▁기다 -2159
루스 -2160
▁종종 -2161
▁받아들 -2162
▁촬영 -2163
▁찌 -2164
이어 -2165
▁캡 -2166
▁kg -2167
▁몇몇 -2168
란드 -2169
▁폭탄 -2170
▁발언 -2171
▁완벽 -2172
▁의하 -2173
▁기반 -2174
▁반드 -2175
▁비용 -2176
페이지 -2177
▁반드시 -2178
트리 -2179
▁선생 -2180
▁대장 -2181
▁단체 -2182
조건 -2183
▁지지 -2184
▁다수 -2185
▁제거 -2186
▁직후 -2187
▁랭크 -2188
▁뻔 -2189
▁실험 -2190
▁광고 -2191
▁심각 -2192
▁샷 -2193
▁아내 -2194
▁봉인 -2195
▁홈페이지 -2196
▁성향 -2197
▁패러 -2198
▁다루 -2199
▁에게서 -2200
▁플래 -2201
▁그린 -2202
▁그걸 -2203
▁운용 -2204
▁공포 -2205
▁좋아 -2206
래프트 -2207
▁페이 -2208
▁댄 -2209
▁멜 -2210
▁치료 -2211
▁밴드 -2212
▁버그 -2213
▁점점 -2214
▁뛰어난 -2215
▁옵션 -2216
▁오버 -2217
▁자원 -2218
▁미니 -2219
▁무조건 -2220
▁전략 -2221
▁걸리 -2222
▁암살 -2223
▁LG -2224
▁in -2225
▁FC -2226
▁잭 -2227
▁조작 -2228
▁아파트 -2229
▁대구 -2230
▁지배 -2231
▁단지 -2232
▁베이 -2233
▁엄청나 -2234
▁대결 -2235
▁앙 -2236
▁도전 -2237
▁디스 -2238
▁함정 -2239
▁대중 -2240
러리 -2241
▁기회 -2242
▁코드 -2243
▁다소 -2244
▁모른다 -2245
▁냐고 -2246
▁특유 -2247
▁한계 -2248
▁구분 -2249
▁컵 -2250
▁본격 -2251
▁통합 -2252
▁넘어가 -2253
▁가깝 -2254
▁다행 -2255
▁접근 -2256
▁였으며 -2257
▁맞추 -2258
로그 -2259
▁왕국 -2260
그레이드 -2261
▁업그레이드 -2262
▁소년 -2263
▁개조 -2264
▁골드 -2265
▁바다 -2266
▁월드컵 -2267
▁연장 -2268
▁늦 -2269
▁덴 -2270
▁밥 -2271
▁저항 -2272
▁의사 -2273
▁사쿠 -2274
▁추측 -2275
▁외모 -2276
▁금지 -2277
▁시나 -2278
▁널 -2279
▁모자 -2280
▁수많 -2281
▁빵 -2282
▁고자 -2283
▁책임 -2284
▁군단 -2285
▁최후 -2286
스케 -2287
▁you -2288
▁정리 -2289
▁템 -2290
em -2291
▁복수 -2292
▁오늘 -2293
▁쿄 -2294
▁올려 -2295
▁확장 -2296
▁범죄 -2297
▁이라고 -2298
▁오리지널 -2299
무리 -2300
▁장치 -2301
▁복귀 -2302
▁부탁 -2303
▁는가 -2304
▁열차 -2305
▁도와 -2306
▁치명 -2307
ON -2308
▁소유 -2309
▁타이틀 -2310
▁구매 -2311
▁멋 -2312
▁스코 -2313
▁일본어 -2314
▁MA -2315
▁디지 -2316
▁형제 -2317
▁언어 -2318
▁2005 -2319
▁젊 -2320
라이더 -2321
▁교수 -2322
▁잇 -2323
▁비하 -2324
▁부여 -2325
▁광역 -2326
▁웬 -2327
▁우선 -2328
▁대기 -2329
▁득점 -2330
▁고대 -2331
▁브레이 -2332
▁낫 -2333
▁간단 -2334
▁자마자 -2335
▁vs -2336
ight -2337
▁상징 -2338
▁평소 -2339
▁to -2340
요일 -2341
▁드립 -2342
▁투입 -2343
ation -2344
▁55 -2345
▁삼국 -2346
▁어려운 -2347
▁혁 -2348
▁달러 -2349
▁가운데 -2350
▁흉 -2351
▁인상 -2352
▁사령 -2353
다면 -2354
▁불가 -2355
▁터미 -2356
▁유우 -2357
▁대단 -2358
▁75 -2359
▁99 -2360
▁셔 -2361
▁스포츠 -2362
▁내리 -2363
▁추천 -2364
▁II -2365
▁형식 -2366
▁영혼 -2367
▁로마 -2368
▁장르 -2369
▁아라 -2370
▁해석 -2371
▁에이 -2372
▁가치 -2373
▁인한 -2374
▁빨리 -2375
▁이곳 -2376
▁2004 -2377
▁숫 -2378
▁정의 -2379
퓨터 -2380
▁힘든 -2381
▁걱 -2382
▁충분히 -2383
▁된다는 -2384
▁희생 -2385
▁자동차 -2386
▁대형 -2387
▁해졌 -2388
▁걱정 -2389
ce -2390
▁사무 -2391
▁기념 -2392
▁얼마나 -2393
▁와중 -2394
리트 -2395
▁이닝 -2396
▁주력 -2397
▁Ch -2398
▁리더 -2399
▁뭔가 -2400
▁맞춰 -2401
▁사상 -2402
IN -2403
▁일종 -2404
뜨리 -2405
▁생물 -2406
▁뚫 -2407
▁탈락 -2408
▁카오 -2409
▁올림 -2410
비아 -2411
▁카즈 -2412
▁도착 -2413
▁이탈리아 -2414
▁마크 -2415
▁마무리 -2416
런스 -2417
▁행성 -2418
▁사태 -2419
▁스크 -2420
▁마력 -2421
▁인류 -2422
ap -2423
▁컴퓨터 -2424
▁불명 -2425
▁모아 -2426
▁극장판 -2427
▁KBS -2428
▁전화 -2429
▁42 -2430
▁는다는 -2431
▁마르 -2432
▁이르 -2433
▁이치 -2434
▁네이 -2435
▁락 -2436
▁폼 -2437
▁와서 -2438
일러 -2439
▁공화 -2440
▁재료 -2441
000 -2442
▁필살기 -2443
▁섞 -2444
▁잊 -2445
▁냐는 -2446
▁육군 -2447
▁무사 -2448
▁회피 -2449
▁PC -2450
▁1000 -2451
▁지정 -2452
▁그저 -2453
▁통신 -2454
▁기지 -2455
▁덜 -2456
▁닉 -2457
▁39 -2458
▁거부 -2459
▁시킨다 -2460
여서 -2461
▁서버 -2462
▁썼 -2463
▁가정 -2464
▁MBC -2465
▁들어오 -2466
▁전통 -2467
▁공략 -2468
▁프로젝트 -2469
▁엠 -2470
▁액션 -2471
▁그럼 -2472
▁행사 -2473
▁구단 -2474
▁서술 -2475
ul -2476
▁2002 -2477
▁단순히 -2478
▁로스 -2479
▁시민 -2480
▁목숨 -2481
▁빼앗 -2482
▁장난 -2483
▁한국어 -2484
▁비트 -2485
▁료 -2486
▁대비 -2487
▁살아남 -2488
으니 -2489
▁자료 -2490
니티 -2491
▁냈 -2492
▁의도 -2493
▁보조 -2494
▁보너스 -2495
▁값 -2496
▁불과 -2497
▁넥 -2498
▁집단 -2499
아내 -2500
▁41 -2501
▁_ -2502
▁닮 -2503
▁어요 -2504
▁지난 -2505
▁더블 -2506
▁심하 -2507
▁빔 -2508
동생 -2509
▁빠지 -2510
▁움직이 -2511
▁아웃 -2512
▁의지 -2513
▁전술 -2514
▁박사 -2515
▁덩 -2516
▁전원 -2517
▁사라지 -2518
▁데이터 -2519
▁괴물 -2520
▁합류 -2521
▁구역 -2522
▁눈물 -2523
▁제로 -2524
▁실수 -2525
레이션 -2526
▁검사 -2527
▁랄 -2528
▁딱히 -2529
▁컨셉 -2530
▁흡수 -2531
▁카메 -2532
▁못한다 -2533
▁라디오 -2534
▁날려 -2535
▁제도 -2536
▁적절 -2537
▁윌 -2538
▁장군 -2539
▁연주 -2540
▁숫자 -2541
▁맺 -2542
▁클럽 -2543
▁상대방 -2544
▁위협 -2545
▁후속 -2546
ri -2547
▁함대 -2548
▁고양이 -2549
▁조정 -2550
▁오토 -2551
▁모리 -2552
▁화염 -2553
▁타자 -2554
▁유키 -2555
▁대응 -2556
▁정규 -2557
▁마츠 -2558
▁장기 -2559
▁텔 -2560
▁당해 -2561
▁수리 -2562
▁44 -2563
▁연습 -2564
▁을지 -2565
▁겹 -2566
▁저격 -2567
▁독자 -2568
▁감안 -2569
▁드라이 -2570
▁케이스 -2571
▁모티브 -2572
▁앉 -2573
▁꼴 -2574
▁듀얼 -2575
▁시내 -2576
▁느냐 -2577
자리 -2578
▁부른다 -2579
▁어찌 -2580
크래프트 -2581
▁릴 -2582
▁약점 -2583
▁반복 -2584
니까 -2585
▁몹 -2586
▁날개 -2587
▁기어 -2588
▁격투 -2589
▁보컬 -2590
▁테마 -2591
니스 -2592
▁에이스 -2593
▁닥터 -2594
나이 -2595
모리 -2596
▁터미널 -2597
▁그려 -2598
▁테크 -2599
▁대놓 -2600
▁개월 -2601
▁43 -2602
▁꾸준 -2603
▁바닥 -2604
RA -2605
▁설계 -2606
▁진다 -2607
▁확실히 -2608
▁오랜 -2609
▁이적 -2610
▁분리 -2611
▁캔 -2612
▁나쁘 -2613
nd -2614
▁났 -2615
▁공항 -2616
▁시나리오 -2617
▁상세 -2618
▁회전 -2619
▁뜬 -2620
▁종합 -2621
▁지닌 -2622
▁공동 -2623
▁앞서 -2624
▁쥐 -2625
▁이사 -2626
▁코어 -2627
▁미리 -2628
▁서브 -2629
▁BG -2630
타임 -2631
▁2003 -2632
▁에어 -2633
▁숲 -2634
▁투표 -2635
▁요청 -2636
all -2637
▁성인 -2638
▁유도 -2639
▁그때 -2640
▁체제 -2641
▁페르 -2642
▁필수 -2643
▁지명 -2644
▁세계관 -2645
▁패러디 -2646
▁피하 -2647
▁병기 -2648
▁소식 -2649
▁계기 -2650
▁훌 -2651
래도 -2652
워서 -2653
▁정책 -2654
▁당장 -2655
▁클래스 -2656
연히 -2657
AL -2658
▁스탠 -2659
▁컷 -2660
▁ST -2661
▁51 -2662
▁지적 -2663
▁지옥 -2664
ia -2665
▁메탈 -2666
▁전환 -2667
▁펀 -2668
로우 -2669
▁착용 -2670
▁바르 -2671
로드 -2672
▁핸 -2673
▁광주 -2674
▁스페인 -2675
ack -2676
st -2677
▁꼽 -2678
▁셰 -2679
시스 -2680
tt -2681
▁오오 -2682
▁채널 -2683
▁150 -2684
▁데려 -2685
uby -2686
▁인원 -2687
▁미스 -2688
▁밝혔 -2689
▁195 -2690
▁높이 -2691
▁초등 -2692
▁스마 -2693
▁진정 -2694
▁촉 -2695
▁승부 -2696
▁아머 -2697
▁파이터 -2698
▁방패 -2699
▁선언 -2700
▁델 -2701
▁소울 -2702
▁가슴 -2703
▁뉴스 -2704
▁편성 -2705
▁산업 -2706
▁관통 -2707
▁배신 -2708
▁47 -2709
oc -2710
▁무력 -2711
▁보급 -2712
▁방해 -2713
▁궤 -2714
▁온라인 -2715
▁회장 -2716
▁간다 -2717
▁중학교 -2718
▁SP -2719
▁베이스 -2720
▁차례 -2721
온다 -2722
▁원거리 -2723
▁등등 -2724
▁핑 -2725
▁모험 -2726
▁공사 -2727
▁나카 -2728
▁소비 -2729
▁크로스 -2730
▁ruby -2731
▁한자 -2732
▁아무래도 -2733
▁은퇴 -2734
▁VS -2735
▁관한 -2736
▁습격 -2737
▁PS -2738
▁로써 -2739
▁에스 -2740
▁리어 -2741
▁상처 -2742
▁돌려 -2743
▁올림픽 -2744
▁46 -2745
▁등록 -2746
▁언론 -2747
art -2748
▁그리스 -2749
▁알려져 -2750
▁원정 -2751
▁관광 -2752
▁울트라 -2753
▁안습 -2754
▁엉 -2755
▁마시 -2756
▁잠깐 -2757
▁적극 -2758
▁묶 -2759
▁가면라이더 -2760
▁특기 -2761
▁st -2762
▁64 -2763
▁안전 -2764
▁저주 -2765
▁끝내 -2766
▁연계 -2767
▁흔히 -2768
▁혐 -2769
▁으로부터 -2770
▁카페 -2771
▁지니 -2772
▁토스 -2773
▁통과 -2774
▁인형 -2775
ra -2776
▁공부 -2777
▁판타 -2778
PC -2779
▁버튼 -2780
▁의심 -2781
▁동맹 -2782
▁겐 -2783
▁미친 -2784
▁가스 -2785
▁실시 -2786
▁인지라 -2787
▁뱀 -2788
▁구축 -2789
▁후반부 -2790
▁마왕 -2791
▁멸망 -2792
▁마침 -2793
▁여름 -2794
▁무게 -2795
▁미군 -2796
▁위주 -2797
▁혜 -2798
▁i -2799
▁거짓 -2800
▁MP -2801
▁아사 -2802
▁승강 -2803
▁카운터 -2804
▁선정 -2805
▁겨우 -2806
▁명중 -2807
▁유래 -2808
▁전해 -2809
▁누군 -2810
낸다 -2811
▁에겐 -2812
▁핀 -2813
▁실점 -2814
▁국회 -2815
▁블루 -2816
▁교회 -2817
▁초대 -2818
▁게이 -2819
유키 -2820
▁공군 -2821
▁역전 -2822
▁or -2823
▁엄마 -2824
▁이어지 -2825
▁No -2826
▁and -2827
거나 -2828
▁오프닝 -2829
▁코치 -2830
▁정당 -2831
▁떼 -2832
▁바꿔 -2833
▁랍 -2834
▁스펙 -2835
▁진입 -2836
▁다름 -2837
라리 -2838
▁아름 -2839
▁게시 -2840
▁태도 -2841
▁개선 -2842
힌다 -2843
▁퓨 -2844
▁레이저 -2845
AT -2846
▁In -2847
하라 -2848
르크 -2849
▁밸런스 -2850
시브 -2851
▁민족 -2852
▁사장 -2853
▁최악 -2854
▁영입 -2855
▁투자 -2856
▁수호 -2857
▁코스트 -2858
▁날리 -2859
▁미나 -2860
▁희망 -2861
▁리스 -2862
▁안드 -2863
op -2864
▁질문 -2865
▁왼쪽 -2866
▁그레이 -2867
▁갓 -2868
▁눈치 -2869
▁어울 -2870
▁계급 -2871
▁태양 -2872
▁짤 -2873
▁삽 -2874
▁표정 -2875
▁챙 -2876
▁시체 -2877
▁고통 -2878
▁코너 -2879
▁젠 -2880
▁느껴 -2881
▁코믹스 -2882
▁그라 -2883
▁후지 -2884
▁벌이 -2885
▁400 -2886
▁멀티 -2887
▁373 -2888
▁깎 -2889
▁은근 -2890
▁설립 -2891
▁수단 -2892
ie -2893
▁모션 -2894
▁쓴다 -2895
▁따지 -2896
▁조각 -2897
▁스위 -2898
▁미야 -2899
▁분야 -2900
▁텍 -2901
▁생겨 -2902
▁바뀐 -2903
▁버려 -2904
▁솔로 -2905
▁하위 -2906
▁남편 -2907
▁황금 -2908
▁됨 -2909
▁선보 -2910
▁하트 -2911
▁룰 -2912
▁제압 -2913
트롤 -2914
▁탑재 -2915
▁대원 -2916
▁킥 -2917
est -2918
▁사단 -2919
▁dd -2920
▁스피드 -2921
▁군인 -2922
▁의문 -2923
무원 -2924
▁대놓고 -2925
▁막장 -2926
▁방문 -2927
▁매일 -2928
▁견제 -2929
▁2001 -2930
▁끼리 -2931
▁비디오 -2932
▁CD -2933
▁대답 -2934
▁미치 -2935
▁진영 -2936
OR -2937
▁소드 -2938
▁펼치 -2939
▁용병 -2940
▁확보 -2941
▁경력 -2942
IA -2943
▁비난 -2944
다수 -2945
▁애매 -2946
▁구해 -2947
▁멈 -2948
▁콩 -2949
머리 -2950
▁좁 -2951
▁차별 -2952
▁기자 -2953
▁자식 -2954
▁프라 -2955
ill -2956
▁주연 -2957
▁튜 -2958
▁행적 -2959
▁사과 -2960
▁중단 -2961
▁193 -2962
▁기점 -2963
▁엑스 -2964
▁오스 -2965
▁자살 -2966
▁온갖 -2967
▁청소 -2968
▁지식 -2969
▁수원 -2970
▁본선 -2971
▁고급 -2972
어도 -2973
▁사카 -2974
▁개봉 -2975
▁구입 -2976
▁거두 -2977
OS -2978
▁낼 -2979
▁아쉬 -2980
▁노동 -2981
▁탯 -2982
▁살해 -2983
dddd -2984
▁dddddd -2985
▁패스 -2986
▁돌파 -2987
▁어째 -2988
▁해제 -2989
▁해진 -2990
세이 -2991
▁롱 -2992
나가 -2993
▁유용 -2994
▁뛰어 -2995
▁라이벌 -2996
▁1990 -2997
▁로켓 -2998
▁세요 -2999
▁메가 -3000
▁52 -3001
▁브랜드 -3002
▁기획 -3003
▁아시아 -3004
ik -3005
PS -3006
▁트랙 -3007
▁선물 -3008
▁진실 -3009
▁장전 -3010
▁닌자 -3011
▁개편 -3012
▁그럴 -3013
▁Re -3014
▁공통 -3015
▁융 -3016
▁조준 -3017
쳐서 -3018
▁체계 -3019
▁컨트롤 -3020
▁예선 -3021
▁%, -3022
▁멀리 -3023
▁단위 -3024
▁어차 -3025
▁렉 -3026
드리 -3027
ate -3028
▁시청자 -3029
▁스파이 -3030
▁미드 -3031
▁편집 -3032
▁이스 -3033
▁은행 -3034
▁어차피 -3035
▁는다고 -3036
▁장애 -3037
워드 -3038
▁발휘 -3039
▁놀라 -3040
▁자이 -3041
터리 -3042
다지 -3043
▁틈 -3044
▁전장 -3045
▁봐야 -3046
▁붕괴 -3047
▁경계 -3048
▁좋아하 -3049
▁랩 -3050
▁부담 -3051
▁계산 -3052
▁그게 -3053
▁용도 -3054
▁지내 -3055
즈키 -3056
▁납치 -3057
▁65 -3058
▁인생 -3059
▁쉬운 -3060
▁신화 -3061
▁행복 -3062
▁오른쪽 -3063
▁줄어들 -3064
▁순수 -3065
▁늘어나 -3066
▁연예 -3067
▁외부 -3068
▁룡 -3069
▁평화 -3070
▁이거 -3071
사카 -3072
▁대다수 -3073
▁Sh -3074
th -3075
▁경유 -3076
▁스트라이 -3077
▁떨어져 -3078
▁궁극 -3079
IC -3080
▁실질 -3081
▁귀족 -3082
▁의원 -3083
▁펠 -3084
▁갱 -3085
▁점령 -3086
▁현장 -3087
▁최대한 -3088
▁창작 -3089
▁떡밥 -3090
▁우수 -3091
▁돌아오 -3092
▁횟 -3093
▁정령 -3094
▁가이 -3095
▁측면 -3096
▁소프트 -3097
▁여왕 -3098
▁나쁜 -3099
▁을까 -3100
▁무서 -3101
▁누가 -3102
▁도서 -3103
▁스케 -3104
▁건지 -3105
▁그다지 -3106
▁젤 -3107
ttp -3108
레인 -3109
▁영역 -3110
▁제안 -3111
▁샌 -3112
▁포르 -3113
▁http -3114
▁56 -3115
▁게이지 -3116
▁된다고 -3117
바이 -3118
▁일어난 -3119
▁탄생 -3120
▁주목 -3121
▁약한 -3122
▁커뮤 -3123
▁헤드 -3124
▁터지 -3125
▁규정 -3126
▁작성 -3127
▁탑승 -3128
▁어쩔 -3129
▁여부 -3130
▁바탕 -3131
▁경향 -3132
▁저런 -3133
가락 -3134
▁꾸준히 -3135
카와 -3136
▁체육 -3137
리티 -3138
▁니시 -3139
▁갤러리 -3140
ED -3141
▁순서 -3142
▁오해 -3143
▁러브 -3144
▁승강장 -3145
▁얼음 -3146
▁이성 -3147
로이드 -3148
▁타이밍 -3149
▁운전 -3150
▁업체 -3151
▁생성 -3152
▁상자 -3153
▁나누 -3154
▁요원 -3155
어리 -3156
▁릭 -3157
▁정류 -3158
▁돌격 -3159
▁살짝 -3160
▁당한다 -3161
▁도구 -3162
▁카메라 -3163
▁나아 -3164
▁박스 -3165
▁넷 -3166
▁부인 -3167
▁Sp -3168
▁공화국 -3169
▁낳 -3170
▁동네 -3171
▁테러 -3172
마스 -3173
▁개최 -3174
▁누군가 -3175
▁훌륭 -3176
▁완료 -3177
▁선배 -3178
▁횟수 -3179
▁판타지 -3180
▁제시 -3181
▁120 -3182
▁정말로 -3183
▁54 -3184
▁마녀 -3185
▁트위 -3186
▁짜리 -3187
▁고유 -3188
▁유희 -3189
▁2020 -3190
▁쿨타임 -3191
AS -3192
▁49 -3193
▁장수 -3194
▁통일 -3195
▁잖 -3196
▁숨겨 -3197
▁뮤직 -3198
▁약속 -3199
▁디아 -3200
▁지하철 -3201
▁삶 -3202
▁반영 -3203
▁겁 -3204
▁53 -3205
▁블레이드 -3206
▁고서 -3207
▁레전 -3208
▁생일 -3209
▁전대 -3210
▁기분 -3211
▁춤 -3212
▁보정 -3213
▁회의 -3214
▁일부러 -3215
▁커버 -3216
친다 -3217
▁카나 -3218
▁뱅 -3219
▁갑옷 -3220
▁알리 -3221
▁문명 -3222
▁어쨌 -3223
▁비고 -3224
▁빌리 -3225
▁교사 -3226
▁집안 -3227
▁때려 -3228
▁SBS -3229
▁왕자 -3230
▁습득 -3231
▁퀄 -3232
▁그런지 -3233
▁문자 -3234
ess -3235
ab -3236
▁You -3237
▁한화 -3238
▁파이어 -3239
▁누르 -3240
심히 -3241
▁찰 -3242
▁편의 -3243
▁신세 -3244
▁자격 -3245
EN -3246
▁허용 -3247
▁군주 -3248
▁동방 -3249
▁짝 -3250
▁공장 -3251
▁미츠 -3252
▁수요 -3253
▁공원 -3254
▁폭풍 -3255
▁대우 -3256
▁윙 -3257
▁라스 -3258
▁아오 -3259
▁페이지 -3260
스티 -3261
아먹 -3262
▁끝난 -3263
▁예술 -3264
▁스프 -3265
▁지점 -3266
▁마도 -3267
▁못해 -3268
▁베르 -3269
▁플라 -3270
▁비록 -3271
▁응원 -3272
▁85 -3273
▁Bl -3274
▁데리 -3275
▁업무 -3276
▁가로 -3277
▁유비 -3278
피스 -3279
▁천사 -3280
▁알렉 -3281
▁마인 -3282
▁한때 -3283
▁룬 -3284
▁상품 -3285
▁키리 -3286
▁대공 -3287
▁낚 -3288
▁짱 -3289
▁토모 -3290
▁여신 -3291
▁적당 -3292
▁건너 -3293
▁내놓 -3294
▁전함 -3295
▁홍보 -3296
▁의한 -3297
▁이론 -3298
▁출발 -3299
▁우려 -3300
▁공기 -3301
튜브 -3302
▁쏟 -3303
▁노멀 -3304
▁직원 -3305
▁유튜브 -3306
▁커맨 -3307
▁소수 -3308
▁설득 -3309
▁봄 -3310
▁약하 -3311
▁파일럿 -3312
▁거절 -3313
▁보수 -3314
▁단독 -3315
ct -3316
▁비율 -3317
▁재생 -3318
▁소문 -3319
▁레오 -3320
▁알려진 -3321
▁난다 -3322
▁협력 -3323
▁뒤집 -3324
▁스페셜 -3325
▁충돌 -3326
▁혼란 -3327
▁기기 -3328
▁다시피 -3329
▁거주 -3330
▁파악 -3331
▁그래픽 -3332
▁후쿠 -3333
▁겨울 -3334
▁보도 -3335
▁미소 -3336
eat -3337
텐츠 -3338
▁회수 -3339
ard -3340
▁문제점 -3341
▁그만큼 -3342
▁트레이 -3343
▁이슬 -3344
▁댓 -3345
▁여동생 -3346
▁따른 -3347
▁대륙 -3348
이터 -3349
▁환승 -3350
▁무적 -3351
▁근무 -3352
티컬 -3353
▁수사 -3354
▁57 -3355
▁쓰레 -3356
up -3357
▁변하 -3358
▁취소 -3359
▁출처 -3360
▁트위터 -3361
▁영원 -3362
▁AT -3363
가와 -3364
▁가졌 -3365
▁격파 -3366
▁충전 -3367
▁든지 -3368
▁열린 -3369
▁66 -3370
▁MS -3371
▁우스 -3372
▁반란 -3373
▁메이저 -3374
▁용어 -3375
▁사쿠라 -3376
▁팝 -3377
▁패시브 -3378
다운 -3379
▁지나가 -3380
▁사이즈 -3381
▁DJ -3382
▁가입 -3383
▁본명 -3384
▁랜덤 -3385
▁핵심 -3386
LC -3387
▁건강 -3388
▁운명 -3389
▁전형 -3390
▁장교 -3391
▁커뮤니티 -3392
▁가까이 -3393
▁박살 -3394
▁실행 -3395
▁1999 -3396
긴다 -3397
▁언니 -3398
트로 -3399
▁NPC -3400
▁묵 -3401
▁수입 -3402
▁분석 -3403
▁나루 -3404
▁AC -3405
▁밟 -3406
▁오류 -3407
▁동아 -3408
▁사토 -3409
▁별개 -3410
▁수학 -3411
▁강해 -3412
▁형성 -3413
▁전투력 -3414
아버지 -3415
니어 -3416
▁모으 -3417
▁증거 -3418
▁사운드 -3419
EC -3420
ine -3421
▁열심히 -3422
▁내내 -3423
▁예외 -3424
▁웨이 -3425
▁화살 -3426
▁연상 -3427
▁섭 -3428
▁거래 -3429
▁아침 -3430
ant -3431
▁끔 -3432
▁76 -3433
▁주년 -3434
▁보단 -3435
ist -3436
▁타케 -3437
히로 -3438
▁따위 -3439
▁벌어 -3440
▁섹 -3441
▁머신 -3442
▁아메 -3443
▁일으키 -3444
▁심장 -3445
▁통하 -3446
▁아나 -3447
▁정해 -3448
▁카르 -3449
▁바보 -3450
▁초월 -3451
▁흰 -3452
▁95 -3453
▁거쳐 -3454
▁권력 -3455
▁제조 -3456
▁AP -3457
▁신뢰 -3458
▁서포 -3459
▁카미 -3460
모로 -3461
▁기다리 -3462
▁연애 -3463
▁강조 -3464
▁만족 -3465
▁연방 -3466
▁암흑 -3467
OL -3468
▁BGM -3469
▁드리 -3470
▁붙잡 -3471
▁드러나 -3472
▁전투기 -3473
▁킨 -3474
▁피해자 -3475
▁CP -3476
▁상향 -3477
▁이래 -3478
▁로운 -3479
▁정권 -3480
▁둘러 -3481
▁들어갔 -3482
▁이마 -3483
▁레전드 -3484
▁늑 -3485
▁58 -3486
▁돌리 -3487
피아 -3488
▁고기 -3489
▁개통 -3490
▁헌터 -3491
▁스코어 -3492
디션 -3493
사키 -3494
▁제법 -3495
▁피아 -3496
타인 -3497
▁여러모로 -3498
▁본부 -3499
▁자고 -3500
▁다행히 -3501
▁고민 -3502
▁오로 -3503
▁변형 -3504
▁기절 -3505
▁겟 -3506
▁재능 -3507
▁주도 -3508
파이어 -3509
▁연사 -3510
▁붙여 -3511
▁주먹 -3512
▁위원회 -3513
▁고교 -3514
▁화이트 -3515
▁아리 -3516
▁복장 -3517
▁땐 -3518
▁77 -3519
▁옛날 -3520
▁매치 -3521
▁키스 -3522
▁TH -3523
▁마스 -3524
▁사라졌 -3525
▁re -3526
▁민간 -3527
ue -3528
▁트라 -3529
▁페이스 -3530
▁72 -3531
▁쿠로 -3532
▁파이널 -3533
PG -3534
▁불꽃 -3535
▁뛰어나 -3536
▁부진 -3537
▁제기 -3538
▁엘프 -3539
타로 -3540
▁대만 -3541
더스 -3542
▁1998 -3543
▁별도 -3544
도우 -3545
▁마술 -3546
▁벌어지 -3547
▁아닐 -3548
▁실드 -3549
▁댄스 -3550
ip -3551
▁여겨 -3552
▁62 -3553
AM -3554
▁전공 -3555
▁네이버 -3556
▁98 -3557
▁com -3558
▁옹 -3559
▁쓰인다 -3560
ind -3561
▁진지 -3562
▁총기 -3563
▁절반 -3564
▁함선 -3565
▁고생 -3566
▁88 -3567
▁심리 -3568
▁아가 -3569
▁게이트 -3570
▁크루 -3571
▁삼국지 -3572
▁버티 -3573
▁샘 -3574
▁Al -3575
ore -3576
나다 -3577
츠키 -3578
▁스티 -3579
▁간부 -3580
▁덮 -3581
▁당황 -3582
▁불렀 -3583
▁사전 -3584
▁걸려 -3585
▁불만 -3586
▁채용 -3587
▁여서 -3588
▁화장 -3589
▁지급 -3590
▁검색 -3591
▁낭 -3592
▁선호 -3593
자키 -3594
고기 -3595
▁추적 -3596
▁프레임 -3597
▁아프리카 -3598
▁떨어진 -3599
▁당할 -3600
▁재판 -3601
오리 -3602
▁해방 -3603
▁폭주 -3604
▁학살 -3605
▁고전 -3606
one -3607
▁후속작 -3608
ang -3609
▁조조 -3610
▁파라 -3611
▁레인저 -3612
▁한국인 -3613
▁근거 -3614
▁요즘 -3615
▁Th -3616
▁표준 -3617
▁끌어 -3618
▁라이더 -3619
▁블러 -3620
▁동원 -3621
▁밀려 -3622
▁동영 -3623
▁입력 -3624
▁곰 -3625
▁작용 -3626
▁계승 -3627
▁나서 -3628
▁추락 -3629
▁히데 -3630
▁마이크 -3631
▁균 -3632
식간 -3633
▁웬만 -3634
▁합체 -3635
▁남기 -3636
IT -3637
▁화려 -3638
▁순식간 -3639
▁경기도 -3640
▁해진다 -3641
▁800 -3642
▁'. -3643
▁통제 -3644
▁커플 -3645
▁지나치 -3646
▁동영상 -3647
스트라 -3648
▁크리티컬 -3649
▁어택 -3650
▁지형 -3651
▁대대 -3652
▁드물 -3653
▁SS -3654
▁외국인 -3655
▁학과 -3656
▁카오스 -3657
▁명예 -3658
▁테이 -3659
▁늑대 -3660
▁랜드 -3661
▁갖추 -3662
ell -3663
▁현지 -3664
▁믹 -3665
▁들어간 -3666
▁일상 -3667
▁쓰레기 -3668
▁틱 -3669
▁.... -3670
바로 -3671
▁아트 -3672
어스 -3673
▁아무런 -3674
▁교환 -3675
▁오빠 -3676
운다 -3677
▁벗어나 -3678
▁더러 -3679
▁권총 -3680
▁카라 -3681
▁600 -3682
▁요새 -3683
▁해병 -3684
어버 -3685
▁최상 -3686
의원 -3687
에도 -3688
▁닿 -3689
▁시야 -3690
▁양산 -3691
▁전철 -3692
▁흘러 -3693
▁때리 -3694
▁부품 -3695
▁클라 -3696
▁해설 -3697
▁반지 -3698
▁움직임 -3699
▁환상 -3700
▁메카 -3701
와서 -3702
▁버릴 -3703
▁김성 -3704
▁59 -3705
둥이 -3706
▁수술 -3707
▁드디어 -3708
▁제작진 -3709
▁만난 -3710
▁덧 -3711
▁죽여 -3712
▁혁명 -3713
▁몰아 -3714
▁타워 -3715
▁할지 -3716
▁지시 -3717
▁사마 -3718
▁구현 -3719
▁미디어 -3720
▁쇠 -3721
▁전선 -3722
▁불편 -3723
▁요괴 -3724
▁토리 -3725
창기 -3726
▁대하 -3727
▁증명 -3728
▁사자 -3729
▁지대 -3730
▁시각 -3731
if -3732
▁제자 -3733
▁시드 -3734
▁!! -3735
▁발매되 -3736
▁갈등 -3737
▁소멸 -3738
▁정지 -3739
▁치가 -3740
▁트레 -3741
▁수송 -3742
▁소총 -3743
▁탱크 -3744
▁왠 -3745
▁퀸 -3746
▁정류장 -3747
▁향해 -3748
▁대체로 -3749
▁호환 -3750
▁매체 -3751
▁근육 -3752
FA -3753
▁리메 -3754
▁1997 -3755
▁이승 -3756
▁유형 -3757
▁캐스 -3758
▁레스 -3759
▁편하 -3760
▁꺼내 -3761
▁마련 -3762
▁매력 -3763
▁마구 -3764
▁자는 -3765
▁연대 -3766
▁영업 -3767
▁불안 -3768
▁스토 -3769
ort -3770
▁리버 -3771
▁61 -3772
▁중계 -3773
▁춘 -3774
▁몰래 -3775
▁반격 -3776
▁겉 -3777
▁즉시 -3778
▁폐지 -3779
▁전적 -3780
▁복잡 -3781
▁초창기 -3782
퍼스 -3783
▁되돌 -3784
▁클로 -3785
이즈 -3786
▁령 -3787
▁배트 -3788
▁전직 -3789
▁어지 -3790
▁쾌 -3791
▁경비 -3792
▁테스트 -3793
▁수업 -3794
▁소닉 -3795
▁처치 -3796
▁걷 -3797
▁공작 -3798
▁네임 -3799
▁깃 -3800
▁폭격 -3801
저히 -3802
▁프린 -3803
▁스카이 -3804
▁경영 -3805
▁상상 -3806
▁191 -3807
ive -3808
도로 -3809
▁테일 -3810
▁떠올 -3811
큐어 -3812
▁동기 -3813
▁날아가 -3814
▁극단 -3815
▁작사 -3816
▁출현 -3817
오르 -3818
ok -3819
ld -3820
▁뿌리 -3821
▁나와서 -3822
▁묘지 -3823
▁두산 -3824
▁신장 -3825
▁신고 -3826
▁", -3827
▁마루 -3828
▁푸른 -3829
▁해금 -3830
▁공유 -3831
▁하고 -3832
지마 -3833
▁스마트 -3834
▁커맨드 -3835
▁쟈 -3836
▁볼트 -3837
▁작동 -3838
▁텔레 -3839
▁조절 -3840
VE -3841
▁출판 -3842
▁폭력 -3843
▁압박 -3844
▁탁 -3845
▁들어간다 -3846
▁심한 -3847
▁이랑 -3848
▁스톰 -3849
▁마주 -3850
▁인수 -3851
▁잠수 -3852
▁구도 -3853
▁연관 -3854
▁참전 -3855
▁KO -3856
▁콜라 -3857
어져 -3858
▁1980 -3859
▁아티 -3860
▁씬 -3861
드라 -3862
▁브리 -3863
▁장관 -3864
▁리메이크 -3865
ers -3866
▁어쩌 -3867
▁조용 -3868
지컬 -3869
다른 -3870
▁가득 -3871
▁동작 -3872
▁배차 -3873
▁악역 -3874
▁그림자 -3875
▁공산 -3876
▁키우 -3877
▁요정 -3878
▁신분 -3879
▁농구 -3880
▁한방 -3881
워하 -3882
▁전방 -3883
▁언제나 -3884
▁국적 -3885
▁이리 -3886
▁장식 -3887
▁알파 -3888
▁연도 -3889
▁렙 -3890
▁오픈 -3891
▁환자 -3892
▁NC -3893
▁외계 -3894
▁뉴욕 -3895
▁사령관 -3896
로운 -3897
▁평타 -3898
ove -3899
▁흔들 -3900
▁An -3901
▁등판 -3902
▁똑같이 -3903
▁절망 -3904
▁어깨 -3905
▁서양 -3906
▁빨간 -3907
▁엮 -3908
▁흥행 -3909
ain -3910
▁브라질 -3911
▁떨어진다 -3912
▁출생 -3913
▁물질 -3914
▁프리큐어 -3915
▁적어도 -3916
▁리아 -3917
일리 -3918
▁돌진 -3919
▁출장 -3920
▁잖아 -3921
▁시행 -3922
▁익숙 -3923
▁아크 -3924
▁일지 -3925
▁74 -3926
▁노예 -3927
▁착각 -3928
조리 -3929
▁노출 -3930
▁분기 -3931
▁은근히 -3932
▁중대 -3933
▁팅 -3934
▁간격 -3935
▁모바 -3936
든가 -3937
▁게시판 -3938
▁간혹 -3939
▁신청 -3940
▁유령 -3941
▁미카 -3942
오카 -3943
▁사양 -3944
▁범인 -3945
▁스타크래프트 -3946
▁어쨌든 -3947
▁글자 -3948
▁되찾 -3949
▁코우 -3950
▁Se -3951
▁없애 -3952
웨이 -3953
▁프리미 -3954
▁주위 -3955
▁통해서 -3956
▁63 -3957
▁입학 -3958
▁고향 -3959
▁저그 -3960
▁신문 -3961
▁남부 -3962
서트 -3963
▁마냥 -3964
▁먹이 -3965
▁경험치 -3966
▁사이드 -3967
광역 -3968
▁보장 -3969
▁슈트 -3970
▁무난 -3971
▁강철 -3972
▁빠진 -3973
▁훔 -3974
▁96 -3975
▁1996 -3976
▁자이언 -3977
▁두려 -3978
▁즐기 -3979
▁추진 -3980
MA -3981
ong -3982
▁브레이크 -3983
▁탄약 -3984
▁DLC -3985
▁괴롭 -3986
▁써먹 -3987
▁구출 -3988
▁종점 -3989
▁써서 -3990
▁메모리 -3991
▁딜러 -3992
▁전시 -3993
▁유희왕 -3994
전자 -3995
▁유행 -3996
▁대량 -3997
▁밝히 -3998
▁71 -3999
▁스톤 -4000
▁68 -4001
▁아무것 -4002
▁전역 -4003
▁달린 -4004
▁이시 -4005
▁MAX -4006
디아 -4007
▁KT -4008
ith -4009
▁an -4010
▁보물 -4011
▁부위 -4012
▁열리 -4013
▁출력 -4014
▁AK -4015
▁드러내 -4016
▁이즈 -4017
▁챠 -4018
▁97 -4019
▁귀여 -4020
▁감사 -4021
▁세월 -4022
▁눌 -4023
▁통상 -4024
성기 -4025
▁문장 -4026
▁에다 -4027
▁걸어 -4028
▁객 -4029
▁창조 -4030
▁밝혀졌 -4031
▁스킨 -4032
웨어 -4033
▁감염 -4034
거운 -4035
▁해체 -4036
▁흠 -4037
▁으론 -4038
▁차라리 -4039
광역시 -4040
▁대립 -4041
▁맞이 -4042
▁제이 -4043
▁당선 -4044
▁시즈 -4045
▁주소 -4046
ast -4047
▁도서관 -4048
EM -4049
▁북미 -4050
▁댓글 -4051
▁핸드 -4052
▁기독 -4053
▁매직 -4054
▁밀어 -4055
펙트 -4056
▁이란 -4057
▁께 -4058
▁보일 -4059
▁기습 -4060
▁들이 -4061
▁베트 -4062
▁대략 -4063
▁하야 -4064
▁공학 -4065
▁하필 -4066
▁호평 -4067
▁살려 -4068
▁상당수 -4069
▁일어났 -4070
end -4071
▁험 -4072
위대 -4073
▁조지 -4074
▁썬 -4075
og -4076
▁중화 -4077
▁은하 -4078
톨릭 -4079
▁73 -4080
▁부문 -4081
▁US -4082
▁스튜 -4083
▁플레 -4084
▁빗 -4085
레이터 -4086
▁거짓말 -4087
▁서부 -4088
▁1995 -4089
▁이슬람 -4090
▁리얼 -4091
ew -4092
▁제주 -4093
▁사신 -4094
▁리치 -4095
▁인증 -4096
▁융합 -4097
▁돼지 -4098
▁김정 -4099
던가 -4100
▁무료 -4101
▁그랬 -4102
▁멕 -4103
▁대충 -4104
▁종이 -4105
▁는지라 -4106
▁통한 -4107
▁멀쩡 -4108
▁넌 -4109
라이언 -4110
▁용사 -4111
▁물러 -4112
▁빡 -4113
▁신성 -4114
▁둥 -4115
▁결말 -4116
▁추격 -4117
요시 -4118
▁올라오 -4119
▁고백 -4120
▁타마 -4121
▁회원 -4122
시오 -4123
▁라이프 -4124
▁번개 -4125
▁꺾 -4126
▁모바일 -4127
▁점차 -4128
▁유이 -4129
▁외교 -4130
▁앱 -4131
▁세이버 -4132
▁결론 -4133
▁육체 -4134
▁무너 -4135
▁편지 -4136
▁녹음 -4137
▁이자 -4138
▁줘야 -4139
▁부리 -4140
▁메시 -4141
▁관객 -4142
▁67 -4143
▁입수 -4144
▁음성 -4145
▁그럼에도 -4146
▁퀄리티 -4147
▁앵 -4148
▁수련 -4149
▁오카 -4150
▁엔터 -4151
▁붙이 -4152
▁신인 -4153
▁갤럭 -4154
▁기원 -4155
▁야스 -4156
▁타점 -4157
▁죄다 -4158
▁블로그 -4159
▁긍 -4160
▁향상 -4161
▁특화 -4162
▁예비 -4163
미야 -4164
▁가톨릭 -4165
▁던져 -4166
▁공급 -4167
▁만났 -4168
▁ff -4169
▁78 -4170
▁정복 -4171
▁요코 -4172
▁너무나 -4173
▁가속 -4174
▁81 -4175
▁He -4176
▁; -4177
▁그곳 -4178
▁아기 -4179
▁기독교 -4180
▁유로 -4181
▁조치 -4182
▁슛 -4183
▁느리 -4184
▁기병 -4185
▁콘서트 -4186
▁츄 -4187
▁올렸 -4188
▁단일 -4189
▁음반 -4190
▁카타 -4191
▁위장 -4192
▁싸울 -4193
듀서 -4194
▁프로듀서 -4195
▁동화 -4196
av -4197
▁냄 -4198
▁헨 -4199
▁캐스팅 -4200
▁협회 -4201
▁가게 -4202
▁THE -4203
▁맘 -4204
버트 -4205
▁반발 -4206
리그 -4207
▁전달 -4208
▁소화 -4209
▁세우 -4210
▁192 -4211
▁훗 -4212
▁프라이 -4213
▁펀치 -4214
▁주전 -4215
▁현역 -4216
▁고용 -4217
▁썩 -4218
▁JR -4219
▁가량 -4220
▁무효 -4221
▁피부 -4222
레나 -4223
▁아우 -4224
▁뭉 -4225
▁180 -4226
▁신기 -4227
▁마리아 -4228
▁과목 -4229
▁국군 -4230
▁나갔 -4231
▁가상 -4232
▁91 -4233
▁갤럭시 -4234
▁마키 -4235
PM -4236
▁게스트 -4237
▁블리 -4238
▁비해서 -4239
▁루시 -4240
▁옮겨 -4241
▁일원 -4242
▁진심 -4243
▁웹툰 -4244
▁횡 -4245
▁올랐 -4246
▁꼬리 -4247
▁국회의원 -4248
▁입구 -4249
ly -4250
▁세이브 -4251
나무 -4252
▁어울리 -4253
▁파란 -4254
▁} -4255
▁오후 -4256
▁리스트 -4257
▁HD -4258
▁신규 -4259
▁넘기 -4260
▁문학 -4261
▁뜯 -4262
▁마리오 -4263
▁태그 -4264
▁메타 -4265
▁기사단 -4266
▁더라 -4267
어날 -4268
▁수집 -4269
▁바리 -4270
▁홍콩 -4271
▁조심 -4272
▁부수 -4273
▁임시 -4274
▁이득 -4275
se -4276
보드 -4277
▁심판 -4278
OT -4279
▁청년 -4280
▁자라 -4281
▁울산 -4282
▁SD -4283
▁전면 -4284
▁후기 -4285
▁250 -4286
▁내구 -4287
▁제어 -4288
▁고문 -4289
▁연구소 -4290
▁섀 -4291
▁파리 -4292
▁신라 -4293
▁전하 -4294
▁베스트 -4295
▁내장 -4296
쟁이 -4297
▁몰려 -4298
▁1994 -4299
▁람 -4300
▁돌아온 -4301
▁침공 -4302
▁대개 -4303
IS -4304
▁켈 -4305
▁보낸 -4306
▁84 -4307
▁한지 -4308
▁길드 -4309
BO -4310
▁부부 -4311
▁쿼 -4312
▁수영 -4313
아웃 -4314
▁잡지 -4315
▁립 -4316
잡이 -4317
▁구멍 -4318
▁지능 -4319
AC -4320
▁의무 -4321
▁뼈 -4322
▁여론 -4323
▁상점 -4324
티나 -4325
▁MV -4326
▁인공 -4327
▁파트너 -4328
▁영토 -4329
▁나간 -4330
▁넘겨 -4331
▁톱 -4332
▁이뤄 -4333
▁카스 -4334
▁육성 -4335
▁아일 -4336
▁여지 -4337
▁기종 -4338
▁j -4339
구치 -4340
▁강의 -4341
▁된다면 -4342
구리 -4343
▁헤비 -4344
▁도우 -4345
▁작화 -4346
▁자매 -4347
▁비싸 -4348
▁손가락 -4349
▁슬롯 -4350
▁어른 -4351
▁한번 -4352
▁지휘관 -4353
▁최소한 -4354
▁정면 -4355
▁SN -4356
▁경상 -4357
코토 -4358
▁터키 -4359
▁연인 -4360
릭스 -4361
▁일반인 -4362
▁낸다 -4363
▁본작 -4364
▁타이거 -4365
▁한마 -4366
▁예능 -4367
크스 -4368
▁쿠키 -4369
▁연타 -4370
▁디지몬 -4371
▁Ar -4372
▁노부 -4373
▁인근 -4374
▁사우 -4375
▁Le -4376
▁어린이 -4377
▁MC -4378
▁감시 -4379
▁다룬 -4380
▁헤이 -4381
FC -4382
호사 -4383
▁아시 -4384
브리 -4385
▁무언 -4386
▁명중률 -4387
▁외전 -4388
▁성과 -4389
▁가볍 -4390
▁살리 -4391
▁De -4392
▁파견 -4393
▁에드 -4394
▁방사 -4395
▁체인 -4396
▁식사 -4397
▁교전 -4398
▁인지도 -4399
▁나뉘 -4400
▁대항 -4401
▁여유 -4402
▁69 -4403
▁오랫 -4404
▁190 -4405
▁소형 -4406
▁특집 -4407
▁결승전 -4408
▁왕조 -4409
▁불린다 -4410
▁82 -4411
▁회차 -4412
▁는다면 -4413
▁포탑 -4414
▁더더 -4415
▁시내버스 -4416
▁라면서 -4417
▁어지간 -4418
▁에서부터 -4419
▁클리 -4420
▁안경 -4421
▁아바 -4422
▁다를 -4423
▁사도 -4424
▁아니면 -4425
▁쏴 -4426
▁터치 -4427
▁86 -4428
▁기초 -4429
▁규칙 -4430
▁한동안 -4431
▁고지 -4432
가미 -4433
바라 -4434
▁연락 -4435
▁도망치 -4436
▁아닌가 -4437
▁허나 -4438
▁대폭 -4439
▁PD -4440
▁실버 -4441
▁반사 -4442
▁강남 -4443
▁더더욱 -4444
▁해적 -4445
▁잦 -4446
▁요금 -4447
▁트윈 -4448
▁이루어지 -4449
▁합쳐 -4450
ry -4451
▁아쉽 -4452
ES -4453
▁협박 -4454
▁져서 -4455
▁국어 -4456
▁합성 -4457
▁왈 -4458
▁차단 -4459
▁림 -4460
끄러 -4461
준다 -4462
▁전성기 -4463
▁레이스 -4464
▁매니 -4465
▁동부 -4466
▁컬러 -4467
▁is -4468
▁다닌 -4469
▁의상 -4470
▁AI -4471
▁스페이스 -4472
▁절대로 -4473
▁떨어졌 -4474
▁국방 -4475
▁한참 -4476
▁첨 -4477
▁고수 -4478
▁분량 -4479
▁속하 -4480
우드 -4481
▁소지 -4482
▁주포 -4483
▁재미있 -4484
▁렛 -4485
▁괴수 -4486
▁의료 -4487
▁다면서 -4488
▁경기장 -4489
▁드림 -4490
▁휴대 -4491
▁고르 -4492
▁좌우 -4493
▁튀어나 -4494
▁입단 -4495
▁비아 -4496
▁안티 -4497
▁체포 -4498
▁버스터 -4499
▁{ -4500
▁로즈 -4501
▁프로필 -4502
▁돕 -4503
▁다스 -4504
▁다이아 -4505
▁럭 -4506
▁아빠 -4507
▁어릴 -4508
▁치명타 -4509
▁천재 -4510
▁핫 -4511
오프 -4512
▁보냈 -4513
▁비행기 -4514
▁수십 -4515
▁부서 -4516
▁감옥 -4517
▁예고 -4518
▁캐논 -4519
▁인정받 -4520
▁가시 -4521
▁허리 -4522
노스 -4523
▁대가 -4524
▁웅 -4525
▁다섯 -4526
▁for -4527
▁멍 -4528
▁누나 -4529
▁블록 -4530
▁외치 -4531
▁히메 -4532
▁걸린 -4533
▁구체 -4534
으면 -4535
▁GS -4536
▁식물 -4537
▁스미 -4538
▁농담 -4539
▁처벌 -4540
▁영문 -4541
▁카츠 -4542
▁깡 -4543
먼트 -4544
▁주말 -4545
▁'' -4546
▁챕 -4547
▁도달 -4548
▁민주당 -4549
▁한마디 -4550
▁쉴 -4551
▁갈수록 -4552
▁일자 -4553
▁트랜 -4554
카드 -4555
▁일제 -4556
▁무언가 -4557
ity -4558
▁목격 -4559
▁수수 -4560
▁아즈 -4561
▁로우 -4562
▁끈 -4563
▁지우 -4564
▁불법 -4565
▁취하 -4566
▁체크 -4567
▁신호 -4568
▁FI -4569
▁합격 -4570
▁시마 -4571
▁임명 -4572
시로 -4573
▁뷰 -4574
▁취미 -4575
▁이지 -4576
▁널리 -4577
▁그동안 -4578
▁뺏 -4579
▁멘탈 -4580
▁해리 -4581
▁챕터 -4582
▁대지 -4583
▁드레 -4584
▁귀신 -4585
▁레이드 -4586
▁92 -4587
▁아름다운 -4588
▁양쪽 -4589
▁크라 -4590
▁자치 -4591
▁마비 -4592
▁싱크 -4593
▁기아 -4594
▁트레이드 -4595
▁찾아가 -4596
▁안내 -4597
▁110 -4598
▁김영 -4599
▁구속 -4600
▁재현 -4601
▁세워 -4602
▁뚜 -4603
▁오사카 -4604
▁상성 -4605
▁적대 -4606
▁셨 -4607
▁소원 -4608
▁으려고 -4609
▁AR -4610
▁컨텐츠 -4611
▁봇 -4612
▁전신 -4613
▁오랫동안 -4614
▁복무 -4615
▁be -4616
프레 -4617
닉스 -4618
▁의뢰 -4619
▁끌려 -4620
▁돌아다니 -4621
고속 -4622
▁취향 -4623
▁홀로 -4624
▁모모 -4625
메달 -4626
▁훗날 -4627
▁할아버지 -4628
▁구사 -4629
▁캐나다 -4630
▁까다 -4631
다리 -4632
▁안드로이드 -4633
▁상업 -4634
▁개체 -4635
▁씹 -4636
▁촌 -4637
남도 -4638
▁94 -4639
▁느라 -4640
▁일격 -4641
▁하얀 -4642
▁북부 -4643
▁지도자 -4644
▁글로 -4645
▁개량 -4646
▁결코 -4647
▁스턴 -4648
페인 -4649
▁79 -4650
▁회상 -4651
▁죽인 -4652
▁으니까 -4653
▁캠퍼스 -4654
▁죽일 -4655
▁깨닫 -4656
▁예시 -4657
▁상급 -4658
▁일시 -4659
▁퀴 -4660
▁수용 -4661
▁입히 -4662
▁전후 -4663
▁투어 -4664
가시 -4665
▁이식 -4666
▁비싼 -4667
▁빨라 -4668
▁바퀴 -4669
▁모조리 -4670
▁잡혀 -4671
▁줄어 -4672
▁명성 -4673
▁93 -4674
▁딩 -4675
▁디지털 -4676
▁IC -4677
디언 -4678
라드 -4679
▁원본 -4680
▁클래식 -4681
▁경고 -4682
▁베트남 -4683
▁받아들이 -4684
▁삼진 -4685
치기 -4686
▁노인 -4687
▁83 -4688
▁플로 -4689
▁데드 -4690
▁귀찮 -4691
▁도발 -4692
시코 -4693
▁갇 -4694
▁미묘 -4695
▁각자 -4696
▁랭킹 -4697
▁포트 -4698
▁몰라도 -4699
▁SC -4700
▁FA -4701
▁일기 -4702
▁조성 -4703
▁공지 -4704
▁마린 -4705
▁박정 -4706
밀리 -4707
OM -4708
▁빚 -4709
▁바위 -4710
▁축제 -4711
▁구원 -4712
▁어스 -4713
ass -4714
▁팬덤 -4715
▁수익 -4716
▁정비 -4717
▁영향력 -4718
▁토르 -4719
스탄 -4720
▁700 -4721
▁꽂 -4722
▁누리 -4723
다이 -4724
▁긍정 -4725
▁편입 -4726
▁어떠 -4727
▁미라 -4728
▁태어난 -4729
▁별다른 -4730
▁헤어 -4731
▁외형 -4732
▁유대 -4733
▁트로 -4734
▁집어 -4735
구려 -4736
▁곧바로 -4737
▁승격 -4738
▁튼 -4739
▁접속 -4740
데스 -4741
▁룸 -4742
▁인하 -4743
▁거인 -4744
▁파츠 -4745
▁스승 -4746
▁방지 -4747
덜란드 -4748
▁89 -4749
▁네덜란드 -4750
her -4751
▁ffff -4752
▁커스 -4753
▁연료 -4754
▁유니폼 -4755
▁청소년 -4756
▁내성 -4757
▁GB -4758
▁남겨 -4759
▁바이러스 -4760
▁노벨 -4761
▁개성 -4762
▁형사 -4763
▁자국 -4764
▁전멸 -4765
▁아케 -4766
▁유통 -4767
age -4768
▁우라 -4769
▁이길 -4770
▁돌아왔 -4771
임스 -4772
▁건축 -4773
지로 -4774
▁스틸 -4775
▁어드 -4776
▁무덤 -4777
▁시계 -4778
▁무라 -4779
▁곁 -4780
▁메뉴 -4781
▁들어갈 -4782
▁깜 -4783
▁CC -4784
▁보안 -4785
▁하우스 -4786
▁OST -4787
▁레이더 -4788
▁리듬 -4789
▁헛 -4790
▁햄 -4791
▁환영 -4792
▁이명 -4793
▁정찰 -4794
▁87 -4795
▁투구 -4796
▁칩 -4797
▁성별 -4798
▁로고 -4799
ide -4800
▁펫 -4801
▁이내 -4802
▁이터 -4803
▁나치 -4804
ID -4805
▁딘 -4806
▁주식 -4807
▁쉐 -4808
▁나눠 -4809
▁니코 -4810
▁논리 -4811
▁ffffff -4812
▁단장 -4813
▁사정거리 -4814
▁메르 -4815
▁개방 -4816
▁못할 -4817
▁패널 -4818
▁부작 -4819
▁그건 -4820
▁GT -4821
UN -4822
▁릿 -4823
▁이영 -4824
▁맞서 -4825
▁대인 -4826
▁마침내 -4827
▁자세히 -4828
VA -4829
▁소중 -4830
▁타인 -4831
▁보석 -4832
▁DS -4833
▁오타 -4834
▁이날 -4835
▁윌리 -4836
▁연금 -4837
▁호주 -4838
▁드라이브 -4839
ark -4840
▁코미 -4841
▁톰 -4842
▁자금 -4843
▁저장 -4844
▁과연 -4845
▁오스트 -4846
▁블러드 -4847
▁쵸 -4848
▁식당 -4849
▁김태 -4850
▁Tr -4851
▁빌드 -4852
▁오가 -4853
▁곽 -4854
세스 -4855
▁스키 -4856
▁인격 -4857
▁생략 -4858
▁원소 -4859
▁놀이 -4860
▁KIA -4861
▁학부 -4862
▁의존 -4863
▁적혀 -4864
▁극복 -4865
▁우연히 -4866
▁똥 -4867
▁계통 -4868
▁마이클 -4869
▁와이 -4870
▁플레이오프 -4871
▁예측 -4872
▁주역 -4873
▁찔 -4874
▁제임스 -4875
▁몰랐 -4876
▁어마 -4877
▁전문가 -4878
▁전진 -4879
▁맥스 -4880
▁계단 -4881
▁나타난 -4882
▁탄창 -4883
▁나간다 -4884
스키 -4885
▁미술 -4886
▁인연 -4887
▁플랫 -4888
▁WW -4889
▁무릎 -4890
▁이브 -4891
▁사이버 -4892
▁스트라이크 -4893
▁어째서 -4894
▁트럭 -4895
▁악당 -4896
▁위하 -4897
ep -4898
▁충성 -4899
▁호텔 -4900
▁골든 -4901
▁개정 -4902
ax -4903
▁휘두 -4904
▁나갈 -4905
▁판매량 -4906
▁조언 -4907
▁아일랜드 -4908
▁타로 -4909
▁준수 -4910
▁소위 -4911
▁제갈 -4912
▁대처 -4913
▁캠페인 -4914
▁테츠 -4915
▁사형 -4916
▁덧붙 -4917
▁탱커 -4918
▁좌석 -4919
▁연예인 -4920
▁캡틴 -4921
▁보관 -4922
▁기적 -4923
ire -4924
▁On -4925
▁차기 -4926
▁차트 -4927
▁사제 -4928
북도 -4929
▁무방 -4930
▁내세 -4931
▁접촉 -4932
▁1992 -4933
▁유치 -4934
▁독특 -4935
▁봐서 -4936
▁실전 -4937
▁구경 -4938
▁끄 -4939
▁원수 -4940
▁on -4941
▁거치 -4942
▁화제 -4943
▁램 -4944
▁모토 -4945
▁용기 -4946
ood -4947
▁저작 -4948
▁올린 -4949
▁기도 -4950
▁포스트 -4951
ge -4952
▁그로 -4953
▁학자 -4954
▁피스 -4955
▁CPU -4956
▁시선 -4957
▁혈액 -4958
▁결성 -4959
▁단편 -4960
달리 -4961
▁펼쳐 -4962
가스 -4963
▁고스트 -4964
▁스마트폰 -4965
▁록맨 -4966
덩이 -4967
▁하루카 -4968
일드 -4969
▁어두 -4970
▁특전 -4971
▁네오 -4972
▁헐 -4973
▁길이 -4974
▁숭 -4975
ect -4976
ust -4977
ock -4978
ob -4979
▁몰락 -4980
▁데몬 -4981
▁흐름 -4982
▁조연 -4983
▁피격 -4984
▁뭘 -4985
▁일으킨 -4986
▁커리어 -4987
▁화학 -4988
▁강원 -4989
고리 -4990
▁호위 -4991
▁내려가 -4992
▁호감 -4993
▁인조 -4994
▁냐며 -4995
▁아키라 -4996
AD -4997
▁커피 -4998
▁발달 -4999
▁제작자 -5000
▁툴 -5001
▁왠지 -5002
▁드럼 -5003
▁오크 -5004
나미 -5005
스턴 -5006
▁저렴 -5007
▁후배 -5008
▁우위 -5009
▁타락 -5010
▁슈팅 -5011
▁1993 -5012
▁하차 -5013
▁생명력 -5014
▁찌르 -5015
▁모여 -5016
▁본체 -5017
▁놔 -5018
▁들어온 -5019
▁딴 -5020
자드 -5021
▁텐데 -5022
▁아이스 -5023
▁130 -5024
아지 -5025
▁처형 -5026
▁내지 -5027
▁하락 -5028
▁숨겨진 -5029
▁스텔 -5030
▁신설 -5031
▁됩 -5032
▁가짜 -5033
▁삐 -5034
▁냄새 -5035
멘트 -5036
▁증오 -5037
▁장악 -5038
▁자전 -5039
▁지경 -5040
▁초보 -5041
▁it -5042
▁파크 -5043
▁결전 -5044
▁후방 -5045
▁아마도 -5046
▁중독 -5047
▁소스 -5048
▁다름없 -5049
▁그러니까 -5050
▁IS -5051
▁해상 -5052
▁둘째 -5053
워크 -5054
▁음모 -5055
▁카와 -5056
▁국립 -5057
▁고작 -5058
▁원주 -5059
▁북쪽 -5060
▁닫 -5061
▁활성 -5062
▁아티스트 -5063
▁익스 -5064
▁들리 -5065
mer -5066
▁미터 -5067
▁일람 -5068
▁금속 -5069
▁위상 -5070
▁심해 -5071
▁돼서 -5072
▁Be -5073
▁사라진 -5074
▁라기 -5075
▁SM -5076
▁트랜스 -5077
팩트 -5078
▁닭 -5079
▁쳤 -5080
▁공무원 -5081
▁계정 -5082
▁무지 -5083
▁컸 -5084
▁일본인 -5085
▁포수 -5086
▁외계인 -5087
▁가루 -5088
▁핏 -5089
▁AM -5090
▁신부 -5091
▁뜬금 -5092
양함 -5093
▁.." -5094
▁플래그 -5095
▁됩니다 -5096
▁업적 -5097
▁상하 -5098
▁패션 -5099
▁루타 -5100
▁시노 -5101
▁과제 -5102
▁모를 -5103
▁폴란드 -5104
▁인민 -5105
▁포로 -5106
든지 -5107
▁투명 -5108
▁선전 -5109
▁갈리 -5110
▁일족 -5111
▁표지 -5112
▁남쪽 -5113
▁자폭 -5114
▁미스터 -5115
▁동굴 -5116
▁약해 -5117
▁디스크 -5118
▁싸워 -5119
▁눌러 -5120
▁보라 -5121
▁세르 -5122
▁구나 -5123
▁쌍둥이 -5124
▁강도 -5125
▁찢 -5126
▁음원 -5127
▁펄 -5128
▁아저 -5129
▁터널 -5130
▁주사 -5131
▁행보 -5132
▁로리 -5133
네스 -5134
▁치킨 -5135
▁| -5136
▁동력 -5137
몬드 -5138
▁EN -5139
▁Te -5140
▁바이오 -5141
▁아쿠 -5142
▁me -5143
▁금융 -5144
▁열쇠 -5145
나카 -5146
are -5147
▁아저씨 -5148
▁무척 -5149
▁잉글 -5150
▁기동전 -5151
▁에리 -5152
▁편곡 -5153
▁정차 -5154
▁캐리 -5155
▁비상 -5156
▁넉 -5157
▁차이점 -5158
▁면모 -5159
▁신비 -5160
▁자막 -5161
▁지라 -5162
▁체중 -5163
▁아이언 -5164
▁간신 -5165
▁노르 -5166
▁연령 -5167
▁트라이 -5168
▁부각 -5169
▁웃음 -5170
▁개수 -5171
VD -5172
▁1988 -5173
학자 -5174
▁적응 -5175
▁라이온 -5176
▁히어로즈 -5177
▁심심 -5178
▁으라 -5179
▁완결 -5180
▁썰 -5181
▁팽 -5182
▁격추 -5183
▁적당히 -5184
▁이집 -5185
▁공룡 -5186
▁신지 -5187
▁줄이 -5188
카리 -5189
▁이집트 -5190
▁바라보 -5191
▁흡혈 -5192
랑이 -5193
▁헬기 -5194
▁최신 -5195
▁멕시코 -5196
▁101 -5197
▁..... -5198
▁보고 -5199
▁Me -5200
▁정글 -5201
▁쏠 -5202
▁일방 -5203
▁상술 -5204
iv -5205
▁액티브 -5206
▁의혹 -5207
그마 -5208
▁벌레 -5209
▁도라 -5210
▁할머니 -5211
▁인치 -5212
CG -5213
▁승객 -5214
▁후계 -5215
▁과장 -5216
▁볼넷 -5217
▁제작사 -5218
▁부장 -5219
▁미즈 -5220
ance -5221
▁개입 -5222
▁색깔 -5223
▁일찍 -5224
▁ch -5225
▁나츠 -5226
▁담배 -5227
▁SR -5228
▁튕 -5229
▁잠수함 -5230
▁칭호 -5231
▁돋 -5232
▁코인 -5233
▁갈라 -5234
▁으러 -5235
▁@ -5236
▁교황 -5237
▁저녁 -5238
▁로그 -5239
▁첼 -5240
▁스터 -5241
▁십자 -5242
▁위대 -5243
▁엿 -5244
▁리타 -5245
▁예언 -5246
▁시아 -5247
▁리온 -5248
드러 -5249
▁귀환 -5250
▁팀원 -5251
▁냥 -5252
특별 -5253
▁총알 -5254
▁후술 -5255
▁불타 -5256
▁방출 -5257
▁각본 -5258
▁정착 -5259
▁새벽 -5260
▁소라 -5261
▁클레 -5262
qu -5263
▁공성 -5264
▁식량 -5265
▁느낄 -5266
▁흥미 -5267
▁부른 -5268
▁해피 -5269
▁이중 -5270
▁도끼 -5271
▁리오 -5272
LL -5273
▁까진 -5274
로디 -5275
▁마디 -5276
US -5277
iz -5278
our -5279
ound -5280
▁곤란 -5281
▁식민 -5282
▁라이플 -5283
▁모래 -5284
▁걸쳐 -5285
라기 -5286
▁My -5287
▁이루어진 -5288
▁넥센 -5289
▁스튜디오 -5290
▁페이즈 -5291
ord -5292
▁광역시 -5293
이너 -5294
▁원칙 -5295
▁화성 -5296
▁신사 -5297
▁네트 -5298
▁동의 -5299
▁멈추 -5300
▁깔끔 -5301
▁악명 -5302
팡이 -5303
▁무렵 -5304
▁수장 -5305
▁이정 -5306
▁교류 -5307
▁밝혀진 -5308
▁꿀 -5309
▁마약 -5310
▁사후 -5311
▁어판 -5312
▁정발 -5313
▁재산 -5314
▁호기 -5315
▁활발 -5316
▁손해 -5317
▁태어나 -5318
▁반동 -5319
▁노란 -5320
▁ㅣ -5321
▁칭찬 -5322
▁구석 -5323
ime -5324
▁이노 -5325
▁고도 -5326
▁XX -5327
▁1970 -5328
▁토끼 -5329
▁들여 -5330
▁오라 -5331
▁상관없 -5332
▁항공기 -5333
▁증언 -5334
▁하단 -5335
▁애플 -5336
▁쓸모 -5337
▁레슬 -5338
ix -5339
▁새끼 -5340
▁제트 -5341
▁풀리 -5342
▁Cl -5343
▁녹색 -5344
▁바깥 -5345
▁주일 -5346
▁사막 -5347
▁애정 -5348
▁비주 -5349
▁Com -5350
▁부러 -5351
▁동인 -5352
▁원자 -5353
▁토론 -5354
▁바꾼 -5355
▁뱀파이어 -5356
▁드롭 -5357
▁크리스마스 -5358
▁펌 -5359
▁상한 -5360
▁중국어 -5361
우마 -5362
▁내보 -5363
하면 -5364
▁배터리 -5365
▁미안 -5366
▁상기 -5367
▁자극 -5368
▁1991 -5369
▁도주 -5370
▁잠재 -5371
▁대리 -5372
▁막대 -5373
▁수류 -5374
▁흑인 -5375
▁그레 -5376
▁천하 -5377
▁부지 -5378
pe -5379
▁리플 -5380
▁이드 -5381
▁태평 -5382
▁턱 -5383
▁내주 -5384
▁루카 -5385
어마 -5386
▁정원 -5387
▁줘서 -5388
▁흐르 -5389
▁MVP -5390
▁엔젤 -5391
▁추구 -5392
▁주기 -5393
▁물려 -5394
▁SE -5395
▁작곡가 -5396
다란 -5397
▁나아가 -5398
▁최다 -5399
▁빛나 -5400
▁채우 -5401
OP -5402
▁모노 -5403
▁올해 -5404
▁포항 -5405
▁어마어마 -5406
▁배트맨 -5407
▁팬텀 -5408
▁이재 -5409
▁흔적 -5410
▁펑 -5411
▁엑스트라 -5412
저스 -5413
▁얻어 -5414
▁강자 -5415
▁상실 -5416
▁그럭 -5417
▁더군 -5418
아리 -5419
▁궤도 -5420
▁호칭 -5421
회사 -5422
▁동쪽 -5423
▁국왕 -5424
▁남긴 -5425
저럭 -5426
▁첩 -5427
uc -5428
▁이익 -5429
▁클릭 -5430
▁고구려 -5431
▁강요 -5432
▁할인 -5433
▁충실 -5434
ite -5435
▁스웨 -5436
▁무서운 -5437
▁AD -5438
▁그럭저럭 -5439
▁분대 -5440
▁마이너 -5441
▁거듭 -5442
▁용량 -5443
▁불교 -5444
▁가동 -5445
▁화장실 -5446
▁참모 -5447
▁용서 -5448
▁막차 -5449
▁승점 -5450
▁플래시 -5451
▁언더 -5452
▁시합 -5453
▁거미 -5454
▁면역 -5455
주시 -5456
▁지켜보 -5457
▁켜 -5458
▁포격 -5459
▁뿔 -5460
▁느린 -5461
▁흘리 -5462
▁아쉬운 -5463
▁기숙 -5464
▁CV -5465
▁시라 -5466
▁코코 -5467
▁히나 -5468
▁결합 -5469
▁탈퇴 -5470
▁소대 -5471
▁남녀 -5472
▁스즈 -5473
▁아이콘 -5474
▁저질 -5475
▁에다가 -5476
▁수류탄 -5477
▁신앙 -5478
OW -5479
▁무술 -5480
▁160 -5481
게임 -5482
▁김동 -5483
▁숙련 -5484
▁예산 -5485
▁앨리스 -5486
▁관중 -5487
▁타율 -5488
▁짜증 -5489
▁140 -5490
▁기생 -5491
▁미키 -5492
▁온다 -5493
▁테라 -5494
▁이토 -5495
▁입지 -5496
▁쫓아 -5497
▁SH -5498
▁의회 -5499
▁옳 -5500
▁향하 -5501
▁혐오 -5502
▁오늘날 -5503
▁등지 -5504
▁나리 -5505
▁채워 -5506
▁런던 -5507
▁자책 -5508
▁아메리카 -5509
▁구슬 -5510
▁적군 -5511
▁루수 -5512
▁넘치 -5513
▁입대 -5514
▁잡히 -5515
▁오직 -5516
ure -5517
▁따온 -5518
▁디젤 -5519
▁잡아먹 -5520
▁BPM -5521
▁윌리엄 -5522
▁성립 -5523
사관 -5524
▁가요 -5525
▁매장 -5526
▁든다 -5527
▁예수 -5528
▁도박 -5529
▁아츠 -5530
▁간접 -5531
▁종목 -5532
▁잉글랜드 -5533
▁통산 -5534
▁일본군 -5535
▁공방 -5536
▁단행 -5537
▁백성 -5538
▁망했 -5539
▁영구 -5540
▁교차 -5541
▁기여 -5542
▁문구 -5543
▁남겼 -5544
▁하향 -5545
▁가해 -5546
BA -5547
▁동급 -5548
OD -5549
▁벌어진 -5550
▁우에 -5551
▁900 -5552
▁지뢰 -5553
▁기구 -5554
▁형상 -5555
▁사키 -5556
▁모니 -5557
▁써야 -5558
▁공공 -5559
▁구글 -5560
▁나타난다 -5561
▁DVD -5562
▁딕 -5563
▁덩치 -5564
▁부자 -5565
▁출구 -5566
▁포켓몬스터 -5567
▁실망 -5568
▁낚시 -5569
▁클랜 -5570
▁1989 -5571
▁그대 -5572
▁어려워 -5573
▁존재감 -5574
▁힙 -5575
▁지르 -5576
▁백인 -5577
▁철권 -5578
여객 -5579
▁말투 -5580
▁간신히 -5581
▁하이퍼 -5582
▁$ -5583
▁윗 -5584
▁제약 -5585
▁가라 -5586
▁야마토 -5587
▁Pr -5588
▁본다 -5589
▁피터 -5590
▁아미 -5591
▁금방 -5592
▁나마 -5593
▁올라왔 -5594
▁Wh -5595
▁소유자 -5596
▁연합군 -5597
▁어려움 -5598
▁민첩 -5599
ake -5600
▁일치 -5601
▁오마 -5602
▁들려 -5603
▁서쪽 -5604
▁크림 -5605
머스 -5606
▁언젠 -5607
▁Pl -5608
▁이겨 -5609
▁망치 -5610
▁이스라 -5611
▁KR -5612
▁Ex -5613
▁상인 -5614
▁기관총 -5615
▁권한 -5616
▁Un -5617
소녀 -5618
▁주간 -5619
▁초인 -5620
▁쭉 -5621
▁Pro -5622
▁가져가 -5623
▁내전 -5624
▁만날 -5625
▁이슈 -5626
▁일대 -5627
▁몽골 -5628
RE -5629
▁추억 -5630
▁천만 -5631
▁뎀 -5632
▁어리 -5633
▁챙겨 -5634
▁가하 -5635
▁동성 -5636
▁힌 -5637
▁중량 -5638
▁근본 -5639
▁단단 -5640
▁칼날 -5641
베르 -5642
▁본사 -5643
▁매년 -5644
ION -5645
▁쓰였 -5646
▁유독 -5647
▁의외로 -5648
▁사유 -5649
▁글러 -5650
▁늘어난 -5651
▁아랍 -5652
▁마신 -5653
▁총리 -5654
▁개혁 -5655
▁싫어 -5656
▁이젠 -5657
다나 -5658
▁법률 -5659
▁포드 -5660
▁임팩트 -5661
▁지위 -5662
▁그렇지만 -5663
▁난입 -5664
▁순환 -5665
▁나타내 -5666
▁호수 -5667
▁가벼 -5668
▁심사 -5669
▁RPG -5670
▁평생 -5671
▁콜라보 -5672
▁와타 -5673
▁화물 -5674
▁건조 -5675
▁알려졌 -5676
▁분신 -5677
▁가만 -5678
▁선택지 -5679
▁NE -5680
▁괜히 -5681
▁침략 -5682
▁도망가 -5683
▁수비력 -5684
▁시공 -5685
▁모자라 -5686
Hz -5687
▁원하 -5688
▁이끄 -5689
▁망가 -5690
▁리드 -5691
▁메이드 -5692
▁스크린 -5693
▁재단 -5694
▁인종 -5695
▁간지 -5696
▁유물 -5697
▁상식 -5698
시즈 -5699
은행 -5700
▁커녕 -5701
▁명확 -5702
▁타선 -5703
▁믹스 -5704
▁세븐 -5705
▁뛰어넘 -5706
보이 -5707
▁개막 -5708
특별시 -5709
▁통치 -5710
무시 -5711
▁스탠드 -5712
▁집착 -5713
oy -5714
▁합의 -5715
▁비스 -5716
▁전동 -5717
▁반전 -5718
▁연극 -5719
▁소장 -5720
▁생존자 -5721
▁협상 -5722
화점 -5723
▁란스 -5724
▁몰라 -5725
ows -5726
▁색상 -5727
▁히가시 -5728
▁메달 -5729
▁스펠 -5730
▁죽였 -5731
▁놨 -5732
▁맛있 -5733
▁세종 -5734
▁정통 -5735
▁기숙사 -5736
▁악기 -5737
사자 -5738
▁뿜 -5739
신교 -5740
▁Gr -5741
▁변호사 -5742
ud -5743
▁너희 -5744
▁양성 -5745
▁읍 -5746
▁이스라엘 -5747
▁였을 -5748
▁그랜드 -5749
▁잔뜩 -5750
▁서울특별시 -5751
IG -5752
▁서구 -5753
▁딜레이 -5754
▁with -5755
▁히토 -5756
OC -5757
▁유적 -5758
▁항복 -5759
▁브루 -5760
▁크리스탈 -5761
▁휘말 -5762
▁승률 -5763
▁재정 -5764
▁센스 -5765
▁메리 -5766
▁암시 -5767
▁복선 -5768
▁개업 -5769
▁복지 -5770
▁집행 -5771
▁곡명 -5772
▁울프 -5773
▁일화 -5774
▁렐 -5775
▁영주 -5776
랭크 -5777
▁스팀 -5778
티아 -5779
▁이른 -5780
▁기인 -5781
▁BL -5782
▁느낀 -5783
▁어렸 -5784
▁엘리트 -5785
▁걸맞 -5786
▁두들 -5787
▁복구 -5788
▁성남 -5789
▁무시무시 -5790
▁임신 -5791
▁총선 -5792
▁고위 -5793
▁사라진다 -5794
▁카카 -5795
▁교과 -5796
▁부딪 -5797
▁단축 -5798
▁휩 -5799
▁출입 -5800
▁동양 -5801
전차 -5802
▁김종 -5803
▁정수 -5804
▁갖춘 -5805
▁나선 -5806
▁코난 -5807
▁구축함 -5808
▁급격 -5809
▁무역 -5810
▁열매 -5811
▁포르투 -5812
▁KOF -5813
▁체육관 -5814
▁정치인 -5815
데레 -5816
부로 -5817
orld -5818
▁자전거 -5819
▁타쿠 -5820
▁부를 -5821
▁기량 -5822
▁말리 -5823
▁레지 -5824
▁상단 -5825
▁비례 -5826
▁빠졌 -5827
▁더군다나 -5828
▁수출 -5829
▁스트리트 -5830
히코 -5831
▁he -5832
▁채택 -5833
▁105 -5834
▁따라가 -5835
▁불사 -5836
▁고로 -5837
▁구리 -5838
▁경직 -5839
▁치즈 -5840
▁진보 -5841
▁했으니 -5842
▁라인업 -5843
▁꼼 -5844
▁당일 -5845
▁캘 -5846
▁김민 -5847
▁살펴 -5848
▁존경 -5849
▁간단히 -5850
▁미나미 -5851
▁들어서 -5852
▁생긴다 -5853
▁확대 -5854
▁피할 -5855
▁태어났 -5856
▁BS -5857
▁대단히 -5858
▁쟁 -5859
▁금액 -5860
▁재밌 -5861
▁이펙트 -5862
▁도둑 -5863
▁적합 -5864
▁부스터 -5865
▁누적 -5866
▁강점 -5867
▁철저 -5868
▁굿 -5869
▁칼리 -5870
▁갈아 -5871
▁넘버 -5872
▁챌 -5873
▁사이코 -5874
aw -5875
▁사살 -5876
▁국판 -5877
▁어딘 -5878
▁코리아 -5879
▁War -5880
▁사령부 -5881
▁허락 -5882
▁정화 -5883
▁상호 -5884
▁화재 -5885
▁전이 -5886
▁싸웠 -5887
▁에로 -5888
▁커다란 -5889
▁뻗 -5890
▁통계 -5891
라이트 -5892
▁후손 -5893
▁유학 -5894
▁혹시 -5895
▁서포터 -5896
데이 -5897
▁제독 -5898
▁이혼 -5899
▁시켜서 -5900
▁OVA -5901
▁EP -5902
▁ED -5903
▁스파이더 -5904
▁스폰 -5905
▁이민 -5906
ace -5907
▁키타 -5908
▁반해 -5909
▁콜로 -5910
▁메시지 -5911
▁우정 -5912
데드 -5913
▁메이플 -5914
▁썬더 -5915
▁못지 -5916
80 -5917
▁CG -5918
▁끔찍 -5919
▁잃어버 -5920
▁치유 -5921
▁권리 -5922
▁대거 -5923
▁DD -5924
▁후계자 -5925
▁수백 -5926
▁철수 -5927
▁한쪽 -5928
ave -5929
▁자이언츠 -5930
▁언데드 -5931
▁수명 -5932
▁간간 -5933
▁수능 -5934
▁원문 -5935
▁Love -5936
ame -5937
▁멋진 -5938
▁분명히 -5939
▁대수 -5940
▁사원 -5941
▁마블 -5942
▁가을 -5943
▁검술 -5944
▁기갑 -5945
▁겹치 -5946
▁면허 -5947
▁가공 -5948
▁부적 -5949
▁업계 -5950
아키 -5951
▁토마 -5952
▁토너 -5953
유럽 -5954
▁마법소녀 -5955
▁까이 -5956
▁우르 -5957
▁탄환 -5958
▁주택 -5959
▁구할 -5960
▁루이 -5961
▁우타 -5962
▁노가 -5963
▁변환 -5964
▁독재 -5965
▁능력자 -5966
▁숨기 -5967
▁가르쳐 -5968
▁드라이버 -5969
▁어라 -5970
▁매니저 -5971
▁히라 -5972
▁해머 -5973
▁오락 -5974
▁개신교 -5975
▁피아노 -5976
▁1987 -5977
▁언스 -5978
▁알렉산 -5979
▁맷 -5980
▁천안 -5981
▁LV -5982
▁루나 -5983
▁나루토 -5984
▁라니 -5985
▁지불 -5986
▁다닌다 -5987
▁실존 -5988
▁트롤 -5989
▁하츠 -5990
▁소음 -5991
▁초간 -5992
▁코멘트 -5993
▁박물 -5994
▁제정 -5995
▁삽입 -5996
▁자본 -5997
▁워크래프트 -5998
▁생명체 -5999
▁유효 -6000
▁올라온 -6001
▁오랜만 -6002
▁크레 -6003
▁거울 -6004
▁쓰러뜨리 -6005
▁동명 -6006
▁토시 -6007
▁귀여운 -6008
▁전라 -6009
▁WWE -6010
▁기용 -6011
▁싹 -6012
포트 -6013
ice -6014
▁3000 -6015
▁마코토 -6016
▁기울 -6017
▁202 -6018
▁해안 -6019
▁곳곳 -6020
▁중립 -6021
로나 -6022
▁타운 -6023
▁나타났 -6024
▁휘두르 -6025
▁언젠가 -6026
▁세인트 -6027
ies -6028
▁배역 -6029
▁약화 -6030
▁시위 -6031
▁잘라 -6032
▁프리미엄 -6033
chor -6034
▁캐치 -6035
▁그래서인지 -6036
▁륜 -6037
데미 -6038
▁폐쇄 -6039
▁걸린다 -6040
▁인질 -6041
▁결투 -6042
▁마스크 -6043
▁파생 -6044
▁쓰러뜨 -6045
▁서서 -6046
▁감각 -6047
▁원조 -6048
▁보험 -6049
▁만남 -6050
▁Wind -6051
▁우월 -6052
▁중첩 -6053
▁구미 -6054
자와 -6055
▁루비 -6056
▁중세 -6057
▁지리 -6058
own -6059
IM -6060
▁다녔 -6061
▁대왕 -6062
▁모이 -6063
▁뮤지컬 -6064
리온 -6065
▁원리 -6066
▁플러스 -6067
▁sh -6068
▁실종 -6069
▁무관 -6070
반도 -6071
▁큐브 -6072
▁요약 -6073
▁주자 -6074
▁취약 -6075
▁레딧 -6076
▁지팡이 -6077
▁철학 -6078
▁려던 -6079
▁스프링 -6080
▁리스크 -6081
▁리카 -6082
▁충청 -6083
▁기동성 -6084
▁챈 -6085
게이 -6086
어진다 -6087
걸이 -6088
▁체인지 -6089
▁둠 -6090
▁성전 -6091
▁킬러 -6092
▁아카데미 -6093
▁엔드 -6094
▁워커 -6095
▁코믹 -6096
per -6097
▁니스 -6098
▁토너먼트 -6099
▁결심 -6100
▁이겼 -6101
▁보드 -6102
▁일으켜 -6103
▁드래프트 -6104
틀러 -6105
▁전파 -6106
▁니혼 -6107
▁유산 -6108
▁리프 -6109
▁내렸 -6110
▁?? -6111
▁여객 -6112
▁방위 -6113
하시 -6114
▁더빙 -6115
▁무공 -6116
▁신나 -6117
▁정기 -6118
더라 -6119
▁TVA -6120
ath -6121
▁사야 -6122
TE -6123
man -6124
▁KBO -6125
가드 -6126
▁딜링 -6127
▁날짜 -6128
▁하마 -6129
▁anchor -6130
▁아닌데 -6131
▁중형 -6132
▁de -6133
▁왜곡 -6134
▁카트 -6135
▁속한다 -6136
▁나기 -6137
▁호시 -6138
▁나미 -6139
▁시크 -6140
▁배포 -6141
▁보충 -6142
▁도적 -6143
▁스트레스 -6144
▁돌입 -6145
▁허가 -6146
우치 -6147
▁틸 -6148
▁시바 -6149
▁추종 -6150
▁관점 -6151
▁인디 -6152
운서 -6153
▁해병대 -6154
▁티켓 -6155
▁개시 -6156
▁연패 -6157
▁아나운서 -6158
▁시원 -6159
▁알아보 -6160
▁부실 -6161
▁휘하 -6162
▁억지로 -6163
▁가려 -6164
▁베타 -6165
▁사명 -6166
▁장탄 -6167
▁와일드 -6168
▁PV -6169
센트 -6170
▁측정 -6171
▁대학원 -6172
▁여우 -6173
시스트 -6174
▁보완 -6175
▁보인 -6176
▁필리 -6177
▁고장 -6178
▁떠올리 -6179
▁저택 -6180
▁떠났 -6181
ere -6182
old -6183
▁복제 -6184
▁빌려 -6185
▁We -6186
▁중시 -6187
▁AS -6188
▁걸렸 -6189
▁유격 -6190
▁헌법 -6191
▁PR -6192
▁1986 -6193
▁마우스 -6194
▁고개 -6195
▁장거리 -6196
▁승무원 -6197
▁파이트 -6198
▁후자 -6199
▁용인 -6200
술사 -6201
카이 -6202
▁야구장 -6203
▁시외 -6204
텐도 -6205
▁조리 -6206
▁닌텐도 -6207
▁무인 -6208
▁네트워크 -6209
▁ID -6210
▁수호자 -6211
▁사귀 -6212
▁관할 -6213
▁분당 -6214
▁토미 -6215
▁받아들여 -6216
▁셜 -6217
▁악화 -6218
▁인피 -6219
▁주둔 -6220
▁박물관 -6221
▁혐의 -6222
▁불량 -6223
▁언덕 -6224
▁이글 -6225
리나 -6226
▁당대 -6227
▁벌어졌 -6228
▁사인 -6229
▁라라 -6230
10 -6231
▁희귀 -6232
▁기뻐 -6233
▁서클 -6234
아나 -6235
▁아끼 -6236
ick -6237
▁조약 -6238
▁막내 -6239
▁잠입 -6240
▁엄밀 -6241
▁연고 -6242
▁단원 -6243
▁캠프 -6244
▁식민지 -6245
▁미네 -6246
ber -6247
▁". -6248
▁커서 -6249
▁문단 -6250
▁톨 -6251
▁우치 -6252
▁모로 -6253
▁은지 -6254
▁세운 -6255
▁쿠라 -6256
▁넨 -6257
▁법원 -6258
▁여전 -6259
▁늘어났 -6260
▁유니크 -6261
▁기묘 -6262
▁롬 -6263
▁유발 -6264
▁기상 -6265
▁세포 -6266
▁오키 -6267
▁페널 -6268
▁치르 -6269
네임 -6270
▁기운 -6271
▁깨달 -6272
▁기름 -6273
▁만만 -6274
▁학력 -6275
▁럼 -6276
▁-> -6277
▁씌 -6278
▁얀 -6279
▁다이아몬드 -6280
▁쓰러지 -6281
▁방송국 -6282
▁지칭 -6283
▁데이트 -6284
▁엑시즈 -6285
▁들어왔 -6286
▁취임 -6287
ory -6288
▁김대 -6289
▁인방 -6290
▁인용 -6291
▁카구 -6292
▁버드 -6293
▁살아가 -6294
▁남매 -6295
▁연맹 -6296
GE -6297
▁스웨덴 -6298
▁지진 -6299
▁벨트 -6300
▁포위 -6301
▁로얄 -6302
래시 -6303
▁코마 -6304
▁단행본 -6305
▁즈음 -6306
▁반부 -6307
ov -6308
▁오메 -6309
부르크 -6310
▁고증 -6311
▁택시 -6312
▁가죽 -6313
▁해치 -6314
▁교도 -6315
▁아르헨 -6316
▁레일 -6317
▁친한 -6318
▁채보 -6319
▁프라임 -6320
▁매번 -6321
▁흩 -6322
▁근거리 -6323
▁AKB -6324
▁웰 -6325
TS -6326
▁거점 -6327
그나 -6328
▁자비 -6329
▁머물 -6330
▁멜로디 -6331
▁울트라맨 -6332
▁법정 -6333
ond -6334
필드 -6335
▁배달 -6336
▁중장 -6337
▁면적 -6338
▁진압 -6339
▁캐스터 -6340
▁파르 -6341
비드 -6342
▁냐면 -6343
▁줄어든 -6344
▁분쟁 -6345
▁도루 -6346
▁my -6347
▁디즈 -6348
▁아테 -6349
▁공수 -6350
▁어딘가 -6351
▁쏜 -6352
▁GP -6353
▁선행 -6354
▁이주 -6355
▁신도 -6356
▁도저히 -6357
▁준우 -6358
▁En -6359
▁케이드 -6360
▁레알 -6361
▁아르헨티나 -6362
▁이수 -6363
▁방어구 -6364
프리 -6365
▁CJ -6366
▁저지르 -6367
▁일당 -6368
▁휠 -6369
▁굵 -6370
티스 -6371
▁독일군 -6372
▁득표 -6373
▁행방 -6374
▁새롭 -6375
▁실은 -6376
▁아인 -6377
▁웨이브 -6378
▁중복 -6379
▁스텝 -6380
▁차체 -6381
시타 -6382
▁FIFA -6383
▁올릴 -6384
미니 -6385
ream -6386
▁드릴 -6387
▁라틴 -6388
▁참석 -6389
▁혈액형 -6390
크로 -6391
▁아이러 -6392
▁케인 -6393
▁연승 -6394
▁휴식 -6395
▁소요 -6396
▁호랑이 -6397
▁균형 -6398
▁전승 -6399
▁답변 -6400
블린 -6401
▁시로 -6402
▁유인 -6403
▁헝 -6404
▁퍼지 -6405
카락 -6406
▁암살자 -6407
▁미쿠 -6408
▁머리카락 -6409
ah -6410
out -6411
▁릴리 -6412
▁갤러 -6413
커스 -6414
▁법칙 -6415
▁공인 -6416
▁미만 -6417
▁한두 -6418
▁사라져 -6419
▁Dr -6420
▁본진 -6421
▁용자 -6422
▁189 -6423
▁DC -6424
▁셔틀 -6425
▁왜냐 -6426
IP -6427
▁꿰 -6428
▁오전 -6429
▁wh -6430
▁비전 -6431
▁코트 -6432
세서 -6433
▁무작 -6434
▁주류 -6435
바닥 -6436
▁1500 -6437
란다 -6438
▁신데 -6439
▁이온 -6440
타카 -6441
▁kt -6442
▁질투 -6443
베스 -6444
▁창원 -6445
ost -6446
▁관람 -6447
▁첫차 -6448
▁무사히 -6449
▁발렌 -6450
▁포탄 -6451
▁스위치 -6452
▁로이 -6453
▁바뀐다 -6454
▁중력 -6455
▁슬라이 -6456
▁솔직 -6457
▁마계 -6458
▁이걸로 -6459
▁전제 -6460
▁노려 -6461
렐라 -6462
▁벼 -6463
▁피닉스 -6464
▁에반 -6465
▁토키 -6466
▁학기 -6467
▁초록 -6468
▁\ -6469
▁규격 -6470
▁전주 -6471
런트 -6472
▁챌린 -6473
▁리뷰 -6474
▁트리플 -6475
▁에르 -6476
▁영원히 -6477
▁주차 -6478
▁침입 -6479
▁던가 -6480
▁쇼크 -6481
▁격차 -6482
▁이어서 -6483
▁토벌 -6484
러그 -6485
▁유력 -6486
60 -6487
▁통틀 -6488
▁루머 -6489
▁쪼 -6490
가리 -6491
▁장인 -6492
▁평일 -6493
▁트루 -6494
▁어두운 -6495
UM -6496
▁시너지 -6497
▁에이지 -6498
▁김재 -6499
▁훼 -6500
LE -6501
▁교실 -6502
▁1985 -6503
▁항의 -6504
리스트 -6505
▁블라 -6506
▁드래곤볼 -6507
▁쓰여 -6508
▁클론 -6509
▁앞두 -6510
▁남북 -6511
▁닛 -6512
▁남아 -6513
▁식품 -6514
▁재회 -6515
▁조커 -6516
혀서 -6517
▁밝힌 -6518
▁For -6519
▁포르투갈 -6520
블로 -6521
▁소방 -6522
테르 -6523
▁스태 -6524
▁글로벌 -6525
▁비주얼 -6526
▁긴장 -6527
▁인력 -6528
▁전무 -6529
▁오디션 -6530
▁니아 -6531
▁공업 -6532
▁창고 -6533
▁안개 -6534
▁합병 -6535
▁집어넣 -6536
▁스테이션 -6537
▁경로 -6538
▁박근 -6539
▁김경 -6540
▁은신 -6541
▁감지 -6542
▁개설 -6543
▁돔 -6544
▁공허 -6545
▁베기 -6546
▁정황 -6547
▁조기 -6548
ile -6549
▁구름 -6550
▁논쟁 -6551
야수 -6552
하르트 -6553
▁진학 -6554
▁법인 -6555
▁파동 -6556
▁달라지 -6557
▁1984 -6558
▁선고 -6559
▁아동 -6560
▁넬 -6561
▁보이스 -6562
▁노바 -6563
▁이종 -6564
▁아틀 -6565
▁아가씨 -6566
▁히로시 -6567
코드 -6568
▁감동 -6569
▁트릭 -6570
▁백화점 -6571
▁탐정 -6572
▁배수 -6573
▁신전 -6574
▁주행 -6575
▁양반 -6576
▁호흡 -6577
▁유성 -6578
▁막판 -6579
▁난사 -6580
쿠라 -6581
▁무스 -6582
▁유미 -6583
▁다녀 -6584
▁쓸데 -6585
▁통화 -6586
▁버려서 -6587
▁토크 -6588
▁확장팩 -6589
▁어필 -6590
▁제네 -6591
▁처지 -6592
▁어뢰 -6593
▁토니 -6594
▁세웠 -6595
▁우즈 -6596
ont -6597
▁하수 -6598
▁시카 -6599
▁코르 -6600
▁가방 -6601
▁어이 -6602
▁소송 -6603
▁옮기 -6604
▁안녕 -6605
▁왕위 -6606
▁떠난 -6607
▁윈드 -6608
번에 -6609
▁달하 -6610
▁범죄자 -6611
▁골라 -6612
▁단종 -6613
▁찾아보 -6614
▁여주 -6615
▁베리 -6616
그리 -6617
▁특별히 -6618
▁신용 -6619
▁배드 -6620
▁프란 -6621
▁위성 -6622
▁과도 -6623
▁감상 -6624
▁마물 -6625
▁역명 -6626
▁변태 -6627
▁수염 -6628
▁신자 -6629
ome -6630
▁카더라 -6631
▁메이커 -6632
▁보존 -6633
▁급행 -6634
▁요인 -6635
▁비유 -6636
▁바디 -6637
▁자녀 -6638
세대 -6639
▁학습 -6640
▁이루어져 -6641
▁5000 -6642
▁김현 -6643
▁놓치 -6644
▁장미 -6645
▁It -6646
▁막상 -6647
▁분열 -6648
▁갑작 -6649
▁생년 -6650
▁스쿨 -6651
▁벙 -6652
▁수면 -6653
▁께서 -6654
정부 -6655
▁직장 -6656
▁개발자 -6657
▁내려오 -6658
투스 -6659
▁제갈량 -6660
▁손오 -6661
키지 -6662
아이 -6663
▁명의 -6664
▁백제 -6665
▁야쿠 -6666
▁추세 -6667
▁나폴 -6668
▁비웃 -6669
▁과학자 -6670
노리 -6671
▁서포트 -6672
▁의학 -6673
▁선보였 -6674
▁정예 -6675
▁두들겨 -6676
▁Star -6677
▁창단 -6678
▁에디 -6679
▁경기력 -6680
▁발굴 -6681
▁성당 -6682
▁FM -6683
▁패키지 -6684
▁영광 -6685
▁스캔 -6686
▁잉여 -6687
▁태평양 -6688
▁임금 -6689
▁진주 -6690
▁노스 -6691
io -6692
▁광선 -6693
▁아이러니 -6694
▁섀도우 -6695
▁운동장 -6696
▁극히 -6697
타입 -6698
▁가디언 -6699
▁신발 -6700
▁팟 -6701
▁성질 -6702
▁귀엽 -6703
▁프론 -6704
▁DE -6705
▁세라 -6706
▁진급 -6707
▁최상위 -6708
▁극도 -6709
▁1960 -6710
▁체감 -6711
▁무너지 -6712
▁기력 -6713
▁상관없이 -6714
▁얻어맞 -6715
에이 -6716
▁SNS -6717
▁매니아 -6718
▁카운트 -6719
▁106 -6720
▁기재 -6721
▁만일 -6722
▁유재 -6723
▁서서히 -6724
▁복합 -6725
▁건가 -6726
▁라이온즈 -6727
▁준우승 -6728
az -6729
▁오노 -6730
▁룩 -6731
▁오우 -6732
▁ww -6733
▁스타리그 -6734
▁쇼핑 -6735
▁국경 -6736
▁늘리 -6737
▁판결 -6738
▁러시 -6739
▁대책 -6740
▁리라 -6741
▁오스트리아 -6742
▁비틀 -6743
▁물량 -6744
▁여인 -6745
▁우유 -6746
▁양자 -6747
▁대치 -6748
▁루스 -6749
사기 -6750
▁EZ -6751
▁산하 -6752
크라 -6753
▁로버트 -6754
▁탐험 -6755
▁라즈 -6756
▁프린세스 -6757
▁공정 -6758
▁타이거즈 -6759
도르 -6760
▁대조 -6761
▁걸즈 -6762
▁커지 -6763
▁170 -6764
불명 -6765
▁손상 -6766
▁위엄 -6767
▁아요 -6768
▁행운 -6769
▁윈도우 -6770
▁로보 -6771
▁시상 -6772
▁늙 -6773
▁사관 -6774
▁야수 -6775
▁우주선 -6776
벌레 -6777
▁처참 -6778
▁피트 -6779
▁도감 -6780
▁리즈 -6781
▁Fl -6782
▁티아 -6783
▁관계자 -6784
▁샌드 -6785
▁느려 -6786
▁워치 -6787
▁통로 -6788
▁가만히 -6789
▁헷 -6790
▁해골 -6791
▁출격 -6792
▁장로 -6793
▁풀려 -6794
▁데빌 -6795
30 -6796
▁와카 -6797
▁정하 -6798
능력 -6799
ian -6800
▁여학생 -6801
▁플라이 -6802
▁천연 -6803
▁체험 -6804
▁무산 -6805
▁상담 -6806
▁퇴장 -6807
일보 -6808
▁불행 -6809
▁엘리자 -6810
▁바스 -6811
▁조상 -6812
▁www -6813
▁콤비 -6814
▁맡기 -6815
▁증상 -6816
▁Station -6817
▁하프 -6818
▁야간 -6819
▁Sc -6820
▁뜬금없이 -6821
▁띠 -6822
▁AN -6823
▁데모 -6824
릴라 -6825
▁사족 -6826
▁상륙 -6827
▁이긴 -6828
▁키라 -6829
ade -6830
▁소프트웨어 -6831
▁오염 -6832
▁Or -6833
▁친해 -6834
▁포장 -6835
▁쳐서 -6836
▁약물 -6837
▁고객 -6838
▁흔한 -6839
▁빙판 -6840
▁손오공 -6841
▁오로지 -6842
▁경주 -6843
▁쳐들 -6844
▁함부로 -6845
▁LC -6846
▁자르 -6847
▁투스 -6848
저기 -6849
▁간주 -6850
▁캐시 -6851
▁세뇌 -6852
▁끝난다 -6853
▁결제 -6854
▁흡사 -6855
▁중고 -6856
▁려다 -6857
▁태클 -6858
▁Fate -6859
▁디바 -6860
구미 -6861
▁심의 -6862
▁철거 -6863
▁연봉 -6864
▁즉사 -6865
▁타수 -6866
▁스핀 -6867
▁여기저기 -6868
▁고인 -6869
▁몫 -6870
▁Go -6871
▁불렸 -6872
▁캣 -6873
▁묘하 -6874
▁출간 -6875
▁날카 -6876
구나 -6877
▁백작 -6878
▁마케 -6879
▁베테 -6880
▁마유 -6881
▁위반 -6882
▁본토 -6883
▁이웃 -6884
▁끊임 -6885
▁모터 -6886
▁포터 -6887
▁파편 -6888
▁아바타 -6889
▁원피스 -6890
▁사립 -6891
▁처분 -6892
▁루크 -6893
▁렌즈 -6894
▁파란색 -6895
▁난무 -6896
▁네요 -6897
▁당당 -6898
▁아시안 -6899
▁배정 -6900
▁키워 -6901
▁CF -6902
▁비극 -6903
▁시온 -6904
▁가리키 -6905
▁콘솔 -6906
▁올라갔 -6907
▁뱃 -6908
▁되살 -6909
▁Br -6910
▁저지른 -6911
▁수색 -6912
▁SF -6913
ason -6914
토스 -6915
▁후미 -6916
▁역습 -6917
▁동아리 -6918
▁불펜 -6919
▁브로 -6920
▁가까워 -6921
▁실상 -6922
▁Windows -6923
▁샤이 -6924
▁대령 -6925
▁폐기 -6926
▁해킹 -6927
▁후퇴 -6928
저리 -6929
▁혜택 -6930
▁파멸 -6931
▁비스트 -6932
▁BR -6933
▁지향 -6934
▁줄여 -6935
키아 -6936
40 -6937
▁창작물 -6938
▁니콜 -6939
▁악몽 -6940
▁교장 -6941
▁이와 -6942
▁경악 -6943
▁명목 -6944
▁시신 -6945
▁지력 -6946
▁즉위 -6947
▁맥주 -6948
▁여야 -6949
메이 -6950
▁유전자 -6951
▁쌀 -6952
▁나스 -6953
▁코미디 -6954
▁흔하 -6955
베이 -6956
▁동남 -6957
▁이타 -6958
▁추리 -6959
▁도장 -6960
▁시트 -6961
어놓 -6962
sh -6963
▁거북 -6964
도리 -6965
▁동경 -6966
▁막히 -6967
▁상사 -6968
▁여럿 -6969
▁바꿀 -6970
먼스 -6971
▁쉬워 -6972
▁장사 -6973
▁프로토 -6974
▁짐작 -6975
▁대포 -6976
▁스포일러 -6977
▁경남 -6978
▁125 -6979
▁전동차 -6980
▁조우 -6981
▁타르 -6982
▁권위 -6983
▁핑크 -6984
하마 -6985
▁엄격 -6986
▁반박 -6987
▁키보드 -6988
▁스러워 -6989
▁휴가 -6990
▁JP -6991
카이도 -6992
▁교단 -6993
비전 -6994
▁CH -6995
▁뒤늦 -6996
▁제왕 -6997
▁선조 -6998
▁모음 -6999
▁물체 -7000
▁기둥 -7001
▁헨리 -7002
▁창설 -7003
▁샷건 -7004
거지 -7005
▁막강 -7006
▁거친 -7007
불호 -7008
▁혼돈 -7009
▁호불호 -7010
▁양손 -7011
▁UN -7012
▁조종사 -7013
▁디즈니 -7014
▁기세 -7015
▁케이블 -7016
▁360 -7017
tle -7018
▁들어올 -7019
▁한반도 -7020
▁손실 -7021
▁신입 -7022
▁구르 -7023
ug -7024
▁신데렐라 -7025
▁교토 -7026
▁타석 -7027
▁폭파 -7028
▁원곡 -7029
▁스테이 -7030
▁얽 -7031
▁정교 -7032
▁야생 -7033
▁발행 -7034
▁OP -7035
▁LA -7036
▁최적 -7037
▁공세 -7038
렉스 -7039
▁나노 -7040
▁옹호 -7041
▁승차 -7042
▁노조 -7043
▁배출 -7044
▁트라우마 -7045
▁흰색 -7046
▁낙하 -7047
▁장탄수 -7048
▁프레이 -7049
▁노가다 -7050
▁고리 -7051
▁축복 -7052
▁내일 -7053
▁지냈 -7054
▁포즈 -7055
▁풋 -7056
던지 -7057
▁https -7058
우리 -7059
▁광장 -7060
▁베네 -7061
▁개국 -7062
▁임대 -7063
▁히틀러 -7064
▁호소 -7065
▁채팅 -7066
▁띄우 -7067
▁부착 -7068
▁츤 -7069
▁지선 -7070
▁근원 -7071
▁대전차 -7072
▁여파 -7073
▁오이 -7074
▁하급 -7075
▁근접전 -7076
▁스트라이커 -7077
▁복원 -7078
▁표면 -7079
▁기장 -7080
▁어쩌면 -7081
▁디오 -7082
▁미오 -7083
▁모스 -7084
▁버섯 -7085
▁회색 -7086
▁명백 -7087
▁응용 -7088
▁프랑스어 -7089
▁메일 -7090
▁엇 -7091
▁BE -7092
▁세팅 -7093
▁조별 -7094
▁무섭 -7095
▁승자 -7096
▁패밀리 -7097
▁대시 -7098
▁생길 -7099
▁곱 -7100
▁텍스트 -7101
▁관우 -7102
▁벌였 -7103
▁유언 -7104
▁전락 -7105
▁커스텀 -7106
월일 -7107
▁유기 -7108
▁방치 -7109
ach -7110
▁구동 -7111
▁여고 -7112
천시 -7113
ower -7114
▁바지 -7115
▁실사 -7116
▁배려 -7117
▁터져 -7118
나기 -7119
▁대접 -7120
▁첼시 -7121
▁뽀 -7122
라딘 -7123
▁장신 -7124
▁드문 -7125
▁비명 -7126
▁잠실 -7127
▁굴욕 -7128
▁개장 -7129
▁전북 -7130
▁루이스 -7131
MP -7132
▁솜 -7133
▁궁금 -7134
▁타츠 -7135
iss -7136
▁올스타 -7137
▁되게 -7138
▁반감 -7139
▁이순 -7140
▁물고기 -7141
▁디시 -7142
▁출루 -7143
▁미국인 -7144
▁투척 -7145
▁열혈 -7146
▁의해서 -7147
▁소용 -7148
▁돌아와 -7149
▁Wi -7150
▁통칭 -7151
▁좌절 -7152
▁초능력 -7153
▁발라 -7154
▁장성 -7155
▁브레 -7156
▁생년월일 -7157
▁밍 -7158
▁김상 -7159
▁부작용 -7160
▁일으켰 -7161
▁양상 -7162
▁이라크 -7163
▁저하 -7164
▁며칠 -7165
▁탕 -7166
▁았었 -7167
▁먹히 -7168
▁시인 -7169
▁팡 -7170
▁마드리 -7171
▁뻥 -7172
▁꽉 -7173
▁카자 -7174
▁카리스 -7175
▁합리 -7176
▁갚 -7177
▁진격 -7178
▁마드리드 -7179
▁여타 -7180
▁결계 -7181
▁간간히 -7182
▁논의 -7183
▁싼 -7184
▁틴 -7185
ash -7186
▁미루 -7187
▁그날 -7188
▁동해 -7189
▁이글스 -7190
▁근대 -7191
▁선사 -7192
▁엽 -7193
지막지 -7194
▁무지막지 -7195
▁발목 -7196
▁약자 -7197
▁스나이 -7198
▁스태프 -7199
▁갑작스 -7200
▁민주주의 -7201
▁축하 -7202
▁그램 -7203
▁여러분 -7204
▁수월 -7205
▁엎 -7206
▁마감 -7207
▁약탈 -7208
▁긁 -7209
▁빌딩 -7210
▁가난 -7211
ARD -7212
▁정반 -7213
▁센트 -7214
▁지인 -7215
▁려다가 -7216
▁상영 -7217
▁스케일 -7218
▁공백 -7219
▁해명 -7220
▁기수 -7221
▁공대 -7222
▁깜짝 -7223
▁스노 -7224
▁올드 -7225
▁1982 -7226
ook -7227
▁집권 -7228
▁성씨 -7229
▁퍼포 -7230
▁아스카 -7231
산역 -7232
▁퍼포먼스 -7233
OU -7234
▁인자 -7235
ial -7236
▁기본기 -7237
▁드러났 -7238
브라 -7239
▁설령 -7240
▁대차 -7241
▁수동 -7242
▁세금 -7243
사이 -7244
▁사이클 -7245
▁모빌 -7246
▁브라운 -7247
▁비치 -7248
▁하인 -7249
▁사악 -7250
▁진이 -7251
▁우세 -7252
▁로이드 -7253
TV -7254
▁조용히 -7255
▁가벼운 -7256
▁마트 -7257
▁생전 -7258
▁다운로드 -7259
▁하하 -7260
▁박살내 -7261
▁실책 -7262
럼프 -7263
▁레온 -7264
포르 -7265
▁떠오르 -7266
▁고소 -7267
▁살펴보 -7268
▁텟 -7269
▁최우 -7270
돌이 -7271
▁칭하 -7272
▁손꼽 -7273
▁중동 -7274
▁한창 -7275
▁매달 -7276
▁구별 -7277
▁노동자 -7278
ps -7279
▁조롱 -7280
ann -7281
▁대박 -7282
▁강렬 -7283
▁라우 -7284
버그 -7285
▁개별 -7286
▁그만두 -7287
▁wik -7288
리안 -7289
▁후일 -7290
▁이누 -7291
▁독일어 -7292
▁올라간다 -7293
▁나나 -7294
▁금메달 -7295
ss -7296
란히 -7297
▁엄밀히 -7298
▁특급 -7299
누스 -7300
▁시외버스 -7301
▁꼬마 -7302
▁라크 -7303
철도 -7304
▁로빈 -7305
▁보건 -7306
▁소니 -7307
▁성경 -7308
▁폴아웃 -7309
▁닐 -7310
▁지녔 -7311
▁단검 -7312
▁시달리 -7313
▁교복 -7314
▁폭행 -7315
▁오메가 -7316
모함 -7317
▁MB -7318
▁1983 -7319
▁왼손 -7320
▁슬로 -7321
▁여의 -7322
▁삼각 -7323
▁라이너 -7324
으로 -7325
▁스즈키 -7326
▁권장 -7327
▁대선 -7328
ky -7329
▁훈장 -7330
▁검찰 -7331
▁페널티 -7332
▁감수 -7333
▁분해 -7334
▁이용객 -7335
▁우드 -7336
▁선보이 -7337
▁명문 -7338
▁조명 -7339
▁에픽 -7340
센스 -7341
irl -7342
▁친하 -7343
▁불쌍 -7344
▁그레이트 -7345
▁선제 -7346
▁형편 -7347
▁업로드 -7348
▁몰리 -7349
▁에요 -7350
▁음료 -7351
역사 -7352
▁엔지 -7353
▁쏟아 -7354
▁Mk -7355
▁마도카 -7356
▁전격 -7357
▁비서 -7358
ib -7359
▁독점 -7360
▁유망 -7361
▁인권 -7362
바야 -7363
70 -7364
▁마땅 -7365
▁사사 -7366
하나 -7367
▁튕겨 -7368
▁스피릿 -7369
▁토요 -7370
▁CS -7371
▁산탄 -7372
▁웨스트 -7373
ish -7374
▁원전 -7375
▁페이스북 -7376
▁your -7377
▁혀 -7378
▁닝 -7379
▁제물 -7380
숭이 -7381
▁건국 -7382
▁명사 -7383
▁직선 -7384
▁포획 -7385
▁사나 -7386
▁유혹 -7387
▁호크 -7388
▁선진 -7389
▁온도 -7390
▁항구 -7391
▁후임 -7392
▁강간 -7393
▁세부 -7394
▁아스트 -7395
▁GO -7396
▁위안 -7397
▁고속도로 -7398
▁지사 -7399
▁트랩 -7400
▁에릭 -7401
▁that -7402
▁늘려 -7403
▁벡 -7404
▁상반 -7405
▁공통점 -7406
▁타가 -7407
▁수직 -7408
▁카를 -7409
▁루프 -7410
▁찾아볼 -7411
▁PP -7412
▁발리 -7413
▁가질 -7414
▁각오 -7415
▁그거 -7416
▁질병 -7417
▁중지 -7418
▁도트 -7419
▁쫓겨 -7420
rom -7421
▁학생회 -7422
진호 -7423
▁구장 -7424
▁팁 -7425
▁혈통 -7426
루미 -7427
▁찬스 -7428
▁블레이 -7429
▁페리 -7430
▁츠바 -7431
차기 -7432
▁후원 -7433
▁잔인 -7434
공항 -7435
▁추방 -7436
▁끼치 -7437
▁조이 -7438
▁주니어 -7439
▁오죽 -7440
라노 -7441
▁신선 -7442
▁엄연히 -7443
탐정 -7444
▁맞춘 -7445
▁평양 -7446
▁본다면 -7447
▁경부 -7448
▁김해 -7449
▁항공모함 -7450
▁술사 -7451
▁물품 -7452
▁후회 -7453
▁le -7454
▁범용 -7455
▁적중 -7456
어내 -7457
▁샵 -7458
▁부동 -7459
▁털리 -7460
블리 -7461
▁ON -7462
▁타치 -7463
orm -7464
게이머 -7465
▁프로게이머 -7466
▁유나이 -7467
▁푼 -7468
▁될지 -7469
▁검열 -7470
▁원한 -7471
▁매드 -7472
▁지워 -7473
▁Ne -7474
▁고치 -7475
▁축소 -7476
▁거론 -7477
▁고무 -7478
경기 -7479
▁베테랑 -7480
▁진상 -7481
▁라스트 -7482
▁동행 -7483
▁붙인 -7484
▁스와 -7485
▁하치 -7486
▁관찰 -7487
▁토요일 -7488
▁압권 -7489
▁헷갈 -7490
▁ML -7491
▁루피 -7492
▁선두 -7493
▁원더 -7494
▁즐겨 -7495
▁강원도 -7496
▁증폭 -7497
▁괴롭히 -7498
▁나빠 -7499
싱턴 -7500
▁마카 -7501
▁메리트 -7502
▁350 -7503
▁땡 -7504
▁스컬 -7505
▁레인지 -7506
▁가르치 -7507
▁다거나 -7508
▁유나이티 -7509
▁극한 -7510
▁일어날 -7511
▁허무 -7512
▁젖 -7513
▁쓰인 -7514
▁흡혈귀 -7515
▁논문 -7516
▁기후 -7517
▁주체 -7518
▁지연 -7519
▁김기 -7520
▁스폰서 -7521
▁하반 -7522
▁킷 -7523
사리 -7524
▁이어받 -7525
▁원형 -7526
벤처 -7527
우트 -7528
▁{{ -7529
▁부임 -7530
▁성배 -7531
▁SKT -7532
테일 -7533
▁어드벤처 -7534
이치로 -7535
▁합동 -7536
▁장난감 -7537
▁스리 -7538
어졌 -7539
▁트윈스 -7540
▁교과서 -7541
▁변이 -7542
▁인칭 -7543
▁출마 -7544
▁영지 -7545
▁TR -7546
▁골렘 -7547
▁자꾸 -7548
에르 -7549
▁줌 -7550
▁경전 -7551
▁요한 -7552
▁쿠데 -7553
▁하여 -7554
구장 -7555
전설 -7556
▁친절 -7557
▁치우 -7558
▁굴러 -7559
▁유의 -7560
▁중순 -7561
▁지목 -7562
▁쿄코 -7563
▁메트로 -7564
▁고마 -7565
▁권유 -7566
▁쨩 -7567
▁도색 -7568
▁유출 -7569
▁{{{ -7570
▁운수 -7571
amp -7572
▁표절 -7573
▁역량 -7574
▁결혼식 -7575
▁시리아 -7576
▁퍼져 -7577
▁바나 -7578
▁해양 -7579
▁블로 -7580
▁구성원 -7581
▁유니버스 -7582
▁슌 -7583
▁붐 -7584
▁치열 -7585
ft -7586
▁UE -7587
▁나르 -7588
▁피카 -7589
▁타이탄 -7590
▁뉘 -7591
▁해져 -7592
▁절차 -7593
▁저렇 -7594
▁돌아간다 -7595
▁히든 -7596
▁어색 -7597
▁쿤 -7598
싸움 -7599
▁베어스 -7600
▁전망 -7601
▁친다 -7602
▁햇 -7603
▁쿠마 -7604
▁변해 -7605
▁초콜 -7606
루션 -7607
▁!" -7608
트론 -7609
▁보라색 -7610
버려 -7611
▁휘둘 -7612
마크 -7613
ype -7614
▁자아 -7615
▁우익 -7616
▁특공 -7617
▁다이스 -7618
▁사무라이 -7619
▁따왔 -7620
▁취업 -7621
▁담긴 -7622
▁찾아오 -7623
▁빈도 -7624
▁생김 -7625
▁베인 -7626
▁시게 -7627
▁우울 -7628
▁폴리 -7629
▁코스튬 -7630
▁소서 -7631
▁여단 -7632
▁마술사 -7633
▁헤르 -7634
으므로 -7635
▁Mar -7636
▁박근혜 -7637
▁의자 -7638
배우 -7639
▁과자 -7640
▁끓 -7641
▁긴급 -7642
▁컴뱃 -7643
▁이럴 -7644
▁엮이 -7645
▁고는 -7646
▁동대 -7647
▁튼튼 -7648
▁우회 -7649
▁막아내 -7650
ous -7651
▁사와 -7652
▁버스트 -7653
▁뱅크 -7654
▁서기 -7655
▁수급 -7656
▁토라 -7657
▁유료 -7658
▁수습 -7659
▁사투 -7660
▁손자 -7661
▁줄거리 -7662
▁강호 -7663
▁관여 -7664
▁어설 -7665
▁페르소 -7666
▁동서 -7667
▁카네 -7668
▁캄 -7669
▁다큐 -7670
▁안양 -7671
TR -7672
추어 -7673
▁기호 -7674
▁카시 -7675
▁by -7676
▁애칭 -7677
▁유탄 -7678
▁청주 -7679
▁ex -7680
▁히스 -7681
시대 -7682
▁동점 -7683
▁공용 -7684
슈타인 -7685
▁이케 -7686
▁침묵 -7687
▁토우 -7688
▁리나 -7689
▁명단 -7690
▁해라 -7691
▁고블린 -7692
▁터스 -7693
▁새겨 -7694
▁나이프 -7695
▁히카 -7696
▁아닐까 -7697
▁풍부 -7698
▁학문 -7699
▁LP -7700
▁중상 -7701
▁징역 -7702
니시 -7703
▁해요 -7704
▁유전 -7705
▁가오 -7706
▁키를 -7707
▁나비 -7708
▁순양함 -7709
▁쳐들어 -7710
▁고스 -7711
▁보호막 -7712
▁센서 -7713
▁Sup -7714
▁관통력 -7715
플레이 -7716
▁드레스 -7717
▁광명 -7718
▁정사 -7719
▁규제 -7720
▁내린 -7721
▁오스만 -7722
!! -7723
산시 -7724
▁젼 -7725
▁대성 -7726
▁가진다 -7727
▁퍼즐 -7728
▁인재 -7729
▁GSL -7730
승부 -7731
▁we -7732
▁돌아갔 -7733
▁일요일 -7734
▁주어지 -7735
▁이놈 -7736
▁짙 -7737
▁선장 -7738
▁아무튼 -7739
▁겔 -7740
FF -7741
바나 -7742
▁전생 -7743
▁불능 -7744
▁웜 -7745
▁호드 -7746
▁의장 -7747
▁싫어하 -7748
▁촉수 -7749
▁침대 -7750
▁끌어들 -7751
▁배제 -7752
▁분산 -7753
▁페어리 -7754
▁기스 -7755
▁스플 -7756
▁마인드 -7757
▁bl -7758
▁평행 -7759
▁앰 -7760
키퍼 -7761
▁포스터 -7762
▁싸운 -7763
▁우승자 -7764
▁트레이너 -7765
▁도리 -7766
▁눈치채 -7767
▁미미 -7768
▁오브젝트 -7769
▁인과 -7770
▁챙기 -7771
▁꼽히 -7772
▁큐어 -7773
▁태국 -7774
▁팰 -7775
▁후반기 -7776
▁러스 -7777
▁동반 -7778
▁도어 -7779
▁백업 -7780
▁페르소나 -7781
▁평상 -7782
▁102 -7783
▁관측 -7784
▁프렌 -7785
▁라든가 -7786
도전 -7787
▁특별시 -7788
▁시모 -7789
▁메카닉 -7790
▁정석 -7791
▁출산 -7792
▁카마 -7793
▁서바이 -7794
▁준다는 -7795
ey -7796
▁철갑 -7797
▁기르 -7798
▁낭비 -7799
베리 -7800
▁부스트 -7801
▁빅토 -7802
▁안심 -7803
▁크라이 -7804
필더 -7805
▁미드필더 -7806
▁스위스 -7807
▁날씨 -7808
▁신속 -7809
ING -7810
▁모집 -7811
▁왜냐하면 -7812
▁시비 -7813
▁III -7814
▁수석 -7815
▁짐승 -7816
▁현금 -7817
폭탄 -7818
▁강림 -7819
▁관리자 -7820
▁IM -7821
▁시상식 -7822
▁워리어 -7823
▁이어진다 -7824
▁아케이드 -7825
▁지부 -7826
▁참가자 -7827
▁드러난다 -7828
▁취득 -7829
▁안타까 -7830
하루 -7831
▁모은 -7832
▁박지 -7833
▁더럽 -7834
▁벤치 -7835
▁스탭 -7836
렉션 -7837
▁모에 -7838
▁라가 -7839
▁연산 -7840
▁패전 -7841
▁모니터 -7842
AK -7843
▁World -7844
▁겹쳐 -7845
▁모험가 -7846
▁무한도전 -7847
▁피로 -7848
▁일가 -7849
▁껍 -7850
▁골키퍼 -7851
▁유우키 -7852
▁넘어갔 -7853
▁성실 -7854
▁공감 -7855
▁화해 -7856
▁리모 -7857
▁통째 -7858
▁레이디 -7859
▁김용 -7860
▁대위 -7861
▁냉정 -7862
▁마타 -7863
▁만주 -7864
▁유재석 -7865
NA -7866
▁조카 -7867
▁시그 -7868
▁플랜 -7869
▁블리자드 -7870
▁쳐도 -7871
▁처하 -7872
▁대세 -7873
▁차리 -7874
▁친분 -7875
▁느꼈 -7876
워즈 -7877
▁원판 -7878
▁원주민 -7879
대사 -7880
▁장타 -7881
▁들어와 -7882
▁워프 -7883
▁스피어 -7884
▁자네 -7885
▁화산 -7886
▁옐 -7887
der -7888
▁강사 -7889
▁최저 -7890
▁잊혀 -7891
oll -7892
▁슬라 -7893
▁리틀 -7894
▁품질 -7895
▁카리스마 -7896
▁따뜻 -7897
▁쿼터 -7898
ink -7899
▁변했 -7900
▁포병 -7901
▁작년 -7902
▁명분 -7903
▁미인 -7904
▁New -7905
▁뜬다 -7906
▁을수록 -7907
▁역임 -7908
▁All -7909
▁변장 -7910
▁아아 -7911
▁프리미어 -7912
▁고쳐 -7913
▁111 -7914
▁스기 -7915
▁se -7916
▁방송사 -7917
ET -7918
붙이 -7919
코트 -7920
▁익히 -7921
▁생체 -7922
▁뱅가드 -7923
▁거둔 -7924
▁미소녀 -7925
▁al -7926
▁강등 -7927
MS -7928
▁절친 -7929
▁사무소 -7930
▁OG -7931
▁카지 -7932
▁미지 -7933
▁당사자 -7934
▁단발 -7935
▁후드 -7936
▁슈퍼맨 -7937
▁가져오 -7938
▁호러 -7939
▁108 -7940
▁흑역사 -7941
▁노란색 -7942
▁옴 -7943
▁광산 -7944
▁감싸 -7945
항공 -7946
▁싸이 -7947
▁영양 -7948
페라 -7949
▁DP -7950
▁다닐 -7951
▁하나하나 -7952
▁스미스 -7953
▁사로 -7954
▁생애 -7955
▁유카 -7956
▁붓 -7957
▁자제 -7958
▁빨간색 -7959
▁여포 -7960
▁선임 -7961
▁IN -7962
▁잡아 -7963
▁쿠데타 -7964
▁오지 -7965
▁아닌지 -7966
▁착한 -7967
▁호남 -7968
▁단기 -7969
▁무용 -7970
▁재개 -7971
▁리버스 -7972
▁애인 -7973
▁장판 -7974
▁몰살 -7975
▁국무 -7976
▁무도 -7977
주교 -7978
▁봉쇄 -7979
▁유입 -7980
▁샐 -7981
▁워즈 -7982
▁SU -7983
▁태우 -7984
▁각지 -7985
▁출판사 -7986
▁오즈 -7987
▁안쪽 -7988
▁소모량 -7989
이나 -7990
▁깨지 -7991
▁스네 -7992
▁Season -7993
▁클린 -7994
▁루리 -7995
▁배운 -7996
▁스런 -7997
▁장례 -7998
▁OS -7999
▁써도 -8000
▁동정 -8001
▁연쇄 -8002
▁방사능 -8003
▁자존 -8004
▁트릴 -8005
▁쫒 -8006
▁디펜 -8007
▁마모 -8008
▁바르셀 -8009
버리 -8010
▁바르셀로나 -8011
▁항해 -8012
▁코스프레 -8013
▁un -8014
▁국제공항 -8015
▁폭스 -8016
당초 -8017
모스 -8018
▁레이어 -8019
▁발급 -8020
▁정해진 -8021
▁리안 -8022
▁마오 -8023
▁115 -8024
▁마운 -8025
▁임기 -8026
▁망하 -8027
▁마음대로 -8028
▁해질 -8029
▁수인 -8030
▁전당 -8031
▁아님 -8032
▁와인 -8033
▁실현 -8034
▁자칭 -8035
페이 -8036
▁워싱턴 -8037
▁유망주 -8038
▁김포 -8039
▁향한 -8040
▁건데 -8041
▁리처 -8042
▁위원장 -8043
▁불태 -8044
▁해산 -8045
▁워크 -8046
▁국장 -8047
▁스티븐 -8048
▁멋대로 -8049
▁미러 -8050
▁고등학생 -8051
께끼 -8052
▁수수께끼 -8053
네마 -8054
▁엉망 -8055
▁안타깝 -8056
▁수위 -8057
▁끊임없이 -8058
▁부근 -8059
▁가져다 -8060
▁병역 -8061
IX -8062
▁카레 -8063
시고 -8064
▁트론 -8065
▁MF -8066
▁그치 -8067
▁카쿠 -8068
▁렘 -8069
▁왕복 -8070
▁퍼스트 -8071
베이터 -8072
▁레이지 -8073
▁곡인 -8074
▁오니 -8075
▁게이머 -8076
▁강했 -8077
▁제출 -8078
▁멍청 -8079
▁아베 -8080
▁어벤 -8081
▁시크릿 -8082
▁데이비드 -8083
▁민간인 -8084
▁깐 -8085
▁공단 -8086
▁찾아내 -8087
▁브레이커 -8088
▁마그 -8089
▁사리 -8090
▁데려가 -8091
▁스탈 -8092
▁맞붙 -8093
▁자책점 -8094
DX -8095
▁동속 -8096
▁스텔스 -8097
▁끼워 -8098
▁고집 -8099
▁침투 -8100
▁흔들리 -8101
▁디자이너 -8102
버렸 -8103
셔널 -8104
▁구형 -8105
▁드로우 -8106
▁메이지 -8107
▁바치 -8108
▁굴리 -8109
▁문재 -8110
▁철저히 -8111
▁끌어올 -8112
▁요미 -8113
▁닦 -8114
▁작정 -8115
35 -8116
▁으려는 -8117
▁1950 -8118
▁할리 -8119
▁1981 -8120
▁확산 -8121
▁라이징 -8122
▁우호 -8123
▁DF -8124
동자 -8125
▁원시 -8126
▁탐지 -8127
▁날뛰 -8128
▁lv -8129
▁양식 -8130
▁방탄 -8131
▁목사 -8132
▁만능 -8133
▁파울 -8134
▁맞춰서 -8135
▁경호 -8136
▁얇 -8137
▁이라도 -8138
▁투쟁 -8139
▁존스 -8140
▁개구리 -8141
▁정반대 -8142
▁어째서인지 -8143
▁쿠리 -8144
▁후유 -8145
▁And -8146
▁생김새 -8147
▁능가 -8148
▁터보 -8149
▁188 -8150
▁기부 -8151
▁힙합 -8152
ank -8153
▁수지 -8154
▁펼쳤 -8155
▁부원 -8156
▁미르 -8157
▁NM -8158
▁이룬 -8159
▁첫째 -8160
▁BGA -8161
▁엣 -8162
▁z -8163
▁종영 -8164
▁간섭 -8165
▁전남 -8166
▁치안 -8167
▁엔지니어 -8168
ai -8169
▁렉스 -8170
▁할까 -8171
틀랜드 -8172
▁농장 -8173
▁디아블로 -8174
▁산맥 -8175
▁함장 -8176
▁세자 -8177
▁정신력 -8178
▁동전 -8179
▁To -8180
▁라그나 -8181
▁실체 -8182
▁그랑 -8183
▁아수 -8184
▁쇄 -8185
▁비추 -8186
▁1979 -8187
▁자사 -8188
▁브라이언 -8189
▁머니 -8190
▁중위 -8191
▁카피 -8192
▁어원 -8193
▁엘레 -8194
▁알렉스 -8195
▁압력 -8196
▁카게 -8197
▁이스트 -8198
▁변동 -8199
▁매그 -8200
▁군부 -8201
▁부숴 -8202
MAX -8203
▁로맨 -8204
▁애완 -8205
▁px -8206
▁함락 -8207
▁부스 -8208
▁실내 -8209
▁리본 -8210
▁몸통 -8211
스티벌 -8212
▁페스티벌 -8213
▁니트 -8214
▁거지 -8215
▁토지 -8216
저래 -8217
ary -8218
▁닷 -8219
▁대역 -8220
ero -8221
▁원숭이 -8222
나베 -8223
▁광기 -8224
▁오렌 -8225
▁하스 -8226
▁물자 -8227
▁재학 -8228
비치 -8229
바야시 -8230
▁가이아 -8231
▁유비트 -8232
▁뻘 -8233
▁스나이퍼 -8234
▁시골 -8235
▁틀린 -8236
▁종결 -8237
▁앗 -8238
▁sp -8239
▁폭격기 -8240
▁다카 -8241
▁세리 -8242
▁운송 -8243
▁김준 -8244
▁모형 -8245
▁올바 -8246
▁템플 -8247
▁고가 -8248
▁얄 -8249
▁신하 -8250
▁나폴레 -8251
▁헬멧 -8252
▁무거운 -8253
아시아 -8254
▁이어졌 -8255
▁트랜스포 -8256
▁Cr -8257
▁Bo -8258
▁오더 -8259
▁트레일러 -8260
IVE -8261
▁아자 -8262
▁쿠스 -8263
바이트 -8264
▁마하 -8265
▁사야카 -8266
▁크레이 -8267
▁광경 -8268
▁예약 -8269
▁건네 -8270
▁훔쳐 -8271
바지 -8272
▁삽질 -8273
▁전향 -8274
▁이즈미 -8275
▁납득 -8276
▁그러므로 -8277
▁계층 -8278
▁베를 -8279
▁티스 -8280
▁여섯 -8281
▁테스 -8282
▁줍 -8283
▁실시간 -8284
▁변한 -8285
▁퍽 -8286
▁홀드 -8287
▁입주 -8288
▁이래저래 -8289
▁사수 -8290
그러 -8291
▁금발 -8292
▁달인 -8293
ng -8294
▁죄책 -8295
▁쿵 -8296
▁나폴레옹 -8297
▁마미 -8298
▁반역 -8299
▁세로 -8300
▁스카우트 -8301
▁압축 -8302
레븐 -8303
▁출범 -8304
▁어나 -8305
▁입문 -8306
▁시사 -8307
▁잔혹 -8308
▁UEFA -8309
네시아 -8310
▁탐색 -8311
운수 -8312
▁민폐 -8313
▁주관 -8314
▁오른손 -8315
▁움직일 -8316
리드 -8317
▁지로 -8318
▁ㅋ -8319
▁RA -8320
▁Vol -8321
ife -8322
▁학대 -8323
▁펌프 -8324
▁찾아온 -8325
ich -8326
▁통솔 -8327
▁항모 -8328
aster -8329
▁겜 -8330
▁고고 -8331
▁콘텐츠 -8332
▁기질 -8333
▁밀도 -8334
▁임의 -8335
끼리 -8336
▁대타 -8337
▁덧붙여 -8338
▁죄책감 -8339
▁128 -8340
▁바이올 -8341
▁플라스 -8342
▁영감 -8343
▁소금 -8344
▁깃발 -8345
▁반짝 -8346
▁이른바 -8347
▁젬 -8348
▁부유 -8349
▁쿠사 -8350
▁짬 -8351
그라 -8352
▁Day -8353
ree -8354
▁이모 -8355
다보 -8356
▁이소 -8357
▁스크롤 -8358
▁기껏 -8359
▁강경 -8360
▁김유 -8361
▁두려워 -8362
▁표기법 -8363
▁군수 -8364
▁무승부 -8365
ons -8366
▁나요 -8367
▁드론 -8368
▁황당 -8369
▁물어 -8370
▁아지 -8371
▁도덕 -8372
▁Ad -8373
▁파도 -8374
▁배울 -8375
▁감탄 -8376
▁친척 -8377
▁서적 -8378
▁캡슐 -8379
▁트리거 -8380
▁수비수 -8381
▁소생 -8382
▁en -8383
▁열렸 -8384
▁초콜릿 -8385
▁커플링 -8386
▁젤리 -8387
▁마산 -8388
▁엘리베이터 -8389
▁고사 -8390
▁흑막 -8391
▁괴로 -8392
▁망토 -8393
▁갈색 -8394
▁대행 -8395
▁부재 -8396
ans -8397
▁파스 -8398
▁신중 -8399
▁챔프 -8400
▁관장 -8401
▁닉네임 -8402
▁너스 -8403
▁직통 -8404
▁위로 -8405
▁착륙 -8406
▁알바 -8407
▁되돌아 -8408
▁라이언 -8409
▁벌인 -8410
▁인해서 -8411
▁기다려 -8412
▁스파이더맨 -8413
▁실적 -8414
▁물러나 -8415
▁시시 -8416
▁김진 -8417
▁깨끗 -8418
▁호의 -8419
▁강대 -8420
▁매출 -8421
▁간판 -8422
리얼 -8423
부키 -8424
▁화기 -8425
▁아픈 -8426
▁그란 -8427
▁하사 -8428
▁승진 -8429
▁일렉 -8430
▁수라 -8431
act -8432
▁김일 -8433
▁고아 -8434
▁입시 -8435
▁엘리자베스 -8436
▁개척 -8437
▁GD -8438
▁즐길 -8439
▁프랜 -8440
▁외국어 -8441
pl -8442
▁가령 -8443
▁러쉬 -8444
▁버틸 -8445
▁마피아 -8446
▁서방 -8447
▁힐러 -8448
▁예의 -8449
▁그쪽 -8450
▁육상 -8451
▁스타즈 -8452
▁손쉽 -8453
▁트랜스포머 -8454
▁아오이 -8455
▁아이디어 -8456
▁WC -8457
▁방학 -8458
▁애용 -8459
뜨려 -8460
▁깊이 -8461
린다는 -8462
렉터 -8463
▁김치 -8464
▁퇴각 -8465
▁공산당 -8466
▁판도 -8467
▁나뉜 -8468
▁페어 -8469
▁련 -8470
▁케빈 -8471
▁레아 -8472
▁카이저 -8473
▁선로 -8474
▁정문 -8475
▁목걸이 -8476
▁리리 -8477
▁스가 -8478
▁챌린지 -8479
▁미궁 -8480
ase -8481
▁덩어리 -8482
▁죠죠 -8483
▁창문 -8484
▁오다 -8485
▁왕비 -8486
▁츤데레 -8487
▁매트 -8488
▁잃어버린 -8489
▁출혈 -8490
▁성분 -8491
▁코토 -8492
▁슬픔 -8493
▁이오 -8494
▁극대 -8495
▁지수 -8496
▁마케팅 -8497
▁신작 -8498
▁예쁘 -8499
▁하도 -8500
▁다가오 -8501
▁아리아 -8502
▁마라 -8503
고속도로 -8504
▁탭 -8505
▁시뮬 -8506
▁감자 -8507
▁만점 -8508
▁미녀 -8509
▁검증 -8510
12 -8511
▁발레 -8512
▁어나더 -8513
ple -8514
▁존중 -8515
▁적절히 -8516
▁침몰 -8517
uk -8518
▁AA -8519
▁워터 -8520
▁필리핀 -8521
▁카리 -8522
ear -8523
▁스타워즈 -8524
▁놀라운 -8525
▁사로잡 -8526
▁앓 -8527
슬라 -8528
업자 -8529
▁IIDX -8530
▁리사 -8531
▁고시 -8532
▁와이번 -8533
▁달라진다 -8534
▁으신 -8535
▁머스 -8536
▁가이드 -8537
▁어이없 -8538
▁리퍼 -8539
▁혼혈 -8540
▁이병 -8541
▁사촌 -8542
▁쉴드 -8543
▁오페라 -8544
▁가위 -8545
▁-- -8546
▁제노 -8547
ment -8548
어트 -8549
▁김수 -8550
▁NBA -8551
무지 -8552
▁오락실 -8553
▁AV -8554
▁츠카 -8555
▁으라고 -8556
▁자이언트 -8557
▁잡아내 -8558
ction -8559
▁괴인 -8560
▁변명 -8561
▁토대 -8562
▁굽 -8563
▁리버풀 -8564
▁구상 -8565
▁던지라 -8566
▁나섰 -8567
▁섞여 -8568
▁질서 -8569
▁드루 -8570
▁박자 -8571
▁레이븐 -8572
▁뚱 -8573
▁주축 -8574
▁현자 -8575
▁라이트닝 -8576
▁천국 -8577
▁이어져 -8578
▁DM -8579
▁원로 -8580
▁쿠니 -8581
▁중거리 -8582
▁고의 -8583
▁치카 -8584
▁매각 -8585
▁우마 -8586
▁외곽 -8587
버린 -8588
▁크래프트 -8589
▁뿌려 -8590
▁타일 -8591
▁시타 -8592
▁연수 -8593
▁최선 -8594
▁노부나가 -8595
▁소꿉 -8596
▁우루 -8597
▁쫄 -8598
▁왕실 -8599
▁합작 -8600
▁구조물 -8601
▁샀 -8602
▁마에 -8603
▁무제 -8604
90 -8605
▁모임 -8606
좀무 -8607
▁tv -8608
▁흠좀무 -8609
▁팔리 -8610
▁아카네 -8611
▁로키 -8612
▁우연 -8613
사랑 -8614
▁마기 -8615
▁부사관 -8616
▁타이어 -8617
▁감당 -8618
▁만렙 -8619
▁총합 -8620
▁레이블 -8621
▁여주인 -8622
▁Part -8623
▁도심 -8624
▁화폐 -8625
▁박수 -8626
▁복사 -8627
▁라미 -8628
▁찌질 -8629
▁개명 -8630
▁물려받 -8631
▁유머 -8632
▁유연 -8633
▁편리 -8634
▁샬 -8635
▁바쿠 -8636
▁장애물 -8637
▁올라갈 -8638
▁공속 -8639
▁라인하르트 -8640
▁모델링 -8641
▁톡 -8642
▁호리 -8643
ool -8644
▁연구원 -8645
▁밝혀진다 -8646
▁도쿠 -8647
▁일일 -8648
▁승인 -8649
▁놀랍 -8650
▁등극 -8651
▁초상 -8652
oon -8653
▁오케 -8654
▁잭슨 -8655
▁지분 -8656
▁버거 -8657
▁변한다 -8658
▁우측 -8659
▁적자 -8660
▁해운 -8661
▁One -8662
ode -8663
▁출동 -8664
▁황후 -8665
▁런처 -8666
▁명장 -8667
▁글씨 -8668
▁사천 -8669
▁실용 -8670
▁자존심 -8671
야스 -8672
▁노릇 -8673
▁둘러싸 -8674
▁전지 -8675
▁표적 -8676
번트 -8677
▁카카오 -8678
▁at -8679
▁220 -8680
▁속한 -8681
▁보좌 -8682
▁웨폰 -8683
▁경찰서 -8684
▁전날 -8685
▁103 -8686
헤이 -8687
▁준다고 -8688
▁포탈 -8689
▁스카웃 -8690
▁교리 -8691
▁마야 -8692
▁재건 -8693
▁직책 -8694
▁아사히 -8695
▁테이블 -8696
▁175 -8697
▁삼성전자 -8698
▁참사 -8699
▁천천 -8700
▁각도 -8701
▁선동 -8702
▁약혼 -8703
VER -8704
▁체결 -8705
▁듀오 -8706
▁본능 -8707
▁어시스트 -8708
▁명대사 -8709
▁서번트 -8710
▁레코드 -8711
▁무녀 -8712
▁이카 -8713
▁힘입 -8714
▁240 -8715
▁변수 -8716
▁ES -8717
▁오역 -8718
▁워드 -8719
▁뮌 -8720
▁부천 -8721
▁마찰 -8722
▁모듈 -8723
▁모순 -8724
▁FF -8725
▁그릇 -8726
▁전담 -8727
▁졌으며 -8728
▁Ap -8729
▁넘쳐 -8730
▁자력 -8731
▁1945 -8732
▁돌연 -8733
▁중부 -8734
▁저질렀 -8735
▁건드리 -8736
▁사연 -8737
▁가담 -8738
▁암호 -8739
▁너머 -8740
프리카 -8741
▁네티 -8742
▁이무 -8743
▁아마추어 -8744
▁오토바이 -8745
▁떴 -8746
▁서식 -8747
▁아담 -8748
이동 -8749
▁무능 -8750
▁보가 -8751
▁완공 -8752
▁아수라 -8753
▁검정 -8754
▁쓰리 -8755
▁LO -8756
▁싱가 -8757
▁싱가포르 -8758
▁수천 -8759
▁점유 -8760
▁평상시 -8761
▁서열 -8762
▁첸 -8763
▁씻 -8764
▁민감 -8765
▁해소 -8766
▁답답 -8767
▁패자 -8768
▁사법 -8769
▁에미 -8770
▁구울 -8771
IR -8772
▁싸운다 -8773
▁아까 -8774
라이언스 -8775
들이 -8776
▁아드 -8777
▁NH -8778
▁이단 -8779
▁미남 -8780
▁신동 -8781
▁얼라이언스 -8782
▁모종 -8783
깨비 -8784
▁리코 -8785
▁마일 -8786
▁알레 -8787
▁베스 -8788
▁벅 -8789
▁확신 -8790
▁유가 -8791
려고 -8792
▁Sw -8793
은색 -8794
▁말기 -8795
친구 -8796
▁견해 -8797
▁해전 -8798
▁대동 -8799
▁미쳐 -8800
▁사치 -8801
▁브라더스 -8802
▁탔 -8803
▁농업 -8804
▁어려웠 -8805
▁흙 -8806
▁오공 -8807
▁요격 -8808
▁보직 -8809
▁홀리 -8810
▁CM -8811
▁마을버스 -8812
▁선출 -8813
▁몸매 -8814
▁철도역 -8815
▁프로스트 -8816
▁열정 -8817
▁함수 -8818
▁브래 -8819
▁잠들 -8820
▁아유 -8821
▁본관 -8822
▁천천히 -8823
▁일관 -8824
▁퇴치 -8825
▁다가가 -8826
▁화상 -8827
▁리믹스 -8828
▁기차 -8829
▁트로피 -8830
▁온천 -8831
▁타카하시 -8832
▁천장 -8833
▁어려울 -8834
▁그라운드 -8835
▁사무실 -8836
bs -8837
▁한꺼 -8838
▁한꺼번에 -8839
▁소우 -8840
▁테일즈 -8841
▁발판 -8842
▁타우 -8843
▁아르바이트 -8844
▁입자 -8845
▁크로우 -8846
▁못해서 -8847
▁맹세 -8848
▁이경 -8849
▁공신 -8850
▁남동생 -8851
▁박정희 -8852
▁비리 -8853
▁떠난다 -8854
▁nd -8855
▁접하 -8856
▁오로치 -8857
▁일리 -8858
▁평론 -8859
▁발명 -8860
▁바둑 -8861
▁소마 -8862
▁이어진 -8863
▁전법 -8864
▁일체 -8865
▁SA -8866
▁재수 -8867
▁로프 -8868
▁레귤 -8869
▁테리 -8870
▁다간 -8871
사와 -8872
▁레나 -8873
▁부속 -8874
워프 -8875
▁가히 -8876
▁보편 -8877
▁산타 -8878
▁툭 -8879
▁트래 -8880
▁어드밴 -8881
마루 -8882
▁테란 -8883
▁후쿠시마 -8884
▁케리 -8885
▁스트리 -8886
▁카테 -8887
▁소나 -8888
▁자키 -8889
▁장벽 -8890
▁리처드 -8891
▁헬리 -8892
▁라마 -8893
▁휴먼 -8894
▁112 -8895
▁단역 -8896
▁보로 -8897
▁기리 -8898
▁이오리 -8899
생활 -8900
▁오렌지 -8901
II -8902
리스타 -8903
▁머무 -8904
▁펭 -8905
▁상냥 -8906
▁정점 -8907
▁억울 -8908
ike -8909
yle -8910
orn -8911
▁너클 -8912
atch -8913
▁Man -8914
▁모스크 -8915
▁렀 -8916
▁기동력 -8917
▁Up -8918
▁베를린 -8919
▁떨어질 -8920
▁유격수 -8921
▁최상급 -8922
운동 -8923
▁갇혀 -8924
▁세일러 -8925
직자 -8926
▁흉악 -8927
▁천지 -8928
▁아레나 -8929
▁지혜 -8930
▁네티즌 -8931
▁위해선 -8932
키스탄 -8933
▁협정 -8934
ence -8935
▁시카고 -8936
▁로스트 -8937
▁었었 -8938
▁탄압 -8939
▁서울대 -8940
▁에메 -8941
슬러 -8942
▁메구미 -8943
▁마스코트 -8944
▁필름 -8945
▁에디션 -8946
▁인접 -8947
▁노아 -8948
▁모아서 -8949
▁곤충 -8950
▁상무 -8951
키리 -8952
▁미아 -8953
▁서류 -8954
▁이순신 -8955
▁EC -8956
▁거든 -8957
▁용이 -8958
우라 -8959
스크림 -8960
▁피자 -8961
▁일어난다 -8962
▁클리셰 -8963
▁일어 -8964
▁태워 -8965
▁다시금 -8966
▁퀵 -8967
▁로크 -8968
▁지장 -8969
▁혁신 -8970
▁마틴 -8971
▁소득 -8972
▁입증 -8973
들리 -8974
▁이나마 -8975
▁NO -8976
▁솔저 -8977
▁저글 -8978
▁인문 -8979
▁작위 -8980
▁연동 -8981
▁국도 -8982
▁시오 -8983
▁매주 -8984
▁욕설 -8985
▁슨 -8986
▁옥상 -8987
▁산다 -8988
▁홋 -8989
▁잡힌 -8990
▁면제 -8991
▁레이싱 -8992
▁까마 -8993
▁인피니티 -8994
hen -8995
▁상주 -8996
▁선박 -8997
▁일명 -8998
▁해냈 -8999
▁엉덩이 -9000
▁회담 -9001
▁도르 -9002
▁계수 -9003
▁손님 -9004
▁장남 -9005
▁레귤러 -9006
▁밀레 -9007
ens -9008
▁이영호 -9009
▁격려 -9010
▁1978 -9011
▁키요 -9012
▁탈취 -9013
▁바꿨 -9014
▁루미 -9015
▁사회주의 -9016
▁강민 -9017
▁지터 -9018
타이 -9019
▁신한 -9020
▁이빨 -9021
iver -9022
▁팬티 -9023
▁와타나베 -9024
now -9025
타운 -9026
ph -9027
▁Ed -9028
▁수신 -9029
▁얼티 -9030
▁헝가리 -9031
구니 -9032
▁실린 -9033
▁GM -9034
▁미노 -9035
▁페이크 -9036
니코 -9037
▁정밀 -9038
▁트윗 -9039
▁히카루 -9040
박스 -9041
▁백만 -9042
▁부패 -9043
▁과시 -9044
▁페스 -9045
▁아쿠아 -9046
▁청춘 -9047
▁드워프 -9048
▁섬광 -9049
▁공격수 -9050
▁펴 -9051
▁내보내 -9052
▁로라 -9053
▁물리치 -9054
▁USB -9055
▁크롬 -9056
▁선거구 -9057
▁얹 -9058
▁연설 -9059
▁재앙 -9060
▁아포 -9061
▁스티브 -9062
▁게끔 -9063
▁리가 -9064
▁멘붕 -9065
▁트럼프 -9066
▁댐 -9067
▁장본 -9068
▁일곱 -9069
▁So -9070
▁퍼펙트 -9071
▁과언 -9072
▁프레스 -9073
▁귀국 -9074
▁사방 -9075
▁IT -9076
▁점검 -9077
▁저글링 -9078
▁발사기 -9079
▁일컫 -9080
▁파운드 -9081
▁배구 -9082
▁시호 -9083
▁학사 -9084
민주 -9085
▁궁합 -9086
▁스틱 -9087
▁임진 -9088
▁오만 -9089
pt -9090
▁달려들 -9091
▁쯔 -9092
▁에드워드 -9093
▁미성 -9094
▁블럭 -9095
▁절단 -9096
AP -9097
▁녹화 -9098
▁전송 -9099
ail -9100
▁석유 -9101
▁Mag -9102
토니 -9103
▁그레이드 -9104
▁펑크 -9105
▁마당 -9106
▁슬러그 -9107
▁두드러 -9108
▁소꿉친구 -9109
가루 -9110
▁이현 -9111
케이션 -9112
▁대해선 -9113
▁보낼 -9114
▁공헌 -9115
ork -9116
▁솟 -9117
체스터 -9118
▁날아오 -9119
▁얌 -9120
▁골프 -9121
▁박명 -9122
▁제치 -9123
99 -9124
▁RE -9125
▁인명 -9126
▁충족 -9127
▁습니까 -9128
▁장본인 -9129
▁신곡 -9130
▁희생자 -9131
ition -9132
▁뜨거운 -9133
▁한정판 -9134
▁야망 -9135
▁노린 -9136
▁구로 -9137
▁테크닉 -9138
라미 -9139
▁주사위 -9140
▁맞먹 -9141
▁Super -9142
▁봉사 -9143
▁까다롭 -9144
▁학년도 -9145
▁이니 -9146
▁돌아갈 -9147
디움 -9148
▁테니스 -9149
▁오사 -9150
▁보우 -9151
▁토큰 -9152
▁빠져나가 -9153
▁엔트리 -9154
덕션 -9155
▁up -9156
▁퀴즈 -9157
▁OCG -9158
▁웃기 -9159
▁말려 -9160
▁스칼 -9161
▁억제 -9162
▁자루 -9163
스카 -9164
▁이대로 -9165
▁리부 -9166
마리 -9167
바람 -9168
▁시간대 -9169
▁무식 -9170
▁무비 -9171
▁위시 -9172
▁풍선 -9173
▁화신 -9174
아치 -9175
▁주최 -9176
▁Fr -9177
▁Ph -9178
▁흥분 -9179
▁히사 -9180
세지 -9181
▁BD -9182
▁환생 -9183
▁루마 -9184
▁박성 -9185
▁한가 -9186
▁네크로 -9187
▁DJMAX -9188
▁유동 -9189
▁카오루 -9190
▁당초 -9191
▁십시오 -9192
▁호무 -9193
▁감추 -9194
▁제재 -9195
▁카인 -9196
▁코레 -9197
▁pl -9198
▁스모 -9199
▁정성 -9200
▁도깨비 -9201
▁모의 -9202
방송 -9203
▁대학생 -9204
▁자포 -9205
▁마지 -9206
▁굶 -9207
끄럽 -9208
▁킴 -9209
▁가설 -9210
▁라이즈 -9211
느리 -9212
▁제리 -9213
▁질주 -9214
▁그러면 -9215
▁김성근 -9216
▁편의점 -9217
▁광물 -9218
▁벙커 -9219
▁아리스 -9220
페이스 -9221
▁TP -9222
▁에일리 -9223
▁군데 -9224
▁찬양 -9225
볼루션 -9226
▁프로그래 -9227
▁신관 -9228
▁유즈 -9229
▁강전 -9230
▁방심 -9231
▁스윙 -9232
▁던진 -9233
▁부끄러 -9234
▁터졌 -9235
▁라이센스 -9236
수리 -9237
▁과일 -9238
▁조화 -9239
▁중기 -9240
▁동성애 -9241
▁김승 -9242
▁떠돌 -9243
▁쌓이 -9244
▁비단 -9245
▁기술력 -9246
▁내기 -9247
▁스콜 -9248
▁씨앗 -9249
▁저상 -9250
▁목욕 -9251
▁이이 -9252
inal -9253
▁고우 -9254
▁보르 -9255
▁무실 -9256
▁플레임 -9257
▁라오 -9258
▁갖춰 -9259
▁소재지 -9260
▁두꺼 -9261
▁인벤 -9262
▁대검 -9263
▁이호 -9264
▁직행 -9265
AY -9266
▁대면 -9267
▁보낸다 -9268
▁스타트 -9269
모습 -9270
▁찔러 -9271
지능 -9272
서스 -9273
▁인공지능 -9274
▁경북 -9275
▁계략 -9276
▁평판 -9277
▁선회 -9278
▁123 -9279
▁리뉴 -9280
▁국토 -9281
▁반도 -9282
▁날린다 -9283
▁부드러 -9284
▁아랫 -9285
▁코끼리 -9286
▁발각 -9287
▁시종 -9288
▁초록색 -9289
▁급격히 -9290
▁국방부 -9291
▁재질 -9292
▁타키 -9293
▁이리저리 -9294
usic -9295
▁캘리 -9296
▁게르 -9297
▁야마모토 -9298
ble -9299
▁인듯 -9300
▁실려 -9301
▁지루 -9302
▁레버 -9303
▁맷집 -9304
▁숙청 -9305
▁뺨 -9306
▁롤러 -9307
▁즐거 -9308
▁제니 -9309
▁104 -9310
▁줄여서 -9311
te -9312
▁교대 -9313
나와 -9314
▁병과 -9315
▁번지 -9316
▁유아 -9317
▁일산 -9318
▁프롤 -9319
▁스마일 -9320
▁치바 -9321
▁DPS -9322
▁일러스트레이터 -9323
바리 -9324
사르 -9325
보기 -9326
▁도미 -9327
▁짠 -9328
▁멧 -9329
▁Qu -9330
▁칼라 -9331
▁중원 -9332
▁밀리언 -9333
▁포크 -9334
▁무자 -9335
▁Dream -9336
▁나락 -9337
▁쥰 -9338
▁프로덕션 -9339
▁안겨 -9340
▁이윤 -9341
▁리츠 -9342
▁문양 -9343
▁소소 -9344
▁109 -9345
▁1973 -9346
본다 -9347
▁대명 -9348
기에 -9349
▁김두 -9350
▁are -9351
▁원화 -9352
▁들으면 -9353
▁완성도 -9354
▁토마스 -9355
▁스코틀랜드 -9356
▁일레븐 -9357
전사 -9358
▁차림 -9359
▁배웠 -9360
▁헤일 -9361
▁다지만 -9362
▁의의 -9363
▁분홍 -9364
▁카제 -9365
▁아무렇 -9366
▁진동 -9367
▁흉내 -9368
▁스타디움 -9369
▁벗겨 -9370
▁케이크 -9371
▁도대 -9372
▁수중 -9373
▁히드라 -9374
▁지오 -9375
▁난리 -9376
▁세키 -9377
▁끝날 -9378
▁거꾸 -9379
▁아냐 -9380
▁트러 -9381
▁강릉 -9382
▁오타쿠 -9383
▁무신 -9384
▁까다로운 -9385
▁과격 -9386
▁완화 -9387
▁명시 -9388
▁제너 -9389
▁사이토 -9390
▁총장 -9391
▁발전소 -9392
▁강인 -9393
▁동구 -9394
▁여태 -9395
▁이력 -9396
▁샘플 -9397
▁휩쓸 -9398
▁아름답 -9399
▁집계 -9400
▁가져온 -9401
▁135 -9402
▁레슬러 -9403
▁이쿠 -9404
▁중점 -9405
▁악행 -9406
▁에버 -9407
▁쥬얼 -9408
▁Mi -9409
▁상금 -9410
▁날렸 -9411
▁앤드 -9412
▁여주인공 -9413
▁피오 -9414
▁침착 -9415
▁공교 -9416
▁튀어나오 -9417
▁도배 -9418
▁스토어 -9419
▁나뉜다 -9420
▁자율 -9421
▁바이크 -9422
▁관료 -9423
▁순천 -9424
▁때려잡 -9425
▁올라와 -9426
▁뚜렷 -9427
▁사가 -9428
▁155 -9429
▁속해 -9430
▁여장 -9431
드립 -9432
▁학위 -9433
▁인도네시아 -9434
▁카토 -9435
▁하이드 -9436
▁단련 -9437
▁울리 -9438
▁짝사랑 -9439
▁라이드 -9440
▁갸 -9441
▁갱신 -9442
▁리볼 -9443
▁무궁 -9444
▁무늬 -9445
▁이대 -9446
▁외야수 -9447
▁젝 -9448
▁다케 -9449
▁독보 -9450
IK -9451
▁남한 -9452
▁관문 -9453
▁친애 -9454
▁반경 -9455
▁중견 -9456
▁항공사 -9457
▁쓰러진 -9458
▁버텨 -9459
▁뮌헨 -9460
테이션 -9461
▁스탈린 -9462
▁킹덤 -9463
▁몰아넣 -9464
▁변함 -9465
히토 -9466
▁갯 -9467
▁국정 -9468
▁조립 -9469
▁각인 -9470
방울 -9471
▁슬퍼 -9472
▁챔피언십 -9473
▁이듬 -9474
의자 -9475
천사 -9476
▁강타 -9477
anc -9478
▁거스 -9479
▁태권 -9480
▁제의 -9481
▁완구 -9482
▁모욕 -9483
▁툰 -9484
▁체코 -9485
▁발키리 -9486
▁지면 -9487
▁해태 -9488
▁달려가 -9489
▁한다며 -9490
▁공산주의 -9491
티니 -9492
▁휴게 -9493
▁AB -9494
▁사체 -9495
▁이틀 -9496
▁반성 -9497
▁심히 -9498
▁당해서 -9499
▁정전 -9500
▁깨어나 -9501
▁스페인어 -9502
의회 -9503
▁부가 -9504
▁교도소 -9505
▁피우 -9506
▁팍 -9507
uck -9508
▁천상 -9509
▁연기력 -9510
▁퓨전 -9511
▁휴대폰 -9512
▁켄지 -9513
▁손잡이 -9514
TA -9515
▁스로 -9516
▁찰스 -9517
▁방언 -9518
▁185 -9519
▁거꾸로 -9520
▁1200 -9521
쿠스 -9522
▁도스 -9523
▁내게 -9524
▁여겼 -9525
IL -9526
못미 -9527
▁아이즈 -9528
▁지못미 -9529
▁배리 -9530
▁아타 -9531
▁스파크 -9532
▁내외 -9533
▁울음 -9534
▁지온 -9535
PER -9536
▁명탐정 -9537
▁MM -9538
▁ㄷ -9539
ise -9540
▁극심 -9541
▁go -9542
▁비키 -9543
▁멋지 -9544
▁신주 -9545
▁중구 -9546
▁AL -9547
▁보강 -9548
▁무작위 -9549
▁썸 -9550
▁성지 -9551
▁wiki -9552
무이 -9553
▁지크 -9554
▁교역 -9555
▁1974 -9556
▁중소 -9557
▁냉장 -9558
▁민국 -9559
▁유라 -9560
▁UP -9561
▁도대체 -9562
▁바인 -9563
▁들키 -9564
▁끌려가 -9565
▁꾀 -9566
▁Ver -9567
▁밀어내 -9568
▁실리 -9569
▁하수인 -9570
▁개판 -9571
▁기관포 -9572
텍스 -9573
▁HE -9574
▁둘러보 -9575
▁경사 -9576
▁릴리스 -9577
▁뤼 -9578
▁시안 -9579
▁강동 -9580
▁세츠 -9581
▁시네마 -9582
▁묻혀 -9583
▁창세 -9584
스티스 -9585
▁나이츠 -9586
▁필사 -9587
▁기행 -9588
▁예고편 -9589
▁늘어난다 -9590
▁포니 -9591
▁간파 -9592
▁입사 -9593
▁iOS -9594
▁잼 -9595
▁초등학생 -9596
▁단자 -9597
▁알아내 -9598
▁찬성 -9599
▁부채 -9600
▁섞인 -9601
▁이계 -9602
▁부제 -9603
▁심정 -9604
▁피치 -9605
▁향후 -9606
▁패왕 -9607
▁레슬링 -9608
▁엉뚱 -9609
▁으려면 -9610
▁해져서 -9611
▁DI -9612
▁아폴 -9613
▁MG -9614
▁tr -9615
▁격렬 -9616
르타 -9617
▁도약 -9618
▁야마다 -9619
▁장갑차 -9620
▁좌측 -9621
▁유니콘 -9622
▁소통 -9623
ung -9624
▁견디 -9625
리칸 -9626
▁JT -9627
▁코노 -9628
▁망설 -9629
▁종전 -9630
▁버블 -9631
▁나인 -9632
▁보스턴 -9633
▁사천왕 -9634
▁주석 -9635
▁진단 -9636
▁이듬해 -9637
▁극악 -9638
▁헤라 -9639
에른 -9640
▁그간 -9641
▁유능 -9642
▁분할 -9643
▁노무 -9644
▁깽 -9645
▁장풍 -9646
▁공격기 -9647
▁미유키 -9648
▁르노 -9649
▁왓 -9650
멘터리 -9651
백과 -9652
▁훼손 -9653
▁눈앞 -9654
▁성대 -9655
▁아울 -9656
▁테이프 -9657
▁은폐 -9658
▁깡패 -9659
▁노하 -9660
▁배급 -9661
▁껴 -9662
▁비참 -9663
▁결과물 -9664
▁내각 -9665
징가 -9666
▁가구 -9667
▁신생 -9668
느님 -9669
vel -9670
▁마징가 -9671
▁신학 -9672
▁동아시아 -9673
▁놓여 -9674
파이 -9675
▁CL -9676
oun -9677
▁CR -9678
▁폐선 -9679
▁덤벼 -9680
▁채찍 -9681
▁서머 -9682
▁충고 -9683
▁하느님 -9684
▁빈약 -9685
▁107 -9686
▁반장 -9687
▁주술 -9688
▁날카로운 -9689
▁양대 -9690
▁중공 -9691
▁급하 -9692
▁래퍼 -9693
▁자산 -9694
▁벨기에 -9695
11 -9696
▁유스 -9697
▁유메 -9698
▁대등 -9699
▁욕망 -9700
▁소비자 -9701
oo -9702
▁186 -9703
▁재벌 -9704
▁BB -9705
▁카사 -9706
▁불길 -9707
▁Team -9708
사벽 -9709
▁넘사벽 -9710
▁플리 -9711
▁왕족 -9712
에몽 -9713
▁중국인 -9714
▁as -9715
▁헥 -9716
▁김병 -9717
▁정형 -9718
▁초과 -9719
▁다큐멘터리 -9720
▁먹여 -9721
▁할로 -9722
▁그렸 -9723
▁모시 -9724
▁인성 -9725
은이 -9726
▁리우스 -9727
보우 -9728
▁모른다는 -9729
▁레시 -9730
▁브레스 -9731
▁진짜로 -9732
▁모기 -9733
▁119 -9734
▁미판 -9735
▁이선 -9736
▁와이번스 -9737
▁이념 -9738
▁모인 -9739
urn -9740
▁망명 -9741
way -9742
▁냅 -9743
▁산소 -9744
▁눈동자 -9745
과이 -9746
▁탐사 -9747
▁후대 -9748
▁엠블 -9749
▁케리건 -9750
▁바이에른 -9751
▁잎 -9752
▁모던 -9753
▁스노우 -9754
▁인텔 -9755
▁취재 -9756
▁홍진호 -9757
▁all -9758
▁원작자 -9759
▁조국 -9760
▁챔스 -9761
▁필립 -9762
▁나카무라 -9763
▁1975 -9764
▁파괴력 -9765
구역 -9766
▁주유 -9767
▁Black -9768
▁상부 -9769
▁no -9770
▁사지 -9771
▁주입 -9772
▁주저 -9773
진영 -9774
▁집사 -9775
▁얼티밋 -9776
▁낮추 -9777
▁신조 -9778
▁오퍼 -9779
▁주머니 -9780
▁망상 -9781
▁일례 -9782
▁제발 -9783
노스케 -9784
▁116 -9785
▁대피 -9786
▁더러운 -9787
▁냉동 -9788
▁용산 -9789
▁출고 -9790
0000 -9791
세서리 -9792
▁숙련도 -9793
▁성사 -9794
▁도사 -9795
▁추후 -9796
▁쓸데없이 -9797
▁식스 -9798
▁사나이 -9799
뜨린 -9800
▁말년 -9801
▁이원 -9802
▁LTE -9803
▁적힌 -9804
▁협조 -9805
▁소령 -9806
▁남학생 -9807
▁문재인 -9808
▁근로 -9809
gh -9810
▁주교 -9811
▁시범 -9812
▁청룡 -9813
▁수립 -9814
▁조던 -9815
▁날아다니 -9816
▁그쳤 -9817
FL -9818
중간 -9819
▁델타 -9820
▁Col -9821
▁저항력 -9822
▁메테 -9823
속기 -9824
ale -9825
▁187 -9826
▁충격파 -9827
더링 -9828
▁피난 -9829
▁유치원 -9830
▁어벤져 -9831
▁높여 -9832
▁비자 -9833
▁병행 -9834
▁다치 -9835
▁에코 -9836
▁욕심 -9837
▁욱 -9838
▁순정 -9839
▁math -9840
▁재즈 -9841
▁혼동 -9842
▁구호 -9843
▁독백 -9844
▁절정 -9845
▁통틀어 -9846
▁고래 -9847
▁터진 -9848
▁do -9849
▁트러블 -9850
▁Night -9851
티어 -9852
▁다투 -9853
ject -9854
시티 -9855
▁만지 -9856
▁FPS -9857
▁종착 -9858
▁떨어져서 -9859
▁금강 -9860
▁대목 -9861
▁아처 -9862
▁입원 -9863
▁직위 -9864
▁( -9865
▁베어 -9866
▁퇴역 -9867
▁MO -9868
▁종로 -9869
▁리볼버 -9870
▁절벽 -9871
▁고립 -9872
▁HS -9873
▁동사 -9874
▁ERA -9875
▁요코하마 -9876
▁해고 -9877
ier -9878
▁앨런 -9879
▁그루 -9880
▁경상북도 -9881
▁이른다 -9882
▁플라스틱 -9883
▁키드 -9884
▁투니 -9885
▁리플렉 -9886
▁앞선 -9887
▁급속 -9888
▁한양 -9889
▁저스티스 -9890
▁두목 -9891
▁오를 -9892
▁중화민국 -9893
▁병장 -9894
▁판다 -9895
ult -9896
▁연전 -9897
▁내린다 -9898
▁Type -9899
▁시켜야 -9900
돌프 -9901
▁TS -9902
▁마가 -9903
▁손목 -9904
▁중년 -9905
상가 -9906
▁~" -9907
▁쿠바 -9908
▁포도 -9909
▁부시 -9910
▁중심지 -9911
키스 -9912
▁게리온 -9913
▁마작 -9914
▁시어 -9915
▁재배 -9916
▁not -9917
메다 -9918
▁연간 -9919
▁질풍 -9920
▁750 -9921
▁니코니코 -9922
▁방공 -9923
▁동계 -9924
▁본질 -9925
▁말씀 -9926
▁왕가 -9927
▁저격수 -9928
▁용암 -9929
▁오른팔 -9930
사스 -9931
▁영등 -9932
▁완벽히 -9933
▁지나친 -9934
▁122 -9935
▁띄워 -9936
▁막혀 -9937
▁적립 -9938
▁Girl -9939
들목 -9940
▁불문 -9941
▁퍼시 -9942
▁누스 -9943
▁투고 -9944
▁시달 -9945
▁113 -9946
▁나들목 -9947
▁이만 -9948
▁국기 -9949
▁그려진 -9950
▁지극 -9951
▁격투기 -9952
▁헐크 -9953
니발 -9954
▁섭취 -9955
▁포착 -9956
▁오른다 -9957
▁노블 -9958
▁빙의 -9959
▁레인보우 -9960
▁실로 -9961
▁강탈 -9962
▁초청 -9963
▁올린다 -9964
슬링 -9965
▁떨어뜨리 -9966
▁까마귀 -9967
▁카즈야 -9968
▁약칭 -9969
▁꼼수 -9970
▁집필 -9971
▁사투리 -9972
DD -9973
▁미코토 -9974
▁일까 -9975
▁이용자 -9976
▁야전 -9977
▁존슨 -9978
▁파인 -9979
▁제자리 -9980
▁미식 -9981
▁인체 -9982
▁일각 -9983
▁평택 -9984
▁홋카이도 -9985
▁전수 -9986
▁1977 -9987
▁ㅇ -9988
▁스나 -9989
▁희대 -9990
▁유카리 -9991
▁내역 -9992
▁옵티 -9993
▁탈환 -9994
▁하후 -9995
다드 -9996
▁공짜 -9997
▁하지 -9998
▁핑계 -9999
▁1976 -10000
ose -10001
▁불참 -10002
▁승패 -10003
▁사탄 -10004
▁합계 -10005
▁두루 -10006
▁뛰어들 -10007
▁공명 -10008
▁Gam -10009
▁빼앗기 -10010
▁염두 -10011
▁위함 -10012
▁beat -10013
▁안젤 -10014
▁점심 -10015
▁베이비 -10016
▁450 -10017
▁대교 -10018
▁인플 -10019
▁144 -10020
▁정조 -10021
▁퉁 -10022
▁Con -10023
▁교향 -10024
▁4000 -10025
▁캇 -10026
▁MSL -10027
▁민중 -10028
▁크롤 -10029
▁한나라 -10030
▁차장 -10031
▁올라간 -10032
▁일조 -10033
▁훈훈 -10034
자치 -10035
▁숭배 -10036
ox -10037
▁호구 -10038
▁오딘 -10039
성이 -10040
▁노라 -10041
▁미트 -10042
▁뮤지션 -10043
GA -10044
▁로렌 -10045
▁한나라당 -10046
▁팜 -10047
▁동상 -10048
▁이태 -10049
▁돌아올 -10050
▁딥 -10051
▁히로시마 -10052
▁검토 -10053
▁드러난 -10054
▁무실점 -10055
네이터 -10056
▁브레이브 -10057
▁키로 -10058
▁Do -10059
▁행진 -10060
▁도마 -10061
▁도검 -10062
▁토오 -10063
▁320 -10064
▁제인 -10065
▁Max -10066
▁터뜨리 -10067
▁래스터 -10068
▁쿠르 -10069
▁리터 -10070
able -10071
▁무지개 -10072
▁리셋 -10073
▁더구나 -10074
터스 -10075
▁대인배 -10076
▁철갑탄 -10077
킨다 -10078
▁틀리 -10079
▁의정부 -10080
뮤직 -10081
▁벌써 -10082
▁누이 -10083
▁위쪽 -10084
▁우린 -10085
▁냉장고 -10086
▁ne -10087
▁걸려서 -10088
▁경지 -10089
▁단총 -10090
▁Op -10091
▁사내 -10092
▁한다거나 -10093
▁서치 -10094
▁키노 -10095
▁동인지 -10096
▁부산광역시 -10097
ron -10098
▁세례 -10099
▁배신자 -10100
▁김광 -10101
▁속편 -10102
▁하행 -10103
very -10104
▁화약 -10105
▁아랑 -10106
▁벗어난 -10107
▁동호 -10108
▁립스 -10109
▁측근 -10110
▁EV -10111
▁사퇴 -10112
▁처녀 -10113
▁각국 -10114
▁맞물 -10115
ign -10116
▁패미 -10117
▁145 -10118
▁기원전 -10119
▁바른 -10120
▁152 -10121
▁교차로 -10122
▁패트 -10123
int -10124
▁토가 -10125
▁계곡 -10126
▁응급 -10127
▁OF -10128
▁스톡 -10129
고사 -10130
PA -10131
▁제주도 -10132
▁레이너 -10133
▁박살나 -10134
▁주식회사 -10135
▁사물 -10136
▁평점 -10137
▁콰 -10138
사고 -10139
▁맹독 -10140
▁텔레포트 -10141
▁해선 -10142
▁베이징 -10143
▁원자력 -10144
▁상행 -10145
▁후쿠오카 -10146
태자 -10147
▁월간 -10148
▁조교 -10149
▁사직 -10150
▁내뱉 -10151
▁액체 -10152
▁삿 -10153
▁노골 -10154
▁사소 -10155
▁BC -10156
▁사일 -10157
▁치러 -10158
▁수하 -10159
▁일품 -10160
▁총사 -10161
▁신세계 -10162
▁참으로 -10163
▁데미 -10164
▁전도 -10165
▁회관 -10166
▁청나라 -10167
큘라 -10168
▁수감 -10169
▁자켓 -10170
▁미칠 -10171
▁황혼 -10172
▁테러리 -10173
▁버림 -10174
▁타구 -10175
▁패닉 -10176
EL -10177
▁초필 -10178
▁마주치 -10179
▁아슬 -10180
▁마초 -10181
▁솔직히 -10182
▁편한 -10183
카미 -10184
▁도라에몽 -10185
▁밭 -10186
▁물약 -10187
▁김전 -10188
▁신칸 -10189
▁연이 -10190
▁1972 -10191
▁날린 -10192
▁남미 -10193
▁뽑아내 -10194
▁에일리언 -10195
▁앞면 -10196
미터 -10197
▁남양 -10198
▁으리 -10199
▁비비 -10200
▁걸릴 -10201
▁우지 -10202
퍼드 -10203
▁태풍 -10204
▁시조 -10205
▁토막 -10206
▁토비 -10207
▁메디 -10208
▁인사이드 -10209
▁페르시아 -10210
▁파고 -10211
▁윤리 -10212
▁두려움 -10213
▁궤적 -10214
▁정우 -10215
▁KTX -10216
▁줄기 -10217
▁신칸센 -10218
▁투사 -10219
▁예쁜 -10220
▁금요일 -10221
▁브루스 -10222
▁아이디 -10223
타니 -10224
▁랜서 -10225
▁법사 -10226
▁여긴 -10227
▁주파 -10228
▁초점 -10229
▁콧 -10230
하여 -10231
▁돌아온다 -10232
▁대변 -10233
▁카일 -10234
▁고난 -10235
▁설마 -10236
▁시초 -10237
▁말라 -10238
▁알렉산드 -10239
▁김구 -10240
▁피지컬 -10241
▁죽인다 -10242
▁저승 -10243
▁니다 -10244
▁더미 -10245
▁김전일 -10246
ild -10247
▁210 -10248
▁객관 -10249
▁부동산 -10250
▁키미 -10251
▁적이 -10252
퀘어 -10253
▁이점 -10254
▁태생 -10255
▁불릴 -10256
▁감금 -10257
▁일환 -10258
▁김지 -10259
박이 -10260
▁서태 -10261
▁관광객 -10262
▁판권 -10263
15 -10264
▁BJ -10265
▁박명수 -10266
▁연소 -10267
▁음향 -10268
iel -10269
▁끝났 -10270
▁상의 -10271
▁PSP -10272
▁장동 -10273
▁La -10274
▁격기 -10275
▁손꼽히 -10276
▁해상도 -10277
▁맑 -10278
▁볼드 -10279
▁껍질 -10280
▁사탕 -10281
▁끊기 -10282
▁영화제 -10283
▁프랭크 -10284
▁명나라 -10285
▁접수 -10286
▁보트 -10287
▁파밍 -10288
▁Gre -10289
▁{{{# -10290
▁사극 -10291
▁스바 -10292
▁탁월 -10293
▁다기 -10294
▁우두 -10295
▁다니엘 -10296
▁꿈꾸 -10297
▁바닷 -10298
▁선원 -10299
▁기뻐하 -10300
▁안드로 -10301
▁프랜차 -10302
▁Am -10303
랄드 -10304
▁등재 -10305
▁스매 -10306
▁왕후 -10307
▁정준 -10308
▁과금 -10309
▁본의 -10310
▁코즈 -10311
▁슬램 -10312
▁서울시 -10313
▁텍사스 -10314
▁아쉬움 -10315
▁나레이션 -10316
▁알라 -10317
▁프랜차이즈 -10318
부인 -10319
▁보복 -10320
▁히나타 -10321
▁깨알 -10322
▁놀리 -10323
▁약체 -10324
▁캘리포 -10325
▁타스 -10326
▁타리 -10327
▁나눈 -10328
▁어퍼 -10329
▁랜스 -10330
▁리키 -10331
▁심야 -10332
▁라틴어 -10333
해야 -10334
▁럭키 -10335
▁연금술사 -10336
▁무색 -10337
▁환호 -10338
▁메이트 -10339
컨드 -10340
▁골치 -10341
▁핀란드 -10342
▁비기 -10343
▁암컷 -10344
▁세컨드 -10345
▁다이스케 -10346
▁치마 -10347
▁입힌다 -10348
▁시뮬레이션 -10349
▁에도 -10350
▁이별 -10351
▁전학 -10352
▁지미 -10353
▁바이킹 -10354
올라 -10355
▁라곤 -10356
▁안동 -10357
▁아테나 -10358
▁디스플레이 -10359
▁고질 -10360
▁공국 -10361
다닌 -10362
▁우미 -10363
▁BM -10364
▁발발 -10365
▁에필 -10366
▁에필로그 -10367
ANC -10368
▁스팅 -10369
▁사우스 -10370
뜨렸 -10371
▁주한 -10372
▁만난다 -10373
▁주황 -10374
▁모았 -10375
▁배후 -10376
▁~! -10377
▁무단 -10378
▁옵티머스 -10379
▁중급 -10380
▁어긋 -10381
▁캘리포니아 -10382
▁무슬 -10383
▁보디 -10384
▁슬슬 -10385
▁개그맨 -10386
▁무서워 -10387
▁별칭 -10388
▁165 -10389
▁컬렉션 -10390
닐라 -10391
▁목동 -10392
▁노무현 -10393
▁어린아이 -10394
▁섹스 -10395
▁슬픈 -10396
▁잔류 -10397
▁탄막 -10398
▁능숙 -10399
▁넘어갈 -10400
▁스택 -10401
▁장시 -10402
ae -10403
▁혼인 -10404
▁강습 -10405
▁마의 -10406
▁DR -10407
▁GHz -10408
▁브레인 -10409
▁마수 -10410
▁호응 -10411
▁Wii -10412
▁조르 -10413
▁강점기 -10414
▁십자가 -10415
▁카구라 -10416
▁내면 -10417
▁외관 -10418
▁사슬 -10419
▁팝픈 -10420
▁팝픈뮤직 -10421
▁내려갔 -10422
▁따져 -10423
▁청구 -10424
▁끝장 -10425
▁월등 -10426
▁점멸 -10427
▁생겨서 -10428
▁방침 -10429
▁조준경 -10430
메라 -10431
▁무수 -10432
▁타카시 -10433
▁노르웨이 -10434
▁저자 -10435
▁건드 -10436
레이크 -10437
▁유해 -10438
▁경제학 -10439
▁카이토 -10440
교사 -10441
▁요우 -10442
▁편견 -10443
▁가라앉 -10444
▁무슬림 -10445
▁feat -10446
▁신상 -10447
▁구청 -10448
▁마켓 -10449
▁내버려 -10450
▁라던가 -10451
보라 -10452
▁바론 -10453
▁술집 -10454
▁무사시 -10455
▁아메리칸 -10456
▁CN -10457
▁바나나 -10458
▁스토커 -10459
AND -10460
▁심했 -10461
▁낯 -10462
▁부친 -10463
▁고종 -10464
▁교정 -10465
▁나란히 -10466
▁좌익 -10467
▁스네이크 -10468
▁체격 -10469
▁UC -10470
아닌 -10471
▁rd -10472
▁시흥 -10473
▁오리진 -10474
▁직격 -10475
▁평론가 -10476
▁서바이벌 -10477
소총 -10478
▁격퇴 -10479
▁신념 -10480
▁음색 -10481
▁카렌 -10482
▁필두 -10483
ANI -10484
▁전두 -10485
▁평등 -10486
▁개미 -10487
▁반론 -10488
▁..? -10489
▁1969 -10490
▁자작 -10491
▁뚝 -10492
티지 -10493
▁선지 -10494
▁훔치 -10495
▁군요 -10496
▁수컷 -10497
▁파우 -10498
▁토오루 -10499
▁정서 -10500
▁네이션 -10501
▁컨디션 -10502
▁Time -10503
aby -10504
▁중후 -10505
▁화석 -10506
와라 -10507
▁관절 -10508
▁비로 -10509
▁선인 -10510
▁방울 -10511
▁순간이동 -10512
▁질환 -10513
▁드리블 -10514
앙스 -10515
▁모어 -10516
▁투신 -10517
▁로지 -10518
나리 -10519
빨리 -10520
ull -10521
▁가혹 -10522
▁계절 -10523
▁문법 -10524
▁본가 -10525
▁이방 -10526
매니아 -10527
맥스 -10528
▁자부 -10529
gin -10530
▁협동 -10531
▁1971 -10532
총장 -10533
▁와라 -10534
▁풍기 -10535
ical -10536
▁인구수 -10537
▁드라큘라 -10538
▁10000 -10539
레일 -10540
.. -10541
▁궁수 -10542
▁인트 -10543
STER -10544
▁단의 -10545
▁빈번 -10546
▁캔디 -10547
▁퓨처 -10548
▁모스크바 -10549
▁양심 -10550
▁헤드샷 -10551
▁타치바나 -10552
▁}} -10553
▁뜯어 -10554
▁두뇌 -10555
▁최하 -10556
▁푸르 -10557
▁유코 -10558
▁라비 -10559
▁GN -10560
▁동등 -10561
▁엣지 -10562
▁천문 -10563
▁뉘앙스 -10564
▁느껴진다 -10565
▁펭귄 -10566
▁달랐 -10567
▁차가 -10568
▁from -10569
베트 -10570
지도 -10571
▁강아지 -10572
▁알아차 -10573
▁응원가 -10574
▁MHz -10575
▁반란군 -10576
▁관계없이 -10577
소수 -10578
철수 -10579
콥터 -10580
▁늪 -10581
▁테레 -10582
▁마르코 -10583
▁주차장 -10584
▁멸종 -10585
▁타당 -10586
▁부관 -10587
▁테러리스트 -10588
▁징계 -10589
▁뺀 -10590
▁후루 -10591
▁벌어진다 -10592
▁눕 -10593
▁종말 -10594
▁빙결 -10595
▁아카리 -10596
▁덴마크 -10597
스레 -10598
▁틀어 -10599
▁조수 -10600
▁다름아닌 -10601
▁미도리 -10602
▁레기 -10603
▁신병 -10604
▁주공 -10605
▁김주 -10606
▁꼴찌 -10607
▁일본식 -10608
플렉스 -10609
▁센트럴 -10610
▁생태 -10611
▁차분 -10612
▁때로 -10613
▁맞출 -10614
▁상장 -10615
▁고맙 -10616
▁확고 -10617
oul -10618
▁유고 -10619
▁콘스탄 -10620
▁KB -10621
▁성숙 -10622
▁스케줄 -10623
▁발차기 -10624
▁목포 -10625
▁합치 -10626
▁BEM -10627
▁말레이 -10628
▁빠진다 -10629
▁분포 -10630
▁숙소 -10631
공사 -10632
▁웨인 -10633
▁벚 -10634
▁스파이크 -10635
▁에메랄드 -10636
▁미모 -10637
▁수령 -10638
▁내세우 -10639
▁멋있 -10640
▁슬라이드 -10641
▁프로토타입 -10642
▁상어 -10643
▁서명 -10644
▁솜씨 -10645
▁아르카 -10646
바스 -10647
시다 -10648
▁복용 -10649
▁유유 -10650
▁타고 -10651
▁제조사 -10652
▁위키백과 -10653
▁현황 -10654
▁파문 -10655
▁아마존 -10656
▁가져왔 -10657
▁DX -10658
▁낀 -10659
슬리 -10660
▁몹시 -10661
천군 -10662
▁유진 -10663
▁흑마 -10664
레슬링 -10665
▁극우 -10666
▁마친 -10667
▁모함 -10668
▁Gu -10669
▁깔려 -10670
▁혼다 -10671
▁NEW -10672
▁국산 -10673
▁멈춰 -10674
▁하라 -10675
▁폐허 -10676
▁AFC -10677
▁가해자 -10678
▁워낙에 -10679
▁다룰 -10680
▁나사 -10681
▁대쉬 -10682
▁수수료 -10683
▁Gl -10684
▁미숙 -10685
▁수여 -10686
▁ㅡ -10687
▁구제 -10688
▁케로 -10689
▁프롤로그 -10690
재기 -10691
▁노비 -10692
▁미끼 -10693
▁숙주 -10694
▁샤아 -10695
▁맥락 -10696
▁믿음 -10697
▁JTBC -10698
▁프로레슬링 -10699
▁둬 -10700
▁그려져 -10701
▁우투 -10702
▁레오나 -10703
▁HARD -10704
▁샹 -10705
▁근성 -10706
▁영등포 -10707
▁보행 -10708
▁고음 -10709
▁가의 -10710
▁맡겨 -10711
▁리부트 -10712
▁마마 -10713
▁ATK -10714
▁거니 -10715
▁메세지 -10716
▁스바루 -10717
▁난민 -10718
▁네스 -10719
tern -10720
▁Ro -10721
▁고발 -10722
▁로열 -10723
TC -10724
▁관직 -10725
▁유마 -10726
▁new -10727
▁하드웨어 -10728
▁꿇 -10729
▁헬리콥터 -10730
▁궁전 -10731
▁군림 -10732
▁응시 -10733
▁패드 -10734
▁하와 -10735
▁합법 -10736
▁시가 -10737
▁예방 -10738
▁단말 -10739
▁발톱 -10740
▁파손 -10741
▁쟁이 -10742
▁TCG -10743
▁콕 -10744
▁회계 -10745
▁별자리 -10746
▁카테고리 -10747
▁EU -10748
▁매지 -10749
▁분배 -10750
▁기피 -10751
▁에바 -10752
▁간호 -10753
▁섬멸 -10754
리언 -10755
▁실장 -10756
어버리 -10757
▁원했 -10758
▁외래 -10759
▁샤워 -10760
▁체형 -10761
▁단서 -10762
▁파격 -10763
▁모양새 -10764
idth -10765
▁선봉 -10766
▁에그 -10767
▁집합 -10768
▁도시락 -10769
gr -10770
▁우편 -10771
▁동체 -10772
▁로컬 -10773
▁전염 -10774
▁Co -10775
▁그랜 -10776
▁풍경 -10777
▁cl -10778
▁정답 -10779
시스코 -10780
▁연의 -10781
▁유신 -10782
▁피카츄 -10783
▁주워 -10784
▁밧 -10785
▁코지 -10786
교통 -10787
▁오케스트라 -10788
▁이광 -10789
▁유방 -10790
플러스 -10791
지오 -10792
▁기법 -10793
▁생선 -10794
▁수성 -10795
▁지붕 -10796
▁출제 -10797
▁BEMANI -10798
▁러시아어 -10799
레이트 -10800
▁상대식 -10801
▁저기 -10802
▁미스트 -10803
▁사르 -10804
▁원장 -10805
▁꼽힌다 -10806
▁천마 -10807
▁미즈키 -10808
▁브론 -10809
▁유선 -10810
▁유정 -10811
▁중도 -10812
▁연고지 -10813
▁구한 -10814
▁할로윈 -10815
▁기함 -10816
▁직속 -10817
▁제사 -10818
▁격침 -10819
▁소집 -10820
▁Mr -10821
메어 -10822
▁IP -10823
▁넘겼 -10824
▁부류 -10825
▁이세 -10826
▁환수 -10827
app -10828
▁랙 -10829
▁가창 -10830
▁농민 -10831
▁벨라 -10832
▁일삼 -10833
ough -10834
▁Ser -10835
▁경상남도 -10836
13 -10837
▁뒤쪽 -10838
ERO -10839
▁조력 -10840
▁다저스 -10841
▁닥치 -10842
▁제우스 -10843
▁캐스트 -10844
▁하이라이트 -10845
▁스트로 -10846
처럼 -10847
▁UM -10848
▁미사키 -10849
▁장례식 -10850
▁청사 -10851
대교 -10852
▁한층 -10853
글라스 -10854
▁내뿜 -10855
▁IV -10856
▁루루 -10857
▁스쿼 -10858
▁배송 -10859
▁소노 -10860
▁뭔지 -10861
▁오디오 -10862
▁인쇄 -10863
▁CE -10864
▁크라운 -10865
▁댈 -10866
▁대니 -10867
▁성명 -10868
▁액셀 -10869
▁114 -10870
▁걸어가 -10871
eel -10872
▁LE -10873
▁불쾌 -10874
▁후면 -10875
▁박혀 -10876
▁컴백 -10877
▁이인 -10878
▁통수 -10879
▁나이트메어 -10880
현우 -10881
▁Sk -10882
▁개교 -10883
▁캐슬 -10884
▁수시로 -10885
▁쓰러트리 -10886
▁거품 -10887
통수 -10888
▁창립 -10889
▁노래방 -10890
▁파이프 -10891
▁가미 -10892
▁오쿠 -10893
▁가까웠 -10894
▁부사 -10895
▁앞뒤 -10896
▁걸음 -10897
▁박쥐 -10898
▁성비 -10899
▁레바 -10900
▁이에 -10901
▁자각 -10902
▁츠바사 -10903
▁안토니 -10904
▁주의자 -10905
▁부턴 -10906
▁상쇄 -10907
▁키사 -10908
▁can -10909
▁제작비 -10910
▁NT -10911
▁width -10912
▁하이브리 -10913
▁차용 -10914
▁길거리 -10915
▁하이브리드 -10916
퍼니 -10917
▁명곡 -10918
▁히데요시 -10919
▁AF -10920
▁방호 -10921
▁오바 -10922
▁전례 -10923
▁추모 -10924
▁Heart -10925
활약 -10926
▁무선 -10927
▁드로 -10928
▁걸어서 -10929
▁불화 -10930
▁사각 -10931
▁해변 -10932
▁홈즈 -10933
▁츠나 -10934
▁결의 -10935
▁응답 -10936
▁지배자 -10937
드로 -10938
▁난감 -10939
▁오비 -10940
▁치고 -10941
▁버릇 -10942
▁Dark -10943
▁카이사르 -10944
me -10945
▁땀 -10946
▁그제 -10947
▁뒷면 -10948
▁Car -10949
전트 -10950
▁상시 -10951
▁섹시 -10952
▁Sch -10953
▁내밀 -10954
ll -10955
▁페인 -10956
▁말아먹 -10957
▁가브리 -10958
소문 -10959
▁브릿 -10960
▁드러냈 -10961
저것 -10962
▁레이트 -10963
▁이것저것 -10964
▁꾸미 -10965
▁즐겁 -10966
▁낙선 -10967
▁하의 -10968
▁지킬 -10969
▁리프트 -10970
▁넘어간다 -10971
▁하여금 -10972
▁진정한 -10973
▁조항 -10974
▁괴상 -10975
▁뒤지 -10976
지사 -10977
▁거칠 -10978
▁보루 -10979
▁해준다 -10980
▁명명 -10981
▁블랙홀 -10982
▁보고서 -10983
▁가마 -10984
▁손톱 -10985
▁원망 -10986
▁중학생 -10987
▁UFC -10988
▁김두한 -10989
줌마 -10990
▁윈터 -10991
▁패스트 -10992
▁코요 -10993
▁로브 -10994
▁PK -10995
▁깃털 -10996
▁로저 -10997
ye -10998
▁아이작 -10999
▁줄어든다 -11000
▁연회 -11001
▁였음 -11002
▁연세대 -11003
▁습한 -11004
▁악령 -11005
쌔신 -11006
▁벌금 -11007
▁어쌔신 -11008
▁아줌마 -11009
▁교관 -11010
▁내구력 -11011
▁이노우 -11012
▁슈터 -11013
▁원흉 -11014
▁타다 -11015
▁놔두 -11016
ution -11017
▁배워 -11018
▁공존 -11019
츠카 -11020
▁노트북 -11021
▁들러 -11022
▁클라우드 -11023
▁수다 -11024
무게 -11025
▁몸무게 -11026
▁제이슨 -11027
▁콜로니 -11028
▁폴리스 -11029
▁기이 -11030
▁투성이 -11031
▁지성 -11032
▁Em -11033
▁튜닝 -11034
▁천주교 -11035
▁네놈 -11036
▁미호 -11037
▁줄줄 -11038
▁혹평 -11039
▁따른다 -11040
▁더라면 -11041
▁성역 -11042
바시 -11043
▁발탁 -11044
▁십자군 -11045
▁Is -11046
저드 -11047
▁홈경기 -11048
▁배리어 -11049
▁민병 -11050
▁}}} -11051
▁간선 -11052
▁쓰러져 -11053
공화 -11054
▁다툼 -11055
▁가로막 -11056
▁지각 -11057
▁강세 -11058
▁김대중 -11059
자재 -11060
▁뚜껑 -11061
▁심화 -11062
▁커먼 -11063
ee -11064
▁1968 -11065
▁산탄총 -11066
▁일일이 -11067
풀이 -11068
▁아비 -11069
▁강서 -11070
▁BT -11071
▁프로리그 -11072
▁Bat -11073
▁키무라 -11074
▁던졌 -11075
▁뒤통수 -11076
▁아름다 -11077
보그 -11078
▁랏 -11079
▁문신 -11080
▁들린다 -11081
oh -11082
▁포대 -11083
▁전광 -11084
▁마모루 -11085
▁배우자 -11086
▁찾아와 -11087
▁this -11088
▁괴력 -11089
▁교양 -11090
▁깽판 -11091
▁북아 -11092
▁선포 -11093
▁로비 -11094
▁네코 -11095
▁여배우 -11096
▁정해져 -11097
▁비타 -11098
▁자란 -11099
▁동북 -11100
▁면접 -11101
▁시에 -11102
▁적성 -11103
▁발현 -11104
▁상공 -11105
듈럼 -11106
▁플레어 -11107
▁한강 -11108
▁열악 -11109
ings -11110
▁듀크 -11111
▁라프 -11112
▁폭로 -11113
▁강해서 -11114
▁리자 -11115
▁꽁 -11116
▁미들 -11117
▁사범 -11118
▁아이폰 -11119
▁자주포 -11120
▁시궁 -11121
▁자위대 -11122
▁SL -11123
▁센티 -11124
▁대본 -11125
▁주가 -11126
▁캐리어 -11127
▁발렌타인 -11128
▁보였으나 -11129
▁공영 -11130
▁달라졌 -11131
▁바란다 -11132
▁니나 -11133
▁테오 -11134
▁초상화 -11135
▁코타로 -11136
▁행방불명 -11137
▁방화 -11138
▁하우 -11139
▁핸들 -11140
▁달라붙 -11141
▁무림 -11142
▁오시 -11143
reak -11144
▁감성 -11145
▁증발 -11146
▁원한다 -11147
▁컴퍼니 -11148
▁재활 -11149
▁우가 -11150
▁외면 -11151
▁처절 -11152
▁암울 -11153
▁시스터 -11154
▁오프라인 -11155
▁남발 -11156
▁라임 -11157
▁연달 -11158
▁프랑켄 -11159
▁포맷 -11160
▁빅토리아 -11161
▁보잉 -11162
▁펜듈럼 -11163
▁저서 -11164
▁친목 -11165
▁미세 -11166
▁교통사고 -11167
▁전두환 -11168
▁할수록 -11169
▁했어도 -11170
▁코바야시 -11171
▁고토 -11172
▁인데다 -11173
단지 -11174
▁당나라 -11175
▁우두머리 -11176
▁뱉 -11177
▁둥지 -11178
▁유난 -11179
▁실력자 -11180
▁전라남도 -11181
▁잡혔 -11182
▁테루 -11183
▁김일성 -11184
▁TO -11185
▁기합 -11186
▁꿰뚫 -11187
▁타케시 -11188
▁저조 -11189
▁EBS -11190
▁직결 -11191
▁총독 -11192
▁야만 -11193
두사 -11194
▁허브 -11195
▁책임지 -11196
▁들어온다 -11197
▁요리사 -11198
▁맨체스터 -11199
▁Su -11200
▁시코 -11201
▁불려 -11202
▁작인 -11203
▁로맨스 -11204
▁바꿔서 -11205
▁계란 -11206
▁연막 -11207
▁이행 -11208
▁성직자 -11209
▁캡콤 -11210
▁맹활약 -11211
▁침해 -11212
▁오키나와 -11213
▁대외 -11214
▁슬라임 -11215
▁그랑프리 -11216
▁안무 -11217
icro -11218
▁나열 -11219
▁랜턴 -11220
▁회로 -11221
▁도타 -11222
▁따라잡 -11223
▁망한 -11224
▁문고 -11225
ict -11226
▁스텔라 -11227
▁앵커 -11228
▁환사 -11229
니클 -11230
▁~~ -11231
▁느니 -11232
CH -11233
▁개개 -11234
▁넉넉 -11235
노기 -11236
▁자칫 -11237
▁짤방 -11238
▁203 -11239
▁무협 -11240
▁변호 -11241
▁애국 -11242
▁수영복 -11243
▁Light -11244
▁부처 -11245
▁죄수 -11246
▁이치고 -11247
▁합쳐서 -11248
▁찰나 -11249
▁운석 -11250
▁박치기 -11251
▁풀린 -11252
장난 -11253
▁들어와서 -11254
▁개막전 -11255
▁물가 -11256
▁북두 -11257
▁어미 -11258
▁직역 -11259
▁힌트 -11260
▁사이보그 -11261
▁볶 -11262
▁공고 -11263
▁냉전 -11264
▁요시노 -11265
▁요시다 -11266
▁듀스 -11267
바르 -11268
▁대법 -11269
▁레즈 -11270
▁착지 -11271
▁ver -11272
▁야쿠자 -11273
▁샤프 -11274
▁합친 -11275
▁Kore -11276
▁신수 -11277
▁구절 -11278
▁LED -11279
▁사료 -11280
▁단식 -11281
▁코디 -11282
ors -11283
▁제지 -11284
▁Im -11285
▁고속버스 -11286
▁파랑 -11287
▁다스리 -11288
▁담겨 -11289
▁117 -11290
▁GTA -11291
▁그리하여 -11292
▁럴 -11293
셉트 -11294
▁잔해 -11295
▁줄어드 -11296
▁적재 -11297
▁므 -11298
▁쓰일 -11299
무네 -11300
▁주된 -11301
▁수용소 -11302
▁켄이치 -11303
▁빈틈 -11304
▁뉴질 -11305
▁대안 -11306
▁뉴질랜드 -11307
레드 -11308
▁ADV -11309
▁마사키 -11310
▁만행 -11311
mania -11312
▁Sy -11313
▁땅볼 -11314
▁배속 -11315
▁지극히 -11316
세요 -11317
▁괴리 -11318
▁롤링 -11319
▁실바 -11320
▁유타 -11321
▁혼합 -11322
▁127 -11323
▁케이지 -11324
▁따윈 -11325
▁성수 -11326
▁어드밴스 -11327
▁미쳤 -11328
▁도요 -11329
▁번갈 -11330
▁여관 -11331
▁BO -11332
▁이사장 -11333
▁확립 -11334
스트림 -11335
▁기쁨 -11336
▁동족 -11337
▁184 -11338
▁AE -11339
▁영미 -11340
▁비로소 -11341
▁고조 -11342
▁Ev -11343
▁라파 -11344
▁먼지 -11345
▁담임 -11346
▁잘려 -11347
▁좌파 -11348
▁126 -11349
▁추적자 -11350
▁스퀘어 -11351
치아 -11352
▁이성계 -11353
▁장신구 -11354
▁앤디 -11355
일라 -11356
▁서리 -11357
▁셸 -11358
▁어벤져스 -11359
▁군복 -11360
▁공모 -11361
▁금고 -11362
▁온몸 -11363
▁간호사 -11364
민주당 -11365
▁겁니다 -11366
토랑 -11367
▁메모 -11368
▁진로 -11369
▁레스토랑 -11370
▁전해진다 -11371
▁아이스크림 -11372
▁pro -11373
▁고든 -11374
▁속이 -11375
ACK -11376
▁수확 -11377
▁호쿠 -11378
▁드레드 -11379
오스 -11380
▁관해서 -11381
▁타나카 -11382
▁신이치 -11383
▁저렇게 -11384
▁감기 -11385
▁우상 -11386
모어 -11387
▁유무 -11388
▁특훈 -11389
▁김윤 -11390
▁여도 -11391
▁자격증 -11392
▁사쿠라이 -11393
▁병종 -11394
더슨 -11395
▁야마구치 -11396
주의자 -11397
▁정체불명 -11398
▁블라디 -11399
▁속력 -11400
디스 -11401
▁해역 -11402
▁라지만 -11403
▁하반기 -11404
▁불평 -11405
▁플래닛 -11406
▁실루 -11407
▁자회사 -11408
14 -11409
▁라나 -11410
▁크리스토 -11411
▁니카 -11412
▁가나 -11413
▁유토 -11414
▁팩션 -11415
▁중전차 -11416
▁무진 -11417
ics -11418
▁묘한 -11419
▁사스케 -11420
▁시부 -11421
▁테르 -11422
야샤 -11423
▁이누야샤 -11424
▁실정 -11425
▁설탕 -11426
▁설화 -11427
▁max -11428
▁가브리엘 -11429
▁ar -11430
▁DNA -11431
▁광전사 -11432
▁통보 -11433
▁퓨리 -11434
▁휴게소 -11435
무기 -11436
▁실업 -11437
▁중앙선 -11438
▁과감 -11439
▁헤어지 -11440
▁심상 -11441
▁183 -11442
▁will -11443
▁화소 -11444
▁기괴 -11445
▁이준 -11446
▁중재 -11447
▁무겁 -11448
▁인어 -11449
▁공손 -11450
▁지주 -11451
▁호프 -11452
▁대대로 -11453
▁트레이닝 -11454
▁버터 -11455
▁책상 -11456
▁일수록 -11457
▁알려준다 -11458
▁텀 -11459
▁당국 -11460
▁GPU -11461
니카 -11462
▁김연 -11463
▁베일 -11464
▁퍼부 -11465
▁엄폐 -11466
▁178 -11467
▁미수 -11468
▁스쿼드 -11469
▁못지않 -11470
▁동년 -11471
▁스크래 -11472
요환 -11473
▁연말 -11474
▁아이유 -11475
▁상용 -11476
▁리바 -11477
▁명작 -11478
▁영화판 -11479
▁올바른 -11480
▁급기 -11481
내리 -11482
▁아몬 -11483
▁1967 -11484
휴일 -11485
▁As -11486
▁내셔널 -11487
▁순찰 -11488
▁리쿠 -11489
▁성기 -11490
▁클레이 -11491
▁걸까 -11492
▁시가지 -11493
▁오덕 -11494
코어 -11495
▁슈가 -11496
▁농락 -11497
▁샤를 -11498
▁접점 -11499
▁섀도 -11500
▁프린스 -11501
산동 -11502
▁비꼬 -11503
▁여수 -11504
▁뒀 -11505
소년 -11506
▁루터 -11507
▁붙였 -11508
▁사교 -11509
▁사망자 -11510
르도 -11511
▁HG -11512
▁운반 -11513
▁태조 -11514
▁물리학 -11515
▁창세기 -11516
▁데스티니 -11517
▁나고 -11518
▁샤크 -11519
▁쾌속 -11520
▁임요환 -11521
af -11522
▁단속 -11523
▁마비노기 -11524
▁사모 -11525
▁후타 -11526
▁였으니 -11527
▁Let -11528
▁로코 -11529
▁마장 -11530
ex -11531
▁기보 -11532
▁무궁화 -11533
▁세미 -11534
▁벌인다 -11535
▁농사 -11536
▁토트 -11537
▁무명 -11538
▁호스 -11539
▁포트리스 -11540
▁넵 -11541
▁골목 -11542
▁베이더 -11543
▁WH -11544
▁수량 -11545
▁치루 -11546
▁예비군 -11547
ammer -11548
즈마 -11549
▁Of -11550
▁us -11551
▁더욱이 -11552
퇴근 -11553
▁대중교통 -11554
마치 -11555
▁오의 -11556
▁커졌 -11557
▁가르침 -11558
▁내정 -11559
▁황실 -11560
▁하시 -11561
▁코이치 -11562
▁바티 -11563
요이 -11564
▁진수 -11565
▁Red -11566
트랙 -11567
▁제프 -11568
▁호로 -11569
봐도 -11570
▁게임기 -11571
▁Your -11572
▁아깝 -11573
▁자니 -11574
▁걸친 -11575
▁매스 -11576
▁182 -11577
▁괴담 -11578
▁총선거 -11579
▁신주쿠 -11580
▁출루율 -11581
▁자판 -11582
▁사이퍼 -11583
▁농협 -11584
▁오세 -11585
IGH -11586
▁부평 -11587
커녕 -11588
▁시엘 -11589
▁행하 -11590
▁브라더 -11591
▁냉기 -11592
▁그릴 -11593
▁단과 -11594
▁카우 -11595
아슬 -11596
▁아슬아슬 -11597
▁부려 -11598
▁좋아한다 -11599
▁MX -11600
▁우체 -11601
▁레시피 -11602
▁인터페이스 -11603
▁법무 -11604
▁키즈 -11605
러지 -11606
▁페이트 -11607
▁하비 -11608
거진 -11609
▁습관 -11610
▁계열사 -11611
▁박종 -11612
▁지낸 -11613
르바 -11614
▁타국 -11615
▁168 -11616
▁고속도 -11617
▁세세 -11618
▁열등 -11619
▁출중 -11620
▁스크래치 -11621
▁사출 -11622
▁시궁창 -11623
▁Rock -11624
규모 -11625
▁FW -11626
▁혹사 -11627
▁른 -11628
쿠로 -11629
▁제스 -11630
▁주고 -11631
▁타니 -11632
▁찰리 -11633
▁1963 -11634
▁..! -11635
애나 -11636
▁신대 -11637
▁신임 -11638
▁전임 -11639
▁후일담 -11640
▁LIVE -11641
ica -11642
▁커트 -11643
▁유난히 -11644
▁Tw -11645
▁셋째 -11646
▁플루 -11647
che -11648
테이 -11649
▁부흥 -11650
other -11651
▁밈 -11652
▁리턴 -11653
▁성형 -11654
▁페가 -11655
▁통행 -11656
▁한도 -11657
고래 -11658
▁공휴일 -11659
ody -11660
▁진리 -11661
▁피드 -11662
▁유니온 -11663
▁고성 -11664
▁이뤄지 -11665
▁서해 -11666
▁낡 -11667
▁알렸 -11668
▁비운 -11669
▁관동 -11670
▁그립 -11671
▁브랜 -11672
▁달콤 -11673
▁코프 -11674
▁애쉬 -11675
▁330 -11676
▁수식 -11677
▁염색 -11678
보내 -11679
▁해적단 -11680
▁졸개 -11681
▁통증 -11682
▁용의자 -11683
▁놀란 -11684
▁이질 -11685
▁본디 -11686
▁나뭇 -11687
▁시련 -11688
LS -11689
▁징징 -11690
▁키바 -11691
▁이노우에 -11692
변이 -11693
▁막부 -11694
▁클레어 -11695
▁하야토 -11696
▁돌연변이 -11697
▁핸드폰 -11698
▁향한다 -11699
▁추출 -11700
▁Don -11701
▁경찰청 -11702
▁날라 -11703
▁오인 -11704
▁키트 -11705
▁선수단 -11706
▁통신사 -11707
▁카노 -11708
16 -11709
▁이명박 -11710
▁듀티 -11711
▁복싱 -11712
▁코다 -11713
▁클러 -11714
▁조폭 -11715
▁륙 -11716
▁탄탄 -11717
▁파수 -11718
▁Min -11719
▁멀쩡히 -11720
▁하세 -11721
현진 -11722
▁러너 -11723
▁지요 -11724
▁불로 -11725
▁정립 -11726
▁분장 -11727
▁앞세 -11728
▁학점 -11729
oth -11730
▁Sun -11731
▁감행 -11732
▁공습 -11733
▁관해 -11734
▁모범 -11735
▁미하 -11736
▁카오리 -11737
▁거뒀 -11738
▁단테 -11739
▁아즈사 -11740
▁소설가 -11741
▁블래 -11742
▁자질 -11743
▁군기 -11744
▁치사 -11745
상가상 -11746
▁설상가상 -11747
자동 -11748
▁고릴라 -11749
▁정교회 -11750
▁라바 -11751
▁푹 -11752
▁스캔들 -11753
ins -11754
▁그려지 -11755
▁독립운동 -11756
▁결사 -11757
▁have -11758
정역 -11759
▁MK -11760
▁야심 -11761
▁외우 -11762
▁방안 -11763
▁쿠루 -11764
▁접근성 -11765
▁2500 -11766
더기 -11767
▁단정 -11768
▁애당초 -11769
▁장편 -11770
▁고폭탄 -11771
▁휘말려 -11772
▁누워 -11773
▁취한 -11774
▁코나미 -11775
▁근력 -11776
투표 -11777
▁재빨리 -11778
▁가급 -11779
▁준하 -11780
▁클라이 -11781
▁구타 -11782
▁카무이 -11783
▁좌석버스 -11784
▁함포 -11785
▁극소수 -11786
미르 -11787
▁든가 -11788
▁진구 -11789
▁필터 -11790
▁브라우 -11791
▁퐁 -11792
▁제대 -11793
▁춤추 -11794
▁SCP -11795
▁도호 -11796
▁부드러운 -11797
▁출연진 -11798
▁대국 -11799
▁처한 -11800
레인저 -11801
▁탐구 -11802
▁정명 -11803
▁TOP -11804
▁매너 -11805
▁동탁 -11806
▁형편없 -11807
▁쏟아지 -11808
티콘 -11809
▁OB -11810
▁제다이 -11811
▁연예계 -11812
▁162 -11813
스틴 -11814
▁놨다 -11815
▁임관 -11816
▁진도 -11817
▁한발 -11818
▁자유자재 -11819
▁인맥 -11820
▁뜰 -11821
▁리전 -11822
▁살상 -11823
프라 -11824
▁야시 -11825
▁호출 -11826
▁애프 -11827
▁UF -11828
▁넘어간 -11829
▁라거나 -11830
▁다던가 -11831
▁뽐 -11832
▁악한 -11833
▁월급 -11834
▁전속 -11835
기어 -11836
▁옮겼 -11837
▁치아 -11838
▁승려 -11839
▁어선 -11840
▁통용 -11841
▁BAS -11842
▁Rev -11843
▁미성년 -11844
▁미티 -11845
▁셰프 -11846
▁대명사 -11847
▁브이 -11848
▁석상 -11849
▁패기 -11850
▁미스터리 -11851
▁박탈 -11852
▁소매 -11853
▁악곡 -11854
▁태자 -11855
▁세일 -11856
▁하타 -11857
▁트렌 -11858
▁겐지 -11859
▁벌여 -11860
▁샤오 -11861
평가 -11862
▁건다 -11863
▁장학 -11864
▁멀리서 -11865
▁누명 -11866
▁판사 -11867
▁마이어 -11868
▁에로게 -11869
▁예요 -11870
▁성폭 -11871
▁후려 -11872
▁애시 -11873
▁연발 -11874
▁호박 -11875
▁1944 -11876
▁증권 -11877
agon -11878
▁158 -11879
▁트로이 -11880
▁장병 -11881
케인 -11882
▁실루엣 -11883
재판 -11884
▁딱딱 -11885
린다고 -11886
카즈 -11887
▁묻혔 -11888
▁삼촌 -11889
▁어인 -11890
▁헌데 -11891
▁Per -11892
▁열세 -11893
▁데려오 -11894
▁닉스 -11895
▁연방군 -11896
▁교내 -11897
▁움직여 -11898
▁루키 -11899
▁Sum -11900
▁STER -11901
▁부도 -11902
▁파벌 -11903
▁월요일 -11904
GB -11905
▁박찬 -11906
▁수강 -11907
▁카가미 -11908
▁프로모 -11909
▁이례 -11910
▁출퇴근 -11911
▁후문 -11912
▁후예 -11913
▁이라든가 -11914
▁떠서 -11915
17 -11916
▁책정 -11917
▁토이 -11918
▁격전 -11919
▁바닐라 -11920
▁사우루스 -11921
▁노기 -11922
▁둔다 -11923
▁반군 -11924
▁사에 -11925
▁서킷 -11926
▁시몬 -11927
▁비즈 -11928
▁신흥 -11929
▁일절 -11930
▁TEC -11931
▁하지메 -11932
▁세탁 -11933
▁Gen -11934
▁am -11935
▁태종 -11936
▁바주 -11937
▁선우 -11938
▁특촬 -11939
▁동래 -11940
나갔 -11941
토시 -11942
▁게임즈 -11943
▁샴 -11944
▁벡터 -11945
▁볼텍스 -11946
▁Sl -11947
▁마이트 -11948
▁숏 -11949
티노 -11950
ECT -11951
▁충남 -11952
▁beatmania -11953
▁우파 -11954
▁경연 -11955
▁찾아왔 -11956
▁디렉터 -11957
▁라드 -11958
ater -11959
▁전열 -11960
▁대군 -11961
▁one -11962
▁레지스 -11963
▁1966 -11964
패스 -11965
▁유대인 -11966
▁전과 -11967
▁소규모 -11968
▁가토 -11969
▁전세 -11970
▁하워드 -11971
▁버려진 -11972
▁발칸 -11973
▁복음 -11974
▁이치로 -11975
▁깠 -11976
▁홍성 -11977
▁독수리 -11978
▁붙여서 -11979
▁뢰 -11980
▁DO -11981
▁OK -11982
▁내릴 -11983
▁단골 -11984
▁고어 -11985
▁동봉 -11986
▁자처 -11987
▁한몫 -11988
▁갈리아 -11989
▁구마 -11990
▁태극 -11991
▁당주 -11992
▁세스 -11993
▁되돌리 -11994
▁배기 -11995
두리 -11996
▁성벽 -11997
▁커비 -11998
▁분기점 -11999
▁재고 -12000
▁소사 -12001
▁레이터 -12002
▁징크스 -12003
▁신정 -12004
▁입양 -12005
▁사사키 -12006
▁리엘 -12007
▁돌보 -12008
▁절규 -12009
▁얼터 -12010
ium -12011
▁필연 -12012
▁도쿠가와 -12013
클린 -12014
▁입국 -12015
▁보여서 -12016
▁음주 -12017
심장 -12018
기사 -12019
▁자카 -12020
그룹 -12021
▁벚꽃 -12022
▁love -12023
들여 -12024
▁발악 -12025
테리 -12026
▁질량 -12027
▁토네 -12028
▁132 -12029
▁대공포 -12030
▁출근 -12031
▁카를로스 -12032
▁쑤 -12033
ions -12034
DS -12035
▁동조 -12036
▁빅뱅 -12037
▁공성전 -12038
▁패미컴 -12039
▁영동 -12040
▁그리스도 -12041
▁탄소 -12042
▁리티 -12043
▁승급 -12044
▁건재 -12045
▁얼핏 -12046
▁뽑아 -12047
▁로저스 -12048
▁LOVE -12049
▁셉 -12050
▁청와 -12051
▁기온 -12052
▁반항 -12053
▁집회 -12054
▁돋보이 -12055
▁하카 -12056
니즘 -12057
▁냉각 -12058
▁정한 -12059
▁뽕 -12060
▁매운 -12061
▁159 -12062
▁모른다고 -12063
▁본성 -12064
▁서대 -12065
▁서민 -12066
▁카린 -12067
▁최정 -12068
UR -12069
▁와이어 -12070
▁히카리 -12071
▁DT -12072
▁구단주 -12073
▁반다이 -12074
▁아폴로 -12075
기지 -12076
▁동문 -12077
▁휩싸 -12078
▁사용자 -12079
▁술법 -12080
▁오너 -12081
바다 -12082
▁PL -12083
▁말장난 -12084
▁경보 -12085
▁아래쪽 -12086
▁데우스 -12087
▁동갑 -12088
▁공방전 -12089
▁배율 -12090
▁천둥 -12091
▁우물 -12092
▁133 -12093
▁넘어지 -12094
▁퇴사 -12095
▁러닝 -12096
▁조직원 -12097
▁싣 -12098
▁의아 -12099
▁태미 -12100
▁김택 -12101
ould -12102
▁게릴라 -12103
▁시그마 -12104
port -12105
▁한지라 -12106
파크 -12107
▁미로 -12108
▁번식 -12109
▁악어 -12110
▁124 -12111
▁가변 -12112
▁리에 -12113
▁High -12114
▁짚 -12115
▁방송인 -12116
▁얕 -12117
▁분쇄 -12118
▁액세서리 -12119
▁이루어진다 -12120
▁사당 -12121
▁줘도 -12122
▁직구 -12123
▁따돌 -12124
▁IDOL -12125
▁블레이즈 -12126
▁구급 -12127
▁제식 -12128
▁Oh -12129
미즈 -12130
ange -12131
▁바주카 -12132
▁학급 -12133
▁허공 -12134
어찌 -12135
▁퇴출 -12136
▁픽셀 -12137
▁스칼렛 -12138
▁EXT -12139
▁보살 -12140
어붙 -12141
▁HK -12142
▁비장 -12143
▁마운트 -12144
▁시즈카 -12145
프란 -12146
▁FX -12147
▁마이너스 -12148
▁노릴 -12149
▁상가 -12150
▁악랄 -12151
봐야 -12152
▁동요 -12153
▁경질 -12154
▁자손 -12155
▁슈퍼스타 -12156
▁베가 -12157
ott -12158
▁광대 -12159
▁묻히 -12160
▁인천광역시 -12161
▁결함 -12162
▁추궁 -12163
▁흑화 -12164
▁악용 -12165
▁무죄 -12166
▁밀집 -12167
▁박영 -12168
▁배상 -12169
▁모닝 -12170
▁MLB -12171
▁사다 -12172
▁미끄러 -12173
▁마크로스 -12174
▁웃긴 -12175
▁최대치 -12176
▁프로그래밍 -12177
▁어찌어찌 -12178
▁크로니클 -12179
▁볼륨 -12180
▁세레 -12181
▁파이브 -12182
les -12183
▁감히 -12184
▁1940 -12185
▁주술사 -12186
▁한탄 -12187
▁조인 -12188
▁허세 -12189
▁간다는 -12190
▁뷔 -12191
니스트 -12192
▁Par -12193
▁1962 -12194
▁쪼개 -12195
▁280 -12196
▁뛴 -12197
▁힐링 -12198
지부 -12199
▁체질 -12200
▁EM -12201
▁반말 -12202
▁생겨났 -12203
▁복도 -12204
▁연비 -12205
▁운운 -12206
▁관념 -12207
▁구두 -12208
파리 -12209
▁기소 -12210
▁차선 -12211
▁데카 -12212
▁쌓여 -12213
▁넘어서 -12214
▁퍼센트 -12215
▁드루이드 -12216
▁필라 -12217
▁BW -12218
▁흡연 -12219
▁156 -12220
▁현상금 -12221
▁계좌 -12222
▁뛰쳐 -12223
ator -12224
▁지그 -12225
▁쑥 -12226
노미야 -12227
▁제시카 -12228
▁심슨 -12229
IE -12230
▁학번 -12231
▁이승만 -12232
▁코카 -12233
▁토로 -12234
▁함재기 -12235
란트 -12236
댓말 -12237
▁광복 -12238
▁무안 -12239
▁존댓말 -12240
▁깁 -12241
▁총열 -12242
▁청와대 -12243
▁인기투표 -12244
▁일렉트로 -12245
▁일지도 -12246
▁질러 -12247
▁Arm -12248
▁달라진 -12249
▁광탈 -12250
▁남작 -12251
▁포워드 -12252
▁El -12253
어질 -12254
▁br -12255
▁가성 -12256
▁광속 -12257
▁Master -12258
▁Ang -12259
▁원호 -12260
▁가두 -12261
▁런닝 -12262
▁접전 -12263
▁여고생 -12264
▁was -12265
▁실습 -12266
▁동로 -12267
▁나츠미 -12268
▁전편 -12269
▁배열 -12270
▁경쟁자 -12271
▁돌려주 -12272
▁생겨나 -12273
▁아이언맨 -12274
▁성서 -12275
▁기술자 -12276
▁GG -12277
▁심문 -12278
▁실황 -12279
▁정재 -12280
▁230 -12281
즈카 -12282
▁대패 -12283
▁체스 -12284
▁키가 -12285
▁허구 -12286
▁메테오 -12287
꿈치 -12288
▁시간표 -12289
▁다이노스 -12290
러운 -12291
▁RP -12292
▁취지 -12293
인간 -12294
▁기라 -12295
▁이용해 -12296
▁금색 -12297
▁카도 -12298
▁118 -12299
징어 -12300
▁바우 -12301
▁나온다는 -12302
UT -12303
널드 -12304
▁라든지 -12305
▁페미니 -12306
▁터미네이터 -12307
▁으리라 -12308
18 -12309
▁밀려나 -12310
▁텅 -12311
▁넘긴 -12312
▁열풍 -12313
▁일으킬 -12314
▁불신 -12315
▁펠리 -12316
▁두르 -12317
▁똑똑 -12318
▁어그 -12319
▁웨어 -12320
▁노이즈 -12321
▁콜드 -12322
▁화자 -12323
▁치명상 -12324
▁팔라딘 -12325
나드 -12326
▁까닭 -12327
▁시집 -12328
▁헷갈리 -12329
▁밋 -12330
▁훅 -12331
서야 -12332
▁카탈 -12333
▁제정신 -12334
립트 -12335
▁어느새 -12336
▁장타율 -12337
▁전반기 -12338
▁수험 -12339
▁점사 -12340
▁ARM -12341
▁네이트 -12342
▁성도 -12343
▁억지 -12344
▁소실 -12345
▁자드 -12346
▁138 -12347
▁급기야 -12348
▁공로 -12349
▁퓨어 -12350
날드 -12351
ICE -12352
▁급히 -12353
▁군사력 -12354
▁지어 -12355
크리 -12356
▁섬기 -12357
▁탄도 -12358
프레스 -12359
▁계시 -12360
▁부드 -12361
▁다른데 -12362
▁차후 -12363
▁선대 -12364
▁장안 -12365
▁탯이 -12366
▁1930 -12367
▁비시 -12368
▁호전 -12369
▁시저 -12370
▁강수 -12371
▁게시물 -12372
▁콘셉트 -12373
▁알렉산더 -12374
▁리조 -12375
▁드라군 -12376
▁문어 -12377
▁위화 -12378
▁스매시 -12379
▁얼어붙 -12380
▁회오리 -12381
▁당첨 -12382
19 -12383
▁소시 -12384
▁하렘 -12385
▁학술 -12386
▁해독 -12387
▁악세 -12388
▁안면 -12389
▁자랐 -12390
▁말레이시아 -12391
▁돌이 -12392
▁이진 -12393
▁부드럽 -12394
▁안다 -12395
▁원활 -12396
▁히노 -12397
▁마에다 -12398
▁수상자 -12399
▁모른 -12400
▁콜롬 -12401
▁말미 -12402
▁스콧 -12403
▁호노 -12404
▁반대편 -12405
▁흘러가 -12406
조합 -12407
▁Sec -12408
▁가져갔 -12409
▁토마토 -12410
▁불어 -12411
▁운항 -12412
▁경성 -12413
▁셜록 -12414
▁망가지 -12415
▁균열 -12416
▁소동 -12417
▁가뜩 -12418
▁국당 -12419
▁수준급 -12420
▁스타팅 -12421
▁염려 -12422
▁서울역 -12423
▁cc -12424
▁봐선 -12425
▁일쑤 -12426
▁영남 -12427
▁조운 -12428
▁초래 -12429
▁148 -12430
밀리아 -12431
▁지휘자 -12432
▁효과음 -12433
▁메소 -12434
▁개개인 -12435
▁빌보드 -12436
엘라 -12437
▁줄리 -12438
▁분홍색 -12439
▁Fire -12440
▁고산 -12441
▁대출 -12442
▁스플래시 -12443
▁교시 -12444
▁로망 -12445
▁상권 -12446
▁성모 -12447
▁제르 -12448
▁이를 -12449
▁넥서스 -12450
▁이아 -12451
lect -12452
르기 -12453
▁머릿 -12454
▁반기 -12455
▁안산 -12456
▁원고 -12457
베리아 -12458
▁랩터 -12459
▁550 -12460
▁가뜩이나 -12461
▁루마니아 -12462
alk -12463
▁가명 -12464
▁제멋 -12465
▁악의 -12466
▁일보 -12467
▁축적 -12468
▁시중 -12469
▁경유지 -12470
▁지상파 -12471
▁제라 -12472
리우스 -12473
▁병단 -12474
▁보증 -12475
니스탄 -12476
▁제단 -12477
▁호르 -12478
▁간략 -12479
▁갈린다 -12480
▁고추 -12481
▁로그인 -12482
▁김선 -12483
칼리 -12484
▁풍자 -12485
▁넥슨 -12486
▁바이올린 -12487
▁CA -12488
▁국력 -12489
▁왠만 -12490
▁그놈 -12491
▁메가트론 -12492
▁씁 -12493
▁김원 -12494
▁양보 -12495
▁이마트 -12496
▁북구 -12497
▁FB -12498
언정 -12499
▁궁지 -12500
▁스피커 -12501
▁껄 -12502
테스 -12503
일으 -12504
▁불러일으 -12505
마침 -12506
▁흘러나 -12507
olution -12508
▁레프 -12509
▁007 -12510
▁하츠네 -12511
▁왕관 -12512
▁대표작 -12513
▁테이크 -12514
▁외래어 -12515
▁채취 -12516
▁레이첼 -12517
▁팔찌 -12518
스트로 -12519
젤레스 -12520
▁모친 -12521
▁백합 -12522
▁열받 -12523
▁칠레 -12524
ty -12525
▁급식 -12526
▁부호 -12527
▁체이 -12528
▁뒤틀 -12529
▁최면 -12530
land -12531
▁대마 -12532
▁때마침 -12533
▁도피 -12534
▁프로세서 -12535
▁"" -12536
▁pr -12537
▁저리 -12538
▁이시다 -12539
▁후한 -12540
▁270 -12541
수스 -12542
▁창시 -12543
▁파파 -12544
▁안드로메다 -12545
▁고선 -12546
▁그걸로 -12547
▁발광 -12548
▁가축 -12549
▁나나미 -12550
▁디펜스 -12551
▁쏟아져 -12552
▁kr -12553
▁일련 -12554
▁아야카 -12555
▁정류소 -12556
▁스피리 -12557
▁주어진 -12558
▁에이전트 -12559
▁바비 -12560
▁전폭 -12561
▁주황색 -12562
▁나고야 -12563
▁1964 -12564
▁숀 -12565
▁투하 -12566
▁경과 -12567
▁무작정 -12568
▁대용 -12569
▁가급적 -12570
▁발라드 -12571
▁style -12572
▁양국 -12573
▁회고 -12574
▁뮬 -12575
▁가넷 -12576
▁피처 -12577
▁172 -12578
▁도리어 -12579
▁차가운 -12580
축구 -12581
ony -12582
▁안드레 -12583
▁떄 -12584
▁금호 -12585
▁커터 -12586
▁퍼붓 -12587
▁다단 -12588
▁안성 -12589
▁딸기 -12590
놀이 -12591
▁유한 -12592
▁할리우드 -12593
▁유나 -12594
▁정정 -12595
▁에리카 -12596
방향 -12597
▁덩크 -12598
▁리브 -12599
▁서초 -12600
▁프리즘 -12601
▁피에 -12602
▁우크라 -12603
▁진행자 -12604
▁sm -12605
▁편대 -12606
▁포효 -12607
▁조력자 -12608
▁카지노 -12609
▁회화 -12610
▁달래 -12611
테이너 -12612
▁노숙 -12613
▁예언자 -12614
▁오징어 -12615
▁브릿지 -12616
홍철 -12617
▁Li -12618
천역 -12619
▁so -12620
▁다뤄 -12621
▁병맛 -12622
▁임원 -12623
▁해운대 -12624
▁터진다 -12625
이프 -12626
차례 -12627
▁설비 -12628
▁제원 -12629
▁호투 -12630
▁쩔 -12631
▁정확도 -12632
▁키리토 -12633
▁자잘 -12634
▁체가 -12635
▁테일러 -12636
▁컨트롤러 -12637
▁군함 -12638
▁시력 -12639
▁우천 -12640
▁우산 -12641
▁주범 -12642
▁항아리 -12643
▁예지 -12644
▁총격 -12645
▁메스 -12646
▁패했 -12647
▁스탠다드 -12648
▁보리 -12649
▁메탈기어 -12650
pr -12651
생긴 -12652
▁코파 -12653
▁프로모션 -12654
▁바하 -12655
▁주고받 -12656
▁열람 -12657
▁은혜 -12658
▁스타크 -12659
▁Pv -12660
▁야외 -12661
▁열전 -12662
▁지기 -12663
▁BRV -12664
▁천공 -12665
▁살아나 -12666
지르 -12667
▁로딩 -12668
▁튜너 -12669
▁개드립 -12670
▁마츠모토 -12671
▁천적 -12672
▁초교 -12673
BM -12674
행위 -12675
▁와우 -12676
▁Rem -12677
▁열린다 -12678
▁1965 -12679
▁이나즈마 -12680
▁체크카드 -12681
왜란 -12682
▁아테네 -12683
클럽 -12684
메스 -12685
▁지표 -12686
▁로제 -12687
▁증세 -12688
▁목적지 -12689
▁Blue -12690
▁바그 -12691
▁카디 -12692
게임넷 -12693
▁블래스트 -12694
▁온게임넷 -12695
▁프런트 -12696
▁건전 -12697
▁153 -12698
▁Dis -12699
▁임진왜란 -12700
ert -12701
▁뇌물 -12702
▁밀렸 -12703
▁틀림 -12704
▁초코 -12705
▁프론트 -12706
▁쇠퇴 -12707
▁풀렸 -12708
▁샤이닝 -12709
포드 -12710
비우스 -12711
▁마도사 -12712
▁저격총 -12713
▁Power -12714
▁마쳤 -12715
▁맞대 -12716
▁주파수 -12717
▁발간 -12718
▁벌리 -12719
▁해서인지 -12720
이센 -12721
▁떠날 -12722
▁무제한 -12723
▁스위트 -12724
▁양키스 -12725
▁나기사 -12726
▁불리우 -12727
▁하드코어 -12728
▁라시 -12729
▁Fi -12730
▁XY -12731
▁대주 -12732
▁177 -12733
▁히로유키 -12734
▁FL -12735
▁주거 -12736
▁집정 -12737
▁솔리드 -12738
▁발상 -12739
▁쓸데없 -12740
▁오버로드 -12741
▁라구 -12742
▁밀어주 -12743
▁Good -12744
▁바사 -12745
▁복면 -12746
▁진에 -12747
▁생물학 -12748
▁댔 -12749
▁갈래 -12750
▁Champ -12751
▁개연 -12752
느니 -12753
▁영진 -12754
▁로워 -12755
▁창업 -12756
▁도청 -12757
▁두근 -12758
▁자취 -12759
▁공과 -12760
▁기총 -12761
▁바니 -12762
▁증기 -12763
▁슬리 -12764
▁부대원 -12765
▁na -12766
▁바뀔 -12767
▁달렸 -12768
라이나 -12769
▁덥 -12770
▁소극 -12771
▁제휴 -12772
▁체리 -12773
▁넵튠 -12774
▁빼돌 -12775
▁상속 -12776
▁여권 -12777
▁용감 -12778
관총 -12779
▁야당 -12780
▁얀데레 -12781
▁천계 -12782
▁리마 -12783
▁여의도 -12784
▁귀도 -12785
▁방황 -12786
▁끼어들 -12787
▁동창 -12788
▁사슴 -12789
▁소행 -12790
▁수작 -12791
▁ALL -12792
▁우체국 -12793
▁휴일 -12794
▁우루과이 -12795
▁달아 -12796
▁민원 -12797
▁쏠쏠 -12798
▁사용법 -12799
▁경매 -12800
▁눈빛 -12801
▁탄핵 -12802
부대 -12803
▁SO -12804
다닌다 -12805
▁종사 -12806
▁교향곡 -12807
▁던진다 -12808
▁완전체 -12809
▁휘둘러 -12810
▁기미 -12811
▁르네 -12812
▁도망쳐 -12813
▁막아 -12814
▁나진 -12815
▁산악 -12816
같이 -12817
▁EMP -12818
▁그리드 -12819
▁충청남도 -12820
▁쌈 -12821
▁서장 -12822
▁타쿠미 -12823
▁프리스트 -12824
석민 -12825
▁생산량 -12826
▁적시타 -12827
▁기성 -12828
▁맥도 -12829
▁서드 -12830
OID -12831
▁상표 -12832
▁BA -12833
▁강유 -12834
라이즈 -12835
▁병살 -12836
▁적진 -12837
무장 -12838
랍니다 -12839
▁STR -12840
▁입체 -12841
▁친정 -12842
▁글러브 -12843
▁출석 -12844
▁ME -12845
▁양측 -12846
▁원제 -12847
▁두려워하 -12848
마당 -12849
▁열기 -12850
▁방정 -12851
▁지망 -12852
▁Sm -12853
▁코이 -12854
▁레이나 -12855
▁보인다는 -12856
▁적색 -12857
▁어리석 -12858
▁러셀 -12859
▁미시 -12860
▁재직 -12861
▁해수 -12862
tr -12863
▁%. -12864
▁박경 -12865
▁초사 -12866
▁스파르타 -12867
킵니다 -12868
토리얼 -12869
▁GDP -12870
▁mar -12871
▁슬로우 -12872
▁후유증 -12873
▁묶여 -12874
▁방벽 -12875
▁카타르 -12876
▁리트 -12877
▁바이스 -12878
▁북유럽 -12879
▁단백 -12880
▁엑소 -12881
▁간다고 -12882
▁갭 -12883
▁캐서 -12884
▁학계 -12885
▁튜토리얼 -12886
토르 -12887
▁아의 -12888
▁프론티어 -12889
▁횡단 -12890
▁공동체 -12891
▁정벌 -12892
▁260 -12893
▁심심찮 -12894
▁Play -12895
ART -12896
▁박재 -12897
▁유목 -12898
▁폴더 -12899
▁호기심 -12900
▁다이어트 -12901
▁쫓기 -12902
▁포식 -12903
▁나왔으며 -12904
히사 -12905
▁미정 -12906
▁경량 -12907
▁털어놓 -12908
▁샌프란 -12909
▁접어들 -12910
▁카스미 -12911
▁샌프란시스코 -12912
▁팀장 -12913
숨에 -12914
▁단숨에 -12915
▁작살 -12916
▁코시 -12917
▁괄 -12918
▁놀림 -12919
▁미츠루 -12920
▁입힐 -12921
▁첨단 -12922
▁독재자 -12923
▁밀란 -12924
▁서독 -12925
▁지문 -12926
버릇 -12927
▁페더 -12928
▁프리즈 -12929
▁매수 -12930
▁크루즈 -12931
▁청량 -12932
▁??? -12933
▁당당히 -12934
▁동지 -12935
▁바랍니다 -12936
▁감전 -12937
▁금화 -12938
▁부당 -12939
▁소심 -12940
▁연금술 -12941
▁이야말로 -12942
▁내수 -12943
▁마더 -12944
▁적발 -12945
▁취직 -12946
▁650 -12947
▁지났 -12948
▁초토 -12949
▁나데 -12950
▁레몬 -12951
장이 -12952
▁송출 -12953
▁다이나 -12954
▁세르비아 -12955
▁돌격소총 -12956
▁토네이도 -12957
▁속옷 -12958
▁원천 -12959
의사 -12960
▁라자 -12961
▁지령 -12962
▁실명 -12963
▁광신 -12964
▁송도 -12965
▁다짐 -12966
▁슈타인 -12967
▁아카이 -12968
▁황무지 -12969
▁부메 -12970
무실 -12971
▁생사 -12972
▁마커 -12973
▁못한다는 -12974
▁어처 -12975
▁무전 -12976
▁신다 -12977
▁충공 -12978
▁확연히 -12979
버드 -12980
▁쌓인 -12981
25 -12982
▁137 -12983
▁텔레비전 -12984
ERS -12985
▁부츠 -12986
▁후진 -12987
▁루시퍼 -12988
▁만화책 -12989
▁미니언 -12990
▁토트넘 -12991
▁장기간 -12992
▁카르마 -12993
▁땜 -12994
대기 -12995
▁부메랑 -12996
▁앙쥬 -12997
▁원종 -12998
▁Dance -12999
▁겸하 -13000
▁라지 -13001
▁현명 -13002
▁WCS -13003
▁엘더스 -13004
▁경감 -13005
▁쿠시 -13006
▁대문 -13007
▁징병 -13008
▁개더링 -13009
▁사임 -13010
▁중성 -13011
베르트 -13012
▁대사관 -13013
▁Over -13014
▁스윕 -13015
▁놀랐 -13016
▁박힌 -13017
▁굴려 -13018
▁연습생 -13019
▁입맛 -13020
▁정장 -13021
틀링 -13022
▁Ke -13023
▁파산 -13024
▁겨루 -13025
▁157 -13026
▁설득력 -13027
페르 -13028
▁이가 -13029
▁다룬다 -13030
▁편안 -13031
▁회귀 -13032
▁미성년자 -13033
▁오반 -13034
▁154 -13035
▁카즈키 -13036
▁CO -13037
▁어떨 -13038
▁179 -13039
저우 -13040
▁공립 -13041
▁미디 -13042
▁섬유 -13043
▁왼팔 -13044
▁트리스 -13045
▁금기 -13046
▁가출 -13047
▁창병 -13048
▁팀킬 -13049
▁강해졌 -13050
▁박상 -13051
▁Str -13052
▁맴 -13053
air -13054
▁내야수 -13055
▁출몰 -13056
▁한심 -13057
▁아란 -13058
▁우기 -13059
▁Ac -13060
▁164 -13061
지리 -13062
▁본국 -13063
▁광범 -13064
▁기밀 -13065
▁드리프트 -13066
▁금서 -13067
▁독서 -13068
▁세간 -13069
▁유서 -13070
▁부딪히 -13071
라이어 -13072
▁편해 -13073
▁교란 -13074
▁금곡 -13075
▁기판 -13076
▁우메 -13077
▁터트 -13078
▁Music -13079
▁가주 -13080
▁직무 -13081
▁표식 -13082
oot -13083
▁NL -13084
▁Ep -13085
▁쇼트 -13086
매치 -13087
▁삽화 -13088
▁어처구니 -13089
▁망령 -13090
▁지날 -13091
▁친일 -13092
▁데스매치 -13093
▁뫼 -13094
▁양호 -13095
▁선진국 -13096
▁단간 -13097
▁텔레콤 -13098
▁븐 -13099
▁내륙 -13100
▁민영 -13101
▁순진 -13102
▁티탄 -13103
▁해내 -13104
▁렸 -13105
▁오리온 -13106
▁초식 -13107
▁휘말리 -13108
▁공병 -13109
▁떨구 -13110
▁쓸모없 -13111
▁깎이 -13112
▁와타루 -13113
산물 -13114
▁쿠노 -13115
▁평민 -13116
▁Kn -13117
▁수복 -13118
▁DDR -13119
▁아이리 -13120
▁양주 -13121
▁두부 -13122
▁129 -13123
▁젊은이 -13124
▁빠질 -13125
▁홀딩 -13126
▁렀다 -13127
▁타고난 -13128
▁만료 -13129
▁최영 -13130
▁한해서 -13131
▁한다던가 -13132
▁쐐 -13133
ern -13134
▁폭사 -13135
▁225 -13136
▁머무르 -13137
▁최우수 -13138
▁손바닥 -13139
▁심리학 -13140
ittle -13141
▁타나 -13142
▁NHK -13143
▁느냐는 -13144
▁파워레인저 -13145
▁콘티 -13146
▁느껴질 -13147
▁택배 -13148
▁강적 -13149
▁고령 -13150
▁괴도 -13151
▁대각 -13152
레트 -13153
▁기다렸 -13154
▁마차 -13155
▁지역구 -13156
▁그닥 -13157
▁솔라 -13158
셔츠 -13159
▁NS -13160
▁''' -13161
▁광범위 -13162
▁북방 -13163
▁돌아간 -13164
▁김형 -13165
▁서점 -13166
▁세나 -13167
▁육박 -13168
▁개틀링 -13169
▁툼 -13170
▁펙 -13171
▁불멸 -13172
▁은혼 -13173
▁텍스 -13174
▁콜라보레이션 -13175
▁강성 -13176
▁후궁 -13177
▁스코프 -13178
▁이승엽 -13179
▁켄타 -13180
▁만화가 -13181
▁전용기 -13182
▁핵무기 -13183
▁충성심 -13184
▁우로 -13185
AG -13186
▁바시 -13187
▁변질 -13188
▁윌리엄스 -13189
▁네타 -13190
▁천황 -13191
▁범행 -13192
▁중령 -13193
▁포지 -13194
▁똘 -13195
▁모호 -13196
▁진료 -13197
▁역과 -13198
▁저상버스 -13199
▁리액 -13200
▁>, -13201
▁산책 -13202
동원 -13203
▁비범 -13204
▁기타리스트 -13205
▁춘천 -13206
▁걸스 -13207
▁낙인 -13208
▁스냅 -13209
▁Pre -13210
▁장동민 -13211
▁카자마 -13212
▁코지마 -13213
바위 -13214
▁RC -13215
▁글래 -13216
▁Comm -13217
▁서정 -13218
▁박격 -13219
다간 -13220
▁좌표 -13221
▁1800 -13222
▁퍼니 -13223
▁헛소리 -13224
▁무거 -13225
▁점거 -13226
▁백미 -13227
▁토하 -13228
▁유행어 -13229
▁대진 -13230
▁설사 -13231
▁사이언 -13232
▁하와이 -13233
▁일으킨다 -13234
▁256 -13235
▁불사조 -13236
▁허리케인 -13237
▁달라서 -13238
▁라이터 -13239
로프 -13240
▁자진 -13241
▁진작 -13242
▁케이트 -13243
▁클로즈 -13244
▁포토 -13245
▁자연스레 -13246
▁Korea -13247
▁목재 -13248
hammer -13249
▁MR -13250
▁곡선 -13251
▁모여서 -13252
결승 -13253
▁터질 -13254
▁헌신 -13255
▁가솔 -13256
▁에덴 -13257
▁예명 -13258
▁베이스볼 -13259
▁FR -13260
▁첫날 -13261
▁서커스 -13262
▁공익 -13263
▁정계 -13264
oss -13265
▁취해 -13266
▁칙 -13267
▁무빙 -13268
▁파장 -13269
▁노홍철 -13270
▁기하 -13271
▁무고 -13272
▁End -13273
ield -13274
▁재위 -13275
▁즉각 -13276
▁트린 -13277
▁검은색 -13278
▁화수 -13279
▁out -13280
ENT -13281
▁중사 -13282
▁스님 -13283
레미 -13284
▁견인 -13285
▁비춰 -13286
▁신디 -13287
▁시킵니다 -13288
▁떠오 -13289
▁날아간다 -13290
▁김명 -13291
▁LCD -13292
▁Leg -13293
▁분자 -13294
▁펄스 -13295
▁139 -13296
자카 -13297
▁협의 -13298
▁쿄스케 -13299
사우 -13300
▁강행 -13301
▁색채 -13302
▁134 -13303
▁가창력 -13304
▁하리 -13305
▁방과 -13306
▁선풍 -13307
RAM -13308
▁대여 -13309
▁163 -13310
▁가가 -13311
▁행태 -13312
▁집정관 -13313
▁Life -13314
받침 -13315
▁999 -13316
▁타츠야 -13317
▁단말기 -13318
▁바트 -13319
▁지독 -13320
▁양아치 -13321
▁충공깽 -13322
▁돌릴 -13323
▁전전 -13324
평균 -13325
▁생겨난 -13326
▁yout -13327
▁거유 -13328
▁환각 -13329
▁136 -13330
▁UFO -13331
▁EXH -13332
▁엘소드 -13333
▁어지간히 -13334
▁크리스티 -13335
eng -13336
무니 -13337
춘다 -13338
▁JC -13339
▁부추 -13340
▁VOC -13341
▁기관차 -13342
▁사토시 -13343
외선 -13344
▁대승 -13345
edia -13346
▁후반전 -13347
▁카가 -13348
▁즐거운 -13349
▁까먹 -13350
▁박해 -13351
▁존속 -13352
▁Gold -13353
▁초고 -13354
▁끈질 -13355
▁스왑 -13356
▁176 -13357
▁Cy -13358
▁남동 -13359
▁토탈 -13360
▁주어진다 -13361
리에 -13362
▁나츠키 -13363
▁뉴타입 -13364
▁man -13365
▁MT -13366
▁173 -13367
▁오미 -13368
▁헬스 -13369
▁애프터 -13370
▁포르노 -13371
▁BASIC -13372
▁번트 -13373
▁피리 -13374
▁XXX -13375
▁SG -13376
▁경인 -13377
▁수리검 -13378
▁이스터 -13379
▁케로로 -13380
범죄 -13381
▁애드 -13382
▁토우마 -13383
▁영창 -13384
▁왕좌 -13385
▁하자드 -13386
IST -13387
▁XP -13388
▁SW -13389
▁선곡 -13390
▁167 -13391
▁수군 -13392
▁퍼트 -13393
▁142 -13394
▁고마워 -13395
문트 -13396
▁격리 -13397
▁뒤덮 -13398
▁손녀 -13399
▁미지수 -13400
▁왕따 -13401
▁책략 -13402
ek -13403
▁초딩 -13404
▁램프 -13405
▁테크노 -13406
▁신공 -13407
▁가치관 -13408
▁전라북도 -13409
▁당기 -13410
▁자크 -13411
▁단백질 -13412
▁...... -13413
▁MD -13414
inc -13415
▁청산 -13416
▁고양시 -13417
▁기획사 -13418
▁세츠나 -13419
▁상회 -13420
▁위탁 -13421
▁요미우리 -13422
▁에우 -13423
▁로마자 -13424
미스 -13425
용차 -13426
▁용맹 -13427
▁6000 -13428
▁강변 -13429
▁모를까 -13430
▁끌어내 -13431
▁제멋대로 -13432
수아 -13433
▁더비 -13434
▁야드 -13435
▁국사 -13436
▁말소 -13437
▁충북 -13438
▁관제 -13439
▁초선 -13440
▁루리웹 -13441
▁co -13442
▁로자 -13443
무진 -13444
▁}{ -13445
▁경순 -13446
▁막바지 -13447
▁댄다 -13448
▁권능 -13449
▁정거 -13450
▁키워드 -13451
▁에스파 -13452
▁경전철 -13453
▁Summer -13454
▁수평 -13455
▁은밀 -13456
▁380 -13457
▁피스트 -13458
마르 -13459
운전 -13460
▁..' -13461
카스 -13462
▁백신 -13463
▁아치 -13464
▁여사 -13465
▁차려 -13466
▁149 -13467
▁꼬이 -13468
irst -13469
▁특공대 -13470
▁한숨 -13471
▁살인마 -13472
▁위화감 -13473
▁본드 -13474
▁수원시 -13475
▁깊숙 -13476
세데스 -13477
▁메르세데스 -13478
▁버금 -13479
어쓰 -13480
▁움직인다 -13481
▁완수 -13482
▁선보인 -13483
▁시노부 -13484
▁OR -13485
▁치부 -13486
▁위나라 -13487
▁행선 -13488
▁류현진 -13489
▁지자 -13490
▁서지 -13491
▁정중 -13492
▁찍힌 -13493
▁페달 -13494
▁총괄 -13495
▁IDOLM -13496
▁전년 -13497
▁키퍼 -13498
▁학창 -13499
▁프레데 -13500
마츠 -13501
▁스티커 -13502
▁어린애 -13503
▁천연가스 -13504
▁하부 -13505
▁가차 -13506
▁의대 -13507
▁아멜 -13508
을지도 -13509
▁캐서린 -13510
▁1961 -13511
▁파키스탄 -13512
제국 -13513
▁고베 -13514
▁King -13515
ual -13516
▁강판 -13517
▁전교 -13518
▁회견 -13519
▁AG -13520
▁성체 -13521
YP -13522
비언 -13523
▁입술 -13524
던트 -13525
▁미쓰 -13526
▁새우 -13527
▁뷰티 -13528
▁우습 -13529
▁ONE -13530
▁유명세 -13531
▁이안 -13532
▁다인 -13533
▁스퍼 -13534
▁아부 -13535
▁키운 -13536
gain -13537
▁흑룡 -13538
▁부서지 -13539
▁판본 -13540
▁호그 -13541
패드 -13542
▁노이 -13543
▁게리 -13544
▁무상 -13545
▁디비전 -13546
준혁 -13547
▁단선 -13548
▁원격 -13549
토미 -13550
▁봉기 -13551
령관 -13552
▁UI -13553
▁아홉 -13554
▁기마 -13555
▁기와 -13556
▁멜론 -13557
▁인내 -13558
▁수고 -13559
▁차종 -13560
▁추월 -13561
▁제비 -13562
▁첨가 -13563
▁현존 -13564
▁경의 -13565
▁영분 -13566
▁표방 -13567
▁친위대 -13568
▁거신 -13569
▁마누 -13570
▁타케루 -13571
▁휴스턴 -13572
데기 -13573
▁리히 -13574
▁바오 -13575
▁Win -13576
▁코우지 -13577
▁역학 -13578
▁옐로 -13579
▁프로이센 -13580
미츠 -13581
▁댄서 -13582
▁유노 -13583
크리트 -13584
▁143 -13585
▁깨어난 -13586
▁계보 -13587
▁단신 -13588
▁헤븐 -13589
▁봉황 -13590
▁최전 -13591
▁사마의 -13592
▁프랑크 -13593
▁알아듣 -13594
▁어비스 -13595
▁정거장 -13596
▁키메라 -13597
▁그리스어 -13598
▁받아들였 -13599
▁오리지날 -13600
▁진가 -13601
▁황태자 -13602
▁페니 -13603
▁리우 -13604
▁베니 -13605
▁모라 -13606
▁무의 -13607
▁시동 -13608
▁관대 -13609
OO -13610
▁여하 -13611
▁조형 -13612
▁포럼 -13613
▁선형 -13614
▁죄송 -13615
aj -13616
▁백룡 -13617
▁흑백 -13618
▁쳐다보 -13619
툭튀 -13620
▁u -13621
▁빡빡 -13622
▁아제 -13623
▁진공 -13624
▁넘어오 -13625
▁커맨더 -13626
▁쉘 -13627
▁한스 -13628
▁Can -13629
▁아카기 -13630
▁내려온 -13631
▁표본 -13632
▁현직 -13633
▁어둡 -13634
▁준장 -13635
▁갑툭튀 -13636
▁마리사 -13637
▁속공 -13638
▁애교 -13639
▁카논 -13640
▁백색 -13641
▁VOCAL -13642
▁사파이어 -13643
▁두께 -13644
▁본문 -13645
▁잔당 -13646
▁소진 -13647
▁실무 -13648
▁단조 -13649
▁씁쓸 -13650
▁육지 -13651
▁카에 -13652
▁여겨진다 -13653
▁이분 -13654
▁커브 -13655
▁기한 -13656
▁청색 -13657
▁망해 -13658
▁매진 -13659
▁합창 -13660
▁오피스 -13661
하이 -13662
▁섬세 -13663
▁자발 -13664
▁미야자키 -13665
▁우사 -13666
▁크래 -13667
▁타시 -13668
▁1942 -13669
▁Vo -13670
▁속박 -13671
▁제이크 -13672
▁테츠야 -13673
▁걸작 -13674
▁유지비 -13675
▁매트릭스 -13676
▁This -13677
▁맛보 -13678
▁Out -13679
▁1943 -13680
yn -13681
▁끝판 -13682
▁세션 -13683
▁사이오 -13684
▁어중간 -13685
▁분사 -13686
▁대두 -13687
▁뽑히 -13688
▁OPS -13689
▁알아채 -13690
▁왕건 -13691
▁지아 -13692
IV -13693
ube -13694
▁갈기 -13695
▁난폭 -13696
▁괴롭힘 -13697
▁무효화 -13698
▁What -13699
▁각색 -13700
▁강팀 -13701
▁Int -13702
▁요동 -13703
▁활주 -13704
▁뭣 -13705
조작 -13706
▁고독 -13707
▁SEED -13708
▁의미심장 -13709
▁모탈 -13710
▁빨강 -13711
▁처단 -13712
▁세이지 -13713
▁어워드 -13714
▁치프 -13715
▁스크립트 -13716
타르 -13717
▁되려 -13718
▁가든 -13719
▁리젠 -13720
▁안보 -13721
▁승부조작 -13722
▁꺼리 -13723
▁대부 -13724
▁등교 -13725
▁연희 -13726
▁유우야 -13727
로리 -13728
▁독설 -13729
▁거리표 -13730
▁바바 -13731
▁치도 -13732
▁Da -13733
▁콘크리트 -13734
▁플러그 -13735
▁설계도 -13736
▁교훈 -13737
▁수녀 -13738
▁장원 -13739
▁배수량 -13740
튀기 -13741
▁심포 -13742
▁츠루 -13743
▁저러 -13744
레스트 -13745
▁tvN -13746
▁디테일 -13747
▁김도 -13748
▁서인 -13749
▁치중 -13750
▁마는 -13751
▁재난 -13752
▁언행 -13753
▁재임 -13754
▁이터널 -13755
나간 -13756
▁득표율 -13757
▁뾰 -13758
시계 -13759
▁십상 -13760
▁치이 -13761
▁격돌 -13762
▁맞춤 -13763
▁뻥튀기 -13764
작전 -13765
▁경장 -13766
▁시세 -13767
▁신시 -13768
▁초중 -13769
▁이룬다 -13770
▁폭발물 -13771
▁판과 -13772
▁칭송 -13773
▁통한다 -13774
ady -13775
▁시르 -13776
▁사카모토 -13777
▁네모 -13778
▁선구 -13779
▁잉크 -13780
▁출세 -13781
▁121 -13782
▁미라이 -13783
▁오마주 -13784
▁MASTER -13785
▁대머리 -13786
▁자신감 -13787
▁교주 -13788
▁구독 -13789
▁레미 -13790
▁루팡 -13791
▁양면 -13792
▁ㄱ -13793
▁성녀 -13794
▁Live -13795
▁무성 -13796
▁음모론 -13797
테나 -13798
▁욕구 -13799
▁줍니다 -13800
▁랴 -13801
▁TD -13802
▁능욕 -13803
▁신축 -13804
▁매거진 -13805
▁괴멸 -13806
▁재팬 -13807
▁드러낸 -13808
▁Hard -13809
▁바늘 -13810
▁세가 -13811
킨스 -13812
▁석사 -13813
▁역관 -13814
▁Act -13815
▁잠재력 -13816
▁매그넘 -13817
▁이속 -13818
ATION -13819
러드 -13820
▁당분 -13821
▁로스앤 -13822
▁로스앤젤레스 -13823
let -13824
▁표출 -13825
▁문화재 -13826
중국 -13827
▁배지 -13828
▁튜버 -13829
▁받쳐 -13830
▁1920 -13831
▁볼프 -13832
▁종일 -13833
▁비약 -13834
riend -13835
▁관악 -13836
▁노브 -13837
▁배틀필드 -13838
미사 -13839
전대 -13840
▁여건 -13841
▁혜성 -13842
iew -13843
▁조비 -13844
ush -13845
▁섭외 -13846
▁이상민 -13847
▁법안 -13848
▁엄지 -13849
▁갑작스럽 -13850
▁나우 -13851
▁우시 -13852
▁폭동 -13853
▁될까 -13854
▁이어인 -13855
▁콥 -13856
▁인벤토리 -13857
▁되돌려 -13858
▁엑스맨 -13859
▁준결승 -13860
▁수소 -13861
▁앙리 -13862
▁베드 -13863
▁샨 -13864
▁난동 -13865
▁라이토 -13866
▁군산 -13867
▁반칙 -13868
▁174 -13869
▁밀린다 -13870
▁깰 -13871
▁겉보기 -13872
▁소용돌이 -13873
▁랄까 -13874
▁자부심 -13875
▁호세 -13876
▁워너 -13877
▁줄곧 -13878
▁들어선 -13879
▁피에르 -13880
베르토 -13881
▁아프가 -13882
▁아역 -13883
▁작별 -13884
eet -13885
▁옮긴 -13886
▁리바이 -13887
▁EA -13888
▁꼭두 -13889
▁덕택 -13890
▁쇼핑몰 -13891
조각 -13892
bps -13893
▁느긋 -13894
▁솔로몬 -13895
▁이제동 -13896
▁반환 -13897
▁피어 -13898
사이드 -13899
▁벌어질 -13900
▁난해 -13901
▁205 -13902
▁나오키 -13903
▁족장 -13904
▁베가스 -13905
▁크리드 -13906
UC -13907
▁검도 -13908
▁누님 -13909
▁줄줄이 -13910
▁성검 -13911
▁켈리 -13912
▁안타까운 -13913
▁쐐기 -13914
▁제구 -13915
▁템포 -13916
▁TG -13917
▁포털 -13918
▁송병 -13919
▁외출 -13920
▁격하 -13921
▁생각나 -13922
ational -13923
▁BF -13924
총리 -13925
▁승기 -13926
▁다중 -13927
▁즘 -13928
페어 -13929
▁갇힌 -13930
▁평원 -13931
▁입힌 -13932
▁호대 -13933
▁무자비 -13934
▁이에야스 -13935
▁박용 -13936
▁유포 -13937
rain -13938
▁서부터 -13939
▁CB -13940
▁사병 -13941
ORE -13942
▁심리전 -13943
▁거물 -13944
▁문헌 -13945
▁아울러 -13946
▁두드러지 -13947
▁히코 -13948
▁성우진 -13949
▁1946 -13950
▁국물 -13951
▁Air -13952
▁부우 -13953
▁양념 -13954
▁레슨 -13955
▁보유자 -13956
▁도호쿠 -13957
ita -13958
▁만루 -13959
▁조그 -13960
▁무너져 -13961
▁끌어들이 -13962
ESS -13963
▁하르 -13964
▁임페 -13965
▁착하 -13966
▁예배 -13967
UE -13968
무소 -13969
▁굴복 -13970
▁싸워야 -13971
▁아프가니스탄 -13972
▁처했 -13973
▁퍼스 -13974
ane -13975
▁루기 -13976
▁은메달 -13977
▁송이 -13978
▁틀렸 -13979
▁단절 -13980
▁지지자 -13981
때로 -13982
▁배럴 -13983
▁윌슨 -13984
▁유영 -13985
▁유쾌 -13986
니트 -13987
▁폭포 -13988
케이 -13989
▁하데스 -13990
▁여친 -13991
▁왕궁 -13992
▁병신 -13993
▁빈사 -13994
▁ㄴ -13995
▁쏜다 -13996
▁언락 -13997
▁이신 -13998
▁빠져서 -13999
▁꽝 -14000
▁돌아와서 -14001
▁잘리 -14002
▁내심 -14003
▁박격포 -14004
▁교섭 -14005
▁주작 -14006
▁탈옥 -14007
▁도모 -14008
▁미상 -14009
▁담당자 -14010
▁총통 -14011
모델 -14012
▁킬로 -14013
▁웍 -14014
▁만세 -14015
▁홍대 -14016
▁졸지 -14017
▁팔꿈치 -14018
▁Warhammer -14019
▁깬 -14020
▁수락 -14021
▁VOCALOID -14022
▁가네 -14023
▁한조 -14024
▁새로이 -14025
아아 -14026
▁sc -14027
▁달빛 -14028
▁진술 -14029
▁티거 -14030
제스 -14031
▁츠카사 -14032
▁교재 -14033
▁임페리얼 -14034
▁동대문 -14035
▁time -14036
블릿 -14037
▁부토 -14038
▁진한 -14039
▁벵 -14040
▁치뤄 -14041
▁전했 -14042
▁중얼 -14043
▁웨이트 -14044
▁빵빵 -14045
▁자본주의 -14046
▁내비 -14047
▁유로파 -14048
▁했으므로 -14049
▁ㅅ -14050
▁거세 -14051
▁자치령 -14052
▁피라미 -14053
▁각기 -14054
▁김창 -14055
퍼런스 -14056
▁띈 -14057
▁료마 -14058
▁사부 -14059
▁진해 -14060
▁데뷔작 -14061
▁남극 -14062
▁대제 -14063
▁줄일 -14064
▁피곤 -14065
▁김정일 -14066
▁연구실 -14067
▁밴시 -14068
▁상반기 -14069
▁랜디 -14070
▁진형 -14071
▁센트리 -14072
▁엇갈 -14073
▁직감 -14074
클레스 -14075
▁준공 -14076
▁부여받 -14077
▁히토미 -14078
공화국 -14079
▁카메오 -14080
▁역전재판 -14081
▁고를 -14082
▁만두 -14083
▁용호 -14084
▁늘어놓 -14085
▁마른 -14086
▁갈아타 -14087
▁컨테이너 -14088
▁나날 -14089
▁인다 -14090
▁불상 -14091
▁비정 -14092
▁주군 -14093
▁손아 -14094
소스 -14095
▁비토 -14096
▁세토 -14097
▁블루스 -14098
▁노엘 -14099
▁대한항공 -14100
▁미완 -14101
here -14102
▁단거리 -14103
▁페인트 -14104
▁파업 -14105
▁Hell -14106
컨대 -14107
▁노마 -14108
▁민정 -14109
▁심연 -14110
ness -14111
▁Cat -14112
▁내공 -14113
▁산화 -14114
▁증후 -14115
▁학회 -14116
▁흘려 -14117
▁만류 -14118
▁판도라 -14119
▁q -14120
▁허영 -14121
▁법학 -14122
▁채집 -14123
▁퀄컴 -14124
▁1941 -14125
▁라데 -14126
▁이동하 -14127
▁작렬 -14128
▁조제 -14129
▁지지율 -14130
▁la -14131
▁빅터 -14132
▁자수 -14133
▁오로라 -14134
▁` -14135
eth -14136
▁전류 -14137
▁들통 -14138
▁뭉치 -14139
▁벤트 -14140
▁싱크로 -14141
▁사안 -14142
▁총탄 -14143
▁호타 -14144
신기 -14145
▁GR -14146
▁이복 -14147
EX -14148
▁ll -14149
▁단연 -14150
▁유년 -14151
▁At -14152
▁정크 -14153
▁대장군 -14154
▁야기 -14155
▁역병 -14156
▁Res -14157
▁준다면 -14158
▁킹스 -14159
▁부녀 -14160
▁도미니 -14161
▁스탠스 -14162
유리 -14163
▁마음껏 -14164
사우루스 -14165
▁레베 -14166
▁빌미 -14167
▁마니 -14168
▁유엔 -14169
▁장래 -14170
코스 -14171
▁미련 -14172
▁성균 -14173
ret -14174
▁GX -14175
▁항우 -14176
▁래스 -14177
▁드러낸다 -14178
ne -14179
▁신원 -14180
▁추석 -14181
▁기신 -14182
▁명인 -14183
▁포고 -14184
itch -14185
▁염소 -14186
▁파드 -14187
▁후세 -14188
▁김택용 -14189
▁퇴마 -14190
▁삼거리 -14191
▁성균관 -14192
▁신노스케 -14193
▁익스트림 -14194
▁태연 -14195
▁Sound -14196
▁id -14197
▁막힌 -14198
▁듬 -14199
▁난전 -14200
▁듀엣 -14201
▁옥타 -14202
▁동메달 -14203
▁유스케 -14204
▁복종 -14205
▁조달 -14206
▁따라오 -14207
▁이은 -14208
▁참모총장 -14209
▁대적 -14210
▁셀프 -14211
글러 -14212
▁경쟁력 -14213
▁창원시 -14214
▁베라 -14215
▁우려먹 -14216
겨서 -14217
▁김정은 -14218
▁이니셜 -14219
▁연루 -14220
▁레볼루션 -14221
▁알코 -14222
▁조장 -14223
▁일진 -14224
▁대상자 -14225
▁기겁 -14226
▁코브라 -14227
▁도망쳤 -14228
▁어설트 -14229
▁차세대 -14230
▁따내 -14231
▁백수 -14232
무늬 -14233
▁맞히 -14234
▁미타 -14235
▁부풀 -14236
제품 -14237
▁과실 -14238
▁도도 -14239
▁리베 -14240
▁사바 -14241
▁채소 -14242
▁두꺼운 -14243
▁서원 -14244
▁시발 -14245
▁체급 -14246
▁직관 -14247
▁SKE -14248
▁사육 -14249
▁유키노 -14250
▁후안 -14251
▁슈타 -14252
▁시구 -14253
클리 -14254
▁해저 -14255
▁세이야 -14256
▁몽땅 -14257
▁택하 -14258
▁그지 -14259
▁이변 -14260
▁할당 -14261
▁모나 -14262
▁어제 -14263
▁진다는 -14264
▁의리 -14265
▁제너럴 -14266
럭스 -14267
▁동참 -14268
▁미팅 -14269
▁집결 -14270
▁뒷받침 -14271
▁술탄 -14272
▁147 -14273
▁편제 -14274
▁노후 -14275
▁증후군 -14276
▁적료 -14277
▁김영삼 -14278
▁근래 -14279
▁달아나 -14280
▁불태우 -14281
▁매개 -14282
▁특허 -14283
▁night -14284
▁인민공화국 -14285
na -14286
▁Rec -14287
▁빼앗긴 -14288
▁아지트 -14289
열차 -14290
▁상원 -14291
버릴 -14292
▁피츠 -14293
▁와이드 -14294
▁낙원 -14295
▁진군 -14296
아티아 -14297
▁크로아티아 -14298
▁플레이트 -14299
▁진흥 -14300
▁휴전 -14301
▁크림슨 -14302
▁옌 -14303
▁화랑 -14304
더스트 -14305
▁146 -14306
▁Hy -14307
▁방대 -14308
▁제각 -14309
▁스케치 -14310
▁살린 -14311
▁교감 -14312
▁날릴 -14313
▁성채 -14314
▁던질 -14315
▁자문 -14316
▁증원 -14317
▁차남 -14318
▁서태지 -14319
▁재혼 -14320
▁평했 -14321
IGHT -14322
▁상류 -14323
▁오디 -14324
▁유배 -14325
▁스펙터 -14326
교육 -14327
eath -14328
▁지름 -14329
▁행각 -14330
▁익스프레스 -14331
▁클립 -14332
▁단다 -14333
▁Big -14334
▁대담 -14335
▁태세 -14336
▁스트레이트 -14337
▁밝힌다 -14338
▁파고들 -14339
모니 -14340
▁노렸 -14341
▁org -14342
▁고원 -14343
▁노스케 -14344
▁여진 -14345
▁연안 -14346
▁맞물려 -14347
▁싱어 -14348
▁가솔린 -14349
▁아유미 -14350
▁어려우 -14351
▁피니시 -14352
▁일직 -14353
날두 -14354
▁뿌요 -14355
▁회자 -14356
▁세레나 -14357
▁Heav -14358
버거 -14359
▁과부 -14360
▁이과 -14361
▁타협 -14362
▁RAM -14363
▁1600 -14364
르드 -14365
수수 -14366
▁극찬 -14367
▁서면 -14368
▁우이 -14369
▁유교 -14370
▁미라클 -14371
▁인프라 -14372
▁호날두 -14373
린스 -14374
▁뚫리 -14375
▁정종 -14376
▁결별 -14377
▁티저 -14378
▁1954 -14379
▁news -14380
여행 -14381
▁바쁘 -14382
▁친근 -14383
▁커리 -14384
▁222 -14385
▁Des -14386
▁명장면 -14387
▁조류 -14388
▁맥시 -14389
▁북극 -14390
▁등산 -14391
▁거니와 -14392
▁키사라기 -14393
▁GK -14394
▁득실 -14395
▁럼블 -14396
▁배분 -14397
▁아킬 -14398
▁요건 -14399
▁위생 -14400
▁천도 -14401
▁전투복 -14402
▁공자 -14403
▁박준 -14404
▁주성 -14405
포스 -14406
▁부록 -14407
▁온화 -14408
방사기 -14409
▁체이스 -14410
▁화염방사기 -14411
▁다정 -14412
▁츠바키 -14413
▁like -14414
▁랫 -14415
asy -14416
▁대잠 -14417
▁호우 -14418
▁스탠딩 -14419
▁한국군 -14420
▁Battle -14421
▁저거 -14422
▁구미호 -14423
피온 -14424
▁박병 -14425
▁괴로워 -14426
▁좆 -14427
캐스트 -14428
▁204 -14429
▁트리오 -14430
▁스킵 -14431
▁166 -14432
▁동유럽 -14433
▁명왕 -14434
▁하코 -14435
▁구치 -14436
▁캐롤 -14437
▁Mod -14438
▁슬퍼하 -14439
고쿠 -14440
▁구세 -14441
▁마토 -14442
르슈 -14443
▁상정 -14444
▁자위 -14445
방식 -14446
▁가왕 -14447
▁동거 -14448
▁스루 -14449
▁차관 -14450
▁ㅋㅋ -14451
▁빼놓 -14452
▁웨일 -14453
▁저희 -14454
▁일부분 -14455
▁영락 -14456
▁칼럼 -14457
▁클락 -14458
▁1958 -14459
▁쓰러진다 -14460
ny -14461
타리 -14462
▁바쳐 -14463
벨트 -14464
▁모을 -14465
▁로테이션 -14466
▁손수 -14467
▁SV -14468
▁변종 -14469
▁정의당 -14470
▁인피니트 -14471
ven -14472
▁미도 -14473
▁밸리 -14474
▁특출 -14475
▁Che -14476
OK -14477
틱스 -14478
▁향기 -14479
▁탤 -14480
▁간편 -14481
내기 -14482
티넘 -14483
▁협약 -14484
▁플래티넘 -14485
ORM -14486
▁골리 -14487
▁원어 -14488
▁몰아내 -14489
▁누마 -14490
▁트림 -14491
▁시오리 -14492
▁태블릿 -14493
▁떠들 -14494
▁어긋나 -14495
▁fl -14496
▁동맹군 -14497
▁쫓아가 -14498
▁호노카 -14499
권자 -14500
▁난투 -14501
▁대입 -14502
▁아이리스 -14503
▁기복 -14504
각시 -14505
▁대파 -14506
▁동포 -14507
▁일선 -14508
▁전산 -14509
▁부두 -14510
▁잽 -14511
저트 -14512
▁수전 -14513
▁인즈 -14514
▁DB -14515
▁참패 -14516
▁유감 -14517
▁마그마 -14518
모사 -14519
▁라트 -14520
▁웬리 -14521
▁진과 -14522
▁철벽 -14523
▁수뇌 -14524
▁임하 -14525
▁진흙 -14526
▁연기자 -14527
▁이창 -14528
▁베른 -14529
▁병영 -14530
▁소중히 -14531
▁범주 -14532
▁해지 -14533
사의 -14534
arm -14535
▁다라 -14536
▁선체 -14537
▁사생활 -14538
▁레트 -14539
파니 -14540
▁유추 -14541
▁절묘 -14542
▁대각선 -14543
▁하반신 -14544
▁짝퉁 -14545
▁소음기 -14546
▁알프레 -14547
무스 -14548
▁갑판 -14549
▁SSR -14550
▁안도 -14551
▁치타 -14552
▁자의 -14553
▁종자 -14554
▁튕기 -14555
▁엠블렘 -14556
▁1948 -14557
ALL -14558
ouse -14559
▁퍼시픽 -14560
▁페르난 -14561
▁제네시스 -14562
▁마테 -14563
▁넘쳐나 -14564
▁아이젠 -14565
▁빼내 -14566
▁쩌 -14567
이팅 -14568
코프 -14569
▁매칭 -14570
▁정신기 -14571
▁활주로 -14572
▁ㅎ -14573
바퀴 -14574
▁선천 -14575
▁플라잉 -14576
▁프라이즈 -14577
렉트 -14578
토록 -14579
▁바실 -14580
▁운임 -14581
▁쇼군 -14582
▁아닙 -14583
▁주방 -14584
보인다 -14585
▁발트 -14586
▁엘리스 -14587
▁8000 -14588
▁영리 -14589
▁잔재 -14590
▁츳 -14591
▁육식 -14592
▁평창 -14593
▁사단장 -14594
해군 -14595
▁KD -14596
▁코요미 -14597
▁직계 -14598
▁남아공 -14599
▁책임자 -14600
▁회복력 -14601
▁대강 -14602
▁승하 -14603
▁외환 -14604
▁용품 -14605
▁욕먹 -14606
▁매복 -14607
▁총대 -14608
▁터무니 -14609
▁성가 -14610
▁액트 -14611
▁청동 -14612
▁쌩 -14613
▁예리 -14614
▁차마 -14615
하니 -14616
ru -14617
▁퍼진 -14618
▁마운드 -14619
▁프레디 -14620
▁1949 -14621
▁석화 -14622
▁카멜 -14623
▁금전 -14624
▁세이부 -14625
▁귀중 -14626
▁카트리 -14627
▁하임 -14628
회장 -14629
▁기만 -14630
▁동급생 -14631
▁으라는 -14632
▁지켜야 -14633
곡동 -14634
▁올려서 -14635
▁불가리아 -14636
영수 -14637
이인 -14638
▁부과 -14639
▁평안 -14640
▁런닝맨 -14641
▁목요일 -14642
▁이관 -14643
드래 -14644
혁명 -14645
▁에노 -14646
▁엠파이어 -14647
▁사위 -14648
▁안중 -14649
▁치히로 -14650
▁지켰 -14651
▁Sing -14652
데르 -14653
▁가메 -14654
▁슬쩍 -14655
▁위조 -14656
▁운전자 -14657
▁프렌즈 -14658
▁박진 -14659
▁예하 -14660
▁but -14661
▁다나카 -14662
▁불가사의 -14663
▁로로 -14664
▁키웠 -14665
▁태수 -14666
▁현행 -14667
▁누군지 -14668
▁~' -14669
▁는데도 -14670
▁토론토 -14671
▁구애 -14672
▁음양 -14673
▁유승 -14674
▁탈것 -14675
▁표창 -14676
▁사츠키 -14677
▁리포트 -14678
▁화장품 -14679
▁수비진 -14680
▁충실히 -14681
링크 -14682
▁탄두 -14683
칼리버 -14684
▁BBC -14685
▁아종 -14686
▁조슈 -14687
▁하야테 -14688
▁독도 -14689
▁멸자 -14690
▁생몰 -14691
▁하쿠 -14692
▁외야 -14693
▁치렀 -14694
▁헤매 -14695
▁공중전 -14696
▁동명이인 -14697
▁과다 -14698
▁무어 -14699
▁미토 -14700
▁벽돌 -14701
▁노선도 -14702
▁지중 -14703
▁제보 -14704
▁친밀 -14705
▁제네레이션 -14706
자루 -14707
▁오클 -14708
▁루즈 -14709
▁저력 -14710
▁특이점 -14711
▁템플러 -14712
▁배척 -14713
▁살릴 -14714
▁고스란히 -14715
ina -14716
▁Edition -14717
▁마호 -14718
ount -14719
실히 -14720
ari -14721
▁보답 -14722
▁스몰 -14723
▁카바 -14724
▁막론 -14725
▁양동 -14726
▁향수 -14727
▁빅토리 -14728
▁석궁 -14729
▁알몸 -14730
▁이문 -14731
모자 -14732
▁NG -14733
▁덫 -14734
▁여겨졌 -14735
▁문의 -14736
▁목표물 -14737
▁성원 -14738
▁신촌 -14739
▁체구 -14740
▁소감 -14741
▁콘테 -14742
▁교육청 -14743
▁1900 -14744
▁if -14745
▁가산 -14746
▁경부선 -14747
ivers -14748
▁기염 -14749
▁하루히 -14750
▁칸나 -14751
▁도망친 -14752
▁방어선 -14753
▁모방 -14754
▁340 -14755
▁울려 -14756
공격 -14757
▁경전차 -14758
마사 -14759
▁품종 -14760
▁맏 -14761
▁XC -14762
▁안나 -14763
▁젤다 -14764
▁퇴근 -14765
▁폭군 -14766
▁헤지 -14767
▁고모 -14768
▁노조미 -14769
지대 -14770
▁실험실 -14771
▁따라다니 -14772
cl -14773
투아 -14774
▁부합 -14775
▁토와 -14776
▁Song -14777
▁know -14778
▁쥴 -14779
▁리언 -14780
▁민족주의 -14781
▁스스 -14782
▁왕녀 -14783
▁체조 -14784
▁거제 -14785
▁아그 -14786
▁히이 -14787
▁때때로 -14788
▁방랑 -14789
만도 -14790
▁뮤즈 -14791
▁잔디 -14792
▁재해 -14793
▁황족 -14794
▁신한은행 -14795
▁우아 -14796
▁점포 -14797
▁키치 -14798
▁라운 -14799
▁군단장 -14800
▁중공업 -14801
▁월터 -14802
▁짱구 -14803
▁드럼매니아 -14804
고생 -14805
지물 -14806
돼지 -14807
▁발산 -14808
▁악질 -14809
▁알코올 -14810
▁머독 -14811
▁쓰러졌 -14812
▁불러서 -14813
▁터트리 -14814
▁어쩐 -14815
▁밀어붙이 -14816
▁프랑스군 -14817
▁공약 -14818
▁선방 -14819
▁이끈 -14820
▁포이 -14821
▁이지스 -14822
▁천체 -14823
▁WAR -14824
▁사쿠야 -14825
▁꺼지 -14826
▁어기 -14827
▁초전 -14828
▁CEO -14829
▁느낀다 -14830
▁안철수 -14831
▁프라이드 -14832
▁성공회 -14833
▁소피아 -14834
기업 -14835
▁행군 -14836
▁데이브 -14837
덱스 -14838
천동 -14839
▁카야 -14840
▁RAW -14841
▁im -14842
▁정자 -14843
▁Run -14844
▁엘런 -14845
▁국수 -14846
▁따랐 -14847
▁성문 -14848
▁행해 -14849
▁But -14850
▁를르슈 -14851
▁패거리 -14852
▁태고 -14853
▁데려온 -14854
▁방정식 -14855
▁하이브 -14856
use -14857
▁카운티 -14858
▁팔려 -14859
ters -14860
▁신령 -14861
▁엮인 -14862
▁정몽 -14863
▁국민당 -14864
▁나리타 -14865
▁피라미드 -14866
▁란트 -14867
▁경찰관 -14868
▁디스코 -14869
▁발해 -14870
▁둘러싼 -14871
HN -14872
▁도메 -14873
▁코일 -14874
▁레이브 -14875
▁섹터 -14876
▁원년 -14877
▁쫓아내 -14878
▁Magic -14879
피어 -14880
▁서문 -14881
▁쫒아 -14882
▁돌아다 -14883
▁반자동 -14884
▁약해서 -14885
▁관용 -14886
▁랄프 -14887
▁마키나 -14888
▁올리버 -14889
▁든든 -14890
▁정대 -14891
▁삼국사기 -14892
▁경시 -14893
▁사역 -14894
▁붙잡혀 -14895
스기 -14896
▁시빌 -14897
▁원사 -14898
▁침체 -14899
▁HOT -14900
▁로스터 -14901
▁민병대 -14902
▁토의 -14903
▁AMD -14904
▁선역 -14905
▁'- -14906
▁암흑기 -14907
▁빨려 -14908
답시고 -14909
▁송파 -14910
▁쟁탈 -14911
▁츠치 -14912
▁090 -14913
▁료코 -14914
▁시킴 -14915
▁칼질 -14916
▁프리드 -14917
스톤 -14918
ars -14919
▁경위 -14920
▁송곳 -14921
▁치토 -14922
▁위저드 -14923
▁슬래 -14924
▁Ab -14925
▁명실 -14926
▁순순 -14927
▁333 -14928
▁번거 -14929
▁몰라서 -14930
▁헌병 -14931
ke -14932
▁심플 -14933
규어 -14934
▁조율 -14935
매매 -14936
▁터프 -14937
▁720 -14938
▁에밀리 -14939
▁꼭두각시 -14940
▁수아 -14941
▁선글라스 -14942
▁SNK -14943
고루 -14944
▁만악 -14945
▁허다 -14946
OUR -14947
erm -14948
▁펜스 -14949
▁끼쳤 -14950
▁슬러 -14951
▁인스 -14952
▁에러 -14953
▁원동 -14954
XT -14955
바키아 -14956
▁바운드 -14957
▁인신 -14958
▁고려대 -14959
▁로만 -14960
▁아다 -14961
▁홈구장 -14962
▁뒤바 -14963
▁득표수 -14964
▁이따 -14965
▁잘린 -14966
▁차크라 -14967
▁가까스로 -14968
▁RS -14969
▁심해서 -14970
▁아르메 -14971
▁시한 -14972
▁오컬 -14973
▁몰린 -14974
▁day -14975
▁며느리 -14976
▁쓰러뜨린 -14977
su -14978
▁아델 -14979
▁요르 -14980
▁좀비 -14981
▁탐욕 -14982
▁오스카 -14983
▁칠흑 -14984
▁카터 -14985
▁벌어들 -14986
▁이라든지 -14987
▁뭉쳐 -14988
▁소주 -14989
디우스 -14990
▁들이대 -14991
리케이션 -14992
탕스 -14993
▁아츠시 -14994
▁레지스탕스 -14995
LD -14996
블루 -14997
▁PVP -14998
▁진에어 -14999
▁문성 -15000
▁비룡 -15001
▁동물원 -15002
단체 -15003
▁에티 -15004
▁울부 -15005
▁단번에 -15006
위치 -15007
▁영조 -15008
▁명령어 -15009
▁사업자 -15010
AA -15011
▁쓴다는 -15012
나시 -15013
▁사오 -15014
▁압살 -15015
▁얌전 -15016
▁여명 -15017
는데 -15018
▁체내 -15019
레오 -15020
하하 -15021
▁쏴서 -15022
▁야채 -15023
▁알파벳 -15024
▁리바운드 -15025
▁수레 -15026
▁악보 -15027
▁성추 -15028
▁프랭 -15029
▁바람직 -15030
▁가호 -15031
▁격노 -15032
▁네메 -15033
▁명품 -15034
▁시프 -15035
▁초당 -15036
▁드래그 -15037
▁슐 -15038
▁마취 -15039
▁첩보 -15040
▁희생양 -15041
▁KC -15042
▁Not -15043
▁Tri -15044
▁구했 -15045
▁스완 -15046
▁승천 -15047
▁음란 -15048
▁터리 -15049
사람 -15050
▁실천 -15051
▁루카스 -15052
▁격변 -15053
▁추첨 -15054
▁탈탈 -15055
▁GAM -15056
▁건너가 -15057
ecial -15058
▁벗어날 -15059
▁순순히 -15060
▁스쳐 -15061
▁더스트 -15062
▁래쉬 -15063
▁브란 -15064
▁역설 -15065
▁정동 -15066
▁비즈니스 -15067
▁가신 -15068
▁소이 -15069
▁수분 -15070
▁어진 -15071
▁단단히 -15072
▁짤막 -15073
▁대법원 -15074
▁호라이 -15075
▁드레이크 -15076
▁Grand -15077
연합 -15078
▁네기 -15079
▁오드 -15080
장구 -15081
EME -15082
주군 -15083
▁마티 -15084
▁수족 -15085
▁Boy -15086
▁스폰지 -15087
▁결장 -15088
▁옴니 -15089
▁임창 -15090
▁그토록 -15091
▁쓸어버리 -15092
▁야구단 -15093
▁오우거 -15094
▁코팅 -15095
▁통학 -15096
▁화판 -15097
▁농촌 -15098
▁수법 -15099
▁평정 -15100
▁펼쳐지 -15101
▁시애 -15102
▁츳코 -15103
▁오컬트 -15104
▁뒤이 -15105
▁1959 -15106
▁볼일 -15107
▁비평 -15108
▁바이퍼 -15109
▁증가량 -15110
▁슬라이딩 -15111
▁재규어 -15112
▁은가 -15113
▁픽업 -15114
▁양방향 -15115
▁PO -15116
▁박차 -15117
▁빌헬 -15118
▁일개 -15119
▁고갈 -15120
▁현질 -15121
▁상대편 -15122
▁서유럽 -15123
▁애시당초 -15124
형제 -15125
▁불운 -15126
▁개인전 -15127
▁거주지 -15128
▁TF -15129
세우스 -15130
▁성폭행 -15131
▁볼까 -15132
▁입성 -15133
▁조나 -15134
오피스 -15135
ship -15136
▁디셉 -15137
뜨린다 -15138
▁나타날 -15139
▁아르메니아 -15140
}} -15141
▁뺏기 -15142
▁아득 -15143
▁장녀 -15144
▁해임 -15145
▁도마뱀 -15146
▁훈련소 -15147
레일리아 -15148
▁God -15149
▁온전히 -15150
ift -15151
▁김희 -15152
▁어휘 -15153
▁푸쉬 -15154
▁체이서 -15155
▁이탈리아어 -15156
▁일갈 -15157
▁창의 -15158
▁Dragon -15159
▁'~ -15160
▁김인 -15161
▁김혜 -15162
▁케르 -15163
▁화룡 -15164
▁1955 -15165
▁Baby -15166
▁됐으며 -15167
▁무너진 -15168
▁기보단 -15169
▁앞마당 -15170
노트 -15171
소니 -15172
▁광양 -15173
▁저질러 -15174
▁열려 -15175
▁비행선 -15176
▁좀처럼 -15177
UL -15178
메리카 -15179
▁젯 -15180
▁업종 -15181
rop -15182
▁광화 -15183
▁청장 -15184
▁타지 -15185
▁울부짖 -15186
▁총사령관 -15187
러기 -15188
ana -15189
▁무심 -15190
▁갈구 -15191
▁탄다 -15192
▁새겨진 -15193
▁시애틀 -15194
▁전반전 -15195
▁구자 -15196
▁깨우 -15197
▁다이너 -15198
▁지침 -15199
▁NAS -15200
유기 -15201
▁가와 -15202
▁페루 -15203
▁노어 -15204
▁이어폰 -15205
▁무궁화호 -15206
▁MAN -15207
▁다이브 -15208
▁뛸 -15209
▁릉 -15210
▁강급 -15211
▁불린 -15212
▁서진 -15213
▁억양 -15214
▁전염병 -15215
▁페이커 -15216
둘기 -15217
립스 -15218
▁쇼타 -15219
▁미카엘 -15220
▁수요일 -15221
▁건립 -15222
▁뚱뚱 -15223
▁뾰족 -15224
▁짓밟 -15225
▁POP -15226
▁토리코 -15227
▁불허 -15228
▁추기 -15229
▁151 -15230
▁빗나가 -15231
▁백지 -15232
▁양파 -15233
▁랍시고 -15234
▁Beat -15235
▁바쁜 -15236
▁크러 -15237
▁일평균 -15238
ys -15239
▁OM -15240
▁ab -15241
▁끼친 -15242
▁남용 -15243
▁때릴 -15244
▁아날 -15245
▁염동 -15246
▁장단 -15247
▁탄수 -15248
▁난쟁이 -15249
▁1956 -15250
벅지 -15251
▁경희 -15252
▁니즈 -15253
▁주임 -15254
▁포화 -15255
▁게르만 -15256
베다 -15257
▁앞쪽 -15258
▁둔화 -15259
▁산산 -15260
▁마사토 -15261
45 -15262
elf -15263
▁버디 -15264
▁Spr -15265
▁오리콘 -15266
슬쩍 -15267
▁밀접 -15268
▁송구 -15269
▁전고 -15270
▁아랍어 -15271
omb -15272
▁마셔 -15273
▁악장 -15274
▁초계 -15275
▁야요이 -15276
▁이바 -15277
▁학업 -15278
▁화질 -15279
▁졸업식 -15280
▁페라리 -15281
▁도보 -15282
▁키쿠 -15283
▁치밀 -15284
▁파열 -15285
▁NAT -15286
▁아틀라스 -15287
▁블라디미르 -15288
▁남짓 -15289
▁성품 -15290
▁릭스 -15291
▁챌린저 -15292
▁괴이 -15293
▁바사라 -15294
▁식인 -15295
▁교직 -15296
▁제복 -15297
▁김준호 -15298
▁에어컨 -15299
▁디트로 -15300
▁트레인 -15301
▁다이렉트 -15302
▁디트로이트 -15303
▁RO -15304
▁관습 -15305
▁연성 -15306
▁접한 -15307
리아스 -15308
니지 -15309
▁쌍용 -15310
ally -15311
▁169 -15312
▁졌으나 -15313
▁덤비 -15314
▁여정 -15315
▁정은 -15316
▁죠셉 -15317
▁ㄹ -15318
▁루드 -15319
▁건너편 -15320
▁이유로 -15321
▁부화 -15322
▁필적 -15323
▁001 -15324
▁섰 -15325
▁덩달 -15326
▁메라 -15327
▁투항 -15328
▁푸드 -15329
▁클라우 -15330
▁Es -15331
ren -15332
▁GL -15333
▁선도 -15334
▁당분간 -15335
▁카츠키 -15336
▁간식 -15337
▁전태 -15338
리아나 -15339
▁쫓겨나 -15340
▁세무 -15341
▁전갈 -15342
▁포커 -15343
▁처한다 -15344
▁활약상 -15345
▁불분 -15346
▁수납 -15347
▁풋볼 -15348
▁김태균 -15349
▁케네 -15350
▁항쟁 -15351
olog -15352
▁Cont -15353
▁광학 -15354
▁침식 -15355
▁나눌 -15356
▁박주 -15357
▁사벨 -15358
▁제품군 -15359
IF -15360
데라 -15361
▁Lo -15362
▁미셸 -15363
▁자판기 -15364
▁임상 -15365
▁방금 -15366
▁시프트 -15367
병기 -15368
▁정적 -15369
▁럽 -15370
히트 -15371
▁레닌 -15372
▁야마자키 -15373
▁수박 -15374
▁토토 -15375
변속기 -15376
▁음식점 -15377
그래 -15378
▁Bar -15379
영웅 -15380
▁사면 -15381
▁체로 -15382
▁피버 -15383
▁선교 -15384
▁수배 -15385
▁외장 -15386
▁허위 -15387
▁쿠도 -15388
▁포터블 -15389
▁원한다면 -15390
▁토코 -15391
▁흉터 -15392
▁불분명 -15393
▁블리치 -15394
▁수뇌부 -15395
▁마공 -15396
▁정세 -15397
▁IF -15398
▁악인 -15399
포로 -15400
▁빅토르 -15401
▁중견수 -15402
호도 -15403
▁백병 -15404
▁저음 -15405
▁죄인 -15406
▁일직선 -15407
▁나온다고 -15408
▁필기 -15409
▁오스트레일리아 -15410
▁qu -15411
▁주스 -15412
▁알루미 -15413
▁로사 -15414
▁집중력 -15415
▁프라모델 -15416
▁말살 -15417
▁보구 -15418
▁야인 -15419
▁충동 -15420
▁츠네 -15421
▁중대장 -15422
모트 -15423
ited -15424
▁WOR -15425
▁예비역 -15426
▁아픔 -15427
▁오일 -15428
▁아르테 -15429
▁맨날 -15430
▁지갑 -15431
▁차출 -15432
▁라이덴 -15433
▁박스오피스 -15434
▁경이 -15435
▁구워 -15436
▁볼리 -15437
▁양현 -15438
▁Inf -15439
▁하나님 -15440
▁가리킨다 -15441
III -15442
▁다트 -15443
▁몬테 -15444
▁밀러 -15445
▁열렬 -15446
▁유부 -15447
▁나루호도 -15448
▁다다 -15449
▁소피 -15450
입구역 -15451
▁발전기 -15452
누르 -15453
▁다마 -15454
▁행세 -15455
HD -15456
▁루이지 -15457
▁카즈마 -15458
▁하르트 -15459
▁스콜피온 -15460
▁Gaming -15461
짜기 -15462
▁권역 -15463
▁삽입곡 -15464
▁접시 -15465
▁희박 -15466
▁사다리 -15467
▁빽 -15468
▁그물 -15469
▁봐라 -15470
▁폐하 -15471
▁DA -15472
▁즉석 -15473
▁특권 -15474
▁강연 -15475
▁사설 -15476
▁소량 -15477
▁파탄 -15478
▁XBO -15479
▁강호동 -15480
▁넘길 -15481
▁험한 -15482
▁VIP -15483
▁스트리밍 -15484
▁렴 -15485
▁폿 -15486
▁로니 -15487
▁셔츠 -15488
▁글리 -15489
▁코리 -15490
▁패한 -15491
▁피드백 -15492
▁world -15493
▁복부 -15494
▁메두사 -15495
▁이어질 -15496
마트 -15497
▁재미없 -15498
▁진나라 -15499
▁점하 -15500
▁000000 -15501
▁이데 -15502
▁찍혀 -15503
▁형벌 -15504
▁수영장 -15505
▁중화기 -15506
▁310 -15507
▁PvP -15508
▁Angel -15509
▁With -15510
▁마포 -15511
▁비늘 -15512
▁임용 -15513
▁불러오 -15514
▁금성 -15515
▁악평 -15516
▁이시카와 -15517
▁바란 -15518
▁외화 -15519
▁무모 -15520
▁항로 -15521
▁사우디아 -15522
타기 -15523
▁치는 -15524
▁리그베다 -15525
제리 -15526
▁VR -15527
▁길러 -15528
▁상해 -15529
appy -15530
미코 -15531
▁미유 -15532
▁배반 -15533
▁코로 -15534
▁COM -15535
▁클라라 -15536
▁마사무네 -15537
▁나탈 -15538
▁폐인 -15539
▁경비원 -15540
▁충청북도 -15541
▁떨어진다는 -15542
▁망할 -15543
▁설레 -15544
▁안기 -15545
▁자자 -15546
row -15547
▁부식 -15548
▁분화 -15549
▁능동 -15550
▁란다 -15551
▁비어 -15552
▁신빙 -15553
▁진성 -15554
▁컷인 -15555
▁환장 -15556
보잡 -15557
틀리 -15558
▁ER -15559
▁붕대 -15560
▁프랑켄슈타인 -15561
감치 -15562
콜로 -15563
▁기린 -15564
▁채울 -15565
▁데스크 -15566
▁미나토 -15567
▁옵스 -15568
▁협곡 -15569
찌감치 -15570
▁돌아보 -15571
▁또래 -15572
그라드 -15573
▁듣보잡 -15574
▁다크니스 -15575
▁대도 -15576
▁만회 -15577
▁시립 -15578
▁con -15579
로이 -15580
전함 -15581
▁낙하산 -15582
▁동남아 -15583
▁최우선 -15584
▁총재 -15585
▁플리트 -15586
▁해커 -15587
▁구라 -15588
▁중산 -15589
▁131 -15590
▁FBI -15591
▁골고루 -15592
▁아라시 -15593
▁러시아군 -15594
▁마코 -15595
▁손책 -15596
▁철회 -15597
▁짊 -15598
▁굶주 -15599
▁호위함 -15600
▁가쿠 -15601
▁지저 -15602
▁CIA -15603
▁FE -15604
▁항속 -15605
▁잠복 -15606
▁면은 -15607
▁명은 -15608
▁슬립 -15609
▁어로 -15610
▁임재 -15611
▁몸집 -15612
▁겹쳐서 -15613
▁법정동 -15614
만다 -15615
▁청취 -15616
▁관광지 -15617
▁미뤄 -15618
▁기생충 -15619
▁밸브 -15620
▁쇼우 -15621
▁암기 -15622
▁조공 -15623
ious -15624
▁뛰어났 -15625
▁안테나 -15626
▁micro -15627
▁=" -15628
▁뒤쳐 -15629
▁사카이 -15630
▁비욘 -15631
▁She -15632
▁될수록 -15633
▁알루미늄 -15634
ful -15635
▁1939 -15636
▁위인 -15637
atic -15638
▁일기토 -15639
▁피콜로 -15640
드리히 -15641
▁스테이트 -15642
▁재사 -15643
▁Ste -15644
▁베르크 -15645
▁찐 -15646
▁빌라 -15647
▁쿠폰 -15648
▁TW -15649
▁선상 -15650
▁데려다 -15651
▁영국인 -15652
▁윳 -15653
▁RX -15654
▁햄버거 -15655
▁큼 -15656
일기 -15657
▁깐다 -15658
▁자유주의 -15659
▁달걀 -15660
▁무리수 -15661
▁카이지 -15662
▁복권 -15663
▁어우 -15664
▁연호 -15665
▁255 -15666
▁오토봇 -15667
▁슴 -15668
그레 -15669
민수 -15670
▁오바마 -15671
▁카에데 -15672
▁나시 -15673
▁성령 -15674
▁내레이션 -15675
리히 -15676
전쟁 -15677
▁NFL -15678
▁노획 -15679
▁계승자 -15680
▁세워진 -15681
▁취했 -15682
▁NCR -15683
▁매지컬 -15684
▁마스터즈 -15685
▁돌렸 -15686
▁던져서 -15687
▁지자체 -15688
MC -15689
▁STAR -15690
▁레그 -15691
▁이클 -15692
▁장막 -15693
▁증인 -15694
▁브래드 -15695
▁1952 -15696
▁받아들일 -15697
사포 -15698
▁오자 -15699
▁티타 -15700
▁느냐고 -15701
▁토요타 -15702
▁햇빛 -15703
▁White -15704
▁헬로 -15705
▁긴장감 -15706
▁플레인 -15707
▁한니발 -15708
aut -15709
▁여당 -15710
▁재상 -15711
▁쿠토 -15712
▁사과문 -15713
▁티셔츠 -15714
오버 -15715
▁성시 -15716
▁임프 -15717
▁쿠루미 -15718
시장 -15719
▁묵직 -15720
▁치과 -15721
▁카라스 -15722
▁미식축구 -15723
영향 -15724
▁둔기 -15725
▁청원 -15726
▁토사 -15727
▁강함 -15728
▁몸체 -15729
델피아 -15730
▁강남구 -15731
▁사라질 -15732
▁원로원 -15733
▁장학금 -15734
▁필라델피아 -15735
먹이 -15736
▁노원 -15737
▁류우 -15738
라비아 -15739
세이더 -15740
TREME -15741
▁스튜어트 -15742
▁크루세이더 -15743
▁기아스 -15744
▁억압 -15745
▁재주 -15746
▁비틀즈 -15747
▁세실 -15748
▁컬트 -15749
▁해프 -15750
▁미시마 -15751
▁콜롬비아 -15752
▁한성 -15753
▁척하 -15754
▁소모품 -15755
▁라다 -15756
▁망원 -15757
뜨릴 -15758
day -15759
▁서사 -15760
▁포진 -15761
▁데이빗 -15762
▁시끄러 -15763
▁호스트 -15764
▁프리드리히 -15765
▁대의 -15766
▁로선 -15767
▁베레 -15768
▁상병 -15769
▁유다 -15770
▁인플레 -15771
▁코스타 -15772
▁여행자 -15773
▁마요 -15774
▁환불 -15775
▁그래프 -15776
▁타츠미 -15777
▁농부 -15778
▁블레 -15779
▁선공 -15780
▁시술 -15781
▁폰트 -15782
▁Pe -15783
▁구비 -15784
▁아론 -15785
▁호각 -15786
▁개종 -15787
▁급상 -15788
▁Sky -15789
▁쓴다고 -15790
▁고뇌 -15791
▁사생 -15792
▁세단 -15793
▁키울 -15794
bl -15795
세포 -15796
ara -15797
▁눈썹 -15798
▁새턴 -15799
▁친화 -15800
▁타카오 -15801
▁로젠 -15802
▁최진 -15803
수엘라 -15804
▁걸치 -15805
▁난데 -15806
▁대관 -15807
▁골수 -15808
▁용왕 -15809
▁420 -15810
▁카나코 -15811
리역 -15812
▁쉬우 -15813
▁마개 -15814
▁나츠메 -15815
▁Project -15816
와르 -15817
▁FN -15818
▁정렬 -15819
▁850 -15820
▁거쳐서 -15821
▁길목 -15822
▁키나 -15823
▁본거지 -15824
▁파괴자 -15825
▁꼼짝 -15826
▁반납 -15827
▁안토니오 -15828
▁캉 -15829
▁샌디 -15830
▁양도 -15831
▁커넥 -15832
이즈미 -15833
▁비둘기 -15834
▁읊 -15835
INE -15836
▁사시 -15837
▁아벨 -15838
▁겁쟁이 -15839
맹이 -15840
▁고안 -15841
▁조선소 -15842
▁앞장 -15843
▁잊혀진 -15844
▁드립니다 -15845
▁입혀 -15846
▁진기 -15847
▁DIO -15848
▁동산 -15849
▁사대 -15850
▁모터스 -15851
▁소프 -15852
▁슬래시 -15853
▁패트릭 -15854
즐리 -15855
▁딸리 -15856
▁원상 -15857
▁나왔었 -15858
▁해결책 -15859
▁이클립스 -15860
▁가세 -15861
▁주부 -15862
트리스 -15863
▁헤라클레스 -15864
75 -15865
▁OO -15866
▁해프닝 -15867
▁거둬 -15868
▁응징 -15869
▁플랜트 -15870
▁아날로그 -15871
▁겸비 -15872
▁내려왔 -15873
▁EXTREME -15874
▁경신 -15875
▁그딴 -15876
큐버스 -15877
▁슬레이 -15878
스코 -15879
▁브론즈 -15880
▁중추 -15881
▁철퇴 -15882
▁환율 -15883
▁141 -15884
▁도입부 -15885
윽고 -15886
▁보성 -15887
▁부기 -15888
▁이윽고 -15889
▁바알 -15890
▁여느 -15891
▁투타 -15892
▁신세기 -15893
▁오사무 -15894
나타 -15895
▁RR -15896
▁그해 -15897
▁돌봐 -15898
▁디에 -15899
▁리시 -15900
▁부전 -15901
▁한결 -15902
넌트 -15903
▁우대 -15904
▁치아키 -15905
▁레니 -15906
▁워페어 -15907
▁셔먼 -15908
▁실탄 -15909
▁빨라서 -15910
▁Just -15911
▁니즘 -15912
▁CCTV -15913
▁타카히로 -15914
▁스릴 -15915
▁수도원 -15916
▁자석 -15917
▁Get -15918
▁정치력 -15919
▁얼리 -15920
▁정윤 -15921
▁치곤 -15922
▁유수 -15923
레스타인 -15924
지기 -15925
하임 -15926
▁부름 -15927
▁여대 -15928
▁처해 -15929
장치 -15930
▁군중 -15931
▁벌칙 -15932
▁정설 -15933
▁Gun -15934
▁쓴다면 -15935
치오 -15936
▁쓸쓸 -15937
▁카세 -15938
▁토카 -15939
▁777 -15940
▁납품 -15941
▁신드 -15942
▁월등히 -15943
▁티라노 -15944
▁팩토리 -15945
▁권고 -15946
▁로미 -15947
▁저널 -15948
▁리오스 -15949
▁앤더슨 -15950
▁꼬박 -15951
▁털렸 -15952
▁PRO -15953
▁대항해 -15954
▁자가 -15955
▁크리스토퍼 -15956
▁녹여 -15957
▁외침 -15958
▁악영향 -15959
▁축구단 -15960
▁생리 -15961
▁마운틴 -15962
▁붉은색 -15963
▁사일런트 -15964
ger -15965
▁으시 -15966
▁베네수엘라 -15967
▁사우디아라비아 -15968
애미 -15969
▁자대 -15970
▁리조트 -15971
▁노랑 -15972
▁처방 -15973
▁마이애미 -15974
▁선명 -15975
▁허니 -15976
▁뫼비우스 -15977
▁시킨다는 -15978
reat -15979
준호 -15980
▁크류 -15981
▁나선다 -15982
▁레이카 -15983
▁로드리 -15984
▁레비 -15985
▁환원 -15986
▁평준 -15987
▁대지진 -15988
▁빈센트 -15989
▁정직 -15990
▁기공 -15991
▁초원 -15992
▁항성 -15993
▁후작 -15994
▁사이킥 -15995
▁노사 -15996
▁백두 -15997
▁투기 -15998
▁한복 -15999
▁생계 -16000
▁싫어한다 -16001
▁퀑 -16002
▁무당 -16003
▁우등 -16004
▁이화 -16005
▁제후 -16006
▁펼친 -16007
▁현무 -16008
▁미처 -16009
▁우크 -16010
▁정시 -16011
다카 -16012
▁신검 -16013
▁재래 -16014
▁겉모습 -16015
▁박히 -16016
▁앨리 -16017
▁소대장 -16018
▁우크라이나 -16019
▁어르 -16020
▁숨겨져 -16021
공주 -16022
uch -16023
▁감도 -16024
▁갈고리 -16025
▁엘다 -16026
▁연하 -16027
▁적정 -16028
▁제드 -16029
▁꾸며 -16030
▁뽑힌 -16031
▁허벅지 -16032
전생 -16033
▁냉혹 -16034
▁류지 -16035
▁검기 -16036
▁기쁘 -16037
▁끊이 -16038
▁네로 -16039
▁바흐 -16040
▁함경 -16041
리카와 -16042
▁시라이 -16043
▁잿 -16044
무로 -16045
드래곤 -16046
▁라몬 -16047
▁이의 -16048
▁평지 -16049
▁사력 -16050
▁화요일 -16051
▁쉔 -16052
타자 -16053
▁코미디언 -16054
▁개리 -16055
▁공채 -16056
▁벤츠 -16057
▁중론 -16058
▁튀어나온 -16059
둘러 -16060
▁조현 -16061
▁디럭스 -16062
▁야가미 -16063
▁Game -16064
▁미약 -16065
▁선비 -16066
니치 -16067
리즘 -16068
▁나뭇잎 -16069
▁해한다 -16070
▁LS -16071
▁520 -16072
▁악세사리 -16073
일관 -16074
▁가늠 -16075
▁최적화 -16076
▁반달 -16077
▁재무 -16078
ric -16079
▁절감 -16080
▁총구 -16081
▁케네디 -16082
▁쎄 -16083
▁크로스오버 -16084
암동 -16085
▁나크 -16086
▁열광 -16087
▁합당 -16088
▁뜬금없 -16089
▁카이바 -16090
▁위즈 -16091
▁절약 -16092
▁자민 -16093
▁아스타 -16094
나들 -16095
▁어딜 -16096
▁Side -16097
▁몰렸 -16098
▁엽기 -16099
▁전우 -16100
▁정경 -16101
▁우치하 -16102
▁클로버 -16103
▁Back -16104
▁석방 -16105
▁졸라 -16106
툴루 -16107
▁벌일 -16108
▁조니 -16109
▁레이크 -16110
▁지중해 -16111
▁근친 -16112
▁초급 -16113
▁피신 -16114
▁대장장이 -16115
▁레코 -16116
▁알맞 -16117
▁우동 -16118
테면 -16119
▁박기 -16120
▁온건 -16121
▁팔레스타인 -16122
▁이북 -16123
▁연대기 -16124
▁편애 -16125
▁리액션 -16126
▁급여 -16127
▁비숍 -16128
▁화내 -16129
▁480 -16130
▁결투장 -16131
워했 -16132
▁모티 -16133
▁기병대 -16134
▁구만 -16135
▁골리앗 -16136
▁Last -16137
▁이를테면 -16138
▁크레이지 -16139
▁무네 -16140
▁벅스 -16141
▁off -16142
▁back -16143
▁끌어올리 -16144
▁간장 -16145
less -16146
▁페가수스 -16147
▁ㅁ -16148
▁사죄 -16149
▁지친 -16150
▁텐션 -16151
▁제이드 -16152
▁동남아시아 -16153
▁통솔력 -16154
▁잣 -16155
aka -16156
▁미달 -16157
▁쿼드 -16158
▁naver -16159
▁개칭 -16160
▁순삭 -16161
▁일생 -16162
▁펠트 -16163
▁승부차기 -16164
▁School -16165
▁Ge -16166
▁바루 -16167
▁좌완 -16168
▁예술가 -16169
▁오토메 -16170
▁xx -16171
▁화가 -16172
▁달린다 -16173
▁전황 -16174
▁틈새 -16175
▁가한다 -16176
▁KS -16177
▁미우 -16178
▁반하 -16179
▁소탕 -16180
▁심부 -16181
▁해밀 -16182
소통 -16183
▁셀렉 -16184
▁Ass -16185
▁Zero -16186
▁의사소통 -16187
▁ATM -16188
▁귤 -16189
▁고참 -16190
▁춘추 -16191
▁피쳐 -16192
관계 -16193
▁토치 -16194
▁톡톡 -16195
▁TECHN -16196
▁가즈 -16197
▁스플릿 -16198
co -16199
펙터 -16200
푸스 -16201
▁상고 -16202
▁서스 -16203
▁초동 -16204
bsp -16205
페스트 -16206
▁Sil -16207
▁거느리 -16208
▁전념 -16209
▁멧돼지 -16210
▁팬클럽 -16211
후미 -16212
▁남구 -16213
▁리벤 -16214
▁경비병 -16215
▁멩 -16216
▁수혜 -16217
▁알비 -16218
▁탈당 -16219
▁도널드 -16220
▁텝 -16221
▁라티 -16222
▁학파 -16223
▁212 -16224
▁전투원 -16225
▁그러다가 -16226
▁경호원 -16227
▁블리츠 -16228
▁빌헬름 -16229
▁시부야 -16230
▁사이퍼즈 -16231
▁픈 -16232
▁추기경 -16233
▁생포 -16234
▁승승 -16235
▁보인다고 -16236
IME -16237
▁강령 -16238
▁퍼졌 -16239
▁송병구 -16240
▁하늘색 -16241
▁발렌시아 -16242
▁캬 -16243
▁수당 -16244
▁에프 -16245
▁성추행 -16246
▁아껴 -16247
▁몰려오 -16248
▁정명훈 -16249
▁심복 -16250
▁남긴다 -16251
▁무난히 -16252
이라 -16253
▁급한 -16254
▁동독 -16255
▁모치 -16256
▁장담 -16257
▁치를 -16258
베이스 -16259
▁Chr -16260
▁급상승 -16261
▁경대 -16262
▁티격 -16263
사전 -16264
▁다림 -16265
▁마실 -16266
레인지 -16267
▁명백히 -16268
▁스타킹 -16269
▁nbsp -16270
▁아닙니다 -16271
▁WE -16272
▁광석 -16273
▁소름 -16274
▁외로 -16275
▁페로 -16276
▁한중 -16277
▁디셉티콘 -16278
▁사루 -16279
▁세균 -16280
▁오승 -16281
▁검색어 -16282
▁좌익수 -16283
▁우의 -16284
▁노프 -16285
▁증차 -16286
▁군벌 -16287
▁협공 -16288
레즈 -16289
▁써니 -16290
▁통역 -16291
▁이긴다 -16292
bo -16293
▁룽 -16294
▁개화 -16295
▁철자 -16296
▁290 -16297
▁결번 -16298
▁조로 -16299
▁합금 -16300
▁라파엘 -16301
라이언트 -16302
▁Amer -16303
▁클라이언트 -16304
▁프레드 -16305
▁빈스 -16306
투수 -16307
▁유상 -16308
▁전복 -16309
▁소수자 -16310
▁일자리 -16311
▁액수 -16312
▁켄시로 -16313
▁하시모토 -16314
▁조회 -16315
▁튀어나와 -16316
▁전쟁터 -16317
▁Open -16318
▁중소기업 -16319
▁채운 -16320
▁통근 -16321
팔로 -16322
▁깔리 -16323
▁소아 -16324
에이터 -16325
니컬 -16326
▁고요 -16327
▁삿포로 -16328
▁정준하 -16329
▁뇌격 -16330
▁불발 -16331
▁원성 -16332
▁버금가 -16333
▁스러움 -16334
▁저스틴 -16335
▁선발투수 -16336
▁Di -16337
▁자바 -16338
코스터 -16339
▁크툴루 -16340
▁찜 -16341
▁너구리 -16342
▁툭하면 -16343
▁재빠 -16344
▁절판 -16345
▁족보 -16346
▁야나기 -16347
▁XBOX -16348
▁jp -16349
▁비견 -16350
▁엄연 -16351
▁웨딩 -16352
▁편도 -16353
▁우와 -16354
▁선제골 -16355
▁피그 -16356
▁진다고 -16357
▁내걸 -16358
▁유원 -16359
▁질질 -16360
자위대 -16361
니르 -16362
▁둥글 -16363
▁맹수 -16364
▁베아 -16365
▁사요 -16366
▁의류 -16367
▁유세이 -16368
▁능하 -16369
▁대구경 -16370
▁사이비 -16371
▁프리퀄 -16372
▁강정 -16373
▁소림 -16374
▁붙인다 -16375
▁음악가 -16376
▁입니까 -16377
▁롤러코스터 -16378
▁무찌 -16379
▁내려서 -16380
▁연주자 -16381
▁그렌 -16382
▁낭만 -16383
▁맞췄 -16384
▁프레데터 -16385
▁할지라도 -16386
▁시커 -16387
▁보호자 -16388
▁브라우저 -16389
▁Blood -16390
▁엑스칼리버 -16391
▁스턴트 -16392
ORA -16393
▁극성 -16394
▁1400 -16395
▁중순양함 -16396
▁야구부 -16397
▁타쿠야 -16398
▁Moon -16399
▁급습 -16400
▁배고 -16401
▁일정량 -16402
UST -16403
▁다친 -16404
▁분과 -16405
▁일파 -16406
▁주주 -16407
▁생산력 -16408
▁돌린 -16409
▁화끈 -16410
▁어쩌다 -16411
▁쥬라기 -16412
득점 -16413
▁에라 -16414
▁재사용 -16415
▁TB -16416
▁스커 -16417
▁아슈 -16418
▁회유 -16419
▁박태 -16420
▁실감 -16421
▁트와 -16422
▁는구나 -16423
▁시미즈 -16424
▁타라 -16425
▁탈주 -16426
▁성남시 -16427
▁껌 -16428
▁걷어 -16429
▁효용 -16430
▁미니게임 -16431
▁촛 -16432
▁절도 -16433
▁에볼루션 -16434
▁일찌감치 -16435
ely -16436
▁사복 -16437
▁뺑 -16438
▁아사쿠라 -16439
▁매도 -16440
▁모선 -16441
▁인승 -16442
▁나오미 -16443
▁간첩 -16444
▁하네 -16445
▁한들 -16446
▁APC -16447
▁파이팅 -16448
▁데스노트 -16449
▁건의 -16450
▁착공 -16451
▁밤중 -16452
▁투르 -16453
▁험악 -16454
▁미완성 -16455
▁나카지마 -16456
▁내년 -16457
▁다나 -16458
▁키아 -16459
▁엑셀 -16460
▁익명 -16461
▁찬사 -16462
▁홍준 -16463
▁Soul -16464
비슷 -16465
▁냅다 -16466
▁문관 -16467
ideo -16468
▁카미조 -16469
▁소망 -16470
▁신격 -16471
▁아리사 -16472
▁그제서야 -16473
▁Final -16474
▁석탄 -16475
▁오아 -16476
▁명확히 -16477
▁잘생긴 -16478
▁셧 -16479
▁고분 -16480
▁버즈 -16481
▁margin -16482
▁승계 -16483
▁기어이 -16484
▁태그팀 -16485
▁마즈 -16486
▁박병호 -16487
▁변모 -16488
▁거슬러 -16489
▁1953 -16490
▁기교 -16491
▁만년 -16492
▁일컬 -16493
▁지방도 -16494
▁비화 -16495
▁성동 -16496
▁Yes -16497
▁경상도 -16498
▁교육부 -16499
▁물러났 -16500
▁사상자 -16501
▁7000 -16502
▁에너 -16503
▁웬디 -16504
▁치요 -16505
▁공격대 -16506
▁구식 -16507
▁익힌 -16508
▁흉기 -16509
▁Art -16510
▁마사히로 -16511
ma -16512
▁모건 -16513
▁BMW -16514
▁테슬라 -16515
▁미용 -16516
▁방망 -16517
▁내려찍 -16518
▁플로리 -16519
▁페미니즘 -16520
▁딸려 -16521
▁불가피 -16522
▁수송기 -16523
▁개전 -16524
▁쌍검 -16525
▁이우 -16526
▁착취 -16527
▁거미줄 -16528
▁왔으며 -16529
▁무너뜨리 -16530
▁남산 -16531
ning -16532
▁둘째치 -16533
▁반대쪽 -16534
▁분당선 -16535
DER -16536
▁재일 -16537
▁김구라 -16538
▁바꾼다 -16539
▁트리니티 -16540
▁빨아들 -16541
▁공시 -16542
▁선후 -16543
▁무방비 -16544
▁스쿠 -16545
▁부회장 -16546
▁크라이시스 -16547
▁요요 -16548
▁넘어선 -16549
▁헤이세이 -16550
▁가야 -16551
▁지체 -16552
▁이치카 -16553
▁래리 -16554
▁유세 -16555
▁정인 -16556
▁케니 -16557
▁피노 -16558
▁방어전 -16559
▁배달부 -16560
▁부서진 -16561
HC -16562
▁어시 -16563
▁배운다 -16564
▁젓 -16565
▁애틀 -16566
▁짓거리 -16567
▁오현 -16568
▁미술관 -16569
▁박살난 -16570
▁유이치 -16571
▁시종일관 -16572
▁크로노스 -16573
▁쭈 -16574
▁갈릴 -16575
▁긋 -16576
▁도가 -16577
▁미움 -16578
▁헤딩 -16579
파치 -16580
▁망각 -16581
▁버틴 -16582
▁서남 -16583
▁Mix -16584
▁호라이즌 -16585
85 -16586
▁마늘 -16587
▁선발전 -16588
▁수제 -16589
▁제이스 -16590
박혀 -16591
▁어부 -16592
▁로켓단 -16593
▁어쩐지 -16594
▁수년 -16595
▁까다로 -16596
가키 -16597
▁Du -16598
▁면도 -16599
▁천진 -16600
▁Met -16601
▁Top -16602
▁해설자 -16603
정동 -16604
ward -16605
사노 -16606
IKA -16607
▁리노 -16608
▁부술 -16609
▁어정 -16610
▁내용물 -16611
32 -16612
대왕 -16613
▁pt -16614
▁쿠즈 -16615
▁허약 -16616
▁네메시스 -16617
▁후지와라 -16618
▁손발 -16619
▁악연 -16620
▁유민 -16621
일라잇 -16622
▁히데키 -16623
▁미스테리 -16624
▁아키야마 -16625
▁트와일라잇 -16626
▁단가 -16627
stem -16628
▁MiG -16629
▁1947 -16630
▁푸른색 -16631
▁홍준표 -16632
월드 -16633
▁반가 -16634
▁난다고 -16635
▁블루투스 -16636
▁난장 -16637
▁외쳤 -16638
▁레베카 -16639
▁멀린 -16640
▁시속 -16641
▁양평 -16642
▁달랑 -16643
▁역마 -16644
▁폐업 -16645
▁근육질 -16646
▁나아졌 -16647
▁뒤따 -16648
▁마로 -16649
▁야자 -16650
▁테드 -16651
▁표준어 -16652
▁아산 -16653
▁한족 -16654
▁영화관 -16655
▁동국 -16656
▁무로 -16657
▁반쪽 -16658
▁참수 -16659
▁IMF -16660
▁애틀랜 -16661
led -16662
▁완급 -16663
▁조영 -16664
▁보리스 -16665
▁브로드 -16666
▁이츠키 -16667
▁대격 -16668
▁앞둔 -16669
▁피겨 -16670
▁매사 -16671
▁신봉 -16672
▁허술 -16673
▁팔아먹 -16674
▁페이퍼 -16675
▁여신전생 -16676
▁갱단 -16677
▁최재 -16678
▁붙여진 -16679
to -16680
폴트 -16681
▁교제 -16682
▁버니 -16683
▁올인 -16684
▁출입구 -16685
▁하얀색 -16686
태우 -16687
▁구판 -16688
▁벼락 -16689
▁저축 -16690
▁Eng -16691
▁태권도 -16692
▁투표율 -16693
▁MIX -16694
▁문파 -16695
▁장대 -16696
▁세속 -16697
▁황자 -16698
▁way -16699
▁프란츠 -16700
ute -16701
▁TE -16702
▁천자 -16703
▁평하 -16704
▁에이미 -16705
▁매입 -16706
▁박세 -16707
▁슈우 -16708
▁조짐 -16709
▁차린 -16710
▁파치 -16711
▁호루스 -16712
▁밀리터리 -16713
▁새신 -16714
▁액스 -16715
▁적기 -16716
▁토템 -16717
▁가져와 -16718
▁희한 -16719
▁무너졌 -16720
▁쁘 -16721
▁메트 -16722
▁오보 -16723
▁위아 -16724
▁파나 -16725
▁잊어버 -16726
▁지나갈 -16727
▁린치 -16728
▁순항 -16729
▁쳐내 -16730
▁사냥터 -16731
▁조세 -16732
▁쪽지 -16733
▁갈아입 -16734
▁학부모 -16735
▁바퀴벌레 -16736
욕장 -16737
ata -16738
▁Off -16739
▁ZZ -16740
▁메츠 -16741
▁천왕 -16742
▁타사 -16743
블랜드 -16744
▁눈치챈 -16745
사관학교 -16746
▁폴라 -16747
▁시게루 -16748
▁클리블랜드 -16749
▁탬 -16750
▁CT -16751
▁독단 -16752
▁수렴 -16753
▁청하 -16754
아스 -16755
▁Core -16756
▁공적 -16757
▁숙명 -16758
▁이큐 -16759
▁튀김 -16760
ision -16761
드런 -16762
▁te -16763
▁맡겼 -16764
▁안식 -16765
▁와도 -16766
▁잠자 -16767
▁포톤 -16768
▁EXP -16769
▁쿠사나기 -16770
린트 -16771
▁충주 -16772
▁RPM -16773
현동 -16774
▁정액 -16775
▁형주 -16776
▁사나다 -16777
네트 -16778
▁투석 -16779
▁1957 -16780
▁아닌지라 -16781
▁스타더스트 -16782
eah -16783
ump -16784
▁린다 -16785
▁병합 -16786
▁식별 -16787
▁이산 -16788
▁큰일 -16789
▁구스타 -16790
▁영재 -16791
▁요지 -16792
▁로더 -16793
▁각본가 -16794
▁데이즈 -16795
▁에디터 -16796
▁합산 -16797
▁영웅전설 -16798
▁신민 -16799
▁은근슬쩍 -16800
▁^ -16801
▁맹장 -16802
▁정현 -16803
▁농어 -16804
▁비대 -16805
▁원산 -16806
▁급속도 -16807
▁스미레 -16808
▁의뢰인 -16809
▁도망친다 -16810
▁Track -16811
▁연구자 -16812
눅스 -16813
▁우여 -16814
▁아사미 -16815
▁다듬 -16816
▁사주 -16817
▁자멸 -16818
▁정제 -16819
▁카프 -16820
▁개인차 -16821
▁켓 -16822
▁골라서 -16823
▁는군 -16824
▁수퍼 -16825
▁진전 -16826
▁김종국 -16827
▁나카노 -16828
▁기껏해야 -16829
GN -16830
▁차갑 -16831
세움 -16832
▁랑그 -16833
▁마고 -16834
▁느려서 -16835
괭이 -16836
▁긴토 -16837
▁번번 -16838
▁상체 -16839
▁파병 -16840
▁요금제 -16841
▁질수록 -16842
넘기 -16843
▁문과 -16844
▁북서 -16845
▁우선시 -16846
▁크레용 -16847
비안 -16848
▁공전 -16849
▁위태 -16850
▁환산 -16851
▁대함 -16852
▁뻔하 -16853
▁증강 -16854
▁살아온 -16855
▁카미야 -16856
선스 -16857
▁계책 -16858
▁요일 -16859
▁Ext -16860
▁칭한다 -16861
▁호르몬 -16862
▁방관 -16863
▁베토 -16864
▁업자 -16865
▁토바 -16866
▁러블리 -16867
▁홉 -16868
▁튜브 -16869
▁209 -16870
▁내려놓 -16871
악기 -16872
▁BP -16873
▁링컨 -16874
▁회심 -16875
▁모자란 -16876
▁제국주의 -16877
▁리제 -16878
▁쇼코 -16879
▁대첩 -16880
▁멜리 -16881
▁첨부 -16882
▁Cap -16883
▁밀려서 -16884
▁주변인 -16885
▁동방신기 -16886
▁발효 -16887
▁포제 -16888
oney -16889
▁수송선 -16890
▁조슈아 -16891
제트 -16892
▁Mark -16893
▁{{{- -16894
▁에어리어 -16895
▁급증 -16896
▁팔렸 -16897
▁어려서 -16898
▁초음 -16899
▁라이선스 -16900
▁ve -16901
▁느와르 -16902
▁해낸다 -16903
▁욘 -16904
메일 -16905
▁귀한 -16906
▁입점 -16907
▁학군 -16908
떨어진 -16909
▁카니발 -16910
▁티베트 -16911
▁서재 -16912
▁후카 -16913
▁세운다 -16914
BY -16915
▁성취 -16916
▁우먼 -16917
▁리눅스 -16918
▁신약 -16919
▁업소 -16920
▁애니메이터 -16921
▁ADVANC -16922
▁숙지 -16923
▁시녀 -16924
▁역전승 -16925
▁1914 -16926
▁들켜 -16927
▁막말 -16928
▁순례 -16929
▁도르트 -16930
▁1938 -16931
▁Special -16932
▁아노 -16933
▁암묵 -16934
▁평이 -16935
▁가까울 -16936
▁마르크스 -16937
▁희미 -16938
▁도전자 -16939
▁켐 -16940
뮬러 -16941
▁가중 -16942
▁블룸 -16943
▁그분 -16944
▁누락 -16945
▁음력 -16946
▁체르 -16947
▁해인 -16948
▁경영학 -16949
▁Little -16950
▁끝냈 -16951
▁별거 -16952
▁ph -16953
▁모용 -16954
▁보그 -16955
▁엔도 -16956
▁태반 -16957
실록 -16958
▁송신 -16959
▁티나 -16960
▁좋아했 -16961
▁TT -16962
▁체류 -16963
▁포메 -16964
▁홍수 -16965
▁불안감 -16966
▁음료수 -16967
▁UR -16968
▁사카키 -16969
▁셰퍼드 -16970
▁경선 -16971
▁근황 -16972
▁아캄 -16973
▁추이 -16974
▁벗어났 -16975
▁이민자 -16976
▁이남 -16977
▁재선 -16978
▁키시 -16979
▁사토미 -16980
▁광교 -16981
▁경제력 -16982
▁어울린다 -16983
▁변속 -16984
▁비밀리 -16985
▁아오키 -16986
▁아틀레 -16987
▁Free -16988
▁갇히 -16989
▁구스 -16990
▁떨치 -16991
▁정유 -16992
ross -16993
▁순전히 -16994
ism -16995
▁도류 -16996
▁무예 -16997
▁최연 -16998
▁칸자키 -16999
▁폄 -17000
▁격납 -17001
▁재기 -17002
테리어 -17003
프스 -17004
▁gr -17005
▁상경 -17006
▁지폐 -17007
▁블러디 -17008
▁한국식 -17009
▁성급 -17010
▁레이코 -17011
▁That -17012
▁ap -17013
▁식신 -17014
▁토드 -17015
파일 -17016
▁데프 -17017
▁요양 -17018
▁호화 -17019
▁망설이 -17020
▁고철 -17021
▁기통 -17022
▁실컷 -17023
▁아디 -17024
▁치세 -17025
▁황소 -17026
▁FO -17027
▁찍히 -17028
▁플롯 -17029
▁가격대 -17030
▁화합 -17031
▁지니어스 -17032
두근 -17033
렁이 -17034
red -17035
▁길래 -17036
▁지탱 -17037
▁피칭 -17038
▁아레스 -17039
▁Comp -17040
▁구축전차 -17041
▁왕성 -17042
▁장민 -17043
▁사념 -17044
▁의거 -17045
▁카툰 -17046
▁스팟 -17047
▁섣 -17048
▁ac -17049
▁낮춰 -17050
▁토착 -17051
ocal -17052
▁도망칠 -17053
▁부러지 -17054
▁악단 -17055
▁엿볼 -17056
▁now -17057
▁버팔로 -17058
▁의존도 -17059
곡절 -17060
▁갈려 -17061
▁는커녕 -17062
▁++ -17063
▁구가 -17064
▁만우 -17065
▁자객 -17066
▁판명 -17067
▁net -17068
▁우여곡절 -17069
CE -17070
ner -17071
▁서프 -17072
▁야스오 -17073
▁받아들인 -17074
▁올라온다 -17075
▁ㅈ -17076
▁팻 -17077
나가와 -17078
▁정규군 -17079
▁틀림없 -17080
▁달했 -17081
▁박한 -17082
▁꾹 -17083
▁일루 -17084
▁휴지 -17085
▁1100 -17086
▁자며 -17087
▁질려 -17088
▁PT -17089
▁다량 -17090
▁마자 -17091
▁여차 -17092
▁적과 -17093
▁궤멸 -17094
▁무법 -17095
▁풀백 -17096
▁토모야 -17097
스부르크 -17098
주곡 -17099
▁피스톨 -17100
▁였으므로 -17101
▁거액 -17102
▁깨졌 -17103
▁독성 -17104
▁아린 -17105
▁레프트 -17106
▁그려진다 -17107
▁사고방식 -17108
투사 -17109
ASS -17110
▁열화 -17111
▁한눈 -17112
▁복수심 -17113
▁카르텔 -17114
가요 -17115
▁심영 -17116
▁양양 -17117
▁윤영 -17118
▁아키코 -17119
▁1300 -17120
▁호조 -17121
▁싸워서 -17122
▁코스모스 -17123
▁권하 -17124
▁부피 -17125
▁친선 -17126
▁Bad -17127
▁경비대 -17128
▁바가지 -17129
▁샌드위치 -17130
상부 -17131
소연 -17132
▁의석 -17133
▁아이카 -17134
살렘 -17135
▁주름 -17136
▁츠지 -17137
ird -17138
▁512 -17139
▁크레인 -17140
▁팔다리 -17141
▁서바이버 -17142
▁구작 -17143
▁연화 -17144
▁흐트 -17145
▁강대국 -17146
▁대전광역시 -17147
▁#, -17148
▁em -17149
▁각별 -17150
▁맞선 -17151
▁익혀 -17152
▁작물 -17153
▁지쳐 -17154
루살렘 -17155
▁동이 -17156
▁불곰 -17157
▁블랑 -17158
▁퍼플 -17159
▁평면 -17160
▁여긴다 -17161
▁투수진 -17162
au -17163
뚜기 -17164
▁설문 -17165
▁초라 -17166
▁MOV -17167
OCK -17168
▁사서 -17169
▁이로 -17170
먼드 -17171
▁깨진 -17172
▁매점 -17173
▁저번 -17174
▁!!! -17175
▁만우절 -17176
▁쟁탈전 -17177
▁Every -17178
▁컬쳐 -17179
▁콘테스트 -17180
▁카르타 -17181
▁굴림 -17182
▁역적 -17183
▁였었 -17184
▁이강 -17185
▁쿠보 -17186
▁화속 -17187
▁돌려서 -17188
▁분대장 -17189
▁사이코패스 -17190
▁흡입 -17191
▁태어날 -17192
▁스케이팅 -17193
▁망자 -17194
▁자음 -17195
▁Rob -17196
▁카자흐 -17197
▁경원 -17198
▁명심 -17199
▁치른 -17200
▁get -17201
▁무패 -17202
▁민지 -17203
▁사찰 -17204
▁유파 -17205
▁맥도날드 -17206
▁이트 -17207
▁자재 -17208
고스 -17209
▁로어 -17210
▁반주 -17211
▁이범 -17212
▁초밥 -17213
▁평시 -17214
▁프리티 -17215
▁소품 -17216
▁치워 -17217
▁놀러 -17218
▁번영 -17219
▁비열 -17220
▁착안 -17221
▁마츠다 -17222
▁센고쿠 -17223
▁짭 -17224
▁소홀 -17225
▁픽션 -17226
▁멱 -17227
▁HR -17228
▁아틀란 -17229
▁코스모 -17230
시간 -17231
▁서스펜 -17232
캐슬 -17233
▁KA -17234
▁매뉴 -17235
▁호문 -17236
▁540 -17237
▁돌풍 -17238
▁옥스 -17239
▁365 -17240
▁남아프리카 -17241
▁공석 -17242
▁투덜 -17243
ton -17244
▁덧붙이 -17245
aid -17246
▁NA -17247
▁mA -17248
▁추위 -17249
▁늘릴 -17250
▁카밀 -17251
▁변속기 -17252
▁포뮬러 -17253
lection -17254
▁창시자 -17255
▁플랫폼 -17256
▁거창 -17257
베르크 -17258
▁꼭대기 -17259
▁시트콤 -17260
▁Orig -17261
▁게재 -17262
▁하오 -17263
▁해낼 -17264
▁도르트문트 -17265
its -17266
▁그리핀 -17267
▁들려주 -17268
▁what -17269
일본 -17270
티티 -17271
▁긴가 -17272
▁스켈 -17273
▁하계 -17274
▁다이빙 -17275
▁정부군 -17276
▁Rain -17277
어먹 -17278
▁스투 -17279
▁죽임 -17280
▁필승 -17281
▁냐면서 -17282
▁뉴캐슬 -17283
▁외친다 -17284
24 -17285
트릭 -17286
▁언뜻 -17287
▁알라딘 -17288
트니 -17289
▁광부 -17290
▁수만 -17291
▁라리 -17292
▁티코 -17293
▁세바스 -17294
▁Af -17295
▁입법 -17296
▁행정부 -17297
▁하세가와 -17298
▁노다 -17299
▁방아 -17300
▁이방원 -17301
▁당원 -17302
▁벨벳 -17303
▁ADVANCED -17304
▁등용 -17305
▁들으며 -17306
▁요령 -17307
▁자결 -17308
▁패권 -17309
▁알아차리 -17310
▁바드 -17311
▁암석 -17312
▁포섭 -17313
▁망가진 -17314
▁아우구 -17315
▁예루살렘 -17316
▁카나메 -17317
▁틀어막 -17318
바인 -17319
▁서슴 -17320
▁순조 -17321
▁애리 -17322
▁오거 -17323
▁일어서 -17324
▁재판소 -17325
▁트렌드 -17326
▁강해진다 -17327
▁플로리다 -17328
▁앵글 -17329
▁온전 -17330
▁재탕 -17331
▁징집 -17332
▁태백 -17333
▁206 -17334
▁수식어 -17335
▁슬로건 -17336
▁잔소리 -17337
tm -17338
마을 -17339
▁멘토 -17340
▁뭉개 -17341
▁창당 -17342
▁숙적 -17343
▁질리 -17344
▁비타민 -17345
▁Order -17346
▁공구 -17347
▁오피 -17348
vent -17349
▁don -17350
▁스러울 -17351
▁인테르 -17352
▁근위 -17353
▁TBS -17354
영웅전설 -17355
▁은하영웅전설 -17356
▁고드 -17357
▁선별 -17358
▁May -17359
▁내려와 -17360
▁동선 -17361
▁베토벤 -17362
▁코러스 -17363
▁라이브러리 -17364
너드 -17365
▁Po -17366
▁간과 -17367
▁코피 -17368
▁노동당 -17369
▁아랑전설 -17370
교도 -17371
▁노보 -17372
▁세련 -17373
▁전범 -17374
▁특색 -17375
▁디바인 -17376
태격 -17377
▁동결 -17378
▁어감 -17379
▁해온 -17380
김없이 -17381
▁운동가 -17382
▁티격태격 -17383
▁sw -17384
▁각광 -17385
▁성범죄 -17386
▁아르타 -17387
▁아카시 -17388
▁이리야 -17389
드려 -17390
▁레고 -17391
▁자선 -17392
▁효력 -17393
orts -17394
▁공천 -17395
▁남친 -17396
▁바빌 -17397
▁새해 -17398
▁장발 -17399
▁추운 -17400
▁판넬 -17401
▁타노스 -17402
▁들어도 -17403
▁성희 -17404
▁자서 -17405
▁경멸 -17406
▁파충 -17407
▁포신 -17408
▁내쫓 -17409
▁봄버 -17410
▁수료 -17411
▁에지 -17412
▁호족 -17413
▁분수 -17414
▁색기 -17415
▁아브 -17416
▁안톤 -17417
리스크 -17418
▁난장판 -17419
▁편집자 -17420
▁빡세 -17421
▁여덟 -17422
ura -17423
▁골대 -17424
▁고아원 -17425
▁구루 -17426
▁성주 -17427
▁표류 -17428
▁뱌 -17429
▁켠 -17430
▁역기 -17431
▁활기 -17432
▁흑발 -17433
▁오산 -17434
▁스트롱 -17435
▁가맹 -17436
▁린이 -17437
▁만장 -17438
▁여객기 -17439
▁고른 -17440
▁알림 -17441
▁커진다 -17442
▁판단력 -17443
▁수산 -17444
▁카로 -17445
▁허접 -17446
▁베네치아 -17447
▁풍속 -17448
▁낙서 -17449
▁오모 -17450
▁재림 -17451
▁조아 -17452
▁묻힌 -17453
▁조동 -17454
▁채굴 -17455
▁최성 -17456
▁스트림 -17457
살이 -17458
▁로버 -17459
▁진범 -17460
▁카즈미 -17461
▁럿 -17462
▁PA -17463
▁골격 -17464
▁착수 -17465
▁초회 -17466
▁미하일 -17467
▁정신병 -17468
▁해봐도 -17469
▁줄인 -17470
▁통찰 -17471
▁Are -17472
▁근로자 -17473
▁인테리어 -17474
▁캅 -17475
▁겨누 -17476
▁예매 -17477
▁아틀란티스 -17478
▁힛 -17479
▁농도 -17480
▁가까우 -17481
▁물들 -17482
▁싸인 -17483
▁제명 -17484
▁최장 -17485
▁허준 -17486
▁내세운 -17487
▁미소년 -17488
▁몰아붙이 -17489
▁코우타 -17490
▁트롤링 -17491
▁9000 -17492
▁서동 -17493
▁미츠키 -17494
▁아머드 -17495
▁파기 -17496
▁형법 -17497
▁제각각 -17498
니엄 -17499
▁고야 -17500
▁단타 -17501
▁티모 -17502
▁레일건 -17503
▁티르 -17504
▁메이크 -17505
▁사오리 -17506
▁괴짜 -17507
▁소셜 -17508
▁줄게 -17509
▁밀레니엄 -17510
▁신차 -17511
▁오레 -17512
▁줄리아 -17513
▁히로미 -17514
스틱 -17515
▁끝낼 -17516
▁디언 -17517
▁전면전 -17518
▁민트 -17519
▁야미 -17520
▁리비아 -17521
▁항공대 -17522
▁견뎌 -17523
▁근방 -17524
▁아토 -17525
▁재결 -17526
▁지마 -17527
▁독소 -17528
▁론가 -17529
▁슈리 -17530
▁아즈텍 -17531
▁Best -17532
son -17533
▁소양 -17534
▁MI -17535
▁마성 -17536
▁png -17537
▁아라이 -17538
▁그레이브 -17539
마니 -17540
부수 -17541
임수 -17542
▁상임 -17543
▁주시 -17544
▁콜로세움 -17545
▁악수 -17546
▁조부 -17547
▁초심 -17548
▁다이크 -17549
▁매뉴얼 -17550
▁가한 -17551
▁결단 -17552
▁물류 -17553
▁원치 -17554
▁포자 -17555
▁거침 -17556
▁대련 -17557
▁달려드 -17558
xt -17559
ape -17560
▁NP -17561
▁나아지 -17562
▁Stri -17563
▁길티 -17564
▁니퍼 -17565
▁파커 -17566
▁아서스 -17567
▁한판 -17568
▁미니건 -17569
▁스러웠 -17570
▁유체 -17571
▁기형 -17572
▁사비 -17573
▁식구 -17574
ster -17575
▁Pack -17576
▁선가 -17577
▁나지 -17578
▁윤성 -17579
anna -17580
▁불량배 -17581
▁호밍 -17582
불리 -17583
▁웍스 -17584
ize -17585
▁GA -17586
▁마쓰 -17587
▁양지 -17588
▁행동력 -17589
문화 -17590
▁pe -17591
▁대물 -17592
▁불륜 -17593
▁옅 -17594
▁kn -17595
질러 -17596
▁고온 -17597
▁무토 -17598
▁원안 -17599
▁조종당 -17600
▁원가 -17601
▁역전패 -17602
▁슬라이더 -17603
▁끝없이 -17604
▁조선인 -17605
▁코만도 -17606
▁프리덤 -17607
네즈 -17608
요리 -17609
▁두각 -17610
▁매춘 -17611
▁벼슬 -17612
▁클러치 -17613
▁아름다움 -17614
슬로 -17615
▁남코 -17616
▁짬뽕 -17617
잣집 -17618
포동 -17619
▁유족 -17620
▁진중 -17621
▁쿠우 -17622
▁1951 -17623
자국 -17624
▁리포 -17625
▁오카다 -17626
황후 -17627
▁깜빡 -17628
▁미우라 -17629
▁스코어링 -17630
err -17631
▁말뚝 -17632
▁패하 -17633
▁앞머리 -17634
개골 -17635
상스 -17636
▁올라서 -17637
▁울버린 -17638
▁무쌍 -17639
▁표명 -17640
▁랠 -17641
▁막혔 -17642
▁지출 -17643
▁동탄 -17644
▁설교 -17645
▁직종 -17646
▁하가 -17647
▁흐른 -17648
▁탤런트 -17649
▁PH -17650
▁노노 -17651
▁370 -17652
피탈 -17653
▁왕정 -17654
▁이매 -17655
▁사이먼 -17656
▁야말로 -17657
▁정찰기 -17658
▁고라 -17659
▁은색 -17660
28 -17661
▁선량 -17662
▁이연 -17663
▁차우 -17664
▁캐쉬 -17665
▁마일리 -17666
겨운 -17667
AKA -17668
▁메커 -17669
▁은어 -17670
▁통장 -17671
▁대칭 -17672
▁람보 -17673
▁몰입 -17674
▁쿠파 -17675
▁칠드런 -17676
▁인조인간 -17677
▁tw -17678
▁미카도 -17679
▁서둘러 -17680
▁they -17681
oud -17682
▁다채 -17683
▁인분 -17684
▁자일 -17685
▁Mir -17686
▁달한다 -17687
썰트 -17688
▁충원 -17689
▁피크 -17690
▁앤드류 -17691
▁어썰트 -17692
▁교원 -17693
▁밀린 -17694
▁유괴 -17695
▁컨버 -17696
▁Joh -17697
▁미분 -17698
▁촉한 -17699
▁his -17700
▁Mbps -17701
▁갑주 -17702
▁초연 -17703
▁".. -17704
▁날아갔 -17705
▁노리코 -17706
▁이룰 -17707
▁홍차 -17708
폴리스 -17709
▁이장 -17710
▁구레 -17711
▁극동 -17712
▁하남 -17713
▁나이지 -17714
▁나이지리아 -17715
▁꺼려 -17716
▁반열 -17717
▁창법 -17718
▁장시간 -17719
SS -17720
자스 -17721
▁넬슨 -17722
▁다지 -17723
▁당근 -17724
▁흑색 -17725
▁노하라 -17726
▁크래시 -17727
▁서북 -17728
▁추축 -17729
▁마라톤 -17730
▁끝낸 -17731
▁치솟 -17732
▁거머 -17733
▁mAh -17734
IDE -17735
OSS -17736
▁관현 -17737
▁어머 -17738
▁척추 -17739
▁747 -17740
▁토머스 -17741
▁금정 -17742
▁발령 -17743
▁텐트 -17744
▁레이서 -17745
▁세계수 -17746
▁뜸 -17747
기수 -17748
▁국지 -17749
▁경순양함 -17750
UG -17751
▁철구 -17752
▁총회 -17753
▁혈압 -17754
▁실비아 -17755
ze -17756
▁아돌프 -17757
▁지으며 -17758
▁우익수 -17759
zy -17760
▁무소 -17761
▁브룩 -17762
▁전한 -17763
▁아오바 -17764
▁음파 -17765
▁주점 -17766
▁피고 -17767
▁광화문 -17768
▁나오토 -17769
ama -17770
▁용납 -17771
▁도요토미 -17772
▁독살 -17773
▁171 -17774
레마 -17775
▁유죄 -17776
▁정신줄 -17777
훈련 -17778
▁교구 -17779
▁승용차 -17780
▁데이비스 -17781
▁물음 -17782
▁부설 -17783
▁자행 -17784
▁잔존 -17785
▁앰프 -17786
hy -17787
▁이목 -17788
▁즌 -17789
▁달릴 -17790
▁이부키 -17791
▁파밀리아 -17792
▁First -17793
헤드 -17794
▁궁예 -17795
▁덴마 -17796
▁신야 -17797
▁오기 -17798
▁우터 -17799
▁받아들인다 -17800
▁분전 -17801
▁오재 -17802
▁차인 -17803
▁215 -17804
▁하야시 -17805
▁급감 -17806
▁로데 -17807
▁분파 -17808
▁사학 -17809
▁여군 -17810
▁정선 -17811
▁카모 -17812
▁놓인 -17813
▁순차 -17814
▁저술 -17815
▁토미노 -17816
▁마천 -17817
▁수기 -17818
▁애틀랜타 -17819
▁다구 -17820
▁찾아갔 -17821
▁기다려야 -17822
▁속했 -17823
▁유창 -17824
▁포상 -17825
▁벳 -17826
▁선단 -17827
▁시연 -17828
▁호머 -17829
▁게이밍 -17830
▁골짜기 -17831
▁브라이트 -17832
▁각주 -17833
▁비터 -17834
▁히키 -17835
▁윈스턴 -17836
▁쳇 -17837
▁예민 -17838
시즘 -17839
▁니티 -17840
▁도키 -17841
▁미코 -17842
▁포메이션 -17843
END -17844
▁상반신 -17845
특기 -17846
▁발도 -17847
▁뽐내 -17848
▁속삭 -17849
▁탄종 -17850
▁수없이 -17851
▁이세이 -17852
▁자연히 -17853
▁주특기 -17854
▁NORM -17855
▁ㅂ -17856
▁뻔뻔 -17857
▁총애 -17858
▁사우디 -17859
▁전광판 -17860
▁먹혀 -17861
▁흘렸 -17862
▁시끄럽 -17863
▁한없이 -17864
▁맨손 -17865
▁복식 -17866
▁161 -17867
▁승승장구 -17868
▁천리 -17869
▁알제리 -17870
▁열폭 -17871
▁기념일 -17872
▁교포 -17873
▁도부 -17874
▁일면 -17875
▁강서구 -17876
▁셔서 -17877
▁씌우 -17878
▁탄피 -17879
너티브 -17880
▁얼터너티브 -17881
▁강국 -17882
▁육신 -17883
▁코타 -17884
로트 -17885
▁걸러 -17886
▁돌변 -17887
▁뽑혔 -17888
▁약사 -17889
▁이도 -17890
▁피파 -17891
▁시베리아 -17892
▁HT -17893
▁메사 -17894
▁아루 -17895
▁181 -17896
▁데니스 -17897
▁1936 -17898
라이어티 -17899
슬라비아 -17900
▁유고슬라비아 -17901
어처 -17902
▁안장 -17903
▁익산 -17904
▁파주 -17905
▁235 -17906
▁펼쳐진 -17907
▁미니어처 -17908
▁버라이어티 -17909
설수 -17910
▁재수없 -17911
▁슬프 -17912
▁MAD -17913
▁두터 -17914
▁매기 -17915
▁실물 -17916
▁라이저 -17917
▁몸싸움 -17918
▁교묘 -17919
▁여제 -17920
▁제때 -17921
▁타케우치 -17922
▁북동 -17923
▁눈보라 -17924
▁미노리 -17925
▁Perf -17926
▁완력 -17927
▁왕창 -17928
▁은빛 -17929
▁힌두 -17930
▁NMB -17931
▁Miss -17932
▁NATO -17933
▁카트리지 -17934
▁관건 -17935
▁니르 -17936
▁통폐 -17937
▁한류 -17938
▁Char -17939
▁벨리 -17940
▁Down -17941
▁NORMAL -17942
▁북벌 -17943
▁잭스 -17944
▁케미 -17945
▁프렌드 -17946
▁마구잡이 -17947
▁오퍼레이터 -17948
ume -17949
▁Mem -17950
▁요시카 -17951
▁공안 -17952
▁뚫려 -17953
▁시급 -17954
▁역행 -17955
▁이송 -17956
▁전곡 -17957
▁종파 -17958
▁데미안 -17959
▁마카오 -17960
▁밝혀져 -17961
▁건만 -17962
▁에니 -17963
▁이여 -17964
▁백병전 -17965
▁어정쩡 -17966
▁엄폐물 -17967
▁커진 -17968
▁횡령 -17969
▁Hot -17970
▁이메일 -17971
▁발병 -17972
▁일병 -17973
▁판교 -17974
▁City -17975
독스 -17976
▁나돌 -17977
▁단도 -17978
▁페러 -17979
▁향신 -17980
▁wiz -17981
yes -17982
▁도맡 -17983
▁첩자 -17984
▁조나단 -17985
▁선보인다 -17986
▁출생지 -17987
▁대성공 -17988
▁펩 -17989
▁덮치 -17990
▁얼룩 -17991
조림 -17992
▁폭언 -17993
23 -17994
83 -17995
해져 -17996
▁김천 -17997
▁원술 -17998
▁재발 -17999
▁혐한 -18000
ga -18001
분투 -18002
net -18003
▁골절 -18004
▁규율 -18005
▁발하 -18006
▁풍습 -18007
회전 -18008
▁이면 -18009
▁AGE -18010
▁넥스트 -18011
▁어르신 -18012
▁에그맨 -18013
▁옥수수 -18014
▁275 -18015
▁머릿속 -18016
UD -18017
▁칵 -18018
▁쌓았 -18019
▁알트 -18020
▁오소 -18021
▁기폭 -18022
▁망신 -18023
▁명절 -18024
▁세인 -18025
▁신종 -18026
▁컬처 -18027
▁데일리 -18028
▁이케다 -18029
▁가둬 -18030
▁갈굼 -18031
▁나즈 -18032
▁시영 -18033
▁약품 -18034
▁집게 -18035
▁나눠서 -18036
만화 -18037
▁207 -18038
▁Happy -18039
꼬박 -18040
▁놓이 -18041
▁다그 -18042
▁DEF -18043
▁늘어날 -18044
▁탑승자 -18045
▁꼬박꼬박 -18046
▁뻐 -18047
▁낙양 -18048
▁실록 -18049
▁피했 -18050
▁유리카 -18051
▁치즈루 -18052
▁가차없이 -18053
제이 -18054
▁분실 -18055
▁스트라 -18056
숭아 -18057
▁서경 -18058
▁우울증 -18059
▁미주 -18060
다르 -18061
▁겸임 -18062
▁곧장 -18063
▁승낙 -18064
▁전위 -18065
▁르네상스 -18066
▁버크 -18067
▁순발 -18068
▁키는 -18069
▁dis -18070
▁재생성 -18071
▁유토피아 -18072
▁Class -18073
▁가발 -18074
▁차오 -18075
▁Ret -18076
▁몬스터즈 -18077
▁가했 -18078
▁요하 -18079
▁Break -18080
나우 -18081
awn -18082
▁765 -18083
▁Und -18084
▁선동열 -18085
▁헤일로 -18086
▁풍미 -18087
덴티티 -18088
▁RED -18089
▁쿼터백 -18090
▁했다간 -18091
▁헤어진 -18092
▁아이덴티티 -18093
▁올레 -18094
▁앞부분 -18095
▁헤드폰 -18096
▁요가 -18097
▁철학자 -18098
▁베로 -18099
▁성희롱 -18100
▁외교관 -18101
▁스테이크 -18102
▁과반 -18103
▁기로 -18104
▁성의 -18105
▁노하우 -18106
▁살아왔 -18107
▁순발력 -18108
▁위아래 -18109
▁경관 -18110
▁전경 -18111
▁헌트 -18112
▁혈관 -18113
▁스톨 -18114
▁정품 -18115
▁호시노 -18116
▁관전 -18117
▁수렵 -18118
▁접할 -18119
▁just -18120
▁콴 -18121
▁사옥 -18122
▁순화 -18123
▁입석 -18124
▁타오 -18125
66 -18126
▁총검 -18127
▁감마 -18128
▁친숙 -18129
▁하로 -18130
▁나폴리 -18131
▁누렸 -18132
▁도봉 -18133
▁211 -18134
▁MUS -18135
▁동성애자 -18136
샤인 -18137
▁TN -18138
▁머들 -18139
▁핑거 -18140
▁말버릇 -18141
▁샤르 -18142
▁황폐 -18143
▁러스트 -18144
▁Stage -18145
▁조개 -18146
▁대대장 -18147
▁전라도 -18148
부리 -18149
▁#! -18150
▁견습 -18151
▁우왕 -18152
▁한신 -18153
로그램 -18154
▁Dec -18155
▁매매 -18156
▁주재 -18157
▁합숙 -18158
▁SHD -18159
어야 -18160
▁경산 -18161
▁닷컴 -18162
▁막스 -18163
▁만담 -18164
▁개머리 -18165
▁동호회 -18166
▁띈다 -18167
▁반죽 -18168
▁산지 -18169
▁감속 -18170
▁거라 -18171
▁역도 -18172
27 -18173
▁노미 -18174
▁매튜 -18175
▁아로 -18176
▁토모코 -18177
IAL -18178
▁단수 -18179
▁다는데 -18180
▁아키하 -18181
▁노화 -18182
▁다케다 -18183
▁베르나 -18184
▁넛 -18185
▁가관 -18186
▁세울 -18187
▁숙박 -18188
▁패러독스 -18189
▁분비 -18190
▁족족 -18191
▁최형 -18192
▁코퍼 -18193
ORPG -18194
▁예컨대 -18195
▁최하위 -18196
▁통폐합 -18197
▁다람 -18198
▁로페 -18199
▁예거 -18200
▁키네 -18201
▁마니아 -18202
▁수차례 -18203
▁클라크 -18204
▁프리랜 -18205
▁깃든 -18206
▁소란 -18207
▁훌쩍 -18208
▁레스터 -18209
▁됬 -18210
ONE -18211
ius -18212
▁부상자 -18213
▁돼지고기 -18214
▁군세 -18215
▁레츠 -18216
구멍 -18217
▁애착 -18218
▁촉진 -18219
▁두개골 -18220
▁포이즌 -18221
▁뛰어다니 -18222
비야 -18223
▁양말 -18224
▁중남 -18225
▁!!" -18226
▁유키코 -18227
▁정했 -18228
▁취할 -18229
▁구한다 -18230
▁드러머 -18231
▁풀이 -18232
▁레기온 -18233
▁Elect -18234
▁찻 -18235
ole -18236
▁행렬 -18237
▁혼잡 -18238
▁속임수 -18239
▁드래곤즈 -18240
que -18241
▁가할 -18242
▁덤블 -18243
▁사칭 -18244
▁다리우스 -18245
▁반신 -18246
▁STA -18247
▁다이묘 -18248
▁수사관 -18249
▁over -18250
▁요코야마 -18251
▁포레스트 -18252
대상 -18253
플러 -18254
▁지킨 -18255
▁GAME -18256
▁950 -18257
▁약혼자 -18258
▁동강 -18259
▁화보 -18260
▁시드니 -18261
▁진행할 -18262
att -18263
▁됐었 -18264
▁빙글 -18265
▁디에고 -18266
▁풀려나 -18267
▁퀀 -18268
▁전리 -18269
▁우에노 -18270
▁플라워 -18271
▁바카 -18272
▁왕세 -18273
▁구실 -18274
▁놀려 -18275
▁잠식 -18276
▁탈영 -18277
▁부잣집 -18278
▁얏 -18279
멘션 -18280
▁콩고 -18281
▁내세워 -18282
▁디멘션 -18283
▁방영일 -18284
▁애니플러스 -18285
95 -18286
삭스 -18287
▁먹일 -18288
▁페트 -18289
▁코즈믹 -18290
▁광주광역시 -18291
▁과열 -18292
▁로트 -18293
▁집요 -18294
▁주둔지 -18295
블랑 -18296
▁다분 -18297
▁214 -18298
▁돗 -18299
▁ESP -18300
▁명실상부 -18301
▁치하 -18302
오피아 -18303
▁440 -18304
▁되살아 -18305
▁알프레드 -18306
▁에티오피아 -18307
▁세카 -18308
▁한인 -18309
▁알고리 -18310
▁두근두근 -18311
▁일렉트릭 -18312
▁쿠로사키 -18313
다듬 -18314
▁샤이니 -18315
▁영장 -18316
▁Cor -18317
▁Fly -18318
▁MOD -18319
▁간다면 -18320
▁훈련병 -18321
▁NASA -18322
▁산호 -18323
▁천차 -18324
▁주유소 -18325
▁버린다는 -18326
▁닳 -18327
마드 -18328
▁밀쳐 -18329
▁에비 -18330
▁펑펑 -18331
▁컨퍼런스 -18332
▁떠도 -18333
▁리만 -18334
▁볶음 -18335
▁수병 -18336
▁짜여 -18337
▁헤더 -18338
▁흔치 -18339
▁왔으나 -18340
▁2021 -18341
▁나타낸다 -18342
▁시리우스 -18343
▁Legend -18344
▁명언 -18345
▁주루 -18346
▁htm -18347
▁every -18348
▁엘더 -18349
▁박진영 -18350
▁래빗 -18351
▁보름 -18352
▁생소 -18353
▁자서전 -18354
▁코드네임 -18355
▁oh -18356
▁김응 -18357
▁누른 -18358
▁아발 -18359
▁위드 -18360
▁자그마 -18361
▁잃어버렸 -18362
▁검거 -18363
▁딱지 -18364
▁Fre -18365
▁EXTRA -18366
▁경음 -18367
▁깃들 -18368
▁선한 -18369
▁지간 -18370
▁짜장 -18371
▁Rad -18372
▁our -18373
▁앞세워 -18374
GM -18375
바탕 -18376
com -18377
▁유니버 -18378
irect -18379
▁차고 -18380
▁팬더 -18381
▁CGV -18382
▁메커니즘 -18383
▁뇨 -18384
▁죽여야 -18385
▁출연자 -18386
▁과잉 -18387
떨어지 -18388
▁단축키 -18389
▁사업가 -18390
▁포유 -18391
▁마사루 -18392
▁노년 -18393
▁셰이 -18394
▁역장 -18395
▁타이완 -18396
▁퍼니셔 -18397
▁한국사 -18398
각형 -18399
▁경합 -18400
▁씌워 -18401
▁양분 -18402
▁양재 -18403
▁자속 -18404
▁다이노 -18405
가르드 -18406
▁피어스 -18407
▁니키 -18408
▁작자 -18409
▁잔여 -18410
▁커져 -18411
▁Aut -18412
▁위스키 -18413
레톤 -18414
해머 -18415
▁교활 -18416
▁권법 -18417
▁분경 -18418
▁에뮬 -18419
▁이크 -18420
▁체하 -18421
▁포구 -18422
▁자이로 -18423
▁히로키 -18424
벌이 -18425
get -18426
▁붙일 -18427
▁TRA -18428
▁달려오 -18429
▁이정훈 -18430
▁향신료 -18431
▁산산조각 -18432
▁공연장 -18433
▁Dest -18434
▁스켈레톤 -18435
▁냉철 -18436
▁전단 -18437
arth -18438
▁EXO -18439
노부 -18440
▁** -18441
▁미적 -18442
▁죠타 -18443
▁걸쳐서 -18444
▁브라이 -18445
▁EXPER -18446
▁섬뜩 -18447
글러브 -18448
▁지상군 -18449
▁클리프 -18450
▁알고리즘 -18451
▁골든글러브 -18452
▁나주 -18453
▁사보 -18454
▁자백 -18455
▁제동 -18456
▁Mac -18457
▁건축물 -18458
▁그랜트 -18459
▁빈민 -18460
▁적도 -18461
▁컴플렉스 -18462
▁Level -18463
IO -18464
▁잠든 -18465
▁황색 -18466
▁권력자 -18467
▁프리랜서 -18468
▁쉰 -18469
▁이비 -18470
▁풍신 -18471
▁혈연 -18472
▁대나무 -18473
▁스메 -18474
▁클럭 -18475
▁이따금 -18476
▁Ry -18477
▁곧잘 -18478
▁기각 -18479
▁노미야 -18480
▁파충류 -18481
거스 -18482
▁공황 -18483
▁복서 -18484
▁보이드 -18485
▁당겨 -18486
▁타타 -18487
▁개머리판 -18488
노프 -18489
카이저 -18490
▁미야코 -18491
▁Tech -18492
▁국교 -18493
▁제타 -18494
INAL -18495
▁나와야 -18496
▁정한다 -18497
▁백스 -18498
OTH -18499
▁백마 -18500
▁코칭 -18501
▁쾌락 -18502
▁하야미 -18503
▁down -18504
거렸 -18505
▁얽힌 -18506
▁외동 -18507
▁푸시 -18508
▁난데없이 -18509
▁노기자카 -18510
▁거쳤 -18511
▁무르 -18512
▁보옥 -18513
▁아재 -18514
▁역세 -18515
▁정관 -18516
▁차차 -18517
▁편찬 -18518
▁싸구려 -18519
▁쓰여진 -18520
우먼 -18521
▁대영 -18522
▁윤종 -18523
▁언론사 -18524
▁즐거움 -18525
▁탄산 -18526
▁화전 -18527
▁환술 -18528
▁노태우 -18529
▁레너드 -18530
▁방탄복 -18531
▁이어주 -18532
▁이승현 -18533
▁밧줄 -18534
▁301 -18535
▁헤비급 -18536
▁눈부 -18537
▁라이스 -18538
▁TECHNIKA -18539
▁구이 -18540
▁취항 -18541
▁머물렀 -18542
▁more -18543
선거 -18544
▁러서 -18545
▁지으 -18546
▁최순 -18547
▁포박 -18548
▁등록금 -18549
▁비행장 -18550
▁가르시아 -18551
▁지명타자 -18552
▁Ul -18553
▁계신 -18554
▁요네 -18555
▁Pol -18556
▁Port -18557
▁모자이크 -18558
▁페널티가 -18559
펠러 -18560
▁동시대 -18561
▁어웨이 -18562
▁해밀턴 -18563
▁아와 -18564
▁자릿 -18565
▁쿠퍼 -18566
26 -18567
피드 -18568
▁다의 -18569
▁물어뜯 -18570
▁노우 -18571
▁채무 -18572
▁이윤열 -18573
▁켄신 -18574
▁하피 -18575
▁끈질기 -18576
TER -18577
▁공문 -18578
▁카니 -18579
▁AAA -18580
▁카트라이더 -18581
동물 -18582
enc -18583
▁주제가 -18584
▁EXPERT -18585
▁쏙 -18586
▁AO -18587
▁위용 -18588
▁돌려받 -18589
▁블로우 -18590
▁송곳니 -18591
▁애리조 -18592
빠진 -18593
ano -18594
▁여중 -18595
▁해부 -18596
▁마이티 -18597
무쌍 -18598
▁데인 -18599
▁진풍 -18600
▁410 -18601
▁뒤엎 -18602
▁렐름 -18603
▁오줌 -18604
▁갈라지 -18605
▁졸지에 -18606
소타 -18607
▁닛산 -18608
▁투지 -18609
ated -18610
▁농어촌 -18611
▁제이미 -18612
ya -18613
에트 -18614
▁이룩 -18615
▁장기전 -18616
▁=, -18617
▁레토 -18618
▁아소 -18619
▁활발히 -18620
▁맡긴 -18621
▁펠레 -18622
▁RGB -18623
▁새겨져 -18624
▁댁 -18625
니케이션 -18626
tor -18627
▁모차 -18628
▁선더 -18629
▁켈트 -18630
▁들어맞 -18631
▁스사노 -18632
▁이뤄진 -18633
▁쓰러뜨릴 -18634
▁독립운동가 -18635
▁AW -18636
▁208 -18637
▁ABC -18638
▁Hol -18639
▁난다는 -18640
▁아키오 -18641
▁커뮤니케이션 -18642
▁꺼져 -18643
▁덴오 -18644
▁에밀 -18645
▁원대 -18646
▁올리브 -18647
▁미네소타 -18648
▁서큐버스 -18649
걸음 -18650
▁감격 -18651
▁방주 -18652
▁홍련 -18653
▁마츠이 -18654
▁마이스터 -18655
▁명맥 -18656
▁생몰년 -18657
▁파라오 -18658
▁뒤섞 -18659
▁자정 -18660
▁카나타 -18661
▁특촬물 -18662
▁볼드모트 -18663
수염 -18664
▁속출 -18665
▁도카이 -18666
▁보급품 -18667
▁약해진 -18668
▁어설프 -18669
▁정가 -18670
▁거쳐야 -18671
▁하이스 -18672
바위보 -18673
▁날아간 -18674
▁취한다 -18675
▁조선일보 -18676
▁가위바위보 -18677
▁일전 -18678
▁광저우 -18679
▁모성 -18680
▁빼앗겼 -18681
▁뿜어내 -18682
▁히데오 -18683
▁몬드 -18684
▁인계 -18685
▁투여 -18686
▁피통 -18687
▁마리나 -18688
▁바이트 -18689
▁하나같이 -18690
▁팽창 -18691
▁하긴 -18692
▁레인저스 -18693
▁빤 -18694
매기 -18695
▁급소 -18696
▁다테 -18697
▁복판 -18698
▁연장선 -18699
▁우즈베 -18700
▁Line -18701
▁WHIP -18702
하늘 -18703
▁강당 -18704
▁내신 -18705
▁라르 -18706
▁소린 -18707
▁품목 -18708
피디아 -18709
▁GPS -18710
▁거북이 -18711
▁선샤인 -18712
▁이나바 -18713
도어 -18714
▁민심 -18715
▁송지 -18716
▁호연 -18717
▁거처 -18718
▁꼼꼼 -18719
▁반입 -18720
▁정상급 -18721
비지 -18722
uro -18723
▁증식 -18724
▁노이드 -18725
▁타카미 -18726
ouble -18727
▁위키피디아 -18728
성어 -18729
▁레터 -18730
▁아이슬 -18731
▁내무 -18732
▁노드 -18733
도니아 -18734
▁Hey -18735
▁Fall -18736
▁간직 -18737
▁개중 -18738
▁산전 -18739
▁베이커 -18740
▁소스케 -18741
ague -18742
▁도메인 -18743
▁라이엇 -18744
▁지날수록 -18745
▁"' -18746
▁견딜 -18747
▁여길 -18748
▁요마 -18749
▁트인 -18750
▁티오 -18751
▁good -18752
팽이 -18753
▁도왔 -18754
▁명계 -18755
▁앤트 -18756
▁청혼 -18757
▁희소 -18758
▁병살타 -18759
▁케이스케 -18760
▁가요제 -18761
▁번쩍 -18762
▁속주 -18763
▁설립자 -18764
▁메모리얼 -18765
▁갈비 -18766
▁장문 -18767
▁지바 -18768
▁Val -18769
▁장제스 -18770
츠미 -18771
▁깨져 -18772
▁사하 -18773
▁영수 -18774
▁watch -18775
be -18776
▁라카 -18777
▁소굴 -18778
▁Ant -18779
▁타무라 -18780
▁봉지 -18781
▁살포 -18782
▁경희대 -18783
▁후지타 -18784
▁깍 -18785
▁작아 -18786
▁한술 -18787
▁호신 -18788
ther -18789
▁유희열 -18790
▁고구 -18791
▁녹스 -18792
▁도래 -18793
▁수두 -18794
▁의약 -18795
▁조련 -18796
▁취역 -18797
▁바티칸 -18798
▁바이올렛 -18799
▁영령 -18800
▁와해 -18801
▁훔친 -18802
▁EPL -18803
▁박지성 -18804
▁연합국 -18805
▁강북 -18806
▁완투 -18807
▁여하튼 -18808
▁중심부 -18809
배기 -18810
비어 -18811
▁EL -18812
▁남서 -18813
▁총수 -18814
▁팍팍 -18815
▁패해 -18816
▁카디널 -18817
48 -18818
▁OT -18819
▁발열 -18820
▁보크 -18821
▁투영 -18822
▁살아갈 -18823
▁천문학 -18824
여겨 -18825
▁낙동 -18826
▁매크로 -18827
▁Kill -18828
we -18829
▁캠핑 -18830
▁방사선 -18831
매김 -18832
▁가락 -18833
▁사적 -18834
▁상층 -18835
조선 -18836
키오 -18837
▁궁궐 -18838
▁도살 -18839
▁발랄 -18840
▁우러 -18841
line -18842
▁오스틴 -18843
▁트랭크 -18844
▁몽환 -18845
▁비우 -18846
▁이펙터 -18847
▁Show -18848
▁자리매김 -18849
▁white -18850
▁아이슬란드 -18851
구석 -18852
▁뒤져 -18853
▁혹독 -18854
▁머큐 -18855
▁꼬맹이 -18856
▁요스케 -18857
▁일찍이 -18858
UND -18859
▁동자 -18860
▁구세주 -18861
▁내려간 -18862
▁소폭 -18863
▁완패 -18864
▁황천 -18865
▁물려주 -18866
▁이대호 -18867
▁한자어 -18868
▁Spring -18869
▁쿡 -18870
und -18871
▁헤엄 -18872
ITAD -18873
▁Pop -18874
▁조종석 -18875
▁나토 -18876
▁모셔 -18877
▁남겨진 -18878
▁들이받 -18879
▁펌웨어 -18880
타마 -18881
▁고해 -18882
▁목성 -18883
▁입혔 -18884
▁마츠리 -18885
▁스케이트 -18886
▁간절 -18887
▁목욕탕 -18888
▁이뤄졌 -18889
▁흩어져 -18890
▁편차 -18891
▁디스트로 -18892
▁못했으며 -18893
ck -18894
▁괄호 -18895
▁자물 -18896
▁포괄 -18897
[...]
