[UNK]
[CLS]
[SEP]
[PAD]
[MASK]
!
"
#
$
%
&
'
(
)
*
+
,
-
.
/
0
1
2
3
4
5
6
7
8
9
:
;
<
=
>
?
@
A
B
C
D
E
F
G
H
I
J
K
L
M
N
O
P
Q
R
S
T
U
V
W
X
Y
Z
[
\
]
^
_
`
a
b
c
d
e
f
g
h
i
j
k
l
m
n
o
p
q
r
s
t
u
v
w
x
y
z
{
|
}
~

ㄱ
ㄲ
ㄳ
ㄴ
ㄵ
ㄶ
ㄷ
ㄸ
ㄹ
ㄺ
ㄻ
ㄼ
ㄽ
ㄾ
ㄿ
ㅀ
ㅁ
ㅂ
ㅃ
ㅄ
ㅅ
ㅆ
ㅇ
ㅈ
ㅉ
ㅊ
ㅋ
ㅌ
ㅍ
ㅎ
ㅏ
ㅐ
ㅑ
ㅒ
ㅓ
ㅔ
ㅕ
ㅖ
ㅗ
ㅘ
ㅙ
ㅚ
ㅛ
ㅜ
ㅝ
ㅞ
ㅟ
ㅠ
ㅡ
ㅢ
ㅣ
가
각
갂
갃
간
갅
갆
갇
갈
갉
갊
갋
갌
갍
갎
갏
감
갑
값
갓
갔
강
갖
갗
갘
같
갚
갛
개
객
갞
갟
갠
갡
갢
갣
갤
갥
갦
갧
갨
갩
갪
갫
갬
갭
갮
갯
갰
갱
갲
갳
갴
갵
갶
갷
갸
갹
갺
갻
갼
갽
갾
갿
걀
걁
걂
걃
걄
걅
걆
걇
걈
걉
걊
걋
걌
걍
걎
걏
걐
걑
걒
걓
걔
걕
걖
걗
걘
걙
걚
걛
걜
걝
걞
걟
걠
걡
걢
걣
걤
걥
걦
걧
걨
걩
걪
걫
걬
걭
걮
걯
거
걱
걲
걳
건
걵
걶
걷
걸
걹
걺
걻
걼
걽
걾
걿
검
겁
겂
것
겄
겅
겆
겇
겈
겉
겊
겋
게
겍
겎
겏
겐
겑
겒
겓
겔
겕
겖
겗
겘
겙
겚
겛
겜
겝
겞
겟
겠
겡
겢
겣
겤
겥
겦
겧
겨
격
겪
겫
견
겭
겮
겯
결
겱
겲
겳
겴
겵
겶
겷
겸
겹
겺
겻
겼
경
겾
겿
곀
곁
곂
곃
계
곅
곆
곇
곈
곉
곊
곋
곌
곍
곎
곏
곐
곑
곒
곓
곔
곕
곖
곗
곘
곙
곚
곛
곜
곝
곞
곟
고
곡
곢
곣
곤
곥
곦
곧
골
곩
곪
곫
곬
곭
곮
곯
곰
곱
곲
곳
곴
공
곶
곷
곸
곹
곺
곻
과
곽
곾
곿
관
괁
괂
괃
괄
괅
괆
괇
괈
괉
괊
괋
괌
괍
괎
괏
괐
광
괒
괓
괔
괕
괖
괗
괘
괙
괚
괛
괜
괝
괞
괟
괠
괡
괢
괣
괤
괥
괦
괧
괨
괩
괪
괫
괬
괭
괮
괯
괰
괱
괲
괳
괴
괵
괶
괷
괸
괹
괺
괻
괼
괽
괾
괿
굀
굁
굂
굃
굄
굅
굆
굇
굈
굉
굊
굋
굌
굍
굎
굏
교
굑
굒
굓
굔
굕
굖
굗
굘
굙
굚
굛
굜
굝
굞
굟
굠
굡
굢
굣
굤
굥
굦
굧
굨
굩
굪
굫
구
국
굮
굯
군
굱
굲
굳
굴
굵
굶
굷
굸
굹
굺
굻
굼
굽
굾
굿
궀
궁
궂
궃
궄
궅
궆
궇
궈
궉
궊
궋
권
궍
궎
궏
궐
궑
궒
궓
궔
궕
궖
궗
궘
궙
궚
궛
궜
궝
궞
궟
궠
궡
궢
궣
궤
궥
궦
궧
궨
궩
궪
궫
궬
궭
궮
궯
궰
궱
궲
궳
궴
궵
궶
궷
궸
궹
궺
궻
궼
궽
궾
궿
귀
귁
귂
귃
귄
귅
귆
귇
귈
귉
귊
귋
귌
귍
귎
귏
귐
귑
귒
귓
귔
귕
귖
귗
귘
귙
귚
귛
규
귝
귞
귟
균
귡
귢
귣
귤
귥
귦
귧
귨
귩
귪
귫
귬
귭
귮
귯
귰
귱
귲
귳
귴
귵
귶
귷
그
극
귺
귻
근
귽
귾
귿
글
긁
긂
긃
긄
긅
긆
긇
금
급
긊
긋
긌
긍
긎
긏
긐
긑
긒
긓
긔
긕
긖
긗
긘
긙
긚
긛
긜
긝
긞
긟
긠
긡
긢
긣
긤
긥
긦
긧
긨
긩
긪
긫
긬
긭
긮
긯
기
긱
긲
긳
긴
긵
긶
긷
길
긹
긺
긻
긼
긽
긾
긿
김
깁
깂
깃
깄
깅
깆
깇
깈
깉
깊
깋
까
깍
깎
깏
깐
깑
깒
깓
깔
깕
깖
깗
깘
깙
깚
깛
깜
깝
깞
깟
깠
깡
깢
깣
깤
깥
깦
깧
깨
깩
깪
깫
깬
깭
깮
깯
깰
깱
깲
깳
깴
깵
깶
깷
깸
깹
깺
깻
깼
깽
깾
깿
꺀
꺁
꺂
꺃
꺄
꺅
꺆
꺇
꺈
꺉
꺊
꺋
꺌
꺍
꺎
꺏
꺐
꺑
꺒
꺓
꺔
꺕
꺖
꺗
꺘
꺙
꺚
꺛
꺜
꺝
꺞
꺟
꺠
꺡
꺢
꺣
꺤
꺥
꺦
꺧
꺨
꺩
꺪
꺫
꺬
꺭
꺮
꺯
꺰
꺱
꺲
꺳
꺴
꺵
꺶
꺷
꺸
꺹
꺺
꺻
꺼
꺽
꺾
꺿
껀
껁
껂
껃
껄
껅
껆
껇
껈
껉
껊
껋
껌
껍
껎
껏
껐
껑
껒
껓
껔
껕
껖
껗
께
껙
껚
껛
껜
껝
껞
껟
껠
껡
껢
껣
껤
껥
껦
껧
껨
껩
껪
껫
껬
껭
껮
껯
껰
껱
껲
껳
껴
껵
껶
껷
껸
껹
껺
껻
껼
껽
껾
껿
꼀
꼁
꼂
꼃
꼄
꼅
꼆
꼇
꼈
꼉
꼊
꼋
꼌
꼍
꼎
꼏
꼐
꼑
꼒
꼓
꼔
꼕
꼖
꼗
꼘
꼙
꼚
꼛
꼜
꼝
꼞
꼟
꼠
꼡
꼢
꼣
꼤
꼥
꼦
꼧
꼨
꼩
꼪
꼫
꼬
꼭
꼮
꼯
꼰
꼱
꼲
꼳
꼴
꼵
꼶
꼷
꼸
꼹
꼺
꼻
꼼
꼽
꼾
꼿
꽀
꽁
꽂
꽃
꽄
꽅
꽆
꽇
꽈
꽉
꽊
꽋
꽌
꽍
꽎
꽏
꽐
꽑
꽒
꽓
꽔
꽕
꽖
꽗
꽘
꽙
꽚
꽛
꽜
꽝
꽞
꽟
꽠
꽡
꽢
꽣
꽤
꽥
꽦
꽧
꽨
꽩
꽪
꽫
꽬
꽭
꽮
꽯
꽰
꽱
꽲
꽳
꽴
꽵
꽶
꽷
꽸
꽹
꽺
꽻
꽼
꽽
꽾
꽿
꾀
꾁
꾂
꾃
꾄
꾅
꾆
꾇
꾈
꾉
꾊
꾋
꾌
꾍
꾎
꾏
꾐
꾑
꾒
꾓
꾔
꾕
꾖
꾗
꾘
꾙
꾚
꾛
꾜
꾝
꾞
꾟
꾠
꾡
꾢
꾣
꾤
꾥
꾦
꾧
꾨
꾩
꾪
꾫
꾬
꾭
꾮
꾯
꾰
꾱
꾲
꾳
꾴
꾵
꾶
꾷
꾸
꾹
꾺
꾻
꾼
꾽
꾾
꾿
꿀
꿁
꿂
꿃
꿄
꿅
꿆
꿇
꿈
꿉
꿊
꿋
꿌
꿍
꿎
꿏
꿐
꿑
꿒
꿓
꿔
꿕
꿖
꿗
꿘
꿙
꿚
꿛
꿜
꿝
꿞
꿟
꿠
꿡
꿢
꿣
꿤
꿥
꿦
꿧
꿨
꿩
꿪
꿫
꿬
꿭
꿮
꿯
꿰
꿱
꿲
꿳
꿴
꿵
꿶
꿷
꿸
꿹
꿺
꿻
꿼
꿽
꿾
꿿
뀀
뀁
뀂
뀃
뀄
뀅
뀆
뀇
뀈
뀉
뀊
뀋
뀌
뀍
뀎
뀏
뀐
뀑
뀒
뀓
뀔
뀕
뀖
뀗
뀘
뀙
뀚
뀛
뀜
뀝
뀞
뀟
뀠
뀡
뀢
뀣
뀤
뀥
뀦
뀧
뀨
뀩
뀪
뀫
뀬
뀭
뀮
뀯
뀰
뀱
뀲
뀳
뀴
뀵
뀶
뀷
뀸
뀹
뀺
뀻
뀼
뀽
뀾
뀿
끀
끁
끂
끃
끄
끅
끆
끇
끈
끉
끊
끋
끌
끍
끎
끏
끐
끑
끒
끓
끔
끕
끖
끗
끘
끙
끚
끛
끜
끝
끞
끟
끠
끡
끢
끣
끤
끥
끦
끧
끨
끩
끪
끫
끬
끭
끮
끯
끰
끱
끲
끳
끴
끵
끶
끷
끸
끹
끺
끻
끼
끽
끾
끿
낀
낁
낂
낃
낄
낅
낆
낇
낈
낉
낊
낋
낌
낍
낎
낏
낐
낑
낒
낓
낔
낕
낖
낗
나
낙
낚
낛
난
낝
낞
낟
날
낡
낢
낣
낤
낥
낦
낧
남
납
낪
낫
났
낭
낮
낯
낰
낱
낲
낳
내
낵
낶
낷
낸
낹
낺
낻
낼
낽
낾
낿
냀
냁
냂
냃
냄
냅
냆
냇
냈
냉
냊
냋
냌
냍
냎
냏
냐
냑
냒
냓
냔
냕
냖
냗
냘
냙
냚
냛
냜
냝
냞
냟
냠
냡
냢
냣
냤
냥
냦
냧
냨
냩
냪
냫
냬
냭
냮
냯
냰
냱
냲
냳
냴
냵
냶
냷
냸
냹
냺
냻
냼
냽
냾
냿
넀
넁
넂
넃
넄
넅
넆
넇
너
넉
넊
넋
넌
넍
넎
넏
널
넑
넒
넓
넔
넕
넖
넗
넘
넙
넚
넛
넜
넝
넞
넟
넠
넡
넢
넣
네
넥
넦
넧
넨
넩
넪
넫
넬
넭
넮
넯
넰
넱
넲
넳
넴
넵
넶
넷
넸
넹
넺
넻
넼
넽
넾
넿
녀
녁
녂
녃
년
녅
녆
녇
녈
녉
녊
녋
녌
녍
녎
녏
념
녑
녒
녓
녔
녕
녖
녗
녘
녙
녚
녛
녜
녝
녞
녟
녠
녡
녢
녣
녤
녥
녦
녧
녨
녩
녪
녫
녬
녭
녮
녯
녰
녱
녲
녳
녴
녵
녶
녷
노
녹
녺
녻
논
녽
녾
녿
놀
놁
놂
놃
놄
놅
놆
놇
놈
놉
놊
놋
놌
농
놎
놏
놐
놑
높
놓
놔
놕
놖
놗
놘
놙
놚
놛
놜
놝
놞
놟
놠
놡
놢
놣
놤
놥
놦
놧
놨
놩
놪
놫
놬
놭
놮
놯
놰
놱
놲
놳
놴
놵
놶
놷
놸
놹
놺
놻
놼
놽
놾
놿
뇀
뇁
뇂
뇃
뇄
뇅
뇆
뇇
뇈
뇉
뇊
뇋
뇌
뇍
뇎
뇏
뇐
뇑
뇒
뇓
뇔
뇕
뇖
뇗
뇘
뇙
뇚
뇛
뇜
뇝
뇞
뇟
뇠
뇡
뇢
뇣
뇤
뇥
뇦
뇧
뇨
뇩
뇪
뇫
뇬
뇭
뇮
뇯
뇰
뇱
뇲
뇳
뇴
뇵
뇶
뇷
뇸
뇹
뇺
뇻
뇼
뇽
뇾
뇿
눀
눁
눂
눃
누
눅
눆
눇
눈
눉
눊
눋
눌
눍
눎
눏
눐
눑
눒
눓
눔
눕
눖
눗
눘
눙
눚
눛
눜
눝
눞
눟
눠
눡
눢
눣
눤
눥
눦
눧
눨
눩
눪
눫
눬
눭
눮
눯
눰
눱
눲
눳
눴
눵
눶
눷
눸
눹
눺
눻
눼
눽
눾
눿
뉀
뉁
뉂
뉃
뉄
뉅
뉆
뉇
뉈
뉉
뉊
뉋
뉌
뉍
뉎
뉏
뉐
뉑
뉒
뉓
뉔
뉕
뉖
뉗
뉘
뉙
뉚
뉛
뉜
뉝
뉞
뉟
뉠
뉡
뉢
뉣
뉤
뉥
뉦
뉧
뉨
뉩
뉪
뉫
뉬
뉭
뉮
뉯
뉰
뉱
뉲
뉳
뉴
뉵
뉶
뉷
뉸
뉹
뉺
뉻
뉼
뉽
뉾
뉿
늀
늁
늂
늃
늄
늅
늆
늇
늈
늉
늊
늋
늌
늍
늎
늏
느
늑
늒
늓
는
늕
늖
늗
늘
늙
늚
늛
늜
늝
늞
늟
늠
늡
늢
늣
늤
능
늦
늧
늨
늩
늪
늫
늬
늭
늮
늯
늰
늱
늲
늳
늴
늵
늶
늷
늸
늹
늺
늻
늼
늽
늾
늿
닀
닁
닂
닃
닄
닅
닆
닇
니
닉
닊
닋
닌
닍
닎
닏
닐
닑
닒
닓
닔
닕
닖
닗
님
닙
닚
닛
닜
닝
닞
닟
닠
닡
닢
닣
다
닥
닦
닧
단
닩
닪
닫
달
닭
닮
닯
닰
닱
닲
닳
담
답
닶
닷
닸
당
닺
닻
닼
닽
닾
닿
대
댁
댂
댃
댄
댅
댆
댇
댈
댉
댊
댋
댌
댍
댎
댏
댐
댑
댒
댓
댔
댕
댖
댗
댘
댙
댚
댛
댜
댝
댞
댟
댠
댡
댢
댣
댤
댥
댦
댧
댨
댩
댪
댫
댬
댭
댮
댯
댰
댱
댲
댳
댴
댵
댶
댷
댸
댹
댺
댻
댼
댽
댾
댿
덀
덁
덂
덃
덄
덅
덆
덇
덈
덉
덊
덋
덌
덍
덎
덏
덐
덑
덒
덓
더
덕
덖
덗
던
덙
덚
덛
덜
덝
덞
덟
덠
덡
덢
덣
덤
덥
덦
덧
덨
덩
덪
덫
덬
덭
덮
덯
데
덱
덲
덳
덴
덵
덶
덷
델
덹
덺
덻
덼
덽
덾
덿
뎀
뎁
뎂
뎃
뎄
뎅
뎆
뎇
뎈
뎉
뎊
뎋
뎌
뎍
뎎
뎏
뎐
뎑
뎒
뎓
뎔
뎕
뎖
뎗
뎘
뎙
뎚
뎛
뎜
뎝
뎞
뎟
뎠
뎡
뎢
뎣
뎤
뎥
뎦
뎧
뎨
뎩
뎪
뎫
뎬
뎭
뎮
뎯
뎰
뎱
뎲
뎳
뎴
뎵
뎶
뎷
뎸
뎹
뎺
뎻
뎼
뎽
뎾
뎿
돀
돁
돂
돃
도
독
돆
돇
돈
돉
돊
돋
돌
돍
돎
돏
돐
돑
돒
돓
돔
돕
돖
돗
돘
동
돚
돛
돜
돝
돞
돟
돠
돡
돢
돣
돤
돥
돦
돧
돨
돩
돪
돫
돬
돭
돮
돯
돰
돱
돲
돳
돴
돵
돶
돷
돸
돹
돺
돻
돼
돽
돾
돿
됀
됁
됂
됃
됄
됅
됆
됇
됈
됉
됊
됋
됌
됍
됎
됏
됐
됑
됒
됓
됔
됕
됖
됗
되
됙
됚
됛
된
됝
됞
됟
될
됡
됢
됣
됤
됥
됦
됧
됨
됩
됪
됫
됬
됭
됮
됯
됰
됱
됲
됳
됴
됵
됶
됷
됸
됹
됺
됻
됼
됽
됾
됿
둀
둁
둂
둃
둄
둅
둆
둇
둈
둉
둊
둋
둌
둍
둎
둏
두
둑
둒
둓
둔
둕
둖
둗
둘
둙
둚
둛
둜
둝
둞
둟
둠
둡
둢
둣
둤
둥
둦
둧
둨
둩
둪
둫
둬
둭
둮
둯
둰
둱
둲
둳
둴
둵
둶
둷
둸
둹
둺
둻
둼
둽
둾
둿
뒀
뒁
뒂
뒃
뒄
뒅
뒆
뒇
뒈
뒉
뒊
뒋
뒌
뒍
뒎
뒏
뒐
뒑
뒒
뒓
뒔
뒕
뒖
뒗
뒘
뒙
뒚
뒛
뒜
뒝
뒞
뒟
뒠
뒡
뒢
뒣
뒤
뒥
뒦
뒧
뒨
뒩
뒪
뒫
뒬
뒭
뒮
뒯
뒰
뒱
뒲
뒳
뒴
뒵
뒶
뒷
뒸
뒹
뒺
뒻
뒼
뒽
뒾
뒿
듀
듁
듂
듃
듄
듅
듆
듇
듈
듉
듊
듋
듌
듍
듎
듏
듐
듑
듒
듓
듔
듕
듖
듗
듘
듙
듚
듛
드
득
듞
듟
든
듡
듢
듣
들
듥
듦
듧
듨
듩
듪
듫
듬
듭
듮
듯
듰
등
듲
듳
듴
듵
듶
듷
듸
듹
듺
듻
듼
듽
듾
듿
딀
딁
딂
딃
딄
딅
딆
딇
딈
딉
딊
딋
딌
딍
딎
딏
딐
딑
딒
딓
디
딕
딖
딗
딘
딙
딚
딛
딜
딝
딞
딟
딠
딡
딢
딣
딤
딥
딦
딧
딨
딩
딪
딫
딬
딭
딮
딯
따
딱
딲
딳
딴
딵
딶
딷
딸
딹
딺
딻
딼
딽
딾
딿
땀
땁
땂
땃
땄
땅
땆
땇
땈
땉
땊
땋
때
땍
땎
땏
땐
땑
땒
땓
땔
땕
땖
땗
땘
땙
땚
땛
땜
땝
땞
땟
땠
땡
땢
땣
땤
땥
땦
땧
땨
땩
땪
땫
땬
땭
땮
땯
땰
땱
땲
땳
땴
땵
땶
땷
땸
땹
땺
땻
땼
땽
땾
땿
떀
떁
떂
떃
떄
떅
떆
떇
떈
떉
떊
떋
떌
떍
떎
떏
떐
떑
떒
떓
떔
떕
떖
떗
떘
떙
떚
떛
떜
떝
떞
떟
떠
떡
떢
떣
떤
떥
떦
떧
떨
떩
떪
떫
떬
떭
떮
떯
떰
떱
떲
떳
떴
떵
떶
떷
떸
떹
떺
떻
떼
떽
떾
떿
뗀
뗁
뗂
뗃
뗄
뗅
뗆
뗇
뗈
뗉
뗊
뗋
뗌
뗍
뗎
뗏
뗐
뗑
뗒
뗓
뗔
뗕
뗖
뗗
뗘
뗙
뗚
뗛
뗜
뗝
뗞
뗟
뗠
뗡
뗢
뗣
뗤
뗥
뗦
뗧
뗨
뗩
뗪
뗫
뗬
뗭
뗮
뗯
뗰
뗱
뗲
뗳
뗴
뗵
뗶
뗷
뗸
뗹
뗺
뗻
뗼
뗽
뗾
뗿
똀
똁
똂
똃
똄
똅
똆
똇
똈
똉
똊
똋
똌
똍
똎
똏
또
똑
똒
똓
똔
똕
똖
똗
똘
똙
똚
똛
똜
똝
똞
똟
똠
똡
똢
똣
똤
똥
똦
똧
똨
똩
똪
똫
똬
똭
똮
똯
똰
똱
똲
똳
똴
똵
똶
똷
똸
똹
똺
똻
똼
똽
똾
똿
뙀
뙁
뙂
뙃
뙄
뙅
뙆
뙇
뙈
뙉
뙊
뙋
뙌
뙍
뙎
뙏
뙐
뙑
뙒
뙓
뙔
뙕
뙖
뙗
뙘
뙙
뙚
뙛
뙜
뙝
뙞
뙟
뙠
뙡
뙢
뙣
뙤
뙥
뙦
뙧
뙨
뙩
뙪
뙫
뙬
뙭
뙮
뙯
뙰
뙱
뙲
뙳
뙴
뙵
뙶
뙷
뙸
뙹
뙺
뙻
뙼
뙽
뙾
뙿
뚀
뚁
뚂
뚃
뚄
뚅
뚆
뚇
뚈
뚉
뚊
뚋
뚌
뚍
뚎
뚏
뚐
뚑
뚒
뚓
뚔
뚕
뚖
뚗
뚘
뚙
뚚
뚛
뚜
뚝
뚞
뚟
뚠
뚡
뚢
뚣
뚤
뚥
뚦
뚧
뚨
뚩
뚪
뚫
뚬
뚭
뚮
뚯
뚰
뚱
뚲
뚳
뚴
뚵
뚶
뚷
뚸
뚹
뚺
뚻
뚼
뚽
뚾
뚿
뛀
뛁
뛂
뛃
뛄
뛅
뛆
뛇
뛈
뛉
뛊
뛋
뛌
뛍
뛎
뛏
뛐
뛑
뛒
뛓
뛔
뛕
뛖
뛗
뛘
뛙
뛚
뛛
뛜
뛝
뛞
뛟
뛠
뛡
뛢
뛣
뛤
뛥
뛦
뛧
뛨
뛩
뛪
뛫
뛬
뛭
뛮
뛯
뛰
뛱
뛲
뛳
뛴
뛵
뛶
뛷
뛸
뛹
뛺
뛻
뛼
뛽
뛾
뛿
뜀
뜁
뜂
뜃
뜄
뜅
뜆
뜇
뜈
뜉
뜊
뜋
뜌
뜍
뜎
뜏
뜐
뜑
뜒
뜓
뜔
뜕
뜖
뜗
뜘
뜙
뜚
뜛
뜜
뜝
뜞
뜟
뜠
뜡
뜢
뜣
뜤
뜥
뜦
뜧
뜨
뜩
뜪
뜫
뜬
뜭
뜮
뜯
뜰
뜱
뜲
뜳
뜴
뜵
뜶
뜷
뜸
뜹
뜺
뜻
뜼
뜽
뜾
뜿
띀
띁
띂
띃
띄
띅
띆
띇
띈
띉
띊
띋
띌
띍
띎
띏
띐
띑
띒
띓
띔
띕
띖
띗
띘
띙
띚
띛
띜
띝
띞
띟
띠
띡
띢
띣
띤
띥
띦
띧
띨
띩
띪
띫
띬
띭
띮
띯
띰
띱
띲
띳
띴
띵
띶
띷
띸
띹
띺
띻
라
락
띾
띿
란
랁
랂
랃
랄
랅
랆
랇
랈
랉
랊
랋
람
랍
랎
랏
랐
랑
랒
랓
랔
랕
랖
랗
래
랙
랚
랛
랜
랝
랞
랟
랠
랡
랢
랣
랤
랥
랦
랧
램
랩
랪
랫
랬
랭
랮
랯
랰
랱
랲
랳
랴
략
랶
랷
랸
랹
랺
랻
랼
랽
랾
랿
럀
럁
럂
럃
럄
럅
럆
럇
럈
량
럊
럋
럌
럍
럎
럏
럐
럑
럒
럓
럔
럕
럖
럗
럘
럙
럚
럛
럜
럝
럞
럟
럠
럡
럢
럣
럤
럥
럦
럧
럨
럩
럪
럫
러
럭
럮
럯
런
럱
럲
럳
럴
럵
럶
럷
럸
럹
럺
럻
럼
럽
럾
럿
렀
렁
렂
렃
렄
렅
렆
렇
레
렉
렊
렋
렌
렍
렎
렏
렐
렑
렒
렓
렔
렕
렖
렗
렘
렙
렚
렛
렜
렝
렞
렟
렠
렡
렢
렣
려
력
렦
렧
련
렩
렪
렫
렬
렭
렮
렯
렰
렱
렲
렳
렴
렵
렶
렷
렸
령
렺
렻
렼
렽
렾
렿
례
롁
롂
롃
롄
롅
롆
롇
롈
롉
롊
롋
롌
롍
롎
롏
롐
롑
롒
롓
롔
롕
롖
롗
롘
롙
롚
롛
로
록
롞
롟
론
롡
롢
롣
롤
롥
롦
롧
롨
롩
롪
롫
롬
롭
롮
롯
롰
롱
롲
롳
롴
롵
롶
롷
롸
롹
롺
롻
롼
롽
롾
롿
뢀
뢁
뢂
뢃
뢄
뢅
뢆
뢇
뢈
뢉
뢊
뢋
뢌
뢍
뢎
뢏
뢐
뢑
뢒
뢓
뢔
뢕
뢖
뢗
뢘
뢙
뢚
뢛
뢜
뢝
뢞
뢟
뢠
뢡
뢢
뢣
뢤
뢥
뢦
뢧
뢨
뢩
뢪
뢫
뢬
뢭
뢮
뢯
뢰
뢱
뢲
뢳
뢴
뢵
뢶
뢷
뢸
뢹
뢺
뢻
뢼
뢽
뢾
뢿
룀
룁
룂
룃
룄
룅
룆
룇
룈
룉
룊
룋
료
룍
룎
룏
룐
룑
룒
룓
룔
룕
룖
룗
룘
룙
룚
룛
룜
룝
룞
룟
룠
룡
룢
룣
룤
룥
룦
룧
루
룩
룪
룫
룬
룭
룮
룯
룰
룱
룲
룳
룴
룵
룶
룷
룸
룹
룺
룻
룼
룽
룾
룿
뤀
뤁
뤂
뤃
뤄
뤅
뤆
뤇
뤈
뤉
뤊
뤋
뤌
뤍
뤎
뤏
뤐
뤑
뤒
뤓
뤔
뤕
뤖
뤗
뤘
뤙
뤚
뤛
뤜
뤝
뤞
뤟
뤠
뤡
뤢
뤣
뤤
뤥
뤦
뤧
뤨
뤩
뤪
뤫
뤬
뤭
뤮
뤯
뤰
뤱
뤲
뤳
뤴
뤵
뤶
뤷
뤸
뤹
뤺
뤻
뤼
뤽
뤾
뤿
륀
륁
륂
륃
륄
륅
륆
륇
륈
륉
륊
륋
륌
륍
륎
륏
륐
륑
륒
륓
륔
륕
륖
륗
류
륙
륚
륛
륜
륝
륞
륟
률
륡
륢
륣
륤
륥
륦
륧
륨
륩
륪
륫
륬
륭
륮
륯
륰
륱
륲
륳
르
륵
륶
륷
른
륹
륺
륻
를
륽
륾
륿
릀
릁
릂
릃
름
릅
릆
릇
릈
릉
릊
릋
릌
릍
릎
릏
릐
릑
릒
릓
릔
릕
릖
릗
릘
릙
릚
릛
릜
릝
릞
릟
릠
릡
릢
릣
릤
릥
릦
릧
릨
릩
릪
릫
리
릭
릮
릯
린
릱
릲
릳
릴
릵
릶
릷
릸
릹
릺
릻
림
립
릾
릿
맀
링
맂
맃
맄
맅
맆
맇
마
막
맊
맋
만
맍
많
맏
말
맑
맒
맓
맔
맕
맖
맗
맘
맙
맚
맛
맜
망
맞
맟
맠
맡
맢
맣
매
맥
맦
맧
맨
맩
맪
맫
맬
맭
맮
맯
맰
맱
맲
맳
맴
맵
맶
맷
맸
맹
맺
맻
맼
맽
맾
맿
먀
먁
먂
먃
먄
먅
먆
먇
먈
먉
먊
먋
먌
먍
먎
먏
먐
먑
먒
먓
먔
먕
먖
먗
먘
먙
먚
먛
먜
먝
먞
먟
먠
먡
먢
먣
먤
먥
먦
먧
먨
먩
먪
먫
먬
먭
먮
먯
먰
먱
먲
먳
먴
먵
먶
먷
머
먹
먺
먻
먼
먽
먾
먿
멀
멁
멂
멃
멄
멅
멆
멇
멈
멉
멊
멋
멌
멍
멎
멏
멐
멑
멒
멓
메
멕
멖
멗
멘
멙
멚
멛
멜
멝
멞
멟
멠
멡
멢
멣
멤
멥
멦
멧
멨
멩
멪
멫
멬
멭
멮
멯
며
멱
멲
멳
면
멵
멶
멷
멸
멹
멺
멻
멼
멽
멾
멿
몀
몁
몂
몃
몄
명
몆
몇
몈
몉
몊
몋
몌
몍
몎
몏
몐
몑
몒
몓
몔
몕
몖
몗
몘
몙
몚
몛
몜
몝
몞
몟
몠
몡
몢
몣
몤
몥
몦
몧
모
목
몪
몫
몬
몭
몮
몯
몰
몱
몲
몳
몴
몵
몶
몷
몸
몹
몺
못
몼
몽
몾
몿
뫀
뫁
뫂
뫃
뫄
뫅
뫆
뫇
뫈
뫉
뫊
뫋
뫌
뫍
뫎
뫏
뫐
뫑
뫒
뫓
뫔
뫕
뫖
뫗
뫘
뫙
뫚
뫛
뫜
뫝
뫞
뫟
뫠
뫡
뫢
뫣
뫤
뫥
뫦
뫧
뫨
뫩
뫪
뫫
뫬
뫭
뫮
뫯
뫰
뫱
뫲
뫳
뫴
뫵
뫶
뫷
뫸
뫹
뫺
뫻
뫼
뫽
뫾
뫿
묀
묁
묂
묃
묄
묅
묆
묇
묈
묉
묊
묋
묌
묍
묎
묏
묐
묑
묒
묓
묔
묕
묖
묗
묘
묙
묚
묛
묜
묝
묞
묟
묠
묡
묢
묣
묤
묥
묦
묧
묨
묩
묪
묫
묬
묭
묮
묯
묰
묱
묲
묳
무
묵
묶
묷
문
묹
묺
묻
물
묽
묾
묿
뭀
뭁
뭂
뭃
뭄
뭅
뭆
뭇
뭈
뭉
뭊
뭋
뭌
뭍
뭎
뭏
뭐
뭑
뭒
뭓
뭔
뭕
뭖
뭗
뭘
뭙
뭚
뭛
뭜
뭝
뭞
뭟
뭠
뭡
뭢
뭣
뭤
뭥
뭦
뭧
뭨
뭩
뭪
뭫
뭬
뭭
뭮
뭯
뭰
뭱
뭲
뭳
뭴
뭵
뭶
뭷
뭸
뭹
뭺
뭻
뭼
뭽
뭾
뭿
뮀
뮁
뮂
뮃
뮄
뮅
뮆
뮇
뮈
뮉
뮊
뮋
뮌
뮍
뮎
뮏
뮐
뮑
뮒
뮓
뮔
뮕
뮖
뮗
뮘
뮙
뮚
뮛
뮜
뮝
뮞
뮟
뮠
뮡
뮢
뮣
뮤
뮥
뮦
뮧
뮨
뮩
뮪
뮫
뮬
뮭
뮮
뮯
뮰
뮱
뮲
뮳
뮴
뮵
뮶
뮷
뮸
뮹
뮺
뮻
뮼
뮽
뮾
뮿
므
믁
믂
믃
믄
믅
믆
믇
믈
믉
믊
믋
믌
믍
믎
믏
믐
믑
믒
믓
믔
믕
믖
믗
믘
믙
믚
믛
믜
믝
믞
믟
믠
믡
믢
믣
믤
믥
믦
믧
믨
믩
믪
믫
믬
믭
믮
믯
믰
믱
믲
믳
믴
믵
믶
믷
미
믹
믺
믻
민
믽
믾
믿
밀
밁
밂
밃
밄
밅
밆
밇
밈
밉
밊
밋
밌
밍
밎
및
밐
밑
밒
밓
바
박
밖
밗
반
밙
밚
받
발
밝
밞
밟
밠
밡
밢
밣
밤
밥
밦
밧
밨
방
밪
밫
밬
밭
밮
밯
배
백
밲
밳
밴
밵
밶
밷
밸
밹
밺
밻
밼
밽
밾
밿
뱀
뱁
뱂
뱃
뱄
뱅
뱆
뱇
뱈
뱉
뱊
뱋
뱌
뱍
뱎
뱏
뱐
뱑
뱒
뱓
뱔
뱕
뱖
뱗
뱘
뱙
뱚
뱛
뱜
뱝
뱞
뱟
뱠
뱡
뱢
뱣
뱤
뱥
뱦
뱧
뱨
뱩
뱪
뱫
뱬
뱭
뱮
뱯
뱰
뱱
뱲
뱳
뱴
뱵
뱶
뱷
뱸
뱹
뱺
뱻
뱼
뱽
뱾
뱿
벀
벁
벂
벃
버
벅
벆
벇
번
벉
벊
벋
벌
벍
벎
벏
벐
벑
벒
벓
범
법
벖
벗
벘
벙
벚
벛
벜
벝
벞
벟
베
벡
벢
벣
벤
벥
벦
벧
벨
벩
벪
벫
벬
벭
벮
벯
벰
벱
벲
벳
벴
벵
벶
벷
벸
벹
벺
벻
벼
벽
벾
벿
변
볁
볂
볃
별
볅
볆
볇
볈
볉
볊
볋
볌
볍
볎
볏
볐
병
볒
볓
볔
볕
볖
볗
볘
볙
볚
볛
볜
볝
볞
볟
볠
볡
볢
볣
볤
볥
볦
볧
볨
볩
볪
볫
볬
볭
볮
볯
볰
볱
볲
볳
보
복
볶
볷
본
볹
볺
볻
볼
볽
볾
볿
봀
봁
봂
봃
봄
봅
봆
봇
봈
봉
봊
봋
봌
봍
봎
봏
봐
봑
봒
봓
봔
봕
봖
봗
봘
봙
봚
봛
봜
봝
봞
봟
봠
봡
봢
봣
봤
봥
봦
봧
봨
봩
봪
봫
봬
봭
봮
봯
봰
봱
봲
봳
봴
봵
봶
봷
봸
봹
봺
봻
봼
봽
봾
봿
뵀
뵁
뵂
뵃
뵄
뵅
뵆
뵇
뵈
뵉
뵊
뵋
뵌
뵍
뵎
뵏
뵐
뵑
뵒
뵓
뵔
뵕
뵖
뵗
뵘
뵙
뵚
뵛
뵜
뵝
뵞
뵟
뵠
뵡
뵢
뵣
뵤
뵥
뵦
뵧
뵨
뵩
뵪
뵫
뵬
뵭
뵮
뵯
뵰
뵱
뵲
뵳
뵴
뵵
뵶
뵷
뵸
뵹
뵺
뵻
뵼
뵽
뵾
뵿
부
북
붂
붃
분
붅
붆
붇
불
붉
붊
붋
붌
붍
붎
붏
붐
붑
붒
붓
붔
붕
붖
붗
붘
붙
붚
붛
붜
붝
붞
붟
붠
붡
붢
붣
붤
붥
붦
붧
붨
붩
붪
붫
붬
붭
붮
붯
붰
붱
붲
붳
붴
붵
붶
붷
붸
붹
붺
붻
붼
붽
붾
붿
뷀
뷁
뷂
뷃
뷄
뷅
뷆
뷇
뷈
뷉
뷊
뷋
뷌
뷍
뷎
뷏
뷐
뷑
뷒
뷓
뷔
뷕
뷖
뷗
뷘
뷙
뷚
뷛
뷜
뷝
뷞
뷟
뷠
뷡
뷢
뷣
뷤
뷥
뷦
뷧
뷨
뷩
뷪
뷫
뷬
뷭
뷮
뷯
뷰
뷱
뷲
뷳
뷴
뷵
뷶
뷷
뷸
뷹
뷺
뷻
뷼
뷽
뷾
뷿
븀
븁
븂
븃
븄
븅
븆
븇
븈
븉
븊
븋
브
븍
븎
븏
븐
븑
븒
븓
블
븕
븖
븗
븘
븙
븚
븛
븜
븝
븞
븟
븠
븡
븢
븣
븤
븥
븦
븧
븨
븩
븪
븫
븬
븭
븮
븯
븰
븱
븲
븳
븴
븵
븶
븷
븸
븹
븺
븻
븼
븽
븾
븿
빀
빁
빂
빃
비
빅
빆
빇
빈
빉
빊
빋
빌
빍
빎
빏
빐
빑
빒
빓
빔
빕
빖
빗
빘
빙
빚
빛
빜
빝
빞
빟
빠
빡
빢
빣
빤
빥
빦
빧
빨
빩
빪
빫
빬
빭
빮
빯
빰
빱
빲
빳
빴
빵
빶
빷
빸
빹
빺
빻
빼
빽
빾
빿
뺀
뺁
뺂
뺃
뺄
뺅
뺆
뺇
뺈
뺉
뺊
뺋
뺌
뺍
뺎
뺏
뺐
뺑
뺒
뺓
뺔
뺕
뺖
뺗
뺘
뺙
뺚
뺛
뺜
뺝
뺞
뺟
뺠
뺡
뺢
뺣
뺤
뺥
뺦
뺧
뺨
뺩
뺪
뺫
뺬
뺭
뺮
뺯
뺰
뺱
뺲
뺳
뺴
뺵
뺶
뺷
뺸
뺹
뺺
뺻
뺼
뺽
뺾
뺿
뻀
뻁
뻂
뻃
뻄
뻅
뻆
뻇
뻈
뻉
뻊
뻋
뻌
뻍
뻎
뻏
뻐
뻑
뻒
뻓
뻔
뻕
뻖
뻗
뻘
뻙
뻚
뻛
뻜
뻝
뻞
뻟
뻠
뻡
뻢
뻣
뻤
뻥
뻦
뻧
뻨
뻩
뻪
뻫
뻬
뻭
뻮
뻯
뻰
뻱
뻲
뻳
뻴
뻵
뻶
뻷
뻸
뻹
뻺
뻻
뻼
뻽
뻾
뻿
뼀
뼁
뼂
뼃
뼄
뼅
뼆
뼇
뼈
뼉
뼊
뼋
뼌
뼍
뼎
뼏
뼐
뼑
뼒
뼓
뼔
뼕
뼖
뼗
뼘
뼙
뼚
뼛
뼜
뼝
뼞
뼟
뼠
뼡
뼢
뼣
뼤
뼥
뼦
뼧
뼨
뼩
뼪
뼫
뼬
뼭
뼮
뼯
뼰
뼱
뼲
뼳
뼴
뼵
뼶
뼷
뼸
뼹
뼺
뼻
뼼
뼽
뼾
뼿
뽀
뽁
뽂
뽃
뽄
뽅
뽆
뽇
뽈
뽉
뽊
뽋
뽌
뽍
뽎
뽏
뽐
뽑
뽒
뽓
뽔
뽕
뽖
뽗
뽘
뽙
뽚
뽛
뽜
뽝
뽞
뽟
뽠
뽡
뽢
뽣
뽤
뽥
뽦
뽧
뽨
뽩
뽪
뽫
뽬
뽭
뽮
뽯
뽰
뽱
뽲
뽳
뽴
뽵
뽶
뽷
뽸
뽹
뽺
뽻
뽼
뽽
뽾
뽿
뾀
뾁
뾂
뾃
뾄
뾅
뾆
뾇
뾈
뾉
뾊
뾋
뾌
뾍
뾎
뾏
뾐
뾑
뾒
뾓
뾔
뾕
뾖
뾗
뾘
뾙
뾚
뾛
뾜
뾝
뾞
뾟
뾠
뾡
뾢
뾣
뾤
뾥
뾦
뾧
뾨
뾩
뾪
뾫
뾬
뾭
뾮
뾯
뾰
뾱
뾲
뾳
뾴
뾵
뾶
뾷
뾸
뾹
뾺
뾻
뾼
뾽
뾾
뾿
뿀
뿁
뿂
뿃
뿄
뿅
뿆
뿇
뿈
뿉
뿊
뿋
뿌
뿍
뿎
뿏
뿐
뿑
뿒
뿓
뿔
뿕
뿖
뿗
뿘
뿙
뿚
뿛
뿜
뿝
뿞
뿟
뿠
뿡
뿢
뿣
뿤
뿥
뿦
뿧
뿨
뿩
뿪
뿫
뿬
뿭
뿮
뿯
뿰
뿱
뿲
뿳
뿴
뿵
뿶
뿷
뿸
뿹
뿺
뿻
뿼
뿽
뿾
뿿
쀀
쀁
쀂
쀃
쀄
쀅
쀆
쀇
쀈
쀉
쀊
쀋
쀌
쀍
쀎
쀏
쀐
쀑
쀒
쀓
쀔
쀕
쀖
쀗
쀘
쀙
쀚
쀛
쀜
쀝
쀞
쀟
쀠
쀡
쀢
쀣
쀤
쀥
쀦
쀧
쀨
쀩
쀪
쀫
쀬
쀭
쀮
쀯
쀰
쀱
쀲
쀳
쀴
쀵
쀶
쀷
쀸
쀹
쀺
쀻
쀼
쀽
쀾
쀿
쁀
쁁
쁂
쁃
쁄
쁅
쁆
쁇
쁈
쁉
쁊
쁋
쁌
쁍
쁎
쁏
쁐
쁑
쁒
쁓
쁔
쁕
쁖
쁗
쁘
쁙
쁚
쁛
쁜
쁝
쁞
쁟
쁠
쁡
쁢
쁣
쁤
쁥
쁦
쁧
쁨
쁩
쁪
쁫
쁬
쁭
쁮
쁯
쁰
쁱
쁲
쁳
쁴
쁵
쁶
쁷
쁸
쁹
쁺
쁻
쁼
쁽
쁾
쁿
삀
삁
삂
삃
삄
삅
삆
삇
삈
삉
삊
삋
삌
삍
삎
삏
삐
삑
삒
삓
삔
삕
삖
삗
삘
삙
삚
삛
삜
삝
삞
삟
삠
삡
삢
삣
삤
삥
삦
삧
삨
삩
삪
삫
사
삭
삮
삯
산
삱
삲
삳
살
삵
삶
삷
삸
삹
삺
삻
삼
삽
삾
삿
샀
상
샂
샃
샄
샅
샆
샇
새
색
샊
샋
샌
샍
샎
샏
샐
샑
샒
샓
샔
샕
샖
샗
샘
샙
샚
샛
샜
생
샞
샟
샠
샡
샢
샣
샤
샥
샦
샧
샨
샩
샪
샫
샬
샭
샮
샯
샰
샱
샲
샳
샴
샵
샶
샷
샸
샹
샺
샻
샼
샽
샾
샿
섀
섁
섂
섃
섄
섅
섆
섇
섈
섉
섊
섋
섌
섍
섎
섏
섐
섑
섒
섓
섔
섕
섖
섗
섘
섙
섚
섛
서
석
섞
섟
선
섡
섢
섣
설
섥
섦
섧
섨
섩
섪
섫
섬
섭
섮
섯
섰
성
섲
섳
섴
섵
섶
섷
세
섹
섺
섻
센
섽
섾
섿
셀
셁
셂
셃
셄
셅
셆
셇
셈
셉
셊
셋
셌
셍
셎
셏
셐
셑
셒
셓
셔
셕
셖
셗
션
셙
셚
셛
셜
셝
셞
셟
셠
셡
셢
셣
셤
셥
셦
셧
셨
셩
셪
셫
셬
셭
셮
셯
셰
셱
셲
셳
셴
셵
셶
셷
셸
셹
셺
셻
셼
셽
셾
셿
솀
솁
솂
솃
솄
솅
솆
솇
솈
솉
솊
솋
소
속
솎
솏
손
솑
솒
솓
솔
솕
솖
솗
솘
솙
솚
솛
솜
솝
솞
솟
솠
송
솢
솣
솤
솥
솦
솧
솨
솩
솪
솫
솬
솭
솮
솯
솰
솱
솲
솳
솴
솵
솶
솷
솸
솹
솺
솻
솼
솽
솾
솿
쇀
쇁
쇂
쇃
쇄
쇅
쇆
쇇
쇈
쇉
쇊
쇋
쇌
쇍
쇎
쇏
쇐
쇑
쇒
쇓
쇔
쇕
쇖
쇗
쇘
쇙
쇚
쇛
쇜
쇝
쇞
쇟
쇠
쇡
쇢
쇣
쇤
쇥
쇦
쇧
쇨
쇩
쇪
쇫
쇬
쇭
쇮
쇯
쇰
쇱
쇲
쇳
쇴
쇵
쇶
쇷
쇸
쇹
쇺
쇻
쇼
쇽
쇾
쇿
숀
숁
숂
숃
숄
숅
숆
숇
숈
숉
숊
숋
숌
숍
숎
숏
숐
숑
숒
숓
숔
숕
숖
숗
수
숙
숚
숛
순
숝
숞
숟
술
숡
숢
숣
숤
숥
숦
숧
숨
숩
숪
숫
숬
숭
숮
숯
숰
숱
숲
숳
숴
숵
숶
숷
숸
숹
숺
숻
숼
숽
숾
숿
쉀
쉁
쉂
쉃
쉄
쉅
쉆
쉇
쉈
쉉
쉊
쉋
쉌
쉍
쉎
쉏
쉐
쉑
쉒
쉓
쉔
쉕
쉖
쉗
쉘
쉙
쉚
쉛
쉜
쉝
쉞
쉟
쉠
쉡
쉢
쉣
쉤
쉥
쉦
쉧
쉨
쉩
쉪
쉫
쉬
쉭
쉮
쉯
쉰
쉱
쉲
쉳
쉴
쉵
쉶
쉷
쉸
쉹
쉺
쉻
쉼
쉽
쉾
쉿
슀
슁
슂
슃
슄
슅
슆
슇
슈
슉
슊
슋
슌
슍
슎
슏
슐
슑
슒
슓
슔
슕
슖
슗
슘
슙
슚
슛
슜
슝
슞
슟
슠
슡
슢
슣
스
슥
슦
슧
슨
슩
슪
슫
슬
슭
슮
슯
슰
슱
슲
슳
슴
습
슶
슷
슸
승
슺
슻
슼
슽
슾
슿
싀
싁
싂
싃
싄
싅
싆
싇
싈
싉
싊
싋
싌
싍
싎
싏
싐
싑
싒
싓
싔
싕
싖
싗
싘
싙
싚
싛
시
식
싞
싟
신
싡
싢
싣
실
싥
싦
싧
싨
싩
싪
싫
심
십
싮
싯
싰
싱
싲
싳
싴
싵
싶
싷
싸
싹
싺
싻
싼
싽
싾
싿
쌀
쌁
쌂
쌃
쌄
쌅
쌆
쌇
쌈
쌉
쌊
쌋
쌌
쌍
쌎
쌏
쌐
쌑
쌒
쌓
쌔
쌕
쌖
쌗
쌘
쌙
쌚
쌛
쌜
쌝
쌞
쌟
쌠
쌡
쌢
쌣
쌤
쌥
쌦
쌧
쌨
쌩
쌪
쌫
쌬
쌭
쌮
쌯
쌰
쌱
쌲
쌳
쌴
쌵
쌶
쌷
쌸
쌹
쌺
쌻
쌼
쌽
쌾
쌿
썀
썁
썂
썃
썄
썅
썆
썇
썈
썉
썊
썋
썌
썍
썎
썏
썐
썑
썒
썓
썔
썕
썖
썗
썘
썙
썚
썛
썜
썝
썞
썟
썠
썡
썢
썣
썤
썥
썦
썧
써
썩
썪
썫
썬
썭
썮
썯
썰
썱
썲
썳
썴
썵
썶
썷
썸
썹
썺
썻
썼
썽
썾
썿
쎀
쎁
쎂
쎃
쎄
쎅
쎆
쎇
쎈
쎉
쎊
쎋
쎌
쎍
쎎
쎏
쎐
쎑
쎒
쎓
쎔
쎕
쎖
쎗
쎘
쎙
쎚
쎛
쎜
쎝
쎞
쎟
쎠
쎡
쎢
쎣
쎤
쎥
쎦
쎧
쎨
쎩
쎪
쎫
쎬
쎭
쎮
쎯
쎰
쎱
쎲
쎳
쎴
쎵
쎶
쎷
쎸
쎹
쎺
쎻
쎼
쎽
쎾
쎿
쏀
쏁
쏂
쏃
쏄
쏅
쏆
쏇
쏈
쏉
쏊
쏋
쏌
쏍
쏎
쏏
쏐
쏑
쏒
쏓
쏔
쏕
쏖
쏗
쏘
쏙
쏚
쏛
쏜
쏝
쏞
쏟
쏠
쏡
쏢
쏣
쏤
쏥
쏦
쏧
쏨
쏩
쏪
쏫
쏬
쏭
쏮
쏯
쏰
쏱
쏲
쏳
쏴
쏵
쏶
쏷
쏸
쏹
쏺
쏻
쏼
쏽
쏾
쏿
쐀
쐁
쐂
쐃
쐄
쐅
쐆
쐇
쐈
쐉
쐊
쐋
쐌
쐍
쐎
쐏
쐐
쐑
쐒
쐓
쐔
쐕
쐖
쐗
쐘
쐙
쐚
쐛
쐜
쐝
쐞
쐟
쐠
쐡
쐢
쐣
쐤
쐥
쐦
쐧
쐨
쐩
쐪
쐫
쐬
쐭
쐮
쐯
쐰
쐱
쐲
쐳
쐴
쐵
쐶
쐷
쐸
쐹
쐺
쐻
쐼
쐽
쐾
쐿
쑀
쑁
쑂
쑃
쑄
쑅
쑆
쑇
쑈
쑉
쑊
쑋
쑌
쑍
쑎
쑏
쑐
쑑
쑒
쑓
쑔
쑕
쑖
쑗
쑘
쑙
쑚
쑛
쑜
쑝
쑞
쑟
쑠
쑡
쑢
쑣
쑤
쑥
쑦
쑧
쑨
쑩
쑪
쑫
쑬
쑭
쑮
쑯
쑰
쑱
쑲
쑳
쑴
쑵
쑶
쑷
쑸
쑹
쑺
쑻
쑼
쑽
쑾
쑿
쒀
쒁
쒂
쒃
쒄
쒅
쒆
쒇
쒈
쒉
쒊
쒋
쒌
쒍
쒎
쒏
쒐
쒑
쒒
쒓
쒔
쒕
쒖
쒗
쒘
쒙
쒚
쒛
쒜
쒝
쒞
쒟
쒠
쒡
쒢
쒣
쒤
쒥
쒦
쒧
쒨
쒩
쒪
쒫
쒬
쒭
쒮
쒯
쒰
쒱
쒲
쒳
쒴
쒵
쒶
쒷
쒸
쒹
쒺
쒻
쒼
쒽
쒾
쒿
쓀
쓁
쓂
쓃
쓄
쓅
쓆
쓇
쓈
쓉
쓊
쓋
쓌
쓍
쓎
쓏
쓐
쓑
쓒
쓓
쓔
쓕
쓖
쓗
쓘
쓙
쓚
쓛
쓜
쓝
쓞
쓟
쓠
쓡
쓢
쓣
쓤
쓥
쓦
쓧
쓨
쓩
쓪
쓫
쓬
쓭
쓮
쓯
쓰
쓱
쓲
쓳
쓴
쓵
쓶
쓷
쓸
쓹
쓺
쓻
쓼
쓽
쓾
쓿
씀
씁
씂
씃
씄
씅
씆
씇
씈
씉
씊
씋
씌
씍
씎
씏
씐
씑
씒
씓
씔
씕
씖
씗
씘
씙
씚
씛
씜
씝
씞
씟
씠
씡
씢
씣
씤
씥
씦
씧
씨
씩
씪
씫
씬
씭
씮
씯
씰
씱
씲
씳
씴
씵
씶
씷
씸
씹
씺
씻
씼
씽
씾
씿
앀
앁
앂
앃
아
악
앆
앇
안
앉
않
앋
알
앍
앎
앏
앐
앑
앒
앓
암
압
앖
앗
았
앙
앚
앛
앜
앝
앞
앟
애
액
앢
앣
앤
앥
앦
앧
앨
앩
앪
앫
앬
앭
앮
앯
앰
앱
앲
앳
앴
앵
앶
앷
앸
앹
앺
앻
야
약
앾
앿
얀
얁
얂
얃
얄
얅
얆
얇
얈
얉
얊
얋
얌
얍
얎
얏
얐
양
얒
얓
얔
얕
얖
얗
얘
얙
얚
얛
얜
얝
얞
얟
얠
얡
얢
얣
얤
얥
얦
얧
얨
얩
얪
얫
얬
얭
얮
얯
얰
얱
얲
얳
어
억
얶
얷
언
얹
얺
얻
얼
얽
얾
얿
엀
엁
엂
엃
엄
업
없
엇
었
엉
엊
엋
엌
엍
엎
엏
에
엑
엒
엓
엔
엕
엖
엗
엘
엙
엚
엛
엜
엝
엞
엟
엠
엡
엢
엣
엤
엥
엦
엧
엨
엩
엪
엫
여
역
엮
엯
연
엱
엲
엳
열
엵
엶
엷
엸
엹
엺
엻
염
엽
엾
엿
였
영
옂
옃
옄
옅
옆
옇
예
옉
옊
옋
옌
옍
옎
옏
옐
옑
옒
옓
옔
옕
옖
옗
옘
옙
옚
옛
옜
옝
옞
옟
옠
옡
옢
옣
오
옥
옦
옧
온
옩
옪
옫
올
옭
옮
옯
옰
옱
옲
옳
옴
옵
옶
옷
옸
옹
옺
옻
옼
옽
옾
옿
와
왁
왂
왃
완
왅
왆
왇
왈
왉
왊
왋
왌
왍
왎
왏
왐
왑
왒
왓
왔
왕
왖
왗
왘
왙
왚
왛
왜
왝
왞
왟
왠
왡
왢
왣
왤
왥
왦
왧
왨
왩
왪
왫
왬
왭
왮
왯
왰
왱
왲
왳
왴
왵
왶
왷
외
왹
왺
왻
왼
왽
왾
왿
욀
욁
욂
욃
욄
욅
욆
욇
욈
욉
욊
욋
욌
욍
욎
욏
욐
욑
욒
욓
요
욕
욖
욗
욘
욙
욚
욛
욜
욝
욞
욟
욠
욡
욢
욣
욤
욥
욦
욧
욨
용
욪
욫
욬
욭
욮
욯
우
욱
욲
욳
운
욵
욶
욷
울
욹
욺
욻
욼
욽
욾
욿
움
웁
웂
웃
웄
웅
웆
웇
웈
웉
웊
웋
워
웍
웎
웏
원
웑
웒
웓
월
웕
웖
웗
웘
웙
웚
웛
웜
웝
웞
웟
웠
웡
웢
웣
웤
웥
웦
웧
웨
웩
웪
웫
웬
웭
웮
웯
웰
웱
웲
웳
웴
웵
웶
웷
웸
웹
웺
웻
웼
웽
웾
웿
윀
윁
윂
윃
위
윅
윆
윇
윈
윉
윊
윋
윌
윍
윎
윏
윐
윑
윒
윓
윔
윕
윖
윗
윘
윙
윚
윛
윜
윝
윞
윟
유
육
윢
윣
윤
윥
윦
윧
율
윩
윪
윫
윬
윭
윮
윯
윰
윱
윲
윳
윴
융
윶
윷
윸
윹
윺
윻
으
윽
윾
윿
은
읁
읂
읃
을
읅
읆
읇
읈
읉
읊
읋
음
읍
읎
읏
읐
응
읒
읓
읔
읕
읖
읗
의
읙
읚
읛
읜
읝
읞
읟
읠
읡
읢
읣
읤
읥
읦
읧
읨
읩
읪
읫
읬
읭
읮
읯
읰
읱
읲
읳
이
익
읶
읷
인
읹
읺
읻
일
읽
읾
읿
잀
잁
잂
잃
임
입
잆
잇
있
잉
잊
잋
잌
잍
잎
잏
자
작
잒
잓
잔
잕
잖
잗
잘
잙
잚
잛
잜
잝
잞
잟
잠
잡
잢
잣
잤
장
잦
잧
잨
잩
잪
잫
재
잭
잮
잯
잰
잱
잲
잳
잴
잵
잶
잷
잸
잹
잺
잻
잼
잽
잾
잿
쟀
쟁
쟂
쟃
쟄
쟅
쟆
쟇
쟈
쟉
쟊
쟋
쟌
쟍
쟎
쟏
쟐
쟑
쟒
쟓
쟔
쟕
쟖
쟗
쟘
쟙
쟚
쟛
쟜
쟝
쟞
쟟
쟠
쟡
쟢
쟣
쟤
쟥
쟦
쟧
쟨
쟩
쟪
쟫
쟬
쟭
쟮
쟯
쟰
쟱
쟲
쟳
쟴
쟵
쟶
쟷
쟸
쟹
쟺
쟻
쟼
쟽
쟾
쟿
저
적
젂
젃
전
젅
젆
젇
절
젉
젊
젋
젌
젍
젎
젏
점
접
젒
젓
젔
정
젖
젗
젘
젙
젚
젛
제
젝
젞
젟
젠
젡
젢
젣
젤
젥
젦
젧
젨
젩
젪
젫
젬
젭
젮
젯
젰
젱
젲
젳
젴
젵
젶
젷
져
젹
젺
젻
젼
젽
젾
젿
졀
졁
졂
졃
졄
졅
졆
졇
졈
졉
졊
졋
졌
졍
졎
졏
졐
졑
졒
졓
졔
졕
졖
졗
졘
졙
졚
졛
졜
졝
졞
졟
졠
졡
졢
졣
졤
졥
졦
졧
졨
졩
졪
졫
졬
졭
졮
졯
조
족
졲
졳
존
졵
졶
졷
졸
졹
졺
졻
졼
졽
졾
졿
좀
좁
좂
좃
좄
종
좆
좇
좈
좉
좊
좋
좌
좍
좎
좏
좐
좑
좒
좓
좔
좕
좖
좗
좘
좙
좚
좛
좜
좝
좞
좟
좠
좡
좢
좣
좤
좥
좦
좧
좨
좩
좪
좫
좬
좭
좮
좯
좰
좱
좲
좳
좴
좵
좶
좷
좸
좹
좺
좻
좼
좽
좾
좿
죀
죁
죂
죃
죄
죅
죆
죇
죈
죉
죊
죋
죌
죍
죎
죏
죐
죑
죒
죓
죔
죕
죖
죗
죘
죙
죚
죛
죜
죝
죞
죟
죠
죡
죢
죣
죤
죥
죦
죧
죨
죩
죪
죫
죬
죭
죮
죯
죰
죱
죲
죳
죴
죵
죶
죷
죸
죹
죺
죻
주
죽
죾
죿
준
줁
줂
줃
줄
줅
줆
줇
줈
줉
줊
줋
줌
줍
줎
줏
줐
중
줒
줓
줔
줕
줖
줗
줘
줙
줚
줛
줜
줝
줞
줟
줠
줡
줢
줣
줤
줥
줦
줧
줨
줩
줪
줫
줬
줭
줮
줯
줰
줱
줲
줳
줴
줵
줶
줷
줸
줹
줺
줻
줼
줽
줾
줿
쥀
쥁
쥂
쥃
쥄
쥅
쥆
쥇
쥈
쥉
쥊
쥋
쥌
쥍
쥎
쥏
쥐
쥑
쥒
쥓
쥔
쥕
쥖
쥗
쥘
쥙
쥚
쥛
쥜
쥝
쥞
쥟
쥠
쥡
쥢
쥣
쥤
쥥
쥦
쥧
쥨
쥩
쥪
쥫
쥬
쥭
쥮
쥯
쥰
쥱
쥲
쥳
쥴
쥵
쥶
쥷
쥸
쥹
쥺
쥻
쥼
쥽
쥾
쥿
즀
즁
즂
즃
즄
즅
즆
즇
즈
즉
즊
즋
즌
즍
즎
즏
즐
즑
즒
즓
즔
즕
즖
즗
즘
즙
즚
즛
즜
증
즞
즟
즠
즡
즢
즣
즤
즥
즦
즧
즨
즩
즪
즫
즬
즭
즮
즯
즰
즱
즲
즳
즴
즵
즶
즷
즸
즹
즺
즻
즼
즽
즾
즿
지
직
짂
짃
진
짅
짆
짇
질
짉
짊
짋
짌
짍
짎
짏
짐
집
짒
짓
짔
징
짖
짗
짘
짙
짚
짛
짜
짝
짞
짟
짠
짡
짢
짣
짤
짥
짦
짧
짨
짩
짪
짫
짬
짭
짮
짯
짰
짱
짲
짳
짴
짵
짶
짷
째
짹
짺
짻
짼
짽
짾
짿
쨀
쨁
쨂
쨃
쨄
쨅
쨆
쨇
쨈
쨉
쨊
쨋
쨌
쨍
쨎
쨏
쨐
쨑
쨒
쨓
쨔
쨕
쨖
쨗
쨘
쨙
쨚
쨛
쨜
쨝
쨞
쨟
쨠
쨡
쨢
쨣
쨤
쨥
쨦
쨧
쨨
쨩
쨪
쨫
쨬
쨭
쨮
쨯
쨰
쨱
쨲
쨳
쨴
쨵
쨶
쨷
쨸
쨹
쨺
쨻
쨼
쨽
쨾
쨿
쩀
쩁
쩂
쩃
쩄
쩅
쩆
쩇
쩈
쩉
쩊
쩋
쩌
쩍
쩎
쩏
쩐
쩑
쩒
쩓
쩔
쩕
쩖
쩗
쩘
쩙
쩚
쩛
쩜
쩝
쩞
쩟
쩠
쩡
쩢
쩣
쩤
쩥
쩦
쩧
쩨
쩩
쩪
쩫
쩬
쩭
쩮
쩯
쩰
쩱
쩲
쩳
쩴
쩵
쩶
쩷
쩸
쩹
쩺
쩻
쩼
쩽
쩾
쩿
쪀
쪁
쪂
쪃
쪄
쪅
쪆
쪇
쪈
쪉
쪊
쪋
쪌
쪍
쪎
쪏
쪐
쪑
쪒
쪓
쪔
쪕
쪖
쪗
쪘
쪙
쪚
쪛
쪜
쪝
쪞
쪟
쪠
쪡
쪢
쪣
쪤
쪥
쪦
쪧
쪨
쪩
쪪
쪫
쪬
쪭
쪮
쪯
쪰
쪱
쪲
쪳
쪴
쪵
쪶
쪷
쪸
쪹
쪺
쪻
쪼
쪽
쪾
쪿
쫀
쫁
쫂
쫃
쫄
쫅
쫆
쫇
쫈
쫉
쫊
쫋
쫌
쫍
쫎
쫏
쫐
쫑
쫒
쫓
쫔
쫕
쫖
쫗
쫘
쫙
쫚
쫛
쫜
쫝
쫞
쫟
쫠
쫡
쫢
쫣
쫤
쫥
쫦
쫧
쫨
쫩
쫪
쫫
쫬
쫭
쫮
쫯
쫰
쫱
쫲
쫳
쫴
쫵
쫶
쫷
쫸
쫹
쫺
쫻
쫼
쫽
쫾
쫿
쬀
쬁
쬂
쬃
쬄
쬅
쬆
쬇
쬈
쬉
쬊
쬋
쬌
쬍
쬎
쬏
쬐
쬑
쬒
쬓
쬔
쬕
쬖
쬗
쬘
쬙
쬚
쬛
쬜
쬝
쬞
쬟
쬠
쬡
쬢
쬣
쬤
쬥
쬦
쬧
쬨
쬩
쬪
쬫
쬬
쬭
쬮
쬯
쬰
쬱
쬲
쬳
쬴
쬵
쬶
쬷
쬸
쬹
쬺
쬻
쬼
쬽
쬾
쬿
쭀
쭁
쭂
쭃
쭄
쭅
쭆
쭇
쭈
쭉
쭊
쭋
쭌
쭍
쭎
쭏
쭐
쭑
쭒
쭓
쭔
쭕
쭖
쭗
쭘
쭙
쭚
쭛
쭜
쭝
쭞
쭟
쭠
쭡
쭢
쭣
쭤
쭥
쭦
쭧
쭨
쭩
쭪
쭫
쭬
쭭
쭮
쭯
쭰
쭱
쭲
쭳
쭴
쭵
쭶
쭷
쭸
쭹
쭺
쭻
쭼
쭽
쭾
쭿
쮀
쮁
쮂
쮃
쮄
쮅
쮆
쮇
쮈
쮉
쮊
쮋
쮌
쮍
쮎
쮏
쮐
쮑
쮒
쮓
쮔
쮕
쮖
쮗
쮘
쮙
쮚
쮛
쮜
쮝
쮞
쮟
쮠
쮡
쮢
쮣
쮤
쮥
쮦
쮧
쮨
쮩
쮪
쮫
쮬
쮭
쮮
쮯
쮰
쮱
쮲
쮳
쮴
쮵
쮶
쮷
쮸
쮹
쮺
쮻
쮼
쮽
쮾
쮿
쯀
쯁
쯂
쯃
쯄
쯅
쯆
쯇
쯈
쯉
쯊
쯋
쯌
쯍
쯎
쯏
쯐
쯑
쯒
쯓
쯔
쯕
쯖
쯗
쯘
쯙
쯚
쯛
쯜
쯝
쯞
쯟
쯠
쯡
쯢
쯣
쯤
쯥
쯦
쯧
쯨
쯩
쯪
쯫
쯬
쯭
쯮
쯯
쯰
쯱
쯲
쯳
쯴
쯵
쯶
쯷
쯸
쯹
쯺
쯻
쯼
쯽
쯾
쯿
찀
찁
찂
찃
찄
찅
찆
찇
찈
찉
찊
찋
찌
찍
찎
찏
찐
찑
찒
찓
찔
찕
찖
찗
찘
찙
찚
찛
찜
찝
찞
찟
찠
찡
찢
찣
찤
찥
찦
찧
차
착
찪
찫
찬
찭
찮
찯
찰
찱
찲
찳
찴
찵
찶
찷
참
찹
찺
찻
찼
창
찾
찿
챀
챁
챂
챃
채
책
챆
챇
챈
챉
챊
챋
챌
챍
챎
챏
챐
챑
챒
챓
챔
챕
챖
챗
챘
챙
챚
챛
챜
챝
챞
챟
챠
챡
챢
챣
챤
챥
챦
챧
챨
챩
챪
챫
챬
챭
챮
챯
챰
챱
챲
챳
챴
챵
챶
챷
챸
챹
챺
챻
챼
챽
챾
챿
첀
첁
첂
첃
첄
첅
첆
첇
첈
첉
첊
첋
첌
첍
첎
첏
첐
첑
첒
첓
첔
첕
첖
첗
처
척
첚
첛
천
첝
첞
첟
철
첡
첢
첣
첤
첥
첦
첧
첨
첩
첪
첫
첬
청
첮
첯
첰
첱
첲
첳
체
첵
첶
첷
첸
첹
첺
첻
첼
첽
첾
첿
쳀
쳁
쳂
쳃
쳄
쳅
쳆
쳇
쳈
쳉
쳊
쳋
쳌
쳍
쳎
쳏
쳐
쳑
쳒
쳓
쳔
쳕
쳖
쳗
쳘
쳙
쳚
쳛
쳜
쳝
쳞
쳟
쳠
쳡
쳢
쳣
쳤
쳥
쳦
쳧
쳨
쳩
쳪
쳫
쳬
쳭
쳮
쳯
쳰
쳱
쳲
쳳
쳴
쳵
쳶
쳷
쳸
쳹
쳺
쳻
쳼
쳽
쳾
쳿
촀
촁
촂
촃
촄
촅
촆
촇
초
촉
촊
촋
촌
촍
촎
촏
촐
촑
촒
촓
촔
촕
촖
촗
촘
촙
촚
촛
촜
총
촞
촟
촠
촡
촢
촣
촤
촥
촦
촧
촨
촩
촪
촫
촬
촭
촮
촯
촰
촱
촲
촳
촴
촵
촶
촷
촸
촹
촺
촻
촼
촽
촾
촿
쵀
쵁
쵂
쵃
쵄
쵅
쵆
쵇
쵈
쵉
쵊
쵋
쵌
쵍
쵎
쵏
쵐
쵑
쵒
쵓
쵔
쵕
쵖
쵗
쵘
쵙
쵚
쵛
최
쵝
쵞
쵟
쵠
쵡
쵢
쵣
쵤
쵥
쵦
쵧
쵨
쵩
쵪
쵫
쵬
쵭
쵮
쵯
쵰
쵱
쵲
쵳
쵴
쵵
쵶
쵷
쵸
쵹
쵺
쵻
쵼
쵽
쵾
쵿
춀
춁
춂
춃
춄
춅
춆
춇
춈
춉
춊
춋
춌
춍
춎
춏
춐
춑
춒
춓
추
축
춖
춗
춘
춙
춚
춛
출
춝
춞
춟
춠
춡
춢
춣
춤
춥
춦
춧
춨
충
춪
춫
춬
춭
춮
춯
춰
춱
춲
춳
춴
춵
춶
춷
춸
춹
춺
춻
춼
춽
춾
춿
췀
췁
췂
췃
췄
췅
췆
췇
췈
췉
췊
췋
췌
췍
췎
췏
췐
췑
췒
췓
췔
췕
췖
췗
췘
췙
췚
췛
췜
췝
췞
췟
췠
췡
췢
췣
췤
췥
췦
췧
취
췩
췪
췫
췬
췭
췮
췯
췰
췱
췲
췳
췴
췵
췶
췷
췸
췹
췺
췻
췼
췽
췾
췿
츀
츁
츂
츃
츄
츅
츆
츇
츈
츉
츊
츋
츌
츍
츎
츏
츐
츑
츒
츓
츔
츕
츖
츗
츘
츙
츚
츛
츜
츝
츞
츟
츠
측
츢
츣
츤
츥
츦
츧
츨
츩
츪
츫
츬
츭
츮
츯
츰
츱
츲
츳
츴
층
츶
츷
츸
츹
츺
츻
츼
츽
츾
츿
칀
칁
칂
칃
칄
칅
칆
칇
칈
칉
칊
칋
칌
칍
칎
칏
칐
칑
칒
칓
칔
칕
칖
칗
치
칙
칚
칛
친
칝
칞
칟
칠
칡
칢
칣
칤
칥
칦
칧
침
칩
칪
칫
칬
칭
칮
칯
칰
칱
칲
칳
카
칵
칶
칷
칸
칹
칺
칻
칼
칽
칾
칿
캀
캁
캂
캃
캄
캅
캆
캇
캈
캉
캊
캋
캌
캍
캎
캏
캐
캑
캒
캓
캔
캕
캖
캗
캘
캙
캚
캛
캜
캝
캞
캟
캠
캡
캢
캣
캤
캥
캦
캧
캨
캩
캪
캫
캬
캭
캮
캯
캰
캱
캲
캳
캴
캵
캶
캷
캸
캹
캺
캻
캼
캽
캾
캿
컀
컁
컂
컃
컄
컅
컆
컇
컈
컉
컊
컋
컌
컍
컎
컏
컐
컑
컒
컓
컔
컕
컖
컗
컘
컙
컚
컛
컜
컝
컞
컟
컠
컡
컢
컣
커
컥
컦
컧
컨
컩
컪
컫
컬
컭
컮
컯
컰
컱
컲
컳
컴
컵
컶
컷
컸
컹
컺
컻
컼
컽
컾
컿
케
켁
켂
켃
켄
켅
켆
켇
켈
켉
켊
켋
켌
켍
켎
켏
켐
켑
켒
켓
켔
켕
켖
켗
켘
켙
켚
켛
켜
켝
켞
켟
켠
켡
켢
켣
켤
켥
켦
켧
켨
켩
켪
켫
켬
켭
켮
켯
켰
켱
켲
켳
켴
켵
켶
켷
켸
켹
켺
켻
켼
켽
켾
켿
콀
콁
콂
콃
콄
콅
콆
콇
콈
콉
콊
콋
콌
콍
콎
콏
콐
콑
콒
콓
코
콕
콖
콗
콘
콙
콚
콛
콜
콝
콞
콟
콠
콡
콢
콣
콤
콥
콦
콧
콨
콩
콪
콫
콬
콭
콮
콯
콰
콱
콲
콳
콴
콵
콶
콷
콸
콹
콺
콻
콼
콽
콾
콿
쾀
쾁
쾂
쾃
쾄
쾅
쾆
쾇
쾈
쾉
쾊
쾋
쾌
쾍
쾎
쾏
쾐
쾑
쾒
쾓
쾔
쾕
쾖
쾗
쾘
쾙
쾚
쾛
쾜
쾝
쾞
쾟
쾠
쾡
쾢
쾣
쾤
쾥
쾦
쾧
쾨
쾩
쾪
쾫
쾬
쾭
쾮
쾯
쾰
쾱
쾲
쾳
쾴
쾵
쾶
쾷
쾸
쾹
쾺
쾻
쾼
쾽
쾾
쾿
쿀
쿁
쿂
쿃
쿄
쿅
쿆
쿇
쿈
쿉
쿊
쿋
쿌
쿍
쿎
쿏
쿐
쿑
쿒
쿓
쿔
쿕
쿖
쿗
쿘
쿙
쿚
쿛
쿜
쿝
쿞
쿟
쿠
쿡
쿢
쿣
쿤
쿥
쿦
쿧
쿨
쿩
쿪
쿫
쿬
쿭
쿮
쿯
쿰
쿱
쿲
쿳
쿴
쿵
쿶
쿷
쿸
쿹
쿺
쿻
쿼
쿽
쿾
쿿
퀀
퀁
퀂
퀃
퀄
퀅
퀆
퀇
퀈
퀉
퀊
퀋
퀌
퀍
퀎
퀏
퀐
퀑
퀒
퀓
퀔
퀕
퀖
퀗
퀘
퀙
퀚
퀛
퀜
퀝
퀞
퀟
퀠
퀡
퀢
퀣
퀤
퀥
퀦
퀧
퀨
퀩
퀪
퀫
퀬
퀭
퀮
퀯
퀰
퀱
퀲
퀳
퀴
퀵
퀶
퀷
퀸
퀹
퀺
퀻
퀼
퀽
퀾
퀿
큀
큁
큂
큃
큄
큅
큆
큇
큈
큉
큊
큋
큌
큍
큎
큏
큐
큑
큒
큓
큔
큕
큖
큗
큘
큙
큚
큛
큜
큝
큞
큟
큠
큡
큢
큣
큤
큥
큦
큧
큨
큩
큪
큫
크
큭
큮
큯
큰
큱
큲
큳
클
큵
큶
큷
큸
큹
큺
큻
큼
큽
큾
큿
킀
킁
킂
킃
킄
킅
킆
킇
킈
킉
킊
킋
킌
킍
킎
킏
킐
킑
킒
킓
킔
킕
킖
킗
킘
킙
킚
킛
킜
킝
킞
킟
킠
킡
킢
킣
키
킥
킦
킧
킨
킩
킪
킫
킬
킭
킮
킯
킰
킱
킲
킳
킴
킵
킶
킷
킸
킹
킺
킻
킼
킽
킾
킿
타
탁
탂
탃
탄
탅
탆
탇
탈
탉
탊
탋
탌
탍
탎
탏
탐
탑
탒
탓
탔
탕
탖
탗
탘
탙
탚
탛
태
택
탞
탟
탠
탡
탢
탣
탤
탥
탦
탧
탨
탩
탪
탫
탬
탭
탮
탯
탰
탱
탲
탳
탴
탵
탶
탷
탸
탹
탺
탻
탼
탽
탾
탿
턀
턁
턂
턃
턄
턅
턆
턇
턈
턉
턊
턋
턌
턍
턎
턏
턐
턑
턒
턓
턔
턕
턖
턗
턘
턙
턚
턛
턜
턝
턞
턟
턠
턡
턢
턣
턤
턥
턦
턧
턨
턩
턪
턫
턬
턭
턮
턯
터
턱
턲
턳
턴
턵
턶
턷
털
턹
턺
턻
턼
턽
턾
턿
텀
텁
텂
텃
텄
텅
텆
텇
텈
텉
텊
텋
테
텍
텎
텏
텐
텑
텒
텓
텔
텕
텖
텗
텘
텙
텚
텛
템
텝
텞
텟
텠
텡
텢
텣
텤
텥
텦
텧
텨
텩
텪
텫
텬
텭
텮
텯
텰
텱
텲
텳
텴
텵
텶
텷
텸
텹
텺
텻
텼
텽
텾
텿
톀
톁
톂
톃
톄
톅
톆
톇
톈
톉
톊
톋
톌
톍
톎
톏
톐
톑
톒
톓
톔
톕
톖
톗
톘
톙
톚
톛
톜
톝
톞
톟
토
톡
톢
톣
톤
톥
톦
톧
톨
톩
톪
톫
톬
톭
톮
톯
톰
톱
톲
톳
톴
통
톶
톷
톸
톹
톺
톻
톼
톽
톾
톿
퇀
퇁
퇂
퇃
퇄
퇅
퇆
퇇
퇈
퇉
퇊
퇋
퇌
퇍
퇎
퇏
퇐
퇑
퇒
퇓
퇔
퇕
퇖
퇗
퇘
퇙
퇚
퇛
퇜
퇝
퇞
퇟
퇠
퇡
퇢
퇣
퇤
퇥
퇦
퇧
퇨
퇩
퇪
퇫
퇬
퇭
퇮
퇯
퇰
퇱
퇲
퇳
퇴
퇵
퇶
퇷
퇸
퇹
퇺
퇻
퇼
퇽
퇾
퇿
툀
툁
툂
툃
툄
툅
툆
툇
툈
툉
툊
툋
툌
툍
툎
툏
툐
툑
툒
툓
툔
툕
툖
툗
툘
툙
툚
툛
툜
툝
툞
툟
툠
툡
툢
툣
툤
툥
툦
툧
툨
툩
툪
툫
투
툭
툮
툯
툰
툱
툲
툳
툴
툵
툶
툷
툸
툹
툺
툻
툼
툽
툾
툿
퉀
퉁
퉂
퉃
퉄
퉅
퉆
퉇
퉈
퉉
퉊
퉋
퉌
퉍
퉎
퉏
퉐
퉑
퉒
퉓
퉔
퉕
퉖
퉗
퉘
퉙
퉚
퉛
퉜
퉝
퉞
퉟
퉠
퉡
퉢
퉣
퉤
퉥
퉦
퉧
퉨
퉩
퉪
퉫
퉬
퉭
퉮
퉯
퉰
퉱
퉲
퉳
퉴
퉵
퉶
퉷
퉸
퉹
퉺
퉻
퉼
퉽
퉾
퉿
튀
튁
튂
튃
튄
튅
튆
튇
튈
튉
튊
튋
튌
튍
튎
튏
튐
튑
튒
튓
튔
튕
튖
튗
튘
튙
튚
튛
튜
튝
튞
튟
튠
튡
튢
튣
튤
튥
튦
튧
튨
튩
튪
튫
튬
튭
튮
튯
튰
튱
튲
튳
튴
튵
튶
튷
트
특
튺
튻
튼
튽
튾
튿
틀
틁
틂
틃
틄
틅
틆
틇
틈
틉
틊
틋
틌
틍
틎
틏
틐
틑
틒
틓
틔
틕
틖
틗
틘
틙
틚
틛
틜
틝
틞
틟
틠
틡
틢
틣
틤
틥
틦
틧
틨
틩
틪
틫
틬
틭
틮
틯
티
틱
틲
틳
틴
틵
틶
틷
틸
틹
틺
틻
틼
틽
틾
틿
팀
팁
팂
팃
팄
팅
팆
팇
팈
팉
팊
팋
파
팍
팎
팏
판
팑
팒
팓
팔
팕
팖
팗
팘
팙
팚
팛
팜
팝
팞
팟
팠
팡
팢
팣
팤
팥
팦
팧
패
팩
팪
팫
팬
팭
팮
팯
팰
팱
팲
팳
팴
팵
팶
팷
팸
팹
팺
팻
팼
팽
팾
팿
퍀
퍁
퍂
퍃
퍄
퍅
퍆
퍇
퍈
퍉
퍊
퍋
퍌
퍍
퍎
퍏
퍐
퍑
퍒
퍓
퍔
퍕
퍖
퍗
퍘
퍙
퍚
퍛
퍜
퍝
퍞
퍟
퍠
퍡
퍢
퍣
퍤
퍥
퍦
퍧
퍨
퍩
퍪
퍫
퍬
퍭
퍮
퍯
퍰
퍱
퍲
퍳
퍴
퍵
퍶
퍷
퍸
퍹
퍺
퍻
퍼
퍽
퍾
퍿
펀
펁
펂
펃
펄
펅
펆
펇
펈
펉
펊
펋
펌
펍
펎
펏
펐
펑
펒
펓
펔
펕
펖
펗
페
펙
펚
펛
펜
펝
펞
펟
펠
펡
펢
펣
펤
펥
펦
펧
펨
펩
펪
펫
펬
펭
펮
펯
펰
펱
펲
펳
펴
펵
펶
펷
편
펹
펺
펻
펼
펽
펾
펿
폀
폁
폂
폃
폄
폅
폆
폇
폈
평
폊
폋
폌
폍
폎
폏
폐
폑
폒
폓
폔
폕
폖
폗
폘
폙
폚
폛
폜
폝
폞
폟
폠
폡
폢
폣
폤
폥
폦
폧
폨
폩
폪
폫
포
폭
폮
폯
폰
폱
폲
폳
폴
폵
폶
폷
폸
폹
폺
폻
폼
폽
폾
폿
퐀
퐁
퐂
퐃
퐄
퐅
퐆
퐇
퐈
퐉
퐊
퐋
퐌
퐍
퐎
퐏
퐐
퐑
퐒
퐓
퐔
퐕
퐖
퐗
퐘
퐙
퐚
퐛
퐜
퐝
퐞
퐟
퐠
퐡
퐢
퐣
퐤
퐥
퐦
퐧
퐨
퐩
퐪
퐫
퐬
퐭
퐮
퐯
퐰
퐱
퐲
퐳
퐴
퐵
퐶
퐷
퐸
퐹
퐺
퐻
퐼
퐽
퐾
퐿
푀
푁
푂
푃
푄
푅
푆
푇
푈
푉
푊
푋
푌
푍
푎
푏
푐
푑
푒
푓
푔
푕
푖
푗
푘
푙
푚
푛
표
푝
푞
푟
푠
푡
푢
푣
푤
푥
푦
푧
푨
푩
푪
푫
푬
푭
푮
푯
푰
푱
푲
푳
푴
푵
푶
푷
푸
푹
푺
푻
푼
푽
푾
푿
풀
풁
풂
풃
풄
풅
풆
풇
품
풉
풊
풋
풌
풍
풎
풏
풐
풑
풒
풓
풔
풕
풖
풗
풘
풙
풚
풛
풜
풝
풞
풟
풠
풡
풢
풣
풤
풥
풦
풧
풨
풩
풪
풫
풬
풭
풮
풯
풰
풱
풲
풳
풴
풵
풶
풷
풸
풹
풺
풻
풼
풽
풾
풿
퓀
퓁
퓂
퓃
퓄
퓅
퓆
퓇
퓈
퓉
퓊
퓋
퓌
퓍
퓎
퓏
퓐
퓑
퓒
퓓
퓔
퓕
퓖
퓗
퓘
퓙
퓚
퓛
퓜
퓝
퓞
퓟
퓠
퓡
퓢
퓣
퓤
퓥
퓦
퓧
퓨
퓩
퓪
퓫
퓬
퓭
퓮
퓯
퓰
퓱
퓲
퓳
퓴
퓵
퓶
퓷
퓸
퓹
퓺
퓻
퓼
퓽
퓾
퓿
픀
픁
픂
픃
프
픅
픆
픇
픈
픉
픊
픋
플
픍
픎
픏
픐
픑
픒
픓
픔
픕
픖
픗
픘
픙
픚
픛
픜
픝
픞
픟
픠
픡
픢
픣
픤
픥
픦
픧
픨
픩
픪
픫
픬
픭
픮
픯
픰
픱
픲
픳
픴
픵
픶
픷
픸
픹
픺
픻
피
픽
픾
픿
핀
핁
핂
핃
필
핅
핆
핇
핈
핉
핊
핋
핌
핍
핎
핏
핐
핑
핒
핓
핔
핕
핖
핗
하
학
핚
핛
한
핝
핞
핟
할
핡
핢
핣
핤
핥
핦
핧
함
합
핪
핫
핬
항
핮
핯
핰
핱
핲
핳
해
핵
핶
핷
핸
핹
핺
핻
핼
핽
핾
핿
햀
햁
햂
햃
햄
햅
햆
햇
했
행
햊
햋
햌
햍
햎
햏
햐
햑
햒
햓
햔
햕
햖
햗
햘
햙
햚
햛
햜
햝
햞
햟
햠
햡
햢
햣
햤
향
햦
햧
햨
햩
햪
햫
햬
햭
햮
햯
햰
햱
햲
햳
햴
햵
햶
햷
햸
햹
햺
햻
햼
햽
햾
햿
헀
헁
헂
헃
헄
헅
헆
헇
허
헉
헊
헋
헌
헍
헎
헏
헐
헑
헒
헓
헔
헕
헖
헗
험
헙
헚
헛
헜
헝
헞
헟
헠
헡
헢
헣
헤
헥
헦
헧
헨
헩
헪
헫
헬
헭
헮
헯
헰
헱
헲
헳
헴
헵
헶
헷
헸
헹
헺
헻
헼
헽
헾
헿
혀
혁
혂
혃
현
혅
혆
혇
혈
혉
혊
혋
혌
혍
혎
혏
혐
협
혒
혓
혔
형
혖
혗
혘
혙
혚
혛
혜
혝
혞
혟
혠
혡
혢
혣
혤
혥
혦
혧
혨
혩
혪
혫
혬
혭
혮
혯
혰
혱
혲
혳
혴
혵
혶
혷
호
혹
혺
혻
혼
혽
혾
혿
홀
홁
홂
홃
홄
홅
홆
홇
홈
홉
홊
홋
홌
홍
홎
홏
홐
홑
홒
홓
화
확
홖
홗
환
홙
홚
홛
활
홝
홞
홟
홠
홡
홢
홣
홤
홥
홦
홧
홨
황
홪
홫
홬
홭
홮
홯
홰
홱
홲
홳
홴
홵
홶
홷
홸
홹
홺
홻
홼
홽
홾
홿
횀
횁
횂
횃
횄
횅
횆
횇
횈
횉
횊
횋
회
획
횎
횏
횐
횑
횒
횓
횔
횕
횖
횗
횘
횙
횚
횛
횜
횝
횞
횟
횠
횡
횢
횣
횤
횥
횦
횧
효
횩
횪
횫
횬
횭
횮
횯
횰
횱
횲
횳
횴
횵
횶
횷
횸
횹
횺
횻
횼
횽
횾
횿
훀
훁
훂
훃
후
훅
훆
훇
훈
훉
훊
훋
훌
훍
훎
훏
훐
훑
훒
훓
훔
훕
훖
훗
훘
훙
훚
훛
훜
훝
훞
훟
훠
훡
훢
훣
훤
훥
훦
훧
훨
훩
훪
훫
훬
훭
훮
훯
훰
훱
훲
훳
훴
훵
훶
훷
훸
훹
훺
훻
훼
훽
훾
훿
휀
휁
휂
휃
휄
휅
휆
휇
휈
휉
휊
휋
휌
휍
휎
휏
휐
휑
휒
휓
휔
휕
휖
휗
휘
휙
휚
휛
휜
휝
휞
휟
휠
휡
휢
휣
휤
휥
휦
휧
휨
휩
휪
휫
휬
휭
휮
휯
휰
휱
휲
휳
휴
휵
휶
휷
휸
휹
휺
휻
휼
휽
휾
휿
흀
흁
흂
흃
흄
흅
흆
흇
흈
흉
흊
흋
흌
흍
흎
흏
흐
흑
흒
흓
흔
흕
흖
흗
흘
흙
흚
흛
흜
흝
흞
흟
흠
흡
흢
흣
흤
흥
흦
흧
흨
흩
흪
흫
희
흭
흮
흯
흰
흱
흲
흳
흴
흵
흶
흷
흸
흹
흺
흻
흼
흽
흾
흿
힀
힁
힂
힃
힄
힅
힆
힇
히
힉
힊
힋
힌
힍
힎
힏
힐
힑
힒
힓
힔
힕
힖
힗
힘
힙
힚
힛
힜
힝
힞
힟
힠
힡
힢
힣
##계
##설
##국
##에
##서
##법
##제
##마
##저
##끔
##만
##하
##겠
##습
##니
##다
##.
##"
##부
##족
##인
##퇴
##시
##켰
##던
##자
##애
##였
##는
##데
##베
##르
##크
##:
##0
##5
##키
##메
##,
##나
##즈
##루
##역
##뤄
##준
##것
##을
##i
##z
##m
##O
##N
##I
##F
##C
##종
##보
##스
##리
##봉
##수
##카
##라
##명
##함
##으
##로
##써
##장
##아
##파
##트
##티
##와
##매
##해
##야
##고
##킬
##2
##-
##은
##혜
##갚
##4
##패
##했
##때
##울
##버
##기
##답
##임
##3
##7
##타
##냐
##이
##정
##류
##형
##석
##G
##A
##의
##축
##도
##가
##대
##머
##화
##점
##를
##커
##게
##붙
##여
##졌
##지
##일
##난
##구
##?
##미
##W
##태
##비
##조
##차
##러
##밍
##밖
##혼
##음
##외
##활
##동
##과
##쳐
##넣
##식
##용
##금
##성
##폭
##행
##더
##무
##뎀
##런
##소
##포
##술
##월
##드
##럽
##면
##흐
##디
##예
##프
##텍
##터
##유
##닛
##켄
##1
##사
##령
##취
##통
##증
##전
##광
##었
##8
##들
##재
##교
##실
##룬
##왈
##오
##D
##/
##~
##6
##절
##단
##거
##어
##림
##학
##관
##찰
##한
##엘
##Y
##좌
##량
##치
##원
##쇼
##된
##표
##쥬
##살
##컨
##텐
##츠
##ㄴ
##ㅋ
##'
##완
##년
##군
##괴
##상
##[
##]
##누
##바
##공
##업
##등
##판
##내
##j
##R
##되
##진
##생
##페
##쉬
##n
##d
##e
##s
##t
##r
##u
##c
##a
##b
##l
##y
##발
##할
##요
##U
##E
##악
##빛
##속
##빈
##g
##회
##후
##K
##신
##목
##+
##선
##그
##염
##산
##연
##긴
##십
##융
##합
##추
##반
##현
##o
##k
##우
##코
##밭
##욱
##김
##문
##철
##옥
##불
##탄
##항
##변
##품
##람
##며
##헌
##!
##적
##중
##쓰
##근
##레
##톰
##>
##폴
##클
##돌
##감
##옷
##9
##간
##v
##체
##까
##승
##블
##담
##훈
##련
##안
##본
##녀
##딸
##셔
##펜
##병
##찡
##직
##브
##주
##능
##력
##양
##T
##쿨
##렐
##록
##캐
##엄
##갤
##채
##건
##룹
##입
##핑
##방
##송
##권
##특
##별
##청
##물
##덜
##란
##꿈
##꿨
##래
##쨩
##최
##모
##쟁
##슬
##%
##립
##강
##뒤
##잡
##냔
##즌
##려
##노
##망
##훼
##호
##폐
##히
##민
##육
##혁
##죽
##락
##론
##h
##롯
##헴
###
##x
##;
##&
##B
##필
##랄
##례
##없
##백
##세
##튀
##위
##복
##벌
##황
##뮤
##착
##겸
##퀴
##팀
##왕
##릉
##처
##럼
##색
##칸
##격
##글
##숭
##액
##말
##릴
##경
##참
##받
##았
##두
##네
##S
##틴
##탑
##초
##맨
##P
##순
##열
##샵
##출
##범
##친
##투
##결
##영
##창
##뿐
##늘
##독
##작
##밥
##퍼
##센
##씩
##피
##온
##개
##홀
##토
##섬
##억
##달
##심
##<
##급
##H
##튼
##검
##욕
##탁
##짐
##봇
##펌
##랙
##션
##륜
##릇
##므
##왔
##측
##쿠
##흡
##질
##환
##느
##희
##집
##님
##램
##웬
##럿
##린
##놈
##벤
##M
##못
##템
##혹
##같
##렌
##랑
##분
##박
##킵
##운
##멜
##않
##짱
##켜
##줬
##넨
##평
##렀
##킹
##규
##꿔
##줘
##났
##극
##섹
##p
##f
##암
##w
##_
##책
##죄
##큼
##천
##휘
##균
##배
##춰
##탱
##름
##퀘
##딕
##냥
##알
##층
##걸
##깐
##져
##찾
##득
##롱
##슴
##침
##놓
##낭
##곰
##옵
##워
##총
##몸
##됌
##케
##줄
##떤
##낌
##잉
##팝
##앨
##밀
##뀌
##잔
##컴
##퓨
##픈
##랫
##올
##곡
##링
##댄
##츤
##맥
##L
##헤
##폰
##핀
##테
##옹
##Q
##옴
##각
##캉
##겨
##깃
##팅
##쪽
##곤
##빠
##혔
##끼
##팟
##킨
##빡
##편
##슈
##X
##혀
##있
##돡
##콜
##택
##벳
##젝
##깡
##딜
##농
##=
##앙
##든
##료
##엔
##번
##짝
##렸
##빌
##덴
##(
##)
##풍
##섭
##효
##험
##듯
##돼
##덤
##당
##쁨
##냈
##깍
##틀
##얼
##념
##칼
##젤
##푸
##딩
##빙
##핌
##획
##널
##셋
##멸
##팬
##남
##북
##힌
##뉴
##협
##툰
##움
##쳬
##충
##쿄
##약
##견
##릭
##칠
##왠
##찍
##}
##봤
##펭
##귄
##몬
##흥
##삼
##새
##홈
##쯤
##샤
##슨
##젼
##씨
##갈
##납
##몽
##닌
##떨
##앞
##됐
##묘
##뱁
##쁠
##른
##숲
##될
##탭
##플
##률
##맛
##뭐
##징
##먼
##땅
##벨
##ㅎ
##J
##짖
##밌
##먹
##텔
##큐
##싸
##듀
##귀
##께
##탠
##너
##털
##룡
##덱
##혐
##언
##덕
##휴
##짜
##갯
##킥
##접
##퀸
##딤
##찬
##깔
##궈
##둔
##웨
##컬
##댁
##턴
##찌
##셴
##골
##쁜
##넘
##쥐
##엑
##끓
##V
##칭
##굴
##겐
##갔
##@
##롤
##닥
##랍
##굿
##윤
##픽
##Z
##쉰
##럴
##*
##낫
##웅
##캣
##눈
##q
##맹
##묵
##룰
##넷
##딱
##끌
##잖
##탓
##{
##랜
##닝
##뇌
##혈
##냄
##툴
##팩
##꾸
##|
##켓
##맡
##둬
##길
##빨
##큰
##퐁
##압
##밟
##땡
##놀
##펀
##탐
##펙
##앤
##왜
##샘
##셀
##숙
##척
##쿳
##짤
##믹
##뜨
##봐
##뉘
##찮
##따
##논
##읍
##륙
##꾼
##궁
##톤
##탯
##또
##ㅡ
##셜
##홍
##흔
##존
##쩡
##솔
##촌
##훙
##쉽
##둥
##밤
##쁘
##콩
##잠
##럭
##뭔
##칩
##녁
##갑
##앰
##켈
##곯
##쇄
##꽂
##허
##낼
##믄
##섯
##렉
##볼
##죠
##륭
##랩
##샷
##델
##컵
##걱
##꽃
##둠
##뻔
##왓
##싱
##뷰
##힘
##튜
##뒀
##많
##텀
##잭
##셨
##날
##손
##꼬
##쿵
##렙
##갱
##챠
##롭
##탈
##빔
##윙
##윈
##쵸
##닉
##놨
##딧
##딘
##벽
##힐
##콤
##쳤
##얀
##쩌
##랐
##풀
##핫
##삐
##밋
##펠
##확
##넴
##샌
##앗
##긋
##줌
##븐
##쏘
##켁
##응
##샬
##값
##곱
##싹
##벼
##댓
##쟈
##듣
##벗
##뢰
##캠
##삥
##샛
##둘
##닭
##톨
##홉
##딨
##돗
##꿀
##멍
##젬
##\
##캄
##늄
##첩
##ㅇ
##텨
##똠
##밸
##찜
##룩
##찔
##쌍
##틍
##넹
##핵
##즉
##렇
##툼
##틸
##몹
##뚫
##떠
##익
##엉
##멋
##닐
##쾨
##첨
##댐
##츄
##밴
##랴
##멘
##뿡
##얐
##낙
##붕
##끈
##괜
##빤
##낄
##겼
##냉
##쑤
##숴
##틱
##웠
##째
##빵
##팔
##쌀
##곳
##얍
##율
##캡
##륵
##줍
##략
##팰
##몰
##쿤
##뿔
##덩
##뚱
##옆
##렘
##꺼
##웰
##막
##첼
##됩
##랬
##펑
##옌
##향
##젠
##볍
##껌
##윌
##뵈
##뤼
##믜
##꿩
##겁
##빼
##띠
##멀
##웡
##컷
##웃
##객
##뛰
##돈
##뱀
##렛
##삭
##롬
##딥
##귤
##흑
##뺨
##돔
##녕
##멈
##떻
##밧
##멕
##첸
##졸
##셸
##맵
##쏴
##쾅
##뇨
##룸
##팜
##콥
##뜸
##씬
##얽
##헝
##촨
##랭
##챔
##륨
##잎
##섰
##훌
##겜
##픔
##팡
##ㄹ
##좋
##젖
##렝
##탕
##핸
##밑
##슌
##챘
##괘
##낸
##닷
##쓴
##넬
##ㅑ
##ㄺ
##릿
##깨
##찢
##렁
##봄
##즘
##칙
##엣
##얏
##딪
##빚
##엽
##흙
##섀
##웹
##쨌
##윗
##읽
##댔
##됨
##앉
##놋
##쏠
##찐
##톡
##뱅
##짓
##잼
##졋
##뻑
##퓰
##잇
##겟
##곗
##쩝
##렬
##텟
##솥
##팽
##쌤
##콘
##턱
##흫
##촉
##뤘
##끝
##텅
##썬
##쿼
##틈
##텝
##싫
##궜
##멧
##흠
##볏
##땐
##쇤
##씹
##벵
##늑
##뷘
##싀
##좀
##떼
##깝
##깈
##덮
##셰
##톱
##킴
##춤
##긍
##엌
##뭇
##룽
##팁
##촬
##쪼
##읊
##뚝
##뼈
##펄
##넌
##벙
##쟌
##쉘
##춘
##쓸
##뷔
##즐
##눠
##렷
##쉐
##곽
##뚤
##앍
##갸
##윕
##쭝
##^
##쌔
##맷
##셉
##딴
##늬
##겔
##햄
##랏
##숍
##흘
##캅
##ㅈ
##떡
##횡
##괄
##귑
##춧
##밐
##쌰
##뮴
##뀨
##릅
##썼
##뮬
##뿌
##뭍
##첵
##쉴
##ㅓ
##ㅗ
##ㅜ
##옮
##숨
##푼
##몇
##웍
##슘
##딛
##깎
##캔
##멤
##폼
##튬
##높
##멩
##엿
##갖
##끄
##솜
##늉
##씀
##슷
##흩
##쇠
##헨
##땀
##뱉
##궤
##젯
##둑
##묶
##벰
##쫓
##졈
##갠
##궐
##맞
##꽁
##렴
##샐
##솟
##ㄲ
##퉁
##웜
##뜻
##찿
##풋
##뎅
##갓
##쩍
##휠
##뇽
##눅
##낚
##씌
##헬
##뇰
##껴
##맘
##긁
##뿅
##쌈
##싯
##쯔
##넥
##욷
##ㅣ
##릎
##ㄱ
##ㅊ
##ㅂ
##녹
##뚜
##벅
##싶
##엇
##겹
##`
##ㅏ
##깅
##뭉
##삽
##및
##ㅁ
##켑
##싼
##숫
##렵
##뻐
##꼈
##떄
##끗
##앱
##윔
##뽕
##킷
##듈
##숀
##콕
##핏
##싣
##헣
##잘
##샀
##슛
##닮
##셩
##퓌
##벞
##랖
##왼
##낳
##섞
##캇
##펩
##껄
##헀
##햐
##$
##ㅐ
##ㅔ
##ㅚ
##ㅟ
##ㅢ
##ㅘ
##ㅝ
##똑
##빗
##놔
##앜
##닫
##펴
##쌓
##큠
##샨
##휩
##땜
##횟
##닦
##햇
##첬
##섣
##낮
##멱
##앎
##굉
##씽
##뻥
##ㅄ
##ㄻ
##앵
##팠
##꽝
##썸
##슥
##닙
##눌
##늦
##흉
##헐
##톳
##썽
##엠
##ㅠ
##맬
##됬
##훗
##갭
##겝
##빴
##얘
##푀
##칫
##꽉
##쭉
##앴
##짹
##펫
##빅
##쫒
##믕
##슐
##찹
##옛
##쾌
##굽
##룻
##뽑
##핳
##힙
##훤
##퉤
##넉
##쑹
##뜩
##잌
##뒈
##굳
##썰
##쨍
##믿
##ㄶ
##쑨
##튕
##눗
##셈
##꼴
##넛
##먀
##뫼
##떴
##붓
##뵙
##츨
##핍
##얄
##낵
##쟝
##욘
##밝
##ㄿ
##벚
##쭤
##봅
##큘
##쩔
##쫄
##듬
##ㅌ
##헸
##댕
##꼽
##칟
##윽
##ㅅ
##뽀
##굼
##쿡
##콧
##닿
##몫
##눔
##휼
##쥔
##줏
##꼭
##돤
##셍
##붐
##꺽
##쉔
##흰
##륌
##똥
##ㄾ
##뒹
##낯
##챈
##끊
##캬
##슝
##큭
##욧
##샙
##뎃
##꺅
##츕
##죈
##큾
##벖
##슶
##텂
##좁
##꺄
##곶
##빽
##눤
##촛
##쎈
##긔
##뷴
##팸
##덫
##뜰
##쏜
##츙
##듕
##ㅞ
##벡
##곧
##쪙
##쉈
##팃
##좆
##볶
##걀
##뭘
##퀼
##냘
##힛
##뱃
##쓱
##옙
##캘
##둡
##엥
##푹
##듼
##샴
##맣
##챙
##횽
##툭
##맠
##돕
##꾹
##숑
##ㄷ
##킁
##흿
##껏
##뢴
##띄
##닢
##녔
##삿
##랠
##뗏
##쌌
##듭
##깥
##팍
##윅
##슼
##뮈
##튠
##껀
##돋
##빰
##샹
##쎄
##좡
##촐
##맆
##낀
##잿
##혓
##폿
##껍
##맴
##쩨
##츈
##콰
##냅
##뎌
##ㅛ
##ㅆ
##춥
##솎
##훔
##잣
##볕
##팻
##긱
##냠
##ㄼ
##찼
##힝
##쭈
##챌
##뜬
##껑
##핰
##탘
##찻
##덧
##꾀
##앓
##걷
##탬
##퐄
##궂
##깠
##쨰
##탔
##퀄
##녤
##닼
##됭
##꿇
##뷸
##텼
##몄
##짬
##틋
##텁
##탤
##떳
##첫
##읏
##쾡
##캍
##힠
##잽
##잊
##쉥
##ㄳ
##짚
##몐
##쮸
##랗
##팼
##끽
##볌
##곁
##짭
##ㅍ
##꺾
##괭
##깊
##ㅉ
##깽
##췄
##댈
##깁
##엎
##톺
##맑
##듐
##ㄵ
##쉼
##갹
##뭥
##꽤
##샥
##뻘
##삘
##퍽
##헙
##즙
##슁
##꿍
##촙
##밈
##꽌
##ㅖ
##ㄽ
##헥
##탸
##갞
##얻
##헛
##믈
##챕
##윰
##묻
##솽
##튄
##냑
##캌
##큥
##띵
##젓
##쥴
##냇
##얹
##눕
##젔
##ㅒ
##썹
##죤
##껫
##뤠
##썩
##뷕
##뿜
##쇨
##햏
##챤
##젊
##왁
##뺄
##팥
##둣
##탉
##겻
##롸
##퀜
##샏
##잗
##넓
##캥
##왑
##켕
##잃
##뽁
##삑
##룟
##핥
##셤
##윾
##뒬
##켯
##똘
##댑
##꼼
##젭
##뭄
##컹
##퇘
##췌
##쥰
##뭣
##꼐
##훨
##덥
##쥘
##룀
##뺀
##뎠
##짯
##뺌
##쑈
##큣
##깜
##뜯
##뇬
##둚
##곌
##곈
##댜
##샾
##녜
##맺
##듫
##꿰
##솝
##넸
##벛
##펐
##꿉
##씸
##씁
##ㅕ
##ㅙ
##욬
##퐈
##늠
##얬
##욤
##윳
##볐
##볜
##푯
##귝
##밉
##챰
##핬
##꿋
##뼝
##룔
##봊
##톼
##뒷
##쉭
##맙
##몪
##솨
##뎬
##켔
##귐
##씰
##봬
##뎐
##켤
##뻤
##쁀
##돛
##솅
##씻
##틔
##퍙
##졍
##쩜
##꽈
##겆
##엡
##꼰
##쭐
##쒸
##쬐
##붉
##븀
##듦
##톈
##얗
##밗
##챗
##뺙
##흴
##믐
##훅
##삠
##쪄
##뜹
##쳄
##핼
##뛴
##맄
##웩
##뀐
##깟
##쌘
##잤
##엾
##뜼
##뾱
##튤
##눼
##짧
##쟤
##쿰
##빕
##슉
##햘
##흗
##륄
##옳
##쎌
##곷
##듄
##롄
##뎨
##퀵
##됄
##쨋
##켐
##촤
##땃
##쥠
##줫
##칰
##낑
##늙
##쭊
##랒
##띨
##깄
##옘
##콴
##싄
##똡
##졷
##컥
##덟
##굵
##쒀
##ㅀ
##큅
##텃
##슾
##눙
##쳅
##쇽
##쭘
##햅
##붑
##뺴
##젴
##헉
##럅
##웁
##짢
##뉼
##쾰
##뼤
##콸
##쏙
##웻
##갰
##뵤
##띔
##믓
##짠
##퀑
##끙
##얌
##엊
##쏭
##즛
##캎
##맸
##슭
##듁
##썅
##괼
##텡
##빻
##쌩
##뀔
##뎁
##릐
##겉
##빾
##츌
##왱
##낱
##햤
##옇
##욜
##쯧
##팎
##넜
##룐
##륀
##굶
##뮌
##돐
##쫀
##궝
##쐐
##홑
##걔
##땠
##홋
##늼
##쇳
##늪
##뀩
##앳
##떰
##슮
##퀀
##뵨
##뵹
##겅
##졘
##겄
##쩐
##튽
##찝
##햑
##졔
##붤
##훕
##삶
##뾰
##엳
##숏
##옝
##갗
##놉
##픕
##랸
##넙
##챳
##긬
##먄
##숯
##춀
##겋
##웸
##뜀
##뻬
##껠
##멥
##껸
##젹
##뷁
##곪
##굇
##퓔
##딫
##짆
##넝
##욀
##뺑
##폈
##깻
##궃
##퉈
##횔
##앟
##츔
##썻
##콛
##쐈
##갛
##땔
##쳔
##읅
##뛸
##쳉
##퓸
##좨
##쑥
##휀
##푕
##떙
##떽
##넵
##훍
##팏
##쫗
##헷
##횄
##봨
##떫
##뱌
##뻈
##졀
##쎼
##쌉
##푈
##왐
##ㄸ
##돚
##쀍
##쫙
##헹
##녠
##쒞
##떵
##듧
##쌥
##뮨
##댱
##뻣
##뫄
##콱
##돠
##훠
##셧
##닻
##춍
##붘
##뻗
##얇
##욿
##엮
##삯
##걋
##읜
##쌕
##녓
##캴
##삡
##큽
##똬
##굣
##붇
##랳
##폔
##칵
##넒
##킼
##큄
##랕
##셌
##캑
##녘
##숩
##잦
##옭
##챨
##퓜
##셕
##쭙
##춭
##힣
##돇
##쬬
##꽹
##옐
##쳘
##뾆
##틉
##뻉
##돎
##큿
##뺏
##푱
##퐝
##짼
##윘
##컫
##괵
##뼌
##킈
##땄
##뵐
##눴
##랃
##ㅃ
##몌
##쩰
##뉜
##펨
##힉
##췐
##횐
##촘
##휜
##왘
##띤
##퇗
##켠
##뉠
##읗
##귓
##겯
##뺐
##쯈
##덀
##빱
##뽄
##겡
##숟
##뎡
##켮
##풉
##숱
##쳇
##폄
##묄
##뤽
##쌋
##췃
##얶
##튿
##뢸
##겍
##뷜
##갬
##얙
##삔
##밢
##쯩
##붱
##볓
##팦
##웈
##끕
##툽
##흄
##꼿
##핲
##툉
##윷
##덭
##궨
##냬
##홓
##펍
##먁
##맢
##셥
##슙
##쥼
##펏
##듥
##짇
##씅
##웝
##샅
##톄
##쉡
##쿽
##굡
##냣
##몯
##맏
##긑
##띈
##훽
##듸
##넫
##툐
##쉿
##쳡
##짙
##셒
##닳
##봙
##깬
##욋
##앚
##읭
##펼
##쟐
##뎍
##퍄
##췬
##큔
##븨
##녈
##뽈
##묜
##됴
##댯
##땁
##맟
##흝
##툿
##쨔
##섐
##낢
##먕
##옻
##둟
##퉜
##쪘
##쉣
##웧
##웦
##빳
##읶
##잍
##퉅
##뭅
##됸
##먺
##겪
##왇
##끨
##햎
##좐
##쫑
##쳥
##귯
##뿍
##럐
##깸
##밷
##꽅
##툇
##겊
##벜
##붠
##켚
##띱
##쎔
##뼉
##뼛
##컁
##돵
##넀
##밎
##홧
##뺘
##텄
##쏟
##갉
##뱟
##늰
##죵
##숄
##쐬
##얜
##떯
##챱
##킾
##꼇
##췰
##읃
##찟
##풔
##띰
##쁩
##쿱
##홰
##뮐
##텦
##닺
##뉨
##뒫
##뉻
##뒨
##뉫
##퇸
##숔
##줴
##걍
##츳
##뇓
##죗
##졉
##늅
##귈
##쳣
##닠
##띌
##밨
##뙇
##뗀
##듹
##솬
##춉
##뜽
##렜
##옿
##컼
##삣
##흭
##렡
##륩
##컸
##벹
##훓
##찧
##녑
##쩄
##쨘
##뗑
##갇
##챵
##띾
##렼
##륏
##섶
##멓
##젵
##뱐
##캤
##뿨
##죌
##쒔
##븜
##햔
##섕
##횬
##옃
##놂
##싲
##쀼
##뱡
##뵜
##긩
##럻
##쩬
##큡
##좇
##깼
##쵹
##횃
##컾
##헵
##옑
##핱
##뽘
##쯕
##엏
##쨕
##뿟
##믁
##쁭
##뛔
##꺗
##럇
##룝
##꾜
##킅
##죡
##먐
##얕
##쩽
##뀜
##퀫
##묭
##쫌
##흣
##쓩
##휄
##됫
##튐
##쩃
##쟛
##좜
##뤌
##쎠
##쭌
##쀏
##줜
##캿
##핢
##롷
##푠
##덬
##쉑
##쫭
##볘
##윸
##쌜
##죨
##붜
##잰
##쩠
##홪
##멬
##옉
##숸
##븪
##쑷
##읔
##숌
##풂
##봘
##픗
##휙
##솁
##둴
##헠
##뽐
##섴
##즤
##좃
##붹
##뇸
##콀
##맜
##붸
##튈
##뗐
##낡
##뚠
##틑
##뗘
##멎
##앝
##넼
##눝
##웥
##읒
##뤗
##갼
##닏
##촹
##퍈
##밞
##괏
##닜
##늡
##둏
##읖
##묾
##솧
##덪
##쬘
##잴
##벱
##쨈
##쪨
##뉵
##싰
##묀
##봡
##뤁
##혠
##낏
##웤
##왉
##죳
##젋
##휫
##솀
##튭
##봑
##싴
##꽥
##뉔
##웽
##뚬
##끍
##냨
##탶
##뵀
##퓩
##젱
##챂
##돝
##몀
##걌
##똔
##귱
##쿈
##맊
##읫
##옼
##혂
##댠
##빋
##뀍
##쵝
##솃
##뗴
##츼
##떋
##붼
##뇩
##퇀
##쯰
##붭
##뜌
##놐
##낟
##윱
##뜷
##쌐
##틂
##튱
##슽
##굑
##꿘
##껒
##괌
##귁
##땟
##몥
##엻
##겿
##늣
##욍
##젇
##캰
##묙
##쉪
##굥
##껚
##냏
##춸
##뻄
##싿
##튁
##풒
##쎕
##븝
##칲
##롈
##햿
##뙈
##굄
##뇻
##뵷
##핟
##줭
##릍
##럤
##씼
##껜
##쳌
##쵼
##읓
##꼳
##쥌
##햝
##헱
##롻
##퀧
##뫃
##뚷
##뭏
##붖
##즁
##쟀
##잫
##콮
##젟
##탰
##덌
##켭
##륍
##듷
##짰
##솰
##팉
##뫌
##쳑
##뉙
##툵
##뛌
##욯
##텽
##앆
##놧
##멨
##뒴
##툥
##땍
##갘
##봣
##썖
##퍌
##붏
##솦
##돘
##꽐
##쨤
##갷
##덨
##쭁
##쇡
##텻
##껭
##싮
##앖
##퓬
##왝
##횓
##뼘
##칯
##찯
##깋
##켝
##걲
##쯱
##휏
##꿏
##옅
##퍅
##둉
##욌
##엙
##텰
##쟞
##밮
##뭬
##춈
##솓
##쮜
##붯
##볔
##닧
##쨉
##씜
##낍
##롓
##낰
##볙
##팹
##깤
##읇
##귿
##삮
##떈
##깰
##닯
##섄
##끠
##묏
##셓
##밬
##턍
##캭
##냡
##뷀
##텬
##큇
##츰
##쟉
##묠
##뮹
##넋
##퇼
##윟
##햡
##훑
##몆
##핣
##뺸
##픠
##턀
##늒
##괸
##끵
##웛
##홭
##잀
##읕
##싳
##줮
##욥
##떱
##좍
##뙤
##엪
##긌
##찱
##뉸
##쏫
##랼
##컄
##쟎
##푿
##릔
##셱
##뷧
##곺
##빞
##륻
##뚂
##샜
##쒐
##쾀
##쫘
##즥
##볱
##놘
##햣
##됏
##맇
##콉
##엨
##솊
##뒝
##꽛
##헿
##왂
##뻭
##챦
##섦
##벋
##졤
##쓔
##폽
##쳠
##땹
##갊
##뱄
##뢉
##껐
##샄
##쒠
##깉
##댤
##킄
##눞
##싁
##붵
##먿
##쥭
##뛣
##홣
##꾫
##뎧
##랲
##쎅
##낲
##웟
##슸
##궆
##즵
##쉏
##룁
##덞
##똣
##늕
##븅
##먗
##먳
##맻
##뮻
##뭋
##웓
##볫
##헜
##쓋
##곘
##뺼
##돨
##볻
##씐
##떥
##맅
##찦
##팂
##쾃
##펔
##궉
##껙
##쁋
##붗
##녂
##읠
##렣
##늫
##뀽
##쮠
##쨜
##닸
##넽
##횰
##챃
##켸
##껃
##줸
##랓
##랋
##톩
##뗄
##쏼
##훵
##튝
##폳
##륑
##땝
##딈
##즹
##슿
##빧
##렏
##짷
##
##햭
##칡
##궄
##랔
##앋
##븥
##짊
##긺
##헁
##픝
##늴
##뀠
##텊
##껬
##핓
##뙨
##샊
##끜
##칞
##놑
##묫
##엤
##닞
##옄
##삳
##쯋
##횩
##핡
##띃
##룍
##뢔
##퓻
##헼
##촵
##낻
##욺
##쑵
##놥
##쉇
##끎
##킸
##삤
##켣
##딋
##끅
##뎟
##섊
##앏
##쨥
##핮
##츩
##쯸
##쏨
##뻴
##덛
##븃
##썝
##뿉
##듨
##곬
##릊
##뚧
##쾍
##칻
##뢨
##쟆
##삵
##긂
##쟙
##뱔
##릳
##섁
##롹
##뵌
##숞
##츅
##쥥
##뇐
##꺠
##놯
##뽝
##훜
##뫀
##퓐
##쎘
##휭
##홐
##죹
##쨀
##뒕
##뫞
##뿷
##땞
##밪
##뒗
##됵
##롊
##잋
##윶
##꼅
##겓
##봫
##굠
##끟
##퀠
##똗
##곻
##꿧
##땋
##섥
##늗
##듶
##뽤
##썌
##욛
##뽜
##읿
##뻰
##푭
##닪
##팈
##쁴
##꺕
##끡
##뭎
##쿙
##랟
##섮
##짒
##됍
##픞
##쬼
##뿝
##갂
##뿎
##딮
##됙
##욨
##뚯
##솩
##엷
##샇
##롼
##녯
##퇍
##쎵
##웎
##톸
##쫏
##꾿
##굔
##걘
##웷
##뤵
##텣
##푁
##덯
##닽
##룅
##핔
##쟘
##킆
##켙
##솏
##힜
##긜
##뢱
##웄
##얔
##넠
##뤤
##쇵
##쳰
##픙
##풰
##죶
##붊
##홤
##셐
##톻
##쉠
##탼
##쩸
##벧
##뤈
##븡
##틘
##쏚
##쐴
##뺵
##퐞
##뼜
##쉙
##핶
##쳴
##썜
##븍
##떦
##랆
##둗
##깹
##컿
##꿕
##옸
##켘
##쏱
##엶
##렿
##쥣
##밯
##곂
##멐
##렄
##힚
##롮
##폮
##큪
##뽂
##댸
##멌
##뚀
##펲
##잨
##앸
##콭
##짞
##닁
##큉
##냤
##듵
##뵉
##뢍
##춋
##뎂
##닶
##룃
##먑
##쑴
##롶
##둙
##돰
##췍
##띡
##쿶
##땨
##탵
##밠
##묨
##팖
##퉷
##툠
##웴
##짘
##옜
##뱍
##돧
##둄
##얭
##뒵
##쁑
##읻
##뗌
##븟
##륫
##믙
##홯
##깩
##맍
##짛
##졲
##뵘
##쑬
##젛
##앀
##뵥
##얖
##퍠
##솖
##쥿
##깆
##졎
##컽
##홥
##릵
##끾
##렫
##닟
##홛
##췩
##샆
##쿸
##릃
##뵽
##줛
##놗
##솫
##뗛
##몼
##돣
##뢐
##홳
##잓
##웫
##룫
##뺃
##뗣
##쵁
##롑
##뜐
##꼻
##닑
##롣
##틷
##윝
##넖
##쩧
##촠
##긷
##옾
##쐥
##뚁
##햬
##뒑
##뒓
##퀌
##롴
##븠
##땽
##쩅
##쥇
##칬
##삻
##렦
##슆
##읾
##씃
##쯥
##헯
##젧
##킦
##뀝
##쪠
##콙
##뭗
##굘
##뺩
##뜳
##껩
##횻
##앒
##똄
##돳
##엍
##컶
##끤
##벏
##먈
##멷
##샠
##얺
##꿎
##쌴
##빟
##숳
##톹
##틆
##볟
##몔
##늨
##첄
##엵
##켱
##홅
##긕
##푝
##벷
##댬
##릮
##웉
##잒
##푤
##혯
##껼
##빝
##낣
##긘
##슟
##뮷
##섿
##뺫
##뾼
##턔
##븓
##딺
##맼
##옫
##밁
##뷛
##췼
##냟
##뺭
##촾
##퓽
##홇
##쮀
##섈
##뗃
##옲
##겈
##괃
##븬
##잚
##귬
##밣
##숼
##죻
##꾱
##쵭
##곹
##쉅
##덍
##쏵
##쉤
##끑
##찣
##놰
##퉥
##쌞
##댘
##꼍
##퐑
##믖
##쿜
##퐃
##죰
##솠
##깯
##긧
##컺
##휨
##긇
##헑
##흟
##딯
##왚
##뉩
##쎆
##잪
##쬔
##켬
##궬
##헡
##쌸
##뭩
##엩
##쏌
##됼
##싑
##뷤
##쯉
##쀄
##쓿
##쫍
##뻡
##귔
##룳
##륮
##잆
##븞
##릾
##듮
##촥
##솤
##윿
##엓
##괋
##줼
##릘
##덖
##꼯
##흨
##윛
##뮺
##슻
##봍
##읐
##둅
##촡
##쑁
##줐
##몭
##옽
##읨
##긐
##쒜
##짔
##퀭
##싐
##넏
##욽
##킽
##뱝
##딬
##퀍
##밻
##팣
##땳
##픓
##읋
##쁅
##뺡
##뗡
##팒
##싻
##슺
##긲
##믱
##밂
##곅
##쵀
##쮓
##섟
##봠
##큺
##핚
##댖
##콪
##솹
##훚
##텩
##툑
##픖
##캆
##쵮
##곲
##읪
##빖
##젮
##좂
##웆
##몃
##롫
##몿
##탙
##퀏
##뇠
##럶
##쐉
##빢
##윁
##쉨
##넗
##뫅
##쟄
##팤
##봈
##떘
##햠
##덷
##꽜
##쥤
##퇻
##웳
##쟂
##걜
##엋
##쨱
##앛
##꺵
##뭴
##귖
##폑
##댚
##곀
##긎
##턋
##앺
##봴
##쉛
##뿮
##뱦
##궅
##꺆
##돴
##겣
##폘
##좝
##섻
##첐
##틊
##녛
##릠
##칣
##맗
##땸
##쒱
##쏸
##쑌
##릌
##홱
##븏
##쒂
##뚐
##쥽
##쥑
##쌨
##셖
##뱽
##랰
##눶
##꾁
##튓
##젶
##웕
##벐
##섵
##옓
##곕
##놁
##뒿
##댊
##땗
##닰
##멭
##틜
##봒
##썄
##멂
##됒
##쑻
##횸
##뭡
##뜃
##쀳
##럄
##쓺
##첲
##셭
##뢀
##웱
##푄
##혤
##샫
##묗
##멉
##슄
##왬
##핁
##뚼
##츱
##눽
##꺙
##읰
##캪
##몋
##깢
##뜁
##톋
##씉
##뙡
##늏
##뭠
##챡
##퉹
##꿯
##궳
##믾
##쿗
##횅
##휸
##쎾
##놜
##븕
##챺
##펰
##툣
##핤
##딹
##쁵
##콫
##즑
##꺌
##뿠
##옺
##칮
##룄
##퍗
##뀀
##껨
##둩
##뚸
##뛝
##썀
##춛
##슢
##쫃
##귕
##뙜
##쇀
##핕
##틇
##칽
##맫
##왹
##낛
##싘
##뚭
##딍
##굦
##퓍
##섑
##쁢
##맀
##쟨
##쟢
##얠
##곸
##낪
##덦
##슡
##릏
##셟
##쿌
##읎
##쟜
##읙
##힁
##뤂
##휔
##꼉
##잏
##싷
##믯
##듰
##긿
##퍝
##욉
##뢇
##뗶
##뗵
##맽
##쁟
##펬
##놏
##뀬
##깣
##슯
##콬
##낐
##샻
##젅
##듛
##멶
##뽴
##졧
##됀
##쑝
##윻
##빎
##둇
##뀪
##닒
##듓
##짦
##릯
##벲
##췽
##핧
##엜
##룯
##좔
##킳
##믠
##깇
##컅
##흧
##꼄
##뚵
##싈
##텉
##옡
##뿛
##춣
##돍
##덝
##둰
##놇
##둿
##숮
##랻
##줗
##횝
##겇
##췹
##켼
##뎈
##쟴
##틧
##즷
##즨
##쨻
##촴
##쾽
##쏩
##횞
##삾
##쏀
##쾁
##괂
##줆
##뮉
##줙
##랅
##얒
##뭭
##봥
##뀙
##뚮
##쐙
##뽟
##걕
##햟
##챝
##춴
##튺
##곖
##묑
##뎊
##탹
##섡
##좠
##햛
##걐
##챷
##틓
##랛
##귡
##긮
##깑
##돞
##옂
##짗
##쒕
##딭
##즠
##뗍
##먜
##쁶
##뇔
##핗
##쩎
##핻
##졓
##줕
##쌱
##뛟
##쫜
##팯
##뼥
##넁
##댝
##댇
##멦
##엃
##슀
##싢
##웇
##띙
##뛗
##쟻
##둍
##걼
##댼
##텆
##켞
##믻
##괳
##탖
##힡
##줠
##엫
##닡
##녬
##똏
##퉨
##둧
##뻠
##뾸
##셦
##핝
##첯
##눨
##욹
##숡
##왯
##궹
##퉆
##쎀
##줵
##븸
##빂
##륽
##톮
##쒼
##짡
##녺
##룥
##밫
##륗
##폯
##윀
##앧
##럈
##콦
##밊
##뱓
##뀻
##뎻
##뒥
##륷
##돟
##쵠
##곴
##욭
##깪
##짫
##둪
##뗬
##뗜
##긶
##엞
##힗
##됮
##뫙
##졶
##훋
##쑟
##쎗
##푴
##뗳
##솢
##햌
##뿁
##턻
##뷫
##궘
##웚
##죔
##뚥
##좈
##뤀
##겤
##븰
##갣
##꿴
##폕
##깓
##쪾
##뺚
##숎
##엗
##퀩
##킠
##솑
##꼮
##귥
##찎
##봔
##믤
##혿
##몓
##멛
##셷
##뤨
##췻
##썪
##꿃
##툘
##딀
##휑
##풅
##팛
##혬
##읷
##덗
##욣
##쁐
##읩
##렢
##턷
##앻
##럷
##쬷
##쌻
##풇
##훟
##뤳
##넞
##갋
##퇵
##꽦
##쩻
##샼
##뽓
##쬴
##쓉
##쭀
##챼
##쫋
##갴
##솼
##옏
##먘
##쉖
##댧
##튘
##춝
##캢
##욦
##뤡
##랢
##걉
##슳
##윜
##옰
##됰
##뤙
##뱈
##탇
##떔
##쾩
##돜
##뵬
##웖
##쇱
##쉟
##쟠
##꺀
##쾈
##쳈
##껰
##쐑
##핽
##챸
##퀙
##썡
##옒
##꺤
##덙
##넡
##햊
##얫
##귚
##촷
##씺
##믬
##쎂
##웗
##묽
##뻿
##닾
##읳
##뾔
##훳
##큮
##왖
##톲
##췈
##딲
##삜
##뱨
##젆
##렆
##릋
##븗
##칢
##쥡
##츸
##혅
##퐙
##끋
##왰
##탣
##럲
##굯
##퇙
##듟
##즞
##휳
##랎
##롁
##늚
##셑
##븩
##싕
##맂
##벆
##낤
##쾻
##헗
##걓
##벟
##빜
##긏
##듳
##떢
##휵
##쳿
##뜅
##껵
##짂
##쿏
##욳
##쀵
##궇
##뎋
##캋
##텤
##슠
##쵤
##쯘
##됑
##췛
##궖
##궫
##궋
##쮹
##겾
##녇
##쬭
##뫚
##띕
##씔
##룱
##륶
##읂
##붴
##꺘
##슦
##뷃
##뿗
##꿜
##뛃
##꽯
##쭵
##쯍
##븻
##뎰
##짋
##쓤
##겕
##폅
##깏
##뷋
##뿀
##잩
##췔
##킐
##삝
##멮
##몴
##꽇
##뒸
##첱
##롇
##뚕
##꾕
##츻
##쉩
##첟
##쯜
##셊
##뜵
##졐
##쒹
##벾
##뽙
##툻
##뜝
##놕
##뤕
##옯
##큎
##쑐
##셣
##탏
##쫅
##윹
##뭵
##춱
##벯
##퓙
##럸
##쎽
##쳗
##뤃
##끆
##땻
##쪗
##얆
##벉
##낔
##긓
##첞
##졩
##덻
##꿝
##뒁
##씪
##먃
##쪤
##췁
##씡
##뻼
##뷉
##꿑
##젙
##빩
##왷
##쌟
##땛
##틒
##춇
##뮜
##칳
##흽
##웊
##뽭
##훰
##벝
##쭓
##쩩
##멵
##걏
##첡
##찳
##훞
##쉒
##퐅
##괬
##괆
##빪
##늭
##긤
##혉
##뎦
##닊
##춬
##픅
##긆
##왤
##멑
##섷
##썋
##쟇
##몟
##썐
##췸
##랣
##휱
##쬈
##휅
##쉉
##갵
##뿓
##롐
##덣
##륳
##좟
##톧
##쥩
##챞
##꽊
##줃
##놃
##뒺
##궶
##궻
##랤
##궢
##믗
##겴
##뷍
##똫
##젂
##맕
##퐌
##궛
##벩
##펡
##왙
##돓
##껖
##횦
##빆
##귾
##촟
##퐆
##쪈
##퐤
##봌
##큩
##쇗
##즏
##쏄
##츗
##벫
##쭟
##퐐
##풴
##햫
##쭛
##둽
##뇾
##괧
##둫
##븎
##퍀
##췅
##녿
##캈
##몊
##롕
##핃
##싦
##턩
##줒
##츹
##딻
##샒
##앩
##뻇
##찭
##묯
##뎗
##픨
##죱
##싨
##귻
##젏
##폵
##숧
##텥
##쩼
##뗠
##멏
##뜔
##폥
##쾬
##엒
##뛷
##뗻
##띧
##퇄
##읆
##푷
##긞
##귺
##븧
##뽱
##읧
##럍
##뼁
##풜
##좧
##쌑
##엱
##샟
##혱
##뚦
##늇
##럳
##왛
##슧
##붚
##맖
##깕
##갨
##픟
##읺
##쬽
##뚊
##휋
##쨧
##퐳
##걿
##뫁
##얉
##돿
##롲
##뀰
##뀢
##쎙
##씥
##욝
##혻
##벎
##텹
##뤩
##쩖
##횾
##씄
##넚
##씤
##헔
##푣
##쏏
##컈
##츞
##뎄
##뎜
##돩
##웋
##홁
##캼
##갃
##뫟
##괍
##쬿
##펵
##퇜
##먏
##윞
##캽
##쓍
##줓
##똰
##삷
##샸
##뢘
##묷
##궚
##궺
##깒
##깛
##긛
##뙴
##굷
##벓
##붰
##꿱
##벸
##뾲
##뿩
##뷥
##얅
##탿
##늧
##숖
##훴
##붝
##좸
##꺏
##쫣
##똵
##뽧
##꽑
##죙
##툱
##얷
##졵
##헽
##떗
##냩
##쪌
##쇙
##넢
##륐
##겧
##뼸
##폇
##궷
##껶
##떟
##캜
##쑘
##웒
##픤
##쟣
##됈
##똽
##궯
##궭
##쏽
##볈
##렺
##썯
##풱
##흇
##곩
##껗
##짴
##눀
##즂
##걈
##죸
##캵
##숕
##걾
##뤔
##읹
##렞
##잕
##컭
##펖
##죕
##볃
##궡
##쁫
##넟
##둈
##뾘
##럘
##벍
##눟
##쬰
##틩
##햙
##붆
##꿂
##짿
##뫈
##붛
##횢
##뚞
##햚
##굈
##퍕
##믌
##덢
##겷
##렂
##왧
##밲
##쬥
##곙
##뇜
##샂
##킫
##큳
##쐇
##쳒
##굸
##궞
##귪
##궸
##궼
##턉
##썁
##탒
##쀠
##젺
##꼣
##찓
##똈
##헭
##낞
##잞
##삧
##뷇
##얃
##뎢
##톕
##퉭
##뭌
##큻
##쭨
##괐
##틤
##맓
##싧
##댋
##핿
##줊
##섧
##닚
##옟
##닲
##턕
##칱
##먓
##픋
##뀓
##앢
##눜
##긪
##븘
##봗
##닍
##텠
##솻
##쭸
##팊
##튔
##놩
##킌
##뙭
##릁
##꿐
##씍
##꼤
##핖
##쀽
##삨
##쌧
##힇
##햰
##걺
##쯪
##놬
##륾
##옠
##묺
##톗
##쀒
##헚
##떧
##쟥
##꺃
##뛩
##떅
##찃
##깂
##핛
##칀
##퐠
##휗
##핦
##뼬
##뎔
##띳
##돫
##섺
##좊
##쎴
##뱆
##뺠
##쨏
##뺅
##믏
##텗
##뵑
##릆
##쑜
##쎃
##뗔
##슲
##쑛
##늩
##꺢
##픐
##삒
##뺶
##떁
##쑦
##꺑
##쉄
##꼔
##몁
##씋
##쨖
##늿
##맃
##샢
##뮝
##룺
##쁙
##튮
##렾
##뛈
##댥
##쀾
##삗
##냫
##딷
##엝
##뇹
##쀓
##쑊
##릥
##쟹
##즡
##똴
##셆
##콣
##겢
##쨎
##솸
##헰
##쁥
##롵
##볽
##꽭
##읁
##얾
##쩟
##뗆
##췜
##귶
##뙓
##쓲
##핺
##잙
##쮝
##쒓
##땩
##쫩
##팓
##꼠
##럣
##쏲
##쀡
##똧
##풮
##밡
##덿
##쩒
##찷
##튑
##굛
##댦
##돆
##텇
##좄
##섨
##킻
##홒
##돖
##왒
##좬
##픎
##븛
##괠
##넎
##풹
##콻
##뢓
##븉
##퉄
##윥
##갅
##춏
##씯
##뇄
##묳
##홨
##릈
##낶
##쬲
##꿸
##멻
##쫴
##걳
##욼
##쒯
##쑉
##뗼
##뭈
##혭
##훉
##줎
##쯬
##쑼
##훝
##곃
##땓
##뤯
##텋
##쫫
##벴
##줅
##럌
##괙
##깞
##컀
##됗
##슞
##싟
##걁
##뙳
##홂
##믽
##샶
##죷
##싞
##똻
##얿
##꼵
##힏
##늖
##룴
##긊
##뤰
##빏
##띁
##뤅
##꼑
##윋
##챽
##댛
##훯
##녝
##릣
##쐰
##젃
##퓅
##겦
##턚
##땈
##뎝
##쟬
##깳
##꺐
##뺍
##쀨
##뀁
##뷓
##쁍
##뜫
##좹
##똟
##퓹
##쎤
##켇
##괗
##쵣
##궙
##쌷
##솄
##멊
##럯
##뭊
##훁
##쿹
##욻
##뜄
##쒴
##쎋
##욈
##훃
##뻨
##큫
##뭑
##믇
##걩
##룧
##뽥
##풸
##뱋
##퉌
##츺
##좥
##쵇
##띅
##튎
##뷈
##뙗
##읟
##룪
##렧
##럮
##흎
##흓
##쿩
##냌
##쫔
##긃
##쁌
##븁
##졜
##잂
##쏻
##졬
##앾
##굗
##썷
##퓟
##륿
##뇝
##쩹
##굻
##땕
##첮
##챶
##꺈
##픳
##봁
##쭹
##씝
##뀟
##냙
##욾
##럑
##훡
##훇
##뜜
##댭
##읈
##꿻
##퉱
##휽
##썎
##쿔
##쿧
##뗋
##캊
##럔
##릀
##쥉
##튻
##밇
##탂
##믛
##쁎
##맒
##렠
##틐
##밦
##츀
##풑
##즯
##홝
##뛹
##뗉
##뗗
##볠
##엦
##쇅
##춯
##다.
##으로
##에서
##하는
20
##지만
##이다.
있다.
##었다.
##에게
##하고
201
##이라
##00
##한다.
있는
##고,
##다는
##다고
##했다.
##..
때문
##까지
19
##에는
##면서
##들이
##하게
##는데
##며,
한다.
##에서는
##적으로
경우
때문에
사용
##였다.
##적인
##레이
##하여
##부터
아니
이후
자신
##리고
공격
##해서
##하기
10
사람
##스트
##대로
##라는
##라고
##다가
##하면
##들은
##이나
다른
##지만,
정도
##되었다.
##들을
##으나
##지는
##에도
##기도
##들의
대한
등장
##하다.
##기를
##리는
200
것이
그리고
된다.
##기에
##하지
##되어
가능
아이
같은
들어
##er
하나
하는
사실
##으며,
하지만
12
게임
##으며
그러
시작
##하였다.
##는데,
##거나
모습
일본
이름
함께
##보다
##스터
##는다.
##리를
한국
##...
있었
##in
##이트
11
##이라고
위해
##았다.
##이라는
##된다.
##다면
##기가
것을
나오
이상
생각
만들
문제
##되는
##어서
##하며
또한
##니다.
##학교
따라
가장
##되었
##력을
프로
다시
##에서도
##리가
사이
당시
##릭터
##이었
##on
##지를
##처럼
되었다.
없는
캐릭터
##라이
##력이
모두
##데,
상대
##0년
##으면
15
##기는
없다.
상황
##an
플레이
모든
##or
결국
추가
것이다.
##8년
시간
##지고
했다.
것으로
##리아
##스의
##이지
현재
##이는
##9년
상태
##자가
자신의
보여
많이
것은
##하면서
그러나
다만
존재
##7년
##리스
다음
그런
보면
시즌
전투
18
미국
##리즈
##6년
스킬
##스를
매우
##ar
##성이
카드
많은
##.1
선수
199
세계
효과
##스가
##므로
##5년
그래
##he
나온
상당
##.0
##at
경기
##들에게
##인이
물론
아니라
않는
이용
지역
있었다.
처음
##가는
16
기록
이유
##가지
##4년
아닌
##사를
그렇
하고
자체
실제
돌아
##인다.
이런
여러
##-1
필요
##하였
##들과
##000
일반
시리즈
##부분
이미
##어진
13
바로
##지가
##이고
##하자
거의
##시키
역시
##졌다.
##en
라이
되어
해당
피해
##사가
##상을
##인지
특히
모습을
기술
##이스
영화
##시아
주인
30
14
##어나
##주의
기본
##도가
##ou
마법
통해
관련
진행
아무
이야
##장을
##기로
##3년
같이
17
##지막
##2년
수도
##라도
##에선
##했던
##성을
##국의
좋은
##로는
위치
제작
방송
##al
##거리
##st
##이가
##해야
대부분
되었
부분
사건
##이었다.
##주는
작품
마지막
스타
계속
##1년
증가
##20
참고
##린다.
##아서
##으나,
방어
않았
##르는
일부
않고
인간
달리
##스는
되는
있어
##로,
주인공
내용
##전히
서울
있을
##하고,
않은
보고
능력
활동
가지고
##리에
비슷
그냥
##으니
##시간
올라
레벨
이전
어느
##드는
국가
레이
##이며
100
##정을
##시에
인해
##어가
성공
그의
정도로
##re
대신
이를
##.2
수준
##dd
##인의
##드를
대해
지금
##자를
##장이
25
감독
##도록
상당히
##le
##자의
##수가
그녀
않는다.
##있는
대표
보인다.
높은
##10
최대
##위를
198
이동
기준
##it
##렸다.
것.
##마다
제외
타이
것도
##트를
너무
여기
그대로
인물
좋아
##와의
##되고
나타
이는
##로운
##ff
##리의
##사의
떨어
결과
중국
##도를
##들도
의미
대한민
##진다.
##려고
없이
직접
등의
##드의
##기의
##수를
##이션
전체
원래
받아
##스로
언급
##도로
-2
##이자
##ing
알려
##이며,
##전을
##ic
##르게
하다.
애니
만들어
##지도
동안
##리어
경우가
##.5
데미
##일에
##치는
자신이
관계
##로서
의해
##자는
있던
소속
##다!
##번째
##이지만
##대의
##습니다.
마음
시절
나오는
전쟁
##하지만
멤버
##정이
##인데
과거
유저
##으로,
지원
이것
##대를
문서
##우는
선택
##자.
2018년
이어
##드가
이에
유닛
포함
많다.
##스타
발매
##리지
##중에
그는
##하던
자기
최고
몬스터
엄청
##없이
위한
##등학교
50
##점을
설명
평가
방법
21
크게
##화를
##나는
출연
불가
나왔
아버
찾아
개발
스토
유명
연구
##과는
있으며,
##am
##치가
장면
만든
##치를
##인을
2019년
리그
영향
12월
2017년
##이드
사망
##어로
실제로
##되지
##하기도
이루
발생
7월
4월
있다는
##상이
초반
##어난
8월
조금
이때
말을
지나
##이기
##이를
3월
5월
##으로는
프랑
우승
9월
##트가
10월
##원이
22
##만큼
주로
6월
이러
##준다.
전부
2016년
##es
##전에서
공식
출신
##이어
무기
24
##머니
제대로
##전에
사라
운영
##랜드
아이템
사랑
인터
##el
소환
도시
하지
##과의
자주
중요
##식을
그것
##리그
##운드
##하며,
없었
##있다.
보여주
또는
최종
아직
공격력
1월
##명이
##일,
정보
the
최초
##명을
이렇
##om
##이크
##와는
서로
친구
참고로
##에서의
역할
학생
나온다.
학교
적이
이벤
있어서
강력
파괴
##-0
비해
기존
##이터
프리
##했을
가진
공개
##리카
노래
##la
여성
11월
23
비교
##격을
정말
마찬
##50
##자로
##였던
어떤
마찬가지
##is
강화
사회
등을
당연
해도
독일
##같은
변경
사람이
형태
결정
##히려
설정
##사는
유지
보통
##명의
##인은
##하려
##나라
바람
그런데
##동안
때문이다.
오히려
##개의
2015년
##니아
##서는
##수의
##라마
살아
##르면
아니다.
배우
##지의
##요.
##했고,
##스와
정신
##오는
##대에
후반
##군의
##프트
회복
##어도
##지어
##하거나
발견
##나가
아래
2월
##et
##점이
슈퍼
##음을
##물을
음악
게다가
알고
##분에
197
조선
##하다
드래
이번
이러한
않았다.
영상
##는지
유일
구성
##ol
##원을
행동
여자
있다고
40
있으며
있는데,
##ion
사실상
가까
그래서
주장
##어를
##,000
##이도
##트로
##nd
모양
##스템
##자인
새로운
하면
##회의
##했다고
일단
아예
##30
##11
자유
특수
확률
##-2
##리오
##경기
이렇게
어려
승리
활약
##이기도
부족
##대가
##지로
##나마
성능
노선
월드
들어가
##화에서
등이
동시에
##디오
##시켜
주변
비슷한
먼저
심지어
정부
##임을
대한민국
##드로
##적이
가능하다.
버전
발동
드러
##스,
완전히
같다.
스테
바뀌
확인
##화가
##그램
수록
그렇게
힘들
##ow
성우
차지
##밖에
그래도
그리
##다며
정치
##통령
적용
방식
내려
##내는
생산
##ig
26
일이
어떻
좋다.
보스
##상으로
영웅
##ed
##il
28
##보면
모델
##메이션
있는데
##도의
영국
##다"
스트
2014년
##구를
이야기
시스템
성격
혹은
한번
27
##르고
실패
##하는데
전에
자세
기사
전혀
##간에
만나
있지만
##스크
못한
우리
패배
원작
어떻게
##니까
##ac
31
##!!
##시킨
##더라도
차량
##원의
장비
위해서
감소
않아
만큼
##as
사진
국내
##대한
얼굴
동일
때는
불가능
있고
가지
중심
얼마
##ve
##BS
대통령
앨범
오브
지속
데뷔
대학
체력
표현
대회
참여
이제
나가
1,
##인데,
##지에
마을
##어버
획득
플레이어
굉장
출시
##간다.
##른다.
힘을
##.3
##트의
of
##이었던
##보다는
없어
다양
##라의
애니메이션
##움을
계획
반응
##했고
##났다.
##장의
특성
등장하는
##이의
196
##대학교
발표
##체를
##라가
##다'
움직
인정
##버스
정확
가져
##자,
기억
바이
스페
기능
##해도
자동
명칭
##제가
그나마
담당
쓰는
문제가
따라서
에피
하루
드래곤
드라마
있고,
자신을
진출
상승
경우도
덕분에
이름을
남자
판매
번째
작중
사용하는
대체
##으므로
##상의
역사
받은
있기
##수는
아마
##문을
요구
특징
##으로서
##조차
수비
##우스
공격을
설치
경찰
선발
제1
다이
##0년대
##ot
##라면
있게
조건
그림
##장에서
상위
2017
밝혀
##들에
남아
하였다.
받고
고려
##했다는
개인
##제를
중앙
Lv
마이
이벤트
##도는
##한다는
참가
##피언
따르면
듯.
축구
에피소
##했지만
가능한
##아가
##권을
##한테
##사로
자체가
하이
물리
##ad
항목
29
강력한
##군이
해서
더욱
다르
순간
2013년
##부의
넘어
##전이
주의
##수로
2차
각각
##.4
##레벨
대해서
건물
##장은
우주
-1
경험
##지지
어머니
시점
후보
확실
상대로
굉장히
##적을
##지,
비판
사람들이
##계를
편이다.
시간이
##문에
##스러
러시아
현대
가격
결혼
작가
어렵
가족
##장에
후에
구조
어린
##리,
프로그램
피해를
보내
말이
챔피언
불구
##치고
단순
##리와
아주
참조
나와
어디
여담
위험
##부를
##되면서
##id
교육
무시
초기
주요
##mm
마찬가지로
##감을
여기서
사용할
폭발
진짜
##량이
##선을
##이라면
대미
##부에
선거
준비
아르
##ch
2012년
##위원
##대는
있었던
과정
가면
속성
일으
##으면서
제공
##타를
나머
되고
##레이드
엄청난
##리로
##장으로
지구
가능성이
메이
약간
받았
##까지는
##치로
쉽게
The
활용
않다.
##체가
가는
##리티
알아
방영
##ay
히로
받는
제한
2000
보이
##ER
클리어
대전
시청
마스터
##정한
##."
여전히
##키는
논란
194
발사
프랑스
동료
수가
##시키는
##.6
##시즌
부산
60
당연히
작은
패턴
##리기
쓰러
분위
##인물
한편
##력은
못하고
훨씬
##려서
지하
St
현실
사고
크리스
주는
##.7
##었던
제국
##업을
유럽
##식이
1일
강한
##없는
혼자
그가
하며
한정
이해
제2
영향을
##개를
##us
##트는
##심을
방향
##하다는
적을
##40
그를
##정도
##히는
보호
##만한
특별
브라
기간
##티브
##위로
잡아
##행을
##놓고
조합
##만이
잘못
FC
크로
##제로
##합니다.
##해주
파워
해결
최근
취급
나이
계약
삼성
2010년
도망
##다니
##ro
##사와
역할을
본인
##수록
##게임
영어
블랙
소모
##프를
##겠다고
연결
의견
스토리
##자기
국민
##.8
##나,
##다,
보는
국제
때문.
##만에
기준으로
##라인
##로를
##라운드
##이고,
않을
for
문제는
##학년
##위가
처리
이탈
지방
##!"
다양한
##로부터
##기,
중요한
생활
##시의
다니
TV
정도.
버스
##ir
전용
추정
##BC
자연
2011년
##레스
것에
##듯이
##나게
##면,
충분
##위에
없었다.
##인트
##학생
##이란
방면
오래
이유는
나무
라인
##사에
2018
##도,
스스로
문화
##신이
불구하고
오른
다음과
운동
느낌
받았다.
##지션
##자와
##난다.
아군
장착
비롯
##12
보이는
이루어
##로가
##일을
조직
타입
##만을
##신을
출전
195
##구가
등장한다.
들고
##가를
기타
##한다고
하여
퀘스트
아버지
##ht
내가
##라를
부활
낮은
##단의
운행
예정
##나이
입장
미션
##기와
##소를
##회를
##져서
아이돌
이유로
##보니
경제
##성은
##대학
편.
HP
##갔다.
##th
중에
연속
모드
##명은
대부분의
##성의
##자들이
아들
경우는
나는
##'라는
유니
에너
##이즈
전문
절대
##하다고
##비아
##un
되면
종료
더불
구간
##im
##하다가
##초에
##라서
수상
타고
말한다.
##dddd
독립
##데이트
##당한
##의를
번역
달성
하기
되지
##카이
포켓
메인
##ur
엔딩
##.9
##원은
제목
##전의
근접
##이면
##지게
##od
이상의
##세대
##유의
##말로
##시켰
##세기
싱글
목소
##력으로
만약
일본의
##에게는
관리
##가가
자리
##시를
##15
종류
소설
항공
배경
##32
일을
졸업
##냈다.
현재는
업데이트
생존
난이도
더불어
검은
했지만
SK
가끔
##km
세이
##공격
##으로도
##사,
##함을
스피
위에
일어나
에피소드
반대
대상
##기고
시도
야구
민주
하면서
속도
밖에
##조건
##어들
##ST
##시마
나머지
배틀
일정
##같이
##비가
##ut
최소
##스에
엔진
##왔다.
##신의
##야마
##일이
만화
제외한
목표
##려는
지휘
##마저
2019
항상
202
부르
##시가
##세를
##점으로
##ag
얻을
##거나,
분노
##관이
능력을
##ver
수정
대사
##종의
##운데
##리게
유리
생긴
성장
##60
##르크
직업
##이로
정도의
공연
신경
##원으로
##?"
##단을
정식
두고
##겼다.
전설
유명한
##부가
전작
##ec
##19
##시로
소재
##라며
##37
무엇
##림픽
2016
##혔다.
좋지
포켓몬
계열
##지기
싸우
해야
##리면
사람은
##냐고
##버린
비행
나왔다.
이끌
북한
you
자랑
##스티
그룹
사실을
로마
##어진다.
인터뷰
##했으며,
##카와
##비를
아프
##상에
##계의
##물이
높다.
미사
##ent
거기
각종
##호를
##으로써
##어야
오늘
##선이
다르게
끝나
##겠지만
괜찮
##주를
35
##되기
하지만,
상황에서
바람에
##여서
##했으나
빠른
대한민국의
것과
##방송
##나의
##군은
##스럽
비밀
작곡
부여
참조.
미래
이름이
불러
연출
이외
건설
만드는
전반
##ak
##하지만,
정작
##음에도
##서를
누구
##이라도
모습이
적은
##해진
##로의
##무를
##다운
미국의
시전
##수한
있다
##선의
##t;
라고
전국
32
결승
스파
있지만,
##호가
##미가
##시는
등으로
##....
1회
스테이지
못하는
엘리
수는
소녀
케이
자세한
80
##cm
따로
나서
제일
때,
##외로
##디어
##었다고
훈련
전차
있다면
과학
별로
특정
##스러운
위치한
묘사
##동을
##움이
갑자기
##부터는
나름
모르
##더니
기관
##80
##고를
예상
달려
타카
##모토
70
2009년
##장,
악마
않게
연기
때문에,
클래
없을
종족
인구
이탈리아
여담으로
경우에는
##고는
##단이
1년
하늘
뒤에
소개
##입니다.
일행
##하라
##크로
분류
안에
1위
근처
평균
상황이
##이,
보유
확정
필요한
효과를
to
있으니
게임을
##어의
아키
명령
1차
서비
이름은
포지션
##ffff
##프로
##지와
##ub
지난
압도
인천
행정
최고의
공중
개념
##세가
교체
안정
##제의
이걸
없고
예를
사냥
본인이
아카
##크를
집중
등장인물
설립
##군을
##이다
2008년
지켜
애초에
것이라고
파티
각성
나타나
193
이쪽
식으로
잠시
##야말로
생명
지정
표기
나올
지도
이게
##율이
특이
##'의
본래
언제
가까운
나중에
##리며
##계가
시작했다.
머리
부모
##지면
없다는
기대
이용해
있으면
##소가
##'를
##고등학교
스포
즉,
기반
발전
경쟁
탈출
최강
##',
##하나
##치기
경우,
죽은
일러
##타로
기다
in
하게
물건
##보는
못했다.
갖고
##부로
치명
처음으로
배치
연합
차이가
없다고
라는
벌어
보니
존재한다.
외국
사례
##원에
지지
##트라
수행
##았던
파이
위의
##인으로
빠르게
##-3
월드컵
이야기를
새로
사용자가
##대표
무슨
##타임
등장한
이적
다크
##ight
사이에
중에서
##부는
##가의
##드시
제거
##량을
대기
빠져
좋아하는
##em
카운
기동
vs
소련
아니면
##스테
##역을
##:0
##스케
##란드
##상은
##'을
도입
달라
부정
말에
건담
바꾸
##ON
##쪽으로
##만의
이후로
고양
##스코
기본적으로
발언
나라
여기에
##화의
완전
목록
##,#
##었고,
그녀의
등급
##간의
저지
##16
지배
##즈의
라이브
##냐는
무려
##마자
직후
##치의
##AR
##마가
복귀
남은
##ce
##25
##이니
변신
##내고
도쿄
2000년
##타가
과정에서
타격
군사
보기
##:00
베이
도착
날아
연습
##'라고
##감이
포기
접근
가운데
##심이
대구
촬영
동생
유사
사이트
##문이
##터를
돌아가
##됐다.
보아
##우가
유일한
사람을
제품
500
시험
##버렸다.
2,
가르
관한
##하였고,
죽음
##미를
##롭게
##도에
살해
하는데
블루
회피
했던
##학과
남성
##um
45
##AN
데미지
업그
##진이
2007년
##ap
##주고
##되었고,
링크
듣고
역대
##ri
알게
상태에서
분명
##os
추천
완성
정규
##48
일러스트
반면
때마다
이곳
고정
이건
범위
준다.
##프가
##많은
##'s
반드시
하였
##에만
조종
끝에
##한다
LG
##스토
사용한다.
상당한
##체의
싫어
받을
타이틀
부탁
##낸다.
유튜
##광역
##주가
해외
##18
##차가
이하
##점은
소리
중간
효과가
심각
상관
완벽
##()
##ula
##력과
저항
뛰어난
##들어
탈락
어둠
하자
투수
##했는데
##이지만,
지상
유일하게
##and
올림픽
경기에서
추측
##지면서
자체는
마무
미니
점을
한다는
2개
##파트
앞에
다루
##"라고
##했으며
동물
비용
90
몇몇
정상
느끼
자리를
경기를
##들로
인터넷
주민
-3
##진을
반대로
##지라
삭제
프레
판단
##관을
공동
오버
##러스
연재
롯데
에이
치료
무장
우선
회사
합류
충격
##받은
구매
점점
실험
통합
##술을
환경
##문의
시간을
##했는데,
리더
많아
##버린다.
##민주
1개
도중
봐도
##로우
##키가
##형을
##탄을
##키의
전략
올려
인도
##보를
이로
##주로
팀의
높아
##시킬
다소
없어서
요시
##어는
##겠다는
##지.
##세계
form
수많은
공간
##체는
종종
개최
##것도
##화국
EX
가수
##자들은
스코
쓰고
##드와
##화된
192
기념
##스카
생각해
##ula_
##분이
카드를
##터가
No
불리
##석이
후,
##인,
규모
트리
기업
기계
##하자.
##금을
정의
의외로
##일러
제외하면
##단계
싸움
##하는데,
시리즈의
장소
개봉
formula_
암살
종교
상태로
맞추
##크가
##이와
히어로
##받는
전통
않으면
아니고
보여준다.
그야말로
##되면
조사
##14
순위
평범
도와
##지에서
공포
##정에
##플레이
##IN
떠나
장갑
화면
무조건
##무라
300
워낙
바다
듯하다.
알려져
소유
##용으로
##가,
Ch
아내
디자인
##회가
2006년
그린
KBS
인한
전사
##두고
33
프로젝
##질을
다행
##차를
요청
전개
정리
단,
야마
어려운
마사
##인과
홈런
3개
##판을
and
스크
##구의
빨리
컴퓨
본격
##/2
2015
##트리
하고,
전기
생성
없음
##로드
##력의
##적으로는
##아버
##로그
시대
도전
아무리
##르트
##속도
2년
카이
가서
##이므로
##어,
##식으로
개그
##원,
평소
그걸
비중
##스에서
한글
것처럼
굳이
부하
##ul
##적은
##1,
##한다면
##일부터
최초로
##TV
##되며
##방을
데미지를
##FA
##원에서
적의
##석을
외에도
최후
사업
##호선
##하도록
##마의
충분히
레드
##크의
변화
##니티
지키
##라,
##에게서
##르의
투입
영혼
##시,
##정은
상징
이름으로
대중
##op
##드에
탓에
위협
오프
일어
무한
##운동
진화
이와
열린
##ck
##승을
비롯한
의하면
##라스
##수도
##했기
파일
경기도
데이터
끌어
능력이
##13
##이닝
##17
##쪽에
##온다.
마나
##아의
##안을
##ter
##%,
##특별
중반
사람들은
##었고
##적이다.
로봇
안전
선언
##보고
##성에
##보다도
##ation
돈을
버그
대응
최초의
시설
36
##'로
보다
##으로부터
##세이
##왕의
사무
##법을
거부
##ra
##었을
거기에
옵션
##정의
성우는
등에
##교육
범죄
##동생
##인가
확장
생각하면
표시
손을
대화
붉은
##이에
언론
카메
##세의
트위
때까지
듯한
##대전
대형
특유의
##2,
조작
성향
##다른
##요일
희생
##지역
##조의
##가와
기존의
맞춰
##라이더
운용
관련된
##페이지
##시브
말하는
##기사
##너스
##래도
th
##호는
간단
대결
오리지
##하려고
##미널
점이
하며,
작업
##IC
네이
밝혔다.
패치
얼마나
##구에
사기
본인의
##시오
##부에서
명중
MA
km
##성과
보조
##나와
##자에
##미의
맞는
하드
선생
극장
##'이라는
주고
그리스
확률로
플래
##드리
구분
장면이
2020년
빼앗
##려면
##경을
##회에서
점령
사격
무리
가깝
오랜
체력이
통과
##일의
##바이
시민
태양
##로도
##텐츠
마르
##드,
##자들의
거쳐
##음이
시나
나오지
다운
##세트
얻어
##다고.
불과
마치
##레인
마리
반복
화염
프로듀
유튜브
##때문에
##쳤다.
내용은
사는
##수,
내에서
힘든
제3
##약을
2005년
난이
있지
MBC
지금은
##남도
##70
시기
투표
재료
앞서
앞에서
뛰어
되면서
##시킨다.
그럼
데이
서술
인식
##시대
3일
데려
영입
적에게
정책
하는데,
붙어
몸을
100%
신체
중심으로
##라우
##치게
서버
오르
##다시
##단에
##론을
입고
나이트
38
개조
소년
##90
2회
대표적인
외모
선정
모르는
진입
패러
##제는
##레이션
SP
그저
클럽
##인들이
득점
세트
후속
34
근데
바라
##리온
사쿠
##아이
##실을
사태
##광역시
##그룹
##했지만,
디자
이들은
적극
##라.
##하니
고대
##해를
디지
##정으로
은퇴
받는다.
때도
##사카
##명으로
점프
##전은
살아남
말았다.
목숨
##kg
공략
좀비
보상
다만,
오오
##시티
바닥
올라가
##임이
##RA
방어력
##러가
##스킬
##버리
거두
##전쟁
인기
대단
주문
장난
꽤나
컨셉
여름
##기관
그려
이기
불안
아는
그때
막아
무너
##방에
##전으로
VS
##장과
##만으로
##래프트
2004년
소비
맞아
광주
지닌
##형이
##트와
초대
##art
##소년
적절
스위
자료
사람의
단순히
You
마무리
하나의
비고
대해서는
이후에
살인
##규모
##마를
음반
##이상
마음을
##:2
철도
##이야
U+
##ie
오리지널
##복을
방문
오토
꾸준
##ab
문제를
##선수
서브
마침
2일
게이
##해졌다.
미드
1000
거대한
##니스
무사
채널
보였다.
상황을
특성상
##분을
##제에
##'가
선보
다르다.
착용
코스
##45
대학교
##버리는
받지
저격
##스럽게
##도우
##하려는
활동을
부분이
##군에
##호의
모습으로
손에
##르가
관통
거짓
아름
한국의
부르는
날려
##하므로
비난
알렉
##어.
모험
##99
국회의
요리
단계
부대
##/0
##코의
노력
아쉬
요소
되고,
##위는
미리
##패를
원거리
##해진다.
##이라서
전환
##즈가
##되었으며,
의한
설계
점은
37
##카가
##ill
떨어진
분리
##IA
일반적인
##답게
돌려
인사
##트에
##니다
먹고
더블
나쁘
하나로
죽을
##ia
##워서
정당
대비
탑재
누군
2014
포함한
##소녀
교통
앞으로
##회에
##방의
했으나
보컬
##고가
##ik
##나를
##센터
도로
도움을
##률이
##~2
##화에
등장.
모티브
##었다는
##연히
감안
##산을
자신은
브레이
##골을
보병
점에서
##역으로
팀이
경상
아프리카
비교적
노동
2번
승리를
AP
필살
확보
확실히
인기가
##일은
왕국
##요?
##트롤
191
황금
일은
페르
##에게도
고등학교
기체
스카
완료
##놓은
지적
등록
##나다
승강
조각
##되었고
##타는
##고속
##35
딱히
스포츠
남편
눈에
##힌다.
PC
##구는
##진의
사과
##마트
바탕
정보를
제압
논란이
만들어진
차례
##시키고
고속
그에
금지
##시켰다.
In
포인트
유래
허용
먹는
##초등학교
150
상처
##미는
##신은
연주
일어난
75
구축
연장
1번
상대가
##악의
##판이
##all
##성도
몰아
##라와
추가로
컴퓨터
있습니다.
병사
고통
지니
##에서만
나누
거리
가게
원정
수밖에
실시
명의
캐릭터가
10일
때의
대답
##프의
##루가
형성
그레이
##사이
분야
임명
##:5
##력에
곳에
15일
이것은
##식의
인류
##AT
걱정
##었지만
##까지도
작성
스킬을
##EN
##개로
##바로
##토리
##ea
아시아
##문화
임무
이유가
차이
주목
파트
##렀다.
##티어
##선에
기술을
##다보니
멸망
##하였고
##ne
수호
##FF
본인은
##우고
##프레
##자들
솔로
##르기
##을때
트랙
사용한
##바람
희망
필요가
II
##가로
##역이
이용한
##키를
##ue
갤러
##동,
##코가
어찌
편집
아나
끝난
##PS
만한
유우
짧은
##리스트
시작한다.
##나무
##피아
잠깐
녀석
##리트
##당의
##사에서
가슴
##화에서는
카즈
초반에
##AL
해석
방해
해금
##크래프트
그만
측면
##공을
##:1
겨우
##북도
##발을
##"라는
##잖아
30일
##상태
##기.
뿐만
따른
##권이
##먼트
평범한
주연
이전에
거주
엄청나게
라이트
48
생기
부른다.
없기
커뮤
보였
있으나
5일
##ll
장기
멀티
던전
라디오
삼국
한다고
젊은
레어
##포를
불리는
##자에게
##위의
액션
##선거
여행
홈페이지
예전
##질이
골드
뉴욕
모아
##ct
느껴
이사
업그레이드
끝내
##토가
동맹
20일
##리안
2002년
##이던
어느정도
##ss
원래는
##상에서
##량의
포르
듀얼
3년
55
##도시
+1
##조가
멀리
사령
보이지
센터
##-4
##하의
대놓고
안타
##서가
흡수
에너지
그녀는
타임
뮤직
##즈를
25일
"이
##dddddd
카오
190
st
##품을
최대한
필수
되기
바꿔
쿨타임
만다.
##다가,
##동이
떨어져
##,#dddddd
평가를
##OR
물어
말했다.
유도
있도록
##모리
1.
스케
해군
제시
속도가
걸어
##ate
태어
아스
약속
사이에서
##랐다.
##임에도
다름
내부
대공
형태로
##기술
내용을
42
궁극
봉인
단체
없지만
당선
보급
##디아
힘이
효율
##하여,
##생활
가정
드라이
##물로
자신에게
눈을
출생
##차로
##모를
##카의
##지자
##되며,
3,
코너
##.10
직전
맞고
중단
##대에서
##자리
50%
##든지
육군
끝까지
종합
팀을
밀어
코믹
어울
##물의
##'이
게임의
2003년
##웠다.
##락을
오후
트레이
##했다
재미
생겨
MP
이야기가
능력치
이후에는
4일
거절
##카드
국가대표
이것이
##사건
##되기도
##량은
##주시
광역
받아들
거야
시나리오
알려진
유용
밸런
처음에는
버프
##관은
##함이
28일
잡고
가리
게시
용병
##'는
길을
개의
바뀐
개선
제조
##능력
##미야
2.
##계에
부담
애매
뭔가
##까지의
##하기로
##단은
##구나
컨트롤
##트,
##ove
걸로
##권의
소울
미친
나카
무기를
소리를
##메달
##3,
중이다.
집에
##론이
##수와
##oo
7일
수준의
인기를
흔히
뒤로
##받고
보여주는
귀족
##도와
##이치
중화
강제
##ard
Re
도움이
##모로
##대,
10%
참고.
증거
##비의
본편
##ang
##위원회
SBS
##PC
##하자면
##어져
습격
##달라고
전술
##ell
콤보
사상
##성으로
##성,
발휘
스탠
때부터
##루스
##다면,
추가된
당장
히트
유키
서비스
Sh
##등을
말고
폭탄
위에서
타이밍
레이저
##우의
##크는
왼쪽
바뀌었다.
27일
##ant
지옥
##ers
##버렸
해주
개편
진영
##토의
그들의
##ine
##쳐서
상대의
서울특별
##언을
무게
거대
속에서
##사키
##마을
##관의
자살
재생
##자들을
제외하고
어렵다.
또한,
##주차
싶어
39
넘어가
##스턴
##해졌
##타의
##식은
레전
쉬운
없게
상대적으로
공통
에서
처치
##마스
##아웃
아무래도
문제로
상황에
시작한
원하는
##OS
##와서
지역의
일반적으로
올리
제안
못한다.
부상
##전사
##심히
많았
14일
##해보
사건이
##오의
죽이
스탯
산업
##효과
한다
단독
구입
중에서도
하나를
지명
전자
크다.
줄어들
오스트
황제
수치
누가
겨울
비록
##로스
홍콩
##중학교
반란
21일
스펙
##대와
##느냐
##연구
얘기
상대를
아침
##러를
##.12
계산
패시브
##조를
##토를
아웃
##디션
충돌
##AS
스페인
##/3
26일
2013
##향이
조준
파악
##스탄
시내
로드
근거
핵심
##터의
##지며
상태가
##수에
자기가
##AM
꾸준히
떨어지는
행복
늘어나
##ED
##에,
Sp
민족
기절
##개월
향해
##사항
로켓
그녀를
출발
온라인
이미지
##형의
하나가
모자
##교통
##치지
의심
##VE
##겠다.
17일
싶은
##있던
게임이
책임
못해
사실은
탑승
기획
##격이
12일
##당이
##라리
동일한
##하게도
##원과
만족
##비는
##것이
여겨
8일
광고
채용
##적이고
반영
우려
##서,
##먹는
##기인
실질
머리를
##하러
##다이
##철도
##/32
장르
##구로
두산
##-10
11일
##이라며
건너
밀려
존재하는
고유
뿐이다.
문서:
약한
테마
판타
##학을
##었는데
메가
22일
필드
시티
사항
##할때
18일
붕괴
##ive
##친다.
그게
혼란
온갖
16일
##권에서
플라
##받아
바르
텔레
##되고,
내용이
인생
맡았다.
힘들다.
24일
##500
사람들
오는
카페
##gt;
##로서의
이상한
##안타
공격력이
##ee
기록했다.
BG
6일
처음부터
안습
되었고,
에이스
##끼리
있으므로
##점에서
23일
위로
##히고
대다
강조
##오가
데스
##ack
활약을
"그
극장판
훌륭
##니가
관광
생물
##사인
살짝
그것을
에어
##기만
해제
패러디
SS
없고,
##차피
기원
##ast
##373
불명
13일
당시에는
자이
나오고
3회
랜덤
어쩔
설득
커버
배신
탄생
120
수원
두번째
미나
둘이
##주년
Th
##스포
##시와
고민
인간의
9일
아오
19일
그럴
##전에서는
그렇다고
공산
##모가
##루를
##하였으며,
마이크
하위
한화
방식으로
FI
지하철
플레이어가
##가능
[[
##uby
보여준
아니지만
돌파
페이
아야
주도
서포
지급
숨겨
##4,
화살
##과학
부터
29일
않기
##왕이
##스에게
중간에
만들었다.
##'에
않지만
ST
당황
감염
스킨
##&gt;
##만은
속에
사람들을
말해
2012
무서
##선은
아메
##자마자
셈.
은근
##게도
##정부
들어오
##속성
나쁜
##3c
뒤집
납치
2001년
##lt;
말도
##님이
와중에
이들
1위를
##오카
그다
시점에서
방패
##거리가
##되었던
##선에서
표준
오프닝
아라
마지막으로
##루의
들어간
##ong
##기에는
입은
우승을
가입
##드라
작전
가로
일종의
##웨이
47
##AC
be
##독교
즉시
얻은
##하긴
한국어
##은행
갖추
열심히
##개가
##파이어
대륙
##ort
외에
구단
확률이
신뢰
##ruby
이름의
둘러
3번
보여줬
##판에
실행
해설
발음
##국이
마련
##방이
있었지만
##지마
하기도
##if
때려
오른쪽
##LC
만에
있었고,
한때
주력
추정된다.
##ind
실력
##오프
데미지가
버튼
##마리
##5%
##ith
##a3c
##373a3c
##점에
늘어
공항
400
받게
##트남
##EC
##세는
대미지
##동에
라이벌
아사
명예
역전
PS
않아서
##ruby]
버티
##ld
옆에
##화로
하던
어차피
모션
이르
바탕으로
##정보
##장.
현재의
단일
내에
##즈키
것이라는
만난
사실이
어째
내내
습득
들어가는
사정
##시리즈
등등
이론
드랍
클로
서울특별시
##마법
##베르
##ly
10년
성적
##스트로
후쿠
제주
디스
수입
##해져
##진은
댓글
##ffffff
아이템을
커뮤니티
교환
이래
뒤,
언어
##데미
동아
보수
분석
여러가지
##직을
브라질
베이스
##인지라
20%
입학
##면서도
이승
##하기에
##증을
스페셜
##까?
눈치
##즈는
절반
가면라이더
그곳
초월
통일
스프
경유
붙잡
인지
박살
공주
무력
음식
##우를
2위
공격이
들어서
##프는
##어주
2루
김성
##ist
것이었다.
카드가
집안
놓고
돌격
형제
46
##급의
44
건축
쓰지
시행
뽑아
메이저
사거리
##지컬
##회는
##말을
정말로
##시한
##선으로
##VP
했는데
##스트를
##ain
행동을
##원들이
공을
##//
정글
##군과
재능
이슬
가득
계승
##'으로
##.11
위키
##역,
##ps
##~3
##했다가
벗어나
내구
말한
##리아의
그다지
##단으로
선배
부분은
오픈
조정
레인
###x
수리
얼음
베르
##기에서
##-5
##요!
파이터
오리
격파
미야
위하여
##per
##치에
사람도
마주
제국의
##리자
안되는
##공항
안드로
노래를
##가에
##했으나,
##권에
##각을
덕에
##하지는
01
나의
##해지는
마법사
계속해서
격투
정도는
울트라
제기
크리
마츠
##면을
##니,
밴드
마녀
##해주는
정령
팀은
쓰러뜨
세력
점수
##병을
공유
##족의
맡은
위해서는
##라운
적도
##연합
그녀가
그만큼
##이나,
##리나
살고
고급
걸려
소멸
죽는
당시의
07
의미가
전달
일부러
##판의
그것도
하다가
붙여
##다"고
곳에서
그동안
보인
다행히
##시안
북미
경계
가문
피아
물러
근무
테러
##역에서
때문인지
건강
하수
없었던
메탈
NC
사용하면
미사일
##est
모양.
카르
네이버
외교
랭크
대장
데리고
##HE
##긴다.
울산
연예
뛰어나
추진
와서
##리면서
생각하는
##OL
순식
##:3
##기간
아무도
비하면
##악한
의도
트레
공작
이들이
증명
##화,
##류가
통한
##서의
##소의
정체
스타일
##판에서는
##였고,
떠올
패치로
프로토
무난
쓰레
심각한
##시코
알았
장애
##사용
암흑
케이스
거래
##니어
해체
##화는
후에는
홍보
역으로
아우
##리티컬
신인
가까이
##0000
43
얼굴을
3.
오로
아무런
포인
스트라이
##ry
압박
##스팅
실제로는
전체적으로
##랭크
화려
쓰이는
되돌
자리에
갑옷
##IT
##373a3c,#dddddd
클리
##아,
##디언
주인공이
했다고
싸우는
##시간이
02
08
전투에서
못할
자원
##스키
##니의
##등급
연계
##별로
##lo
시야
자동차
3차
민간
한계
입수
##판은
글로
취소
컨텐츠
하나인
##64
해적
##들이다.
순식간에
기독교
##하이
추가되었다.
함정
노트
##부와
##리언
1999년
##-12
스튜
사건을
관객
8강
##면에
##색이
여동생
##로로
뒤를
지금까지
생겼
관심을
회전
보여주었다.
##명,
캐나다
##보단
않고,
목적으로
##인.
카운터
부족한
##피스
난이도가
##'이라고
##시장
이스
복잡
신의
있긴
##FC
채로
도달
많았다.
아케
##실이
통해서
때에는
선수가
예술
프로젝트
얻는
##유키
선호
어쨌
첫번째
돌아오
or
아티
파견
##거운
방송을
##사람
쏟아
당한
떡밥
돌진
##워드
목적
me
##PU
국회의원
아닐
1998년
최악의
##겠지만,
이들의
##되었으며
##오를
##호,
괴물
캐릭터의
##시스
on
##만원
크리티컬
##중한
체포
수요
강원
##가락
##해,
##으려
##지방
06
몰래
드디어
정확히
체육
CD
빨간
맞이
투자
도움
##관으로
03
방향으로
소프트
출현
조지
##듯.
파이널
경영
쓴다.
두려
##하시
##100
##장인
나루
관계를
흔들
세워
러브
네덜
리버
##류를
옮겨
불꽃
수용
##널티
##BO
테크
본격적으로
해방
기회를
넓은
노출
지역에
##대회
##관에
하자.
입단
문을
있었으나
드립
개통
조용
##마는
크레
교황
고전
제로
폭풍
부진
의식
것이라
NPC
에스
09
##아파트
it
방법을
##인에게
##우리
##것을
단지
추락
잉글
충청
뉴스
요새
##거리는
구현
의사
##목을
넘는
쓰인다.
이쪽은
응원
##ust
아무것도
다니는
##당을
후지
편이
쓰면
등판
감독이
##관계
변호
목숨을
99
눈이
의견이
대규모
계급
64
대로
##]]
52
중.
##5,
##터리
가능.
##자들에게
등에서
영원
단점
##구,
아니라,
했지만,
##카를
견제
최상
방법이
카나
##았을
##형은
없다
신규
편성
AT
충전
작용
##실에
1인
되찾
프리미
...
신청
##라노
사이의
해당하는
##머리
##체로
됐다.
수학
화이트
못하게
is
성능이
##트에서
중인
Su
##브를
##한국
##종이
인근
##까지만
치고
49
되는데
##치와
아직도
이용하여
상향
이후로는
깊은
했을
감독의
유명하다.
열차
##타이
1997년
##메이
쪽으로
교수
제이
폐지
##코는
모습은
대립
##부,
마지막에
##라기
모른
옛날
##se
협력
보도
모른다.
말할
여러모로
비슷하게
베트남
##사.
기록을
흘러
있었는데,
##주인
기초
가이
동원
보너스
##이었으나
괜찮은
통신
180
다가
##시설
영상을
스마트
대상으로
불편
트위터
테이
있어야
##ore
##역에
집단
31일
##주,
생각을
기능을
##공의
효과는
##장한
그에게
##톨릭
출판
부분을
##저히
크루
수집
캐릭터를
필요하다.
기여
##었는데,
'이
모바
##:4
이후의
우리가
##6,
쪽이
파이어
##인들은
혼자서
언제나
##색을
고향
이뤄
만들고
##RE
##고의
##브리
토모
##형으로
연애
##경이
그래픽
무료
US
전투를
수준으로
말이다.
##인민
1.5
##의가
전라
##one
글을
운전
걸쳐
대폭
MS
무대
다수
반응을
없애
어깨
행사
##소에
##미,
경기가
##영상
##야의
그런지
##용이
##가?
00
매일
##파의
##되자
먹을
유저들이
30%
##스트라
마음에
맡고
갤럭
##24
닥터
순서
복수
아일
창작
유희
공부
하나.
공화국
빠진
본선
고생
푸른
##해가
몸에
꺼내
KT
걸린
##아를
학살
##자키
##해지
##보스
타워
상황.
자체를
##였지만
자신과
대체로
나뉘
&lt;
달러
돌아온
자이언
주어
죽여
##책을
평화
위기에
##인이다.
##였다고
##전투
만든다.
장점
이득
번호
##인인
오스
무효
화장
제법
인상
주지
간의
기습
사람들의
##였고
몸이
##의로
사진을
있었는데
노예
다섯
콘서
이후에도
어디까지
브랜드
전원
드물
##민이
##격으로
중학교
##율을
##함에
등과
이날
이것을
#373a3c,#dddddd
안에서
그와
달아
넣어
본인도
##치,
주먹
오빠
참전
2배
##렸을
성능을
어그
##동의
모리
##라이언
An
거기다
##카는
사이가
##자고
조금씩
적어도
스폰
특별한
04
##PG
##운다.
추적
##비전
네가
위치를
말은
##다의
작동
호평
##ip
마시
##어와
이중
##연이
계획을
명이
양산
정류
A4
딜러
##지원
05
영문
다리
구출
유전
이시
코드
하나는
똑같이
3위
조심
들은
알파
된다는
##타입
점차
4강
대략
##:30
##내며
##.25
하다
##사랑
곡을
65
보낸
##",
그렇지
##업이
댄스
똑같은
##마저도
길이
##end
##인에
그것이
4년
##러운
마이클
시키
##할수
가드
##보가
세월
##표를
##링을
##ere
있으나,
차별
파일럿
##기지
노멀
연사
체력을
##하에
변경되었다.
곳이
진정한
입장에서는
4개
1996년
내는
준우
있었고
4,
##함으로써
공급
동작
익숙
연방
##제한
##당에
Te
##관,
귀여
되는데,
전직
##33
그들은
던져
캐릭터.
##프리
##세에
잡는
도서
행성
##적의
##조는
##75
미츠
런던
사토
위원
##역의
타케
##??
거라고
생겼다.
##부르크
고양이
파란
관계가
어쩌
레오
##동차
##국을
임시
엑스
비중이
그럼에도
##라에
스킬이
프린
널리
##ity
의원
##실에서
##님의
코스트
##파를
불법
되자
##력도
형태의
##주에
의혹
예선
##재를
심한
##병이
시기에
했고,
##유가
도중에
##ath
최후의
선물
##-11
기반으로
요즘
##화되어
펼치기
##짜리
스웨
##었으나
때가
##상,
동네
##무원
마리오
1대
이재
##고로
성인
더빙
##공화국
어지
세계의
##드에서
집어
##-20
1995년
BGM
조절
이내
##부대
##데스
##.01
살려
##들에게는
##티아
권총
어드
마크
조성
국립
16강
##시절
아머
제4
헤드
수영
##체에
시각
##였으나
변형
##히로
MAX
인공
간다.
Ar
정도가
##이긴
근처에
달린
기어
전형
등은
##민의
고용
이슬람
공격에
메카
신성
##메이크
##테인
보이고
막을
장식
합격
Ne
박근
##과,
##당하는
2010
유로
유령
##색으로
##냐며
붙은
##미와
지니고
비디오
##200
##주면
마도
정확한
한마
SN
구속
De
##인들의
##항공
##받았다.
##과를
플레
##하였으나
##았다고
##료를
##버트
##한의
곧바로
5회
##베이
윌리
페이스
접기
태어난
##이었고,
언니
##ome
수송
전까지
제임
이성
이거
4회
##비스
##영화
등장했다.
낮아
팬들이
빠르
레전드
트로
##름을
대부분이
여왕
아버지가
##들,
지속적으로
##65
하더라도
디지털
넘겨
대미지를
평가가
FIFA
크로스
AI
있었다고
시장
##해의
나를
모으
##라이트
소리가
-원
어떠
##MA
블록
매니
팬들은
주변에
출처
불린다.
괴롭
무언
단순한
김영
쿠로
예측
모두가
너무나
몰려
오랫
9회
크고
생활을
가톨릭
합쳐
녹음
판타지
되었고
종점
##중인
생일
적극적으로
##조리
##지않
득표
연상
예외
어둠의
취임
##홈런
##등이
펼쳐
##씨가
파라
##미니
##우,
무엇보다
수사
전함
##데다
서서
않았던
판정
검색
초창
극단
58
막기
거리가
어떻게든
플레이를
기억을
포탑
구해
추격
-명
가졌
2011
##교의
##내기
전쟁을
그랬
리메이크
공개된
##법이
자신들의
반격
일본어
편의
##당은
줄어
잠수
이들을
절망
##쟁이
커맨
스카이
##술사
업무
##담을
##야구
AC
##7,
##자면
##age
##산이
아쉽
모바일
##.02
##권은
고백
스파이
요괴
##레나
##IS
##양이
근육
지나치게
내의
##무기
5년
MVP
보물
차단
소닉
##사업
갈아
위험한
존재하지
##경찰
##뿐만
라이더
승격
##평가
##니다!
##전차
없으니
##영이
##다니는
중에는
않아도
압도적인
MC
다이아
진지
등,
189
##'에서
3D
##학자
파트너
##실한
##야.
타이거
##관리
저그
작중에서
중국의
대항
목격
##당히
정착
##22
##소는
동방
밖으로
기점
영국의
없으면
주전
탱커
##마루
이후,
##이었지만
이루어진
박정
마리아
발달
일도
소화
FA
불가능하다.
##II
##호로
##드립
##쪽의
반발
능력은
관할
##버리고
클래스
##인간
상품
마법을
본작
##마이
특이한
규정
##츠키
전면
게이지
높이
나타난
##티드
3대
##스톤
설정이
##ect
신설
장수
부상을
1994년
##안이
##편의
##디로
후속작
##하라고
활성
가깝다.
##론의
##동으로
유행
와이
전력
##개발
##했었다.
##://
느낌이
일시
##국가
##둥이
##하면서도
##구역
##%의
외계
##ire
하필
홀로
##슈타
보여주고
중계
차라리
##환이
단어
주의.
##나라의
##소에서
인수
플랫
저장
써서
에드
그로
##리우
##으론
##린이
DLC
##.03
자가
##현이
의뢰
예비
입력
##석은
##세요.
통상
성격이
용의
THE
##전,
기능이
되어서
##BA
식민
##로나
##츠의
한동안
##하기는
##방어
폭주
##린의
##친구
지금의
히데
##tt
##디가
##함과
아름다운
곳으로
루트
계약을
외부
작품의
이전의
대상이
##어버린
모여
최강의
무적
하야
아바
오랫동안
##66
긍정
최다
치명타
##되었을
창조
##명이다.
착각
블러
협박
2부
##~4
예능
강철
나와서
국방
중에서는
##으려고
##라!
##노가
##했는지
베어
##-8
##었기
들이
##연을
##번에
##분의
##연의
##당했다.
사운드
역임
의존
버려
튀어나
법률
##유를
##편에서
서양
전후
현지
다룬
부른
##당하고
실력을
유형
쫓아
성적을
마침내
8회
있기에
맞지
시켜
41
많아서
##해서는
남겨
##들과는
잡을
말하면
##교를
자매
헤어
##르를
기원전
죽인
어쨌든
현상
##토는
학원
베스트
청년
신기
##og
##네가
결성
승부
끌려
외에는
스티
감시
간혹
출신의
'아
오사카
##OT
Le
##류의
회의
저녁
다루는
가볍
대사를
##었다
구멍
##킨다.
대화를
##ide
##/4
신고
쓰기
##어리
##과도
하나이다.
대처
방출
오늘날
##팀이
총을
어디까지나
##ID
감옥
끝나고
##'.
##령을
주기
싸울
프라
보장
커플
생각이
##ure
##감독
순수
##터테인
아니냐는
기술이
가속
##되었다고
찾는
##구치
심리
잃은
1990년
##배를
엄마
사용하여
##ake
##버려
##"는
##하는게
박근혜
##사령
콜라
##설을
적대
골든
쉽다.
나나
56
##번호
##세로
아리
했다는
##ime
##군으로
##곡을
내놓
까지
않는다는
##진,
강제로
지어
세계를
이지
말아
이리
끌고
지역을
##28
생각하고
##기업
처벌
받아들이
보일
##만큼은
침공
##던가
안내
##소한
##크라
54
##웨어
경기는
마인
날개
맞은
힘으로
비슷하다.
##당해
##통을
Me
했는데,
##르지
주말
##파이
Se
##터는
##다'는
##더스
AK
##일드
##세요
외국인
좌우
이어지는
##리얼
나름대로
##회사
자는
통제
##실,
디버
##금이
김태
올린
3루
인간이
정치적
2기
만났
죽음을
##심으로
59
독자
드러나
##등의
일본에서
무덤
구체
합성
##amp
생각보다
##ark
##판에서
마음이
##타와
##하거나,
이끌고
WW
실버
전화
미스
##OM
마이너
자신도
똑같
한국에서
이집
한자
까다
가고
둘째
소수
무작
##노우
대만
##77
##니와
화력
필리
다수의
윌리엄
##신으로
은하
훌륭한
코미
##인지는
인형
##슬러
##ES
정확히는
정복
##노의
지금도
마구
풀어
포르투
##소리
작사
어릴
우리는
##량으로
막장
구성되어
발매된
##일로
사용해
아가
##줘야
은근히
관심이
##보기
일으키
##물에
어두
접촉
600
수록곡
무기로
정면
##이게
감정
인하여
남아있
KIA
향상
##ite
희귀
##었으며,
깨닫
Lv.
소형
성립
##들.
##주지
##38
플로
더더
6회
했고
수련
##팀의
방법은
영업
웹툰
##OP
##이트를
##페이
강남
##계에서
초등학교
밝혀졌다.
호텔
##묘한
알렉산
유대
정지
것만
##아는
##지고,
#ffffff
##크,
##재가
DJ
##식에
##하고자
##당한다.
노부
한편,
없던
캐릭터로
규칙
팬들의
독특
kt
동시
지역에서
출장
요코
일제
##환을
누적
로스
태어나
##UN
다들
마왕
사용하지
등장인물.
상호
무렵
흥행
##안에
##야가
##ound
##.05
제5
##실로
옷을
예고
피격
이길
##하려면
강하게
몬스터를
##았고,
태그
경향이
대원
이끄
##한을
융합
##시키기
##iv
##구려
이치
##치며
##oy
##피를
헤이
##'t
##된다는
##트워
스웨덴
더더욱
이란
##점,
2017-0
지내
##산업
멀쩡
당신
##림을
my
안티
CC
포스트
기본적인
극복
아빠
의료
##iz
##였다는
##에다
'그
##현의
찾아가
말로
메시
역사상
##미네
들어간다.
세상을
##파가
피를
7회
편입
탄약
일찍
##명한
경비
수십
브루
반응이
##조차도
전에는
스피드
##법은
He
특기
고등
테란
결과를
김정
##초간
##민주당
88
소총
노르
인물.
웨이
지능
##막을
##명에
5개
갤럭시
슬롯
맞게
Be
하얀
##.08
##재로
팬덤
지원을
제2차
##구와
##투를
주었다.
##리에서
##OW
##소로
스튜디오
연극
니시
##코,
나아
훗날
이상으로
불가능한
##이었고
사람들에게
할아버
뜻은
블로그
경험치
##하겠
##군,
##AD
대개
원본
AR
코어
##ge
사랑을
##전과
별다른
##다면서
역을
프로듀서
감사
나눠
##ess
부품
어른
들어갈
+2
##크와
57
장면을
적응
접속
상황이다.
이주
게임에서
청소년
##심한
저주
##론은
문재
사용하고
달고
속하는
있었기
관계로
##이었다고
내세
레벨이
죄다
대충
문학
새벽
사라진
##종을
##영의
GT
66
##색의
전성
이끄는
##비에
중의
관심
##에서,
##되었는데,
안드로이드
1992년
당해
전시
##로봇
절대로
멈추
스미
##도르
5,
환승
이즈
##단과
##다시피
##익을
갈라
이정
##화와
##용을
다를
##9,
전형적인
한참
버리고
공격하는
랭킹
##기까지
헌터
네덜란드
내리
정도다.
##전대
개입
각본
스톰
##졌고,
챔피언스
카타
##망을
##~20
있다가
1993년
검사
방에
결코
2대
"아
##테이
트윈
들어갔
갈수록
죽음의
연도
활발
##석의
##OC
##등장
이외에도
애플
물을
사용되는
다음날
해병
물고
무릎
2층
바보
분위기를
상업
제어
오해
##다란
##sh
멕시코
대하여
결합
##니는
##음악
막차
싸움을
일상
##향을
##산의
어떠한
실력이
스코어
##사회
보며
##즈,
Wh
SD
독일의
##비트
들을
성공했다.
보게
잡혀
도발
##관에서
죽일
리듬
아니라고
SC
3인
##LL
수준.
은행
2의
이외의
##는데도
가야
들어온
과거의
##.09
비트
명령을
##역은
사건의
##버스터
##하였으며
##경에
##코를
위치해
##모델
테스트
나가는
의미한다.
##대장
My
1기
##이기에
##그래
##화한
적혀
공군
브리
태평
##코와
써먹
퀄리티
##.07
갖춘
##했습니다.
캐스팅
우연히
##트릭
것인지
##드레
##츠가
의무
카를
장교
##즈와
##com
이라는
##바라
##px
평이
경우에
##포가
##36
##자도
##-7
##공이
싫어하는
with
전철
##맨의
박사
##ame
개방
칭찬
짓을
##ord
검찰
자치
디아
선출
자동으로
분위기가
Tr
250
상태.
김민
##시험
전방
##랜드의
꿈을
같아
약간의
##()는
카드의
방사
##ud
아니었다.
직원
##국은
서부
전멸
스태
어지간
그건
세종
이글
##물은
유사한
##실의
점이다.
##당할
##으러
그들이
금속
연관
캠페
##비로
불을
페이지
작가가
아니라는
##없다.
##문은
첫차
##키와
버프를
미카
이영
미술
##령이
##.04
##느라
적절한
인터뷰에서
참석
키리
치는
과연
플랫폼
만나게
덤.
보너
유저가
##선,
자랑한다.
85
##메가
슈팅
메타
##미터
준우승
##상한
##다를
##여자
나쁘지
##유럽
##기나
가문의
과정을
오전
##중앙
선생님
##수.
김종
트랜
이제는
##도에서
##34
폴란드
덧붙
대표적으로
##받을
##국에
많고
어마
##경의
밝히
HD
##our
##정,
##보드
이민
하니
시달
그라
SM
구사
편곡
추가바람
모양이다.
사람들도
##집을
열쇠
기자
72
##"를
부서
위주로
##탄이
토론
##'은
그들을
매직
##다나
모조리
##레이터
보지
2번째
벌어진
##ax
오직
선수들이
1학년
병력
자식
있어도
##지인
##ance
개막
시절의
-위
매년
가능성도
##oc
원칙
왕의
빛의
##ix
입을
##로와
사장
##ok
68
되었다고
의미로
##어요.
내장
##토와
##일본
아버지의
봐야
노란
프리큐
정찰
기병
날짜
비싸
1991년
뒤에서
##렬한
##계로
우수
형식
챌린
##마에
아쉬운
아들이
##가시
휘두
메뉴
##배우
##번,
과거에
재사용
김동
경기에
사양
스트리
대사가
이상을
##'와
##ice
심하게
Al
##마스터
IS
UE
별명
##단지
보라
스타크래프트
##러의
##되어서
회수
지나가
##ww
188
보관
##ick
이른
와타
네오
채택
목소리가
##았다는
보안
아파트
태어났다.
믿고
주인공의
##버그
자리에서
맞서
##나카
##하라는
스마트폰
채워
사용된다.
이라
교회
4.
패션
##로서는
이루어져
##.06
피해량
한타
환영
집에서
완벽한
보유하고
##것은
정신을
3학년
쓰레기
사후
##{{
##-9
기분
셈이다.
수수
드는
헌법
허나
좋을
##리고,
##하가
출마
군단
##약한
110
비례
빛을
있었을
##렸던
##으로서의
유나이
그것은
SKT
학생들이
##번의
JR
임무를
잃고
##역이다.
##루는
감안하면
PD
##학적
손으로
##하기가
클레
방법으로
##오리
##pe
카와
박스
카미
##데이
후계
##()은
동굴
##급으로
반면,
30분
위치에
시즈
##봐야
##증이
뜻을
행위
남부
잡은
전진
남북
플레이오프
좋게
##커가
##것으로
동부
##비와
가을
밸런스
하락
여신
올리는
되며
죽어
##링이
부수
장악
##하자,
보이며
하거나
전체를
자리잡
유니폼
거듭
정체를
##소,
소식을
크기
카라
##했다면
제임스
신이
하트
자세히
재현
귀찮
일방
맞다.
폭격
무방
SR
바깥
눌러
##카,
##안의
Go
##39
캐릭터는
개혁
##되었으나
##츠를
제갈
이명
내보
모모
확인할
시그
51
곳은
##계열
##포로
관중
##니를
따르면,
나이가
이닝
자극
공식적으로
모래
##"이라고
증가한다.
현재까지
##오고
##맨이
어려워
##되었다는
##티나
로그
##브라
de
시즌을
가짜
이전에는
##EM
##건을
##PM
##na
병력을
##%로
목소리
둘은
##였기
##속도가
라이온
신앙
사마
얼굴이
##스트의
##률을
##서에
##사무
가격이
연락
스승
지형
베네
##야,
배트
작품을
앞두고
결과적으로
2세
거리를
유닛을
공화
##라엘
##욕을
3연
##학,
GS
##노스
##가.
Love
##작을
세계에서
##번이
재판
캡틴
출입
##해준다.
0.5
않도록
미국에서
##호와
알바
잠재
명확
물론,
2학년
충격을
몰라도
작가의
##시고
전의
강요
##리케
##때는
##단체
몽골
터뜨
언급한
남긴
전공
아즈
상급
개시
전부터
2008
카드.
OST
내지
알리
것일
메르
95
##검을
체계
간신
외의
나타난다.
##스트가
명을
##마와
2009
##석에
시스템을
가스
##프와
눈물을
의지
욕을
가사
넣고
프라이
##질로
##own
이용해서
깔끔
기울
버린
##위키
해상
되며,
##"의
놀라
머물
군주
전쟁이
색깔
##에겐
혁명
어린이
UEFA
할머니
##씨는
##qu
##졌을
##ber
넥센
##장갑
1층
##자치
추구
인원
배우는
비싼
저작
2000년대
EP
게임에
{{{
##68
간부
돈이
빠져나
영구
처형
##가고
장군
##은,
챔피언십
스틸
##파로
들려
때에
한명
##생을
800
스톤
있었다는
분위기
비주
##인들을
감독은
98
나오기
메리
CPU
화를
왔다.
집을
잡지
##주민
있었지만,
어택
등장하지
오스트리아
터키
1988년
##.18
##실점
당하는
##선과
##old
야스
포항
발생한
된다고
##한이
단단
##그라
##보로
챙겨
아크
차원
통산
조별
신문
##US
##방향
##학의
삼국지
홈런을
##상과
##쿠라
포르투갈
클래식
##%를
한다면
##조로
##프,
적합
스프링
노리
##av
##우와
발언을
가라
공격할
떨어진다.
탈퇴
한정으로
##동은
뜬금
찾기
밝혀진
##ng
중독
단편
[ruby]
지식
아이를
62
단점이
드림
##하겠다고
##종은
쿠키
오카
터치
이번에는
머리가
천재
신분
헤비
##110
##세한
볼넷
77
정부의
잉글랜드
##인도
계기로
찍어
만들기
유효
카메라
##들만
회원
53
##됩니다.
수준이다.
기용
효과로
특집
##여객
##위,
미디어
목표로
하나도
공공
숨겨진
##모드
군대
현역
##orld
##.15
몰락
##커의
이것도
##lay
스턴
##게이
##받는다.
어째서
무시하고
없으며,
##바의
기록한
날아가
앉아
구원
맞으면
싸워
아마도
코치
합체
1989년
챕터
##퍼스
업그레이
##자이다.
김재
플레이어의
##생의
컬러
아일랜드
강하다.
##EX
##정과
국가대표팀
데이비
마술
넣는
레어도
##이면서
##양을
초반에는
일명
1군
##교회
이식
##있어
##터미널
##임은
그러자
##/h
##언이
후술
나중
주간
공개되었다.
##직한
##각이
##오와
농구
##비,
##체육
상상
유치
성남
최신
당시에
늑대
##s,
성능은
KO
##후의
세르
오래된
##타운
피아노
모르고
고작
##통신
프랑스의
레알
이은
76
퀘스트를
비공
바꾼
##ont
나아가
핸드
##았지만
몰랐
있는지
##진으로
올라온
마력
자체의
구글
자폭
않으며
##나서
인물이
조건을
##서로
Ro
물려
승객
시너
떨어뜨
않았을
약점
드라
잡기
타락
##버릴
##중이다.
##~5
리가
아쿠
느린
대표팀
휴대
##커를
식의
적당히
##국제
한쪽
그러한
사막
##27
만날
##었지만,
이용하는
트럼
사우
##희가
상술
캐논
아이스
##ies
##랑이
느낀
##일보
##어마
뜻하는
왕이
마드리
##주와
사카
##방에서
##번을
사망한
거기서
팬들
##그리
죽고
##치면
탄창
찍은
사용이
##되게
##pt
Ex
고위
##포의
올랐다.
이미지가
##저의
의미를
급격
파리
선전
160
##율은
##주기
개정
블레이
달리,
세이버
느낄
도구
##21
##타,
매치
버렸다.
##군.
##았고
##-6
다닌
것으로,
##시피
위장
또다시
추억
##망이
##탄의
그러니까
별개로
즉위
전해
확대
그러다가
130
육성
##인들
##족이
##유닛
##셔널
관람
라운드
다음에
생략
김대
이어서
네트워
들여
오지
커다란
##제와
책을
후손
##OD
직전에
살펴
되기도
미안
##두는
빨라
부상으로
고구려
트라이
진보
##29
##으로만
미군
##디를
미스터
이겨
KBO
##제국
##차는
아이콘
드리
신경쓰
저런
무관
점수를
이상이
경고
남녀
처럼
아닌가
78
저렴
##실은
##되는데,
범위가
금메달
멜로
아메리카
##지?
##아와
K리그
종목
아랍
보여주며
아르헨
세운
비판을
##있게
주변의
##현,
수도권
보존
##레일
근본
수업
##하더라도
간신히
국왕
##투스
환상
제작한
장전
독특한
북쪽
##사거리
결과는
초기에는
##요,
블라
곡명
새끼
DF
무척
1부
움직이는
우리나라
했으나,
화려한
카드는
에너지를
것,
##하를
공격력을
동의
부딪
wh
##통이
버린다.
초보
너의
메달
74
루시
##+1
##죠.
##관과
아테
인증
##/10
코믹스
양쪽
##들과의
MF
가볍게
그렇지만
수류
##저가
남쪽
곳을
잘못된
연료
##이든
피해가
게임은
##결을
해주는
##네.
##요시
##법에
이나
당연한
LI
호위
Un
##네의
도끼
##로워
총알
##끄러
사전
없으며
##패로
작품이
포스
관측
주제에
아니고,
민주당
떠오
멤버들이
판정이
##년에
포함되어
찾을
손가락
##io
##NA
용도로
##박을
일어났
가끔씩
있음을
패턴이
##백을
공성
##약이
대회에서
##구에서
##-15
식물
이스라엘
예정이다.
곤란
##레가
중립
언젠
비상
##명과
##자나
##린을
덤으로
시절에
검을
##고속도로
##적,
##세스
어마어마
개량
존재를
##이었기
곳곳
WWE
시작으로
글로벌
1세
게이트
해안
서식
##훈련
고교
##천시
CF
부문
레이더
##거를
액티브
가시
카트
##ET
##디의
가치가
##졌다고
시간에
##씨의
##력,
이펙
2인
시대의
2020
루이
##양함
수출
안나
사냥꾼
##션을
기록이
클랜
제정
##린은
##내지
지시
##MP
건조
그림자
##설이
##발이
가만
실망
고문
화가
처음에
않았고,
출연한
물질
##먹고
마다
sh
토끼
##차례
의문
##졌고
의견을
망가
저질
##구리
아틀
##되던
도주
##만,
후반에
마그
보석
아시안
##였을
##세.
##고에
오버워
나폴
숙련
죽이고
기록하며
효율이
관찰
네임
격추
생년
##돌이
사쿠라
특성을
your
mm
리얼
##VD
##제,
140
않으며,
##야만
하나씩
흡혈
후배
공룡
##cm,
속도를
않았지만
부각
코코
##포인트
##바닥
##내가
Pro
미치
없지만,
##생이
##/1
취급을
위반
시작된
주둔
커리어
완벽하게
그랜드
위대한
##후반
나오면
침략
CV
걸고
##98
##진과
U+11
진짜로
67
이미지를
죽이는
부분에
치유
1라운드
난다.
##들인
##수사
무지
크리스탈
카오스
###x11
늘어난
타겟
##들보다
##속에
귀환
주사
초중
##싱턴
소드
일이다.
##공사
확실한
티어
언더
집으로
자전
제도
##900
감정을
무기는
토벌
##"을
멘탈
문재인
페널티
구하기
##하마
부를
4대
재정
한국에서는
곡이
방송에서
##Hz
##하자마자
We
##비디오
간접
##능력을
사람에게
있었으나,
한번에
I'
비해서
문자
발행
정도였다.
다스
아이언
하차
농담
유저들은
북부
##보이
##플렉
##까진
집행
후에도
##조에
##었으며
##모의
금방
기숙
넣은
모를
불렀
##병원
무기가
##판으로
편이라
폐쇄
##리포
동쪽
유닛이
아케이드
##러니
성공한다.
소지
##과에
제작된
이혼
니콜
드레
4번
면에서
언덕
통치
받아들여
##테르
포위
골을
보면,
CJ
얻게
문서를
##되었지만
##인한
제출
새롭게
우수한
종류의
##out
해피
수준이
히카
아티스트
##였는데
떨어지
##듯한
나면
대우
함선
침입
키워
타자
성공한
차가
SH
1987년
##함.
니코
성별
레코
##타카
시드
##미나
##성능
소위
1980년
전투에
기뻐
##시에는
음악을
엘프
##기록
정수
지불
일치
전주
이듬
전반적으로
##ave
##습을
일으켜
기믹
늦게
##편에
##rom
자본
##냐?
6,
잔뜩
##IP
강의
명칭은
원인이
##사우
되어있
##로써
합의
다음으로
열어
##된다고
##26
##단에서
##장전
갤러리
##거리를
##사이트
2.0
휘말
연속으로
추종
##왔던
##타자
##필드
냄새
아파
친구가
존재가
체인
횟수
되었을
자연스럽게
디지몬
쉽지
거짓말
패스
4위
발생하는
듣는
1루
It
전체적인
마키
##세)
불교
사용하기
##공원
생기는
동성
구성된
유통
사랑하는
당일
둘의
난입
두려워
프로필
기관총
녹색
이다.
대미지가
다카
브로
1:1
##경은
최소한
간주
입장을
##팅을
답변
장비를
대통령이
목을
##아리
않았고
지뢰
##ION
영상이
생년월
좁은
한글판
##되는데
유력
아래에
빅토
that
김현
바이오
재밌
##조사
숨어
##감한
떠난
나오는데
##우기
상영
정황
총기
##46
##버를
##55
시작하는
##렇게
전투가
생각해보면
국가의
무서운
알아서
보다는
##디는
올스타
상관없이
마법소녀
보여줬다.
정부가
크리스마스
유독
##ream
##에서부터
하나,
가벼
알겠지만
라이프
중,
##기에,
초록
따온
##발의
##야는
##LE
프란
거울
고스트
멋진
##문학
##님을
대부분은
방지
플레이어를
##동과
들면
##축구
왕자
##즈마
불렀다.
1만
호칭
보완
##경제
설정을
혹시
##산으로
##해질
##부장
##개,
심지어는
뮤지컬
##레를
##렸고,
##ile
물건을
지역은
그러다
전문가
아카데미
먹은
##ond
##우지
1장
올렸다.
데드
분명히
플레이어는
정부는
##rd
선두
이유를
사건으로
차를
반사
금융
나타나는
등.
다이아몬
후보로
받으며
언급이
힘들어
##.00
스플
틀어
관련이
##작이
##영은
+10
닌자
##가며
##더라
##"이라는
##브가
자격
##받지
일원
위력
##슬링
##편이
스페이스
데에
어딘
부임
##다리
일어나는
뛰어넘
사살
서쪽
미쿠
죽는다.
##브의
눈물
돌입
가지는
영토
끝날
데몬
속한다.
발매되었다.
##SP
양성
##.20
##사이드
주인공은
없다면
티켓
최근에는
1승
음성
으로
##으니까
승강장
신라
##러는
##열을
##ian
피할
##iss
말하며
묘사가
나선
##디움
##국에서
##드러
이끌어
뜻이다.
시스템이
##히지
걸맞
동양
평타
나도
돌아다니
정차
콜라보
증언
오마
나간
그레
##시하는
지팡
대성
##체인
죽지
양의
시에
Gr
토너
AM
101
대단한
##발로
##슨이
점도
발라
##웠던
##클럽
수를
클라
##누리
삽입
들어가면
가지게
5%
잇는
##시타
애매한
이듬해
마코
공격으로
수술
스킬은
타는
정도이다.
정식으로
##급이
보냈
느낌을
시노
끔찍
행운
##가서
##급을
##DD
##무장
가려
인디
영화를
프리큐어
익스
기운
집착
2연
부러
밀리
체결
발렌
아나운
##로만
매달
요정
##면이
호흡
##지기도
##-19
어뢰
##루,
결과가
##하나,
죽기
데다가
배차
진압
칼날
##예술
##고한
심판
대대
매력
임대
##-K
트레이드
##나가는
공격은
장면은
유저들의
브레
##사관
내야
단축
요소가
##전자
동일하다.
투구
같지만
##300
예로
##블로
##ost
곡이다.
##가리
아래의
길드
수백
##커스
2007
바퀴
##;&
##기기
##s.
96
##택을
별도의
입장에서
귀여운
유발
##림이
윈도우
가르쳐
생명력
##프리카
오류
작업을
2.5
##복이
공허
포트
연금
##름이
3번째
##:10
##면에서
형사
시절에는
돌아와
가치
영광
공격한다.
스팀
##하면,
경상북도
인물이다.
준수한
##키퍼
1명
##저럭
디젤
활성화
##44
카카
강원도
2006
##"고
현장
##......
발생한다.
##빌리티
##행이
4차
않는다고
1분
##종합
사회적
##"로
맛이
일종
##음.
철저
##슨의
일으킨
##바나
다리를
평을
##럭저럭
면이
칼을
##였는데,
맡아
##였으며,
##보병
되지만
##비한
먹어
##츠는
##현은
##르와
##orm
LC
상처를
화학
곡은
불펜
당신의
##치면서
의해서
합니다.
1986년
말하자면
깨달
타쿠
호주
주장하는
제가
##해지고
##지구
##대상
머리에
##다"는
##바가
##이었다는
##리에게
시절부터
답이
##:20
##소속
전신
갑작
투어
삶을
##ace
일으켰
얻기
이라고
운영하는
기술.
내고
##석,
고수
##'과
##주었다.
##나이트
##진에
그럭저럭
체크
##영을
군대를
소재로
업데이트로
##버전
각각의
##이었으나,
##위해
##ory
속도로
##,8
##95
전북
확실하게
##데다가
인구는
이하의
전설의
##침을
쪽은
##신교
왠지
팀에
최우
이수
개설
##더의
아미
##해보면
민첩
항복
높게
##단,
##왕을
올랐
천안
##ov
왕국의
##렸다고
오디션
신화
이슈
전체의
특징.
배포
187
세대
LV
생긴다.
지휘관
이젠
리뷰
##IG
실종
적어
##.16
드래프트
인간을
질문
##무가
어두운
기사가
##하진
빼고
전체가
상태를
##습니다
##범위
이긴
##ph
메모리
##희의
##ear
로얄
아저
곳이다.
시대에
또다른
##족을
##아시아
없는데
세븐
##곡이
##슨은
트럭
화성
당했다.
##합이
##경기에서
##민은
차지했다.
##공간
실수로
##네스
조연
오랜만에
여객
##;&#x11
생년월일
라틴
##르,
Com
드럼
발을
나은
##계는
원딜
##가미
##관광
부분.
미네
##카이도
나츠
서번
심장
어필
쓰여
자녀
당하고
의견도
선수로
않지만,
##로소
세인트
말하고
성을
방식을
원자
창원
##드래
미드필
##-16
정통
이종
##oth
##신과
커녕
단행
지나지
코멘
##마크
속의
스텔
##건이
##와도
아버지는
AD
AS
주식
상자
출시된
##man
어머니가
##전설
밝힌
우리의
##는지는
승점
불이
##주일
##전한
##례를
##달라는
##이라고도
뮤직비디오
보내는
186
경우엔
3000
##노는
##계획
세상
##ys
두들
##상황
명중률
상대는
강등
하나만
##-S
##인데도
요구하는
빌려
창설
97
노려
본다.
탐험
상기
얻었다.
re
##란의
일일
밑에
대리
무시무
문명
제외하고는
합병
출연했다.
프레임
1~2
상대에게
미라
현상이
시간은
경남
술을
##점의
##든가
##국으로
끝났
##시스트
세계관
사이버
##너가
바닥에
아니라면
자막
콘서트
63
여담이지만
##머가
##마,
속으로
막는
지은
보이지만
2~3
시라
대거
올라오
간단한
마케
적중
갖추고
61
##국민
##주교
##환의
생각할
##리스가
차기
그랑
대지
워싱턴
15%
by
정확하게
간단히
비교하면
##후에
건드
코우
경험이
낮다.
읽는
제6
마비
날카
나치
회장
##거야
##온의
선고
##조직
시상
##TE
많지
트롤
##속이
25%
들어올
넘어서
##sp
##더가
영향으로
누르면
악역
후퇴
##추어
해골
##브로
키가
유희왕
측정
##함은
타격을
2:
파르
부분에서
히나
피에
더군
사이드
사라진다.
##터테인먼트
##영,
낫다.
기지
필살기
##음에
##의의
부스터
작품은
##더러
사례가
샌드
페이즈
##정도로
한국인
블레이드
제7
##23
회차
태평양
69
형식으로
마법의
일행이
1500
아트
##스도
무사히
##병의
완결
##기능
말자.
##오,
##되지만
무라
장점이
태도를
이벤트가
##집이
##인민공화국
시체
위기를
브레이크
된다
아끼
##aw
전작의
공기
##pp
##.17
##ale
##이었는데
##열이
괜히
동남
전까지는
##2의
블러드
수익
드롭
터미널
파생
##숙한
##네시아
콜로
선제
화물
##하다면
이벤트를
텔레비전
##TS
완전한
캐리
만남
천사
국민의
도둑
구할
땅을
##전문
##야를
퍼포
##ike
##OU
부인
지칭
차트
걸리는
한데
가격은
##산에
부가
버그가
##령의
이용할
##고도
유격
침묵
##위권
간간
##살을
1985년
에그
##XX
##다"라고
유나이티드
비정
한반
갔다.
##.19
ED
최하
한나라
##/5
사라져
유리한
사유
새겨
있듯이
사용된
조조
대인
당신이
심심
인민
##있고
와일드
발굴
소속팀
##캐릭터
주차
자라
부근
오키
##월드
나오는데,
삼각
레이스
아기
##IM
5.
##나?
과도
위력을
와중
##용의
일로
팀원
##군에게
크기가
##VA
특징이다.
가동
폭력
상의
오라
##소와
##루와
결말
적지
마약
중첩
##온이
하이퍼
##나간
막내
음식을
##씨를
진심으로
코리아
##하길
모습도
##경우
상륙
개발한
##이동
특별히
2군
팬들에게
반박
넣을
##매를
트리플
위기
2라운드
##합을
세부
피가
닮은
##품이
시리즈에
##형,
요약
높고
기회가
얻고
그러던
SNS
##이자,
타마
복잡한
엑스트라
의상
너프
왜냐
##irl
히로인
에르
##하하
실수
팬텀
배를
##역과
##버가
교전
예언
서서히
사라졌다.
책임을
배출
형태를
##나고
##섰다.
##레인저
##레의
여유
비주얼
경상남도
실드
모양의
##라고도
##아아
##번은
철거
약탈
플레이가
얘기를
배경으로
신도
매번
올릴
##곡으로
용인
##줬다.
##블린
어빌리티
기회
허락
파는
##파는
##졌던
700
줄어든
페이스북
진실을
다녔
기가
##보자.
베이징
용서
]세)
에반
소속의
커피
##8,
##방으로
버스터
사용했다.
시원
##산시
1.2
시카
##졌다는
물론이고
목소리를
변환
##코어
건국
특수한
호감
빼면
##ook
중세
무산
오타
##면의
곡의
노리는
빌드
근거리
있었으며,
go
##배가
몬스터가
##ows
모니
임팩
##타수
대상을
노선이
##저스
의하여
##협회
##머스
골키퍼
##이었는데,
게스트
##손으로
말라고
향한
히어로즈
영원히
창단
개별
##ink
##리다
코난
##~6
서포터
##어버리는
엘리트
지키는
나라의
법정
언급된
스토리가
ch
더군다나
공연을
사건에
##키,
웬만한
보충
업로드
##연한
끊임
영화의
역사를
뒤집어
한국에
##준이
##십시오
마블
##서야
언데
##건의
무인
로버트
##닉스
교사
즉사
##함으로
##UM
htt
##미로
발표했다.
자랑하는
어드벤
노리고
인구가
소요
일부를
닌텐
압도적으로
성격을
없으므로
##자라는
웨스트
1984년
2002
개체
금액
서구
땅에
신호
감지
##스런
##인치
치명적인
대치
플래그
코르
기재
잠입
슬라이
불만을
병원
무력화
나고
##tle
상대방
##더를
##:40
스토리를
인종
쌍둥이
대선
차이는
##감에
##바야
필리핀
선수를
##ial
더이상
과목
놓은
##했기에
사도
##겠어
BL
CG
음원
구별
장치
사태가
실점
정예
공사
일에
주포
평양
스즈
초창기
장면에서
별의
번개
노벨
##로에
되었으며,
##.com
##ish
무의
##절한
##되었는데
##주며
끝으로
기아
RPG
자신들이
##정치
가만히
라이플
유의
##보이는
##시즈
퍼포먼
##되거나
Br
시즌에
뱀파이어
Team
했으며,
##미에
토마
포격
##박스
재활
갈등
##다거나
그날
풀려
레지
비웃
피터
세계에
##47
##우주
한두
동영상
측에서
3개의
원인
아니었
버튼을
아츠
##겠다며
브라운
둘을
메모
유카
사고를
영어판
1990년대
##크스
##GE
안양
##ower
버리는
당사
받기
조건이
적다.
##르며
##나기
시작하였다.
유인
##소총
써야
주장을
##오로
김경
최종보스
시위
비하
여론
다녀
바가
라인업
##디에
태어났
장탄
프리미엄
기존에
해킹
부착
##히트
##너의
억지로
##ob
야생
구슬
악몽
##영웅
취향
긴급
수능
건물을
&#x
무승
해리
고객
변화가
스테이
미즈
##공업
사형
호소
쏘는
20년
나무위키
##토,
백작
시작되었다.
##란이
직접적으로
아이러니
이룬
##-17
신입
과거에는
##민,
참여한
배정
들어오는
##걸로
기점으로
##줘서
안된다.
##바르
나머지는
설정상
에릭
##ft
동기
어리
옹호
지속시간
친한
##길을
나오기도
여지가
취득
##희는
##능력이
채팅
후기
출격
##병으로
##ach
뜻이
은신
사제
사령관
명백
##체스터
7,
초반부터
##차량
##편을
1시간
대단히
소방
루카
주인공을
남아있는
거친
일람
매니저
##이한
##공학
##므로,
##어지는
##산은
##차별
출력
##란다.
##스레
점.
팔을
Sk
며칠
##키아
돌아가는
카츠
넘게
군인
가해
몬스터의
##했듯이
처참
전승
질문에
보면서
5000
궁금
##베이터
Cl
연기를
정비
청와
##과정
했었다.
##하고는
삼아
영화이다.
호평을
콘텐츠
경기장
관여
모노
달라고
##로마
않았다고
##니까?
프로그램을
사용자
결정적인
저택
세력을
제한이
##것이다.
싶다면
시리즈를
사귀
##타이어
이웃
##순위
방어력이
170
열리는
느려
남겼다.
일격
하향
백성
나이에
처음엔
OP
##중에서
코토
바뀐다.
잘라
듯이
##대원
##질의
주인공인
스킬의
여학생
##라면서
동계
무역
통틀
##늦게
##계약
아버지를
작전을
185
##소설
새누리
체험
가죽
SE
적들을
이로써
미드필더
위력이
계통
수치가
##반의
1턴
재개
나갔
나왔던
차이를
##즈니
Sc
##색,
바꿀
인피
일행을
10분
김상
조롱
작곡가
구간이
안좋
패널
##인데다
##레어
받아서
사거리가
훈련을
슬로
자유롭게
사립
일부는
84
##당과
여기는
모스크
##:50
##ex
줄여
박물
나갈
장거리
담긴
천연
##리도
##티스
##다'고
어이
교과
점,
##이랑
프렌
##공격을
로빈
각자
##31
통하여
연맹
중형
돌연
세포
##해준
권장
중요하다.
엄격
별명이
풍부
숫자
시계
남기고
2개의
##에이
것보다
1억
오염
뜻한다.
같다고
DVD
스크린
전세계
##[ruby]
특히나
##스러워
##림의
평생
복구
디스크
선행
Bl
##사도
##니시
방치
##차에
##산,
##반이
좋아서
시청자
깜짝
Dr
고기
##AP
구경
Man
번에
##였지만,
구조를
포켓몬스터
##째로
공지
##판과
##사한
##슬라
아래로
충성
정기
##ble
##화.
##MS
또,
너는
라그
신장
전역
제독
조약
록맨
경우에도
캐스터
당할
대조
##라이브
호환
된다면
키스
##왕은
##률은
이득을
##되어있다.
##!!!
##달러
부정적인
소송
기상
시내버스
##였으나,
나오면서
he
##일리
##주의를
건지
##체와
많기
캔슬
공용
타츠
축하
진학
Pr
##ms
인물로
지키기
소식이
##.5%
머리카
김진
공립
한마디로
##살이
##혀서
##자동차
요원
학교에
##하였으나,
엔젤
##싸움
##키지
내린
중복
부드
맡게
도저히
이토
종이
편에
##경,
엘리자
김기
끝난다.
세력이
좋고
브랜
전무
##하기를
##권,
저지른
아군의
##가면
선수는
출간
Wind
79
86
##등한
돌아왔
1집
##중간
인스타
남자가
베를
##..."
수록된
##포르
버전이
##우스의
##.14
않았다는
임신
국회
딜을
후반부
축제
좋다고
카구
아서
거둔
an
##피가
준비를
올라가는
주장했다.
혼돈
##하겠다는
법칙
##먹은
동인
비율
82
부모님
인용
클릭
터져
##ree
##훈이
바르셀
기동전사
혐오
그림을
##-B
생각한
87
항의
##되었기
썼다.
##3.
##너는
치열
텍스트
##럽게
##now
1,2
오로지
##가스
능력으로
##,000원
메이플
프리미어
##역사
때문이라고
전화를
##리한
##투표
패턴을
스트레
리버풀
길게
모토
귀국
난이도는
거는
용사
##기게
프레이
##다'라는
헤르
##~8
불명.
밝은
배달
분열
##인가?
##ass
원작의
파울
조용히
##받았
조금만
마감
##GB
빛나는
버전은
연구를
1982년
105
가능성은
쌓아
##-18
모로
세이브
마스크
손오
재장전
유지하고
기록은
방식이
##스피
##네는
이상은
##그러
일본에
UN
수월
후원
그러나,
서비스를
세상에
사법
추정되는
감독을
동화
하에
어디서
##봤자
##atch
LA
테라
##후가
ID
##yle
아지
죽게
따뜻
그러면
나지
##우며
##란을
함대
크림
##문으로
아이가
##달아
노선을
사야
##The
고마
##도서
선택할
가졌다.
귀신
미래를
##전기
안녕
##세서
##보의
응용
##실점으로
##천의
##스티벌
쓰인
그래서인지
존경
이야기는
뒤에는
##400
##폭탄
얻어맞
And
느끼고
카자
##범죄
##정책
##법으로
예전에
계기가
되었다는
##안은
치면
복무
##기어
##센트
얻는다.
##-A
##엔딩
한일
BS
시리즈에서
면역
##are
스트리트
파멸
중순
##란히
선거에서
상실
악의
권력
##속의
##ug
유닛의
너를
도움으로
히토
서머
자꾸
하츠
앨리스
키타
상태에
최대의
경주
주최
1983년
배우,
탱크
증폭
에픽
카드로
##아키
##ING
정체는
##속을
타율
것이고,
성우가
출범
들어가서
되살
쓸데
2004
날리는
보통은
보정
입는
##시키면
지녔
##중의
No.
##재판
아닌,
##렸고
##~19
맞을
이어진
##매치
자이언츠
말투
있겠
연대
##eat
투척
수면
바위
##속으로
거미
철수
1편
화력이
뒤늦게
##현을
주제
전남
##해서,
연타
안타를
대량
취약
##ool
##노를
##STER
막상
가디언
##창을
기사를
외전
가기
해준다.
만나는
정보가
기둥
토요
스파이더
스킬로
직접적인
##변이
##부터가
For
40%
##권과
맡았
교도
##천만
##였으며
##권으로
만들어서
지냈다.
회상
본명은
##타니
##대사
배우이다.
집어넣
포기하고
이자
지목
세뇌
만일
##토니
캠페인
##리.
##회,
십자
마냥
20대
##먹을
##리즘
출루
파크
극히
##구간
##케이
##당에서
##학원
##작으로
##있을
##이었지만,
레이드
수립
War
유출
역시나
당신은
2경기
##ae
엄밀
##라에게
##네임
##ment
행위를
##외의
화제가
Bla
???
출시되었다.
##적.
##들처럼
스키
털어
모티브로
##바를
변화를
##소나
##렸다는
가리지
##리기도
결심
##ase
블래
##민족
##즈에
번도
##백이
후의
##페르
영역
시간의
수직
어렸을
여행을
##거든
사자
##동물
끊어
가상
발동할
##1.
시리아
못하면
들었다.
대신에
가까워
시의
없었고,
개신교
##프라
2005
경북
we
데다
##on't
가능성을
가챠
귀엽
커스
인접
불사
크라
비극
지는
##벽을
우월
##내에
합계
Star
##호환
유물
자체도
자금
함락
늘려
비틀
##티를
##사고
화력을
보유한
선임
리스
보호막
운이
증가,
가난
입주
스트라이크
상반
##니아의
##스테이지
오버워치
끝이
동영
분쟁
바에
AKB
##점.
속한
나타내는
89
상태였다.
벽을
내게
담당하는
##어에
시크
작년
실시간
##km/h
선수이다.
##지능
박지
아동
실질적인
능력치가
이세
위치하고
##션이
10개
##파크
##권에서는
##양의
되도록
##사단
요한
전투기
편지를
학력
##nt
##ous
명목
외야
up
읽어
##티즌
All
우라
안으로
스티븐
마린
##하였는데,
사로
정발
토큰
##고지
솔직
기종
공장
쉬워
##사기
지나면
낙선
가질
투명
우크라
##85
둘러싸
만화가
모듈
엘리자베
##리우스
실은
한방에
악당
##코스트
유망
"어
##포스
##/20
슈퍼로봇
유재
##-C
##심의
추방
사이코
않다는
##추는
가리키는
##식과
어벤
##나로
딜레이
##신도
들어와
제네
제공하는
찍는
##미사
##조선
##었다가
결승전
상점
야쿠
신데
##하곤
여기서는
##er.
생길
##시에서
칼리
##서울
##이었을
손님
오브젝
##법의
제트
##릭스
엔진을
LP
##민을
두들겨
반짝
배려
아이템이
복수를
발매일
연습생
지경
너희
확장팩
복합
차지하는
리치
##하면서,
분기
억제
원더
##반을
##석에서
##초의
기술로
중화민
대통령의
느꼈
##저런
기기
동반
식량
쪽에
##박이
함부로
구미
분해
슬라
3세
수의
일렉
나뉜
증가합니다.
##절을
물이
##우라
##way
트라우
##프에
##우면
##ason
빛이
시로
7년
##페이스
##올림픽
트루
##67
##치아
뜬금없이
##하지도
3명
##벌레
##준의
##용은
##모는
125
3.5
부적
전파
교장
상황은
##-14
히틀
방향을
호불
##iki
못해서
5위
##분,
위치가
##리아가
활동하고
사용시
73
##히게
날이
정상적인
사건은
##니까.
알라
##az
설치되어
태풍
하려고
주의해야
##신,
근대
중후반
끌어올
본격적인
3점
전원이
여럿
아인
따지면
##AY
결론
물에
우에
##아야
진행하는
계열의
뚫고
안정적인
매출
아들을
테일
##렐라
사실이다.
'오
마카
상하
오크
##-J
##관련
거론
왕조
소문이
전라남도
##노동
마루
여성의
##되었으나,
##"가
Gam
##카운
모티브는
데이터를
코미디
싶다고
1945년
국정
폭탄을
71
##식,
##저를
2명
서로의
##가게
사회주의
흔한
유래는
##마치
+3
아니기
나노
데이비드
여섯
##포트
##서와
전력을
무시무시한
주장이
캘리포
반해
##비치
진격
##자라고
##?"라고
##장애
일방적으로
루이스
지워
동경
도착한
##법원
작품이다.
알려졌다.
DC
벗어
##목이
초콜
##지나
##노트
폭파
10대
묻자
쫓겨
너무나도
SF
문제.
여기저
1호
##조합
##터로
야간
비유
##강의
##ary
논의
계획이
일본은
일어날
##번과
우익
##졌지만
모습에
독재
##것.
##내면서
##act
사고가
앞의
자의
먹으면
들어갔다.
가진다.
심사
보건
안의
충분한
네티즌
##%가
소중한
##-09
상태이다.
One
##금은
거다.
##키스탄
ne
클라우
넘어가는
와카
##타점
##층의
New
기도
이르는
##함의
저는
복제
##표가
성적이
막강
##시대의
말로는
남는
##곡은
4개의
##무의
##회복
대다수
CS
Part
3부
진정
시,
교육을
##상으로는
알레
주된
##었으나,
간호
인연
1981년
지향
##리스의
느끼는
##건설
퍼져
##어요
넘치는
혈액
담은
##마냥
전날
인터뷰를
1사
##이거나
대해서도
구역
정도를
인게임
번째로
81
교토
말레이
스캔
##마일
있기도
그녀에게
가벼운
World
사용되었다.
사단
폐기
뜯어
별도로
나중에는
##감은
부작
##과대학
##ai
경악
대표하는
##득점
토르
이걸로
##태를
데미지는
On
##께서
전쟁의
최근에
디자인이
바른
##잡이
누군가
시즌2
쓰러트
일본에서는
##시켜서
미루
##600
1970년
FW
못했던
샤를
스카우
원소
NE
JT
##봐도
서로를
기대를
어쩌면
##적으로도
배가
좋아한다.
선수들의
우호
##론가
포획
오락
오스만
식민지
육상
막대한
##었는지
##번으로
모터
바이러
입장에선
부동
쓸만한
할수
후임
##놓는
학생회
호남
PR
옆에서
작화
퍼즐
175
아들인
약화
1980년대
낸다.
차지하고
동해
개인의
골렘
공방
상세
##플러
##CG
에디
##소리를
즐겨
##시청
발견된
단위
나오게
뮌헨
남을
번의
정화
일부가
반응은
도적
재회
것이며,
조리
움직임을
스나이
없었고
IN
##차의
D.
포스터
이집트
서클
##통합
방탄
충실
1979년
사망했다.
##ife
10만
주관
##석으로
##해줄
##UP
##버스터미널
무섭
길어
##1의
스펠
세번째
##ade
스킬.
##mer
왜곡
온천
올드
문제에
친일
##부인
UP
대동
드라이브
매주
스코틀
우크라이나
##리던
넘버
벽에
둘다
전락
배급
상태의
사진이
가요
사가
서바이
##터널
##감과
바이올
자유한국
달리는
드라이버
모집
무리가
##배치
##a,
의식을
##교가
규모가
개척
##p://
##워즈
DE
이른바
거라
제자
유혹
##되어있
체제
##ven
끝나는
조우
만들어낸
되어있다.
##오스
수여
연봉
아군이
##.24
유기
누구도
충청남도
통칭
감싸
사퇴
0.3
표정을
하늘을
말라
눈치채
##자료
4인
갖게
싸움이
필요는
했다
##i-
##련의
도와주
보냈다.
진주
##능한
러시아의
개를
아베
평가는
3의
##바는
춤을
받으면
##w.
소장
튼튼
선택한
기분이
##카르
아시
##ank
BR
##리거나
질투
리드
등장할
##aby
##타마
이니
##되므로
독점
해산
상대방의
8,
##~10
CH
연령
한방
범용
##테이션
만만
동일하게
도박
##해져서
##처리
성향이
##무는
##책으로
유입
##볼을
에밀
##관계를
##사에게
우측
일시적으로
여의
설명을
##-08
##ps://
마신
싱가
##커는
오다
트라
실현
##행정
##런트
사정거리
운동을
싶지
학습
오페
##류는
##8년에
튕겨
##스포츠
콘솔
##선생
##평을
사신
손꼽
순수한
##메리카
##88
긴장
한창
영혼을
베테
##일과
무기의
실질적으로
노무
싶으면
네트워크
##스:
이동속도
상대할
이오
달하는
비가
##보호
밝혔
##음으로
적용된다.
학교에서
##lect
PP
황제의
경력
에리
##룡의
##색은
싱크로
분당
##공으로
여성이
##시스템
주역
GB
밤에
##연맹
사이클
배차간
히가시
감독으로
##-07
##터와
전장
이곳에
주의할
배트맨
##gin
보이기도
유적
산탄
##몬의
단종
거두었다.
바꾸는
기다리고
##앨범
짜증
간간히
부산광역시
포스트시즌
92
토너먼트
드루
막고
##'이다.
##박한
##로이
##들에서
섬의
##저항
이유도
제1차
내성
##해주고
휘둘
##CC
포수
구름
이누
품고
수염
올라간다.
트레일러
##내에서
부르며
조언
체중
부르고
내용의
##리칸
고속도로
기술은
이겼
천천
끊임없이
코인
간에
이순
인도네시아
##버튼
##문제
##이었으며,
수습
모드를
걸린다.
등극
스쿨
철학
단행본
논리
##서도
##처를
##마츠
공격해
##강을
쿠데
기생
집권
베타
청주
상한
팔아
모두를
##:0으로
##본부
치킨
케이블
짐작
사업을
좌절
가담
커맨드
##oon
##경기에
볼트
분포
##본다.
패밀
김해
상태이상
부유
찾아온
미노
김준
되어버렸다.
차량이
5분
되므로
AN
##ork
로이
방영된
##데레
제노
##되어,
집합
##만으로도
살아있는
##게이트
##링크
틈을
설명은
맞춘
경우를
##국,
맞붙
뿐.
드문
시작할
언젠가
농업
우르
주목을
인격
일대
##AK
퇴각
##oll
마라
업체
하계
노가
##히면
Mar
##조,
10초
90년대
쓰게
고쳐
신경을
지키고
are
더불어민주당
주니어
불태
안심
청소
이런저런
스타리그
수류탄
판결
무술
1경기
사랑의
도망치
6개
##티가
##hen
##게이머
사천
##대문
##터,
##미노
##네이
캘리포니아
츠바
##께끼
모델이
배드
북한의
'어
내각
##리아를
주택
호의
리처
##도리
장관
94
패배를
불량
장신
페스티벌
6개월
확산
머신
게이머
##드래곤
믿을
##미한
##품으로
##생활을
##당,
히든
모습.
##br
도시를
##러브
##집에
올해의
##AA
##CE
터널
##구청
흑인
합동
1:
워크래프트
노스
설령
뿌리
##에른
결투
'자
연쇄
투사
1장을
사망한다.
해양
##라미
##음은
던지는
##레오
개성
기다려
##래시
최적
무소속
사로잡
해당한다.
차량을
기억이
도루
차이로
지정되었다.
2편
한가
##겠다
커서
##비행
##층이
싶을
얼티
LIVE
해명
마치고
##했으니
아니지만,
모은
##길이
열매
살아남은
낙하
지도자
스타디움
찾아볼
권유
것과는
kg
평일
선사
기갑
퇴장
강경
당한다.
딸을
정책을
국경
##쿠스
가능하며,
이번엔
+5
첫째
##렉션
승리로
유성
유용한
초기에
##퍼가
다닌다.
형태가
그렇고
정해진
##누스
스텝
발표한
벨기에
불행
누나
쳐들어
##나베
배제
불의
##베리
폭행
하시
듣는다.
##내어
지리
기후
명문
##하여야
##고리
등도
시리즈가
##국과
싸운
역사가
##민주주의
따르는
시작된다.
복원
정신이
순으로
규모의
되었는데,
나라를
어머니는
경직
시키는
##곡의
있어,
##과가
약점을
헨리
걸그룹
비율이
즐기는
겹쳐
장남
##보지
상징하는
치러
##4년에
플라이
##레옹
하반
##파와
잡아먹
것이기
느리
입대
##6년에
출신으로
5번
여자가
시종
NH
갖는
취미
제작진
전쟁에서
뿐,
##으라고
손이
##킹을
재직
조회
##들에겐
지연
최저
##이후
대변
슬레이
피의
##클래
패널티
##리라
##가에서
영주
탄핵
1화
설명이
내리는
##으려는
##혹한
그러니
용이
부르기도
가량
그중
우위를
벌인
유이
대전차
코스튬
짐승
바둑
지지를
증오
정류장
Fe
만주
리타이어
##지만.
##초를
##질은
있기는
다이아몬드
의미하는
크레이
##카미
##겠지
구간은
##본을
그외
사고로
플래시
##크리
##ox
초등
어렵지
##형과
위엄
바이에른
83
의미는
카스
##목록
말하자
지원하는
재건
포지션은
일어났다.
커스텀
볼수
기록하였다.
이전부터
보스턴
회사의
대접
##들이나
##기준
##가면서
반지
딜링
다큐
목적을
##96
버섯
전송
토우
콘스탄
10.
지냈
권력을
실전
900
분산
완공
개념이
천천히
##생명
상황이었다.
연인
##행위
쓸만
토오
생방송
##거래
##-02
사이에서는
실수를
지역이
편에서
위주의
흐름
Mk
통계
이곳에서
성과를
##이라이트
AFC
김용
##경기를
끼고
##면으로
##7년에
나빠
##쉽게
이어져
##메라
자전거
##작의
##령으로
대수
##법인
lv
##분으로
클린
모르게
##테일
##리스는
모델은
마찬가지.
대마
그곳에서
##야와
파고
##리아는
##오지
##티는
지고
휴식
##믹스
##er,
어색
나오며
체감
##들에게도
##장비
세웠다.
반란을
루나
감정이
축소
경험을
##="
마을을
수수께끼
난이도를
##너를
##복지
이병
이대
아버지와
이번에도
시체를
원시
케빈
1,000
매장
어울리는
로즈
##탐정
##트랙
일기
힐러
특성이
거북
##.S
##당하게
진행된
않았기
대사는
##여행
시마
많을
힙합
무지막
배터리
전망
##확률
데빌
##방울
수요가
##재의
6.
웃는
오스트레일
가져다
'사
##바퀴
세우
##입구
믿는
나누어
소프트웨어
1의
아니더라도
우울
관계는
6년
주면
사사
사이즈
위성
아레나
쿨타임이
can
있겠다.
만드
##히코
신선
##디스
조기
백인
브라이언
캐릭터들이
##프라이
##가드
로맨
##마귀
##very
나폴레옹
어드벤처
용어
허무
마틴
구축함
어마어마한
기본으로
전쟁에
I'm
페미니
도시의
일행은
끝나면
발로
히메
후반부에
Fate
여타
지진
##~7
싸움에서
어머니의
공헌
위안
##티의
무지막지
Up
김일
##자책
논쟁
좋았
거기다가
항목을
지구의
신사
올리고
##uck
있다!
##인지,
이외에
역의
길고
후보가
악마의
돼지
##실과
유료
10,
##시키며
##이라기
그러므로
제8
3:
하쿠
##백과
##지며,
속해
철권
타이틀을
##지니
강릉
입증
구독
시게
##피해
선수의
BB
봤을
정체가
그리고,
##}}
때와
##청을
때문이었다.
가능하게
##ah
##온은
보험
사나
얼굴에
마음의
글이
피부
주위
##수인
신속
오기
##-P
##초로
##금으로
수석
##-06
측은
##뉴얼
##칭은
바뀌는
주류
쇼핑
넘기
몰라
##태가
포인트를
메이드
파밍
피어
붙인
어지간한
3층
않으므로
안타까
도시철도
점유
많은데,
##포는
##네를
##운의
##들끼리
베테랑
수색
무대를
##팀을
모에
포함된
공무원
적당한
기술의
하나다.
다운로드
보좌
스핀
놓여
산맥
do
설이
누군가가
초콜릿
사촌
##반에
##팀은
##저리
##두면
##igh
##바시
깔아
##건지
엘리베이터
Ad
신형
호불호가
'마
##cc
봉쇄
##A의
성격은
##작은
고무
##분은
##일지도
##시간에
OS
##드컵
발키
플레이어에게
모델로
왕복
##해온
##/6
소용
잉여
후회
국제공항
##드라마
충족
공수
##한데
1일에
##까.
전투의
포함해
표현을
무거운
##블리
정반
테니
크레딧
##노스케
##화하는
마운
가공
일관
all
고통을
##정하고
##시아의
동행
없다며
신용
획득할
잠수함
##/12
비스
시청률
##쿼터
##환으로
드로우
히비
실패한
##동맹
##97
피해자
마음대로
##천년
캐릭
일자
입문
했으며
부분이다.
도쿠
오우
아저씨
공업
수단
더해
도덕
##위대
##ung
정도면
사람으로
자국
플러
회색
학부
결정적으로
##동에서
일곱
말.
아래와
교차
##오버
빠르고
##졌으며,
열고
##노와
##.0%
노린
창립
##스와의
##호에
DD
어나
양손
하마
본명
##결승
2주
부부
크라이
승진
요리를
생각한다.
DPS
움직일
1973년
임진
##ical
스탈
힘입
천황
제안을
아이디
성우:
##밀한
학교를
침투
프로리그
올바
레벨을
뽑는
손해
아스카
자존
메구
2003
시뮬
##ype
등번호
배운
##온을
##했듯
##되었다가
축복
이해할
철저히
나뉜다.
##있었다.
디자이
##-01
주축
##ARD
##내서
##훈의
##으면서도
교류
꼬리
##로이드
##도도
있었으며
al
호시
##병은
##되어야
싶다.
##녀가
##희,
오면
특징을
긍정적인
##란드의
와이번
할로
잦은
적게
##.O
사서
경호
미묘
차고
Day
##5년에
##성한
##줄이
ML
##orn
규격
동급
단어를
##철이
세팅
##te
전체에
1호선
삼진
고지
차량은
9,
지붕
나타났
간섭
너머
성적은
영어로
->
토리
상하이
장례
죄를
So
맨체스터
쓰던
일본이
후방
화산
초당
후일
##지는데
다음은
##다던
감수
남기
##풍을
왜냐하면
##보우
지역으로
소규모
지켜보
적시
할때
태클
빌런
##차게
##츠와
특정한
발견한
죽으면
인식이
##마로
프로듀스
먹는다.
싸우게
리그에서
##저는
것들이
강간
손쉽게
올라왔다.
남매
소문
정권
하려
극대
냈다.
##니코
덱에서
스즈키
것입니다.
잊지
나이는
듣게
엔드
프로게이머
최연
생각은
디즈니
특징이
놀라운
아까
훔쳐
고블린
##들로부터
184
메카닉
그렇다.
그대
수동
##리드
사람과
드러난다.
하급
상주
1초
북아
인가
이때는
##IR
##2년에
##세,
올라갈
의문을
##루미
블리자
부천
##화되었다.
##형에
##애를
##릴라
이모
##했음에도
##ero
미국은
극도로
디펜
엄연히
##스.
특이하게도
뜻으로
트릭
##조와
해머
##교사
##파워
총선
진에
건네
전향
##공화
##그레
2사
##y,
디자인을
반도
스피릿
할인
분노를
궤도
##히메
멤버들의
기사단
Windows
1패
한번도
활동하는
닌텐도
잠실
압축
큐브
여부
스포일러
##-KR
받기도
115
##-05
묻는
##anc
멤버가
상식
일하는
초상
김유
결혼을
내렸다.
스티브
비용이
1st
기묘한
##.26
뚜렷
소속으로
{{{#
건물이
사라지고
끝났다.
에어로
##폰을
인지도가
##투수
도깨
썬더
20세기
2nd
답답
보구
한계가
360
##.28
납득
##쉬를
프로레
Station
##다"며
##아도
대가로
던진
이루어졌다.
조별리그
가능하며
작품에
국도
킬러
##퍼를
벌어지는
관료
피로
베를린
##미.
예산
JTBC
하라
##~!
유니크
치즈
승부를
불쌍
##당으로
##베르크
##줄을
숫자가
##wiki
영향력을
##포인
제목은
끔살
우루
방어력을
깨끗
죽었다.
중거리
단위로
온다.
잡으면
특급
##iver
##ich
##?!
문제의
##면서,
##십시오.
##/s
많은데
되려
명칭이
트래
호수
1.3
En
키라
오렌
헷갈
##사나
매체
벌레
##까봐
2010년대
우회
최종적으로
보상으로
찍고
무난하게
어그로를
그거
이대로
기름
##OO
BE
요소를
절친
아니라서
시골
알려지지
적으로
물어보
서울대학교
##속에서
리틀
##네마
박성
살던
##하르
시즌이
브래
DP
##병에
##int
##1년에
운영하고
양자
경기에서는
마을의
거인
보이스
Oh
모순
##리는데
토트
전적
미국이
OVA
##음의
돌고
BPM
멤버로
초에
93
거라는
시가
흰색
챔피언스리그
원작에서는
운송
##니즘
1960년
유학
GO
항공모
드릴
##+0
들어왔
##시스코
##맨을
출혈
2집
디시
말씀
지낸
날뛰
것이고
내부의
공산주의
시점에서는
##urn
김승
##버의
##강화
국적
부숴
##락이
선수권
당초
레일
홋카이도
##스나
영화는
핑크
슈퍼로봇대전
김포
친척
프랜
2승
하이라이트
법무
일요일
##병,
오죽
낚시
돌아왔다.
미션을
세계대전
방식의
깎아
역이다.
비난을
셔틀
조치
##파,
산하
영향이
밑에서
##대체
슬픔
노래가
##ock
때에도
KOF
혐의로
##9년에
진행된다.
DS
앤드
블로
에피소드에서
롤드컵
##담이
말과
##중국
사용해서
여전
100만
이해가
하단
##ence
1등
좌측
안경
##년이
##시기
섀도우
전,
이럴
실패했다.
과거를
NBA
내부에
비서
확정되었다.
서포트
미키
##야!
엑시즈
##시키지
보편
모자라
생김
##IV
미국과
##ise
이현
##MC
일으키는
내에서는
##리스를
3~4
굉장한
누구나
공간을
##감으로
##병과
##바야시
개봉한
CP
비롯해
아이들을
멍청
마드리드
##ㅋㅋ
##스틴
신부
##m,
인스타그램
love
편하게
방어구
##장도
진행되는
평상
드러났다.
밀리는
이틀
##-JP
담배
##추가
멋대로
##재는
최상위
뜨거운
##생으로
##'이라
원주민
상무
곳곳에
적군
##700
진급
##초,
평점
##ep
##42
라스
##자유
##환은
##시간을
만들어졌다.
차원에서
고난
##자들과
모습과
안타깝
역습
##거라고
바나
##수이다.
잃어버
프로그래
모습이다.
야마토
2위를
##영과
군의
바뀌어
센트
##.A
스트리머
위상
##변을
마을에
그러면서
골라
편하다.
담아
##조각
정상적으로
국무
##자로서
조합을
영양
평행
영웅이
지나가는
체인지
마오
않겠
합리
##작전
에이지
불참
게임이다.
연산
##신에
보내고
183
김지
극단적인
전격
질문을
되돌아
변해
##더는
그레이트
음모
선보였다.
토니
총리
##자이
##보에
##식에서
이름도
재미있는
끔찍한
##저우
즐거
그릇
##딜을
추측이
아직까지
즐길
일단은
일본인
종결
1레벨
다이어
Ph
목적은
자원을
않는다면
Sw
벌이는
디바
##열의
##되었지만,
사우스
이경
징역
찾고
##.com/
##ii
패배한
움직임
존중
추측된다.
의지를
있었기에
##하였다고
시작해
면모를
토요일
야수
스스로를
원조
##원.
추천한다.
소음
##미에게
버틸
그후
주행
세라
승차
2세트
되었으며
##화에선
##되지는
스쿼
용암
##내려
##들고
고소
##."라고
생체
백업
조건으로
##미르
##'고
##공은
##량과
##SS
양이
실제로도
곡으로
소속사
살아있
잃어버린
변한
주소
주문을
이상하게
##피안타
신발
라이온즈
잊혀
무기.
김수
##삼진
##석과
죄책
##활동을
무서워
옵션이
IT
##아나
##49
텍사
##모습
적절히
트리거
##계와
##브레이
##00년
##들까지
##동시
기부
열혈
##질적인
##박물
자료를
일컫
판정을
사항은
강도
필요로
설치된
##토스
##uk
황제가
##량에
동점
라며
은폐
##하,
통째로
가져온
하우스
##"에
테이블
##건은
달의
뽑을
##다닌
To
##타리
2에서
수상한
싸웠
##장이다.
##민과
자칭
##성에서
병력이
카리스
꼬마
##형태
발탁
시에는
원숭
침몰
##했을때
##초가
108
이후로도
조차
##해야만
싶다는
##파에
##하르트
시모
계정
맞는다.
연출이
from
##대교
128
여러번
쓸모
탄압
업무를
돌아갈
정교
공중에서
19세기
것인데,
##ens
지속적인
부패
인공지능
조언을
##다'라고
신데렐라
인권
다시금
반전
조카
##타에
학생들은
공격력의
sp
외곽
감상
##값을
매드
아스날
문제점
ex
'미
속성이
##고와
##장난
##ign
##달라
한국시리즈
국가가
묘하게
어려울
흥미
##!"라고
레이블
데이트
이야기.
##래의
3기
TVA
뭐가
올라간
##퍼의
두드러
##.22
해치
##카라
##하늘
방식은
분할
했기
##아트
사실에
편은
##테니
##습니다!
마친
본토
##족은
선수들을
칼로
이기고
##지는데,
영화가
A.
##ose
제작에
실내
##거라
쪽에서
Do
##노미야
중지
이르러
##두로
유엔
불리한
굴러
가치를
아르헨티나
들지
좀더
진실
##화점
##사리
선회
패턴은
같다는
마산
얘기가
시작하면
##하루
##안전
참모
##.1%
기적
어려움
##기념
행동이
죽이려
붙는
문이
장성
피하기
대부분을
목걸
에로
as
예쁘
##제도
버텨
이원
##MB
내용이다.
이어진다.
Con
##다라는
##전까지
진행되었다.
고르
어설
턴에
메이지
조사를
5대
탐사
날,
##액션
무효화
데모
몰살
사람이다.
##방은
여기에서
끼워
인벤
키요
남동생
세계로
전동차
위와
인상을
##ru
버전으로
입지
##버드
개교
이케
많지만
시사
퍼스트
격려
측의
가리킨다.
프론
이노
변호사
리오
이가
분노한
드물게
아스트
노선은
유럽의
##오기
갇혀
가능할
승률
초청
식사
짓는
편이지만
맞춰서
예시
오를
아무튼
특전
인물은
명칭을
##문,
##버리면
고등학생
이브
중장
사무라이
좌익
유비
##무늬
USB
방을
권한
순환
'나
##장치
##훈,
##독한
하루에
개장
대가
##.27
코노
##자였던
this
억울
##뮤직
##편으로
이루는
착한
씨앗
총합
간단하게
##채널
아비
지점
총독
##카페
방법도
약속을
목표를
사와
섞여
떠난다.
ERA
떠났
색이
##~1
##출을
##세기에
##스트는
지혜
변태
이윤
언급된다.
힘의
엔터테인먼트
검술
##프란
##활동
노력을
대통령은
##론과
밖에서
타이밍에
##버려서
##htt
성공적으로
방송에
##"이
선진
왼손
무난한
급격히
##부키
##mp
##탄은
히로시마
##문과
대면
뿌려
주제가
부친
##채로
유용하다.
##창이
게임.
##펙트
별명을
##레인지
##네요.
##록을
바꿨
발발
신중
노조
##인데다가
사다
들어가지
중력
at
없습니다.
수감
##국인
##플로
맥스
이기는
만능
##IX
##포,
한데,
##두를
있거나
하스
키를
아이들이
민주주의
실용
주술
##해하는
공인
없었기
##78
##하듯
##적이지
곤충
선발로
미나미
두는
약을
일어난다.
잘하는
캐치
터트
1%
##린과
91
트위치
남게
떨어질
향후
화재
##/8
##루션
##oug
올렸
높아서
발레
##근이
시리즈는
에피소드가
보스가
##병기
최악
##에게만
모드로
##으니,
참가한
##견을
모르겠
##대기
##우스가
##ans
강림
듣기
##된다
소련의
신나게
##시내
힘입어
모스크바
0.4
구간을
일리
+4
오이
##심은
아닌데
##다"라는
뜨는
##나미
자체에
경력이
안습한
중고
III
나왔을
조선의
발각
에디션
피카
바라는
플라스
표면
##는데...
##.29
유니버
표절
사이를
기록하고
##즈에서
미래의
학과
350
이마
시카고
놀랍
이그
##딜이
스매
##공개
가성
뜬다.
여우
##훈은
묘사된다.
보드
##ey
마스
비공식
그들
마찰
자제
##체제
저작권
높을
애완
하인
Super
육체
결국은
구리
공격력은
따르
10회
미성
##글을
3가지
4번째
떠났다.
엄밀히
##현과
이름에
##몬이
##막이
오메가
거야.
전반적인
아니게
뉴질
##플라
날카로운
같은데
시대를
두개
##엘의
까는
전라북도
실존
이탈리아의
표지
난사
##칭을
그해
극중
##ash
##받게
플랜
##만화
##상승
점수가
고증
소중
##.30
배경이
감각
이태
두번
카테
밝혀진다.
경찰이
언데드
마피아
많고,
여담으로,
3턴
연간
##나.
없으나
메이저리그
빠르다.
유산
친애
##다와
##풍의
##우치
##한,
##금의
때만
인해서
##다보면
보낼
파츠
약혼
공무
없어도
상태다.
코스프레
터진
주어진
##파괴
##오면
##느니
앨범을
세월호
진지하게
딸이
대다수의
EN
##형인
##철의
한국은
자를
라스트
##네,
##린다는
##군에서
##IL
##후보
해준
국내에서
무자
탐색
##물과
##자이자
style
MG
보스를
분홍
착륙
##천사
##당초
카네
피지컬
ON
엘레
챌린지
AKB48
높여
방사능
심각하게
됩니다.
##니에
네임드
정규시즌
매각
카지
내에서도
'가
미쳐
잡몹
대결을
탈취
멤버들
2001
다이스
법을
포탈
상관없
단발
##런스
시크릿
특화
라이언
있다며
##됨에
버전의
##usic
필립
떨어졌다.
맡는
1950년
##상가
헬멧
##중이
##www.
HP가
감탄
까다로운
##보인다.
##전에서도
발매한
##oh
##었다면
##랄한
공부를
똑같다.
되어야
1.6
이전까지
전통적인
승자
명시
심의
##3년에
드래곤볼
##다르
존재로
EXP
단독으로
##히기
무대에
이른다.
##피는
중량
2장
메디
그렇기
3경기
이별
3분
거지
일반인
고립
엉덩
형편
발음이
태양의
따라서는
있어서는
목적이
##검사
짧게
연결되어
때를
못했고,
투쟁
비전
돌아간다.
생김새
광산
지방의
갖춰
##분한
앞선
##티노
없었다고
이벤트로
불타는
무쌍
##어에서
저글
한꺼
활동이
비판이
시바
178
예수
주인이
금강
뿐더러
마땅
행정구역
압권
##혁명
2호
Dream
반면에
여기저기
명명
산타
##츠카
##이크를
모양이
이쯤
##천을
현재도
심해
전략을
용산
##아머
##지대
''
##.13
유언
곁에
덧붙여
미궁
다닐
통틀어
쏘아
##년도
12.
능력도
경연
필드에
##쾌한
##년간
게이지가
휩쓸
조금이라도
프린세스
중견
안정적으로
TR
고개를
빙의
새누리당
##념을
팀에서
##족으로
레인저
모인
오케
학교의
저주를
인사를
##링은
바라보
병기
보자.
할지
제공한다.
##심에
학생들의
치고는
아랫
##례로
파란색
불어
##구장
##딩을
##환,
##불가
시작하여
의사를
토대로
2만
##소리가
생각하지
ld
노바
빠지는
재학
##정당
no
구동
드러내
프라임
##다!!
1세트
##항을
##고기
검은색
무작위
소집
##ari
취업
이라크
시합
지원한다.
##ode
흡혈귀
소라
##문에서
정원
장착한
써도
##열차
순서대로
뒤의
이루고
미소
##사격
되었던
올라와
1단계
##공에
우스
흐르는
##-D
토트넘
RA
##그를
존재.
##-13
스컬
알지
##용,
쓰러진
한꺼번에
멘붕
적들이
깨어나
좌석
##/7
능가
##롭다.
5성
저렇게
##작인
단어가
##킵니다.
이름이다.
발생했다.
##카드를
##맨은
묶어
받아야
확인되었다.
주인공.
##ition
복사
##였기에
지구를
현대의
##디와
ldms
##연,
상담
버서
##app
실력은
##이라고.
주니
없어진
속도는
라인을
Sch
든다.
##령은
갈색
주인공과
치료를
침착
공이
##/등장
부속
##'이란
성향을
모나
##혼의
서번트
걸리
##엘이
부위
##MAX
2단계
나간다.
##린,
##리아,
키우
오고
화폐
##계,
넘쳐
##글라
바이러스
벌써
별개의
##CD
전투력
백제
##아닌
니가
폴리
안겨
우치
##두의
이빨
##ye
다가가
##지거나
##급은
"너
여태
시작해서
깊이
매그
ldmsys
##타인
##소드
##겁게
다루고
본작의
##"으로
공원
찬성
통솔
##망의
미사일을
카카오
등재
점에
기껏
허가
해에
##주면서
1.4
애쉬
하필이면
병과
우두
##뿐이다.
Pl
##피의
나이로
Season
마유
##제작
주무
공격의
살인사건
대회에
세레
대상의
##00만
IM
5초
반동
##훈을
##ild
9시
##개혁
##어버린다.
남아있다.
할로윈
에메
##!?
무엇보다도
##음과
외형
Vol
팔라
##빨리
이천
##ail
220
엔딩을
종사
##쪽이
특징은
중국에서
##하고도
카더라
하여금
스위스
애용
##거의
##았다
##.2%
아처
이명박
급속
내셔널
스노우
##나르
재능을
어그로
청나라
박진
보상을
##매니아
부대를
숨을
##+2
##터에
##앤젤
깨닫고
덱을
참여했다.
역사적
대피
성의
##:1로
제라
실린
피규
그렇기에
시외
음료
##++
아르바
아가씨
##주자
##대신
##우스는
트윗
비행기
검토
'신
어렵게
좋다는
##졌는데,
##히토
##쿠의
가능하다는
테츠
발생할
조합이
받았다고
검열
위해선
준수
##론,
##았으나
중소
상태이
깔끔하게
역이
##들여
극한
Girl
##와이
보라색
PV
아자
의정부
초인
가져가
광명
타운
유지하는
소재지
후쿠오카
저렴한
섬에
##배로
되니
##텐데
실사
당대
도망가
표현이
##총을
어째서인지
뻔한
선포
증가.
일행과
암호
##범이
앨런
남자의
실려
암컷
이놈
##돌아
Or
태국
나눈
##쿠가
탐정
아마추어
##레는
BJ
제치고
##".
##-M
##세와
240
드러난
모양으로
전인
나타났다.
타이거즈
불만이
##때마다
이처럼
이진
팀으로
팔레
특화된
3개월
신동
##지사
아마존
싸우고
1978년
달라진다.
##중.
바텀
##amp;
시범
##리코
##연은
포도
스코틀랜드
바람의
로렌
##메이트
##전도
유틸
##쓰는
피해량이
##ier
쓰기도
Qu
황태
태워
드워
디스플레이
##수에게
DNA
##리타
충격적인
김주
소수의
##.E
녹아
점과
않다고
'고
##드에게
활용할
있음에도
##클레
월간
않으니
##수리
무엇을
선을
##커로
상대로는
좋지만
종류가
179
어나더
그렇다
주교
봐서
##이센
네크로
상을
##됨.
나뉘어
CM
##41
오른손
##,0
##군요.
누르고
"오
7.
불타
##택이
원래의
##이었으며
타이밍을
해보
##마니아
##하였던
##녀의
##액을
적고
자책
##조한
##량도
Ed
##테크
운영을
특히,
집필
##자동
오르는
##이나마
방위
##준,
감옥에
배울
재앙
않을까
혼합
LO
##항목
##up
통하지
##절이
꺾고
대의
뛰어들
중화인민공화국
최우수
아니,
##나에게
땅볼
##69
##는지,
2분
중부
직선
공격속도
TS
불멸
승인
AV
과장
연고
페어
상냥
not
손상
스텟
직전까지
남동
원작과
Fl
감동
##킬을
포착
##로서,
8개
어머니를
유니콘
##등으로
인천광역시
클론
허리
피난
운명
##구조
##시키고,
##-03
"우
##able
도서관
##졌기
##하기까지
##치고는
내려가
Night
##가루
무언가를
##무로
개념을
##어!
이쪽도
##해야한다.
주인공에게
김광
'S
##있지
11.
##CS
거짓말을
랜덤으로
아닐까
무료로
선수들
개명
##:45
보여줄
성직
##프스
과정이
순간에
아유
인간과
저하
되지만,
병행
대기시간
높지
안고
입구
아사히
##미디어
아포
만렙
##보컬
##.8%
몸으로
자율
##"라며
##리에이션
미정
섭취
이동할
섞어
동맹을
유저들
사투
속성을
모두에게
보여주지
##math
고고
다케
포장
인쇄
##코스
##년의
로스앤젤
눈앞
##해볼
##삼거리
플레이할
모종의
신을
초과
##만큼의
신생
##책이
FM
몰고
폭로
자,
##니카
##할만한
다리가
##~9
작품에서
해소
1974년
차지한
아버지인
흡사
출신이다.
##리스타
피스
오노
##랍니다.
EV
일정한
전당
##오르
Col
막강한
영원한
최정
##파일
##관계가
즈음
재배
틀린
본래는
캐시
아군을
준결승
단백
1972년
울트라맨
사용되고
랜드
##.7%
설립된
고성능
펀치
부탁을
##sc
거리에
여론이
사용가능
들어가게
남한
발사한다.
그렇다면
올라왔
가루
현상을
근처의
인텔
웬만
이야기도
##iel
그려져
리볼
방식이다.
OG
악화
적힌
주거
##ject
##스토리
##,#ffffff
##으신
##천군
않습니다.
개가
우린
살게
제목으로
찔러
##풍이
감이
아픈
전담
##있어서
영상에서
멤버들은
모아서
주저
##더니,
##준은
##코드
##간을
빌리
참여하였다.
##오피스
##오게
아니며,
수급
본능
포로
시험을
선박
타이탄
사라지는
##뉴스
공격적인
##ron
근처에서
##게,
평소에는
했다가
##-R
두루
핀란드
##EL
##건,
##-04
##유는
올해
##배의
공간이
아나운서
##았는데
##종으로
괴수
##실점을
사이로
주제로
##게는
바닷
##.....
그려진
##론에
면허
아울
화살을
여자를
##면은
장본
쓰이지
학생이
겪은
꿈꾸
못지
남양
##시민
##리츠
NO
##eth
메트로
얼어
##위와
사용을
##생물
중국어
Pre
##쪽에서
운행하는
다큐멘
##하자는
##매가
높이는
버릴
##코에게
이동하는
포함하여
슬퍼
기간이
##스테이션
갖다
몸통
측면에서
##주인공
암시
그리핀
정도만
신비
재발
##등록
##안으로
##견이
위해,
많다는
이익
인간은
그리하여
##나도
보이며,
악명
경부
##대고
벌어졌다.
30초
밀어붙
##화:
아슬
아수
##즈로
미소녀
일본판
공감
때문인
La
위험이
발명
이때부터
##불을
##채를
레이싱
줄여서
찍을
슈트
##ody
고대의
관리를
강아
프랭
공식적인
생명의
30년
##족과
작품.
그란
한양
##도전
믿지
항해
1세대
##들어가
##되지만,
우정
##하신
##층에
##마르
소환할
동북
토크
##희를
루비
컨디션
그도
밀고
##인드
항공기
되었지만
거점
##전부터
되었는데
드립을
인피니티
그루
인조
민폐
전대
카게
남학생
##환경
##행성
하므로
두꺼
확립
수컷
은메달
##층을
보이기
프롤
##우에게
넉백
##열에
##멤버
게임으로
비판하는
반대하는
보자
종점행
입힌다.
인류의
하나하나
신한
벗겨
에도
의회
#FF
격퇴
고아
망설
일본군
Op
가족을
빙결
카사
마력을
기숙사
성공을
대해선
고려하면
창을
초고
##:15
1975년
차이나
##중을
GSL
페르시아
바람.
##전에는
돌아올
전력이
오니
182
덕분
웃음
##시까지
와타나베
것에서
이후부터
아메리칸
탓인지
진행할
##그가
##학년도
3단계
##eah
공정
스탠드
테오
##Lv
모두의
상성
갔다가
아담
워리어
##하다며
등장은
145
##==
주장한다.
EZ
무언가
##린다
원로
절벽
표정
##료가
중동
안개
시작부터
오게
##질에
소득
후미
2017-12
초중반
듣지
##포와
##DP
미국에
유닛은
작아
평소에
토시
##DX
중대
찰스
등장해
부담이
선수들은
조상
##치킨
걸즈
유튜버
실험을
##오자
어드밴
##파티
##교도
##적에
녀석이
캐릭터들의
유메
능력치는
기점행
##전선
##렸지만
눈동
##버스가
##이에게
##편.
181
주변을
##따라
스카웃
##제품
이타
주입
이름만
4명
마우스
양반
하수인
##AB
##내의
말해서
##가인
##말이
tv
##각성
맞추는
적용되는
객관
##reat
면도
##사들이
미만
철저하게
담고
창의
##건담
대부분이다.
##요한
가사를
하나에
카운트
터지는
##.9%
아름다
버리
##집에서
예전에는
"내가
지위를
20분
##이다보니
바르셀로나
IC
호러
##저래
1점
##FL
강호
대기업
##녀를
신지
##으려면
개수
##실험
##재,
##아니
##라고.
'무
피오
동성애
##be
112
모드가
필라
PK
##졌으며
밀리언
사직
없기에
즐기
마쓰
##골드
대시
업그레이드를
##vel
도우
분신
##님은
##'라
2턴
대상에게
늘어났다.
받았던
몇번
종로
혼혈
관계없이
안산
강렬한
탁월
##aster
트럼프
##플라이
##선수권
전성기
간지
##거가
가령
##락의
모의
상황에서도
마이크로
##벌을
감추
열렸다.
필사
게르
##때도
관광객
도는
파편
다니엘
마물
트레이너
##올라
시공
필요할
제10
파동
세르비아
막혀
비교해
장미
훼손
##타워
강민
##검은
길에
장타
공포의
서울시
식품
남지
동메달
1970년대
변한다.
지식을
불구하고,
점멸
결과,
##브는
전작과
##이었기에
소원을
##mar
##츠,
원래대로
##임의
1976년
순천
입에
##스퍼
##볼넷
수술을
##왕과
유동
담당하고
장난감
원주
##우스를
##즈카
##패스
##.6%
등장하며
예약
이름과
둘이서
로보
초기화
연예인
평택
노릇
부실
쳐서
하프
않는다
##자연
##inal
엠블
명은
독보
승무원
##소수
문제도
1971년
60%
##포드
리처드
것들을
문제다.
수상했다.
코멘트
그리는
마일
##장에게
나기
작가는
궁극기
김병
##리아와
냉장
청춘
##두가
입사
만나고
##o,
##ult
미국으로
80%
에일
오류가
##만도
소속된
리스트
희망을
발견하고
사정이
CR
표정이
##-T
아폴
하느
##GA
재산
타이틀곡
출산
한국과
will
전임
##서스
이름인
입원
세웠
5천
터보
155
진출에
상대하기
Cr
구형
회사가
경성
작품으로
발사하는
가자
##맥스
경제적
시작했고,
'대
힘은
시간대
소꿉
##무스
같다
경향
뿐이지
##함,
검증
브론
각자의
요금
의원이
##련을
완벽히
##모션
이소
철갑
에드워드
이도
정도에
간파
##000000
##모스
##측의
##들한테
것이며
3rd
얻지
선택을
##62
폴아웃
능력과
##쓰고
##워하는
하였고,
무용
##시킵니다.
시켰
걸친
잡힌
##해.
##net
계략
##소.
##권도
소니
##세계의
급행
##운이
상대하는
##토에게
약점이
총선거
읽고
아,
##간이
있겠지만
아니며
빌딩
늘어난다.
Gu
군수
##풀이
병원에
방송이
버스를
##사냥
##노,
모음
##물,
비밀을
신경쓰지
문장
움직이지
활약으로
건립
lv.1
##의회
수준은
래퍼
멈춰
##업체
근거로
모빌
탐지
##두에
시킨
스파르
날린다.
팬이
그보다
어긋
##몬스터
1963년
와중에도
블럭
XX
##레븐
1.0
계단
이쿠
독립운동
##어스
정신적
1.8
컴백
##3의
원인은
##도라
망명
국내에서는
##그의
##뱅크
이용객
AL
영화에
미러
제9
눈으로
##와,
##DS
Fr
전제
##800
##되서
원수
양키
사회의
설정은
얼티밋
출동
피니
165
샤오
이래저래
과격
추가바람.
일어나지
벗어난
##o.
동아리
의도적으로
2개를
무방하다.
맡겨
##비용
##노선
맺고
인챈
경우.
구울
##진흥
노는
##0년에
들어보면
김윤
차체
조치를
사망.
##기자
임명되었다.
힘에
이리저리
사망하였다.
6위
홍진
도요
177
3세트
갱신
지루
##oul
경기력을
디자이너
크로아
##슬롯
자아
시즌에는
IP
추가된다.
"S
작고
##직에
오가
모션이
후술할
##여야
연락을
주머니
고로
벤치
개업
맛을
수확
119
##운동장
성격으로
하긴
##연속
사랑에
하면,
떨어지고
210
향하는
협상
고집
배역
호응
요격
##다로
나들
##데르
노란색
목소리로
도대체
##칭으로
대구광역시
열대
##원인
한계를
##패턴
##마도
##ould
프로토스
맵을
선정되었다.
수장
상대방을
보강
##꾸로
눈의
공격력과
##오면서
채보
종영
츠키
것이나
집계
민병
##중심
담겨
##플러스
되어버린
삼고
보여주면서
아쉽게도
후유
대학생
보너스를
에미
##.75
##슨,
다시는
안토니
선호하는
like
##돼서
8.
빌보드
생명을
이세계
5차
안젤
한강
##골로
##.D
##지지만
##이팅
너도
게시판
##때까지
설명하는
##활약
포지션을
2호선
##자리를
해당되는
##겠습니다.
청와대
##alk
달콤
##목에
첼시
박스오피스
방에서
##"은
보스로
크리스티
나라가
4성
비비
##이치로
달성했다.
노부나가
고맙
열차가
##기병
한나라당
권한을
여파로
##말에
상대방이
ATK
싶어서
만큼,
##극장
##거는
무제한
전수
하늘의
만나서
명으로
공중에
조명
##례가
의학
나란히
##스틱
##진화
이광
135
##C.
카가
보낸다.
주인공으로
##reak
마케팅
사악한
전두
일조
짝사랑
##티넘
없었을
진출을
성격의
보았다.
##모와
Mag
이끌었다.
##하와
기술이다.
스바
CL
앞으로도
2%
사슬
##.3%
충청북도
##BL
있어서,
NT
수신
끝.
제왕
뽑기
트랩
친구인
찾아서
한국판
깃털
우유
제약
들어,
##/L
##청이
##출연
마지
알기
데려가
박아
-10
##브레
비중을
내지는
추리
MM
##있다는
일각
플루
프랑크
요미
안전하게
쪽을
안드레
3초
주자
여기까지
한대
토미
샘플
마을에서
소환한다.
이외에는
정석
그렇듯
T1
##좋게
캐릭터인
##차이즈
3.0
방법이다.
TOP
많았던
청구
군대가
쓰이고
학술
루머
정답
##작에
거뒀
GK
##법과
화해
가면을
당선되었다.
두뇌
style="
직행
타치
하였으나
달러를
사전에
성폭
알려주
Black
울프
##아르
##ats
##프란시스코
##에의
단기
디렉
선봉
##애니
Is
흉내
1998
유한
인생을
유연
느끼게
so
섬광
아그
이행
중구
"지
##우로
주황
식당
엉뚱
조립
##블을
나비
MB
맡았던
물의
체코
##05
모른다는
블랙홀
오퍼
트러
##본이
오죽하면
지내는
출신인
실패로
후쿠시마
여유가
부분도
통하는
남의
##터테인먼
수업을
범위를
마스코
천하
##무지
1977년
타입의
몰아넣
박쥐
##ME
가히
iOS
임기
헬리
##43
##,5
하루카
탈환
조종하는
상단
Let
##~200
인지도
##인들에게
이어졌다.
따위
행복한
신학
사람들과
따라잡
동서
잔류
'지
##주의적
진행한다.
브라우
노말
컴뱃
##되었다
남자는
한달
디버프
논란을
트랜스포
해군의
북서
능력치를
말고도
선동
올라오는
##무쌍
1969년
단점은
여긴
용도
보러
무늬
미하
중앙에
후보에
실패하고
1권
배리어
우주의
영웅의
토마스
##미래
##/11
않았다면
단검
지을
##해버렸다.
아니다
##미즈
##필살
tr
스윙
활동했다.
라이트닝
##시나
##졌는데
나열
글자
앞세
목이
쳐다
언급을
떡밥이
재미를
기소
자체적으로
노래는
스트라이커
비정상
성과
안보
12월에
판매하는
공대
전염
로열
하나같이
다투
##서버
통화
##스파
103
##ull
나오지만
나서는
-4
역은
CE
미치는
키우는
##전용
얼마든지
Time
먹지
케리
김두
띄는
##텔레
1200
캠프
유사하다.
스타일의
##사이어
##처가
뛰고
이상,
방송국
'유
다비
가이드
제니
##주의의
크롬
고사
손잡
입는다.
능력에
지나친
제발
개발된
샷건
성사
#ffffff,#ffffff
돌아간
초등학생
저승
##나라는
소금
시기가
블라디
거꾸로
투기
간접적으로
도트
인정하고
타카하시
주연으로
세계가
나고야
위치한다.
상위권
##-G
확신
어벤져
재수
싸운다.
발표된
구체적인
않았지만,
협회
무시할
Fate/
재단
지킬
내며
정황상
예쁜
사용하며
일산
세컨
##ECT
콜롬
강동
딜이
섬멸
이어가
##혁이
신하
##적도
하츠네
##!wiki
1968년
##종,
##제에서
자리가
서바이벌
원형
유아
부분의
페어리
상술한
이의
권리를
한층
##미아
##해방
원작에서
머무
밤의
##주의자
티아
##/등장인물
감금
짓고
협동
성장을
극초
2017-11
소통
교향
돌리는
조던
EXT
강점
차원의
##수용
##편에서는
덱에
않던
노무현
에레
##기:
차량의
오세
테크닉
죽이지
##순환
버프가
##해선
쪽의
아이템은
텍사스
발목을
제작사
이용하면
조선민주주의
##맨과
##업에
##orts
병역
사임
##헤이
자신들을
'기
쿠르
유망주
의혹이
"내
##술이
구로
##하였지만
+20
프로이센
기지를
휴스턴
결승전에서
##증으로
현실의
과언이
추후
##ib
##63
보이게
##는,
학생들을
자기를
수비를
득점을
우즈
헤드샷
수천
시오
##"에서
요코하마
have
##r.
가라앉
재임
포텐
여러분
들어가기
##불명
묻는다.
치열한
진행했다.
걸릴
vs.
샌프란시스코
오렌지
정리한
##우드
할아버지
##uc
웨이브
올림
##파인
제국이
##도어
주의하자.
존재할
자유를
승려
지시를
##초부터
동력
먹었다.
생태
빨간색
괜찮아
시트
공교
"저
멀어
응답
법적
대회를
발급
##페이즈
##이야.
스톡
##마나
시작하면서
정밀
추모
역할은
작중에서는
연구소
쓰리
##롭게도
대쉬
지우
대량으로
여부를
만루
##경과
무너뜨
##구나.
결정을
로스트
유저의
##바위
불과하다.
받으면서
찬양
취재
##물이다.
경찰에
EU
[math
밝혀지지
##72
##테의
대학원
고장
미코
내부에서
정성
짧아
##했다고.
알아차
불안한
말레이시아
스칼
##청의
프로야구
모델을
수치를
인정하지
관계에
덤벼
비추
꿰뚫
맞물
알려준다.
기를
##오르는
생각에
3라운드
영화에서
가깝게
SU
도약
승리한
토키
수록되었다.
조직의
##속도를
못했고
따서
##레이트
리바
##기획
돌아오는
야마모토
무슬
묻혀
##상태가
반쯤
출신지
부지
모욕
WH
입히는
헝가리
카렌
##,000,000
독자적인
명성을
받았고,
디자인은
##BM
##ings
해변
멸종
로우
세우고
##공주
##ood
베지
츠쿠
이방
대외
##생.
관리하는
##류,
강서
내뱉
사과를
찾아와
3월에
날아가는
소스
##머리를
바랍니다.
말하지
마저
경기의
##디,
효과도
노골
만나면
복선
http://
엉망
김선
##in'
상승한다.
텐데
친애도
이벤트에서
GM
바쿠
운명을
##mmer
호크
구상
콤보를
##대결
도모
##me
##리히
휘하
안동
갈리는
1999
행동에
배차간격
주위에
추세
국어
##대륙
Gaming
박탈
석유
모험가
루크
##호에게
1차전
아르헨티
구하는
재등장
##코치
포인트가
6시
무시하는
배터
1/3
##냐,
가나
##각의
나에게
후인
넘어갈
띄워
스탭
에서는
무죄
##다!"
경험치를
버전을
고스
친구를
인정하는
걸리면
운수사
제품을
2021년
코로나
com
##ster
2시간
Ser
워커
트로피
카피
##티콘
물러나
##국어
제너
올려주는
오페라
말고는
곳도
노인
인물들이
해줄
닮았다.
##덕션
스카우트
보루
##황을
##야한다.
날에
공짜
공격,
아타
국토
발견된다.
야구장
##했으면
역할이
전투는
하도
수비력
평균자책
0.8
Your
##죠?
요즘은
##룡이
아쿠아
##.4%
##랑은
과시
대포
3%
가능하지만
글래
버스트
코파
편으로
##폴리스
아이의
목포
상시
시어
중시
##법,
##거지
##운동을
##베이스
##해지기
그나마도
연습을
찾으러
팬들을
명단
사운
만난다.
대니
플레이버
##쪽은
기호
뛰는
올라갔
명나라
언급되는
가족이
##류로
다짐
##모어
##하우스
플레이하는
물품
시선을
평창
버렸
패자
##-30
##았기
102
등장하여
별명은
##네와
과도한
가오
인원이
환생
아내가
슬픈
리자
웃음을
천문
##림은
낭비
마에
know
##마리를
그룹의
흐름을
뒤이어
##군주
서방
삭제되었다.
밥을
위치는
이단
##공,
않자
##대수
잘생
##ICE
길이가
날린
##호쿠
##to
셋째
##여,
정보는
여자친구
##소송
버전.
학사
##ple
운수사명
##졌다
RO
10월에
바닥을
합작
떨어져서
붙어있는
패치를
##효과를
##장군
Min
##슨을
너와
적극적인
메세
퇴치
차로
워프
라이센
이룬다.
##란은
떼어
해운
##해버린
일본을
오리온
싸이
캡슐
바이킹
15년
죽음에
"나는
민중
큐어
##였다
6번
마르크
무궁
인재
##~15
따라가
##고에서
##이라,
방어를
유닛.
변하지
사태를
##리라는
쿨다운
기능은
주파
##하였는데
장치를
##어택
있어.
번이나
팬들도
못한다는
LTE
낳은
우세
##해에
점검
##신문
캐릭터이다.
왕조의
진행을
재료를
결과로
159
##프레임
시뮬레이션
스콜
클리셰
방패를
빨아
상자를
읽을
유미
##원들은
문서의
모드에서
2차전
##하기에는
유전자
동년
호날
##YP
계획은
부대가
##비시
번갈
그만두
답게
탱킹
해병대
비스트
세상의
10시
##미트
시리즈와
##TA
일주일
정치인
손해를
맡는다.
EZ2
근로
대체적으로
마법으로
광고를
##가족
안전한
박종
얼라이언
##더라.
연달아
살펴보면
미지
들어서는
하치
보이지만,
##극을
당신을
비참
무기에
주를
##클릭
영등
문서에
걷어
로스앤젤레스
트랜스
자세를
##진한
##3%
##랑을
##든다.
쓰러져
레온
어디에
히사
밖의
전해진다.
아레
끝을
유저는
##61
돌아온다.
##:2로
지구에
##자다.
##!'
##팩트
##네이션
중반에
##리프
히라
한반도
연동
연관이
오비
동정
북동
피하는
영상.
머릿
2세대
돼서
후루
##투아
교복
OF
불평
최전
##yn
공손
동명의
학문
레이븐
슬슬
페르소나
갈등을
폐허
빈번
영혼이
##불명의
오른팔
죽었
때려잡
내버려
맵이
##패가
바람을
Of
지극
##타르
편리
##탕을
##봉을
##그로
광복
전개가
성장한
오바
##니스트
##버스를
##터스
카이사
2017-10
안된
##나가와
출석
뽑은
##지던
미루어
##카게
센트럴
자유한국당
움직임이
##디지
세계적으로
놈이
오딘
응급
자작
##슨과
##밴드
결의
클라이
0.00
본다면
개최된
농민
무색
플라즈마
일베
의미의
5인
하사
소비에
이글스
고의
배수
체력과
##ange
불가사의
고가
사각
가로막
제작진이
임금
적용되지
마하
##플레
##:05
골프
##정지
##판매
시스템의
멀리서
동아시아
상당수
##어버리고
파일을
리뉴얼
A4D
방송사
대명
##천이
유지할
재위
##히며
##귀를
80년대
섞인
##카나
##ict
##르면서
##ions
4000
거느
Play
날개를
뒤에도
기관단
##한지
전과
연구가
도감
다행히도
4기
겪고
사치
마지막까지
태도
편을
##.I
플라스틱
호감을
##.T
퍼펙트
몰아붙
##문화재
450
9.
왕위
##염을
뉴질랜드
증가하는
크라운
어서
##았는데,
##있다고
##이라면,
##러와
다룰
향한다.
여수
잘만
소속되어
##성군
##링의
갈등이
일족
##술의
##베리아
##-21
1967년
기다리는
이념
##그마
가사가
스페인의
모임
크래
추정.
##금지
##분류
##되었습니다.
##글로
마찬가지다.
곡.
성씨
드래곤의
Car
##하다보니
##구니
불릴
##할지
당시엔
고발
##'re
그마저도
없지
합법
강탈
언급했다.
못했
성배
##대구
##국제공항
다다
쓰였다.
##주자.
맵의
아이들
##지만...
씨가
##부지
##6%
계절
로고
몸무
폭스
말려
맹독
운반
out
##규가
흑막
하는게
선조
무지개
질주
##재료
진지한
one
##형.
##ann
리부
기쁨
##제이
##시켜야
선물을
무작정
일삼
활동한
이르렀다.
RE
괴로워
효율을
본체
##위치
수준을
분야에서
사원
수시로
심히
적재
3승
바론
박명
전장에
크지
충격과
빈틈
이익을
시점에
절단
루키
그랜
행동은
##조작
##당시
개인적인
미남
하나로,
맞았다.
꼴찌
하후
혈통
클리어하면
검정
내용에
##취를
##배차
##적이었다.
소환하는
리셋
장비가
BGA
도배
보르
중학생
##돌프
리즈
중이던
호랑이
##공과
##백으로
Mi
시상식
##요를
십자가
내용으로
후타
솔직히
##텍스
조선시대
연설
찾지
##희와
단장
친절
##는게
유머
먹여
명성
해독
##내면
##~30
패스를
레이디
역할로
싱가포르
ALL
군단의
약물
프레데
비로소
##교는
##받침
##검의
길이는
숙청
자고
브레이브
김성근
리그의
결제
서울대
출연하였다.
앨범의
붙어서
##듯하다.
의아
##타케
109
다름없
떠나는
방심
앞뒤
김천
소생
121
보스의
대표로
##lass
변하는
음력
깨고
트레이닝
ME
스토리는
##슈타인
김도
##CH
##빈이
##든가,
패전
도심
##찬을
유고
길다.
##리시
##특별자치
천주교
사용하게
미끼
바꾸고
바다에
광범위
미칠
키보
##차원
##크에
어느날
어렵다는
##새를
컸다.
##살의
임진왜
피닉스
문헌
실로
4.5
이인
##들리
항구
문제점이
축구선수
8년
행보를
##기면
따뜻한
늦은
문화재
공격시
발차
세로
##그리고
어찌보면
국가를
단점을
리버스
부끄러
##사라
발표하였다.
민주화
행방
##마력
중화민국
8시
주며
##agon
스쿠
덴마크
충남
무신
시스템은
##주에서
양도
##하겠지만
트렌
##HT
초래
상인
하이드
168
남겼
밑으로
바닐
동료가
시대가
was
여기고
돌을
사이토
##수준
##조정
내기
HE
장제
뛰어나다.
부사
##ica
##:55
감행
어시스트
옆으로
테레
스태프
게임에서는
나섰
여캐
속성의
헤라
보이는데,
요청을
문화를
뮤지션
##che
##ACK
써먹을
##퍼는
번씩
##후를
별이
##79
차에
##림으로
1948년
##끄러운
레스토
채찍
구한
유탄
##몬을
일꾼
거칠
시흥
[[htt
엔진이
발표되었다.
##LS
소나
콘셉
달라진
넘어간
퍼부
##습니
미묘한
##-KR0
##칸센
박영
안철
이번에
그간
##슬로
개발을
4월에
마족
118
삼촌
##한정
부대의
포터
플러스
##빌딩
0.6
##철은
저스티
-5
##버는
별을
페미니즘
부장
재벌
기준으로는
바라보는
복장
야만
1위로
3명이
3명의
측에서는
공교롭게도
정준
역사에
##왔다고
그들에게
현금
##값이
상대식
득표율
시네마
최소한의
물고기
리플렉
바티
##판에선
점심
주의를
벨라
불렸다.
죠죠
해가
##널드
1995
##.21
화면에
필드의
것이,
되게
##등에
레벨업
##erf
##커녕
발견되었다.
##금융
깨어난
멀쩡한
시킬
개발이
주민들이
##형제
성향의
확률은
보자면
않았으나
포맷
등장하며,
전생
나뭇
초기의
##운수
대법
타르
##일때
드레이
##연대
등지에서
##보라
플래티넘
##요의
스타일을
선의
##G의
##못해
있는게
나서서
초록색
##0년대에
본부
##아슬
9월에
입었다.
한해
맞출
##...?
##류에
수록되어
크기의
막판
##던지
성경
수단이
바람이
+15
보여주기도
진출했다.
현장에서
것은,
볼드
추출
우려가
만났을
7개
경전
지오
정해져
미소를
주에
##서에서
##제르
##카타
봉사
입장이
장로
##정도의
줄어들었다.
적합한
##었기에
11월에
남자를
제도를
##바다
구매할
터라
##또한
합친
##학기
시도를
##프랑
판매량
꼽힌다.
변이
빠지게
##있는데
목욕
##eF
Type
이전에도
알수
feat
명장
##화도
드러나는
세일러
##치오
패키지
로저
앞을
##자원
오디오
줍니다.
친다.
주력으로
아래에서
지정된
순찰
테일러
필름
중에선
붙었다.
서기
클러
##학은
유격수
풍부한
매니아
최종보
152
'여
날씨
아이스크
다름아닌
##요가
특이하게
##모,
##마에게
GPU
시즌1
구조가
뿐이었다.
##팀에
도깨비
브라더
너클
각인
하러
지원이
워터
##크루
등장하는데,
인문
1944년
사정을
##팀으로
##:35
##de
##코로
NEW
이카
연결하는
##음,
식사를
쳤다.
진행이
비아
출제
고우
여겨진다.
오더
호랑
##글이
Max
##불능
사람에
##클린
예방
##코인
1962년
화면이
##안,
##gr
오키나와
왕을
프랜차이즈
만화를
##되니
비용을
일으켰다.
메시지를
고종
금요일
##라라
남서
맞추면
걸맞게
##201
페르난
7시
SA
본진
pro
가격을
숨기고
상황이라
갑옷을
놀랍게도
무선
출신.
처리하는
루마니아
##일으
삶의
미국,
##원에게
127
펼쳤다.
낮고
##토미
호감도
장인
제11
현실을
##학이
걸려서
배웠
스텔스
표정으로
이하로
강하고
위함
##BB
TP
올린다.
전선
내뿜
티저
##레타
영토를
적용된
늘어나는
음향
캐롤
##가수
##볼트
사에
한국이
최상급
##배틀
la
혼인
유즈
1로
대신해
준공
##하느라
사육
##있다
돌아갔다.
##효율
알렉스
##orea
난민
병살
정해
빼앗아
나르
신흥
창업
##벽이
사진은
왔다
##지니어
나들목
##갔다
안습.
사키
위력은
70%
FA컵
딸인
입성
중에도
영상은
베어스
소노
2패
##살인
아슬아슬
##2가
타이완
##란,
깔려
애틀
로리
수중
##놓았다.
오쿠
111
2019.
동생인
맞추기
##점과
##세요!
미식
##짓을
어스
##미션
##란한
전속
없어졌다.
오늘은
실업
순위가
순간이동
위협을
##달의
107
##eep
소프트웨
봐서는
10000
발톱
시즌의
레슬링
약하다.
미라이
전지
원내
업데이트가
하려는
##신도시
스트리밍
##바,
먹기
배워
인질로
NHK
많다고
세력의
##그라운드
##해버린다.
내밀
11시
문의
신칸센
난무
실상은
서태
직통
104
에너지가
KBS2
원곡
주워
##니혼
##려야
캐릭터에
##노리
계획에
##광이
토지
오늘도
가득한
##커와
123
##바와
필두로
##oot
영남
오시
##시키면서
영혼의
데스티
##이라고는
연결된
넉넉
'정
배구
장사
수준에
이준
##차,
##[ruby][ruby]
양대
##역까지
##격인
가브리
김연
신곡
드래곤을
"여
##달이
불리기도
거주하는
재빨리
##AND
에메랄
트랜스포머
그녀와
대미지는
##야?
##86
##px;
##시엔
##사구
##냐면
시청자들이
##러,
더구나
##궁의
사용하던
하이브리
"나
##리치
활용한
안하고
추구하는
호기
혼란을
##작품
##보험
프로그래밍
1/2
미녀
##시도
High
추가되어
때리는
특공
##발전
안경을
##IO
올바른
1월에
315
퓨처
##캐슬
자격을
##주택
다이스케
CO
서지
인물을
지지하는
##았으며,
활용하는
재능이
경의
스기
베이비
MV
극대화
##오던
구성이
##자들도
##사무소
144
해태
##합니다
이후엔
아들로
##창에
크리스토
원인을
현존
면을
##축을
##백의
상점에서
##졌으나
마지막에는
##~201
##림과
##적이며
애국
##:25
멤버들과
마모
펌프
한신
오해를
연구에
3만
차용
##적으론
어울리지
##느냐에
##높은
공격수
파티를
##IK
3집
8월에
있다면,
장소에
분쇄
자칫
##여도
##하려던
마이크로소
고인
공존
보잉
파손
옵션을
야마다
##편은
정한
##nder
적과
도시에
##했다!
프리드리
1964년
24시간
##비아의
맹세
유우키
##베르트
##발에
부활한
##tern
성이
자유로운
본래의
신세
부채
주기도
##강점
나오며,
차지한다.
내린다.
생각했다.
시설을
'전
전광
티베
있을지
##파라
가슴에
영문명
##순양함
공산당
##바스
최순
끝내기
두었다.
상쇄
스네
필요없
나이를
##신인
초반의
표현한
풀린
'우
##요리
불리며
맥주
##트.
존재감이
##있으며
건물은
절대적인
##ough
넣으면
스콧
함수
급히
났다.
로테이션
1960년대
0%
측이
편지
##상이다.
##니버스
칭호
더러운
##결정
##ress
##해주면
당연하지만
3장
##하더니
Gen
일련의
1996
##치도
##중,
정신나간
수비수
도마
트릴
못하였다.
##anna
7월에
일하고
회사를
스토리의
5월에
얼어붙
LED
길로
방으로
휴게
##류와
카탈
마가
##혜를
##다드
상속
이들에게
##놀이
##토리얼
Am
BM
휩싸
의미에서
등장하고
Lv.1
부드러운
오클
스스로의
게이지를
ar
폼이
##더라면
##소모
선거에
무도
이쪽이
MSL
막판에
##분해
열린다.
케이스.
말리
부재
넣었다.
모양을
전차를
발간
어려움을
컬렉션
##강이
EC
##km2
동일.
##A1
##오.
##철,
게스트로
생각해서
과제
알을
##려던
수인
되었다
##했다.#
알렉산더
높기
그곳에
줄어든다.
직장
패스트
열쇠를
##하임
강화된
15분
1997
##후,
##테스트
공격과
중재
뜻.
신비한
중급
##록의
가능하고
자원이
7번
아름답
##칼리
##혼을
##삼아
##찮게
안될
##포에
AF
적에
파격
##**
##ott
스타워즈
파괴하는
Light
장소를
책략
의하면,
의문의
##골이
1966년
교수가
유니버스
'제
##토록
##님,
지내고
원자력
자부
공학
대검
붙이는
아이폰
그림이
##에너
##커,
몹시
불길
단련
##ring
따져
미쓰
웨일
까마귀
치바
IIDX
5명
교역
10위
작품인
도쿠가와
5개의
단단한
##함으로서
다음,
필요도
조각을
##부턴
##나지
##주쿠
##받기
1946년
GTA
자이언트
머리카락
"자
덴마
##나요?
빅토리아
궁합이
극우
##74
발전을
막지
극단적으로
유닛으로
카메라를
오스트레일리아
잃게
##테오
아무렇
후반기
귀가
않으나
##-25
다름없는
불려
##작가
부스트
모으는
음악이
가마
##보,
##갤러
라면
원래부터
##롭고
##지방선거
부동산
4연
자켓
가던
추궁
처리할
득표수
여고
인연이
전체에게
나카무라
강습
군림
##욱이
아키라
자르
##그대로
놀란
공격형
이때의
레코드
군용
복장을
측근
사랑이
줄을
걸어서
미치지
신은
##방,
리베
레이지
횟수가
소원
급하게
LE
##반은
자란
사용해야
##맨,
##부문
한국을
포함된다.
뜻의
미성년
알렉산드
훈훈
##어버릴
바바
키미
##idth
4의
발현
##이트가
불편한
값을
권위
##테가
##+0900
탄탄
##/A
우루과
통행
##방식
##we
##사우루스
내주
레슬
##카에게
버려진
##무리
##필로그
냉동
예의
##칸의
활약이
##그래도
##결과
##-JP0
조이
재료로
이례
만만치
즉각
타다
팔이
##라시
##빈의
위험에
이렇다
편이고
프로그램이
하행
##발사
##icro
TO
상행
상태에서는
테러리스트
##리케이션
포드
##less
##군사
아이템.
끌어들
휴대폰
스마일
예상된다.
잡았다.
탄환
명칭으로
M4
고래
현직
가도
en
##판,
##심과
승리.
시장에
물건이
소우
정우
캐릭터와
시리즈에서는
##리라고
맞추어
프로덕션
##케이션
사소한
따돌
스크롤
기록하는
32강
비단
함재
내일
면적은
분대
세리에
취한
##기동
친구들과
##청년
##갔고,
로마의
에볼
조항
필라델
성실
들어있는
##하자고
업적
유벤
##테스
한가지
참고로,
노선이다.
칭호를
더욱이
기준이
넣는다.
수성
##ERS
호출
레인보우
Par
눈빛
아니냐
중도
크기는
국내에
바리에이션
형식의
미친듯이
oh
변동
명예의
본의
관해
쓸모가
##천,
##무,
3위를
##새가
데뷔한
##이므로,
체력은
가능하기
주어지는
Heart
엘리자베스
동구
15세
상위호환
이끈
Blo
##대왕
2점
이어나
모자를
엄폐
##예를
비롯하여
##생산
##송이
기록하면서
연세
FPS
퇴역
##스터를
90%
닉네임
등장으로
것인
2가지
밀레
모르겠지만
아리스
##수아
Co
바그
##가락을
바뀌면서
##G를
##/초
##참모
발이
후지와
##i,
프로레슬링
프롤로그
##안과
##작용
하우
##ANI
##데스리가
불만
##교로
강력하다.
실책
##셨다.
'인
무식
짙은
##체,
외계인
적립
##-1로
불안정
뒤인
EBS
가면서
##운을
162
한정.
후면
BO
카에
'한
모드의
'모
없었다는
##/S
##~12
Red
공모
진행한
누워
소녀의
박상
흑마법
결과에
몬스터는
꿈의
삼는
##보자
유저들에게
운행한다.
드론
##만으로는
##팀인
##wh
가위
말까지
비치
베니
158
광경을
몸의
##벌이
스킬이다.
돕는
원년
해고
느껴지는
같아서
마요
묘지로
##지휘
민간인
J.
ES
##수수
졸업한
아리아
##원들의
##ics
너에게
##까요?
안성
##코프
도전과
##복은
못하고,
##이사
제목이
##엘은
컴퍼
첫날
7위
잠을
##그는
이루어지지
뉘앙
##어졌다.
##ater
에이전
들었
시장에서
나왔는데
의심을
싸움에
면에서는
##아래
##랑의
방언
심야
활동에
아르메
토론토
##밥을
고마워
하자,
자신만의
엄마가
##독립
정부에
IV
무대에서
일일이
고든
##라에몽
반성
해당된다.
##지옥
##린다고
조합으로
경질
쥐고
##하니까
##사령관
##란트
돈으로
리본
모던
프로토타입
가난한
신전
불러일으
활발한
1994
격침
106
설명할
놀러
그릴
Ste
+10%
따왔다.
펼쳤
혼다
##해왔
##림에
이르기
온몸
##령에
##방법
##말의
부모가
MK
졸업하고
에필로그
연출을
##홈런을
스타일이
시야를
##더링
역사는
은퇴를
스위치
time
##양은
##les
루트를
박혀
쓰일
##표는
##으므로,
##어버렸다.
미들
템플
##회관
자신보다
##렌의
엔터
기관단총
달인
2명이
명탐정
##감도
1965년
'스
헬리콥
빠뜨
##-L
##이트의
일본으로
조건은
1.1
##동시지방선거
리믹스
##후는
1961년
해결할
응시
1-2
##칭이
스나이퍼
여성을
화장실
말의
##UT
##리스크
지옥의
일제강점
카리
##창의
많으며,
양아
5.0
750
오른다.
이때문에
체육관
빠져나가
택시
산악
##4%
##gain
##inc
퍼시
##선지
나가서
금메달을
마시는
##규칙
오프라인
두근
한손
대중교통
늘어났
대책
쿠루
##2를
##카스
여기서도
시설이
추가.
항목에
순정
순양함
쇠퇴
##산에서
학교가
담당한다.
모른다고
섬을
##샤의
박용
마법이
승리했다.
##공연
##배,
코트
5.5
##입니다
대답을
키노
구해주
6월에
영향력이
원활
외면
치하
희대의
개개
##일수록
전에서
흥미를
요구한다.
나오고,
엘더
등장이
면접
피고
장탄수
오만
오아
있었다
아군에게
##가능한
영등포
묘사를
##쉬가
리스크
볼을
##등하게
##쿠로
뛰어넘는
##호도
##운영
##정류
Wii
##때부터
유튜브에
이내에
집이
놀이
이동속도가
신정
설정에
##적이라
##노래
김원
분량
놓는
다르지만
##유저
##기며
##모노
개국
조력
러닝
아카이
파키스탄
걸면
레시피
문서는
전국동시지방선거
외치는
클레이
##키로
원을
표를
부흥
프레스
2천
고기를
관장
패닉
살아가는
없는데,
##76
##나리
나을
##토르
##UC
떨어지면
떠날
원흉
##였다가
##기아
가설
부탁한다.
##공화국의
##자라
##편성
노트북
124
도리어
##술로
SSR
너프를
심상
대하는
일품
1.7
위를
##주공
이온
참으로
##증가
##토시
대한민국에서
성균
시기는
정하는
자비
찾은
프리드리히
나인
펭귄
도시가
일체
멀티플레이
윈터
정사
##하기만
기체가
공통적으로
##내고,
##끄럽
깨알
재산을
제20
흑역
##AF
##land
장을
##수원
쳐도
Champ
##ky
것임을
##8%
주장은
마계
타키
돌이
추가적인
끝나지
##ator
재활용
복지
사면
모친
폐선
입지가
고유의
##제일
사인
생애
채취
스크립
시기의
패배하고
오자
한성
인테
높다는
정치가
##노이
AG
죽이면
피트
##af
##ction
지어진
미션에서
##리다가
122
굵은
다음의
가하는
못했다는
나무를
##클리
1949년
인근에
공격한
사람이라면
정면으로
콤비
바꾸어
포기하지
헝가
##-0으로
달라붙
풀고
특이사항
내놓은
##irst
평.
옵티
친구들이
Tw
##-H
GN
공백
괴물이
유승
##"와
##든지,
의뢰를
##기구
마나를
뚜껑
프랭크
##리조
증발
저질렀
감독과
##!!!!
un
직결
##블릿
진출한
출전한
차가운
0.2
어머니와
것인데
본선에
##야스
##모니
케이크
##림,
이름에서
##귤러
모니터
##이서
##자리에서
##산화
등장했던
소설을
HARD
수에
##커니즘
##순이
사관
합쳐서
히로시
할리우
##오니
내외
이화
메딕
실루
일행에게
숭배
직책
에버
##것에
패배했다.
지대
소환한
플레이스테이션
타점
투수가
##감의
##마침
##OID
페이크
##타고
장면도
독립을
늘어나고
코이
##BE
##경으로
##요."
지속시간이
2초
거리는
176
박수
야외
직후에
비자
완화
쿠니
프로그램이다.
##기보다는
없이도
벚꽃
무리하게
본관은
##때로
##뿐인
어느새
휴먼
노르웨이
만들었
성전
우천
##산과
관리가
미국인
상당수가
쉴드
엔트리
##ONE
등장하였다.
없었지만
포인트.
박정희
졸업식
내릴
밀집
이들도
자처
부족으로
일으킬
산탄총
마을버스
구도
흔적이
BEM
##했음을
7대
As
Baby
제국을
버릇
제프
쓸데없이
##좀무
김구
넘사
망치
부처
##종과
##콤보
##oss
##사우루
강을
일환으로
홀리
넘기는
그랑프리
건다.
착지
경찰은
튜토리얼
##목적
5만
##행으로
##업으로
##책임
https://
평안
시작하고
권리
기자회
호노
##ern
오의
KTX
##드릭
화염방
##01
관련하여
3에서
박재
녹화
Lv상한
서열
정형
##나에
##다닌다.
시기를
##네요
프로그램의
##AE
내리고
가의
##티에
하지메
0.9
##듈럼
LOVE
##원들을
##맥을
면제
##미스
추가적으로
기력
##회담
크리에
##트론
여는
##초교
설마
후한
##였다면
유용하게
세상에서
##어?
완성된
보살
요르
주시
쥐어
##질과
2015년에
참가했다.
수호자
친목
않더라도
인상적인
알리는
올라갔다.
업데이트를
달려들
##크로스
전적이
보이는데
디아블로
투고
##나면
##-22
감소한다.
압박을
##직이
설정으로
버블
순간이
##92
죽이려고
발칸
교체되었다.
청룡
기록되어
다큐멘터리
##시키려
회사에서
스탯이
치안
뮤탈
수만
##층은
2가
##방송을
기괴
안도
##노우에
들어온다.
이렇듯
냉각
##킥을
삼성전
돌아가기
##사실
츠카
사람.
##계에서는
12,
다룬다.
지도를
호르
##메탈
##바지
메이커
롤링
카우
##탄과
영웅을
수행하는
##학에
자리는
업그레이드가
노릴
가창
방울
설상가
##셔서
태극
곳의
연루
##ium
취급하는
동물의
익숙한
트윈스
잘못을
##거다.
받고,
아님
현장에
##당하기
전투력이
혼돈의
따위는
##박쥐
붙는다.
접수
않았으며,
생명체
처한
질병
##분간
국가에서
중심의
10여
1~3
겪는
시부
아냐
편안
--
본관
피닉
레벨은
유스
MO
도라에몽
벌였다.
신세가
감염된
개칭
내면
##능력은
왕족
저기
##08
한편으로는
##티오
로컬
끄는
나레이션
소재를
##게이지
보고는
쌓여
구멍이
문단
분배
정권을
분이
관점에서
쇼크
유난
일레븐
시간도
영어를
##마리가
장갑을
말그대로
##트에게
뒤로는
구제
인디언
now
선언했다.
##원이다.
대서
바디
이전까지는
어레인지
재즈
##지에게
BEMANI
##답지
중국은
석사
##테츠
장소로
무녀
팀과
진술
##다만
##attle
깊게
낮아서
게임인
권능
김명
협조
패키
##학교를
레이첼
자유의
##ush
군사를
연기가
##든,
마코토
##돌파
##가르
역관광
3164
se
심하다.
자기도
##이닝을
챔프
##스크롤
3성
때로는
아래는
말하길
출전하여
니코니코
나타나서
잔인
평화를
화면을
왕좌
##사진
##답시고
것이니
크로노
방공
찬스를
##줘도
무기와
일.
입양
시간동안
Fire
넣어서
##아스
##리니
0이
따라,
중심이
공포를
이창
키보드
맵에서
비꼬
시인
##링으로
2018.
죽이기
있다.#
##7%
국군
박사가
엔지니어
##무기를
##/16
##BD
대차
시간과
목표는
까닭
워크
##교차로
획득한
고도
세금
외모가
##절로
##빵을
불문
138
배치되어
이복
"당
골로
말만
발매.
남편이
##효과가
소꿉친구
A4D4
##유,
광주광역시
Korea
##.23
에스파
인물의
힘과
##있기
내정
DM
뒤통
잡는다.
무지막지한
시절을
영국에서
돌연변이
친분이
##에다가
대다수가
쉽고
주기적으로
주어진다.
차는
수평
##힙니다.
le
캐서
서독
제지
싫어한다.
거두며
역에서
비춰
##ins
무리한
허무하게
사격을
##공단
계약이
##'도
두가지
##격투
##스트,
빠진다.
##현실
일본어로
젤리
킹덤
##-23
돌려보
말라는
##소프트
유로파
크기를
##키에게
##명.
환자
라운
박찬
캐릭터들은
애니메이션의
##다던가
정글러
북극
OK
주고,
Good
##리지만
의혹을
미미
시조
U+110
대량의
##패의
원피스
##ount
##디스크
찌르
##하자면,
##FM
&#x110
라우
받았을
있듯
쉬는
주가
나누는
끼어
마디
다음을
##있지만
도쿄도
구체적으로
주도권을
Sm
꽃을
##움의
##red
표현하는
##eng
##메르
김대중
신입생
등장하는데
참여하는
남성이
사일
이루어진다.
비중은
부담을
지었다.
평론가
##좋은
생산하는
답을
장동
##-E
##요?"
##군단
'비
대대로
##방위
##ution
##터에서
녀석은
생겨서
종전
STR
보복
치며
스틱
2.4
이것저
##댄다.
명중률이
거야?
열었다.
업적을
##자리에
배우가
Dark
퀄리티가
장점을
애니메이션에서는
확인하고
댓글을
여겼
자격이
제약이
##안타를
feat.
이호
진동
마이크로소프트
##머신
중국이
##주년을
지역구
받았고
##다니며
레버
##니클
##어지고
총괄
##에르
운명의
위치로
아이템으로
춘천
데미지도
1화에서
해를
세계적인
관리자
팩션
당나라
##는가?
아이템의
##시켜주는
일본과
마음은
카토
##프트를
##스타의
주먹을
냉정
##청은
11,
서정
##해버리는
애정
펜듈럼
포크
##71
GP
Sun
그쳤다.
##스트림
경찰의
악기
포션
What
문서가
##리스와
안무
중국과
Live
##승으로
없다시피
##-EN
##문서
공개한
아울러
##애나
##대도
흠좀무
##III
오브젝트
4경기
성벽
에인
부진한
1941년
느낌의
정재
##노벨
중성
##우먼
자발
##73
##탄,
##명인
지극히
특허
##곡인
#000000
##차와
플레임
평범하게
03.
##면과
분야의
Rock
의원은
연막
현재까지도
목에
자손
문제점을
분노의
암울
##양으로
##2동
후보를
상성이
사용하였다.
색상
한숨
늙은
알렸다.
알려주는
##ady
레벨에
##ube
일종이다.
##스터의
소소한
##가이
##OCAL
##IE
실루엣
##근을
##겨서
##잖아.
Kn
급식
뒤틀
##목으로
좀비가
##발,
##캠퍼스
여자친
홀드
공격하면
건의
개그맨
명백한
##점이다.
3배
기대할
생략한다.
하스스톤
PL
캠퍼스
DR
##웨이트
2를
친선
흥분
##세포
전작인
함대를
##리그에서
치우
##94
##&lt;
도망쳐
친하게
카디
시체가
강해
##십자
3개를
사수
지각
##91
##통에
##시간은
내로
뛰쳐
하라고
공화국의
CN
전동
필연
파랑
수행할
재밌는
전설적인
얼굴로
##ART
하기에
일원으로
##ert
길거리
짧고
형상
##상태로
저서
전자기
천년
학년
결국에는
델타
피드
##클로
잡아서
살라
칠레
못했다고
방정
신조
승급
시작하자마자
LCK
생각하며
코드를
대한항공
건물에
베이스로
아랑
##충전
아델
이야기의
사회에
다해
##물인
비어
달래
유리하다.
베이스볼
##:59
위협적인
##고교
마징
활약한
내비
##D의
베리
즐거운
##때문
동료로
이곳을
구하러
##타임을
넘긴
##회와
##복무
가능성
도시로
카밀
추기
좋아하고
##타우
정체불명의
3단
극심한
조커
##회장
이미지는
Can
리퍼
따른다.
##대학원
##라이어
2루타
불리고
##개는
것인가
분데스리가
피카츄
개연
형이
보스는
아깝
개화
##적이라는
냄새가
AB
##백만
기타리스트
때마침
여자는
되어,
##계약을
농촌
마술사
사이보
##내야
제휴
무장을
언어를
##이지,
단선
##통일
순위를
신상
상용
대신,
2016년에
##양,
벌어진다.
워너
것만으로도
떠오르는
패밀리
농락
축적
추가되는
아직은
조직을
##나온
설치한
안에는
행적
##m의
##블루
바꿔서
디비전
만들지
당시에도
0으로
##진에게
마시고
의사가
##방과
##인해
위험을
건물의
필라델피아
대왕
아틀레
1940년
살기
##전인
1일부터
DJMAX
습격을
숲의
충북
테니스
This
부리는
홍준
##테라
꽂아
대역
타지
##집의
앨범에
어플
가족의
뒤덮
똑똑
샐러
대상은
적절하게
못했을
##말고
HP를
2권
##월의
맵에
##헤드
씹어
아바타
무비
##적이라고
공허의
넘사벽
##돈을
소유하고
3호
성공하면
2017년에
메갈
뿜어
##한게
##받던
이동이
일절
찍었다.
전쟁으로
타우
최후를
대학의
갔다
증가하고
##대학교,
##도서관
같지만,
지날
##브,
주장도
바다의
##한테는
##new
둘러싼
인력
캠퍼
ARM
적어서
##측에서
##use
기념으로
남았다.
116
멤버는
이것저것
12시
제19
##other
반경
##감하게
갔을
요구를
기피
대령
아루
힘들게
남아프리카
16년
2월에
겹치는
들으면
##락으로
진행하고
4~5
##도니아
2면
##하듯이
##쪽을
능력의
기반을
지선
나루토
단말
라이너
tvN
외로
중간중간
HS
운항
동호
##비서
Life
적들의
##히면서
##프로그램
차례로
색을
##거리며
강화를
수치는
##측은
Summer
코요
대결에서
일컫는
드립이
##혁의
기수
도와주는
보상이
##->
##GO
있는,
오늘의
마마
##인만큼
##주군
##싸움을
한마디
몬테
소식
소비에트
활동하였다.
무엇이
용량
없어.
##크레
114
혁신
beat
장편
2014년에
다툼
서초
##-24
5번째
말하면서
반감
##습니까?
인간으로
대각
배에
병사들이
일렉트로
전투력을
##준을
##색과
후예
회피율
##air
파괴할
낮게
##파이트
외야수
개발에
달걀
##행에
사용.
##하로
##9%
유난히
버스가
불쾌
나타낸다.
해결하기
나이트메
넘은
##margin
영동
##연과
##에서나
못했지만
##는데다
데뷔했다.
프로젝트를
태생
##상자
바뀌고
합류한
'소
Bo
마누
##시드
##급,
203
간략
왔을
초능력
ADV
Sy
미끄러
나갔다.
성기사
##함대
##목은
##반응
노선의
17년
2세의
4명의
많으며
1943년
컨셉을
거래를
##왕국
문화가
라파
죽자
손톱
벌이
저술
행사를
2D
쌓인
논문
우리를
원문
##찬이
테일즈
본거
##주의에
반영한
BC
강타
지역에서는
죽어서
좋아한다고
묶여
울음
##범을
파티에
##현대
가급
격리
##일지
##/15
편인데,
##형이다.
##구성
##려다
대학에
올라가면
But
남쪽으로
염려
윤리
우는
##ors
장학
쇼트
선수단
출시한
6성
패치가
##그와
스파이크
##충이
입힙니다.
2.3
보기는
##톤의
시청자들의
스토리에서
환경에서
"I
칼라
어디로
##복의
Dance
상황에서는
복용
양보
하였고
##아이템
계곡
원망
##학부
#2
동탁
시점이
##된다면
##까지,
제국은
전이
172
서명
포병
보기도
포탄
30대
딱딱
맺은
서민
좁아
인형을
회계
##쿠니
패배.
보정을
신세계
##나오는
##구멍
것이다
현실은
떡밥을
스미스
빠지고
버티는
혜택을
##파리
4:
망원
##장치를
##학과,
##idth=
1일,
아홉
왕은
해도,
워낙에
과일
입체
정조
##차지
확률을
가격에
//
##사이즈
캐릭터들
네놈
않겠다고
못하다.
이야기로
역대급
0.7
HK
광물
스냅
웃으며
한발
##시대에
루리
속도도
증거가
교섭
의지가
#!wiki
퍼붓
단체로
포스를
아오이
양호
수익을
지구로
내려오는
스트레스
이블
##바흐
존재는
있을지도
구분이
##vol
기사의
VOCAL
러셀
못하며
무리를
영역을
##ittle
##드립을
넓게
구성하는
5시
동래
해저
유력한
묘한
Music
편한
##GC
닉네
렌즈
영상에
야기
설명한다.
표창
151
##속은
종료.
모르지만
#ffffff,#dddddd
사슴
156
주변에서
퀄컴
죄송
차남
유저들도
무실점으로
##궁을
연상시키는
기체의
접어들
##폭이
1942년
##란과
신축
##역시
타인의
영향력
헤어스타
느리게
입힐
Blue
1위에
못지않
##성인
1개를
내구도
##기계
am
수험
다르지
예전부터
BBC
경쟁을
##ally
최약
##득점을
변경된
스윕
##렸는데
##멋대로
북한이
시장이
##50%
이해하기
지팡이
##선도
중추
한미
무너져
범인
여자의
##2로
유니폼을
열람
아이러니하게도
세키
웨폰
174
버티고
세워진
연금술
앞면
포식
홍성
##/24
가슴을
사회에서
유유
카무
##제국의
[math]
놓아
본사
직업을
것의
발동하는
##ERO
전도
but
설탕
터렛
##우에
NP
단어는
박사의
##료로
리그에
순간,
동참
연기한
구석
##미츠
##렸다
사모
출구
##비어
전술을
퓨전
##워크
이기지
쏟아져
2억
르네
서해
조조가
##몬과
하려면
##부족
이적했다.
3.1
고베
##수입
담당했다.
사용하기도
##범의
개구리
럭키
전전
동조
결정되었다.
외모를
명인
떠돌
비명
##편이다.
##해보자.
##UR
자유자
바란다.
왕실
##직원
바로는
타입:
다중
##결에
##버리고,
그레이드
사스케
마음으로
건가
##애가
던지
##더,
스테이지를
2위로
일행의
2화
포효
언급한다.
트와
##숨에
휘말려
만들면
회귀
스테이지에서
##세인
드워프
아들의
투하
아내를
탄생한
피해는
파워를
##행위를
##레드
2,000
반항
지중
##1로
##연방
##이라면서
마법사의
임팩트
보스전
CON
공습
사건과
좋겠
##는가
오타쿠
OB
세츠
##아.
능숙
없거나
강해서
박경
get
때나
심장을
김형
파도
하이브리드
오피
외래
자기는
행성의
8위
발악
##보와
##번호를
클립
##졌지만,
##슬을
꼴이
##게.
사출
'시
고산
##개조
UI
에피소드를
센티
펜타
##클래스
각오
##당하지
문서.
아쉽게
살이
영감을
직속
후반에는
성우인
20초
차원이
급기
다이너
부려
의외의
하거나,
##나라를
담임
작곡한
이보다
현실적으로
성대
사기를
친정
##오오
미묘하게
2/3
##적일
승무
##초등학교는
체제를
SCP
1주일
대고
윈드
##변속
모델인
성인이
##패,
6개의
일러스트가
파스
##불이
결국엔
유럽에서
TE
##비도
스킬에
Just
방송된
##reen
데이빗
UF
덩치가
미세
변속
입국
천지
담배를
당하며
##ual
##반,
##접한
이해하지
style="margin
신호를
2에서는
디에
##렸으나
113
엄격한
맛있는
일격을
##대회에서
##주기도
##리그의
1958년
관통력
스켈
가능했다.
박물관
후로
용맹
##을,
2에
아이들의
넘어간다.
바다를
소극
감히
##서비스
선보인
날은
##라인을
##하였을
일례로
Lv.4
범죄를
내전
피안타
##미네이터
보스.
책정
Don't
줄리
##비나
좋아하지
병원에서
지켰
파우
15일에
한가운데
매운
소모량
불륜
세가
출고
##랜드는
빅뱅
신작
레스
패왕
세상이
##모에
##ons
동갑
느낌으로
2주차
학위를
##무대
##S의
시를
만들기도
아내와
인접한
##58
반격을
듀오
루팡
하남
##팅이
##주고,
su
남발
때문이
##버섯
용자
언급하는
들리는
ab
도망치는
장점은
서치
지점에
엑셀
자진
점거
염색
역할도
갈고
단숨에
어쌔
용기
품은
##아에
##히어로
밸런스가
유비트
정전
##더와
##진다는
전쟁은
##ational
##목의
벙커
반역
유영
처분
드물다.
혼동
##계승
##즈에게
##기면서
아프리카TV
원정에서
##렌이
속을
액체
무슬림
바뀔
영상의
아침에
브론즈
공세를
시장을
##맞은
##스터가
6.25
##'란
부추
코디
만회
스커
##반도
##버리기
트위터에
방호
##있고,
일본,
조영
후안
##지이다.
장소에서
그닥
맥도
드라마의
##riend
안타깝게도
제작을
기간에
만하다.
##회로
아버지에게
김택
광탈
디버프를
물약
강수
4.0
지크
부평
피치
##피로
가솔
빼고는
##세력
만들었다고
중국,
김영삼
김정은
20개
끼어들
수락
타일
노블
안돼
것이므로
##뜩이나
비슷하지만
1954년
이마저도
이후부터는
웹사이트
프랑스어
전통적으로
마르코
부과
나왔는데,
실천
호전
##가이다.
나섰다.
아니므로
선택하면
##스럽다.
구입할
이이
스릴
죽었다고
##UE
야마구치
쿠라
148
살해한
희귀한
런닝
부품을
사이트에서
철저한
고리
사탕
다이나
츠루
드리블
수소
전개를
주위의
건재
사정으로
나오자
프리즘
Over
결전
상기한
##격의
##걸이
##atic
4승
고안
마타
164
한타에서
사이타마
속이
채집
##화학
초반부
퇴출
싸우다가
##이름
정립
각기
발광
번호는
아줌
1천
끝내고
명단에
모닝
선구
무기인
제목을
사찰
##해머
은퇴한
##카에
일어나고
처참한
문자를
전리
##산역
##황이
##경험
포켓몬이
##vs
##으니...
사장이
팀명
역()은
성에
자각
규제
노선으로
진단
##차고
존재하고
쏠쏠
##방향으로
##ivers
3세대
독을
행적을
선택하는
시너지를
대도시
##한은
무장한
##움에
이루어지는
때때로
##[]
하늘에서
동로마
##4의
쏘면
타서
##프터
##쿠와
선택이
볼륨
아멜
군데
특훈
표방
##퇴근
##지므로
##더스트
##업은
세컨드
유신
장소가
돌아다니는
하도록
##쉬의
변경.
얼굴은
순간적으로
대대적인
불분
##라니
Pv
끈질
##aj
"마
##물에서
이것으로
##한다면,
카니
파수
되었으나
염두에
당첨
대행
2013년에
의문이
##평균
노동자
스튜어
##동네
가뜩이나
호세
161
##시노
##rain
day
스완
신념
출몰
허리케
스토리에
형태는
퀘스트가
##놓으면
금호
신과
운영체제
돌격소총
전에도
##루살
##2%
##샤가
만나러
자위
##립스
##물.
반지를
휴가
##.31
담당한
콜롬비아
##유로
##감,
입으로
태블릿
필드를
##그린
장원
중국에
펼치
##슈퍼
집안의
사마의
지역이다.
강철의
축구를
##부분이
겁니다.
풋볼
블리자드
가와
##거에
저글링
FB
우승한
"미
FL
포커
만큼의
터질
Out
공격.
126
상태라
사내
"A
대타로
##각으로
##교,
##우러
받던
##엘라
TW
출연하는
소대
##파이터
문제와
기록에
뭐,
##황제
##itch
##라면,
쿠바
편찬
시작했고
2012년에
상처가
##인수
##헬름
꼽히는
3편
애를
##2는
Power
나미
훈장
##귀가
돌릴
법한
제재
##바리
생각으로
명령에
교회의
갑작스럽게
아이는
##규의
어이없
김창
이만
병을
재난
함경
김치
하는지
117
최초수록
후려
##층에서
시즌은
설립한
레이저를
동안,
통용
##인듯.
##가니스
##-b
개발자
보기에는
VOCALOID
중상을
장점.
비교할
걷는
탄을
MX
갖는다.
##마.
##거진
##표로
로그인
Sec
강대
하지만...
사실,
Af
탈락했다.
사이에서도
환경을
Win
동료를
컨셉으로
##예선
대응하는
교실
대여
롤러
빠졌다.
드러내는
높다고
높았다.
드레스
편이며,
일러스트를
UFC
굴복
작전에
##내는데
인종차별
##열은
확인한
MLB
북쪽으로
넘어갔다.
임페
##아에게
대사로
SL
길가
##고등학교,
루피
않으면서
잘려
비타
총으로
##택에
경계를
노비
양을
여왕의
타나카
수정되었다.
항공모함
높아졌다.
북구
Dis
번식
시작되는
멜로디
우두머리
밑의
벌금
읽는다.
무릎을
just
버림
상금
없으나,
데뷔를
일당
##기라는
현실적인
전장에서
##멘탈
이동한다.
증거를
##루살렘
줄일
출근
캐릭터다.
139
처녀
투수로
수단으로
맺어
벌인다.
동계올림픽
##욱의
술에
##갑을
삼성전자
어딘가
IDOL
엉뚱한
'진
UC
앉아서
중상
##게임을
등급이
크로아티아
'공
홀딩
##트도
플레이어블
말소
원숭이
승리의
##어찌
굴욕
있으면서
다양하게
돌아오지
기체를
츤데레
##았지만,
##...!
하수인을
##브와
Mon
##들이는
153
공직
##어인
##왕,
기사에
홈에서
가축
지배하는
##건과
덕후
솔저
제목의
결론을
##식품
##되도록
점프를
진상
남성의
변장
않거나
##워커
연수
미국을
새로이
찌질
##리학
감자
월요일
남극
독일이
고조
요시다
##구도
2017.
변신한
간판
나왔지만
준비한
##미술
거리에서
1을
망한
시집
내용.
School
##-F
이용한다.
박준
단점.
2단
밝힌다.
세탁
킬을
##TC
그라운드
유배
##야에게
##잡을
기성
대표가
BD
밤이
숫자를
##산동
서킷
돋보
서울의
이동을
연말
우월한
리우
대적
한탄
승리에
굴욕을
크립
군대의
숨은
포함해서
끝장
마리가
마디로
##1동
송출
의식이
국가에
소녀가
Res
무거
어시
코마
명목으로
공익
주민들은
1956년
드라큘
At
El
가문이
2500
CEO
##자:
우미
입히고
조르
##let
320
그립
말하기도
주유
포켓몬을
더한
무빙
163
스타트
레바
상관이
들러
뒷받침
뭔가를
치르
##몬은
##부분에
1939년
사례도
전투로
예정이라고
많지만,
##ina
문서로
줄어드는
소실
##bo
드루이드
들어와서
몸은
제주도
what
덱이
측에
존재하며,
##용과
##연하게
줄곧
이누야
경고를
설도
콤보가
세월이
웃긴
잠들
근거가
인질
경기.
스폰서
멀쩡히
다저
장군이
##다녔
분량이
이상일
낮추
최장
##료는
##엔진
뿐인
스모
부모님이
모으고
허위
않았는데
OPS
키는
사용했던
Lo
무겁
경력을
##보도
##샷을
띄게
Ep
미도
##경영
맨시티
정신적으로
안그래도
즐겁게
거부하고
기반의
드러낸
스킵
주체
##량,
옮긴
주면서
##했다며
아니냐고
보통의
쿼터
만나기
타격이
##퍼드
국가는
##투자
제13
피처
21세기
Sing
달빛
장르의
초코
해임
유대인
존재했던
보우
싱어
표출
##VER
한국에서도
"T
김희
감소,
##점도
##양과
영국과
보호를
##란에
몬스터.
8번
빨강
침해
대패
정동
Di
모여서
성적으로
유저들을
따지자
보던
손아
##마켓
##나시
fe
##놓을
##씨와
로버
##킹이
설상가상으로
미국에서는
##카즈
것까지
적들에게
한몫
##아라
중2
##역.
선택지가
카를로스
##rist
구멍을
계속되는
##ield
경희
자리잡고
역사의
정렬
나타나지
##주의가
가다
독백
치루
##로지
홈페이지에
##소스
가상의
우메
포기한
나라는
달성한
엔딩이
놓았다.
늘었다.
틀림
##고등
##tr
주민들의
교통사
4분
이데
2018년에
손자
##나갔다.
제18
해주고
안좋은
단번에
##-X
방과
취하고
신뢰를
편이며
##04
출연.
던전에서
가슴이
"난
##느냐는
정부를
아프가니스
멘탈이
무장이
##aid
##anch
신화의
강행
##순으로
제15
손꼽히는
빼돌
##티,
##구.
##쿠리
파괴된
새겨진
좌파
후궁
##검이
사망하고
일으킨다.
세트를
화상
##하려다
지칭하는
##아이돌
패트
사용하며,
대한민국에서는
소환된
'부
대통령을
##토벤
휘둘러
황후
Leg
999
꼬리를
스킬인
되었기
알고보니
테마곡
제작자
놓치지
성숙
사리
벌여
독일은
입힌
했는지
활용해
와인
추첨
항성
##하리
한복
1타
1에서
무능
##버스는
##면허
발견할
구마
다뤄
방침
생겨난
##거,
##집니다.
##공격이
갇힌
인류가
Rec
떠나게
성당
행렬
고려대학교
바꾸었다.
균형
##남의
공통점이
레스토랑
있겠지만,
작정하고
##매는
진행될
PVP
반환
아니니
대목
자유자재로
활동은
이곳은
2세는
MR
왔다고
증기
세계는
173
시작.
딜레이가
죽었을
##렉트
사르
##냈고,
##둘러
준비가
세미
성균관
이성을
유해
##잖아?
"우리
관하여
이과
##무와
스크래
3천
밴드의
선물로
##평이
##척을
##인이자
심사위원
초점을
알고리즘
시가지
욕설
판을
그렇듯이
##으로서,
무너진
배송
테스트를
사쿠라이
포니
살해당
##인듯
##도.
프로그램에
균형을
##구단
##턴의
대학교에서
열등
##ret
바실
공명
##atale
직업이
높으신
라인전
##캐스트
존재감을
##태의
벗어나지
##맛이
인구의
속박
선교
##레스트
등장하면서
촬영을
##.50
주장하고
154
기준을
트러블
1티어
마쳤다.
머스
12년
기억해
분리되어
##블레이드
스펙이
섬에서
운운
무게가
변질
관련한
배우고
기운을
노이즈
지름
##ty
휘두르는
빚을
엔딩에서
에어로시티
##A가
공격도
걸어가
##시키는데
박해
에코
##증에
##/이
맺었다.
메일
회장이
일쑤
등장하기
언제든지
날개가
마에다
노래의
잉글랜드의
##대부
##급에
주식회사
보였던
##에가
플로리다
##층으로
다이노
King
한지
한정판
다니며
구간에서
##교육을
안테
##핑을
##리카와
피겨
Femm
18년
악용
장의
##는지를
##턴이
##연구소
조선민주주의인민공화국
앨범은
억압
##던가,
삭제된
시즌3
리모델
##디아라
Gold
인도의
꽃이
##죽을
##액의
사범
예루살렘
VR
##령,
##학과를
사상을
##전함
##살에
슈퍼스타
슬리
##탑을
night
기하
샤워
작별
##융합
유소년
"B
공포에
시리즈,
##버렸고,
배로
창시
나날
편이었다.
##평화
게릴라
146
프로듀싱
잔혹
독일어
활약했다.
분위기는
확정된
어찌어찌
애틀랜
절규
##쳤다고
A3
바주
슬로우
이르기까지
EMP
위주
키르
보너스가
MT
튜닝
##사전
체력의
Mod
놀고
일개
지상파
배경은
##olog
딸의
영화배우
지났
##프레스
##-29
유타
호박
가능해졌다.
스파이더맨
YOU
결정했다.
방문한
슬러
것이지
그렇게까지
1개,
피신
메르세
고를
코타
##마리의
##빈은
걱정하는
석방
'성
도미니
턴이
토착
소녀.
히드라
##실히
보스인
##나간다.
##먹는다.
##부분을
##태는
시작하게
발리
설명한
리츠
벨트
포토
##폭풍
아포칼
man
천둥
프로모션
퍼포먼스
Miss
퀴즈
퓨어
##백화점
병합
창당
방영되었다.
+0
한명이
30일에
히데요
##A,
1959년
##하우
##퀘어
벌이고
범인이
얼핏
최선을
출신이
함정에
없이는
sm
##독을
1992
나눌
'도
멤버들을
김전
주전으로
##고.
입어
만났다.
##라로
시신을
##다닐
##ke
게임과
군사적
피라미
##찮은
산화
##트럼
이츠
##키타
##먹기
##?"라는
아드
##기로는
학생들
불에
높지만
확연히
멜론
##02
생기고
좋고,
서술한
남미
#1
중일
##,7
불안정한
되돌려
먼치킨
와이번스
걸리지
타이밍이
행위는
내려온
높아진다.
마우
##라고는
회복한다.
자연스레
군대는
바이크
쥬얼
국산
##요소
보답
1952년
6대
##움과
상태에서도
위엄을
FemmeF
키쿠
FemmeFatale
컨테이
데는
하늘에
걸맞는
슬래
##려다가
0.1
##덕에
동안에
인명
##/9
이윽
일이었다.
##비언
이노우에
1947년
모범
수명이
C.
무단
전교
정은
##무에
왕국을
'내
##키스
중국인
궤적
남는다.
어떨
##@STER
만들고,
아닙
TH
불필
인기는
죽어도
제리
##소울
산소
후자는
한국전쟁
루미
많다
산성
##하므로,
대진
##베르토
부대는
섭외
징징
##온과
##편집
##주의와
리부트
사오
암살자
믿어
여름에
아벨
"모
##ouse
'M
##예가
##경비
신성한
휴식을
밤을
원천
귀를
코치로
장난을
##래가
베네수
##승이
리프
일러스트레이터
개구
자잘
##스페
##대인
##칙을
선수.
기본적으로는
set
독이
브레이커
시야가
하기로
일본식
'수
if
곳.
##광을
사랑은
잭슨
공지사항
거제
##elf
강력하게
}}}
힘들다는
알프레
테리
##급한
##맞는
마을로
무한도전
제멋대로
청동
필사적으로
팝픈
'일
167
기차
어둡
157
생명력을
입히
복싱
##게리온
쌓은
거세
옆의
##엔터테인먼트
##렬하게
##카제
발동이
맞아도
연상케
학생들에게
채굴
컴퓨터를
미군의
성추
속도와
꾸미
식.
신들의
액셀
S레어
캐나다의
우타
우승에
소모가
것이라며
씨의
예가
우연
하겠다고
DX
우츠
팀인
##드려
벡터
살리기
손바닥
타노
에일리언
통보
제도가
##총리
##+3
##품은
노숙
누르
따지고
미로
베토벤
알아채
나름의
5,000
엇갈
강조하는
카드에
음악은
고분
인트로
직격
##중에는
패치에서
아수라
사역
외엔
##ony
나온다는
말장난
성은
##지도.
피해자가
모델이다.
토네
하지만.
있었는지
라인이
치뤄
##측이
정부에서
결혼식
그러고
아부
##쉬는
데에는
스리
한국어로
미래에
비례대표
3권
End
교수는
선곡
덱의
연이어
MASTER
착용하고
기량을
중얼
##row
구르
협의
##놨다.
서비스가
보고,
유능한
치면서
3주
왕으로
엔진은
남해
서남
변명
전작에서
스네이크
##왕에
##환과
등장,
하드웨어
SV
코바야시
서울에서
나가고
찍힌
20일에
##''
출전했다.
들키
울려
환호
능가하는
"가
적발
1년에
AE
치른
왕위를
입법
점으로
##고쿠
여기에는
열려
영미
초토
##충을
171
길은
더럽
여배우
##민에게
높고,
삼은
카시
클리블
"The
도메
코스타
최하위
깃발
산다.
##탄에
동료들과
괜찮다.
링컨
웬만하면
갈린다.
로제
질풍
##치기를
사례는
멈추지
##탈출
콘스탄티노
진성
##"며
##.60
당시,
디시인
##'인
기간동안
데스티니
팔라딘
빠질
저주받은
뜨고
그런데,
리그를
타고난
카드와
##위원장
임진왜란
내주고
심어
탈옥
##덩이
주장한
예외적으로
Rem
내어
애정을
조수
아우구
슬라임
Che
자금을
하겠
검의
위탁
출루율
미셸
서북
어워드
##다',
달려가
나라에서
##행은
항목:
좋았다.
##해!
##pl
애매하다.
그제
시초
역임했다.
피곤
##종이다.
##야하는
##안에서
??
눈물이
대도
축에
활용하여
멈춘
파인
있을까
진흙
쪼개
호흡을
Ab
육체를
돌아갔
온건
##수산
##/30
2타
맹활약
##오닉
1955년
##라디오
제12
마인드
타락한
사우디아라
유세
이문
이스트
##됐던
각성한
"정
##메시
##집단
꼴을
배치된
길어서
든든
울고
포함하고
##루트
군을
범위에
##언정
선거구
성명
손흥
외치며
S.
모드는
수령
얼터
수수께끼의
마야
애당초
올리면
모델링
스케줄
달에
동봉
사사키
태조
판결을
다양하다.
진행되고
값이
상당하다.
친구의
받았지만
1턴에
왔던
직역
달콤한
스팅
정명
좀처럼
카레
회사에
없도록
방화
##신.
볼넷을
신천
4명이
시위를
연합군
우아
키즈
##리터
##치고,
경매
생각도
인간에게
폭이
투표를
2010년에
엔트
##ane
최소화
BT
##추를
노르웨
네코
방면으로
윤석
##았으며
매력을
##치료
방해하는
되어버린다.
만화의
3화
오징
스트레스를
2로
적색
##옷을
제이슨
국방부
오재
전념
비해서는
우편
##A는
이기면
오늘날의
##무니
##룡을
문구가
파악하고
별명으로
지미
적용되었다.
날을
호리
##해한다.
##적한
서쪽으로
대학을
슈가
키운
##작.
이상인
Ord
##.99
수영복
작중에
##ORE
Sound
링크를
아에
필요하다고
환경이
안치
##항에
사용자의
슬라이드
칭송
코다
##판인
프랑켄
전성기를
##것과
##하다가,
오토바
넘지
말,
카운티
결혼한
불완
활을
1이
다단
복귀한
대우를
맘에
##연장
"무
CCTV
개인이
전학
인간형
무작위로
그놈
대표되는
##RAM
듀엣
얇은
##이시
루프
최성
##vil
씨는
##족,
##ze
입자
##보건
##es,
밝히고
보이면서
근본적인
비명을
##버스의
한번씩
어제
더러
유목
이유.
##ecial
뭐라
토로
##투로
사례를
레슨
방금
손실
붉은색
릴리
지자
Cat
얄짤
협상을
##이다!
있다고.
펼치는
제공하고
임관
##훈과
맡기
직업은
##구르
##여름
제한을
눈치챈
후속작인
본편에서
에반게리온
'하
##ny
1988
보호하는
어퍼
##애틀
조금은
##G가
##상도
Li
섀도
줄이는
부하들을
경기수
BAS
두께
구성을
직원이
찍으면
##데가
##버스로
모티브가
##데미지
'다
14년
동쪽으로
주장에
투자를
학대
RAW
결별
방영한
하위호환
9위
수강
시궁
죄수
##메의
빼앗긴
Air
##개념
##죄로
##하였다는
##HD
##플을
마음껏
망했
열정
##달을
그런거
공의
별점
점수는
헬기
1990
비즈
실패한다.
02.
주사위
##엘을
친구로
불로
이반
##으라는
예선에서
##코올
센서
기업의
##토로
등교
음주
맥락
##ENT
무공
별도
패한
인정받아
기간을
리포
성질
싫은
집결
이윽고
RC
느껴질
어처
육박
사냥을
것들
나한테
번은
정유
회고
지역과
클리어가
리볼버
##가요
서로가
##아버지
싶어하는
버젼
웃고
내서
동생이
저스티스
1시
북유럽
지식이
퍼뜨
##>,
##혁은
화약
##공격력
시너지
자민
##/14
##렸으며,
주변에는
스테이터
단역
질러
지나면서
주장하였다.
명확한
놀아
대격
박격
파이트
##차트
디오
##요원
류현
##!의
가능하다고
유치원
도르트
버거
복수의
언론에
어깨를
사의
타협
진영의
빈도가
##하세요.
##망에
인터뷰에
간격
오인
다니고
펼쳐진
앞마
맨유
징계
출퇴근
##-200
Art
아르메니아
대잠
뾰족
안전을
있음
휘하의
심화
집정
간격으로
모방
총에
카부
패배한다.
토탈
회의를
##93
효과에
못하도록
스노
존재하며
평가받는
2세가
알비
게재
전태
한때는
성질을
돌아서
대화가
몇년
##처의
나타날
하드코어
Hard
안되
정진
복음
코카
2011년에
##구경
##리어스
패를
##황의
##할수록
##않고
##나들
한국으로
리마스터
옮겼다.
##.A.
조폭
도시에서
존댓
##리어가
##탄으로
골목
##ars
처벌을
믹스
엄청나
승부차
관악
되겠
실정
책은
살았던
지정한
청산
##런을
##드나
##는다는
230
과정에
사극
고토
짝이
##파르
스타팅
윈스턴
##었습니다.
콜라보레이션
##판.
목동
파산
제17
장착된
승패
라비
들어왔다.
나온다
어려웠
줄이
166
반응도
1953년
당당히
케네
임요
부자
##패치
내륙
팔찌
액세서
조나
캐슬
20,
되어있는
인성
군대에
가든
입지를
##.70
애플리케이션
가방
김세
##다...
묘사되는
스탯을
##팀과
시청자들에게
뭔지
'너
임창
시스템에
붙잡고
Hy
##분석
2명의
입에서
##베가
##코르
[[]]
수단을
넘어갔
겸임
왼팔
##길에
##정부의
##살로
##근의
대체할
주위를
형님
##반으로
결승에
인가대수
쓰이
패미
권총을
마리의
부합
##P를
발견한다.
3호선
가구
신임
포털
월드컵에서
대인배
##라이즈
##이지.
스킬과
가까스로
좋았던
깡패
김씨
먹이를
알제
##테는
Ke
두어
##공영
경찰청
잃었다.
제레
'세
루머가
청원
만큼은
대전광역시
It's
모빌슈
우드
##스럽고
미도리
버전에서
##끝에
With
가리는
줘서
칼럼
##ness
첨가
##모자
##개에
기술에
이루어지고
탑재한
구장
요시노
초창기에는
가변
생전에
어렵고
무엇인지
다니던
"M
몰입
##티코
성격도
##ana
부모의
##ORM
달리고
패트릭
##RO
헌신
던지고
공간에
##하단
##기엔
##폭력
##캠퍼
탁월한
선거구에
기타사항
주제를
두지
주한
2루타를
여덟
1919년
생기면
컨텐츠를
1-1
의미심
중요하게
모험을
타면
##데의
박힌
짐을
페인
지하에
SO
아픔
재조
##보통
이미지로
##만명
'저
##생은
##피해를
관련해서
수복
준우승을
.2
브루스
있었다면
15,
완수
타게
팔고
##끼리의
성공적인
공개했다.
기억하고
에피소드는
지휘하는
불과한
겪었다.
식이다.
사건이다.
환경에
용기를
##루미늄
덮어
복귀했다.
리턴
살았다.
학창
##까,
##규는
감전
현행
##품의
마자
이상적인
재해
크로니클
##ren
##담당
Boy
##병들이
##록이
##호텔
초강
##돼지
오리콘
튼튼한
##토끼
이야기다.
종류는
지정되어
월등
평가도
구해준
동창
이관
##급인
장군의
##하였기
우주선
배후
찢어
##'라며
공세
임의의
동생을
섬식
##행동
구급
신드
아이디어
요미우리
나가지
대타
부풀
산을
##건으로
눈치를
밀리지
밖에도
제후
들어선
우리들의
병사들을
사천왕
라미
살인을
'C
글씨
##사이다.
##곡이다.
6%
로비
맞춤
캡콤
힐링
미션이
화소
운영이
범위는
귀중한
이러면
상위항목
경로
밀라노
장비는
지력
##내기도
인정한
밸런스를
도르트문
##돌을
'최
VIP
미르
유포
보고서
##거니와
##arm
우주를
분류된다.
Elect
시장의
입게
방이
펼친
##티와
##rand
##돈의
대학에서
6000
기구
맞먹는
도호쿠
##요일에
##ALL
역설
##본의
##직업
대회가
##.S.
##1%
원한
##소환
##왕후
거슬
전차의
왕비
저상
첩보
혐의
받았으며,
하였으며,
것들은
리코
변함
##경기가
CT
T-
##고자
방지하기
부여하는
깔끔한
디트로
##집은
경기였다.
App
##녀로
##질수록
징크
카일
##스라는
##회전
##철을
정의의
공사를
라오
##시킴
교단
누명을
속삭
##KO
1세의
가치는
최진
280
게,
##공산
##출한
##on,
하지는
##선발
영국,
1개의
5의
##해달라고
##~11
##곳에
##rop
밝고
법인
송병
흘리며
15:00
##omb
아테네
시리즈로
드러냈다.
김혜
##지오
되었지만,
과거가
전방으로
don't
달이
숫자는
확정지
뭐라고
##혁,
2016.
미완
관절
##화하여
소재가
2009년에
쇼와
내용과
데뷔하였다.
지나가던
동영상을
문과
첫사랑
마법에
싱크
##준과
##기본
##곡,
시네마틱
있을까?
마스코트
물량
좋다
##교에
예전의
책임이
##84
연세대학교
금발
합창
지원하지
거뒀다.
컨트롤이
맞아서
받쳐
법원
##여자고등학교
'B
9번
싶었던
차량으로
기여했다.
유나이티
견제를
진군
황제를
##시다
스폰지
꿈이
##카쿠
142
기술배치
가족과
대비해
모형
##학교에
분야에
악성
요우
충실한
나가면
회사는
2는
미스테
##전력
##있으며,
본디
##총독
블래스터
지명을
##물질
플레이로
레이나
무명
형을
##아로
##확률로
##간다
꼭두
온도
키스를
##가기
지면
##해지면
##노프
팔꿈
편에서는
##레와
12개
##컨대
앞에서는
##그레이
조심해야
사나이
청량
돈은
도망친
소피아
초회
붙여서
줄었다.
시애틀
##,000명
##!!"
SHOW
##시게
드러낸다.
생존자
도검
매진
편인
끌었다.
낳았다.
개인적으로
3시
기밀
##사항이
발음은
##이었다면
데려온
표기는
경신
잔인한
단계에서
스케이팅
##마사
일격에
무궁화
서류
오즈
##봉이
일러스트는
없음.
##appy
마을이
데서
앞장
맞으며
코가
##카드가
공격하여
못하면서
않았으며
과학기술
조종사
##ello
##이었다
핸드폰
근원
차세대
미야자키
구독자
라이징
떠서
Skill
상에서
출연한다.
타치바나
말하지만
##bps
안드로메
준비해
모드.
소개하는
##행의
시드니
##IST
##버릇
도시는
세계대
이치고
위치에서
했으니
거슬러
군산
고려해
1주
단식
폐지되었다.
##AG
교내
넓고
동요
콜드
박주
캐리어
파벌
25일에
##루에
##욱은
영지
2008년에
2시
DB
예시로
중위
##타에게
##유지
##강에
사랑해
##돈이
인류를
일가
##순위로
바쳐
재혼
카더라.
표시로
포함한다.
'T
조현
world
자들이
##통의
플레이에
정벌
##안군
##기이다.
##무네
##빠진
땅이
받았다는
잡아야
##렸는데,
구성원
흘려
##03
132
음악의
서적
알로
커넥
EM
레닌
대법원
스테이션
Arm
격차가
올리기
깨어
솟아
아이들은
두꺼운
관동
기마
뭉쳐
차려
##술은
##ery
기쁘
판다
##ward
일각에서는
버금
표기가
조로
멤버인
5~6
잃지
효과적으로
##평가를
종족의
대두
릴리스
바란
존속
여주인공
GR
가운
강성
이겼다.
##눈에
구조로
##해주지
박병
만들어내는
인과
펠리
연구하는
"고
##성장
##본은
미스터리
##몬,
13,
Run
썼던
##러로
미유
미즈키
대답한다.
##누마
##욕이
##있으면
기술과
대표적
날아오는
줘야
빡빡
##곡.
공휴
빈사
##잔을
달라는
많아졌다.
단자
미라클
낮지만
대박
##나갈
정치인이다.
수식
양현
##피탈
폭발적인
혼란에
답변을
만년
소서
##남이
##남자
143
밟고
방황
##-이
##투가
##온,
활약하는
7.6
인내
파워업
효율적인
2.1
SG
불확
테러를
##액이
서스
씁쓸
한글명
스칼렛
경량
##과정을
번째는
그걸로
박세
하코
##주.
정부와
지구에서
뚜렷한
##나갔
##스톰
떨어트
제1회
효율적으로
'불
4세
조지아
##너와
유래한
##코에
내용도
##s의
##검찰
시간대에
40분
"사
2:0
대위
떨어지기
폭탄이
##준다는
##스부르크
##asy
가샤
##욱,
##버리면서
누군가를
마나가
충성을
프리미어리그
WE
간선
농어
##oid
대표는
이어지고
장면.
프로젝트의
창고
현실에서
담당.
공유하는
설정되어
삼진으로
파기
##놓는다.
##렸다가
지방자치
장착할
간행
재보
드러났
애니메이션을
바쁘
4th
단원
산책
참가하는
압살
최근의
1914년
조인
처리가
광선
던질
온전히
편도
15초
자기의
동료들이
긍정적으로
스몰
한중
##종료
##열,
역임하였다.
시절,
사회를
종교적
##~40
##ning
성격.
이즈미
가능해진다.
쓸데없는
본질
오디
##ient
##M@STER
선에서
##다간
##이었다가
260
##증의
##-아
##테루
270
목소리는
픽업
개념은
죽음으로
##상태에
포즈
탈출한
유고슬라
격렬한
줬다.
미니언
pr
공속
김인
##동원
물리학
중시하는
우선적으로
대부
아킬
이해하고
로딩
##장이나
공동으로
4%
책이
등장해서
소환해
전반에
급격하게
쇼핑몰
원이
촉구
##~~
결정한다.
편이지만,
##규,
굴려
스이
##더로
벗어날
득실
Cy
영국은
폭발을
Da
봐선
이론을
제국에
이닝을
비교가
부수고
Song
정문
직전의
견인
##군인
동안의
4가지
수사를
위화
전기를
us
말대로
화신
스피어
바르셀로
중년
난해
브란
오스카
147
동료들을
재무
포로로
##확인
중국을
고시
부활을
양산형
코끼리
압권.
일진
참가자
세션
행동으로
추종자
알겠지만,
##재와
고생을
손수
시킨다.
윤종
##해왔다.
##증은
133
운행을
141
만들어져
가르치는
리카
부터는
##등은
애들
앤더
##56
##더에
채우
##que
##br&gt;
난폭
동문
성격에
가지지
과정은
대관
티가
성능도
규칙을
폼을
##거라는
##play
중점을
지친
'에
간이
느긋
하고.
##ely
코로
##표의
##노에
##영에게
149
호는
이상할
프랑스는
낡은
무대로
앨범이
1.9
이형
두번째로
##통제
"C
따라서,
10번
이펙트가
아르바이트
가다가
가지가
1920년
연사력
루이지
만료
미워
천마
라이브를
##왔다는
##였는지
결승에서
광양
발음을
##인민공화국의
수렴
##마니
##페어
모델의
태그팀
버닝
황당한
##느냐고
바닐라
검사를
##52
129
복면
본인을
전설이
남구
승천
알루미늄
펑크
송파
일직
조합은
정이
피하고
파격적인
소리는
스와
다가오는
##사령부
5:
이었다.
제로의
##기간이
방향이
열기
##수나
능력.
들린다.
성기
##하세요
귀찮은
천상
차이점이
##보며
시즌부터
포함하는
장면으로
사료
##넣는
제이크
EXH
1칸
죽었다는
2개가
인터넷에
성공하였다.
##-27
01.
앉은
평도
활약할
조직이
그리스도
드로
업계
와이어
"제
미시
전자는
잠복
##day
눈치채고
##운전
신청을
의상을
만드는데
4호
원격
이따
##발매
차이점은
##우주연
##TER
느끼지
B.
##근,
본편의
동대문
28일에
Comm
해밀
formula_1
##ship
교정
뿐만이
식스
제대
슈퍼아머
당분간
차지하였다.
사정거리가
바나나
실력으로
##위원회의
쓰러진다.
출처:
저널
졌다.
##사자
소설의
나이지
##직으로
마이애
패러디한
고백을
MD
짧다.
쓰면서
##쳤을
A,
수라
재계약
선대
소유자
가미
야당
##령과
##삼국
&amp;
없었기에
삼성의
이들과
풀이
장갑이
##질러
발매국가
대승
어중간
##저와
섹시
지배를
자잘한
NX
선천
##들었다.
##되긴
느껴진다.
##이어서
여신의
철회
정당한
돌아와서
차후
관련해
먹이
유년
##왔을
보여주기
U+C
채울
##오에게
전작에
독보적인
RS
##워진
인체
양식
지그
##화되는
##술에
20만
어지간히
돕기
우마
인식을
되어도
점령한
포세이
##트루
제시한
하의
주범
##감치
안타까운
쉐도우
어휘
한다며
자사
친구들
"D
베가
##코.
설명에
버전에서는
시도하는
총알을
Im
구석에
수녀
하나였다.
기록된
특성:
##지니아
순서로
##렌은
정치적인
3종
푸는
진을
판단을
조슈
137
장비의
신경써
출마하여
볼리
질이
##오른
차분
##생,
##랜드를
가차
##스탕
매스
에덴
전세
현대에
##게시
신한은행
뻥튀
동남아시아
"전
당의
백악
이계
##하든
독일군
쓸만하다.
1군에
당하면서
나왔고,
발키리
##텔레콤
식별
판매가
예정이
취하는
##일랜드
1위는
행방불명
갈릴
의거
재미가
초사이어
도입된
##르노
1957년
교수의
동물을
마테
##해야하는
##업자
##관인
무협
밴픽
알았던
##매매
하라는
##광의
철도역이다.
##미사일
선도
필살기를
도널드
착수
##선택
##레아
##-26
원인으로
입맛
야구를
##올로
일찍이
원전
형인
작사,
탐구
편이고,
##저,
##co
##말은
영화로
지금까지의
제거하는
했다면
##있는데,
##랜드가
몰린
허구
후진
##루에게
##런의
때보다
대회는
투표율
봉인된
작화감독
일화
뭐고
미인
비밀리에
라그나로
슬럼
Not
눈은
법학
사용되지
있을때
이펙트
단절
줄은
##서.
발매했다.
지키지
구하고
해볼
후렴
프로세
기겁
136
쓸어
##버거
##래를
현실에
'동
하와이
##시작
##보수
##일라
##비히
1951년
스타일로
공천
줄줄이
1936년
표시된다.
쌍둥
##묘하게
##erm
1938년
아끼는
침대
##니트
##82
규정이
빠지지
상태인
싸우다
무난히
막힌
친밀
##tra
여자아
해야한다.
라이드
작성한
2007년에
열차를
화합
달리기
##정도는
벌어질
신촌
##ham
배틀을
운용하는
하네
##cl
국가로
음악에
미래가
##스킬을
##끈한
기계를
왕따
1,0
미뤄
브라이
실패.
도미
커먼
횡단
유리하게
생기기
1점을
닿으면
피츠
##직은
자신에
호프
##실록
##oud
보고를
설립되었다.
착용한
바쁜
##제인
way
##민주연합
리나
저가
##P의
순수하게
우파
##주의는
2.2
마른
애드
전적으로
##부대를
##+10
예상대로
리쿠
의장
##먹었다.
못한다고
##경기는
떨어지게
특수능력
충분하다.
7th
초등학교이다.
무의식
목요일
성지
##하기엔
보였으나
근위
오드
아이들에게
Str
와서는
##경쟁
She
세균
169
사이트에
알코올
커비
##~"
풀어주
카운터를
몸무게
보았
없다!
유진
클라이언
##너,
##박물관
5층
부상이
경감
##ump
저도
유저를
어쌔신
3위로
문구
잡혔
번만
재결
떨어지지
NL
타니
10일에
불쌍한
##대며
제작되었다.
##집으로
##its
이어질
무게를
처단
##주의,
깨달은
가지로
고치
뒤바
##의원
##죄를
##위원회가
꾸준한
나서야
브라질의
야전
##트레이
##D를
기타를
##아!
##org
대륙의
깨닫게
공격하고
오마쥬
정신력
힘들고
단단히
솔라
초필살
##총장
아내의
붙어있다.
날라
잔여
##드림
수준이라
##사태
##우니
F/L
막시
타석
##FT
##미지
##M의
브릿
사지
##시.
##폭격
마츠모토
3,000
고추
##됐을
활동하던
빌헬름
프리즈
##ift
피에르
Pe
중원
##하셨
만약에
연락이
강해진
내면서
승리한다.
달라서
역에
진나라
흔적을
도입한
발산
##ERT
무대가
진심
부여한다.
느낀다.
개미
성형
##보안
##디자인
평가하는
세자
'조
9년
머리는
토비
6차
기각
사이에는
플레이어들이
지켜야
임상
무기력
비교해보면
소중히
효과:
정크
##감소
##or]
##만큼이나
챔피언이
알파벳
##vent
아쉬워
로스터
송도
발라드
##명도
##해지면서
##레스의
심플
관해서는
치렀다.
##정상
##팔로
Big
Battle
뻗어
##빈,
##주에게
하였으나,
살린
세력은
형태.
앞둔
초대형
이승엽
거예
보물을
유니온
경과
##무도
색깔이
고스란히
해본
##퀘스트
그리스의
##53
##89
대신하여
작업이
바비
공격하기
좋은데
느낌.
장타율
마포
시스템으로
새겨져
Top
스캐
줄임
화력은
경우의
기간은
싸우기
위협이
매복
##되기에
매력적인
의자
자료가
붙잡혀
다르기
신라의
##어:
##노키
합류한다.
기운이
퍼시픽
오가는
##라인이
4층
줄기
##점프
공채
대전이
모을
##시즌을
내무
1이닝
에리카
##하되
##ATION
##라인의
열차는
비아냥
위시한
##레이가
천체
CB
동전
발휘한다.
##부상
##짐을
증상이
##시즘
##왔고,
친근
케이지
##ious
##대비
##하였지만,
도색
##시키거나
뷰티
자살을
접한
햇빛
병에
허브
취급이
이르렀
##Fi
추대
포럼
폭력을
리눅
이로서
##만과
##사라는
고령
##생들이
##위원회는
Ang
양평
구조물
##그룹의
##장소
방영일
나탈
들어가고
악명이
인증을
중전차
헌데
##순히
현존하는
##누가
##the
받아들인
경이
##예정
Lv+
총선에서
##테를
데뷔전을
저항을
엔터테인먼
들자면
##압을
상류
##분과
개념으로
##FFFF
아스타
재등
팔에
항목의
궁지에
불상
##임에
##곡동
다이노스
괴멸
지르
DT
신디
화려하게
여인
시타
해협
건물로
##lock
언어로
M2
##ien
##프트가
##캠프
어이없는
서둘러
애니에서는
움직여
꼭두각
want
먹게
등등.
##다거나,
다이묘
누군가의
자쿠
CV:
##사상
준비하는
강판
##붕괴
그러지
가져왔다.
되살아
노골적으로
꼽을
책의
모드에서는
묘사된
고양이를
1박
1주차
유추
##스타인
##.80
Order
GDP
##머리가
TCG
진한
Dragon
##턴에
만들게
괴롭힘
유선
##님과
계정을
시스
전했다.
##잡고
시점으로
##ANC
Des
거두고
소매
##롭지
표기한다.
가능하고,
과거로
'영
원리
##쳤고,
기준,
인터페이스
바리
탄막
##anchor]
작게
회담
##취소
##입을
외모와
거에
붙이고
9개
신민
##간은
언급은
##폴리
205
##악을
한다.#
확정.
해석이
소속.
아직까지도
일찌
문제이다.
순위는
명에
##bl
보여서
재팬
교과서
종착
늘리는
제각
##카로
##아파
세계관의
어때
어깨에
카타르
XXX
검이
후엔
##두근
3레벨
놀랐
먹튀
우습
##마인
##윤이
5경기
삼았다.
사라지지
##마르크
무기,
##하드
##프닝
현황
출전해
수상하였다.
대회의
차량에
##하라.
맞물려
가산
대담
Get
every
##루스의
1993
2005년에
죽어가는
style="margin:
찬스
안쓰
프랑스,
왕과
##정에서
##세기의
비롯된
더비
차출
##지역의
버서커
Back
헤딩
##/25
줄어들고
##종합운동장
con
##카츠
##ideo
감독,
정신병
참여하지
지녔다.
넣지
치명상을
따지자면
##카도
##되어있는
AA
김제
##링,
안철수
박민
재학생
줄이고
##일관
##오며
류의
##처는
심심찮게
UFO
포트리스
##전공
##적이지만
생각했던
27일에
셀프
##교와
##3명
시비
피자
선보이며
입이
전한다.
##주도
최연소
위원회
배척
##약의
##시켰고,
번호를
살릴
##군도
주재
##조에서
남아있던
클로즈
'D
러쉬
##1명
발렌시아
보나
지표
카멜
##상대
##콘서
역사적으로
동유럽
##창은
중심지
GL
명.
변했다.
제공한
인근의
태도가
스스로가
색채
승계
않는데
진해
필요하다는
누구보다
2006년에
도피
##길로
##기라
등급의
공사가
발효
연주를
증후
취해
제14
내걸
읽은
집중적으로
경유지
형상을
##두자.
아이슬
실시간으로
공격력도
받았으나
다녔다.
어처구니
애로우
##당해서
역시도
##옥의
##람이
사랑과
테르
가문은
사이언
##ape
맡을
새정치
조그
지금까지도
IDOLM@STER
꾸며
적기
대사.
당하게
##마드
##수정
##신에게
출연하여
결정하는
##무진
흔들리는
신병
제품이
마비노
첨단
##지리
##럭스
##mania
3시간
간편
부메
##보살
##방지
영웅은
뉴캐슬
민감한
안중
도와준
##분야
배우로
급기야
받아들일
탑승한
돋보이는
몸매
평민
##으로의
매지션
유학을
충실히
눈부
있더라도
때처럼
오너
법이
이메
##라이즌
주성
최영
##yout
당황한
라이센스
허가를
헌납
##학습
이야기에
##87
##꼬리
애시
주석
고문을
바꿨다.
못해도
적시타를
굶주
동등한
라인하르트
전차가
괴롭히는
도마뱀
"W
패에
19년
행동하는
동작을
Act
양상
때문으로
뒤쳐
제의
##xx
HG
까이는
##부짖
결말을
광저우
단연
##중계
특성은
댓글이
기자가
이녀
던진다.
일갈
의사소
대전에서
추월
형제가
사이좋게
1인당
노력하는
more
스베
이선
시련
취약한
분홍색
back
징병
앤디
##각은
구간의
거란
##서비
장애인
무장은
UR
베놈
##부대가
남자와
'안
650
NS
##재단
감소합니다.
골고
상상을
좋으면
사라질
선제골을
불가리아
비난하는
'A
배속
설치할
모호
무상
심포
##건물
영락
용어를
##청에
##먼은
데려다
넘어가면
##과정에서
왔다갔다
제작하는
도구를
존스
아닌지
26일에
되거나
##졌다가
그리고는
나라에
카자흐
능동
바운
사망하는
듀티
음모를
##냐?"
##/19
##라이너
##led
마력이
웃으면서
카케
사이에선
발휘할
시너지가
Fre
sc
자식을
##값은
장신구
말했
비숍
표현할
##/D
1800
후계자
살아서
##선수로
width=
봉인을
터무니
다르다는
명확히
Are
보증
수비가
기세를
##때의
애리조
저스틴
사기적인
관문
최단
##소득
있으므로,
김태균
어드밴스
##광주
길러
한의
타입이
졸업하였다.
1937년
공주의
사이는
좌우로
각색
2차대전
오로치
20여
영화.
100년
앞으로의
수뇌
자식이
처리를
##람쥐
장소는
커플링
단정
묘사는
보았을
마녀의
"네
잃는
제식
조조의
확실하다.
마오쩌
난투
##:3으로
비싸다.
로맨스
3.3
교란
탑을
##니케이션
##-N
장기간
궁극의
그토록
유스케
##공장
##적이었던
고민을
DEF
놓인
행성을
10,000
##106
스위트
맡기고
##이라니
Mr.
구자
##샤를
10레벨
1600
##ing,
"H
대출
지상에
제16
러시
##이기는
이송
인지도를
##카운트
RAM
##로에서
##퍼런스
보니,
노태
임용
문화의
That
루스
집게
공격력,
##ize
재평가
##슈의
R&
##전략
##위에서
설명했다.
they
정교회
##설에
##자스
##투명
재빠
채널을
고향인
옷이
##크리트
Ac
최재
3선
활약은
GHz
조달
##타노
만들어야
계좌
더미
원동
##06
##차도
언급에
##었다고.
건담의
SW
원한을
친구.
아이돌의
서유럽
##시즌에
보호하기
데이터가
요소는
기량이
등에서는
소유한
시대에는
인챈트
더럽게
결국,
Bar
M1
밀린다.
특화되어
내심
아노
정책에
억지
해달라고
거치
둥글
손가락을
지적이
##좌석
아폴로
##배는
세례
22일에
관할한다.
3억
쏜다.
장풍
중산
협력을
##플래
##-35
요소로
로키
##티지
비판했다.
2,3
가솔린
하부
가능했던
표현은
과금
##블러
2배로
강하
리에
18일에
Tri
빨려
정의를
##진도
내구도가
헤븐
스태미
겪게
청주시
##먼이
과부
동국
특수부대
선언을
1면
까였다.
네모
방벽
애덤
투여
##체에서
올라가서
무법
장치가
탄도
살아가
충격으로
당당하게
엔진의
목표가
받아들이는
녹여
유가
투니버스
합산
칼데
발의
구타
하렘
##해군
니콜라
일컬
##EE
##샤는
명령으로
타나
스파크
##기관의
개틀
동지
만의
##인들과
쓰며
마늘
##였으니
보쿠
11회
상대로도
장애물
동독
있나
14,
패배로
프로그램은
리젠
괴상한
버터
화석
됐을
##턴을
서울로
입시
##으로서는
소송을
가한다.
미얀
직관
##-1,
경제학
복종
커스터
우투
상품을
옥타
##리는데,
아시안컵
단백질
화염방사
1명이
##순간
'L
교양
11일에
날릴
별개
에우
##튼의
전통의
법적으로
스스
스킬명
동족
짓밟
품질
종료되었다.
진의
##남은
보인다는
디트로이트
보이자
##게임넷
오른쪽으로
안토니오
##교자
상대팀
경기로
거머
셈이
정인
되었습니다.
4화
##:00,
섬으로
##술,
방어가
마천
못하지만
확인된
라인하르
말아야
위태
작다.
간다
한결
분위기의
등급을
진공
아니야
운영에
예정.
PSP
##턴은
사례로
반으로
비늘
##성:
스트라
판매를
알아듣
알다시피
타당
우주로
##에서야
프로세서
자체로
격돌
##투성이
##-28
명의로
되자,
행위가
조승
비교해도
파이터즈
down
준하는
##사관학교
2일에
##수송
공짜로
골리
등용
백색
일대를
8000
여부는
##법상
시작하기
성수
##번길
정도밖에
목록에
DO
아들은
##소재
##관.
##스타가
결론적으로
FN
북쪽에
##D가
포지션이
가리키
공화당
괴도
게임,
##ited
부서진
수요일
재료가
다름없다.
문명의
이장
합치면
##G,
참고할
뿐이라고
연결되는
Every
허영
레벨의
우승팀
여성은
1대1
아세
XP
그러는
텔레포트
소피
울부짖
지방에
##하트
##할을
바뀌게
텔레포
##zy
##전.
티켓을
멕시
서재
회복을
카트라이더
전폭
레귤러
##ute
사기꾼
"다
##조판
1930년
않다면
F.
바스
사바
##쳤던
주인을
선거를
면적
나선다.
##부르
##부대의
##시키려고
카테고
##준비
주루
##덕이
13일에
넘길
반감을
##해본
2TV
도로를
다친
알아보
대지의
편인데
플랑
발렌타인
윤성
살아남아
밝히는
##범은
유지하기
스플릿
차마
채운
케인
함정을
여자아이
4시
깨는
성스러운
아껴
19대
아이돌이
TN
뿌리는
제외.
달랐
한스
##간다는
14일에
궁극기를
열을
저격총
구스타
버드
자격으로
한,
시기에는
커트
일방적인
소진
키우고
##캐논
##바람.
법조
디스코
##?'
성공할
550
빠져서
할당
히노
라이선
##해양
대안
흑역사
하면서도
+5%
Sil
##토에
형성된
아틀란
글리
차오
##박사
상당수의
단골
아산
지망
##리스,
유비가
죽어나
##리바
날아간다.
남편의
2루수
인생의
요새를
짐작할
조국
때문이라는
사람,
선생님이
##버렸고
미오
재차
어머니인
적들은
분위기에
판단한
비범
이르게
아르테
편의점
제거하고
블로그에
온게임넷
##line
성공.
조용한
오스틴
말린
##락에
하나라도
500만
'강
찌르는
표시가
가져와
기량
이륙
특출
아쉬움을
그리워
3일에
성채
17일에
난징
"대
Em
날로
배고
촉진
마법은
규정을
##시계
Bra
구세
##메이커
번거
실어
##상인
적용되어
의도가
##일도
##바인
18세기
죽인다.
외국어
앞세워
끝판
바늘
살리
교향곡
샤프
수하
제천
134
영웅으로
##부.
1,500
샤이닝
한승
##만.
리사
1달
베라
성으로
페이트
##맞고
##제어
##췄다.
않았으나,
"한
유라
전라도
페리
##기스
##업,
고른
4집
##받으며
구성은
장착하고
인기투표
보상은
##트레
사이트를
곡에
모습의
피해자의
붙잡아
부대에
##랑,
12일에
벗고
부르지
순순히
짤막
##이니만큼
싸움은
여겨지는
총학생
##받아서
지방선거
말자
내려갔다.
##되면서,
강인
따윈
소셜
##크에게
##구미
상향을
경사
##지점
##IVE
##거린다.
생각했
스펙트럼
끼친
이전과
모양새
건데
수정을
시스터
개그를
상임
퍼포먼스를
못하여
##르바
##었으니
멤버를
후보는
마티
##각형
##찬의
에바
전력으로
##종에
맞추고
선원
실무
쓰거나
용과
초,
올림픽에서
매입
##u.
##깊은
그것에
Hot
어우러
##해줬
##엘과
##옥을
##템을
##툭튀
사이오닉
스테이지의
Amer
박살내
Met
깔고
##work
BASIC
wiz
퍼진
Game
실황
##결한
##당하며
막대
세련
A4B
GAM
성도
아날
인신
##LD
##-1번
에피소드에서는
보였고,
##다스
브라더스
궁수
파운드
위키백과
가중
까다롭다.
덩치
셀레
임의로
탈탈
찾아내
유형의
##지역에
백합
병사를
##IGHT
정거
##들중
회복이
크로스를
KS
상황도
미네소
육식
6번째
보정이
불합
211
불가피
유학생
2-3
국경을
비대
사교
산체
##카드로
##2에서
논란에
헌법재판
거둬
관습
##니언
잦다.
돌아가고
하나하
스탈린
대를
매개
부진을
##."라는
불러서
7일에
병으로
올리며
위도우
##스킨
라쿠
신주쿠
##작이다.
##론으로
참고하자.
규정에
카바
##발은
사건.
발생하였다.
하반기
다는
치사
카마
##변의
21일에
아역
50년
##인사
##소하게
##/100
좋아해서
학교로
쏴서
Inf
메달을
지게
애니메이션이
명도
투구를
##만하다.
##떨어진
가격도
##프게
형식을
##내셔널
경우에만
출연을
+30
가량의
롤챔
여느
##요~
평가했다.
어쩌다
##사노
명확하게
4단계
세금을
##입니다!
다듬
호구
##차고지
내려찍
서버가
금전
여기선
발언이
놀라게
WAR
자바
쏘고
붙여진
Int
숨겨져
사카모토
않나
재개발
##점수
##속도는
##멘트
애니메이션에서
가져갔다.
라틴어
May
노후
단간
폭사
레나
엠파이어
우체
있냐고
##차에서
##호:
카리스마
그로부터
몸에서
영역에
##83
##노코
최고로
29일에
꼼짝
이북
후자의
##지지는
언급하며
애초부터
재판을
타이가
혼자만
쓰러뜨린
활발하게
묘지
작렬
터미네이터
제작이
친구들을
생산된
남캐
넘겼
체력도
여친
호투
##K의
##어서,
닿지
##다라고
##나우
형의
계급은
##stem
DDR
##손이
재미있
잊고
##태평
CA
##베트남
애니메
크리스토퍼
KD
없어진다.
응징
인연을
피는
##뤘다.
보였지만
##씨,
Yeah
일들을
활약하고
길가메
330
캔디
##ole
##직에서
절차를
졸지에
##일기
##활성
##거리로
##유도
불린
음양
16일에
사라지게
##하려다가
플레이어와
##마자키
지나는
비행기를
##모도
##S,
논란의
극적인
원의
제사
시점의
지라
##기시
1세는
키울
성능의
과학자
커뮤니티에서
수련을
심문
기합
우위
##타나
그만두고
방랑
찰리
환원
##.M
거치면서
포괄
##2명
내야수
OCG
과잉
##광역시의
국민의당
미유키
##대.
바하
자산
beatmania
검으로
믿음
비키
##블랙
마찬가지로,
##다'며
날의
문법
준다는
##리오스
03월
먹이는
타로
##현에
##white
끝낼
삿포로
손목
##HC
모션을
리조
몰라서
민정
체제로
튀어나온
받아들이지
보행
제물로
확고
2개,
만나지
나가사키
##쯤에
이범
창간
호무
성우를
볼때
치트
흉악한
선택지
제거할
비둘
##지긴
깨진
변수
톡톡
편견
로봇을
싱어송
1무
호드
##증,
역사와
며느
있음.
##바키아
##청,
##이어야
예정이었으나
기술배치:
1세가
전열
존슨
##해지자
사이퍼
영화제
틀어막
가사는
##I의
##션의
버전이다.
비즈니스
##O의
##모양
2.6
들통
소문을
난이도로
2004년에
땅에서
전제로
##킬로
##투쟁
사실로
기괴한
##데이터
##구축
##1회
시도한
반가
상어
어려서
승강장의
홈페이지에서
탈당
광화
끝없는
도가
쾌속
##스텝
뭐든지
없음을
##반과
시나리오를
시발
총격
##함에도
행복하게
들어오면
##volution
항목이
타워를
도구:
##고사
묘사한
1위,
2:0으로
신관
퇴근
팬클럽
지경.
Bea
WCS
그지
못하기
않음
서브컬
유지를
자랐
##리아에
바지
전방에
75%
슛을
##요...
해결하는
사물
애로
양주
힌두
취향에
카운트다운
데이즈
팔려
입학식
+6
오산
##진영
##이.
할리우드
재규
##조사를
Rain
따르고
일족의
##기둥
티라노
중대한
소리.
비약
이강
##중이던
루트로
무찌
예정되어
고질적인
일화가
사용될
200만
부족하다.
독서
시시
토머스
##우며,
형태이다.
목록이다.
쓰이기도
가즈
레베
무모
연이
예상치
##해보이는
##빈을
있으니까
딸기
밟아
오피스
35%
명백히
2개월
진행하였다.
Bu
FR
가문을
무실점
보석을
오덕
행진
가리고
메두
##씩이나
##팬들은
루리웹
비교해서
게리
끼치는
##체계
##렬히
남편을
의존하는
부실한
외치
##기에게
Bur
##망은
만들었다는
이적하였다.
모으기
##--
##구동
캐릭터들을
겉으로는
뮤턴
짓는다.
해군은
##괴수
놈들이
현대자동차
노력이
데스크
##BOX
매수
입혀
주,
시작을
배경을
사우디아라비아
턴을
##설은
학교는
23일에
지켜보고
일찌감치
Moon
수차례
##승,
##라이징
잘린
엮이는
천문학
먹어치
반이
자판
##비지
있다...
세계관을
우승자
고난이도
아스트랄
생선
원한다면
기동성이
세기
전까진
##갑게
Open
FX
남쪽에
악세
키사
314
마미
##54
나무위
건틀
##유리
.3
리벤
이스터
흘러가
순간부터
연금술사
위해서라면
화면에서
메커니즘
순차
##되자,
##향의
넓어
양은
화요일
무의미
##니컬
연기했다.
하늘로
리아
있으
생기게
상대방에게
##법이다.
파워가
농어촌
세우는
제스
##ris
저질러
##i-Fi
쫓아가
##요는
티셔
50만
유일하다.
몰랐던
##릭의
배상
지나갈
타도
헤일로
강사
닿는
기준.
오케스트라
냉전
때릴
안쪽
잔혹한
##/17
10일,
등장했을
존재했다.
##분류:
'원
지킨
폭발하는
끝에서
진도
바다로
끝낸
급진
지분
크리스마
치중
피쳐
신분을
오면서
타구를
기준은
미니게임
클라우드
스쿼드
까지는
서면
소련이
강아지
유고슬라비아
13년
슬레이어
박태
엑소
죽어가
##선언
컨트롤을
미처
좀비를
##메이드
##되나
인물인
인물들의
싱어송라이
냉기
속성은
알면서도
핵을
내려와
놀라는
상태는
이해를
긁어
조교
##ner
넘기고
무차별
이우
##승의
생각된다.
##투아니아
비효율
타선이
##해와
명예를
##메리
##어주면
포함되었다.
그룹이
잠들어
계통의
[[https://
baby
랜서
미적
중반부터
커리어를
our
기염을
브롤
##레,
2.8
Cont
술탄
작전이
##더블
##새끼
목록은
수퍼
##화하고
A매치
다수가
##창한
2019년에
RF
여지
##스탯
포탑을
무성
##표,
벌어지고
전후로
런처
왕궁
적정
크러
해프닝
선수에게
good
블라디미르
목재
##ok.
클리블랜드
시도가
킹스
##공학과
##창,
자세로
##-V
##현에게
##hy
방식.
1950년대
서스펜
병이
없다가
##위한
이적한
##UK
##엔젤
나왔고
접근하는
God
특촬
##변에
늑대인간
나뭇잎
상경
##~18
##ger
넵튠
서리
연계가
지못
미터
한겨
흐른
평가받는다.
규모는
고갈
도망가는
마도카
왔다는
슬쩍
변경되어
FF
북방
정권이
중장갑
##대책
##측에
##당하면
리스폰
낮을
매트릭
신종
##수단
신봉
##수염
드라마를
바이올렛
4에서
수료
지탱
크기로
상관없는
지쳐
Joh
교훈
던전을
##수호
체계를
##미도
참여할
서드
##제네
##C의
어렵다고
골고루
안된다는
##간,
막론
벌을
베로
최형
##곤의
드래곤이
RP
남긴다.
100m
포함되지
종족이
시라이
현장을
갑툭튀
시선
풍자
등장하게
##리온의
강의를
부통령
지형을
회복하는
레즈
해수
##케가
방향에
제르
##군데
##mm,
문장을
여부에
추석
스왑
차트에서
흔적
벽돌
탄소
분명한
한타를
순조
##판정이
학자
##투어
##콜라
올림픽에
커져
##57
##특수
##테러
게임상
변화는
"안
던져서
독자들이
마수
##부여
##신다.
##몬드
진행되면서
레스터
이신
##별한
바뀌지
##출력
구조는
투입된
매출액
핸들
##배에
개조한
선장
##A를
##룡은
파괴한다.
조건에
범인을
##해는
15일,
기술인
이를테
입장에서도
돌아다니며
향년
초반엔
see
곡인
미군이
잠금
보기엔
대주
반납
촉수
##ude
꿈도
그들과
선한
아다
지장이
24일에
특징으로
가급적
6.0
공영
연의
##하는건
심하면
##판도
캐릭터도
느리고
막바
존재하는데,
여유롭게
남짓
##법도
싸워야
간만에
인간들이
Master
근래
투런
울산광역시
##au
느리다.
절도
##"과
##가지를
##사람이
무전
뭐든
터지면서
제작할
이벤트의
박사는
20일,
##시키려는
네팔
일본군의
방송은
##경찰서
HT
잃을
다른데,
남았
조율
##장기
##용사
대대적으로
르네상
알아야
ONE
공군의
송곳
활동할
정체성을
멤버.
목격한
부식
스웨덴의
Med
막은
이전보다
패했다.
라마
미호
발생하지
필드에서
태클을
속에서도
##자카
##움은
당해서
송은
##산맥
##우타
##공동
##당하면서
강함을
산출
보아도
레지스탕
쫒아
배경음악
거행
131
Comp
심해서
원작을
실력도
기체는
직무
##09
사실상의
병맛
부화
아득
지폐
이벤트는
토너먼
틀:
거리의
세리
키에
##쯤은
살해당한
들었을
에티오
##스테르
놓는다.
밴쿠
시작하자
기능도
5일에
도장
자회
함으로써
##ric
프로그램에서
도망칠
대세
태도로
##퍼,
##정도.
부모를
구단의
도도
역사에서
무승부를
화수
##시다.
##잡아
##나가고
두른
쓰다
탄환을
이쯤되면
미디
##왕으로
8%
밀쳐
##ius
성격과
##kr
사용자는
스테파
합류했다.
##중학교,
하시모토
명대
쓸쓸
##떨어
te
공신
등산
말부터
명실
그런데도
여태까지
뽑아서
않았는데,
아슬아슬하게
극소
##밀하게
튀어나와
궁을
크라우
##크리스
있는가
어태
향토
대통령과
불리게
끌려가
교무
인테르
차일드
##난이
출연해
연사력이
NM
백두
숲에서
만류
비올
정윤
채우는
##정리
효과의
부분만
해석할
패러디.
주술사
카이저
A조
독일,
돌로
호타
##결이
코스모
스맥
쟁탈
쪽도
##변경
프로스트
시전하는
기여를
TEC
##장일
상황으로
##하다,
Alb
##자매
시종일관
8일에
NAS
##타기
가져오
Match
뱅가드
##oint
##케의
'주
##제프
##관계에
##네트
##링과
보아,
우즈베
서는
임의
에피소드의
문성
섹스
자멸
##드릴
기록해
훈훈한
아날로그
1과
계층
##2.
아이디어를
4초
찍혀
##tv
후반으로
연합의
사이보그
내성이
##냐면서
##전에선
어새
했어도
##low
이야기이다.
나타나고
이뤄진
머리의
위임
떨어진다는
CIA
좌완
게임도
##ita
U+B
구워
인상이
##쳐도
##프레이
##어버리
문화적
연주하는
"P
A급
전해지는
Like
참수
팬미
10억
악마가
부제
##했었던
##orth
##아웃을
분자
왼쪽으로
행복을
##복합
폭격기
앵커
여포
스폰지밥
음식이
##먼의
언젠가는
12회
수원시
무브
일부로
여동생이
양념
경기에서도
맡기도
빵빵
항속
현상은
##'에서는
##전에서의
##.90
오리진
따르지
파비
부유한
##기술을
분리된
승용
악영
흘리는
##고래
앨범이다.
라이브러
성범죄
위저
##예프
공약
방학
순항
##페스트
3패
선형
##에나
마더
이룰
패턴으로
감성
밀린
시로가
헬레
인식하고
이나즈마
오마주
광학
버지니아
왕위에
버전과
북한은
거쳐서
디시인사이드
내다
잡게
캐나
##카리
##L의
운동이
장르를
##체육관
에게
왼쪽에
항모
##보게
##틱스
배우.
영상으로
나이트메어
체격
탐욕
행방을
있는지라
플레이는
동안은
중심에
획득했다.
놀란다.
팔로
##날의
바라보고
나쁘게
베기
##인터
공격력:
늘릴
도로가
부인이
##아버리는
미숙
반다이
조세
다이빙
인페르
글자를
3루수
2:1
랩을
성가
경기력이
수납
##218
최고급
리듬게임
4위를
반자동
병사가
##점인
##하였다
인물들
여의도
##우스와
##님께
되던
청취
##태,
운동에
타카시
say
늦어
##퍼트
최후반
땅볼로
##GM
##항의
##람을
사람인
소환을
기적의
끝내는
난장
노원
팀도
전반기
BRV
격납
골짜
배율
##신한
등지
비리
양심
몽땅
3DS
Cent
올려서
##다에
##럼비아
콜로라도
시빌
1991
Sky
필연적으로
급상승
아카네
아아
오른쪽에
스파르타
'천
시청자들은
튀는
픽셀
히스
##/13
많으니
발자
시몬
이코
하리
##근은
Soul
대북
리히
인맥
##X의
설명하고
높을수록
게르만
사설
제품은
4천
밀란
##달리
제외하곤
기지로
트로이
4권
기사는
미스트
성모
잃어
19일에
##str
나가노
수류탄을
불능
흑백
작업에
중견수
간첩
##해제
##디난
##렸기
스킬도
공장에서
낭만
파멸의
접전
포유
부족해서
밝혀져
살았
##동강
##선다.
없었으나
있으니,
추천.
공백을
리키
성유
일반적으로는
광장
나주
전통을
제너럴
날리고
##임과
##피오
정제
##코쿠
예상을
##부리
##],
##몸으로
##iew
스맥다운
등이다.
##하에서
##원도
##칸을
조선총독
가두
##트나
##냐에
##성이나
기어이
불허
외출
카쿠
허벅
225
피규어
##보조
프렌즈
거라며
별명.
마왕의
성장이
##.G
##페스
##척이
2레벨
로고가
성희
##팀에서
마인크래프트
배의
##복,
4호선
BF
살상
30만
옹호하는
##다카
비교도
1932년
약해서
아니었던
디렉터
백만
상표
예.
##건에
비해,
특징인
배열
순삭
##양에
부하가
##UST
1935년
끌어당
S급
콘티
##하십시오.
##베의
##/+
물리적
셜록
죽거나
털이
##주머니
STAR
중소기업
선풍
회자
##난을
마법사가
음반을
말기
##황후
농장
##플렉스
과자
군에
김은
생포
이터널
##님.
보호막을
비밀의
Eng
##해낸
내던
안아
##철과
생활에
there
서식하는
군이
정무
이야기하는
둥근
##왕조
사용해도
##한테도
득점자
리리
섞은
이다
아버지.
글렌
콜린
부족의
경쟁이
거나
안하는
고양시
뱅크
##어머니
있었음에도
제2의
지방에서
1918년
Now
물질을
척을
##피드
독자적으로
4.3
##UB
##하였습니다.
당연하게도
인기가요
시궁창
의원의
칠흑
##ml
잡히
짜고
조선일보
골리앗
cl
4개월
동명이
처한다.
파괴하고
곤란한
##/18
##한다!
전투력은
반지의
스트로
않기에
유지비
되서
부수는
신빙
정주
즈음에
친박
헤지
[anchor]
버리지
왕립
효과와
돌리고
불가능.
라자
##봉의
##양군
##엔드
방어율
천공
1933년
'H
총대
##업의
베네치아
김하
볼프
##권총
##짓는
Lv.3
##천년기
##UL
시절에도
멋지게
주인의
설치해
뚫어
서경
애프터
##9명
우리에게
에어컨
가브리엘
홍준표
좋아해
자연의
3.4
##녀는
생산이
왕세
리더십
양육
##스기
비교했을
발목
##부도
##시온
다음에는
거주하고
스펙을
사항을
여왕이
참사
취직
pl
간다는
##"이다.
##전생
5화
##2:
크로우
날아다니는
버나
##부수
영화관
스타즈
마이너스
스타일은
증가했다.
micro
과다
레기
잡았
준비하고
일괄
집회
헬게이트
##슈가
his
이정도
##되다가
남원
싶었지만
##김없이
##위안
중요시
6이닝
발전에
설레
실드를
압둘
##침이
처참하게
교수로
총장
##ata
2019-20
환상의
##있다가
슈퍼맨
항목에서
항공사
M.
임시로
황제로
##메트
##천은
참가하여
##프라이즈
비잔
홈경기
##4명
##거스
칭찬을
원자로
출판사
+25
돌봐
브로드
슬램
어원은
원하지
##데라
##희에게
마르티
블록을
꿈꾸는
의도를
##St
괴리
세이부
##주민센터
테이크
##스킬은
이시다
것보다는
장벽
치카
독일에서
뒤통수를
섞어서
순서는
##장구
보이면
##oney
OR
창세기
출연진
내쫓
순양
징집
##중독
25일,
생성된
가정용
춘추
##라이나
이에야
플라잉
4타수
Hea
##핑크
동안에는
지팡이를
got
자력으로
##마이트
스켈레
빨라서
웃어
장판
##궐선거
초기부터
승낙
엔도
##ERF
이시카와
"L
4만
##인걸
##진출
##ga
않아.
희망이
뮤직뱅크
바빌
위상이
탑솔
형제의
##어어
##범,
##기로,
찾아오
그제서야
엔지니
옮기
진흥
텍스
##압이
과학적
드러나지
바스티
##말라
##극의
##.D.
노획
##ope
White
충주
초반부에
스탠딩
황제는
##웅이
나타내
네덜란드의
스플래시
급한
칸의
##톤이
크루세이
Off
##종류
서로에게
나오던
##INE
컨셉이
##등,
노선에
옳은
화제를
##자였다.
시리즈.
단어로
카논
##법한
##마키
##정신
##ara
묻어
크기에
##겠지.
##톤을
상태이상을
고뇌
맞지만
진료
음악적
##udio
##하다!
##척의
약칭
줄인
나가게
느낌이다.
십자군
XY
사생
허술
##위기
영화에서는
남자친구
비하인드
Way
둔다.
밴드를
양동
처분을
##101
김소
상장
어쩐
##숙이
10명
영광을
육군의
정몽
진상을
##물도
감독인
어린아이
주황색
반대의
빈약
뺏어
충공
달라지는
거부하는
기인
##왔고
##을때는
검출
계단을
실체
##패에
28일,
반달
소아
엿볼
##해주었다.
본선의
요동
##데도
##하다보면
배는
장안
타라
번역이
전원을
퇴사
기관포
이니셜
"왜
##됐다고
아들과
##외선
밀접한
해줬
성우의
원산
##츠에
제작자가
졸업생
젊은이
4라운드
##bit
##read
공중으로
전략적
견디
동인지
앓고
로봇이
이래로
애칭
픽처
하루히
개판
제작진의
'바
깜빡
소폭
쐐기
클락
##수:
##7의
##력:
생각하여
설정이다.
영국이
판매량이
주의가
부술
##국적
잘못하면
졸업했다.
후일담
정권의
체류
표명
##대대
##분에서
접근할
Project
7.5
직면
탈주
스토리상
얼어붙은
투항
멍청한
7개의
WOR
야심
##지진
##피에
개종
삼성이
이고
탈출을
메소
##패드
정의당
Ook.
##절하게
##아가며
4세트
극악
내에서의
제다이
Vo
개봉일
가늠
##하네
과격한
SUP
가격으로
Special
포텐셜
가혹
뜨면
부부가
인스턴
착공
탄약을
탈삼진
필승
##내리는
##문자
사람이라고
2일,
백화
정서
##벤트
결정된다.
곧장
디자인의
미츠루
모라
비율은
시한
연안
지켜보는
승리가
##2에
##기리
KB
일반적이다.
크리에이터
못생
##ton
소속이다.
대박을
런칭
##칸이
메탈슬러
막론하고
간다고
샀다.
3일,
이야기한다.
경찰서
1조
dis
인어
쿠사
해발
손에서
##진보
##렸으며
##ated
북아메리카
걸음
시점부터
1931년
반려
함대가
##덕후
11년
8강에
공격하지
스토커
발언에
활발히
승하
하비
도망친다.
소리로
시점에선
##son
중앙의
##는지라
팝픈뮤직
시비를
타기
포를
##주의적인
히가시니혼
말미
무너지는
##,4
##오우
##시키기도
사업에
스스로도
크리쳐
동원해
번갈아
'김
듣자
생전
창문
초급
촬영한
벽이
악행을
아이치
선이
스레
##판정
##론파
발동한다.
특성으로
##테와
가능해
냄새를
4부
더글
다그
명곡
##타라
##염의
가고시마
1도
남아서
##종교
경인
노래로
창원시
Ass
over
산산
지체
##유와
우호적인
장담
##"이라
##하다시피
4일에
변모
##공격으로
IG
머리와
신태
불꽃을
붙을
스택
터진다.
##네시
대구경
내준
코지마
올라온다.
프랑스에서
박기
현재,
##들에게서
모자란
소탕
##른의
열악한
우지
익스트림
##타니아
##-2로
시청자가
feel
Ge
옮겼
요인
일회
하니까
##메스
##P가
방어에
패에서
##홍의
##리오의
##리안의
비참한
겁을
##슬쩍
시민들이
메이크
##ILL
규모를
겹쳐서
극딜
##옵션
효과적인
개찰
홍대
##가나
실시한
수로
질질
##래?
성폭행
Mark
부두
##5의
##방식을
##려도
장면이다.
흉악
전산
태권도
가쿠
놈은
대입
흩어져
시외버스
녀석을
##복과
급속도로
측면이
##인구
레벨:
포인트는
승률이
사건에서
##협력
움직인다.
##레벨이
사용에
양아치
Tour
개나
##en,
##ird
식량을
소환수
유닛이다.
26일,
아무렇지도
배기
소환이
##ther
레볼
바와
A4C
것인지는
않으나,
##날레
가족들이
해금된다.
애니판
빅토르
기분을
마리를
지분을
하노
사진과
현실이
마초
##정원
##~16
설치하는
저지르는
카지노
글자가
다리에
백지
콘크리트
내려가는
트라웃
"신
우사
##트럭
해외에서
바뀌어서
요구했다.
브레인
##조약
##길,
주장하며
히로유키
2.7
두각을
리치가
서사
조형
##타도
농담이
원정을
##런이
##Re
6기
세트로
##졌으나,
시키고
군단을
단거리
마취
연희
장민
##었으면
변경이
러너
묻고
버전인
주요한
1934년
7일,
옐로
개편으로
작살
코나
##등과
대체하는
것인지,
교차로
회장의
스핀오프
띄고
장병
공연이
5명의
걸렸다.
데다가,
천도
어린애
파티원
페루
##ao
##bs
방식에
우클릭
주립
상냥한
나데
전례
##결혼
살아남을
1루수
옮기는
km/h
궤멸
부르게
쪽에서는
##리오가
무산되었다.
혀를
맨날
##km,
Char
허리케인
임페리얼
끝없이
마켓
설문
치기
초토화
위스
초동
입력하면
##플이
##olor
조약을
특기는
세계관에서
끌어모
탄종
##소개
##DJ
가게를
##OCK
급증
악곡
일정이
##미치
성능에
출시일
기억하는
레프트
번외
신수
재기
우상
저번
##호.
##둔다.
프랑스와
공개적으로
아내인
니트로
덩어
##로프
소리다.
발휘하는
##크에서
'노
30일,
ver.
원작으로
몇가지
통에
혼을
생각하기
이곳의
충돌이
UM
지주
치아
높이가
유권
충고
아니나
날에는
민법
솔리드
##자에서
않았기에
아르카
넥슨
울면서
잔존
지나고
보인다
받아들이고
9일에
장려
집은
##현악
##강,
박은
yeah
들었던
레몬
##입장
##디나
노릇을
일제강점기
난데
정경
좋기
##열한
유희왕의
Edition
구비
마기
손녀
고려의
6일에
명품
미수
유닛들이
빈약한
쉬고
신진
##B의
진에어
높아진
카오루
대한제국
오토바이
안타로
##혁을
Wi-Fi
맵은
병원으로
##관이다.
함께,
2000년에
콤보로
무스
##시에게
예정인
Ver.
더는
명사
철퇴
##메테
##뿐만이
##시킨다는
PS4
돌린
##일반
살아온
##이즈미
스위치를
5연
관제
대본
리액
상공
추운
##랍시고
추가한
태어날
리어가
미아
봤다.
##"라
마케도니아
급습
먹어서
1/1
동거
반론
흥미로운
깃발을
다수를
차일
##~14
생산을
선전포
기름을
한동
"기
04.
충공깽
매지컬
성취
##그런
인터넷에서
당대의
이바
누락
전갈
##귀한
근접한
교대
대나무
사적
직계
평했다.
##기다.
##기도.
##플레이를
적었다.
그래,
유닛에게
분노가
드레드
HOT
소홀
##1번
##여곡
허다
주먹으로
묘지에
포섭
피부가
시작은
선후
독일과
나무가
지상역이다.
4일,
손실을
##,9
방송의
대승을
모용
##해졌고,
전두환
두목
마실
혐의를
##소방
있어요.
넘겼다.
입단했다.
공주가
전한
소속이
기억의
비공개
1편의
기질이
##6명
##천동
나이츠
연방의
추는
해군이
##지상
##술과
이름.
쿠마
죽였다.
집의
히드
##erry
#ff
버그를
트위터에서
칭하는
선수와
PC방
##퍼와
'카
인하
테루
하든
##그림
##브에
19세
계속된
군은
꼭대
즐기고
##장까지
##단위
##침에
잘생긴
가운데,
던지기
덴노
필살기는
Track
얻습니다.
Ap
Last
디멘
##ision
5th
로만
외무
총리가
팀에게
##대서
가능하지만,
탑재된
라바
아님을
카노
##다툼
정도라고
Christ
구두
선별
야망
##립니다.
논란은
메시지
속공
발생하고
시청률이
고정되어
스탠다드
민영
커진
흔하게
##들이라
##보라고
도시이다.
제국과
일정시간
2003년에
Side
가둬
언제까지
딸과
사당
취할
##쇼를
교리
위상을
##하느냐
##지지만,
B조
모으면
셰이
제인
찾아보기
##ross
독립된
기반이
유튜브에서
듀얼리스트
##주어
문제점은
작위를
##알라
가방을
이레
##블의
남작
여러가지로
8일,
##디오는
포기하는
8대
볼텍스
채권
잡아먹는
다행인
최상위권
##통합당
조회수
19일,
Bad
근력
봉황
통찰
##청에서
##윤의
##훈련을
플레인
야구선수
미사일이
##바이러스
해운대
디스트로
없었지만,
플래닛
생기면서
토스
에메랄드
꿈은
물리치고
악마를
공민
##됐고,
11일,
맑은
키드
##무역
선출되었다.
다나카
##번호는
##경기장
원거리에서
Sam
개관
뚱뚱
##인형
##짐이
F1
막아서
성장하는
##arius
컨테이너
모스
##마법을
##족에
##편,
라이브!
##전쟁이
제주특별자치
5일,
랭커
마당에
##기라고
##벌의
Ul
동명
막부
밀려서
사명을
이룩
내놓았다.
불분명
Je
란스
묻힌
##ux
대칭
어딜
목숨이
브룩
표본
##리버
##않는
##팔이
에어리어
1인칭
##검으로
아이젠
가져오는
환상적인
유토
##저트
##가들이
500원
부분으로
##-EN0
공고
창출
운영진
off
상세한
커지고
##거와
다스리는
거스
지적을
여진
주심
있는데다
메이플스토리
천사의
23일,
상황과
센스
평정
당시는
기습을
일으키고
[ruby][ruby][ruby]
볼넷으로
혜택
죄책감을
개성이
실장
결계
구단이
##CN
##라스의
1928년
##통,
##혈을
일어서
##IME
##포인트를
pe
험한
##내로
대파
모이는
콩고
##07
##금,
##청소년
정신과
일어나기
초월한
Sur
칸이
##웠다고
데미지와
경험치가
낮춰
잔디
지휘를
방탄소년
계란
##화까지
##닷컴
사이비
메리트가
곧이어
기공
##매김
##메를
7차
신원
유서
##처로
##쳤다는
알려져있다.
콘셉트
들게
백화점
##여고
상호작용
포이
해.
##교환
2018-19
돌연변
정정
가운데에
##/01
주도한
FE
범인은
투신
삼성은
불문하고
세운다.
##통은
##집행
석궁
깃든
안드
전역에
진구
##설정
##복으로
평가받고
만남을
경로를
NAT
##워치
모습만
성동
않다가
##광장
##중대
지방도
날렸다.
생몰
오정
전자의
치를
##량한
18세
알려준
WHIP
되나
##ful
띄어
명이다.
무진
선로
판이
##핸드
13.
A+
들켜
조금이나마
우리나라의
M16
##니엄
##리야
대한민국은
성희롱
우여곡
인정할
1924년
거느리고
얼룩
256
부도
신이치
##att
문어
안장
일루
##교시
##kg,
논쟁이
서장
목록으로
변화에
무한의
러브라이브
튀어나오는
어머
코지
18일,
나이프
부정적으로
눈앞에
발트
배운다.
언락
제구
##시테
##ause
나왔다고
학생의
국민당
수월하게
FBI
#white
연못
국내의
건,
##59
##시아가
예민
찌르기
##브르
것이란
##rew
8강에서
월등히
##받기도
유저도
##/07
가이아
어딘가에
아소
##루이스
##넣어
부하들이
7000
선인
##비우스
##링에
##길래
있는건
M19
괴인
그렌
도르
13일,
##OWN
오모
##lash
3주차
태백
##-s
문서에서
교육과
목사
심장이
않겠다는
##짐에
##굴을
발생하여
생겨났다.
life
년도
사카이
안된다고
일정을
22일,
##ocal
1실점
산의
##렛을
함께하는
09.
make
버는
##메는
##련한
확인해
SK텔레콤
2년간
대학교의
수요를
교도소
엠블렘
병력은
빌어
세속
진수
5승
분량을
##무사
내려간
예비군
잊혀진
롤러코
같지
암시하는
위자
파트를
COM
막는다.
변신을
일등
##ets
쓰러뜨리고
가맹
버틴
사생활
있지는
##커먼
로켓을
파열
##GP
##어로는
##충의
판매한다.
박현
포워드
거점을
도구로
학생을
파운
무시한
##방송에서
카르텔
KCC
대영
저조한
챌린저
가출
색은
헤매
단속
할리
종류에
그룹을
쿠데타
선발출
생존을
마오쩌둥
망토
보자마자
상사
야채
인원을
발견되는
##ague
대사도
결장
도타
시호
잠든
##로스의
##무시
##오에
로스쿨
출연하였고
등판해
거인의
끊고
반은
스터
우승,
옛날에
토요타
엘더스크롤
City
겨누
설사
한해서
##차만
데미지로
지나간
부르기
휴대용
필터
14일,
Magic
Down
음식은
주게
##상부
12일,
인기있는
샬롯
초라
최준
##더리
##순을
총알이
바른미래
학급
##었음에도
##불의
##주게
적용이
##드라이브
마무리를
##인지를
##무기로
생산할
후지와라
신해
스테이지가
부탁해
1골
밀양
아슈
전장의
호라이즌
방어막
얻을수
다가와
여장
이질
##처에
##지역에서
2화에서
6.5
보단
선우
커졌다.
##타스
##바에
27일,
컨셉의
좌익수
아이스크림
티베트
지역인
블래스트
죠죠의
Har
몬트리
##었어
컴퓨터가
임무는
홀로그램
다목적
원치
##각에
고려할
잊을
정선
종속
설정.
버전도
천연가스
Que
외형은
제의를
지상으로
##비슷
소련군
"유
무림
원호
지저
하진
있는데도
매도
무수한
##입단
IF
권고
압력을
##자!
##콘을
멈출
자행
잠정
부정적
중론
페레
##ling
##댄스
17세기
중2병
위닝
한자를
##송을
정치적으로
하자고
갈아입
자서
구성된다.
금정
전우
등장하기도
파괴의
Best
선택지를
##연구원
플러그
계수
브레스
시온
서울에
기업이
##AGE
프린스
##ival
레슬러
전복
사실.
좋아한다는
검열삭
카도
##왕에게
##찬,
17일,
보수적인
경멸
오르게
최원
##원숭
##해야할
부족해
연재를
남편과
절반이
##인줄
##세라
1년간
신고를
토막
##AV
시작시
없어져
5권
광대
##ma
##TH
##세키
익숙하지
증언에
BMW
급제
산에
헌병
##방영
##00,
엔딩에서는
색의
추상
##당하고,
연구는
성격이다.
6명
WC
김한
후계자로
프란츠
로드리게
노예로
시그니
다채
##나틱
##소문
본인에게
둘러싸고
덩달아
나타낸
엠블럼
악수
하룻
그러면서도
이미지에
이벤트에
유감
자들을
정한다.
총열
##OK
##빈과
어려움이
크리스티안
광동
난감
당하면
쥬라기
직할
치렀
##S를
동료인
무심
전선을
홈구
제품의
새해
서버를
##베를
##효가
0.
max
고구
풍선
실수가
AMD
일과
##T48
##시켜준다.
중의원
구사하는
비를
이치로
29일,
흩어
일어나서
망가진
구호
심부
흡연
히트를
##르에게
##교에서
##겨운
멈추고
강자
1900년
선택하여
이를테면
투르크
행사가
##종일
##타로가
##문제로
##슬램
지구가
##스코어
##부사
##시카
##대한민
컴퍼니
베일
애들이
서술된
같고
무네
함유
DAY
빔을
##합니다!
##창으로
##벨의
1910년
Spring
##할때는
각국의
싸웠다.
열릴
##add
확인하는
감사를
묶어서
속임
체리
분위기로
필수적으로
극초반
First
나우
##단다.
소리도
차이점
Mir
qu
바알
벌일
부시
세일
실력에
검색하면
몸빵
최민
함.
##들지
24일,
클리어할
16강에
놓으면
문신
위조
제도의
##바탕
##uch
녀석의
애니메이터
골드를
몬스터로
##!"라는
통근
##잡이로
개최되었다.
##3회
증가시킨다.
중반부
버그로
TWICE
구애
유민
팀들이
##수다.
##고시
배틀그라운드
고정된
시종착
크레이지
2-1
비평
관계도
맞았
목소리도
시선이
##환승
쓰여진
와일드카드
1급
5세
쉽지만
예지
##자'
##수학
정기적으로
검거
대강
불화
##방패
효과.
협박을
넓다.
TT
##공작
6화
소마
유도하는
급의
많으면
##Grand
참여하고
시전한다.
리모
체제가
전략이
##당하자
우려를
4강에
간과
돌리
무적이
병종
비율을
비운의
청색
##지...
21일,
골라서
호화
##강도
대사와
칠곡
캄보
기술도
내세운
라일
밑바닥
##냈고
존재한다는
평화로운
룰을
열광
왕가의
우위에
나자
자신감을
Stage
has
12%
서술한다.
케르
사람만
확보할
짓이
##함도
##클라
말이야.
포르노
스피드가
꿈에
팬카페
##주겠다고
세게
유정
내세워
일대의
풀리지
가수로
부의
이석
어른이
개헌
넷째
노트가
##시에도
시작과
패턴.
번역한
커뮤니케이션
2명을
낯선
##백은
죽음이
뱅가
필적
말이야
신자
##데는
##활약을
종교의
튀어
휴대전
##협의
뭐야
서폿
##쿠르
KN
취급한다.
복귀를
권한이
황폐
##맨으로
16일,
프랑스가
곳곳에서
프랑크푸
오컬
왕자의
자라는
받았으며
'남
땅의
인정을
##7명
하기에는
##/08
꺼려
##개와
됐다고
수없이
##탱크
불리던
머물러
퍼니
없잖아
티격
Lv1
이해하는
오락실
개성을
살면서
상단에
하르
에로게
줄이기
캠핑
##가도
문서이다.
보이고,
모티브를
IMF
노랑
코칭
##하시는
##데스의
압도하는
{{{-2
히틀러
강연
말년
용납
##슬레
자리매김
Final
걱정을
##셋을
선수들과
의미.
겉모습
궁궐
넣으며
지온
침공을
##부산
##-W
##쿠는
금색
누리
##냐의
마이애미
Will
걸쳐서
만들어냈다.
유저라면
연승
##루로
##벨트
##언니
금지된
것만으로
인기도
자택
잠겨
팀내
##렌을
1개월
현상금
##이드의
물론이
통틀어서
깨끗한
4세대
aqu
강하다는
복장이
전하는
##light
##분투
##스타를
부끄러워
방관
수아
지문
첨부
아빠가
라트
조화
##대성
기록.
불가능할
망상
지위
남아메리카
회복할
연회
##uro
##쿠사
6일,
Show
수정이
포지
'''
정치를
혹평을
##보리
단간론파
당하지
인천국제공항
신설되었다.
6th
격노
구도가
맥시
신재
##딘의
부하로
맡긴
##걸음
AW
경향을
나설
잠식
##박혀
개수가
지점에서
##버와
##윤,
##컵을
같았다.
##두리
묻혔다.
Club
Perf
가지를
기지에
##봉은
##G는
2002년에
실바나
들어있다.
소설가
지적했다.
질려
##/09
2번째로
폐위
##스틸
##쇠를
NFL
신체를
큐슈
출연이
항목은
러시아는
연출은
AI가
닮아
빈곤
환자의
활동했던
참패
화제
확인사
몰두
얻으면
##A에서
등등의
매그넘
되긴
##룡과
탄탄한
못마
##야에
##잔의
다니면서
징계를
캐러
핑계로
##장치가
드러머
노홍
만우
침식
황혼
끝나기
1929년
각본을
##실장
##됐다는
필수적인
이듬해인
린이
절반을
cm
약체
세울
위생
##로에게
##-오
사이.
불가능에
역사적인
통과하는
'서
관전
셋이
용어는
언론의
대항해
적혀있다.
아제로
접어
지나간다.
대중적인
신선한
3.6
Free
시제
조장
##명하게
##담의
사망할
목록을
군중
스퀘어
에버튼
가끔은
never
놓을
생명력이
소이
테니까
##악마
##샤오
기자회견
'상
9일,
순서를
##학급
##틱한
아들.
덕분인지
만성
망할
석탄
외환
##-34
애틀랜타
치솟
획득.
표기를
국민들의
걱정이
년간
들으며
맛은
학원의
헬로
##51
##대리
채널에서
랜턴
십중
약해
컨셉은
중단되었다.
레바논
문장이
쓴다는
읽으면
폭넓
자기네
바우
입으면
##업과
거절한다.
##보내
##아들
##cy
없었다면
스케치
스콜피
두터
하워드
##카트
수행한다.
사죄
대회에서는
##DDR
di
우물
일대에
학기
황족
활약한다.
부리
##린에게
어썰
##런은
##/V
출전하지
부정하는
girl
달한다.
쿠미
한계돌파
라시
##버,
뇌격
언급되지
Sim
만악의
예뻐
##스킬이
이즈리얼
SEED
1등을
세비
숲을
초식
춤추는
##하냐고
##절에
좋아졌다.
루트가
미주
시구
오르고
##버리며
##공용
떠나고
예배
용을
기록이다.
추측도
일어판
것"이라고
비는
안다.
챙기는
##피트
비용은
again
내년
반칙
헤어진
##억원
##에서는,
타이베이
이승만
##애니메이션
뻥튀기
겨냥
비욘
이마트
차린
##공신
12세
접근을
근본적으로
스플래
초사이어인
일주
가르침을
##과학기술
성남시
가넷
금이
넣기
만세
먹으며
웨딩
이규
저거
키시
투석
##는다
보직
카스티
##메트로
미션은
되어서야
이슈가
오류를
파헤
애시당초
부녀
진이
한다!
이미지와
임팩트가
민감
##R,
##딜러
Legend
대화에서
법의
1925년
Cap
거냐고
마토
채우고
##중첩
폭발이
자존심
고성
김시
이점을
31일에
결론은
납품
리비아
이속
스토리와
사이트의
도중,
제19대
Fall
묘지의
팬티
##인원
승리할
오리지날
임재
함대의
힘도
있는지는
16,
싱가포
금성
기세
않는데,
증원
##까지.
가져올
Univers
가스를
결론이
국적을
익힌
##국장
##독이
##.O.
##운은
필요성이
해피엔딩
다르고
린의
산하의
##장교
예고편
##귀의
완구
차리고
카루
쿨하게
투덜
가져가는
충격에
할지라도
Net
거물
중공
##갈이
아니기에
선수들에게
멤버의
쏟아지는
손오공
놀림
##산면
방법.
견딜
전장을
토쿠
##진구
##헌터
노가다
패미컴
'반
프런
222
##ubl
떠나서
견뎌
이력
##학교의
추가되면서
##oun
드라마가
진출이
2티어
매칭
##인식
##대로라면
배경에
더빙판
회의에서
번호가
훔친
##다리를
##여부
신뢰도
Ver
소리와
##한다며
##다던가,
4학년
라라
태우고
##소니
##\]
가며
상회
여긴다.
조원
참지
출력을
헤엄
돌아가게
#00
송신
##지아
애리조나
환자가
##출판
클레멘
2선의
강캐
축복을
##남매
##하였다가
'P
썩은
##번대
나온다고
SKE
자리잡은
4.2
오사무
좌표
팀이다.
상반기
몬트리올
720
홍보를
유사하게
실질적으로는
속옷
##gg
한국에선
장례식
1순위
낫다는
##언의
문제였다.
사진의
쏟아부
2:1로
개인전
가자고
도발을
평면
비기
실습
염동
특별출연
파견된
수반
애착
##상.
대상에
음반은
only
"F
만화에서
있다,
차우
##이야!
들어오지
그랬던
##조치
이사장
사거리를
비슷하다고
3루타
추억을
##자들에
##구슬
##작전을
##삼성
'해
머니
##소리로
##학회
##주식
가수가
마커
지브
##치에게
##요정
서울역
파괴되어
제한된
창작물
구슬을
던전의
오승
저를
토이
누군가에게
3명을
두개의
아토
존재하기
PvP
빌라
정대
통학
되었다가
도와줄
2와
김규
##나라가
Never
네타
도청
##데를
##갔다가
의미이다.
한번은
가드를
발병
장녀
##탈삼진
실시되었다.
무관하게
의무를
##카드는
수준이었다.
3할
6초
장단
나리타
내주며
챔피언을
개조를
앤드류
토네이도
창이
켄지
##컴퓨
고려하여
말하며,
뻔했다.
고려하지
제조사
Little
눈과
두르고
바니
은빛
시작했으며,
유지한
강해지는
넘을
뼈아
##함께
##했어
##범으로
##스쿨
과거와
##Ah
##세츠
##대로,
1989
탈출할
네덜란
마스크를
최적화
강인한
##저로
##폭을
##코믹
원작에
마스터리
의미심장한
대가를
무안
페드로
나오긴
결과적으로는
장비한
마이어
약해진
##m/s
일본에서도
설정과
##다",
동체
밀도는
약점은
##니?
##apan
도와준다.
양국
가져간
달러의
코퍼
##디아의
##라이드
메탈슬러그
초음
환산
생각해보자.
정종
인물들은
EZ2AC
성서
바꾼다.
탑의
##발표
바이스
축출
10주년
본편에서는
용인시
와우
패해
행성에
회유
플레어
원피
시원하게
스냅드래곤
제보
##소절
발견되어
장비하고
십중팔
5이닝
라임
챔스
태종
##버프
유명세를
Lv+1
블루레이
2타점
결사
시칠
킥을
##피,
##릭이
##찬은
실패를
인정했다.
활용도가
코미디언
비견
지성
##번째로
기사.
PO
위기가
##틴의
heart
먹어도
빙글
우로
코어를
원작에선
이유는,
##스가르
학생은
반발이
나눈다.
무당
벌칙
보디
탄속
연관된
곡들이
군인이
크다는
라이엇
되찾은
레고
의미도
회복량
그리드
##ople
대답했다.
앙리
##대행
마사키
배영
잡히는
##배율
모차
볼티
위쪽
지상에서
4.4
모티
##a의
BGM이
남겨진
하기는
##전시
##완이
어렵기
표기되어
비판도
라인에
과도하게
무지막지하게
박동
##이상의
##진행
##팬들이
측면을
end
듀크
연발
증권
##by
알면
##래스카
로마자
스케일
버티지
고르는
대모
이부
코즈
##품,
사랑하고
콜업
유리가
##디우스
절약
파파
이루었다.
계시
뛰었다.
방해가
##중학교는
여주인
##조제
마운드
##갔고
배틀필드
수제
##집,
##기관총
우익수
유언을
토템
황혼의
프로그램으로
하여,
기총
루터
선취
##폭발
##공포
덕택에
머큐
방의
법:
##ouble
##50,
##프로야구
콘서트를
고참
메테오
추축
블루투스
메탈기어
브래드
마징가
some
때리고
루트에서
팀킬
##erg
극적으로
오와
퍼플
했다고.
##81
미에
##준다고
##학번
##심에서
밝혀지면서
실패하면
귀에
독수리
열세
##REME
도맡
앨리
일간
준다고
##구라
얼라이언스
결투를
요인이
유닛인
위협하는
치러진
매튜
가능하다
게이밍
에스토
나카노
시작하며
아틀레티코
도봉
아이덴
세이브를
바이올린
If
숨어서
##애의
##운행
##.0.0
저격수
'F
다테
로젠
미토
살리는
##강은
되었으나,
##산성
않고도
##레벨에
발전한
귀여워
슬라이더
홈페이
획득하는
지중해
교전을
얀데레
대니얼
계기를
삽질
순발
건너가
기함
무수
선비
##한번
##탈을
국가들이
위험하다.
내한
진형
최종전
어쨌거나
웨인
죽어버
키움
스타라이트
인터내셔널
후반전
미공개
싫어서
광폭
두면
요크
겨울에
답한다.
돌려서
##장면
누군지
것에는
승승
'초
꼬박
찬사를
포격을
##여성
##블록
##연기
##받았던
부족하다는
1927년
눈여
대국
동점을
심판의
##파운드
발견했다.
넘어선
임무에
here
쌍용
익산
##스러울
420
역명
자신만
##겠지만.
종족은
끌어들이
MHz
숨기
홍익
##블레이
##탑이
구조의
될지
##일차
모르겠다.
커피를
운동의
네이션
재일
##,800
히비키
미네소타
'-
신으로
'내가
악령
##옥이
것으로도
경상도
히카루
질서
난이도의
마르셀
올리지
쿄스케
RX
부관
##프에게
##e,
##B,
1,3
어둠을
말해준다.
##기록을
모셔
보더라도
삼자
워즈
휴전
아르바이트를
넘는다.
쓸수
경기인
기믹이
부위를
숲에
Class
##머리에
만들었던
있다보니
##지다
##사:
무렵에
일원이
##직하고
성추행
"N
노트를
##남도의
##갔을
기록하여
공개되지
참여하여
##ader
##머의
##주얼
##암동
동일인물
##그마한
쿠도
##2와
##부분은
시점은
How
베인
않나,
오두
용감한
줄무늬
##기적인
##치자
한편으로
##irect
금고
김호
17,
국가와
설치하고
제압하고
Cor
군벌
원판
##보인
##화할
##작곡
상대전
케이스가
상관없다.
저항이
1)
붙으면
접점이
##되자마자
##/06
2칸
경에
인간들을
대장장이
200%
엔딩은
인지하고
탄창을
놓친
인스
코에
##락은
제안한다.
제20대
상해
##여래
등판하여
오디션을
##콘이
것이지만
성공하고
e스포츠
백병
일의
##바키
까이고
신약
##공무원
##토모
개더링
겉으로
경선
배치가
선더
주기로
##연도
##탑의
혈액형
먹어야
수위
##체력
##섬의
##HN
여자와
프로토콜
aquarius
탈북
주변은
5.18
누른
섬유
이클
우주에서
감안해야
어쩔수
##이라기보다는
교류가
떴다.
직진
착취
##보상
##해서인지
성우.
쉽다는
갔던
느려서
야요
##카드의
##폭탄을
##노르
요약하자면
바라보며
침착하게
aquarius218
비호
##[*
아이작
적용한
귀한
면역이
보이나
왠만한
자기보다
이매
치부
##활한
##내를
유죄
##거리고
함께한
현재에
능력이다.
의도치
점유율
두근두근
장르는
키도
##8명
##쳤고
성에서
숙지
쓴다면
##바디
가수,
##세이브
고등학교를
##ORMAL
대등한
리모델링
2선
살육
오일
인격이
##학에서
국가인
자연스러운
3개가
내레이션
바를
빡친
방송인
+20%
땅으로
랜디
싫다고
외부의
있었습니다.
이유에서
서원
달려있다.
날뛰는
'로
MY
##타자로
사진에
결혼했다.
처리하고
##하라!
데이트를
고통받는
들어오게
부디
유상
##무기가
##골의
##콘의
코너를
에티오피아
강변
누르는
더듬
민사
뻔뻔
폭격을
본인과
영입한
기억에
신분으로
박원
터졌다.
행사에
토마토
부조
실리
##틀을
##거리에서
음악과
집착하는
투사체
걸었다.
히타
##남,
##onna
강화하는
TV판
하버드
남자.
발도
킹존
콜로니
카자흐스탄
관람객
##lection
불신
선정한
##터치
관리하고
의도한
재가
튜너
이상하지
가까울
달성할
상부
##리미
실시된
##자만
##보아
정치에
선방
최대로
시즌에서
기록,
외모는
펄스
##대응
##주곡
못마땅
3:0
단어의
돌변
무함
파주
행보
Happy
하단에
트위터를
쿠데타를
책봉
유닛에
할아버지가
균열
답했다.
씨를
보스니아
움직이기
견디지
발령
색으로
연결이
스테이지는
ABC
흐름이
##ley
경쟁에서
런닝맨
DSP
마셔
뛰어났
켄이치
##빙글
참가할
거야!
기적을
다같이
바치는
##내었다.
##tain
##결의
블루윙
사무실
말하고,
매력이
분들이
좁혀
한밤
##은이
1400
##lex
해설위원
코스트가
개혁을
##naver
탄이
엠넷
지바
##다이라
##축제
프론트
##루에서
##/03
"G
미분
시미즈
위아래
직캠
##안고
설계도
버금가는
##스트와
##iny
선발투수
먹으면서
진로
착안
휴가를
처치하면
Dr.
GD
손님이
해역
멤버들에게
요구되는
E.
해커
진행에
테크노
하인리히
전소
##처분
##앞에
들이닥
박석
##티뉴
3년간
장점이다.
내성을
의병
평은
함선을
##외버스터미널
##통과
##슬리
##됐고
구분할
MVP를
규정하고
John
읽기
##그라드
군부
순전히
익혀
자문
춤추
##티움
논문을
서동
수배
발언은
미시마
천명
##산리
오현
이안
자하
##급.
##ital
달릴
리미
서큐
스탬
튀김
##레스가
베풀
터지면
후로는
발사할
것과,
고구려의
이따금
말해주
캐릭터에게
뽑고
페가수
##불리
특성에
어리석은
가할
복각
섬뜩
위즈
##.0/24
당겨
싸게
판매하고
발달한
강남구
분전
스릴러
걸러
였다.
퇴임
메시지가
복면가
8개의
접한다.
그렇고,
전신인
삼척
암묵
의지로
자자
조동
체스
##못한
조합의
아들이다.
오웬
'~
마크가
모하
##선가
##우나
##ha
알바니아
구석이
약하다는
##대학교의
파이프
줄어들어
마법.
파워레인저
슬라이딩
냅다
뉴스를
이사를
##uture
기반한
법은
에비
한큐
호문
익스플로
듣고는
장래
한국,
방송으로
드러내고
내려서
군복
매료
세세한
추격을
##나니
##유기
##후미
6인
넷플
스마
##레로
아이즈
RED
로미
바론을
##ves
그리폰
기사단의
버스는
##푸스
문제인
물론이고,
1980
북아프리카
right
안되고
이터
##키나
##정동
가늘
리는
연고지
전사의
##남부
3에
떠넘
그것과
07.
1타점
아브
툭하면
펼치고
차지할
샤크
지점을
##품에
##노미
하다보면
가성비가
아닙니다.
Break
과반
재편
스킨을
개막전
인테리어
##현재
수비형
##시설을
나중엔
부작용
늘고
신에게
##월이
##헌,
선언한
구간에
No.1
범죄자
맞이한
우천취소
TBS
세상은
챔피언쉽
입구에
##&amp;
##출신
만화책
위에서도
프로그램인
고양이가
##raft
340
고어
신세를
칭한다.
##던트
안정된
물러났다.
고향으로
##습니까
국내외
여차
##주니
공간에서
왕국이
계급이
디펜스
결정이
놀랄
리프트
페로
##스타일
드라마에서
##px"
오클랜드
라파엘
3.2
신노스케
일이라고
한인
프로페
사회적으로
싸우던
2등
480
조조는
##시라
##화나
멸망한
디에고
'우리
졸개
##질,
바다에서
평소의
불규칙
파악할
보다가
콘테스트
##남을
FC의
#FFFFFF
국대
##정부가
##ism
그림은
생성되는
##키에
연결된다.
바르샤
엄연한
집사
##누이
##싱을
서있는
##ORA
여고생
'G
단호
서슴
중기
공략을
##경찰청
EXTREME
OM
생명이
여주
##화되고
계엄
불가.
##ement
##에너지
Gal
안을
##익이
##리아나
뿐이고
##체.
지형이
##드립니다.
공헌을
NORMAL
##정보를
고영
세이지
실컷
타일러
팽팽
2015.
제기되었다.
거둔다.
1에
도래
세력에
유부
차츰
##자면,
##해냈다.
##ball
필요성을
소환에
당연하다.
자동적으로
데이브
급격한
각오를
것인가?
##거야.
잃는다.
칼이
일어나자
##시설이
휘두르
'개
고음
예하
드러내지
해주면
0.0
하이스
##펀치
##yes
라이덴
##/04
무능한
자물
항소
절대적으로
발족
백종
투어를
팬들과
##은의
##훈장
하고있다.
1922년
거냐
회심
흔하다.
##배기
하위권
나무위키에
말했듯이
보류
빛과
정근
##유산
생각하게
소리에
엘릭
잔해
##트러
증가가
희망의
동점골을
공장을
쿠레
개틀링
개로
김우
리투아니아
##대지
할머니가
배차간격이
원문은
50분
금액을
시부야
뉴타입
전역에서
##해놓고
명성이
치르는
지나서
옵션으로
5기
분출
초선
되찾아
CGV
어정
철벽
틈에
##진에서
##져도
등급은
루카스
any
알자
##외국어
플레이어들은
플라워
갑작스런
0승
맞대결
##~13
let
샌디에
실점을
저자
##]:
여성들이
전리품
관건
##사정
14.
1926년
오염된
예외로
##C,
규모로
주목할
증거로
순서가
##해라
되어버렸
보상:
형성되어
##순의
최강자
##/02
1볼넷
한도
##장관
돌아가서
##난이도
외래어
가는데
##입니
WWF
##볼이
것이다!
근접전
when
광고가
절차
이것에
작중에서도
선샤
식인
철혈
##광고
불필요한
크다고
통영
##처럼,
부근에
크림슨
티격태
따지
분사
##]의
장면에
같다며
시점을
##쇼에서
15개
자체적인
##회의에서
없애는
운명이
문화에
알렉산드로
폴라
프나틱
1986
##하기도.
이루어질
1917년
3분의
기요
남기는
명심
센다이
한상
이집트의
오라클
출전을
##다이스
##E의
##전쟁을
든든한
붙게
프리퀄
##해지고,
나뉘어져
파라과
##으니까.
1/4
3타
짝퉁
힐을
##식물
##~17
카드들이
터지고
개념이다.
버튼이
엑스박스
서커스
예산을
웨어
살아갈
랜덤하게
사주
의약
##보정
분명하다.
게시물
부원
츳코
발전소
감옥에서
라그나
뒤섞
건물이다.
##eek
히나타
에이전트
카디널
'W
소나무
##HP
당시부터
마르크스
잡으며
하타
##밖에도
40,000
를르
자국의
##보시
##남에
아니어도
'당
Esp
파문
포메이션
##문제를
리그가
저지르
경유하는
없애고
5레벨
도사
판명
만들려고
차지하며
외모에
합쳐진
3칸
게오
이완
##바꿈
제압하는
합쳐져
유벤투스
'호
간격이
출토
##범위가
장난이
+7
넥서스
##봉,
주민들을
##"이라며
신기한
친구와
구절
##봤다.
드래그
1차전에서
K-P
반의
세력과
##설계
##.K
동아일보
작위
##화부터
##팩을
때문일
은근슬쩍
늘어날
1.5배
아이언맨
무마
분은
살다가
톱니
##프로젝
세실
초연
##예의
전투에서는
.4
등에게
피렌
##급이다.
한국인이
상태라면
이어폰
전부를
가족은
아프리카의
보인다고
##지않고
Album
틈타
##금과
##적이며,
##덕의
조합에
1921년
날려버리는
동쪽에
싣고
울며
이오리
세는
화기
70년대
##로서도
마스터의
전설을
선생이
향신
것뿐
안톤
##-00
종료된
소녀를
구마모토
거침
데일리
동물이
외부에서
폴란
##바둑
##케이스
##먼드
병사들은
티격태격
막으려
##어이다.
##곡리
여당
찾는다.
##화력
않았다
시험에
변수가
보름
MUS
갈래
광전
글은
별거
뿐이
최선
##나라에
새벽에
신년
황실
##작업
부드럽
종로구
지날수록
다이크
서쪽에
정신적인
05.
바흐
사실과
기준에
##게임의
이적료
오역
오케스트
8초
성북
오메
짜증을
치르게
디자인으로
광범위한
4장
생리
##론적
##창에서
인해,
학창시절
견습
굳건
칼에
화랑
흡사한
##'나
##곳을
이유에
사업이
부문에서
트라우마가
우즈베키스탄
니혼
##스프
수준인
괴롭히
트윗을
고질
의석
##나면서
보여진다.
이동력
딸려
띈다.
로망
오소
카툰
##eck
1923년
똑바로
##다녀
카메라가
조작을
##oly
가져간다.
지지율이
어색한
3-4
JYP
개머리
트란
항아
1100
대통령에
인류는
조심하자.
Park
러블
서산
##교수
##이트는
도달한
경복
애써
중엔
##베기
##신경
##스터는
난이도에
올리브
3인방
매춘
알려지게
지뢰를
성주
영의
##감사
어머니에게
나눠서
법에
##두,
생각한다면
출연자
나와도
곳에서는
되지는
앤서
##~50
다루기
lv.1공격
여하
조만
허니
##S가
사람들에게는
##-100
##ama
소개된
삶은
인삼
후반부터
##6의
선택에
음악가
차량.
앨범인
결심한다.
3.8
Come
엄마의
##~25
##이니,
카페에서
GTX
변종
장악한
주도로
##지!
악명높은
농담을
먹히지
##아프리카
피아노를
B급
바라고
전역을
패하고
##단장
204
##unk
가혹한
계기
급여
번개를
장군은
금세
코리
##폐합
강화가
참가하였다.
불과했다.
물어뜯
입구를
장이
##타로의
인정받고
한정된
눈썹
맞으면서
아르고
양방향
##엔터테인먼
부설
잘못이
이을
질량
##und
트리니티
Hey
##하는지
서버에
need
'코
가지의
극동
남친
닿을
몇십
##보레
##전환
##물고
2회차
오로라
FO
##ANCED
판사
##다가는
계획의
강정
서대문
##풍으로
아니라며
높았던
삼진을
천상의
산이
##쿠마
돌아가지
러시아가
##도스
하드캐
내보내
KBL
데카
영업을
##도사
##투사
기억하지
날아간
돌아오게
밤,
##넣은
사이먼
옵션은
투표에서
lv.1방어
Cry
감찰
소외
자객
##인이라는
##콜로
노래에
스테이지에
하늘이
못지않게
1:1로
1-3
면치
비겁
서문
##들게
##필을
달려있는
눈여겨
##사르
프로입단
Single
지부
갱킹
만행을
엑시
##나스
##우옌
살아남기
밝히지
이효
종의
사례.
탈락한
드래프트에서
꼼꼼
신탁
엑스포
태권
##운,
올리버
촛불
호로
상승하는
시티즌
신중하게
꿈에서
닛폰
센고쿠
아들에게
15.
유닛들을
조종할
생물이
성소수
얽힌
자취를
초딩
치어리
상태일
성공하여
받았는데,
고자
취항
##바토
##oe
잡아내며
AAA
닮았다는
보도가
켈트
주인인
동료들의
Pop
약하고
##센의
이용이
탈출하는
눈앞에서
각지에서
손상을
아누
수도인
여자애
BW
PA
시민들의
대비되는
짜증나는
2)
궁병
##ML
##날드
100여
순간을
단계에
pre
##사다
프리랜
불가능하다는
기대하는
변신하는
마무리했다.
뿐이라
싸워서
주연을
이론상
방콕
임원
젤다의
표현한다.
##/05
##명/
##-최
오르지
2001년에
도넛
전달하는
씌워
##잡한
낙선하였다.
오징어
Gl
음성이
코이치
##250
##누스의
작성된
PT
쓴다고
포진
한자로
##방학
감속
공주를
이아
##베스
##로드가
##도끼
##폴트
이것만
마찬가지이다.
헤이세이
말투를
미지의
##디드
##다는게
##ura
더불어민주
도전을
류우
전국의
##4를
##쇼핑
등록된
폭풍의
원내대표
남산
언니가
정리해
"진
part
고릴라
챙기
떠오른
옵티머스
RR
금서
방아
언뜻
연소
타오
##I를
조직에
남부의
북쪽의
##라기보다는
쓰고,
집단이
예외가
##다테
나오지만,
일제히
##hammer
Sou
곁에서
말살
전주시
중이라고
##충은
##시키게
중국에서는
후보의
##세가와
민족의
new
##ait
##강과
대표적이다.
이동한
소모하여
선생의
##렉스
발언으로
개개인의
문호
천하의
##N의
문제,
1개씩
도끼를
아내는
열린우리
이득이
##밍을
작품에서는
싱어송라이터
##/C
지방을
전차는
동작이
GX
파충
##연습
병영
사용하는데
추가한다.
아이템이다.
소련은
하수인이
'거
독살
요일
용량이
천진
##.'
##섭이
여길
모델.
의문이다.
무기도
유괴
##성이다.
1987
냉장고
Mix
경합
저희
헤일
차량이다.
PD가
결정한
지능이
범행
석가
영기
##2회
##사업을
포함하면
조작이
학부모
선딜
##로얄
##고개
##화면
무승부
말하기를
반동이
##피아의
수도를
새우
실패할
패턴의
권위를
버라이어
찾아야
시스템과
싸우지
방패로
둘러싸여
다비드
Sol
강희
##해지게
##뒤에
중요성을
한번만
소녀는
선언한다.
반복하는
강이
##키리
감소.
말하였다.
양상을
열매를
##연령
##히라
기껏해야
타깃
확률적으로
국정원
그쪽
##대회를
##처리를
##농구
대한민국에
무한한
주방
##여행을
페르디난
갖지
흑마
공격속도가
작중에선
저격소총
2017-09
생물을
카고
키류
능력,
##이지만.
패배하여
속성에
Na
##케를
한국철도
부분적으로
동시에,
종교를
당신에게
받자
벨리
Angel
이후는
어린시절
달성.
많았지만
세력으로
욕설을
##set
안정성이
디자인과
요청에
상식적으로
하룻밤
LS
보성
짜여
06.
Ind
부전
빈민
여기를
여성.
"조
앙쥬
접하고
##잡기
홈런으로
같으면
경전차
연합군의
하였으며
정령의
ADVANCED
에델
키아
미달
##리오는
##통치
사위
통한다.
##네에게
만들었고,
##리그에
소녀시대
##anger
'선
나사
속출
인형이
직감
하겠다.
한없이
대공포
감고
무속성
찍어서
호조
움직이
오카다
7~8
물었다.
펀치를
포뮬
알아볼
알아보고
듀얼을
수수료
강대한
방안을
항쟁
##쥬얼
상대인
보내서
함정.
Core
보기에
정승
##학교에서
자발적으로
국한
희한
##self
##룡,
9회말
그렸다.
않다
##~60
기본기
기사로
데니스
못했기
침체
##집합
기대하고
##해졌다고
어그로가
안착
캔자스
부르면서
링크가
02월
5명이
상원의
수행을
승인을
눈치채지
주저앉
태고의
##zz
하루가
리더가
레드삭
확보한
##증과
##변호
##네!
크리드
{{{#373a3c,#dddddd
야마가
타구
해보면
후드
시작되어
+12
2.9
사연
100개
관통하는
갈려
아치
용어가
허락을
##,6
국가들은
만들어지는
기체.
코인을
도달하면
310
역량을
주문이
##기한
##됐지만
##벨이
무언가가
일치한다.
관용
지석
채무
##:12
##150
제안한
메르세데스
숨긴
어떡
##라지
##미리
##렸지만,
300만
우루과이
기권
언어의
울트
정중
##느러
##규를
경찰을
구매한
Girls
꽃잎
별칭
세네
청문
유닛과
미니어
떨구
일인
통로
##ONG
'죽
대함
##so
파이브
언론에서
반입
의외
훌쩍
##데모
##팬들의
대화하는
막았다.
장시간
sk
전보다
책상
##고등학교를
정반대로
대격변
밀리고
##빛이
##중은
##념이
대기시간이
살아남는
존의
##회에서는
Real
찾아가서
EPL
물체를
배분
은둔
##냈다는
조건:
조차도
##홍이
부족을
골수
##라에서
##겹게
힌트를
그레고
아디
지으며
##RC
##엔을
2위에
돌면서
카프
플롯
##m에
##봉사
##임.
##근무
아직까지는
가한
상에
은혜
사회가
비밀이
머리카락을
TD
기대에
평타를
##막의
미네랄
김건
돈도
불발
솔져
건설을
어울려
깨뜨
나게
남아공
기다려야
유코
패거리
##치다
##생인
##적이기
##노에게
방법에
민족주의
달랑
##베는
##정권
흡수하는
뽑힌
루트에서는
"뭐
유물을
퍼스
##붉은
who
380
우산
천만
##라나
##arth
아닌지라
뚜껑을
플래그가
Du
신짱
다음해
시절엔
3화에서
회오리
비판의
배신한
때.
소름
족족
찾게
##&D
도시락
저항력
##TV에서
운용이
부회
북부의
해석을
##보르
##리며,
계승한
USS
신앙을
가왕
돼지고
행위에
호스트
##DER
들어도
##lack
마스터가
수록곡.
자전거를
1등급
무고한
세르게
확고한
##성.
##브스
##방식이
행정동
ISO
부작용이
시트콤
거품
나진
덩어리
메릴
재래
##농협
존재하는데
기동성을
서술되어
공유한다.
'사랑
외형이
##고양이
##캐피탈
##각,
흘러나
받지만
인플레이
저주가
적지만
##재림
배우기
장착되어
이지스
교류를
제물
표류
함장
##라드
##균이
올라서
##움,
승리하는
그딴
르블
하얗
글러
몇개
시베리아
제사를
해의
##추,
##람의
여성과
확실하지
소재의
알았으나
오퍼레이터
모시
몫을
태양을
물과
본가
잠이
투영
##만하게
##버스,
20mm
절친한
루드
악한
##데다,
##망한
자신들
철갑탄
단점으로
마크로스
##20%
유래했다.
니콜라이
뒤엎
이르고
##했으므로
어째선지
꼬맹
장현
##비아가
향상된
Party
후임으로
기도를
아돌프
아프가니스탄
'I
##록은
회사인
소비자
베네딕
##1을
##할머니
##래,
점령하고
제3차
제이콥
얘기도
합의를
12화
사이킥
자동차를
갑작스러운
RB
금화
남고
##저지
정도로,
더욱더
주민등록
차례대로
명예훼
올스타전
제2대
'리
걸까
외관
짓은
타석에서
확진
##UD
##능력으로
##캐가
경우이다.
##ames
상위권에
경지에
그늘
신영
양팀
작가인
도착한다.
40년
낮기
산호
선공
##rough
##극이
##케는
타이어
소용돌이
강하다고
##/지
나왔다는
Fly
웃기
자선
반짝이는
최승
파트가
페인트
부진으로
여객철도
블랑
친위
##로스가
경우와
결정적
저질렀다.
광신
양측
##혔을
올려준다.
어쩐지
극에
높이기
단서를
삶에
연인이
##회차
##쿠를
##칼을
증가량
물품을
##이라든가
Rad
부스
아스가르
작곡,
가졌던
건드리지
공간의
##것처럼
카드인
예컨대
##증권
인물로,
아키텍
부대로
진작에
40대
3에서는
입소
##jo
감소가
##km2이다.
문명을
배반
##err
뒷면
말하기
후딜
##베니아
##상업
##du
##T의
세계선수권
건강한
암흑의
집어던
##거든.
3점슛
다저스
재탕
조반
##드라이
##냈다고
3월,
유지했다.
아이덴티
Kim
들었다고
와이드
하하
공동체
##제르바이
레이가
페니
##부원
##대회에
##ASY
5.1
달린다.
스핏
시속
1984
3,4
4시간
사기가
중계를
판에
##부활
##기보다
##거면
##문고
공지가
렉스
사칭
설날
모드와
3차전
우습게
가려고
##지역을
가열
뜨거
몰빵
사악
##문이다.
4개를
설치되었다.
##une
##비에게
##K가
##주아
1,200
나랑
주작
지수
전쟁과
보였고
목걸이
##맛을
선보인다.
실질적
일렉트릭
LOL
기복이
이모티콘
줄임말
7%
des
tw
증언을
표적
진행하면
퀘스트의
달라질
오스트리아의
가가
고레벨
브뤼
앞당
##이치가
##리아에서
다르게,
묵묵
코레
불멸의
Cal
받아도
맞이한다.
공안
남에게
병신
코치를
##니지
##"이란
+1,
묻은
왈,
현저히
흡입
교육과정
모자이크
메모리얼
PERF
순회
##bal
기체로
'알
리무
##해내는
##되기는
아버지로
클래스의
배리
변칙
속아
##련이
1300
태어났으며
레슬매니아
굴리는
높으며
살을
##다라
##기갑
공연에서
2일차
5집
##루스가
##굴의
이순신
호응을
평균자책점
##직하게
Take
괴물을
중점
총재
##터라
가능한데,
활동한다.
스캇
행하는
기본이
표시된
Blood
가세
한국사
제국군
팬미팅
모탈
한이
##그란
1월,
얻어맞고
##조연
##킹의
파괴를
흡사하다.
'파
가온
민속
##필이
패널티가
따랐
양민
해놓고
##모습을
인간적인
##다!!!
센터백
여기로
우등
유교
선택해
##iful
맨손으로
물은
##우면서
##샷이
##elie
당황하는
페널티가
3.7
라크
윤영
2배가
먼지
서강
지질
학위
혹사
##네임은
던지면
벨로
자크
##학적으로
##of
세인트루이스
헬리콥터
1~4
덱으로
르브
성분
출중
행성이
C9
##thing
Champion
세대의
승부가
##당하여
성우로
스트롱
표현으로
얄짤없이
쿠스
##방면
쓰는게
요츠
함부르크
##하타
##전쟁의
창세기전
산으로
포가
##혁과
##번역
출생지
가지만
##eet
##모르
후반의
뺨을
욕심
##090
##월에
##론에서
##급히
##했는데도
많으므로
분광
##'ll
마검
초부터
##법.
판매량은
##대학,
도요토미
명분
알린
얼른
치토
##군."
미타
애정이
##부작
되었는지
연애를
뒤쫓
##서리
##조.
##ene
요청으로
즐거워
엉덩이
광자
무장으로
엄지
출국
코치가
##시내버스
랜스
##신청
##카이저
힘,
Feel
딜링을
##물어
##빨로
엑스칼리
Ret
경순양함
절륜
좋지만,
희박
##중간에
##능력과
불명이다.
쌓고
아와
해줘야
확인이
##대나
##횟수
16세기
노래하는
드라마,
Story
북한에
'구
Val
아만
##:11
##과금
##ways
고모
문명이
##밖의
##궁에
소모하는
레아
반발을
설계를
시신
##봤을
주연의
##마법사
'나는
히로인이
BGM은
Mem
온도가
이용하고
중간보스
거북이
7이닝
덤블
붙였다.
있다"고
찍는다.
좋아하게
흡수한
##영업
##들이었다.
반복되는
사태에
##ortex
무척이나
1주년
소스를
자와
전화가
##엔의
스페인어
A4A
드리프트
"세
고군
티탄
##직의
합리적인
코스프레를
뜨지
있느냐
지출
##과목
##그,
##직할
아이들과
1999년에
코코로
gr
올인
조의
기록으로
변경하였다.
2차전에서
나무에
##월드컵
무츠
3턴간
KA
방대한
봉건
피파
##케이크
때문이기도
들어가야
##ANCE
진영을
찰나
킬로
누구인지
지내던
##여자대학교
군함
이보
영국에
부사관
오사
해인
행적은
사실이지만
롤챔스
망령
카드도
갤러리에서
적부터
##관총
이상에
끝냈다.
딸로
바인
##청구
##촬영
결혼식을
사이트가
IBM
Mac
낙인
부부의
성행
##블이
Storm
과학의
빵을
포레스트
진출하였다.
임무가
##아아아아
공/
자초
지진이
라이즈
쓰러뜨릴
최우선
집안에서
되면,
부활의
들어서면서
YG
수지
점에서는
영화,
스피드를
생성된다.
다나
엄마를
요양
클루
노가다를
듣보
그외에도
강북
갖은
곡들을
정현
레플
정민
진심을
평등
##없어
아닌데,
능력자
##플레이오프
크로스오버
H.
거절하고
말했던
속편
칼리지
2:2
또래
이서
우승으로
감당할
낫다고
팬아
##ino
아무나
나누고
승객이
스투
완패
인위
잔잔
##성공
##/201
##오는데
역할에
##하니,
불꽃의
TG
신화에
차차
##클리어
아니었지만
##되었기에
기록도
배우자
Home
근친
때면
매혹
##장:
도전하는
필수.
그동안의
유재석
1은
미용
##김에
##돈은
올라가고
조에
##해버렸
##되진
##특급
관점
합숙
소년의
리얼리티
##2리
##성우
##유니
##주간
상승.
Orig
##암의
자동변속
자들은
총기를
거두어
근무하는
SUV
'의
통통
튀르크
풀리는
##족들이
##잡는
관련되어
역전재판
수위가
안정을
집단의
코드가
행선
자연히
GPS
참을
PS2
Sn
악랄한
에노
##정책을
##ines
발매가
동방신
변함이
윌슨
헐크
##수있다.
시켜서
리바이
찾던
##요와
나가기
##다니면서
답답한
유벤투
로코
밀짚
속사
유흥
선수다.
조선인
##ords
면모가
실력과
##구만
소환하여
레볼루션
9000
##절의
##벨을
상승했다.
범위도
차례의
중순양함
Hero
공표
크나
##마타
##엘,
##공격에
크루즈
극심
네번째
##a.
지금과
어디론가
포켓몬은
통과할
플랫폼을
악영향을
흐르
##튼이
##an,
IEM
옹립
이차
조가
주며,
조사한
그려진다.
물러난
비정규
512
맞다고
충고를
해온
##시아는
##세계에서
우치하
갖가지
비오
쓰자.
##ible
무기이다.
##센터,
많았고,
계기는
비장의
심슨
제때
##독일
##름의
마왕이
끊이지
##브리지
얼굴과
참석한
제라툴
가보면
##연예
추가,
장비로
그중에서도
깨져
##색에
존재의
발견되지
일정은
선정된
스케이트
대접을
공전
인원은
헬스
##오빠
것이지만,
통과한
나니
불거
성질이
총이
##제트
##케이드
승리하며
누구보다도
기동성
Beat
듣고,
못하자
외동
##톨레
표현이다.
없어지고
'The
여부가
##번에서
여전하다.
http://www.
끈질기게
때리면
진다.
호쿠
##마루가
몬스터들이
their
포기할
Tech
자본주의
빅터
##R의
##lease
유저에게
배우의
정차한다.
##일라잇
함선의
정보에
발표를
그림자가
보이던
1년이
과열
꼬리가
몰수
실책을
정박
치에
택배
인간에
이렇게까지
지켜봐야
대응을
빼앗은
데려와
x1
직위
##1리
##초는
##륜구동
결정된
활용이
참전한
Hell
##현동
생산한
무리뉴
바깥으로
목조
쇼군
연설을
월드의
책에
포즈를
댈러스
물자
생생
##성에게
제7회
샤이니
한수
##시즌에는
거대화
미안해
아줌마
막바지에
작품들이
보컬을
바티칸
about
'N
대용
##맞춤
리그로
근성
끼얹
붙일
소령
관현악
달을
맞기
##추진
장면과
반군
보이드
주에서
끝판왕
장진
커리
아이리스
암울한
얌전히
양천
##서클
50개
가차없이
켜고
희미
경찰관
선두타자
힘들기
흥행에
##자루
##n,
피츠버그
자들의
##길은
한다...
하다못해
Ry
김홍
닥터가
이점이
쿠파
##티스트
##치기로
영어로는
체포되어
강도가
경원
공지를
##없고
##검,
보는게
싱글로
당선된
"인
꺼낸
단계를
라울
숙박
척추
##END
주파수
높으면
동결
라인의
저조
##이었는지
있어서도
들어가면서
##교육청
노이
바빠
폴란드의
##순교자
법정동
'보
고졸
르노
사명
##ASS
프론티어
밴쿠버
나츠키
버전에
아군으로
하나하나가
귀속
단국
수렵
와해
후카
캄보디아
나성
남이
사하
주신
변경을
구운
난동을
알테
키프로
하강
##두지
희생을
##잖아!
걸렸
남용
##산군
물건이다.
출처는
백수
주축으로
##덕을
##리안이
것이라면
##다:
##mas
##/B
친구는
깽판을
치지
##니치
스트레이트
콜로세
양재
she
꺼져
승리하였다.
프라모델
##나긴
##야할
운용할
7화
시아
원어
##해줘야
##바오
##듯,
전체에서
격투가
떠올리며
오빠가
부드럽게
가평
윤지
장영
화순
##했거나
##연재
##중으로
거치며
대주교
조병
종업
##키오
##무트
##스트럭
프리킥
변신한다.
거치지
내수
시도는
##형사
작중의
수리를
앙상
##이었으니
미사키
장갑차
4쿼터
코시
스타크
소년이
지닌다.
##데미지를
NPC가
스크립트
마라.
오줌
최동
##들에서는
비교하는
나바
비활성
획득한다.
없지는
정세
퍼트
하겠다는
아니야.
시간으로
종류를
리더인
아일랜드의
4편
말았
말에서
연세대
##설로
꾸민
부록
역과
피버
어린아
4주차
##계통
아이유
노래방
띄우는
분의
위축
방송되었다.
허용하며
폐업
##비안
모습에서
2015년에는
Space
글에
안영
입점
작아서
##utiful
누구에게
08.
예외는
7번째
30여
파생된
kn
디셉
소행
싶었
항복을
헤카
겨루
남쪽의
##스카야
아나키
구식
달랐다.
아제르바이
##조노
무덤을
릴레이
파나마
##현으로
나왔으나
중심을
결혼하여
상술했듯
3티어
괴랄한
##길의
넘어온
##라운드를
나아진
김보
생일을
방어력:
대머리
도를
여자로
흔치
Say
블리츠
와일
##피와
##줄로
국가들의
동탄
로이드
##가루를
##초메
##M을
출연했던
우승했다.
퀘스트에서
종말
할만한
##.n
##르에
랜덤한
체코슬로
딸.
##미안
##테,
떠올리게
##ODE
극성
##신성
조준경
BS106
것부터
반공
반해,
섬세한
##상담
가능하면
M3
##-김
##문제가
##브러
##번호가
나타낼
시작하고,
변경했다.
성능과
마이티
의견에
6권
때린
##리오를
FC로
마라톤
명실상부
Gun
쓰다가
하였는데,
아티팩트
##naver.com/
반토
발포
##시스의
##전철
##회원
##주세요.
10화
능욕
뚫을
벌이게
##C가
3점을
완주
커진다.
##미디
##빛의
다른데
화살이
학살을
뉴비
조니
클럭
##rol
##ya
이기기
EL
R.
자회사
홈으로
##종족
표현했다.
에피소드.
궤도를
리드를
초고속
##,2
##지원을
##주세요
##갔던
개발하고
사쿠라가
고압
독성
소말
회사로
##INAL
##ather
신속하게
마지막엔
부하를
1912년
매달려
4배
세인
제비
##녀와
아니어서
가능하므로
번안
타선은
했기에
##주거나
##히사
##순한
어디선가
퀘스트는
##여.
##감염
U+11B
##;&#x11B
()
-6
Lee
사형을
쓰는데
의류
##지선
##심,
메구미
거머쥐
"최
Fight
남궁
아발
야루
유창
카롤
##기관이
##머는
##/아
브라더후
DIO
come
무더
지구와
번쩍
드라마에
##지방법원
플레이오프에서
WORLD
Bro
덱은
풍경
결정에
설정할
편입되었다.
눌러서
정관
보고도
아프로
##aker
비타민
대만의
상이
이홍
지원하기
부정할
##ATE
아머를
개표
암석
##레루
##이스는
30개
성능으로
참가하지
왕국은
글라
##right
##엔,
정리하는
끝마
엄마는
하니,
##부러
##ta
프로포
우주에
##:54
행운의
국토교통
시마다
있단
##곤이
가져갈
거두면서
들어오면서
##:30,
빗나가
뿔이
##모드로
노력하고
관련기사
한글로
보긴
시장은
##소대
##군이다.
##천과
##당했을
알라딘
독창
연마
오해가
황무
##혔던
##냈지만
진입할
##해졌고
주포를
##자리의
기계가
에테르
##시장에서
##자체가
##산물
##T를
암살을
##해가며
제갈량
##중일
##갔다고
홍콩의
6경기
곳이기도
오레
캐스트
코덱
토라
##는다고
무색하게
독일에
소시
통역
##파일러
##리카의
가족들을
포켓몬의
하야시
##1:
장비와
불가능하다고
정면에서
평일배차
잡으러
피셔
혹평
환불
최대치
가신
게으
증상을
후기에
##의에
언급되었다.
승리,
아테나
1단
우세를
파괴한
EZ2DJ
짧아서
탄수
형법
##가슴
##초마다
##osh
만우절
CBS
팔린
반대되는
##:24
구단주
혹시나
여론조사
부로
외친다.
유원
나오니
떨어졌
사진으로
김신
전선에
##스컵
##pr
경제적으로
쓸모없는
군이다.
기다리
Dest
높으며,
독자들에게
매턴
진실은
펑펑
정도니
2017-03
묶인
은혜를
Stri
음반이다.
해설을
세종특별자치
프랑크푸르트
화속성
##낌없이
불태워
여론을
##4회
##버스와
##산드
##손의
줄리엣
##정차
##화장
강요하는
##트리스
시절이
방향의
##버리자
Champions
관리에
파츠를
##요하게
TV에서
Apple
이유만으로
레오나르
루즈
문예
오버로드
왕에게
##-50
##M이
한정되어
글러브
노력으로
본체가
##/비
##안보
Def
디버프가
1명을
##색이다.
어디에도
도달할
##장이자
평가된다.
무너지고
슈팅을
남기지
중퇴
지시에
했습니다.
##다음
경기력
중앙아시아
병사들의
스프레이
정반대
돌발
중이었다.
않은데
알아낸
황금의
##VEL
8.0
GOT
때문인데,
##초등학교,
이누야샤
hats
욕망
협곡
10점
##위원회를
나무의
걸림
##검과
카테고리
기증
김응
내포
헌정
연구원
차지하게
##-47
보여줬던
심연의
아이오
좋아진
##km의
표기법
승강장은
갉아
결계를
교사가
극찬
알트
캐서린
고척
중등
파병
##여단
영감
죠셉
패전투
##s/
걸리고
분수
조사에
폭포
##되곤
##con
변경된다.
착각하는
정확하게는
경제가
명왕
신들
스테판
않으
##는지도
기록한다.
Sweet
어정쩡
'만
감각을
김남
듯,
뚫려
몹을
분쟁이
수박
##기체
##화폐
##대학의
해야하는
구입한
G2
유네
지르는
##지간
선택은
재계약을
바꾸면
코너가
게시판에
관할하는
아끼지
결말이
##eter
스트레이
마운틴
조류
##S는
모습,
물려받은
목걸이를
서약
진실이
컨텐
##D,
##넌트
##끄럽게
레이의
우라늄
사양이
야마자키
전하고
##분기
가능하도록
Young
위원장
발전이
##라든가
##레트
이어받은
대응할
받아들인다.
진격의
베드로
파나
끌어내
은퇴했다.
U-20
상층
안은
##번.
기믹을
곡으로,
극한의
##행사
사랑받는
알아챈
##uss
##OUR
무자비
play
같습니다.
애인
이동하여
부모님의
격차를
않기로
선수였다.
월드시리즈
금천
흐르고
##에요.
##대까지
공간으로
주말배차
유니버설
건널
대문
브렌
섬머
인계
##제나
##움으로
##:57
끝이다.
독자들은
##루루
컨텐츠가
결성된
나폴리
"스
Friend
Wanna
레비아
##-40
##할지도
것처럼,
##웨이브
장관을
##atter
분류되는
다반
리플
멘트를
무례
위기에서
##물리
기술,
##ume
유래된
I'll
7호선
가정을
동사
일들이
몰랐다.
열렬한
주임
죽였
투명한
##프스키
면에서도
받거나
제2회
하기엔
페미니스트
When
세토
펼치며
특성과
브리핑
피스톨
놀려
선글라
앞에는
자결
주겠다고
##져야
사라졌
##ental
09월
무섭게
+8
닛산
대덕
허드
##인건
##시켰고
나타나자
함재기
증가한
요리사
들어오기
사토시
겐지
고도의
비닐
한니
##소시
##>의
컨디션이
메아리
임정
##도나
고려대
##공간을
EXPERT
깨우
망했다.
한개
##oup
시청률을
환영을
펼친다.
했더니
확장을
표기하는
곧잘
슈트를
잦아
타자로
없었으며,
+15%
안기
물건은
그때는
간호사
XBOX
갈구
허수아
전부가
7.62
5.4
Hel
cont
기이한
19:00
유명했던
엑스맨
'중
화재가
##가량
##드롭
##P는
시도한다.
스쳐
주자가
항일
##공인
##xt
##왔지만
4강에서
##검찰청
가문에
백신
적인
직원들이
##집과
##상태를
박한
안팎
재고
##다에게
나와있
Rev
미나모토
유카리
말뚝
하와
혼성
생활이
보도했다.
시켰다.
트와일라잇
아이슬란드
'더
둥지
사요
합스부르크
##찰을
것이기에
체력,
미션의
샌디에이고
올라오고
1905년
등판한
괴짜
##네로
알았는데
인적
천장
혁명을
##판에는
##났을
가능해서
선택한다.
파티가
##ormal
가릴
상정
중용
현무
##body
##암이
##갔지만
프리스트
냉철
주인은
이루지
조선시대의
얼굴도
모드에
미겔
짜리
아니라도
##가지의
자세한건
도입되었다.
교직원
의도로
재선
탑에서
판정은
##주행
##순,
보리
##코이
##담은
자리잡았다.
Warhammer
얼터너
먹혀
코끼
키메라
풀어나
##교회의
인하여.
안가
찍기
##사추
베는
봤던
출진
##용으로는
##쓰기
7월,
hatsan
2골을
낳고
페더
플리
해,
##루이
##답을
##오고,
이례적으로
4위로
가뭄
리저
방해를
작센
있었으니
Road
금수
알카
##get
못한다면
리더로
화장품
조절할
분비
##장수
시작,
베네수엘라
"도
빡세
적군의
정점을
타수
##두와
10개의
싸우면
타이틀은
계몽
옥상에서
지대한
지속되는
파고들
##파에서
##이라던가
##ena
4월,
정책이
골치아
면적이
부호
##로드를
##/무
독일군의
실종된
섬기는
진,
##화되면서
취소되었다.
긴토
의구
창문을
하로
them
외국의
##루스는
##아메리카
##회의를
데이터베이스
##르지오
마땅한
궁전
김문
해지
##곳이
진행되어
KE
알리고
##급과
기록했고,
8월,
##스테이트
너머로
비일
빠지
썼다고
월터
편으로,
##해버리고
##누스는
키사라기
fl
구역을
남자로
문양이
타원
##리아스
되는데...
규슈
돈과
승리하면서
월드컵에
DI
KC
돌출
아라이
카푸
하나당
찾아오는
강팀
비평가
애슐
##ral
유명했다.
이쪽으로
책임지는
저그의
밀리터리
기행을
매뉴얼
피우
##2차
##슬레이
상승,
범위의
[[http://
대차게
별자리
연호
워드
테크를
##티아의
##ANG
우투우타
기장
솔랭
탈바꿈
해전
현의
현자의
##차이가
##려한
고드
##lace
요구에
게시글
애완동물
단위의
디즈
조화를
중남
##로즈
##반짝
만들면서
만들어주는
##고등학교는
접근성이
클릭하면
##카운터
승을
신예
황재
##메이지
##익은
1900
사람에게는
2016년에는
##다"라며
추락한
빈틈을
3G
계수가
노아
물로
시작될
삼국시대
코스를
토도
퍼거
회장을
어마어마하게
점성
##체험
##담한
방패가
시어터
만으로
외침
유체
충무
##노이드
공격했다.
##들과도
헤지혹
감마
오거
##-인
모자라서
BLACK
5세대
##독의
메인보컬
깐다.
대우가
문경
발판을
살벌
알겠
번역을
Fate/Grand
난타
떨쳐
처지가
##님께서
"하
발에
비현실
삼켜
우에다
하에서
##vy
독일을
서바이버
제재를
하동
자기들
6월,
동료의
##리우스의
번영
##1은
싸움으로
무한도
신체적
##:33
데도
둘로
연계를
혼종
##겨우
엣지
##알을
낚아
동두
마법과
깨지는
랭크가
유투
티모
적용할
파티의
보다시피
출발하는
개체가
##이프
수비에
받는다는
베른
서고
팬픽
##식도
##E,
아이돌을
##unt
비율로
다이나믹
9대
걸리기
##민들이
##피스토
##율의
분야를
강진
매거진
10월,
직후,
솔로몬
닉네임을
격이
경주시
나락으로
다마
앱을
음이
일하던
컬트
##짜고
무시한다.
직업의
클래스는
높일
어윤
오하이
취한다.
##합니
공기를
선교사
옐로우
지경에
최종결
승강장을
"비
베스
복권
##/고
##no
##옥타
다르다고
때까지는
루시안
##키도
5월,
인생이
카를로
거울을
5호선
보전
응우옌
저속
##순은
가위바위
사일런트
위헌
자네
포로가
##:16
##레기
부품이
백제의
컬럼비아
현악
##역인
##날이
하나와
비교를
회피가
어두워
GG
끝나게
창병
콘도
##데기
필요하지
마그마
상자에서
1Lv
8화
군주가
기르
섬이
##비오
문화체육
나카지마
카구라
##화기
자주포
유지하면서
포지션에
구는
김철
영어,
##프랑스
공휴일
린드
인플
헌액
##뿐.
##는데다가
그치지
리차
미화
틈이
팽창
저지르고
승승장구
외부에
포츈
실명
##였다고.
##식이다.
이용하기
사건,
패배의
##지라,
NXT
이씨
남자에게
her
기폭
대책을
초계
화에서
12월,
##:53
##미네이션
2안타
반다
##항이
##각과
평가.
나와있다.
Dead
Yes
백설
공식적으로는
카메라에
손책
제자로
운동장
비꼬는
대각선
옮길
아키야마
##:03
돕고
신승
엿먹
방어력은
노선도
내기도
질럿
편향
학원에
##nb
사랑한
파일:
##드.
만났던
난데없이
예수의
의원을
##레스는
따지는
##석탑
##사지
##퍼센트
바닥이
1번째
X-
네게
출력이
여성으로
숙련된
사춘
이바라
펜실
##유예
필요없는
DH
맞췄
이긴다.
##곳에서
정보통신
선진국
4화에서
격하
노기자
리시
저의
##:47
덧붙였다.
빌미로
색상은
훈장을
폭발에
180도
'1
고폭탄
##와르
고고학
##비티
몬스터에게
타입.
##:58
진영에
친절하게
SUPER
분화
털리는
##있었던
분노하여
#f
익히
##덩어
없는게
지원하고
패러독
원칙을
장르가
일본군이
우승은
##:9
##leep
수입이
##OWER
이덕
쿄코
##스트리
갈라져
트라우마를
낮다는
투수를
##버로
##SH
16세
##reet
290
1930년대
작용한다.
결선
에라
엘프의
원화
##인이나
##iet
처리하기
반란군
멀쩡하게
굳게
날리
느슨
메꾸
배럴
배역을
억누
현자
작품도
종족을
1907년
어설트
장식이
친화
틈새
프롬
해트
##격은
##익스피
메가트
무방할
불확실
대는
자수
전사가
##하에게
##ouch
살아남았다.
동남아
비하여
일그러
##살,
##요금
남자친
아키타
신설된
##겼다고
카운터가
대방
센터를
##링턴
##맞게
달려드는
감안해도
+100
다한
빛나
요리가
##파츠
##완의
##바이크
##후로
##언어
뿐이라는
인프
켈리
느끼며
시각이
돌리면
발판
웨스턴
##살.
영상도
'예
가나가와
걸리게
단적으로
장관이
##외교
변경할
1일차
드라큘라
띠고
리어
싹쓸
진화를
포옹
정보,
대전의
대중의
대결이
입단하였다.
브랜드를
마운트
파수꾼
빙글빙글
넓이는
되기에
매너
애비
태도에
##하냐
##써의
고려해야
Mal
다했다.
양준
##남과
아니었고
감소하는
불리우는
##운동에
안티오
투기장
5단계
샬럿
세습
총체
모습이었다.
전국적으로
말투가
박격포
내부로
타인을
##단체의
##치거나
성공률
익스프레스
Let's
공기가
부는
주춤
직렬
해부
##송의
수준까지
히로인.
Inter
루트비히
바이오닉
Ag
wanna
기꺼
물체
보헤
호우
##사토
결정전
귀신이
데다,
판본
흐지
진출한다.
모색
없앨
조셉
##I,
##스태
##큐브
발동시
예전처럼
넣어야
##킨스
선택받은
미카엘
상으로
시연
진풍
2017년에는
확인하기
포지션으로
걱정할
사운드를
gu
적성
치요
##치카
항목으로
번역되었다.
SDRAM
궁금해
강하지만
사카가
새천년
대체되었다.
죽여야
두세
##ience
##처에서
만들거나
##:28
거면
배치를
##단에게
##열과
4월부터
괜찮다고
페널티를
분석을
예선을
우대
##/마법
##날에
로페
삼을
악질
##MHz
비판적인
상징인
부임한
새마을
세분
쳐들어가
패하면서
##ray
드래곤즈
진출할
근접해서
막아내는
나,
실책으로
에테
##aser
퀄리티를
영구적으로
빨라진다.
살피
세나
##백,
없었는데
부족이
##적이고,
마비노기
운석
##욱을
어려워서
자세하게
생기지
##:49
아쉽다.
무방비
르네상스
벼슬
사시
세단
펼칠
##ied
##놀이를
무기:
프리덤
활용하기
결승전에
중간중간에
EXO
따위가
야가미
열면
열리고
오블리
##랭킹
20~30
인물들을
##:56
NV
성적인
##자리가
처리한
##ands
제각각
놔두고
##러기
경산
악역으로
현수
활주로
##둘이
깠다.
내수용
##나잇
##/몬스터
##승은
몬스터와
9월,
관객수
ESP
숙소
##레이터가
인구수
거센
년이
생식
##내용
사람이나
진출하는
기절한
배신하고
스매시
급감
따름
룰이
수명을
아론
캡쳐
##행과
##위성
##학교로
유지하며
인상적이다.
스켈레톤
'포
불투명
저절로
필요.
가려면
볼로
힘내
##자니
##정역
##월을
아라비아
풀업
##야드
##옥은
참여를
불리며,
##ttack
스텔라
디나
##용으로도
##오라고
##입은
2014.
갑작스레
에볼루션
묻자,
터프
##UND
인벤토
블룸
사나다
위그
작전은
##스킬의
아포칼립스
세례를
죄가
##준다면
##착륙
누이
진은
메이킹
살해하고
AO
곡선
기라
판테
제작비
받았는데
##시켰다고
김봉
안쪽에
##웠을
파일럿이
Death
시그널
우스갯
김무
단조
명작
소가
수양
했으면
##트라는
유지되는
1씩
성실한
타인에게
예정된
무관한
5라운드
신발을
접할
##시켰다는
거절했다.
아야카
상담을
##일체
##WAR
하나님의
18,
하였지만
채널에
한숨을
깎는
미군은
사드
영원의
제련
탑에
##수지
##:39
QP
맞서는
속여
용어로
##종점
##회피
##윤은
위해서라도
부모는
사령관이
커맨드를
##기능이
부메랑
원소의
음란
처칠
##사격을
League
승기를
어르
Aut
강에
쓸려
전엔
##꼬박
다음이
발견하게
엔딩.
Line
걷고
세바
##별이
수정했습니다.
설계된
마구잡이로
강령
교복을
에콰
##R.
프로펠
단순하게
"지금
버릇이
악어
수입을
Del
이곳저
LCS
공으로
입각
##던전
빠지면
##타늄
##면에서는
존재인
넘어뜨
불곰
크툴
##달은
스피커
신분이
전원의
퇴직
##호에서
공격적으로
16강에서
000
스탯은
커버가
누구를
전면에
현실로
자료는
의식한
프랭클린
알렉산드르
은평
##손을
18대
2018년에는
이때,
등록되어
##종인
##훈에게
일반계
배우들이
into
달아나
경전철
B,
김학
대난
줄리아
초빙
##미더
블루스
Tra
고딕
##재생
##햄튼
발동되는
북미판
장탄수가
꼬박꼬박
꽃의
염소
##마가와
클럽의
!!
4레벨
##해졌다는
아즈텍
무자비한
기만
뿐인데
함정이
출신으로,
유발하는
고원
카스가
##한다거나
구하지
금을
로브
예매
피크
떨어지면서
결정할
1970
##버튼을
받침
부르며,
2번의
반열에
본명이
##I가
##품과
##잖은
사무소
대항하는
'매
7.0
NG
걸작
흠.
##액은
##토크
설치하여
본작에서는
추억의
권장한다.
딸은
상트
투입되었다.
화성시
존경하는
떠들
사신을
십이
한순
헬싱
##인게
방문하여
성녀
쿠와
##싶은
떠나기
제주특별자치도
거라면
부순
소행성
##마루의
##저도
##능을
하나밖에
독자들의
마작
##5명
30,
2점을
거창
박승
소식에
예견
##발과
것도,
SKE48
##국이다.
4G
국영
라디오에서
어른의
미흡
체이
##시면
##관에게
사용하거나
대신해서
응원하는
##방어력
리미트
반한
사족으로
색상이
이븐
##국립
##겐의
발동한
힘들지만
어렵고,
동생의
'한국
싸그리
황교
경우다.
18:00
찾아보면
##타로와
##awn
선체
##포시
##속도로
대표작
스튜디오에서
시합을
준플레이오프
##멜로
선수인
2월,
가토
겪어
도살
##프도
##10,
기억은
십중팔구
MUSIC
4.1
광전사
영유
쿼드
증가로
무시무시
6세
논의가
반포
생일이
주세요.
모두들
러시아와
안정성
몰락한
꼽히
않으려
종을
##위원회에서
미니앨범
판단하고
##:23
##관계는
순차적으로
##베다
##옵니다.
2개로
표시되는
WCW
부총
##토라
##럴드
been
5단
미숙한
표면에
했음에도
##할게
##풍은
##ense
##ily
톡톡히
관해서
영조
위장한
주거나
##리크
##정령
파괴된다.
##ations
혼란이
김사
바랬
아기를
인기에
22:00
운영되고
운행하고
##태평양
동쪽의
##프티
파괴하면
브랜드로
기대가
날씨가
기술적
##illa
무엇이든
건축물
히토미
각지의
되겠다.
전해져
철도가
편의를
##명이나
얘기는
##:13
##해가는
프리메라
들여다
Games
등에서도
줄거리
치환
##이라는게
유명해진
쓰러지는
예정이었다.
괜찮을
long
말리는
입장에
##표에
##onic
실제론
마감했다.
내부를
연료를
17:00
유전자를
멕시코의
연행
의도는
제곱
지울
츠치
판권
정도로만
SKY
인천공항
달라졌다.
컴퓨터의
출마하였으나
장악하고
피니쉬
'연
당부
병력의
서귀
스가
역전을
요리는
투르
필수로
횟수를
후작
##마!
최종전에서
텔레비
Tom
맛있게
쌍방울
외형을
카모
터키의
홀수
그러다보니
밀어내고
Cortex
굴절
어미
한시
206
동일본
아이콘이
김일성
TEAM
3위에
개는
말버릇
물량이
유지가
##공무
앨범.
##듯이,
타입은
EA
Kill
아크로
17세
##해주자.
더스트
소지가
##:46
##제한이
A의
월트
툴팁
##름은
부분에서는
찾아낸
움직인
페이지를
마주친
묶은
재킷
##피디아
보여줘
##:08
사야카
고온
미만의
##질도
넥서
##yo
돌아가면서
Pack
일부분
파피
##나먼
##m로
##순실
하나에게
1908년
##헌이
##았으나,
##볼로
마약을
샤르
영지를
##/목록
파워풀
##IDE
보루시아
##.T.
'K
고르고
김장
베드
침범
##C는
##음반
##투르
##챔피언
남편인
페이퍼
데프
영재
히브리
##광은
##재산
##EP
의존도가
마술의
리눅스
잔당
푸드
##fr
##ini
대중들에게
전년
##취급
##글리
추가될
007
내전이
함선이
##교실
플레이도
알고는
##&gt;,
바이오하자
법무부
사거리는
##시인
만들며
전투기를
빼앗기고
SKT가
후반부에는
매체에서
영역이
##:01
1998년에
##:43
맘대로
시프트
##유치
##재해
##yr
##토스의
플레이하면
##스케가
진화한
There
팔꿈치
사비
않았으면
도착해
위키러
##:38
Lv+1,
Brave
그대의
실감
##작업을
##eral
배우인
검찰은
SNS에
꺼내는
모았다.
주특
##암으로
전문적인
미드필더로
포뮬러
한심
##4가
조선에
에그제
5에서
버리면
혼이
##글러
임명되어
부근에서
제공되는
오토봇
국가대표팀의
스프라이트
흑마법사
실상
음역
지상의
##호르
##:27
단종되었다.
나돌
푸르
##su
##율과
##리카가
러시아,
언제든
동메달을
노다
레너
와다
##료의
"이제
도전과제
조그만
기회는
몸과
증강
##베어
무기한
1위.
이케다
RGB
물질이
여관
##베스트
##날개
판매량을
##위원회에
훌륭하게
유네스코
따를
리브
센스가
자리로
##갤에서
깨닫는다.
뛰어들어
##파울
##죄의
나온다면
나라로
없다면서
시달리는
Exp
뇌물
선공개
##헌의
압도적
많았고
빼도
찾아온다.
없어지는
A형
Sl
블레
충원
비스마르크
안면
워해머
판도
##편과
부탁으로
알리바
포이즌
##이치의
##!,
##시간대
흐지부지
국왕의
바위를
박건
일대에서
통조
##축이
구분하는
##하하하하
##모드를
니가타
가스가
본사는
##거북
확정적으로
일상생활
Ma
더해서
##춘다.
경기관총
##스로부터
영향도
크나큰
홈경기에서
##계급
##다오
##1동,
추가하는
##스타는
##OTH
버라이어티
6천
의사의
탓도
##메드
##보트
##호크
제작,
Inv
it's
우디
절제
평론
##자로,
##ler
오펜
조경
칸자키
##품인
자세가
무식한
리액션
상으로는
승리는
우정을
전공을
언급도
아마노
##:29
이마에
잠잠
생각없이
최종적으로는
프랑스에
역임한
정교한
기기를
리노
리빌딩
영국군
2턴간
거유
문구를
에뮬
의심이
이스탄
전초
향을
##K,
##푸르
시전할
규칙이
성대모
5장
나리
의욕
##모아
일반인이
애니플러스
아프다.
802
예상하고
블러디
부딪혀
무패
압력
재장
휘발
##지라는
##부터,
유일의
사격이
##짜고짜
"시
잡히지
출세
빠져나와
테마로
검사가
꽃은
반죽
역병
##box
##form
##픽셀
나왔다
소환되는
친구들은
res
까칠
뭉개
배웠다.
단계로
적대적인
DL
극장에서
제단
평판이
홍문
##들아
##갑옷
따라가는
발동된다.
위안부
삼천
필기
##러스의
##거지로
'위
NMB
때리
은밀
하세가와
##한테서
인터넷을
일컫는다.
감동을
건전
들리지
섬은
1985
오래전부터
전반전
붙어있
개선된
다투는
재등장.
함포
##여!
사용은
##되었는지
유형문화재
주한미
독도
연기에
조정을
##스윙
선택하고
어렵지만
##:07
가쓰
디비
안무를
알폰
울리는
접두
현역으로
##이드를
##주던
##in,
##시아를
숙련도
미끼로
풍습
친구들에게
ad
mAh
말:
팍팍
길기
붙인다.
##금속
##'이나
성공,
나왔으며,
반란이
중학교이다.
비정상적으로
커널
##더라도,
작용하는
승부조작
구도를
난리
쫓는
협약
##부모
특성화
하루를
##:36
인디애나
광화문
고층
애가
크기와
현지에서
##orce
충돌을
날리며
재구성
##윈드
유지된다.
상원
양조
##지배
##립을
선수들도
언급했듯이
건가?
최면
왕창
##줬다고
##공격은
고유한
내주는
연꽃
카라스
##IF
인정받는
Chap
##니르
##밍이
부분과
##니까,
올리면서
눈치챘
바이러스를
'R
교회를
사절
셔먼
##항은
##씨로
##가지로
##라인에
북한을
제거한
상향되었다.
작화가
천차만
##철도의
지금껏
경찰과
잡아도
9회초
국적의
다짜고짜
로자
왔다가
인턴
자사의
##메인
##음으로써
##무기의
##웅의
귀찮아
대서양
변신이
뿌리를
수두
챙길
쿠페
변신할
5화에서
FT
##틴이
감독에게
선언하고
공략이
받아들였다.
서인
인구를
큐트
##아니아
이러니
전기톱
은메달을
x2
고철
주는데
##연에
노선.
부여합니다.
생성한다.
##사이클
오바마
Great
팀원들이
##언은
사항이
4,000
괴뢰
당주
##/M
개발되었다.
스토리로
시스템이다.
조각이
좋지는
패하며
보병을
얼터너티브
모금
부문에
회화
12.7
##itt
엔진과
##ember
##ㅋㅋㅋㅋ
반기를
부위가
사연을
송구
TECHN
금빛
돌며
무고
사인을
좋겠다고
혼용
##불로
지금처럼
찾아보
내놓는
접근해
그놈의
강압
거점으로
불교의
좋았을
##만원을
사용하는데,
......
1997년에
트로피를
아이러니한
적나라
처하자
전문적으로
기초적인
공병
밀워
##저에
##연승
##알이
연구소에서
드라마이다.
경찰에게
시도할
미래는
사귀는
억울한
MOV
동상
편이기
##통으로
##/공
##특집
##천역
미켈
유수
요구한
어중간한
구가
묘지에서
액트
트리스
##부에게
##지언정
##개정
대미지도
연재가
완료하면
올리기도
부상당한
되찾기
배급사
부위에
시위가
유유히
내리면
명씩
안쪽으로
원리를
일만
자로
##D는
현실과
2실점
Full
악기를
##읍,
사회과학
한계에
나와야
거부했다.
포르쉐
"일
25년
bl
라니
##일까?
멀티를
미하일
"R
교수를
중랑
##해요
##n't
##섭의
묘사하는
500m
안타까워
변하고
지로
가족들과
이사벨
닫기
작년에
##:19
존재에
설정한
Direct
하나였던
장면의
결승골을
##:31
요코야마
기꺼이
괴담
기르는
바오
속도,
##명사
충격이
거쳐야
집안이
한계로
상호작
NA
격인
부잣
##여우
11대
츠바사
무용지
6명의
곡도
쿨타임을
형식이
##kn
##민정
축구단
폭발로
지하로
죽음은
물어보는
Level
어릴적
주사위를
연쇄살인
수전
이산화
영웅들이
정리하고
다단히트
주주
효고
##C를
##퀴엠
독립적인
RT
각광
명지
##치곤
계룡
대에
만점
최근엔
보편적인
필멸
##-O
피해야
제이미
BMS
Hi
과묵
로쿠
##블럭
설정도
애니메이션은
수행하고
탑재되어
LPDDR
5개월
생을
수다
자력
##와라
##상으로도
공공기관
머리카락이
말하자면,
정규리그
날려버린다.
사파이어
여겼다.
통로를
자유주의
서버에서
반을
플레이오
대항하기
-0
2페이즈
개선을
무르
보태
##ince
##ider
##이야기
같을
괴로
박인
시립
여권
역도
오코
포박
하소
##염이
##북도의
##손은
케이틀
높아지는
##시험을
Long
구룡
키무라
횡령
##etter
패배하면서
2017-08
고창
대군
아놀
지독한
##6회
패배해
완전체
가리켜
전술한
박소
번성
##않은
인간들의
##계획을
산산조각
저러
##엘프
##층,
##골,
##이라곤
기존에는
의문.
유틸리티
sw
폭딜
생각합니다.
선택의
청량리
뽑는다.
파밀
활기
##지하
사태로
마녀가
##:44
뇌물을
패가
##타석
2014년에는
선거인
모를까
프로레슬러
EASY
Mnet
##패스를
어려웠다.
그룹에
##:51
제5회
센트리
##무기는
##창조
1번,
놀리는
잘난
##태와
액션을
해주었다.
##지않아
Mad
레논
화력과
동일하지만
비열한
건설할
바주카
까고
싶더니
웃지
##없다고
한국방송
##인이었다.
움직이고
해결을
단체의
친분을
한판
이어주는
패배하며
사운드트랙
그렉
동의를
밤에는
분신을
유능
##레온
달러에
##이이
##학적인
##9회
사용되기도
친구이자
##상태에서
미야모토
셰프
시정
##캐릭
##섭,
활약하였다.
##교육과
H2
주제는
##청과
##푸른
##지역으로
차례차례
소용돌
에인절
3세의
7권
극도의
뿌린
정리를
투옥
옛날에는
서양의
'실
사장의
##없게
Rep
죽어라
미식축구
그밖에
대교
알몸
육지
일상을
총사령관
##즈미
##득이
수준에서
F-15
고쿠
군대에서
로데
은혼
##스톱
선택해서
탑재했다.
##도루
##aph
주문은
U+D
##센터에서
3연속
지켜보던
루팅
마니
직설
휠체
##코리아
##덕분에
사용한다면
아니다!
1996년에
프란체
코퍼레이션
6~7
9호선
나스
버팔로
이회
탤런트
##토메
분위기와
핵심적인
9화
거하게
모면
최지
컨퍼런스
##렌과
Who
황태자
네크로맨
신념을
##트륨
##바타
##튼은
모델과
우선시
##OSS
boy
물방울
주소를
할까
##지라고
목소리와
중반까지
철도역
테란의
Set
뒤져
추산
드래곤과
초기엔
##ection
영광의
NATO
6:
견해를
몹이
출중한
mar
시드를
운수
프록
혜성
##원한
아버지,
##adow
구매하는
실험체
SMG
인피니트
마땅히
곡사
맷집이
오미
##란다
한국에는
지적하는
시나리오가
않으려고
수상자
제갈량이
##바닥에
5개를
오공
##부시
않아,
1906년
반영된
8.1
나에
더해져
의기
전년도
그래봤자
아카데
##:02
LG전
사령부
골이
로프
알았다.
용으로
추앙
탱크를
##방해
감독에
아이템인
##하는데...
하루종일
망가뜨
관대
놀이기
연패
호를
클리어한
##ours
##ext
GU
공과
미합
밝게
쟈니
##필의
중요하지
주장이다.
속성으로
나무로
있다면서
2층에
포르투갈의
미완성
취향이
##치기도
어울린다.
평상시
포터블
공시
해보고
##3가
플레이한
나왔으며
라이벌인
오피셜
국보
들면,
오성
사람들에
방어력과
집중하는
제6회
4패
김강
질서를
협정
##엑스
울릉
향상을
##홀드
상대와
해석하는
떨어지지만
가네
감정에
미소년
##EXT
##정류장
6승
굴릴
수모를
##버터
##학위를
##렉터
프로젝트가
출발하여
370
5세트
구설
놀라서
도화
하워
설정에서
시청자들
##IAL
System
'야
길티
당하기
병력으로
폄하
##러시아
##요새
사이,
사이즈가
비슷해서
##방송이
시전한
치명타를
권총으로
급성
배신을
구분된다.
의아해
Green
이남
최용
##회사의
일본군은
차별을
블로킹
껍질
들키지
문양
왕도
의인
호스
##네이터
##팔을
먹기도
##고기를
영화와
높아지고
붉게
화룡
강조했다.
05월
독단
흑화
##머를
##1과
##강하
카페에
포인트의
##민족행위
식당에서
이와는
제명
###s
##ility
##:26
카즈야
아오키
남아있지
중형전차
로컬라이징
##리바운드
못했지만,
사울
질책
##게의
##렸는지
한국어를
지역.
반대편
니콜라스
플래그를
볼드모
케네디
랩터
말기에
이연
가능합니다.
현재로서는
아무렇지
초심
판단이
##ips
##록에
##달러를
##배우,
시작했다고
##:04
##선생님
노을
대장이
들인
이적을
칠성
케이트
한진
##퍼로
부족할
고등학교에
래빗
루트의
위치와
즉위한
##제에게
스테이크
디자인에
클럽에서
목욕탕
브렛
시호는
통폐합
팬들에게는
07월
미쓰비시
Ele
원종
##프린
##+5
어머니.
폭발한다.
에이스로
국왕이
나빴
에임
이분
자에게
한들
선수로,
성공하는
프로젝트에
##기술이
붙잡힌
테크놀
##테르부르크
뒤틀린
남성을
오열
원상
죽임을
흐트러
힘들다고
벗어나는
예술가
아시안게임
성산
에미야
##기타
##현상이
구매가
2-2
갈리아
에리어
카이로
##승리
##났다고
[[분류:
소용이
최태
풀기
##어린
일단락
얼굴의
대비하여
제시카
에스프레
까다롭
클레오
레딧
취미는
태도는
##3동
19,
간사이
목적인
위나라
##지다.
##무한
##밀리
뉴욕의
##:34
홈페이지를
3/4
바래
수량
입당
치워
##해달라는
활동하며
##ometh
능숙하게
실정이다.
오컬트
비관
시녀
커지는
##티켓
마사무
##가능.
동원하여
심리적
새턴
어쿠스
청계
설정된
대략적인
확정지었다.
KGC
다우
덤비
평가할
형편없는
독수
박사를
정자
##들조차
##진들이
연구의
6화에서
백상
뼈를
열리지
##되어도
그곳을
마저도
곡괭
군대와
요네
클리어를
입수할
광선을
비축
비행을
인격을
조조를
##들이기
나쁘진
조조에게
말썽
잡으면서
##도비
##선인
"그럼
건강을
소지하고
440
Dem
MAN
숙종
에피소드에
고개
제우스
##%에
##범퇴
##앙의
아니냐며
##ORPG
'백
3/3
뒤흔
행위로
##'며
##년을
들어야
TV를
흐름에
흠좀무.
take
싶다
조정이
##기압
##심도
해야만
다케다
피라미드
곡들은
부름
연평균
정할
##았다가
##궤도
평행세계
로사
지낼
##허가
실패하였다.
나이도
디럭스
다시한번
했다.#
2017-01
불운
야인
의자에
한술
##-!
Lv.5
60초
칼날을
뿐더러,
##마기
상황이라면
등장인물들이
주름
초능력을
##소닉
##;;
##멘틀
25,
누릴
잡으려
평원
##2000
##enn
1,5
연기하는
교황의
무효로
물고기를
강했던
무공을
속칭
스무
친위대
태자
##났고,
인터페이
2017-18
시즈오카
##GHz
##프리트
##오나
##글러브
시작했는데,
피해량을
추측할
MP를
직역하면
5억
OT
세조
악명을
열성
영웅에게
극중에서
다람쥐
부르면
붕어
##이아
이미지의
곁을
셰익스피
시동
16개
코믹스의
"에
아게
##타로는
##RP
포지션.
프레디
아나스타
Network
'장
5점
권리가
분량의
샤우
영도
##수비
##름한
불가능하게
스크랩
인벤토리
잡는데
##수있는
##/40
제한되어
1남
Cup
머나먼
합은
허경
##림도
발생하게
물리공격
문화와
추천하는
PRO
North
국장
따위를
이한
최적의
호버
##치던
##네거리
Port
미우라
##사고가
##덕,
감독이다.
패배하는
##cm의
정당화
단점도
기생충
고3
그라가
모시는
밝아
외장
##대생
있는걸
31일,
기다릴
가로지
관객을
세바스
항의를
아이템과
달러로
##디에이터
불행한
Cortex-A
건달
말인
사적인
서일본
유쾌한
과거엔
유지되고
모른다
절망적인
군주의
지우는
아니었고,
끝나자
버디
통신을
##였음에도
Tem
사신의
성악
신안
유시
코팅
달려들어
그때부터
에드워
이용객이
고군분투
듣보잡
540
사장은
카시와
##자한
##가쿠
프랑스를
우리들은
쉬워진다.
불완전
신들이
안토
##실하게
##간으로
적합하지
카카오톡
셋쇼
않음.
케로로
##물이나
애니판에서는
교통사고로
교외
꼬여
도리
나타나기
이하일
컴퓨터에
콘스탄티
2종
고의로
##조절
국가들
회복된다.
영어의
##irc
토모에
방한
##정복
##!"라며
777
구단은
##K를
스킬들이
313
자막이
법칙을
Japan
신혼
경우라면
##...이
참가한다.
탑재하고
##500원
판도라
상승한
평소보다
파악한
Pa
반대한
언어는
타석에
##포도
##합의
##얼굴
하늘색
거부감을
초창기에
머물렀
맡기는
제도는
##병들을
좋아할
고민하는
팔레스타인
2/2
알래스카
Stand
형성하고
멈추는
검과
놈들
총칭
탁구
페르난도
댄서
울버린
패퇴
##야키
지나도
11월,
해결이
나름대로의
새정치민주연합
삼지
위인
이면
행적이
화상을
황인
효용
##/김
##BR
포인트로
릴리즈
상록
없긴
엘리스
제자리
상징적인
사막의
광석
라면서
있잖아
편애
##티넨
##협의회
도시인
기획사
3-1
메신
발해
분양
언어가
살아야
알게된
University
거지?
반대를
백경
별반
##수무
##까마귀
소속인
웨일스
DA
대천
여기가
일제의
존이
등장을
현대적인
##라인드
죽음과
공통으로
자격증
밀짚모자
멜리
점프로
힘들어서
방향은
마사히로
상상도
간절
번번
브록
총애를
##부터의
소모량이
HP:
요청했다.
마르세
2017-07
원칙적으로
사유로
재보궐선거
##콘서트
자오
##자본
단점이다.
타케시
가자.
노쇠
머리로
메인이
##왔으며,
비밀로
엔트리에
우여곡절
니키
메타가
예정이었던
당황한다.
제18대
무수히
'화
돕는다.
자들
하천
##jp
##케라
12대
경험한
미니맵
비정상적인
Burst
네로
루돌프
벌려
흔들어
##파도
##식당
##에게,
지휘관이
"이런
연예계
격차
대활약
##였으면
내려갈
버티기
##곡에
##덕은
20.
##리온이
##nbsp
4점
레퀴엠
지갑
##나드는
13대
성장했다.
착용하는
타케우치
디아블
왜냐면
슬러그
번을
확률도
출현한다.
섬세
수명
이산
##달라며
그렇다는
위치하는
유령이
미스틱
2성
짝수
슬라브
##사냥꾼
스튜어트
가우
미개
##젤리
바람직
논란으로
스킨이
천연가스버스
대난투
"김
삼총
아약
총점
11화
필요해
퓨처스
신체의
푸에르
##uj
운행이
제네시스
어설픈
5턴
Gre
물자를
##중량
##클레스
##주나
##댔다.
지켰다.
엄청나다.
포스가
##국도
##g,
##랄라
1월부터
가정에서
백성들을
개드립
맵.
속은
포화
회원이
##제도를
##치히
##센스
한국식
16.
##이어도
앨범으로
가수이다.
갈아치
탱커가
"죽
구역에
닮았다고
명,
케이크를
##전산
##렌스
그레이브
수와
회로
증가를
성공회
이렇다.
국내에서도
소유자.
##마이징
초보자
공장이
##상품
모습과는
대표를
발사한
플레이오프에
1편에서
매치를
변할
이루기
전국에
##:06
##:52
있듯이,
논리를
농부
성불
소사
##일인
##룩한
##셈부르크
대표팀의
만들어준
마음가
1회차
1995년에
SD건담
Pol
섣불리
6세대
두드
양식을
양쪽에
잭이
##난무
##건만
이상이면
##라이프
방송에서는
##리안은
악몽을
헤라클레
버니
부류
서든
##르르
##덩이를
따라붙
사진에서
계획대로
하드웨
진입하는
비난이
10년이
건강이
부적합
나일
멘트
자랐다.
죽여서
차관
스피리츠
'새
고트
고블
기고
명분으로
해야할
2번이나
유리의
##추적
##락,
토큰을
1명의
도핑
질린
##URE
11위
지원,
요구된다.
합류하여
.5
데이지
##맨에게
##팽이
공작의
인스타그램에
아데
입장은
##다리가
##"란
개인정보
PH
상자가
수혜
전준
처박
포스코
프로텍
밀수
없앤
##심리
힘들고,
Secret
신에
여우주연
저주에
##제비
##/v
50,
헤비웨이트
문서로.
변장한
쌓을
##razy
##전사령
대규모의
##불교
##율로
유닛들은
내려다
think
간을
##Sp
##궁이
완성도가
##삼국무쌍
견해
극의
업고
티에
영향은
마을은
개인적
달성하였다.
메뉴를
패로
한여름
항아리
후원을
영상과
제출한
Esports
디셉티콘
G.
낚시를
##iri
분류되어
윌리엄스
에스토니아
의성
철도의
칸을
후기의
##맥이
잠시동안
Spe
##기간을
까발
꾸짖
의의
재림
##페인
##청사
소설이
2장을
알린다.
풀백
재미있게
부천시
쌓는
장지
집단으로
##타가와
08월
RN
도난
차근
##세르
지역,
언급할
허용하는
Mel
고르면
정류장에서
유승민
교회에
난리가
최경
06월
탐험가
뜻대로
살려서
타란
만들었고
방어도
받았지만,
기나긴
요충
##루냐
##근과
거두는
꿰뚫어
교체를
공격에서
레벨당
승리하여
표현의
##해주며
##:22
약속한
자살한
04월
크루세이더
감사의
깔린
저,
편파
##차기
후에야
소양
월화
##해놓은
##-리
##사쿠
##심사
대표이사
대기하고
방문하는
리옹
술집
형과
##어가며
대학교에
걱정하지
덴마크의
떠돌아
셋을
허정
##줄게
##좋아
블리
살지
종은
체계가
##숭아
게임내
대표의
이곳으로
스크류
영화배우이다.
해트트릭
look
가루가
길이를
제자리에서
조련
##중에서도
##리그로
나이지리아
증인
키우기
포상
##-d
##버리게
##대우
극복하고
동백
물류
빅토리
유비의
전범
##A와
##센터가
일본어를
이어갔다.
발생해
제공된다.
가게에서
세워져
주관하는
밴드는
존에
중하
##라:
금지되어
01월
노르망
E3
ah
놓지
종용
친절한
##우체
##궁으로
비행기가
약점인
마찰을
겉보기
불릿
##연료
의견은
거부한
##행복
처치할
콘서트에서
하얀색
저택에
둘러싸인
연이은
1안타
관념
실전에서
##시어
##uman
DPS가
사부
차크
학자들은
사용했을
성공하면서
타카히로
판단하여
삼각형
헬멧을
X의
노엘
말에는
##이드가
##120
##귀족
올라올
나루호
were
모조
벌기
싶어도
원수를
##발동
그룹으로
착각하고
지리적
8천
교회에서
베오
##암,
그것이다.
어비
증상
##식한
##갔다는
없는지
영혼은
녹음한
MTV
당했을
주인공들이
노출된
노부나가의
존댓말을
기세가
신현
실격
##수로,
역할.
불가능하기
절반으로
'네
5초간
8th
사보
육탄
##시니
##울프
2400
학생들도
참가하고
##인가.
심리학
무늬가
폐허가
갔다고
모치
순례
암속성
조광
허리를
##레에
더불어서
언제부터
본작에서
떨어뜨려
1발
Glo
쓰이던
자백
조정에
폐교
##공립
##건데
호감도가
겉보
고해
사탄
치르고
##설의
##오거리
##ault
성향은
심심치
바는
벌어들
소프
##대면
##귀는
활동으로
스니
탄산
황색
##isode
해서,
실시하는
##사항을
밀레니엄
기약
옵저
이공
##과로
##별의
##호흡
##암은
동맹이
롤러코스터
"성
애칭은
직사
진삼국무쌍
##덱을
소개한
2학기
Call
Die
TRA
김미
도카이
문자로
왕자가
##몽의
소설에서
'재
교감
스팟
애교
타자를
판넬
하지도
##규와
제공했다.
속도에
4컷
사루
여명
##기일
아닌가?
발매하였다.
종합격투
크레용
##REAM
근육이
시영
만들어진다.
이제부터
Ah
대참
못하던
윈도
여담이지만,
나쁘다.
의결
카미야
파프
페트
흩뿌
##동성
##T,
##세상
##층석탑
16비트
##ella
인정한다.
실행할
문은
싶지만
아모
쯤에
##샤와
##쥐는
##되었다면
방영분
노려볼
컸던
##하겠다.
스승인
이스라엘의
브랜든
꼭두각시
짜는
##겼던
따라선
조선왕조
영입했다.
코로나19
놓치고
도굴
말하는데,
먹일
스로
승선
이희
##공사가
##언론
바다가
보도를
식은
탄속이
포에
성공하며
만든다는
발췌
시대는
욕하는
전례가
해외로
흑색
##사탕
나와있는
도전할
만신
봤다고
첫등
크래프트
##:14
##전이나
##릿수
부산에서
태양이
난입한
시계를
싸구려
전근
좌천
##:17
##페라
##:21
장기적으로
사사구
6만
쓰이게
빙빙
요절
##데우스
20세
일어나게
떨어뜨리는
PG
순위에
##비에서
##되었음을
뽑아낼
강해진다.
병원을
비에
비토
선착
심복
픽을
##임무
##사유
용병으로
도울
독소
우시
##됨으로써
벌어지기도
1층에
Ze
속속
##릭은
##한다고.
고양이의
그래픽이
무승부로
당뇨
현재로
영웅.
쓰러뜨리면
GAME
문화체육관광
"넌
교단의
빠르기
작사가
사람이라는
물리적인
##영화제
노조미
번번히
1위가
3~5
NR
겪는다.
끊긴
문정
백호
아큐
한자가
호송
호무라
##받으면
명령이
Again
돼.
우한
위압
##루나
##빨간
안정성을
시설은
2연속
넥스트
쾰른
퍼지는
##했어도
설치하면
수염을
감격
다이고
애원
의회의
잘게
저주의
##/마
외모로
아나톨
눈부신
850
밤새
양정
에마
##매일
##TN
##분교
사이키
볼리비아
두껍
마술을
아캄
열화
##티스의
##출처
생각해도
요구하고
호시노
여기저기서
녹음을
칩셋
파묻
협정을
##누의
##털이
비판은
오우거
2쿨
계양
궁정
수장인
아칸
##닌자
##옥타브
4단
다진
데바
명랑
믿음을
좋으며
혁명의
##코비
패턴에
막아내
대립하는
안드레아
오하이오
강하기
먹인
소유의
적다는
주동
처방
황해도
유럽연합
출전하였다.
##운동의
아이스하
재빠르게
공생
관세
들기
시는
표적이
남쪽으로는
페이스북에
미쳤
밤하늘
윤치
##연금
##평의
##레이의
##ates
탈출한다.
##ology
계산을
맥아
버리고,
##'하는
회복력
대회이다.
운동은
계열은
##&lt;br&gt;
카야
##지자,
##숙의
##쭉한
포함되는
계획이다.
때려눕
비범한
자이로
역사학
다방
방청
영어가
체질
##넣고
##랗게
무한히
두려움을
뜬금없는
넘쳐나는
2부에서
강승
병사의
알론
흥행을
##탈이
공연에
분리되었다.
ZZ
글씨는
뇌를
봉인이
사파
초에는
공격기
방어하는
학생들과
데인
물가
인제
회장은
##후후
##왕자
##골에
209
상대도
설명하자면
대중에게
초콜릿을
속마
쓰였던
행세를
##여명의
##존의
타입을
메인으로
엔딩으로
국무총리
광기
베아
한눈에
해봤
진행하면서
난이도도
##ander
미나토
에스컬
하느님의
관직
왕실의
후방에
##레알
##았다면
##혐오
##스크의
종료된다.
이탈리아,
##스케의
마르틴
많았다고
인조인간
2B
검에
떠는
소굴
코나미
형제는
노래이다.
맞춰야
승격되었다.
실을
##M,
프리시즌
냉정한
노틸
선점
송광
죽고,
테슬라
##싸움이
정도인
조합하면
##:09
제압할
새끼를
콘텐츠를
7인
과감하게
관직을
괴물로
빼는
슬프
영수
##객이
성공했을
알아내
##다니고
왕국에
털어놓
앞장서
교체가
마네
빠졌
##시트
##자격
##롯데
##왔기
너무도
드러내며
참여한다.
##나이츠
상징으로
감정은
피하지
##over
획득하였다.
그룹은
도쿄에서
변화하는
공국
딜러가
어김없이
##파스
##코타
지켜본
뉴욕에서
##글라데
뮤턴트
장윤
토론을
흘린
##로동
##듭니다.
때문인지,
갈리
괄호
도라
범주
##석에게
##1차
##렁이
이례적인
난쟁이
막히
##버둥
##후와
알려지면서
영천
##버러
달성하면
한명인
읽어보면
밀도가
월광
유폐
라인전에서
민폐를
엉망진
같기도
모함
의과대학
지시로
##부에서는
##전이다.
##좌를
사용하면서
##학교,
레이너
격발
##You
218
배터리를
일품.
잊어버
장흥
하자는
현혹
혼잡
여자에게
누구의
불꽃이
관람가
토크쇼
어벤져스
교전에서
다정
말하는데
##패는
스타더스트
나가야
보였으나,
코너.
대전을
성역
장문
아쉬움이
31일까지
때쯤
연고로
옳다.
팔콘
형은
##키메
##라호
##ki
핵심은
##전투기
평상시에는
DEX
내줬
단체가
디테일
모리스
약하지만
초장
호가
##법에서
1,4
수정.
복귀하였다.
드랍한다.
공부하는
시키면
시그마
G1
과감한
안되어
치마
친구들의
호칭을
3:0으로
겁에
오라고
##NE
스펙은
어쿠스틱
V8
곳까지
##장비를
##쓴다.
프로토스의
메세지를
커스터마이징
로고를
쇠사
한심한
원작과는
##레벨을
안정화
강서구
et
값은
소각
아톰
여단
타코
홈즈
##변으로
중앙에서
표기된
생성하는
무게는
##할때마다
##가능하다.
무덤에
5위를
신시내
큰일
##A3
생산력
화염의
##SPA
바이오하자드
W.
최현
킹의
##록,
##투의
가르시아
확보하는
데스매치
노기자카
House
노인이
좋다면
크기도
##야로
##왔는데
##fore
게다가,
불가능하고
적합하다.
삼자범퇴
헬기를
여러차례
되찾고
낮추는
##라던가
##입니까?
나오므로
요청한다.
##ney
세련된
B형
시련을
옷은
##쉬,
##급행
세계와
소환합니다.
참가하게
쓰러지고
선언하였다.
2위,
##:4로
백과
신격
##화물
2편의
닥치고
번,
부당
잘하면
초조
파리에서
##데스가
##준에게
##주려고
보고서를
취급된다.
##이에요.
제3회
히카리
불길한
맵이다.
받으며,
부지기
자아를
페라
##열로
##짐.
정도까지
클리어.
2022년
남편은
많았는데,
맞이하게
스테이터스
감각이
과감
길에서
다분
좋으며,
##소비
##되다
평균적으로
##/22
Inc
Intern
씨앗을
아르헨티나의
앤더슨
빌드를
존재하던
세계관에
패시브가
이론은
Mach
칠드
리그베다
매니저가
슬픔을
백마
##차인
수도로
아제르바이잔
몸길
상단의
신비의
얽혀
영토가
입헌
입니다.
##만인
##임금
##빛을
##캐로
유럽과
##.01.
##하겠습니다.
"네가
문자가
희소
##정부는
캐릭터들과
일조했다.
강은
단계가
도합
띄우
부자연
연성
##구매
것이지,
소환사
참가해
##emy
강제적으로
부적절한
PPV
##:48
싶은데
##order
LB
고체
기관이
농협
책으로
통제를
문제없이
스코어가
전통이
열차의
도플
레퍼
소심한
험난
##-t
##견의
자기들이
아래쪽
시나리오에서
비극적인
다레
닥터의
위에는
지위가
한바탕
##성향
##피어
클래스를
듀얼에서
개업일
추기경
소감을
##oom
##코트
이동통신
사고의
잘못한
인식하는
머물렀다.
#3
가르는
강적
기정
세카이
얘는
##근한
지원할
우주선을
글래스
2달
BP
성문
아몬
안락
좁고
##마이어
##값에
바꾸기
365
남성은
도스
썼을
역부족
온화한
지평
##법칙
##/정
##9의
처음이다.
운영한다.
정치,
가능한데
Lun
노하
룩셈부르크
만원
지면에
##부치
오리엔
2발
과실
성원
##부에는
제갈량의
MiG
네메
##거미
##속성의
##걸의
중국으로
시절과
##기관으로
그때까지
편의상
##슈타인의
적혀있는
키쿠치
결전을
납부
놓쳐
산림
성분이
양양
##서기
##션은
20000
친구에게
발동하면
로봇의
##:42
비방
소심
은거
프라우
함대는
##잡지
##북에
가지며
국민들이
##그룹이
##기능을
독립운동가
게이트를
규탄
수속성
안식
요리에
탄다.
함성:
근거를
생일은
##aa
아사쿠라
갈아엎
마누엘
시이나
오마이
총사령
##러스가
##방식은
하고는
기지에서
##센터를
있었음을
요소들이
허용하지
들어오고
2~4
생물의
신부가
##덩어리
승강장이
뛰었던
손잡이
직위를
##선수가
3500
나서도
##전쟁에서
스카이림
가주
경장갑
소니아
엮인다.
##자식
경우로
##부분의
구성으로
해주지
HL
얻어야
원했던
중위권
폭망
##bb
##ELL
작품들을
싱글이다.
곤란하다.
##~199
모빌슈트
iP
마차
아드리
온전한
일인지
치켜
환장
프렌드
강했다.
어비스
흑의
##/오
한국계
##ESS
간간이
디스트로이어
강렬
##스트롱
중앙일보
거두지
APC
1904년
근거는
납치해
불사조
언커먼
##루스를
##골은
비슷하다는
시절.
화장실에
절망의
맡았으며,
MI
동전을
영역에서
윤보
작품들은
않은데,
둘째치고
수익이
캐치프레이
4K
둔갑
무릅
##nam
##oph
여겨지고
대처가
냉정하게
3전
비전투
라인전을
7화에서
LF
쇼를
원통
칸나
흥선
##가지가
클래시
마무리.
히틀러의
마카오
농림
파편을
##/T
##녀.
구사할
9화에서
##일까
##주니어
##택의
만화.
스펙터
마츠이
2마리
대하여,
로메
불사의
##글의
##급수
감독도
손해배
8화에서
땜빵
원체
칸은
##했어야
참여하게
교육의
LG의
1000만
서쪽으로는
스사노
터지기
##자금
만족하는
시티의
6의
던전이
본체를
히지
##장로
공격하게
255
솔직하게
Year
동급의
속초
수목
키와
##수석
##대상이
##:41
행성에서
급으로
매매
신대
여운
접고
##중공업
호의적인
스바루
슈터
시우
채소
황소
##벨벳
개발하는
노선과
드라마는
모르지만,
카가미네
펠리페
hp
수족
예상이
배틀로얄
츠쿠요
말라며
발버둥
정시
프톨레
흥미가
##차이
##먹어
##막에
방어선을
남겨두고
예리
피스톤
나츠메
블론
유이가
호밍
##됐으며,
##적으로,
나타나게
결혼할
말이지
질환
##내성
인물이었다.
힘들어진다.
차량과
지난해
사양은
가을에
느꼈다.
재상
선택했다.
정규앨범
채용하는
저그가
최순실
다채로운
풀타임
Cha
떠올리는
구사한다.
생중계
천국
##건가
##호대
보내면
유럽에
그레이스
증명하는
##지않은
뾰족한
러블리즈
리트
분투
올빼
자포
필요에
출시했다.
디어
무력을
여론은
변경,
했지만.
1911년
아나운서가
MMORPG
난을
먹방
분개
없다보니
##기사가
##예산
대한민국을
내려가면
OO
겁이
날렵
천리
##팀,
상대편
소개한다.
7세
극과
네버
매월
분식
##바보
##되지도
하나라고
덧붙여서
동쪽으로는
디멘션
2할
랄프
버텼
##이스트
##들어서
프로그램.
라이브에서
건틀릿
셋은
용접
##za
##생과
10화에서
##해주기
정책은
아티팩
옛날부터
이란의
대표팀에
야쿠자
향했다.
##쿠보
##올린
대한민국이
감소시킨다.
장착하는
전작보다
심심하면
him
네크
서쪽의
싸고
전선에서
##바겐
##레스테
에너지로
클래스가
##플레이어
기독교의
##하겠다며
7천
Dan
가시가
낙사
모기
보려고
뿌요
사안
역량
완봉
슬롯을
##도르프
빈센트
옥상
수록.
얘기다.
접착
초호
##'S
스타가
3번의
슬롯이
br
과자를
옥수
편리한
##JC
생산되는
건강에
꾸려
모건
오영
##1이
##'다.
롯데의
부진에
노량
물몸
분장
외쳐
철제
##:32
##것이라고
활동하다가
그림체
근접공격
에서도
TC
것조차
방수
수고
스랄
저평가
##쳤지만
부모님을
압박이
가사에
손승
쉽기
##미트리
##va
나오자마자
그림자를
모션은
색깔을
music
몽키
세세
##:18
##나루
##렌즈
##틀랜드
사망자
제일의
01일
에르난
맥스웰
명장면
골치
신도시
적고,
##7회
방법으로는
##로부터의
촬영이
##버전이
대부분.
작품들
패배,
가볍고
경순
구의
주는데,
##~?
정당이
제기되고
위치해있다.
나만
맛있
방글라데
야오
탓이
편성이
존재이다.
없었으나,
대응이
개선이
##여대
##구름
##/서
회사이다.
밝히며
분쟁을
dream
가기도
일보
정상에
카드들을
만들어내
기사도
시원한
Key
기자의
쟁쟁
제다
해마다
##관객
##현상
##뚝뚝
제작하고
보내게
예상되는
엄격하게
전세계적으로
픽처스
금서목록
도카이도
##였습니다.
현대캐피탈
가르침
일시적인
북쪽으로는
어벤져스:
'라
정확도
재조명
군인들이
평온
추가할
실패하는
MAD
앤서니
노노
도무지
망가지
타선
##자랑
##당했다는
다이브
작곡은
니시니혼
비일비
520
##변화
밝혀지는
2012년에는
코너에서
앙상블
뜻도
성숙한
주공
타자가
심각하다.
겨우겨우
뒤쪽
중전
컨트리
##ori
여성에게
##ISS
난다
살며
##패.
현재에도
되는지
활약에
건설된
기미가
단계의
핵무기
##3에
##시간의
기능으로
기지가
다키
듣던
번이고
조운
사용,
성장할
대다수는
대등하게
이들에
17.
요청하는
조작하는
공평
광교
밟으면
아이라
잡혔다.
포톤
##캐롤
이어받아
도착했다.
기초로
'피
GC
away
강하지
부정한
안달
어땠
와도
##네르
견해가
나즈
부드러
[...]
