[PAD]
[UNK]
[BOS]
[EOS]
[CLS]
[SEP]
[MASK]
▁▃
▁ㅇ
ㅡㄴ
▁ㄱ
▁ㄷ
▁.
ㅡㄹ
▁ㄴ
▁ㅇㅔ
▁ㄴㅡㄴ
▁ㄹ
▁ㄷㅏ
▁ㅇㅣ
▁ㅎ
▁이
▁ㅇㅡㄹ
▁ㅇㅢ
▁하
ㅏㄴ
▁,
ㅅㅓ
▁ㄱㅏ
▁ㄹㅡㄹ
▁ㅇㅡㄴ
▁ㅁ
ㅈㅣ
ㄷㅏ
▁ㄱㅗ
▁1
▁ㅇㅡ
▁ㅎㅏㄴ
▁ㅇㅓ
▁있
▁2
ㄹㅗ
▁ㄷㅗ
▁ㄹㅗ
▁ㅎㅐ
▁사
▁그
▁ㅈㅣ
▁ㅁㅕ
▁들
▁시
▁수
▁아
▁ㅂ
▁대
▁ㄱㅔ
▁되
▁ㄱㅣ
▁일
▁전
▁ㄹㅏ
▁가
▁기
▁ㅇㅓㅆ
▁-
▁자
▁적
▁ㅇㅏ
▁ㅁㅕㄴ
▁것
▁ㅇㅣㄴ
▁다
▁3
▁보
▁지
▁스
▁ㄱㅘ
▁ㅇㅘ
▁주
▁ㅎㅐㅆ
▁마
ㄴㄷㅏ
▁상
▁정
ㄱㅗ
▁ㄷㅚ
ㅏㄹ
▁20
▁ㅈ
ㅕㅆ
▁년
▁공
▁'
ㅓㄴ
▁:
▁ㅎㅏㄴㄷㅏ
▁때
▁모
ㄴㅡㄴ
▁나
▁경
ㅁㅕ
▁중
▁유
▁제
ㅎㅐ
▁한
▁오
▁없
▁인
ㅁㅏㄴ
▁부
▁4
▁소
ㄴㅏ
▁ㅅ
▁성
▁등
ㄱㅔ
▁무
▁않
▁ㄴㅏ
▁ㅎㅏㄹ
▁5
▁ㅂㅗ
▁비
▁개
ㄷㅔ
▁0
▁미
ㅣㄴ
▁ㄷㅓㄴ
▁여
▁월
▁"
▁어
▁조
▁ㄲ
▁201
▁ㅁㅏㄴ
▁세
▁장
▁/
▁위
▁방
▁만
▁고
▁동
▁카
▁바
▁연
▁선
▁도
ㄹㄹ
▁거
▁영
▁신
▁타
▁안
▁화
▁후
▁말
ㅎㅏㄴ
▁발
▁리
▁ㄴㅡㄴㄷㅔ
▁구
▁내
▁차
▁레
ㅁㅕㄴ
▁때문
▁6
ㄱㅏ
▁ㄲㅏ
▁ㄷㅚㄴ
▁생
▁원
▁10
▁파
▁명
▁최
▁우
ㅇㅓ
▁문
▁ㅈㅏ
▁실
ㅜㄴ
▁당
▁7
▁노
▁번
▁강
▁ㅇㅕㅆ
▁포
▁같
▁해
▁회
▁데
▁서
▁더
▁ㄷㅚㄴㄷㅏ
▁단
▁S
▁진
▁8
▁특
▁ㄱㅓ
▁많
▁초
▁결
▁받
▁라
▁!
▁ㅊ
▁관
▁ㅇㅏㅆ
▁ㅂㅜ
▁불
▁작
▁반
▁의
▁프
▁역
▁19
▁게
▁버
▁ㅁㅕㄴㅅㅓ
ㄷㅗ
▁9
ㄹㅏ
▁코
▁경우
▁계
ㄴㅣ
▁공격
▁배
▁분
▁ㅇㅕ
▁ㄸ
▁추
▁피
▁A
▁아니
▁드
▁사용
▁출
ㅌㅓ
▁국
▁남
▁에
▁현
레이
▁크
▁M
▁물
▁자신
▁이후
ㄹㅓ
▁매
▁%
▁편
▁좋
▁점
▁호
ㅣㄴㄷㅏ
▁감
▁패
▁ㄷㅐ
▁트
▁학
▁로
▁교
▁ㅋ
▁정도
▁사람
▁재
▁C
ㅇㅑ
▁요
▁또
▁ㅅㅓ
스트
▁저
▁그리
▁예
▁두
▁B
▁플
▁입
▁가능
▁T
ㄹㅕ
▁ㅆ
▁김
▁설
ㅣㄹ
▁속
▁달
▁참
▁형
▁캐
ㅇㅗ
▁함
▁등장
▁본
▁치
▁ㅇㅟ
▁알
▁평
▁D
ㅇㅡ
ㅇㅜㄴ
▁ㅁㅗ
▁메
▁~
▁+
ㅇㅕ
▁과
▁ㅌ
▁..
▁12
▁종
▁다른
▁승
▁아이
▁?
ㅈㅣㄴ
▁체
▁게임
▁토
▁권
▁팀
▁군
▁ㄴㅡㄴㄷㅏ
er
▁ㅇㅗ
▁200
▁11
▁L
▁ㅅㅣ
▁직
▁용
▁ㅁㅏ
▁외
▁판
00
▁그리고
▁확
▁애
▁처
ㅇㅏ
▁하나
in
▁경기
▁잘
▁행
▁사실
▁테
▁F
▁필
▁시간
▁ㄴㅣ
▁운
▁키
▁P
▁죽
ㅇㅘ
▁쓰
▁ㅂㅓ
ㅂㄴㅣ
▁박
▁못
▁ㅂㅏ
▁심
▁투
▁살
ㅇㅎㅐ
▁디
▁변
▁모습
▁목
▁간
▁뒤
ㄴㅏㄴ
▁집
ㅈㅕ
▁히
▁G
▁활
▁네
▁이상
▁루
▁사이
▁이름
▁통
▁베
▁높
▁E
▁각
▁양
▁나오
▁상대
▁순
▁언
스터
▁표
ㄹㄹㅕ
▁맞
▁그러
▁야
an
▁ㅈㅜ
▁능
지만
▁시작
▁ㄱㅓㄴ
▁효
on
▁15
▁ㄹㅕ
▁존
▁ㄴㅐ
▁문제
▁돌
▁일본
▁함께
▁왕
▁하지만
▁증
▁ㅇㅑ
ㅇㅝ
▁한국
▁병
▁손
▁#
▁ㄱㅔㅆ
▁생각
▁H
▁캐릭
▁건
▁ㅎㅏ
▁약
▁ㄱㅡ
▁브
▁R
▁K
▁천
▁폭
▁캐릭터
▁ㅊㅓ
ㄹㅓㅁ
▁별
▁완
ㄹㅡㄴ
▁능력
▁듯
▁프로
▁ㅍ
▁t
대로
▁너
▁총
▁클
▁플레이
▁I
▁독
▁블
▁시즌
▁다시
▁N
▁스킬
▁잡
▁막
▁페
이트
▁항
▁ㄸㅏ
▁날
▁광
▁ㅃ
▁근
▁추가
▁음
▁복
▁m
▁가지
▁ㄱㅓㄹ
▁식
▁검
▁가장
▁힘
▁카드
▁따
▁상황
▁만들
▁또한
or
미지
ㅈㅕㅆ
▁먹
▁삼
▁상태
▁당시
ㅓㄹ
▁모두
ar
▁열
▁결국
▁효과
▁백
▁충
▁곡
▁업
▁18
▁모든
▁16
▁다만
▁쿠
▁채
ㄹㅣㄴ
ㄲㅏ
▁많이
▁얼
▁악
▁금
▁보이
▁30
▁전투
▁O
at
ㄴㅐ
▁시리
▁및
▁티
▁끝
▁ㄷㅡㄹ
ㅅㅓㄴ
▁ㄷㅚㄹ
▁13
▁ㅁㅗㅅ
▁산
▁임
ㄴㅣㄴ
▁레벨
▁ㅅㅡ
▁급
▁민
▁눈
he
▁]
▁올
▁s
▁선수
▁세계
▁태
▁W
▁ㅂㅗㄹ
ㄹㄹㅏ
▁존재
▁엔
라이
▁14
ㄱㅕ
▁[
ㅇㅛ
▁친
▁현재
▁라이
▁시리즈
▁매우
▁무기
▁ㅇㅣㄹ
▁그런
▁슈
ㅇㅗㄴ
▁상당
▁앞
▁ㅅㅐ
▁길
▁스타
▁ㅋㅡㄴ
▁커
▁물론
▁머
▁레이
▁그러나
▁첫
▁ㅌㅗ
▁마법
▁골
en
ㅇㅣㄴㄷㅏ
▁17
▁c
▁극
▁절
▁황
▁팬
▁얻
▁난
ㅜㄹ
▁터
▁창
▁100
▁자체
▁기술
▁00
ㅇㅘㅆ
▁그렇
▁취
▁합
▁이런
▁니
▁주인
▁청
ㅇㅣㄴ
▁실제
▁이유
▁25
▁관련
ou
거리
▁V
al
이지
▁누
▁탈
ㅇㅎㅏㄴ
ㄹㅕㅆ
▁허
▁U
▁이용
▁필요
▁시키
ㅏㄴㄷㅏ
▁방송
▁ㄷㅡ
▁해당
▁기본
▁케
▁여기
▁다음
▁ㅇㅣㄴㄷㅔ
▁철
▁지역
▁법
▁기록
▁워
▁역시
▁처음
▁바로
▁방어
▁일반
▁곳
▁은
▁새
▁ㄱㅣㄴ
▁거의
▁ㄷㅓ
▁환
▁째
▁2017
▁199
▁피해
리스
학교
ㄷㅡㄴ
ㅊㅕ
▁북
▁혼
이스
▁ㅎㅐㅆㅇㅡ
▁그래
▁좀
▁아무
▁ㅂㅣ
▁2018
▁범
▁사건
▁여러
▁같이
▁이야
▁미국
▁ㄴㅑ
▁특히
▁ㅂㅘ
▁탄
▁이야기
▁격
▁ㄴㅡㄴㅈㅣ
ㅎㅕ
ㅈㅣㄴㄷㅏ
▁k
▁ㅇㅡㅁ
▁글
▁잠
ㅎㅐㅆ
▁ㅈㅣㄴ
▁몬
es
▁부분
리아
▁없이
▁영화
▁ㅌㅗㅇㅎㅐ
▁싶
▁학교
▁달리
▁ㅎㅏㅁ
지막
▁본인
▁증가
▁인간
▁진행
▁ㄷㅙ
▁넘
▁2019
▁ㅇㅔㄴ
▁참고
it
▁못하
▁ㄷㅡㄹㅇㅓ
▁즉
▁귀
▁싸
▁줄
▁ㅇㅣㄴㅈㅣ
▁버리
ㄹㅗㄱ
▁리그
▁엘
▁주인공
부분
▁제작
ㅇㅔ
▁뿐
▁속도
▁마지막
▁작품
▁21
▁X
▁50
▁준
▁그냥
▁몸
▁덕
어지
▁자기
▁찾
▁밀
▁내용
▁둘
▁2016
▁ㄷㅡㄴ
▁면
▁와
▁놓
▁걸
▁공격력
ㄹㄹㅓ
▁ㅅㅡㅂㄴㅣ
▁개요
ㅇㅗㄴㄷㅏ
▁대표
▁대부분
▁인물
▁수준
is
▁계속
▁&
▁암
re
▁몇
▁쪽
전히
▁비슷
▁위치
▁동안
▁어느
▁ㄱㅜ
▁22
▁헤
▁w
le
▁딜
ㅋㅕ
▁담
▁국가
▁대신
토리
▁ㅇㅣㄴㅎㅐ
▁홈
▁상당히
▁지금
▁평가
▁축
▁기사
▁활동
▁엄
▁일부
▁타이
▁관계
▁이전
▁J
▁접
▁영상
▁보스
▁우리
▁서울
▁d
ㅇㅕㅆ
▁질
▁24
▁체력
▁규
▁유닛
▁그대로
▁문서
▁감독
▁너무
▁최대
▁ㄴㅡ
▁들어
▁슬
▁기준
▁낮
▁성공
▁시절
ing
ic
▁홍
▁팔
▁f
▁러
▁넣
▁데미지
▁제외
▁중국
▁ㅁㅡ
▁ㅇㅏㄹ
▁빠
▁느
▁몬스터
as
▁츠
▁ㅅㅏ
▁유저
▁실제로
▁바람
▁ㅃㅏ
▁b
▁붙
▁정보
▁멤
▁결과
▁설정
시아
▁지원
▁전쟁
▁그녀
ㄴㅏㅆ
▁23
▁승리
▁갈
▁소속
ㅇㄱ
▁멤버
▁2015
▁논
▁이미
▁애니
▁벌
▁ㄹㅏㄴ
▁언급
▁ㄴㅗ
▁자리
▁40
▁울
▁님
▁맨
▁원래
▁온
▁ㅈㅝ
▁칼
▁성우
▁맡
▁직접
▁ㅂㅗㄴ
▁설명
▁ㅊㅣ
▁컨
▁육
버지
▁전체
▁이동
▁선택
▁도시
▁의미
▁a
▁풀
▁쉽
ㄹㅣㄴㄷㅏ
▁씩
운드
▁여자
▁마음
▁희
ㅡㅁ
▁다르
▁과거
▁<
랜드
ㅜㄴㄷㅏ
▁머리
▁괴
▁협
ㅂㅜ
▁ㅈㅜㄹ
▁ㅁㅜ
▁플레이어
▁친구
▁방법
▁아이템
이션
▁출연
▁봉
▁돈
▁뉴
▁측
▁장면
▁ㅂㅏㄺ
▁ㄷㅙㅆ
▁버전
▁ㅈㅜㄴㄷㅏ
▁스토리
▁차이
om
ㄷㅡㄹ
ㄹㅇㅏ
▁묘
▁탑
am
▁센
▁꽤
▁p
가지
ㄹㄹㅣㄴ
▁몰
▁h
▁대사
▁즈
이드
ㅣㅁ
ㅜㅁ
▁갑
▁공식
▁모드
어나
▁사랑
벤트
▁프리
▁소리
▁혹
▁압
▁ㄹㅓ
▁조금
▁이것
▁송
▁개발
▁198
el
▁대상
▁당하
▁대학
▁ㅇㅗㄹㄹㅏ
▁초반
▁파이
▁거리
▁버스
▁전부
▁o
▁연구
▁ㄸㅓㄹ
▁이벤트
▁씨
▁속성
▁침
▁퍼
▁최고
▁남자
▁26
▁링
▁ㅅㅔ
▁2014
▁제대로
ㅓㅁ
▁기타
▁책
▁ㅆㅓ
▁볼
▁ㅇㅏㄹㄹㅕ
▁강화
▁궁
▁유명
▁동시
▁만큼
▁여성
이도
ㅎㅏㄹ
▁파괴
▁n
▁스테
▁층
▁ㄴㅏㄹ
ㄹㅣㄹ
▁28
▁역사
▁나이
▁정말
▁듣
▁드래
▁아버지
▁쇼
▁소환
ㄱㅏㅆ
▁성능
▁27
▁자주
▁the
▁답
▁최종
▁학생
▁류
▁운영
▁색
▁31
▁우승
▁회복
▁아직
▁석
▁후반
ㅁㅕㄴㅅㅓ
▁앨
▁출신
▁ㅈㅗ
ㅎㅏㄴㄷㅏ
▁이렇
▁농
▁모르
▁당연
▁왜
▁마이
▁특성
▁=
▁ㄸㅓㄹㅇㅓ
▁나가
▁그런데
▁인터
▁공개
▁강력
▁확률
▁빌
▁콘
▁주로
▁사망
▁노선
▁멀
다가
▁유지
리어
▁노래
▁마리
▁서로
▁이때
ㅈㅏ
ol
ㄱㅏㄴ
▁ㄷㅗㄹㅇㅏ
▁ㅅㅐㅇㄱ
▁밖
▁발매
▁ㅈㅓ
▁000
▁ㄷㅡㅅ
▁그것
▁샤
▁슈퍼
▁방식
▁발생
▁특수
▁잔
▁마찬
▁마찬가지
▁나라
▁시스
ㅇㅓㅆ
▁라인
▁ㅇㅕㅆㅇㅡ
▁대전
ion
▁월드
▁영향
▁망
▁정신
▁결정
et
▁ㅇㅗㄴ
▁변경
▁솔
▁장비
▁영웅
ac
▁오히
▁기존
▁포함
▁비교
▁오히려
ㅊㅣㄴ
▁배우
▁역할
▁보통
▁인기
ㄹㅡㄴㄷㅏ
▁32
▁르
▁작중
▁게다가
▁ㅆㅡㄹ
▁뜻
ㅐㄴ
머니
▁찍
ㅇㅣ
▁수록
▁차량
▁먼
아가
▁형태
ㅁㅏ
▁마을
▁Y
▁아예
▁중요
▁들어가
▁세트
▁어떤
▁성격
▁싱
▁ㄴㅜ
▁좌
▁술
▁억
▁난이도
il
us
▁행동
ㄹㄹㅕㅆ
▁일단
▁이번
▁대한
▁29
프트
▁착
▁섬
▁ㅁㅗㅅㅎㅐㅆ
▁v
ig
▁ㅊㅏ
▁액
▁맵
▁모양
▁부르
ow
우스
▁갖
▁음악
▁흑
▁과정
▁ㅈㅕㅆ
▁시대
레이드
▁대회
▁드라
▁주장
▁최초
▁심지
ed
▁ㅁㅏㄴㄷㅡㄴ
민국
▁부족
▁ㅁㅣ
▁떨
ㅔㄴ
▁2013
▁구성
▁이러
▁ㅅㅏㄹ
ㄱㅓㄹ
▁사회
▁발동
▁스트
▁ㅉ
▁심지어
▁윤
▁이렇게
▁휴
ㄹㅐ
▁입장
▁폐
▁l
▁ㅋㅓ
▁ㄴㅏㄴ
▁유일
▁ㄷㅏㅇㅎㅐ
▁확인
ㅈㅣㄹ
▁ㄸㅓ
▁던
▁ㅇㅘㅆ
▁깨
▁바이
▁풍
▁사진
▁다이
▁거기
▁획
▁애니메
▁x
▁60
▁항목
▁빛
▁여담
▁정치
▁먼저
▁아래
▁활약
▁모델
▁조건
▁ㅆㅡ
▁자세
▁원작
▁35
▁ㅆㅏ
ㅇㅜㄹ
▁어떻
▁Lv
▁ㅎㅏㅂㄴㅣ
▁콜
▁훈
▁바뀌
▁덕분
▁대한민국
▁시스템
▁득
▁감소
▁하이
ㄱㅏㄴㄷㅏ
▁굉
ㅂㅗ
▁주변
▁완전히
id
ㄹㅡㄹ
▁이제
인트
▁까
▁응
▁ㅇㅣㅁ
▁명칭
▁프랑
▁챔
ay
ㅈㅊ
▁애니메이션
▁그래서
▁ㄴㅓㅁ
▁자유
▁따르
▁메이
▁ㄲㅡ
ad
▁특징
▁독일
▁2012
▁관리
▁얼굴
버스
▁자동
▁순간
▁전혀
▁뭐
▁01
▁우주
▁경찰
▁차지
▁적용
▁영어
ㄱㅏㄹ
▁교육
▁지나
▁부대
▁가격
나마
▁듀
ㅌㅏ
▁할
▁굉장
▁뮤
▁of
ㅇㅣㄹ
▁고등
▁r
▁정부
▁마스터
▁패배
▁드래곤
▁뛰
▁아군
▁기간
▁오브
소드
▁실패
▁앨범
없이
ot
▁생산
▁개인
ve
and
▁건물
▁힘들
▁덱
▁상승
ㅊㅏ
▁놀
▁그렇게
▁ㅈㅜㄴ
▁시점
▁얼마
▁지속
▁하루
▁혹은
▁기능
▁국내
▁뽑
▁획득
▁그나마
▁작가
▁ㄹㅜ
▁TV
▁ㅂㅏㄲ
▁ㅂㅏㄲㅇㅔ
디오
▁지구
▁아들
▁패치
주의
▁반대
▁턴
▁에피
▁처리
레스
▁웨
▁녹
▁소개
▁발견
▁퀘
▁실력
▁y
▁짓
▁반응
▁만화
▁제국
▁랭
▁참조
너지
▁기억
20
▁정확
▁동일
▁도움
▁대학교
▁영국
▁선발
▁킹
▁현대
ㅇㅗㄹ
ch
▁담당
▁출시
▁빼
▁그림
▁칸
▁에피소드
ㅇㅝㅆ
▁기관
▁쿨
▁맥
▁떠
▁땅
▁초기
▁량
▁세대
▁드라마
▁단계
ㅌㅔ
▁계획
▁향
▁아마
▁홀
ㅁㅊ
un
▁판매
▁밤
▁범위
▁또는
▁딱
▁ㅁㅔ
▁폴
▁버프
▁37
▁헬
BS
▁The
ㅆㅓ
ㅁㅡ
▁ㅆㅡㄴ
ㄴㅏㄴㄷㅏ
▁2010
▁퇴
▁ㅎㅏㄴㅌㅔ
▁패턴
▁시청
소리
▁맛
▁상위
▁늘
▁등급
▁g
ㅓㅇ
▁문화
▁대미지
▁회사
▁폭발
▁타입
▁벨
▁빠르
▁시기
▁표현
▁80
▁따라
▁싸우
▁빨
▁500
▁데이
▁요구
▁탐
▁무시
ㅎㅕㅆ
▁St
▁견
ㄹㄹㅣㄴㄷㅏ
ㄱㅣㄴ
▁확실
▁습
▁수비
▁라운드
▁45
▁스페
▁굉장히
▁끼
▁사고
▁이미지
▁진짜
ER
▁움
▁인정
ㅕㄴ
▁발사
▁경험
▁*
▁죽이
▁ㅈㅜㄱ
▁잃
▁어떻게
▁소모
▁파워
▁컴
▁09
▁주의
▁가족
▁)
▁생활
▁세이
▁묘사
▁특별
▁어디
dd
▁ㄱㅏㄹ
▁활용
▁낙
▁딸
▁율
ㄴㅐㅆ
▁족
▁디자
▁중앙
▁km
▁ㄷㅏㅇㅎㅏㄴ
▁아주
▁만나
▁오리
▁대체
▁히로
▁197
▁연기
▁02
▁한정
▁방향
▁트리
▁03
▁진출
▁ㅂㅏㄺㅎㅕ
▁운동
▁헌
▁ㅈㅝㅆ
인물
로스
▁데뷔
▁불리
▁엑
▁중간
▁그룹
▁프랑스
▁익
ㅎㅣㄴ
▁린
▁생명
▁물리
▁ㅇㅓㅁㅊ
▁ㅇㅓㅁㅊㅓㅇ
▁끌
▁싸움
▁졸
▁포인트
▁빈
▁엔딩
▁ㄴㅔ
▁어렵
▁2011
▁스테이지
ff
▁야구
▁ㄲㅡㅌ
▁믿
▁준비
▁핵
▁겨
▁선거
▁유리
▁등장인물
▁ㄹㅏㅇ
▁ㅂㅓㄹ
▁혼자
ir
▁흔
▁당연히
▁후보
▁시장
▁논란
▁옆
▁다니
▁꿈
▁위험
▁조합
▁순위
▁현실
▁사실상
▁05
▁무장
▁ㅇㅓㅁㅊㅓㅇㄴㅏㄴ
▁아르
통령
▁숙
▁퀘스트
▁Z
▁표기
▁흡
▁더욱
ㄱㅓㄴ
os
▁미션
▁고등학교
▁크리스
▁챔피
▁어머니
▁프로그
스크
▁분위
▁브라
▁70
▁민주
▁참여
▁90
▁떨어지
▁비판
▁그래도
▁08
▁구조
▁블랙
▁단순
▁학년
▁죄
ㅝㄴ
im
▁푸
▁계약
▁분위기
▁07
▁동료
ㅋㅕㅆ
▁약간
▁중심
▁링크
▁훨
ㅊㅕㅆ
▁투수
▁대통령
▁방어력
▁취급
▁욕
▁괜
▁조선
▁직업
▁48
▁ㅁㅗㅅㅎㅏㄴ
▁HP
▁콤
▁ㄱㅏㅆ
▁똑
리카
▁보호
비스
ter
▁구간
▁설치
▁계열
▁방면
▁얘
▁다양
▁여전히
▁위원
▁결혼
▁훨씬
▁ㄸㅟ
▁나무
▁전용
ㄱㅓ
▁쉬
▁염
이크
▁시도
▁디자인
머지
▁주요
▁나머지
▁올리
티브
▁06
▁mm
▁ㅇㅣㅂㄴㅣ
▁300
▁보상
▁2000
▁불구
▁일정
▁축구
▁이루
▁성적
▁웃
▁33
▁소녀
▁ㅂㅜㄹㄹㅓ
▁흥
▁...
니아
▁탓
▁연속
▁목적
▁수정
▁갤
▁올라
▁싫
▁탱
▁배틀
ur
▁지하
▁ㄱㅏㅇㅎㅏㄴ
▁읽
▁ㅌㅓ
▁종류
▁삼성
▁고려
▁36
▁부산
▁론
▁쌍
▁률
▁세력
▁성장
▁04
▁벽
▁기대
▁각각
▁대화
▁안타
ㄱㅕㅆ
▁지방
▁캠
▁팩
▁잘못
▁e
스로
od
ㅋㅣㄴ
▁참가
▁발표
▁이해
▁ㅇㅣㄹㅇㅓ
▁해결
▁력
▁의견
▁th
▁포켓
▁징
▁ㅅㅓㄴ
▁당신
▁전설
▁부상
ㅋㅡㅁ
ㅈㅜㄴㄷㅏ
ag
▁ㅊㅕ
▁방영
ㅈㅓ
▁큐
▁휘
▁느낌
▁예정
▁픽
▁전문
▁일행
▁거대
▁프로그램
▁스피
▁종족
▁you
▁랜
▁운행
▁ㅌㅏ
▁센터
▁ㅅㅗ
▁밴
▁힐
▁짜
▁소설
▁ㅁㅏㄴㅋㅡㅁ
▁과학
▁FC
▁숨
▁근접
▁각성
▁종료
▁부활
지션
ub
▁죽음
▁ㅈㅕ
▁배치
▁조사
▁도중
▁충분
ㄴㅏㄹ
▁렌
▁장착
▁녀
▁최근
▁짧
▁빅
데이트
▁ㄷㅜ
▁ㅈㅔ
▁아이돌
▁업데이트
▁국민
▁러시아
▁ㅂㅘㅆ
▁삭
▁정상
▁옥
▁무리
▁척
▁스카
▁세상
▁안정
▁cm
▁항공
ㅈㅇㅏ
▁나중
▁SK
▁절대
▁제목
igh
▁유니
▁제공
▁점수
▁경제
▁엄청
▁달성
▁엔진
▁번호
▁ㅅㅟ
▁지도
▁자연
▁챔피언
▁스스로
▁켄
ver
▁틀
▁배경
▁충격
▁추정
▁미사
▁만드
▁나타
▁목록
ㅋㅣㄹ
▁ㅋㅣ
▁번역
ak
▁작전
▁사이트
▁오래
▁롤
▁레어
▁가끔
▁포켓몬
▁비행
스타
▁곧
너스
▁목소리
▁34
▁똑같
▁셈
▁조직
▁요소
▁미래
▁규모
▁정체
▁196
▁스파
▁전작
▁남성
▁꾸
▁ㅁㅓ
ㅅㅣ
자기
▁ㄷㅏㅇㅎㅐㅆ
▁출전
▁ㅊㅏㅈㅇㅏ
▁악마
▁빙
▁전차
▁파티
▁공중
▁훈련
▁스타일
▁전사
▁십
▁타카
▁품
▁타격
ent
▁클리어
▁강하
▁ㅌㅐ
▁굴
▁ㅁㅏㅈㅊ
▁사냥
▁변화
▁에너지
▁만약
▁괜찮
▁홈런
▁동물
▁혈
▁클래
▁위기
▁생존
▁누구
▁분노
BC
ㅋㅣㄴㄷㅏ
▁자랑
▁신경
ㄱㅎㅏㄴ
▁ㅎㅐㅆㅇㅓㅆ
▁더불
▁득점
▁75
ㅡㄹㅇㅓ
▁꼬
리오
▁ㅇㅛ
um
▁뒷
▁수상
▁애초
▁필드
▁굳
▁건담
▁단점
ut
▁연결
▁로봇
▁장갑
▁크리
▁소재
▁국제
▁포지션
러스
▁vs
▁요리
ec
▁특정
디어
▁38
▁비용
▁기동
▁전기
▁싱글
▁냉
ㅇㄱㅕ
▁연합
▁사항
▁판정
▁ㅊㅐ
▁시험
▁런
▁덤
▁ㅎㅏㄴㄷㅔ
▁반면
▁장소
▁롯
▁공연
ㄹㄹㅣㄹ
▁한편
▁옵
▁기체
▁55
▁ㄷㅡㅅㅇㅣ
▁목표
▁항상
라지
▁화력
▁ㄴㅏㅁ
▁얘기
▁연출
▁무엇
▁사거리
▁무대
▁예상
▁정작
▁묻
▁in
▁시설
▁맹
▁멸
▁사업
▁2009
▁최소
▁던전
▁텐
▁움직
▁ㄷㅔ
▁인터뷰
▁유럽
▁관심
▁교체
▁ㄹㅣ
▁철도
▁ㅂㅜㅌ
▁하늘
▁내부
▁Q
▁야마
▁꽃
▁비밀
ST
▁제일
ro
▁칭
▁카이
▁지휘
▁사격
▁엘리
▁별로
▁다크
▁변신
▁인사
▁to
▁록
▁수치
▁찬
▁작곡
▁정식
▁ㅋㅡㄹ
▁다리
▁쓰이
▁나름
▁기계
ㄹㅏㄴ
▁스포
▁수도
ㄴㅑ
ㄴㅐㄴ
▁시전
▁교통
▁결승
▁파일
▁카운
▁오버
▁벤
아오
▁각종
▁부여
▁마나
▁따로
▁비롯
▁옷
▁코스
▁졸업
▁레인
▁케이
▁확정
▁일러
동안
▁ㅎㅣㅁ
▁오늘
나라
▁보내
▁진화
▁지상
▁치명
▁ㅈㅓㄴ
▁황제
▁이탈
▁그만
▁특이
▁이쪽
▁흐
▁놈
▁_
▁도로
▁란
▁전반
ㅕㄹ
▁북한
▁따라서
▁제한
▁라이브
▁기업
▁발전
▁끊
▁시티
▁건설
▁아키
▁병력
▁갑자기
em
▁왼
▁이외
▁EX
▁돌아가
▁오르
▁쯤
▁일러스트
▁의외
▁가사
▁ㅇㅜ
▁압도
▁언제
▁2008
▁나이트
▁역대
▁사정
▁넓
▁외국
▁ㅇㅣㄴㄱㅏ
▁삭제
▁아파
ight
▁주문
ㅝㅆ
▁ㅃㅜㄴ
아내
▁저항
▁티어
▁무슨
AN
▁탈출
▁직전
▁이닝
▁골드
▁지지
라인
어로
▁감정
▁이기
▁고양
▁임무
▁위력
▁보유
▁프레
▁아카
▁마치
▁자원
▁납
AR
▁노트
▁표시
▁세기
▁서비스
▁로드
▁지키
▁점프
▁어둠
▁집중
▁파트
▁전국
▁사례
▁분류
▁잉
▁쏘
▁아프
ㄷㅓㄴ
▁깊
▁',
▁랭크
▁ㄱㅗㄴ
▁페이
▁인구
▁ㅁㅓㄴ
▁효율
젝트
▁히어로
▁작업
▁ㄴㅓㅁㅇㅓ
▁상관
▁뇌
▁완전
ap
▁루트
▁아스
▁인식
▁회피
▁극장
▁가수
▁연습
▁공간
ON
▁도전
▁명령
▁생기
▁42
▁41
▁오른
▁화면
▁이어
▁ㅍㅣ
▁물건
▁별명
▁기회
▁경쟁
▁컬
▁장점
▁션
▁컵
▁폰
▁촬
▁레드
ㄱㅣㄹ
▁녀석
▁행정
▁래
그레이드
▁업그레이드
▁단어
▁잠시
▁인천
▁사기
▁No
▁개념
▁옛
▁ㄴㅐㄴ
▁군사
▁부모
▁몽
▁추천
▁오프
▁ㅎㅑ
▁39
ㅏㄹㄹㅏ
▁Ch
▁병원
▁스럽
▁근처
ㄹㅡㅁ
▁발언
▁ㄱㅘㄴ
▁ㅊㅣㄴ
▁펜
▁불가
▁꾼
▁무려
▁전력
▁194
▁살인
▁미니
▁아파트
▁신체
▁ㅇㅡㄴㄷㅔ
▁크기
학생
▁전개
▁ㅈㅛ
▁의식
▁정리
▁포기
▁촬영
▁kg
ㅂㅓ
▁>
ul
▁주제
페이지
▁본래
▁히트
▁킬
▁고정
▁강제
어들
▁44
▁타임
▁판단
▁ㅍㅜ
▁st
▁라이트
▁밑
▁ㅁㅗㄹㄹㅏ
ㅐㄹ
▁노력
▁붕
라스
▁밀리
ce
▁ㄱㅏㄴ
▁버그
▁부정
▁홈페이지
▁공주
▁이하
▁스코
▁평균
▁데스
000
▁셋
▁독립
▁2020
▁롭
▁멘
▁;
▁최강
▁학원
▁선생
▁구매
▁제거
▁베이
무리
▁ㅅㅣㅁ
▁왕국
▁구하
▁99
▁LG
▁제품
▁폭탄
▁위키
▁롯데
▁조종
▁밝
▁ㅅㅐㅇㄱㅕㅆ
▁꼭
▁닌
요일
▁분명
믹스
▁마법사
▁ㄱㅏㄴㄷㅏ
▁병사
▁고속
▁가드
▁리더
▁웹
▁여행
▁동생
ik
▁중반
▁단체
▁군대
▁윈
▁옵션
▁예전
ㄱㅎㅕ
▁2007
▁떡
▁전자
다리
▁행위
▁곤
▁짐
▁음식
다니
▁195
트리
▁노리
▁43
▁현상
▁대구
▁칠
▁완벽
▁ㅁㅝㄴ
▁수행
▁겪
all
▁가문
▁요시
IN
▁구분
▁탈락
야마
▁원인
▁새로
▁부탁
모토
▁완성
▁그야
▁대기
▁겸
▁ㅇㅗㄹㄹㅕ
드시
▁바다
▁MA
▁통합
▁붉
▁개그
▁의원
▁반드시
이치
▁일어나
란드
▁재료
▁하드
▁드러
▁전략
▁마사
▁바꾸
▁차원
▁주민
▁단지
▁펼
▁크로
▁복귀
▁쥬
▁직후
▁템
▁광역
▁환경
튜브
말로
nd
타임
▁한글
러리
▁연재
▁기반
▁46
이어
▁넘어
▁그야말로
▁서버
르트
▁47
트라
▁끝나
▁밸
▁지정
▁정규
▁치료
▁해군
▁인도
▁뜨
▁마무리
▁2006
▁연장
▁ㅈㅣㄹ
▁걱
▁보너스
▁걸리
▁타이틀
▁멜
▁해외
▁대장
▁ㅋㅔ
▁걱정
▁평범
▁다수
▁월드컵
▁다행
th
▁보병
▁느끼
▁유사
▁워낙
▁조작
▁공포
▁밥
▁포스
▁미사일
▁51
▁상세
▁코스트
▁심각
▁우선
▁추측
조건
▁가면
▁실험
▁빨리
▁ㅈㅣㄴㄷㅏ
▁샷
▁캡
▁필살
▁나타나
루스
▁디스
▁점점
▁폼
▁아무리
▁도착
▁다소
▁중학교
▁털
op
▁굳이
▁ㅈㅏㅂ
▁맞추
▁로마
▁재미
▁성향
▁이끌
▁닥
▁타자
▁바라
▁ㄱㅓㄹㄹㅗ
▁교수
▁닉
▁실점
ㄸㅡ
▁SP
ㄹㅓㄴ
▁한계
▁접근
▁ㅅㅐㅇㄱㅣㄴ
▁무조건
▁톤
st
▁의사
▁영혼
▁국회
▁무한
▁대결
▁잭
▁비중
시마
운데
▁죠
▁사무
▁보조
▁부하
ation
ㅃㅡㄴ
▁댄
▁ㅇㅣㄹㅇㅡ
▁함정
tt
▁복수
▁암살
▁장르
▁정확히
ra
▁정의
▁광고
▁엠
▁인터넷
▁아내
▁평소
▁마르
▁의하
ia
ack
▁마력
▁투표
▁1000
▁채널
무라
▁숲
▁다루
▁늦
▁범죄
▁확장
▁도쿄
▁혁
▁운용
▁봉인
▁사령
나이
▁ㅌㅏㄴ
▁기념
ㅅㅜ
▁공략
▁이곳
▁ㅂㅏㄺㅎㅕㅆ
▁와중
▁깔
▁합류
▁ㅂㅕㄴ
▁and
▁초등
▁검사
▁몇몇
▁장치
▁금지
▁150
▁이적
▁펼치
▁빵
▁소련
▁종종
▁다운
▁쓸
▁65
▁앙
▁낫
▁오리지
▁가치
로그
▁전화
▁소유
▁도입
▁아웃
▁ㄴㅐㅆ
▁보컬
시브
▁유튜브
▁올라가
▁살아
▁네이
ㅇㅎㅏㄹ
▁플래
▁지배
▁시청자
▁비하
▁코드
▁특유
▁가운데
▁ㅂㅓㄹㅇㅓ
▁브레이
▁도망
▁VS
▁정당
▁ㄱㅣㄹ
▁클럽
▁사쿠
▁충분히
▁즐
oc
▁근데
▁미드
▁화염
▁ㅇㅏㅍ
▁실수
▁프로젝트
▁소년
▁뉴스
▁ㅁㅏㅈㅊㅝ
▁개조
▁본격
▁고대
▁시민
▁ㄷㅏㄹㄹㅏ
▁시나
▁투입
뜨리
▁대로
▁책임
ie
▁전원
▁기지
▁저격
▁ㅇㅣㄴㅎㅏㄴ
ill
▁종교
ㅈㅜㄴ
▁무사
▁스포츠
ㄹㅣ
▁형제
▁괴물
▁로스
▁%,
▁ㄴㅡㄴㄱㅏ
▁행사
▁고양이
▁에이
▁수많
▁인상
▁앤
▁얼마나
라이더
▁뻔
▁KBS
▁희생
비아
▁이탈리아
▁52
▁릴
▁II
로드
ㄴㅐㄹ
▁2005
▁밴드
▁발음
▁상징
art
▁카메
▁터미
▁대중
▁종합
▁요청
▁셀
▁잇
▁내려
일러
▁원정
▁벗
▁64
▁넥
▁사태
▁클래스
▁구역
▁ㅍㅓ
▁들어오
▁숫
▁대형
▁올림
텐츠
▁군단
▁엄청나
▁외모
▁흉
▁스크
▁가리
ㄱㅜㄴ
▁패러
ㄷㅡ
▁대비
▁ㄲㅓ
▁방패
▁이사
▁조정
▁ㅎㅣㅁㄷㅡㄴ
▁서브
▁ㄱㅏㅇㅎㅐ
▁일본어
▁불명
니티
▁인원
▁생물
▁최후
▁서술
▁컨셉
▁ㄴㅏㄹㄹㅕ
▁형식
▁위협
▁관통
▁움직이
▁자료
▁ㅁㅝㄴㄱㅏ
▁광주
ㅏㄹㄹㅕ
ㄲㅕ
▁그저
▁약점
▁가깝
▁비고
ri
▁몹
▁2004
▁You
▁ㅂㅐ
▁49
▁통신
ab
런스
RA
uby
▁정책
▁내리
▁행성
시스
▁액션
▁상자
▁모험
▁오리지널
▁AP
▁달러
▁ㄷㅏㄹㄹㅕ
ㄹㅓㄹ
▁트랙
▁56
▁ST
▁전술
▁쿨타임
▁장난
ㄹㅜ
ㄲㅟ
est
▁쌓
ㄴㅐㄴㄷㅏ
래프트
▁박사
▁ㅆㅡㄴㄷㅏ
▁사라지
▁젊
▁400
로우
▁인형
▁리어
▁거부
▁미리
▁등록
▁MBC
▁명중
▁간단
▁dd
▁매일
▁빠지
▁ruby
▁회장
▁의도
▁반복
▁ㅅㅜㅁ
▁이치
▁ㅁㅗㅅㅎㅏㄴㄷㅏ
▁In
▁공동
▁개월
▁눈물
▁영입
▁마크
▁구단
ㄷㅇㅏ
AL
▁대응
▁해석
▁개봉
▁열차
▁오토
▁언론
▁의지
ㅇㅡㄹ
▁지명
▁85
▁ㅉㅣ
▁지적
▁코어
▁튀
▁주력
▁원거리
▁한국어
스케
▁ㅁㅏㄴㄷㅡㄹ
▁오랜
▁찌
▁언어
▁53
▁ㄴㅏㅆ
▁데이터
▁더블
▁설계
▁54
자리
▁웬
▁윌
▁탯
▁흡수
▁193
▁디지
▁선언
▁혐
▁카즈
▁자동차
▁사상
▁소식
▁목숨
▁택
리트
▁2002
▁ㄱㅘㄴㅎㅏㄴ
▁차례
▁텔
▁모티브
▁나쁘
▁여름
▁카페
퓨터
▁바닥
▁혜
▁방해
▁역전
▁피하
▁승부
▁거짓
▁연계
ㅎㅣㄴㄷㅏ
▁필살기
▁닮
ㅊㅣㄹ
▁살아남
▁대단
▁숫자
▁그때
▁핑
▁체육
▁ㄲㅐ
▁ㄴㅡㄹㅇㅓ
▁미스
▁기자
▁완료
▁엄마
▁저주
▁사과
▁황금
▁텍
▁소울
▁dddd
▁dddddd
▁쿄
오스
▁Sh
▁진입
▁PC
▁이르
ㄴㅣㄹ
▁수리
▁상대방
ttp
▁긴
▁수호
▁불과
▁산업
▁착용
▁생성
▁앉
▁유우
▁http
▁ㄸㅐ
▁공화
▁해제
▁컴퓨터
▁ff
▁장기
▁테마
▁가정
▁터미널
▁적절
동생
▁덩
▁던지
▁모리
▁조각
▁드라이
ㅂㅊㅕ
▁실시
니스
▁필수
▁컷
▁편성
▁단순히
▁ㅆㅓㅆ
▁행적
▁선정
▁비트
▁에이스
▁독자
up
▁카운터
▁딱히
▁질문
▁특기
▁뮤직
▁꼴
ㅡㄹㄹㅕ
▁드립
▁기점
▁날개
▁떠나
▁유도
▁패시브
▁표정
▁감안
▁ㅁㅗㅅㅎㅐ
▁ㅇㅜㅁ
▁선물
▁전환
▁페르
▁훌
▁꾸준
▁습격
▁확실히
▁의심
▁소비
▁59
▁횟
▁왼쪽
▁퓨
▁안전
▁i
▁무력
▁솔로
▁집단
▁MP
▁인류
▁개선
▁박스
▁저지
▁함대
▁위원회
▁제도
▁연주
VE
▁높이
▁스킨
▁경력
▁맺
▁값
▁당장
▁넘어가
▁회전
▁ㅇㅡㄹㅈㅣ
▁덜
▁코치
▁ㅋㅜ
▁쥐
▁구축
▁마츠
▁Re
▁ㄱㅜㄴ
▁ㅍㅕㄹ
▁설립
▁잠깐
▁가스
▁돌파
▁Sp
ㅡㄹㄹㅓ
▁행복
▁사장
▁확보
▁바르
▁랍
▁올림픽
▁지옥
▁심하
▁스마
▁테크
▁58
▁보다
▁블루
ㅅㅣㄴ
레이션
▁시나리오
▁시내
▁안드
▁일종
▁띄
▁전통
▁기어
▁횟수
▁듀얼
▁장군
▁120
▁가슴
▁라디오
▁거두
▁공항
ㅊㅣㄴㄷㅏ
▁통과
AT
▁하위
▁공사
OR
▁희망
모리
▁문명
▁57
ang
▁re
▁해금
▁제압
▁초대
ate
▁체제
▁멀티
▁적극
▁수사
▁촉
▁비디오
▁편집
▁상처
▁버튼
▁셰
▁펀
▁66
▁95
▁수원
드리
▁딜러
▁인지
▁롱
▁방문
▁위주
▁2003
▁패스
ㄱㅔㄴ
ㄷㅜ
▁케이스
▁리스
▁마침
트롤
▁댓
▁ㄷㅚㅁ
▁작성
▁이어지
연히
▁의문
▁처치
ㄹㅝ
ard
▁ㅃㅐ
▁콩
▁현장
▁대답
▁동맹
▁장전
▁뱀
▁분리
▁유키
▁진영
▁전장
▁태양
IA
▁마시
▁코너
▁어찌
▁고통
▁투자
▁뚫
▁한자
▁예선
▁갱
▁태도
▁크로스
▁대놓
▁계기
ㅉㅐ
▁노동
▁핸
▁지니
▁스페인
▁삼국
▁ㄷㅏㄴ
르크
▁마왕
▁육군
▁고유
▁ㅅㅣㄴ
▁랩
▁비난
▁최악
ㅇㅜ
▁료
PS
▁Bl
▁스위
ess
▁BG
▁후속
▁에스
▁ㅇㅡㄹㄲㅏ
ant
▁레이저
▁스펙
▁be
▁공부
▁110
▁게시
▁가까
▁개최
▁제안
▁ㅎㅟ
ㄷㅏㄴ
▁나카
▁제로
▁빌리
▁시체
▁평화
▁아머
▁회의
▁오른쪽
▁게이지
▁성인
▁ㅇㅗㄻ
▁그라
▁가르
IC
▁배신
▁극장판
▁겨우
▁조준
▁여부
▁기획
▁on
▁룰
▁탑재
ㄲㅝ
ell
▁궤
▁SS
▁용병
▁매치
▁컨트롤
▁궁극
▁젤
▁or
▁373
▁ㅈㅓㄴㅎㅐ
▁락
▁카메라
▁청소
ct
▁62
▁봄
▁엉
▁베이스
▁멀리
머리
▁보급
▁견제
ue
▁ㅈㅡㄹ
▁타이밍
▁ㅎㅑㅇㅎㅐ
ine
▁점령
▁애매
▁충전
▁체인
▁관광
▁순서
▁댄스
▁온라인
▁스피드
마스
▁ㄴㅏㄴㄷㅏ
▁진실
▁뿌
▁에어
▁ㅇㅗㄹ
ㄴㅓ
▁정령
▁게이
▁은퇴
▁보도
▁끝내
▁최대한
▁한화
▁직원
▁그레이
의원
▁남편
▁NP
라리
▁날리
▁레전
▁모션
▁Al
▁기분
▁후반부
▁튜
▁하트
▁수단
▁오스
▁세계관
래도
▁아무래도
ist
▁트레
▁격투
▁터지
▁76
▁교회
▁민주당
▁멸망
▁밸런스
▁미치
▁트위
▁얼음
▁쓰러
▁스코어
무원
ove
▁갤러리
▁파이터
▁ㅅㅗㄱ
▁알렉
▁스탠
▁허용
▁Th
ore
▁미나
▁오오
▁보수
▁우수
▁여왕
▁빔
▁스프
▁약속
▁77
▁울트라
▁유용
▁대원
▁61
▁등등
▁ㄴㅓ
▁춤
▁융
oo
▁로켓
▁부담
▁....
▁토스
▁헤드
▁무게
▁{
아리
▁판타
▁생일
▁고급
▁돌격
ㄶㅇㅏ
▁본선
▁가면라이더
▁뱅
▁샌
▁규정
▁쫓
▁알리
▁지식
▁72
▁커뮤
▁모자
피스
▁아프리카
▁벌이
▁88
▁ㄱㅕ
▁기절
▁병기
▁렉
▁랜덤
▁차별
▁중단
▁com
▁그리스
▁삶
ㅈㅣㄱ
▁분야
▁자이
▁장애
▁2001
▁스케
로이드
▁ㄱㅓㄹㄹㅕ
▁패러디
▁경기도
▁ㄴㅐㄹ
아다니
▁끼리
▁돌아오
▁입수
▁트레이
▁}
▁누르
▁갓
▁측면
▁ffff
▁지점
ㅇㅜㅁ
심히
▁넷
▁셔
▁나누
▁마녀
▁ㄹㅔ
ive
▁주목
바이
▁도서
▁언니
▁ㅎㅔ
▁회수
▁유래
▁발휘
▁포르
▁카나
OS
ort
▁떼
▁공통
▁커버
▁웨이
▁닥터
▁외부
▁미야
▁자살
ong
▁ffffff
아하
▁SBS
▁국적
▁오프닝
▁인생
▁삽
▁후지
▁도구
▁취소
▁승강
▁개편
▁교환
▁트위터
▁제시
▁공원
AM
▁스페셜
▁아사
ers
▁ㅅㅡㄹ
▁피해자
▁군주
▁ㄴㅏㄹㅇㅏ
▁경계
워드
크래프트
아보
오리
▁아라
▁릭
▁살해
아들
▁페이스
▁서포
▁PS
▁ㅈㅓㅇㅎㅐ
▁민족
▁장수
AS
▁윙
▁아침
▁킥
▁공장
▁98
▁출생
▁계산
▁핵심
▁부진
▁재판
하라
▁구입
▁브랜드
▁진정
▁어차
▁메탈
유키
티컬
니어
▁붕괴
▁용도
▁대놓고
▁기다리
▁191
▁어차피
▁사단
▁이거
ED
▁단독
▁젠
▁당선
ip
스티
터리
▁제기
▁ㄷㅜㄴ
▁겨울
ㅅㅔ
▁바탕
▁탄생
▁교사
▁오후
▁작사
▁갑옷
▁잊
▁어린
▁주연
ㅇㅜㄴㄷㅏ
다수
▁아야
▁아시아
▁페이지
▁펠
▁영역
▁온갖
▁이성
ain
▁CD
▁소수
▁함선
▁출발
▁은근
▁좋아하
▁살짝
▁ㅇㅑㄱㅎㅏㄴ
▁은행
ㄱㅣㄴㄷㅏ
▁요원
▁분석
어리
▁600
▁습득
즈키
▁꾸준히
if
▁스파이
▁하수
피아
ㅂㅗㄹ
ㅎㅏ
▁화살
ㅉㅓㄹ
▁틈
▁ㅆㅗ
▁재생
▁ㄲㅡㅌㄴㅏㄴ
▁납치
▁엑스
▁데리
▁ㅅㅜㅁㄱㅕ
▁순수
▁타워
▁선배
▁대공
▁꺼
ee
▁거절
▁홍보
▁|
▁예술
리티
▁유형
▁업무
▁자식
▁자격
▁섭
▁이스
▁ㅂㅔ
▁ㅂㅜㅌㅇㅕ
▁좁
▁1990
EN
▁귀족
▁파악
▁증거
▁보정
▁따지
▁ㅌㅟ
가락
▁협력
디션
▁경유
▁ㅇㅜㅁㅈㅣㄱ
▁레전드
▁프라
▁ㄲㅗ
▁군인
▁훌륭
▁베르
▁MV
▁신화
▁ㅍㅏ
▁테러
▁폭풍
▁사카
▁ㅂㅏㄷㅇㅏ
▁63
▁플라
▁흔히
▁고민
▁ㅇㅕㄹㄹㅣㄴ
▁댓글
▁영원
▁ㅈㅏㄶㅇㅏ
▁응원
▁미소
▁적당
▁종점
▁퀄
▁카르
▁보물
▁쓰레
▁출처
▁열심히
▁마인
세이
▁68
▁소드
▁눈치
▁챠
▁ㅂㅗㄴㄷㅏ
▁탑승
▁러브
▁채용
▁ㄷㅏㅇㅎㅏㄴㄷㅏ
▁내내
▁틱
▁당황
▁네이버
▁장관
▁왕자
▁ㅁㅏㅈ
▁무적
▁스트라이
▁주도
▁만족
▁거래
▁불안
▁부인
ith
▁본명
▁컨텐츠
▁비록
ly
▁정말로
▁ㅂㅓㅅ
▁71
ㄹㅣㅁ
ld
▁800
▁혼란
▁정류
▁버티
▁대다수
▁감사
ind
▁중계
▁문제점
▁우려
▁계급
▁실질
레인
▁늑
▁운전
▁커뮤니티
▁연도
▁ㄱㅓㄴㅈㅣ
▁운명
▁지급
▁라이벌
▁74
▁지내
▁균
▁AC
▁ㄷㅟ
▁드리
▁반격
OL
▁멋
▁두산
▁초월
▁치명타
▁오류
▁옹
▁트라
▁67
▁빼앗
▁짝
▁미군
▁수입
▁파이어
▁랜드
▁전공
▁전함
▁연예
▁김성
▁줄어들
▁돌진
▁오해
▁카라
▁ㅌㅓㄴ
▁기기
▁아트
▁흘
▁ㅁㅗㄴ
▁메타
▁파라
▁라스
ㅇㅣㄴㅈㅣ
ew
▁가까이
이터
▁모으
▁공군
▁가져
ㄱㅎㅣㄴ
▁73
▁체계
▁코믹스
다지
▁피아
ry
▁TH
▁반영
▁여신
▁밟
▁통일
▁돌리
▁ㅂㅣㄴ
▁거주
▁단위
▁불꽃
▁캔
▁충돌
▁즉시
▁안습
▁NC
▁문자
▁아오
ast
▁96
▁깎
▁학과
▁메가
▁홍콩
▁그림자
IT
▁AT
▁크리티컬
▁화장
▁주년
▁편의
▁낳
▁슬롯
▁닿
▁전투력
카와
▁레오
▁설득
▁아나
▁크루
▁국회의원
나다
▁비율
▁아리
ㄹㅓㄴㅈㅣ
▁me
▁짜리
▁생명력
▁시야
ㄹㅐㅆ
LC
가와
ㄱㅣ
보이
▁ㄷㅚㅂㄴㅣ
츠키
▁상향
아먹
▁떡밥
EC
▁해방
바로
▁다행히
▁81
ㅅㅟ
ㅂㅘ
▁제조
으키
▁CP
▁소프트
▁정지
▁토모
▁격파
▁지시
▁공화국
▁그다지
▁판타지
▁약하
▁신뢰
▁파이널
▁ㄱㅐㄹ
▁변하
FA
▁암흑
사카
▁닌자
▁관객
▁심장
▁사전
▁일부러
▁192
▁1999
▁사운드
▁등판
▁무난
▁유비
▁오로
▁가입
▁수업
▁j
▁신고
▁연사
▁늑대
▁78
▁동네
▁NPC
▁별개
▁그만큼
▁창작
end
▁91
▁84
▁ㅍㅐ
▁맘
▁본부
▁엘프
▁디아
▁니시
▁마술
▁ㅁㅣㄹㄹㅕ
▁찰
▁제주
▁아티
▁an
▁써
▁지하철
▁건강
ㄴㅕㅆ
ㅂㅅㅣ
▁ㅇㅓㄴ
▁고기
▁실드
▁막장
▁재능
▁룡
▁근무
▁장식
고기
▁ㄷㅗㄹㄹㅕ
▁업체
▁화이트
▁팝
▁집안
▁1998
▁경험치
▁ㅅㅐㅇㄱㅕ
▁반란
식간
▁지형
▁추적
▁수학
▁곰
▁드디어
▁전적
▁압박
▁ㄷㅡㄴㅈㅣ
▁입학
▁순식간
▁리버
▁상품
▁An
▁ㄴㅓㄴ
▁천사
▁저런
▁브리
▁신세
▁기원
▁ㄴㅐㄴㄷㅏ
▁낚
▁게이트
▁노멀
▁it
ㄹㅡㅁㄷㅏ
▁예고
▁경향
▁대만
▁증명
▁쿼
▁불만
▁블레이드
▁사쿠라
▁오픈
▁ㄸㅐㄴ
▁형성
▁가이
▁스티
▁신청
▁낭
▁전방
▁테이
▁남기
▁여동생
▁ㅈㅜㄱㅇㅕ
▁콜라
▁97
▁쿠키
▁ㄱㅟ
▁늘어나
▁내놓
▁통하
광역
▁매력
ㅍㅣ
▁사령관
▁의상
▁Ar
▁짱
▁유희
▁가득
▁마도
▁지나가
▁소문
ㄹㅗㄴ
▁감염
▁ㅌㅗㅇㅎㅏㄴ
▁절반
▁쓰레기
▁팅
▁82
▁나루
▁69
▁나서
▁타점
▁라이더
▁이마
▁룬
▁마이크
▁묵
▁ㄱㅏㅈㅊ
▁단일
▁He
▁섹
▁정권
▁묶
아버지
▁외국인
▁으
▁클로
▁어택
▁주먹
▁엔터
▁사토
▁연상
▁코인
▁복장
▁여론
▁메카
▁회차
▁ㅇㅑㄱ
▁별도
돼지
광역시
▁령
▁강조
▁250
▁!!
▁이론
▁이승
▁선호
▁덴
트로
▁ㅇㅝㄴ
▁키스
▁소멸
▁MAX
▁오빠
지컬
▁ㅁㅏㄴㄴㅏㄴ
▁180
▁근거
▁실행
▁가로
▁86
▁스톤
▁for
▁전선
▁바보
▁주전
▁공기
▁is
▁최상
▁ㅃㅏㄹ
▁아메
▁SN
▁한때
▁190
▁부품
▁출현
▁대륙
▁일으키
▁작용
▁요정
▁간격
▁반지
▁평타
▁화려
▁호환
▁스토
▁ㅉㅗ
ㅁㅏㅇ
▁아가
▁헌터
▁공작
파이어
▁ㅎㅏㅂㅊㅕ
▁ㅂㅜㄹㄹㅓㅆ
▁해설
▁울산
▁ㅇㅣㅂ
▁쳐
▁핀
▁출장
▁뉴욕
모로
▁전형
▁퀸
▁BGM
▁총기
▁ㅂㅏㄴ
▁경상
▁ㅇㅗㄹㄹㅕㅆ
▁토리
▁때리
▁ㄷㅓㄴㅈㅕ
▁대하
ath
▁사자
둥이
더스
▁무효
▁마스
▁ㅎㅏㄹㅈㅣ
서트
타로
▁아무것
▁따위
▁스카이
RE
av
▁탱크
ㅎㅣㄹ
▁프레임
▁권력
레나
▁시드
▁Te
▁연애
▁주위
▁명예
50
▁De
▁추격
▁여러모로
▁1997
ㄹㅡ
▁ㄷㅏㅇㅎㅏㄹ
▁요새
▁ㄲㅣ
▁ㄴㅗㅎ
▁조용
▁권총
▁모바
▁구도
▁동기
▁키리
▁폭격
▁신규
▁몰래
▁벌어지
▁블록
▁하수인
▁후쿠
ㅊㅣ
▁경영
▁테스트
▁ㄴㅘ
▁이슬
▁영업
듀서
▁프로듀서
se
▁대우
드라
▁경비
▁지대
타인
▁우스
▁추락
▁심리
히로
▁MS
▁소총
웨이
▁범인
▁공유
▁수요
▁심판
▁탄약
어스
▁전대
▁폭주
▁클라
▁일상
one
나가
▁그래픽
▁아무런
▁계승
▁아크
▁고교
▁외교
▁메이저
▁환상
남도
▁사양
▁Be
▁꼽
▁제이
▁마리오
▁북미
▁갈등
▁변호
▁브라질
▁상점
▁열리
▁보석
og
사키
▁렙
▁83
▁거짓말
▁입력
▁고전
▁요괴
▁변형
▁공학
▁ㅅㅏㄹㄹㅕ
▁탁
▁터치
ㅇㅎㅐㅆ
▁언제나
▁다이아
▁편하
▁학살
▁시각
▁통제
▁제법
▁ㅁㅏㄴㄴㅏ
▁통상
▁ㄹㅏㄹ
▁미츠
▁마련
▁KT
▁리스트
▁이득
▁커맨
▁89
퍼스
▁혁명
▁블러
▁92
▁갖추
▁믹
▁탱커
▁폭력
스트라
▁유령
▁승강장
ust
▁밝히
▁불편
▁제작진
▁작동
ㄹㅏㅇ
▁용사
▁프로필
▁94
▁뒤집
▁지나치
▁미디어
▁예외
▁옛날
ㅎㅏㅁ
ide
▁ㅎㅡㄴ
▁타케
▁메인
▁전투기
▁ㅍㅜㄹ
▁스마트
▁79
▁수집
▁일자
▁구현
▁조치
도우
▁파일럿
▁Le
▁연대
▁진지
▁동원
자키
▁챕
▁머신
▁네임
나무
▁모바일
▁검색
▁Se
▁한국인
▁민간
▁그곳
▁사이즈
ity
▁조심
ㅆㅏㄴ
▁앵
▁쿠로
▁워치
▁고생
▁현지
▁포탑
▁이리
▁걷
▁경기장
노스
▁신장
▁93
메달
▁콘서트
▁US
▁깃
PG
▁ㅇㅏㄴ
▁신인
일드
려움
▁만든
▁동영
▁챕터
▁ㄱㅏㅌ
▁뿌리
▁조절
▁부위
▁표준
▁",
▁레인저
OT
▁조조
▁ㄲㅔ
▁음반
▁정류장
▁ㄹㅣㅇ
▁ㄱㅚ
▁요즘
▁동방
▁87
▁키우
▁메시
▁카미
▁101
▁입구
▁ㅅㅓㄴㅂㅗ
▁감시
일리
▁배차
북도
▁마루
▁시행
▁1996
▁부수
▁수송
ㄱㅜㄴㄱㅏ
▁ㅇㅐㄴ
▁DJ
올리
▁스톰
▁되찾
▁긍
AC
▁보장
▁동영상
▁프린
▁리얼
▁교전
▁레스
▁용어
▁1995
▁MC
▁공산
▁길드
▁편지
▁프리미
▁도발
▁자이언
▁패널
▁음성
▁AI
저히
오르
▁차단
▁폐지
▁어쩌
▁겐
▁앱
어도
▁상상
▁On
▁호평
▁텔레
ere
▁볼넷
▁라이프
▁기습
▁올라오
▁특화
▁연방
age
▁김정
▁드러나
▁이재
▁계정
▁쇠
▁루타
▁한방
▁강철
▁구출
▁흥행
▁전하
▁똑같이
▁세월
▁사이드
▁볼트
▁도서관
▁어깨
▁ㅇㅏㅍㅅㅓ
펙트
▁추진
▁무료
▁연락
▁ㄱㅏㅌㅇㅣ
▁.....
워하
▁슈트
▁잠수
▁ㅁㅓㄱ
울리
▁루시
▁도달
▁핸드
▁연관
▁ㅋㅣㄹ
▁이날
▁결승전
▁농구
▁뛰어
▁신문
▁익숙
▁번개
▁레이드
▁간부
▁슛
▁ㅁㅐ
▁@
▁주소
▁섞
▁매니
▁리메
▁널
▁지휘관
▁향상
▁ㅊㅟ
▁삼진
▁전직
오프
▁사마
ㄴㅣㄴㄷㅏ
▁묘지
▁양산
▁ㅁㅏㄴㄴㅏㅆ
▁전달
레이터
▁가상
▁출력
이즈
▁극단
▁신분
▁쟁
▁px
▁누리
▁노예
▁빌드
ㄹㄹㅓㅆ
▁겉
▁고향
▁소닉
▁부문
▁신성
▁켈
▁환자
▁스튜
▁수술
▁환승
▁갤럭
▁즐기
qu
▁가속
▁노출
▁신기
▁마구
▁글자
▁박근
▁입단
▁레이스
▁임명
▁동작
▁DLC
▁먹이
오카
▁세이브
▁전역
▁캐리
▁베트
▁헨
▁장교
▁멕
▁복잡
ood
▁커플
▁웬만
▁제자
▁'.
▁AK
▁내구
▁성별
▁봇
▁캐스
▁쾌
ㅍㅡㄴ
▁ㅇㅗㄹㄹㅏㅆ
▁THE
▁내성
▁느리
▁대체로
▁적어도
▁팀원
BO
▁막차
▁명중률
▁타마
▁ㅇㅗㄴㄷㅏ
창기
▁ㅃㅏㄹㄹㅏ
▁해체
ㄷㅡㄹㅇㅕ
▁ㄷㅏㄹㄹㅣㄴ
▁임시
▁페이즈
▁진심
▁브레이크
▁핫
▁알파
▁MVP
▁기병
▁갤럭시
▁듯이
▁절망
▁전시
▁가게
▁샘
란색
PM
IS
▁아쉽
▁가시
▁겁
▁플레
▁구속
▁넘기
▁아우
조리
▁맞이
▁ㅂㅓㅅㅇㅓ
▁종이
▁득표
▁연구소
▁육성
▁수영
▁중화
ㅇㅓㄴ
▁ㄷㅏㅁ
▁근육
▁착각
▁개통
▁ㅇㅏㄹㅇㅏ
▁부리
▁뛰어나
▁융합
▁이즈
▁CC
▁$
▁아빠
▁리메이크
▁공지
▁너무나
▁여유
are
▁분기
▁차라리
▁대량
▁자매
▁1994
▁강원
ㄹㅓㅁㅇㅔ
ㅃㅏ
▁인수
▁ㅅㅣㅁㅎㅏㄴ
▁Wh
▁카오스
▁날짜
▁창조
▁이시
ㄲㅇㅕ
전자
▁인증
ㄱㅜ
▁협회
▁ㅎㅡ
▁지능
▁물질
▁초창기
아지
▁럭
▁리치
▁규칙
▁글로
▁고백
▁시즈
▁인연
▁1980
OM
▁실버
▁파리
▁게스트
▁그럼
▁참전
▁이자
▁소화
▁대대
▁ㅅㅕㅆ
▁경고
▁하필
▁배트
브리
▁구체
▁입히
▁700
▁카타
▁분량
▁톱
▁Tr
▁태그
디아
▁의뢰
▁ㅇㅚ
▁드물
▁점차
ㅇㅡㄴ
크스
▁악역
▁제어
▁가량
▁의혹
▁청년
▁남부
▁성과
ock
▁테일
▁누적
▁투구
▁회원
▁메모리
▁미카
▁''
▁ㄴㅓㄹ
▁합격
▁고용
▁흠
▁조지
ㅇㅣㅁ
▁대립
▁객
ake
OW
▁합체
▁돼지
▁정복
▁어울리
ect
▁고르
먼트
▁식사
our
▁이내
▁김영
▁호감
▁FI
▁녹음
▁이명
▁춘
ㅅㅓㅆ
▁웹툰
▁왠
ass
ire
티나
구리
▁반발
▁피격
▁아시
▁중대
▁의료
▁차트
▁뷰
ark
oy
▁귀신
보드
도로
▁파트너
▁삼국지
▁출판
▁도망치
▁꼬리
▁인하
▁후속작
▁위장
▁합성
ob
▁he
▁ㅍㅕㄴ
ite
▁여지
▁베스트
▁써먹
▁쏟
▁츄
▁발매되
▁쟈
▁그동안
▁게시판
지마
▁히데
▁모모
▁외계
▁유로
▁편곡
▁랭킹
▁감옥
▁스턴
▁결론
▁서부
▁기초
▁한번
▁강의
▁축제
▁체포
웨어
▁마키
▁뚜
▁협박
▁세우
▁카스
▁ㅁㅝ
어내
▁아기
▁블리
▁퀄리티
▁림
주시
▁문장
▁SR
▁동화
▁안드로이드
▁둥
▁꺾
▁본작
▁햄
▁예비
▁사제
▁토론
FC
ES
▁정면
▁Cl
▁구멍
▁ㄴㅓㅁㄱㅕ
▁개방
▁kt
▁FA
▁곧바로
▁어지
▁AR
▁단장
▁드러내
▁어쨌
▁공급
▁소형
▁매체
▁수련
▁ㅇㅖ
▁토르
▁렛
▁유행
▁은하
▁다섯
UN
ah
▁트로
▁대폭
▁횡
아들이
▁플랫
▁초간
▁전면
▁룸
▁인공
▁문학
▁대가
▁활성
▁부부
▁ㅋㅐ
▁투어
▁캐나다
▁립
▁wh
▁돕
▁소원
라이언
▁예능
▁GT
ound
▁내장
▁저그
ㄴㅕ
▁매직
iz
▁과목
▁마리아
▁웅
▁ㄱㅓㄹㄹㅣㄴ
▁해병
▁일시
성기
릭스
▁클리
▁외형
▁내주
▁아일
▁대략
ㄷㅜㄴ
▁뜬
▁고문
▁비아
▁연타
▁파견
▁김태
▁커맨드
▁살리
▁세이버
▁관중
▁간혹
▁시위
▁신호
▁컬러
ime
▁넉
▁왕조
▁희귀
▁적군
▁야스
▁스틸
▁슈팅
▁일원
▁SD
▁포스트
▁식물
▁손가락
▁플레이오프
▁리아
▁팬덤
▁흔들
▁블로그
▁뼈
▁Gr
ㄷㅎㅕ
▁피부
▁에드
▁긍정
▁정글
▁마이클
▁박근혜
▁반사
LL
ㄷㅓㄴㄱㅏ
▁소지
▁김민
▁코우
▁KIA
▁멍
iv
▁PD
▁my
▁펀치
▁프라이
▁의무
▁Me
▁목격
▁타이거
▁신라
려가
▁바위
우드
▁구원
▁수수
▁은근히
▁SC
▁ㅅㅔㄴ
▁움직임
▁준수
▁깜
▁크라
▁앞서
▁상성
▁주말
▁섀
ID
▁가볍
▁파크
▁잦
▁116
▁곡명
스턴
▁연인
▁오카
▁ㄴㅗㄹㄹㅏ
▁피스
잡이
▁육체
▁이지
▁특집
▁인근
▁전철
▁최소한
페인
큐어
▁나뉘
▁메뉴
ㅂㅕ
▁둔
▁ㅇㅗㄻㄱㅕ
버트
▁그대
▁상하
▁멘탈
▁대처
▁수용
▁개체
▁붙이
▁불법
▁My
▁대충
MA
▁아니면
▁일격
▁자치
▁빡
▁취하
▁박정
▁킨
▁헤이
▁ㅇㅑㄱㅎㅐ
▁ㅌㅔㄴ
▁ㄷㅡㄴㄷㅏ
▁예측
OP
▁영문
▁헤비
▁동부
▁130
▁환영
▁홀로
▁건축
▁조성
시코
▁각자
▁원본
▁커스
▁로즈
미야
▁보안
▁적대
디언
▁냄
▁{{
▁기사단
▁바리
▁영토
▁썩
▁딩
▁서양
▁왈
▁Pr
▁멀쩡
▁ㅂㅕㄹ
▁주포
▁접속
▁냥
▁멈
▁국군
▁오랫
ge
▁{{{
▁더더
▁아바
▁좌우
▁강남
▁탄창
▁형사
▁침공
▁어린이
▁액티브
▁계단
ㄲㅟㄴ
▁훗
▁시내버스
▁소중
▁안내
▁겹
▁사우
▁면역
▁첨
▁결말
▁골든
▁기독
▁어른
▁BE
▁펫
▁대지
▁플로
▁스미
▁유이
▁정찰
▁더더욱
▁지도자
▁호주
ax
▁이래
▁작화
▁ㄸㅢ
데스
▁지우
가미
▁누나
▁시마
ㄴㅣㄴㄱㅏ
▁후기
▁호텔
▁음원
▁와이
▁허나
▁학부
▁ㅇㅗㄹㄹㅣㄴ
▁ㅆㅘ
▁대항
▁DF
▁회상
▁현역
▁죄다
▁괴수
▁박살
ㅀㅇㅓ
▁ㅁㅝㄹ
ome
▁처벌
▁거인
ance
▁MF
▁이루어지
▁취미
▁퀴
▁딘
▁시선
▁버스터
▁하야
▁식당
▁포트
▁히메
▁아이스
▁상당수
▁캐스팅
▁ㄴㅏㅁㄱㅕ
▁프리큐어
uc
▁고스트
▁해적
▁주간
ick
▁ㄷㅔㄴ
▁리듬
ㅈㅔㄴ
▁라인업
▁절대로
ㅂㅜㅌ
▁요코
▁과제
▁ㅁㅏㅇ
▁아티스트
덜란드
▁첫차
▁네덜란드
▁빛나
▁재미있
▁미안
▁Pl
▁일기
▁새벽
▁깡
▁메르
▁로그
▁과연
▁그로
▁전문가
▁ch
▁시계
▁스키
▁저녁
▁전진
▁HD
▁도우
▁유치
▁WW
구치
ㅁㅜ
▁니코
▁어떠
ix
밀리
mer
▁ㄷㅔㄹ
▁비행기
▁바라보
▁놀라
▁트윈
▁한동안
▁승격
닉스
▁파츠
▁돌아다니
▁고지
ㅎㅇㅏ
▁오스트
스탄
▁SM
▁천재
ord
▁열쇠
▁총선
▁드레
▁방지
▁마주
요시
▁기적
▁검찰
ㅂㅎㅕ
▁마비
▁트레이드
▁자금
▁스타크래프트
▁160
▁한참
▁용기
▁안경
▁고수
ure
▁속하
▁방사
▁저장
▁GB
▁코코
▁트럭
▁리드
▁디지털
▁경기력
▁챌
▁주사
▁캠페인
ㄹㅜㄴ
아웃
▁신비
특별
▁허리
▁휴대
▁양쪽
▁이슬람
ㅇㅎㅏㄴㄷㅏ
▁국어
▁OST
▁전라
▁캠퍼스
10
▁청소년
▁어지간
▁개성
▁위하
▁유희왕
▁토끼
▁ㅂㅕㄹㄷㅏ
▁ㅂㅜㄹㄹㅣㄴㄷㅏ
▁보라
▁우위
▁농담
▁크리스마스
▁깨닫
▁상급
▁ㅁㅗㄹㄹㅏㅆ
▁할아버지
▁ㄱㅔㅅ
▁ㅁㅣㄹ
▁동굴
프레
ㅂㅏ
▁1992
마디
▁갈수
▁외치
▁무덤
고리
▁캡틴
▁램
▁with
덩이
▁ㄸㅡㄴ
▁ㄲㅡㄹㅇㅓ
▁ㅁㅗㅅㅎㅏㄹ
▁ㅎㅡㄹㄹㅓ
▁아이콘
ud
▁클래식
▁갈수록
▁\
▁방출
▁체크
▁인지도
바라
▁화제
▁문재
▁개정
▁김동
▁ㅈㅜㄱㅇㅣㄹ
▁빗
▁1993
▁마이너
▁영향력
▁ㅅㅣㅁㅎㅐ
▁KO
▁ㄱㅓㄹㅊㅕ
▁ㅈㅜㄹㅇㅕ
▁오랫동안
▁북부
▁바퀴
▁기독교
▁미술
▁올해
▁원소
▁곽
▁이영
▁해리
▁연료
ㄴㅝ
라이트
▁정원
▁클릭
▁터키
라드
▁호위
지로
▁시아
양함
▁어쨌든
▁베트남
▁중독
▁촌
▁받아들이
톨릭
▁웃음
▁140
▁안티
▁Ex
▁조언
▁어마
▁일제
▁접촉
▁국방
▁귀찮
ame
▁바이러스
▁https
▁SKT
▁무작
▁극복
▁하락
치기
▁끄
80
▁미라
▁ㅃㅗ
▁의존
▁마침내
▁JR
▁장악
▁인정받
▁델
▁전신
▁사도
▁신설
▁하우스
▁덮
▁??
▁놀이
▁선택지
▁윌리
▁노인
▁생존자
▁톰
▁식량
▁ㅌㅔㄴㄷㅔ
▁곁
AD
▁sh
▁붙잡
멘트
▁ㅅㅏㄹㅇㅏ
▁흐름
▁보관
▁외전
▁멈추
▁수익
▁개수
▁투명
▁결코
▁캐논
▁체육관
▁본체
▁ㅈㅜㄱㅇㅣㄴ
▁다가
▁기아
▁들이
▁로우
임스
▁챌린
▁핏
▁부장
▁도끼
▁취향
▁ㅈㅓㄱㅎㅕ
▁모조리
▁de
▁공무원
▁커리어
▁IC
▁카트
▁대리
▁노부
▁ㅂㅣㄹ
몬드
▁ㄹㅓㄴ
ost
▁예시
▁전멸
▁비주
▁벗어나
▁치유
▁Love
▁이브
▁전성기
▁칭찬
▁최다
▁손해
▁쉐
▁모래
▁ㄷㅜㄹ
▁ㅅㅏㄴ
세스
▁에리
▁기종
▁콜라보
▁ㅎㅏㄴㅈㅣ
▁루수
▁데드
리그
▁갈리
▁제작자
old
▁후방
▁교장
▁김종
▁GS
▁스승
▁한마디
▁이터
ㄲㅇㅣㄴ
▁논리
▁ㅁㅓㅁ
카리
▁유니폼
▁ㅁㅓㅁㅊ
▁힙
out
코토
▁어스
▁가톨릭
▁900
▁재현
▁Un
▁정비
▁ㅊㅕㅆ
▁마린
▁충청
▁무릎
▁수십
▁작곡가
▁반동
▁레이더
▁무지
▁우연히
▁툴
▁충성
▁첼
▁변호사
▁칩
▁사막
▁구경
▁ㅅㅣㄹ
own
▁일반인
▁당일
네스
▁ㅈㅏㅁ
▁세르
▁오전
▁동의
ㄷㅡㄴㄱㅏ
▁202
▁들리
▁명성
▁우라
▁사정거리
▁코미
▁제임스
▁이정
▁트랜
스키
▁카츠
▁쵸
▁적응
▁기여
▁패션
▁업적
▁ㄴㅜㄹㄹㅓ
▁지켜
▁구사
▁그러니
▁.."
▁거미
▁소스
▁로고
▁타선
▁아일랜드
▁멕시코
▁맥스
워크
▁수류
▁아즈
▁잉글
▁판매량
▁소라
▁유통
ㄲㅣㄹ
▁합의
▁자세히
▁타인
▁무방
카드
▁선전
▁ㅃㅜ
▁연금
US
▁SH
▁스트리
▁개입
▁둘째
▁잡지
▁초보
▁증언
ㅇㅑㄴ
▁상업
▁ㅁㅏㅌ
▁LI
▁타락
▁넥센
▁드라이브
▁날아가
▁기도
▁기량
▁법원
▁스웨
▁조연
▁ㄴㅗㅍ
▁취임
▁다스
▁아쿠
▁EP
▁무라
▁바깥
시로
▁다름
▁신부
▁유물
ㅇㅓㄴㄱㅏ
▁의회
▁ㅈㅏㅂㅎㅕ
▁북쪽
▁가짜
▁FF
▁폴란드
▁법률
ok
▁루카
▁자국
▁정수
▁할머니
pe
▁수류탄
ㄱㅓㄹㄹㅗ
▁포격
다이
▁가루
▁어드
▁출마
▁차기
▁전후
▁닭
▁벌레
미니
▁오사카
ace
▁주기
ave
▁복무
▁찌르
▁쌍둥이
per
▁싱크
▁향하
▁금속
▁깔끔
▁드롭
▁펑
▁IS
▁ㅉㅗㅊ
▁씹
▁결성
▁화장실
▁교실
▁인조
▁지켜보
▁비례
▁대개
ng
▁XX
▁똥
▁일방
▁남쪽
▁위상
▁히나
▁주식
▁포드
▁교차
려오
▁정착
▁동력
▁비싸
▁과장
노우
▁승점
▁인격
▁독특
ice
▁방어구
▁ㅁㅓㅅ
▁1991
네임
▁흔적
ㅏㄹㄹㅣㄴ
▁빚
▁라이온
▁도주
▁주일
▁CV
▁보고
▁연패
▁도적
▁채우
▁훗날
▁자폭
▁스마트폰
▁국립
▁CF
▁스프링
▁포항
▁스터
▁공룡
▁그러니까
▁AD
▁블러드
달리
▁스텔
가시
▁공성
▁숭
▁1988
▁대인
ㅈㅕㅆㅇㅡ
▁부작
▁자책
OD
▁화학
▁정치인
▁남녀
▁처형
▁냄새
ov
▁타수
▁사라
▁강도
▁포수
▁팽
▁상호
▁위대
▁람
▁연승
▁ㅅㅠ
▁We
▁클랜
▁크리스탈
▁매니저
▁스튜디오
▁ㄸㅡ
▁각본
▁클레
ont
▁스페이스
▁런던
▁잡히
▁비상
▁시너지
▁개량
▁시노
▁추억
▁김재
▁이슈
▁일찍
▁오타
▁귀환
▁아츠
▁트라이
▁간신
러지
▁기용
▁제갈
▁후술
랑이
▁혈액
▁색깔
▁몰락
▁권한
▁105
▁새끼
▁광역시
▁행보
▁주역
▁사유
▁승률
▁사신
나카
▁풀리
▁헛
▁AM
▁녹색
▁거점
▁일람
자드
▁아케
▁개막
orld
▁상술
▁지뢰
랭크
▁적당히
▁고작
▁미스터
▁유대
▁숙련
ies
▁생년
▁히어로즈
ㅆㅏ
▁자막
▁타로
▁DS
▁해피
▁커피
▁카운트
▁루나
▁학력
▁색상
▁코리아
▁뜬금
▁줄이
▁거치
▁길이
▁ㅅㅐㅇㄱㅣㄴㄷㅏ
▁어려움
ann
▁실망
▁혐오
▁이중
▁흥미
ㄷㅐ
▁ㅍㅕㄹㅊㅕ
팡이
▁화성
▁재단
ㅡㄹㄹㅣㄴ
블린
▁서포터
▁공세
▁계통
▁널리
▁금융
▁스트라이크
로나
OC
특별시
▁특전
▁인민
▁제작사
▁노르
▁SNS
고속
▁티켓
▁요금
ㄲㅡ
▁ㅋㅓㅆ
▁소위
▁관람
▁다름없
▁디지몬
▁망치
▁ED
ㄱㅅ
▁미터
▁차이점
▁서울특별시
▁아이언
▁영구
▁흡혈
▁개시
▁릿
▁아마도
▁중량
▁배터리
▁국왕
▁하단
▁세종
▁CPU
▁ㅎㅜㅁ
럼프
▁면모
▁심사
▁나치
LE
▁사이버
▁추종
▁칭호
▁어뢰
▁기숙
▁ㅊㅐㅇㄱㅕ
▁쓸모
▁ㅊㅏㄴ
▁세븐
▁DE
▁오크
▁아서
▁wik
시타
▁오랜만
▁너희
▁미묘
▁단단
▁리타
▁스팀
▁둘러
▁소대
BA
▁오직
▁중첩
▁건너
▁공공
▁보호막
▁민첩
▁좌석
▁썬
▁펄
▁생략
▁잉글랜드
▁연령
▁흘리
▁시그
▁증오
▁편입
▁히토
▁호수
▁삐
▁언더
▁ㄹㅐ
▁몰아
▁LV
▁애플
▁고구
▁뎀
▁노벨
▁재산
티아
▁LC
▁혐의
▁ㅈㅗㅎㅇㅏ
▁맛있
▁단편
▁부지
▁해상
▁워커
▁뿔
ㅁㅜㄴ
▁타율
▁상단
▁십자
ber
▁NE
로디
▁총알
▁하차
ys
▁실전
시스트
▁네트
▁오라
▁연예인
▁신사
베르
▁휴식
▁메리
▁지경
▁펌
▁중국어
▁ㄷㅓㄴㅈㅣ
▁SE
▁익스
▁협상
▁가만
▁탈퇴
▁189
▁가요
ION
▁마약
▁후배
▁흐르
▁딜링
▁예언
어마
▁카카
▁쿼터
▁ㅁㅏㄴㄴㅏㄹ
▁정화
▁지르
▁모노
▁임대
der
▁아저
▁기관총
▁수장
ㄷㅣㄴ
▁your
▁오마
▁네오
▁언스
▁ㄴㅏㅁㄱㅕㅆ
저스
▁아저씨
▁상인
▁용량
aw
▁문구
▁막대
▁곤란
▁동쪽
▁이익
▁예산
▁혹시
▁드럼
▁뺏
▁구슬
▁강자
▁어마어마
▁3000
60
두르
FF
▁큐브
▁수호자
▁BPM
▁턱
▁공방
▁캠프
▁소장
▁EN
▁엮
▁It
▁험
▁강요
40
▁악당
▁ㅃㅏㄹㄱㅏㄴ
▁하루카
▁잠수함
▁개혁
▁넘치
▁김현
▁가하
▁원칙
▁ㅉㅏ
▁총리
▁진보
▁굿
▁인치
▁찬스
▁부각
▁닫
▁가져가
이너
▁용서
▁자극
ream
사자
▁잠재
▁메달
▁포르투
▁학자
▁금방
▁칼리
▁상실
ike
▁원문
▁틸
▁저작
▁루이
▁Com
▁ㄱㅗㄹㄹㅏ
▁125
▁교류
▁원주
▁엑스트라
▁앨리스
▁미쿠
▁포로
나미
▁결전
월일
▁가을
▁집행
▁모토
▁상관없
▁어리
▁타운
술사
▁뱀파이어
▁활발
▁1989
▁자전
▁원하
▁카와
▁로리
▁원수
▁마디
▁유효
▁서번
▁엘리트
▁도루
▁중립
▁내지
▁PV
▁신앙
▁입지
▁채팅
버리
▁저렴
▁서번트
▁제트
▁일족
가스
▁칼날
▁표지
▁마그
▁생년월일
▁낚시
▁기생
▁화물
▁내려가
▁없애
▁후계
▁메시지
▁사형
▁루비
▁사명
▁UP
▁요약
iss
▁무척
▁이끄
▁헬기
▁미즈
▁ㄷㅏㄹ
▁담배
위대
▁첩
▁ww
▁피터
▁복지
▁정예
▁위원장
▁구축함
▁힌
▁동아
▁행운
▁안녕
▁간신히
▁ㄴㅏㅁㄱㅣㄴ
▁일본인
▁대학원
▁딜레이
▁순환
▁짜증
팩트
▁존재감
▁구석
▁거울
▁터널
▁바이오
▁재밌
▁레알
▁라면
▁캐스터
▁텍스트
▁모이
▁그랜드
▁뜯
▁무렵
▁추구
▁최신
▁테라
▁집어
▁꺼내
▁피아노
데이
▁엔젤
▁오가
▁www
▁AS
▁주자
▁음모
▁BL
▁말리
▁철학
chor
▁가동
▁나리
▁무역
▁도둑
▁성남
▁애정
30
▁반전
▁부스터
▁지라
ian
▁영주
▁공용
▁격추
▁기구
▁ㅁㅓㅅㅈㅣㄴ
▁->
ㄴㅔ
▁며
▁서쪽
▁모니
▁사원
▁참석
▁심심
▁공허
▁꽂
라기
▁유나이
걸이
▁잔뜩
▁기숙사
▁알렉산
▁체중
▁비서
▁통산
▁드래프트
▁주차
회사
▁해골
▁부적
io
▁이집
▁취약
▁ㅈㅜㄹㅇㅓ
▁이집트
▁분신
▁유나이티
▁플라이
▁초록
▁CJ
▁준우
테르
▁얻어
▁Pro
▁명단
▁ㅂㅜㄹ
소녀
▁궤도
▁스펠
▁탄환
▁하츠
▁윌리엄
▁이토
▁that
▁종목
▁상기
▁훼
▁확대
▁ㅈㅏㄹㄹㅏ
▁씬
▁교황
▁챙
▁유적
▁나츠
▁ㅋㅗ
▁경로
▁토벌
▁브루
▁쭉
▁분대
게임
▁글로벌
▁밍
▁악명
▁왠지
▁말투
▁ㅆㅏㅎ
▁출입
▁페널
▁Fl
하면
▁권리
▁복구
▁업로드
▁이식
▁코멘트
0000
▁1970
ory
▁외계인
우마
▁건조
▁식민
▁은신
▁도박
▁난입
▁대선
▁트랜스
▁태평
▁레딧
▁옳
정부
▁장탄
▁간접
▁Br
▁아미
▁;&
▁ㄷㅜㄹㄹㅓ
▁형상
▁anchor
▁연맹
▁ㅌㅣ
▁와일드
▁레슬
▁신전
▁시라
▁디스크
▁ㄴㅗㄹㄹ
ㅢㄴ
▁양성
▁하향
▁윗
▁발달
▁끔
▁소유자
▁적합
▁구글
▁불사
▁연극
▁라이플
▁이펙트
▁드라이버
▁얀
▁일치
▁이드
▁도라
▁김대
▁제약
▁이수
▁짤
▁아메리카
▁흰
▁릴리
▁그램
▁WWE
▁미키
▁전이
▁&#
ㅈㅎㅕ
▁자라
▁동인
▁유독
▁천만
▁가방
▁사후
▁크림
▁화재
▁팬텀
▁명확
IP
ㅅㅓㄹ
▁정황
▁로얄
▁매장
▁강점
▁주택
▁리뷰
▁할인
▁숨기
▁170
▁ㅂㅏㄴㅎㅐ
IG
ㅈㅜㄹ
▁Or
UM
▁울프
▁리스크
▁ㅂㅣㄹㄹㅕ
▁곳곳
▁헌법
포트
▁고개
▁이민
▁딕
▁아키라
▁비주얼
리나
▁문단
▁하이퍼
▁운동장
VD
▁저택
▁셜
▁ㅍㅏㄴ
▁마블
▁렐
▁다이아몬드
▁끔찍
▁단축
▁le
▁실책
TE
▁보완
▁그럭
▁조별
▁암시
▁ㅇㅓㅄ
▁ㅈㅕㅆㅇㅡ
▁야수
▁메이드
▁앞두
▁웨이브
▁을
▁치즈
저럭
▁by
▁우르
▁어필
▁테츠
▁박물
▁플래시
▁평생
▁승객
▁충실
▁1987
▁금액
▁그럭저럭
▁자이언츠
az
▁언덕
▁걸맞
▁원자
▁~!
▁만남
▁ㅇㅣㄹㅈㅣ
▁호기
▁비스
▁샌드
가리
▁Dr
▁헤어
oth
▁여우
ep
man
▁상영
▁고위
▁백성
▁;&#
▁항공기
▁승자
▁조리
ㄲㅟㄴㄷㅏ
▁파편
▁ㅋㅏㄴ
▁스크린
▁스웨덴
▁덩치
▁토너
ale
OU
▁ㅁㅜㄹ
▁치킨
▁구리
▁록맨
▁ㄹㅠ
▁출격
▁감각
▁허락
ㅂㅎㅏㄴ
데미
▁위반
▁불펜
▁알아
▁구미
▁시합
▁ㅇㅕㅆㅇㅡㄹ
▁토니
▁성립
▁트롤
▁딴
▁매년
▁OP
VA
▁ㄱㅔㄴ
▁답변
▁입대
▁기동성
▁상식
▁권장
▁평점
▁뛰어넘
▁ㄱㅓㄹㄹㅣㄴㄷㅏ
▁마법소녀
▁축복
▁에르
▁필리
▁ㅇㅣㅀㅇㅓ
▁시원
▁넘버
▁언젠
▁니스
▁언젠가
▁ㄷㅓㅅ
▁문재인
ky
▁킬러
▁꼼
비드
▁호칭
▁잡아먹
▁스테이
▁급격
▁부자
▁유학
▁미네
▁동성
▁대수
▁서구
▁보드
▁플래그
▁아카데미
ach
arg
▁일대
▁RPG
▁스즈
▁사살
▁스폰
▁천하
70
▁적중
▁참가자
▁배트맨
운서
▁긴장
▁토마
▁기인
▁나타내
▁아나운서
▁우에
▁집착
▁관할
▁탐험
▁ㄱㅓㄹㅇㅓ
▁Sc
▁시공
▁노바
▁작년
▁1500
▁퇴장
▁정하
▁중형
ows
▁열매
▁전주
▁구름
ㅁㅗ
▁놓치
▁교과
▁ㅃㅗㅂ
▁창고
▁ㄴㅘㅆ
쟁이
▁해명
▁맷
▁사키
▁어판
부르크
▁내전
▁ㄱㅏㅈㅊㅜㄴ
▁ㅁㅔㄴ
▁리플
▁5000
▁근거리
▁학기
▁ㅅㅜㄴ
orm
▁법인
▁실종
▁ㅁㅗㄹㄹㅕ
▁케인
▁결합
▁서서
▁고도
▁정기
▁용인
▁팟
▁선고
▁ㅎㅢㄴ
▁채보
▁111
▁약화
▁믹스
▁타쿠
▁분명히
▁Team
▁토너먼트
ish
▁완결
▁ㄲㅜ
▁그렇지만
▁경직
▁천안
▁ㅁㅜㄹㄹㅓ
▁해안
▁호시
▁결투
▁페이스북
▁전승
▁결심
▁등지
▁KBO
▁야생
▁센스
▁BB
▁발렌
▁호흡
▁}}
▁꿀
ae
군다
▁정차
▁흑인
▁ㅇㅓㅄㅇ
▁랄
GE
▁럼
▁마스크
▁생명체
▁막내
▁암살자
▁치르
▁본사
▁ㅈㅜㄱㅇㅕㅆ
▁솜
ook
▁동아리
▁내일
▁동점
▁박물관
▁불교
▁베타
▁엔드
▁변환
▁ㄲㅡㄹㄹㅕ
▁커녕
▁겹치
▁보이스
▁악몽
Hz
▁슬라이
▁본진
▁연습생
ug
▁연합군
▁수능
▁스위치
ade
▁와타
▁베리
▁불타
▁지팡이
▁우정
▁파르
▁마우스
▁괜히
▁떠올리
ile
▁쓰러뜨리
무시
▁지위
▁인디
▁기운
▁면적
▁휘두르
▁소음
▁침묵
ㅃㅓ
커스
▁FIFA
yle
▁장인
▁사용자
rom
▁헝
▁근본
▁뮤지컬
일보
▁초인
▁침입
▁침략
▁크레
▁유발
▁통계
▁키타
▁솔직
▁동급
irl
▁ㅉㅏㄹ
▁ㅇㅗㄹㄹㅣㄹ
▁ㅣ
▁관리자
ash
▁한쪽
ower
▁대왕
▁유력
▁서클
▁트리플
▁참모
▁부실
▁통화
▁지진
▁wiki
▁무작위
▁알아보
▁영광
▁타석
▁임팩트
▁CH
▁1986
▁법정
ink
▁사인
▁선두
▁유격
▁우타
▁싹
▁프리미엄
▁출구
▁새롭
▁소방
▁돌입
▁노스
▁FW
프리
▁CG
▁따라가
▁인피
데드
▁헐
반도
▁수급
▁수비력
▁ㄱㅓㄴㄱㅏ
▁마물
▁가죽
TS
▁디젤
▁리카
▁지불
▁가디언
▁채택
▁무시무시
▁끈
atch
▁간간
IM
▁스쿨
▁재정
▁언데드
▁대거
▁허가
▁세팅
▁삽입
▁폐쇄
▁보험
▁썬더
▁부서
▁철수
▁벙
▁토시
▁콜로
▁신발
CG
▁교도
▁무관
▁창원
▁DD
▁안개
려들
▁히라
▁균형
▁핑크
▁남북
▁감지
ial
▁포켓몬스터
▁ㄱㅓㄹㄹㅕㅆ
▁바디
sh
▁몽골
▁we
▁통치
▁ㅁㅏㅇㅎㅐㅆ
군다나
부로
▁고블린
▁인력
▁임신
▁경남
▁판결
▁비전
▁뿜
▁데모
▁ㄴㅜㄴ
▁인방
머스
▁격차
은행
▁배포
▁막판
▁리프
▁쓰러지
▁텟
▁항복
▁인종
▁트럼프
▁War
▁더군다나
센트
▁관계자
▁인질
여객
▁철저
▁ID
▁여주
▁아끼
▁제정
▁이타
▁스파이더
▁ㄲㅡㄶ
▁Star
▁단원
ㄷㅣㄴㄱㅏ
▁도망가
▁쿠라
▁인용
▁체인지
▁코르
▁의외로
래시
▁아틀
▁이혼
▁남매
ㄷㅡㄴㅈㅣ
▁출루
▁존경
▁김경
▁골렘
▁고구려
▁투스
▁복선
▁여러분
ㄹㅏㅆ
먼스
▁개설
▁후계자
전차
▁복제
▁ㄷㅓㅅㅂㅜㅌ
▁106
▁유인
▁뻗
▁팁
▁중복
▁일본군
▁메이플
▁동양
▁읍
▁LA
▁가라
▁오늘날
▁반박
▁살아가
ㄴㅣㄴㄷㅔ
리스트
▁예수
▁영원히
코드
▁백인
▁동명
▁수면
▁학습
ㅅㅕ
▁포위
▁일당
▁매번
▁에픽
▁이글
▁포르투갈
▁스트레스
▁돌려
▁그린
▁캐치
▁준우승
▁티아
▁챌린지
▁소송
▁선행
▁아테
▁ㅁㅏㄹ
▁국당
▁무사히
카이
▁up
▁레지
▁장신
▁미나미
필드
▁해머
ㅇㅕㅆㅇㅡ
▁거듭
▁기세
ㅈㅜ
ㄲㅕㅆ
▁수출
▁물량
천시
▁물고기
오루
▁토크
▁오디션
▁DVD
▁옮
▁깨달
키지
▁네트워크
▁보충
▁미만
▁PR
▁무너지
▁닉네임
▁귀엽
▁탕
▁기상
▁보건
▁ㄲㅡㅌㄴㅏㄴㄷㅏ
▁멜로디
▁대책
▁ㅅㅕ
▁라라
▁어이
▁개업
▁코난
▁버섯
▁시크
▁오키
▁이주
▁간단히
▁ON
▁115
▁오우
▁전북
▁지리
▁축하
▁102
▁코트
▁나미
▁중력
▁상한
▁하마
▁피닉스
▁정통
▁상담
▁배정
▁왜곡
티스
▁패키지
▁가만히
▁단행
▁입주
ㄲㅜㄹ
▁자르
▁포즈
▁마다
▁분열
▁공업
▁체험
▁메이커
ING
▁오메
▁fe
▁데이트
▁수석
▁즉사
▁장탄수
화점
▁기동전
▁웰
▁야마토
▁여전
▁Ne
ous
▁악기
▁만만
▁후원
▁잠입
▁배역
▁벨트
▁혼돈
▁For
amp
▁ㅇㅔㄹ
▁뽀
▁기재
▁플러스
▁트릭
att
▁마드리
▁처분
▁해킹
▁진압
▁리오
▁}}}
▁서포트
▁자전거
▁사령부
▁아랍
▁Go
세대
▁콘텐츠
▁ㄱㅓㄴㄴㅓ
▁ㄷㅡㄹㅇㅡ
▁선제
▁장거리
▁And
▁항의
ㄱㅗㄴ
▁닛
▁야구장
▁퍼포
▁정발
▁유산
▁퍼포먼스
자와
▁기갑
▁돔
▁마드리드
▁대포
게이
▁파이트
▁고리
▁성전
▁억지로
▁GP
▁도감
▁자본
야수
▁수백
▁175
▁라그
▁세부
▁ㅈㅏㄹ
▁기름
▁Cr
▁호랑이
▁수명
▁사이코
▁ㄹㅠㄴ
▁블라
▁악화
▁파멸
▁Wind
▁오스트리아
▁토키
▁파동
▁가공
▁유미
▁ㅂㅏㄺㅎㅣㄴ
▁188
▁주니어
▁탐정
▁분쟁
▁신입
▁통로
아키
▁ㄱㅡㄹㄹㅓ
me
▁김상
▁옹호
▁젤리
▁신나
붙이
▁파생
하시
▁첼시
▁1985
▁wid
▁배달
▁모험가
▁".
▁이스라
▁디즈
▁무술
▁대치
▁세포
▁프레이
▁분해
▁조약
▁전제
▁우세
크로
ms
▁최상위
▁모터
▁산하
▁유성
바닥
▁공정
▁광선
▁논의
AY
▁진주
▁bl
64
가드
텐도
▁시트
▁기력
▁노조
▁닌텐도
▁장미
▁차체
▁ㅊㅣㄴㄷㅏ
▁무스
▁마코토
▁커지
▁위안
▁재회
▁ㄷㅡㄹㅇㅕ
▁터스
▁강원도
▁박지
ㄹㄹㅐ
▁버드
▁처참
▁부착
▁증폭
▁궁금
▁규격
▁후손
▁체감
▁금메달
▁레일
▁조이
▁width
▁조우
▁진학
▁김진
▁깜짝
ㄹㄹㅣㅁ
▁아르헨
▁ㄴㅡㄹㄹㅕ
▁행방
▁여학생
▁al
▁나비
▁그날
▁롬
12
ib
ft
▁나기
▁양상
▁고로
▁350
▁Gam
▁히가시
▁드루
▁즈음
▁업계
▁아동
▁독재
▁리온
▁퍼지
▁조기
now
▁니콜
ㄷㅣ
▁시카
▁PP
▁검술
ㅟㄴ
▁방치
▁휘하
▁들어서
▁ㅊㅣㄴㅎㅐ
▁띠
▁카구
▁난사
▁전파
벌레
▁BS
▁주둔
▁훈장
▁개발자
▁아르헨티나
▁무인
▁폭행
▁파란색
▁IN
▁베네
ps
▁반부
▁경주
▁브레
▁스트리트
▁듀오
ㅂㅗㄴ
▁공수
▁전동
▁ㄱㅕㅂㅊㅕ
▁톨
▁비웃
oll
▁페널티
아이
▁ㅊㅣㄴㅎㅏㄴ
▁스탠드
▁ㅅㅗㄱㅎㅏㄴㄷㅏ
▁한두
▁방송국
▁저지르
비전
▁BR
▁관점
▁소요
▁측정
MP
▁전무
▁토큰
▁기원전
렐라
▁1984
▁감상
▁Man
▁제독
▁이온
▁AKB
▁벼
▁베테
▁운수
히코
▁중세
▁세인트
▁국판
▁질투
▁능력자
▁김기
▁오염
▁중장
▁ㄱㅏㅁ
▁택시
▁산탄
▁면허
▁승무원
▁조커
▁시상
▁지사
승부
▁왜냐
▁사귀
▁마냥
▁루스
▁최적
TV
▁이라
▁우치
pl
▁UN
▁All
▁유니크
▁불량
▁부사
▁늘리
▁드론
▁이스라엘
▁후자
▁혈액형
▁감동
▁닝
▁루머
태프
▁피트
▁나루토
▁괴롭
▁위성
▁대단히
▁트루
▁아레나
▁선거구
▁기장
▁이종
▁스캔
▁약탈
▁코마
▁Part
▁스텝
▁도저히
ㅋㅣ
▁브로
▁신도
▁아시안
▁디바
▁발목
▁KR
▁ㅂㅐㄴ
▁자꾸
▁SU
▁주행
▁창단
▁베기
신교
▁에디
▁ㅎㅣ
▁광장
▁En
▁철권
▁상관없이
▁우월
▁하하
▁바론
카락
▁112
▁다운로드
▁머리카락
▁룩
▁샷건
▁ㅅㅣㅂㅅㅣ
▁루이스
▁내려오
▁분당
ㄱㅡ
▁남아
▁자비
ond
▁선보이
▁맡기
▁옮기
세서
▁후퇴
▁루크
▁명의
▁달라지
▁식민지
▁Sup
▁까이
▁왕위
번에
▁나노
▁연고
▁프렌
▁DC
▁일화
▁야간
▁서서히
▁Fate
▁찢
▁ㅊㅣㄹ
▁줄거리
경기
▁둠
▁과도
▁아가씨
▁기둥
▁노가
▁토미
▁Mar
▁제출
▁대시
▁더빙
▁라이너
▁자녀
▁투척
▁돌연
▁공백
▁쇼핑
▁ㄷㅓㄴㄱㅏ
▁원리
▁타이거즈
▁ex
▁소용
▁엑시
▁간호
▁철거
▁LP
▁듀스
▁캣
▁루피
▁드림
▁108
ㄹㅜㄴㄷㅏ
▁굵
▁마감
▁요인
▁힐러
▁수월
▁AN
ase
▁전망
▁이란
▁중시
▁라이온즈
▁보존
▁고증
▁ㅎㅑㅇㅎㅏㄴ
데레
▁특급
ool
▁뻥
▁조롱
▁틴
▁조용히
▁오락
▁얻어맞
▁프란
▁합계
도리
키퍼
▁sp
▁절차
▁온천
ㄲㅜㄴ
▁시바
▁쇼크
▁평일
▁장사
▁배급
필더
▁미드필더
▁닐
▁스리
▁시외
▁360
▁무산
▁몫
▁수동
▁식품
▁합병
▁원조
▁백작
▁비명
ㅌㅡ
▁배드
▁생애
▁모로
▁117
▁저하
유럽
▁주류
▁이나
▁범죄자
▁긴급
▁시신
▁타일
▁막히
▁안양
▁유재
▁One
▁걸즈
투스
▁막상
▁킷
▁고객
▁마계
▁와카
▁잠실
우리
▁인권
런트
▁처지
▁꼬마
▁오이
▁뒤늦
▁세라
▁청와
▁실장
▁복합
▁스포일러
ㅇㅘㅆㅇㅡ
▁빅토
▁에릭
▁샤이
▁챙기
블로
▁우유
▁지칭
▁여인
▁확장팩
▁러시
▁에반
▁카시
▁증상
▁수색
▁낙하
▁발굴
산시
▁로빈
▁실은
어놓
▁방위
▁교단
▁강림
▁직장
▁골키퍼
▁아아
▁공인
▁호소
▁ㅂㅓㄴ
▁어시스트
▁코스튬
▁달하
▁팡
▁만일
▁성당
▁예고편
▁의자
▁ㅇㅗㅂ
ree
▁개별
▁청와대
ph
▁ㅍㅏㄹ
▁로이
▁부임
▁ㅂㅕㄴㅎㅐ
▁경악
▁기묘
▁임금
▁배수
하르트
▁여고
▁고소
ㄷㅚ
▁포스터
▁미루
▁뱅크
▁청주
▁As
▁폭파
▁유의
플레이
▁교복
▁히든
▁비치
▁New
▁거북
▁로버트
ason
▁그라운드
▁ㄱㅘㄴㅎㅐ
▁하이라이트
▁학생회
▁개장
▁ㅇㅜㅅ
▁나폴
▁붐
▁바스
▁당당
▁국경
카이도
▁ㄴㅔㄴ
▁리즈
▁뱃
aby
▁특별히
▁며칠
틀러
▁통틀
▁프린세스
▁ㅎㅣㅁㄷㅡㄹ
▁헨리
▁Oh
학자
리온
▁103
▁꽉
▁케이드
▁아이러
▁도트
▁여객
▁퍼즐
저리
▁막아내
ai
▁조명
▁GO
▁수염
▁오로지
▁FM
도르
▁회담
▁선사
▁실존
▁JP
▁렌즈
▁트레일러
▁흰색
▁ㄷㅡㄹㄹㅕ
불호
▁호불호
▁그레
▁개신교
▁비스트
▁술사
▁후회
▁집어넣
▁모집
▁220
▁휠
▁명백
베스
릴라
▁쓸데
ment
▁에로
▁사야
불명
▁극도
▁시로
▁뜬금없이
▁보라색
러그
▁ㅅㅔㄹ
▁양손
ㄹㅜㄹ
▁1960
▁마케
▁매출
ㅇㅏㅅ
크라
▁유기
▁끊임
▁동경
▁역습
▁CS
▁관찰
▁오더
▁캘
▁올스타
▁부동
▁z
▁성질
아나
▁라즈
▁프로토
▁유언
▁셔틀
▁트레이너
▁라크
▁불행
▁240
▁엿
▁모듈
▁되게
▁어쩌면
▁심의
▁바지
▁원곡
▁tv
▁UE
▁윈드
▁캐시
oon
▁코미디
▁흔들리
▁회색
▁오브젝트
▁과학자
▁찾아가
그리
▁우주선
▁샵
▁타르
▁un
▁장로
▁찾아보
▁128
▁타이탄
에이
▁초콜
▁웨스트
▁지인
▁무섭
▁항구
▁잡아내
▁손상
▁법칙
▁나스
키아
▁그거
마크
▁여파
▁떠오르
▁이와
MS
▁드로우
90
▁결계
▁에서
▁연봉
▁물품
▁홀드
▁포탄
▁지향
▁구르
▁폐기
베이
▁이글스
▁풋
▁우즈
▁비유
ㄴㅑㅇ
돌이
ㄸㅓㄹ
ㅍㅏ
싱턴
act
▁유망
ox
▁유출
▁김용
▁광산
▁엘리자
▁ㅁㅏㅈㅅㅓ
▁건국
▁세뇌
▁각오
▁국정
▁갤러
▁손실
▁무승부
ARD
▁신선
▁제네
▁진격
▁맥주
▁코믹
▁ㄷㅏㅁㄱㅣㄴ
▁갈아
▁알라
▁중순
▁국장
▁슬로
▁워크래프트
▁포장
▁무공
▁브라운
▁장판
라노
▁즉위
hen
▁늙
▁임기
▁패전
▁발리
▁가져오
▁트랩
▁랑
▁따뜻
▁엄밀
▁치열
▁우드
▁%/
▁클론
ㅇㅗㄹㄹㅏ
▁TVA
▁제갈량
▁모스
▁단기
▁추리
토스
거지
▁아바타
▁네티
▁짐승
▁서머
▁노동자
러나
저기
▁스핀
▁태어나
▁최우
▁탐지
▁섀도우
▁쿤
▁커스텀
메이
▁반감
▁ㅇㅕㄴ
▁썰
ank
▁영지
▁나나
▁계수
▁하스
▁사이클
▁로이드
▁트로피
▁리안
▁관통력
▁함부로
▁라틴
ㅈㅝ
▁하프
▁튼
▁간주
▁여기저기
▁기수
▁양자
▁이웃
▁World
▁트리거
▁독점
▁신데
ㄲㅣㄴ
▁신용
우치
▁배려
ich
▁소프트웨어
▁원더
ary
▁ㄲㅡㅁ
lect
▁김준
▁백제
▁일요일
▁키라
▁레온
▁단종
▁사립
깨비
▁합리
▁방탄
▁알렉스
▁생전
▁스나이
▁ㅅㅐㅇㄱㅣㄹ
▁JT
▁지연
▁콤비
▁아쉬
▁챔피언십
▁장난감
▁디즈니
▁당대
▁안심
▁프라임
▁신자
▁토요일
▁1982
▁Mk
▁옐
포르
ife
▁단검
▁먹히
▁여럿
펴보
▁살펴보
▁대조
▁태평양
▁트라우마
▁날씨
더라
▁끌어
▁빨간
▁야쿠
▁태국
▁후미
▁시인
▁아이러니
ear
▁신데렐라
▁우익
▁벤치
▁방송사
▁카더라
▁이모
▁나르
▁상륙
▁휴가
보내
▁때려
▁리버풀
▁마땅
▁네티즌
▁신속
ㄷㅝㅆ
uk
▁혜택
▁센서
▁손오
에르
ㅡㄹㄹㅕㅆ
▁시비
▁음료
블리
반기
▁스트라이커
▁서바이
ㅂㅎㅣㄴㄷㅏ
▁LIVE
▁스피릿
▁쉴
▁서기
하마
▁디시
ET
렉션
란히
▁동속
▁파밍
▁선임
▁추세
▁주어지
▁SF
▁도장
▁수습
11
▁ㅎㅏㄹㄲㅏ
▁실내
▁사법
▁라스트
▁키보드
▁슬라
▁버스트
▁근원
▁막강
▁의학
ㅂㅗㄴㄷㅏ
▁권유
▁김해
ㅈㅣㅁ
▁ㅇㅜㄹ
way
▁185
▁변수
▁돋
▁탭
▁all
▁Day
▁ㄸㅡㄴㄷㅏ
ple
▁벡
▁시리아
타카
▁순양함
▁결제
▁뭉
▁낙선
▁그만두
▁ㅍㅜㄹㄹㅕ
▁상사
▁ㅂㅜㄹㄹㅕㅆ
▁허무
▁되돌
▁지목
▁권위
ㅁㅏㄹ
키리
▁전남
▁지력
사기
▁곱
▁독일군
쿠라
▁경북
▁마카
▁Fr
▁흡사
▁니혼
▁ㅌㅟㅇㄱㅕ
▁기호
▁후임
하나
▁1983
▁샬
▁실시간
▁구조물
▁갚
▁약물
▁배출
▁표면
▁스타디
▁추방
ㄷㅎㅣㄴ
▁후반기
▁엽
▁{{{#
▁lv
▁드레스
▁파울
▁울트라맨
▁로보
ype
싸움
▁ㄷㅚㄹㅈㅣ
▁선장
노리
▁아름
▁극히
▁경호
▁매니아
▁논쟁
▁근접전
▁창설
▁당사자
▁ㅎㅡㄴㅎㅏㄴ
▁유혹
▁패밀리
▁유전자
▁짐작
▁포획
▁119
ens
▁nd
▁ㅇㅏㅆㅇㅓㅆ
▁조상
▁역임
▁페리
▁간간히
숭이
▁성배
▁진상
aster
▁강사
▁고치
▁둘러보
▁정석
▁태클
▁켜
▁침대
▁ㅎㅜㅁㅊㅕ
▁원형
▁소모량
orn
▁합동
ork
▁MB
사리
▁좌절
▁감수
▁범용
▁몰리
▁go
▁베어스
▁전생
▁시온
▁마피아
▁물체
▁비극
▁백화점
▁페어
▁손오공
▁ㅅㅜ
▁DPS
▁DP
▁구동
▁지선
▁123
▁104
스티벌
▁ㅅㅕㄴ
▁페스티벌
▁연구원
▁중상
▁부스트
▁특공
▁Wi
▁집권
▁퀵
▁출혈
▁사무소
▁해병대
▁빌딩
▁Ad
▁Sw
▁미궁
▁are
▁마트
▁콘솔
▁설령
▁RA
▁낭비
▁동남
▁엑시즈
▁튼튼
▁삼각
▁OVA
▁특별시
▁Up
▁피로
▁수직
ans
▁변태
▁띄우
▁도리
▁명목
▁생체
▁질병
▁style
▁109
▁스태프
▁의장
▁정교
우트
▁단행본
▁한반도
▁헤르
▁래퍼
▁바나
▁강렬
▁미미
ons
▁오메가
▁복원
▁질주
▁전날
▁빨간색
▁개국
▁토요
▁찾아오
▁호남
▁사악
▁AA
▁스즈키
사이
▁엄격
▁쨩
▁탐색
▁베테랑
ey
▁닷
▁do
▁KOF
버그
▁관측
▁하인
▁직선
▁동행
▁ㅍㅕㄹㅊㅕㅆ
▁케이블
▁실상
▁공감
▁공대
▁걸어
▁배제
▁그치
very
▁ㅈㅠ
▁제물
▁도깨비
▁대타
▁브레이커
▁리코
▁스플
▁데이비드
ung
▁약자
▁III
▁본관
공항
▁디펜
▁물려
▁양반
▁우측
▁ES
▁본토
▁페미니
▁센트
▁장성
▁ㅅㅟㄹ
▁ㅈㅡㄹㄱㅓ
▁스테이션
▁블로
▁위로
▁진급
▁총합
▁ㅁㅏㅇㄱㅏ
▁쌀
▁변동
▁연쇄
▁메리트
▁무실
NA
▁바둑
▁광기
▁앰
▁마타
▁잉여
▁히로시
▁우호
▁관여
▁전격
▁UEFA
▁거론
▁비추
▁전락
▁라그나
▁해양
▁오노
타입
렉스
▁코토
▁선조
▁스타디움
▁단발
▁앗
▁워싱턴
EM
브라
▁군수
▁고무
▁유탄
▁메일
▁촉수
▁위엄
▁프리미어
▁구장
▁훼손
ㅇㅏㅆ
▁그랑
나기
▁에이지
박스
▁역명
▁친절
▁하급
▁논문
▁아스카
▁ㅇㅡㄹㅅㅜ
능력
anc
▁축소
▁세금
차기
▁리모
▁마술사
▁끼치
▁다가오
AK
▁트윈스
▁할로
▁응용
ll
▁백업
▁장애물
▁스와
▁스위스
▁중지
▁친하
ㅋㅏ
▁한창
▁대박
▁인재
▁Windows
▁반짝
▁마오
께끼
▁수수께끼
▁데빌
▁민주주의
▁치카
▁카를
▁오지
▁노란색
▁경상북도
▁성실
▁사리
▁ne
▁시달리
▁확산
▁코바
▁징역
▁괴롭히
▁제왕
▁최저
▁원피스
체스터
▁구성원
▁수비수
▁워크
▁어색
▁재학
▁박살내
▁강호
▁키미
▁명문
▁차리
▁취업
argin
▁겜
▁소니
▁땅볼
▁묘하
35
▁카카오
▁안쪽
▁as
▁미지
▁초콜릿
▁형편
▁메카닉
▁대행
▁츠카
▁깃발
▁천연
▁노가다
▁윈도우
▁란스
▁빈도
ero
▁힙합
▁ㅇㅓㅄㅇㅐ
▁이현
ㄹㄹㅣ
▁산타
▁en
▁우승자
▁공통점
▁짙
▁포터
▁역량
▁승차
▁유료
▁강등
▁여타
▁고스
▁해치
▁ㅅㅑ
▁폴리
▁가리키
▁과자
▁온도
▁껍
▁Station
▁우회
▁중고
▁썸
▁인자
▁레이디
▁드래곤볼
▁구독
▁창문
▁통칭
누스
▁젬
다보
▁Ph
▁렉스
▁187
▁티스
▁유망주
벤처
▁전당
▁분산
▁바르셀
▁Qu
▁어드벤처
▁마유
▁margin
oss
▁리퍼
▁LO
▁취득
▁바르셀로나
▁no
▁부작용
▁시상식
▁성씨
▁퇴각
▁ㅊㅐㄴ
▁농장
▁수인
▁이병
▁엔지
ㄴㅡㄴㄷㅔ
지막지
▁무지막지
▁So
▁불쌍
▁스미스
루미
▁칭하
▁ㄴㅏㄹㅋㅏ
모스
▁발판
▁동반
▁루프
▁ㄷㅗㄹ
▁올드
▁ㅅㅏㄴㄷㅏ
▁굴욕
▁크레이
▁대령
▁화산
▁파도
▁눈치채
▁클린
▁봉쇄
▁ㅈㅡㄹㄱㅕ
▁급행
▁발행
▁135
▁다이스
▁레이어
▁스노우
▁블레이
▁ML
▁관우
▁210
▁로맨
ise
▁최선
▁츠바
▁ㅁㅏㄱ
▁발키리
동자
ㄹㅏㄴㄷㅏ
▁규제
▁대접
▁카마
▁렘
port
pt
▁빙판
▁요한
비치
▁매드
▁공단
▁121
▁젖
니시
▁원시
▁주사위
▁고장
▁진에
▁소재지
▁어벤
▁사족
99
▁타치
▁흔하
▁챔프
▁머니
▁정반
▁후드
▁결혼식
▁공산당
▁오스만
▁표절
▁변이
▁평양
▁잔인
ical
▁국무
▁대전차
AP
▁톡
구장
▁천천
▁미오
▁특훈
▁손님
▁107
▁경연
▁ㅍㅣㄹ
▁겔
▁아베
▁와이번
네마
▁황후
▁카리스
▁예약
▁Ver
▁피카
셔널
▁선출
▁검열
▁스케일
▁쿵
▁가난
▁블리자드
▁쯔
▁어나
▁털리
구미
▁개척
▁스택
▁열혈
▁시사
▁수지
베이터
▁페어리
▁신중
▁강간
▁게이머
▁목걸이
▁MG
ㅅㅝ
▁1981
ㅟㄴㄷㅏ
▁여포
▁김수
ㄷㅚㄴ
▁뮌
▁엔트리
▁패자
▁스타리그
▁인과
▁호크
▁캄
▁날뛰
▁인칭
▁와인
▁어나더
리안
▁여섯
▁시외버스
▁이라크
▁주체
▁멍청
▁난무
▁신동
ign
▁이대로
▁프랑스어
▁사체
루션
▁침투
모함
▁ㅅㅓㄲㅇㅕ
▁!"
▁--
리스타
▁왼손
▁ㄱㅓㄴㄷㅔ
▁쇄
▁마인드
▁천천히
▁기부
다운
▁교토
▁강경
▁광물
▁대성
▁퍼스트
▁강민
▁pl
▁세리
▁꿰
▁지수
▁이순
▁주관
▁점검
게이머
▁프로게이머
▁김지
▁서식
군가
▁사관
▁워프
▁케빈
▁슌
▁ㄷㅓㅅㅂㅜㅌㅇㅕ
▁끊임없이
▁사수
▁부재
테이션
ㄴㅣㄹㄲㅏ
으로
▁love
▁조종사
▁미정
▁폭스
▁지오
▁그레이트
▁스컬
▁제재
▁소금
▁트윗
▁타츠
▁모니터
▁압권
하루
▁이노
▁ㅉㅗㅊㅇㅏ
▁출간
▁혈통
▁미러
▁소통
▁누군가
▁모델링
▁동해
▁선진
▁루리
▁레인지
▁김승
IR
▁무용
▁스티븐
▁프론
▁땡
▁미국인
▁중거리
▁토지
gh
▁ㅇㅣㄹㄲㅏ
▁레시
▁고시
▁TR
▁Sk
▁평론
▁철갑
스레
▁첸
테일
▁답답
▁해산
▁요미
센스
▁덧
▁크라이
▁맞붙
ail
어드
▁ㅇㅕㄹㄹㅕㅆ
▁페스
▁아스트
▁임의
▁ㅊㅏㄱㅎㅏㄴ
▁첫째
ㄷㅝ
▁망토
▁math
▁186
▁경찰서
▁용자
▁리나
▁장타
바나
▁엄연히
▁냉정
▁폭격기
▁너머
▁명분
▁알바
▁자네
▁이경
▁점유
▁흙
urn
▁개교
▁주최
▁구별
ode
▁친분
▁ㅍㅕ
▁라이즈
▁러스
▁도어
▁가르치
▁실사
▁중동
▁오죽
▁자존
▁재개
▁마산
▁플랜
▁상무
▁ㄱㅏㄹㄹㅏ
VER
▁JTBC
▁감탄
▁유니버스
▁Super
▁보좌
▁밀어
ence
어하
▁To
▁공격수
▁연산
▁자제
민주
▁화상
▁처하
▁크래프트
▁풍부
▁(
▁중위
▁고속도로
▁하여
▁항공모함
▁트릴
▁이대
▁122
추어
▁떨어
▁고사
▁굴리
▁ㅁㅜㅇ
▁외곽
▁붓
▁국제공항
▁사퇴
▁열정
▁Dream
▁BJ
틀랜드
베리
▁본능
▁스폰서
▁질서
▁초능력
▁손쉽
▁웜
▁ㅂㅓㄹㅇㅕㅆ
▁="
▁공속
▁EC
▁에디션
▁삼성전자
▁영감
▁유입
▁코노
▁불능
▁정신력
▁LE
▁그릇
▁검정
▁꼽히
▁박성
!!
▁애칭
▁지부
▁맹세
▁마일
▁ㅇㅣㅈㅎㅕ
▁시타
▁EXP
▁라이언
▁인벤
▁하나하나
▁출범
▁어이없
▁김유
▁리틀
ier
ㄷㅜㄹㄹㅓ
▁변장
▁홋
▁몸통
▁ㅍㅡㄹ
라미
바지
▁까마
▁원숭이
▁우마
▁찬성
▁동정
배우
▁김포
▁저렇
▁하치
▁유연
▁고집
▁민국
▁광명
▁중점
▁기본기
의자
▁법사
이동
▁납득
▁1979
▁카레
IX
▁카쿠
▁평상
▁기스
▁곡인
▁벙커
▁ㅇㅜㅁㅈㅣㄱㅇㅣㄹ
▁쫒
▁ㅈㅣㄴㅇㅣ
▁왜냐하면
▁템플
▁엘리베이터
▁에버
▁쉴드
▁사무실
▁워즈
▁예쁘
▁카자
ble
▁극대
▁근대
▁145
▁아쿠아
▁유치원
▁엘레
▁ㅇㅡㄴㅈㅣ
▁체결
▁로키
▁히틀러
▁마모
▁창작물
▁장례
▁브라더스
ㄲㅝㅆ
▁도색
▁쿠마
▁박수
oun
▁만능
▁멋대로
▁광경
▁총장
▁무제
▁카네
▁ㅂㅕㄴㅎㅐㅆ
▁매주
▁스가
▁ㅂㅜㅌㅇㅣㄴ
▁Ap
▁NO
▁부천
▁블럭
▁작정
iver
▁청구
이나
▁can
▁토트
▁기르
▁워리어
▁퍽
▁롤러
▁113
▁이어받
ㄴㅣㄴㅈㅣ
▁튜버
워즈
▁모임
▁165
▁가이드
▁쿠니
▁할리
▁부근
▁씨앗
▁후일
이치로
▁펭
▁일가
▁투쟁
▁헬멧
▁ㅆㅏㄴ
▁출산
▁왕복
ott
▁IM
▁확신
▁ㄱㅜㄴㅇㅛ
▁암호
▁학급
▁마운
▁호러
▁테이블
▁조카
▁슈퍼맨
ㄷㅡㄹㄱㅕ
▁풍선
▁무실점
▁ㅂㅏㄹㄹㅏ
▁싫어하
▁안타깝
▁슬픔
▁144
▁동전
▁비틀
▁실현
▁터보
▁이누
▁복사
▁글씨
▁인접
▁만주
▁ㄱㅏㄷㅎㅕ
▁레이블
▁고등학생
▁스쿼
▁히스
▁유격수
▁명사
▁방심
▁사사
▁이카
▁마라
▁엮이
▁헝가리
▁1950
▁IT
역사
▁브라이언
들이
▁항모
▁비리
▁포탈
▁상주
▁병역
▁ATK
▁155
▁Max
▁케이크
▁운송
▁아지
ㅌㅣㄹ
▁CM
▁아처
▁재앙
▁니아
▁사연
▁유우키
▁엄밀히
▁리가
▁이이
▁ㄱㅓㅂㄴㅣ
▁변명
페라
▁손자
▁생김
▁큰
▁각인
▁검증
▁부스
▁타구
▁노무
▁세로
▁넬
▁시뮬
▁연수
▁ERA
▁엉망
▁카지
▁at
▁사투
▁젼
▁철저히
▁닦
▁BD
▁몰살
ㄴㅣㅁ
▁깨지
▁알레
▁114
uck
▁기리
▁방학
▁연전
▁인성
II
▁신지
▁조국
자치
▁영양
▁상금
▁독일어
oh
▁절친
▁츤
▁히카
진호
▁승인
▁페르소
▁통째
▁시크릿
페이
▁화폐
폭탄
러가
슬라
▁쪼
▁유재석
코트
▁입문
▁쿠데
▁바쿠
▁제니
▁집회
▁유메
▁ㅈㅔㄴ
▁일곱
▁품질
▁햇
▁엔지니어
▁매트
▁유카
▁현금
▁목사
야시
eah
▁천장
▁원전
ㅋㅣㅂㄴㅣ
ㅈㅣㄹㄹㅓㅆ
▁바치
▁옥상
▁간지
▁스틱
▁사나
▁ㄷㅓㅍ
▁양식
▁아무튼
▁제리
▁마음대로
세우
▁쓰리
▁다큐
▁간섭
▁동대
▁기차
▁스나이퍼
ㅐㅆ
▁싸이
▁리본
▁전동차
▁망하
ㅌㅕ
▁태우
▁이케
▁친애
▁GK
▁할로윈
▁쿠스
▁우연
▁함락
▁초록색
▁수위
▁티저
▁스카우트
▁750
▁ㅊㅜ
▁샐
▁멧
▁개구리
▁시모
▁혁신
▁뮌헨
▁오렌
▁용암
▁호드
▁벅
▁ㅂㅜㅌㅈㅏ
들리
▁감자
▁너스
▁코스프레
▁깊이
▁궁합
▁스피어
▁메트로
주교
▁정문
▁뉘
▁죄책
▁기동력
▁아자
▁전향
▁참사
▁성경
▁사무라이
케이션
▁페르소나
가루
끼리
▁마당
▁this
네시아
▁승진
▁부패
▁..?
▁거지
▁토대
방송
bs
▁종결
▁스티브
▁최순
int
▁녹화
▁시게
▁디자이너
▁아드
▁화해
변이
▁Season
▁돌연변이
▁평행
▁이놈
▁오니
▁토우
▁ㄴㅗㅍㅇㅕ
▁미르
▁OS
▁아리아
▁러쉬
▁이력
▁450
▁혀
▁AB
▁HE
▁만점
▁자율
▁아오이
▁한나라
▁협의
▁메이지
▁미성
▁호의
▁죄책감
▁from
▁한나라당
▁오퍼
ㄷㅡㅅ
▁고아
▁나아가
▁{{{-
▁원장
▁스매
▁필리핀
▁종영
▁합작
IL
▁기후
▁깨끗
▁자칭
▁이스트
▁도약
▁레나
▁ㅍㅣㄴ
▁은폐
▁EXT
▁교과서
ose
▁ㅎㅏㅂ
itt
운동
▁tr
▁미인
▁나이프
▁갯
▁브론
▁자이언트
▁항해
▁얼티
▁유전
▁ㅁㅏㄱㅎㅕ
ㄷㅇㅓ
▁지분
▁파스
▁아이디어
▁정성
▁진에어
▁이태
▁적절히
▁동서
▁EZ
▁실체
▁잭슨
▁충족
▁흑마
▁다니엘
▁ㅇㅏㄴㄷㅏ
▁La
▁대위
▁레코드
▁마에
▁여의
▁좌측
▁현자
▁치안
▁314
철도
▁흡혈귀
▁리사
▁여단
▁트래
▁뱅가드
▁이틀
▁ㅊㅐㅇㄱ
▁마기
ㄷㅡㄹㅇㅣㄴ
▁분홍
▁스타트
▁외국어
▁지혜
직자
▁저글
▁Im
탐정
▁Vol
▁ㅇㅏㄴㅌㅏ
▁헥
▁new
렉터
▁툰
▁학문
▁욕설
▁ㄱㅓㄴㄴㅔ
▁베이징
▁히드라
▁시골
▁ㅇㅣㅂㅎㅣㄴㄷㅏ
▁스쿼드
▁소생
▁Con
▁가위
▁얇
▁피자
▁밀도
▁NBA
▁ㅆㅗㄷㅇㅏ
▁계층
▁내기
▁갈색
ㄹㅔ
▁ㅅㅡㄴ
ats
▁가담
▁각지
▁Sch
▁ㄸㅓㅆ
▁바이올
▁강릉
ㄷㅡㄹㅇㅓ
▁Ed
▁신곡
▁말씀
▁포병
마루
▁일관
▁124
▁ㄸㅜ
▁ㅆㅓㄴ
▁서류
▁추후
▁울리
▁학년도
▁로스트
▁잔혹
▁ld
▁ㅁㅜㄴ
▁고고
▁우루
▁협정
▁아케이드
▁rd
▁침착
▁스타즈
▁초상
▁학대
▁날아오
▁Girl
▁출판사
▁가오
▁무도
▁카테
▁주석
나베
▁부원
▁해소
▁카리스마
▁까다
▁Gre
우라
▁입증
15
▁ㅌㅏㄹ
▁스파이더맨
▁에메
▁잼
▁ㄲㅡㅌㄴㅏㄹ
▁물자
▁대동
▁나이츠
은색
▁RE
철수
▁Night
▁나인
ari
▁펌프
▁시어
ube
▁미아
▁배구
▁존스
▁밀레
▁워터
▁억울
부키
▁물약
지능
▁갑작
ㄴㅏㅆㅇㅡ
▁인공지능
▁부속
msys
▁강타
ㅈㅇㅓ
▁대세
ition
▁중원
▁ldmsys
▁이오
므로
usic
바르
▁183
▁판도
바이트
▁존중
▁놀랍
▁저글링
▁격려
슈타인
▁고의
13
▁강전
▁감당
▁대검
▁USB
▁쌓이
▁힘입
▁압축
▁피지컬
워프
▁익히
▁정사
오피스
▁디아블로
▁유스
▁과금
▁부유
▁긁
▁괴인
▁저기
▁우울
▁스탈
▁퀴즈
▁함장
▁점멸
▁대변
▁생김새
▁점심
▁ㅌㅡㄹㄹㅣㄴ
▁빙결
▁표적
25
▁극한
▁내역
▁테스
▁압력
▁레이싱
▁하지
▁이빨
항공
▁동구
▁맞서
▁민간인
▁마하
▁애완
▁산맥
▁황당
▁라마
▁키요
▁ㄱㅏㅇㅎㅐㅆ
▁ㅂㅕㄴㅎㅏㄴ
▁1200
리얼
▁리버스
▁Black
▁세자
▁경부
▁발사기
▁ㅈㅡㄹㄱㅣㄹ
▁박스오피스
▁집계
▁WC
▁TS
▁법무
▁자책점
▁ㅇㅗㄹㄹㅣㄴㄷㅏ
▁철도역
▁이소
▁ㅅㅏㅆ
▁마케팅
ㅁㅏㄹㄹㅗ
▁김주
시오
▁건드리
▁소소
▁그러므로
▁아카네
▁후유
▁ㅅㅗㄱㅎㅏㄴ
▁마틴
▁만렙
▁모형
▁스탭
▁골프
▁보스턴
▁NH
▁퇴치
▁중견
yn
▁ㄴㅏㄹㄹㅣㄴㄷㅏ
▁일렉
업자
▁벌써
ㄹㅗㅂ
▁예의
▁잠들
▁ㅂㅓㄹㅇㅣㄴ
▁그쪽
▁ㅂㅕㄴㅎㅏㄴㄷㅏ
▁다시금
▁제노
▁그레이드
▁농업
▁대차
른바
▁마도카
▁병살
▁연동
▁127
▁ㅈㅏㅂㅇㅏ
▁이른바
▁박진
▁기질
▁일지
▁BC
▁에미
▁데몬
▁ㄱㅕㄴ
▁지로
▁재건
사랑
▁기껏
▁모종
▁주축
▁원판
시대
▁토마스
▁현황
▁교차로
▁연설
▁그러면
▁노아
▁이원
ㅅㅡ
▁리처
▁출동
▁어서
DD
끄럽
▁무녀
▁자아
▁통솔
▁디오
▁문양
토니
▁ㅈㅏㄴ
18
▁덩어리
▁MM
▁남동생
▁ver
app
▁DM
▁포착
▁ㅌㅡㄴ
▁사촌
▁천상
▁로프
▁Let
▁드워프
▁상냥
▁등극
▁유진
▁구상
▁뚱
세지
▁장벽
▁모빌
▁각도
▁자존심
ㄹㅕㅆㅇㅡ
▁스토어
▁도덕
▁선동
▁ㄴㅗㄴ
▁억제
▁불길
▁SSR
▁발명
▁118
▁관장
▁귀국
▁모스크
▁바텀
▁킴
▁레아
▁도대
▁스크롤
▁빠져
▁OG
▁퓨전
▁카게
▁Am
▁Op
▁육상
▁프랜
▁노무현
▁184
▁오른손
▁아마추어
▁Col
▁아포
▁절벽
▁ㅎㅡㅌ
▁용산
▁Str
gr
ye
▁사치
▁전담
▁AF
▁봉사
아치
▁서울대
▁애인
▁회관
▁토라
▁타이어
당초
▁발레
▁라미
▁까마귀
▁발급
▁시안
ㄹㅝㅆ
▁아담
▁원주민
▁그란
▁도배
▁이윤
▁not
▁탄핵
▁리바
▁섬광
▁왕실
▁쿄코
▁청춘
ㄷㅡㄴㄷㅏ
▁향후
▁서적
CE
▁굽
▁학사
▁퍼펙트
▁Mag
ough
▁쿠데타
▁왕비
▁152
▁방사능
▁큐어
▁환생
▁박자
▁잎
▁필름
▁솔저
▁GM
▁하사
▁입시
▁착륙
▁정밀
▁베를
▁챔스
타이
▁ㅎㅜ
▁베스
iel
▁루마
▁시시
▁사방
▁행진
▁다카
▁제치
▁컴뱃
▁..!
▁미녀
▁뤼
▁시오
▁인피니티
▁리자
▁이무
▁지장
▁마을버스
▁협동
▁실용
▁밀리언
▁피오
▁우두
▁프롤
▁000000
▁싱가
▁싱가포르
▁선박
▁적시타
▁앓
어트
▁보우
▁루미
▁훔
vel
▁유가
▁ㄷㅓㄴㅈㅣㄴ
▁오렌지
▁여태
▁지루
▁스타워즈
▁금발
▁카리
▁주공
▁편리
▁갱신
▁서열
ull
▁강인
▁카피
▁폴아웃
▁직책
▁스로
▁제발
▁뻘
▁지크
▁홀리
▁화기
▁숙소
▁AV
▁밀어내
▁테리
▁얌
▁옴
▁선원
▁민폐
▁시호
▁AL
▁1978
▁경전
▁침몰
▁승패
▁아수
▁과일
▁브래
▁김치
▁182
▁물러나
▁김광
▁취재
ㄲㅡㅁ
▁쏠
▁스카웃
▁까다롭
▁탐사
▁ㅈㅓㅂ
▁우미
▁반성
▁감추
ult
▁스네
▁조화
▁ㅎㅐㅆㅇㅓ
..
▁전송
프리카
▁쿠사
▁완화
▁도대체
▁툭
▁이진
▁라인하르트
▁팔라
▁교도소
▁178
▁리부
▁홋카이도
▁시간대
▁전지
▁해운
▁한꺼
▁한꺼번에
▁오즈
▁섬멸
▁일일
헤이
서스
▁성명
▁중구
▁#!
▁친척
▁그간
▁욕심
▁화신
able
▁스기
▁반경
▁CL
▁모순
ㅅㅕㅆ
▁욱
▁컴백
▁경상남도
크리
▁군부
▁어벤져
▁구형
▁이계
ject
▁아사히
▁흑역사
▁까지
▁이별
▁흑막
▁ㅈㅜㅂㄴㅣ
▁천국
▁미소녀
▁도르
▁엇
▁가구
▁흥분
소년
▁소나
▁오토바이
마리
▁안무
바리
▁호리
▁사와
▁완공
에른
▁보강
▁동계
▁ㅆㅢ
▁모에
▁등재
▁신관
▁아슬
▁ㅎㅟㅂ
▁최상급
▁타카하시
▁관문
▁스텔스
▁그리핀
▁얼티밋
MAN
▁ㄸㅜㅀ
키스탄
▁발각
▁CE
▁신작
▁용이
▁인문
▁레버
eth
▁대역
▁라비
▁이단
▁엣
▁Co
▁아름답
▁민감
바람
▁직행
▁능가
▁사직
▁ㅇㅓㅆㅇㅓㅆ
▁1945
▁주머니
▁스윙
▁PK
▁헬리
▁토트넘
▁ㅁㅗㄹㅇㅏ
▁매각
oot
▁se
▁유즈
▁단자
▁시카고
▁디스플레이
▁일체
▁쿠리
▁간판
▁코레
▁마야
▁저자
▁에코
▁반역
▁스마일
방울
▁금요일
▁머스
속기
▁들키
▁플라스
▁프레스
▁패트
▁레시피
▁모욕
▁베이비
▁엉덩이
▁cl
▁ㅇㅏㄴㄱㅕ
모습
▁부채
▁사탕
▁소득
기에
▁약혼
수리
▁수라
▁BO
구니
▁라이트닝
▁TOP
▁강대
▁시종
▁매그
▁불참
▁여주인
▁ㄱㅓㄹㄲㅏ
▁늪
▁엘리자베스
▁일러스트레이터
▁오다
▁파운드
▁카제
ㄱㅇㅕ
▁AFC
▁장남
▁ㄱㅏㅈㅊㅝ
▁마미
▁밈
타리
▁약체
▁도쿠
▁ㅁㅓㄱㅇㅕ
▁바이에른
ild
▁정점
ㄷㅎㅕㅆ
▁겟
▁가왕
▁울음
▁태풍
▁BGA
▁레이지
▁맨체스터
▁ㅁㅏㄴㄴㅏㄴㄷㅏ
▁오케
▁카사
▁정답
▁오만
▁달려들
니코
▁ㅈㅏㅂㅎㅣㄴ
▁모음
▁애용
▁명장
inal
▁Is
▁적자
▁카이저
▁편의점
▁휴먼
▁4000
▁도심
▁실적
▁터뜨리
▁수천
▁탈취
무지
파이
▁시범
▁소마
▁Do
▁고맙
스크림
▁이쿠
▁ㅌㅏㅆ
▁드루이드
▁아랫
▁곤충
▁교리
▁아이디
▁Gaming
▁함수
▁자사
▁요격
▁과시
도전
▁웨폰
▁비비
러브
▁가이아
▁무지개
▁박정희
▁평상시
▁ㅋㅐㄴ
▁대피
▁신한
▁입사
▁평론가
▁스파크
▁카일
겨나
▁눈동자
▁김일
▁GSL
▁크로우
▁눈앞
▁스모
어나오
▁320
▁ㄴㅗㅎㅇㅕ
▁CR
▁욕망
DX
▁진동
생활
▁투고
▁ㅋㅕ
▁무능
▁315
▁네크로
ㄹㅏㅂㄴㅣ
▁SA
▁집사
아시아
▁컬렉션
▁유아
▁씻
▁연이
▁유머
▁부가
▁노릇
ings
▁달콤
▁Gl
▁ME
쿠스
▁고가
▁선회
14
▁ㅎㅘ
▁수아
▁공신
▁아마존
▁물려받
▁목욕
▁삽질
▁맷집
▁남학생
▁장신구
▁1973
▁보르
ㄷㅡㄹㅇㅕㅆ
▁오공
▁타리
▁정우
▁찾아내
▁소집
▁캡슐
▁포크
TA
▁중소
▁패왕
▁숙련도
▁무한도전
▁이용자
▁명시
▁리볼
ㄹㅣㅂㄴㅣ
▁ㅌㅡ
▁좌익
▁Gu
▁검토
▁단련
▁성분
▁ㅆㅣㄴ
▁식스
▁신하
▁하도
▁라이드
▁ㅎㅡㄴㄷㅡㄹ
▁당초
▁슬라이드
▁사천
▁급하
▁아르바이트
▁장본
▁ㅂㅜㄴ
▁일명
reak
▁마마
▁자력
대사
ron
▁치우
ㄱㅇㅣㄴ
▁초과
▁중부
▁물리치
▁징계
▁와타나베
▁아쉬움
ㅅㅓㄴㄷㅏ
히토
ㅁㅗㄴ
중간
▁중기
▁저항력
▁미노
▁케리
▁주술사
▁아유
르타
▁위쪽
▁테란
▁모의
▁유동
▁와이번스
▁얄
▁오로치
▁ㅉㅣㄹㄹㅓ
▁짬
▁무늬
▁궁수
▁독백
▁키노
▁민중
▁냉장
▁ㅁㅗㅅㅈㅣ
티니
▁리리
▁시련
▁ㅁㅗㄹ
▁잔류
타운
▁공교
▁금강
▁마수
▁이호
트론
▁상시
▁하이드
▁외야수
▁소꿉
▁캘리
▁표식
▁부산광역시
▁코끼리
▁NM
▁168
▁네이션
▁중국인
17
▁이명박
▁이용객
▁급식
▁인도네시아
▁장본인
▁서바이벌
▁ㅅㅗㄱㅎㅐ
▁컨디션
▁진단
▁어그
▁벨기에
▁국도
▁평택
▁ㄷㅙㅆㅇㅡ
▁앤드
▁마찰
ㄷㅓ
▁so
▁유카리
▁203
▁더럽
▁학위
닐라
▁접하
▁협조
▁가해
▁ㅂㅔㄴ
▁그루
▁218
▁라이징
PA
사와
▁무자
▁배리
▁보로
▁판사
▁like
운수
▁개명
▁성대
▁고인
▁크라운
▁Min
▁이즈미
▁혼혈
태우
▁가령
▁도미
▁급격히
▁ㅁㅜㄷㅎㅕ
ㄴㅟㄴㄷㅏ
▁일리
▁쥬얼
▁대면
▁공헌
▁모나
▁초청
▁강동
▁충청남도
▁방침
▁주술
▁승급
▁ㅁㅏㅈㅊㅜㄴ
▁고발
▁도마
▁ㅇㅘㅆㅇㅡ
▁내외
▁시네마
▁수신
▁몸매
▁내각
▁강아지
▁ㅁㅓㅁㅊㅝ
GA
▁김병
▁어원
▁이어서
▁보직
▁재수
▁단역
▁will
▁헤라
▁오페라
▁소우
▁아무렇
▁조립
저래
▁체코
▁나폴레
▁ㅈㅓㄱㅎㅣㄴ
MAX
▁이래저래
▁국토
▁꿈꾸
▁런처
▁수립
▁레이븐
▁휴대폰
▁리믹스
▁단총
▁자산
▁배율
▁휴게
▁의정부
▁흉악
▁균열
▁하츠네
▁10000
ECT
전사
▁천지
ㅅㅜㄹ
▁오사
▁황혼
▁고우
▁아테나
▁뚜렷
▁윤리
▁나폴레옹
▁모시
▁사슬
▁독보
▁비자
▁iOS
▁주저
▁테크닉
▁볶
▁불러
▁라가
▁수중
ㅅㅣㄹ
▁차장
▁번지
ICE
▁니트
▁버거
▁교역
▁ㅂㅔㄹ
▁one
▁대학생
▁시간표
▁로크
▁충격파
AND
▁ALL
▁보가
▁부동산
ㄷㅓㄴㅈㅣ
▁트론
▁엠블
▁위시
▁베를린
▁정반대
▁악행
▁RO
▁오역
▁원한
▁na
▁Type
▁국방부
▁Red
▁스코틀랜드
보우
oul
▁서방
주의자
▁탄압
▁저격수
▁히사
▁저승
▁리프트
▁탄막
▁인명
▁면제
▁1974
▁말레이
▁Ser
▁플레임
▁리츠
▁지지율
te
▁이오리
저우
성이
▁주황
▁KB
▁Play
▁자루
▁웃기
▁성지
▁정전
▁사이토
▁더미
▁타우
▁튀어나오
▁미남
▁절단
▁캇
ater
ody
▁타키
▁중화민국
▁UC
▁펑크
▁해역
▁NT
▁버블
▁플레이버
STER
16
다드
▁177
▁견해
▁칼라
▁아수라
▁원로
▁작위
▁Car
▁흉내
▁피우
친구
▁걸음
▁비단
▁달인
▁설마
▁필사
▁대국
▁발톱
▁출석
▁멋지
▁공격기
▁Don
▁단서
▁전라남도
▁둥지
▁액체
▁김윤
▁이리저리
▁토비
▁커플링
▁데려가
▁대법
▁계절
ㄲㅣㄴㄷㅏ
▁득표율
▁스나
▁사물
▁지터
▁평판
▁밭
ions
▁랜서
▁무비
▁깃털
▁이듬
▁마저
▁성사
▁사우스
▁보편
▁ㄲㅡㄴ
▁다케
▁샘플
▁선로
▁재배
ould
▁난리
▁벚
▁한양
▁련
▁우두머리
▁딥
▁입원
▁팰
▁해변
텍스
▁희생자
▁요우
▁반장
▁138
▁마주치
▁손잡이
▁리볼버
▁의의
▁격렬
▁전법
▁차일드
▁극심
▁마르코
과이
▁Es
▁슬라임
▁1975
▁강습
▁가해자
▁감성
▁진형
▁완벽히
▁주입
▁맑
▁왕족
▁사야카
▁스콜
▁김성근
천군
레븐
▁유지비
▁홈경기
▁연막
▁ㄴㅏㄹㄹㅕㅆ
▁순간이동
▁반도
▁크롬
▁태생
▁ㅇㅜㅁㅈㅣㄱㅇㅕ
alk
▁짝사랑
▁간파
▁너클
▁지면
▁과언
▁방울
▁부제
▁산탄총
▁us
스카
ㅅㅐ
▁접수
▁상어
▁보루
▁ㄱㅓㄴㄷㅏ
▁ㄷㅜㄴㄷㅏ
▁ㅅㅓㄲㅇㅣㄴ
▁헤드샷
▁입자
▁아이즈
▁맹독
▁탈환
▁레슨
▁서명
ven
▁메테
▁워드
▁졸업식
보기
▁자켓
▁중도
▁필립
▁안젤
▁Time
▁러너
▁ㅁㅏㅌㄱㅕ
▁계략
▁어드밴
▁상의
▁중재
▁리처드
▁병과
▁'''
▁마스코트
▁금고
▁동성애
▁월간
▁공명
▁원화
▁석유
▁아리스
ㄷㅣㄹ
▁162
▁레인보우
▁테니스
af
▁ㄹㅏㄱ
라이언스
▁코디
▁측근
드로
▁주교
▁바이크
야스
▁삿
▁팔리
▁타스
▁완성도
▁만지
▁126
소총
▁얼라이언스
▁이사장
ㅊㅏㄴ
▁팍
▁EU
▁찬양
▁프로스트
▁Sum
▁분할
▁낮추
▁데미
▁테일즈
쳐지
공사
▁WH
▁우지
스티스
▁고래
▁일각
▁콘스탄
▁충고
▁아울
▁ㄷㅣ
▁교대
▁백만
맥스
ics
▁이념
▁이듬해
▁떨어뜨리
▁스바
▁두려움
▁???
▁스매시
▁부딪
▁키즈
▁ㅇㅣㄴㄷㅡㅅ
▁가히
▁히카루
▁영화제
▁왓
▁김선
▁자키
▁Bo
▁빙의
▁박명
▁조수
▁찰스
▁이영호
▁카오루
YP
느리
▁견디
▁다치
▁구로
▁냉장고
▁신생
▁놀리
▁득표수
▁수감
ACK
▁연소
▁슬러그
▁다가가
▁부시
▁쟁이
▁클리셰
▁초등학생
▁기관포
▁BT
▁본질
▁IIDX
▁엉뚱
▁CB
▁have
▁노부나가
▁차림
▁평등
▁회계
▁ㅉㅗㅊㄱㅕ
▁주차장
▁스칼
▁펙
▁동상
▁고종
▁BA
시스코
ㄴㅡ
랄드
▁말기
▁적이
▁에드워드
▁카토
▁연세대
▁뺨
▁나락
▁대니
▁민병
▁ㄹㅗㄹ
▁보고서
▁텔레포트
▁로비
▁꼴찌
재기
▁비키
▁폭로
▁응급
▁oh
▁313
▁지역구
▁애드
▁사회주의
▁맞먹
▁병행
▁직위
▁후면
tern
▁왕가
미터
▁팜
▁심정
르드
▁공짜
▁과격
▁주유
▁휩
▁~"
▁가나
▁고립
▁난투
페이스
▁Kore
▁ㄷㅝ
전설
▁ㅁㅜㄹㅇㅓ
▁EV
▁LTE
ict
▁누스
▁신상
▁종로
▁카인
▁김두
▁제너
▁결과물
▁조르
▁브레스
▁젝
뻐하
▁팩션
▁기뻐하
ins
▁콰
ㅌㅐ
ㅅㅏㄹ
▁끊기
▁한정판
▁핑계
▁투사
ange
▁1976
ator
▁재질
▁무식
▁손목
▁조항
▁카렌
▁레귤
시티
▁know
▁제자리
셉트
▁유비트
▁132
보라
▁기울
▁out
▁정의당
빨리
▁솔직히
▁아인
무르
▁팬티
▁피드
▁Sun
▁약칭
▁포도
▁소꿉친구
고사
▁볼드
▁신조
▁이세
▁경사
▁극악
▁set
▁김구
▁분배
▁야망
▁멘붕
▁트랜스포
▁날아다니
ㅈㅣㄹㄹㅓ
▁pr
▁표기법
▁DI
▁군데
은이
▁손꼽
▁제주도
▁페이크
▁숙청
▁두루
▁리셋
▁로제
▁즐겁
▁테르
▁캔디
퍼니
▁바나나
▁후반전
▁ㅅㅡㄹㅍㅡㄴ
ㅎㅣㅁ
▁병종
▁발전소
▁상부
▁미트
▁거꾸
▁자포
▁채찍
▁feat
▁로그인
▁카테고리
▁결의
갈리
▁연간
▁럭키
▁보복
▁TP
▁1972
▁하지메
▁세츠
▁그랑프리
▁슬슬
▁일산
▁츤데레
▁근로
▁수확
▁MO
▁난민
▁내면
▁158
▁여주인공
▁페미니즘
▁ㄱㅓㄹㄹㅣㄹ
▁IV
▁몰아넣
▁빈약
▁해고
▁테이프
▁수영복
▁내뱉
▁실리
▁선봉
19
▁개판
▁230
▁해전
▁훔치
▁서치
▁재벌
▁ㅇㅐ
레이크
▁폐선
무이
▁메디
▁구독자
▁산소
▁종전
▁교훈
▁탁월
▁제의
▁바이킹
고속도로
▁프롤로그
▁미도리
▁니코니코
ㅅㄱㅏㄹ
▁HS
▁강탈
▁지미
▁도사
▁자카
▁1977
▁ㄴㅓㅁㄱㅕㅆ
▁High
▁정준
▁제조사
▁레귤러
▁르노
▁인트
▁콧
▁어제
▁오딘
▁일조
처럼
▁갸
▁무궁
▁구호
▁Light
▁프로그래
▁메세지
▁쿠바
ME
▁TE
▁최하
사스
▁응답
▁로렌
▁중급
▁쥰
▁IP
▁자작
▁제인
▁172
▁가설
▁마가
▁리뉴
▁초점
▁파고
▁GD
▁앨런
▁환호
▁치바
▁야마모토
▁수여
▁접전
▁충남
▁스케줄
▁퉁
▁ㅂㅏㄹ
che
▁ㄴㅏㅈㅊ
▁관료
▁진로
▁이니
▁서리
▁키드
▁거꾸로
▁사각
▁껍질
그마
천사
▁힌트
▁내정
▁대명
민주당
▁스바루
▁프랭크
▁카이사
활약
▁개막전
▁컴퍼니
ㄲㅓ
▁다투
▁지배자
▁133
▁LOVE
▁순천
▁태미
▁임진
▁무신
▁덴마크
▁주식회사
▁필두
▁소비자
▁얼터
▁ㅇㅗㄹㅂㅏ
▁재림
상가
▁알아내
▁정조
▁이점
▁테레
▁인텔
▁대등
▁방벽
돌프
▁빼앗기
▁뚝
▁냉기
▁실바
▁박쥐
▁Your
▁조던
▁캐슬
▁NEW
▁유라
▁Tw
덕션
▁도스
키스
▁깡패
▁148
▁신념
▁ㅆㅗㄹ
▁ㅍㅕㄴㅎㅏㄴ
▁아폴
▁때려잡
▁강서
▁구청
▁랜스
▁파괴력
▁플리
▁릴리스
▁트러
▁진짜로
▁유능
▁빠져나가
▁댐
▁라시
▁내보내
▁혹평
지사
▁la
▁179
▁%.
▁섭취
▁Mr
▁박종
▁제작비
ㄸㅏ
▁줄기
▁OF
▁공국
▁매지
▁바인
ica
▁ㅁㅣㄹㅇㅓ
▁찰나
▁차분
▁여장
▁존슨
▁앵커
▁저스티스
▁펭귄
▁감금
산역
▁애쉬
▁베어
▁피난
▁무색
▁수성
▁최정
▁양심
▁노르웨이
▁헐크
▁스톡
▁황태
▁다저스
▁보트
ㄱㅅㅏㄹ
▁팀장
▁기술력
▁ㅈㅜㄱㅇㅣㄴㄷㅏ
제스
▁지붕
▁이만
IK
▁망상
▁트랜스포머
▁Gen
▁메구미
▁라우
▁고질
▁지성
▁연달
▁소노
세서리
그라
▁호응
▁레슬러
▁순찰
▁객관
▁후쿠오카
▁교시
▁급속
▁GTA
▁렀
▁Mi
▁리터
▁ㅎㅡㅌㅇㅓ
▁득실
▁라이센스
▁배후
▁신학
▁모스크바
▁이순신
▁립스
▁머물
▁조력
▁로맨스
▁샤오
▁파랑
▁포니
ex
▁미끼
▁틀리
▁윈터
▁능숙
▁스팅
▁156
▁과감
▁Par
▁사내
리칸
▁장갑차
▁찌질
▁Em
지않
▁망명
▁모자라
교통
▁오른팔
▁154
FL
메라
▁탐구
▁복도
▁심히
▁사나이
▁명대사
▁철갑탄
▁제대
▁표창
▁어벤져스
▁히나타
▁HARD
▁진흥
▁안동
▁세례
▁노래방
▁풍경
▁시조
▁교육청
▁드로
▁출제
▁격퇴
▁여수
▁176
▁음향
▁ㄷㅗㅇ
ㅁㅓㄴ
▁미숙
HT
▁솟
▁두뇌
▁초코
▁호무
▁OCG
▁222
▁일컫
▁미모
▁슈가
▁성벽
▁ㅎㅗ
▁ar
사고
▁공립
▁레슬링
▁치마
▁159
▁am
▁재즈
▁ㅂㅏㄱㅎㅕ
▁MK
▁파우
▁사일
▁꼼수
▁춤추
▁밧
▁ㅅㅣㄴㄷㅏ
▁염두
▁뒤쪽
날두
▁사지
▁129
▁케리건
▁AE
▁u
▁호날두
▁1971
▁173
▁생태
▁종말
▁사소
▁장시
▁바닷
▁남양
▁냉동
▁맹활약
▁른
▁ㅈㅓㅁ
▁반론
▁FPS
▁미호
▁벨라
CH
▁핀란드
▁블랙홀
▁기행
▁제지
▁중후
▁노골
▁비참
▁명탐정
클린
▁발탁
▁현직
▁게르
▁ㄷㅡㄹㄹㅣㄴㄷㅏ
▁오리온
▁아비
퀘어
▁발발
▁호구
박이
▁응시
▁착지
▁전반기
티지
▁계곡
▁에그
▁153
▁미세
▁ㄴㅏㄹㄹㅣㄴ
UT
▁Kn
▁사르
▁거스
▁PL
ㅂㅎㅣㄴ
▁가마
▁통틀어
▁떠돌
바스
▁캘리포
▁프로덕션
▁성폭
▁폐허
▁레오나
▁전학
▁ㅎㅑㅇㅎㅏㄴㄷㅏ
스럽
▁전임
▁세키
▁텍사스
어붙
▁섹시
▁ll
pr
▁대목
▁죄수
멘터리
▁사천왕
▁죠죠
▁137
▁나카무라
▁코프
▁Of
▁천문
▁에메랄드
▁고음
▁배신자
▁분쇄
▁리우스
▁안드레
▁진술
▁세일러
eep
▁화석
▁샹
▁전도
▁오락실
▁나란히
▁시뮬레이션
▁캘리포니아
▁사가
▁통보
▁GHz
▁질풍
▁ㅈㅏㅂㅎㅕㅆ
▁ㅁㅏㅈㅊㅜㄹ
▁수하
▁혼인
▁ㅇㅏㄹㄹㅕㅆ
슬링
▁토막
▁ㄲㅏㄹㄹㅕ
▁문화재
▁유타
▁파이프
▁엄폐
▁러닝
▁책상
▁Ro
▁남한
▁래스터
▁에필
▁에필로그
▁헷
les
▁ㅇㅓㄺ
타니
▁우산
▁로스터
▁테러리
▁혼다
▁인플
▁목포
▁테오
▁책략
▁말소
▁280
▁무단
▁꽁
▁선포
▁총선거
▁지각
▁유니콘
▁발렌타인
▁대교
▁영등
▁오쿠
▁푸르
구나
▁드리블
▁모기
▁174
▁was
▁호스
▁요코하마
▁절정
▁225
▁Per
▁BM
▁로열
▁믿음
▁이광
▁대안
▁신주
▁서울시
▁교정
▁빅토리아
▁다큐멘터리
▁잔해
▁GPU
▁1969
▁로테이션
▁이행
▁노하
▁ㅇㅏㅍㅅㅓㄴ
▁예방
▁139
▁슬램
▁엣지
▁스탈린
▁월요일
▁카즈야
ㅊㅝ
▁Heart
▁청룡
ㄹㅡㅁㅇㅏ
▁감싸
▁얹
▁ㅁㅝㄴㅈㅣ
▁163
▁델타
▁비기
▁143
▁멋있
▁134
▁불문
플러스
▁167
▁악곡
▁얼어붙
하여
▁Fe
▁마신
▁미식
▁신세계
▁의아
▁레바
▁토가
볼루션
▁하의
▁ㅇㅝㄴㅎㅐㅆ
▁중공
▁~~
더기
▁먼지
▁ㅁㅏㄹㄹㅕ
▁아랑
▁CO
▁TO
▁오바
▁Good
▁ㅇㅝㄴㅎㅏㄴㄷㅏ
▁분포
▁심연
▁해상도
▁버터
▁스텔라
▁스페인어
▁상장
▁함성
▁숭배
▁단의
ㄹㅡㄹㄲㅏ
▁주파
총장
▁142
▁처녀
}}
▁골치
▁스파이크
▁ㅇㅕㄹㄹㅣㄴㄷㅏ
컨드
▁전광
▁beat
▁오타쿠
▁세컨드
▁열기
▁2500
▁루루
▁청사
▁왕관
▁로지
지오
▁기쁨
▁두목
▁총사
▁최대치
▁김도
▁이준
ㅋㅓ
▁나사
▁어설
▁블라디
▁골목
ㄷㅗㄹㄹㅕ
반신
▁퍼시
▁CN
▁ㄴㅘㅆㄷㅏ
agon
▁뛰어들
▁땀
▁깽
EL
ert
▁면접
▁필라
▁배리어
▁히카리
▁야당
▁164
▁항공사
▁ㅎㅓㄴ
▁십자군
▁쓸데없이
▁퓨처
▁What
▁보디
▁ㄱㅓㄴㄷㅡ
▁ㅇㅕㅆㅇㅡㅁ
▁스윕
아슬
▁아슬아슬
▁국기
▁yout
▁관광객
▁ㅡ
▁우투
▁추모
▁인사이드
에몽
▁투성이
▁드레드
▁ㅆㅏㅎㅇㅕ
▁태권
▁네스
▁해태
▁인구수
▁화약
▁ONE
▁미유키
공화
▁김천
▁직통
▁유나
▁심야
▁스트로
▁트레이닝
▁뉴질
▁뉴질랜드
▁하후
▁연기력
▁무안
▁하우
▁때로
▁136
▁Dark
▁꿇
▁부처
▁pro
ㄸㅓㄹㅇㅓ
▁스토커
▁벚꽃
부인
▁청장
▁야마다
▁용의자
▁전수
▁킹덤
▁왕후
▁홍성
▁선수단
▁패닉
▁리부트
▁기소
▁음색
백과
▁콘셉트
▁선인
▁기이
▁바닐라
▁ㅎㅏㄹㅅㅜ
▁누이
▁원망
▁ㄷㅏㅁㄱㅕ
▁실로
▁극우
▁제단
▁라임
▁마의
▁0900
▁회로
▁반란군
▁관계없이
▁비로
프란
▁오프라인
▁로브
▁공고
▁완구
어버리
▁동아시아
▁페르시아
▁개그맨
ㄴㅕㅇ
▁김연
▁경찰청
▁야전
리드
▁일환
▁time
▁KC
▁달라
▁두근
▁적립
▁이인
▁ㄴㅡㄹ
▁ㄷㅓㄴㅈㅕㅆ
ideo
▁뽑아내
▁157
▁조준경
좀무
▁흠좀무
▁구제
▁불쾌
▁330
▁안철수
▁직격
▁뱉
▁모던
▁사범
▁패스트
▁화소
립트
▁동사
▁ㅃㅗㅂㅇㅏ
무게
▁유고
▁몸무게
▁텀
레이트
▁ㄲㅏㄹ
▁메이트
▁랙
▁징크스
▁템포
▁서장
무실
▁따라잡
▁Sl
▁아이스크림
▁Sm
▁쓰러트리
▁궁전
▁출고
▁꾸미
▁방안
▁중심지
▁세미
▁유해
ㅇㄱㅣㄴ
슬리
▁미라이
▁혼동
▁숙주
▁훈훈
▁뮤지션
▁제이슨
티넘
▁카니
▁플래티넘
ors
▁유선
▁한층
▁ㅅㅣㄹㄹㅕ
▁그제
▁라바
other
▁번갈
디스
▁중년
▁1963
▁자부
▁지극
▁모양새
air
▁270
▁순정
▁연의
▁Blue
▁알렉산더
▁악령
▁연금술사
▁에일리
▁어린아이
▁우천
▁ㄷㅗㄷ
▁내세우
▁Baby
▁경지
▁양대
▁하카
▁Ac
land
▁ㄷㅓㅁ
▁제우스
▁창립
▁ab
▁체격
▁시흥
▁코즈
▁브이
▁설탕
▁호박
▁대중교통
▁갈리아
▁방호
▁AG
▁문신
anna
▁휴스턴
▁레프
▁주한
▁패드
▁사투리
iew
▁안토니
▁워너
▁외관
▁술집
▁집필
▁출연진
▁근력
▁유코
▁핸드폰
▁내뿜
▁전라북도
▁1968
▁클라우드
▁ㄱㅖ
▁타다
▁오키나
▁플라스틱
▁박상
▁성숙
▁스케이
▁ㅂㅜㄹㄹㅕ
▁앞뒤
▁대진
▁열세
애나
▁저조
▁합치
▁깨알
풀이
▁환사
▁샤를
ush
▁브루스
▁신수
▁본의
려나
▁침해
▁투신
▁하이브리
▁우상
▁미티
▁히로시마
▁하이브리드
▁고자
▁참으로
▁나뭇
▁정서
▁좌파
▁장례식
▁미니언
▁제프
▁눈빛
▁하시
▁브레인
▁브론즈
▁Li
▁후루
▁농민
▁선교
▁149
▁외면
▁꿰뚫
▁계시
▁벌금
▁테러리스트
▁해독
▁ㅂㅜㄹㄹㅣㄹ
▁동호
▁테루
▁샤워
▁제사
▁타당
▁죄송
▁ㅅㅏㅇㅎㅏㄴ
▁집합
▁줄리
▁멜론
▁도시락
▁센트럴
▁Fire
▁허브
▁방언
▁세스
▁146
▁ㄱㅕㅂ
▁공영
토리얼
▁후쿠시마
▁전열
▁청나라
▁오비
▁브레이브
카미
▁경제학
▁로라
▁튜토리얼
▁무수
▁마켓
▁사탄
▁수시로
▁공모
▁희대
▁총독
▁260
▁기피
OID
▁적성
▁오리진
▁종착
▁부사관
▁장풍
▁이아
▁체스
▁El
▁각국
na
▁크롤
▁트러블
▁모어
▁김대중
▁취지
▁프렌즈
▁Dis
▁심상
▁전반전
▁BEMAN
▁ㄷㅏㄹㄹㅏㅆ
▁마초
▁프로토타입
▁담임
▁푹
▁자칫
▁풍기
▁OK
▁조교
▁일레븐
▁ㅍㅜㄹㄹㅣㄴ
▁강세
▁암컷
▁손꼽히
▁기함
▁남미
▁환수
▁황실
▁초교
르도
▁지문
▁격전
▁하비
▁경과
▁DJMAX
▁상쇄
▁리액
▁거품
▁넉넉
▁모함
▁베일
▁아르카
▁BEMANI
▁방공
▁ㅆㅗㄴ
▁미스터리
▁ㅊㅜㄹ
▁낡
▁마테
▁프로모
▁헤일
▁연회
▁라프
▁소사
▁sm
▁더구나
▁Champ
▁ㅈㅜㄹㄱㅔ
▁원자력
▁유니온
▁초상화
ㅇㅟㄴ
▁확고
▁인체
▁가혹
ady
▁럴
▁섹스
▁심화
▁일품
▁타카시
▁줌
▁성비
▁장동
두사
▁별칭
▁다이노스
▁ㅁㅐㄴ
▁개미
▁주의자
전트
글라스
▁웨인
▁STR
▁페이커
▁속력
▁문법
▁뒤지
▁루키
▁ㅅㅣㅁㅎㅐㅆ
▁도검
▁fl
▁적재
▁월등
▁방화
▁가라앉
▁하여금
▁고추
▁수량
▁켄지
▁랩터
▁미즈키
▁격기
▁상공
▁오의
단지
▁실력자
▁핸들
▁파격
레드
ution
▁빈틈
▁무선
▁Pre
▁하반기
▁데스티니
▁찰리
▁kr
▁브랜
▁일삼
▁스트리밍
더링
▁고성
▁명명
▁석상
▁연말
▁클러
▁지난
▁합법
▁레이너
▁Ev
▁병장
▁북구
▁중학생
베트
▁속공
▁우편
▁뒷면
레슬링
▁운반
▁프랜차
▁주가
▁ㅂㅏㄱㅅㅏㄹ
▁맥락
▁205
▁공손
티노
▁cc
▁므
나리
토랑
▁ㄷㅝㅆ
▁책임지
▁포워드
▁야만
▁레스토랑
▁슈터
▁생선
▁통행
구역
ㅌㅓㄴ
▁프로레슬링
ium
▁파손
▁유승
▁평창
▁ㄱㅏㅆㅇㅡ
▁신병
ㅁㅏㅇㅊㅕ
▁선곡
▁성기
▁니나
▁퇴역
▁DB
▁프랜차이즈
▁배우자
앙스
▁단식
▁맞대
▁피카츄
▁Summer
▁말년
▁자질
▁오세
▁유유
저드
▁소령
▁550
▁수령
▁쏟아지
ㄱㅎㅕㅆ
▁1967
▁본가
▁타나카
▁빈번
▁말아먹
▁수컷
▁Grand
▁앞면
▁추출
▁탯이
▁편견
▁솜씨
▁쐐
▁아메리칸
▁RP
▁저희
▁앤디
메어
▁하라
▁가브리
▁돋보이
▁클립
▁발차기
▁프리즘
▁독립운동
▁석사
▁박명수
▁놔
▁박용
▁뚜껑
사벽
▁넘사벽
▁뉘앙스
▁Rock
석민
▁하와
▁호출
▁정재
▁불화
▁ㅆㅓㄹ
▁디비전
▁ㅁㅜㅇㅊㅕ
▁격리
▁주고
▁블래
▁나레이션
▁당국
▁운석
▁부친
▁강점기
▁정체불명
▁리바운드
치아
▁져
▁다면
▁질환
▁전염
▁원작자
▁ㄴㅜㄴㅊㅣ
와라
▁애국
▁미로
▁211
▁147
▁부관
▁나이트메어
엘라
▁나열
▁게임즈
ㄷㅡㄹㅇㅣㄹ
▁노블
▁광전사
▁신임
▁정형
▁경질
▁대승
▁츠바사
듈럼
▁총평
미르
▁우체
더슨
▁원흉
▁ㄸㅔ
▁오시
▁Over
▁플레어
▁하드웨어
▁내셔널
▁끓
▁자각
▁일례
▁증인
▁우파
▁ㅈㅐ
▁무죄
스틴
gain
▁미들
퍼드
ㅂㅎㅕㅆ
▁back
▁간호사
▁토마토
▁SCP
▁넥서스
모어
▁동년
▁교통사고
▁복면
▁미팅
ㄹㅓㅆ
▁은메달
▁특이점
▁브라우
▁페인
▁재빨리
▁우가
어들이
▁콕
▁펜듈럼
▁GG
▁네코
▁Dance
▁배속
▁퓨리
▁day
현우
▁퓨어
▁수수료
평가
▁드릴
▁유신
▁몹시
▁무명
▁말레이시아
▁코지
ction
▁흩
▁치루
▁LED
▁가의
▁원종
▁입국
▁아이폰
두리
▁마지
▁범행
▁호노
▁체형
▁포식
ㅁㅏㄹㄹㅕ
▁뭔
▁게시물
▁메모
▁이방
▁ㄲㅡㅌㄴㅏㅆ
▁실루
▁별자리
▁ㄲㅗㅂㅎㅣㄴㄷㅏ
▁DR
▁유무
▁VOC
▁여관
▁개개
▁탄탄
고래
▁감전
▁줄어드
▁This
▁무고
▁영등포
▁ㄱㅜㄹㄹㅕ
▁만루
▁버릇
▁ㅇㅏㅍㅅㅔ
▁인어
▁now
▁힐링
▁대외
▁공습
▁ㅅㅏㅁ
▁옌
▁재활
통수
ㅉㅐㅆ
노스케
▁십자가
▁전례
▁깨어나
▁방과
ne
▁리키
▁파문
▁SL
▁동등
irst
▁픽셀
▁군림
▁텅
▁아래쪽
▁푼
▁염색
▁But
▁Gold
ㅇㅜㄴㄷㅔ
▁광속
▁ㅁㅜㄲㅇㅕ
▁관절
▁사슴
▁전두
▁함재기
▁Wii
▁3164
▁ㅂㅣㅅ
▁경순
▁살인마
▁그리드
▁내구력
▁한강
▁홀딩
츠카
▁멀리서
▁미스트
▁폴리스
▁에바
▁유마
▁속박
▁통수
▁헤어지
▁보구
▁이창
▁알렉산드
트랙
▁하행
▁속편
▁발라드
▁Ste
▁ㅅㅗㄴ
▁강팀
▁동북
▁상행
▁무제한
▁오디오
ount
▁사교
▁HG
▁ㅅㅣㄴㅈㅣ
▁떄
파리
▁배송
▁온몸
▁ㅂㅗㄹㄲㅏ
▁ㄱㅜㄹㄹㅓ
▁엎
▁박찬
▁교내
▁박재
▁캐스트
▁권능
▁노트북
▁증가량
▁제보
▁호투
결승
▁박영
▁카우
▁ㅅㅓㄹ
▁시초
▁진도
▁대패
▁루팡
▁점사
르바
▁격침
▁공천
▁미수
▁여배우
▁해적단
▁목재
▁직속
▁자격증
▁펴
▁DX
▁륙
▁동메달
▁FL
▁라파
▁Just
▁기괴
자동
기사
▁HK
▁스퀘어
let
▁대군
▁길거리
ring
▁발현
▁무슬
▁심문
▁감기
▁교양
▁빌보드
▁별점
▁성직자
▁타치바나
▁가창
▁노비
▁왕좌
▁보행
▁통증
▁채취
▁성수
▁격투기
▁데려오
콥터
▁박탈
▁요리사
▁창세
▁우물
▁204
eng
▁클레이
ㄷㅗㄹㅇㅏ
▁1966
▁단말
▁안드로
▁호그
▁MSL
▁쇼트
DS
▁국민당
▁추궁
▁기획사
▁스네이크
▁첫날
▁대공포
▁닥치
▁리엘
▁pt
▁어느새
▁셋째
▁지온
▁ㄱㅏㅁㅊ
▁멸종
▁방송인
▁166
느님
▁가성
▁남발
▁회복력
▁샌프란
▁샌프란시스코
레일
▁동문
▁TW
무네
▁무사시
줌마
▁혼합
▁ㅋㅣㄴ
▁프로모션
▁번식
▁맴
플렉스
▁독수리
▁지지자
▁닉스
▁스킵
▁줄줄
▁레이첼
▁미사키
▁동로
▁잖
▁오키나와
▁news
▁리턴
▁여친
▁달라붙
▁Korea
▁VOCAL
▁구타
ㅇㅎㅏㅁ
▁크리스토
▁대쉬
▁손톱
▁책정
산동
▁하느님
▁사우루스
▁아줌마
▁내밀
▁수강
▁무슬림
▁CA
▁기합
▁일일이
▁비즈
▁Can
▁걸어가
▁머릿
▁코바야시
▁불평
▁끌려가
▁명곡
▁카구라
▁경감
▁증발
▁DNA
▁스크립트
▁진구
현진
▁뒤통수
저것
▁이것저것
▁다이스케
▁사모
▁사망자
▁속이
▁회견
▁쫄
ina
▁직무
▁인천광역시
▁삼촌
▁뷔
파크
▁농락
▁물가
▁도라에몽
▁슬로우
▁냅
▁괴력
▁공존
▁제스
▁롤링
스트림
ㅁㅏㅇㄱ
▁친목
ERO
▁누명
▁커트
▁사료
▁MHz
▁카이토
▁회오리
▁셸
▁단과
▁악어
▁연고지
▁주심
▁인쇄
▁Sec
UR
▁호프
▁후대
▁이례
소수
▁650
▁회귀
▁아카리
▁포효
▁현상금
▁복용
▁정정
▁기술자
▁계란
▁소서
▁비타
▁실습
▁시가
자재
▁아까
조합
▁미판
▁신정
▁ㅁㅜㄹㄹㅣ
▁트렌
▁레이트
▁니카
▁동조
▁KTX
▁Music
▁키트
▁명나라
▁ㅂㅓㅅㄱㅕ
메스
▁네놈
▁At
▁카르마
▁타시
▁로컬
▁우메
ally
▁EBS
▁리플렉
OO
▁FB
▁필터
▁헬리콥터
▁......
▁박치기
▁ㄲㅣㄴ
▁넘어지
▁포대
▁ㅂㅓㄹㅇㅕ
▁장원
▁프린스
보그
▁시부
▁토이
▁고조
▁아깝
▁분홍색
▁분장
▁광대
▁김원
▁회심
▁디렉터
▁Su
▁다스리
티콘
▁김형
▁ㅆㅗㄴㄷㅏ
▁로저
▁박경
프라
▁천마
▁한숨
▁ㅎㅓㅁ
▁진수
▁동족
▁총열
▁파수
▁Ep
▁두르
▁문어
▁브릿
네이터
▁퐁
▁홍진호
▁Live
▁스냅
▁실루엣
▁듀크
▁유영
▁이속
소문
▁GN
ART
▁하리
▁미하
▁쿠시
▁경보
▁되돌리
▁ㅇㅗㄻㄱㅕㅆ
니카
▁유난
▁일어
▁태극
▁셉
▁부류
▁벌리
▁비로소
▁루마니아
▁ㅌㅐㄱ
▁Comm
▁ㅇㅜㄴ
▁박해
ㅊㅐㄴ
▁텍스
▁캐리어
▁급히
▁ㅂㅓㄹㅇㅣㄴㄷㅏ
▁레즈
▁정크
▁ㅇㅓㅍ
▁괴상
▁BF
▁만행
▁ㅇㅓㄹ
▁딸기
▁1962
▁가급
▁난감
▁춘천
▁로코
▁선우
▁유정
▁경유지
▁놔두
▁MX
▁피스트
▁달빛
▁그립
▁아타
▁케이지
▁열람
▁고토
▁카가미
▁뽕
▁공자
▁스완
▁요시다
▁`
▁항아리
바다
널드
▁살상
젤레스
▁장학
▁망령
▁미성년
▁병살타
ㅋㅕㅆㅇㅡ
▁바티
▁츠나
▁가미
son
▁프랑크
▁위키백과
▁무진
▁어퍼
ㅅㅏ
▁한발
▁금색
▁달려가
▁ㅁㅏㅇㅎㅏㄴ
▁습관
▁판권
▁get
▁고릴라
장난
▁재직
▁퍼센트
▁키무라
▁서태
▁목동
▁돌격소총
▁반군
use
▁비꼬
ㅍㅕ
▁똑똑
▁관직
▁가로막
▁발광
▁ㅍㅐㄴ
▁홈즈
▁감행
▁대마
▁리티
상가상
▁1800
▁바주
▁설상가상
▁암울
▁김명
▁학점
▁주거
▁코다
▁ㅈㅣㄴㅈㅓ
▁레기
▁입양
▁소절
▁요시노
▁UF
▁ㄷㅏㄹㅇㅏ
▁콜롬
▁야외
▁영진
▁기법
▁후문
ㅇㄱㅏ
▁짚
▁사로
▁투니
▁무겁
▁ㅈㅣㄴㅈㅓㅇㅎㅏㄴ
▁GR
▁악의
▁천공
▁ㅁㅏㄴㄷㅡㄴㄷㅏ
▁조직원
▁169
▁그리하여
▁개연
itch
▁Power
▁섀도
▁진리
▁ㅈㅏㄹㄹㅕ
말리
▁카에
▁코요
려워하
▁ㅁㅏㅇㅎㅐ
▁ㅎㅏㅂㅊㅣㄴ
▁강수
▁저서
▁사이보그
ㄴㅘ
▁대인배
▁Leg
▁gr
▁셰프
▁클라이
▁스퍼
▁뇌물
▁용감
▁Res
▁천둥
▁Af
▁레이나
▁고든
▁진성
▁++
tr
▁오케스트라
▁구급
▁단정
관총
▁주황색
attle
inn
▁도청
▁Hard
▁타니
▁볼텍스
▁에도
▁man
▁연발
▁북아
▁파벌
▁바니
▁경쟁자
▁디펜스
▁차용
▁MR
▁로저스
▁RC
▁ARM
▁서민
▁세탁
▁안보
▁양보
▁산책
▁실업
문트
▁UI
75
▁예지
▁저상
▁사스케
▁송출
▁추적자
▁커비
▁그랜
▁히토미
니클
▁Ma
▁ADV
▁전산
못미
▁자판
▁지못미
▁결사
쌔신
▁1940
▁어쌔신
▁Sing
▁바그
▁쿠루
▁잠재력
▁Life
▁치사
ㅈㅝㅆ
▁베이더
▁엘리스
▁ㅁㅛ
일라
▁전속
▁응원가
마당
▁법안
▁Master
▁but
▁ㅍㅕㄴㅎㅐ
▁제원
징어
▁코이
▁Che
▁블래스트
▁영남
▁단속
▁접점
XT
▁마요
▁조력자
ern
▁배상
▁직결
▁경선
▁미코토
▁행방불명
아라
▁보잉
▁진행자
▁VOCALOID
▁번트
TC
▁똘
▁교관
▁독서
▁카즈마
▁호로
ㅇㅗㄹㄹㅏㅆ
ars
▁청원
▁Pv
▁장제스
▁런닝
큘라
▁수복
▁천주교
▁처절
▁나들
▁저렇게
▁아이유
▁어미
▁공과
▁공약
▁리조
▁수용소
▁워낙에
▁ㄱㅔㄴㅈㅣ
▁남작
▁나들목
놀이
▁Fem
▁냉각
▁출중
▁설화
▁준결승
asy
ㄱㅇㅣㅁ
▁모닝
▁월급
▁정확도
▁여정
▁준공
▁Rem
▁출루율
▁쐐기
▁얕
장이
▁코파
▁급기
rain
▁ㄴㅗㄹㄹㅏㄴ
▁매너
▁튜닝
▁뷰티
▁카밀
▁피치
▁은혜
▁ㅇㅣㅂㅎㅣㄹ
▁co
▁ㅇㅣㄹㅅㅜ
▁탈당
니스트
▁한탄
토르
▁크리스티
▁마운드
▁열악
▁충청북도
▁im
▁혹사
▁Out
▁Lo
▁카를로스
IE
▁무효화
▁제다이
▁ㅋㅋ
UE
규모
▁기복
▁페이트
▁휴게소
총리
▁편안
▁켈리
▁동요
▁키사
▁슬리
▁채집
▁부드
▁구두
to
▁출근
▁예언자
▁카오리
▁러시아어
▁증기
▁""
▁시가지
24
▁더비
ana
▁근성
▁재사
▁LCK
▁동체
▁한도
▁금호
▁댄서
▁ㅇㅞ
▁가호
▁트리스
▁네이트
▁교향
▁ㄱㅓㄹㅊㅣㄴ
▁훅
▁광탈
▁매출액
▁동탁
▁1944
▁사출
▁득점자
▁박준
▁리전
▁픽업
▁데우스
▁간선
▁포트리스
cl
▁당첨
▁선방
▁행하
▁151
▁실명
▁OPS
테이
▁여권
▁매칭
▁1930
▁가두
▁문고
▁체리
▁원활
▁지주
▁주고받
▁실정
▁자회사
▁외우
▁호기심
▁농협
▁사당
ield
▁고산
▁무빙
▁제라
▁End
▁전두환
▁궤적
▁이변
▁전세
▁금화
▁소매
▁카노
▁토로
▁신칸
▁999
년기
▁256
▁ㄴㅗㄹㄹㅏㅆ
▁포맷
▁카디
▁반대편
▁OB
▁부흥
▁불신
▁비장
▁형편없
▁무림
▁베인
▁창병
▁내수
▁야심
▁노기
▁상용
▁이노우
▁차후
ㄷㅊㅕ
▁ㅁㅗㅅㅎㅐㅆㅇㅡ
▁Fi
▁구단주
▁부당
▁털어놓
▁학술
▁ㅂㅜㄹㅌㅐ
▁ㅌㅏㄴㄷㅏ
▁시에
▁인벤토리
▁김두한
▁ㅍㅛ
▁괴리
ㅇㅜㄹㄹㅣㄴㄷㅏ
▁초선
▁숀
심장
▁Hell
▁감히
riend
▁농사
▁신칸센
▁POP
▁등교
▁이은
▁일절
▁돌려주
▁사안
▁중전차
▁열등
▁태자
▁퀄컴
코어
▁유방
▁Miss
▁더욱이
▁성역
▁시스터
atic
▁동갑
▁이질
▁ㅁㅣㄹㄹㅣㄴㄷㅏ
▁탬
▁세레
▁자처
무소
▁1965
클럽
▁모범
▁사극
▁유난히
▁Air
▁교감
▁법학
33
차례
▁ㄷㅓㄴㅈㅣㄴㄷㅏ
▁부호
▁ㅁㅣㄹㄹㅕㅆ
▁따내
▁친정
▁팔찌
▁야마구치
▁동지
▁코타로
▁night
▁순교
▁1964
▁서해
▁소시
▁잔디
▁배열
▁돌보
▁수식
▁충북
▁스타팅
▁테일러
ittle
▁서지
▁김일성
▁숏
▁지표
▁허공
▁못지않
▁군복
▁함포
▁PVP
▁목적지
▁세일
▁SG
▁sc
▁민정
▁향기
▁안성
▁리마
▁세세
LS
지부
▁ㅁㅏㅈㅁㅜ
▁아이언맨
▁에일리언
▁ㄱㅏㄹㄹㅣㄴㄷㅏ
▁확립
▁커먼
▁포토
▁다짐
▁클레어
▁Hy
▁교직
▁깽판
▁마차
▁6000
▁구절
뮤직
▁지극히
▁꾀
▁아카이
▁q
▁Vo
▁트로이
▁just
▁굶
▁380
▁오징어
▁음주
▁영동
▁서정
▁일본식
▁카스미
▁애교
▁신대
▁웨어
▁ㅎㅏㄴㅎㅐ
▁불로
▁파파
▁어리석
▁정동
▁스캔들
▁망설
▁Mod
▁바주카
28
▁설비
▁센티
▁애시
▁빅토르
▁ㅈㅓㄴㅎㅐㅆ
마침
▁랜턴
▁수험
▁부드럽
▁반기
▁VR
▁배기
▁이용해
▁아홉
▁Di
▁액셀
▁필연
▁아몬
▁퍼붓
▁가뜩
▁부대원
▁이치고
▁패미
▁밋
▁해내
▁넥슨
▁럼블
▁라틴어
▁징징
▁콜드
▁본성
▁역병
▁직역
▁때마침
ㄹㅡㄴㄷㅔ
▁차관
▁자주포
▁챌린저
▁신흥
▁ㅇㅜㅁㅈㅣㄱㅇㅣㅁ
▁거칠
▁케로
▁설계도
▁샤크
▁출몰
▁고폭탄
레스트
▁ㄲㅐㄹ
▁노엘
▁MT
▁Sy
▁국산
▁바비
▁부딪히
▁팔라딘
▁볼륨
▁토오루
▁로딩
▁시코
▁스타크
▁학번
▁가급적
▁조폭
▁레몬
▁억지
▁예장
▁YOU
▁집중력
▁가뜩이나
▁tvN
▁쏠쏠
▁일렉트로
▁손아
▁수녀
▁흘러가
▁King
▁임원
▁1920
▁발악
▁서대
▁연구실
▁what
▁중견수
▁XXX
▁개개인
▁수상자
▁ㅇㅜㄹㄹㅕ
사관
▁Ang
▁게릴라
▁토네
▁악랄
▁페니
▁그려
▁김택
▁연비
▁자크
ㄴㅣㅂㄴㅣ
ony
▁직구
▁차선
▁하타
▁승려
▁전폭
지르
▁소동
▁도요
▁스콧
▁접근성
▁왠만
▁강판
▁호쿠
▁소감
▁ㅇㅠ
▁재사용
▁폿
ㅈㅏㅇ
▁상체
▁야드
ㄴㄱㅏ
▁넘어서
▁성형
▁조영
▁노조미
▁마도사
mania
▁끝장
▁파이브
▁포지
▁리우
▁다비
▁절규
▁첨단
▁ㄷㅏㄹㄹㅕㅆ
▁상가
▁안산
ㄱㅅㅡ
▁전리
▁칙
▁콘티
▁인터페이스
▁페가
ㅍㅓ
▁매스
▁용맹
▁소규모
▁ㅂㅏㄺㅎㅣㄴㄷㅏ
▁ㄷㅗㄹㄹㅣㄹ
▁리에
▁서킷
▁자연수
▁STER
▁최영
▁공산주의
▁노이즈
▁반항
▁후예
▁동인지
이센
▁강행
▁시몬
▁가르침
▁0000
로프
▁보리
▁샤프
테이너
▁EMP
▁UFC
▁ㅂㅜㅌㅇㅕㅆ
ma
동원
▁IG
▁즉각
▁총탄
▁건재
▁태조
ㄲㅟㄹ
▁박격
▁ㄹㅏㅁ
▁실황
▁드라큘라
ㄲㅜㄴㄷㅏ
포드
▁Cy
▁ㄹㅜㄴ
란트
▁쳐다보
▁리쿠
▁먹방
▁악용
▁펠리
▁진료
블릿
▁카린
▁기성
▁퇴사
▁크루즈
▁오로라
▁패기
▁퇴출
▁생산력
▁EA
▁플루
▁마에다
▁와이어
ㅇㅗㄹㄹㅕ
▁바루
▁양측
미스
▁만료
▁빈사
▁사사키
대기
▁밀집
▁광신
▁밀란
▁초사
▁IDOL
▁타케시
▁웨이트
▁사임
단체
타르
▁우아
▁대상자
▁1600
▁카무이
▁공성전
▁딱딱
무기
▁아델
▁재난
▁포럼
▁카타르
곡동
숨에
▁오인
▁이선
▁단숨에
▁ㅆㅏㅎㅇㅣㄴ
▁옵티
▁쿠파
▁자수
▁자신감
be
▁원내
▁씌
▁131
인드
▁타국
▁무전
▁수고
▁적진
▁게리온
▁목요일
ual
▁허위
▁카지노
▁white
▁말미
▁솔라
▁카탈
▁Run
▁로사
▁장편
▁학회
▁남동
▁드라군
▁스피커
▁무궁화
▁파인
▁페르난
▁스위트
터스
▁안면
▁은밀
▁변질
▁MASTER
▁유토
▁ㅃㅐㄴ
하하
▁대출
▁부평
▁섬기
▁벅스
▁한심
▁퍼부
▁대주
▁ㄷㅚㄹㄲㅏ
▁마사키
▁초당
▁프랭
▁소용돌이
▁관동
▁원고
▁소극
▁수요일
▁광복
▁대대로
▁스티커
▁진가
▁저격총
▁ㅍㅜㄹㄹㅕㅆ
ㅈㅓㅇ
▁투하
ㄷㅜㄹ
▁메테오
▁총격
▁경성
▁에밀리
▁괴담
▁마이트
ecial
▁준하
밀리아
▁내야수
▁선대
▁우체국
▁덫
미즈
▁ㅁㅜㄹㄹㅕ
▁입학식
▁School
▁생산량
▁SV
어먹
▁좌표
▁보증
▁UM
▁원호
회장
▁MLB
▁지그
페르
▁운운
▁다단
▁멀쩡히
ane
▁SO
▁외래
▁물리학
▁수비진
▁통신사
▁홍준
▁가브리엘
▁태세
▁마징
▁새우
▁승천
▁마징가
▁서초
▁백합
▁치명상
▁분기점
▁민원
▁Rec
▁샴
▁장타율
▁다중
▁대각
▁ㅅㅡㅂㅎㅏㄴ
▁미타
▁자유자재
▁전편
▁Sound
▁뮬
▁단골
Fat
▁타노스
▁빅뱅
▁청산
▁Art
▁축적
▁아야카
▁카이사르
▁램프
▁든
셔츠
▁선제골
▁이승만
▁지상파
▁전교
▁마커
▁김전
▁사쿠라이
▁케이트
▁하야토
▁초래
▁경매
▁벡터
▁아이작
▁재위
▁사에
▁BAS
ret
▁염려
▁증권
▁don
ope
▁야쿠자
▁우루과이
▁동창
▁영미
▁도도
▁머무르
▁소실
▁Femme
티어
▁달걀
▁마운트
▁대파
▁일진
▁테이크
▁쉘
▁김희
▁가축
▁way
▁흑화
▁Arm
▁아이리스
▁탄도
▁결함
▁피에
▁호전
▁계열사
▁아루
▁소설가
▁미시
권자
▁Cat
▁갈라
▁여고생
무장
범죄
▁적료
ision
▁컨트롤러
▁천계
▁이마트
퇴근
▁태블릿
▁EM
▁고속도
▁경희
▁히노
니즘
▁어인
대교
▁베가
▁인맥
▁Rev
▁로스앤
▁마이너스
▁로스앤젤레스
▁제시카
▁레지스
▁괄
▁부츠
베르트
▁Ge
▁캐롤
▁마모루
▁대법원
▁박살나
▁합당
바퀴
elf
▁방금
▁플래닛
수수
▁렀다
▁리트
▁고속버스
마르
▁인내
▁태그팀
▁강적
▁리베
▁어드밴스
▁ㅅㅣㅀㅇㅓ
▁루카스
▁주방
에이터
▁비시
▁바이스
▁스코프
▁칠레
▁막바지
▁고어
▁김전일
Fatale
▁ㅇㅜㅅㄱㅣㄴ
▁피드백
▁강성
▁일련
▁FemmeFatale
▁DO
▁그닥
▁세르비아
we
재판
▁ㅈㅏㅁㄱ
▁프로리그
▁간략
▁ㄷㅐㄴㄷㅏ
▁WE
▁VIP
▁구마
▁궁지
▁라드
▁당나라
▁기밀
▁동래
▁매수
▁완수
str
▁오너
▁계좌
▁소행
즈카
▁깎이
▁발칸
▁식신
▁홍준표
▁피처
▁슈퍼스타
▁경량
▁박주
▁부식
▁세나
▁레이터
▁양국
▁총괄
▁빨강
▁두부
▁불멸
ational
▁Yeah
▁ㄲㅡㅌㄴㅐ
▁지령
▁크로니클
▁소피아
▁1961
▁실무
▁헌신
▁원천
▁자진
▁야시
▁입술
▁페더
▁꽝
▁ㄴㅗㄹ
카즈
▁모친
▁예명
ouse
▁브라더
행위
AG
▁묻히
▁발전기
▁공방전
▁사용법
ㄷㅏㄹㄹㅕ
▁할리우드
SS
▁일보
▁하세
▁ㅌㅡㄹㅇㅓ
▁싣
▁석궁
어찌
▁우크라
▁ㅁㅜㄷㅎㅕㅆ
수스
▁쫓기
▁파산
▁두려워하
▁마작
▁화수
▁깁
ORE
▁다이나
▁작별
appy
▁시궁
▁극소수
▁Order
▁ㄱㅏㄴㅈㅣ
▁팝픈
▁팝픈뮤직
▁편대
▁광석
▁후타
▁황태자
려드
▁족장
▁매달
▁기마
▁이스터
▁대잠
▁양파
▁NHK
▁이에
▁효과음
▁저리
▁미츠루
▁성도
▁1100
▁넵
▁섬유
야샤
▁MD
▁이누야샤
ㅅㅐㅇㄱㅣㄴ
휴일
▁그려지
▁무언
▁ㅎㅔㅅㄱㅏㄹ
▁튕
▁부도
▁무작정
▁Elect
▁어찌어찌
내리
서야
수아
▁여당
▁자취
▁배지
▁제멋
▁에이전트
▁악세
▁고난
▁술법
▁회화
▁연금술
▁ㄲㅡㅌㄴㅏ
케인
▁br
쿠로
▁가명
▁호노카
ness
▁하임
▁쓸데없
▁반말
꿈치
▁군기
▁EXH
▁ㅇㅕㄹㄹㅕ
▁공로
▁반환
▁창업
▁쿠르
▁혼종
▁TCG
아서
▁정계
▁초필
▁양현
▁아의
▁스플래시
▁얼핏
▁검은색
▁대본
▁유로파
▁김혜
▁ㅃㅐㅅ
▁삼거리
▁CON
▁바하
스트로
▁이치로
▁신디
▁ㄹㅕㅆ
▁살아나
▁소심
▁진작
▁코카
▁프로세서
▁양키스
▁그놈
▁수준급
▁허세
▁소진
▁주작
ㅋㅣㅁ
▁키리토
▁하워드
▁수락
▁토론토
▁하부
▁아즈사
▁카도
▁엄지
▁후일담
inc
▁RG
▁정명
축구
▁완전체
▁들여
▁성채
▁헬스
▁자잘
▁정립
▁천적
▁블레이즈
▁택배
델피아
▁필라델피아
▁미라클
▁적발
▁어비스
같이
라이나
▁교섭
▁스크래
▁병단
▁주범
▁SHOW
▁소피
▁말장난
▁전리품
▁프론트
투아
▁당원
▁운항
▁조형
▁스칼렛
▁적색
▁214
▁서드
▁연예계
▁미지수
▁대사관
▁애당초
▁ㄴㅐㅆㅇㅡ
▁한몫
▁옵티머스
▁과부
▁이노우에
투수
▁이안
▁휴일
▁dis
▁기미
그룹
▁ㅇㅕㅅ
▁매진
▁다인
▁선발투수
▁리노
시계
▁복싱
▁로만
히트
▁도호
▁태종
▁폴더
▁공휴일
▁world
▁점거
day
▁결장
▁폭동
▁beatmania
▁키워드
▁갑작스럽
▁기한
▁She
▁신주쿠
▁Da
▁잘리
its
▁임창
▁고령
▁콜로니
omb
▁수평
▁카가
▁경장
▁펄스
저트
ham
▁당주
▁후궁
IV
▁조운
▁지망
▁대표작
▁리브
▁스왑
▁탄종
▁사이퍼
▁광범
▁본디
▁냉전
▁종일
▁시엘
▁정거
우루스
사의
▁양호
▁쓸모없
▁코시
▁제정신
▁루이지
▁좌익수
제국
▁키퍼
▁급기야
▁요미우리
▁유포
▁ㅇㅕㄹ
▁불어
▁아멜
▁340
▁정류소
▁ㅁㅏㅈㅁㅜㄹㄹㅕ
투표
▁141
ㄷㅜㄴㄷㅏ
▁콜라보레이션
▁명작
▁ㅂㅏㄱㅎㅣㄴ
▁비토
▁도전자
▁유서
▁깊숙
▁사로잡
▁재고
날드
▁교주
▁도쿠가와
퍼런스
▁강유
▁성추
▁킹스
▁밀어주
▁신이치
▁고독
▁정은
▁빌라
▁당분
▁후안
▁상대식
ㅇㅓㄴㅈㅓㅇ
▁볼프
▁토탈
▁ㄷㅐㅆ
EX
▁naver
▁더스트
▁히데요시
▁산악
▁애프
▁ㄷㅡㄴㄱㅏ
▁교란
▁당기
▁개인전
▁툼
▁탄소
▁호세
ious
▁스폰지
▁기온
▁상회
▁토하
▁ㄲㅡㄹ
▁프런트
▁덥
▁제르
▁압살
▁다이브
▁ㄸㅏㄹ
==
▁제이드
▁ap
▁맞히
▁셀프
▁레스터
▁텔레비전
▁불사조
▁ㄴㅓㅁㄱㅣㄴ
ㄷㅕ
▁노숙
▁윌슨
▁피곤
사이드
▁루터
▁휩쓸
▁해수
▁건전
▁창당
▁에리카
▁엑소
▁씁
▁섭외
▁초토
▁박격포
▁프로그래밍
▁오모
▁일쑤
▁프랑켄
▁불가사의
▁여사
ㄷㅏㄱ
▁게임기
▁액세서리
▁사부
▁언행
ivers
▁동봉
▁예비군
▁스크래치
▁쟁탈
세데스
아티아
▁메르세데스
▁크로아티아
▁te
▁Not
▁출퇴근
데아
▁캡콤
ANC
▁오클
▁좀비
▁합창
ㄷㅡㄹㅇㅣㄴㄷㅏ
▁SW
▁제식
▁ㄸㅡㄹ
▁공익
▁양주
▁확연히
▁오버로드
27
▁폭발물
▁^
▁지기
aut
▁아지트
▁상속
▁정거장
▁프로이센
인간
▁승기
▁아그
매니아
olution
▁미성년자
▁방황
▁시그마
▁하드코어
▁ㅇㅜㅁㅈㅣㄱㅇㅣㄴㄷㅏ
▁Ke
▁신축
▁이우
ERS
댓말
▁상권
▁손흥
▁도리어
▁정교회
▁존댓말
▁RAW
▁싱어
▁상반기
▁옥타
▁표본
▁글러브
▁폭사
23
▁로망
▁장병
▁휘말리
▁행태
▁위즈
▁캐서
▁다툼
▁With
▁위탁
▁김창
▁셜록
▁반다이
▁트린
▁ㅇㅏㄱㅎㅏㄴ
▁난전
▁ㅂㅣㅊ
▁증세
▁ㅅㅣㄹㄹㅣㄴ
▁DEF
▁광범위
▁스파르타
▁윌리엄스
▁네메
▁막부
▁지자
요환
▁상표
▁장안
▁Every
▁ㅎㅓ
UC
▁리액션
▁글래
▁세션
▁따라오
▁아역
▁손흥민
▁평원
▁군함
▁화자
▁피라미
▁다정
▁직감
▁까먹
▁종사
▁프리즈
▁자연스레
패스
▁프리스트
olog
▁한조
▁310
▁와우
▁입맛
▁도피
▁바우
▁질리
라이어
▁마이어
▁ㄱㅏㄷㅎㅣㄴ
▁우시
▁현명
무늬
▁시한
▁치이
▁체이
▁ㅈㅝㅆㅇㅡ
45
▁정장
▁해커
▁질량
던트
▁오재
▁김준호
▁임요환
▁어처
▁브릿지
▁시즈카
66
▁진군
▁마음껏
▁든든
▁아부
▁랏
레미
▁러셀
▁쾌속
▁위화
▁수원시
▁007
▁코이치
29
스톤
▁1943
▁ㅈㅓㅇㅎㅏㄴ
▁ㄲㅏㅆ
▁망가지
데르
▁카바
▁최우수
▁백미
▁수다
▁안나
▁정세
▁저번
▁사이오
▁뾰
▁ㅍㅏㄴㄷㅏ
▁원제
▁구자
▁Chr
▁캐서린
▁헷갈리
지리
▁FR
▁사다
▁꼭두
▁짤방
르기
▁**
▁방정
▁해운대
▁제구
▁체질
▁Get
▁듀티
▁서원
▁나나미
▁망자
icro
▁공동체
▁박병
▁전전
▁Skill
▁국력
▁추석
▁Boy
▁술탄
▁무상
▁쑥
▁꼬이
▁송구
▁TB
▁대문
ㅇㅡㄹㅈㅣ
ㅂㅈㅏ
▁화요일
ㅂㅈㅏㄱㅅㅡ
▁왼팔
즈마
▁미야자키
▁가솔
▁손바닥
ty
▁시노부
▁비하인드
▁뢰
▁외출
▁Har
▁if
▁낙원
▁최면
▁ㅎㅡㄹㄹㅕ
ely
▁옐로
ny
▁기하
▁피츠
▁김세
reat
▁촛
▁집결
▁720
▁ㄴㅡㄴㄱㅜㄴ
▁1946
▁스루
▁르네
▁Des
▁대명사
마치
▁기총
노기
데기
▁CT
▁시저
▁환각
▁탈옥
▁사과문
▁중앙선
▁신원
▁커터
▁영화판
▁토네이도
리에
▁대부
▁도모
▁주파수
▁나날
조각
▁메라
▁부서지
나드
▁군사력
▁김정은
▁관념
▁=,
▁지침
▁재임
▁골리
▁어처구니
▁부여받
▁에덴
▁호르
▁가출
▁켄타
▁흡연
▁불상
▁평민
▁Ab
▁무협
▁순진
▁1942
▁인즈
베르토
▁1954
▁예배
▁생사
▁연희
▁까닭
▁바오
▁경찰관
▁열받
▁아폴로
▁키메라
▁리포트
아아
▁한스
▁슈타인
▁ㅉㅣㄱㅎㅣㄴ
▁분경
▁영분
무니
소스
▁표출
▁추첨
▁홍대
▁480
▁랫
▁1958
▁171
▁소수자
▁터트리
킨스
▁걸작
▁정중
▁벵
▁DA
ient
▁영기
라이즈
▁마누
▁보답
▁Big
▁>,
▁교화
▁마더
▁미상
ters
▁혜성
▁리젠
베리아
▁당당히
▁빡빡
▁탐욕
▁PSP
▁북방
▁웨일
▁만세
▁금기
▁민영
의사
▁Tri
▁담당자
▁스님
▁예리
▁부메
▁무자비
▁듀엣
▁줄곧
▁튜너
▁괴도
▁자발
▁png
▁181
▁1900
▁육지
▁지름
▁체가
리우스
▁가든
▁드리프트
▁대용
▁커리
▁후유증
▁생물학
▁반칙
▁진흙
▁류현진
▁이동하
▁UR
▁단테
▁부메랑
▁초고
▁떨구
받침
▁시력
▁견인
▁전태
▁졸개
▁추이
▁다이어트
▁ㄴㅓㅁㅊㅕ
▁ㅈㅜㄹㅇㅣㄹ
▁발상
▁kn
▁츠루
▁이어인
▁섬세
▁의미심장
▁성체
▁카운티
▁겸하
▁연혁
▁양아치
▁유행어
▁8000
▁사마의
▁어워드
▁미디
테스
▁취직
▁피리
▁석화
▁트림
▁협곡
▁차종
▁ㄷㅗㄷㅂㅗ
체스
▁성녀
▁Ext
▁DT
▁맛보
칼리
▁스탠다드
▁수작
▁생몰
▁문헌
▁임관
▁자문
▁XP
▁양념
프레스
▁샤이닝
▁복음
▁기관차
ship
ful
bl
uch
▁RS
▁설득력
▁제이스
85
▁두드
▁라오
토시
▁id
크리트
▁바바
▁ㄲㅡㅀ
▁ㅈㅜㅁ
▁방랑
▁CCTV
▁성균
▁오피스
▁잉크
▁충성심
▁라자
ports
▁STAR
▁매복
클레스
▁총사령
ㄹㅗㅂㅎㅣㅁ
▁천황
▁원년
▁봉황
▁상원
▁1941
▁고분
▁낙인
▁윤종
버린
▁군벌
▁파장
▁성균관
▁조율
▁ㄴㅡㄴㄱㅜ
▁염소
▁이과
▁데카
▁기라
▁원격
▁오디
▁부화
▁EB
▁직관
▁입체
자카
▁방어선
▁군산
▁박세
▁통용
▁스펙터
▁세간
▁클락
▁퍼스
▁경쟁력
▁성모
▁선공
▁가토
▁꺼지
▁초식
리케이션
▁어둡
▁태연
▁츠카사
무진
▁Inf
▁빅터
▁Sil
▁격노
▁OO
▁나츠미
▁송이
▁ㄴㅗㄱㅇㅕ
기업
테리
▁창의
▁샤아
▁송도
▁255
▁봉기
▁텔레콤
▁White
▁굴복
▁제비
▁풍자
▁시동
▁조장
▁채소
▁ㅂㅜㅌㅈㅏㅂㅎㅕ
▁갈기
▁비숍
▁OR
니트
▁윈스턴
▁Bar
▁미련
▁디테일
정역
▁기만
슬러
▁요일
▁Fre
▁클로즈
▁KS
▁선체
▁웍
▁귀중
▁정인
▁헌데
▁회고
▁역기
▁1948
▁ㅁㅏㄹㄹㅏ
▁격돌
▁토템
▁Back
레트
▁흑백
▁Win
▁히로유키
▁ㅅㅛ
▁학창
▁서커스
▁접어들
▁장기간
▁만류
▁만회
▁프레데
ump
▁무의
▁청량
▁최전
▁유대인
▁양면
▁유감
26
▁씁쓸
▁농어
▁갈래
▁뒤이
▁아테네
▁동참
▁송병
▁뭉치
▁잠복
▁재팬
co
▁조제
▁특촬
ㄷㅣㅈ
▁크래
▁증원
▁난동
▁420
▁수리검
▁아제
▁스테이트
RAM
▁배분
▁시궁창
▁여의도
ㅅㅣㄴㄷㅏ
ㄴㅜㄴ
▁불리우
▁qu
▁느긋
▁가치관
▁ㅌㅡㄹㄹㅕㅆ
▁PO
▁되살
버릇
노미야
▁피에르
혁명
▁마비노기
▁ㄱㅏㅂㅈㅏㄱㅅㅡ
도스
▁창시
▁자위대
ift
▁태고
산물
▁솔로몬
ENT
▁GL
▁만두
ATION
▁판도라
▁겨루
▁전년
▁커브
▁다이너
▁ㅎㅟㅂㅆㅏ
기지
▁초급
▁우익수
▁켄이치
ㄴㅏㅁ
▁모호
▁손녀
▁오드
▁타쿠미
▁ㄲㅕ
▁공병
▁그리스도
▁NG
▁jp
▁모라
▁콘크리트
▁뽑히
▁고양시
▁간식
모사
▁색채
▁아틀레
▁도타
▁215
▁바이올린
▁ㄷㅓㄴㅈㅣㄹ
▁초원
ㄱㅜㄴㅈㅣ
▁ㅂㅏㄷㅊㅕ
▁ㅉㅣㄱㅎㅕ
▁샨
▁젤다
러드
▁FE
▁파키스탄
▁베니
edia
▁하와이
호도
▁오덕
▁치중
▁퇴근
마츠
튀기
▁학계
▁왕궁
▁Met
▁Sky
▁심리학
▁연루
▁벌칙
▁down
틀리
▁수소
ㅅㅠ
▁관악
▁뻥튀기
▁뫼
▁단신
▁바늘
▁접시
▁실험실
▁진과
▁폭포
ALL
ERT
▁off
▁하코
▁백색
▁ㄱㅏㄹㄹㅕ
▁박민
▁지독
▁착하
▁소음기
MC
▁사토시
▁제휴
▁FN
▁포털
▁하르
▁컨테이너
▁맏
▁시구
▁고려대
▁1949
▁인기투표
▁정유
▁나츠키
▁나고
▁쩔
▁자드
링크
▁강변
ㅇㅝㅆㅇㅡ
▁ㅃㅓㄴ
레인지
▁이성계
▁쇼핑몰
▁ㄷㅗㄹㄹㅕㅆ
▁맥도
▁텐션
▁왕따
▁허영
▁Act
▁횡단
▁333
▁성서
▁카세
▁바쁘
▁최성
▁CEO
▁광부
▁금전
▁선구
▁235
▁제이크
▁제멋대로
▁테크노
틀링
▁서진
▁러블리
▁오퍼레이터
▁타라
▁작렬
▁208
▁변종
▁거주지
▁거제
▁every
공격
▁친밀
▁려
바위
▁유엔
▁병맛
▁현존
oud
▁쇠퇴
▁라운
▁인장
▁삽화
▁사육
▁어중간
▁1936
▁어지간히
▁갭
▁열풍
▁206
▁출생지
▁FX
모니
▁바시
ㄱㅣㅁ
▁..'
▁UFO
▁포고
각시
▁집정
▁파업
▁Song
▁}{
▁양동
▁듬
▁TD
▁생겨나
▁성폭행
▁육식
▁초동
▁키바
▁알아채
less
▁실천
ㄲㅗ
▁메소
▁프레디
▁항속
▁대머리
▁향수
▁가차
ize
▁ㅊㅜㄴ
▁이승엽
▁욕구
▁시중
▁비늘
▁헤딩
▁뇌격
▁디스코
▁우기
▁자손
케이
▁럽
▁May
VEL
▁마장
▁인프라
bps
▁em
사우루스
드래
천동
니스탄
득점
▁런닝맨
방향
▁하렘
변속기
▁오마주
95
▁거물
▁서독
▁심플
▁유쾌
▁육박
▁체이스
▁마츠모토
UB
▁안도
▁남용
▁동선
▁정현
▁ㅎㅏㄹㄹㅕ
▁배급사
어쓰
▁어머
▁161
▁미쓰
▁병영
▁아론
▁GAM
▁경인
▁나루호도
▁ㄹㅏㄹㄲㅏ
공화국
▁비행선
▁NL
▁메아리
▁850
▁줍
▁ve
▁편제
▁좀처럼
▁ㄷㅡㄹㅇㅣ
BM
▁문의
▁빌미
▁넘쳐
▁덩크
IST
ape
지대
▁피어
▁틀림
▁마그마
ㅁㅓ
ger
린스
▁난폭
▁갈고리
▁계보
▁세츠나
▁누마
▁소이
▁크러
▁con
▁도르트
▁본국
▁사다리
▁펼쳐지
▁넘어오
▁That
▁Rain
▁김인
▁카멜
▁모터스
▁김하
▁ㅈㅣㄴㅎㅐ
▁철회
aka
▁처단
돌리
▁대여
▁아픔
▁코지마
▁피라미드
▁기쁘
▁비약
▁우로
▁감시자
▁개틀링
▁개드
▁수배
▁스릴
▁아울러
네트
▁멸자
▁ㅁㅏㄱㅎㅣㄴ
▁명인
▁RAM
ita
▁끼어들
▁속옷
▁영리
▁좌석버스
▁독성
▁송곳
▁합방
▁오미
▁표방
▁얀데레
▁인피니트
96
▁단선
▁팀킬
▁김태균
▁Hey
▁카에데
▁와일드카드
▁벽돌
▁God
▁RF
▁내년
▁스플릿
의회
ORM
▁참패
타자
▁단간
▁라트
▁호대
▁ㅇㅣㄴㄷㅏ
▁페인트
▁290
▁극찬
▁언락
▁얼리
▁끝판
▁젊은이
▁이윽
▁선발전
▁청색
▁위나라
▁이윽고
▁커넥
▁데이브
▁Top
zy
▁신시
▁리오스
▁불태우
▁ㅇㅣㅂㅎㅕ
▁디에
▁북극
▁밴시
▁돌아보
▁설사
▁도마뱀
▁순교자
▁앞마당
▁패거리
모자
▁데이즈
▁하데스
▁불가리아
▁정렬
▁난해
▁아이리
▁북두
▁열전
▁페로
레인저
▁마드
▁장래
주군
rop
▁소인
▁무법
▁야기
▁나기사
▁트레이서
▁ㅇㅣㅂㅎㅣㄴ
▁버디
▁want
때로
▁메스
▁축구단
▁친일
▁전용기
▁토와
▁풀백
▁늘어놓
▁Pe
76
▁유목
▁심심찮
▁정벌
IGHT
▁마니
▁성검
기어
▁Game
▁Battle
▁서면
▁포이
▁콘테
▁플라워
▁ㅍㅏㄹㄹㅕ
▁기겁
▁상대편
net
▁헛소리
▁수레
▁Moon
ㅁㅏㅇㅊㅕㅆ
▁베라
▁이복
▁대각선
▁성문
▁영장
▁코스타
▁징병
▁석탄
▁지아
ㅇㅘㅆㅇㅓㅆ
▁야채
▁어린애
▁일자리
▁정규군
OK
▁TEC
▁WAR
▁무난히
암동
▁불운
▁비욘
▁선도
▁슬퍼
▁칼럼
▁1955
ara
com
▁화속
▁SUP
비우스
▁more
▁여건
▁망원
▁ㅂㅡㄴ
지원
▁역학
▁당분간
실히
▁손수
bo
ren
▁행동력
▁도르트문트
▁노브
▁영창
ward
운전
▁스몰
▁ㄲㅡㅌㄴㅐㅆ
▁경위
▁max
▁좆
▁미셸
▁바실
▁호타
▁ㅋㅓㄹ
▁게리
▁헤매
▁Bra
▁유우야
▁책임자
▁최재
▁줄줄이
▁젯
▁존속
▁코로나
▁곡선
row
▁스케치
▁가까스로
▁중성
무스
▁대강
▁절묘
▁일직
▁스케이팅
버거
▁유추
▁212
▁여진
ㄱㅏㅆㅇㅡ
▁가창력
▁코나미
▁이따
포스
▁갑판
▁위화감
▁허리케인
▁눕
작전
▁임하
▁광저우
▁한가
▁반자동
▁새로이
▁끌어들이
▁인민공화국
▁LCD
▁Dragon
▁선풍
▁자부심
▁NS
▁되려
▁분사
▁새해
▁허구
▁성추행
▁LS
▁남구
▁토요타
▁꼭두각시
▁KG
메다
니엄
▁특공대
ㅇㅏㅅㄱㅣㄴ
▁Special
▁과실
▁내륙
▁북유럽
▁국사
▁라이터
버드
▁드레이크
▁칭송
▁우습
▁복종
▁플레이트
▁밸리
▁영락
▁튕기
▁울부
▁인테르
▁독재자
▁흑룡
▁터미네이터
▁총통
▁1959
▁밀레니엄
▁나고야
▁친위대
▁개드립
▁유명세
▁피겨
▁베이스볼
여행
▁레트
▁카야
▁즐거
▁가솔린
ㄸㅐ
▁ㅇㅣㄹㄹㅓ
▁강당
▁역전승
▁루시퍼
▁교육부
▁다나카
▁매트릭스
연합
▁ㅊㅏㄹ
▁알프레
▁가메
▁민지
led
▁ㅈㅣㄹㄹㅓ
▁사이언
리아나
▁안기
▁이신
aven
▁나데
블랜드
▁본문
▁ㅇㅏㄹㄹㅣㅁ
▁클리블랜드
▁할당
▁탤
▁부과
▁푸른
▁연방군
▁카트라이더
▁두들
▁치타
▁001
러기
▁자석
▁초회
▁파괴자
▁wiz
▁Track
짜기
▁쿠미
코프
럭스
▁이제동
▁틀어
▁와이드
▁진나라
▁경이
▁팩토리
▁플로리
▁FFFF
▁가변
▁귀도
▁뚫리
▁생각나
▁호스트
클리
▁행선
▁Pop
▁태수
▁광화
▁데프
▁티코
▁래스
▁Amer
▁관제
▁ㄸㅟㄹ
LD
▁Hot
▁발산
▁도미니
카스
▁해임
▁스트레이트
▁서점
▁목표물
▁니키
▁뮤즈
▁킬로
▁캬
▁대담
▁서울역
토록
▁소중히
▁1956
▁가네
▁광양
▁벨벳
▁치부
▁피고
▁레고
▁임프
▁플러그
▁요건
▁DAY
▁아산
▁전투원
▁경호원
▁카즈키
▁협약
▁내심
▁우사
▁크림슨
▁조달
▁밀어붙이
하이
▁울부짖
▁종자
▁사파이어
▁ㄷㅐㄴ
▁의리
▁특허
▁이치카
▁핵무기
▁마포
▁머들
▁오반
▁의석
▁펜스
▁레미
▁TG
▁원동
▁장막
▁무성
▁앙리
▁피니시
▁Cont
▁베드
▁활주
부대
▁살라
▁발간
▁이시다
▁안드로메다
테나
▁기와
▁십상
▁추월
▁알아듣
▁익스트림
패드
▁they
히사
▁강연
▁왕녀
▁부회장
▁협공
▁칠흑
▁스켈
▁마티
▁유민
▁잔당
▁합산
▁ㅍㅕㅇㅎㅐㅆ
▁백신
▁신령
▁ㄴㅏㄹㄹㅣㄹ
▁차남
▁tw
▁미완
▁명령어
▁포르노
▁게이밍
▁슐
바키아
▁계약자
▁에스파
▁마고
▁조회
▁보단
▁아란
▁트리오
▁이화
▁골대
▁음양
▁baby
그래
▁TN
▁입성
▁증후
▁ㅉㅏㄴ
▁ㄴㅓㅁㄱㅣㄹ
▁첩보
▁207
▁적정
▁광주광역시
▁이분
▁와타루
▁네메시스
▁온화
▁토의
▁이상민
▁창세기
34
▁무심
▁금성
▁주군
▁심리전
▁1939
▁지갑
▁오스카
▁두드러지
▁등산
▁너구리
▁멧돼지
지기
▁520
▁뒷받침
▁ㅈㅣㄹㄹㅕ
▁각기
▁아치
ands
▁청동
▁COM
▁마늘
내기
▁인분
▁온전히
▁불기
▁플라잉
▁대한항공
쿠버
ien
▁석방
▁우와
두근
▁저거
▁파드
▁내려찍
▁동물원
바시
▁랄프
▁패트릭
▁황무지
▁프랑스군
▁BASIC
▁노랑
▁넵튠
ze
렉트
▁신공
ㄴㅘㅆ
▁선진국
▁차세대
다르
ㄱㅇㅏ
▁매지컬
▁떠들
▁오피
▁루리웹
▁경신
▁빵빵
▁얽
▁퀑
▁로자
▁이지스
▁ㅌㅗㅇㅎㅏㄴㄷㅏ
▁나시
▁대적
▁뾰족
ㅂㅇㅓ
▁단단히
그레
▁기타리스트
▁단말기
▁슬퍼하
▁박기
▁주스
▁코리
▁새신
▁슈타
▁택하
▁이터널
▁PA
▁기병대
▁김현수
왜란
▁IDOLM
▁초중
▁모티
▁위인
아스
▁서사
▁위생
orts
▁임진왜란
▁단백
캐스트
▁제품군
▁ㅁㅗㄹㄹㅣㄴ
ㄴㅜ
▁빈스
지물
▁네모
▁화장품
▁영재
▁푸드
▁good
▁탈것
▁역관
▁외야
▁777
▁트레버
▁각색
▁바사
▁점하
▁교재
▁단절
▁팔꿈치
▁바이올렛
누르
ited
▁호라이
▁나우
▁사시
▁분자
▁구치
▁재해
▁겉보기
▁밀려나
▁209
▁망가
▁Yes
play
▁Bur
▁애프터
▁천체
▁도널드
▁뺏기
▁조비
▁네타
▁미공
▁티탄
▁구세
▁다트
▁문호
▁서문
▁데이빗
▁Project
▁크레이지
방사기
▁화염방사기
큐버스
▁Mir
▁철벽
▁꺼리
▁무언가
거진
▁over
▁배럴
▁col
▁최적화
▁블라디미르
▁황자
au
▁내려놓
▁송파
▁TF
▁정제
▁투타
▁따라다니
▁에우
▁감속
▁붕대
▁의대
▁고스란히
▁심슨
▁비정
▁로마자
▁로로
중국
▁그래프
▁전류
▁Sur
▁보유자
▁이나즈마
▁ㅅㅏㄹㄹㅣㄹ
▁마코
▁인신
▁유세
▁항로
▁1400
용차
▁친근
▁소모품
▁배틀필드
▁동거
▁선명
▁다이렉트
▁ㄱㅏㅁㅆㅏ
▁FFFFFF
▁터무니
▁Off
▁솔리드
▁단연
▁상정
▁스탠딩
▁이가
파니
드리히
▁창원시
▁성급
▁시제
로이
▁전투복
▁콜롬비아
ius
▁포화
▁로드리
UK
▁상류
▁일부분
▁집정관
둘기
▁리바이
▁ㅅㅏㄹㄹㅣㄴ
▁사면
▁사바
블랑
▁글리
▁버즈
▁사설
▁이어폰
위치
▁작살
36
▁터리
ㄹㅏㄹ
▁유스케
▁체급
교육
▁안토니오
▁중령
▁동포
▁강호동
▁단거리
▁신촌
▁주성
▁증후군
▁지휘자
21
준호
▁~'
▁비범
▁타협
▁콥
▁KD
▁채굴
▁독설
▁정연
▁에로게
HD
▁현질
▁심포
▁비즈니스
▁사카모토
ata
▁군단장
▁민병대
▁프론티어
▁노사
▁yeah
▁ㄷㅓㅁㅂㅕ
▁모방
▁김택용
▁액트
▁칸나
▁간장
▁써니
▁Int
▁반짝이
▁끌어올리
▁아노
▁풋볼
▁Bad
▁WOR
▁매사
▁제네시스
▁감도
▁무어
oney
▁정직
▁탈리
ㅊㅐㅆ
▁랜디
▁장단
▁엠파이어
▁공석
▁ㄱㅝㄴ
▁선비
▁청하
▁들통
▁김영삼
INE
▁투기
▁시세
▁선형
▁장동민
▁노마
▁대제
▁락스
▁한결
▁황족
▁류지
▁백수
▁1938
▁대두
▁톡톡
▁DDR
▁프리드리히
▁최우선
▁아르테
▁ㄴㅏㅁㄱㅣㄴㄷㅏ
▁데뷔작
▁자의
▁피버
ㄱㅏㅁ
▁코브라
▁군중
▁자민
▁나폴리
▁시프트
▁노이
▁인스
▁결투장
▁ㅁㅣㄹㅊㅕ
▁미토
▁세이지
▁스탠스
▁결별
▁침식
▁당근
▁WCS
▁Po
▁관대
▁저력
▁정진
▁미유
▁나탈
▁가산
▁역전패
▁'-
▁마호
vent
▁안중
▁억압
▁산화
▁ㅇㅗㄻㄱㅣㄴ
▁Ul
▁단조
▁어도
▁저러
▁체조
준혁
ㄲㅡㄴ
▁ㅊㅐㄱㅇㅣㅁ
▁치히로
▁영령
▁휴전
▁골리앗
▁버니
▁긴장감
ck
▁그지
▁천도
▁성유
▁행정부
▁파열
▁쭈
▁전갈
▁걸스
틱스
▁조류
▁격하
▁어기
▁끌어내
긋나
▁운전자
▁오아
토미
▁JC
마트
▁탈탈
▁메이크
드래곤
▁275
▁일갈
▁노스케
▁리조트
▁블루스
▁Ass
제이
▁카논
▁탄수
▁ㅅㅓㅆ
ㅡㄹㄹㅣㄴㄷㅏ
▁관건
line
▁그토록
▁메두사
▁Are
▁동대문
▁마공
UL
▁매개
ㄴㅜㄹ
▁org
▁ㅈㅏㅁㄱㅡㅁ
▁명품
▁치프
▁외래어
▁하늘색
▁TWICE
▁템플러
▁가가
비언
▁분전
▁튜브
▁비올
▁221
▁때때로
▁유노
ㅁㅣㄴ
▁구애
▁페루
▁루드
▁광학
▁두께
▁애틀
ague
고루
▁산산
▁Match
▁입법
▁순순
▁say
▁현행
▁타츠야
▁졸지
▁만화책
▁주시
▁ㅅㅐㅁ
▁학업
▁패미컴
AA
UST
▁소량
▁Eng
▁외침
ton
▁모치
방식
▁거유
▁교직원
감치
▁출세
▁배척
찌감치
▁올리버
▁섹터
▁즉석
▁#,
▁차마
▁총구
▁베른
▁애틀랜
▁잿
▁정자
▁지체
▁노동당
▁시오리
▁팻
홍철
▁아르메
규어
▁용품
▁클로버
▁샌드박스
▁쿼드
세이더
▁마리사
▁크루세이더
▁경전차
▁래쉬
▁브리핑
▁ac
▁대장장이
▁시발
▁PvP
▁음모론
▁프라이즈
78
▁세토
▁에프
▁아츠시
▁자본주의
피탈
▁레베
페스트
▁AMD
▁홈구장
▁신한은행
▁ㅈㅏㄱㅇㅣㄴ
▁스스
▁발트
▁샌디
▁건립
▁응징
ㅁㅏㅇㅊㅣㄴ
컨대
▁조로
▁케미
▁법무부
▁폭군
▁RED
▁몰려오
▁가와
▁멀린
▁시립
▁로미
툭튀
▁디디
▁하얀
▁플로리다
▁Char
▁괴멸
▁시르
▁짤막
▁여명
▁츠바키
▁사생활
▁헬로
▁커맨더
▁기린
▁바이퍼
▁금곡
▁Core
▁즘
▁최진
▁갑툭튀
▁ㄷㅏㄱ
erm
▁시애
▁XY
▁고원
▁폭투
▁몰아내
▁ㅉㅗㄹ
▁엘소드
▁리벤
▁트레인
▁셔츠
▁여행자
▁노후
▁제드
▁슬래시
매치
▁피크
▁타케루
▁캉
▁대관
▁see
▁1952
▁쓸어버리
und
의지
ute
▁데스매치
▁중소기업
▁부두
▁티타
▁희미
▁데이비스
▁ㅎㅏㄴㄱㅏ
▁몬테
▁재혼
▁행각
▁수영장
▁순순히
▁제각
▁사업자
hy
▁케르
▁단번에
▁수뇌
▁216
▁꼼짝
▁방대
▁수도원
▁최형
▁}}}}
▁ㄴㅏㅊ
▁갱단
▁묵직
▁경비원
▁리언
▁티나
▁일정량
▁}}}}}}
▁BW
▁BRV
▁자판기
▁Now
▁매거진
▁일직선
▁Blood
▁유시
▁퇴마
▁416
▁수속
▁안치
▁치아
▁란트
▁부합
▁농어촌
▁발렌시아
▁ㄴㅗㄹㄹㅏㄴㄷㅏ
▁노드
▁진공
▁213
▁쳐들
▁세단
▁마토
▁우동
▁히이
▁넘쳐나
▁고베
▁조원
▁여덟
▁부녀
▁다크니스
▁요르
▁ㅃㅏㄹㄹㅕ
▁길목
▁아재
▁앞쪽
▁재규어
▁동국
▁화랑
▁2021
자루
▁탈주
▁환불
▁댈
ILL
▁타가
▁Rob
▁루즈
▁Joh
▁척하
▁시애틀
▁가쿠
▁럭스
▁아카기
▁헤라클레스
▁츠치
정동
red
▁기공
▁누님
▁리히
▁매점
▁앨리
▁햇빛
▁our
레즈
▁ㅁㅗㄹㄹㅕㅆ
ㅇㄱㅡ
▁아틀라스
▁서스
▁티셔츠
▁레비
▁해저
▁슬쩍
▁Last
▁쌩
▁후후
▁쑤
▁장녀
▁농촌
▁릭스
▁관전
▁우이
▁일선
▁조인
ism
▁브란
▁서유
▁욕먹
▁간편
▁도보
▁fr
▁소름
▁친선
ㅁㅎㅏㄴ
▁릉
▁둔화
▁테츠야
▁퍼시픽
▁익스프레스
55
▁숙명
▁BBC
▁현수
▁아리사
▁파고들
맹이
III
▁충공
ㅂㅎㅣㄹ
▁볼일
▁쪽지
▁명장면
▁충실히
▁마사무네
▁ㄸㅏㄹㄹㅕ
ㄴㅗ
▁세무
▁사력
▁야자
▁대장군
▁바흐
▁위조
▁정적
▁1300
▁능동
▁평안
▁기염
▁스노
▁충동
▁흉터
▁건너편
▁모건
▁코칭
OCK
▁시집
▁에테르
▁햄버거
▁선글라스
▁유배
▁아득
▁심부
▁디트로
▁디트로이트
▁리시
조작
▁ㄷㅚㅆ
▁오일
▁재화
▁중사
▁급상
▁레그
▁화판
▁모탈
▁아종
게임넷
▁ㅅㅓㅁ
▁온게임넷
▁친화
▁케어
▁헌병
▁보살
▁헤븐
▁right
▁속사
▁필기
▁승부조작
ets
ㄴㅐㅆㅇㅡ
add
▁ㅁㅕㄴㅇㅡㄴ
▁토코
일관
▁애리
▁경영학
▁기판
▁조슈
▁다이크
괭이
미사
애미
▁전고
▁블리츠
▁두근두근
미츠
▁센트리
▁경의
▁임상
▁회자
▁비둘기
▁Magic
▁기통
▁마이애미
▁분수
▁선천
▁검찰청
▁기생충
▁뽐
▁벤트
▁악인
▁알비
▁업종
▁강남구
▁과다
▁재선
▁방어전
▁시라이
▁cr
▁국물
▁무모
포로
▁미니게임
xt
▁경희대
▁보이드
▁여느
▁1953
코스
▁돌풍
▁소망
▁통학
▁ㄸㅟㄴ
▁저스틴
▁조선일보
▁ㅈㅏㄹㄹㅣㄴ
▁드래곤즈
▁데일리
▁ㅂㅕㄴㅎㅏㅁ
▁NA
▁단백질
▁레이크
ama
▁완패
▁구미호
장구
▁학부모
▁유소년
▁료마
▁가주
▁빼놓
▁국수
▁데스크
▁슬라이딩
▁Like
▁병신
▁여하
▁메탈기어
▁악질
▁안식
ㅁㅏㅇㅊㅣㄴㄷㅏ
▁직계
▁표명
▁풍속
88
▁근래
천역
OWN
▁7000
▁ㅂㅣㅅㄴㅏ
▁수군
▁자자
▁ㅁㅏㅈㅊㅝㅆ
▁거리표
매매
외선
▁눈썹
▁나뭇잎
▁Alb
▁중화기
▁소아
▁초딩
▁국정원
▁HOT
▁무네
▁백룡
▁비석
▁팬클럽
▁동산
▁pe
ㄴㅜㄴㄷㅏ
▁그해
▁시빌
수엘라
▁상하이
▁재판소
▁희생양
▁RR
▁튀김
▁해프
▁영화관
▁활주로
▁쓸쓸
▁서인
타기
▁카츠키
▁정종
먹이
▁극성
▁진해
▁암흑기
▁관광지
▁속삭
로움
▁순삭
니지
▁피칭
▁권고
▁Soul
▁Happy
▁서약
▁홉
▁찜
▁총대
▁호우
▁승부차기
▁재미없
▁토사
▁암기
▁침체
ader
▁Nor
▁법정동
▁권역
▁아킬
▁사쿠야
▁프랭클린
▁매그넘
▁출연자
▁가세
▁차출
▁텐더
▁히코
▁거미줄
▁둘러싸
▁자가
OWER
▁양도
▁첨가
▁박태
▁메르시
▁하자드
▁잔여
▁ㅅㅏㄹㅍㅕ
▁RPM
▁드래그
이인
▁들려
▁원어
▁미나토
탕스
▁이천
▁223
▁레지스탕스
▁남극
▁사병
▁음란
▁자정
▁가넷
▁농부
▁포진
▁사단장
ga
▁고갈
▁악보
▁세레나
▁성남시
▁이대호
▁몸집
▁there
이프
▁토토
▁방정식
ㅃㅏㅆ
▁세실
▁니즘
▁불허
▁연안
▁총사령관
▁프라이드
▁본드
▁사비
▁사역
▁설레
▁달아나
▁생방송
ther
▁포레스트
▁마크로스
▁TT
▁신종
ocal
▁베네수엘라
▁필승
▁정윤
▁ㅁㅏㅇㅎㅏㄹ
▁이메
▁해프닝
▁사요
▁Party
▁그물
▁클라우
▁체로
▁리포
▁전과
▁몽땅
▁이범
▁삽입곡
▁GX
▁비룡
▁크리드
▁범주
▁ph
▁이로
▁이의
▁쳐내
베이스
▁방관
▁코팅
▁Sim
▁낙하산
▁Side
▁김소
▁365
▁비대
▁베르크
uz
▁철퇴
▁레프트
▁ㄷㅏㅇㄱㅕ
▁ㄷㅗㄹㅂㅘ
▁대입
▁화룡
▁Show
▁볼리
▁성동
▁피신
▁동명이인
렁이
▁문성
▁이목
▁역과
▁자멸
▁교향곡
▁수송선
▁임페
▁체구
ERF
▁무당
▁골고루
▁Edition
ONE
▁정대
▁하이브
▁불안감
▁사위
▁net
▁ㅁㅏㄱㅎㅕㅆ
니르
▁요동
▁girl
ㄱㅝ
▁민트
▁선역
▁산호
▁아레스
▁카메오
▁Open
▁공시
자국
▁충공깽
▁ㅎㅐㅇㅎㅐ
▁뭣
더리
BOX
▁임용
▁370
▁낯
ated
▁도입부
▁바트
▁테슬라
▁계승자
장판
▁여대
▁막말
▁쿠도
▁IF
▁크리에이터
▁이츠키
▁산체스
▁장기전
rew
▁성희
▁에티
▁쌈
work
▁ㄷㅏㄹㄹㅣㄴㄷㅏ
▁덤비
▁1957
ley
▁got
▁스피리
니치
벅지
▁격납
▁ㄱㅡㅂㅎㅏㄴ
▁마취
▁Und
▁장학금
▁feel
▁쩌
▁순조
▁역설
▁연성
▁망설이
▁뜬공
▁마키나
ASS
▁관하
▁네로
▁주임
▁Mark
▁크로노스
▁룽
▁Cap
▁Way
▁맨날
▁청문
▁기어이
▁시위대
▁아유미
hammer
▁수납
▁용왕
▁조세
▁ㅇㅕㄲㅇㅣㄴ
▁고모
▁his
▁에어리어
▁잽
형제
▁링컨
▁플랫폼
▁ㅉㅣㅈㅇㅓ
▁미달
▁레타
▁알파벳
▁ㅈㅣㄴㅎㅐㅇㅎㅏㄹ
▁조나
▁일찌감치
▁재무
▁who
▁사우디아
98
▁미용
▁얌전
▁노원
ster
▁공중전
▁수법
▁붉은색
▁키쿠
▁ㅇㅏㅍㄷㅜㄴ
▁감염자
▁임페리얼
▁갈구
▁쟁탈전
▁코로
▁대의
▁보급품
▁ㅅㅡㄹㅍㅓ
▁유수
▁Pol
▁투표율
▁구루
▁후카
▁도호쿠
▁성범죄
▁플레인
▁경순양함
▁ㄹㅑ
▁천연가스
▁투석
▁급상승
▁라이토
▁방영일
▁하시모토
▁에러
▁블루투스
▁김호
▁micro
▁불러오
▁영조
▁SKE
▁Val
▁Na
▁대변인
▁작물
▁브라이
▁Angel
▁신년
▁남아공
▁watch
ird
▁반달
▁터프
▁엘런
▁충주
▁인플레
▁개화
▁아프가
▁총재
▁치밀
▁쿠폰
▁시종일관
▁퍼니
48
▁남친
▁능욕
▁전복
▁활약상
▁Comp
▁몸체
▁프레드
▁아르메니아
▁비운
▁토카
▁음식점
▁복각
▁잣
선거
▁정경
▁역전재판
▁백지
▁입상
더스트
▁카터
▁바람직
▁오리콘
▁맞춤
▁봄버
▁왕건
▁ㄷㅡㄹㄹㅓ
▁해결책
▁변함
▁950
▁배수량
▁버퍼
▁지자체
▁금서
▁레테
▁옵스
▁성주
▁알코
▁며느리
▁바운드
▁아야노
▁의존도
▁알루미
▁구라
▁화보
▁그리폰
▁만악
▁베르나
▁남짓
▁장담
▁퍼트
▁무너
▁부토
▁무너뜨리
▁빽
피드
▁디에고
▁1947
▁090
▁미공개
▁시드니
▁덕택
▁알맞
▁전령
▁푸쉬
▁댈러스
▁민족주의
▁소주
▁절약
▁누락
▁Legend
▁복권
▁피쳐
▁Fly
▁토우마
▁근황
▁의류
▁경합
▁위태
▁효력
▁Stage
▁개더링
▁에어컨
▁카트리
▁Fall
▁엑셀
▁특권
▁허니
▁엘더스
▁화질
▁기각
▁하반신
▁상고
▁소탕
레톤
▁수족
ㅂㅏㄱㅎㅕ
▁윤성
▁잠식
▁이석
▁교무실
ura
▁스켈레톤
▁점포
▁화끈
▁일기토
▁애틀랜타
▁상임
▁치토
▁키시
▁멱
▁식인
stem
▁First
▁무패
▁선별
▁분과
ㄲㅏㄴ
▁!!!
▁갇
▁맞대결
▁빗나가
▁아프가니스탄
▁벼락
▁적기
▁희박
라비아
▁245
▁중순양함
▁수분
▁연기자
▁한성
▁Sam
▁호라이즌
▁예매
▁항우
▁수박
▁전경
▁중추
▁케니
▁깔리
무로
▁부디
▁빅토리
▁촛불
▁꼭대기
▁Perf
▁신민
▁주루
▁통역
▁이관
▁박병호
▁ㅎㅟㅂㅆ
▁미카엘
▁유교
▁life
▁ㅍㅕㄹㅊㅣㄴ
▁불분
▁상경
udio
▁엘릭
▁어설트
▁엑스맨
▁양평
▁ㄷㅚㄹㅅㅜ
▁빌헬
▁구비
▁재주
▁평정
▁마운틴
▁쥴
벨트
▁540
▁유한
▁자위
▁경전철
▁단타
▁웨딩
▁저항군
▁트라웃
▁로버
▁익명
▁차갑
▁234
▁그리스어
넘기
▁검도
▁코일
▁Free
▁가중
▁번영
트리스
▁FBI
▁비열
▁전념
▁좌완
▁폐하
▁조현
▁Final
▁생포
▁알몸
▁중론
▁추위
▁중공업
▁틀어막
▁Class
▁과잉
▁전염병
▁-!
▁판과
▁헤더
▁겸비
▁시연
▁행세
▁이유로
▁갑주
▁무소
▁이도
▁Break
▁부기
▁불분명
고생
▁총회
ㅁㅜㄹ
▁오바마
▁푸른색
▁만화가
▁알루미늄
err
▁Er
▁콩두
▁헌납
▁top
▁어쩌다
▁오카다
▁운임
▁성우진
▁손책
▁Spring
TH
arius
▁유다
▁파워레인저
▁소폭
▁오리지날
▁ㄱㅣㅅ
ling
레일리아
건설
치오
▁City
▁라지
▁세조
▁상승세
▁승승
▁ㄱㅣㄹㄹㅓ
▁440
캐슬
▁온전
▁언론사
▁스튜어트
▁반대쪽
▁내공
AGE
▁수뇌부
피어
▁~?
▁나카노
▁불가피
▁키사라기
▁카자마
▁Never
▁김구라
▁Down
▁미처
페어
▁로페
▁포메
▁무방비
▁ㄴㅡㄹㄹㅣㄹ
가요
▁막론
▁엠블럼
ux
▁덩달
▁진범
▁지명타자
▁ㅈㅓㅂㅎㅏㄴ
▁ㅃㅗㅂㅎㅣㄴ
해군
▁명실
▁갈아입
▁249
▁이문
▁Cor
▁GDP
▁MAN
▁아스타
▁쇼군
▁체내
yes
▁준장
소니
▁투르
▁갈아타
▁오우거
▁김제
▁슬래
▁아벨
▁자바
▁이니셜
만다
▁조니
▁쥬라기
▁엄폐물
▁하얀색
▁이시카와
▁ㄹㅏㅂㅅㅣ
▁헤지
▁뉴캐슬
tm
▁노프
▁수제
▁타지
▁겁쟁이
▁경비병
▁카라스
▁중파
▁린다
▁청주시
슬쩍
IVE
▁비평
▁머릿속
▁수혜
▁ㅈㅣㄹㅅㅜ
REME
▁Mon
▁사냥터
▁쫓아가
▁대전광역시
▁ㄲㅡㅌㄴㅐㄹ
▁ㅈㅓㅇㅎㅏㄴㄷㅏ
▁If
▁바드
그라드
▁메츠
▁스투
▁삿포로
▁명은
▁법조
▁질질
▁GOT
려보
▁복부
▁부우
▁선상
▁How
▁대리인
▁세가
고쿠
▁잔재
▁허술
ㅇㅢ
▁급습
▁루기
▁-.
▁벤츠
▁앤더슨
▁제복
▁후작
▁껴
▁물음
▁쌍용
▁우려먹
▁PRO
▁무안타
▁"..
▁BP
▁후세
▁도메
▁망각
▁송병구
블루
▁최원
▁열렬
▁자재
▁케로로
▁프리드
▁밀러
▁동급생
▁죄인
▁동유럽
▁분화
▁김정일
▁반하
▁사죄
▁평지
▁엠블렘
▁광폭
▁티라노
영수
▁베토
▁유죄
tain
▁사우디아라비아
▁어로
ause
▁나오키
▁검기
▁김신
▁지중
현동
▁니퍼
▁유체
IME
▁ㄱㅜㄷㅇㅓ
▁뚱뚱
▁판본
▁219
ㅁㅏㅇㅊㅣㄹ
즐리
erry
▁악수
▁체크카드
▁또래
▁AW
ㄴㅏㄹㅅㅜ
▁Sn
▁신격
▁인승
▁일개
▁창출
▁한승
▁화내
▁무리수
▁1914
▁Swe
▁자치령
▁ㅅㅗㄱㅇㅕ
제리
▁sk
▁직진
raft
칼리버
▁명백히
▁티거
▁1951
피온
▁9000
▁이형
▁Mem
▁226
iny
▁입당
▁공채
▁레니
▁연호
▁품종
▁마카오
▁안테나
▁ㅇㅣㅈㅇㅓ
▁맥시
▁건축물
▁서스펜
▁자유주의
▁편도
나시
▁짱구
▁세이부
라이언트
▁사복
▁로토
평균
▁나지
▁불발
▁알트
▁위저드
안군
▁밸브
▁엠마
▁저널
▁팰리스
▁시녀
▁현무
▁011
▁광동
▁수전
ㅇㅜㄹㄹㅕ
▁클라이언트
▁박히
▁ㄴㅔㄹ
▁번번
▁선후
▁악장
▁저음
영향
▁KCC
▁코우지
▁염동
신기
▁빈센트
▁신태
코스터
▁ㄱㅏㅇㅎㅏㅁ
재욱
▁베아
스부르크
▁성령
▁시프
▁정치력
ㄱㅐ
▁베레
▁청취
▁승계
▁순항
▁페달
▁국무총리
de
▁ㅈㅣㄴㅎㅏㄴ
리히
▁합금
▁띵
▁야스오
▁변속기
▁롤러코스터
▁곡사
▁그제서야
▁성품
▁한중
▁RX
ival
▁end
▁의뢰인
▁최형우
▁반납
▁숙지
▁끝없이
▁ㅎㅓㅁㅎㅏㄴ
▁주주
요리
▁마석
▁ㅇㅡㄴㄱㅏ
테라
▁토바
▁바알
▁위닝
▁ㄲㅏㄴㄷㅏ
▁꾹
▁ㄲㅜㄹ
▁노선도
▁1937
▁허벅지
▁베로
▁숨결
▁니즈
▁야인
▁ㅁㅣㄹㄹㅣㄴ
▁화가
▁하나님
▁전우
▁ㅍㅡㄴ
▁투여
74
▁오산
▁티모
ㄱㅎㅐ
▁APC
▁브래드
▁cont
▁빙글
▁난장판
▁밀접
▁서재
▁명왕
▁다이빙
▁신봉
▁만우
▁훈련소
▁그레이브
▁애시당초
RO
▁부끄
▁228
▁aqu
▁검색어
▁오스트레일리아
대표
▁하쿠
▁make
▁가늠
▁ㅎㅏㄴㄷㅡㄹ
▁읊
▁슬립
▁양양
▁큐트
김없이
▁오스틴
▁"'
▁예술가
▁샬롯
▁에버튼
다듬
▁이송
▁노라
▁서동
▁컬링
▁play
▁메가트론
▁크리스토퍼
▁EXTREME
ATE
▁폴라
테리어
▁224
▁코요미
▁375
▁Christ
▁포자
que
▁갇히
▁PT
▁디럭스
▁블로킹
▁베네치아
▁410
▁방망
▁ㅇㅣㄱㅎㅕ
▁선지
▁키치
▁요양
▁조개
▁세계수
▁강령
▁사생
▁설진
▁원상
▁233
소통
▁평준
▁의사소통
▁쎄
▁양말
▁들려주
▁버금
▁탄두
▁Hol
▁결단
▁말살
리즘
▁시메
▁펠트
▁행군
▁호각
▁제너럴
▁톱니
▁ㄷㅏㅇㅎㅐㅆㅇㅡ
▁춘추
▁part
▁ㄷㅏㄴㄷㅏ
▁김은
▁미도
▁보호자
▁애니플러스
22
▁ㅎㅗㄴ
▁애니메이터
모델
▁사츠키
ㄲㅇㅕㅆ
▁츳
▁소란
▁이강
▁라리
▁끊이
넌트
erg
▁착수
▁피그
ㅇㅗㅁ
ㅅㅔㄴ
▁얍
▁건의
▁이달
▁싱크로
▁연구자
▁ㅎㅑㅇㅎㅐㅆ
▁외장
▁칼질
ㅇㅗㄹㄹㅕㅆ
ONG
▁정무
▁야마자키
하늘
▁MIX
▁만우절
▁성시
▁쌍검
ino
▁경시
▁자택
성군
▁성원
▁캠핑
▁Club
▁반려
▁일생
▁애리조
idd
▁회유
▁허다
▁미약
▁스맥
▁험악
▁최하위
▁골짜기
▁러스트
▁스맥다운
▁KE
▁짓밟
▁리제
▁반죽
▁오보
▁again
▁어시
▁Cry
▁레전더리
ㅈㅣㅂㄴㅣ
▁중산
린더
▁래리
▁쇼타
▁사상자
▁그러다가
▁태후
▁몸싸움
▁과반
▁우먼
ya
썰트
▁위아
▁어썰트
▁에노
▁ㅂㅜㄹㅌㅏ
▁WHIP
▁뻔하
▁사찰
▁생계
▁착취
전함
▁개칭
▁걸치
이라
▁월터
▁들이대
▁판단력
임수
▁교목
가르드
▁아니하
▁잔소리
▁코러스
lo
▁슈리
▁악평
▁ㅁㅣㄴ
▁유승민
▁근위
▁북서
▁세카
▁시어터
▁ㅌㅓㄹㄹㅕㅆ
▁hp
▁고뇌
▁흉기
▁앤드류
▁레코
▁면도
▁수퍼
먼드
▁소프
▁스미레
▁슬로건
▁ㄷㅗㅇㅇㅣㄴ
▁폰트
▁황소
▁고안
▁간절
▁레볼루션
▁알코올
▁Come
▁라니
▁음력
▁차우
▁둔기
▁전패
▁heart
▁실탄
▁식별
▁귤
BY
▁오승
▁참모총장
▁ㅅㅓㄴㅈㅣ
▁대구경
일기
▁필적
▁편집자
▁찬사
▁동탄
▁ㄴㅏㄹㄹㅏ
하니
▁노홍철
HN
▁유원
▁레이카
살렘
▁KA
▁아르타
▁수산
▁순례
▁이장
▁진전
▁ㄷㅡㄹㅋㅕ
▁고철
▁매도
▁원성
▁ㄴㅗㅎㅇㅣㄴ
▁린이
▁무로
▁투수진
▁스테이크
▁증표
루살렘
▁악영향
▁윤종신
▁구이
▁성희롱
▁줄리아
▁카르텔
▁진기
▁항쟁
베르크
▁노획
▁은혼
▁겉모습
▁ㅂㅓㄹㅇㅣㄹ
▁절감
▁블랑
▁젠지
▁ㅈㅏㄹㅅㅐㅇㄱㅣㄴ
▁급여
▁편애
▁김종국
▁NORM
▁악세사리
▁never
▁쿄스케
▁이바
▁인원수
▁이탈리아어
▁백병
▁강서구
▁한복
이즈미
▁CIA
cy
▁린치
▁마사토
▁블레
▁포상
▁ㅁㅓㄹ
▁적과
폴리스
▁라이덴
▁PH
▁독도
▁안장
▁카오
▁미완성
자치단체
▁PM
▁설문
▁명확히
▁김한
▁제명
▁대도
▁어휘
▁뺑
일본
▁성소
열차
▁달래
▁호문
▁bb
▁치과
▁이메일
▁파탄
▁마우
▁미네랄
▁이에야스
공주
OUR
▁충원
사람
ORA
▁동결
▁류우
▁미우
▁관용
▁지하실
▁ㅈㅏㅁㄷㅡㄴ
걸음
▁일루
▁Will
▁긋
▁시정
▁옴니
▁티격
▁XC
aker
▁ㅎㅓㄹ
▁xx
▁쫓아내
▁Girls
▁NORMAL
▁환원
▁벳
▁Ah
▁어부
▁유키노
▁돗
▁화전
▁임재
▁성취
▁순차
▁루시안
▁콘테스트
▁정시
▁ㄸㅜㅀㄹㅕ
전대
회의
▁마이티
▁예루살렘
르슈
▁퍼플
▁체이서
▁깍
▁땜
▁쁘
ㄸㅓ
▁틈새
▁MY
▁브로드
ㅅㅏㄹㅇㅏ
anger
▁카모
▁has
▁차크라
▁카프
▁멩
▁신빙
▁코만
▁개리
▁그분
해야
▁본거지
▁컨퍼런스
▁평이
메리카
▁다마
▁밤중
▁데니스
▁동남아
관계
▁수료
▁김종민
onder
▁뜬금없
▁수사관
▁게재
▁부전
▁다이노
▁MUS
▁Sol
▁RB
▁실감
▁only
▁수렴
▁유부
▁1919
▁SEED
▁ㅈㅏㅁㄱㅕ
▁수당
▁랠
▁개종
▁연하
▁프렌드
▁밧줄
▁EXO
▁음악가
▁Best
NG
푸스
▁ㅊㅐㅇㄱㅕㅆ
▁뿌요
▁우대
▁각별
▁미코
▁채무
▁납품
▁경대
▁페이퍼
▁성공회
▁제네레이션
▁용호
▁ㅇㅘㄴ
▁올인
▁천진
▁포커
▁시리우스
▁몰입
▁찔
▁비서관
ball
▁메트
▁인테리어
osh
▁페미니스트
쩌둥
▁열광
▁Net
▁해설자
▁마오쩌둥
▁간첩
▁나주
▁외환
▁ㅅㅐㅇㄱㅕㅆㅇㅡ
팔로
▁볶음
▁쇼코
ㄷㅡㄴㅇㅛ
▁보크
▁첨부
▁지상군
▁아이젠
▁ㄹㅗㄴㄱㅏ
▁철혈
▁눈보라
▁Little
▁매입
▁활력
▁서큐버스
▁올리브
▁마자
▁Ind
▁뻐
▁미주
▁재차
▁짝퉁
▁217
▁나츠메
▁전쟁터
▁Dest
▁ㅅㅡㅁ
▁스커
▁장대
▁미식축구
65
UD
▁여중
▁옥타브
▁문과
▁트롤링
▁하남
세포
▁고아원
▁시미즈
▁남산
▁후지와라
▁이리스
▁우크
▁최연
▁능하
▁SMG
▁소나무
▁우크라이나
▁미스테리
▁OM
▁연마
▁ㅁㅓㅁㅊㅜㄹ
▁파주
light
▁ㄴㅏㅈㅊㅝ
오버
▁개전
▁해인
▁ㅁㅏㅅ
샤인
▁라파엘
▁억양
▁에너
디우스
▁스턴트
▁한국군
▁교원
▁red
▁스팟
▁오컬
▁초전
▁포메이션
▁곧장
▁투항
▁환산
▁미술관
▁카니발
고스
▁잠자
▁전곡
▁ㄱㅣㅅㄷㅡㄴ
▁약수
▁증강
▁초심
▁민심
▁배반
▁우의
▁호화
▁북동
▁1911
▁없음
▁월등히
▁ㅃㅗㅂㅎㅕㅆ
▁산전
▁주부
▁픽처
ANCED
▁KN
▁이보
▁우선시
▁슬라이더
▁ㄷㅐㄹ
▁낙서
▁부록
▁다듬
▁신드
▁전황
▁페트
▁소대장
▁메모리얼
▁겨누
▁연화
▁라이엇
▁데미안
▁서프
▁내용물
▁ㅈㅓㅇㅎㅐㅆ
▁물류
소년단
▁타쿠야
▁스콜피온
▁'~
▁은빛
▁궤멸
▁깜빡
▁덤벼
▁시술
▁here
▁교명
▁010
▁켐
월드
ASY
▁과열
▁정근
▁정민
▁Take
▁폐업
▁큰일
▁베이커
HC
니컬
▁낭만
▁우치하
▁301
▁소품
eek
▁di
▁로어
▁추기
▁피노
▁아라시
▁플랜트
와르
▁고요
▁체르
▁Mix
▁수년
▁브룩
▁사드
▁생리
▁Inv
▁복수심
▁패하
티티
▁악연
▁마스터즈
▁기교
▁ㄷㅗㄹㄹㅣㄴ
▁정승
▁오아시스
▁뻔뻔
▁나리타
▁서태지
▁조짐
▁액수
▁GPS
세움
차리
▁노노
▁검거
▁str
▁익산
▁정선
▁한판
▁let
▁난쟁이
▁나성
▁소셜
▁Single
▁조선소
▁부상자
▁야나기
▁ㄲㅡㄶㅇㅓ
▁하노
▁오컬트
38
▁발령
▁남아프리카
불리
▁gu
▁요지
▁NFL
▁래빗
IO
▁레닌
▁크류
▁Aut
▁Ult
▁몰아붙이
▁비터
▁야구단
▁내레이션
▁ㅎㅏㄹㄱㅔ
데라
oom
▁앵글
▁BMW
▁시끄럽
▁세터
▁액스
▁다량
▁헌트
▁에이미
▁\]
▁aquarius
▁무트
▁화합
▁대기실
▁연장전
▁ㄴㅏㅊㅅㅓㄴ
▁ad
▁고드
▁고참
▁음료수
▁초라
▁세련
▁유창
▁252
▁빌헬름
▁딸리
▁찍히
▁어긋나
▁강정
▁담원
▁변모
▁게르만
▁유니버
▁방탄소년단
▁세바스
▁야구부
▁미움
▁패권
▁ㅌㅡㄹ
장치
▁세이야
▁ADVANCED
▁특색
uture
▁ㅂㅜㅌㅇㅣㄴㄷㅏ
ena
▁미하일
▁프레데터
▁굴림
▁맹수
▁반주
▁저축
▁하계
▁뮐
lex
▁영국인
▁타카히로
▁광란
▁냉혹
▁지효
▁허약
▁CGV
▁체류
▁승하
▁뉴타입
▁부적절
▁사이비
▁스트림
▁타카오
▁러시아군
▁사대
▁카즈미
▁mA
▁출입구
▁클러치
ㅅㅡㄹㄹㅓ
시장
▁우디
▁FO
▁상반
▁업자
▁촉진
▁피파
▁Real
32
▁괴이
▁사주
▁해밀
비지
▁로켓단
▁Storm
각형
▁제후
▁티르
▁Dec
▁어르
▁환장
▁페라리
▁YG
▁드미
▁마방
▁재상
▁512
▁골수
▁라다
▁자백
▁재보
▁지탱
▁통찰
▁둘째치
▁통솔력
▁정국
ital
▁사카이
▁코미디언
성어
▁껌
▁형벌
▁를
▁독단
▁하로
▁한눈
▁신천
▁정관
▁이트
▁ㄴㅡㄴㅋㅓ
▁촉구
▁대성공
교사
▁닛산
▁우여
▁Med
▁카르타
▁스냅드래곤
▁퍼블
▁메커
▁호위함
▁알라딘
▁아카이브
ano
▁공직
▁나아지
▁저상버스
▁백두
▁EPL
▁백종
▁2022
세우스
▁이동기
▁오자
▁광화문
▁헤이세이
▁예민
▁|[
▁요령
▁멘토
▁명지
▁최장
▁케네
▁파기
▁Def
▁Gun
▁니르
▁도넛
▁속임수
▁초계
니케이션
▁켓
▁항성
ㄷㅏㄹㄹㅕㅆ
▁녹스
▁로젠
▁폐인
▁교제
▁ㄱㅣㄹㄹㅐ
▁밀가루
▁하야테
▁애플리케이션
▁거창
▁커뮤니케이션
ude
▁Hero
▁의거
▁재발
▁아틀란
서리
요이
▁츠네
▁버금가
▁샤르
▁츳코
▁파나
▁하원
▁스탬
▁포구
▁Zero
네즈
▁야요이
▁섬뜩
▁DSP
▁다람
▁youtu
공학
레오
▁착공
▁나오미
▁스케이트
대왕
모트
▁Rad
▁프란츠
▁포식자
▁정찰기
▁별거
DDR
▁사이먼
UG
▁가즈
▁김시
▁운동가
경민
덱스
마사
▁베토벤
▁서유럽
▁EXTRA
▁슬프
▁Warhammer
▁ER
▁강급
▁시놉
▁학파
▁윤석민
▁크래시
▁ㅁㅏㅌㄱㅕㅆ
소타
▁산출
▁신승
apan
▁수차례
러미
▁HR
▁발하
39
노트
▁사춘
▁자음
▁절도
▁ㄱㅕㄴㄷㅕ
▁ㅇㅕㅅㅂㅗㄹ
▁손길
▁토드
▁390
▁Cal
ett
▁승낙
▁선샤인
▁정착지
▁시놉시스
▁Ry
ning
▁미네소타
▁아토
▁야가미
▁제때
ㅁㅜㄹㄹㅓㅆ
려우
▁QP
▁격변
▁꼬박
▁부설
▁텐트
▁227
폴트
▁집요
▁급속도
▁그딴
▁클럭
▁ㅍㅜㄴ
▁Park
▁Ag
▁왕성
▁보이즈
얼거리
lection
▁총점
▁송곳니
▁탐험가
▁틀림없
▁자릿
ㅟㄹ
aid
ler
▁레터
▁은색
▁재탕
▁횡령
▁BLACK
unk
▁사하
BE
▁암석
▁폭언
unt
▁보그
▁욘
arm
부리
▁처방
▁스프레이
▁Sweet
▁경관
▁Mbps
지우
▁공안
병기
▁대장간
▁데이지
▁라티
▁매료
▁문관
▁여차
ours
irect
une
▁크로스오버
쩐지
▁관습
▁깨우
▁어쩐지
▁트렌드
▁1934
▁경부선
▁교가
▁htm
▁샌드위치
▁ㅇㅝㄴㅊㅣ
▁멜리
▁웍스
▁표준어
▁등용
▁브록
▁any
▁when
▁급증
▁주름
▁John
조림
▁풀이
▁오거
▁예하
▁태백
▁시부야
▁마사히로
▁우등
▁거느리
▁추격전
곡절
▁투영
▁시급
▁ㅁㅜㄷㅎㅣㄴ
▁노보
▁툭하면
▁우여곡절
oj
▁만신
▁예거
리스크
▁Gal
ouble
▁알프레드
▁루팅
▁오정
▁평하
▁동이
▁합숙
▁양방향
▁콴
▁엄연
▁홍련
▁Space
▁다라
▁소홀
▁거액
▁사춘기
▁아랍어
ather
나타
▁만장
▁ㄸㅢㄴㄷㅏ
44
▁다채
▁돌변
▁샤이니
▁알아차리
▁미시마
▁youtube
▁압승
▁쿠보
▁정보원
▁몽환
▁세균
▁Hel
▁ㅇㅡㄹㅅㅣ
▁롱주
▁백악
▁휴지
▁대지진
▁토치
▁레이브
▁밴쿠버
▁보좌관
▁오소
▁쿠퍼
▁비밀리
▁신노스케
ㅁㅜㄹㄹㅓ
▁서북
ords
▁파이팅
▁쇼우
▁자습
▁내걸
▁차고
▁231
▁리비
▁ㄴㅓㄼ
uct
br
▁나크
▁장민
▁보리스
숭아
▁최민
▁분양
▁뽐내
▁노리코
▁료코
브론
▁오현
▁자객
▁치요
▁페가수스
▁LEVEL
립스
▁컷인
▁홍수
▁Feel
살이
▁우터
▁정몽
레마
oe
ames
▁Bu
▁대련
▁아틀란티스
▁ㄷㅏㄹㅎㅐㅆ
TER
▁가야
▁위임
▁요가
▁냅다
▁숙제
▁연막탄
▁연대기
END
▁주재
▁op
▁동맹군
▁아오키
▁오라클
▁코스모스
▁반쪽
▁서바이버
▁Je
▁조슈아
ㅁㅐ
▁파비
▁Kim
▁HT
▁Say
▁구스
▁효용
KO
로리
▁난도
▁윤영
▁에디터
▁mAh
▁쿠루미
▁ㄹㅏㄴㄷㅏ
▁핍
▁고영
▁린드
▁ㅂㅜㄹㄹㅣㄴ
▁진명
▁관람객
▁심복
▁제련
▁ㅅㅓㄴㄱㅏ
▁코타
▁함경
yr
▁영수
▁개머리
ople
▁ㄲㅞ
▁정주
▁초구
▁브라우저
▁깐
▁교활
▁안즈
▁흡입
▁구스타
▁나가사키
▁사칭
▁인삼
▁정명훈
▁코스모
▁옅
▁하가
▁주변인
▁햐
▁유상
▁타타
▁판명
▁포섭
▁텝
▁보름
▁자물
▁옥수수
▁need
▁PG
▁min
▁베가스
▁수송기
▁은신처
▁뜻밖
▁어떡
▁오사무
▁하즈
▁계약서
어뜯
▁로더
thing
▁사념
▁부착물
▁피고인
▁명심
▁트리니티
개골
▁금단
▁아날
▁용족
▁약품
▁웬디
▁나카지마
▁공적
▁출진
▁자물쇠
▁유족
▁남녀공학
▁이부키
▁대첩
▁요하
▁Ret
▁ㄷㅏㄹㄹㅣㄹ
▁라몬
vil
▁근로자
▁협의회
▁은근슬쩍
▁안톤
▁용납
▁경상도
▁최준
▁가르시아
▁낙사
▁ㅁㅏㅇㅅㅓㄹ
거스
▁거침
▁근방
▁마즈
▁방주
▁설립자
▁ㅎㅡㄹㄹㅕㅆ
▁두각
▁Sou
▁법령
▁비견
▁Dem
▁중대장
▁권하
▁바카
동물
▁성물
▁실컷
후미
▁병합
▁지저
▁피쉬
소연
▁카나코
▁프리킥
▁투지
리아스
▁Tour
▁겸임
곡리
자스
uel
▁고마
▁멱살
▁일간
▁젓
▁아와
▁GTX
▁간직
▁주점
▁JYP
▁ㅈㅗㅂㅎㅕ
ODE
▁마쓰
▁도봉
▁햄튼
▁컬트
▁프리퀄
▁조공
▁청문회
▁잭스
▁소양
▁손발
▁더러
▁구식
▁후진
▁레베카
비슷
▁달려드
▁즐거움
사노
▁견고
▁막스
▁여제
ㅃㅡㄹ
▁조련
▁흑발
▁를르슈
나우
▁골절
▁Kill
aser
▁430
▁부포
▁코아
▁238
▁스타킹
▁짓거리
▁페드로
▁ㄱㅏㄹㄱ
▁블룸
▁이그
▁조동
▁LOL
▁모리스
▁탤런트
▁ㄲㅡㅌㄴㅐㄴ
▁사루
▁하강
▁역마
▁피통
▁스틸러스
분투
▁비화
▁재기
▁크레인
▁둥글
▁발열
▁전광판
▁아누
▁꼬맹이
▁Orig
▁저질
▁노동조합
▁ㅂㅓㄹㄹㅕ
▁버팔로
▁치솟
린트
▁some
태격
▁백스
▁정부군
▁티격태격
arth
▁동남아시아
▁드럼매니아
▁폄
질기
▁덮치
▁나이지
▁나이지리아
설수
▁지네
▁끈질기
ㅎㅇㅏㅆ
▁ㅆㅏㅎㅇㅏㅆ
▁ㅂㅏㄱㅅㅏㄹㄴㅏㄴ
뚜기
▁씌우
▁평면
▁후사
▁ㅅㅐㅇㄱㅏ
▁규율
▁ㅇㅕㅆㅇㅓㅆ
▁비우
▁내쫓
▁요요
▁ㅅㅐㅇㄱㅏㄱ
▁명계
▁지출
▁포커스
▁플리트
▁횃
▁236
▁KBL
▁마일리
▁셔먼
▁치어리
노프
비야
▁카로
▁포이즌
ner
▁스메
▁개머리판
▁Great
▁Beat
▁어정
교도
▁어려우
▁남원
▁위아래
▁지중해
▁치아키
▁엑스칼리버
ㅊㅜ
메이트
▁매튜
ㄷㅐㅆ
onna
▁근육질
▁부대장
ormal
▁견습
▁변기
다카
제트
▁입점
ㄱㅎㅣㄹ
▁경멸
▁초밥
▁톰슨
▁사일런트
▁WORLD
▁동률
▁265
▁참치
▁매크로
▁Story
▁포츈
▁덴마
▁만년
▁이규
▁연주자
▁마로
▁PERF
▁them
▁서남
▁코라
ways
▁지원군
▁짭
▁도가
▁이북
UND
▁뫼비우스
▁사오
▁라카
▁Luc
▁격납고
▁로밍
▁올레
▁GC
▁복식
▁르블랑
▁목장
▁파라오
▁열화
▁원가
▁옐로우
부수
마니
▁사이다
슬로
▁난데
▁사절
37
▁김건
▁껴안
▁하피
iful
▁똑바로
▁정근우
팽이
▁사서
▁철구
▁타깃
도어
▁<<
▁날카
▁MAD
▁원정대
▁통통
▁WWF
▁프랑켄슈타인
▁신야
▁마츠다
▁앞머리
▁넥스트
▁Tech
▁닳
▁한인
▁주유소
▁티베트
▁경기관총
리역
▁방아
▁엘라
▁끌어안
▁마커스
▁신스
▁미니건
▁표류
▁메커니즘
▁장문
▁her
▁감찰
▁백과
▁3500
▁싯
상부
▁떨치
▁수트
▁인턴
▁미끄
▁위안부
▁팔다리
입구역
▁스트롱
▁Album
▁식구
▁아로
▁원사
ental
fl
▁저술
▁NAS
▁이리야
▁When
▁ㄲㅐㄴ
▁세이프
▁ㅆㅡㄹㄹㅕ
▁파병
▁사이킥
▁픽처스
▁ㄱㅓㄹㄹㅓ
▁ㅅㅏㅇㅎㅐ
ANG
주니어
▁다비드
▁아스가르드
▁개관
▁빼내
▁코코로
▁선율
▁양지
▁방탄복
▁편찬
▁ㅁㅓㄱㅎㅕ
▁쿡
▁테디
▁바바리
▁ㄱㅡㄱㅎㅏㄴ
슐리
▁노미
▁로니
▁피스톨
▁이모티콘
▁로아
▁폭죽
▁달려오
▁리비아
문화
▁엘사
▁기대감
ㅇㅣㄹㅇㅡ
ations
▁놓이
▁하르트
▁Step
▁ㅎㅐㅆㄷㅏ
천리
▁루가
▁일파
▁불굴
▁DIO
ene
▁뒤덮
▁아브
ㄱㅡㅅ
ㅇㅓㄹ
▁시속
▁쿠즈
▁한국식
▁232
▁GE
▁가희
ㄷㅐㄴ
▁블러디
▁램지
▁형주
▁강민호
▁밀리터리
포동
▁대나무
▁ㅎㅜㅁㅊㅣㄴ
▁즌
▁조라
▁ㅎㅐㅆㅇㅓㅆㅇㅡ
배기
▁마개
시간
▁구실
▁집게
▁군세
▁마성
실록
OSS
▁정설
▁로데
▁판다
▁휘둘
▁케네디
▁풀타임
사전
▁앙쥬
▁간과
▁심영
▁일전
▁she
▁칼데아
구멍
▁결번
▁이윤열
▁내신
▁상디
▁기울이
▁로드리게
▁홍차
▁라르
▁막시
▁상병
▁어진
▁출국
▁Death
▁ㄱㅕㄴㄷㅣㄹ
▁서슴
▁서강
전쟁
▁갈비
▁질럿
ait
▁공구
▁맨서
▁숙이
▁항소
▁희한
▁정준하
▁조건부
▁Champion
▁땅굴
▁사우디
▁순전히
통일
▁김장
▁더듬
▁조부
▁암묵
▁괄호
▁실기
▁의병
▁체하
▁호루스
▁드로이드
▁금빛
▁볼링
▁공연장
▁한없이
▁급감
▁레티
▁변속
▁옥스
▁일괄
▁진중
body
▁공격대
▁노어
▁두개골
▁외화
▁행렬
▁아디
페르노
▁세리카
▁1931
그래피
▁대북
▁세인
프스
▁바빌
▁의약
▁sec
▁산산조각
▁하네
▁인기가요
▁양현종
▁인페르노
▁공평
▁마레
▁돌려받
▁Line
▁서경
▁510
▁다르크
▁ㄴㅗㅎㅊㅕ
▁ㅁㅜㄹㅇㅡ
▁art
▁안영
▁비타민
▁물결
▁숙적
▁기껏해야
▁수첩
▁엽기
▁족족
▁팔아먹
▁ㅊㅣㅇㅎㅏㄴㄷㅏ
▁힛
IDE
▁음파
▁Tra
뉴스
▁원산
▁투혼
▁푸딩
▁삼국사기
▁대영
▁언뜻
▁수식어
▁사이렌
사무소
ume
▁소굴
▁재결
▁최승
AE
▁테드
▁혼잡
▁금세
▁루디
▁사학
▁SNK
레스타인
▁토모코
▁온건
▁위드
▁전위
▁Bus
rough
주곡
투사
▁벨리
▁착안
▁카툰
스틱
▁독살
▁찻
게일
당기
▁ㄴㅗㅎㅊㅕㅆ
▁도맡
▁도면
▁다이어
▁퍼레이드
예프
▁무서
▁플롯
▁TRA
▁ㅍㅕㄹㅊㅣㄴㄷㅏ
▁."
▁얼른
▁Apple
▁이클
▁ㅈㅏㅂㅎㅣㄴㄷㅏ
ESS
▁1935
orever
▁닷컴
▁머독
빙글
욕장
▁박원
▁푸시
▁비행장
▁ㅈㅗㄹㄹㅏ
▁XBOX
하임
▁탈락자
84
▁남서
▁넬슨
▁참수
▁외교관
▁ㅅㅏㅁㅋㅕ
▁Electr
▁총애
▁매혹
▁밀짚
▁엘더
▁747
시즘
▁뮐러
▁이코
로그램
▁타츠미
▁클래시
▁1700
▁이크
바야시
INAL
▁리더십
▁종로구
▁대구광역시
▁재킷
▁천자
▁파커
▁수없이
▁워페어
마을
▁약사
▁조각상
▁족보
▁니콜라
▁나즈
▁범하
▁곧이어
▁구가
▁흑색
▁타사
▁Who
▁프리티
파일
▁셀렉
▁ㄴㅡㅈㅊ
▁콘스탄티노
▁장발
ral
▁불륜
▁왕정
▁육신
▁증차
▁about
▁ㅃㅣ
▁다지
▁디나
ander
▁래더
▁SUPER
▁철자
▁LCS
슬라비아
▁유고슬라비아
▁305
▁RT
▁SB
▁공모전
▁케일
▁승승장구
▁노우
▁이불
▁모로코
▁신뢰도
▁에리스
uss
▁2400
▁섬머
ㄷㅣㅈㅎㅕ
▁니지
▁원안
▁ㅈㅓㄴㅎㅏㄴㄷㅏ
▁나선
▁에델
▁에볼루션
▁캡쳐
▁640
법인
▁양의지
▁데스노트
▁ㅇㅣㄱㅎㅣㄴ
▁Mal
펙터
▁괴짜
▁번거
▁비방
▁역적
▁자일
▁이민자
▁부러지
ㄱㅏㄹㅅㅜ
상스
▁횃불
▁이바라
▁화성시
틀린
▁이따금
▁권혁
▁쿠토
lease
▁국지
▁훌쩍
▁하야시
▁딱지
▁존기
▁325
▁Dead
▁타케우치
▁포박
self
▁사오리
▁조성주
▁콜로세움
▁댁
▁러프
ortex
▁Pass
▁무마
▁자결
▁교묘
▁무례
▁come
▁지석
▁불계
▁사벨
▁공전
▁말라
▁장화
▁아오바
▁자하
덴티티
▁히로미
▁아이덴티티
▁설날
▁삼각형
▁ㅅㅗㄱㅎㅐㅆ
▁NV
▁꼼꼼
▁양육
▁이클립스
▁EXPERT
▁달랑
31
▁팔레스타인
▁신진
▁실물
▁조경
▁ㅊㅏㅆ
▁뛰어다니
리언
▁거너
▁애덤
▁노기자카
▁쾌락
▁셧
▁스캇
ines
▁추기경
▁아날로그
▁오클랜드
autiful
▁절제
▁229
▁EASY
▁바퀴벌레
▁변칙
▁채권
▁모사
▁추축
▁개표
▁환율
ㅇㄱㅣㄴㄷㅏ
awn
다이스
elie
▁카자흐
▁Green
▁ㅃㅓㄴㅎㅏㄴ
▁Ant
▁합격자
▁League
▁백호
▁맥크리
▁아이슬
▁ㅈㅑ
▁극동
▁뜨겁
▁물들
▁경비대
▁전면전
▁Home
▁천왕
▁첩자
▁Lee
▁코만도
▁샛
▁쟤
▁각본가
▁개인차
▁렴
▁급소
▁바가지
▁1910
▁디스트로
▁노련
▁무르
▁완승
▁아이파크
▁Wanna
▁기폭
▁연못
비어
▁Tem
▁선량
▁혈압
▁시티즌
▁TEAM
▁IEM
▁Tom
▁페널티가
▁독립운동가
▁디스트로이어
▁초연
▁황천
▁지니어스
윤수
▁바운
▁황녀
위원
▁매기
▁시우
▁파충
▁사고방식
▁ma
▁고척
▁윤지
▁과하
▁솔루션
▁초음
▁코퍼
▁정신기
▁ㅅㅣㅂㄴㅣ
▁큘
▁앙상
▁바사라
▁장시간
▁EL
▁동자
▁완주
IAL
▁스구
▁전주시
▁ㄴㅛ
▁가신
▁발효
▁오기
▁인계
▁자행
▁감격
▁총수
▁토머스
ㅎㅏㅂㄴㅣ
▁굳히
▁악재
▁스트링
▁da
▁각광
▁죠셉
▁스펙트
▁ㄴㅜㄴㅂㅜ
▁겨냥
▁각주
▁샤인
▁사토미
▁일찍이
▁흑기사
▁1918
▁송신
▁아키코
▁잔존
▁Del
▁미츠키
eter
▁사업가
▁이하일
▁무구
▁다리우스
▁된
트릭
▁ah
▁NAT
▁ㅈㅜㄹㅇㅣㄴ
창민
▁껍데기
▁기색
▁새턴
▁수만
▁후리
▁제각각
▁컬쳐
리카와
▁GAME
▁프라모델
▁가온
▁단도
▁이효
▁황폐
▁예비역
ily
▁sw
▁랠리
▁이어주
▁마구잡이
▁비들
▁하얗
▁날카롭
▁굳건
▁트와
▁검출
▁하루히
▁아이슬란드
▁Friend
▁마천
▁아우구
▁쏙
훈련
▁밀라노
볼트
▁노을
▁무예
▁Cha
▁과부하
▁분실
▁나오토
▁백종원
▁사이키
▁시즈쿠
아르
▁라나
▁히키
▁룰렛
▁장지
▁원로원
▁히데키
츠미
▁이산
▁종속
▁선호도
▁용인시
▁스쿠
▁실비아
▁Level
▁BMS
▁심해
▁호조
▁승자전
▁키네
▁무리뉴
▁일어서
백호
▁건달
▁왼발
▁코쿠
▁AAA
68
▁스무
▁팽팽
▁강대국
▁모자이크
▁마니아
▁시그널
ㄷㅏㅇㄱㅕ
▁ㅇㅝㄴㅅㅜㄹ
▁Univers
▁무토
▁추대
94
ves
▁비어
▁마리나
▁넛
▁박동
▁신룡
onic
▁Chap
문서
rol
▁ㅁㅏㅈㅊㅜㄴㄷㅏ
▁이연
▁Pack
날리
▁숙박
▁중심부
▁Mac
바탕
▁얌전히
더미
▁말뚝
▁미분
▁유괴
▁기념일
▁자릿수
▁복판
▁라이저
▁북벌
▁품목
▁버크
▁장영
▁평온
▁하룻
▁장진
▁쫒아
▁에그맨
▁에비
▁우즈베
▁혹시나
마드
▁망신
▁이큐
ider
▁무법자
▁디셉
ISS
▁비틀즈
▁그레이스
▁캅
해머
▁한미
▁IMF
▁스코어링
bsp
▁메우
▁신영
▁야유
▁들이받
▁지도부
▁후타바
▁오도
▁자선
▁물어뜯
▁AO
▁로건
▁설교
▁질책
▁토착
▁bit
▁타이가
▁ㅂㅏㄴㄱㅏ
ouch
▁사이코패스
▁갉
▁골격
▁에라
▁TBS
▁ㄱㅜㄹ
▁박진영
▁hell
▁머큐
▁영도
▁Young
▁미야코
▁제국주의
▁강국
▁타코
▁로스쿨
▁타오르
ible
▁사보
DER
▁공격진
▁맹렬
▁요크
▁251
▁렬
▁코피
▁번쩍
세이돈
사관학교
▁포세이돈
▁ㅁㅓㄱㅇㅣㄹ
보잡
▁간수
▁대물
▁리라
▁김상수
72
▁허접
▁결선
▁당부
▁레츠
▁불곰
▁듣보잡
▁발사체
▁글래스
▁마츠리
alent
▁디언
▁재래
▁NXT
▁사카키
▁무궁화호
▁뎁
▁돌기
▁이를
▁레일건
my
▁컨버
▁쿠노
▁알제리
▁Japan
▁hats
▁ㅂㅜㅌㅇㅣㄹ
▁뱃지
▁결정력
▁조준기
▁성계
▁재계
테면
▁컵스
▁ㅉㅣㄴ
▁아쉬워하
▁일회
▁nbsp
ㅇㅏㅅㄱㅕㅆ
▁DL
▁조만
ㅇㅗㄹㄹㅣㄴ
▁라키
▁벼슬
▁정액
ㅂㅘㅆ
▁이를테면
▁ㄷㅙㅆㅇㅓㅆ
▁대칭
▁클리프
▁버지
▁황인
▁ABC
▁스릴러
▁ㅈㅜㄱㅇㅣㅁ
▁기권
▁단호
▁하오
ㅊㅜㄹ
▁아이카
▁발랄
▁야미
▁갈라지
▁가관
▁잠정
▁their
콜로
▁백설
▁태반
ㄴㅓㅁ
▁정신병
▁Full
▁맥도날드
▁빙글빙글
▁케이스케
▁짠
ubl
▁외동
▁실격
▁일컬
마이트
▁루시우
▁조종당
▁발포
▁한류
▁제이콥
▁제이미
▁에마
▁자초
▁핑거
▁시게루
▁유희열
▁ㅍㅜㄹㄹㅣㄴㄷㅏ
▁신재
▁휘둘리
▁!!!!
▁Champions
▁분대장
St
ha
▁걔
▁강북
▁ATM
▁구축전차
▁고군
▁차차
▁독소
▁ㄱㅔㅆㄷㅏ
leep
▁Que
▁POWER
▁660
▁스트레인지
플러
▁살피
▁ㄱㅗㄹㄹㅏㅆ
by
▁560
▁블리치
▁밀짚모자
▁놀림
▁상수
▁제동
▁ㄴㅗㅎㅊㅣㄴ
▁속출
▁마르크스
▁묵묵
▁완력
icle
▁ㅈㅣㅁ
▁순발
▁저편
▁부르크
선스
▁느와르
▁격분
▁바그너
에트
▁츠지
▁홍익
일라잇
▁트와일라잇
▁반신
▁시커
▁765
OTH
▁약탈자
▁프리랜
▁계책
▁매뉴
▁이남
▁빈민
▁펠레
▁스테판
▁조지아
▁ㄴㅓㅁㄱㅣㄴㄷㅏ
▁서주
도니아
▁순발력
▁어웨이
press
▁라이선스
구석
▁전조
▁hatsan
▁포제
▁바닷가
ement
▁노지
▁정가
키오
회전
▁펑펑
독스
▁마담
▁res
▁루시아
▁조선인
헤드
▁깃들
▁시이
▁켈트
▁포톤
▁리투아
▁소리치
▁리투아니아
▁크리스티나
▁개헌
▁셰이
▁신검
▁윅
ㅂㅣ
▁특혜
▁몰아치
▁카이바
▁뒤엎
▁안대
▁에지
▁치세
▁피시
▁ㅋㅐㄹ
▁ㅋㅋㅋ
▁노려보
▁서스펜션
▁주저앉
▁눈길
▁황재
▁사토루
IF
▁메기
▁형법
gg
제품
트니
▁어설프
▁이타치
▁스타더스트
▁럿
▁분식
▁혐한
▁황색
▁레진
▁살벌
잣집
▁관세
▁루돌프
▁ㅇㅕㄹㄹㅣㄹ
로트
▁제아
▁척추
▁콩고
▁동호회
▁마르셀
▁잠자리
▁반반
▁퇴임
▁바깥쪽
▁불량배
▁아이오
매기
▁모선
▁버들
▁신해
▁탁구
▁역행
▁==
▁심볼
▁주권
▁피콜로
▁사이클론
▁칵
송이
▁건네
▁다이너마이트
▁소고
▁여군
▁ㅌㅡㅁ
▁승용차
▁ㅁㅜㄲㅇㅣㄴ
▁남코
▁ㄷㅜㅁ
▁로렌스
▁일평균
▁호타루
도나
멘션
▁-,
▁낙동
▁보류
▁스도
▁잔잔
▁큐라
▁Ele
▁디멘션
▁미우라
▁이면
수염
▁des
▁덧붙이
▁마음먹
▁티아라
▁레인저스
▁업소
▁징집
▁길가
▁리빌
▁재일
▁237
▁기형
▁쫓겨나
▁GA
▁자그마
▁호시노
삭스
툴루
▁서산
▁성운
▁야오
▁오줌
레이브
▁히브리
바인
▁상반신
▁끼얹
▁농도
▁분출
▁송정
▁단축키
▁르네상스
▁OT
▁인제
▁어정쩡
▁브리스
▁동독
▁모조
▁희소
▁밀수
수아비
▁허수아비
▁창시자
▁Shad
▁가차없이
▁20000
벌이
▁왕세
▁ㅁㅔㄹ
▁레이팅
▁수호신
라이어티
태인
▁경산
▁매매
▁아카시
▁클라라
▁긍지
▁대항해
▁버라이어티
▁가격대
▁짜장
보스
▁DH
펠러
▁설리
▁송지
▁244
▁마라톤
▁섣
▁금정
▁발당
▁생소
▁절실
▁지바
▁쿠지
▁판교
▁소방서
▁로트
▁서커
▁차징
▁알고리
▁박건
▁이반
ㄸㅓㄹㄲㅏ
uj
▁요네
▁티오
▁Mad
ㅉㅏ
▁하룻밤
▁넷째
▁문파
▁살포
▁ㅅㅗㄴㄲㅗ
▁NMB
▁웬리
▁찬란
▁심부름
▁아이코
▁스노우볼
▁아구
▁은인
▁김광현
거래
▁감마
▁스타터
▁프리랜서
▁난징
▁장자
▁충이
▁상층
▁앞부분
▁ㅈㅏㄱㅇㅏ
▁TSM
▁유이치
▁피어스
▁도래
▁연장포
▁MUSIC
▁지브
ground
▁파라다이스
▁ㄱㅓㄴㅁㅏㄴ
▁명치
▁살육
▁가발
▁경제력
▁이광수
▁하운드
▁패러독스
▁여운
▁헤카
▁활발히
▁꽃잎
▁성의
▁오웬
▁아사미
▁ㅠ
▁도살
▁Att
▁타카미
▁헤드폰
▁근친
▁브금
▁제천
▁코니
ori
▁람보
▁SUV
▁노미야
▁들려오
▁다이애나
▁ㅎㅡㄴㅊㅣ
▁호르몬
미트
▁뉴비
▁수기
▁Mel
▁반년
▁유투
▁환술
▁선단
▁그렌
▁양분
▁Mil
▁사나다
▁시트콤
▁html
▁ㄷㅏㄹㅎㅏㄴㄷㅏ
▁발도
▁008
▁ㄷㅏㄹㄹㅐ
▁ㅇㅓㄺㅎㅣㄴ
▁아우라
▁돌이
▁반입
▁봉투
▁주화
▁boy
▁레이서
▁로미오
▁쿠사나기
▁아르테미스
폭풍
▁모차
▁박현
▁ㅈㅓㅇ
관리
럴드
▁248
▁아키야마
▁넷플
▁매춘
바위보
▁넷플릭스
▁가위바위보
▁향신
▁정상급
▁금천
▁메사
▁두루마리
▁애착
▁특례
매김
▁세속
▁조승
▁김재환
▁크라이시스
▁늄
대군
▁일면
▁직종
▁264
▁카미야
▁강진
▁결속
▁야루
▁라이스
▁한문
▁펠릭스
▁알고리즘
▁타나
▁노태우
▁Mer
▁아라이
▁자리매김
▁하세가와
hn
▁미역
▁HKT
yo
▁쳇
▁ㄱㅏㅄ
▁배틀로
ㅇㄱㅕㅆ
▁ㅁㅕㄴㅊㅣ
▁아사쿠라
▁발병
▁한라
▁자이로
▁쪼개
▁팬더
▁사타
▁외무
▁릴레이
▁국보
▁니티
▁곡괭이
▁1933
▁압둘
▁센고쿠
▁스크랩
▁시베리아
▁일렉트릭
▁파우스트
▁명절
▁호밍
▁라이브러리
▁242
▁이재명
▁전라도
▁1917
산리
▁내무
▁포신
플라이
▁ㅉㅣㄹㄹㅕ
▁지원자
▁클로이
떨어지
스코
▁속죄
▁바이트
▁유린
▁짬뽕
▁약혼자
▁광교
▁판넬
총사
▁쿠우
▁ESP
▁펌웨어
▁Games
▁다분
▁덤블
▁연두
▁지드
▁추론
▁워해머
▁동성애자
▁통폐
▁줄리엣
▁과거사
▁탐지기
▁There
던지
▁체면
▁!!"
▁Lun
▁ㅆㅜ
▁디바인
▁ㅋㅕㄴ
▁카나메
▁겐지
▁냉철
▁망원경
▁목욕탕
▁Easy
67
▁콜트
▁인조인간
고로
▁불릿
▁퇴직
▁포터블
▁르브론
▁조나단
▁크툴루
▁루니
▁워스
▁매뉴얼
▁가맹
▁식용
▁증식
▁표지판
▁코드네임
ㄱㅎㅣㄴㄷㅏ
▁떄문
▁베로니카
▁wanna
▁Ho
▁저속
▁커밍
▁타도
▁해밀턴
▁이시스
▁카나타
▁카미조
▁Pa
▁나자
▁미적
▁카루
▁돌고래
▁모모코
볶이
▁갈망
▁정훈
▁클라크
▁ㄷㅡㄹㄹㅕㅆ
▁설원
ㅇㅡㅁ
네이션
ility
▁범퇴
▁우왕
▁동강
▁아코
▁문경
▁크리스티안
▁장작
avy
▁계엄
▁고글
▁네기
▁대격
▁도류
▁Spe
▁도키
▁실례
▁오레
▁동아일보
▁옆집
▁항마
▁티비
▁올려
▁서든
▁전범
▁Road
▁신탁
▁주둔지
▁리디
▁시영
▁관리인
▁치어리더
ison
▁SKY
▁카디널
▁보성
ense
▁비야
▁쟝
▁낙양
▁아귀
▁ㅇㅝㄴㅎㅐ
우먼
▁왕창
▁460
▁맹독충
▁보옥
▁통장
▁마르티
▁머큐리
▁무기고
▁엑스포
▁예컨대
▁거하
▁앤트
▁VC
▁안주
▁취항
▁거북이
▁스테미
▁엘리시
▁하나같이
가짐
▁김우
▁몰두
▁은둔
▁노장
▁유품
▁치하
▁신세기
▁타이완
▁Brave
▁와드
▁지폐
▁254
▁유키코
▁ㅇㅑㄱㅎㅐㅆ
▁공민
▁색적
▁뿅
라트
▁성북
▁이매
▁더욱더
ㅉㅣ
스기
▁수렵
▁작자
▁불명예
▁ㅇㅕㄴㄷㅏ
▁농어촌버스
▁징벌
▁김남
▁편향
▁구작
▁발단
▁신약
▁칩셋
▁정박
▁316
▁ㅇㅕㅆㅇㅡㅁㅇㅔ
유산
ㅌㅡㄹㄹㅣㄴ
▁혹독
▁737
▁어르신
▁반열
▁백마
▁호라
▁말버릇
▁블로우
▁ㅈㅏㄹㄴㅏㄴ
▁경원
▁파치
uff
▁시브
▁적도
▁per
▁보안관
▁탄력
프레이
▁EE
▁위용
▁한족
▁메이스
▁1928
▁ㅅㅓㄴㅎㅏㄴ
▁알렌
▁잔치
▁차오
▁철학자
▁아서스
▁우울증
▁궁정
▁단국
▁동백
▁사변
▁리어스
▁불어넣
▁명실상부
록스
▁보전
▁스니
▁ㅇㅣㅂㅎㅕㅆ
▁패자전
▁Esports
눅스
깃거리
▁이블
▁총체
라이터
▁밑바닥
보레
▁와스
▁이국
▁편차
▁힘내
▁교육감
황후
▁구판
▁성종
▁요나
▁포괄
▁ㅇㅓㅍㄷㅡ
조선
▁FT
▁dr
▁엔도
▁이견
▁부피
▁콜린
▁웨일스
▁프로페
▁항공대
▁고비
▁난데없이
▁기정
▁들어맞
▁Long
▁ㄷㅓㄴㄷㅔ
드릭
▁금물
▁다의
▁선더
게이트
▁역장
▁장현
▁501
▁에미야
▁통폐합
▁펩
oup
▁이완
▁노하우
▁ㄷㅗㄹㅇㅣ
▁산지
▁원대
▁귓
▁스펜
영웅
▁나트
▁뒷담
▁모니카
▁실린더
▁윳
이야
▁가샤
▁ㄷㅗㅇㄸㅓㄹㅇㅓ
▁에니
디난
mon
▁방수
▁수모
▁페러
▁키쿠치
▁Call
▁Snow
▁조끼
▁번들
▁인술
▁주지
▁인파
▁left
ㄷㅏㄹㄹㅣㄴ
▁호도
92
▁공황
▁왜냐면
▁308
▁히로키
ㅉㅐㅆㄷㅡㄴ
아내리
▁오피셜
▁프리덤
▁ㄷㅜㅇㄱ
box
▁끌리
▁샤먼
▁자서
▁홀수
▁Key
▁전기톱
▁FS
▁실록
▁마네
▁섭정
▁유흥
▁빗자루
ㅈㅔ
▁냄비
▁Bet
▁파피
▁가우스
ITE
▁진풍
▁Port
▁메이크업
ㅈㅕㅆㅇㅓㅆ
▁규명
▁미얀
▁소림
▁클라이맥스
서니
iri
▁et
▁243
▁Arc
▁탑승자
▁ㅌㅐㄱㅎㅐㅆ
▁례
▁Hi
▁받침
▁리눅스
▁니콜라스
▁길티
▁포옹
▁파충류
산면
투르
▁빡세
▁혈관
▁사냥감
▁선교사
▁퀀
가키
▁마부
▁탄산
▁285
▁테두리
▁비겁
▁유파
내셔널
오피아
▁530
▁802
▁WCW
▁pop
▁에티오피아
▁인터내셔널
▁ㅁㅏㄴㄷㅡ
날레
▁연장선
▁은어
▁TECHN
제비
▁어감
▁ㅅㅏㄹㄹㅕㅆ
▁궁궐
▁비나
▁레이코
▁물방울
▁분당선
▁통조림
ITAD
▁향신료
WAR
▁속주
베다
▁나약
▁포유
▁국내외
▁1927
▁만담
▁마일리지
노세
▁거세
▁도네
▁레퀴
▁유주
▁쿠페
▁명언
ㄸㅡㄴ
▁보컬로이드
뮬러
▁ACT
▁타이머
▁1932
▁셴
▁무효표
▁오토봇
▁민수
▁임정
▁조예
▁생몰년
▁곧잘
▁에루
▁평시
▁방향키
▁천안시
▁Secret
enn
▁귀걸이
▁대니얼
VEN
▁NCT
▁드러머
▁사이퍼즈
미아
▁순양
▁쾌적
▁슬럼프
▁수목
▁발자국
▁been
▁중용
▁호족
▁Her
▁구매자
▁모성
▁월광
▁팥
▁LB
▁등록금
빠르
▁리크
▁삼키
LY
▁총검
▁1929
▁리얼리티
▁성단
▁테크놀
ㅁㅏㄴㅇㅡㄴ
▁ㅍㅏㄹㄹㅕㅆ
▁배당
▁브렌
▁친숙
▁기아스
▁es
▁익사
▁재수없
▁크랭크
▁Knight
▁GITAD
▁성대모사
▁청자
러나오
▁유가족
▁흘러나오
▁애호
▁노무라
▁1925
꼬박
▁꼬박꼬박
▁싸그리
▁이신형
▁제레미
▁SDRAM
십자
제프
▁사옥
▁니어
▁후추
▁ZZ
▁김학
▁승조
▁Gh
▁게이츠
▁자기장
▁MI
▁간담
▁양팔
▁war
▁박석민
▁치즈루
▁한국사
▁ㅁㅓㄱㅎㅣㄴㄷㅏ
니발
▁VI
▁교포
▁ㅇㅓㄹㄹㅕ
▁대함
▁이룩
▁코그
▁돌발
▁몸값
▁통영
▁내분
▁천문학
▁OC
▁부팅
▁후우
▁방아쇠
GP
▁동두
▁박찬호
ㄹㅓㄴㄱㅏ
▁귀속
▁연구생
▁자연히
▁사적
▁지마
전생
▁나연
▁카키
▁고고학
▁살인범
▁여신전생
▁ㄸㅡㄷㅇㅓ
▁겁먹
▁요코야마
▁ㅁㅏㄴㅈㅕ
▁거행
▁나코
▁복서
바라기
razy
▁580
▁Bro
▁ㄸㅓㄹㅊㅕ
▁ㅇㅏㄹㄹㅣㄴ
▁웅장
▁폐교
▁오지환
▁시라이시
▁고라
▁마귀
▁ㅅㅓㅇ
▁로드리게스
▁NR
▁요마
▁666
▁크루저
▁그릴
▁구원자
▁니스트
▁비닐
▁창법
▁LM
▁대림
▁칸자키
▁Cortex
▁지간
▁템페스트
▁천성
▁아발
▁LPDDR
드런
▁나진
▁눈알
▁다급
▁아소
▁자대
▁625
▁양정
▁Kar
▁부잣집
▁take
▁ㅋㅡ
▁보람
▁통근
▁브라이트
산부
파치
▁분담
▁권력자
▁고압
▁도원
▁로메
▁소각
▁신예
▁아세
▁청혼
덩어리
▁아르마
▁헤비급
▁병풍
▁에인
▁카빈
▁수비대
▁into
▁나토
▁메꾸
▁해지
▁ㅈㅟㄴ
▁드래건
AKA
▁구룡
▁맨손
▁메즈
▁만연
▁모금
▁jpg
▁까칠
▁일제히
▁크레용
▁클레오
▁단수
▁303
▁연합국
▁기로
▁야타
▁은총
▁저것
▁지치
▁리벤지
▁졸지에
ember
▁MOV
▁Va
▁관내
▁나래
▁미행
▁밀크
▁본대
▁욕하
▁천리
▁삼총사
▁서대문
▁모의고사
▁김봉
▁팍팍
▁백병전
▁자상
▁불상사
대상
▁선점
▁쫓아오
▁애원
너드
▁김문
isode
▁Days
▁장이
▁ㄱㅏㄹㄱㅜㅁ
▁가평
▁와해
▁촌장
▁ㄱㅏㅈㅊㅝㅆ
▁가락
▁선취
▁앙상블
▁내비
▁프롬
▁스펙트럼
▁Gener
▁Stand
▁Normal
▁뱌
▁남주
▁한수
REAM
▁ROX
▁ㅅㅣㄹㅈㅔ
▁고온
▁농성
▁로디
▁뿜어내
▁백웅
▁떡볶이
▁요금제
▁GITADORA
알라
▁버트
▁스톨
▁Fil
▁대항전
푸르트
▁미소년
▁해부
ied
▁미니맵
마음
ugh
▁다레
▁육아
....
브레
▁모하
학생회
▁경복
▁대방
▁뒤쫓
▁거주민
▁stay
▁학군
▁레토
▁아즈텍
▁이케다
▁해치우
▁"...
▁양천
자락
▁김강
▁얼라
▁외견
▁진홍
▁돼지고기
irc
▁젠더
▁Eur
▁교통부
▁현저히
저곳
▁김유진
▁이곳저곳
▁VP
▁강좌
▁노카
▁몽키
▁양재
▁247
▁김성현
ether
▁찾아다니
uction
▁바크
▁점프력
▁Trans
▁슈우
▁ㅍㅐㄹ
▁도핑
▁타무라
▁파스타
▁슈퍼주니어
도현
▁워킹
지부지
▁흐지부지
▁관현
▁톡톡히
▁중앙일보
▁홈플러스
▁Hello
▁라디
▁ㅇㅘㅆㅇㅓㅆ
▁아돌프
▁타마키
▁수학여행
als
▁완급
▁의기
▁김보
▁동방신기
공원
▁sl
▁발진
▁번화
▁일식
▁long
▁아린
▁이데
▁중전
▁증진
▁Cup
ㅇㅗㄹㅈㅣ
▁태권도
▁면담
▁점장
▁무의미
▁이상일
▁xC
▁과묵
▁모란
▁버나
▁분파
▁246
▁고구마
▁브렛
▁힐러리
▁Jack
▁그늘
▁INT
▁도우미
▁방망이
▁이건
▁손아섭
▁사파
▁외할
▁주선
ella
▁연장자
▁토모야
▁황룡
▁North
▁ㄱㅕㅂㅊㅣㄴㄷㅏ
▁조시
▁결정타
▁어윤수
▁과대
▁선술
▁셰퍼드
▁타카기
ka
▁망언
▁자경
▁권속
▁의구
▁그지없
▁레퀴엠
▁재생성
ience
▁군포
▁픽션
▁총학생회
▁직면
▁오토메
▁미츠루기
▁ㄲㅡㄶㄱㅕㅆ
▁비오
▁순화
▁김기태
▁한니발
▁바벨
atter
태현
▁두세
▁빈곤
▁한신
▁color
▁응하
▁사카가미
뿌리
▁슈테
▁타노
▁피르
▁239
▁Ins
▁구세주
▁라멘
▁아그니
▁환상향
▁오열
올로
▁사샤
▁엥
특기
▁남궁
▁470
▁모차르트
▁Direct
빼미
▁담보
icon
▁주특기
▁game
▁STAGE
▁ㅈㅓㄴㅎㅏㄴ
▁룰루
▁수프
▁호신
▁길들이
▁김응
▁파란
▁노하라
▁뷸
ㅍㅜ
esh
▁엘다
▁알버트
버섯
▁감명
▁GU
▁만성
▁부풀
▁정신줄
▁명동
우로스
ㄷㅗㄹㄹㅣㄹ
▁기일
▁벗기
▁따돌리
▁박용택
▁매달리
▁목격자
▁팽창
▁Only
▁사스
▁양날
▁연어
▁윤상
프레이즈
▁AH
▁번외
▁Gra
▁해협
▁디폴트
▁걸어다니
▁키카
▁Burst
▁TC
▁리그베다
▁김규
▁터너
▁페퍼
▁Mach
▁음주운전
겨지
▁백발
▁역이
▁완투
자치시
▁포뮬러
▁특별자치시
카타
▁대덕
▁정품
▁훈련장
▁ㅅㅜㅁㄱㅣㄴ
▁Ice
▁1926
▁구위
▁약초
▁판독
ince
▁마츠이
▁뒤돌
▁징표
▁방사선
▁실세
▁쿼터백
▁번작
▁성불
reen
▁의구심
▁1080
▁디셉티콘
▁박차
▁몬스터즈
▁미야모토
프레소
▁랑그
▁펜타
▁알리스타
암리
출력
▁남색
▁단결
▁밀양
▁울버린
mas
▁SHD
▁ㄴㅗㅍㅇㅣㄹ
▁아캄
afe
▁쟈니
▁행크
ents
▁박지성
▁우에노
▁전산망
▁iP
▁궁예
▁색기
▁플랑
▁거리낌
▁평의회
▁트란
▁풍습
▁구덩이
▁쉐보레
▁ㅈㅓㅂㅎㅏㄹ
바꿈
▁제타
조사
ELL
▁Som
▁뻑
▁발해
▁블랭크
▁이방원
▁캐치프레이즈
고짜
▁다짜
▁힌두
▁우에다
▁다짜고짜
사태
▁노화
▁도란
▁손대
▁1924
▁스에
▁사나에
▁마케도니아
▁라피
▁스캐
▁호크스
▁이비
쓸이
효과
▁bet
▁ㄱㅜㄻ
▁Intern
▁용시
▁배달부
IKA
▁이용규
▁지금껏
▁사채
▁얼룩
▁역부
▁오션
▁적의
▁탈영
▁ㄱㅜㄹㄹㅣㄹ
▁~.
uman
emy
▁우후
▁폭락
▁그랜트
▁속칭
▁ㄷㅜㅇㄱㅡㄴ
▁제츠
▁PPV
▁저절
▁무스메
▁비주류
▁유토피아
▁계주
▁ser
▁갑작스레
그러
임새
▁경음
▁지코
▁지방도
▁민사
▁262
▁980
▁ㄷㅗㄹㄹㅣㄴㄷㅏ
su
▁WA
▁241
▁오른발
▁훤
▁공소
▁승선
▁충무
▁적잖
▁태초
▁태극기
▁
▃
⊸
ㅇ
ㄴ
ㅏ
ㅡ
ㄹ
ㄷ
ㄱ
ㅗ
ㅣ
ㅔ
.
ㅓ
이
ㅎ
하
ㅁ
ㅢ
ㅕ
ㅆ
ㅅ
,
ㅈ
1
ㅐ
리
0
스
사
2
기
지
시
대
수
있
ㅘ
가
아
그
자
전
ㅂ
들
정
상
나
일
인
장
어
3
마
주
로
도
드
트
ㅜ
제
보
다
되
성
적
우
e
부
라
5
오
-
공
4
것
미
신
고
모
소
유
동
9
무
중
문
한
구
비
a
경
타
년
원
치
레
국
화
용
6
o
때
ㅚ
만
8
위
'
7
:
카
히
i
니
조
선
후
명
t
력
n
r
개
ㄲ
없
거
세
작
등
연
방
당
실
격
영
르
터
안
서
계
크
생
간
의
단
바
프
발
내
여
ㅌ
역
체
차
ㅊ
반
재
않
버
S
물
진
s
월
러
분
회
파
관
해
점
"
교
A
노
키
말
학
데
포
요
속
/
l
코
행
능
호
과
더
래
식
피
ㅑ
토
본
C
게
저
음
임
m
루
ㅋ
강
결
번
두
초
d
각
h
출
군
종
즈
T
현
M
매
입
디
승
배
P
야
최
불
E
티
u
같
형
설
산
B
브
직
감
!
D
통
남
판
에
특
편
추
받
메
c
많
투
심
급
태
운
양
람
금
ㅟ
패
건
외
면
I
L
예
표
민
ㅝ
ㄸ
업
R
법
함
약
테
O
달
플
언
목
G
F
런
복
준
g
너
처
N
살
병
y
네
%
습
권
천
좋
평
황
독
막
술
른
p
참
박
절
집
름
존
애
록
합
근
론
또
김
알
머
변
왕
K
확
환
페
활
캐
츠
션
f
필
k
항
별
?
쿠
~
V
순
베
청
+
악
석
H
블
돌
팀
류
증
v
못
열
족
량
려
곡
릭
광
날
죽
ㅍ
탄
담
울
망
향
잘
총
쓰
료
클
효
품
송
손
폭
커
련
글
범
탈
b
백
녀
맞
란
쪽
잡
워
w
창
령
질
먹
케
퍼
뒤
난
랑
은
접
U
색
완
ㅃ
#
높
극
벨
얼
검
X
W
킬
든
께
철
ㅛ
와
혼
충
렇
즌
느
듯
린
채
락
삼
험
북
몬
따
골
득
귀
괴
힘
림
밀
희
올
육
립
움
슈
누
친
슬
길
랜
새
견
벌
곳
축
규
착
택
온
취
엔
냥
링
눈
맨
틀
끝
템
덕
]
및
허
[
쟁
엘
턴
앞
놓
째
책
칭
팬
봉
응
징
첫
률
갑
침
널
얻
찬
x
J
측
율
싸
할
획
넘
엄
암
줄
벤
갈
걸
끼
좀
늘
몇
잠
억
Y
훈
빠
압
굴
찾
협
혹
짜
찰
씨
센
풍
홍
ㅙ
럽
헤
싶
몸
답
궁
즉
팔
둘
&
먼
붙
뿐
볼
염
논
닛
벽
례
뉴
님
묘
넣
퇴
슷
돈
딜
탑
풀
칼
쉽
홈
컨
숙
콘
컬
ㅉ
액
층
몰
곤
앙
휘
낮
슨
렌
익
샤
웃
웅
윤
을
옥
큼
략
딩
빌
킹
멤
까
팅
폐
웨
찍
멸
맡
죄
닝
싱
좌
욕
롯
ㄺ
<
멀
솔
꾸
씩
빈
롤
쇼
욱
픽
던
쉬
델
잔
짓
콜
덤
켓
빛
깨
흑
꽤
=
갖
뮤
념
낙
랙
폰
농
척
듣
혈
뜻
객
왜
맥
끌
렉
텐
맹
Z
흥
칸
앨
닉
밖
듀
큐
랭
섬
휴
헌
폴
z
룡
램
숨
탁
떨
맵
럭
혁
쿨
닥
넷
떤
균
럼
롭
혀
놀
홀
떠
튼
혜
뛰
빙
톤
튜
겨
컴
땅
텔
렵
맛
뀌
찌
컵
십
는
떻
빨
꽃
굉
푸
딱
짝
뢰
끔
콤
탐
챔
퀘
뭐
덱
뷰
팩
밤
으
밥
밍
흡
헬
빼
옷
멘
녹
뽑
*
탕
믹
릴
씬
핵
졸
펜
찮
몽
뜨
젤
딸
릿
킨
봇
흔
쌍
뷔
룹
꿈
윈
삭
)
털
쿄
셀
둥
잃
엑
뇌
놈
Q
켄
흐
탱
틴
똑
믿
칠
옆
핑
꼬
밴
{
납
섭
롱
훨
괜
낌
잉
얘
}
퓨
엇
갤
힐
탓
칙
싫
읽
캠
빅
콩
셈
곧
>
j
젠
틱
촌
붕
짐
짧
폼
펙
멜
셔
깔
쇄
둠
핀
덜
셋
륙
덴
냉
묻
셉
뒷
굳
즘
젝
촉
첩
렬
옵
쁘
즐
랍
덩
_
죠
떡
쓸
넓
닌
셜
쇠
촬
빵
쥬
쯤
끊
깝
깊
ㅠ
펠
왼
샷
쳐
텍
쏘
븐
늦
컷
랫
겸
밑
져
꾼
;
퀴
잇
웹
융
춘
꼭
값
앗
쥐
묵
옛
랩
렛
겁
튀
흉
밝
걱
끄
앤
엽
붉
ㄶ
겪
엠
앉
슴
랄
옹
밸
캡
넥
펼
멍
숲
헨
잭
틸
댄
셰
섯
럿
뻔
톰
꺼
텀
톨
톱
딘
낫
긴
웬
벗
춤
q
듬
쾌
렐
킥
숫
윙
를
뱅
혐
뱀
꼴
깐
댓
갱
뚫
몹
캔
쌓
젊
윌
팡
둔
펀
닮
탯
ㄻ
읍
궤
엉
틈
렘
뿌
겐
녕
맺
훌
쫓
횟
닫
띄
핸
룰
쿼
럴
깃
써
봄
롬
툰
빔
떼
짱
숭
꼽
켈
퀄
멋
갓
탠
곰
첨
츄
렙
룬
흘
ㅀ
낭
륭
샌
룩
픈
삶
삽
룸
밟
쩌
릉
냐
켜
좁
곽
잊
빗
둑
|
챠
ㅖ
릇
닿
팝
렴
뉘
늑
첼
깎
빡
앵
맘
긍
윗
낳
퀸
섹
팽
렁
돼
껏
겹
낚
넬
넉
끈
뚜
닐
톡
묶
뼈
킷
얀
뜩
핏
얄
큰
샘
@
\
슛
쩡
닭
챕
걷
섞
핫
흠
륜
멈
앱
곱
멕
햄
쭉
툴
왈
횡
뚱
겉
펫
썩
짤
$
엣
쟈
쉐
펑
웰
딴
뿔
훗
뜬
덮
왠
삐
쏟
뱃
깜
벅
띠
똥
꺾
턱
쨌
펄
돕
며
녁
딕
볍
섀
훼
잦
냄
깡
쩍
닷
뚝
뿜
딧
맷
탭
챌
뮬
뎀
쵸
뜯
밋
칩
싹
잎
괄
멧
벼
곁
릎
씹
힙
꿀
밭
꼼
ㅄ
듈
깥
긋
팟
펌
빚
헛
썬
펴
겔
챙
힌
꽂
슐
몫
므
돔
굿
텝
붓
벙
썰
뺏
엮
듭
쿤
캣
헐
뽀
밌
줌
퉁
풋
옳
솜
흰
픔
벳
콧
흙
늬
텟
껍
툭
벡
뭉
콥
헝
쌀
샵
첸
팍
뱉
팁
튬
쏠
뻗
갯
캄
돋
옮
붐
뻥
늄
툼
엿
킴
샬
땡
굵
냅
갚
칫
찢
ㅞ
뭇
쿵
뤼
푼
궐
휠
꽉
끗
캘
늙
콕
쯔
볶
엎
귤
쉴
덧
옐
잖
앰
넌
썸
큘
깽
퀵
셸
륨
캇
뻐
쑤
젖
쨩
츤
옴
솟
젬
퍽
굽
뮌
겜
넛
젼
짙
콰
슌
짖
꿰
(
닦
펭
겟
잼
짚
쪼
홋
씀
웜
맙
얹
쫒
햇
꽁
삿
팜
잣
귄
홉
샐
헥
탬
뻘
얇
샹
튠
뽕
훔
젯
맑
긁
앓
렷
얌
밈
옌
윽
땀
쑥
짬
늪
텅
퐁
씻
꿉
킵
딪
욘
윕
끓
왓
젓
벚
댐
푹
팰
딥
넨
ㄼ
껑
숍
뺨
갸
^
휩
똘
쥰
쌔
랏
쫄
렀
밧
컫
눕
캉
헷
꽝
쁨
줍
뇨
꿇
걀
쎄
씌
낡
쉘
싯
샨
찔
쐐
`
놔
룽
뜸
륵
쩔
흩
뭔
룻
맴
덥
떄
웍
숀
깁
훅
폿
덫
꾀
핍
쭈
랴
멩
찜
얕
탤
윅
벵
숏
깍
굶
샴
빽
왑
넵
싣
튕
뾰
뫼
훤
썹
둡
씁
댕
쌈
돗
왁
촛
캬
꿍
뺑
눅
캅
놉
쌩
팻
맏
뎅
갭
늠
꾹
ㄵ
좆
퀀
췌
껄
낯
얽
뻑
퀑
괘
낱
꿋
잿
쩐
찝
솥
칵
덟
괭
즙
댈
땜
껴
뽐
딛
뭣
멱
잽
껌
슘
갇
댁
팥
렝
쥴
뷸
띵
ㅒ
엥
얗
읊
콴
츳
켐
랗
얍
힛
뭄
톳
퀼
뇽
랠
뿅
팸
츈
찻
눌
셴
쿡
뮐
릅
깅
궂
딤
쏙
햐
된
옅
닳
짭
쳇
폄
썽
얏
씽
횃
뱌
뎃
샛
윳
셧
쟤
믈
쿰
갉
뎁
곶
짠
걔
톈
넴
낸
섣
뜰
핌
펩
츰
꺽
쟝
핥
귓
컥
쾅
솝
봐
촘
헴
놋
숄
맣
숟
쏴
헉
넋
걍
뮈
텃
꿔
슝
뚤
쉼
챈
꼰
쑹
팎
컹
휙
춥
갔
쉔
굼
궈
쓴
찡
튤
짊
끽
춧
녜
쌤
돛
핼
녘
엡
쑨
쾰
캥
삑
텁
찹
쾨
윔
엌
뇰
줏
촐
욤
찐
낄
뼛
즛
웡
갬
냠
쓱
뿍
앳
펍
쉰
듐
륀
듄
빤
갛
삥
볕
퓌
밉
쟌
힉
쫙
롄
떳
묠
뻣
숯
휼
꿎
퓰
꺄
딨
뵙
웁
뒹
뵈
왔
멥
큭
긱
눔
쨋
훙
댑
괌
슥
챗
끙
넝
쫀
쬐
낑
쭤
쏜
듦
뀨
홧
샅
낵
첵
낼
뿡
훑
닙
슭
닻
쇳
꽈
눗
촨
챤
텡
욜
쭐
겅
츨
잰
펨
숱
뤄
싼
쫑
빕
늉
땋
맬
꿩
쥔
힝
쏭
쿈
벰
켠
퓸
죤
돤
쿱
샥
틋
닢
랖
묀
좡
헹
빰
삘
뗏
탉
횬
웸
햅
딫
킁
깻
씸
뷜
쭝
뭍
쿳
줘
엾
숑
좇
넙
칰
쩜
읏
윷
냇
뮴
빳
멎
굇
깟
ㄳ
쑈
쩝
혓
헵
콸
큥
윾
냑
꼿
쭘
봅
쉿
떵
몆
볏
뜀
땔
쨍
훠
뺌
캑
씰
붑
찧
쥘
뮨
웩
죗
춋
셍
긔
옙
튿
됨
셩
짢
흄
젭
꽥
둣
챰
뤽
쳉
챳
욥
젔
슉
썻
짹
꼐
츙
썅
빻
띔
쐬
쌰
콱
햏
옭
믐
뻬
젋
멓
쮸
촙
귈
큅
맟
슼
볜
퍄
짦
됭
쩨
뜷
넒
뎬
ㄿ
윰
옻
쯧
겼
쨰
굣
었
륄
뽈
샙
솎
돡
흣
곪
룀
잌
뺴
탸
엷
갗
뱁
뽁
옉
닼
큔
넹
섕
솩
쨔
붇
겡
푀
쌉
뭥
픠
옇
뼉
햣
ㄾ
겋
욧
뵐
팃
꺅
슾
휀
뫄
갠
웠
왐
핳
둬
켁
뎐
벛
궨
묽
솅
띨
앜
쾡
췬
묜
뺀
맢
츔
쇽
랸
켤
쳄
닯
퉤
밎
휑
떫
꽐
쌕
줴
졋
죌
챵
춉
쫌
믄
곗
앍
숴
뚠
묄
랬
뢴
쳅
큄
퐈
뉵
겍
왱
벞
땃
틔
칡
흭
홑
쁠
눙
됴
춰
ㄽ
떽
쉑
퀜
쪄
맆
껸
겊
밞
꺠
꿏
킼
쉭
톄
뷘
삵
퐝
캰
삯
켕
푈
곯
냘
았
쇤
옼
읭
좔
똬
괵
졍
촤
븅
퇘
샾
뒈
똠
뼘
뎨
귯
큿
큠
묭
졔
헙
웻
푯
븀
뷁
섶
헣
뷴
읆
벱
팹
홱
뺄
쀼
훕
켑
풉
갹
궃
횽
븨
쳔
돚
첬
컁
꽹
쏨
셤
뤠
젱
깄
홰
겻
궜
햘
찟
솀
늅
듸
였
뵘
솁
쏩
꾐
왘
좃
룔
챱
볘
훍
먀
촥
솽
쒸
묏
웽
툽
멬
훵
낀
믓
녠
쭙
녈
뵤
먄
빱
앎
붸
텨
믜
솬
쨉
땁
쫘
롈
좍
휭
숌
읺
몯
믕
솨
뾱
섐
춈
퀠
튐
쳬
왝
푱
푄
핰
늡
됸
끅
읇
폽
뒬
뒴
쩄
퉈
낏
랼
엊
뉼
몐
뱐
솦
뗌
휨
롹
뽄
헿
췐
큣
밣
툇
뭅
겆
웤
났
땟
삣
껫
쪙
툐
뱡
옘
슙
앏
핡
낢
묫
곬
옯
릐
셕
뙤
했
찿
꼇
쉥
똔
춍
캎
튽
낟
쬬
흫
툿
녓
삡
벋
뻇
낰
즤
웟
듕
럇
됫
젹
뎡
맻
앟
쯩
싀
줫
곂
큇
귿
뗴
쨜
쭌
찣
밷
캼
맠
벧
떈
햝
륌
뺐
쟘
쨘
퓔
촹
퓽
휄
몌
섰
쉠
뗑
렸
긷
뱟
뙇
먕
섥
흝
숔
쳰
큡
꽌
엪
쵼
떙
쁜
냣
짯
훓
솓
퓬
횻
핬
눞
휫
섈
켯
퓐
뇬
봣
헠
귁
덬
긺
귐
댱
랐
뀽
섄
숩
씅
쥿
잴
궉
깈
뎌
텻
햔
떰
뽜
웝
풔
뼝
솃
뵹
읎
쥠
쨈
쟉
횐
쳥
튄
녤
싴
쳣
졌
똣
뚥
앚
옾
쑴
밐
펏
땍
졀
츌
쿙
걼
읖
쬔
먐
묾
읗
꿘
듁
튈
펰
홓
셱
앝
짇
혔
룅
쎼
좨
뚯
짫
힣
멂
섵
흽
옜
왤
읔
곘
댜
슁
캿
퉷
휸
끠
눝
댔
쏼
윱
혠
눼
븝
뺘
쎔
졈
껨
닠
띡
씼
훝
꺵
랲
뢸
뷕
쿽
띱
맕
챨
틉
뱍
빋
튱
덪
봙
솊
쫗
큉
틍
팤
뚧
뜽
삷
읕
샄
컽
튭
핲
늣
엳
쟙
꾿
뿝
썪
쳘
벴
쎾
돝
슻
줜
떱
몪
즁
캪
퀭
퍅
욬
짼
꾜
넼
녔
뇸
걲
핧
봑
덷
콯
닺
뎍
륍
몃
욍
칯
늒
뜌
맫
볓
븟
쓔
얶
캭
귬
읜
츼
췍
킅
햑
꿧
늴
뿟
츕
얆
욺
졷
쮜
툠
픕
륫
엏
엙
읶
츗
캌
덞
몀
웦
읒
걋
껀
딮
땐
륑
쏫
얔
풂
햤
뵨
쒜
앺
읻
킄
녑
뗀
뺸
쉣
쳑
괞
깉
꺨
븜
뻉
쓩
엶
쟐
뎠
칲
틑
굥
녯
뉸
븍
셒
읷
쳤
춫
텬
톩
뙈
룁
뺙
옝
켬
톼
꼳
뭏
뷧
삠
챡
촵
덖
뎊
몿
뺩
솰
쵤
쵹
킈
틩
혤
흗
갞
깸
끎
맜
뮻
믾
뻰
쉅
앖
욌
읫
잆
좝
쯋
켚
뒨
듧
뚸
쭁
훽
귑
넖
됏
룟
뼤
쐇
앋
읃
핱
넗
됩
좐
쩬
콬
퓩
됄
뚀
붱
븡
뺵
쎠
읅
졘
겯
롼
룝
뭘
뭬
쌥
얉
엤
죙
죡
큽
탶
겠
땨
뜹
쁑
숮
싈
쌋
쎅
쑝
잍
졉
쯕
굷
깹
뎜
싿
쥭
췩
퐄
궆
긇
롮
룐
뷀
빝
뺭
쌐
썡
씡
짋
췃
픅
뇩
릍
봊
쌘
귱
덯
돐
섴
쏸
엨
쥑
쪘
굄
긓
넢
놘
믌
벜
뻡
읠
죔
캢
놧
둟
랔
롷
먈
밪
죳
쥼
챦
캴
쾀
곈
뚬
롶
먁
뽝
앧
죨
쯥
쳌
푝
뚭
럄
릏
묙
뱔
봘
윶
쳡
췰
컾
켔
퇵
픗
뀩
끕
늗
덛
밨
옃
욹
읋
쨕
켸
퀫
겝
곷
괍
댸
돨
딲
멉
뻴
셥
쌜
썖
앀
쥣
쾍
쾬
텩
툥
긑
껒
냨
쀍
쇨
왬
욷
잏
쮀
츅
텰
톺
퇀
퇼
퍈
깩
넀
닜
띁
롸
샼
줭
홥
걺
긜
끉
낛
냡
냤
뇻
뢔
벹
븥
뺍
솧
슽
챃
쵀
쵱
칬
턍
퇸
픞
햡
햬
곻
럐
볫
쁩
섁
섦
얺
탹
핟
갂
궬
뫃
벫
쉡
슶
옿
웆
푠
핓
훡
휵
긘
뀰
댠
둉
뛔
럅
맽
봔
븓
싑
썌
얙
엃
쨤
쩰
쯰
튁
튝
퐌
픙
횔
훚
놰
덨
딍
띤
롑
롓
맀
뵬
붗
샇
쏀
쑵
앆
얖
엹
잋
쪠
쫍
쫏
쿸
탼
팖
햠
갊
꺆
꺗
꺘
껠
늧
댤
됀
딋
뗘
랕
륏
뮹
믖
볠
볻
봥
븰
뻩
섧
싁
쐉
옺
줸
켰
텤
퉨
튑
팊
팏
휏
힜
궝
긿
돇
돎
랃
믁
븃
뽓
싄
얊
얭
엵
윜
젧
찦
탙
틊
횅

깆
넊
듥
맃
묷
삻
쏵
왯
짘
쩃
챂
춀
캍
켱
쾃
퀌
턀
톸
펔
퐞
푕
횝
힠
괏
껶
꾄
꾈
뀀
덭
떔
뜐
뢍
뭡
볌
붏
붘
빧
뽂
쀠
삳
슳
앒
왚
욿
웈
잨
쥡
쩻
펲
핣
곌
긤
긧
긩
낍
낪
놜
눋
랋
롣
먺
뭠
쁙
샏
셑
쏱
옂
옄
욯
잗
잛
좂
쥤
쥽
쵝
킾
텦
헑
훟
굘
긏
꺙
끟
냈
뉨
닽
됌
뒥
듼
땽
똟
뢱
릳
밫
벍
볃
봍
붴
빍
뻠
뿨
싰
쎆
앛
엫
윘
젴
줗
짞
쩠
텹
폔
퐐
풰
퓻
홇
홤
갘
곹
굻
귕
끵
돟
둗
듫
떪
똏
랟
뤌
뤤
먿
뾸
솸
쒯
앶
쟬
즑
짔
췻
켙
콦
툑
헼
혬
흒
껼
뀬
녂
닁
뎔
땝
룍
륩
륻
밊
밬
뱝
붯
빟
뻤
뻿
샆
샊
쑌
씜
얋
욋
잫
쪾
쯱
쳠
쳴
컄
훰
흿
힁
걈
겞
굔
긂
놨
딀
럈
룄
맊
멌
뫌
봌
붹
삤
쎕
쓿
웄
웱
젛
챼
칮
쾩
퉆
팦
햛
횸
훛
껩
꼉
넸
늫
닾
돞
떘
떢
뗼
똭
뚦
렿
뤈
릘
맇
맍
먜
몄
뫙
밯
벐
볐
붊
븕
뻭
쀏
삧
솹
숸
숼
쉨
쌴
쎗
씃
엍
옫
왹
윁
읉
잪
좄
죈
죰
짪
쫜
찯
컶
컼
퀧
텽
툉
푿
핮
햌
홐
횩
횰
흇
흨
곸
깺
꺔
꾱
꿕
뀡
끆
늇
덣
뎝
됍
둴
듵
떯
뜅
띳
랰
렏
렡
렫
륮
맄
몔
밦
볔
봡
빢
뺼
쀳
쁌
슢
싕
싢
싾
쌱
쎙
쏳
쐑
쒕
얃
엗
옧
욀
쟂
젏
짥
쫭
쯉
췤
쿗
퉅
갅
곀
곺
궷
꺤
놂
뉩
닑
댇
덍
됵
둏
뗍
랒
뢉
뤂
륶
멭
뭀
뭤
믤
뱊
뱜
뵷
뻈
뻨
쀄
쁴
샒
샠
섡
숳
싦
쌧
썜
쑻
쓲
윹
쟞
죶
줼
쨥
쯜
찎
텸
톲
톹
튓
폇
핻
햋
훜
괃
궅
긶
꺌
꿜
늼
뒝
뚁
뜳
럤
렜
릠
맼
뫅
뱨
벓
벖
벟
볽
뵥
붤
빩
빪
뼸
쁭
섊
쉪
슅
슟
슮
싵
쌸
쎌
쑛
쒠
씔
옒
옸
웉
윢
읪
잩
쟎
젶
좊
좟
짆
쬼
쯘
촷
쵮
츩
켘
쿔
텼
퍙
픖
픤
햎
햙
햫
혿
횄
겎
겓
곲
굑
궘
깇
깤
깬
껙
꼍
꼻
꾁
꾾
꿱
뀍
끾
넑
넠
넫
녬
눨
닸
뎦
됙
둿
듰
딈
딯
똡
똰
뛟
띙
랓
롁
롫
롴
륽
릌
맂
맒
멏
몾
묩
뭵
믇
밂
밗
뺃
뼁
뾲
뿛
쀽
삾
셊
슸
쎴
쓘
쓺
얾
웷
읓
읿
쩗
쬰
쬽
쭀
쯪
쳈
쵭
춛
춸
캆
캽
컈
퀍
퀙
퍌
풿
퓍
헾
홅
갋
겿
곖
궛
귝
꼮
꿑
끨
낲
넡
뇐
뇔
뇟
뉭
늚
닏
닞
닲
닶
댯
뎄
뎟
됑
딿
럷
렄
뤁
뤗
릋
릔
먫
먾
묑
묨
뭊
믯
밢
벎
볱
뷥
븉
빂
빞
뻆
뿓
쁐
쁥
삮
슲
쌞
썛
쑐
씉
얅
옰
왂
욛
웊
웥
읙
잀
쟃
졤
졧
줃
줆
줙
줠
쩅
쩼
쪨
쬤
쭵
쭸
쳿
칟
켝
턔
퉹
펵
폯
헡
혭
훋
굠
굡
궭
귺
깓
껭
꼈
꽅
뀵
끋
녛
놐
놯
눤
뉙
뉫
늕
닰
뎧
됼
둇
둪
둰
딹
땗
똇
랎
렆
뢈
룯
뤀
뤨
릊
맗
뫀
뭴
뮉
뮝
믙
믠
믬
믱
밡
벆
벝
벸
붖
빆
빴
뿕
삸
샃
셖
솤
쇡
쇵
슦
슺
싐
싷
쌂
쐤
쑉
쒹
씝
앾
얿
엯
옪
옽
웒
읨
읹
쟹
즥
즹
짮
쨧
쩟
쩧
쩸
쫩
쭛
쯍
쳗
춱
춴
췡
췽
츱
쾔
탏
탣
톧
퍗
퍝
폘
퐅
핕
햟
햩
혯
횞
흟
힏
힗
걑
걩
괐
귾
긌
긲
깋
깢
꽇
꽨
뀜
끍
낔
넚
넽
녝
놎
놑
뇡
뇹
늰
댼
덿
뎈
돓
돜
됒
둙
둫
뒁
듷
땈
뗵
똙
똫
똵
똻
뙨
뚊
뚷
뜃
뜛
띾
룃
룱
뤙
맅
멁
멊
멞
멪
멫
멮
몁
몋
몼
뫈
뮛
뮥
믘
밮
뱓
뱦
벏
벘
벩
볙
봆
붝
븁
븘
븬
븽
빎
뺜
뻼
뼌
뽠
뽤
뽱
뾔
뾴
뿎
삒
삱
셟
쇴
숖
싲
쎽
쏝
쑀
쑦
쓉
쓋
씯
씺
얒
엋
엒
옦
옶
왉
욨
웕
윝
윟
읐
읩
젙
젚
졩
좉
줅
줒
줵
즨
쩖
쩩
쩽
쫴
쬲
찱
챞
첡
첮
쵠
칢
캏
켣
켭
쾈
큪
킸
탇
탖
탘
틂
틤
팈
팉
퍠
폅
폮
푤
풒
풸
풾
퓅
퓜
퓹
헗
홛
홯
훱
흼
힡
걌
걹
곅
곩
괙
굈
궹
귪
깕
껬
껵
꽆
꽛
낣
냏
냔
넜
녃
놏
놕
놤
놥
뇍
눟
눽
닧
댛
덝
뎻
둚
뒿
듓
듨
딉
딻
땛
똿
뜜
띅
렢
롐
뢐
뢨
뤔
륷
릾
먑
몊
뫚
뫠
뭋
뭌
뭎
뭭
뮷
믂
밠
봏
봫
봰
붂
붚
뷍
븸
빖
빸
뻄
뻒
뼏
뽇
뽥
뽭
뿩
쀓
쀾
삲
섟
섮
섻
솖
솘
솢
솻
솼
숞
슆
쌵
썐
쎃
쎤
쎵
쑘
쑫
쒓
씄
앑
얂
얬
엓
엸
엺
옡
옲
왭
욉
욭
웛
윞
읾
잒
잚
쟜
쟠
젇
졜
쥇
짛
쨴
쪈
쭃
쭊
첲
촏
촴
쵷
췅
췹
췼
콫
쾐
킫
탚
텊
퇄
툵
퉌
퉝
틧
팣
픎
픨
핔
핝
헭
홁
훳
갴
갵
걁
걉
겂
겤
겧
괫
궄
궥
궸
궻
귖
귚
긄
긐
긕
긼
깞
깪
꺈
껃
꽊
꽜
꽬
꿂
꿿
뀻
끡
낋
넞
뇠
늨
닊
닡
댝
댬
덗
덙
뎋
돆
돖
돘
돰
돵
둅
둩
둼
뒑
뒵
듳
딺
땰
떅
뗠
뗸
똽
뙉
뙜
뚄
뚕
뚮
뛌
뜵
랅
랣
랳
랻
럔
럲
롇
뢀
뢇
룜
뤅
뤕
뤘
뤡
뤳
륧
릃
맓
맔
먖
먗
멑
멛
멷
뫁
묌
묗
뭩
뭰
뭼
믏
믑
뱩
볭
볾
봁
봃
봈
봋
봠
봨
봴
뵛
붒
붛
붼
뷫
뷱
븛
븩
빏
빜
빹
뺡
뺣
뻢
뼬
뽘
뾆
뾼
뿁
쁍
쁫
섪
섺
셐
셗
쇅
쇱
숛
숝
쉇
쉤
슡
슧
슿
싪
싻
쌑
쌟
썀
썁
썭
썯
쏉
쐭
쒝
쒭
쓧
씍
씤
씪
앫
앸
얎
엩
엱
엻
왒
왰
욝
욣
욲
욾
웇
웗
웚
웳
윀
윸
잞
졎
쥄
쥅
쥌
즞
짒
짗
짴
쨟
쩹
쪗
쬈
쬭
쭂
쮠
쮹
쯀
쯴
챸
챺
첟
촠
촾
쵇
춣
췁
츀
칄
칽
캈
캋
컿
켮
콀
콮
쿌
큟
탗
텉
퇗
퉥
튯
틜
틷
팓
펖
퐆
퐉
풐
풑
풜
풨
풩
풮
풱
픐
픝
핃
핤
혱
홝
횦
훁
갮
갲
겕
겴
괠
굸
궙
궞
궢
궫
궳
궼
귻
깛
깣
꺍
꺴
껚
꼄
꼱
꿻
뀅
뀝
끛
끤
넾
녇
녺
뇄
눜
눳
뉍
뉏
늩
늿
닟
닣
닪
댖
댘
댥
덢
덦
돠
돩
돶
됟
됰
뒙
뒸
듟
듮
듴
듶
듹
딷
떣
떧
뗃
뗜
뗶
똈
똒
똗
똴
뙁
뙡
뙭
뚂
뚞
뚵
뛃
뛩
뜁
뜝
띃
띧
띯
럳
럻
렣
렦
렺
렼
렾
롕
롥
롵
룥
룳
뤱
뤵
륐
릣
맾
먓
먘
먯
몓
몭
몱
뫔
묯
뭆
뭑
뭷
뮘
믉
믗
밇
뱕
뱤
뱽
벑
벾
볎
볹
봎
봒
봗
봤
뵉
뵫
뵭
뵳
뵴
뵶
붆
붋
붎
붠
붰
뷉
뷋
뷤
뷩
뷮
뷹
븠
븧
빘
뺔
뺚
뺫
뻟
뻽
뼥
뽟
뽬
뽴
뿗
쀡
쁀
쁄
쁏
쁟
삝
샂
샫
샭
샻
섢
섨
섿
솕
솣
쇀
쇙
숤
숧
숰
쉈
쉛
쉩
싥
싨
싮
싳
싺
싽
쌙
썍
썎
썫
썲
쎀
쎨
쏄
쏌
쐔
쐙
쑟
쑷
쒐
쒞
쒰
쒱
쓕
앐
앢
얷
엜
옞
옠
왙
욈
욮
욼
웧
윻
읂
읈
읰
잂
잓
잕
잙
잧
쟆
쟣
젆
젰
젵
졐
좜
좢
좽
죕
죢
죧
죹
줐
쥈
쥉
쥗
쥥
즠
짂
짷
쨖
쪤
쬴
쮓
쮝
쯈
찫
찭
찴
챷
첅
첧
첯
첰
쳼
촊
촒
촞
촟
촡
촢
촣
쵯
춭
췔
츷
칀
캜
켼
콭
쾻
쿭
쿹
퀏
큮
큻
킐
킳
킽
탊
탰
턉
텋
텥
톢
퇫
퉄
퉐
퉸
틘
팂
팛
팧
퍕
펕
폕
폣
폥
폳
퐙
푭
풴
풹
퓝
픋
픓
픱
핞
핶
햍
햾
헁
헏
헔
헕
헯
홣
홨
홭
훃
훎
휜
갌
갣
갦
갿
걕
걥
걳
겇
겈
겦
겱
겳
겾
곃
곙
괆
괬
괱
괸
궇
궋
궶
귍
귔
귛
귡
귨
긃
긎
긒
긮
긹
깏
깑
깳
꺀
꺃
꺕
꺢
꼅
꼯
꼲
꽣
꽦
꾑
꾭
꿃
꿝
꿥
꿯
뀙
낞
낻
냙
냩
넏
녋
녿
놞
놩
놴
뇜
뉀
늖
닒
댦
댧
댭
덀
덌
덠
뎂
뎆
뎰
뎽
돒
돧
돱
돳
돴
됈
됻
둄
둍
둽
뒉
뒓
뒛
뒫
뒺
듑
딬
딭
땇
땎
땓
땩
땻
떗
떭
떷
뗆
뗡
뗣
뗫
똝
똧
뙍
뙬
뙴
뚐
뚔
뚢
뚣
뚼
뛈
뛉
뛛
뛯
뛷
뛻
뜄
뜔
뜾
띻
럂
럍
럣
럮
럶
럸
렂
렞
렠
렰
롻
뢋
뢘
룺
뤩
뤰
륳
륾
릀
릆
릞
릥
릯
릵
맋
맚
맮
먆
먏
먚
먛
먽
멐
멟
멦
몉
몟
몥
몲
몳
몴
뫟
뫤
뫽
묍
묟
묳
묺
뭃
뭈
뭗
뭨
뮜
뮽
믭
믻
믽
밁
밒
밚
밲
밻
뱛
뱷
벲
볈
볋
볟
볿
봀
봽
뵽
붌
붍
붭
뷇
뷈
뷛
뷷
븗
븞
븪
븹
븻
빥
빮
빶
빷
빾
뺅
뺒
뺓
뺛
뺠
뺶
뻙
뻞
뻦
뻪
뼇
뼐
뼙
뼠
뼡
뽛
뽞
뽧
뽸
뾥
뾻
뿀
뿉
뿏
뿑
뿘
뿙
뿧
뿯
뿰
쀒
쀫
쀵
쁋
쁎
쁢
삗
삜
삺
샑
샢
샸
섑
섲
섷
셓
셙
솄
솑
솗
솫
쇌
쇘
숡
쉄
쉉
쉏
쉒
슀
슄
슏
슞
슠
슫
싞
싧
쌁
쌇
쌒
쌖
쌛
쌷
쌻
썃
썄
썋
썮
쎂
쎋
쎝
쎡
쎥
쎿
쏏
쏑
쏶
쏻
쏽
쐅
쐣
쐽
쑁
쑞
쑩
쑼
쒄
쒈
쒴
쓀
쓈
쓍
쓑
쓜
쓤
쓷
씋
씥
앩
앻
얩
엝
엞
옑
옱
왛
왣
왷
욙
욟
욡
욢
웋
윋
윧
윲
윿
읁
읟
읧
잟
잢
젗
졥
좈
좠
좬
좸
좹
좼
죵
죸
죻
줈
줓
줮
쥩
즂
즊
즏
즣
즬
즴
짣
짲
짿
쨎
쨨
쪌
쪰
쫃
쫖
쫣
쬡
쬥
쬷
쬿
쭒
쭨
쮈
쮕
쯸
찓
찥
찵
찷
챀
챁
챯
첞
첣
첥
촰
촳
쵄
쵬
춝
췄
췜
췸
츺
칞
캵
컭
켇
콙
콛
콻
쾁
쿜
쿧
쿫
쿻
퀨
큗
큨
큳
큾
탵
턋
턑
턚
턷
턹
턻
텓
톋
톗
톙
톽
퇑
툄
툘
툳
툻
퉀
퉭
튮
튺
튻
틆
틐
팯
퍀
펁
펎
펬
펻
폑
퐂
퐃
퐑
퐤
풕
풬
퓟
퓦
픜
픟
픳
픵
핖
핚
핪
핽
햰
햿
헚
헫
헱
헲
혙
홒
홴
횹
훒
훞
휅
휗
휳
힑
힒
힚
갃
갍
갏
갢
갥
갨
갶
갷
걂
걄
걇
걏
걐
걓
걠
걤
걵
걽
걾
걿
겢
겥
겷
곕
곟
곫
곮
괧
괨
괩
괳
괺
괻
괾
굅
굗
굛
굮
굯
굾
궏
궔
궖
궚
궮
궯
궴
궵
궺
귇
귊
귏
귘
귥
귭
귽
긊
긛
긞
긠
긡
긢
긣
긥
긬
깂
깒
깧
깶
꺁
꺋
꺏
꺐
꺡
꺰
껇
껗
껰
껱
껻
꼠
꼣
꼤
꼥
꼵
꼶
꼸
꽏
꽑
꽘
꽙
꽫
꽭
꽯
꽸
꾔
꾕
꾫
뀁
뀓
뀟
뀠
뀪
뀱
끑
끜
낐
낤
낧
낿
냟
냫
넁
넟
넿
녵
놬
놶
놸
뇝
뇦
뇯
눂
뉑
늜
늟
늭
닱
댊
댋
댗
댙
댚
댶
댷
덲
덳
덻
덾
뎉
뎏
뎒
뎓
뎗
뎘
뎙
뎢
뎩
뎸
뎹
돊
돍
돏
돣
돫
돽
돿
됃
됓
됗
됢
됤
됧
됯
됱
됺
둈
둛
둭
둳
뒌
뒏
뒐
뒕
뒗
뒘
뒜
뒾
듇
듘
듛
듞
듲
듿
딦
딳
딵
딶
땊
땕
땞
땣
땥
땧
땬
땳
땹
땼
떁
떋
떌
떑
떟
떥
떦
뗉
뗋
뗔
뗗
뗙
뗛
뗝
뗞
뗟
뗨
뗩
뗭
뗳
뗻
똄
똅
똚
똛
똤
똩
똷
뙀
뙌
뙏
뙐
뙒
뙓
뙗
뙘
뙙
뙛
뙥
뙫
뙮
뙱
뙳
뙵
뙷
뙸
뙹
뚆
뚩
뚳
뚴
뚶
뚿
뛀
뛇
뛋
뛓
뛗
뛘
뛜
뛝
뛣
뛤
뛥
뛧
뛨
뛹
뛼
뜍
뜏
뜡
뜫
뜮
뜲
뜴
뜼
띇
띎
띕
띿
랂
랆
랈
랤
랮
랱
럌
럑
럘
럪
럯
럵
럾
렑
렓
렚
렟
렧
렳
롊
롨
롲
롳
롽
뢌
뢓
뢛
뢜
뢤
뢥
뢧
뢯
뢵
뢷
룓
룛
룪
룫
룴
룷
룿
뤃
뤋
뤟
뤯
뤴
뤺
뤻
륃
륔
륝
륞
륟
륡
륰
륿
릁
릈
릑
릟
릡
릦
릮
릱
맖
맪
맭
먃
먅
먍
먙
먪
먳
먵
먻
멃
멇
멒
멠
멯
멶
멹
멺
멻
멽
몍
몜
몝
몡
몣
몦
몮
몷
몺
뫋
뫕
뫗
뫘
뫞
뫨
뫱
뫴
뫵
묃
묈
묚
묡
묦
묬
묱
뭁
뭟
뭦
뭧
뭺
뭽
뭿
뮀
뮁
뮊
뮔
뮙
뮧
뮫
뮯
뮳
뮵
뮶
뮿
믊
믛
믝
믲
믺
밄
밓
밙
뱂
뱆
뱇
뱈
뱋
뱏
뱒
뱚
뱞
뱧
뱬
뱰
뱸
뱺
벇
벉
벊
벒
벢
벪
벯
벷
벻
볅
볆
볒
볨
볩
볳
볷
봂
봢
봭
봳
봵
뵊
뵏
뵑
뵝
뵧
뵲
뵵
뵸
뵻
붃
붣
붥
붬
붵
붷
붿
뷃
뷄
뷌
뷏
뷓
뷟
뷦
뷭
뷵
뷼
븈
븎
븏
븣
븤
빒
빓
빣
빫
빺
뺝
뺟
뺥
뺦
뺧
뺮
뺳
뺹
뺿
뻕
뻖
뻚
뻛
뻫
뻳
뼞
뼟
뼢
뼦
뼱
뼷
뼹
뽆
뽊
뽒
뽔
뽖
뽙
뽚
뽣
뽷
뽿
뾃
뾄
뾅
뾇
뾘
뾤
뾬
뾹
뿃
뿋
뿒
뿚
뿞
뿥
뿦
뿮
뿷
쀈
쀌
쀎
쀐
쀑
쀜
쀟
쀨
쀬
쀲
쁃
쁅
쁉
쁓
쁕
쁖
쁚
쁣
쁶
쁼
삦
삨
삫
삹
샋
샓
샟
샣
샪
샮
샶
샿
섂
섋
섚
섫
섳
셂
셆
셎
셛
셠
셡
셣
셦
셭
셳
셷
솈
솏
솒
솚
솛
솞
솠
쇇
쇈
쇋
쇕
쇝
쇧
쇰
숁
숃
숎
숓
숕
숚
숥
숦
숪
숬
숵
숻
쉖
쉗
쉙
쉚
쉜
쉟
쉳
쉵
쉻
슂
슓
슯
슰
싊
싓
싘
싟
싩
쌆
쌊
쌎
쌚
쌯
쌺
썔
썗
썝
썱
썳
썴
썷
쎜
쎞
쎟
쎧
쎫
쎰
쎱
쎳
쏍
쏐
쏔
쏚
쏢
쏲
쐄
쐏
쐗
쐘
쐠
쐥
쐩
쐳
쐼
쐿
쑊
쑍
쑏
쑙
쑱
쑽
쑾
쒁
쒂
쒇
쒑
쒣
쒤
쒧
쒬
쒺
쒿
쓓
쓚
쓛
쓥
쓹
씟
씱
씿
앃
앇
앦
앲
앷
앹
얟
얨
얰
엕
엟
엦
옏
옓
옟
왖
왧
왿
욂
욒
욚
욦
욫
욳
욵
욻
웂
웎
웖
웞
웫
웯
웴
웼
윂
윎
윓
윚
윪
윮
윺
읤
읦
잜
잲
잳
쟄
쟏
쟗
쟢
쟥
쟴
젂
젉
젒
젟
젨
젮
젲
젺
젿
졁
졂
졓
졵
졺
좒
좥
좧
좩
좯
좰
좻
죅
죋
죥
죱
줋
줕
줛
줟
줦
줨
줩
줳
줻
쥻
즒
즔
즡
즵
즷
짏
짡
짨
짩
짺
쨏
쨚
쨢
쩎
쩒
쩓
쩘
쩛
쩢
쩯
쩱
쪁
쪅
쪔
쪱
쪳
쪵
쫅
쫆
쫋
쫔
쫟
쫠
쫫
쬑
쬗
쬣
쬧
쭞
쭟
쭬
쭯
쭴
쭷
쭹
쮁
쮄
쮇
쮋
쮐
쮑
쮣
쮬
쯇
쯛
쯫
쯬
찃
찅
찲
찳
찺
챋
챚
챛
챝
챣
챲
챶
첚
첛
첢
첦
첪
첱
첳
첻
첿
쳃
쳋
쳒
쳕
쳭
촁
촍
촎
촑
촓
촕
촖
촫
촻
쵁
쵕
쵣
쵰
쵿
춇
춏
춗
춟
춠
춢
춨
춪
춬
춮
췈
췎
췛
췝
췟
췠
췯
츬
츸
츻
츽
칌
칍
칏
칑
칚
칣
칻
캟
캧
캩
컌
켉
켞
켳
켹
콉
콪
쾋
쾓
쾜
쾝
쾟
쾹
쾽
쿏
쿕
쿩
쿪
쿶
쿺
퀃
퀶
퀻
큌
큑
큩
큫
킇
킉
킌
킘
킙
킛
킝
킠
킦
킭
킻
탂
탃
탆
탍
탒
턈
턌
턐
턒
턓
턕
턘
턩
턬
턺
텂
텆
텠
텯
텳
톁
톃
톅
톌
톔
톕
톮
퇍
퇙
퇜
퇣
퇬
퇭
퇻
툅
툔
툡
툣
툫
툯
툶
툷
툸
툹
툺
퉃
퉇
퉉
퉏
퉔
퉘
퉙
퉛
퉠
튎
튔
튘
튙
튟
튦
튲
튳
튵
튶
틁
틄
틇
틕
틥
팄
팒
팕
팗
팚
팮
팿
퍁
퍘
퍚
퍿
펃
펅
펋
펗
펟
펡
폂
폗
폠
폵
퐘
퐠
퐳
푁
푐
푑
푓
푣
푥
푧
푩
푫
푬
푴
푷
푾
풘
풤
풥
풧
퓀
퓁
퓃
퓡
픁
픒
픡
픰
핗
핛
핦
핺
핿
햊
햚
햞
헒
헓
헢
헺
헽
혂
혅
혇
혉
혍
혒
혻
혽
혾
홂
홄
홎
홠
홦
홪
홬
홳
홷
홸
횀
횓
횜
횯
횾
훇
훩
훴
훸
휌
휍
휟
휢
휪
휬
휰
휱
휺
휻
휽
흃
흅
흊
흍
흎
흓
흕
흖
흞
흪
힇
힍
갆
갎
갟
갡
갧
갩
갪
갫
갳
갺
갻
갽
갾
걃
걅
걆
걊
걎
걒
걖
걗
걙
걚
걛
걝
걞
걟
걡
걢
걣
걦
걧
걨
걪
걫
걬
걭
걮
걯
걶
걻
겏
겑
겒
겣
겫
겭
겮
겲
곆
곇
곉
곊
곋
곔
곚
곛
곜
곝
곞
곢
곣
곥
곦
곭
곴
곾
곿
괁
괂
괅
괇
괈
괋
괗
괟
괢
괥
괦
괪
괮
괯
괰
괶
괷
괹
괽
괿
굀
굁
굂
굃
굆
굊
굋
굌
굍
굎
굏
굒
굓
굕
굖
굙
굚
굜
굝
굞
굟
굢
굤
굦
굧
굨
굩
굪
굫
굱
굲
굹
굺
궊
궍
궎
궑
궒
궓
궕
궗
궟
궠
궡
궣
궦
궧
궩
궪
궰
궱
궲
궽
궾
궿
귂
귃
귅
귆
귉
귋
귌
귎
귒
귗
귙
귞
귟
귢
귣
귦
귧
귩
귵
귶
귷
긅
긆
긖
긗
긙
긚
긝
긟
긦
긨
긪
긫
긭
긯
긳
긵
긻
긽
긾
깖
깗
깘
깙
깚
깯
깱
깲
깴
깵
깷
깾
깿
꺂
꺇
꺉
꺊
꺎
꺑
꺓
꺚
꺛
꺜
꺝
꺞
꺟
꺣
꺥
꺦
꺧
꺩
꺪
꺫
꺬
꺭
꺮
꺯
껂
껓
껕
껖
껟
껦
껧
껪
껮
껯
껲
껳
껷
껹
껺
껽
껾
껿
꼀
꼁
꼂
꼃
꼑
꼔
꼗
꼙
꼚
꼛
꼜
꼝
꼞
꼟
꼡
꼢
꼦
꼧
꼨
꼩
꼪
꼫
꼷
꼹
꽒
꽓
꽔
꽕
꽖
꽗
꽚
꽞
꽟
꽠
꽡
꽢
꽧
꽩
꽪
꽮
꽰
꽱
꽲
꽳
꽴
꽵
꾇
꾓
꾠
꾣
꾤
꾥
꾩
꾬
꾲
꾳
꾴
꾺
꿁
꿆
꿐
꿛
꿤
꿲
꿷
뀂
뀃
뀢
뀸
뀹
끏
끚
끧
끫
끰
끳
낃
낕
낗
낦
낶
냀
냃
냊
냌
냎
냗
냛
냦
냴
넍
넎
넔
넧
녆
녙
녚
녣
녭
녱
녻
녾
놁
놃
놅
놇
놊
놗
놛
놟
놠
놡
놢
놣
놦
놪
놫
놭
놮
놱
놲
놳
놵
놷
놹
놺
놻
놼
놽
놾
놿
뇀
뇁
뇂
뇃
뇅
뇆
뇇
뇈
뇉
뇊
뇋
뇎
뇓
뇖
뇗
뇘
뇙
뇚
뇛
뇞
뇢
뇣
뇤
뇥
뇧
뇪
뇫
뇭
뇮
뇱
뇲
뇳
뇴
뇵
뇶
뇷
뇾
눀
눁
눍
눐
눓
눚
눛
눡
눧
눰
눱
눵
눶
뉃
뉄
뉇
뉌
뉐
뉔
뉟
뉯
뉻
뉽
늊
늋
늎
늓
늛
늝
늞
늢
늤
늳
늽
닀
닍
닓
닔
닚
닩
댂
댃
댅
댆
댉
댌
댍
댎
댏
댒
댞
댟
댡
댢
댣
댨
댩
댪
댫
댮
댰
댲
댳
댴
댵
댹
댺
댻
댽
댾
댿
덁
덂
덃
덄
덅
덆
덇
덈
덉
덊
덋
덎
덏
덐
덑
덒
덓
덚
덡
덵
덶
덹
덺
덼
덽
뎇
뎎
뎑
뎕
뎖
뎚
뎛
뎞
뎣
뎤
뎥
뎪
뎫
뎭
뎮
뎯
뎱
뎲
뎳
뎴
뎵
뎶
뎷
뎺
뎼
뎾
뎿
돀
돁
돂
돃
돉
돑
돢
돥
돦
돪
돬
돭
돮
돯
돲
돷
돸
돹
돺
돻
돾
됁
됂
됅
됆
됇
됉
됊
됋
됎
됔
됕
됖
됚
됛
됝
됞
될
됡
됣
됥
됦
됪
됮
됲
됳
됶
됷
됹
됽
됾
됿
둀
둁
둂
둆
둊
둋
둌
둎
둒
둓
둕
둖
둜
둝
둞
둢
둤
둦
둧
둨
둮
둯
둱
둲
둵
둶
둷
둸
둹
둺
둻
둾
뒂
뒃
뒄
뒅
뒆
뒇
뒊
뒋
뒍
뒎
뒒
뒔
뒖
뒚
뒞
뒟
뒠
뒡
뒢
뒣
뒦
뒧
뒩
뒪
뒭
뒮
뒯
뒰
뒱
뒲
뒳
뒶
뒻
뒼
뒽
듂
듃
듅
듆
듉
듊
듋
듌
듍
듎
듏
듒
듔
듖
듗
듙
듚
듡
듢
듩
듪
듺
듻
듽
듾
딁
딂
딃
딄
딅
딆
딇
딊
딌
딎
딏
딐
딑
딒
딓
딖
딗
딙
딞
딟
딠
딡
딢
딣
딼
딽
딾
땂
땆
땉
땏
땑
땒
땖
땘
땙
땚
땢
땤
땦
땪
땫
땭
땮
땯
땱
땲
땴
땵
땶
땷
땸
땺
땾
땿
떀
떂
떃
떆
떇
떉
떊
떍
떎
떏
떐
떒
떓
떕
떖
떚
떛
떜
떝
떞
떩
떬
떮
떲
떶
떸
떹
떺
떾
떿
뗁
뗂
뗅
뗇
뗈
뗊
뗎
뗒
뗓
뗕
뗖
뗚
뗢
뗤
뗥
뗦
뗧
뗪
뗮
뗯
뗰
뗱
뗲
뗷
뗹
뗺
뗽
똀
똁
똂
똃
똆
똉
똊
똋
똌
똍
똎
똓
똕
똖
똜
똞
똢
똦
똨
똪
똮
똯
똱
똲
똳
똶
똸
똹
똺
똼
똾
뙂
뙃
뙄
뙅
뙆
뙊
뙋
뙎
뙑
뙔
뙕
뙖
뙚
뙝
뙞
뙟
뙠
뙢
뙣
뙦
뙧
뙩
뙪
뙯
뙰
뙲
뙶
뙺
뙻
뙼
뙽
뙾
뙿
뚃
뚅
뚇
뚈
뚉
뚋
뚌
뚍
뚎
뚏
뚑
뚒
뚓
뚖
뚗
뚘
뚙
뚚
뚛
뚟
뚡
뚨
뚪
뚰
뚲
뚹
뚺
뚻
뚽
뚾
뛄
뛅
뛆
뛊
뛍
뛎
뛏
뛐
뛑
뛒
뛕
뛖
뛙
뛚
뛞
뛠
뛡
뛢
뛦
뛪
뛫
뛬
뛭
뛮
뛱
뛲
뛳
뛵
뛶
뛺
뛽
뛾
뛿
뜂
뜆
뜇
뜈
뜉
뜊
뜋
뜎
뜑
뜒
뜓
뜕
뜖
뜗
뜘
뜙
뜚
뜞
뜟
뜠
뜢
뜣
뜤
뜥
뜦
뜧
뜪
뜭
뜱
뜶
뜺
뜿
띀
띂
띆
띉
띊
띋
띍
띏
띐
띑
띒
띓
띖
띗
띘
띚
띛
띜
띝
띞
띟
띢
띣
띥
띦
띩
띪
띫
띬
띭
띮
띲
띴
띶
띷
띸
띹
띺
랁
랇
랉
랊
랚
랛
랡
랢
랥
랦
랧
랪
랯
랶
랷
랹
랺
랽
랾
랿
럀
럁
럃
럆
럊
럋
럎
럏
럒
럓
럕
럖
럗
럙
럚
럛
럜
럝
럞
럟
럠
럡
럢
럥
럦
럧
럨
럩
럫
럱
럹
럺
렃
렅
렊
렋
렍
렎
렒
렔
렕
렖
렗
렩
렪
렭
렮
렯
렱
렲
렶
렻
렽
롂
롃
롅
롆
롉
롋
롌
롍
롎
롏
롒
롔
롖
롗
롘
롙
롚
롛
롞
롟
롡
롢
롦
롧
롩
롪
롰
롺
롾
롿
뢁
뢂
뢅
뢆
뢊
뢎
뢏
뢑
뢒
뢕
뢖
뢗
뢙
뢚
뢝
뢞
뢟
뢠
뢡
뢢
뢣
뢦
뢩
뢪
뢫
뢬
뢭
뢮
뢲
뢳
뢶
뢹
뢺
뢻
뢼
뢽
뢾
뢿
룂
룆
룇
룈
룉
룊
룋
룎
룏
룑
룒
룕
룖
룗
룘
룙
룚
룞
룠
룢
룣
룤
룦
룧
룭
룮
룲
룵
룶
룼
룾
뤆
뤇
뤉
뤊
뤍
뤎
뤏
뤐
뤑
뤒
뤓
뤖
뤚
뤛
뤜
뤝
뤞
뤢
뤣
뤥
뤦
뤧
뤪
뤫
뤬
뤭
뤮
뤲
뤶
뤷
뤸
뤹
뤾
뤿
륁
륂
륅
륆
륇
륈
륉
륊
륋
륎
륒
륓
륕
륖
륗
륚
륛
륢
륣
륤
륥
륦
륪
륬
륯
륱
륲
륹
륺
릂
릒
릓
릕
릖
릗
릙
릚
릛
릜
릝
릢
릤
릧
릨
릩
릪
릫
릲
릶
릷
릸
릹
릺
릻
맦
맧
맩
맯
맰
맱
맲
맳
맶
맿
먂
먇
먉
먊
먋
먌
먎
먒
먔
먝
먞
먟
먠
먡
먢
먣
먤
먥
먦
먧
먨
먩
먬
먭
먮
먰
먱
먲
먴
먶
먷
멄
멆
멖
멗
멙
멚
멝
멡
멢
멣
멨
멲
멳
멵
멼
멾
멿
몂
몈
몎
몏
몑
몒
몕
몖
몗
몘
몙
몚
몛
몞
몠
몢
몤
몧
몵
몶
뫂
뫆
뫇
뫉
뫊
뫍
뫎
뫏
뫐
뫑
뫒
뫓
뫖
뫛
뫜
뫝
뫡
뫢
뫣
뫥
뫦
뫧
뫩
뫪
뫫
뫬
뫭
뫮
뫯
뫰
뫲
뫳
뫶
뫷
뫸
뫹
뫺
뫻
뫾
뫿
묁
묂
묅
묆
묇
묉
묊
묋
묎
묐
묒
묓
묔
묕
묖
묛
묝
묞
묢
묣
묤
묥
묪
묮
묰
묲
묹
묿
뭂
뭒
뭓
뭕
뭖
뭙
뭚
뭛
뭜
뭝
뭞
뭢
뭪
뭫
뭮
뭯
뭱
뭲
뭳
뭶
뭸
뭹
뭻
뭾
뮂
뮃
뮄
뮅
뮆
뮇
뮋
뮍
뮎
뮏
뮑
뮒
뮓
뮕
뮖
뮗
뮚
뮞
뮟
뮠
뮡
뮢
뮣
뮦
뮩
뮪
뮭
뮮
뮰
뮱
뮲
뮸
뮺
뮼
뮾
믃
믅
믆
믋
믍
믎
믒
믔
믚
믞
믟
믡
믢
믣
믥
믦
믧
믨
믩
믪
믫
믮
믰
믳
믴
믵
믶
믷
밃
밅
밆
밳
밵
밶
밹
밺
밼
밽
밾
밿
뱎
뱑
뱖
뱗
뱘
뱙
뱠
뱢
뱣
뱥
뱪
뱫
뱭
뱮
뱯
뱱
뱲
뱳
뱴
뱵
뱶
뱹
뱻
뱼
뱾
뱿
벀
벁
벂
벃
벣
벥
벦
벬
벭
벮
벶
벺
벿
볁
볂
볇
볉
볊
볖
볗
볚
볛
볝
볞
볡
볢
볣
볤
볥
볦
볧
볪
볬
볮
볯
볰
볲
볺
봓
봕
봖
봚
봛
봜
봝
봞
봟
봦
봧
봩
봪
봮
봯
봱
봲
봶
봷
봸
봹
봺
봻
봼
봾
봿
뵁
뵂
뵃
뵄
뵅
뵆
뵇
뵋
뵍
뵎
뵒
뵓
뵔
뵕
뵖
뵗
뵚
뵞
뵟
뵠
뵡
뵢
뵣
뵦
뵩
뵪
뵮
뵯
뵰
뵱
뵺
뵼
뵾
뵿
붅
붔
붞
붟
붡
붢
붦
붧
붨
붩
붪
붫
붮
붲
붳
붶
붺
붻
붽
붾
뷂
뷅
뷆
뷊
뷎
뷐
뷒
뷖
뷗
뷙
뷚
뷝
뷞
뷠
뷡
뷢
뷣
뷨
뷪
뷬
뷯
뷲
뷳
뷶
뷺
뷻
뷽
뷾
뷿
븂
븄
븆
븇
븊
븋
븑
븒
븖
븙
븚
븢
븦
븫
븭
븮
븯
븱
븲
븳
븴
븵
븶
븷
븺
븼
븾
븿
빀
빁
빃
빇
빉
빊
빐
빑
빦
빬
빭
빯
빲
빿
뺁
뺂
뺆
뺇
뺈
뺉
뺊
뺋
뺎
뺕
뺖
뺗
뺞
뺢
뺤
뺪
뺬
뺯
뺰
뺱
뺲
뺺
뺻
뺽
뺾
뻀
뻁
뻂
뻃
뻅
뻊
뻋
뻌
뻍
뻎
뻏
뻓
뻜
뻝
뻧
뻮
뻯
뻱
뻲
뻵
뻶
뻷
뻸
뻹
뻺
뻻
뻾
뼀
뼂
뼃
뼄
뼅
뼆
뼊
뼋
뼍
뼎
뼑
뼒
뼓
뼔
뼕
뼖
뼗
뼚
뼣
뼧
뼨
뼩
뼪
뼫
뼭
뼮
뼯
뼰
뼲
뼳
뼴
뼵
뼶
뼺
뼻
뼼
뼽
뼾
뼿
뽃
뽅
뽉
뽋
뽌
뽍
뽎
뽏
뽗
뽡
뽢
뽦
뽨
뽩
뽪
뽫
뽮
뽯
뽰
뽲
뽳
뽵
뽶
뽹
뽺
뽻
뽼
뽽
뽾
뾀
뾂
뾈
뾉
뾊
뾋
뾌
뾍
뾎
뾏
뾐
뾑
뾒
뾓
뾕
뾖
뾗
뾙
뾚
뾛
뾜
뾝
뾞
뾟
뾠
뾡
뾢
뾣
뾦
뾧
뾨
뾩
뾪
뾫
뾭
뾮
뾯
뾳
뾵
뾶
뾷
뾺
뾽
뾾
뾿
뿂
뿄
뿆
뿇
뿈
뿊
뿖
뿢
뿣
뿤
뿪
뿫
뿬
뿭
뿱
뿲
뿳
뿴
뿵
뿶
뿸
뿹
뿺
뿻
뿼
뿽
뿾
뿿
쀀
쀁
쀂
쀃
쀅
쀆
쀇
쀉
쀊
쀋
쀔
쀕
쀖
쀗
쀘
쀙
쀚
쀛
쀝
쀞
쀢
쀣
쀤
쀥
쀦
쀧
쀩
쀪
쀭
쀮
쀯
쀰
쀱
쀴
쀶
쀷
쀸
쀹
쀺
쀻
쀿
쁁
쁂
쁆
쁇
쁈
쁊
쁒
쁔
쁗
쁛
쁝
쁞
쁡
쁤
쁦
쁧
쁪
쁬
쁮
쁯
쁰
쁱
쁵
쁽
삂
삇
삚
삞
삟
삢
삩
삪
샍
샎
샔
샕
샖
샗
샚
샞
샡
샦
샧
샩
샯
샰
샱
샲
샳
샺
샽
섃
섅
섆
섇
섉
섌
섍
섎
섏
섒
섓
섔
섖
섗
섘
섙
섛
섩
섽
셁
셃
셄
셅
셇
셏
셚
셝
셞
셢
셪
셫
셬
셮
셯
셲
셵
셶
셹
셺
셻
셼
셽
셾
셿
솂
솆
솇
솉
솋
솙
솪
솭
솮
솯
솱
솲
솳
솴
솵
솶
솷
솺
솾
솿
쇁
쇂
쇃
쇆
쇉
쇊
쇍
쇎
쇏
쇐
쇑
쇒
쇓
쇔
쇖
쇗
쇚
쇛
쇜
쇞
쇟
쇢
쇣
쇥
쇦
쇩
쇪
쇫
쇬
쇭
쇮
쇯
쇲
쇶
쇷
쇸
쇹
쇺
쇻
쇾
쇿
숂
숅
숆
숇
숈
숉
숊
숋
숐
숒
숗
숢
숶
숷
숹
숺
숽
숾
숿
쉀
쉁
쉂
쉃
쉆
쉊
쉋
쉌
쉍
쉎
쉓
쉕
쉝
쉞
쉢
쉦
쉧
쉫
쉮
쉯
쉱
쉲
쉶
쉷
쉸
쉹
쉺
쉾
슃
슇
슊
슋
슍
슎
슑
슒
슔
슕
슖
슗
슚
슜
슣
슩
슪
슱
싂
싃
싅
싆
싇
싉
싋
싌
싍
싎
싏
싒
싔
싖
싗
싙
싚
싛
싡
쌃
쌄
쌅
쌗
쌝
쌠
쌡
쌢
쌣
쌦
쌪
쌫
쌬
쌭
쌮
쌲
쌳
쌶
쌹
쌼
쌽
쌾
쌿
썂
썆
썇
썈
썉
썊
썏
썑
썒
썓
썕
썘
썙
썚
썞
썟
썠
썢
썣
썤
썥
썦
썧
썵
썶
썺
썾
썿
쎁
쎇
쎉
쎊
쎍
쎎
쎏
쎐
쎑
쎒
쎓
쎖
쎚
쎛
쎢
쎣
쎦
쎩
쎪
쎬
쎭
쎮
쎯
쎲
쎶
쎷
쎸
쎹
쎺
쎻
쏁
쏂
쏃
쏅
쏆
쏇
쏈
쏊
쏋
쏎
쏒
쏓
쏕
쏖
쏛
쏞
쏡
쏣
쏤
쏥
쏦
쏧
쏪
쏬
쏮
쏯
쏰
쏷
쏹
쏺
쏾
쏿
쐀
쐁
쐂
쐃
쐆
쐊
쐋
쐌
쐍
쐎
쐒
쐓
쐕
쐖
쐚
쐛
쐜
쐝
쐞
쐟
쐡
쐢
쐦
쐧
쐨
쐪
쐫
쐮
쐯
쐱
쐲
쐵
쐶
쐷
쐸
쐹
쐺
쐻
쐾
쑂
쑃
쑄
쑅
쑆
쑇
쑋
쑎
쑑
쑒
쑓
쑔
쑕
쑖
쑗
쑚
쑜
쑠
쑡
쑢
쑣
쑧
쑪
쑭
쑮
쑯
쑰
쑲
쑳
쑶
쑸
쑺
쑿
쒃
쒅
쒆
쒉
쒊
쒋
쒌
쒍
쒎
쒏
쒒
쒖
쒗
쒘
쒙
쒚
쒛
쒟
쒡
쒢
쒥
쒦
쒨
쒪
쒫
쒮
쒲
쒳
쒵
쒶
쒷
쒻
쒽
쒾
쓁
쓂
쓃
쓄
쓅
쓆
쓇
쓊
쓌
쓎
쓏
쓐
쓒
쓖
쓗
쓙
쓝
쓞
쓟
쓠
쓡
쓢
쓣
쓦
쓨
쓪
쓫
쓬
쓭
쓮
쓯
쓳
쓵
쓶
쓻
쓼
쓽
쓾
씂
씆
씇
씈
씊
씎
씏
씑
씒
씓
씕
씖
씗
씘
씙
씚
씛
씞
씠
씢
씣
씦
씧
씫
씭
씮
씲
씳
씴
씵
씶
씷
씾
앁
앂
앣
앥
앪
앬
앭
앮
앯
앿
얁
얈
얓
얚
얛
얝
얞
얡
얢
얣
얤
얥
얦
얧
얪
얮
얯
얱
얲
얳
엀
엁
엂
엖
엚
엛
엢
엧
엲
옊
옋
옍
옎
옔
옕
옖
옗
옚
옢
옣
옩
왃
왅
왆
왊
왋
왌
왍
왎
왏
왗
왞
왟
왡
왢
왥
왦
왨
왩
왪
왫
왮
왲
왳
왴
왵
왶
왺
왻
왽
왾
욁
욃
욄
욅
욆
욇
욊
욎
욏
욐
욑
욓
욖
욗
욞
욠
욪
욶
욽
웏
웑
웘
웙
웢
웣
웪
웭
웮
웲
웵
웶
웺
웾
웿
윃
윆
윇
윉
윊
윍
윏
윐
윑
윒
윖
윛
윣
윥
윦
윩
윫
윬
윭
윯
윴
읚
읛
읝
읞
읡
읢
읣
읥
읬
읮
읯
읱
읲
읳
잁
잝
잮
잯
잱
잵
잶
쟅
쟇
쟑
쟔
쟟
쟫
쟵
쟷
쟸
쟻
젃
젅
젘
젣
젻
졃
졇
졏
졑
졒
졕
졬
졲
졽
졾
졿
좓
좕
좦
좪
좫
좭
좮
좱
좲
좳
좴
좵
좶
좷
좺
좾
좿
죀
죁
죂
죃
죆
죇
죉
죊
죍
죎
죏
죐
죑
죒
죓
죖
죚
죛
죜
죝
죞
죟
죣
죷
줊
줎
줔
줖
줚
줝
줞
줡
줢
줣
줤
줥
줧
줪
줯
줰
줱
줲
줶
줷
줹
줺
줽
줾
줿
쥀
쥁
쥂
쥃
쥆
쥮
쥱
쥲
쥳
쥵
쥶
쥷
쥸
쥹
쥺
쥾
즀
즃
즄
즅
즆
즇
즋
즍
즎
즓
즕
즖
즗
즚
즜
즟
즢
즦
즧
즩
즪
즫
즭
즮
즯
짎
짟
짳
짵
짶
짻
짽
짾
쨁
쨂
쨃
쨄
쨅
쨆
쨇
쨊
쨐
쨑
쨒
쨓
쨗
쨙
쨛
쨝
쨞
쨠
쨡
쨣
쨭
쨱
쨸
쨻
쩁
쩇
쩈
쩉
쩊
쩋
쩏
쩑
쩕
쩙
쩚
쩞
쩣
쩤
쩥
쩦
쩪
쩫
쩭
쩮
쩲
쩳
쩴
쩵
쩶
쩷
쩺
쩾
쩿
쪀
쪂
쪃
쪆
쪋
쪕
쪡
쪩
쪪
쪫
쪬
쪭
쪮
쪯
쪲
쪴
쪶
쪷
쪸
쪹
쪺
쪻
쪿
쫁
쫂
쫇
쫈
쫉
쫊
쫎
쫐
쫕
쫚
쫛
쫝
쫞
쫡
쫢
쫤
쫥
쫦
쫧
쫨
쫰
쫵
쫸
쫻
쫼
쬋
쬌
쬍
쬎
쬏
쬒
쬓
쬕
쬖
쬙
쬚
쬛
쬜
쬝
쬞
쬟
쬢
쬦
쬨
쬩
쬪
쬫
쬮
쬯
쬱
쬳
쬵
쬶
쬸
쬹
쬺
쬻
쬾
쭄
쭏
쭓
쭥
쭫
쭭
쭮
쭰
쭱
쭲
쭳
쭶
쭺
쭻
쭼
쭽
쭾
쭿
쮂
쮃
쮅
쮆
쮉
쮊
쮌
쮍
쮎
쮏
쮒
쮔
쮖
쮗
쮘
쮙
쮚
쮛
쮞
쮟
쮡
쮢
쮤
쮭
쮯
쮱
쮼
쯅
쯆
쯊
쯌
쯎
쯏
쯐
쯑
쯒
쯓
쯖
쯗
쯙
쯚
쯝
쯞
쯟
쯠
쯡
쯢
쯣
쯦
쯨
쯭
쯮
쯯
쯲
쯳
쯵
쯶
쯷
쯹
쯺
쯻
쯼
찀
찁
찆
찖
찗
찛
찤
찪
찶
챆
챇
챉
챊
챍
챎
챏
챐
챑
챒
챓
챖
챜
챟
챢
챥
챧
챩
챪
챫
챬
챭
챮
챴
챹
챻
챽
첄
첌
첐
첑
첔
첕
첖
첗
첝
첤
첶
첷
첹
첺
첽
첾
쳀
쳁
쳂
쳆
쳊
쳍
쳎
쳏
쳓
쳖
쳙
쳚
쳧
쳫
쳽
쳾
촀
촂
촃
촄
촅
촆
촇
촋
촔
촗
촚
촜
촦
촧
촩
촪
촭
촮
촯
촱
촲
촶
촸
촺
촼
촽
쵓
쵔
쵡
쵢
쵥
쵦
쵧
쵨
쵩
쵪
쵫
쵲
쵳
쵴
쵵
쵶
쵺
쵻
쵽
쵾
춁
춂
춃
춄
춅
춆
춊
춌
춎
춐
춑
춒
춓
춖
춙
춚
춞
춡
춦
춯
춷
췀
췆
췇
췉
췊
췋
췏
췑
췒
췓
췕
췖
췗
췘
췙
췚
췞
췢
췣
췥
췦
췧
췪
췫
췭
췮
췱
췲
췳
췴
췵
췶
췷
췺
췾
췿
츁
츂
츆
츎
츚
츞
츧
츭
츮
츯
츲
츴
츶
츹
츾
츿
칁
칂
칃
칅
칆
칇
칈
칉
칊
칋
칎
칐
칒
칓
칔
칕
칖
칗
칛
칝
칤
칥
칦
칧
칪
칳
캃
캊
캗
캚
캛
캝
캞
캦
캨
캫
캮
캯
캱
캲
캳
캶
캷
캸
캹
캺
캻
캾
컀
컂
컃
컅
컆
컇
컉
컊
컋
컍
컎
컏
컐
컑
컒
컓
컔
컕
컘
컛
컻
켂
켃
켅
켆
켊
켋
켌
켍
켎
켏
켒
켖
켗
켛
켟
켡
켢
켥
켦
켧
켨
켩
켪
켫
켲
켴
켵
켶
켷
켺
켻
켽
켾
켿
콁
콂
콃
콄
콈
콋
콌
콍
콣
콲
콳
콵
콶
콷
콹
콺
콼
콽
콾
콿
쾂
쾄
쾆
쾇
쾉
쾊
쾎
쾏
쾑
쾒
쾕
쾖
쾗
쾘
쾙
쾚
쾛
쾞
쾠
쾢
쾣
쾤
쾥
쾦
쾧
쾸
쿅
쿍
쿎
쿐
쿑
쿒
쿓
쿖
쿘
쿚
쿛
쿝
쿞
쿟
쿢
쿣
쿥
쿦
쿬
쿮
쿯
쿲
쿴
쿷
쿾
쿿
퀁
퀂
퀅
퀆
퀇
퀈
퀉
퀊
퀐
퀡
퀩
퀬
퀮
퀯
퀰
퀱
퀲
퀳
퀷
퀹
퀺
퀽
퀾
퀿
큀
큁
큂
큃
큆
큈
큊
큋
큍
큎
큏
큒
큓
큕
큖
큙
큚
큛
큜
큝
큞
큢
큤
큦
큧
큯
큱
큲
큶
큺
킆
킕
킖
킗
킚
킜
킞
킟
킡
킢
킣
킧
킩
킪
킮
킯
킰
킱
킲
킶
킺
킿
탅
탋
탌
탎
탢
탥
탺
탿
턁
턅
턆
턇
턊
턎
턏
턖
턗
턙
턛
턜
턝
턞
턟
턠
턡
턢
턣
턤
턥
턦
턧
턨
턪
턫
턭
턮
턯
턲
턳
턵
턶
턼
턽
턾
텇
텈
텗
텞
텣
텪
텮
텱
텲
텴
텵
텶
텷
텺
텾
텿
톀
톂
톆
톇
톉
톊
톍
톎
톏
톐
톑
톒
톓
톖
톘
톚
톛
톜
톝
톞
톟
톣
톥
톦
톶
톷
톻
퇌
퇏
퇐
퇒
퇓
퇔
퇕
퇖
퇚
퇛
퇝
퇞
퇟
퇠
퇡
퇢
퇤
퇥
퇦
퇧
퇨
퇩
퇪
퇮
퇯
퇰
퇱
퇲
퇳
퇶
퇷
퇹
퇺
퇽
퇾
퇿
툀
툁
툂
툃
툆
툈
툒
툓
툝
툩
툪
툮
툱
툲
툾
퉂
퉊
퉋
퉍
퉎
퉑
퉒
퉓
퉕
퉖
퉗
퉚
퉜
퉞
퉟
퉡
퉢
퉣
퉦
퉧
퉫
퉬
퉱
퉴
퉵
튇
튍
튏
튒
튖
튗
튚
튛
튞
튡
튢
튣
튥
튧
튨
튩
튪
튫
튰
튴
튷
튾
틃
틅
틌
틎
틏
틒
틓
틠
틻
틼
틽
틾
틿
팆
팇
팋
팑
팘
팙
팞
팢
팪
팫
팭
팱
팲
팳
팴
팵
팶
팷
팺
팾
퍂
퍃
퍆
퍇
퍉
퍐
퍔
퍤
퍪
퍫
퍬
퍭
퍮
퍯
퍰
퍱
퍲
퍳
퍴
퍵
퍶
퍷
퍸
퍹
퍺
퍻
퍾
펂
펆
펇
펈
펉
펊
펒
펓
펚
펛
펝
펞
펢
펣
펤
펥
펦
펧
펪
펮
펹
폃
폙
폚
폛
폜
폝
폞
폟
폡
폢
폤
폦
폧
폨
폩
폪
폫
폱
폲
폶
폷
폸
폹
폺
폻
폾
퐀
퐇
퐊
퐋
퐍
퐎
퐏
퐒
퐓
퐔
퐕
퐖
퐛
퐟
퐸
퐹
퐺
퐻
퐼
퐽
퐾
퐿
푂
푃
푅
푆
푇
푉
푊
푋
푌
푍
푎
푏
푒
푔
푖
푗
푘
푙
푚
푛
푞
푟
푡
푢
푦
푨
푪
푮
푰
푲
풄
풅
풇
풏
풓
풛
풞
풟
풠
풡
풢
풣
풦
풪
풫
풭
풯
풲
풳
풵
풶
풷
풺
풻
풼
풽
퓂
퓄
퓆
퓇
퓈
퓉
퓊
퓋
퓎
퓏
퓑
퓒
퓓
퓕
퓙
퓯
퓳
퓴
퓵
퓾
퓿
픀
픂
픃
픆
픇
픉
픊
픍
픏
픑
픘
픚
픛
픢
픣
픥
픦
픧
픩
픪
픫
픬
픭
픮
픯
픲
픴
픶
픷
픻
핁
핎
핢
핯
핷
핹
핾
햀
햁
햂
햃
햆
햒
햓
햕
햖
햗
햜
햢
햦
햧
햨
햭
햼
헊
헋
헍
헎
헖
헞
헟
헦
헧
헩
헪
헮
헰
헳
헶
헻
혃
혆
혊
혋
혌
혎
혏
혝
혰
홃
홆
홊
홌
홏
홖
홗
홙
홚
홞
홟
홡
홢
홫
홮
홲
홵
홶
홹
홺
홻
홼
홽
홾
홿
횁
횂
횧
횫
횭
횮
횱
횲
횳
횴
횵
횶
횷
횺
횼
횿
훀
훂
훆
훉
훊
훏
훐
훖
훘
훢
훣
훥
훦
훧
훪
훫
훬
훭
훯
휃
휋
휐
휔
휕
휖
휚
휛
휝
휞
휡
휣
휤
휥
휦
휧
휮
휯
휲
휶
휷
휹
휾
휿
흀
흁
흂
흆
흈
흋
흌
흏
흚
흛
흜
흢
흧
흳
힄
힋
힎
힓
힔
힕
힖
힞
힟
힢
겖
겗
겘
겙
겚
겛
겵
겶
겺
곍
곎
곏
곐
곑
곒
곓
괉
괊
괎
괒
괓
괔
괕
괖
괚
괛
괝
괡
괣
괤
괲
궀
귫
귮
귰
귲
귳
귴
깦
깫
깭
깮
꺒
꺖
꺱
꺲
꺳
꺶
꺷
꺸
꺹
꺺
꺻
꺿
껁
껅
껆
껈
껉
껊
껋
껎
껔
껛
껝
껞
껡
껢
껣
껤
껥
꼆
꼊
꼋
꼌
꼎
꼏
꼒
꼓
꼕
꼖
꼘
꼺
꼾
꽀
꽄
꽋
꽍
꽎
꽶
꽷
꽺
꽻
꽼
꽽
꽾
꽿
꾂
꾃
꾅
꾆
꾉
꾊
꾋
꾌
꾍
꾎
꾏
꾒
꾖
꾗
꾘
꾙
꾚
꾛
꾝
꾞
꾟
꾡
꾢
꾦
꾧
꾨
꾪
꾮
꾯
꾰
꾵
꾶
꾷
꾻
꾽
꿄
꿅
꿊
꿌
꿒
꿓
꿖
꿗
꿙
꿚
꿞
꿟
꿠
꿡
꿢
꿣
꿦
꿪
꿫
꿬
꿭
꿮
꿳
꿵
꿶
꿹
꿺
꿼
꿽
꿾
뀆
뀇
뀈
뀉
뀊
뀋
뀎
뀏
뀑
뀒
뀕
뀖
뀗
뀘
뀚
뀛
뀞
뀣
뀤
뀥
뀦
뀧
뀫
뀭
뀮
뀯
뀲
뀳
뀴
뀶
뀷
뀺
뀼
뀾
뀿
끀
끁
끂
끃
끇
끐
끒
끖
끘
끞
끢
끣
끥
끦
끩
끪
끬
끭
끮
끯
끱
끲
끴
끶
끷
끸
끹
끺
끻
끿
낁
낂
낅
낆
낇
낈
낉
낊
낎
낒
낓
낖
낝
낥
낷
낹
낺
낽
낾
냁
냂
냆
냋
냍
냒
냓
냕
냖
냚
냜
냝
냞
냢
냧
냪
냭
냮
냯
냱
냲
냳
냵
냶
냷
냸
냹
냺
냻
냼
냽
냾
냿
넂
넃
넄
넅
넆
넇
넕
넦
넩
넪
넭
넮
넯
넰
넱
넲
넳
넶
넺
넻
녅
녉
녊
녌
녍
녎
녏
녒
녖
녗
녞
녟
녡
녢
녥
녦
녧
녨
녩
녪
녫
녮
녰
녲
녳
녴
녶
녷
녽
놄
놆
놌
놖
놙
놚
놝
뇏
뇑
뇒
뇕
뇺
뇼
뇿
눃
눆
눇
눉
눊
눎
눏
눑
눒
눖
눘
눢
눣
눥
눦
눩
눪
눫
눬
눭
눮
눯
눲
눷
눸
눹
눺
눻
눾
눿
뉁
뉂
뉅
뉆
뉈
뉉
뉊
뉋
뉎
뉒
뉓
뉕
뉖
뉗
뉚
뉛
뉝
뉞
뉡
뉢
뉣
뉤
뉥
뉦
뉧
뉪
뉬
뉮
뉰
뉱
뉲
뉳
뉶
뉷
뉹
뉺
뉾
뉿
늀
늁
늂
늃
늆
늈
늌
늍
늏
늮
늯
늱
늲
늵
늶
늷
늸
늹
늺
늻
늾
닂
닃
닄
닅
닆
닇
닋
닎
닕
닖
닗
둃
딚
딝
뗾
뗿
뛁
뛂
랝
랞
뢃
뢄
멅
묧
뷑
뺷
뾁
쁲
쁳
쁷
쁸
쁹
쁺
쁻
쁾
쁿
삀
삁
삃
삄
삅
삆
삈
삉
삊
삋
삌
삍
삎
삏
삓
삕
삖
삙
삛
숣
쌏
쏗
쒩
잷
잸
잹
잺
잻
잾
쟊
쟋
쟍
쟒
쟓
쟕
쟖
쟚
쟡
쟦
쟧
쟩
쟪
쟭
쟮
쟯
쟰
쟱
쟲
쟳
쟶
쟺
쟼
쟽
쟾
쟿
젌
젍
젎
젞
젡
젢
젥
젦
젩
젪
젫
젳
젷
젽
젾
졄
졅
졆
졊
졖
졗
졙
졚
졛
졝
졞
졟
졠
졡
졢
졣
졦
졨
졪
졫
졭
졮
졯
졳
졶
졹
졻
졼
좎
좏
좑
좖
좗
좘
좙
좚
좛
좞
좣
좤
죦
죩
죪
죫
죬
죭
죮
죯
죲
죴
죺
죾
죿
줁
줂
줇
줉
쥊
쥋
쥍
쥎
쥏
쥒
쥓
쥕
쥖
쥙
쥚
쥛
쥜
쥝
쥞
쥟
쥢
쥦
쥧
쥨
쥪
쥫
쥯
즰
즱
즲
즳
즶
즸
즺
즻
즼
즽
즾
즿
짃
짅
짉
짌
짍
쨦
쨪
쨫
쨬
쨮
쨯
쨲
쨳
쨵
쨶
쨷
쨹
쨺
쨼
쨽
쨾
쨿
쩀
쩂
쩆
쪇
쪉
쪊
쪍
쪎
쪏
쪐
쪑
쪒
쪓
쪖
쪚
쪛
쪜
쪝
쪞
쪟
쪢
쪣
쪥
쪦
쪧
쫪
쫮
쫯
쫱
쫲
쫳
쫶
쫷
쫹
쫺
쫽
쫾
쫿
쬀
쬁
쬂
쬃
쬄
쬅
쬆
쬇
쬉
쬊
쭅
쭆
쭇
쭋
쭍
쭎
쭑
쭔
쭕
쭖
쭗
쭚
쭜
쭠
쭡
쭢
쭣
쭦
쭧
쭩
쭪
쮥
쮦
쮧
쮨
쮩
쮪
쮫
쮮
쮰
쮲
쮳
쮴
쮵
쮶
쮷
쮺
쮻
쮽
쮾
쮿
쯁
쯂
쯃
쯄
쯽
쯾
쯿
찂
찄
찇
찈
찉
찊
찋
찏
찑
찒
찕
찘
찙
찚
찞
찠
챾
챿
첀
첁
첂
첃
첆
첇
첈
첉
첊
첋
첍
첎
첏
첒
첓
쳛
쳜
쳝
쳞
쳟
쳢
쳦
쳨
쳩
쳪
쳮
쳯
쳱
쳲
쳳
쳵
쳶
쳷
쳸
쳹
쳺
쳻
촿
쵂
쵃
쵅
쵆
쵈
쵉
쵊
쵋
쵌
쵍
쵎
쵏
쵐
쵑
쵒
쵖
쵗
쵘
쵙
쵚
쵛
쵞
쵟
춲
춳
춵
춶
춹
춺
춻
춼
춽
춾
춿
췂
츃
츇
츉
츊
츋
츍
츏
츐
츑
츒
츓
츖
츘
츛
츜
츝
츟
츢
츣
츥
츦
츪
츫
칱
칶
칷
칹
칺
칾
칿
캀
캁
캂
캒
캓
캕
캖
캙
컖
컗
컙
컚
컜
컝
컞
컟
컠
컡
컢
컣
컦
컧
컩
컪
컮
컯
컰
컱
컲
컳
컺
콅
콆
콇
콊
콎
콏
콐
콑
콒
콓
콖
콗
콚
콝
콞
콟
콠
콡
콢
콨
쾪
쾫
쾭
쾮
쾯
쾱
쾲
쾳
쾴
쾵
쾶
쾷
쾺
쾼
쾾
쾿
쿀
쿁
쿂
쿃
쿆
쿇
쿉
쿊
쿋
퀋
퀎
퀒
퀓
퀔
퀕
퀖
퀗
퀚
퀛
퀝
퀞
퀟
퀢
퀣
퀤
퀥
퀦
퀪
큵
큷
큸
큹
킀
킂
킃
킊
킋
킍
킎
킏
킑
킒
킓
킔
탛
탞
탟
탡
탦
탧
탨
탩
탪
탫
탮
탲
탳
탴
탷
탻
탽
탾
턂
턃
턄
턿
텎
텏
텑
텒
텕
텖
텘
텙
텚
텛
텢
텧
텫
텭
톪
톫
톬
톭
톯
톴
톾
톿
퇁
퇂
퇃
퇅
퇆
퇇
퇈
퇉
퇊
퇋
퇎
툊
툋
툌
툍
툎
툏
툕
툖
툗
툙
툚
툛
툜
툞
툟
툢
툤
툦
툧
툨
퉩
퉪
퉮
퉯
퉰
퉲
퉳
퉶
퉺
퉻
퉼
퉽
퉾
퉿
튂
튃
튅
튆
튉
튊
튋
튌
틖
틗
틙
틚
틛
틝
틞
틟
틡
틢
틣
틦
틨
틪
틫
틬
틭
틮
틯
틲
틳
틵
틶
틹
틺
퍊
퍋
퍍
퍎
퍏
퍑
퍒
퍓
퍖
퍛
퍜
퍞
퍟
퍡
퍢
퍣
퍥
퍦
퍧
퍨
퍩
펯
펱
펳
펶
펷
펺
펽
펾
펿
폀
폁
폆
폊
폋
폌
폍
폎
폏
폒
폓
폖
퐗
퐚
퐜
퐡
퐢
퐣
퐥
퐦
퐧
퐨
퐩
퐪
퐫
퐬
퐭
퐮
퐯
퐰
퐱
퐲
퐴
퐵
퐶
퐷
푳
푵
푶
푺
푻
푽
풁
풃
풆
풊
풌
풎
풖
풗
풙
풚
풝
퓖
퓗
퓘
퓚
퓛
퓞
퓠
퓢
퓣
퓤
퓥
퓧
퓪
퓫
퓭
퓮
퓱
퓲
퓶
퓷
퓺
퓼
픸
픹
픺
픾
픿
핂
핅
핆
핇
핈
핉
핊
핋
핐
핒
햪
햮
햯
햱
햲
햳
햴
햵
햶
햷
햸
햹
햺
햻
햽
헂
헃
헄
헅
헆
헇
혖
혗
혘
혚
혛
혞
혟
혡
혢
혣
혥
혦
혧
혨
혩
혪
혫
혮
혲
혳
혴
혵
혶
혷
혺
횆
횇
횈
횉
횊
횋
횎
횏
횑
횒
횕
횖
횗
횘
횙
횚
횛
횠
횢
횣
횤
횥
횪
훮
훲
훶
훷
훹
훺
훻
훾
훿
휁
휂
휆
휇
휈
휉
휊
휎
휒
휓
흤
흦
흮
흯
흱
흲
흵
흶
