▁▃ -0
▁ㅇ -1
▁ㄱ -2
▁ㄴ -3
▁ㄷ -4
▁ㅇㅣ -5
▁ㅎ -6
ㅡㄹ -7
▁ㅈ -8
▁ㅅ -9
ㅡㄴ -10
▁ㅎㅏ -11
▁ㄹ -12
▁ㅁ -13
▁ㅂ -14
ㅏㅇ -15
▁. -16
ㅏㄴ -17
▁ㅇㅔ -18
▁ㅇㅡㄹ -19
▁ㄴㅡㄴ -20
▁ㅇㅓ -21
▁ㅇㅏ -22
▁ㄷㅏ -23
ㅓㄴ -24
▁ㅇㅢ -25
ㅕㄴ -26
▁ㄱㅏ -27
ㅗㅇ -28
ㅅㅓ -29
▁ㅊ -30
ㅏㄹ -31
▁, -32
ㅣㄴ -33
▁ㅍ -34
ㅏㄱ -35
ㅕㅇ -36
▁ㄱㅗ -37
▁ㅈㅣ -38
ㅜㄴ -39
ㅈㅣ -40
ㄹㅣ -41
ㅓㅇ -42
▁ㅇㅡㄴ -43
▁ㄹㅡㄹ -44
▁ㅌ -45
ㅗㄱ -46
ㅜㄹ -47
ㅇㅣ -48
▁ㄱㅣ -49
ㄷㅏ -50
▁ㅋ -51
▁ㄷㅗ -52
▁1 -53
ㅅㅡ -54
▁ㅅㅣ -55
ㅕㄱ -56
▁ㅇㅣㅆ -57
▁ㄹㅗ -58
▁ㄷㅚ -59
▁2 -60
ㅅㅣ -61
ㅐㅇ -62
ㅜㄱ -63
ㅜㅇ -64
ㅗㄴ -65
ㅓㄱ -66
ㅏㅁ -67
▁ㅇㅓㅆ -68
▁ㄱㅓ -69
ㅡㅇ -70
▁ㅇㅔㅅㅓ -71
ㅎㅏ -72
ㅡㅁ -73
▁ㅇㅡㄹㅗ -74
▁ㄷㅡㄹ -75
▁ㄸ -76
▁ㄴㄷㅏ -77
▁ㅇㅏㅆ -78
▁ㅇㅣㄹ -79
▁ㄱㅘ -80
ㅓㅁ -81
▁ㄷㅐ -82
ㅓㄹ -83
▁ㄱㅔ -84
▁ㅅㅏㅇ -85
▁ㄱㅓㅅ -86
▁ㅅㅜ -87
ㄱㅣ -88
ㅗㄹ -89
ㅣㅇ -90
▁ㅇㅘ -91
▁ㅈㅓㄴ -92
ㅝㄴ -93
▁ㅁㅏ -94
ㄷㅗ -95
▁ㅂㅗ -96
▁ㅈㅏ -97
ㅣㄹ -98
ㄷㅡ -99
▁- -100
ㅕㄹ -101
ㅈㅏㅇ -102
ㅓㅂ -103
▁ㅁㅕㄴ -104
▁ㅈㅓㄱ -105
▁ㄲ -106
ㅐㄱ -107
▁ㅁㅏㄴ -108
ㅛㅇ -109
ㅁㅏㄴ -110
▁ㄱㅡ -111
▁3 -112
ㅅㅏ -113
▁ㅇㅣㄴ -114
▁ㅁㅗ -115
ㅌㅡ -116
ㄷㅐ -117
▁ㅅㅡ -118
▁ㅎㅏㄴ -119
ㅔㅇㅣ -120
▁ㅈㅓㅇ -121
▁ㅎㅘ -122
▁ㄱㅡㄹ -123
ㅊㅣ -124
▁ㅈㅜㅇ -125
ㅈㅏ -126
▁ㅈㅜ -127
▁ㄱㅗㅇ -128
▁ㅂㅜ -129
ㅎㅘ -130
▁ㅇㅠ -131
ㄱㅏ -132
ㅏㅇㅣ -133
▁ㄴㅏ -134
▁ㅇㅏㄴ -135
ㄱㅗ -136
ㅑㅇ -137
▁20 -138
ㅅㅏㅇ -139
ㅈㅓㅇ -140
▁ㄸㅐ -141
▁' -142
▁ㄴㅕㄴ -143
ㅔㄹ -144
▁: -145
ㅅㅜ -146
ㅈㅓㄴ -147
ㅇㅓ -148
ㅌㅓ -149
▁ㄱㅕㅇ -150
ㅎㅣ -151
▁ㅂㅏ -152
▁ㅇㅕ -153
▁ㅇㅟ -154
ㅣㅁ -155
ㅏㄴㅡㄴ -156
ㄱㅔ -157
ㄷㅔ -158
▁ㅅㅓㅇ -159
▁ㅇㅗ -160
▁ㅈㅗ -161
▁ㅈㅔ -162
▁ㅅㅏ -163
▁ㅆ -164
▁ㅇㅓㅄ -165
ㅅㅣㄴ -166
ㅡㄱ -167
▁4 -168
▁ㅈㅣㅁㅏㄴ -169
ㅅㅓㅇ -170
▁ㄷㅡㅇ -171
ㅁㅜㄴ -172
▁ㅇㅡㅁ -173
ㄱㅜㄱ -174
ㅝㄹ -175
▁ㅂㅏㄹ -176
▁ㅇㅏㄶ -177
▁ㅈㅏㅇ -178
ㅈㅔ -179
▁ㅁㅕ -180
▁ㄷㅓㄴ -181
▁ㅇㅔㄱㅔ -182
▁5 -183
▁ㅂㅣ -184
▁ㅁㅣ -185
▁ㄷㅏㅇ -186
ㅐㄴ -187
ㄷㅗㅇ -188
ㅂㅜ -189
▁ㅁㅏㄹ -190
ㅏㅈㅣ -191
ㄹㅕㄱ -192
ㅇㅣㄴ -193
▁ㅅㅏㄹ -194
ㄹㅗ -195
▁ㄷㅏㄹ -196
▁ㅅㅔ -197
▁0 -198
▁ㄷㅗㅇ -199
▁ㅂㅏㅇ -200
ㄱㅕㄱ -201
ㅇㅜ -202
▁" -203
ㄱㅘ -204
▁ㅇㅝㄹ -205
ㅜㅁ -206
ㅋㅣ -207
▁201 -208
ㅏㄱㅗ -209
▁/ -210
▁ㅍㅡㄹ -211
▁ㄴㅗ -212
▁ㅅㅣㄴ -213
ㅏㅇㅗ -214
▁ㅇㅕㅇ -215
▁ㅅㅓㄴ -216
▁ㄹㅏ -217
▁ㅅㅗ -218
▁ㅇㅕㄴ -219
▁ㅈㅣㄴ -220
ㄱㅏㄴ -221
ㅈㅏㄱ -222
ㅈㅜ -223
▁ㄱㅐ -224
▁ㅃ -225
ㄷㅡㄹ -226
▁ㅅㅐㅇ -227
ㅓㄹㅣ -228
▁ㅂㅜㄹ -229
▁ㅇㅏㄹ -230
▁ㄱㅏㅇ -231
ㄱㅜ -232
▁ㄴㅐ -233
ㅊㅔ -234
ㅓㄴㅏ -235
▁ㅈㅏㄱ -236
▁ㅇㅕㄱ -237
▁ㅇㅑ -238
ㅔㄴ -239
ㅁㅣ -240
ㅓㅅ -241
▁ㅁㅜ -242
▁ㄴㅡㄴㄷㅔ -243
ㅗㅇㅣ -244
▁ㅇㅝㄴ -245
ㅇㅝㄴ -246
▁ㅎㅜ -247
▁ㄸㅐㅁㅜㄴ -248
▁ㄷㅏㄴ -249
▁ㅇㅏㅅㅓ -250
▁6 -251
▁ㅁㅜㄴ -252
▁ㅎㅚ -253
ㅌㅏ -254
ㅁㅕㄴ -255
▁ㄱㅏㄴ -256
▁ㅅㅣㄹ -257
ㅣㄱ -258
▁10 -259
▁ㄲㅏㅈㅣ -260
ㅅㅗ -261
▁ㅁㅕㅇ -262
▁ㅊㅚ -263
ㅅㅣㄱ -264
▁ㄱㅜ -265
▁ㅇㅏㄴㅣ -266
▁ㅉ -267
ㄷㅏㅇ -268
ㅁㅕㅇ -269
ㄱㅖ -270
▁ㄱㅏㅌ -271
▁ㅂㅏㄷ -272
ㅇㅑ -273
▁ㅂㅓㄴ -274
ㅅㅣㄹ -275
▁ㄷㅔ -276
ㅈㅐ -277
ㅁㅜㄹ -278
▁7 -279
ㅂㅣ -280
ㅋㅡ -281
▁ㄹㅏㄱㅗ -282
ㄷㅏㄴ -283
ㅎㅜ -284
▁ㄹㅏㄴㅡㄴ -285
▁ㄴㅏㅁ -286
▁ㄹㅔ -287
▁ㅇㅣㅂ -288
▁! -289
ㅁㅏ -290
▁ㄴㅏㅇㅗ -291
▁ㄱㅘㄴ -292
ㅎㅐㅇ -293
▁ㅂㅏㄴ -294
▁S -295
▁ㅌㅡㄱ -296
▁8 -297
▁ㅁㅜㄹ -298
▁ㄱㅕㄹ -299
▁ㅁㅏㄶ -300
ㅅㅓㄴ -301
ㅈㅡ -302
▁ㅌㅏ -303
ㅓㅎ -304
ㅈㅜㅇ -305
▁ㄷㅏㄱㅗ -306
ㅇㅏ -307
▁ㅇㅜ -308
▁ㅊㅏ -309
ㅡㅂ -310
ㅅㅗㄱ -311
▁ㅂㅗㅇㅣ -312
ㅈㅓㅁ -313
▁ㅅㅓ -314
▁ㅇㅗㄹ -315
▁ㄱㅜㄱ -316
▁19 -317
▁ㅋㅏ -318
ㅂㅗ -319
▁ㅁㅕㄴㅅㅓ -320
▁ㄷㅡ -321
ㅂㅏㄴ -322
▁ㄱㅖ -323
▁ㅈㅏㄹ -324
▁9 -325
▁ㄱㅕㅇㅇㅜ -326
ㅡㄹㄹ -327
ㅎㅏㄴ -328
▁ㅇㅓㅅㅓ -329
ㅇㅛㅇ -330
ㅎㅏㄱ -331
ㅏㄱㅏ -332
ㅈㅣㄴ -333
ㄴㅣ -334
▁ㅂㅜㄴ -335
▁ㄱㅗㅇㄱㅕㄱ -336
ㄱㅗㅇ -337
ㅅㅐㅇ -338
ㅂㅜㄴ -339
▁ㄱㅡㄴ -340
ㄱㅛ -341
ㅎㅚ -342
ㅍㅡ -343
ㅌㅗ -344
▁ㄹㅣ -345
ㅇㅣㄹ -346
▁ㅊㅜㄹ -347
▁ㅂㅗㄴ -348
▁ㅁㅗㅅ -349
ㅂㅗㄴ -350
▁ㄷㅗㄹ -351
▁ㄷㅏㄴㅡㄴ -352
▁ㅅㅗㄱ -353
▁A -354
▁ㅈㅣㄱ -355
▁ㅅㅏㅇㅛㅇ -356
▁ㅆㅡ -357
▁ㄷㅓ -358
▁ㅇㅡㅁㅕ -359
▁ㅋㅡ -360
ㅇㅣㅁ -361
ㅅㅏㄴ -362
▁ㅍㅗ -363
ㅊㅏ -364
▁ㅇㅏㅇ -365
▁ㅈㅗㅎ -366
▁ㅎㅐ -367
▁ㅁㅗㄷ -368
▁ㅅㅓㄹ -369
▁ㅎㅕㄴ -370
▁ㅈㅏㅅㅣㄴ -371
▁ㅈㅓㅁ -372
ㅏㄹㅡ -373
▁M -374
▁ㄱㅏㅁ -375
▁ㅍㅕㄴ -376
ㅂㅓ -377
▁ㅇㅣㅎㅜ -378
▁ㅍㅣ -379
▁ㅋㅐ -380
▁% -381
▁ㄱㅡㄹㅣ -382
▁ㅇㅖ -383
▁ㅌㅗㅇ -384
ㅈㅗ -385
▁ㅎㅏㄱ -386
ㅇㅕㄱ -387
▁ㅎㅗ -388
ㅋㅏ -389
▁ㅊㅗ -390
▁ㅇㅛ -391
ㅅㅔ -392
▁ㅂㅐ -393
ㅇㅏㄴ -394
▁ㅍㅐ -395
ㅂㅏㄹ -396
ㄱㅏㄱ -397
▁ㄴㅏㄹ -398
▁ㄴㅣ -399
▁ㅋㅗ -400
ㅇㅛ -401
ㅌㅣ -402
▁ㅈㅗㅇ -403
▁ㅈㅓㅇㄷㅗ -404
ㅎㅗ -405
▁ㅅㅏㄹㅏㅁ -406
ㅅㅡㅂ -407
▁ㄷㅜ -408
ㅈㅓㄱ -409
▁ㅇㅕㄹ -410
ㅁㅗ -411
ㅈㅓ -412
ㅌㅐ -413
▁C -414
▁ㅈㅜㄱ -415
ㅇㅟ -416
ㅂㅏㅇ -417
▁ㄱㅣㅁ -418
▁ㅅㅡㅇ -419
ㅂㅓㅂ -420
▁ㅅㅡㅋ -421
ㅇㅠ -422
ㄴㅏ -423
▁ㅁㅔ -424
ㅡㄹㅣ -425
ㅈㅗㅇ -426
▁B -427
▁ㄱㅏㄴㅡㅇ -428
▁ㅁㅏㅇ -429
▁T -430
ㄱㅓ -431
ㅅㅡㅇ -432
ㅅㅜㄹ -433
▁ㅇㅓㄹ -434
ㅎㅐ -435
▁ㅊㅏㅁ -436
▁ㄱㅣㄹ -437
▁ㅇㅟㅎㅏ -438
▁ㅇㅓㄴ -439
▁ㅎㅏㅁ -440
ㄹㅠ -441
▁ㅈㅐ -442
ㅌㅗㅇ -443
▁ㅇㅛㅇ -444
▁ㅎㅕㅇ -445
▁ㅂㅓ -446
▁ㅇㅚ -447
▁ㅍㅕㅇ -448
▁ㄱㅜㄴ -449
ㅁㅣㄴ -450
ㅇㅕㅇ -451
▁ㄷㅡㅇㅈㅏㅇ -452
▁ㅎㅐㅇ -453
▁ㄷㅐㅎㅏ -454
▁ㅂㅜㅌㅓ -455
▁~ -456
▁ᄆ -457
▁ㅊㅓㄹ -458
▁D -459
ㄱㅘㄴ -460
ㅈㅜㄴ -461
▁ㅅㅏㅁ -462
▁ㅂㅗㄷㅏ -463
▁+ -464
▁ㅊㅜㄱ -465
▁ㅅㅣㅋㅣ -466
ㅅㅡㅌㅡ -467
▁ㄱㅛ -468
▁? -469
ㄱㅡㅂ -470
▁ㅅㅗㄴ -471
▁ㄷㅏㄹㅡㄴ -472
ㅕㅂ -473
ㅇㅕㄴ -474
▁12 -475
▁ㄱㅔㅇㅣㅁ -476
▁ㄸㅗ -477
ㅓㅈㅣ -478
▁ㅁㅐ -479
ㅐㅇㅜ -480
▁ㅍㅡㄹㄹ -481
ㅈㅣㄱ -482
▁ㅂㅓㄹㅣ -483
▁ㅌㅣㅁ -484
▁ㅇㅣㄴㅏ -485
ㅅㅣㅁ -486
▁ㅅㅏㄱ -487
▁ㄱㅝㄴ -488
ㅅㅕㄴ -489
ㅋㅗ -490
▁.. -491
er -492
▁ㅅㅡㅌ -493
▁ㅊㅣ -494
▁ㄴㄷ -495
▁ㅅㅣㅁ -496
▁ㄷㅟ -497
▁ㅍㅏㄴ -498
▁200 -499
▁11 -500
▁ㅅㅣㅈ -501
▁L -502
ㄱㅜㄴ -503
▁ㄱㅡㄹㅣㄱㅗ -504
ㄹㅏ -505
▁ㄱㅏㅈㅣ -506
00 -507
ㅈㅗㄱ -508
▁ㅈㅣㅂ -509
▁ㅁㅏㅈ -510
▁ㅇㅏㅇㅣ -511
▁ㅇㅡㄴㅏ -512
▁ㅎㅘㄱ -513
ㅁㅜ -514
▁ㅍㅣㄹ -515
ㄷㅣ -516
ㅇㅓㅂ -517
▁ㄴㅔ -518
ㅡㄹㅗ -519
▁ㅂㅏㄱ -520
ㅍㅣ -521
ㅌㅔ -522
ㅍㅏㄴ -523
▁ㅎㅏㄴㅏ -524
▁ㅂㅕㄴ -525
▁ㄱㅕㅇㄱㅣ -526
▁ㅅㅏㅅㅣㄹ -527
in -528
▁ㄲㅡ -529
▁ㅇㅐ -530
ㅂㅡ -531
▁ㅇㅜㄴ -532
ㅍㅗ -533
▁ㅁㅗㅅㅎㅏ -534
▁ㄷㅡㅅ -535
ㄹㅣㄱ -536
▁ㅁㅗㄹ -537
▁ㅁㅏㄴㄷㅡㄹ -538
▁ㅅㅣㄱㅏㄴ -539
▁ㅊㅓㅇ -540
▁ㄴㅓㅁ -541
▁F -542
ㅇㅢ -543
▁ㅍㅏ -544
ㄱㅕㅇ -545
▁ㅂㅏㄲ -546
▁ㅁㅗㄱ -547
▁P -548
▁ㄴㅡㄴㄷㅏ -549
ㅎㅘㅇ -550
▁ㄱㅓㄴ -551
▁ㄹㅜ -552
▁ㅎㅘㄹ -553
ㅌㅏㄴ -554
ㅍㅛ -555
▁ㅁㅏㄱ -556
ㅅㅓㄱ -557
▁ㄷㅏㄱㅏ -558
▁ㅇㅕㅆ -559
▁ㅍㅗㄱ -560
▁ㅂㅗㄱ -561
ㄴㅣㄷㅏ -562
▁ㅅㅜㄴ -563
▁ㅁㅗㅅㅡㅂ -564
▁ㅇㅑㅇ -565
▁ㅇㅑㄱ -566
ㅂㅗㄱ -567
▁ㄴㅗㅍ -568
ㅅㅓㄹ -569
ㅌㅜ -570
▁ㅇㅣㅅㅏㅇ -571
ㅇㅓㄱ -572
▁G -573
ㅈㅣㅁㅏㄴ -574
▁ㅌㅡㄹ -575
ㅎㅕㅇ -576
▁ㅈㅓ -577
▁ㄷㅗㄱ -578
▁ㅇㅣㄹㅡㅁ -579
▁ㄱㅏㄱ -580
ㅊㅓㅇ -581
ㅍㅏ -582
▁ㅎㅣㅁ -583
ㅍㅜㅁ -584
▁ㅊㅗㅇ -585
ㅊㅜㄹ -586
▁ㅈㅜㄹ -587
▁E -588
▁ㅅㅏㅇㄷㅐ -589
▁ㅍㅛ -590
ㄹㅗㄴ -591
▁ㅈㅗㄴ -592
▁ㄴㅡㅇ -593
ㅎㅑㅇ -594
ㅅㅡㅌㅓ -595
ㄲㅔ -596
an -597
ㅎㅕㄴ -598
▁ㅅㅏㅇㅣ -599
▁ㅌㅗ -600
▁ㅈㅏㅁ -601
ㅌㅡㄹ -602
▁ㅈㅏㅂ -603
▁ㅅㅣㅈㅏㄱ -604
ㅇㅓㅈㅣ -605
▁ㅎㅏㅈㅣㅁㅏㄴ -606
▁ㅈㅗㄱ -607
▁ㄱㅡㄱ -608
▁ㅁㅣㄴ -609
▁ㅇㅡㅁㅕㄴ -610
▁ㅂㅐㄱ -611
▁ㅁㅜㄴㅈㅔ -612
on -613
▁15 -614
▁ㅈㅡㅇ -615
ㅎㅏㅂ -616
▁ㅇㅣㄹㅂㅗㄴ -617
▁ㅎㅏㅁㄲㅔ -618
▁ㄱㅓㄴㅏ -619
▁ㅂㅕㄹ -620
▁ㅇㅘㅇ -621
ㄹㅕㅇ -622
▁ㅋㅣ -623
ㅎㅘㄴ -624
ㅕㅁ -625
▁ㅁㅣㄹ -626
ㅔㅅ -627
▁ㅅㅐㅇㄱㅏㄱ -628
▁ㄱㅔㅆ -629
▁ㅂㅕㅇ -630
▁ㅁㅜㄱ -631
▁ㅎㅏㄴㄱㅜㄱ -632
▁ㄷㅣ -633
▁ㄱㅗㄹ -634
ㅇㅑㄱ -635
▁# -636
▁ㅅㅏㄴ -637
▁ㅋㅐㄹㅣㄱ -638
▁H -639
▁ㅊㅓㄴ -640
▁ㅇㅏㅇㅑ -641
▁ㄷㅏㅅㅣ -642
▁ㅅㅣㄱ -643
ㅇㅣㅂ -644
▁ㄴㅗㄹ -645
▁ㅎㅏㅇ -646
ㄹㅓ -647
▁ㄴㅏㄴ -648
ㄹㅕㄴ -649
ㅊㅡ -650
▁R -651
▁K -652
▁ㄱㅐㅇ -653
▁ㄲㅡㅌ -654
ㅣㅇㅏ -655
▁ㅇㅘㄴ -656
▁ㅋㅐㄹㅣㄱㅌㅓ -657
ㄲㅏ -658
▁ㅍㅡㄹㄹㅔㅇㅣ -659
▁ㄸㅏㄹㅡ -660
ㅂㅏ -661
▁ㅅㅐ -662
▁ㄹㅏㅇ -663
ㄷㅗㄱ -664
▁ㄴㅡㅇㄹㅕㄱ -665
ㄷㅐㄹㅗ -666
▁ㄱㅗㄱ -667
▁ㄱㅡㅁ -668
▁ㅇㅣㄱ -669
ㄷㅓ -670
▁t -671
▁ㄱㅓㄹ -672
▁ㄴㄷㅔ -673
ㅏㄹㅣ -674
ㅂㅔㄹ -675
▁ㅁㅓㄱ -676
▁ㄱㅘㅇ -677
ㅅㅗㅇ -678
ㅁㅗㄱ -679
▁ㅂㅡㄹ -680
▁ㅇㅏㅍ -681
▁I -682
▁ㅅㅣㅈㅡㄴ -683
▁ㅇㅓㅁ -684
▁ㅌㅜ -685
▁N -686
▁ㅊㅜ -687
▁ㅅㅡㅋㅣㄹ -688
▁ㅊㅓㄹㅓㅁ -689
ㅂㅕㅇ -690
▁ㅊㅔ -691
▁ㄴㅈㅣ -692
ㅎㅓㅁ -693
▁ㅌㅔ -694
▁ㅊㅐ -695
▁ㄹㅏㅁ -696
▁ㅇㅔㄴ -697
▁ㅎㅛ -698
ㅊㅓㄴ -699
▁ㅊㅜㄱㅏ -700
ㅅㅏㄹ -701
▁ㅊㅜㅇ -702
ㅣㅇㅓ -703
ㄱㅐ -704
▁m -705
▁ㄱㅓㅁ -706
▁ㄷㅏㅇㅎㅏ -707
▁ㅇㅏㄷㅗ -708
ㅁㅐ -709
▁ㅅㅏㅇㅎㅘㅇ -710
▁ㄱㅡㄹㅓㅎ -711
▁ㄱㅏㅈㅏㅇ -712
ㅇㅚ -713
ㄷㅏㅁ -714
▁ㄸㅗㅎㅏㄴ -715
ㅁㅏㄹ -716
▁ㅋㅏㄷㅡ -717
or -718
ㄹㅛ -719
▁ㅇㅓㄷ -720
ㅁㅣㅈㅣ -721
▁ㅅㅏㅇㅌㅐ -722
▁ㄷㅏㅇㅅㅣ -723
▁ㅊㅏㅇ -724
▁ㅇㅓㅂ -725
ㄹㅐ -726
▁ㄴㅜㄴ -727
▁ㅁㅗㄷㅜ -728
▁ㅅㅠ -729
ㅇㅓㄱㅏ -730
ar -731
▁ㅇㅏㄱ -732
▁ㄱㅕㄹㄱㅜㄱ -733
▁ㅈㅓㄹ -734
▁ㅅㅗㅇ -735
ㅊㅜ -736
ㅁㅏㄱ -737
▁ㅎㅛㄱㅘ -738
▁ㅋㅡㄹ -739
ㅅㅐㄱ -740
▁ㅁㅣㅊ -741
▁ㄷㅏㅁㅏㄴ -742
ㅏㄹㅏ -743
▁ㅁㅗㅇ -744
▁ㅁㅗㄷㅡㄴ -745
▁ㅅㅜㄹ -746
▁ㅇㅣㅁ -747
▁ㅊㅣㄴ -748
ㅇㅗ -749
ㄷㅡㅇ -750
▁18 -751
ㅠㄹ -752
▁16 -753
ㅁㅏㅇ -754
▁ㅆㅏㅇ -755
▁ㅎㅘㅇ -756
▁ㄱㅏㄹ -757
ㅈㅐㅇ -758
▁ㅅㅟ -759
▁ㅁㅏㄶㅇㅣ -760
▁O -761
▁ㅅㅣㄹㅣ -762
▁ㅂㅔ -763
▁30 -764
ㅇㅓㄴ -765
ㅎㅏㅁ -766
at -767
▁ㄴㄷㅏㄴㅡㄴ -768
▁ㅌㅏㅇㅣ -769
▁ㄱㅡㅂ -770
▁ㄱㅡㄹㅓㄴ -771
▁ㄷㅏㅁ -772
▁13 -773
ㅇㅓㄴㅏ -774
▁ㅍㅐㄴ -775
▁ㅇㅏㅁ -776
▁ㅎㅏㅂ -777
ㄹㅔ -778
▁s -779
▁ㅅㅓㄴㅅㅜ -780
▁ㄹㅔㅂㅔㄹ -781
he -782
▁ㅅㅔㄱㅖ -783
ㄴㅐ -784
ㅍㅓ -785
ㅂㅐ -786
▁] -787
▁ㅌㅏㄹ -788
ㅈㅣㄹ -789
ㄷㅣㅇ -790
▁W -791
ㅇㅡㅁ -792
▁ㅂㅜㄱ -793
▁ㄹㅏㅇㅣ -794
▁ㅍㅏㅇ -795
ㅊㅗ -796
ㅌㅐㄱ -797
ㅈㅓㅂ -798
ㅍㅕㄴ -799
ㅉㅗㄱ -800
▁ㅅㅡㅂ -801
ㄹㅏㄴ -802
▁ㅇㅕㄱㅣ -803
ㅈㅓㄹ -804
▁14 -805
▁ㅅㅡㄹ -806
▁ㅎㅕㄴㅈㅐ -807
▁ㄴㅐㅇ -808
▁[ -809
▁ㅂㄴㅣㄷㅏ -810
▁ㅁㅐㅇㅜ -811
▁ㄱㅓㅇ -812
▁ㅍㅡㄹㅗ -813
▁ㅅㅡㅍ -814
▁ㅂㅡㄹㄹ -815
▁ㅊㅟ -816
▁ㅅㅣㄹㅣㅈㅡ -817
ㄹㅣㅂ -818
ㅘㅇ -819
▁ㅂㅜㅌ -820
ㄷㅜ -821
▁ㄱㅚ -822
▁ㄹㅔㅇㅣ -823
▁ㄷㅏㄹㄹㅣ -824
▁ㅅㅏㅇㄷㅏㅇ -825
▁ㅂㅗㅇ -826
▁ㄴㅓ -827
▁ㅁㅜㄱㅣ -828
▁ㅇㅜㄹ -829
▁ㄴㅡ -830
▁ㄹㅣㅇ -831
▁ㅂㅓㄹ -832
▁ㅈㅗㄴㅈㅐ -833
▁ㅁㅜㄹㄹㅗㄴ -834
▁ㅁㅗㄴ -835
ㄱㅡㄹ -836
ㅌㅏㄹ -837
▁ㄱㅡㄹㅓㄴㅏ -838
ㅔㄹㅕㄱ -839
▁ㅊㅓㅅ -840
▁ㄷㅏㅁㅕㄴ -841
ㅊㅣㅇ -842
▁ㅌㅗㅇㅎㅏ -843
▁ㅁㅏㅂㅓㅂ -844
ㅏㅁㅏ -845
▁ㅂㅣㄹ -846
ㄱㅡㄴ -847
en -848
ㅈㅗㄴ -849
▁ㅎㅣ -850
ㅔㄹㅗ -851
▁c -852
▁ㅊㅏㅈ -853
ㅇㅔ -854
▁17 -855
▁ㄴㅗㅎ -856
▁ㅎㅐㄱ -857
ㄷㅡㄱ -858
▁ㅇㅣㅇㅠ -859
ㄹㅑㅇ -860
▁ㅈㅏㅊㅔ -861
▁ㅎㅗㄴ -862
ㄷㅏㄹ -863
▁ㄱㅣㅅㅜㄹ -864
▁ㅃㅜㄴ -865
▁100 -866
▁ㄷㅜㄹ -867
ㅂㅓㅁ -868
▁00 -869
▁ㅇㅣㄹㅓㄴ -870
ㅌㅔㅁ -871
ㅐㄴㄷㅡ -872
▁ㅇㅓㄸ -873
ㅇㅏㄱ -874
▁ㅈㅜㅇㅣㄴ -875
▁ㅌㅓ -876
▁ㅈㅣㄹ -877
▁ㅈㅓㄴㅌㅜ -878
ㄱㅡㅁ -879
▁ㅇㅗㄴ -880
▁ㅁㅗㄹㅡ -881
▁ㅓ -882
▁ㅂㅓㅂ -883
▁ㄸㅓㄹ -884
▁25 -885
ㅑㄱ -886
▁ㄱㅘㄴㄹㅕㄴ -887
ou -888
ㅈㅣㅂ -889
▁ㄹㅏㄴ -890
▁ㅌㅏㄴ -891
▁ㄱㅗㅅ -892
▁ㄱㅏㅌㅇㅣ -893
▁ㅇㅣㄴㅎㅏ -894
▁ㅈㅜㄴ -895
▁ㅇㅣㄱㅓㅅ -896
▁V -897
al -898
▁ㅍㅏㄹ -899
ㅍㅐ -900
▁ㄱㅡㄹㅐ -901
▁ㅇㅣㅇㅛㅇ -902
ㅋㅡㅁ -903
▁ㅍㅣㄹㅇㅛ -904
▁ㄷㅡㄹㅇㅓㄱㅏ -905
ㅊㅓ -906
▁U -907
▁ㅍㅜㄹ -908
▁ㅂㅏㅇㅅㅗㅇ -909
▁ㄹㅓ -910
▁ㄷㅏㅇㅡㅁ -911
▁ㅎㅐㄷㅏㅇ -912
ㄷㅗㄹ -913
▁ㄱㅣㅂㅗㄴ -914
▁ㄹㅣㄱ -915
▁ㅈㅣㅇㅕㄱ -916
▁ㅇㅕㄱㅅㅣ -917
▁ㅂㅏㄹㅗ -918
ㄲㅣ -919
▁ㅊㅓㅇㅡㅁ -920
ㅡㅅ -921
▁ㅋㅜ -922
▁ㄱㅣㄹㅗㄱ -923
ㅎㅏㅇ -924
▁ㄱㅟ -925
▁ㅇㅓㅇㅑ -926
ㄱㅏㅁ -927
▁ㅅㅓㅂ -928
▁ㅎㅘㄴ -929
▁ㅇㅣㄹㅂㅏㄴ -930
▁ㄱㅓㅇㅢ -931
ㄱㅕㄴ -932
▁ㅂㅜㄹㅡ -933
▁ㅂㅓㅁ -934
▁ㄴㄷㅏㄱㅗ -935
▁ㅉㅐ -936
ㅂㅕㄹ -937
ㄱㅏㅇ -938
▁ㅇㅠㄴㅣ -939
▁ㅇㅔㄹ -940
▁ㅂㅣㅇ -941
ㅗㅂ -942
▁ㅅㅜㅇ -943
▁ㅇㅣㅇㅑ -944
▁2017 -945
ㅁㅍ -946
▁199 -947
▁ㅍㅣㅎㅐ -948
▁ㄷㅏㄹㅡ -949
▁ㅈㅗㅁ -950
▁ㅋㅡㄹㄹ -951
▁ㄷㅐㅎㅏㄱ -952
▁ㄴㅑ -953
▁ㄱㅏㅈ -954
ㄱㅗㄱ -955
ㅌㅓㄴ -956
ㅊㅏㄱ -957
▁ㅌㅡ -958
▁ㅇㅗㄹㄹㅣ -959
▁ㅌㅐ -960
▁ㅎㅏㄹ -961
▁ㄴㅏㄱㅏ -962
▁2018 -963
ㄱㅕㄹ -964
▁ㄷㅓㄱ -965
▁ㅅㅏㄱㅓㄴ -966
▁ㅎㅗㅇ -967
▁ㅇㅣㅇㅑㄱㅣ -968
▁ㅋㅏㄹ -969
▁ㅁㅣㄱㅜㄱ -970
▁ㄱㅕㄱ -971
▁ㄴㅡㄴㅈㅣ -972
▁ㅅㅣㅍ -973
▁ㅌㅡㄱㅎㅣ -974
▁ㅌㅣ -975
ㅊㅏㅇ -976
▁ㄱㅜㅇ -977
▁ㅁㅐㄴ -978
▁ㅇㅓㅄㅇㅣ -979
▁k -980
▁ㅊㅏㄹ -981
ㅇㅡㄴ -982
▁ㅂㅜㅂㅜㄴ -983
▁ㅈㅣㄴㅎㅐㅇ -984
▁ㅁㅏㅈㅣ -985
es -986
▁ㅇㅕㅇㅎㅘ -987
▁ㅎㅏㄱㄱㅛ -988
▁ㅂㅗㄴㅇㅣㄴ -989
▁ㄴㅓㅎ -990
▁ㅇㅣㄴㄱㅏㄴ -991
ㅊㅏㄹ -992
ㄹㅣㅇ -993
ㅋㅓ -994
▁2019 -995
▁ㄱㅡㄹㅓ -996
▁ㅈㅡㄱ -997
▁ㅊㅏㅁㄱㅗ -998
▁ㅅㅟㅂ -999
ㅈㅣㅇ -1000
it -1001
▁ㄴㅗㅇ -1002
▁ㄹㅕㄱ -1003
ㄴㅕㄴ -1004
▁ㅅㅗㄹ -1005
▁ㅊㅣㅁ -1006
▁ㄹㅏㅁㅕㄴ -1007
ㅂㅏㄱ -1008
▁ㄱㅠ -1009
▁ㅂㅜㅇ -1010
ㄱㅠ -1011
▁ㅈㅡㅇㄱㅏ -1012
▁ㄹㅕ -1013
▁ㅈㅜㅇㅣㄴㄱㅗㅇ -1014
▁ㅁㅗㅁ -1015
▁ㄴㄱㅏ -1016
ㅂㅜㅂㅜㄴ -1017
▁ㅎㅗㄱ -1018
▁ㅂㅣㅅㅡ -1019
▁ㅈㅏㄱㅣ -1020
▁ㅈㅔㅈㅏㄱ -1021
▁ㄹㅣㄱㅡ -1022
▁ㅁㅏㄴㅋㅡㅁ -1023
ㅓㅎㄱㅔ -1024
▁ㅇㅞ -1025
▁ㅇㅐㄴ -1026
▁ㅁㅏㅈㅣㅁㅏㄱ -1027
▁ㄷㅗㄹㅇ -1028
ㄴㅡㅇ -1029
▁ㅁㅕㅊ -1030
ㄸㅐ -1031
▁ㅅㅗㄱㄷㅗ -1032
▁ㅅㅐㅇㄱㅣ -1033
▁ㅈㅓㅂ -1034
▁ㅈㅏㄱㅍㅜㅁ -1035
▁ㄱㅡㄴㅑㅇ -1036
ㅊㅏㄴ -1037
▁ㅇㅢㅎㅏ -1038
▁21 -1039
▁ㄷㅓㄹ -1040
▁ㅇㅝ -1041
▁50 -1042
ㅘㄴ -1043
▁X -1044
▁ㄷㅣㄹ -1045
▁ㅂㅏㄺ -1046
▁ㅇㅓㄷㅗ -1047
▁ㄴㅐㅇㅛㅇ -1048
▁ㄸㅓㄹㅇㅓㅈㅣ -1049
▁2016 -1050
▁ㅉㅗㄱ -1051
ㅂㅕㄴ -1052
ㅇㅑㅇ -1053
▁ㅇㅡㄴㅣ -1054
▁ㅋㅗㄴ -1055
ㄹㅠㄹ -1056
ㅎㅗㄴ -1057
▁ㄱㅗㅇㄱㅕㄱㄹㅕㄱ -1058
▁ㄱㅖㅅㅗㄱ -1059
ㅎㅘㄹ -1060
▁ㅅㅜㅈㅜㄴ -1061
▁ㅁㅔㅇㅣ -1062
▁ㄴㅏㅇㅣ -1063
▁ㄷㅐㅍㅛ -1064
▁ㄷㅐㅂㅜㅂㅜㄴ -1065
▁ㅇㅣㄴㅁㅜㄹ -1066
ㅊㅓㄹ -1067
▁ㅁㅏㅌ -1068
▁ㅁㅜㅇ -1069
▁& -1070
▁ㄱㅐㅇㅛ -1071
▁ㅇㅜㄹㅣ -1072
is -1073
▁ㄱㅏㅂ -1074
▁ㅂㅗㄹ -1075
re -1076
ㅋㅜ -1077
▁ㄱㅣㄴ -1078
ㄱㅓㄹㅣ -1079
ㅈㅓㄴㅎㅣ -1080
▁ㅇㅟㅊㅣ -1081
▁ㅂㅣㅅㅡㅅ -1082
▁ㅇㅕㄹㅓ -1083
▁w -1084
▁ㄷㅗㅇㅇㅏㄴ -1085
▁ㅅㅡㅌㅗ -1086
▁ㅅㅡㅌㅏ -1087
▁ㅅㅡㅂㄴㅣㄷㅏ -1088
▁ㅈㅣㄱㅡㅁ -1089
▁ㄷㅐㅅㅣㄴ -1090
▁22 -1091
le -1092
▁ㄱㅏㅇㅎㅏ -1093
▁ㅊㅗㄱ -1094
▁ㄱㅜㄱㄱㅏ -1095
▁ㅅㅏㅇㄷㅏㅇㅎㅣ -1096
▁ㅍㅕㅇㄱㅏ -1097
ㅔㅇㅣㅈㅣ -1098
▁ㅇㅓㄴㅡ -1099
ㅔㅇㅣㅅㅕㄴ -1100
▁ㅁㅓㄹ -1101
▁ㅂㅣㅎㅏ -1102
▁ㅎㅢ -1103
▁ㄱㅣㅅㅏ -1104
ㅔㄴㅌㅡ -1105
▁ㅌㅐㅇ -1106
▁ㄸㅏㄹ -1107
▁ㅎㅘㄹㄷㅗㅇ -1108
▁ㄱㅘㄴㄱㅖ -1109
▁ㅁㅏㄴㄴㅏ -1110
▁ㄴㅏㅈ -1111
▁ㅇㅣㅈㅓㄴ -1112
▁ㄷㅡㄷ -1113
▁ㅇㅏㄹㄹㅣ -1114
ㅅㅡㄴ -1115
▁ㅇㅕㅇㅅㅏㅇ -1116
▁J -1117
ㄴㅏㅁ -1118
ㅔㅇㅣㄹ -1119
▁d -1120
▁ㅋㅓㄴ -1121
▁ㅅㅓㅇㅜㄹ -1122
▁ㅅㅑ -1123
▁ㅂㅗㅅㅡ -1124
▁ㄱㅡㄷㅐㄹㅗ -1125
▁ㅊㅔㄹㅕㄱ -1126
▁24 -1127
ㅅㅜㄴ -1128
▁ㅇㅠㄴㅣㅅ -1129
▁ㄱㅏㅁㄷㅗㄱ -1130
ㅇㅓㅄ -1131
▁ㄸㅟ -1132
▁ㄴㅗㄴ -1133
▁ㅁㅜㄴㅅㅓ -1134
▁ㅍㅏㄱ -1135
ㅜㄹㅡ -1136
▁ㅊㅚㄷㅐ -1137
▁ㅅㅓㅇㄱㅗㅇ -1138
ㄹㅗㄱ -1139
ㅈㅡㅇ -1140
▁ㄱㅣㅈㅜㄴ -1141
▁ㅅㅓㄱ -1142
▁ㅁㅏㄷㅏ -1143
▁ㅋㅣㅇ -1144
▁ㅃㅏㄹㅡ -1145
▁ㅈㅜㄱㅇㅣ -1146
ㅍㅡㄹ -1147
▁ㅅㅣㅈㅓㄹ -1148
▁ㄴㅡㄹ -1149
ing -1150
ㅁㅂㅓ -1151
ㅎㅢ -1152
ㅈㅔㄹㅗ -1153
ic -1154
ㅂㅓㄹ -1155
▁ㅇㅗㄹㄹ -1156
▁ㅎㅣㄹ -1157
▁ㅈㅔㅇㅚ -1158
▁f -1159
▁ㅂㅏㄺㅎㅣ -1160
▁ㅈㅜㅇㄱㅜㄱ -1161
▁ㄷㅔㅁㅣㅈㅣ -1162
▁ㅅㅣㄹㅈㅔㄹㅗ -1163
▁ㅁㅡㄹㅗ -1164
ㅋㅡㄹ -1165
ㄹㅏㄱ -1166
ㅇㅓㅇ -1167
▁ㅁㅗㄴㅅㅡㅌㅓ -1168
as -1169
▁ㅇㅠㄱ -1170
▁ㅂㅏㄹㅏㅁ -1171
ㅣㅇㅗ -1172
▁ㅇㅠㅈㅓ -1173
▁ㅅㅓㄹㅈㅓㅇ -1174
▁b -1175
▁ㄴㅣㅁ -1176
▁ㄷㅗㄴ -1177
▁ㄱㅕㄹㄱㅘ -1178
▁ㄷㅐㄹㅗ -1179
ㄷㅡㄴ -1180
▁ㄱㅡㄴㅕ -1181
ㄷㅏㄱㅏ -1182
ㅓㄴㅣ -1183
▁ㄷㅐㅇ -1184
ㅌㅡㄴ -1185
ㄴㅗ -1186
▁ㅈㅓㄴㅈㅐㅇ -1187
▁ㅈㅣㅇㅝㄴ -1188
▁ㅍㅔ -1189
▁ㅈㅏㄹㅣ -1190
▁ㅇㅓㄹㅕㅂ -1191
ㄹㅑㄱ -1192
▁ㅅㅡㅇㄹㅣ -1193
ㅓㅅㅡ -1194
ㅇㅕㄹ -1195
▁23 -1196
ㅎㅏㄹ -1197
▁2015 -1198
▁ㅁㅔㅁㅂㅓ -1199
▁ㅇㅣㅁㅣ -1200
▁ㄷㅗㄹㅗㄱ -1201
▁ㅅㅗㅅㅗㄱ -1202
ㄱㅅㅡ -1203
ㄱㅘㅇ -1204
ㅗㅊ -1205
▁ㅇㅓㄴㄱㅡㅂ -1206
▁ㄱㅓㄱ -1207
▁ㅇㅝㄴㄹㅐ -1208
ㅣㅇㅓㄴ -1209
▁ㅇㅜㅁ -1210
▁ㅈㅓㅇㅂㅗ -1211
ㅜㄱㅜ -1212
▁ㅅㅔㄴ -1213
▁40 -1214
ㅜㄹㅣ -1215
ㄱㅜㄹ -1216
▁ㅈㅣㄱㅈㅓㅂ -1217
▁ㅇㅏㅂ -1218
▁ㄷㅡㄴ -1219
▁ㅆㅏㅇㅜ -1220
▁ㄴㄷㅏㅁㅕㄴ -1221
▁ㅁㅝ -1222
▁ㅁㅓㄹㅣ -1223
▁ㅅㅓㅇㅇㅜ -1224
ㅂㅓㅈㅣ -1225
▁ㅅㅓㄹㅁㅕㅇ -1226
▁ㅇㅠㄹ -1227
▁ㅆㅣ -1228
▁ㅇㅣㄷㅗㅇ -1229
▁ㄱㅡㄱㅓㅅ -1230
▁ㅅㅓㄴㅌㅐㄱ -1231
▁ㅈㅣㄴㅏ -1232
▁ㅈㅓㄴㅊㅔ -1233
ㅇㅏㅇ -1234
ㅅㅗㄴ -1235
▁ㅎㅔ -1236
▁ㅇㅢㅁㅣ -1237
ㅜㄴㄷㅡ -1238
▁ㅁㅏㅇㅡㅁ -1239
ㄱㅝㄴ -1240
▁ㅇㅣㄹㅂㅜ -1241
▁ㅅㅐㄹㅗ -1242
ㅋㅔ -1243
▁a -1244
▁ㅇㅕㅈㅏ -1245
▁ㄴㅓㅁㅜ -1246
▁ㅆㅣㄱ -1247
▁ㅂㅐㅇㅜ -1248
▁ㅏ -1249
ㄹㅣㅇㅏ -1250
▁ㅊㅏㄱ -1251
▁ㅈㅏㄴ -1252
▁ㄱㅘㄱㅓ -1253
ㅇㅕ -1254
ㅎㅣㄹ -1255
▁ㅅㅓㅁ -1256
▁ㅇㅓㅉ -1257
▁ㅋㅏㄴ -1258
▁ㅆㅡㄹ -1259
▁ㅎㅕㅂ -1260
▁ㅇㅙ -1261
▁< -1262
ㅇㅐ -1263
ㅌㅣㅇ -1264
ㅊㅜㄱ -1265
▁ㅎㅠ -1266
▁ㄹㅠ -1267
▁ㄷㅗㅅㅣ -1268
▁ㅍㅗㄹ -1269
▁ㅋㅓㅁ -1270
▁ㅇㅓㅁㅊㅓㅇ -1271
▁ㅍㅡㄹㄹㅔㅇㅣㅇㅓ -1272
ㅜㅂ -1273
▁ㅊㅡㄱ -1274
▁ㄴㅠ -1275
▁ㅂㅗㄴㅐ -1276
▁ㅂㅔㄹ -1277
ㄱㅏㅈㅣ -1278
▁ㅋㅗㅇ -1279
▁ㅊㅣㄴㄱㅜ -1280
ㅅㅡㄹ -1281
▁ㅊㅣㄹ -1282
▁ㅊㅏㅇㅣ -1283
▁ㅅㅗㄹㅣ -1284
ㅅㅣㅇㅏ -1285
▁ㅂㅏㅇㅂㅓㅂ -1286
▁ㄷㅏㅂ -1287
▁ㅋㅗㄹ -1288
▁ㅎㅣㅁㄷㅡㄹ -1289
▁ㅊㅐㄱ -1290
ㅂㅐㄱ -1291
ㅇㅜㅇ -1292
▁) -1293
▁ㅁㅛ -1294
ㅊㅐㄱ -1295
▁ㅇㅏㅇㅣㅌㅔㅁ -1296
▁ㅈㅏㅇㅁㅕㄴ -1297
▁ㅊㅜㄹㅇㅕㄴ -1298
▁ㅌㅏㅂ -1299
▁ㅌㅏㅇ -1300
▁ㄱㅓㄹㅣ -1301
ㄹㄹ -1302
▁ㅂㅓㅈㅓㄴ -1303
▁ㅇㅜㅇ -1304
▁ㅅㅡㅌㅗㄹㅣ -1305
om -1306
ㅊㅗㅇ -1307
▁ㅈㅗㄱㅡㅁ -1308
ㅔㅇㅣㄷㅡ -1309
▁p -1310
▁ㄲㅙ -1311
am -1312
▁h -1313
▁ㅎㅑㅇ -1314
ㅋㅔㅅ -1315
ㅎㅚㄱ -1316
▁ㅂㅏㅇㅇㅓ -1317
▁ㅋㅜㄹ -1318
▁ㅅㅜㄱ -1319
▁ㅎㅗㄹ -1320
ㅍㅣㄹ -1321
▁ㄴㅏㅌㅏㄴ -1322
▁ㅇㅠㄴ -1323
▁ㅅㅏㄹㅏㅇ -1324
▁ㅂㅏㄲㅟ -1325
▁ㅅㅡㄹㅓㅂ -1326
ㅇㅓㄹ -1327
▁ㅊㅣㅇ -1328
ㄲㅏㅂ -1329
▁ㄱㅗㅇㅅㅣㄱ -1330
▁ㅅㅛ -1331
▁ㅅㅣㅇ -1332
ㅂㅗㅇ -1333
▁ㄲㅏ -1334
ㅉㅏ -1335
▁ㅂㅣㄴ -1336
▁ㄱㅐㅂㅏㄹ -1337
ㅜㅅ -1338
▁198 -1339
▁ㄷㅐㅅㅏㅇ -1340
▁ㅊㅗㅂㅏㄴ -1341
el -1342
ㅂㅜㄹ -1343
ㅌㅏㅇ -1344
▁ㅁㅗㄷㅡ -1345
▁ㄹㅗㅅㅓ -1346
▁ㅎㅗㅁ -1347
▁ㅈㅓㄴㅂㅜ -1348
ㅎㅏㄱㄱㅛ -1349
▁ㅇㅗㅇ -1350
▁ㄷㅐㅅㅏ -1351
▁ㅂㅓㅅㅡ -1352
▁ㄹㅏㅇㅣㄴ -1353
▁o -1354
▁ㅋㅡㄹㅣ -1355
▁ㄴㅗㄱ -1356
▁ㄹㅕㄱㅗ -1357
ㅍㅕㅇ -1358
▁ㄱㅓㄹㄹㅣ -1359
▁ㄴㅏㅁㅈㅏ -1360
▁ㅇㅣㅂㅔㄴㅌㅡ -1361
▁ㅊㅡㅇ -1362
▁ㅈㅔㄷㅐㄹㅗ -1363
▁ㅇㅏㅁㅜ -1364
▁ㅉㅏ -1365
▁ㄷㅏㄴㅣ -1366
▁ㅅㅗㄱㅅㅓㅇ -1367
ㅊㅣㅁ -1368
▁ㅃㅏㅈㅣ -1369
▁26 -1370
ㅃㅡ -1371
▁2014 -1372
▁ㄷㅗㅇㅅㅣ -1373
▁n -1374
▁ㅇㅕㅅㅓㅇ -1375
▁ㅈㅗㄹ -1376
▁ㅂㅜㄹㄹㅣ -1377
ㄱㅡㄱ -1378
ㅂㅜㄱ -1379
▁ㅍㅏㄱㅚ -1380
ㅂㅡㄹ -1381
▁ㅇㅠㅁㅕㅇ -1382
▁ㄱㅏㅇㅎㅘ -1383
▁ㅉㅣㄱ -1384
▁ㅊㅡ -1385
▁ㅊㅚㄱㅗ -1386
▁ㅈㅓㅇㅁㅏㄹ -1387
▁ㅇㅏㅂㅓㅈㅣ -1388
▁ㅅㅐㄱ -1389
▁ㅇㅓㄱ -1390
▁28 -1391
▁ㅅㅏㅁㅏㅇ -1392
ㅇㅓㅇㅗ -1393
ㅔㅇㅣㅁ -1394
▁ㅁㅐㅂ -1395
▁ㅅㅗㅎㅘㄴ -1396
▁ㅈㅏㅈㅜ -1397
▁ㅅㅓㅇㄴㅡㅇ -1398
ㅈㅏㅂ -1399
ㄱㅓㄴ -1400
▁ㅎㅏㄱㅅㅐㅇ -1401
▁the -1402
▁27 -1403
ㅔㅇㅣㅌㅡ -1404
▁ㅇㅏㅈㅣㄱ -1405
▁ㅊㅚㅈㅗㅇ -1406
▁ㅇㅜㄴㅇㅕㅇ -1407
▁ㄱㅜㄹ -1408
▁ㅇㅜㅅㅡㅇ -1409
▁ㄴㅜㄱㅜ -1410
▁ㅎㅚㅂㅗㄱ -1411
▁ㅇㅕㄱㅅㅏ -1412
▁ㅎㅜㅂㅏㄴ -1413
▁ㄷㅏㅇㅇㅕㄴ -1414
▁31 -1415
▁= -1416
▁ㅊㅜㄹㅅㅣㄴ -1417
▁ㅋㅏㅇ -1418
▁ㅈㅡ -1419
▁ㄱㅣㅌㅏ -1420
▁ㅁㅣㅇ -1421
ㅇㅓㅆ -1422
▁ㄱㅡㄹㅓㄴㄷㅔ -1423
▁ㄷㅓㅂ -1424
▁ㄹㅏㄷㅗ -1425
▁ㅇㅐㄱ -1426
▁ㅌㅡㄱㅅㅓㅇ -1427
▁ㄱㅏㅇㄹㅕㄱ -1428
▁ㄹㅐ -1429
▁ㄴㅗㄹㅐ -1430
▁ㅎㅟ -1431
▁ㅍㅗㅇ -1432
ㅔㅇㅣㅅㅡ -1433
▁ㅇㅣㄸㅐ -1434
ㅔㅇㅣㄴ -1435
▁ㄱㅗㅇㄱㅐ -1436
▁ㅎㅘㄱㄹㅠㄹ -1437
▁ㅅㅓㄹㅗ -1438
▁ㄲㅐ -1439
ㄹㅡ -1440
▁ㅇㅓㅁㅊㅓㅇㄴㅏ -1441
▁ㅇㅕㄴㄱㅜ -1442
ㅂㅕㄱ -1443
▁ㄱㅛㅇ -1444
▁ㅈㅜㄹㅗ -1445
▁ㅇㅠㅈㅣ -1446
ㅎㅜㄴ -1447
ㅜㅅㅡ -1448
▁ㄴㅗㅅㅓㄴ -1449
▁ㅈㅣㅇ -1450
▁ㄸㅏㅇ -1451
▁ㅇㅐㄹ -1452
▁ㅂㅏㄹㅁㅐ -1453
▁ㅇㅣㄱㅣ -1454
ㅅㅜㄱ -1455
ㅇㅡㅇ -1456
ol -1457
▁ㅌㅏㄱ -1458
▁ㅇㅗㄱ -1459
▁ㅂㅏㅇㅅㅣㄱ -1460
▁ㄲㅡㄹ -1461
▁ㄴㅡㄲㅣ -1462
ㅇㅘㅇ -1463
▁ㄷㅓㅇ -1464
▁ㅂㅏㄹㅅㅐㅇ -1465
▁000 -1466
▁ㅁㅓㄴ -1467
ㅠㄱ -1468
▁ㅁㅏㅊㅏㄴ -1469
▁ㅁㅏㅊㅏㄴㄱㅏㅈㅣ -1470
▁ㅊㅓ -1471
▁ㄴㅏㄹㅏ -1472
▁ㅃㅏㄹ -1473
▁ㅈㅓㅇㅅㅣㄴ -1474
ㅅㅟ -1475
▁ㄱㅗㄴ -1476
▁ㄱㅕㄹㅈㅓㅇ -1477
▁ㅇㅕㅇㅎㅑㅇ -1478
ㅋㅓㄹ -1479
▁ㅅㅣㅅㅡ -1480
▁ㅌㅡㄱㅅㅜ -1481
▁ㅇㅗㅎㅣㄹ -1482
ㅂㅜㅌㅓ -1483
ㄹㅣㅁ -1484
ㄱㅏㅂ -1485
▁ㄷㅐㅈㅓㄴ -1486
▁ㅌㅔㄹ -1487
▁ㅇㅗㅎㅣㄹㅕ -1488
▁ㅇㅝㄹㄷㅡ -1489
ion -1490
ㄹㅕ -1491
et -1492
▁ㄱㅐㄱ -1493
▁ㅇㅣㅈㅔ -1494
ㅎㅘㄱ -1495
▁ㅂㅕㄴㄱㅕㅇ -1496
▁ㅂㅣㄱㅛ -1497
▁ㅍㅗㅎㅏㅁ -1498
▁ㅁㅐㄱ -1499
▁ㅇㅕㅇㅇㅜㅇ -1500
▁ㅈㅏㅇㅂㅣ -1501
▁ㅂㅣㅊ -1502
▁ㄱㅣㅈㅗㄴ -1503
▁ㄴㅏㅌㅏㄴㅏ -1504
ac -1505
ㅣㄴㅏ -1506
▁ㅇㅣㄹㅇㅓㄴㅏ -1507
▁ㅅㅜㄹㅗㄱ -1508
ㅍㅗㄱ -1509
▁ㅇㅕㄱㅎㅏㄹ -1510
▁ㄱㅔㄷㅏㄱㅏ -1511
ㄷㅓㄱ -1512
▁ㅂㅗㅌㅗㅇ -1513
ㅔㅅㅡ -1514
▁ㅇㅣㄴㄱㅣ -1515
▁ㄸㅡㅅ -1516
▁ㅇㅣㄹㅓ -1517
▁ㅆㅗ -1518
▁ㅈㅏㄱㅈㅜㅇ -1519
ㄴㅏㄹ -1520
▁ㅈㅣㅅ -1521
▁32 -1522
▁ㄴㅏㄱ -1523
▁ㅅㅏㄹㅏㅈㅣ -1524
▁ㄴㅏㄴㅇㅣ -1525
▁ㅆㅡㅇㅣ -1526
▁ㅁㅏㅇㅡㄹ -1527
▁ㅊㅏㄹㅑㅇ -1528
▁ㅇㅏㅇㅖ -1529
▁ㅈㅜㅇㅇㅛ -1530
▁ㅇㅓㄸㅓㄴ -1531
▁ㅂㅏㄲㅜ -1532
▁ㅎㅕㅇㅌㅐ -1533
ㅁㅗㄴ -1534
▁Y -1535
▁ㅇㅣㄹㄷㅏㄴ -1536
▁ㅅㅓㅇㄱㅕㄱ -1537
▁ㅌㅓㄴ -1538
▁ㅇㅓㅇㅛ -1539
ㅏㄷㅗ -1540
▁ㅎㅐㅇㄷㅗㅇ -1541
▁ㅇㅣㅂㅓㄴ -1542
▁ㄴㅏㄴㅇㅣㄷㅗ -1543
▁ㄱㅏㄲㅏㅂ -1544
il -1545
▁ㅍㅜㅇ -1546
▁ㅎㅚㄱ -1547
us -1548
▁ㄷㅐㅎㅏㄴ -1549
▁ㅇㅗㄹㅡ -1550
▁29 -1551
▁ㅇㅡㅇ -1552
▁ㅍㅡㄹㅣ -1553
▁ㅅㅔㅌㅡ -1554
ㅍㅜㅇ -1555
▁ㄸㅡ -1556
▁ㄱㅘㅈㅓㅇ -1557
▁ㅈㅜㅈㅏㅇ -1558
▁ㅁㅗㅇㅑㅇ -1559
▁ㅇㅏㄹㅐ -1560
▁ㅎㅡㄱ -1561
ig -1562
▁v -1563
▁ㅅㅜㅁ -1564
ㄱㅏㄹ -1565
▁ㅅㅣㅁㅈㅣ -1566
ㅍㅔ -1567
ow -1568
▁ㅇㅡㅁㅇㅏㄱ -1569
▁ㅂㅜㅈㅗㄱ -1570
▁ㄷㅐㅎㅚ -1571
▁ㅃㅗㅂ -1572
▁ㅅㅣㄷㅐ -1573
ㅊㅡㄱ -1574
▁ㅈㅘ -1575
ed -1576
▁ㅊㅚㅊㅗ -1577
▁2013 -1578
▁ㅅㅣㅁㅈㅣㅇㅓ -1579
ㅁㅣㄴㄱㅜㄱ -1580
▁ㅅㅏㅎㅚ -1581
ㅏㅁㅣ -1582
▁ㄱㅜㅅㅓㅇ -1583
▁ㅁㅏㅈㅊㅜ -1584
▁ㅇㅣㄹㅓㅎㄱㅔ -1585
▁ㅂㅏㄹㄷㅗㅇ -1586
▁ㅅㅐㄹㅗㅂ -1587
▁ㅇㅐㄴㅣㅁ -1588
▁ㄱㅜㅎㅏ -1589
▁ㅂㅣㅁ -1590
▁ㅎㅔㄹ -1591
▁ㄲㅡㅌㄴㅏ -1592
▁ㄹㅣㄴ -1593
▁ㅇㅣㅂㅈㅏㅇ -1594
▁ㅇㅛㄱ -1595
▁ㅍㅖ -1596
▁ㄱㅓㄱㅣ -1597
▁ㄴㅏㅇ -1598
▁ㅎㅘㄱㅇㅣㄴ -1599
ㄹㅣㅇㅓ -1600
▁ㅁㅣㄷ -1601
ㅇㅖ -1602
▁l -1603
▁ㅅㅠㅍㅓ -1604
▁ㅇㅠㅇㅣㄹ -1605
ㄱㅟ -1606
ㅣㅅㅡ -1607
▁ㅎㅜㄴ -1608
ㅎㅟ -1609
ㅐㅁ -1610
▁ㅎㅡㄴ -1611
▁ㅅㅏㅈㅣㄴ -1612
▁ㅁㅓㄴㅈㅓ -1613
▁ㄷㅡㄹㅐㄱ -1614
▁ㅇㅓㄷㅣ -1615
ㅣㅂ -1616
▁ㅋㅓ -1617
ㄷㅏㅂ -1618
▁x -1619
▁60 -1620
▁ㄹㅗㅂ -1621
▁ㅊㅏㅈㅣ -1622
▁ㅎㅏㅇㅁㅗㄱ -1623
▁ㅎㅘㄹㅇㅑㄱ -1624
ㅊㅜㅇ -1625
▁ㅇㅕㄷㅏㅁ -1626
▁ㅈㅗㄱㅓㄴ -1627
▁ㅇㅣㅅ -1628
▁ㅁㅗㄷㅔㄹ -1629
▁ㅈㅏㅅㅔ -1630
▁ㄷㅡㄱ -1631
ㄹㅣㅅㅡ -1632
ㅔㄹㅡ -1633
▁ㄷㅗㄹㅇㅏㅇㅗ -1634
▁ㅍㅡㄹㅏㅇ -1635
▁ㅇㅓㄹㅣ -1636
▁ㅇㅝㄴㅈㅏㄱ -1637
▁ㄴㅐㄹㅣ -1638
▁ㅁㅏㅅ -1639
▁ㅁㅜㄷ -1640
▁ㄷㅓㄱㅂㅜㄴ -1641
▁ㄷㅡㄹㅇㅓㅇㅗ -1642
▁35 -1643
▁ㄹㅗㄱ -1644
▁ㄱㅕㄴ -1645
ㅌㅚ -1646
▁ㅅㅣㅅㅡㅌㅔㅁ -1647
▁ㅇㅘㄴㅈㅓㄴㅎㅣ -1648
▁ㄷㅓㄴㅈㅣ -1649
▁ㄱㅚㅇ -1650
▁ㄷㅐㅎㅏㄴㅁㅣㄴㄱㅜㄱ -1651
id -1652
▁ㅈㅜㅂㅕㄴ -1653
▁Lv -1654
▁ㅇㅏㄷㅡㄹ -1655
▁ㅈㅓㄴㅎ -1656
▁ㄱㅡㄹㅐㅅㅓ -1657
ㅅㅡㅌ -1658
ㅗㄹㅡ -1659
▁ㅁㅏㅁ -1660
▁ㄲㅣ -1661
ㅍㅡㅌㅡ -1662
▁ㅅㅜㄴㄱㅏㄴ -1663
▁ㄷㅗㄱㅇㅣㄹ -1664
▁ㅁㅕㅇㅊㅣㅇ -1665
▁ㄹㅏㅁㅕ -1666
ay -1667
▁ㄴㅏㄹㄹㅣ -1668
▁ㄱㅏㅁㅅㅗ -1669
▁ㅇㅓㄹㄱㅜㄹ -1670
▁ㅈㅓㄴㅎㅕ -1671
▁ㅈㅏㅇㅠ -1672
▁2012 -1673
ad -1674
▁ㅇㅐㄴㅣㅁㅔㅇㅣㅅㅕㄴ -1675
▁ㄱㅘㄴㄹㅣ -1676
▁ㄱㅕㅇㅊㅏㄹ -1677
▁ㅇㅣㅀ -1678
▁ㄱㅜㅁ -1679
ㅈㅡㅁ -1680
▁ㅌㅡㄱㅈㅣㅇ -1681
▁ㅈㅏㄷㅗㅇ -1682
▁01 -1683
▁ㅈㅓㄱㅇㅛㅇ -1684
ㅇㅏㄱㅏ -1685
▁ㄱㅛㅇㅠㄱ -1686
▁ㅆㅏ -1687
▁ㅇㅕㅇㅇㅓ -1688
▁ㅁㅠ -1689
▁ㄱㅚㅇㅈㅏㅇ -1690
▁ㅁㅜㅇㅓㅅ -1691
▁ㄱㅏㄱㅕㄱ -1692
▁ㅈㅣㅋㅣ -1693
▁r -1694
▁ㄱㅗㄷㅡㅇ -1695
▁ㄷㅓㄹㅏㄷㅗ -1696
ㅂㅓㅅㅡ -1697
▁ㄲㅜㅁ -1698
▁ㄷㅗㄹㅇㅏㄱㅏ -1699
▁ㅌㅏㅁ -1700
ㅣㄴㅌㅡ -1701
▁ㅍㅐㅂㅐ -1702
▁of -1703
▁ㄷㅡㄹㅐㄱㅗㄴ -1704
▁ㄷㅔㅂ -1705
▁ㅇㅏㄱㅜㄴ -1706
▁ㅁㅏㅅㅡㅌㅓ -1707
▁ㄹㅕㄴ -1708
▁ㅅㅣㄹㅍㅐ -1709
▁ㄱㅡㄹㅓㅎㄱㅔ -1710
▁ㄱㅣㄱㅏㄴ -1711
▁ㄱㅏㄲ -1712
ㅅㅗㄷㅡ -1713
▁ㅌㅐㄱ -1714
▁ㄷㅠ -1715
▁ㄱㅐㅇㅣㄴ -1716
▁ㅅㅡㅁ -1717
▁ㅇㅐㄹㅂㅓㅁ -1718
ot -1719
▁ㅇㅜㅈㅜ -1720
▁ㅅㅐㅇㅅㅏㄴ -1721
▁ㄷㅗㅇㅜㅁ -1722
▁ㄱㅓㄴㅁㅜㄹ -1723
▁ㅅㅣㅈㅓㅁ -1724
▁ㅈㅛ -1725
ve -1726
▁ㅇㅣㄱㅓ -1727
ㅔㄹㅏ -1728
and -1729
▁ㅃㅐ -1730
▁ㄱㅡㄴㅏㅁㅏ -1731
▁ㅎㅗㄱㅇㅡㄴ -1732
▁ㅂㅏㄲㅇㅔ -1733
▁ㅅㅣㄹㄹㅕㄱ -1734
▁ㅈㅣㅅㅗㄱ -1735
ㅁㅔ -1736
▁ㅅㅏㅇㅅㅡㅇ -1737
▁ㅁㅗㅇㅡ -1738
▁ㅍㅏㅇㅣ -1739
ㅈㅜㅇㅢ -1740
▁ㅁㅏㅇㅣ -1741
▁ㄱㅣㄴㅡㅇ -1742
▁ㅊㅓㄹㅣ -1743
▁ㅈㅓㅇㅂㅜ -1744
▁ㅈㅏㄱㄱㅏ -1745
▁ㅇㅗㅂㅡ -1746
ㅁㅕ -1747
▁ㄹㅐㅇ -1748
▁ㄱㅣㅇㅓㄱ -1749
▁ㄷㅔㄱ -1750
▁TV -1751
▁ㅎㅚㄱㄷㅡㄱ -1752
▁ㄷㅏㄱ -1753
▁ㅂㅏㄹㄱㅕㄴ -1754
ㄷㅣㅇㅗ -1755
▁ㅍㅐㅊㅣ -1756
▁ㅂㅜㄷㅐ -1757
▁ㅇㅔㅍㅣ -1758
▁ㅂㅏㄴㅇㅡㅇ -1759
▁ㅁㅜㄹㄹㅣ -1760
▁y -1761
▁ㅋㅞ -1762
ㅊㅏㄶ -1763
▁ㅈㅔㄱㅜㄱ -1764
▁ㅅㅗㄱㅐ -1765
▁ㅈㅓㅇㅎㅘㄱ -1766
▁ㄱㅡㄹㅣㅁ -1767
▁ㅋㅓㅂ -1768
▁ㅊㅏㅁㅈㅗ -1769
▁ㅁㅏㄴㅎㅘ -1770
▁ㅇㅕㅇㄱㅜㄱ -1771
▁ㄷㅗㅇㅇㅣㄹ -1772
▁ㅋㅗㅁ -1773
20 -1774
▁ㄹㅓㄴ -1775
▁ㅇㅣㅇ -1776
▁ㄷㅐㅎㅏㄱㄱㅛ -1777
▁ㅅㅓㄴㅂㅏㄹ -1778
ㄷㅓㄴ -1779
▁ㅎㅏㅇㅣ -1780
▁ㄱㅜㄱㄴㅐ -1781
ㅆㅓ -1782
▁ㄸㅏㄱ -1783
▁ㅈㅗㅊㅏ -1784
ㅇㅜㄹ -1785
▁ㄹㅑㅇ -1786
▁ㄷㅏㅁㄷㅏㅇ -1787
ㄹㅏㅇ -1788
ㅗㄴㅡㄴ -1789
▁ㅇㅗㄹㄹㅏㄱㅏ -1790
ch -1791
▁ㄹㅔㄴ -1792
▁ㅎㅏㄴㅌㅔ -1793
▁ㅊㅜㄹㅅㅣ -1794
▁ㅍㅣㅇ -1795
▁ㄱㅖㅎㅚㄱ -1796
▁ㅇㅔㅍㅣㅅㅗㄷㅡ -1797
▁ㄲㅗ -1798
ㄱㅗㅅ -1799
▁ㄸㅓㄴㅏ -1800
▁ㄷㅏㅁㅕ -1801
▁ㅌㅏㅇㅣㅂ -1802
▁ㄱㅣㄱㅘㄴ -1803
▁ㅊㅗㄱㅣ -1804
▁ㅂㅏㄴㄷㅐ -1805
▁ㅂㅏㅁ -1806
▁ㅍㅡㄹㅗㄱ -1807
▁ㄷㅏㄴㄱㅖ -1808
▁ㄷㅡㄹㅏㅁㅏ -1809
▁ㅅㅔㄷㅐ -1810
▁ㅇㅜㅁㅈㅣㄱ -1811
▁ㄹㅡ -1812
▁ㅈㅣㄱㅜ -1813
▁ㅇㅔㅇㅣ -1814
un -1815
▁ㅎㅏㄹㅜ -1816
ㅅㅐ -1817
▁ㄸㅗㄴㅡㄴ -1818
▁ㄹㅏㅅㅓ -1819
▁ㅂㅓㅁㅇㅟ -1820
▁ㄴㅗㅁ -1821
ㅎㅗㄱ -1822
ㅇㅓㅄㅇㅣ -1823
▁ㅌㅚ -1824
ㄲㅡㄹ -1825
ㅅㅗㄹㅣ -1826
ㅜㄹㅏ -1827
▁37 -1828
▁ㅂㅓㅍㅡ -1829
▁ㅅㅣㅊㅓㅇ -1830
▁ㅁㅏㄹㅣ -1831
▁The -1832
▁ㄹㅗㅇ -1833
▁2010 -1834
▁ㅇㅏㅆㅇㅓㅆ -1835
ㅔㅇㅣㅋㅡ -1836
BS -1837
ㄸㅡㄹㅣ -1838
▁ㅎㅕㄴㄷㅐ -1839
▁ㅍㅐㅌㅓㄴ -1840
ㄹㅓㄴ -1841
▁g -1842
▁ㅍㅗㄱㅂㅏㄹ -1843
▁ㅅㅏㅇㅇㅟ -1844
ㅇㅏㄴㅐ -1845
▁ㅍㅛㅎㅕㄴ -1846
▁ㅅㅣㄱㅣ -1847
▁ㄷㅡㅇㄱㅡㅂ -1848
▁ㄷㅐㅁㅣㅈㅣ -1849
▁ㅁㅣㄹㄹㅣ -1850
▁ㅍㅣㄱ -1851
▁ㅇㅡㅁㅡㄹㅗ -1852
▁ㅅㅣㄹㅈㅔ -1853
▁ㅁㅜㄴㅎㅘ -1854
▁ㅍㅏㄴㅁㅐ -1855
▁ㅎㅘㄱㅅㅣㄹ -1856
ㅋㅣㅇ -1857
▁80 -1858
▁ㅇㅓㄸㅓㅎㄱㅔ -1859
▁ㅌㅏㅇㅣㅁ -1860
▁500 -1861
▁ㄹㅏㅇㅜㄴㄷㅡ -1862
▁ㅍㅡ -1863
▁ㄱㅚㅇㅈㅏㅇㅎㅣ -1864
▁ㅎㅚㅅㅏ -1865
▁St -1866
▁ㅇㅗㅂ -1867
▁ㅇㅣㄴㅈㅓㅇ -1868
▁ㅇㅜㅅ -1869
ㅁㅗㅅ -1870
▁ㅇㅣㅁㅣㅈㅣ -1871
▁45 -1872
▁ㄷㅔㅇㅣ -1873
▁ㅅㅏㄱㅗ -1874
ㅇㅜㄴ -1875
▁ㄱㅕㅇㅎㅓㅁ -1876
ㅏㄱㅣ -1877
▁ㄱㅏㅈㅗㄱ -1878
▁ㅈㅓㅇㅊㅣ -1879
▁ㅇㅛㄱㅜ -1880
ㄱㅌㅡ -1881
▁ㅎㅡㄹ -1882
ㄷㅡㄹㅇㅣ -1883
ER -1884
▁ㅅㅐㅇㅎㅘㄹ -1885
▁ㅈㅜㅇㅢ -1886
▁ㅇㅡㄹㅗㅅㅓ -1887
▁ㄹㅕㄴㅡㄴ -1888
▁ㅍㅣㅎㅏ -1889
▁09 -1890
ㅜㄱㅣ -1891
ㅁㅕㄹ -1892
▁ㅎㅓㄴ -1893
▁ㅁㅛㅅㅏ -1894
▁ㅈㅐㄱ -1895
▁* -1896
ㅏㅇㅣㅁ -1897
▁ㅅㅣㅁㅎㅏ -1898
ㅇㅣㄱ -1899
▁ㅌㅡㄱㅂㅕㄹ -1900
▁ㅎㅘㄹㅇㅛㅇ -1901
ㅈㅚ -1902
▁ㅈㅜㅇㅇㅏㅇ -1903
▁ㅎㅗㄴㅈㅏ -1904
▁ㅇㅗㄹㅐ -1905
▁ㅇㅕㄴㄱㅣ -1906
▁ㅋㅔ -1907
▁ㅂㅔㄴ -1908
ㅈㅏㅇㅣㄴ -1909
▁02 -1910
▁ㅂㅏㅇㅎㅑㅇ -1911
▁03 -1912
dd -1913
▁ㄷㅣㅈㅏㅇㅣㄴ -1914
▁ㄷㅡㅅㅇㅣ -1915
▁197 -1916
▁ㅈㅣㄴㅊㅜㄹ -1917
▁ㅇㅜㄴㄷㅗㅇ -1918
▁ㄴㅏㅃㅡ -1919
▁km -1920
▁ㄴㅏㅁㄱㅣ -1921
▁ㅍㅕㄹ -1922
▁ㅎㅏㄴㅈㅓㅇ -1923
▁ㅈㅜㅇㄱㅏㄴ -1924
▁ㄱㅙ -1925
▁ㅆㅏㅇㅜㅁ -1926
▁ㅌㅗㄴ -1927
▁ㄷㅔㅂㅟ -1928
▁ㅍㅓ -1929
▁ㅁㅣㅊㅣ -1930
▁ㄱㅡㄹㅜㅂ -1931
ㅌㅔㄴ -1932
▁ㅅㅐㅇㅁㅕㅇ -1933
ㅇㅣㄴㅁㅜㄹ -1934
▁ㅇㅑㄱㅎㅏ -1935
▁ㄹㅈㅣ -1936
▁ㄱㅡㄹㅐㄷㅗ -1937
ㅏㅇㅣㄹ -1938
▁ㅍㅗㅇㅣㄴㅌㅡ -1939
▁2011 -1940
▁ㅇㅔㄴㄷㅣㅇ -1941
▁ㄷㅏㅇㅇㅕㄴㅎㅣ -1942
▁ㅍㅏㅇㅝ -1943
▁ㅈㅜㄴㅂㅣ -1944
ㅡㄹㅐㅁ -1945
▁ㅇㅏㅈㅜ -1946
▁ㅅㅔㅇㅣ -1947
▁ㅇㅣㄹㅜ -1948
▁ㅇㅟㅎㅓㅁ -1949
▁ㅅㅡㅌㅔㅇㅣㅈㅣ -1950
ff -1951
▁ㅇㅕㅍ -1952
▁ㅍㅡㄹㅏㅇㅅㅡ -1953
▁ㅎㅕㄴㅅㅣㄹ -1954
▁ㅎㅜㅂㅗ -1955
▁ㅅㅣㅈㅏㅇ -1956
ㅆㅣㄴ -1957
ㅍㅗㄴ -1958
▁ㄷㅡㅇㅈㅏㅇㅇㅣㄴㅁㅜㄹ -1959
▁ㅋㅏㅁ -1960
▁ㅈㅗㅎㅏㅂ -1961
▁ㅍㅐㄱ -1962
▁ㅈㅚ -1963
▁ㄴㅗㄴㄹㅏㄴ -1964
▁ㅇㅠㄹㅣ -1965
ir -1966
▁05 -1967
▁ㅇㅏㄴㅌㅏ -1968
ㄷㅓㅁ -1969
▁ㅈㅣㄴㅣ -1970
▁ㅅㅜㄴㅇㅟ -1971
▁ㅁㅜㅈㅏㅇ -1972
ㅌㅗㅇㄹㅕㅇ -1973
▁ㄴㅗㄹㅣ -1974
▁ㄷㅓㅇㅜㄱ -1975
▁ㅍㅔㄴ -1976
▁ㅇㅒ -1977
▁ㅕ -1978
▁ㅇㅑㄱㅜ -1979
▁ㅈㅣㄴㅉㅏ -1980
▁ㅇㅓㅁㅓㄴㅣ -1981
▁ㅎㅡㅂ -1982
▁ㅁㅣㅅㅕㄴ -1983
ㅊㅐ -1984
▁ㅅㅣㅀ -1985
▁ㅂㅜㄴㅇㅟ -1986
▁ㄱㅙㄴ -1987
▁ㅅㅏㅅㅣㄹㅅㅏㅇ -1988
▁Z -1989
▁ㅍㅛㄱㅣ -1990
▁ㅋㅞㅅㅡㅌㅡ -1991
ㅎㅛ -1992
os -1993
▁( -1994
▁ㅂㅣㅍㅏㄴ -1995
ㅓㄴㅐ -1996
▁ㄷㅏㄴㅅㅜㄴ -1997
▁ㄱㅗㄷㅡㅇㅎㅏㄱㄱㅛ -1998
▁ㅇㅏㅋ -1999
ㅆㅣ -2000
▁08 -2001
▁ㅅㅣㅂ -2002
▁70 -2003
▁90 -2004
▁ㅂㅜㄴㅇㅟㄱㅣ -2005
▁ㅂㅡㄹㄹㅐㄱ -2006
▁ㄹㅗㄴ -2007
▁ㄱㅖㅇㅑㄱ -2008
▁ㄱㅜㅈㅗ -2009
▁ㅊㅏㅁㅇㅕ -2010
▁ㅎㅏㄱㄴㅕㄴ -2011
▁ㄱㅔㅇㅣ -2012
ㅇㅏㅂ -2013
▁ㅎㅡㅇ -2014
▁ㅎㅝㄹ -2015
▁07 -2016
im -2017
ㅡㅋㅣ -2018
▁ㅇㅕㅁ -2019
▁ㅇㅑㄱㄱㅏㄴ -2020
▁ㄷㅐㅌㅗㅇㄹㅕㅇ -2021
▁ㅈㅜㅇㅅㅣㅁ -2022
▁ㄷㅗㅇㄹㅛ -2023
▁ㄹㅗㄹ -2024
▁ㅈㅗㅅㅓㄴ -2025
▁ㅁㅓ -2026
▁ㅊㅟㄱㅡㅂ -2027
▁ㄹㅣㅇㅋㅡ -2028
▁ㅌㅜㅅㅜ -2029
ㅟㄴ -2030
▁... -2031
ㅇㅓㄹㅕㄱ -2032
▁ㅂㅏㅇㅇㅓㄹㅕㄱ -2033
▁ㄱㅡㄱㅓ -2034
▁ㅂㅓㄱ -2035
▁ㅇㅏㅁㅏ -2036
▁ㄸㅗㄱ -2037
▁ㅈㅣㄱㅇㅓㅂ -2038
▁ㄷㅗㅂ -2039
ㅉㅏㄱ -2040
ㅅㅓㅂ -2041
▁ㅈㅡㄹ -2042
▁ㅁㅣㄴㅈㅜ -2043
ㅇㅠㄱ -2044
▁ㄱㅕ -2045
▁ㅇㅕㄹㄹㅣ -2046
▁ㅍㅡㄹㅗㄱㅡㄹㅐㅁ -2047
▁ㄱㅡㅇ -2048
▁48 -2049
▁ㅁㅔㄴ -2050
ㅁㅣㄹ -2051
▁ㅎㅝㄹㅆㅣㄴ -2052
▁ㄱㅣㅇㅔ -2053
▁ㅇㅣㅇㅓㅈㅣ -2054
▁ㅇㅗㄹㅣ -2055
▁ㅇㅕㅈㅓㄴㅎㅣ -2056
▁ㄱㅕㄹㅎㅗㄴ -2057
▁ㅅㅓㄹㅊㅣ -2058
▁ㄴㅏㅁㅓㅈㅣ -2059
ㅂㅗㄹ -2060
▁ㅇㅗㅍ -2061
▁HP -2062
▁ㄹㅣㅁ -2063
ㄱㅠㄴ -2064
▁ㅈㅏㅁㅕㄴ -2065
▁ㅌㅏㅅ -2066
▁ㅋㅔㄴ -2067
▁ㄱㅜㄱㅏㄴ -2068
▁ㄱㅖㅇㅕㄹ -2069
ter -2070
▁ㄷㅏㅇㅑㅇ -2071
▁ㅊㅐㅇ -2072
▁ㅇㅟㅇㅝㄴ -2073
ㅇㅝㄹ -2074
▁ㅅㅣㄷㅗ -2075
▁ㅂㅏㄹㅏ -2076
▁ㅇㅔㄴㅈㅣㄴ -2077
▁ㄷㅓㅁ -2078
▁ㅈㅓㄴㅇㅛㅇ -2079
▁ㅂㅏㅇㅁㅕㄴ -2080
▁ㅂㅜㄹㄱㅜ -2081
▁06 -2082
ㄲㅣㅁ -2083
ㅇㅡㅋㅣ -2084
▁ㄸㅟㅇㅓㄴㅏ -2085
▁ㅇㅡㅁㅕㄴㅅㅓ -2086
▁ㄹㅐㄴ -2087
▁ㅌㅓㅈㅣ -2088
▁ㄷㅏㄹㅜ -2089
▁ㅅㅔㄹ -2090
▁ㅅㅡㅌㅡㄹ -2091
ㅇㅏㅁ -2092
ㅎㅕㄱ -2093
▁ㅇㅣㄺ -2094
▁ㅈㅜㅇㅛ -2095
▁ㅅㅓㅇㅈㅓㄱ -2096
▁ㅇㅣㄹㅈㅓㅇ -2097
▁2000 -2098
ㄹㅜ -2099
▁ㅎㅣㄹㅗ -2100
ㄹㅣㄴ -2101
ㅌㅣㅂㅡ -2102
▁ㅂㅗㅅㅏㅇ -2103
▁mm -2104
▁ㅁㅗㄱㅈㅓㄱ -2105
▁ㅇㅕㄴㅅㅗㄱ -2106
ㅌㅓㅂ -2107
▁300 -2108
▁ㄷㅗㅁㅏㅇ -2109
▁ㅂㅏㄹㅅㅏ -2110
▁ㅁㅜㅅㅣ -2111
▁ㅅㅗㄴㅕ -2112
▁33 -2113
▁ㅅㅜㅈㅓㅇ -2114
▁ㄴㅏㅁㅜ -2115
▁ㄱㅜㄷ -2116
▁ㄱㅗㄷ -2117
ur -2118
▁ㅌㅟ -2119
▁ㅅㅗㅁㅗ -2120
▁ㅅㅔㄹㅕㄱ -2121
▁ㅊㅜㄱㄱㅜ -2122
ㅌㅣㄴ -2123
▁ㅅㅜㅂㅣ -2124
▁ㄷㅐㅎㅘ -2125
▁ㅅㅓㅇㅈㅏㅇ -2126
▁ㄹㅠㄹ -2127
ㅊㅓㄱ -2128
▁ㅌㅓㄹ -2129
▁04 -2130
▁ㅂㅕㄱ -2131
▁ㅈㅏㄹㅁㅗㅅ -2132
▁ㅅㅏㅁㅅㅓㅇ -2133
▁ㄴㅡㄴㄷ -2134
▁ㅂㅜㅅㅏㄴ -2135
▁36 -2136
▁ㅈㅣㅎㅏ -2137
▁ㅈㅗㅇㄹㅠ -2138
▁ㄱㅏㄱㄱㅏㄱ -2139
▁ㅂㅗㅎㅗ -2140
ㅗㅅ -2141
▁ㅇㅓㄴㅈㅔ -2142
▁ㅋㅣㄹ -2143
▁ㅇㅗㄹㄹㅏㅇㅗ -2144
ㅅㅡㄹㅗ -2145
ㄷㅏㄹㅣ -2146
▁ㄸㅏㄹㅏ -2147
▁ㅈㅣㅂㅏㅇ -2148
▁ㄹㅗㅂㅗ -2149
ㅋㅗㄴ -2150
▁ㅋㅡㄹㅣㅅㅡ -2151
▁e -2152
▁ㅎㅐㄱㅕㄹ -2153
▁ㄱㅗㄹㅕ -2154
▁ㄱㅣㄷㅐ -2155
▁ㅂㅣㄱ -2156
▁ㄷㅏㅇㅅㅣㄴ -2157
ㄱㅐㄱ -2158
▁ㅌㅡㄹㅣ -2159
▁ㅇㅣㄹㅎㅐㅇ -2160
ㄹㅛㅇ -2161
od -2162
▁ㅇㅢㄱㅕㄴ -2163
ㅂㅔ -2164
▁ㄴㅓㅁㅇㅓㄱㅏ -2165
ㅇㅏㅇㅗ -2166
▁ㅋㅐㄴ -2167
▁ㅂㅏㄹㅍㅛ -2168
▁ㄱㅏㅅㅡ -2169
▁th -2170
▁ㅂㅜㅅㅏㅇ -2171
▁ㅊㅏㅁㄱㅏ -2172
▁ㅅㅔㅇㅜ -2173
▁ㅂㅓㅅ -2174
▁ㅎㅓ -2175
▁ㅈㅓㄴㅅㅓㄹ -2176
▁ㅂㅕㄴㅎㅏ -2177
▁ㅍㅗㅋㅔㅅ -2178
ㄷㅜㅇ -2179
ㅎㅖ -2180
ㅎㅕㄹ -2181
▁ㄴㅡㄲㅣㅁ -2182
▁ㅋㅠ -2183
▁ㄹㅔㅇㅣㄴ -2184
▁ㅁㅏㅈㅓ -2185
ag -2186
▁ㅈㅓㄴㅁㅜㄴ -2187
▁ㅅㅡㄹㄹ -2188
ㅈㅣㅅㅕㄴ -2189
▁ㄱㅓㄷㅐ -2190
▁ㅉㅏㄼ -2191
▁you -2192
▁ㅇㅖㅈㅓㅇ -2193
▁ㅇㅣㄹㅇㅡㅋㅣ -2194
▁ㅍㅕㄹㅊㅣ -2195
▁ㅂㅏㅇㅇㅕㅇ -2196
ㅎㅕㅂ -2197
▁ㄱㅏㅂㅈㅏㄱ -2198
▁ㅁㅏㅊㅣ -2199
▁ㄹㄲㅏ -2200
▁ㄲㅡㄶ -2201
ㄱㅏㅌ -2202
▁ㄴㅕ -2203
▁ㅇㅜㅁㅈㅣㄱㅇㅣ -2204
▁ㅈㅗㅇㅈㅗㄱ -2205
▁ㅅㅔㄴㅌㅓ -2206
▁ㅎㅑㅇㅎㅏ -2207
▁ㅂㅐㅌㅡㄹ -2208
▁ㅇㅣㅎㅐ -2209
ㅊㅣㄱ -2210
▁ㄱㅘㅎㅏㄱ -2211
▁ㅈㅗㅇㄹㅛ -2212
▁ㅇㅜㄴㅎㅐㅇ -2213
▁ㅈㅜㄱㅇㅡㅁ -2214
▁ㅅㅗㅅㅓㄹ -2215
▁ㅂㅜㅎㅘㄹ -2216
▁ㅊㅜㅇㅂㅜㄴ -2217
▁ㄷㅗㅈㅜㅇ -2218
▁ㄱㅡㄴㅈㅓㅂ -2219
ㅣㄴㅓㄹ -2220
ㄲㅇㅣ -2221
▁ㅈㅓㄴㅎㅏ -2222
▁ㄱㅏㄱㅅㅓㅇ -2223
ㄱㅜㅇ -2224
ㅌㅡㄹㅣ -2225
ㅅㅜㅇ -2226
▁ㅊㅓㄱ -2227
▁ㅍㅜ -2228
▁FC -2229
ㅊㅡㅇ -2230
▁ㅂㅐㅊㅣ -2231
ub -2232
▁ㄹㅏㄱ -2233
▁ㅇㅏㅁㅜㄹ -2234
▁ㅊㅚㄱㅡㄴ -2235
▁ㅈㅏㅇㅊㅏㄱ -2236
▁ㄱㅜㄱㅁㅣㄴ -2237
▁ㅇㅏㅇㅣㄷㅗㄹ -2238
▁ㅅㅔㅅㅏㅇ -2239
▁ㅇㅏㄹㅏ -2240
▁ㅈㅗㅅㅏ -2241
ㄷㅔㅇㅣㅌㅡ -2242
▁ㄴㅜ -2243
▁ㄴㅏㅈㅜㅇ -2244
▁ㅇㅏㄴㅈㅓㅇ -2245
▁ㅇㅓㅂㄷㅔㅇㅣㅌㅡ -2246
▁ㅈㅓㅁㅅㅜ -2247
▁ㅈㅓㄴㅈㅏㄱ -2248
▁ㅈㅓㄹㄷㅐ -2249
▁ㅂㅐㅇ -2250
ㅅㅡㅋㅡ -2251
ㅔㄱ -2252
▁ㅅㅡㅅㅡㄹㅗ -2253
▁ㅇㅣㄹㅜㅇ -2254
ㄴㅏㄴ -2255
▁ㅈㅔㄱㅗㅇ -2256
▁ㅍㅔㅇㅣ -2257
▁cm -2258
▁SK -2259
▁ㅇㅣㄹㅜㅇㅓㅈㅣ -2260
▁ㅊㅏㄴ -2261
▁ㅎㅏㅇㄱㅗㅇ -2262
▁ㅈㅓㅇㅅㅏㅇ -2263
igh -2264
▁ㅈㅔㅁㅗㄱ -2265
▁ㅁㅐㅇ -2266
▁ㅊㅜㅇㄱㅕㄱ -2267
▁ㅈㅏㅇㅕㄴ -2268
▁ㅂㅜㅌㅇㅣ -2269
▁ㄷㅏㄹㅅㅓㅇ -2270
▁ㅊㅐㅁㅍ -2271
▁ㄸㅏ -2272
▁ㅁㅏㄴㄷㅡ -2273
▁ㅂㅓㄴㅎㅗ -2274
ㅇㅛㄱ -2275
▁ㅋㅡㄹㅗ -2276
▁ㅂㅓㄹㅇㅓㅈㅣ -2277
▁ㅊㅐㅁㅍㅣㅇㅓㄴ -2278
▁ㅅㅔㅁ -2279
▁ㅊㅜㅈㅓㅇ -2280
▁ㅈㅏㄱㅈㅓㄴ -2281
ver -2282
▁ㅌㅡㅇ -2283
▁ㅂㅐㄱㅕㅇ -2284
ㅁㅐㅇ -2285
ㄱㅗㄹ -2286
▁ㅈㅓㅈㅣ -2287
ㅊㅏㅁ -2288
▁ㄱㅏㄹㅣ -2289
ㅋㅏㄹ -2290
▁ㅁㅗㄱㅅㅗㄹㅣ -2291
▁ㅂㅓㄴㅇㅕㄱ -2292
▁ㅇㅗㅅ -2293
▁ㄸㅗㄱㄱㅏㅌ -2294
▁ㅂㅣㅎㅐㅇ -2295
▁ㅈㅣㄷㅗ -2296
▁ㅈㅗㅈㅣㄱ -2297
▁ㅁㅜㄹㅣ -2298
▁ㅈㅓㅇㅊㅔ -2299
ㄱㅓㅁ -2300
▁ㄱㅏㄲㅡㅁ -2301
▁ㅍㅜㅁ -2302
ak -2303
▁ㄲㅜ -2304
ent -2305
▁ㅅㅏㅇㅣㅌㅡ -2306
▁ㅁㅗㄱㄹㅗㄱ -2307
ㄷㅏㄴㅣ -2308
▁ㄱㅠㅁㅗ -2309
▁ㅎㅓㅇ -2310
▁ㅇㅛㅅㅗ -2311
ㅕㅇㅗ -2312
▁ㅍㅗㅋㅔㅅㅁㅗㄴ -2313
▁ㄴㅏㅁㅅㅓㅇ -2314
▁196 -2315
▁ㄹㅔㅇㅓ -2316
▁34 -2317
▁ㅍㅔㄹ -2318
▁ㅅㅓㄴㄱㅓ -2319
▁ㅎㅜㄴㄹㅕㄴ -2320
▁ㅂㅓㄹㅇㅣ -2321
▁ㅊㅜㄹㅈㅓㄴ -2322
▁ㅇㅏㄱㅁㅏ -2323
ㅛㅇㅠㄹ -2324
▁ㅈㅓㄴㅅㅏ -2325
▁ㄱㅗㅇㅈㅜㅇ -2326
▁ㅁㅣㄹㅐ -2327
▁ㅌㅏㄱㅕㄱ -2328
▁ㄷㅗㄹㄹㅣ -2329
▁ㄱㅕㅇㅈㅔ -2330
▁ㅅㅡㅌㅏㅇㅣㄹ -2331
▁ㄹㅗㅂㅜㅌㅓ -2332
ㅘㄹ -2333
▁ㅁㅏㄴㅇㅑㄱ -2334
▁ㅇㅟㄱㅣ -2335
▁ㅋㅡㄹㄹㅣㅇㅓ -2336
▁ㅂㅜㄴㄴㅗ -2337
▁ㅋㅡㄹㄹㅐ -2338
▁ㅇㅒㄱㅣ -2339
▁ㄱㅙㄴㅊㅏㄶ -2340
▁ㄷㅟㅅ -2341
ㅠㄴ -2342
▁ㄷㅏㄹㅣ -2343
▁ㅅㅏㄴㅑㅇ -2344
▁ㅂㅕㄴㅎㅘ -2345
▁ㅅㅐㅇㅈㅗㄴ -2346
▁ㄱㅡㅁㅏㄴ -2347
▁ㄹㅗㅅ -2348
▁ㅇㅔㄴㅓㅈㅣ -2349
▁ㅎㅕㄹ -2350
▁ㅎㅗㅁㄹㅓㄴ -2351
▁ㅍㅗㅈㅣㅅㅕㄴ -2352
▁ㅈㅓㄴㅊㅏ -2353
▁ㄴㅏㄴㅜ -2354
▁ㅅㅣㄴㄱㅕㅇ -2355
▁ㄷㅗㅇㅁㅜㄹ -2356
▁ㅍㅣㄴ -2357
▁ㅈㅓㅎ -2358
▁ㄹㄹㅗ -2359
ㄴㅔ -2360
um -2361
▁ㅇㅐㅊㅗ -2362
▁ㄴㅐㄴ -2363
▁ㅈㅏㄹㅏㅇ -2364
▁ㅌㅔㄴ -2365
▁ㄷㅡㄱㅈㅓㅁ -2366
ㅆㅏ -2367
▁ㄷㅓㅂㅜㄹ -2368
ㅂㅣㄴ -2369
ㅣㅇㅓㄹ -2370
BC -2371
▁ㅅㅕㄴ -2372
▁ㅇㅛㄹㅣ -2373
▁ㅅㅜㅅㅏㅇ -2374
ㅗㄹㄹㅣ -2375
▁ㅇㅕㄴㄱㅕㄹ -2376
▁ㅍㅏㅌㅣ -2377
ㄱㅣㄹ -2378
▁ㄷㅏㄴㅈㅓㅁ -2379
▁75 -2380
▁ㅍㅣㄹㄷㅡ -2381
ut -2382
ㅈㅜㄱ -2383
▁ㅎㅏㄴㅍㅕㄴ -2384
▁ㄹㅗㅂㅗㅅ -2385
▁ㄱㅜㄱㅈㅔ -2386
▁ㅈㅏㅇㄱㅏㅂ -2387
ㄷㅗㄴ -2388
▁ㄱㅓㄴㄷㅏㅁ -2389
▁ㅅㅗㅈㅐ -2390
ㅅㅜㄹㅗㄱ -2391
▁ㄱㅣㄷㅗㅇ -2392
▁ㅌㅡㄱㅈㅓㅇ -2393
ㅋㅏㄴ -2394
▁ㅂㅏㄴㅁㅕㄴ -2395
ㅊㅟ -2396
▁ㄷㅐㅊㅔ -2397
▁ㅇㅕㄴㅎㅏㅂ -2398
ec -2399
▁ㅅㅣㅎㅓㅁ -2400
▁vs -2401
▁ㅈㅓㄴㄱㅣ -2402
ㅓㄴㅅㅡ -2403
▁ㅍㅏㄴㅈㅓㅇ -2404
▁38 -2405
▁in -2406
▁ㄴㅓㅁㄱㅣ -2407
ㅇㅗㄱ -2408
▁ㅁㅓㅁ -2409
▁ㄱㅗㅇㅇㅕㄴ -2410
▁ㅅㅣㅇㄱㅡㄹ -2411
▁ㅇㅖㅅㅏㅇ -2412
▁ㅅㅏㅎㅏㅇ -2413
ㅌㅔㄹ -2414
▁ㅇㅟㄴ -2415
ㅂㅓㄴ -2416
▁ㄲㅗㅊ -2417
▁ㅂㅣㅇㅛㅇ -2418
▁ㅎㅏㅇㅅㅏㅇ -2419
▁ㅁㅕㄹ -2420
▁ㅈㅏㅇㅅㅗ -2421
▁ㅁㅗㄱㅍㅛ -2422
▁ㅈㅓㅇㅈㅏㄱ -2423
▁ㅎㅘㄹㅕㄱ -2424
▁ㅇㅕㄴㅊㅜㄹ -2425
▁ㄱㅣㅊㅔ -2426
▁ㅁㅜㄷㅐ -2427
▁ㅇㅣㄴㅌㅓㅂ -2428
▁ㄴㅡㄹㅇㅓㄴㅏ -2429
▁ㅇㅓㅉㅣ -2430
▁ㅊㅚㅅㅗ -2431
▁ㅅㅏㄱㅓㄹㅣ -2432
▁ㄱㅘㄴㅅㅣㅁ -2433
▁ㅅㅏㅇㅓㅂ -2434
▁ㅅㅣㅅㅓㄹ -2435
▁55 -2436
▁ㅇㅠㄹㅓㅂ -2437
▁ㅍㅏㅇㅣㄹ -2438
▁ㅇㅣㄴㅌㅓㅂㅠ -2439
▁2009 -2440
ㄷㅡㅁ -2441
▁ㄱㅛㅊㅔ -2442
▁ㄷㅓㄴㅈㅓㄴ -2443
ㅗㅇㅜ -2444
▁ㄴㅐㅂㅜ -2445
ㅇㅓㅁ -2446
▁ㅎㅏㄴㅡㄹ -2447
ㅌㅡㄹㅏ -2448
▁ㅍㅗㄴ -2449
▁ㅈㅣㅎㅟ -2450
▁ㅂㅣㅁㅣㄹ -2451
▁ㅈㅔㅇㅣㄹ -2452
▁ㅂㅡ -2453
ㅈㅔㄹ -2454
▁ㅅㅏㄱㅕㄱ -2455
▁ㅂㅕㄹㄹㅗ -2456
ㄷㅗㅇㅇㅏㄴ -2457
▁Q -2458
ㅗㅎ -2459
▁to -2460
ㅅㅏㄱ -2461
ㅇㅓㄷㅡㄹ -2462
▁ㅂㅕㄴㅅㅣㄴ -2463
ST -2464
ro -2465
ㅅㅟㅂ -2466
▁ㅂㅣㅈㅜㅇ -2467
▁ㄴㅏㄹㅡㅁ -2468
▁ㅈㅓㄴㅌ -2469
ㅏㅇㅘ -2470
ㄹㅕㄹ -2471
▁ㄴㅣㄲㅏ -2472
▁ㄴㅓㄼ -2473
▁ㄱㅣㄱㅖ -2474
▁ㅅㅜㅊㅣ -2475
▁ㅈㅓㅇㅅㅣㄱ -2476
▁ㅂㅔㅇㅣ -2477
ㄹㅕㄱㅏ -2478
ㅇㅜㅅㅡ -2479
▁ㅈㅏㄱㄱㅗㄱ -2480
▁ㅅㅣㅈㅓㄴ -2481
▁ㅋㅏㅇㅜㄴ -2482
▁ㅋㅔㅇㅣ -2483
▁ㅌㅗㄹ -2484
▁ㄱㅕㄹㅅㅡㅇ -2485
▁ㄱㅏㄹㅡ -2486
▁_ -2487
ㅅㅡㅌㅏ -2488
▁ㄱㅛㅌㅗㅇ -2489
▁ㅂㅣㄹㅗㅅ -2490
▁ㅆㅏㅎ -2491
▁ㅇㅚㄴ -2492
▁ㅋㅏㅇㅣ -2493
▁ㄱㅏㄱㅈㅗㅇ -2494
▁ㅇㅣㅌㅏㄹ -2495
▁ㅇㅗㄴㅡㄹ -2496
▁ㄸㅏㄹㅗ -2497
▁ㅅㅡㅍㅣ -2498
ㄹㅚ -2499
▁ㅎㅘㅇㅈㅔ -2500
▁ㅎㅘㄱㅈㅓㅇ -2501
▁ㄴㅑㄱㅗ -2502
▁ㅈㅗㄹㅇㅓㅂ -2503
▁ㄱㅐㄹㄹ -2504
▁ㅈㅣㅅㅏㅇ -2505
▁ㄲㅏㄹ -2506
▁ㄴㅗㄹㄹㅏ -2507
▁ㄱㅏㅂㅈㅏㄱㅣ -2508
▁ㅂㅕㅇㄹㅕㄱ -2509
ㅅㅔㅂ -2510
▁ㅌㅡㄱㅇㅣ -2511
ㄴㅕ -2512
▁ㅈㅣㅈㅣ -2513
▁ㅈㅓㄴㅂㅏㄴ -2514
ㅍㅖ -2515
▁ㅊㅣㅁㅕㅇ -2516
▁ㄸㅏㄹㅏㅅㅓ -2517
▁ㅇㅣㅉㅗㄱ -2518
▁ㅇㅣㄹㄹㅓ -2519
ㅣㄹㅡ -2520
▁ㅂㅜㄱㅎㅏㄴ -2521
▁ㅈㅣㄴㅎㅘ -2522
▁ㄹㅓㅅㅣㅇㅏ -2523
▁ㅈㅐㅁㅣ -2524
ㅊㅣㄴ -2525
ㅅㅙ -2526
▁ㅇㅏㄹㅡ -2527
▁ㅇㅗㅍㅡㄴ -2528
▁ㄱㅣㅇㅓㅂ -2529
ㅋㅓㅂ -2530
▁ㄷㅡㄹㅓㄴㅏ -2531
▁ㅈㅔㅎㅏㄴ -2532
▁ㅂㅏㄹㅈㅓㄴ -2533
▁ㄱㅓㄷㅜ -2534
▁ㅅㅏㄹㄹㅣ -2535
▁ㄸㅐㄹㅣ -2536
ㅂㅣㅇ -2537
▁ㄴㅜㄹㅡ -2538
▁ㄹㅣㄹ -2539
▁ㄴㅡㄹㅣ -2540
▁ㄱㅓㄴㅅㅓㄹ -2541
▁ㅉㅡㅁ -2542
▁ㄷㅗㅋ -2543
▁ㅁㅜㅅㅡㄴ -2544
▁ㅅㅣㅌㅣ -2545
▁ㅇㅏㅂㄷㅗ -2546
▁ㅇㅣㅇㅚ -2547
▁ㅇㅢㅇㅚ -2548
▁ㅅㅏㅈㅓㅇ -2549
▁ㅅㅡㄴ -2550
em -2551
ㅁㅏㄹㄹㅗ -2552
ㅎㅗㅇ -2553
▁ㅇㅣㄴㅣㅇ -2554
▁ㄷㅓㄴㅣ -2555
▁EX -2556
ㅋㅗㅇ -2557
▁ㅇㅚㄱㅜㄱ -2558
▁2008 -2559
▁ㅇㅣㄲㅡㄹ -2560
▁ㄴㅏㅂ -2561
▁ㅇㅕㄱㄷㅐ -2562
▁ㅁㅏㄴㅏ -2563
▁ㄱㅏㅁㅈㅓㅇ -2564
ㅅㅔㄴ -2565
▁ㅌㅏㄹㅊㅜㄹ -2566
▁ㅈㅜㅁㅜㄴ -2567
▁ㅅㅏㄱㅈㅔ -2568
▁ㅈㅣㄱㅈㅓㄴ -2569
▁ㅈㅓㅎㅏㅇ -2570
▁ㄱㅏㅅㅏ -2571
ight -2572
▁ㄸㅢ -2573
▁ㅇㅗㄹㅡㄴ -2574
ㄴㅡㄴ -2575
▁ㄱㅐㄴ -2576
ㄹㅖ -2577
▁ㅇㅣㄹㅡ -2578
▁ㅇㅣㅁㅁㅜ -2579
▁ㄱㅗㅇㅑㅇ -2580
▁ㅌㅣㅇㅓ -2581
ㅈㅣㅅ -2582
▁ㄷㅏㅋㅡ -2583
▁ㅋㅗㅁㅣ -2584
▁ㅇㅟㄹㅕㄱ -2585
▁ㅈㅏㅇㅝㄴ -2586
▁ㄱㅓㅊㅣ -2587
ㅅㅣㅇ -2588
AN -2589
ㄹㅏㅇㅣ -2590
▁ㅇㅏㅍㅏ -2591
▁ㅁㅏㅇㅣㄴ -2592
▁ㄱㅣㅍ -2593
▁ㅅㅏㄹㅖ -2594
▁ㅈㅣㅂㅈㅜㅇ -2595
▁ㄷㅡㄹㅣ -2596
▁ㄷㅗㄹㅗ -2597
▁ㅂㅏㅇㅣ -2598
▁ㅅㅔㄱㅣ -2599
▁ㅍㅛㅅㅣ -2600
ㄷㅔㄹ -2601
ㅎㅡㅇ -2602
▁ㄹㅏㅇㅣㅂㅡ -2603
▁ㅅㅜㄷㅗ -2604
▁ㅎㅜㄹ -2605
▁ㅇㅓㄷㅜㅁ -2606
AR -2607
ㅐㅍㅡㅌㅡ -2608
▁ㄸㅜ -2609
▁ㅈㅓㅇㅎㅏ -2610
▁ㅂㅏㄷㅏ -2611
▁ㅂㅗㅇㅠ -2612
▁ㅈㅓㄴㄱㅜㄱ -2613
ㄹㅠㄱ -2614
▁ㅅㅏㅇㄱㅘㄴ -2615
▁ㅎㅛㅇㅠㄹ -2616
▁ㅇㅣㄴㄱㅜ -2617
▁ㅁㅕㅇㄹㅕㅇ -2618
▁ㅇㅓㄹㅁㅏ -2619
▁ㅁㅣㅌ -2620
▁ㅂㅜㄴㄹㅠ -2621
▁ㅈㅏㄱㅇㅓㅂ -2622
▁ㄴㅚ -2623
▁ㄱㅣㅎㅚ -2624
▁ㄹㅐㅇㅋㅡ -2625
▁ㅅㅓㅂㅣㅅㅡ -2626
▁ㅇㅣㄴㅅㅣㄱ -2627
▁ㅇㅘㄴㅈㅓㄴ -2628
▁ㅊㅓㅂ -2629
▁ㄴㅗㅌㅡ -2630
ㅊㅣㄹ -2631
▁ㄴㅣㄴ -2632
ㅉㅣㄱ -2633
ㅈㅔㄱㅌㅡ -2634
▁ㅇㅕㄴㅅㅡㅂ -2635
ㄹㅏㅁ -2636
▁ㄱㅗㅇㄱㅏㄴ -2637
ㅣㅇㅓㄹㅗ -2638
▁ㅎㅣㅇㅓㄹㅗ -2639
▁ㄱㅣㄷㅏㄹㅣ -2640
▁ㅎㅚㅍㅣ -2641
▁ㄱㅗㄹㄷㅡ -2642
▁ㄹㅜㅌㅡ -2643
ㅇㅐㄱ -2644
▁ㅁㅜㄹㄱㅓㄴ -2645
▁ㄱㅘㄴㅎㅏ -2646
ap -2647
▁ㅇㅖㅅ -2648
▁ㅋㅓㄹ -2649
▁ㅌㅐㅇㅓㄴㅏ -2650
▁ㅈㅏㅁㅅㅣ -2651
▁ㅁㅔㄹ -2652
▁ㄷㅗㅈㅓㄴ -2653
▁ㄱㅕㅇㅈㅐㅇ -2654
▁ㄱㅡㄱㅈㅏㅇ -2655
▁ㅇㅏㅅㅡ -2656
▁ㅁㅣㅅㅏㅇ -2657
▁ㅈㅣㄴㅐ -2658
▁ㅎㅘㅁㅕㄴ -2659
ㅇㅕㅂ -2660
▁ㄱㅏㅅㅜ -2661
ㅂㅗㅇㅣ -2662
ㅅㅑ -2663
▁42 -2664
▁ㅈㅏㅇㅈㅓㅁ -2665
▁ㄴㅕㅅㅓㄱ -2666
▁ㄴㅗㅍㅇㅣ -2667
▁ㅂㅓㅌㅣ -2668
ON -2669
▁41 -2670
ㅓㄴㅌㅡ -2671
▁ㅂㅕㄹㅁㅕㅇ -2672
▁ㅋㅣㅇㅜ -2673
▁ㅂㅜㅁㅗ -2674
ㅁㅐㄴ -2675
▁ㅊㅘㄹ -2676
▁ㄱㅐㄴㅕㅁ -2677
▁ㅎㅗㅁㅍ -2678
ㅂㅏㅂ -2679
▁ㅁㅏㅅㅣ -2680
ㄱㅡㄹㅔㅇㅣㄷㅡ -2681
▁ㅇㅓㅂㄱㅡㄹㅔㅇㅣㄷㅡ -2682
▁ㅎㅐㅇㅈㅓㅇ -2683
▁ㄷㅏㄴㅇㅓ -2684
▁ㅈㅠ -2685
▁ㅂㅕㅇㅇㅝㄴ -2686
▁ㅂㅜㅇㅕ -2687
▁ㄱㅡㄴㅊㅓ -2688
▁ㅍㅗㅁ -2689
▁ㅈㅣㅁ -2690
▁ㅇㅔㅁ -2691
▁ㅇㅣㄴㅊㅓㄴ -2692
ㅋㅠ -2693
▁ㅊㅜㅊㅓㄴ -2694
▁194 -2695
ㅜㄴㅏ -2696
▁No -2697
▁ㄱㅏㅇㅣ -2698
▁ㅂㅏㄹㅇㅓㄴ -2699
▁ㄹㅕㅁㅕㄴ -2700
▁ㅂㅣㄹㄹㅣ -2701
▁ㅈㅓㄴㄹㅕㄱ -2702
▁ㅇㅡㄴㄷㅔ -2703
▁ㅅㅏㄹㅇㅣㄴ -2704
▁ㄴㅏㅅ -2705
▁ㅇㅢㅅㅣㄱ -2706
▁ㅇㅣㅈ -2707
ㅣㄱㅅㅡ -2708
▁ㅇㅐㅇ -2709
▁ㅍㅗㄱㅣ -2710
▁39 -2711
▁ㅇㅣㄴㅅㅏ -2712
▁ㅈㅓㅁㅍㅡ -2713
▁ㅁㅜㄹㅕ -2714
ㅁㅓㄱ -2715
▁ㅌㅓㅁ -2716
▁ㄲㅜㄴ -2717
▁ㄹㅣㅂ -2718
▁Ch -2719
▁ㅇㅏㅍㅏㅌㅡ -2720
ㅊㅗㄴ -2721
ㅎㅓ -2722
▁ㅅㅜㅁㄱㅣ -2723
▁ㅈㅓㄴㄱㅐ -2724
▁ㅋㅡㄱㅣ -2725
▁> -2726
▁ㅅㅣㄴㅊㅔ -2727
▁ㅈㅓㅇㄹㅣ -2728
ㅎㅏㄱㅅㅐㅇ -2729
▁', -2730
▁ㄱㅕㅁ -2731
▁ㅍㅏㄴㄷㅏㄴ -2732
ㅃㅏ -2733
ㅋㅣㄴ -2734
▁ㅅㅔㅅ -2735
▁ㅊㅓㄹㄷㅗ -2736
▁ㅋㅐㅁ -2737
▁ㅈㅜㅈㅔ -2738
▁ㅊㅘㄹㅇㅕㅇ -2739
▁ㅅㅏㄱㅣ -2740
▁ㄴㅏㅅㅓ -2741
▁ㄴㅗㄹㅕㄱ -2742
ㅂㅏㄷ -2743
ㄷㅡㄹㅣ -2744
▁ㅂㅗㄴㄹㅐ -2745
▁ㅈㅏㅂㅎㅣ -2746
▁ㄱㅏㅇㅈㅔ -2747
▁ㄱㅗㅈㅓㅇ -2748
ul -2749
▁ㅋㅓㅁㅍ -2750
▁ㅂㅜㅈㅓㅇ -2751
▁ㅓㅆ -2752
▁kg -2753
ㅇㅏㄷㅡㄹㅇㅣ -2754
ㄹㅔㄱ -2755
▁st -2756
▁44 -2757
▁ㅃㅏㄹㄹㅣ -2758
ㅜㅇㅝㄴ -2759
▁ㅏㅆ -2760
▁ㅂㅕㅇㅅㅏ -2761
▁ㅅㅓㄴㅅㅐㅇ -2762
▁ㄷㅏㅇㅣ -2763
▁ㅍㅕㅇㄱㅠㄴ -2764
ce -2765
▁ㄱㅗㅇㅈㅜ -2766
ik -2767
▁ㄷㅗㄱㄹㅣㅂ -2768
▁ㅊㅚㄱㅏㅇ -2769
▁ㅂㅏㅂ -2770
▁2020 -2771
▁; -2772
▁ㅇㅘㅇㄱㅜㄱ -2773
▁ㅈㅔㄱㅓ -2774
▁ㅂㅜㄴㅁㅕㅇ -2775
▁ㄲㅡㅌㄴㅐ -2776
▁ㅎㅏㄱㅇㅝㄴ -2777
▁ㅅㅡㅇㅟ -2778
▁ㄱㅗㅅㅗㄱ -2779
▁ㅂㅓㄱㅡ -2780
▁ㄱㅏㅈㅊㅜ -2781
▁ㅂㅜㅌㅏㄱ -2782
ㅅㅜㅁ -2783
▁ㅎㅗㅁㅍㅔㅇㅣㅈㅣ -2784
▁ㄹㅔㄷㅡ -2785
▁ㅍㅗㄱㅌㅏㄴ -2786
▁ㄷㅐㄴ -2787
ㅇㅕㅁ -2788
▁ㅇㅣㄴㅌㅓㄴ -2789
ㅅㅏㅁ -2790
▁ㄲㅗㄱ -2791
000 -2792
▁ㄱㅜㅁㅐ -2793
▁ㅈㅗㅈㅗㅇ -2794
ㅌㅠ -2795
▁ㅈㅔㅍㅜㅁ -2796
▁ㅇㅐㄴㅣ -2797
▁99 -2798
▁ㄷㅗㅇㅅㅐㅇ -2799
▁ㅉㅗㅊ -2800
▁ㅁㅏㅂㅓㅂㅅㅏ -2801
ㅌㅏㄱ -2802
▁ㄹㅗㅅㄷㅔ -2803
▁ㄱㅜㄴㄷㅐ -2804
▁ㅅㅗㄱㅎㅏ -2805
▁LG -2806
▁ㅅㅏㄹㅇㅏㄴ -2807
ㅏㅈㅏ -2808
▁ㅈㅜㅇㅂㅏㄴ -2809
ㅁㅗㅇ -2810
▁ㅇㅏㅍㅅㅓ -2811
▁ㄹㅣㄷㅓ -2812
▁ㅇㅖㅈㅓㄴ -2813
▁ㅇㅕㅎㅐㅇ -2814
ㅂㅡㄴ -2815
▁ㅂㅜㄺ -2816
ㅜㅁㅏ -2817
▁ㅎㅐㅇㅇㅟ -2818
▁ㄸㅓㄱ -2819
▁ㄷㅏㄴㅊㅔ -2820
▁ㅇㅡㅁㅅㅣㄱ -2821
▁ㅅㅏㅋ -2822
▁ㄱㅕㄲ -2823
▁ㅇㅞㅂ -2824
▁ㅇㅘㄴㅂㅕㄱ -2825
▁ㅇㅗㅂㅅㅕㄴ -2826
ㅈㅜㄹ -2827
▁2007 -2828
ㅇㅗㄴ -2829
▁ㅇㅗㄹㅣㅈㅣㄴ -2830
▁ㅎㅕㄴㅅㅏㅇ -2831
▁195 -2832
▁ㄱㅏㅁㅜㄴ -2833
▁ㅂㅏㄴㄷㅡ -2834
▁ㄷㅣㅅㅡ -2835
▁ㅅㅜㅎㅐㅇ -2836
▁ㅈㅐㅇ -2837
▁ㅇㅟㅋㅣ -2838
▁ㅁㅏㄹㅡ -2839
ㅗㅅㅡ -2840
all -2841
ㄹㅕㅇㅗ -2842
▁ㅌㅏㄹㄹㅏㄱ -2843
▁43 -2844
▁ㅇㅝㄴㅇㅣㄴ -2845
▁ㅇㅘㄴㅅㅓㅇ -2846
▁ㄱㅡㅇㅑ -2847
▁ㅎㅣㅌㅡ -2848
▁ㄱㅜㅂㅜㄴ -2849
▁ㅇㅔㄱㅔㅅㅓ -2850
▁ㅇㅔㄹㄹㅣ -2851
IN -2852
▁ㅂㅏㄴㄷㅡㅅㅣ -2853
▁ㅁㅗㅂ -2854
▁ㄹㅗㄷㅡ -2855
▁ㄷㅐㄱㅣ -2856
▁ㅇㅢㅇㅝㄴ -2857
▁ㅈㅔㄹ -2858
ㅊㅓㅂ -2859
▁ㅌㅗㅇㅎㅏㅂ -2860
ㅇㅏㅂㅗ -2861
▁ㅃㅏ -2862
▁ㅇㅗㅂㅓ -2863
▁ㅈㅜㅁㅣㄴ -2864
▁ㅈㅓㄴㄹㅑㄱ -2865
▁ㅈㅣㄱㅎㅜ -2866
▁ㄱㅏㄷㅡ -2867
▁ㅊㅏㅇㅝㄴ -2868
▁MA -2869
ㅁㅗㄹ -2870
▁ㅁㅓㅅ -2871
▁ㅂㅗㄱㄱㅟ -2872
▁ㅈㅐㄹㅛ -2873
▁ㅇㅡㄹㅗㅆㅓ -2874
▁ㄷㅏㄴㅈㅣ -2875
▁ㄴㅏㅇㅣㅌㅡ -2876
▁ㅅㅓㅅ -2877
▁ㅇㅣㄹㄹㅓㅅㅡㅌㅡ -2878
▁ㅎㅘㄴㄱㅕㅇ -2879
nd -2880
▁ㄱㅘㅇㅇㅕㄱ -2881
▁ㅁㅣㅁ -2882
▁ㄴㅡㅈ -2883
▁ㄱㅡㅇㅑㅁㅏㄹㄹㅗ -2884
▁ㅁㅏㅁㅜㄹㅣ -2885
▁ㅊㅣㄹㅛ -2886
▁ㄱㅣㅂㅏㄴ -2887
ㅍㅡㄹㄹ -2888
▁ㄱㅓㄱㅈㅓㅇ -2889
▁ㅇㅏㅅㅟㅂ -2890
ㅌㅏㅇㅣㅁ -2891
▁ㅇㅕㄴㅈㅐ -2892
▁ㅈㅔㄴ -2893
▁ㅈㅓㄴㅈㅏ -2894
▁ㅎㅏㄴㄱㅡㄹ -2895
▁ㅎㅐㄱㅜㄴ -2896
▁ㄱㅜㄴㅅㅏ -2897
ㅗㄹㅗ -2898
▁46 -2899
ㄷㅓㄹ -2900
▁47 -2901
▁ㄷㅏㅎㅐㅇ -2902
▁ㅅㅜㅍ -2903
▁ㅈㅓㅇㄱㅠ -2904
▁ㅈㅣㅈㅓㅇ -2905
▁ㅅㅓㅂㅓ -2906
▁ㅇㅕㄴㅈㅏㅇ -2907
▁2006 -2908
ㅈㅡㄴ -2909
ㅔㅇㅣㅌㅓ -2910
▁ㄷㅐㅈㅏㅇ -2911
▁ㅇㅣㅂㅎㅣ -2912
▁ㅎㅐㅇㅚ -2913
▁ㅊㅐㄴ -2914
▁ㅁㅗㅇㅣ -2915
▁ㄷㅗㅊㅏㄱ -2916
▁ㅂㅗㅂㅕㅇ -2917
▁ㅅㅣㅁㄱㅏㄱ -2918
▁ㅍㅕㅇㅂㅓㅁ -2919
▁ㅇㅗㄻ -2920
▁ㅈㅜㄹㅇㅣ -2921
▁ㅇㅜㅅㅓㄴ -2922
▁ㅊㅐㄱㅇㅣㅁ -2923
ㅈㅗㄱㅓㄴ -2924
▁ㅃㅓㄴ -2925
▁ㅇㅝㄴㅏㄱ -2926
▁ㅂㅗㄴㅓㅅㅡ -2927
▁ㅇㅝㄹㄷㅡㅋㅓㅂ -2928
▁ㅌㅏㅇㅣㅌㅡㄹ -2929
ㅕㅂㅗ -2930
▁ㅂㅡㄹㄹㅗㄱ -2931
▁ㅈㅗㅈㅏㄱ -2932
▁ㅁㅣㅅㅏㅇㅣㄹ -2933
▁ㅇㅏㅁㅜㄹㅣ -2934
ㅉㅐ -2935
▁ㅋㅗㅅㅡ -2936
▁ㅊㅜㅊㅡㄱ -2937
▁ㅋㅐㅂ -2938
▁ㅅㅣㄹㅎㅓㅁ -2939
▁ㅈㅏㅁㅏㅈㅏ -2940
▁ㅂㅜㄹㄱㅏ -2941
▁ㅇㅠㅅㅏ -2942
th -2943
▁ㄷㅏㅅㅜ -2944
▁ㅈㅓㅁㅈㅓㅁ -2945
▁ㅅㅑㅅ -2946
▁ㅍㅗㅅㅡ -2947
▁51 -2948
▁ㅂㅏㄷㅇㅏㄷㅡㄹㅇㅣ -2949
▁ㄱㅜㄷㅇㅣ -2950
▁ㄱㅏㅁㅕㄴ -2951
tt -2952
▁ㅅㅏㅇㅅㅔ -2953
ㅅㅓㅅ -2954
▁ㅍㅣㄹㅅㅏㄹ -2955
▁ㄷㅏㅅㅗ -2956
▁ㅅㅖ -2957
▁ㅈㅓㅂㄱㅡㄴ -2958
▁ㅌㅏㅈㅏ -2959
▁ㅅㅓㅇㅎㅑㅇ -2960
ㅇㅏㅎㅏ -2961
▁ㅁㅜㅈㅗㄱㅓㄴ -2962
▁ㅈㅗㅎㅇㅏㅎㅏ -2963
▁ㅇㅕㅇㅎㅗㄴ -2964
▁ㅈㅡㄹㄱㅣ -2965
▁ㅃㅐㅇ -2966
▁ㅈㅜㅇㅎㅏㄱㄱㅛ -2967
▁ㅋㅗㅅㅡㅌㅡ -2968
▁ㅅㅣㄹㅈㅓㅁ -2969
▁ㅎㅏㄴㄱㅖ -2970
▁ㄱㅛㅅㅜ -2971
▁ㅇㅏㄹㅡㅁ -2972
op -2973
▁ㄱㅗㅇㅍㅗ -2974
▁ㄷㅐㄱㅕㄹ -2975
▁ㅇㅢㅅㅏ -2976
▁ㄴㅑㄴㅡㄴ -2977
▁ㅇㅔㄱ -2978
▁ㅅㅡㅍㅗ -2979
ㅗㅇㅣㄷㅡ -2980
▁ㅊㅐㅇㅜ -2981
▁ㅇㅣㅎㅏ -2982
ㅜㅁㅣ -2983
▁ㅉㅣ -2984
ㅌㅡㄹㄹ -2985
▁ㅁㅜㅎㅏㄴ -2986
▁ㄱㅜㄱㅎㅚ -2987
▁SP -2988
st -2989
▁ㅂㅜㅎㅏ -2990
▁ㅂㅗㄱㅅㅜ -2991
ㄹㅔㄴ -2992
▁ㅇㅓㅉㅓ -2993
ㅁㅏㄴㅏ -2994
▁ㅍㅡㄹㄹㅐ -2995
▁ㅈㅓㅇㅎㅘㄱㅎㅣ -2996
ㅌㅏㅂ -2997
▁ㅇㅏㅁㅅㅏㄹ -2998
▁ㅎㅏㅁㅈㅓㅇ -2999
▁ㄱㅏㅇㅜㄴ -3000
▁ㅇㅏㄴㅐ -3001
▁ㅍㅕㅇㅅㅗ -3002
▁ㅈㅓㅇㅇㅢ -3003
▁ㅇㅗㄻㄱㅣ -3004
ation -3005
▁ㅇㅣㄴㅌㅓㄴㅔㅅ -3006
ㅍㅣㄱ -3007
ㅂㅜㅌ -3008
▁ㄱㅗㄹㅡ -3009
ㅇㅓㅅㅓ -3010
▁ㅈㅏㅇㄹㅡ -3011
▁ㅎㅕㄱ -3012
ra -3013
▁ㅁㅏㄹㅕㄱ -3014
▁ㅇㅘㅈㅜㅇ -3015
▁ㄹㅏㄹ -3016
▁ㄷㅏㅇㅜㄴ -3017
▁ㅂㅓㅁㅈㅚ -3018
ㅅㅣㅁㅏ -3019
▁ㅂㅗㅇㅇㅣㄴ -3020
▁ㄱㅘㅇㄱㅗ -3021
▁1000 -3022
▁ㅇㅗㅅㅡ -3023
ㅇㅏㄹ -3024
▁ㅇㅏㅇㅜㅅ -3025
▁ㄸㅓㅇ -3026
ack -3027
▁ㅈㅓㄴㅎㅘ -3028
▁ㅎㅘㄱㅈㅏㅇ -3029
▁ㅂㅏㄹㅡ -3030
ia -3031
▁ㅇㅜㄴㅇㅛㅇ -3032
ㄷㅐㄱ -3033
▁ㅊㅐㄴㅓㄹ -3034
▁ㅅㅏㄹㅕㅇ -3035
▁ㅇㅣㄱㅗㅅ -3036
▁ㅎㅏㅂㄹㅠ -3037
▁ㄱㅗㅇㄹㅑㄱ -3038
ㅍㅣㄴ -3039
▁ㄷㅗㅋㅛ -3040
▁ㅃㅏㅇ -3041
ㅁㅓ -3042
▁ㅌㅡㅇㅟ -3043
▁ㅅㅗㄹㅕㄴ -3044
▁ㅈㅏㅇㅊㅣ -3045
ㄲㅗㅊ -3046
▁and -3047
ㅁㅕㅊ -3048
▁ㄱㅏㅊㅣ -3049
▁ㅁㅕㅊㅁㅕㅊ -3050
▁ㅈㅓㅇㄷㅏㅇ -3051
▁ㅍㅏㅁ -3052
▁ㄱㅣㄴㅕㅁ -3053
oc -3054
ㅊㅚ -3055
ㅏㅅ -3056
▁ㄹㅏㅂ -3057
▁ㄱㅏㅇㅜㄴㄷㅔ -3058
▁ㄱㅗㅈㅏ -3059
▁ㅅㅣㅊㅓㅇㅈㅏ -3060
ㅍㅣㅇ -3061
▁ㅈㅗㅇㅈㅗㅇ -3062
▁ㅇㅣㅈㅓㄱ -3063
▁ㅅㅗㅇㅠ -3064
▁ㅊㅗㄷㅡㅇ -3065
ㅅㅡㅋㅔ -3066
▁ㅈㅣㅂㅐ -3067
▁150 -3068
▁ㅇㅓㅇ -3069
▁ㅊㅜㅇㅂㅜㄴㅎㅣ -3070
▁ㄷㅗㅇㅣㅂ -3071
▁ㅅㅜㅁㅏ -3072
ㅌㅠㅂㅡ -3073
ㄴㅏㄹㅏ -3074
▁65 -3075
▁ㅌㅡㄱㅇㅠ -3076
▁ㄱㅓㅁㅅㅏ -3077
▁ㅅㅣㄹㅅㅜ -3078
▁ㄸㅜㅀ -3079
ㅅㅣㅂㅡ -3080
▁ㅇㅠㅌㅠㅂㅡ -3081
ㅌㅡㄱ -3082
▁ㅂㅗㅋㅓㄹ -3083
ㅌㅗㄴ -3084
▁ㄱㅡㄴㄷㅔ -3085
▁ㄱㅡㅁㅈㅣ -3086
▁ㅇㅡㄹㅈㅣ -3087
ㅝㄷㅡ -3088
▁ㅋㅡㄹㄹㅓㅂ -3089
▁VS -3090
▁ㄴㅐㄱ -3091
▁ㅈㅜㄹㅇㅓㄷㅡㄹ -3092
ㅡㅌ -3093
▁ㄹㅏㅇㅣㅌㅡ -3094
▁ㅅㅗㄴㅕㄴ -3095
▁ㅎㅘㅇㅕㅁ -3096
▁ㅊㅟㅎㅏ -3097
ㅍㅏㄹ -3098
▁ㅅㅣㅁㅣㄴ -3099
▁ㅂㅗㄴㄱㅕㄱ -3100
ㅓㅂㅡ -3101
▁ㅍㅡㄹㅗㅈㅔㄱㅌㅡ -3102
▁ㅌㅜㅇㅣㅂ -3103
▁ㅈㅓㄱㅕㄱ -3104
▁ㄱㅐㅈㅗ -3105
▁ㄷㅗㅁㅏㅇㅊㅣ -3106
▁ㄴㅡㄴㄱㅏ -3107
▁ㄱㅣㅈㅣ -3108
▁ㅇㅔㄱㅅㅡ -3109
▁ㅈㅟ -3110
▁ㅈㅓㄴㅇㅝㄴ -3111
▁ㄱㅚㅁㅜㄹ -3112
▁ㄱㅗㅇㅑㅇㅇㅣ -3113
▁ㅁㅜㅅㅏ -3114
▁ㅎㅕㅇㅈㅔ -3115
ㅈㅘ -3116
▁ㅇㅓㄹㅁㅏㄴㅏ -3117
ie -3118
ㅍㅏㅇ -3119
ㅇㅏㄷㅏㄴㅣ -3120
▁ㅅㅜㅁㅏㄶ -3121
ill -3122
▁ㅎㅢㅅㅐㅇ -3123
▁ㅂㅗㅈㅗ -3124
ㄲㅏㄴ -3125
▁ㅎㅏㅇㅑ -3126
▁ㅎㅐㅇㅅㅏ -3127
▁ㅇㅛㅊㅓㅇ -3128
▁ㅇㅣㄴㅅㅏㅇ -3129
ㄱㅚ -3130
▁ㄹㅗㅁㅏ -3131
ㅇㅣㅆ -3132
ㅅㅅㅜ -3133
▁ㅎㅠㅇ -3134
▁ㅎㅏㄷㅡ -3135
ㄹㅗㅂ -3136
ㅌㅓㅁ -3137
▁%, -3138
▁ㅇㅝㄴㅈㅓㅇ -3139
▁ㄷㅐㅈㅜㅇ -3140
▁ㅂㅏㄹㅇㅡㅁ -3141
▁ㅅㅏㅌㅐ -3142
▁ㅁㅣㄷㅡ -3143
▁ㅅㅏㅇㅈㅣㅇ -3144
▁2005 -3145
▁52 -3146
▁ㄷㅐㄱㅜ -3147
▁KBS -3148
▁ㅈㅗㅇㅎㅏㅂ -3149
▁ㄷㅔㅅㅡ -3150
▁ㅌㅣㅇ -3151
▁II -3152
▁ㅅㅡㅍㅗㅊㅡ -3153
▁ㅂㅐㄴㄷㅡ -3154
art -3155
▁ㅅㅜㅅ -3156
▁ㄱㅜㅇㅕㄱ -3157
▁ㅁㅓㄱㅇㅣ -3158
▁ㅋㅡㄹㄹㅐㅅㅡ -3159
ㅅㅣㅂ -3160
▁ㄷㅐㅎㅕㅇ -3161
▁64 -3162
▁ㄱㅜㄴㄷㅏㄴ -3163
▁ㄷㅡㅁ -3164
▁ㅊㅜㅁ -3165
▁ㄱㅗㄷㅐ -3166
▁ㄸㅏㅈㅣ -3167
▁ㅋㅓㅅ -3168
▁ㄴㅠㅅㅡ -3169
▁ㅇㅚㅁㅗ -3170
▁ㄷㅐㅂㅣ -3171
▁ㅇㅟㅎㅕㅂ -3172
▁ㅈㅗㅇㄱㅛ -3173
ㅌㅔㄴㅊㅡ -3174
ㄷㅓㅇ -3175
ㄹㅏㅈㅣ -3176
▁ㅈㅗㅈㅓㅇ -3177
▁ㄱㅡㅈㅓ -3178
ㅅㅗㄹ -3179
▁ㅂㅏㅇㅍㅐ -3180
▁ㅇㅣㄴㅇㅝㄴ -3181
ㅇㅠㄴ -3182
▁ㅅㅓㅅㅜㄹ -3183
▁ㅅㅐㅇㅁㅜㄹ -3184
▁ㄹㅜㄹ -3185
▁ㅂㅜㄹㅁㅕㅇ -3186
▁ㅇㅣㄹㅏㄱㅗ -3187
▁ㄴㅣㄱ -3188
▁ㄱㅐㄱㅡ -3189
▁ㅈㅏㄹㅛ -3190
▁ㅊㅚㅎㅜ -3191
▁ㅇㅣㄹㅂㅗㄴㅇㅓ -3192
▁ㅈㅏㅇㄴㅏㄴ -3193
▁ㅎㅕㅇㅅㅣㄱ -3194
▁ㅂㅏㄷㅏㄱ -3195
▁ㄱㅘㄴㅌㅗㅇ -3196
▁ㅇㅑㄱㅈㅓㅁ -3197
▁ㅋㅓㄴㅅㅔㅂ -3198
▁ㅍㅐㄹㅓ -3199
ㅋㅡㄴ -3200
ㅂㅣㅊ -3201
▁ㅌㅜㅍㅛ -3202
▁ㅋㅗㄷㅡ -3203
ㅁㅜㄱ -3204
▁ㅇㅛㅅㅣ -3205
▁You -3206
▁ㄴㅔㄱ -3207
▁ㄷㅏㄹㄹㅓ -3208
▁ㄷㅡㄹㅓㄴㅐ -3209
▁ㅎㅐㅇㅅㅓㅇ -3210
▁ㅌㅜㅇ -3211
ㅅㅠ -3212
▁2004 -3213
▁ㅇㅏㄵ -3214
▁ㄴㅜㄴㅁㅜㄹ -3215
ri -3216
ㅎㅓㄴ -3217
▁ㅃㅜㄹㅣ -3218
▁ㅈㅓㅇㅊㅐㄱ -3219
▁ㅈㅓㄴㅅㅜㄹ -3220
▁ㅌㅗㅇㅅㅣㄴ -3221
▁ㅅㅏㅇㅈㅏ -3222
uby -3223
ㄹㅏㄴㄷㅡ -3224
▁ㅃㅐㅇㅏㅅ -3225
▁ㅇㅐㄱㅅㅕㄴ -3226
▁ㅁㅗㅎㅓㅁ -3227
ab -3228
▁49 -3229
▁ㅂㅜㅅㅜ -3230
▁ㅅㅓㅂㅡ -3231
▁ㄱㅓㅂㅜ -3232
▁ㅂㅣㄱㅗ -3233
ㅅㅣㅅㅡ -3234
▁ㄴㅈㅣㄹㅏ -3235
▁ㄷㅡㄹㄹㅣ -3236
▁ㅈㅓㄻ -3237
▁ㅇㅓㄹㅏ -3238
ㄷㅔㄴ -3239
ㅏㄷㅏ -3240
RA -3241
▁ㅇㅗㄹㅣㅈㅣㄴㅓㄹ -3242
▁AP -3243
▁ㅇㅢㄷㅗ -3244
▁ㅁㅕㅇㅈㅜㅇ -3245
▁ㅂㅏㄴㅂㅗㄱ -3246
▁ㄱㅏㄴㄷㅏㄴ -3247
▁ㅂㅓㅅㅇㅓㄴㅏ -3248
▁ㅌㅡㄹㅐㄱ -3249
▁ㄴㅔㅇㅣ -3250
ㅌㅓㄹ -3251
▁ㅇㅣㄴㅎㅕㅇ -3252
▁56 -3253
▁ㅋㅜㄹㅌㅏㅇㅣㅁ -3254
▁ㅎㅚㅈㅏㅇ -3255
est -3256
▁ㄱㅡㄸㅐ -3257
▁ST -3258
▁ㅈㅣㅈㅓㄱ -3259
▁ㄱㅗㅇㄷㅗㅇ -3260
▁ㅁㅐㅇㅣㄹ -3261
▁ㄱㅐㅇㅝㄹ -3262
▁400 -3263
▁ruby -3264
▁ㄷㅡㅇㄹㅗㄱ -3265
▁ㄴㅡㄴㄷㅏㄴㅡㄴ -3266
▁ㅇㅕㅇㅇㅣㅂ -3267
▁ㅎㅐㅅㅓㄱ -3268
▁ㄱㅜㄷㅏㄴ -3269
▁ㅇㅗㄹㄹㅣㅁㅍ -3270
▁ㄷㅐㅇㅡㅇ -3271
▁ㅇㅢㅈㅣ -3272
ㄱㅓㄹ -3273
▁MBC -3274
▁ㄷㅔㄹ -3275
▁ㅅㅏㅅㅏㅇ -3276
▁ㅇㅞㄴ -3277
▁ㅇㅓㄴㄹㅗㄴ -3278
▁ㄱㅏㅄ -3279
ㅡㄹㅣㅋㅏ -3280
▁ㅇㅕㄹㅊㅏ -3281
▁In -3282
▁dd -3283
▁ㅊㅏㅈㅇㅏㅇㅗ -3284
▁ㅈㅣㅁㅕㅇ -3285
▁ㅁㅗㄱㅅㅜㅁ -3286
▁ㄱㅡㄹㅓㅁ -3287
▁ㅇㅗㄹㅐㄴ -3288
▁ㄱㅐㅂㅗㅇ -3289
▁ㅈㅜㄹㅕㄱ -3290
▁ㅇㅝㄴㄱㅓㄹㅣ -3291
ttp -3292
▁ㅌㅏㅋㅏ -3293
▁ㅇㅡ -3294
▁ㅋㅗㅇㅓ -3295
AL -3296
▁ㅂㅏㄱㅅㅏ -3297
▁ㅁㅣㄹㅣ -3298
▁http -3299
▁ㅅㅓㄴㅇㅓㄴ -3300
▁ㄹㅣㅇㅓ -3301
▁85 -3302
▁ㅌㅏㅋ -3303
▁ㅎㅏㄴㄱㅜㄱㅇㅓ -3304
▁ㅅㅗㅅㅣㄱ -3305
▁ㅎㅕㅁ -3306
▁ㅊㅏㄹㅖ -3307
ㄷㅐㅇ -3308
▁ㅎㅖ -3309
▁ㄱㅓㅈㅣㅅ -3310
▁ㄲㅗㅂ -3311
▁ㅅㅓㄹㄱㅖ -3312
▁ㅍㅜㄹㄹㅣ -3313
▁ㄴㅡㄴㅑ -3314
ㅗㅁ -3315
▁ㅈㅣㄴㅏㄱㅏ -3316
▁ㅂㅏㅇㅎㅐ -3317
▁ㅇㅕㄱㅈㅓㄴ -3318
▁ㅆㅡㄹㅓㅈㅣ -3319
▁ㅅㅡㅇㅂㅜ -3320
▁ㅈㅏㄷㅗㅇㅊㅏ -3321
▁ㅌㅐㅅ -3322
ㅈㅏㄹㅣ -3323
▁193 -3324
▁53 -3325
▁ㄲㅗㄹ -3326
▁ㅍㅕㄴㅎㅏ -3327
ㅠㅌㅓ -3328
▁ㅇㅞㅇㅣ -3329
▁54 -3330
▁ㅈㅓㅈㅣㄹㅡ -3331
ㅇㅓㄴㅐ -3332
▁2002 -3333
▁ㅅㅏㄹㅇㅏㄴㅏㅁ -3334
▁ㅅㅏㄱㅘ -3335
▁ㄷㅐㄷㅏㄴ -3336
ㅇㅗㅅ -3337
▁ㄱㅏㅎㅏ -3338
▁ㅇㅕㄹㅡㅁ -3339
▁ㅇㅓㅁㅁㅏ -3340
ㅌㅡㅁ -3341
▁ㅇㅕㄴㄱㅖ -3342
▁ㅁㅏㅇㅎㅏ -3343
▁ㅁㅗㅌㅣㅂㅡ -3344
▁ㅅㅜㅅㅈㅏ -3345
▁ㅍㅣㄹㅅㅏㄹㄱㅣ -3346
▁ㄸㅔ -3347
▁ㄹㅜㅁ -3348
▁ㅎㅏㅂㅊㅣ -3349
▁ㅈㅗㄱㅏㄱ -3350
▁ㄷㅏㄻ -3351
ㅏㅇㅜㄴ -3352
▁ㅇㅟㄹ -3353
▁ㄷㅣㅈㅣ -3354
▁ㅈㅓㅈㅜ -3355
▁ㅇㅝㄴㅎㅏ -3356
▁ㅏㅅㅓ -3357
▁ㄱㅣㅈㅏ -3358
▁ㅅㅗㅇㅜㄹ -3359
▁ㅈㅣㄴㅇㅣㅂ -3360
▁ㅂㅜㄹㄱㅘ -3361
▁ㄷㅓㅂㅡㄹ -3362
▁ㄱㅕㅂ -3363
▁ㄱㅓㄷ -3364
▁ㅊㅔㅇㅠㄱ -3365
▁ㅇㅏㅇㅛ -3366
▁ㅇㅣㄴㄷㅗ -3367
▁ㅎㅘㅇㄱㅡㅁ -3368
▁PC -3369
ㄲㅐ -3370
▁ㅅㅏㅇㄷㅐㅂㅏㅇ -3371
▁ㅇㅑㅁㅏ -3372
▁ㅇㅘㄴㄹㅛ -3373
▁ㅁㅐㅈ -3374
▁ㅈㅣㄹㅁㅜㄴ -3375
▁ㅎㅡㅂㅅㅜ -3376
ㅍㅔㄴ -3377
▁ㅇㅣㅌㅏㄹㄹㅣㅇㅏ -3378
▁ㅈㅏㅇㄱㅣ -3379
▁ㄱㅏㅈㅓㅇ -3380
▁ㅁㅜㅅㅓㅂ -3381
▁ㅅㅐㅇㅅㅓㅇ -3382
▁ㅅㅏㄴㅇㅓㅂ -3383
▁ㅊㅏㄱㅇㅛㅇ -3384
▁ㄷㅔㄹㅣ -3385
▁ㅇㅗㅌㅗ -3386
▁ㅈㅓㄱㅈㅓㄹ -3387
▁ㄷㅣㅇ -3388
▁ㅎㅐㅈㅔ -3389
▁Sh -3390
▁ㄱㅗㅇㅎㅘ -3391
▁ㅋㅓㅁㅍㅠㅌㅓ -3392
▁ㄷㅏㄴㅅㅜㄴㅎㅣ -3393
ㄷㅗㅇㅅㅐㅇ -3394
▁ㅌㅓㅁㅣㄴㅓㄹ -3395
▁ㅋㅛ -3396
dddd -3397
▁dddddd -3398
ㄹㅗㅅ -3399
▁ㄱㅏㅈㅕㅇㅗ -3400
ㅑㅁㅏ -3401
▁ㅇㅠㅇ -3402
▁ㅍㅛㅈㅓㅇ -3403
▁ㅅㅜㅎㅗ -3404
▁ㅍㅣㄹㅅㅜ -3405
▁ㅋㅏㅇㅜㄴㅌㅓ -3406
ㅗㅇㅓ -3407
▁ㅎㅓㅁ -3408
▁ㄸㅏㄱㅎㅣ -3409
▁ㅅㅣㄹㅅㅣ -3410
▁ㅅㅓㄴㅈㅓㅇ -3411
▁ㅇㅢㅅㅣㅁ -3412
▁ㄷㅗㄱㅈㅏ -3413
▁ㅅㅡㅋㅣㄴ -3414
▁ㅍㅕㄴㅅㅓㅇ -3415
▁ㄴㅏㄹㄱㅐ -3416
ㄹㅏㅇㅣㄴ -3417
▁ㅇㅓㄴㅇㅓ -3418
▁ff -3419
▁ㅇㅣㄴㄹㅠ -3420
▁ㄷㅡㄹㅣㅂ -3421
▁ㅎㅐㅇㅈㅓㄱ -3422
▁ㅅㅓㄴㅁㅜㄹ -3423
▁ㅎㅘㄱㅅㅣㄹㅎㅣ -3424
up -3425
▁ㅅㅡㅂㄱㅕㄱ -3426
▁ㅁㅜㄹㅕㄱ -3427
▁ㅇㅔㅇㅣㅅㅡ -3428
▁ㅋㅏㅍㅔ -3429
▁ㅈㅓㄴㅎㅘㄴ -3430
▁ㄱㅏㅁㅇㅏㄴ -3431
▁ㄷㅏㅇㅈㅏㅇ -3432
▁ㅇㅓㅇㅜㄹ -3433
▁ㄲㅜㅈㅜㄴ -3434
▁ㅅㅏㅈㅏㅇ -3435
▁ㅍㅠ -3436
▁ㅇㅚㄴㅉㅗㄱ -3437
▁ㅅㅓㄹㄹㅣㅂ -3438
▁ㅌㅡㄱㄱㅣ -3439
▁ㅌㅔㅁㅏ -3440
▁ㅁㅠㅈㅣㄱ -3441
▁ㄱㅣㅈㅓㅁ -3442
▁ㅈㅣㅂㄷㅏㄴ -3443
▁ㅍㅐㅅㅣㅂㅡ -3444
▁ㅎㅏㅁㄷㅐ -3445
ㅓㄱㅏ -3446
▁ㅇㅠㄷㅗ -3447
▁ㅇㅏㄴㅈㅓㄴ -3448
ㅏㄹㅣㅇㅗ -3449
ㅇㅜㄱ -3450
▁ㅅㅣㄴㅐ -3451
▁ㅅㅗㄹㄹㅗ -3452
▁ㄱㅐㅅㅓㄴ -3453
▁ㅈㅔㄷㅗ -3454
▁re -3455
ㅓㄸㅡㄹㅣ -3456
▁i -3457
▁ㅌㅔㅁ -3458
▁59 -3459
▁ㄷㅔㅇㅣㅌㅓ -3460
▁ㅈㅏㅁㄲㅏㄴ -3461
▁ㄴㅏㄹㅇㅏㄱㅏ -3462
▁ㅇㅏㅇㅣㄹ -3463
ㄹㅣㅅ -3464
▁ㅇㅟㅇㅝㄴㅎㅚ -3465
▁ㅎㅘㄱㅂㅗ -3466
▁ㅎㅐㅇㅂㅗㄱ -3467
▁MP -3468
ㅂㅌㅓ -3469
▁ㅅㅑㅇ -3470
▁ㄹㅗㅆㅓ -3471
▁ㄱㅕㅇㄹㅕㄱ -3472
▁ㅎㅚㅈㅓㄴ -3473
ㅍㅗㅁ -3474
VE -3475
▁ㄷㅡㄹㅏㅇㅣ -3476
▁ㅊㅣㄴㅎㅏ -3477
▁ㄱㅜㅊㅜㄱ -3478
▁ㅋㅗㅊㅣ -3479
▁ㅈㅣㅇㅗㄱ -3480
▁ㅊㅐㅇㄱㅣ -3481
ㅕㄱㅏ -3482
▁ㅇㅡㄹㅗㅂㅜㅌㅓ -3483
ㄴㅗㅎ -3484
▁ㅌㅗㅇㄱㅘ -3485
▁ㅎㅢㅁㅏㅇ -3486
▁ㅁㅣㅅㅡ -3487
▁ㅂㅣㅆㅏ -3488
▁Re -3489
▁ㅈㅣㄴㅈㅓㅇ -3490
▁ㅇㅗㄹㄹㅣㅁㅍㅣㄱ -3491
▁ㅈㅔㅇㅏㅂ -3492
▁ㅈㅏㅇㄱㅜㄴ -3493
▁ㅂㅜㄹㅣ -3494
▁ㅇㅣㄹㅈㅗㅇ -3495
▁ㄹㅗㅅㅡ -3496
ㅏㅇㅣㅌㅡ -3497
▁ㅅㅣㄴㅏㄹㅣㅇㅗ -3498
ate -3499
▁ㅈㅓㄴㅌㅗㅇ -3500
▁Sp -3501
▁58 -3502
▁ㅇㅏㄴㄷㅡㄹ -3503
▁ㄲㅓㄴㅐ -3504
▁ㅁㅓㅁㅊㅜ -3505
▁ㅅㅏㅇㅊㅓ -3506
▁ㅎㅏㅇㅟ -3507
ard -3508
ㅜㄹㅕㄱ -3509
▁ㄷㅐㄷㅏㅂ -3510
▁ㅈㅓㄱㄱㅡㄱ -3511
▁ㄹㅏㄷㅣㅇㅗ -3512
▁ㅇㅣㅅㅏ -3513
▁ㅎㅚㅅㅅㅜ -3514
▁ㄷㅠㅇㅓㄹ -3515
▁ㅁㅏㅊㅣㅁ -3516
▁ㄱㅗㅇㅎㅏㅇ -3517
▁120 -3518
▁ㄷㅐㅅ -3519
▁ㅊㅔㅈㅔ -3520
▁ㅇㅣㄴㅈㅣ -3521
▁ㅈㅣㄴㅏㅊㅣ -3522
AT -3523
▁ㅇㅕㄴㅈㅜ -3524
▁ㅈㅓㄴㅈㅏㅇ -3525
▁ㅊㅗㄷㅐ -3526
▁ㅍㅕㄴㅈㅣㅂ -3527
▁ㄷㅣㄹㄹㅓ -3528
▁ㅂㅏㅇㅁㅜㄴ -3529
ang -3530
OR -3531
▁ㅁㅜㄴㅁㅕㅇ -3532
ㄷㅡㅂ -3533
▁57 -3534
▁ㅂㅓㅌㅡㄴ -3535
▁ㅂㅣㄷㅣㅇㅗ -3536
▁ㄴㅜㄴㅊㅣ -3537
▁ㅇㅢㅁㅜㄴ -3538
▁ㅎㅐㄱㅡㅁ -3539
▁ㅂㅡㄹㅣ -3540
▁ㅇㅟㅈㅜ -3541
▁ㄲㅏㅁ -3542
▁ㅎㅕㄴㅈㅏㅇ -3543
▁66 -3544
▁ㅊㅓㅊㅣ -3545
▁95 -3546
▁ㄱㅗㅇㅅㅏ -3547
▁ㅅㅜㅇㅝㄴ -3548
ㅌㅡㄹㅗㄹ -3549
▁ㅌㅐㄷㅗ -3550
▁ㅋㅔㅇㅣㅅㅡ -3551
▁ㄷㅗㅇㅁㅐㅇ -3552
ㅅㅏㅋㅣ -3553
▁ㅅㅓㄴㅂㅗㅇㅣ -3554
▁2003 -3555
▁ㄱㅟㅇㅕㅂ -3556
▁ㄱㅘㅇㅈㅜ -3557
▁ㅇㅏㅍㅡ -3558
▁ㄱㅗㅌㅗㅇ -3559
ㅣㄴㅗ -3560
▁ㄱㅏㅅㅡㅁ -3561
▁ㅈㅏㄱㅅㅓㅇ -3562
ㅍㅜㄹ -3563
▁ㅈㅣㄴㅇㅕㅇ -3564
▁ㄹㅣㅅㅡ -3565
▁ㄷㅐㄴㅗㅎ -3566
ㄹㅗㅇ -3567
▁ㅅㅡㅍㅏㅇㅣ -3568
▁ㄷㅗㄹㅍㅏ -3569
▁ㅌㅐㅇㅑㅇ -3570
▁ㅂㅜㄴㄹㅣ -3571
▁ㅈㅏㅇㅈㅓㄴ -3572
▁ㄱㅖㄱㅣ -3573
▁ㅂㅣㄴㅏㄴ -3574
▁ㅁㅏㅇㅘㅇ -3575
ㅌㅣㅁ -3576
▁ㄴㅗㄷㅗㅇ -3577
▁ㅁㅓㄹㅌㅣ -3578
▁ㅌㅜㅈㅏ -3579
▁ㅇㅖㅅㅓㄴ -3580
▁ㅁㅏㅋㅡ -3581
▁ㅅㅡㅍㅔㅇㅣㄴ -3582
▁ㅂㅣㅌㅡ -3583
▁ㅊㅚㅇㅏㄱ -3584
▁ㅈㅔㅇㅏㄴ -3585
IA -3586
ㅏㄴㅗ -3587
▁ㅎㅡㄹㅡ -3588
▁ㅇㅠㄱㄱㅜㄴ -3589
▁ㄱㅗㅇㅂㅜ -3590
ㅋㅓㄴ -3591
ㄷㅚ -3592
▁ㄱㅗㅇㅠ -3593
▁ㅈㅗㅂ -3594
ㅅㅚ -3595
▁ㄱㅗㅅㅓ -3596
▁ㅅㅏㅁㄱㅜㄱ -3597
▁ㅎㅜㅅㅗㄱ -3598
▁ㅍㅐㅅㅡ -3599
▁ㅎㅜㅁ -3600
▁ㅇㅏㄹㅡㅁㄷㅏㅂ -3601
▁ㄱㅔㅅㅣ -3602
PS -3603
▁ㅈㅐㄴ -3604
▁ㄱㅞ -3605
▁ㅂㅐㄹㄹ -3606
▁ㅅㅣㅊㅔ -3607
▁ㄹㅔㅇㅣㅈㅓ -3608
▁be -3609
ㅇㅛㅇㅣㄹ -3610
ess -3611
ok -3612
▁ㅂㅐㅅㅣㄴ -3613
▁ㅅㅡㅍㅔㄱ -3614
ant -3615
ㅊㅕ -3616
▁Bl -3617
▁ㅅㅡㅋㅡㄹ -3618
▁ㅎㅚㅇㅢ -3619
ㅣㄹㅏ -3620
▁ㅈㅔㄹㅗ -3621
▁ㅇㅗㄹㅡㄴㅉㅗㄱ -3622
▁ㄱㅏㅈㅕㄱㅏ -3623
ㄲㅜ -3624
ㅏㅇㅜ -3625
▁BG -3626
▁ㅍㅕㅇㅎㅘ -3627
▁110 -3628
▁ㄱㅐㅊㅚ -3629
▁ㅅㅓㅇㅇㅣㄴ -3630
ㅈㅡㅋㅣ -3631
ㅋㅟ -3632
▁ㅂㅡㄹㅏ -3633
ㅋㅡㄹㄹ -3634
▁ㄴㅐㄹㅕㄱㅏ -3635
▁ㅍㅓㄴ -3636
▁ㅈㅗㅈㅜㄴ -3637
▁ㄱㅔㅇㅣㅈㅣ -3638
▁on -3639
▁ㅇㅕㅂㅜ -3640
▁ㅇㅛㅇㅂㅕㅇ -3641
ㅈㅏㄹ -3642
ㅇㅠㄹ -3643
▁ㅂㅐㄴ -3644
▁ㄹㅅㅜㄹㅗㄱ -3645
▁ㅈㅓㅁㄹㅕㅇ -3646
▁ㅋㅓㄴㅌㅡㄹㅗㄹ -3647
▁ㄱㅜㅇㄱㅡㄱ -3648
▁ㄱㅣㅎㅚㄱ -3649
▁ㅓㅅㅓ -3650
▁ㄷㅏㄹㄹㅏㅈㅣ -3651
▁ㄷㅔㄴ -3652
▁ㅌㅏㅂㅈㅐ -3653
▁ㅌㅏㅇㅣㅁㅣㅇ -3654
ell -3655
▁ㄱㅡㄱㅈㅏㅇㅍㅏㄴ -3656
▁ㅁㅐㅊㅣ -3657
▁ㅂㅗㄱㅡㅂ -3658
▁ㅇㅏㅁㅓ -3659
IC -3660
▁SS -3661
ㅈㅏㄴ -3662
▁ㅇㅡㄹㄲㅏ -3663
▁ㄱㅏㅂㅕㅂ -3664
▁or -3665
▁ㅈㅣㄴㅅㅣㄹ -3666
▁ㅋㅗㄴㅓ -3667
▁ㅇㅓㅇㅜㄹㄹㅣ -3668
▁ㅇㅐㅁㅐ -3669
▁ㄴㅡㄱ -3670
▁ㅊㅚㄷㅐㅎㅏㄴ -3671
▁ㅈㅓㅇㄹㅕㅇ -3672
ct -3673
▁ㅇㅙㄴ -3674
▁ㅊㅜㅇㅈㅓㄴ -3675
▁62 -3676
▁ㅊㅐㅁ -3677
▁ㅌㅣㄱ -3678
ㅣㅇㅗㄴ -3679
▁ㅈㅣㄱㅇㅝㄴ -3680
ㅇㅏㅈㅣ -3681
▁ㅁㅓㄹㄹㅣ -3682
▁ㄴㅏㅁㅍㅕㄴ -3683
ㅏㄷ -3684
▁373 -3685
▁ㅇㅑㄱㅅㅗㄱ -3686
▁ㄱㅘㄴㄱㅘㅇ -3687
▁ㅊㅔㅇㅣㄴ -3688
ue -3689
▁ㄱㅣㅂㅜㄴ -3690
ine -3691
▁ㅈㅏㄶ -3692
▁ㅂㅡㄹㄹㅜ -3693
▁ㅅㅜㄴㅅㅓ -3694
▁ㄹㅜㅇㅣ -3695
▁ㅇㅡㄴㅌㅚ -3696
▁ㄱㅕㄴㅈㅔ -3697
▁ㅎㅜㅂㅏㄴㅂㅜ -3698
▁ㅇㅗㄴㄹㅏㅇㅣㄴ -3699
ㅊㅜㄴ -3700
▁ㅅㅜㄷㅏㄴ -3701
▁ㅍㅓㅈㅣ -3702
▁ㄷㅐㄴㅅㅡ -3703
ㅐㄷㅗ -3704
▁ㅓㅇ -3705
▁ㅌㅡㅁ -3706
▁ㄷㅗㄷ -3707
▁ㅁㅗㅅㅕㄴ -3708
▁ㅎㅏㄴㅎㅘ -3709
▁ㅁㅣㄴㅈㅜㄷㅏㅇ -3710
▁.... -3711
▁ㄴㅡㄹㄹㅣ -3712
▁ㅇㅏㅁㅜㄹㅐㄷㅗ -3713
▁NP -3714
ㄹㅏㅇㅣㄷㅓ -3715
▁ㅁㅕㄹㅁㅏㅇ -3716
▁ㄹㅔㅈㅓㄴ -3717
▁ㄱㅏㄹㄹㅣ -3718
▁ㅎㅓㅇㅛㅇ -3719
▁ㄱㅛㅎㅚ -3720
▁ㅅㅜㄹㅣ -3721
▁Al -3722
▁ㅅㅔㄱㅖㄱㅘㄴ -3723
▁ㅅㅡㅍㅣㄷㅡ -3724
▁ㅂㅐㄹㄹㅓㄴㅅㅡ -3725
ㅂㅡㄹㄹ -3726
ㄷㅣㄴ -3727
▁ㄹㅛ -3728
ist -3729
ㅁㅜㅇㅝㄴ -3730
▁ㅋㅏㅁㅔㄹㅏ -3731
▁ㅇㅓㄹㅇㅡㅁ -3732
▁76 -3733
▁ㄱㅏㅅ -3734
▁ㅂㅗㄷㅗ -3735
▁ㅎㅜㄱ -3736
▁ㅇㅕㅇㅘㅇ -3737
▁Th -3738
▁ㅂㅗㅅㅜ -3739
▁ㅊㅣㄹㅡ -3740
▁ㅌㅔㄱ -3741
ove -3742
▁ㅍㅏㅇㅣㅌㅓ -3743
ore -3744
▁ㅋㅟ -3745
ㅎㅡㄱ -3746
▁ㅂㅜㄷㅏㅁ -3747
▁ㅅㅗㅂㅣ -3748
▁ㅎㅏㅌㅡ -3749
▁ㄱㅐㄹㄹㅓㄹㅣ -3750
ㅞㅇㅣ -3751
▁ㄷㅐㅇㅝㄴ -3752
▁ㄷㅡㄹㅇㅣ -3753
▁ㄷㅡㅇㄷㅡㅇ -3754
▁com -3755
▁ㅌㅗㅅㅡ -3756
ㅝㅎㅏ -3757
▁ㅁㅏㄱㅎㅣ -3758
▁ㄹㅔㄱ -3759
▁ㅇㅠㅇㅛㅇ -3760
▁ㅇㅜㅅㅜ -3761
▁ㄹㅗㅋㅔㅅ -3762
▁ㅇㅓㄸㅓㅎ -3763
▁77 -3764
ㅌㅗㄹㅣ -3765
▁ㄷㅗㄹㄱㅕㄱ -3766
▁61 -3767
▁ㅎㅓㅅ -3768
▁ㅅㅏㅂ -3769
▁ㅅㅜㅅㅏ -3770
▁ㅁㅣㅇㅑ -3771
▁ㅁㅜㄱㅔ -3772
▁ㅇㅏㅋㅣ -3773
▁ㅇㅣㅊㅣ -3774
▁ㅅㅏㄻ -3775
▁{ -3776
▁ㄱㅗㄱㅡㅂ -3777
▁ㄱㅕㅇㅜ -3778
▁ㅅㅐㅇㅇㅣㄹ -3779
▁ㅈㅣㅅㅣㄱ -3780
▁ㅇㅠㅇㅜ -3781
▁ㄷㅜㅇ -3782
▁ㅋㅣㅁ -3783
▁ㄱㅓㄴㄴ -3784
▁ㄱㅣㅈㅓㄹ -3785
▁ㄱㅠㅈㅓㅇ -3786
ㅠㄴㅣ -3787
▁ㅊㅏㅂㅕㄹ -3788
ㅓㄹㄹㅣ -3789
▁ㅂㅗㄴㅅㅓㄴ -3790
ㅁㅏㅅㅡ -3791
ort -3792
▁ㅂㅕㅇㄱㅣ -3793
ㅔㄹㄹㅏ -3794
▁88 -3795
▁ㄲㅣㄹㅣ -3796
▁ㅂㅣㅅ -3797
▁ㅋㅓㅁㅠㄴㅣ -3798
▁ㄴㅡㄴㄷㅏㄱㅗ -3799
▁72 -3800
▁ㄱㅡㄹㅣㅅㅡ -3801
▁ㅈㅜㅇㄷㅏㄴ -3802
▁ㄱㅏㅁㅕㄴㄹㅏㅇㅣㄷㅓ -3803
▁ㄹㅐㄴㄷㅓㅁ -3804
▁ㅊㅡㄱㅁㅕㄴ -3805
ㅇㅢㅇㅝㄴ -3806
▁ㅂㅜㄴㅇㅑ -3807
ㅅㅣㅁㅎㅣ -3808
▁ㄴㅔㅅ -3809
▁ㅈㅣㅈㅓㅁ -3810
▁ㅈㅏㄱㅗ -3811
▁} -3812
▁ㅇㅏㅍㅡㄹㅣㅋㅏ -3813
▁ㅂㅗㅁ -3814
▁2001 -3815
▁ㄱㅕㅂㅊㅣ -3816
▁ㅍㅏㅌㅡ -3817
▁ㄷㅏㄱㅌㅓ -3818
▁ㄸㅏㅇㅟ -3819
ㄷㅜㄹㅡ -3820
▁ㅁㅏㄴㅕ -3821
▁ㅋㅡㄹㅗㅅㅡ -3822
▁ㅍㅐㄹㅓㄷㅣ -3823
▁ㅎㅏㄴㅈㅏ -3824
▁ㅇㅓㄴㄴㅣ -3825
▁ㅂㅏㄹㅎㅟ -3826
▁ㅈㅜㅁㅗㄱ -3827
ㄹㅠㅇ -3828
▁ㄱㅕㅇㄱㅣㄷㅗ -3829
▁ㅈㅏㅅㅏㄹ -3830
ㄹㅔㅇㅣ -3831
▁ㅅㅏㅁㅜ -3832
▁ㅎㅚㅅㅜ -3833
▁ㄷㅗㅅㅓ -3834
▁ㄷㅡㅁㅜㄹ -3835
ive -3836
ㄹㅗㄷㅡ -3837
▁ㅇㅚㅂㅜ -3838
▁ㅈㅔㅅㅣ -3839
▁ㅇㅣㄴㅅㅐㅇ -3840
ㅣㅇㅑ -3841
▁ㅇㅔㅅㅡ -3842
▁ㅇㅣㅂㅅㅜ -3843
▁ㅍㅣㅎㅐㅈㅏ -3844
ㄷㅏㄹㅡ -3845
▁ㅋㅣㄱ -3846
▁ㅅㅏㄹㅎㅐ -3847
▁ㅇㅚㅊㅣ -3848
▁ㅊㅟㅅㅗ -3849
▁ffff -3850
▁ㄱㅕㅇㄱㅖ -3851
▁ㄱㅗㅇㅌㅗㅇ -3852
▁ㄴㅏㅎ -3853
▁ㅁㅣㄴㅣ -3854
▁ㄴㅐㅈㅜ -3855
ㅊㅗㄱ -3856
OS -3857
ㅔㄹㅣ -3858
▁ㅆㅓㅁ -3859
▁ㅇㅠㄹㅐ -3860
▁ㄷㅗㄱㅜ -3861
▁ㅈㅏㄹㅡ -3862
ong -3863
ㄲㅡㅁ -3864
▁ㅇㅡㄹㅕ -3865
▁ㅅㅕ -3866
▁ㄱㅛㅎㅘㄴ -3867
ㅔㅅㅕㄹ -3868
▁ㄱㅗㅇㅇㅝㄴ -3869
ㅜㅁㅕㅇ -3870
▁ㅇㅣㅅㅓㅇ -3871
ㄷㅏㄹㄹㅣ -3872
▁ㄱㅐㅍㅕㄴ -3873
▁ㄱㅜㄱㅈㅓㄱ -3874
▁ㅇㅗㅍㅡㄴㅣㅇ -3875
▁ㅇㅏㅊㅣㅁ -3876
▁ㅋㅓㅂㅓ -3877
▁ㅇㅓㅊㅏ -3878
▁SBS -3879
▁ㅁㅣㄴㅈㅗㄱ -3880
▁ㅌㅡㅇㅟㅌㅓ -3881
▁ㄱㅗㅇㅈㅏㅇ -3882
ㅡㄴㅏ -3883
▁ㅅㅡㅇㄱㅏㅇ -3884
▁ffffff -3885
ers -3886
▁ㅇㅓㅊㅏㅍㅣ -3887
AM -3888
▁ㅅㅡㅍㅔㅅㅕㄹ -3889
▁ㅎㅜㅇ -3890
▁ㄱㅖㅅㅏㄴ -3891
▁ㅇㅟㅇ -3892
▁ㅅㅜㅇㅛ -3893
▁ㅈㅐㅍㅏㄴ -3894
ㅁㅐㄱ -3895
▁ㅅㅓㅍㅗ -3896
▁ㅇㅣㅇㅓ -3897
▁ㅎㅐㄱㅅㅣㅁ -3898
ㅗㅌㅗ -3899
▁ㅂㅜㅈㅣㄴ -3900
ㅋㅡㄹㅐㅍㅡㅌㅡ -3901
▁ㅇㅔㅇㅓ -3902
▁ㄱㅣㅇㅓ -3903
▁ㄷㅐㄴㅗㅎㄱㅗ -3904
▁ㅇㅗㄴㄱㅏ -3905
▁PS -3906
▁ㅂㅜㅇㄱㅚ -3907
▁ㅅㅏㄷㅏㄴ -3908
▁ㅈㅏㅇㅇㅐ -3909
AS -3910
▁ㅋㅔㄹ -3911
▁98 -3912
▁ㄱㅛㅅㅏ -3913
▁ㄱㅜㅇㅣㅂ -3914
ㅋㅏㅇㅘ -3915
▁ㅇㅗㄴㄱㅏㅈ -3916
▁ㅂㅏㅌㅏㅇ -3917
▁ㄷㅏㄴㄷㅗㄱ -3918
▁191 -3919
▁ㄱㅓㅈㅓㄹ -3920
▁ㄱㅕㅇㅜㄹ -3921
▁ㅇㅓㄹㅣㄴ -3922
▁ㅊㅗㄴ -3923
▁ㅊㅜㄹㅅㅐㅇ -3924
▁ㅂㅡㄹㅐㄴㄷㅡ -3925
▁ㅇㅛㅇㄷㅗ -3926
▁ㄱㅏㅂㅇㅗㅅ -3927
▁ㅋㅏㅇㅗ -3928
▁ㅋㅏㄱ -3929
ㄷㅏㅅㅜ -3930
▁ㅇㅕㅇㅇㅕㄱ -3931
▁ㅓㅇㅑ -3932
▁ㄷㅏㅇㅅㅓㄴ -3933
▁ㅁㅔㅌㅏㄹ -3934
▁ㅅㅗㅅㅜ -3935
▁ㅂㅜㄴㅅㅓㄱ -3936
ㅌㅓㄹㅣ -3937
▁ㄱㅜㄴㅈㅜ -3938
▁ㅌㅏㄴㅅㅐㅇ -3939
▁ㅅㅏㄹㅉㅏㄱ -3940
▁ㅊㅜㄹㅂㅏㄹ -3941
▁ㅉㅣㄹㅡ -3942
ㄹㅓㅅ -3943
▁ㅎㅏㅁㅅㅓㄴ -3944
ㅠㅁ -3945
▁ㅇㅛㅇㅝㄴ -3946
▁ㅇㅡㄴㄱㅡㄴ -3947
▁ㅈㅔㄱㅣ -3948
ㅍㅣㅅㅡ -3949
ED -3950
▁ㄴㅏㅂㅊㅣ -3951
ip -3952
▁ㄲㅜㅈㅜㄴㅎㅣ -3953
▁ㄱㅟㅈㅗㄱ -3954
▁ㅇㅡㄴㅎㅐㅇ -3955
▁ㅍㅔㅇㅣㅈㅣ -3956
▁ㅈㅜㅇㅕㄴ -3957
▁ㅇㅏㅋㅏ -3958
ㄹㅐㄴㄷㅡ -3959
▁ㅁㅔㄱ -3960
ㅇㅏㄹㅣ -3961
▁ㅅㅓㄴㅂㅐ -3962
▁ㅎㅘㅅㅏㄹ -3963
▁ㅌㅏㅇㅝ -3964
▁ㅅㅜㄴㅅㅜ -3965
ain -3966
▁ㅇㅗㅎㅜ -3967
▁CD -3968
▁ㅈㅏㅅㅣㄱ -3969
▁ㅅㅡㅌㅡㄹㅏㅇㅣ -3970
▁ㅍㅏㅇㅏㄱ -3971
▁ㅈㅐㅅㅐㅇ -3972
▁ㅇㅣㄹㅓㅎ -3973
if -3974
▁ㄱㅗㅁㅣㄴ -3975
▁600 -3976
▁ㅅㅡㅂㄷㅡㄱ -3977
▁ㄱㅏㄹㅡㅊㅣ -3978
▁ㅊㅑ -3979
▁ㄷㅐㄱㅗㅇ -3980
▁ㅈㅏㄱㅕㄱ -3981
ㅅㅔㅇㅜ -3982
▁ㅆㅗㄷ -3983
ㅌㅡㅇ -3984
▁ㅇㅖㅅㅜㄹ -3985
ㅁㅏㅈ -3986
▁ㅇㅓㅂㅁㅜ -3987
▁ㅍㅏㄹㅏ -3988
ㄱㅏㄹㅏㄱ -3989
▁ㅎㅗㅇㅂㅗ -3990
ㅏㄴㅏ -3991
ㅅㅏㅋㅏ -3992
▁ㅊㅕ -3993
▁ㅎㅕㅂㄹㅕㄱ -3994
ee -3995
▁ㄷㅏㅇㅎㅘㅇ -3996
▁ㅈㅏㄹㅏ -3997
▁1990 -3998
▁ㅁㅜㄴㅓㅈㅣ -3999
▁ㄱㅜㄴㅇㅣㄴ -4000
▁ㅇㅠㅎㅕㅇ -4001
▁ㄹㅛㅇ -4002
▁ㅂㅗㅈㅓㅇ -4003
▁ㅁㅗㄹㄹㅣ -4004
▁| -4005
ㄷㅣㅅㅕㄴ -4006
▁ㅎㅜㄹㄹㅠㅇ -4007
▁ㅂㅔㅇㅣㅅㅡ -4008
ㅌㅣㅋㅓㄹ -4009
▁ㅁㅗㄹㅣ -4010
EN -4011
▁ㅂㅏㄼ -4012
▁ㅇㅕㄹㅅㅣㅁㅎㅣ -4013
▁ㅎㅘㅇㅣ -4014
▁ㅌㅔㄹㅓ -4015
▁ㄹㅔㅈㅓㄴㄷㅡ -4016
▁ㅈㅓㄱㄷㅏㅇ -4017
▁ㅍㅗㄱㅍㅜㅇ -4018
▁ㅅㅣㄴㅎㅘ -4019
▁ㄹㅜㄴ -4020
▁ㅆㅡㄹㅔ -4021
▁ㄱㅕㅇㅇㅠ -4022
▁ㄷㅐㅅㄱㅡㄹ -4023
▁ㅇㅕㅇㅇㅝㄴ -4024
ㅌㅐㅇ -4025
▁ㅇㅡㅇㅇㅝㄴ -4026
▁ㅎㅡㄴㅎㅣ -4027
▁MV -4028
▁ㄴㅐㄴㅐ -4029
▁ㅋㅏㄹㅏ -4030
▁ㅉㅏㄱ -4031
▁ㅁㅏㅌㄱㅣ -4032
▁ㄷㅟㅈㅣㅂ -4033
▁ㅎㅔㄷㅡ -4034
▁ㄱㅚㄹㅗㅂ -4035
▁ㅂㅜㄹㅇㅏㄴ -4036
▁63 -4037
▁ㅁㅜㅈㅓㄱ -4038
▁ㅉㅏㄹㅣ -4039
▁ㅇㅓㅄㅇㅐ -4040
▁ㅋㅝㄹ -4041
ㄱㅓㅂ -4042
▁ㅂㅗㅁㅜㄹ -4043
▁ㅂㅣㄹㅗㄱ -4044
ㄷㅏㅈㅣ -4045
▁ㅎㅡㄹㄹㅣ -4046
▁ㄱㅣㅁㅅㅓㅇ -4047
▁ㄱㅓㄹㅐ -4048
▁ㅈㅓㅇㅁㅏㄹㄹㅗ -4049
▁ㅂㅜㅇㅣㄴ -4050
▁ㅌㅏㅂㅅㅡㅇ -4051
▁ㅁㅏㄴㅈㅗㄱ -4052
ㅅㅗㄴㅕㄴ -4053
ㅋㅗㄹ -4054
▁ㄴㅜㄹㅣ -4055
▁ㅅㅗㄷㅡ -4056
▁ㅊㅜㄹㅊㅓ -4057
▁ㅈㅗㅇㅈㅓㅁ -4058
▁ㅈㅏㅇㄱㅘㄴ -4059
▁ㅎㅗㄴㄹㅏㄴ -4060
▁68 -4061
ㅏㅇㅣㄴ -4062
ㄷㅡㄹㄹㅣ -4063
▁ㅊㅐㅇㅛㅇ -4064
▁ㅇㅘㅇㅈㅏ -4065
▁ㄴㅔㅇㅣㅂㅓ -4066
ㅁㅗㄹㅣ -4067
ㅇㅣㅊㅣ -4068
ith -4069
ㅇㅏㅁㅓㄱ -4070
ld -4071
▁ㅇㅜㄴㅈㅓㄴ -4072
▁ㄹㅐㅂ -4073
▁ㅁㅜㄹㄹ -4074
▁ㅂㅗㄴㅁㅕㅇ -4075
▁ㅋㅓㄴㅌㅔㄴㅊㅡ -4076
▁ㅊㅏㅈㅇㅏㄱㅏ -4077
▁ㅅㅡㅋㅗㅇㅓ -4078
▁ㅅㅣㄹㅈㅣㄹ -4079
▁ㄷㅐㄷㅏㅅㅜ -4080
▁ㅁㅜㄴㅈㅔㅈㅓㅁ -4081
ly -4082
▁ㅇㅜㄴㅁㅕㅇ -4083
▁ㄴㅏㄴㅟ -4084
▁ㄱㅏㄹㅗ -4085
▁ㅂㅏㄴㄱㅕㄱ -4086
▁800 -4087
▁ㄴㅐㄴㅗㅎ -4088
▁ㄱㅖㄱㅡㅂ -4089
▁ㅈㅜㄷㅗ -4090
▁ㄱㅠㄴ -4091
▁71 -4092
▁ㅍㅏㅂ -4093
▁ㅂㅏㄱㅅㅡ -4094
▁ㅈㅜㅇㄱㅖ -4095
▁ㅁㅣㄱㅜㄴ -4096
▁ㅋㅓㅁㅠㄴㅣㅌㅣ -4097
ㅡㅁㅏ -4098
▁ㅈㅓㅇㄹㅠ -4099
▁ㅅㅜㅅㅜㄹ -4100
▁ㄹㅏㅇㅣㅂㅓㄹ -4101
ind -4102
▁ㅊㅗㅇㅝㄹ -4103
▁ㄱㅗㄱㅣ -4104
▁ㅍㅡㄹㅔ -4105
▁ㅈㅣㄱㅡㅂ -4106
▁ㄷㅗㄹㅈㅣㄴ -4107
▁ㅇㅗㄹㅠ -4108
▁ㄷㅜㅅㅏㄴ -4109
▁ㅅㅜㅇㅣㅂ -4110
▁74 -4111
▁ㄲㅐㅇ -4112
▁ㄱㅏㄲㅏㅇㅣ -4113
▁AC -4114
ㄴㅔㅅ -4115
▁ㅈㅓㄴㄱㅗㅇ -4116
▁ㅈㅓㄴㅎㅏㅁ -4117
ㅏㅂ -4118
▁ㅇㅕㄴㄷㅗ -4119
▁ㅇㅗㅎㅐ -4120
ㅂㅜㅇ -4121
▁ㅇㅕㄴㅇㅖ -4122
▁ㅅㅡㅋㅏ -4123
OL -4124
▁ㅍㅡㄹㅣㅁ -4125
ㅐㅂ -4126
▁ㅊㅣㅁㅕㅇㅌㅏ -4127
▁ㄱㅗㅇㄱㅜㄴ -4128
▁67 -4129
▁ㅅㅓㄹㄷㅡㄱ -4130
▁ㅊㅔㄱㅖ -4131
ㅏㅌ -4132
▁ㅅㅗㅁㅜㄴ -4133
▁ㅎㅐㄴ -4134
▁ㅍㅏㄴㅌ -4135
▁ㅈㅣㅋ -4136
▁ㄱㅣㄱㅣ -4137
ew -4138
ㅅㅣㅇㅗ -4139
ㅂㅣㄹ -4140
▁ㅌㅗㅇㅇㅣㄹ -4141
▁ㅊㅜㅇㄷㅗㄹ -4142
▁ㅇㅕㅅㅣㄴ -4143
▁ㅂㅏㄴㅇㅕㅇ -4144
▁ㅈㅡㄱㅅㅣ -4145
▁ㄷㅏㄴㅇㅟ -4146
▁ㅎㅘㅈㅏㅇ -4147
▁ㄹㅓㅂㅡ -4148
ry -4149
▁ㄷㅜㄴ -4150
▁ㅍㅐㅇ -4151
▁73 -4152
▁ㅋㅗㅁㅣㄱㅅㅡ -4153
▁ㄴㅔㅇㅣㅁ -4154
▁ㅂㅜㄹㄲㅗㅊ -4155
▁ㅇㅏㄹㅣ -4156
▁ㅈㅏㅇㅅㅜ -4157
ㅆㅏㅇ -4158
ㅊㅡㅋㅣ -4159
ㅣㄹㄹㅓ -4160
▁ㄱㅡㄹㅣㅁㅈㅏ -4161
▁TH -4162
▁ㄷㅏㅎ -4163
▁ㅍㅕㄴㅇㅢ -4164
▁ㅇㅏㄴㅅㅡㅂ -4165
ast -4166
▁ㅇㅏㅅㅣㅇㅏ -4167
▁ㅈㅣㅅㅣ -4168
▁96 -4169
▁NC -4170
▁ㅎㅗㅇㅋㅗㅇ -4171
▁ㅎㅏㄱㄱㅘ -4172
▁ㅈㅓㄴㅌㅜㄹㅕㄱ -4173
▁ㅈㅡㅇㄱㅓ -4174
ㅍㅣㅇㅏ -4175
▁ㅍㅜㄹㅡ -4176
▁ㅅㅣㅇㅑ -4177
▁ㅊㅗㄹ -4178
▁AT -4179
▁ㅈㅜㄴㅕㄴ -4180
ㅁㅓㄴㅣ -4181
▁ㅁㅏㄹㄹㅣ -4182
▁ㅎㅐㅂㅏㅇ -4183
▁ㄴㅐㄹㅕㅇㅗ -4184
▁ㄱㅓㄹㅊㅣ -4185
▁ㄷㅏㅎㅐㅇㅎㅣ -4186
▁ㅁㅗㅂㅏㅇ -4187
ㅌㅏㅇㅣㄴ -4188
▁ㅋㅡㄹㅣㅌㅣㅋㅓㄹ -4189
▁ㅂㅣㅇㅠㄹ -4190
▁me -4191
▁ㅈㅏㄱㅅㅏ -4192
ㅞㅇㅓ -4193
▁ㄹㅔㅂ -4194
IT -4195
▁ㅅㅡㅍㅡㄹ -4196
▁ㅇㅏㅁㅜㄱ -4197
▁ㅅㅡㄹㄹㅗㅅ -4198
▁ㄱㅜㄱㅎㅚㅇㅢㅇㅝㄴ -4199
▁ㅁㅔㅌㅏ -4200
▁ㅈㅔㅎㅏ -4201
▁ㅈㅣㅇㅜ -4202
▁ㄸㅓㄱㅂㅏㅂ -4203
ㅂㅜㄹㅓ -4204
▁ㅅㅏㅇㅎㅑㅇ -4205
▁ㄹㅔㅅ -4206
▁ㅇㅣㄹㅂㅜㄹㅓ -4207
LC -4208
▁ㅅㅐㅇㅁㅕㅇㄹㅕㄱ -4209
▁ㅅㅣㄴㄹㅚ -4210
▁ㅁㅔㄹㅣ -4211
ㄴㅕㅁ -4212
▁ㄱㅣㅅ -4213
▁ㄱㅕㄱㅍㅏ -4214
▁ㄱㅗㅁ -4215
▁ㄹㅕㅇ -4216
EC -4217
▁ㄱㅗㅇㅎㅘㄱㅜㄱ -4218
▁81 -4219
▁ㄱㅡㄷㅏㅈㅣ -4220
▁ㄱㅘㄴㄱㅐㄱ -4221
▁ㄱㅏㅁㅅㅏ -4222
▁ㅅㅣㅁㅈㅏㅇ -4223
▁ㅇㅏㅁㅎㅡㄱ -4224
▁ㅅㅜㅇㅓㅂ -4225
▁ㄴㅓㄱ -4226
▁ㅁㅣㄱ -4227
ㅈㅔㄴ -4228
▁ㅍㅏㅇㅣㄴㅓㄹ -4229
▁CP -4230
▁ㅆㅡㄹㅓㄸㅡㄹㅣ -4231
ㅏㅅㅡ -4232
▁ㄴㅣㄴㅈㅏ -4233
▁ㄱㅡㅁㅏㄴㅋㅡㅁ -4234
▁ㅅㅣㄴㄱㅗ -4235
▁ㄷㅡㅇㅍㅏㄴ -4236
▁ㄷㅓㅍ -4237
▁ㅅㅏㅈㅓㄴ -4238
▁ㅁㅜㄴㅏㄴ -4239
▁ㅋㅜㄴ -4240
ㅂㅏㄹㅗ -4241
▁ㄷㅗㅇㄴㅔ -4242
▁ㅁㅜㄴㅈㅏ -4243
ㄷㅠ -4244
▁ㅍㅏㄴㅌㅏㅈㅣ -4245
▁ㅈㅓㅇㅈㅣ -4246
▁ㄱㅏㄷㅡㄱ -4247
▁ㅂㅜㅌㅈㅏㅂ -4248
▁j -4249
▁ㄱㅕㄱㅌㅜ -4250
FA -4251
▁ㄱㅏㅇㅣㅂ -4252
▁192 -4253
▁ㅎㅓㄹ -4254
▁1999 -4255
▁ㅂㅕㄹㄱㅐ -4256
▁ㅇㅜㄱ -4257
▁ㅅㅡㅁㅏ -4258
▁ㅇㅠㅂㅣ -4259
ㅆㅡ -4260
▁ㅇㅏㅂㅂㅏㄱ -4261
▁ㅉㅏㅇ -4262
▁ㅁㅏㅅㅜㄹ -4263
▁ㅋㅝ -4264
▁ㅅㅏㅇㅜㄴㄷㅡ -4265
▁ㅇㅕㄴㅅㅏ -4266
▁ㅈㅣㅂㅇㅏㄴ -4267
▁NPC -4268
ㅏㅇㅣㅇㅓ -4269
▁78 -4270
ㅅㅣㄱㄱㅏㄴ -4271
▁ㅁㅏㅈㅜ -4272
▁84 -4273
ㅗㄴㅏ -4274
end -4275
▁ㄱㅓㄴㄱㅏㅇ -4276
▁ㅈㅐㄴㅡㅇ -4277
▁ㅊㅏㅇㅈㅏㄱ -4278
▁ㅅㅜㄴㅅㅣㄱㄱㅏㄴ -4279
▁ㄱㅡㄴㅁㅜ -4280
▁ㅂㅗㄴㅂㅜ -4281
▁ㅁㅏㄱㅈㅏㅇ -4282
▁91 -4283
▁ㄷㅡㄴㅈㅣ -4284
▁ㅌㅠ -4285
▁ㅂㅏㄴㄹㅏㄴ -4286
ㅎㅏㄹㅏ -4287
▁an -4288
▁ㄷㅡㄷㅣㅇㅓ -4289
ㅅㅜㅇㅣㄴ -4290
▁ㅅㅣㄹㄷㅡ -4291
▁ㅇㅓㅂㅊㅔ -4292
▁ㅈㅓㄹㅓㄴ -4293
▁ㅊㅜㅈㅓㄱ -4294
▁ㅈㅣㅎㅏㅊㅓㄹ -4295
▁ㄷㅚㄷㅗㄹ -4296
▁ㅈㅏㅇㅅㅣㄱ -4297
▁ㅈㅣㅋㅕㅂㅗ -4298
▁ㅈㅣㅎㅕㅇ -4299
▁1998 -4300
ㅌㅏㄹㅗ -4301
▁ㅂㅜㄹㅁㅏㄴ -4302
▁it -4303
▁ㅈㅓㄴㅈㅓㄱ -4304
▁ㅇㅏㅌㅣ -4305
▁ㅇㅣㅂㅎㅏㄱ -4306
▁!! -4307
▁ㄱㅕㅇㅎㅑㅇ -4308
▁ㅈㅡㅇㅁㅕㅇ -4309
▁ㅊㅓㅎㅏ -4310
▁ㅅㅣㄴㅅㅔ -4311
▁ㅅㅜㅎㅏㄱ -4312
▁ㅇㅔㄹㅍㅡ -4313
▁ㅎㅘㅇㅣㅌㅡ -4314
▁ㅇㅜㅇㅕㄴ -4315
▁ㄱㅕㅇㅎㅓㅁㅊㅣ -4316
og -4317
▁ㅅㅏㅇㅍㅜㅁ -4318
ㅌㅜㄴ -4319
▁ㅊㅓㄴㅅㅏ -4320
▁ㅅㅡㅌㅗㄴ -4321
▁ㄱㅣㅇㅝㄴ -4322
ㄷㅎㅣ -4323
▁ㅌㅔㅇㅣㄹ -4324
▁ㄷㅐㅁㅏㄴ -4325
▁ㅎㅕㅇㅅㅓㅇ -4326
▁ㅆㅏㅎㅇㅣ -4327
▁ㅅㅣㄴㅊㅓㅇ -4328
▁An -4329
▁ㅈㅓㄴㅂㅏㅇ -4330
▁ㄴㅏㄲ -4331
▁ㅕㅅㅓ -4332
▁ㅅㅏㅇㅎㅏ -4333
▁ㅇㅕㄷㅗㅇㅅㅐㅇ -4334
▁ㄱㅔㅅ -4335
▁ㅁㅐㄹㅕㄱ -4336
▁ㄹㅏㅅㅡ -4337
▁ㅈㅔㅈㅜ -4338
▁ㅂㅡㄹㄹㅔㅇㅣㄷㅡ -4339
▁ㅆㅡㄹㅔㄱㅣ -4340
▁ㄴㅗㅁㅓㄹ -4341
ㅍㅐㄱ -4342
▁ㅇㅖㄱㅗ -4343
ㅈㅐㄱ -4344
▁ㅈㅓㄱㅎㅣ -4345
▁ㅈㅣㄹㅡ -4346
▁ㅈㅓㄹㅂㅏㄴ -4347
ㄲㅓㅅ -4348
▁ㅈㅓㅇㄱㅝㄴ -4349
▁97 -4350
▁ㅅㅏㄹㅕㅇㄱㅘㄴ -4351
▁ㅋㅜㅋㅣ -4352
ㅏㅇㅣㄷㅡ -4353
▁ㅁㅔㄱㅏ -4354
ㅋㅗㅁ -4355
▁ㅈㅜㅁㅓㄱ -4356
▁ㄱㅏㅁㅇㅕㅁ -4357
▁ㅇㅢㅅㅏㅇ -4358
▁ㅍㅏㅇㅣㅇㅓ -4359
▁ㄷㅏㅅㅣㅍㅣ -4360
▁ㅇㅕㄹㅗㄴ -4361
▁ㅎㅜㅈㅣ -4362
▁ㄲㅓ -4363
▁ㅇㅚㄱㅜㄱㅇㅣㄴ -4364
▁Ar -4365
▁He -4366
ㅣㅇㅔㄹ -4367
ㄹㅓㅇ -4368
▁ㅇㅗㅃㅏ -4369
▁ㅌㅏㅈㅓㅁ -4370
▁ㅋㅗㅇㅣㄴ -4371
▁82 -4372
▁ㄱㅏㅇㅈㅗ -4373
▁ㅎㅚㅊㅏ -4374
▁ㅇㅠㅎㅢ -4375
▁69 -4376
▁ㄹㅏㅇㅣㄷㅓ -4377
▁ㅎㅡ -4378
ㅈㅜㅁ -4379
▁ㅅㅡㅌㅡㄹㅣ -4380
▁ㄷㅏㄴㅇㅣㄹ -4381
▁ㅇㅣㄹㅗㄴ -4382
ㄱㅡㄹㄹ -4383
ㅈㅣㅋㅓㄹ -4384
▁ㄱㅔㅇㅣㅌㅡ -4385
▁ㅇㅣㅅㅡㅇ -4386
ㅎㅗㄹ -4387
▁ㅅㅓㄴㅎㅗ -4388
▁ㅇㅓㅌㅐㄱ -4389
▁ㄱㅡㄴㄱㅓ -4390
ㅇㅏㅂㅓㅈㅣ -4391
▁ㅅㅗㅁㅕㄹ -4392
▁ㅂㅗㄱㅈㅏㅇ -4393
▁ㅇㅕㄴㅅㅏㅇ -4394
▁ㅂㅕㄹㄷㅗ -4395
▁ㅇㅔㄴㅌㅓ -4396
▁ㅈㅓㄴㅅㅓㄴ -4397
▁ㄱㅗㅊㅣ -4398
▁is -4399
▁ㅇㅏㄴㅣㅁ -4400
▁ㅅㅣㄹㅎㅐㅇ -4401
▁ㄷㅐㄹㅠㄱ -4402
▁ㅋㅟㄴ -4403
▁ㅇㅜㄹㅕ -4404
▁250 -4405
▁ㄱㅗㅇㅈㅏㄱ -4406
▁ㅈㅔㅈㅗ -4407
▁ㄱㅗㅇㄱㅣ -4408
▁ㅈㅜㅈㅓㄴ -4409
▁ㄹㅣㅂㅓ -4410
▁for -4411
▁ㅈㅏㄱㅇㅛㅇ -4412
▁ㅊㅚㅅㅏㅇ -4413
ㅇㅕㄱㅅㅣ -4414
▁ㅂㅏㅂㅗ -4415
▁ㅋㅣㄹㅣ -4416
▁ㅇㅏㅁㅜㄱㅓㅅ -4417
▁ㅎㅏㄴㄸㅐ -4418
▁180 -4419
▁MAX -4420
▁86 -4421
▁ㅂㅜㅍㅜㅁ -4422
▁ㅋㅗㄹㄹㅏ -4423
▁ㅍㅕㅇㅌㅏ -4424
ㄹㅡㅁ -4425
ㄷㅓㅅㅡ -4426
▁SN -4427
▁ㅎㅘㄹㅕ -4428
▁ㅇㅛㅈㅓㅇ -4429
▁ㄱㅗㅇㅇㅠ -4430
▁ㅈㅗㅈㅣ -4431
▁ㅅㅞ -4432
▁190 -4433
ㅇㅏㄴㅏ -4434
▁ㅎㅓㄴㅌㅓ -4435
▁ㄹㅐㄴㄷㅡ -4436
▁ㅎㅡㄴㅎㅏ -4437
▁ㅎㅐㅅㅓㄹ -4438
ㅇㅓㅂㅓㄹㅣ -4439
▁ㄱㅓㅈㅜ -4440
▁ㄱㅝㄴㄹㅕㄱ -4441
▁ㄸㅏㅇㅗ -4442
▁ㅇㅛㅅㅐ -4443
▁ㅅㅚ -4444
▁ㄱㅏㄴㄱㅕㄱ -4445
ㄹㅣㅌㅣ -4446
▁ㅍㅡㄹㅔㅇㅣㅁ -4447
▁ㅊㅜㄹㅎㅕㄴ -4448
▁ㅎㅗㅎㅘㄴ -4449
▁ㅁㅏㄷㅗ -4450
▁ㅈㅑ -4451
▁ㅇㅗㅇㅗ -4452
▁ㅊㅗㅇㄱㅣ -4453
▁ㅈㅓㄴㅎㅕㅇ -4454
ㄸㅡㄱ -4455
▁ㄴㅠㅇㅛㄱ -4456
▁ㅁㅏㅅㅡ -4457
▁ㅋㅜㅇ -4458
▁ㅁㅗㄹㄹㅐ -4459
ㅊㅡㅁ -4460
▁ㅊㅜㄹㅈㅏㅇ -4461
ㅎㅔㄴ -4462
▁ㅊㅜㄱㅕㄱ -4463
▁ㅇㅣㄹㅏㅇ -4464
▁ㅅㅏㅋㅜㄹㅏ -4465
▁ㅂㅏㄱㅅㅏㄹ -4466
ㅎㅡ -4467
▁ㅂㅏㄹㅏㅂㅗ -4468
▁ㄱㅜㅂ -4469
ㅣㅅ -4470
ㅑㄹ -4471
▁ㅈㅗㅇㅛㅇ -4472
▁ㅇㅠㅋㅣ -4473
▁ㄱㅜㄷㅗ -4474
▁ㄷㅗㄹㅇㅏㄷㅏㄴㅣ -4475
▁ㅁㅜㅎㅛ -4476
▁ㅈㅜㅇㅟ -4477
ath -4478
▁ㅋㅣㅅㅡ -4479
▁ㅇㅜㄹㅅㅏㄴ -4480
▁ㄲㅔ -4481
▁BGM -4482
▁ㄱㅕㅇㅅㅏㅇ -4483
ㄹㄹㅣ -4484
▁ㅌㅐㅇㅋㅡ -4485
▁ㅁㅕㅇㅇㅖ -4486
ㅓㅁㅗㄹㅗ -4487
▁ㅇㅕㄹㅓㅁㅗㄹㅗ -4488
ㅅㅓㅌㅡ -4489
ㅓㅁㅍㅡ -4490
▁ㅁㅔㅇㅣㄴ -4491
▁ㄱㅝㄴㅊㅗㅇ -4492
▁ㅂㅓㅁㅇㅣㄴ -4493
av -4494
▁ㄷㅗㅇㄱㅣ -4495
▁ㅈㅜㅇㅓㅈㅣ -4496
RE -4497
▁ㅍㅗㄱㄱㅕㄱ -4498
▁ㅇㅜㅅㅡ -4499
▁1997 -4500
▁ㅊㅜㄹㅏㄱ -4501
ㅊㅏㅈ -4502
50 -4503
▁ㅈㅏㄴㅡㄴ -4504
ㅉㅣ -4505
▁ㅌㅔㅇㅣ -4506
▁De -4507
▁ㄱㅕㅇㅇㅕㅇ -4508
▁Te -4509
ㅁㅅㅐ -4510
ㅂㅣㅅㅡ -4511
▁ㅇㅏㅁㅜㄹㅓㄴ -4512
▁ㅅㅣㅁㄹㅣ -4513
▁ㅅㅣㄴㄱㅠ -4514
▁ㅅㅣㅁㅍㅏㄴ -4515
▁ㄴㅗㅎㅊㅣ -4516
ㄷㅠㅅㅓ -4517
▁ㅍㅡㄹㅗㄷㅠㅅㅓ -4518
ㅅㅡㅌㅣㅇ -4519
▁ㅅㅗㅊㅗㅇ -4520
▁ㅈㅏㄶㅇㅏ -4521
ㄷㅜㅇㅇㅣ -4522
▁ㅇㅕㅇㅇㅓㅂ -4523
▁ㄱㅏㄹㄷㅡㅇ -4524
▁ㅇㅏㅇㅣㅅㅡ -4525
▁ㄱㅓㅈㅣㅅㅁㅏㄹ -4526
▁ㅋㅣㄴ -4527
ㅁㅣㅇ -4528
▁MS -4529
▁ㅎㅏㅅㅜㅇㅣㄴ -4530
se -4531
▁ㅁㅏㅇㅣㅋㅡ -4532
▁ㅇㅣㄹㅅㅏㅇ -4533
▁ㅌㅏㄴㅇㅑㄱ -4534
ㅇㅓㄹㅣ -4535
▁ㅍㅗㄱㅈㅜ -4536
▁ㄱㅖㅅㅡㅇ -4537
ㅏㅈㅣㄹ -4538
one -4539
ㅎㅣㄹㅗ -4540
ㅂㅜㅌㅇㅣ -4541
▁ㅌㅔㅅㅡㅌㅡ -4542
ㅎㅠ -4543
ㄷㅡㄹㅏ -4544
▁ㅇㅚㄱㅛ -4545
▁ㅎㅘㄴㅅㅏㅇ -4546
▁ㅂㅏㄴㅈㅣ -4547
▁ㅇㅕㄴㅇㅐ -4548
ㅈㅡㄹ -4549
▁ㄱㅗㅈㅓㄴ -4550
▁ㅁㅔㅇㅣㅈㅓ -4551
▁ㅎㅏㄱㅅㅏㄹ -4552
ㄱㅕㄴㅏ -4553
▁ㅇㅛㄱㅚ -4554
▁ㅂㅡㄹㅏㅈㅣㄹ -4555
▁ㅇㅏㅌㅡ -4556
▁ㅂㅜㄱㅁㅣ -4557
▁ㅅㅏㅇㅑㅇ -4558
▁ㅅㅏㅇㅈㅓㅁ -4559
▁ㅇㅓㄴㅈㅔㄴㅏ -4560
ㅔㅇㅓ -4561
▁Be -4562
▁ㅂㅗㅅㅓㄱ -4563
▁ㅆㅓㄹ -4564
▁ㅁㅏㄹㅕㄴ -4565
▁ㅇㅣㅂㄹㅕㄱ -4566
▁ㅅㅣㄱㅏㄱ -4567
▁ㄱㅗㅇㅎㅏㄱ -4568
▁ㅎㅔㄴ -4569
ㅅㅔㄹ -4570
▁ㅂㅕㄴㅎㅕㅇ -4571
▁ㅇㅣㄷㅡㄱ -4572
▁83 -4573
▁ㅍㅗㄱㄹㅕㄱ -4574
ㅡㅂㅏ -4575
▁ㅈㅔㅂㅓㅂ -4576
ㅍㅓㅅㅡ -4577
▁ㅇㅖㅅㄴㅏㄹ -4578
▁ㅁㅏㄴㄷㅡㄴ -4579
▁ㄷㅓㅅ -4580
▁ㅁㅏㅈㅅㅓ -4581
▁ㅌㅐㅇㅋㅓ -4582
▁ㅎㅕㄱㅁㅕㅇ -4583
▁ㅇㅠㄹㅕㅇ -4584
▁ㅂㅜㄹㅍㅕㄴ -4585
▁ㄱㅡㄹㅐㅍㅣㄱ -4586
▁ㅈㅔㅈㅏㄱㅈㅣㄴ -4587
▁ㅌㅗㅇㅅㅏㅇ -4588
▁ㅁㅓㅅㅣㄴ -4589
▁ㄱㅡㄱㅗㅅ -4590
▁ㅈㅏㄱㄷㅗㅇ -4591
ㅌㅗㅂ -4592
▁ㅁㅜㄲ -4593
▁KT -4594
▁ㄹㅣㅅㅡㅌㅡ -4595
▁ㄱㅗㄱㅛ -4596
ㄷㅗㅇㅜ -4597
▁ㅅㅏㅈㅏ -4598
▁ㅇㅏㄹㅇㅏ -4599
ust -4600
▁92 -4601
▁89 -4602
ㅣㄴㅣ -4603
▁ㅇㅖㅇㅚ -4604
▁ㄷㅗㅇㅇㅝㄴ -4605
▁ㅂㅡㄹㄹㅓ -4606
ㅇㅘ -4607
▁ㅇㅛㅇㅅㅏ -4608
▁ㄴㅡㄱㄷㅐ -4609
ㅐㄴㅅㅡ -4610
ㅠㅋㅣ -4611
▁ㅇㅐㅂ -4612
▁94 -4613
▁ㅇㅣㄹㅏㄴ -4614
▁ㅈㅓㄴㅌㅜㄱㅣ -4615
▁ㅈㅗㅅㅣㅁ -4616
▁ㅎㅟㄷㅜㄹㅡ -4617
ㅕㅇㅜㅁ -4618
▁ㅅㅡㅇㄱㅏㅇㅈㅏㅇ -4619
▁ㅇㅣㄹㅏ -4620
▁ㅎㅏㅅ -4621
▁ㄱㅗㅅㅐㅇ -4622
▁ㄱㅜㅎㅕㄴ -4623
▁ㅅㅜㅈㅣㅂ -4624
▁ㅁㅣㄴㄱㅏㄴ -4625
▁ㅅㅡㅌㅔ -4626
▁ㅅㅡㅁㅏㅌㅡ -4627
▁ㄴㅏㄹㅜ -4628
▁ㅍㅏㅇㅣㄹㄹㅓㅅ -4629
▁ㅌㅗㄹㅣ -4630
ㅈㅏㅋㅣ -4631
▁ㅎㅕㄴㅈㅣ -4632
▁ㅇㅕㄴㄷㅐ -4633
▁ㄲㅏㄲ -4634
ide -4635
▁ㅎㅏㄴㄱㅜㄱㅇㅣㄴ -4636
▁ㅍㅡㄹㅗㅍㅣㄹ -4637
▁ㅁㅏㄹㅣㅇㅗ -4638
▁ㄷㅣㅇㅏ -4639
ㅅㅏㄱㅘㄴ -4640
▁ㅌㅗㅇㅈㅔ -4641
▁ㄷㅐㅇㅜ -4642
▁ㄱㅓㅁㅅㅐㄱ -4643
▁ㅈㅣㄴㅈㅣ -4644
▁ㅍㅗㅌㅏㅂ -4645
▁79 -4646
▁ㅌㅓㅊㅣ -4647
▁ㅅㅓㅂㅜ -4648
▁ㅇㅝㅊㅣ -4649
▁Le -4650
▁ㅇㅣㅂㄱㅜ -4651
▁ㅅㅣㄴㅈㅏㅇ -4652
▁ㄱㅔㄴ -4653
ㄹㅔㅁ -4654
ㅎㅗㅅㅏ -4655
▁ㅊㅜㄴ -4656
▁ㅇㅣㄹㅈㅏ -4657
▁ㅅㅣㄴㅇㅣㄴ -4658
▁ㄷㅚㅊㅏㅈ -4659
▁ㅈㅣㄷㅐ -4660
▁ㅈㅗㅈㅗ -4661
▁ㄱㅕㅇㄱㅣㅈㅏㅇ -4662
ㅂㅗㄴㅐ -4663
▁ㅁㅗㅂㅏㅇㅣㄹ -4664
▁ㅈㅗㅈㅓㄹ -4665
▁Se -4666
▁ㅁㅣㄷㅣㅇㅓ -4667
▁ㅅㅏㅇㅣㅈㅡ -4668
▁93 -4669
▁ㅁㅓㅅㅈㅣ -4670
ity -4671
▁ㄷㅗㅇㅇㅕㅇ -4672
ㅉㅓㅇ -4673
▁ㅈㅓㄴㄷㅐ -4674
PG -4675
▁ㅇㅛㅈㅡㅁ -4676
▁ㅊㅏㄷㅏㄴ -4677
▁US -4678
▁ㅋㅗㄴㅅㅓㅌㅡ -4679
▁ㅂㅜㅇㅟ -4680
▁ㅍㅛㅈㅜㄴ -4681
▁ㅊㅐㅂㅌㅓ -4682
▁ㄹㅔㅇㅣㄴㅈㅓ -4683
▁ㅂㅗㅈㅏㅇ -4684
▁ㄱㅛㅈㅓㄴ -4685
▁ㅌㅡㄹㅣㄱ -4686
▁ㅍㅕㄴㅈㅣ -4687
▁ㅇㅡㅁㅂㅏㄴ -4688
▁ㅅㅜㅅㅗㅇ -4689
ㅈㅓㅎㅣ -4690
▁ㅅㅣㅎㅐㅇ -4691
OT -4692
▁ㅁㅔㅅㅣ -4693
▁ㅇㅓㅉㅐ -4694
▁ㅈㅓㅇㄹㅠㅈㅏㅇ -4695
▁ㄸㅢㅇㅜ -4696
▁ㄷㅗㅇㅂㅏㅇ -4697
▁ㅌㅗㄱ -4698
▁87 -4699
▁ㄷㅗㅂㅏㄹ -4700
ㅙㅈㅣ -4701
▁ㅍㅖㅈㅣ -4702
▁ㄱㅗㅇㅅㅏㄴ -4703
▁ㅁㅏㅈㅇㅣ -4704
▁ㅅㅠㅅ -4705
▁1996 -4706
▁ㅅㅡㅌㅗㅁ -4707
▁101 -4708
▁ㅅㅏㅇㅅㅏㅇ -4709
▁ㄷㅗㅇㅇㅕㅇㅅㅏㅇ -4710
▁ㄱㅓㅂ -4711
▁ㅎㅏㄴㅂㅏㅇ -4712
▁ㅇㅕㄴㄹㅏㄱ -4713
▁ㅂㅐㅊㅏ -4714
▁ㅍㅐㄴㅓㄹ -4715
▁ㄱㅣㅅㅡㅂ -4716
▁AI -4717
▁ㅌㅔㄹㄹㅔ -4718
▁ㅂㅗㄹㄴㅔㅅ -4719
▁ㄱㅏㅁㅅㅣ -4720
▁ㅇㅛㅇㅇㅓ -4721
▁1995 -4722
ere -4723
ㅂㅜㄱㄷㅗ -4724
▁MC -4725
ㅋㅡㄹㅣ -4726
▁DJ -4727
▁ㄱㅜㅊㅜㄹ -4728
▁ㅇㅡㅁㅅㅓㅇ -4729
AC -4730
▁ㅈㅏㅇㅣㅇㅓㄴ -4731
▁ㄷㅏㅁㅕㄴㅅㅓ -4732
▁ㅁㅓㅇ -4733
ㄷㅏㄱ -4734
▁ㅎㅗㅍㅕㅇ -4735
ㄲㅏㄹ -4736
ㅗㄹㅜ -4737
▁ㅇㅕㄴㅂㅏㅇ -4738
▁ㅋㅜㄹㅗ -4739
▁ㄱㅐㄹㄹㅓㄱ -4740
▁ㄸㅗㄱㄱㅏㅌㅇㅣ -4741
▁ㅎㅡㅇㅎㅐㅇ -4742
▁ㄱㅡㅊㅣ -4743
▁ㄱㅣㄹㄷㅡ -4744
▁ㅌㅐㅇㅜ -4745
▁ㄱㅣㅁㅈㅓㅇ -4746
▁ㄹㅜㅌㅏ -4747
▁ㅌㅡㄱㅎㅘ -4748
▁ㅈㅓㅇㅂㅗㄱ -4749
▁ㅎㅜㅁㅊㅣ -4750
▁On -4751
▁ㅁㅏㄴㅑㅇ -4752
▁ㄷㅗㄷㅏㄹ -4753
▁ㅅㅡㅌㅣ -4754
age -4755
▁ㄴㅏㅌㅏㄴㅐ -4756
▁ㅎㅡㅁ -4757
▁ㅅㅡㅌㅐ -4758
▁ㅇㅣㄴㅏㄹ -4759
▁ㄷㅣㄴ -4760
▁ㅊㅜㅈㅣㄴ -4761
▁ㄴㅑㅁㅕ -4762
▁ㅅㅔㅇㅝㄹ -4763
▁ㄱㅖㅈㅓㅇ -4764
▁ㅂㅓㄴㄱㅐ -4765
▁ㄷㅗㅅㅓㄱㅘㄴ -4766
▁ㅇㅓㄲㅐ -4767
▁ㅂㅗㄹㅌㅡ -4768
▁ㅇㅏㄱㅏ -4769
▁ㅁㅏㅅㅏ -4770
▁ㅇㅕㄴㄱㅘㄴ -4771
▁ㅅㅐㄴ -4772
▁ㄸㅓ -4773
▁ㄱㅏㅇㅊㅓㄹ -4774
ㅎㅐㄱ -4775
▁ㅇㅣㄱㅅㅜㄱ -4776
▁ㅁㅜㄹㅛ -4777
▁ㄱㅕㄹㅅㅡㅇㅈㅓㄴ -4778
ㅍㅔㄱㅌㅡ -4779
▁ㄹㅏㅇㅣㅍㅡ -4780
▁ㅅㅣㄴㅁㅜㄴ -4781
▁ㅌㅗㅂ -4782
▁ㅈㅣㅎㅟㄱㅘㄴ -4783
ㅁㅓㄹㅣ -4784
▁ㅈㅓㄴㄷㅏㄹ -4785
▁ㄹㅔㅇㅣㄷㅡ -4786
▁ㄴㅗㅇㅖ -4787
▁ㅋㅕ -4788
▁ㅈㅏㅁㅅㅜ -4789
▁ㅇㅞㄴㅁㅏㄴ -4790
▁ㄱㅡㄱㄷㅏㄴ -4791
▁ㅅㅏㅁㅈㅣㄴ -4792
▁ㄱㅓㅌ -4793
▁ㅅㅣㄴㅂㅜㄴ -4794
▁ㄷㅗㅁㅏㅇㄱㅏ -4795
▁ㅈㅗㅊㅣ -4796
▁ㄱㅏㅅㅏㅇ -4797
▁ㅎㅑㅇㅅㅏㅇ -4798
▁@ -4799
▁ㅁㅜㄹㅡ -4800
ㅜㄹㅕ -4801
▁ㄱㅗㅎㅑㅇ -4802
▁ㅎㅐㄴㄷㅡ -4803
▁ㅈㅗㅇㅇㅣ -4804
▁..... -4805
▁ㅈㅓㄴㅈㅣㄱ -4806
ㅔㄴㅏ -4807
▁ㅊㅓㅁ -4808
ㅅㅡㅌㅏㄴ -4809
▁ㅇㅑㅇㅅㅏㄴ -4810
ㅁㅔㄷㅏㄹ -4811
▁ㅇㅏㅅ -4812
▁ㅌㅗㅁ -4813
▁ㄱㅡㄷㅗㅇㅇㅏㄴ -4814
ㅅㅡㅌㅣ -4815
▁ㅊㅜㄹㄹㅕㄱ -4816
▁ㅂㅣㄹㄷㅡ -4817
▁ㅁㅛㅈㅣ -4818
▁ㅎㅘㄴㅈㅏ -4819
▁ㅅㅠㅌㅡ -4820
▁ㅅㅣㄴㅅㅓㅇ -4821
▁ㅈㅜㅅㅗ -4822
▁ㄴㅓㅁㅊㅣ -4823
▁ㄴㅗㅊㅜㄹ -4824
▁ㅋㅡㄹㄹㅗ -4825
▁ㅂㅣㅊㄴㅏ -4826
▁ㅅㅣㄴㄱㅣ -4827
▁ㅅㅡㅋㅣ -4828
▁ㄷㅗㅇㅈㅏㄱ -4829
ㅅㅗㄴㅕ -4830
▁ㅂㅏㄱㄱㅡㄴ -4831
▁ㅇㅏㅅㅣ -4832
ㅇㅓㄷㅗ -4833
▁ㅂㅔㄹㅡ -4834
▁ㅅㅏㅌㅗ -4835
▁ㅈㅏㅇㄱㅛ -4836
▁ㅈㅓㄴㅇㅕㄱ -4837
▁ㅈㅣㄴㅅㅣㅁ -4838
▁ㅂㅗㄱㅈㅏㅂ -4839
▁ㅋㅓㄹㅣ -4840
▁ㅌㅣㅁㅇㅝㄴ -4841
▁ㅈㅔㅈㅏ -4842
▁ㅊㅔㄹ -4843
▁ㅅㅡㅌㅠ -4844
ㅌㅡㄴㅓ -4845
▁ㄱㅏㅅㅗㄱ -4846
▁ㅈㅏㅊㅣ -4847
▁ㅈㅓㄱㅇㅓㄷㅗ -4848
▁ㅂㅗㅅ -4849
▁ㅎㅘㄴㅅㅡㅇ -4850
▁ㅇㅣㅁㅁㅕㅇ -4851
▁ㄱㅡㄹㅈㅏ -4852
▁ㄱㅏㄱㅔ -4853
▁ㅇㅏㄹㄹㅔㄱ -4854
▁ㅋㅙ -4855
▁ㄹㅔㅇㅣㅅㅡ -4856
qu -4857
▁ㅂㅜㅁㅜㄴ -4858
ㅊㅔㄹㅗ -4859
▁ㅅㅗㄴㅣㄱ -4860
▁px -4861
▁ㄴㅗㅇㄱㅜ -4862
▁ㅅㅔㅇㅣㅂㅡ -4863
ㅈㅗㄹㅣ -4864
▁ㄴㅐㅅㅓㅇ -4865
▁ㄹㅓㄱ -4866
ㅡㄴㅔ -4867
▁ㅇㅣㅂㄷㅏㄴ -4868
ㅔㄷㅡ -4869
▁ㄹㅣㅇㅏ -4870
▁ㅈㅓㄹㅁㅏㅇ -4871
▁DLC -4872
ood -4873
ㅆㅡㄹ -4874
▁ㄴㅣㅅㅣ -4875
▁ㅍㅡㄹㅣㄴ -4876
▁ㅋㅓㅍㅡㄹ -4877
▁ㄷㅐㅊㅔㄹㅗ -4878
▁ㅅㅓㅇㄱㅘ -4879
▁AK -4880
▁ㅊㅏㄹㅣ -4881
▁ㅎㅐㅊㅔ -4882
▁ㅂㅏㄴㅎㅏ -4883
▁ㅊㅗㅊㅏㅇ -4884
▁ㄱㅣㅂㅕㅇ -4885
ㅍㅗㄹ -4886
▁ㅅㅓㅇㅂㅕㄹ -4887
ㅌㅏㅁ -4888
▁ㅎㅐㅁ -4889
▁ㅁㅏㅇㅊㅣ -4890
▁ㄱㅏㄴㅂㅜ -4891
▁ㅇㅏㅃㅏ -4892
▁ㄹㅜㅅㅣ -4893
▁ㅁㅕㅇㅈㅜㅇㄹㅠㄹ -4894
ㅓㅂㅗ -4895
▁ㅌㅡㄹㄹㅣ -4896
▁ㄱㅜㅅㅗㄱ -4897
▁THE -4898
BO -4899
▁ㅊㅏㄱㄱㅏㄱ -4900
▁ㅍㅔㅇㅣㅈㅡ -4901
ㅏㄴㅅㅐㄱ -4902
▁ㅇㅓㅆㅇㅓㅆ -4903
▁ㅇㅕㅇㅠ -4904
ㅋㅓㅁ -4905
▁ㅈㅔㅇㅣ -4906
▁MVP -4907
▁ㄴㅓㅁㅜㄴㅏ -4908
▁ㅋㅐㅁㅍ -4909
▁ㅁㅏㄱㅊㅏ -4910
▁ㅊㅏㄹㅏㄹㅣ -4911
▁ㅈㅓㄴㅅㅣ -4912
▁ㄱㅡㄴㅇㅠㄱ -4913
▁ㅇㅗㄹㅗ -4914
▁ㅂㅡㄹㅔㅇㅣㅋㅡ -4915
▁ㄹㅓㅅㅣ -4916
▁ㄱㅐㄹㄹㅓㄱㅅㅣ -4917
▁ㅅㅜㅇㅕㅇ -4918
▁ㅇㅕㄴㄱㅜㅅㅗ -4919
▁ㅎㅔㅇㅣ -4920
▁ㅇㅠㄱㅅㅓㅇ -4921
ㄷㅏㄷ -4922
▁ㅃㅏㄱ -4923
▁ㅂㅏㄹㅁㅐㄷㅚ -4924
▁ㅂㅏㅇㅣㄹ -4925
▁Wh -4926
▁ㅈㅜㅇㅎㅘ -4927
IS -4928
▁ㅇㅣㅁㅅㅣ -4929
▁ㅇㅜㄹㅌㅡㄹㅏ -4930
are -4931
▁ㅍㅏㄹㅣ -4932
▁ㅅㅡㅍㅏ -4933
▁ㄱㅗㅂㅐㄱ -4934
▁ㄱㅕㅇㄱㅗ -4935
▁CC -4936
PM -4937
▁ㄷㅐㄹㅑㅇ -4938
▁ㅇㅡㄴㅣㄲㅏ -4939
▁ㅇㅠㅇㅎㅏㅂ -4940
▁ㄱㅗㅇㅈㅣ -4941
▁ㄱㅐㅌㅗㅇ -4942
ㅇㅗㅍㅡ -4943
ㄲㅡㄹㅓㅂ -4944
▁ㄹㅣㅁㅔㅇㅣㅋㅡ -4945
▁ㅂㅜㄴㄱㅣ -4946
▁ㄱㅏㅇㅇㅝㄴ -4947
▁ㅊㅏㅁㅈㅓㄴ -4948
▁1994 -4949
▁ㅎㅏㅍㅣㄹ -4950
▁ㄱㅡㄹㄹㅗ -4951
▁ㄸㅏㄴ -4952
▁ㅁㅜㄹㅈㅣㄹ -4953
▁ㅇㅏㄲㅣ -4954
▁ㅇㅣㄴㅈㅡㅇ -4955
▁$ -4956
▁ㄱㅠㅊㅣㄱ -4957
▁ㄷㅏㅇㅣㅇ -4958
▁ㅇㅢㄹㅚ -4959
▁ㅕㅆ -4960
▁ㅋㅏㅇㅗㅅㅡ -4961
▁ㄷㅐㄷㅐ -4962
ㅈㅏㅁ -4963
▁ㅇㅣㄴㅇㅕㄴ -4964
▁ㅅㅏㅇㅣㄷㅡ -4965
▁ㅁㅜㄷㅎㅣ -4966
▁1980 -4967
ㄹㅡㅇ -4968
ㅈㅓㄴㅈㅏ -4969
▁ㅁㅏㄱㅜ -4970
▁ㅊㅗㅊㅏㅇㄱㅣ -4971
▁ㄴㅏㄹㅉㅏ -4972
▁ㅈㅣㄴㅡㅇ -4973
ㅋㅏㅇㅣ -4974
▁ㅁㅓㄱㅎㅣ -4975
▁ㅎㅕㅂㅎㅚ -4976
▁ㄱㅔㅅㅡㅌㅡ -4977
▁ㄱㅜㅊㅔ -4978
▁ㅅㅡㅋㅏㅇㅣ -4979
▁ㅇㅏㄱㅣ -4980
▁ㅈㅓㅁㅊㅏ -4981
▁ㅊㅏㅇㅈㅗ -4982
▁ㅁㅜㄴㅈㅏㅇ -4983
▁ㄱㅡㄹㅏㅇ -4984
OM -4985
▁ㄲㅣㅊㅣ -4986
ㄴㅕㅇ -4987
▁ㅂㅜㄴㄹㅑㅇ -4988
▁ㄱㅏㄹㅑㅇ -4989
▁ㅁㅗㅈㅏ -4990
ㄹㅣㅇㅗㄴ -4991
▁ㅇㅘㅇㅣ -4992
▁ㅅㅗㅎㅘ -4993
ob -4994
▁ㅊㅓㅇㄴㅕㄴ -4995
▁ㅇㅏㄱㅇㅕㄱ -4996
▁700 -4997
ㅏㅇㅛ -4998
▁ㄱㅗㅇㅛㅇ -4999
▁ㅅㅣㄷㅡ -5000
▁ㄱㅡㄷㅐ -5001
▁ㅍㅓㄹ -5002
▁ㅋㅐㄹㅣ -5003
▁ㅇㅢㅎㅗㄱ -5004
▁ㄴㅜㅈㅓㄱ -5005
▁ㅇㅣㄴㅐ -5006
▁ㄷㅐㄹㅣㅂ -5007
▁Tr -5008
ㄹㄹㅓ -5009
▁ㄱㅏㅅㅣ -5010
▁ㅇㅓㄷㅜㅂ -5011
▁ㅈㅏㅈ -5012
▁ㅎㅏㅂㄱㅕㄱ -5013
▁ㄱㅣㅁㅇㅕㅇ -5014
▁ㅎㅚㅇㅝㄴ -5015
ock -5016
▁ㄸㅓㅇㅗㄹㄹㅣ -5017
ㅅㅛ -5018
▁ㅂㅏㄴㅂㅏㄹ -5019
▁ㅊㅏㅈㅇㅏㅂㅗ -5020
▁ㅇㅣㄴㅅㅜ -5021
▁ㅅㅣㄱㅅㅏ -5022
▁ㅎㅕㅂㅂㅏㄱ -5023
▁ㅇㅕㅈㅣ -5024
▁ㅍㅔㄹㅡ -5025
▁ㄱㅟㅅㅣㄴ -5026
▁ㄴㅗㄱㅇㅡㅁ -5027
▁ㅇㅏㄹㅍㅏ -5028
▁ㅎㅏㅂㅊㅔ -5029
▁ㅌㅜㄱㅜ -5030
▁ㄱㅓㄴㄴㅓ -5031
▁ㅌㅡㄹㅔㅇㅣㄴ -5032
▁ㅇㅠㅇㅣ -5033
ake -5034
▁ㅁㅐㄴㅣ -5035
▁ㄱㅏㅁㅇㅗㄱ -5036
▁ㄷㅜㄷㅡㄹ -5037
▁ㅇㅣㄹㅣ -5038
▁ㅇㅟㅈㅏㅇ -5039
▁'' -5040
▁ㄱㅕㄹㄹㅗㄴ -5041
▁ㅇㅣㅁㅕㅇ -5042
▁ㅇㅏㄴㅣㅁㅕㄴ -5043
ect -5044
our -5045
▁ㅃㅕ -5046
OW -5047
ㄹㄹㅣㄴ -5048
▁ㄲㅗㄹㅣ -5049
ㅌㅡㄹㅗ -5050
▁ㅎㅗㄱㅏㅁ -5051
ㅋㅡㄹㅗ -5052
▁ㄴㅡㄴㄷㅏㅁㅕㄴ -5053
▁ㅍㅏㅌㅡㄴㅓ -5054
ass -5055
▁ㄱㅗㄷㅂㅏㄹㅗ -5056
▁he -5057
▁ㅇㅓㅉㅐㅆ -5058
oy -5059
▁ㅍㅣㄱㅕㄱ -5060
▁ㅈㅏㅁㅐ -5061
▁ㄱㅔㅅㅣㅍㅏㄴ -5062
▁FI -5063
▁ㅊㅜㄹㅍㅏㄴ -5064
▁ㅆㅓㅁㅓㄱ -5065
ire -5066
▁ㅇㅚㄱㅖ -5067
▁ㅎㅏㄱㅗ -5068
▁ㅌㅜㄱ -5069
▁ㄸㅓㅇㅗㄹㅡ -5070
▁ㅎㅚㅅㅏㅇ -5071
▁ㄱㅏㅇㅇㅢ -5072
▁ㅇㅞㅂㅌㅜㄴ -5073
▁ㅂㅠ -5074
▁ㄱㅕㅇㅂㅣ -5075
▁ㅅㅣㄹㅂㅓ -5076
ark -5077
ㅁㅓㄴ -5078
▁ㅎㅜㅅㅗㄱㅈㅏㄱ -5079
▁ㅊㅏㅌㅡ -5080
▁ㄴㅏㅁㅂㅜ -5081
▁ㅋㅡㄹㅜ -5082
▁ㅇㅠㄹㅗ -5083
▁ㅊㅠ -5084
▁ㅌㅣㄹ -5085
▁ㅆㅓㄱ -5086
▁ㅅㅏㅁㄱㅜㄱㅈㅣ -5087
ㄷㅗㄹㅗ -5088
▁ㅈㅓㅇㅁㅕㄴ -5089
▁ㄲㅐㅈㅣ -5090
▁ㅎㅏㅂㅅㅓㅇ -5091
▁ㄱㅚㄹㅗㅂㅎㅣ -5092
ㄴㅣㄲㅏ -5093
▁ㅇㅖㅃㅡ -5094
ite -5095
▁ㅂㅔㅅㅡㅌㅡ -5096
▁ㅂㅡㄹㅔㅇㅣ -5097
▁ㅂㅜㅅㅓ -5098
ㅌㅏㅇㅣ -5099
▁ㅁㅗㅈ -5100
▁ㅇㅏㅁㅔㄹㅣ -5101
▁ㄱㅜㅁㅓㅇ -5102
ㅋㅙ -5103
▁ㅅㅏㅈㅔ -5104
▁ㄹㅐㅇㅋㅣㅇ -5105
▁ㄱㅣㅊㅗ -5106
▁ㄱㅡㄹㅔㅇㅣ -5107
▁ㅂㅣㅈ -5108
▁ㅂㅡㄹㄹㅣ -5109
▁ㅍㅕㄴㄱㅗㄱ -5110
▁ㅌㅗㄹㅗㄴ -5111
▁ㅊㅔㅍㅗ -5112
▁ㅂㅗㄴㅈㅏㄱ -5113
▁ㅅㅒ -5114
▁ㅌㅗㅇㅛ -5115
▁ㅋㅝㄹㄹㅣㅌㅣ -5116
▁ㅊㅜㄱㅈㅔ -5117
▁ㄱㅗㅇㄱㅡㅂ -5118
▁ㅁㅏㅇㅣㅋㅡㄹ -5119
▁ㅁㅏㄹㅜ -5120
▁ㅅㅜㄹㅕㄴ -5121
▁ㄱㅗㅁㅜㄴ -5122
▁ㄱㅜㄴㅏ -5123
▁ㅈㅓㄱㅡ -5124
▁ㄱㅐㅂㅏㅇ -5125
▁ㅇㅔㄷㅏ -5126
ah -5127
▁ㅇㅣㄴㄱㅗㅇ -5128
▁ㄷㅏㄴㅈㅏㅇ -5129
ㅈㅜㅅㅣ -5130
▁ㅎㅣㄷㅔ -5131
▁ㅂㅜㅂㅜ -5132
▁ㅇㅏㄴㄷㅡㄹㅗㅇㅣㄷㅡ -5133
▁FA -5134
▁ㅎㅚㅇ -5135
▁ㄷㅗㅇㅎㅘ -5136
▁SR -5137
▁wh -5138
▁ㅍㅡㄹㄹㅐㅅ -5139
ㅌㅡㄴㅏㅁ -5140
▁ㅅㅗㅎㅕㅇ -5141
▁ㄷㅏㅅㅓㅅ -5142
▁ㅅㅗㅇㅝㄴ -5143
▁ㅇㅡㄹㅕㄱ -5144
▁ㅁㅐㅊㅔ -5145
▁ㅅㅓㄲ -5146
▁ㅈㅓㄴㅁㅕㄴ -5147
▁ㅇㅗㄱㅏ -5148
▁ㅈㅜㅇㄷㅐ -5149
▁ㄹㅣㄷㅡㅁ -5150
▁ㄱㅕㅌ -5151
▁ㄷㅐㅍㅗㄱ -5152
FC -5153
ㅅㅓㅇㄱㅣ -5154
ES -5155
▁kt -5156
ㄱㅗㄱㅣ -5157
▁ㅅㅠㅌㅣㅇ -5158
▁Cl -5159
▁ㅇㅡㄹㅕㄱㅗ -5160
▁ㄹㅣㅊㅣ -5161
▁ㅇㅠㅎㅐㅇ -5162
▁ㄸㅡㄴ -5163
▁AR -5164
▁ㅇㅑㄴ -5165
▁ㅃㅐㅅ -5166
ㅏㄹㅡㅌㅡ -5167
▁ㅎㅐㅂㅕㅇ -5168
▁ㄱㅣㅁㄷㅗㅇ -5169
▁ㅇㅖㄴㅡㅇ -5170
▁ㅎㅘㄹㅅㅓㅇ -5171
ㅇㅠㅇ -5172
▁ㅌㅜㅇㅓ -5173
▁ㄱㅘㅁㅗㄱ -5174
ㅅㅡㅌㅓㄴ -5175
ㅡㄴㅗ -5176
UN -5177
▁ㅊㅗㄱㅏㄴ -5178
▁ㅍㅏㄱㅕㄴ -5179
▁ㅁㅜㄴㅎㅏㄱ -5180
▁ㄷㅐㄹㅑㄱ -5181
ㅂㅗㄷㅡ -5182
▁ㅇㅢㄹㅛ -5183
▁ㅁㅗㄱㄱㅕㄱ -5184
ㅓㄱㅡ -5185
▁ㅁㅐㅈㅣㄱ -5186
ㅇㅓㄴㅏㅇㅗ -5187
▁ㅍㅔㅅ -5188
▁ㅅㅔㅇㅣㅂㅓ -5189
▁ㅇㅜㅁㅈㅣㄱㅇㅣㅁ -5190
▁ㅅㅗㄴㄱㅏㄹㅏㄱ -5191
▁ㄴㅐㅈㅏㅇ -5192
▁ㅋㅓㅁㅐㄴㄷㅡ -5193
▁ㅇㅘㅇㅈㅗ -5194
▁ㅇㅏㅋㅡ -5195
▁ㅅㅣㅇㅟ -5196
▁ㅇㅣㄹㅅㅣ -5197
▁GT -5198
▁ㅎㅣㅂ -5199
▁ㅇㅕㄴㅌㅏ -5200
iz -5201
ound -5202
▁ㅈㅓㄱㄱㅜㄴ -5203
▁ㄱㅘㄴㅈㅜㅇ -5204
▁ㅍㅣㅅ -5205
▁ㄷㅏㄹㅎㅏ -5206
▁ㅇㅚㅎㅕㅇ -5207
▁ㄱㅏㄴㅎㅗㄱ -5208
▁ㄱㅡㅇㅈㅓㅇ -5209
▁ㅌㅗㄹㅡ -5210
▁ㅋㅓㅈㅣ -5211
▁ㅋㅓㄹㄹㅓ -5212
▁ㅈㅔㅇㅓ -5213
▁ㅍㅐㄴㄷㅓㅁ -5214
▁ㅇㅣㄹㅉㅣㄱ -5215
ㄷㅓㄴㄱㅏ -5216
▁ㅂㅏㅇㅟ -5217
▁ㄱㅜㅇㅝㄴ -5218
▁ㅂㅏㄱㄱㅡㄴㅎㅖ -5219
▁ㅇㅣㄹㅇㅝㄴ -5220
▁ㅎㅜㅅ -5221
ime -5222
▁ㅍㅡㄹㄹㅔㅇㅣㅇㅗㅍㅡ -5223
▁ㅂㅜㅈㅏㅇ -5224
▁ㅈㅓㅇㄱㅡㄹ -5225
▁ㅅㅣㄱㅁㅜㄹ -5226
▁ㄴㅗㄹㅇㅣ -5227
▁ㅎㅢㄱㅟ -5228
▁ㄴㅑㅇ -5229
▁ㄷㅔㅁㅗ -5230
▁ㄷㅏㄱㅏㅇㅗ -5231
▁ㅊㅚㅅㅗㅎㅏㄴ -5232
▁ㅇㅠㄱㅊㅔ -5233
▁my -5234
▁ㅍㅓㄴㅊㅣ -5235
▁ㅅㅏㅁㅏㄱ -5236
▁ㄷㅡㄹㅇㅓㅅㅓ -5237
▁ㄱㅣㅁㅁㅣㄴ -5238
▁SD -5239
▁ㅌㅜㄹ -5240
▁ㅅㅣㄹㄹㅣ -5241
▁PD -5242
▁ㄱㅜㄹㄹㅣ -5243
ㅅㅏㄱㅣ -5244
▁ㅇㅕㄴㅇㅣㄴ -5245
▁ㅅㅏㅇㅅㅓㅇ -5246
▁ㄴㅏㅇㅏㄱㅏ -5247
▁ㅇㅡㄴㄱㅡㄴㅎㅣ -5248
▁ㄷㅐㅊㅜㅇ -5249
ㄷㅜㄴ -5250
▁ㅎㅕ -5251
ㅋㅡㅅㅡ -5252
ㅜㅇㅑ -5253
▁ㄹㅔㅇㅗㄴ -5254
▁ㄹㅣㅇㅓㄹ -5255
LL -5256
▁ㄷㅜㅁ -5257
▁ㅂㅡㄹㄹㅗㄱㅡ -5258
▁Gr -5259
iv -5260
▁ㅈㅜㄴㅅㅜ -5261
▁ㄴㅓㄹㄹㅣ -5262
▁ㅆㅏㄱ -5263
ㄴㅡ -5264
▁ㅌㅏㅇㅣㄱㅓ -5265
▁ㄹㅜㄱ -5266
ㅅㅔㅇㅣ -5267
▁SC -5268
ㅈㅏㅂㅇㅣ -5269
ㅐㅅㅣ -5270
▁KIA -5271
▁ㅓㄷㅗ -5272
▁ㅍㅗㅅㅡㅌㅡ -5273
▁ㅌㅡㄹㅏㅇ -5274
▁Me -5275
▁ㄷㅐㅊㅓ -5276
▁ㅁㅔㄴㅌㅏㄹ -5277
▁ㅅㅜㅇㅛㅇ -5278
▁ㅈㅜㅁㅏㄹ -5279
▁ㅅㅓㄲㅇㅣ -5280
▁ㄴㅡㄴㅈㅣㄹㅏ -5281
▁ㄹㅣㅅ -5282
▁ㅇㅣㄴㄱㅡㄴ -5283
▁ㅂㅜㄹㅂㅓㅂ -5284
▁ㅇㅣㄹㄱㅕㄱ -5285
▁ㅇㅔㄹㅣ -5286
▁ㅁㅔㄴㅠ -5287
▁ㄷㅜㄱ -5288
ID -5289
▁ㄸㅓㄹㅇㅓ -5290
▁ㄴㄷㅏㅁㅕ -5291
ㄱㅡ -5292
▁ㄱㅏㄱㅈㅏ -5293
▁ㄲㅏㄷㅏㄹ -5294
▁ㅇㅖㅊㅡㄱ -5295
ㅣㄹㄹㅣ -5296
▁116 -5297
▁ㄱㅐㅊㅔ -5298
▁ㄷㅏㅇㅣㄴ -5299
▁ㅌㅡㄱㅈㅣㅂ -5300
▁ㅇㅣㅅㅡㄹㄹ -5301
▁ㅌㅓㄹㄹㅣ -5302
▁ㅎㅘㄴㅇㅕㅇ -5303
▁ㅈㅓㄴㅊㅓㄹ -5304
ㅋㅠㅇㅓ -5305
▁ㅂㅏㄱㅈㅓㅇ -5306
▁ㅈㅗㅅㅓㅇ -5307
▁ㄱㅗㄱㅁㅕㅇ -5308
▁ㅇㅕㅇㅌㅗ -5309
▁ㅇㅕㅇㅁㅜㄴ -5310
ㅈㅣㄱㅏㄴ -5311
▁ㅋㅓㅅㅡ -5312
▁ㄸㅡㄷ -5313
▁ㄴㅗㄹㄹㅏㅂ -5314
▁ㅁㅏㄹㅣㅇㅏ -5315
▁SM -5316
▁ㄷㅐㅈㅣ -5317
▁My -5318
▁ㅁㅓㄹㅉㅓㅇ -5319
▁ㄴㅜㄴㅏ -5320
▁ㄱㅣㅅㅏㄷㅏㄴ -5321
ㅁㅗㅌㅗ -5322
▁ㅇㅡㄹㅓ -5323
▁ㅋㅐㄴㅏㄷㅏ -5324
▁ㅂㅗㅇㅏㄴ -5325
ㅘㅇㅣ -5326
▁ㅍㅏㅋㅡ -5327
▁ㅎㅗㄹㄹㅗ -5328
▁ㄸㅏㄹㅏㄱㅏ -5329
OP -5330
▁ㄱㅜㄱㄱㅜㄴ -5331
▁ㄱㅓㄴㅊㅜㄱ -5332
▁ㅅㅗㅈㅜㅇ -5333
▁130 -5334
▁ㅇㅣㅈㅣ -5335
▁ㅅㅓㅇㅑㅇ -5336
▁ㅊㅣㅁㄱㅗㅇ -5337
▁ㅎㅕㅇㅅㅏ -5338
▁ㅇㅗㄹㅐㅅ -5339
▁ㄱㅣㅈㅓㄱ -5340
▁ㅇㅘㄹ -5341
▁ㅂㅐㅁ -5342
▁ㅅㅔㄱ -5343
ㅂㅔㄹㅡ -5344
▁ㅇㅝㄴㅂㅗㄴ -5345
▁ㅅㅗㅈㅣ -5346
ㅗㄹㅣ -5347
▁ㄱㅖㄷㅏㄴ -5348
▁ㄱㅏㅇㄴㅏㅁ -5349
▁ㅁㅏㅊㅡ -5350
ㄹㅔㅅㅡ -5351
ㄹㅗㄱㅡ -5352
▁ㅂㅏㅊㅣ -5353
ㄷㅓㅇㅜㄱ -5354
▁ㅈㅓㅂㅅㅗㄱ -5355
▁ㄱㅓㅇㅣㄴ -5356
▁ㄷㅓㄷㅓㅇㅜㄱ -5357
ㄹㅓㅁ -5358
ㄷㅣㅇㅓㄴ -5359
ㄲㅓㅂ -5360
▁ㅇㅏㅅㅏ -5361
▁ㅈㅜㅍㅗ -5362
▁ㅌㅟㅇㅓㄴㅏㅇㅗ -5363
▁ㄲㅏㅇ -5364
▁ㅌㅏㄴㅊㅏㅇ -5365
▁ㅇㅓㄹㅡㄴ -5366
▁ㅍㅣㅂㅜ -5367
▁Pr -5368
▁ㄱㅕㄹㅁㅏㄹ -5369
▁{{ -5370
▁ㅎㅗㅌㅔㄹ -5371
▁ㅋㅏㄹㅡ -5372
▁ㄱㅣㄷㅗㄱ -5373
▁ㅈㅓㅇㅊㅏㄹ -5374
▁ㅈㅣㄷㅗㅈㅏ -5375
▁ㅆㅢ -5376
ge -5377
▁ㅈㅘㅇㅜ -5378
▁ㅁㅕㄴㅇㅕㄱ -5379
ㅣㄲㅏ -5380
ㅜㅇㅣ -5381
▁ㅈㅚㄷㅏ -5382
▁ㅎㅓㄴㅏ -5383
ㄷㅔㅅㅡ -5384
▁ㅊㅓㅂㅓㄹ -5385
▁ㅇㅣㄱㅅㅡ -5386
▁ㅇㅏㄹㅇㅏㅂㅗ -5387
▁ㄲㅏㄷㅏㄹㅗㅂ -5388
▁ㅇㅐㄱㅌㅣㅂㅡ -5389
▁ㅁㅣㅇㅏㄴ -5390
▁ㄱㅗㄹㄷㅡㄴ -5391
▁ㄷㅐㅎㅏㅇ -5392
▁ㄱㅏㄷㅎㅣ -5393
▁ㅅㅣㄴㄹㅏ -5394
▁ㅅㅣㅅㅓㄴ -5395
▁ㅅㅣㄴㅐㅂㅓㅅㅡ -5396
ㅅㅣㅋㅗ -5397
▁{{{ -5398
▁ㅂㅏㄴㅅㅏ -5399
▁ㅁㅜㅈㅣ -5400
▁ㄷㅐㄹㅣ -5401
▁ㅎㅓㄱ -5402
▁ㅁㅔㄹㅡ -5403
▁ㅋㅗㅇㅜ -5404
▁https -5405
▁ㅁㅗㅁㅗ -5406
▁ㅈㅓㄹㄷㅐㄹㅗ -5407
▁ㅎㅜㄱㅣ -5408
▁ㅎㅏㄱㅂㅜ -5409
▁ㅎㅕㄴㅇㅕㄱ -5410
▁ㄱㅡㄹㅏ -5411
ㅓㅂㅡㄹ -5412
▁ㅊㅣㅇㅜ -5413
▁BE -5414
▁ㅇㅡㅁㅇㅝㄴ -5415
▁ㅇㅣㄹㅐ -5416
▁ㅅㅣㄱㄷㅏㅇ -5417
▁ㅈㅏㄱㅎㅘ -5418
▁ㄱㅚㅅㅜ -5419
ㅌㅡㅁㅐㄴ -5420
▁ㅉㅏㄹ -5421
ax -5422
ome -5423
▁ㅅㅏㅇㄷㅏㅇㅅㅜ -5424
▁ㅇㅣㅅㅣ -5425
ㅁㅍㅏㅇㅣㅇㅓ -5426
▁ㅋㅏㄴㅏ -5427
▁ㄲㅐㄷㅏㄷ -5428
▁ㅌㅗㅁㅗ -5429
▁ㄱㅘㅇㅕㄴ -5430
▁ㅅㅣㄱㅖ -5431
ㄷㅏㄹㅏ -5432
▁ㅇㅔㅅㅓㅂㅜㅌㅓ -5433
▁ㅎㅐㅈㅓㄱ -5434
▁ㅇㅓㄸㅓ -5435
▁ㅊㅟㅁㅣ -5436
ㅉㅓㄱ -5437
▁ㅈㅐㅁㅣㅇㅣㅆ -5438
▁ㄷㅐㄱㅏ -5439
▁ㅈㅓㄴㅕㄱ -5440
▁ㅋㅐㅅㅡㅌㅣㅇ -5441
▁ㄷㅗㅇㅂㅜ -5442
▁ㄴㅔㄷㅓㄹ -5443
▁ㅇㅣㄹㄱㅣ -5444
▁ㅂㅓㅅㅡㅌㅓ -5445
▁DF -5446
▁ㅈㅓㄴㅁㅜㄴㄱㅏ -5447
▁ㅅㅐㅂㅕㄱ -5448
ance -5449
▁ㄱㅗㅅㅡㅌㅡ -5450
▁ㅈㅓㄴㅈㅣㄴ -5451
▁ㅍㅡㄹㅣㅋㅠㅇㅓ -5452
uc -5453
ㅇㅡㅂ -5454
▁ㄲㅗㅈ -5455
▁ㅈㅜㄱㅏㄴ -5456
▁ㄱㅘㅈㅔ -5457
ㅜㅇㅏ -5458
▁ㅎㅗㅈㅜ -5459
▁ㄱㅗㅁㅏ -5460
ㄹㅕㅈㅜ -5461
▁ㅋㅏㅅㅡ -5462
▁ㄹㅏㅇㅣㄴㅇㅓㅂ -5463
ick -5464
▁MF -5465
▁ㅁㅗㅈㅏㄹㅏ -5466
▁ㄱㅗㅈㅣ -5467
▁ㅂㅜㄷㅣ -5468
▁ㄷㅏㅅ -5469
▁ㅇㅓㄹㅣㄴㅇㅣ -5470
▁ㅎㅏㄴㄷㅗㅇㅇㅏㄴ -5471
▁ㅂㅣㅇㅏ -5472
▁ㅂㅣㅎㅐㅇㄱㅣ -5473
▁ㅇㅏㅌㅣㅅㅡㅌㅡ -5474
▁ㅇㅕㄹㅅㅚ -5475
▁ㅈㅏㄱㅡㅁ -5476
▁ㅎㅏㄴㅂㅓㄴ -5477
▁ㄹㅔㅇㅗ -5478
ㄲㅡ -5479
▁Pl -5480
ㅋㅓㅅ -5481
▁ch -5482
ㄷㅏㅇㅣ -5483
▁ㅇㅖㅅㅣ -5484
▁ㄱㅓㅁㅊㅏㄹ -5485
▁ㅍㅡㄹㄹㅏ -5486
▁ㅎㅏㅇㅑㅎ -5487
▁ㅎㅏㄴㅊㅏㅁ -5488
▁ㅊㅗㅇㅅㅓㄴ -5489
▁ㅂㅏㅇㅈㅣ -5490
▁ㅅㅣㄴㅎㅗ -5491
▁ㅇㅑㅁ -5492
▁ㅊㅓㅅㅊㅏ -5493
▁HD -5494
▁ㅅㅡㅇㄱㅕㄱ -5495
▁ㄲㅓㄲ -5496
10 -5497
▁ㅇㅛㅇㄱㅣ -5498
▁\ -5499
ix -5500
MA -5501
▁ㅇㅜㅇㅟ -5502
▁WW -5503
▁ㅇㅣㄱㅎㅣ -5504
▁ㅌㅡㄹㅔㅇㅣㄷㅡ -5505
▁ㅌㅡㄹㅓㄱ -5506
ord -5507
▁ㅇㅏㅂㅏ -5508
mer -5509
▁ㅇㅢㅁㅜ -5510
▁ㅌㅡㅇㅟㄴ -5511
▁ㅍㅏㅊㅡ -5512
▁ㄱㅕㅇㄱㅣㄹㅕㄱ -5513
▁ㅌㅔㅋㅡ -5514
ㄱㅘㅇㅇㅕㄱㅅㅣ -5515
▁ㅁㅏㄹㅣㄴ -5516
▁?? -5517
▁ㅂㅗㄱㅗ -5518
▁ㅌㅏㅋㅔ -5519
▁ㅇㅣㅅㅡㄹㄹㅏㅁ -5520
▁ㅂㅕㄹㄷㅏㄹㅡ -5521
▁ㅇㅓㅈㅣㄱㅏㄴ -5522
▁ㅎㅓㄹㅣ -5523
▁ㄱㅗㅅㅜ -5524
ㅋㅏㄷㅡ -5525
▁ㅈㅓㅈㅏㅇ -5526
▁ㅇㅏㄴㄱㅕㅇ -5527
▁ㅇㅑㅇㅉㅗㄱ -5528
▁ㄷㅗㅇㄱㅜㄹ -5529
▁ㅅㅡㅌㅏㅋㅡㄹㅐㅍㅡㅌㅡ -5530
ㄱㅏㅎ -5531
▁ㅋㅐㅁㅍㅓㅅㅡ -5532
▁160 -5533
ure -5534
▁ㅎㅘㅈㅔ -5535
ㅇㅗㄹㅣ -5536
▁ㅎㅏㄹㅇㅏㅂㅓㅈㅣ -5537
▁ㅊㅓㄴㅈㅐ -5538
▁ㄱㅐㅅㅓㅇ -5539
▁ㅇㅣㅁㅏ -5540
▁ㄴㅗㅇㄷㅏㅁ -5541
▁ㅁㅜㄹㄹㅓㄴㅏ -5542
▁ㅇㅓㅉㅐㅆㄷㅡㄴ -5543
▁ㄷㅣㅈㅣㅌㅓㄹ -5544
▁ㅋㅐㅁㅍㅔㅇㅣㄴ -5545
▁GB -5546
▁ㅌㅗㄲㅣ -5547
▁ㅋㅐㅂㅌㅣㄴ -5548
▁ㅋㅡㄹㅣㅅㅡㅁㅏㅅㅡ -5549
▁ㅊㅓㅇㅅㅗㄴㅕㄴ -5550
▁ㅅㅏㅇㄱㅡㅂ -5551
▁ㄲㅗㅂㅎㅣ -5552
▁ㅅㅡㅌㅏㄹ -5553
▁ㄱㅐㅈㅓㅇ -5554
▁ㅇㅣㅅㅡㄹ -5555
▁ㄱㅏㄹㅅㅜㄹㅗㄱ -5556
▁ㅁㅜㄷㅓㅁ -5557
▁ㅇㅕㅇㅎㅑㅇㄹㅕㄱ -5558
ㅌㅡㄱㅂㅕㄹ -5559
▁ㄷㅙㅈㅣ -5560
▁with -5561
▁OST -5562
▁ㄹㅣㅇㅗㄴ -5563
▁ㅁㅏㅊㅣㅁㄴㅐ -5564
▁1992 -5565
▁ㅇㅗㄹㅐㅅㄷㅗㅇㅇㅏㄴ -5566
▁ㅈㅗㅇㅓㄴ -5567
ㄱㅗㄹㅣ -5568
▁ㅇㅣㅇㅕㅇ -5569
▁ㅇㅏㅇㅣㅋㅗㄴ -5570
▁ㅇㅠㅎㅢㅇㅘㅇ -5571
▁ㅅㅣㄴㅂㅣ -5572
▁ㅇㅜㅅㅇㅡㅁ -5573
▁ㅇㅏㄴㄴㅐ -5574
▁ㅂㅏㅇㅊㅜㄹ -5575
▁ㅎㅗㅇㅟ -5576
▁ㅁㅣㅅㅜㄹ -5577
ㅁㅏㄷㅣ -5578
ㅇㅡㄹ -5579
▁ㅇㅣㄴㅈㅣㄷㅗ -5580
▁ㅁㅏㅇㅣㄴㅓ -5581
▁ㅂㅏㅋㅟ -5582
▁ㄴㅡㄹㅏ -5583
▁ㅋㅡㄹㄹㅐㅅㅣㄱ -5584
▁ㄹㅗㅈㅡ -5585
▁KO -5586
▁1993 -5587
▁ㄷㅡㄹㅏ -5588
▁ㅇㅗㄹㅎㅐ -5589
ud -5590
▁ㅎㅏㄹㅏㄱ -5591
ㅗㄹㄹㅣㄱ -5592
▁ㅎㅠㄷㅐ -5593
ㅂㅣㅇㅏ -5594
▁ㄱㅘㄱ -5595
▁ㄱㅗㄹㅣ -5596
▁ㅇㅕㄴㄹㅛ -5597
▁ㅈㅏㅇㅇㅏㄱ -5598
▁ㄱㅜㄱㅇㅓ -5599
▁ㅃㅐㅇㅏㅅㄱㅣ -5600
▁ㅈㅜㅇㄷㅗㄱ -5601
▁ㄱㅡㄱㅂㅗㄱ -5602
▁ㅁㅜㅈㅏㄱ -5603
▁ㅇㅝㄴㅅㅗ -5604
▁ㅈㅓㅂㅊㅗㄱ -5605
▁ㅈㅓㅇㅇㅝㄴ -5606
▁ㅋㅡㄹㄹㅣㄱ -5607
▁ㅇㅢㅈㅗㄴ -5608
▁ㅈㅓㄱㄷㅐ -5609
▁ㅇㅝㄴㅅㅜ -5610
▁ㅂㅔㅌㅡㄴㅏㅁ -5611
▁ㄱㅜㄱㅂㅏㅇ -5612
▁ㄱㅟㅊㅏㄶ -5613
▁SKT -5614
▁ㄴㅗㅇㅣㄴ -5615
▁ㄷㅡㄹㅓㅁ -5616
▁ㅇㅣㄹㅈㅔ -5617
▁ㅇㅣㄴㅈㅓㅇㅂㅏㄷ -5618
▁ㅂㅣㅊㅜ -5619
▁ㄱㅕㄹㅋㅗ -5620
▁ㄷㅔㄹㅕㅇㅗ -5621
ㅇㅑㅇㅎㅏㅁ -5622
▁ㅍㅏㄹㄹㅣ -5623
▁ㅂㅏㅇㅣㄹㅓㅅㅡ -5624
▁ㅅㅣㄱㄹㅑㅇ -5625
▁ㅅㅓㄴㅌㅐㄱㅈㅣ -5626
▁ㅅㅏㄷㅗ -5627
▁ㅊㅣㅇㅎㅏ -5628
ㅁㅜㄹㅏ -5629
▁140 -5630
▁ㅎㅡㄹㅡㅁ -5631
▁ㅁㅜㄱㅓㅂ -5632
▁ㅅㅐㅇㅈㅗㄴㅈㅏ -5633
ㅂㅓㅌㅡ -5634
▁ㄹㅏㅁㅕㄴㅅㅓ -5635
▁ㅁㅣㄹㅏ -5636
▁Ex -5637
▁ㄷㅏㅁㄱㅣ -5638
▁ㅁㅗㅈㅗㄹㅣ -5639
▁ㅅㅏㄹㅇㅏㄱㅏ -5640
ame -5641
▁ㅅㅜㅇㅣㄱ -5642
▁ㅈㅓㄴㅅㅣㄴ -5643
▁ㄹㅗㅇㅜ -5644
ㅎㅡㅂ -5645
80 -5646
ㅋㅐ -5647
▁ㅎㅏㅇㅜㅅㅡ -5648
▁sh -5649
▁ㅊㅣㅇㅊㅏㄴ -5650
▁ㅋㅐㄴㅗㄴ -5651
▁ㅉㅗ -5652
▁ㅂㅗㄴㅊㅔ -5653
ㅊㅕㅈㅣ -5654
▁ㅅㅣㄴㅅㅓㄹ -5655
▁ㅂㅗㄱㅘㄴ -5656
ㅡㄹㄹㅣㅇ -5657
▁ㅊㅐㄹㄹㅣㄴ -5658
▁ㅎㅐㄹㅣ -5659
ㅋㅔㄴ -5660
▁ㅇㅡㅅㅣ -5661
▁ㄴㅜㅂ -5662
▁ㅈㅓㄴㅁㅕㄹ -5663
▁ㅁㅔㅁㅗㄹㅣ -5664
▁ㅎㅡㄴㄷㅡㄹㄹㅣ -5665
▁JR -5666
▁ㅊㅛ -5667
▁ㅌㅜㅁㅕㅇ -5668
▁ㅋㅓㄹㅣㅇㅓ -5669
▁ㄱㅗㅇㅁㅜㅇㅝㄴ -5670
▁", -5671
AD -5672
▁ㅌㅏㅁㅏ -5673
▁ㅇㅚㅈㅓㄴ -5674
▁ㅈㅓㄴㅅㅓㅇㄱㅣ -5675
▁ㅇㅡㄴㅎㅏ -5676
▁ㅇㅓㄷㅏ -5677
ㅏㅁㅗㅌㅗ -5678
ㅊㅣㄱㅣ -5679
▁ㅊㅔㅇㅠㄱㄱㅘㄴ -5680
▁ㅊㅟㅎㅑㅇ -5681
▁ㅇㅏㅍㄷㅜ -5682
▁ㄴㅗㄴㄹㅣ -5683
ㄹㅣㅇㅓㄹ -5684
▁ㅅㅣㅇㅏ -5685
▁ㅇㅣㅈㅏ -5686
▁ㅅㅗㄴㅎㅐ -5687
▁de -5688
▁ㅈㅔㅇㅣㅁ -5689
▁ㄱㅐㅅㅜ -5690
▁ㅎㅜㅂㅏㅇ -5691
▁ㅊㅣㅇㅠ -5692
▁ㅅㅡㅅㅡㅇ -5693
▁ㅎㅏㄴㅁㅏㄷㅣ -5694
ㅈㅟ -5695
▁ㅆㅣㅂ -5696
▁IC -5697
▁ㅌㅏㅇㅣㄴ -5698
▁ㄱㅣㅈㅗㅇ -5699
▁ㅂㅏㄴㄷㅗㅇ -5700
▁ㅅㅜㅅㅣㅂ -5701
▁ㄹㅜㅅㅜ -5702
▁ㅂㅗㄹㅏ -5703
ost -5704
▁ㅂㅜㄱㅂㅜ -5705
ㅣㅇㅜ -5706
▁ㅅㅡㅋㅗ -5707
▁ㅇㅓㄱㅈㅣ -5708
▁ㅇㅜㅇㅕㄴㅎㅣ -5709
▁ㅊㅜㅇㅅㅓㅇ -5710
▁ㅁㅜㄹㅡㅍ -5711
▁ㅇㅣㅈㅜㅇ -5712
ㄴㅏㅂ -5713
▁ㄱㅣㅁㅈㅗㅇ -5714
out -5715
▁ㄱㅣㄷㅗㄱㄱㅛ -5716
▁ㄷㅗㅇㅇㅢ -5717
▁ㄱㅏㅌㅗㄹㄹㅣㄱ -5718
▁ㄱㅛㅈㅏㅇ -5719
▁Love -5720
▁ㅌㅔㅅ -5721
▁ㅂㅕㄴㅎㅗㅅㅏ -5722
▁ㅊㅓㅎ -5723
ㅔㅇㅣㄹㄹㅓ -5724
▁ㄱㅣㅇㅏ -5725
▁ㅈㅐㅎㅕㄴ -5726
old -5727
ㄷㅏㄹㅏㅎ -5728
ㅋㅗㅌㅗ -5729
▁ㅇㅠㄴㅣㅍㅗㅁ -5730
▁ㅇㅣㄹㅂㅏㄴㅇㅣㄴ -5731
▁ㄱㅜㄱㅕㅇ -5732
ㅅㅔㅅㅡ -5733
▁ㅊㅚㄷㅏ -5734
▁GS -5735
▁ㅈㅔㅈㅏㄱㅈㅏ -5736
▁ㄷㅏㅇㅇㅣㄹ -5737
▁ㅊㅣㅂ -5738
▁ㅁㅕㅇㅅㅓㅇ -5739
ㅋㅜㄹ -5740
▁ㄱㅗㅁㅏㅂ -5741
▁900 -5742
▁ㅈㅓㄱㅇㅡㅇ -5743
ㅗㅋㅏ -5744
ㅅㅔㅅ -5745
▁Un -5746
ㅣㅇㅓㅁ -5747
▁ㅈㅔㅇㅣㅁㅅㅡ -5748
▁ㅁㅗㄹㅐ -5749
ㅋㅏㄹㅣ -5750
▁ㅌㅏㅅㅓㄴ -5751
▁ㅇㅣㅈㅓㅇ -5752
▁ㄹㅔㅇㅣㄷㅓ -5753
▁ㅊㅜㅇㅊㅓㅇ -5754
▁ㅊㅗㅂㅗ -5755
▁ㅈㅏㄱㄱㅗㄱㄱㅏ -5756
own -5757
▁ㅈㅡㅇㅇㅓㄴ -5758
▁ㄷㅗㄲㅣ -5759
▁ㅂㅡㄹㅗ -5760
▁ㅇㅗㅈㅓㄴ -5761
▁ㄱㅣㅇㅕ -5762
▁ㅈㅏㄹㄹㅣ -5763
▁ㅅㅏㅈㅓㅇㄱㅓㄹㅣ -5764
▁ㅅㅜㄹㅠ -5765
▁ㅅㅓㄴㅈㅓㄴ -5766
▁ㅈㅓㅂㅎㅏ -5767
▁202 -5768
▁ㅎㅏㅂㅇㅢ -5769
▁ㅈㅏㅅㅔㅎㅣ -5770
▁ㅂㅓㅂㄹㅠㄹ -5771
▁ㅇㅓㅂㅈㅓㄱ -5772
▁ㅍㅐㅅㅕㄴ -5773
ㅃㅏㄹ -5774
ㅓㅁㅏ -5775
▁ㅁㅜㅂㅏㅇ -5776
▁ㄱㅐㅇㅣㅂ -5777
▁ㄱㅣㄹㅑㅇ -5778
▁ㅌㅔㅋㅡㄴ -5779
▁ㅇㅜㄹㄹㅣ -5780
▁ㄹㅐㅁ -5781
▁ㅌㅏㄹㅏㄱ -5782
▁ㄱㅡㄹㅗ -5783
▁ㄹㅏㅇㅣㅇㅗㄴ -5784
▁ㄷㅏㄹㅡㅁ -5785
▁ㅂㅏㄲㅏㅌ -5786
▁ㅇㅕㄴㄱㅡㅁ -5787
▁ㄱㅏㅉㅏ -5788
▁ㅇㅠㅌㅗㅇ -5789
ㅝㅋㅡ -5790
▁ㅍㅏㄴㅁㅐㄹㅑㅇ -5791
▁ㅅㅏㅋㅏ -5792
▁ㅁㅜㅅㅣㅁ -5793
▁ㅇㅘㅇㅣㄹ -5794
▁ㅅㅣㄴㅂㅜ -5795
▁ㅉㅣㅈ -5796
▁ㅂㅓㅂㅇㅝㄴ -5797
ㄷㅣㅅ -5798
ㄹㅏㄹ -5799
▁ㅈㅏㄱㅜㄱ -5800
▁ㅁㅣㅅㅗ -5801
ㅅㅣㄹㅗ -5802
ㅓㄹㅣㅇ -5803
▁ㅃㅏㄹㄱㅏㅎ -5804
▁ㅎㅏㄹㅁㅓㄴㅣ -5805
▁ㅅㅣㅈㅡ -5806
▁ㅅㅏㅇㅇㅓㅂ -5807
▁ㄷㅡㄹㅏㅇㅣㅂㅡ -5808
▁ㅇㅏㄹㄹㅔ -5809
▁ㅈㅏㅂㅈㅣ -5810
▁ㄱㅜㄹㅣ -5811
▁SH -5812
US -5813
▁ㅈㅜㅅㅣㄱ -5814
▁ㅂㅜㄱㅉㅗㄱ -5815
▁ㅇㅢㅎㅚ -5816
▁ㄱㅓㅁㅣ -5817
▁ㄷㅜㄹㅉㅐ -5818
▁ㄹㅗㅁ -5819
▁ㄴㅔㄱㅅㅔㄴ -5820
▁ㅅㅗㅅㅡ -5821
▁ㅊㅟㅇㅣㅁ -5822
▁ㅎㅘㅈㅏㅇㅅㅣㄹ -5823
ㅁㅏㅅ -5824
▁ㅈㅗㅇㅕㄴ -5825
▁LI -5826
▁ㅇㅣㄹㅂㅏㅇ -5827
▁ㅅㅜㄹㅠㅌㅏㄴ -5828
▁ㅍㅗㄱㅕㄱ -5829
▁ㄷㅏㄺ -5830
▁ㄸㅗㅇ -5831
▁ㅂㅏㄱㅎㅣ -5832
ㅘㄱ -5833
▁EP -5834
▁ㅇㅠㅁㅜㄹ -5835
▁ㅅㅡㅇㅞ -5836
▁ㄱㅣㅃ -5837
▁ㅍㅔㅇㅣㅅㅡ -5838
▁ㅂㅏㅇㅇㅓㄱ -5839
▁wik -5840
ave -5841
▁ㄱㅣㄷㅗ -5842
▁ㅂㅓㄹㄹㅔ -5843
ㄴㅏㅁㄷㅗ -5844
ㅇㅕㄴㅎㅣ -5845
▁ㅇㅏㄴㅌㅏㄲㅏㅂ -5846
▁ㅅㅡㅌㅐㄴ -5847
▁ㄲㅏㄹㄲㅡㅁ -5848
▁ㅊㅏㄱㅣ -5849
▁ㄱㅡㄹㅓㄴㅣㄲㅏ -5850
ㅁㅛ -5851
▁ㅁㅔㄱㅅㅣㅋㅗ -5852
ㄸㅏㅇ -5853
▁ㄴㅔㄷㅓㄹㄹㅏㄴㄷㅡ -5854
ㅇㄱㅣ -5855
▁ㄴㅏㄲㅅㅣ -5856
▁ㅇㅓㅅㅡ -5857
▁ㄱㅛㅅㅣㄹ -5858
▁ㅂㅗㄱㅁㅜ -5859
▁ㅅㅡㅇㅈㅓㅁ -5860
ㄹㅔㅅ -5861
▁ㄱㅘㅈㅏㅇ -5862
▁ㅊㅜㄹㅁㅏ -5863
▁ㄱㅡㅁㅅㅗㄱ -5864
▁ㅆㅏㅇㄷㅜㅇㅇㅣ -5865
▁ㅍㅓㅇ -5866
▁FF -5867
▁ㅊㅔㅋㅡ -5868
pe -5869
▁ㄷㅐㄱㅐ -5870
ㅊㅣㅇㅣㄴ -5871
▁ㄷㅔㅁ -5872
▁IS -5873
ace -5874
▁ㄱㅕㄹㅅㅓㅇ -5875
▁ㄷㅡㄹㅗㅂ -5876
▁ㅈㅓㅇㅊㅏㄱ -5877
▁ㅇㅗㅅㅏㅋㅏ -5878
▁ㄴㅏㅁㅉㅗㄱ -5879
▁ㅇㅟㅅㅏㅇ -5880
▁ㅇㅣㄴㄱㅕㄱ -5881
per -5882
ㅏㅇㅇㅣ -5883
▁ㅈㅓㅇㅂㅣ -5884
ㄷㅣㅇㅏ -5885
▁ㅂㅣㄹㅖ -5886
▁ㅅㅡㅌㅓㄴ -5887
▁ㅍㅗㄷㅡ -5888
▁ㅎㅡㄴㅈㅓㄱ -5889
▁ㄱㅣㄹㅡ -5890
▁ㄱㅗㅇㅅㅓㅇ -5891
▁ㅇㅕㄴㅍㅐ -5892
▁ㅈㅡㄹㄱㅓㅂ -5893
▁ㅈㅓㄴㅎㅜ -5894
▁ㅈㅏㅍㅗㄱ -5895
▁XX -5896
▁ㄱㅓㅈㅓㅁ -5897
▁ㅂㅜㅈㅏㄱ -5898
▁ㅈㅜㅇㅣㄹ -5899
▁ㄷㅗㅇㄹㅕㄱ -5900
▁ㄴㅓㅎㅢ -5901
▁ㅅㅣㅁㅏ -5902
ng -5903
▁ㄴㅐㅅㅔㅇㅜ -5904
▁ㅇㅓㄷㅡㅂ -5905
▁ㅊㅓㅎㅕㅇ -5906
▁ㄱㅐㅁㅏㄱ -5907
▁ㅣ -5908
▁ㅃㅣ -5909
ㅡㄹㄹㅓ -5910
▁ㅅㅡㅍㅡㄹㅣㅇ -5911
▁ㄷㅗㄱㅌㅡㄱ -5912
ㄸㅏㄱ -5913
ice -5914
▁ㄷㅗㅈㅓㄱ -5915
▁ㅎㅜㅅㄴㅏㄹ -5916
▁ㅂㅏㄹㅣ -5917
▁ㄱㅏㄴㅅㅣㄴ -5918
▁ㅂㅏㅇㅇㅓㄱㅜ -5919
▁ㅋㅏㅁㅣ -5920
▁1991 -5921
▁ㄷㅓㄹㅓㅂ -5922
▁ㄴㅔㅇㅛ -5923
▁ㅅㅡㅁㅏㅌㅡㅍㅗㄴ -5924
ㅜㅅㅣ -5925
▁ㄷㅐㅇㅣㄴ -5926
ㅂㅏㅇㅣ -5927
▁ㅇㅟㄷㅐ -5928
ㅐㅇㅋㅡ -5929
▁ㅎㅘㅎㅏㄱ -5930
▁ㅈㅏㅊㅐㄱ -5931
ㅗㄴㄷㅡ -5932
▁ㅁㅐㄴㅣㅈㅓ -5933
▁ㅌㅟㅇㄱㅣ -5934
ont -5935
ㄸㅡㅅ -5936
▁ㅈㅓㅇㅊㅣㅇㅣㄴ -5937
ㄷㅡㄴㄱㅏ -5938
▁ㅇㅕㄴㅅㅡㅇ -5939
▁ㄴㅗㅎㅇㅣ -5940
ㅜㄴㅣ -5941
▁CV -5942
▁ㅂㅣㅅㅏㅇ -5943
▁ㅅㅏㅅㅣㄴ -5944
▁ㅂㅡㄹㄹㅓㄷㅡ -5945
▁ㄱㅜㄱㄹㅣㅂ -5946
▁ㅅㅏㅇㅎㅗ -5947
▁ㅇㅣㄴㅌㅓ -5948
ㄹㅕㄴㅏ -5949
▁ㅈㅜㄱㅣ -5950
▁1988 -5951
ov -5952
ㅈㅛ -5953
▁ㅍㅐㅎㅏ -5954
▁ㄱㅗㅇㄹㅛㅇ -5955
▁ㅃㅓ -5956
▁ㅈㅗㅇㅣ -5957
ㅇㅏㅇㅜㅅ -5958
▁ㅍㅗㅎㅏㅇ -5959
▁ㄱㅝㄴㅎㅏㄴ -5960
▁ㅍㅗㅅㅜ -5961
▁ㄱㅣㅇㅛㅇ -5962
▁AD -5963
▁ㅋㅡㄹㄹㅐㄴ -5964
ㅜㅌ -5965
ㄱㅡㄹㄹㅐㄴㄷㅡ -5966
▁ㄱㅟㅎㅘㄴ -5967
▁ㅁㅗㄹㄹㅏㄱ -5968
▁ㅅㅣㄴㅓㅈㅣ -5969
▁CF -5970
▁We -5971
▁ㅎㅜㅅㅜㄹ -5972
▁ㄷㅗㅈㅜ -5973
▁ㄱㅗㅈㅏㄱ -5974
▁ㅈㅔㄱㅏㄹ -5975
OD -5976
ㄱㅏㅅㅣ -5977
▁ㅊㅜㅇㅓㄱ -5978
▁ㅎㅐㅇㅂㅗ -5979
▁ㅋㅡㄹㅣㅅㅡㅌㅏㄹ -5980
▁ㅌㅏㅅㅜ -5981
▁ㅅㅏㅇㅅㅜㄹ -5982
▁ㅅㅡㅌㅠㄷㅣㅇㅗ -5983
▁ㅅㅡㅍㅔㅇㅣㅅㅡ -5984
▁ㅅㅗㅍㅡㅌㅡ -5985
▁ㅃㅜㄹ -5986
▁ㅇㅣㅅㅠ -5987
▁ㅇㅏㅇㅣㄹㄹㅐㄴㄷㅡ -5988
▁ㄹㅓㄴㄷㅓㄴ -5989
▁ㅌㅐㄱㅡ -5990
▁ㄱㅐㄹㅑㅇ -5991
▁ㅈㅓㄱㄷㅏㅇㅎㅣ -5992
ㄱㅏㅄ -5993
▁ㅅㅡㅌㅣㄹ -5994
▁ㄹㅗㄱㅗ -5995
▁ㄴㅏㅋ -5996
▁ㄴㅐㅂ -5997
▁ㄱㅏㄱㅂㅗㄴ -5998
▁ㅈㅣㄹㅚ -5999
▁ㅅㅣㄹㅁㅏㅇ -6000
▁ㄹㅣㄷㅡ -6001
▁ㅅㅏㅇㅠ -6002
▁ㅎㅡㅇㅁㅣ -6003
▁ㄷㅗㅇㅜ -6004
▁ㅅㅣㄷㅏㄹㄹㅣ -6005
▁ㄱㅏㄹㅣㅋㅣ -6006
▁ㅎㅘㅅㅓㅇ -6007
▁ㅎㅣㅁㅔ -6008
▁ㄴㅐㅁㅅㅐ -6009
ㅁㅣㄹㄹㅣ -6010
▁ㅎㅗㅅㅜ -6011
▁ㅅㅡㅇㄹㅠㄹ -6012
▁ㅅㅐㄱㄲㅏㄹ -6013
ㅗㄴㅣ -6014
▁ㄱㅗㅇㅅㅔ -6015
ㅁㅔㄴ -6016
▁ㅈㅜㅇㅕㄱ -6017
▁ㅅㅜㄱㄹㅕㄴ -6018
▁105 -6019
▁ㅎㅕㄹㅇㅐㄱ -6020
▁ㅇㅓㄹㅕㅇㅜㅁ -6021
▁ㄷㅏㅊㅣ -6022
▁ㅅㅐㄲㅣ -6023
▁AM -6024
▁ㄱㅘㅇㅇㅕㄱㅅㅣ -6025
ㅈㅏㄷㅡ -6026
▁ㄴㅗㄱㅅㅐㄱ -6027
▁ㅇㅗㅅㅡㅌㅡㄹ -6028
▁ㅈㅐㄷㅏㄴ -6029
▁ㄸㅡㄴㄱㅡㅁ -6030
▁ㅌㅓㄸㅡㄹㅣ -6031
▁ㅁㅣㄹㅜ -6032
▁ㅁㅣㅅㅡㅌㅓ -6033
orld -6034
▁ㅈㅏㅁㅏㄱ -6035
▁ㅌㅏㄹㅗ -6036
▁ㄷㅏㄹㅡㅁㅇㅓㅄ -6037
ies -6038
▁ㅇㅣㄴㅁㅣㄴ -6039
▁ㅅㅗㅇㅟ -6040
▁ㄱㅣㄹㅇㅣ -6041
▁ㅂㅔㅇㅓ -6042
▁ㅎㅣㅇㅓㄹㅗㅈㅡ -6043
▁ㅋㅏㅇㅜㄴㅌㅡ -6044
▁ㅅㅜㅈㅏㅇ -6045
▁DS -6046
ㅏㄴㅎㅣ -6047
▁ㅅㅓㅍㅗㅌㅓ -6048
▁ㄲㅡㄶㄱㅣ -6049
▁ㅇㅣㄹㄹㅏㅁ -6050
▁.." -6051
▁ㄹㅜㄴㅏ -6052
ann -6053
▁ㅂㅜㅁ -6054
▁ㄱㅜㅅㅏ -6055
▁ㅎㅏㄱㄹㅕㄱ -6056
▁ㅅㅐㅇㄴㅕㄴ -6057
▁ㄱㅖㅌㅗㅇ -6058
▁ㄱㅡㅁㅇㅠㅇ -6059
ㅈㅡㅁㅣ -6060
▁ㅅㅐㄱㅅㅏㅇ -6061
▁ㅅㅡㅌㅡㄹㅏㅇㅣㅋㅡ -6062
▁ㄷㅔㄷㅡ -6063
▁ㄱㅜㄱㅇㅘㅇ -6064
▁ㅅㅡㅌㅓ -6065
▁ㅅㅐㅁ -6066
▁ㅌㅣㅋㅔㅅ -6067
▁ㅌㅡㄱㅈㅓㄴ -6068
▁ㄹㅣㅌㅏ -6069
▁SNS -6070
▁ㅁㅕㄴㅁㅗ -6071
▁ㄱㅘㄴㄹㅏㅁ -6072
▁ㅋㅓㅍㅣ -6073
▁ED -6074
ㅍㅡㄹㅣ -6075
▁ㅇㅛㄱㅡㅁ -6076
▁ㅈㅔㅈㅏㄱㅅㅏ -6077
▁ㄷㅣㄱ -6078
▁ㅇㅕㅇㄱㅜ -6079
▁ㅎㅡㅂㅎㅕㄹ -6080
▁ㄱㅜㅅㅡㄹ -6081
▁ㅇㅕㅂ -6082
OC -6083
▁ㄴㅐㄱㅜ -6084
▁ㅇㅏㅁㅏㄷㅗ -6085
▁ㅇㅏㅇㅣㅇㅓㄴ -6086
▁ㅆㅣㄴ -6087
ㅌㅡㄱㅂㅕㄹㅅㅣ -6088
▁ㄱㅏㅁㅏㄴ -6089
▁ㄹㅔㅅㅡ -6090
▁ㅎㅏㄷㅏㄴ -6091
▁ㅌㅡㄹㅔ -6092
▁ㅇㅗㅈㅣㄱ -6093
▁ㅌㅡㄹㅗ -6094
▁ㄷㅏㄴㄷㅏㄴ -6095
▁ㅊㅏㅇㅣㅈㅓㅁ -6096
▁ㅂㅐㅌㅓㄹㅣ -6097
▁ㄱㅣㅅㅜㄱ -6098
▁ㄹㅓㅅ -6099
▁ㅇㅗㄹㅐㄴㅁㅏㄴ -6100
▁ㄷㅡㄹㅋㅣ -6101
ㄷㅓㅇㅇㅣ -6102
▁ㅊㅏㅈㅇㅏㄴㅐ -6103
▁ㄷㅣㅈㅣㅁㅗㄴ -6104
▁ㅈㅐㅅㅏㄴ -6105
▁ㄱㅐㅅㅣ -6106
ㅌㅣㄴㅏ -6107
▁ㅅㅔㅈㅗㅇ -6108
BA -6109
▁ㅅㅗㄹㅏ -6110
▁ㄲㅜㄹ -6111
▁ㅆㅓㄴ -6112
▁ㄷㅜㄹㄹㅓ -6113
▁ㄹㅜㅋㅏ -6114
▁ㅅㅓㅇㅜㄹㅌㅡㄱㅂㅕㄹㅅㅣ -6115
▁ㄷㅏㅁㅂㅐ -6116
ㅅㅣㅌㅏ -6117
▁ㅈㅜㅇㄹㅑㅇ -6118
▁CPU -6119
▁ㅈㅣㄱㅕㅇ -6120
▁ㅊㅜㅈㅗㅇ -6121
▁ㅁㅣㅁㅛ -6122
▁ㅁㅣㅊㅡ -6123
▁ㅊㅣㅇㅎㅗ -6124
▁ㄱㅗㅇㄱㅗㅇ -6125
▁ㅇㅣㅂㅡ -6126
▁ㅇㅓㄹㅚ -6127
▁ㅅㅔㅂㅡㄴ -6128
▁ㅅㅐㅇㄹㅑㄱ -6129
▁ㅇㅏㄴㅌㅣ -6130
▁ㄱㅜㄹㅡ -6131
▁ㅁㅏㅅㅇㅣㅆ -6132
LE -6133
▁ㅈㅜㅇㅊㅓㅂ -6134
▁DE -6135
▁ㅈㅡㅇㅇㅗ -6136
ㄷㅜㄱ -6137
▁ㅇㅛㅋㅗ -6138
▁ㄱㅏㅇㄷㅗ -6139
▁ㅋㅗㄹㅣㅇㅏ -6140
▁ㅂㅗㅎㅗㅁㅏㄱ -6141
▁ㄱㅏㄹㅜ -6142
▁ㅅㅏㅁㅜㄹ -6143
▁ㅌㅓㅋㅣ -6144
▁ㅅㅡㅌㅣㅁ -6145
▁ㅈㅘㅅㅓㄱ -6146
▁ㅎㅕㅁㅇㅢ -6147
▁ㅅㅔㅇㅣㄴ -6148
▁ㅁㅣㄴㅊㅓㅂ -6149
▁ㅇㅕㄴㄹㅕㅇ -6150
ㅅㅡㅇㅗ -6151
▁ㅊㅗㅇㅇㅏㄹ -6152
▁ㅍㅕㄴㅇㅣㅂ -6153
ㄲㅗㅂ -6154
ㄱㅏㅅㅡ -6155
▁ㅇㅣㅅㅣㄱ -6156
▁ㅎㅡㄹㄹ -6157
▁ㅎㅕㅂㅅㅏㅇ -6158
▁ㅊㅣㄹㅜ -6159
▁ㄷㅓㅅㅂㅜㅌㅇㅣ -6160
▁ㅇㅕㅅ -6161
ㅏㅇㅔㄹ -6162
▁ㅁㅏㅇㅑㄱ -6163
▁ㄱㅡㅁㅏㄴㄷㅜ -6164
▁ㅎㅐㅅㅏㅇ -6165
ㅈㅓㅅㅡ -6166
▁ㅇㅗㅋㅡ -6167
▁ㅇㅣㄴㅈㅗㅇ -6168
▁ㅎㅠㅅㅣㄱ -6169
▁ㅅㅏㅇㄷㅏㄴ -6170
▁ㅅㅣㄹㅈㅓㄴ -6171
▁LC -6172
▁ㅎㅣㄴㅏ -6173
ㄹㅣㅇㅓㅁ -6174
▁ㅇㅏㅈㅓ -6175
▁ㅅㅣㄴㅇㅏㅇ -6176
▁ㄷㅏㄴㅍㅕㄴ -6177
▁ㅇㅕㄴㅇㅖㅇㅣㄴ -6178
▁ㄴㅔㅇㅗ -6179
▁ㅌㅓㄱ -6180
▁ㅎㅏㅊㅏ -6181
▁ㅇㅣㅇㄱㅡㄹㄹㅐㄴㄷㅡ -6182
▁ㅇㅓㅁㅏㅇ -6183
▁ㅂㅜㅅ -6184
▁ㅌㅏㅇㅠㄹ -6185
▁ㅅㅏㅇㅇㅣㄴ -6186
ㅎㅔ -6187
▁ㅇㅏㅈㅓㅆㅣ -6188
▁ㄴㅜㄴㅊㅣㅊㅐ -6189
▁ㄴㅗㅂㅔㄹ -6190
▁your -6191
▁ㅇㅖㅇㅓㄴ -6192
▁ㅇㅣㅇㅣㄱ -6193
ㅅㅣㅅㅡㅌㅡ -6194
▁ㄱㅗㄴㄹㅏㄴ -6195
▁ㄱㅏㅇㅛ -6196
▁ㄱㅜㅅㅓㄱ -6197
▁ㅊㅏㄴㅅㅡ -6198
ber -6199
▁ㅇㅛㅇㅅㅓ -6200
▁ㅇㅣㅇㅜ -6201
▁LV -6202
▁NE -6203
▁ㄷㅣㄹㄹㅣㅇ -6204
▁ㅈㅓㅇㅎㅘ -6205
ㄹㅕㄷㅡㄹ -6206
▁ㄱㅏㅇㅇㅛ -6207
▁ㅈㅜㅇㄱㅜㄱㅇㅓ -6208
▁ㅁㅜㄹㅏ -6209
▁ㅊㅔㄴ -6210
▁ㅌㅏㄹㅌㅚ -6211
▁ㅇㅓㅁㅏㅇㅓㅁㅏ -6212
▁ㅁㅏㄱㄷㅐ -6213
ㅅㅏㅈㅏ -6214
▁ㄸㅓㄹㅇㅓㄸㅡㄹㅣ -6215
ㅅㅡㅌㅣㄱ -6216
▁ㄱㅣㄱㅘㄴㅊㅗㅇ -6217
ys -6218
▁ㅇㅖㅅㅏㄴ -6219
▁ㅉㅜㄱ -6220
▁189 -6221
▁ㄷㅗㅇㅉㅗㄱ -6222
ㅔㄹㅕㄱㅏ -6223
▁ㄷㅔㄹㅕㄱㅏ -6224
▁ㄱㅗㄱㅐ -6225
▁ㅇㅝㅋㅓ -6226
▁ㄱㅗㅇㅂㅏㅇ -6227
▁ㅇㅛㅇㄹㅑㅇ -6228
ㅅㅈㅣㅂ -6229
▁ㅎㅜㅂㅐ -6230
▁ㅎㅔㅂㅣ -6231
▁SE -6232
▁ㅁㅜㄴㄱㅜ -6233
▁ㄱㅐㅎㅕㄱ -6234
▁ㄱㅏㅇㅈㅏ -6235
▁ㅇㅓㄴㅅㅡ -6236
der -6237
▁ㅋㅡㄹㅣㅁ -6238
ㄱㅣㅁ -6239
▁ㅇㅝㄴㅊㅣㄱ -6240
▁ㄱㅣㅁㅎㅕㄴ -6241
aw -6242
ㅏㅈ -6243
▁ㅎㅏㄹㅜㅋㅏ -6244
ION -6245
▁ㅈㅏㄱㅡㄱ -6246
▁ㅇㅏㄱㄷㅏㅇ -6247
▁It -6248
▁ㅂㅜㄱㅏㄱ -6249
ㅁㅣㄴㅣ -6250
▁ㅅㅗㅈㅏㅇ -6251
▁ㅋㅐㅁㅍㅡ -6252
▁ㅍㅗㄹㄹㅏㄴㄷㅡ -6253
▁ㄱㅡㅁㅂㅏㅇ -6254
▁ㅅㅜㅎㅗㅈㅏ -6255
▁ㅁㅐㄱㅅㅡ -6256
▁ㅅㅏㅇㅅㅣㄹ -6257
▁ㄱㅜㅅ -6258
▁ㅇㅣㄹㅈㅗㄱ -6259
▁ㅈㅏㅁㅅㅜㅎㅏㅁ -6260
▁ㅅㅣㅁㅅㅏ -6261
▁ㅊㅗㅇㄹㅣ -6262
▁ㄱㅣㅇㅜㄹ -6263
▁ㅍㅕ -6264
ㅏㅇㅑ -6265
60 -6266
▁ㅅㅡㅇㅘ -6267
▁ㅇㅔㅇㅛ -6268
ㅐㄱㅡ -6269
▁ㅇㅐㅍㅡㄹ -6270
▁ㅍㅣㅅㅡ -6271
▁ㅅㅏㅇㄱㅘㄴㅇㅓㅄ -6272
oo -6273
▁ㄲㅐㅇㅓㄴㅏ -6274
ㅈㅐㅇㅣㄴ -6275
▁ㅈㅏㅂㅇㅏㄴㅐ -6276
▁ㄱㅛㄹㅠ -6277
ㄷㅜㄹ -6278
▁ㅇㅣㄴㅊㅣ -6279
▁ㅈㅣㅂㅎㅐㅇ -6280
FF -6281
40 -6282
▁EN -6283
▁ㅂㅜㄹㅌㅏ -6284
▁ㅁㅣㅌㅓ -6285
ㅅㅕ -6286
▁ㅎㅏㅇㅣㄹ -6287
▁BPM -6288
ㅣㄹㄹㅏ -6289
▁ㅉㅣㄱㅎㅣ -6290
▁ㅅㅜㄷㅗㅇ -6291
▁ㅈㅣㄴㅂㅗ -6292
▁ㅌㅏㅇㅜㄴ -6293
▁ㅇㅐㄹㄹㅣㅅㅡ -6294
▁ㅇㅠㅎㅛ -6295
▁ㅈㅏㅈㅓㄴ -6296
▁ㅇㅝㄴㅁㅜㄴ -6297
ike -6298
▁ㅅㅏㅇㅣㅂㅓ -6299
▁ㅇㅓㄴㄷㅓㄱ -6300
ream -6301
▁ㅁㅔㄷㅏㄹ -6302
▁ㄷㅔㅇㅣㅂㅣ -6303
▁ㅅㅏㄱㅟ -6304
ㅈㅗㄹ -6305
▁ㄱㅕㄹㅈㅓㄴ -6306
▁ㅈㅓㅈㅏㄱ -6307
▁ㅍㅛㅈㅣ -6308
▁ㄱㅡㄹㅓㄱ -6309
▁ㅂㅏㅇㅣㅇㅗ -6310
▁ㄱㅏㄴㅅㅣㄴㅎㅣ -6311
▁ㅈㅣㄹㅏ -6312
▁ㅎㅜㅋㅜ -6313
▁ㅊㅐㅌㅣㅇ -6314
▁ㄱㅏㅇㅡㄹ -6315
ㄸㅜㅇ -6316
▁ㅎㅜㄱㅖ -6317
▁ㅈㅣㅍㅏㅇ -6318
▁ㅂㅐㅁㅍㅏㅇㅣㅇㅓ -6319
▁125 -6320
▁1989 -6321
▁ㅁㅜㅊㅓㄱ -6322
▁ㅎㅘㄹㅂㅏㄹ -6323
▁ㅇㅔㄱㅅㅡㅌㅡㄹㅏ -6324
ㄷㅔㅇㅣ -6325
▁ㅈㅜㅇㄹㅣㅂ -6326
▁ㅎㅔㄹㄱㅣ -6327
▁ㅇㅣㅂㅈㅣ -6328
▁Com -6329
▁ㅇㅔㄹㄹㅣㅌㅡ -6330
▁ㅁㅏㄷㅣ -6331
▁ㅁㅔㅅㅣㅈㅣ -6332
▁ㅎㅕㅁㅇㅗ -6333
ㅅㅜㄹㅅㅏ -6334
▁ㅅㅏㅎㅕㅇ -6335
▁ㅈㅓㄹㅕㅁ -6336
▁ㅎㅘㅁㅜㄹ -6337
▁ㅎㅐㄱㅗㄹ -6338
▁ㅇㅣㅁㄷㅐ -6339
▁ㅁㅜㄹㅕㅂ -6340
ory -6341
▁ㅇㅣㄲㅡ -6342
ㅗㄱㅣ -6343
▁ㅎㅐㅍㅣ -6344
▁ㅇㅏㅊㅡ -6345
▁ㅋㅏㄹㅣ -6346
▁ㅋㅏㄹㄴㅏㄹ -6347
▁3000 -6348
▁ㅉㅏㅈㅡㅇ -6349
▁ㄷㅓㄱㅜㄴ -6350
▁ㅁㅛㅎㅏ -6351
▁ㄱㅣㅅㅐㅇ -6352
▁ㅂㅗㄱㅈㅣ -6353
ㅇㅝㄹㅇㅣㄹ -6354
▁PV -6355
▁ㅈㅓㅇㅇㅖ -6356
▁ㅅㅏㅁㅕㅇ -6357
▁ㄲㅡㄴ -6358
ㅂㅔㄴ -6359
▁ㅅㅓㅂㅓㄴㅌㅡ -6360
▁ww -6361
▁ㅇㅛㅇㅑㄱ -6362
ㅕㅂㅏㄷ -6363
▁ㅍㅣㅌㅓ -6364
▁ㅇㅏㄴㄴㅕㅇ -6365
▁ㅈㅐㅁㅣㅆ -6366
▁UP -6367
▁ㅊㅜㄱㅜ -6368
▁ㅇㅗㄹㅏ -6369
▁ㅅㅣㄴㅅㅏ -6370
▁ㅇㅣㄹㅂㅗㄴㅇㅣㄴ -6371
▁ㄹㅣㄹㄹㅣ -6372
▁ㅎㅐㅇㅇㅜㄴ -6373
▁ㄱㅓㅇㅜㄹ -6374
▁ㅇㅟㅇㅝㄴㅈㅏㅇ -6375
▁ㄹㅔㅇㅏㄹ -6376
ㅈㅐㄱㅏㅁ -6377
ㅜㄹㅡㅋㅡ -6378
▁ㅂㅜㄷㅣㅈ -6379
ㅈㅣㅁㅏ -6380
▁ㅈㅗㄴㅈㅐㄱㅏㅁ -6381
iss -6382
▁ㄴㅏㅊㅣ -6383
▁ㅍㅗㄹㅗ -6384
▁ㅇㅔㄴㅈㅔㄹ -6385
▁ㅈㅏㅂㅇㅏㅁㅓㄱ -6386
▁ㄱㅓㄷㅡㅂ -6387
▁ㅇㅐㅈㅓㅇ -6388
▁ㄸㅡㄱ -6389
▁ㅇㅏㅇㅗ -6390
▁ㅅㅐㅇㄴㅕㄴㅇㅝㄹㅇㅣㄹ -6391
▁ㅌㅓㄴㅓㄹ -6392
▁ㅇㅕㄲㅇㅣ -6393
▁ㅂㅏㄴㅈㅓㄴ -6394
▁ㄷㅐㅎㅏㄱㅇㅝㄴ -6395
▁ㄷㅣㄹㄹㅔㅇㅣ -6396
ㅔㄷㅏ -6397
▁ㄷㅗㄷㅜㄱ -6398
▁ㅊㅏㄱㅎㅏ -6399
▁ㅅㅜㄴㅎㅘㄴ -6400
▁ㅋㅓㄷㅏㄹㅏㅎ -6401
▁ㄱㅜㅊㅜㄱㅎㅏㅁ -6402
▁ㄱㅏㄷㅗㅇ -6403
▁www -6404
▁ㅊㅓㄹㅎㅏㄱ -6405
▁ㅈㅓㅇㅅㅜ -6406
▁ㅇㅣㅈㅐ -6407
▁ㄱㅕㄱㅊㅜ -6408
▁ㅈㅏㄴㄸㅡㄱ -6409
▁AS -6410
▁ㅊㅚㅅㅣㄴ -6411
▁ㅎㅣㅌㅗ -6412
▁ㅅㅏㅇㅝㄴ -6413
▁ㄹㅗㄹㅣ -6414
▁ㅁㅜㅇㅕㄱ -6415
ㄴㄱㅏ -6416
▁ㅍㅣㅇㅏㄴㅗ -6417
▁ㅌㅔㄱㅅㅡㅌㅡ -6418
▁ㅊㅏㅁㅅㅓㄱ -6419
▁ㅌㅐㅍㅕㅇ -6420
▁ㅋㅠㅂㅡ -6421
▁ㅅㅓㅉㅗㄱ -6422
▁ㅇㅓㄴㅈㅔㄴㄱㅏ -6423
▁ㅎㅟㅂ -6424
▁ㅅㅐㅇㄱㅕㄴㅏ -6425
▁ㅎㅏㄱㅈㅏ -6426
▁ㅇㅏㄹㄹㅔㄱㅅㅏㄴ -6427
▁ㄱㅣㄱㅜ -6428
ㅏㅇㅣㅌㅣ -6429
▁ㄷㅗㅁ -6430
▁ㅂㅜㅈㅓㄱ -6431
▁ㅅㅣㅁㅅㅣㅁ -6432
▁ㄱㅣㅅㅜㄱㅅㅏ -6433
▁ㅈㅜㅈㅏ -6434
▁-> -6435
▁ㅂㅜㅅㅡㅌㅓ -6436
▁ㅅㅓㅇㄴㅏㅁ -6437
ㄴㅏㅁㅜ -6438
▁BL -6439
ㄹㅠㄴ -6440
▁ㅎㅢㄴ -6441
▁ㅇㅣㅈㅣㅂ -6442
▁ㅊㅟㅇㅑㄱ -6443
▁ㄱㅗㅇㅎㅓ -6444
▁ㄱㅗㅇㅇㅛㅇ -6445
▁ㄲㅡㅁ -6446
▁ㅅㅑㄹ -6447
30 -6448
▁ㅇㅢㄷㅐ -6449
▁ㅂㅜㄴㅅㅣㄴ -6450
▁ㄷㅡㄹㅐㅍㅡㅌㅡ -6451
▁that -6452
ian -6453
ㅎㅏㅁㅕㄴ -6454
▁ㅂㅜㄴㄷㅐ -6455
▁ㅂㅣㅊㅣ -6456
▁ㄷㅚㄷㅗㄹㄹㅣ -6457
ㅛㄱ -6458
▁ㅋㅐㅅㅡㅌㅓ -6459
chor -6460
▁ㅅㅏㅇㄱㅣ -6461
▁ㄱㅞㄷㅗ -6462
▁ㅂㅣㅅㅓ -6463
▁ㅈㅜㄴㅇㅜ -6464
▁ㅇㅗㅀ -6465
▁ㄴㅣㅇ -6466
▁ㅌㅗㅇㅅㅏㄴ -6467
▁ㅈㅜㅊㅏ -6468
▁ㅍㅡㄹㄹㅐㄴ -6469
▁CJ -6470
▁ㅇㅠㅈㅓㄱ -6471
▁ㅊㅔㅈㅜㅇ -6472
▁ㅌㅗㅂㅓㄹ -6473
ㅎㅚㅅㅏ -6474
▁ㅊㅗㄹㅗㄱ -6475
▁ㅎㅔㅇㅓㅈㅣ -6476
▁ㄷㅓㄹㅓ -6477
▁ㄴㅏㄴㅇㅣㅂ -6478
▁ㅍㅔㄴㅓㄹ -6479
▁ㄱㅛㅎㅘㅇ -6480
▁ㅁㅕㅇㄷㅏㄴ -6481
▁ㅌㅏㄴㅎㅘㄴ -6482
ㅏㅋㅏ -6483
▁ㅇㅑㅅㅡ -6484
▁ㅇㅟㄹㄹㅣㅇㅓㅁ -6485
▁ㅇㅏㄹㅇㅏㄴㅐ -6486
▁ㅅㅣㄱㅁㅣㄴ -6487
▁Pro -6488
▁ㄷㅗㅂㅏㄱ -6489
io -6490
▁ㅇㅠㄴㅏㅇㅣㅌㅣ -6491
▁ㄱㅓㄴㄷㅡㄹㅣ -6492
▁ㄱㅜㄹㅡㅁ -6493
▁ㄷㅡㄱㅍㅛ -6494
▁ㅅㅡㅍㅔㄹ -6495
▁ㄱㅕㅇㄹㅗ -6496
▁ㅈㅗㅇㅁㅗㄱ -6497
▁ㅇㅡㄴㅅㅣㄴ -6498
▁ㅊㅜㄹㅇㅣㅂ -6499
▁ㅅㅣㄴㅈㅓㄴ -6500
ㅇㅏㅊㅣ -6501
▁ㅁㅗㄴㅣ -6502
▁ㅂㅔㄹㅣ -6503
▁ㅁㅏㄹㅌㅜ -6504
▁ㅇㅏㄱㅁㅕㅇ -6505
▁ㄷㅐㅅㅓㄴ -6506
▁ㅍㅜㅅ -6507
▁ㄷㅗㅇㅅㅓㅇ -6508
▁ㅂㅗㄱㄱㅜ -6509
▁ㅁㅏㅈㅜㅊㅣ -6510
▁ㅎㅘㄱㄷㅐ -6511
▁ㄹㅗㅇㅣ -6512
▁ㅇㅙㄴㅈㅣ -6513
▁1970 -6514
ㅂㅡㄹㄹㅣㄴ -6515
▁ㅇㅚㄱㅖㅇㅣㄴ -6516
▁ㄷㅗㅇㅇㅣㄴ -6517
ㅇㅓㄴㅓㅁ -6518
ㅍㅔㄹ -6519
▁ㅈㅔㅌㅡ -6520
▁ㅋㅗㅁㅔㄴㅌㅡ -6521
▁ㄱㅡㄹㄹㅗㅂㅓㄹ -6522
▁ㅈㅔㅁ -6523
▁ㅌㅡㄹㅐㄴㅅㅡ -6524
ㄹㅗㅅㅡ -6525
▁ㅇㅣㅁㅣㄴ -6526
▁ㄷㅗㄹㅜ -6527
▁ㄷㅏㅈㅣ -6528
▁ㄱㅏㄴㅈㅓㅂ -6529
▁ㅇㅠㄷㅗㄱ -6530
▁ㅎㅕㅇㅅㅏㅇ -6531
▁ㅇㅑㅇㅅㅓㅇ -6532
ㅉㅏㄹ -6533
▁ㅇㅓㅂㄹㅗㄷㅡ -6534
▁ㅁㅔㅋㅏ -6535
▁ㄹㅏㄱㅣ -6536
▁ㄱㅏㅂㅏㅇ -6537
▁Fl -6538
▁ㅇㅔㄷㅏㄱㅏ -6539
▁ㄱㅝㄴㄹㅣ -6540
▁ㄲㅜㅁㅣ -6541
▁ㅂㅏㄹㄷㅏㄹ -6542
ㄸㅟ -6543
ㅌㅣㄱ -6544
▁ㄹㅔㄷㅣㅅ -6545
▁ㅇㅘㅇㅣㄹㄷㅡ -6546
ㅈㅡㅁㅏ -6547
▁ㅇㅕㄴㅁㅐㅇ -6548
▁ㅎㅏㅎㅑㅇ -6549
▁ㅊㅓㄴㅁㅏㄴ -6550
▁ㅈㅐㅈㅓㅇ -6551
▁ㅅㅏㅅㅏㄹ -6552
▁ㅇㅣㄹㅊㅣ -6553
▁ㅈㅓㄱㅎㅏㅂ -6554
▁Br -6555
▁ㄷㅣㅅㅡㅋㅡ -6556
▁ㅁㅕㅇㅎㅘㄱ -6557
▁ㅅㅗㅇㅠㅈㅏ -6558
▁ㅁㅏㅋㅣ -6559
▁ㅂㅏㄹㄹㅣ -6560
▁ㅈㅏㅇㅌㅏㄴ -6561
▁ㅈㅔㅇㅑㄱ -6562
0000 -6563
▁ㄴㅐㅂㅗㄴㅐ -6564
▁ㅋㅔㅇㅣㄴ -6565
ㅌㅜㅇ -6566
▁ㅃㅜㅁ -6567
▁ㅈㅓㄴㅇㅣ -6568
▁ㅇㅟㅅ -6569
▁ㅃㅏㅈ -6570
▁ㄹㅏㅇㅣㅍㅡㄹ -6571
▁ㅇㅕㄴㄱㅡㄱ -6572
▁ㅆㅗㄷㅇㅏㅈㅣ -6573
▁ㅈㅓㅇㅎㅘㅇ -6574
▁ㄷㅏㅇㅣㅇㅏㅁ -6575
ㄱㅓㄹㅇㅣ -6576
ㅋㅏㅇㅗ -6577
▁ㄷㅏㄷ -6578
▁ㄴㅏㄹㅣ -6579
▁ㅁㅣㄴㅏ -6580
▁ㅅㅏㅎㅜ -6581
▁anchor -6582
▁ㄷㅡㄹㅏㅇㅣㅂㅓ -6583
▁ㄹㅜㅂㅣ -6584
▁;& -6585
▁ㅍㅐㄴㅌㅓㅁ -6586
▁ㅁㅏㅂㅣ -6587
▁ㅇㅣㅍㅔㄱㅌㅡ -6588
▁ㅁㅔㄹㄹㅗ -6589
▁ㅁㅐㅈㅏㅇ -6590
▁ㄲㅗㅁ -6591
▁ㅇㅕㅇㅈㅜ -6592
▁ㅋㅓㄴㅕㅇ -6593
ㄱㅓㄱ -6594
▁ㄹㅣㅅㅡㅋㅡ -6595
ㅇㅏㅍ -6596
▁ㄲㅡㅁㅉㅣㄱ -6597
▁ㅈㅓㅌㅐㄱ -6598
▁ㄱㅏㅇㅈㅓㅁ -6599
▁ㅎㅓㄴㅂㅓㅂ -6600
▁wiki -6601
▁WWE -6602
▁ㅅㅏㄹㅏ -6603
▁ㄱㅗㅅㄱㅗㅅ -6604
ㅇㅓㅁㅏㅈ -6605
▁ㄸㅣ -6606
▁ㅇㅏㅋㅣㄹㅏ -6607
ㅊㅣㄹㅗ -6608
ㄲㅏㅇㅛ -6609
▁ㅈㅜㅌㅐㄱ -6610
▁ㄱㅡㄹㅐㄴㄷㅡ -6611
▁ㅅㅣㄹㅊㅐㄱ -6612
▁ㅎㅘㅈㅐ -6613
ㅅㅈㅣ -6614
▁ㄱㅗㄷㅗ -6615
IP -6616
▁ㅅㅗㄷㅐ -6617
ㅍㅗㅌㅡ -6618
▁ㄹㅗㅇㅑㄹ -6619
▁ㅎㅏㄹㅇㅣㄴ -6620
▁ㅇㅗㅌㅏ -6621
▁le -6622
ㅁㅏㄹㄹㅣ -6623
▁ㅂㅐㄱㅅㅓㅇ -6624
▁&# -6625
▁ㅅㅗㅁ -6626
▁ㅅㅜㅅㅜ -6627
▁170 -6628
▁ㅅㅕㄹ -6629
▁ㅇㅜㅅㄱㅣ -6630
▁ㄹㅣㅂㅠ -6631
▁ㅂㅗㅇㅘㄴ -6632
▁ㅍㅕㅇㅅㅐㅇ -6633
▁ㄱㅡㄹㅡ -6634
ㅅㅡㅂㅜㄱ -6635
▁ㅇㅏㅁㅅㅣ -6636
▁Or -6637
▁ㄱㅡㄹㅐㅁ -6638
▁ㅁㅜㄴㄷㅏㄴ -6639
▁ㄷㅏㅇㅣㅇㅏㅁㅗㄴㄷㅡ -6640
UM -6641
ㅓㅄ -6642
▁ㅇㅠㅂㅏㄹ -6643
IG -6644
▁ㅂㅣㅈㅜㅇㅓㄹ -6645
▁ㅇㅜㄴㄷㅗㅇㅈㅏㅇ -6646
▁ㅈㅗㅂㅕㄹ -6647
▁ㅊㅣㅋㅣㄴ -6648
▁ㅁㅏㅂㅡㄹ -6649
VD -6650
▁ㄷㅏㅂㅂㅕㄴ -6651
▁ㅇㅣㄴㅈㅗ -6652
▁ㄷㅏㄴㅊㅜㄱ -6653
▁ㅎㅓㄹㅏㄱ -6654
▁ㄱㅓㄴㅈㅗ -6655
▁ㅊㅜㅇㅅㅣㄹ -6656
▁ㄱㅡㅁㅇㅐㄱ -6657
▁ㅇㅣㅈㅣㅂㅌㅡ -6658
ㅈㅓㄹㅓㄱ -6659
▁ㅇㅓㅍㅣㄹ -6660
▁ㅇㅞㅇㅣㅂㅡ -6661
▁ㄴㅗㄹㅏ -6662
▁ㅁㅔㅇㅣㄷㅡ -6663
▁ㅁㅏㄴㄴㅏㅁ -6664
▁ㄱㅗㅇㅟ -6665
▁ㅇㅑㅅㅜ -6666
▁ㄱㅡㄹㅓㄱㅈㅓㄹㅓㄱ -6667
▁ㅅㅡㅇㄱㅐㄱ -6668
TE -6669
▁ㄱㅓㄹㅁㅏㅈ -6670
ㅇㅓㅎㅏ -6671
▁ㅅㅐㄱㅣ -6672
▁by -6673
▁ㄷㅓㅇㅊㅣ -6674
▁1987 -6675
▁ㅎㅗㄱㅣ -6676
▁ㅃㅓㄷ -6677
▁ㅅㅣㅎㅏㅂ -6678
ㅜㅊㅣ -6679
▁ㅂㅏㄱㅁㅜㄹ -6680
▁ㅂㅜㄹㅍㅔㄴ -6681
▁ㅍㅣㄹㄹㅣ -6682
▁ㅃㅗㅂㅎㅣ -6683
oth -6684
▁ㅅㅡㅋㅡㄹㅣㄴ -6685
▁ㄱㅏㅁㄱㅏㄱ -6686
▁ㅂㅜㅈㅏ -6687
▁ㅅㅏㅇㅅㅣㄱ -6688
▁ㅈㅏㅁㅈㅐ -6689
▁ㅇㅣㅅㅡ -6690
▁ㅈㅏㅇㅣㅇㅓㄴㅊㅡ -6691
▁ㅇㅜㄹㅍㅡ -6692
▁ㅎㅏㅇㄱㅗㅇㄱㅣ -6693
▁ㅅㅡㅌㅔㅇㅣ -6694
▁ㅇㅗㅁ -6695
▁ㅅㅠㅍ -6696
▁Dr -6697
▁ㅅㅓㅇㄹㅣㅂ -6698
▁ㅍㅏㅍㅕㄴ -6699
▁ㅇㅟㅂㅏㄴ -6700
▁ㅋㅏㄹㄹㅣ -6701
▁ㄸㅟㅇㅓㄴㅓㅁ -6702
az -6703
▁ㅂㅜㅈㅣ -6704
▁ㄷㅡㅇㅈㅣ -6705
▁ㅅㅡㅇㅞㄷㅔㄴ -6706
▁ㅅㅡㅇㅈㅏ -6707
▁ㅇㅏㄴㄱㅣ -6708
▁ㅊㅜㄹㄱㅕㄱ -6709
▁ㅇㅣㅀㅇㅓㅂㅓㄹㅣ -6710
▁ㅅㅏㅇㅇㅕㅇ -6711
ep -6712
▁ㅂㅜㄹㅅㅏ -6713
▁ㄹㅕㄷㅓㄴ -6714
▁ㅅㅣㅇㅝㄴ -6715
▁ㄱㅣㄴㅈㅏㅇ -6716
man -6717
▁ㄲㅏㄹㄹㅣ -6718
ㅍㅐㄴ -6719
▁ㄱㅣㄷㅗㅇㅅㅓㅇ -6720
▁ㅍㅡㄹㅏㅇㅣ -6721
ㅐㅇㅇㅣ -6722
▁ㄹㅏㄴㅣ -6723
ㅇㅓㄴㅓㅎ -6724
▁ㅊㅜㄱㅂㅗㄱ -6725
▁ㅇㅣㅂㄷㅐ -6726
▁ㅎㅏㅇㅣㅍㅓ -6727
▁ㅂㅐㅌㅡㅁㅐㄴ -6728
▁ㅋㅣㄹㄹㅓ -6729
ㅅㅡㅋㅣ -6730
▁ㄴㅐㅈㅣ -6731
▁ㄹㅓㅁ -6732
▁ㅋㅏㅈㅡ -6733
▁ㄱㅕㄴㄷㅣ -6734
▁ㅇㅠㅎㅏㄱ -6735
ㄴㅔㅇㅣㅁ -6736
▁ㅁㅐㄴㅕㄴ -6737
ㅊㅓㅁ -6738
▁ㅈㅣㅂㅊㅏㄱ -6739
▁ㅍㅡㄹㅗㄹ -6740
▁ㄱㅡㅂㄱㅕㄱ -6741
OU -6742
▁ㅁㅜㄴㅈㅐㅇㅣㄴ -6743
ㅌㅐㅇㅜ -6744
▁ㅂㅜㄷㅡㄹ -6745
▁ㄹㅗㄱㅁㅐㄴ -6746
▁ㅎㅡㅌ -6747
ale -6748
▁;&# -6749
▁ㄱㅝㄴㅈㅏㅇ -6750
ㄷㅔㅁㅣ -6751
▁ㅌㅣㅂ -6752
▁OP -6753
▁ㅈㅣㅊㅣ -6754
▁ㅈㅏㄱㄴㅕㄴ -6755
▁ㅎㅗㅊㅣㅇ -6756
▁ㅅㅓㅅㅓ -6757
VA -6758
▁ㄴㅏㅈㅊㅜ -6759
▁ㅍㅡㄹㄹㅏㅇㅣ -6760
▁ㅌㅚㅈㅏㅇ -6761
▁ㄱㅣㅇㅣㄴ -6762
▁ㅇㅏㅋㅏㄷㅔㅁㅣ -6763
▁ㄴㅐㅈㅓㄴ -6764
▁ㄱㅜㄱㅡㄹ -6765
▁ㅍㅡㄹㄹㅐㄱㅡ -6766
▁ㅇㅣㄹㄷㅐ -6767
ㄹㄹㅏ -6768
▁ㅅㅣㅀㅇㅓㅎㅏ -6769
▁ㅇㅣㄷㅡ -6770
▁ㄴㅣㅅㅡ -6771
▁ㅅㅡㅍㅗㄴ -6772
▁ㅎㅐㅁㅕㅇ -6773
▁ㅊㅏㅇㄱㅗ -6774
ㄲㅗ -6775
▁ㅊㅏㅁㄱㅏㅈㅏ -6776
▁ㅅㅡㅌㅔㄹ -6777
▁ㅍㅕㅇㅈㅓㅁ -6778
▁ㅈㅓㄱㅈㅜㅇ -6779
ㅏㅇㅝ -6780
▁ㅂㅜㄴㅁㅕㅇㅎㅣ -6781
▁ㅁㅏㅂㅓㅂㅅㅗㄴㅕ -6782
ㄱㅗㅂ -6783
▁ㅎㅏㄴㅉㅗㄱ -6784
▁ㅊㅓㅇㅅㅗ -6785
ㅗㄹㅏ -6786
▁ㄱㅗㅂ -6787
▁ㄱㅕㄹㅅㅣㅁ -6788
▁ㅎㅟㅁㅏㄹㄹㅣ -6789
▁RPG -6790
70 -6791
ach -6792
ㄹㅏㄷㅗ -6793
ㄷㅏㄴㅏ -6794
▁ㅁㅣㅋㅣ -6795
▁ㅅㅓㄴㄱㅗ -6796
▁ㅍㅡㄹㄹㅗ -6797
▁ㅌㅡㄹㅗㄹ -6798
▁ㅅㅣㄱㅗㅇ -6799
ㅈㅐㅇㅇㅣ -6800
▁ㅅㅣㄹㅈㅗㅇ -6801
▁ㄱㅛㄱㅘ -6802
▁ㄹㄱㅔ -6803
▁ㅇㅗㅁㅏ -6804
▁ㄱㅣㅇㅜㄴ -6805
ㅍㅡㅁ -6806
▁ㄷㅗㅇㅈㅓㅁ -6807
▁ㅎㅔㅇㅓ -6808
▁ㅍㅗㄹㅡㅌ -6809
▁ㅁㅣㅋㅜ -6810
▁ㄱㅘㄴㅎㅏㄹ -6811
▁ㅌㅏㅁㅎㅓㅁ -6812
arg -6813
▁ㅇㅕㄹㅁㅐ -6814
▁ㄸㅡㄱㅓㅂ -6815
▁ㅇㅗㅍㅡ -6816
▁ㅍㅏㅅ -6817
▁ㅎㅞ -6818
▁1500 -6819
ㅏㅇㅜㄴㅅㅓ -6820
▁ㅇㅏㄴㅏㅇㅜㄴㅅㅓ -6821
▁ㄷㅐㄱㅜㄱ -6822
ㅓㅁㅓㄴㅌㅡ -6823
ㄸㅡ -6824
▁Sc -6825
▁ㅎㅏㄱㄱㅣ -6826
▁ㅇㅛㅇㅇㅣㄴ -6827
ook -6828
▁ㄱㅡㄹㅓㅎㅈㅣㅁㅏㄴ -6829
▁ㄱㅡㄴㄱㅓㄹㅣ -6830
▁ㅎㅡㄱㅇㅣㄴ -6831
▁ㅇㅡㅂ -6832
▁ㄴㅗㅂㅏ -6833
▁ㅂㅗㄴㅈㅣㄴ -6834
▁ㅈㅜㅇㅎㅕㅇ -6835
▁ㅇㅑㄱㅎㅘ -6836
▁ㄱㅕㄹㅎㅏㅂ -6837
▁ㄱㅕㄹㅌㅜ -6838
ows -6839
ㅓㅅㅡㄴ -6840
▁ㅂㅓㅂㅇㅣㄴ -6841
▁ㄱㅕㅇㅈㅣㄱ -6842
▁5000 -6843
ㅌㅡㅇㅝㅋㅡ -6844
ㅍㅡㄹㄹㅔㅇㅣ -6845
▁ㅈㅓㅇㄱㅣ -6846
▁ㄱㅏㅁㅊㅜ -6847
ㅍㅡㄹㅔ -6848
▁ㅎㅐㅇㅏㄴ -6849
ㅃㅏㅇ -6850
ㅋㅣㅅ -6851
▁111 -6852
ㅓㅁㅕㄴ -6853
▁ㄴㅜㄱ -6854
▁ㅇㅗㅋㅏ -6855
▁ㅎㅗㅎㅡㅂ -6856
orm -6857
▁ㅌㅗㄴㅓㅁㅓㄴㅌㅡ -6858
▁ㅅㅜㄴㅡㅇ -6859
▁ㄱㅙㄴㅎㅣ -6860
▁ㅇㅓㅍㅏㄴ -6861
▁ㅈㅓㄴㅅㅡㅇ -6862
▁ㅅㅐㅇㅁㅕㅇㅊㅔ -6863
ㄲㅜㄹ -6864
▁ㅁㅣㅋㅏ -6865
ㄲㅡㄴ -6866
▁ㅇㅓㄴㄷㅓ -6867
▁ㅅㅡㅋㅐㄴ -6868
▁ㅁㅣㄱㅅㅡ -6869
ㄷㅓㄴㅈㅣ -6870
▁ㅇㅏㅁㅅㅏㄹㅈㅏ -6871
▁ㅇㅑㅅㅐㅇ -6872
▁ㅂㅏㄹㄹㅔㄴ -6873
▁ㄴㅐㅇㅣㄹ -6874
▁ㅅㅔㄴㅅㅡ -6875
ish -6876
▁ㅊㅐㅂㅗ -6877
ky -6878
▁ㄴㅏㄹㅇㅏㅇㅗ -6879
▁ㅅㅓㄱㅜ -6880
▁ㅇㅕㄴㅎㅏㅂㄱㅜㄴ -6881
▁ㅅㅣㅇㅋㅡ -6882
▁Team -6883
▁ㅇㅏㄱㅁㅗㅇ -6884
▁ㅊㅓㄴㅇㅏㄴ -6885
ㄸㅓㄹ -6886
▁KBO -6887
ㅅㅡㄹㅓㅂ -6888
▁ㅇㅘㄴㄱㅕㄹ -6889
▁ㅍㅔㅇㅣㅅㅡㅂㅜㄱ -6890
▁ㅈㅣㅇㅟ -6891
▁ㅍㅡㄹㄹㅐㅅㅣ -6892
▁ㄱㅡㄴㅂㅗㄴ -6893
▁}} -6894
ㄱㅏㄹㄹㅣ -6895
▁ㄷㅗㅇㅇㅏㄹㅣ -6896
▁ㅈㅜㅂ -6897
▁ㅁㅠㅈㅣㅋㅓㄹ -6898
▁ㅅㅣㄴㅗ -6899
▁ㅂㅕㄴㅎㅘㄴ -6900
▁ㅇㅜㅈㅓㅇ -6901
▁ㅅㅡㅇㅟㅊㅣ -6902
▁ㅌㅔㄹㅏ -6903
▁ㅅㅗㄹㅈㅣㄱ -6904
▁ㅈㅓㅇㅊㅏ -6905
▁ㅂㅗㄴㅅㅏ -6906
▁BB -6907
▁Go -6908
▁ㄱㅜㅁㅣ -6909
▁ㅁㅏㅇㄱㅏㅈㅣ -6910
▁ㅊㅣㅁㄹㅑㄱ -6911
▁ㅅㅓㄴㄷㅜ -6912
ae -6913
ㅅㅡㅌㅣㄴ -6914
▁ㅇㅕㄴㅅㅡㅂㅅㅐㅇ -6915
▁ㅊㅣㅁㅁㅜㄱ -6916
▁ㅅㅏㅋㅣ -6917
▁ㅂㅜㄹㄱㅛ -6918
▁ㅂㅏㄱㅁㅜㄹㄱㅘㄴ -6919
▁ㅌㅗㅇㅎㅘ -6920
▁ㅅㅣㄴㅂㅏㄹ -6921
GE -6922
▁ㅊㅣㅁㅇㅣㅂ -6923
▁ㅊㅓㄴㅎㅏ -6924
▁ㅈㅣㅍㅏㅇㅇㅣ -6925
ㅏㅇㅣㅇㅓㄴ -6926
▁ㅁㅏㅇㅜㅅㅡ -6927
▁ㅈㅏㅇㅇㅣㄴ -6928
ug -6929
▁ㅂㅗㅇㅣㅅㅡ -6930
▁ㅅㅏㅇㅣㄴ -6931
▁ㅅㅗㅇㅡㅁ -6932
Hz -6933
▁ㅅㅣㄴㄴㅏ -6934
ade -6935
ㅌㅏㄹㅣ -6936
ㅌㅗㄹ -6937
▁ㄴㅐㄹㅕ -6938
rom -6939
▁ㅂㅡㄹㅏㅇㅜㄴ -6940
▁ㅅㅣㄹㅏ -6941
▁ㅊㅗㅇㅣㄴ -6942
▁ㅁㅗㅌㅗ -6943
▁ㅁㅏㅁㅜㄹ -6944
▁ㄷㅗㅇㄱㅡㅂ -6945
ㅋㅓㅅㅡ -6946
▁ㅇㅖㅂㅣ -6947
▁ㅌㅏㅅㅓㄱ -6948
ㅋㅜㅇ -6949
ㅇㅓㅂㅜㅌ -6950
▁ㅇㅠㄹㅕㄱ -6951
▁ㄷㅗㄹㅇㅣㅂ -6952
ile -6953
▁ㅈㅣㅈㅣㄴ -6954
▁ㅌㅗㅇㄱㅖ -6955
▁ㅁㅕㄴㅈㅓㄱ -6956
▁ㅂㅜㅅㅣㄹ -6957
ㅏㄱㅓㄴㅏ -6958
▁ㅇㅠㄱㅕㄱ -6959
▁ㄴㅏㅁㅏ -6960
▁ㅍㅏㄴㄱㅕㄹ -6961
ㄷㅡㄴㅈㅣ -6962
▁ㅇㅕㅇㄱㅘㅇ -6963
yle -6964
▁ㄱㅘㄴㄹㅣㅈㅏ -6965
ㅍㅐㄱㅌㅡ -6966
▁ㅇㅏㄴㄱㅐ -6967
▁FIFA -6968
▁ㅂㅓㅇ -6969
▁ㅇㅏㅈㅡ -6970
▁ㅈㅣㅂㅜㄹ -6971
▁ㅊㅏㅁㅁㅗ -6972
▁ㅇㅕㅇㅜ -6973
▁ㅋㅗㄹㄹㅗ -6974
▁ㅋㅝㅌㅓ -6975
▁ㄷㅐㅇㅘㅇ -6976
▁ㄱㅕㅇㅂㅜㄱ -6977
ㅏㅁㅜ -6978
ㅈㅏㅇㅘ -6979
▁ㅅㅓㅋㅡㄹ -6980
▁ㅇㅣㅁㅍㅐㄱㅌㅡ -6981
▁ㅇㅣㄹㅂㅗㄴㄱㅜㄴ -6982
▁ㅂㅓㅂㅈㅓㅇ -6983
ㅂㅜㄹㅗ -6984
▁ㅅㅗㅂㅏㅇ -6985
ㅅㅣㄴㅗ -6986
▁ㅌㅗㄴㅣ -6987
ash -6988
ower -6989
▁ㅋㅗㅅㅡㅌ -6990
▁ㅌㅡㄹㅣㅍㅡㄹ -6991
irl -6992
▁ㄹㅔㄹ -6993
ink -6994
▁ㅅㅜㄱㅡㅂ -6995
▁ㅁㅗㄴㅗ -6996
▁ㅊㅓㄹㅅㅜ -6997
▁1986 -6998
ㄷㅔㄷㅡ -6999
ㅓㅂㅜㄴ -7000
▁ㅊㅜㄹㄱㅜ -7001
ㅕㄴㅏㄱㅏ -7002
▁ㄱㅏㅈㅜㄱ -7003
▁ㄱㅠㄴㅎㅕㅇ -7004
▁ㅁㅜㅅㅣㅁㅜㅅㅣ -7005
ㅂㅣㄹㅕㄱ -7006
▁ㄱㅏㅁㅅㅏㅇ -7007
▁ㅇㅣㅁㅅㅣㄴ -7008
▁ㅌㅗㅇㅊㅣ -7009
▁ㅁㅜㅈㅏㄱㅇㅟ -7010
▁ㅅㅏㄹㅍ -7011
▁ㅅㅏㄹㅍㅕㅂㅗ -7012
▁ㅋㅡㄹㅔ -7013
▁CH -7014
▁ㄷㅓㄱㅜㄴㄷㅏㄴㅏ -7015
▁ㅁㅜㄱㅘㄴ -7016
▁ㅅㅓㅎ -7017
▁ㅈㅣㄹㄹㅣ -7018
▁ㅇㅓㄴㄷㅔㄷㅡ -7019
▁ㅅㅜㅂㅣㄹㅕㄱ -7020
▁ㅍㅡㄹㅣㅁㅣㅇㅓㅁ -7021
▁ㅂㅗㅎㅓㅁ -7022
▁ㅂㅐㄹ -7023
▁ㄷㅐㄱㅓ -7024
TS -7025
▁CG -7026
▁ㅅㅔㅌㅣㅇ -7027
▁ㄱㅏㅁㅈㅣ -7028
▁ㅂㅔㅌㅏ -7029
▁ㅅㅗㄱㅇㅣ -7030
▁ㅎㅏㅇㅂㅗㄱ -7031
▁ㄱㅏㄴㄱㅏㄴ -7032
atch -7033
▁ㅇㅣㄴㅈㅣㄹ -7034
▁ㅍㅖㅅㅙ -7035
▁ㅁㅏㅅㅡㅋㅡ -7036
▁ㄱㅡㅂㅎㅏ -7037
▁ㅇㅣㄴㄹㅕㄱ -7038
▁ㅊㅐㅌㅐㄱ -7039
▁FW -7040
▁ㅇㅕㄹㅓㅂㅜㄴ -7041
▁ㄷㅣㅈㅔㄹ -7042
▁ㅆㅓㄴㄷㅓ -7043
▁ㅊㅓㅈㅣ -7044
▁ㅁㅏㄱㅍㅏㄴ -7045
▁ㄱㅕㄱㅊㅏ -7046
▁ㅂㅏㅃㅡ -7047
▁ㅅㅏㅂㅇㅣㅂ -7048
▁we -7049
▁ㅎㅗㄱㅅㅣ -7050
ㅂㅏㄴㄷㅗ -7051
▁ㅅㅡㅋㅜㄹ -7052
▁ㅁㅗㅇㄱㅗㄹ -7053
▁ㅂㅅㅣㅇㅗ -7054
▁ㅂㅏㄴㅂㅏㄱ -7055
▁ㄱㅗㅂㅡㄹㄹㅣㄴ -7056
▁ㅎㅓㄱㅏ -7057
▁ㅊㅓㄹㅈㅓ -7058
▁ㅁㅜㄹㄹㅣㅊㅣ -7059
▁ㅇㅣㄴㅂㅏㅇ -7060
▁ㄱㅣㄹㅡㅁ -7061
▁ㅇㅣㅎㅗㄴ -7062
▁ㅈㅔㅈㅓㅇ -7063
▁ㄴㅏㅁㅂㅜㄱ -7064
▁ㄷㅏㄴㅇㅝㄴ -7065
▁ㄲㅔㅅㅓ -7066
▁ㄱㅘㄴㄱㅖㅈㅏ -7067
IM -7068
▁ㄱㅏㄷㅣㅇㅓㄴ -7069
▁ㅂㅣㅈㅓㄴ -7070
▁DD -7071
▁ㄱㅡㄹㅣㄴ -7072
▁ㄱㅕㅇㄴㅏㅁ -7073
▁ㅊㅏㅇㅇㅝㄴ -7074
▁ㅎㅐㅇㅎㅏ -7075
▁ㅅㅗㅍㅡ -7076
▁ㅇㅠㅇㅣㄴ -7077
ㅇㅓㄷㅡㄹㅇㅣ -7078
ial -7079
▁ㅇㅓㅇㅣ -7080
sh -7081
▁ㅈㅗㄴㄱㅕㅇ -7082
▁ㅂㅐㄱㅇㅣㄴ -7083
CG -7084
▁ㅌㅡㄹㅓㅁㅍㅡ -7085
▁ㅎㅜㄱㅖㅈㅏ -7086
▁ㅍㅗㅇㅟ -7087
▁ㄱㅣㅁㅅㅏㅇ -7088
▁ㅋㅗㄹㄹㅏㅂㅗ -7089
▁ㅍㅗㅋㅔㅅㅁㅗㄴㅅㅡㅌㅓ -7090
▁ㅅㅓㄴㄱㅓㄱ -7091
ㄸㅜㄱ -7092
▁ㄲㅐㄷㅏㄹ -7093
▁ㅂㅐㅍㅗ -7094
ㄷㅏㅂㅗ -7095
▁ㅁㅓㄹㅣㅋㅏㄹ -7096
▁ㅁㅣㅋ -7097
▁ㄴㅗㄹㄹㅣ -7098
▁ㅇㅏㅁㅔㄹㅣㅋㅏ -7099
▁ㅁㅜㅅㅏㅎㅣ -7100
▁ㄴㅏㅁㅁㅐ -7101
▁ㅂㅜㄹㄹㅓㅇ -7102
▁ㅇㅕㅇㅇㅝㄴㅎㅣ -7103
▁ㅅㅜㅁㅕㄴ -7104
▁ㄱㅗㄹㄹㅔㅁ -7105
▁ㅌㅜㅅㅡ -7106
▁ㅅㅡㅌㅡㄹㅔㅅㅡ -7107
▁ㅋㅏㅇㅘ -7108
ㅁㅗㅁ -7109
▁ㅊㅐㄹㄹㅣㄴㅈㅣ -7110
▁War -7111
▁ㄱㅣㅁㄱㅕㅇ -7112
▁ㅇㅣㅌㅗ -7113
▁ㅇㅣㄴㅇㅛㅇ -7114
▁ㅁㅐㅂㅓㄴ -7115
▁ㅂㅗㄱㅈㅔ -7116
▁ㄷㅗㅇㅇㅑㅇ -7117
ㅈㅓㅇㅂㅜ -7118
▁ㅇㅣㄹㄷㅏㅇ -7119
▁ㄲㅣㅇㅜ -7120
ㅇㅓㅇㅗㄹㄹㅣ -7121
▁ID -7122
▁ㅊㅔㅇㅣㄴㅈㅣ -7123
▁ㅂㅗㄱㅅㅓㄴ -7124
▁ㅈㅗㄹㅗㅇ -7125
▁ㅁㅏㄱㄴㅐ -7126
▁ㄷㅜㄹㅡ -7127
▁ㅇㅗㄴㅡㄹㄴㅏㄹ -7128
▁ㅌㅗㅁㅏ -7129
▁ㅅㅗㅅㅗㅇ -7130
▁ㄱㅣㄱㅏㅂ -7131
▁ㄱㅗㄱㅜㄹㅕ -7132
▁ㄱㅜㄱㄷㅏㅇ -7133
▁ㄱㅣㅅㅔ -7134
▁ㅎㅏㅇㅣㄴ -7135
▁ㅎㅏㄱㅅㅡㅂ -7136
▁LA -7137
ㅌㅡㄹㄹㅓ -7138
▁ㅍㅗㄹㅡㅌㅜㄱ -7139
▁Star -7140
▁ㅁㅜㄹㄹㅑㅇ -7141
▁ㄹㅣㅍㅡ -7142
▁106 -7143
▁ㅈㅜㅇㅂㅗㄱ -7144
▁ㅂㅏㄷㅣ -7145
▁ㄱㅐㅅㅓㄹ -7146
▁ㅍㅣㅇㅋㅡ -7147
▁ㅍㅗㄹㅡㅌㅜㄱㅏㄹ -7148
▁ㅅㅡㄹㅍㅡ -7149
ㅏㅇㅏ -7150
ㅋㅗㄷㅡ -7151
▁ㄱㅏㅁㅏㄴㅎㅣ -7152
▁ㅅㅏㄴㅌㅏㄴ -7153
▁ㅈㅗㄹㅣ -7154
▁ㄴㅣㄹ -7155
▁up -7156
▁ㄴㅑㅁㅕㄴ -7157
ㅅㅡㅌㅡㄹ -7158
▁ㅂㅗㅊㅜㅇ -7159
▁ㅅㅜㅊㅜㄹ -7160
▁ㅈㅜㄴㅇㅜㅅㅡㅇ -7161
ㅈㅓㄴㅊㅏ -7162
▁ㅇㅣㅇㅗㄴ -7163
▁ㅇㅙㄱㅗㄱ -7164
▁ㅋㅐㅊㅣ -7165
▁ㅍㅣㅇㅜ -7166
▁ㅍㅕㄹㅊㅕㅈㅣ -7167
▁ㅇㅔㅍㅣㄱ -7168
▁ㄷㅗㅇㅁㅕㅇ -7169
▁ㄱㅏㄴㄷㅏㄴㅎㅣ -7170
ㅂㅏㄹㅡ -7171
▁ㄴㅏㄹㅋㅏㄹ -7172
▁ㅈㅡㄱㅅㅏ -7173
▁ㅇㅓㅅ -7174
▁ㅅㅓㄴㅎㅐㅇ -7175
▁ㅅㅣㅇㅣㄴ -7176
▁ㅌㅡㄹㅏ -7177
▁ㅊㅔㅎㅓㅁ -7178
▁ㅋㅗㄴㅏㄴ -7179
ㅍㅣㄹㄷㅡ -7180
▁ㅅㅏㅇㄷㅏㅁ -7181
▁ㅂㅗㄱㅓㄴ -7182
▁ㅇㅗㄷㅣㅅㅕㄴ -7183
▁ㅎㅐㄴㅐ -7184
▁ㅈㅏㅇㅅㅣㄴ -7185
▁ㅍㅡㄹㅏㅇㅣㅁ -7186
▁ㅂㅜㄴㅇㅕㄹ -7187
▁ㅁㅜㄹㄱㅗㄱㅣ -7188
ㅂㅣㄱ -7189
▁ㄷㅐㅊㅐㄱ -7190
▁ㅌㅗㅋㅡ -7191
▁ㅁㅔㅇㅣㅍㅡㄹ -7192
▁ㄱㅣㅅㅏㅇ -7193
▁ㄴㅗㅅㅡ -7194
▁ㄷㅐㅅㅜ -7195
▁ㅈㅓㅇㅌㅗㅇ -7196
▁ㅇㅏㄹㅏㅂ -7197
ㅇㅏㅅㅣㅇㅏ -7198
▁ㅁㅜㅇㅊㅣ -7199
▁ㅁㅣㅁㅏㄴ -7200
▁ㅍㅣㄴㅣㄱㅅㅡ -7201
▁ㅈㅏㅁㅇㅣㅂ -7202
▁ㅁㅏㄴㅁㅏㄴ -7203
▁ㄷㅔㅇㅣㅌㅡ -7204
▁ㅎㅗㄴㄷㅗㄴ -7205
▁ㄴㅔㅌㅡㅇㅝㅋㅡ -7206
ㅡㅅㅔㄹ -7207
▁ㅈㅜㅇㄹㅕㄱ -7208
▁ㅂㅐㅈㅓㅇ -7209
▁ㅁㅔㅇㅣㅋㅓ -7210
▁ㄴㅣㄱㄴㅔㅇㅣㅁ -7211
▁DVD -7212
ㅊㅓㄴㅅㅣ -7213
ㅌㅣㅅㅡ -7214
▁ㅅㅔㄹㅣ -7215
▁ㅂㅏㅇㅇㅟ -7216
ㅋㅣㅈㅣ -7217
ㅇㅜㅁ -7218
▁ㅂㅓㅅㅓㅅ -7219
▁ㅊㅓㅂㅜㄴ -7220
▁ㅎㅐㅋㅣㅇ -7221
▁ㅁㅔㄹㄹㅗㄷㅣ -7222
▁PR -7223
▁115 -7224
▁ㅈㅓㄴㅂㅜㄱ -7225
▁ㅎㅏㅇㅇㅢ -7226
▁ㄱㅗㅇㅇㅓㅂ -7227
▁ㅎㅐㅁㅓ -7228
ㄷㅗㄹㅣ -7229
▁ㅁㅣㅈㅡ -7230
ㅎㅘㅈㅓㅁ -7231
▁ㅅㅓㄴㅈㅔ -7232
▁ㅅㅜㅅㅓㄱ -7233
▁ON -7234
▁ㅅㅏㅇㅎㅏㄴ -7235
▁ㄴㅏㄹㅋㅏㄹㅗㅂ -7236
▁ㅇㅕㅈㅓㄴ -7237
▁ㅎㅜㅇㅝㄴ -7238
▁ㅇㅗㄹㄹㅏ -7239
▁ㅇㅡㄴㅈㅣ -7240
▁ㅈㅣㄴㅇㅏㅂ -7241
▁ㅇㅜㄹㅡ -7242
▁ㅇㅓㄱㅈㅣㄹㅗ -7243
ㅅㅓㅁ -7244
▁ㄷㅏㄴㅎㅐㅇ -7245
▁102 -7246
▁ㄴㅏㅁㄴㅕ -7247
▁ㅇㅏㄱㄱㅣ -7248
ING -7249
▁ㅈㅓㄴㅈㅜ -7250
▁ㄱㅐㅇㅓㅂ -7251
▁ㅅㅜㅂㅐㄱ -7252
▁fe -7253
▁ㅍㅐㅋㅣㅈㅣ -7254
▁ㅈㅓㄴㄷㅗㅇ -7255
ous -7256
▁ㄱㅣㅈㅐ -7257
▁ㅅㅏㄹㅕㅇㅂㅜ -7258
▁ㄷㅡㄹㅔ -7259
▁ㅁㅏㅇㅗ -7260
▁ㅈㅏㅂㅗㄴ -7261
▁ㅍㅏㅇㅣㅌㅡ -7262
▁ㅇㅠㅅㅏㄴ -7263
▁ㅂㅐㅇㅕㄱ -7264
▁ㅊㅜㄱㅎㅏ -7265
▁ㅍㅓㅍㅗㅁ -7266
▁ㅍㅓㅍㅗㅁㅓㄴㅅㅡ -7267
▁ㅈㅏㅇㄱㅓㄹㅣ -7268
▁ㅎㅏㅎㅏ -7269
▁For -7270
▁ㅅㅜㅁㅕㅇ -7271
▁ㅇㅜㄹㅏ -7272
▁Ne -7273
▁ㄱㅣㄷㅗㅇㅈㅓㄴ -7274
▁ㄷㅡㄹㅣㅁ -7275
▁ㅌㅏㅇㅣㄹ -7276
▁ㅅㅓㅍㅗㅌㅡ -7277
▁ㅈㅏㅇㅌㅏㄴㅅㅜ -7278
▁And -7279
att -7280
▁ㅍㅡㄹㄹㅓㅅㅡ -7281
▁ㅇㅏㄱㅎㅘ -7282
amp -7283
ㅅㅔㄷㅐ -7284
▁ㅍㅗㅈㅡ -7285
▁ㅅㅓㅇㅈㅓㄴ -7286
▁ㅂㅜㄷㅡㄹㅓㅂ -7287
▁ㅇㅣㅌㅓ -7288
ㄷㅡㄹㅣㄷㅡ -7289
▁ㅁㅏㄷㅡㄹㅣㄷㅡ -7290
▁ㄱㅜㅇㄱㅡㅁ -7291
▁ㅌㅡㄴ -7292
▁ㅁㅗㅅㅣ -7293
▁ㅈㅏㅈㅓㄴㄱㅓ -7294
▁ㅋㅗㄴㅌㅔㄴㅊㅡ -7295
ㅠㄹㄹㅓ -7296
▁ㅇㅗㅇㅎㅗ -7297
▁ㅅㅏㅇㅣㅋㅗ -7298
▁ㄴㅣㅅ -7299
▁ㅍㅏㄷㅗㅇ -7300
▁ㄲㅞ -7301
▁ㅈㅣㄹㅣ -7302
▁ㅍㅏㅁㅕㄹ -7303
▁ㅌㅗㅇㄹㅗ -7304
▁ㅂㅜㄴㅈㅐㅇ -7305
▁ㅎㅗㄹㅏㅇㅇㅣ -7306
▁}}} -7307
▁ㅈㅓㅇㅂㅏㄹ -7308
▁ㅊㅐㅁㅍㅣ -7309
▁ㅇㅜㅅㅔ -7310
ㅏㅇㅔ -7311
▁ㅈㅓㄴㅈㅔ -7312
▁ㅇㅑㄱㅜㅈㅏㅇ -7313
ㅇㅓㄴㅗㅎ -7314
▁ㅁㅓㅁㅜㄹㅡ -7315
▁ㅅㅏㅇㅛㅇㅈㅏ -7316
▁ㄱㅡㄴㅏㄹ -7317
▁ㅇㅜㄹㅌㅡㄹ -7318
▁ㅍㅓㅂ -7319
▁ㄱㅏㄱㅗㅇ -7320
▁ㅃㅗㅂㅇㅏㄴㅐ -7321
▁ㅅㅣㄴㅇㅣㅂ -7322
▁ㅈㅏㅁㄷㅡㄹ -7323
▁GP -7324
ㅔㅇㅣㅁㅓ -7325
▁ㅍㅗㅌㅡ -7326
▁ㄷㅗㄱㅏㅁ -7327
▁ㅁㅗㅎㅓㅁㄱㅏ -7328
▁ㅊㅔㄹㅅㅣ -7329
▁175 -7330
▁ㅌㅏㅁㅈㅓㅇ -7331
▁Cr -7332
▁ㄱㅣㄹㅕㄱ -7333
▁ㅅㅔㅂㅜ -7334
ㅂㅏㄷㅏㄱ -7335
▁ㅈㅜㄴㅣㅇㅓ -7336
▁ㄴㅗㄴㅇㅢ -7337
▁ㅈㅐㅎㅚ -7338
▁188 -7339
▁Wind -7340
▁ㅌㅏㅇㅣㅌㅏㄴ -7341
▁ㅂㅐㄷㅏㄹ -7342
▁ㄷㅐㅊㅣ -7343
▁ㄷㅏㄱㅏㄱㅏ -7344
▁ㅁㅜㅅㅜㄹ -7345
▁ㅍㅡㄹㅏ -7346
▁ㅊㅚㅅㅏㅇㅇㅟ -7347
ㅊㅡㅁㅣ -7348
▁ㅈㅗㅇㅑㄱ -7349
▁ㄲㅏㅁㅉㅏㄱ -7350
▁ㅇㅏㄹㅡㅎㅔㄴ -7351
▁ㅋㅗㄱ -7352
▁ㄱㅗㅇㅈㅓㅇ -7353
▁1985 -7354
▁ㅇㅏㅌㅔㄴ -7355
▁ㅊㅓㅊㅏㅁ -7356
▁ㅇㅗㅅㅡㅌㅡㄹㅣㅇㅏ -7357
▁ㅂㅣㅇㅜㅅ -7358
▁ㅎㅐㅇㅂㅏㅇ -7359
▁ㅇㅠㅅㅓㅇ -7360
▁ㅇㅞㄹ -7361
▁ㄱㅘㅇㅅㅓㄴ -7362
ㅍㅣㄴㅣ -7363
▁ㅇㅗㅁㅔ -7364
▁ㅇㅑㅇㅅㅏㅇ -7365
▁ㅍㅏㅅㅐㅇ -7366
ㅋㅣㅇㅏ -7367
me -7368
ㅍㅜ -7369
ㅏㅁㅐㄴ -7370
▁ㄲㅡㄹㄹㅕㄱㅏ -7371
▁ㄱㅓㄴㄴㅔ -7372
ㅈㅕ -7373
▁ㅌㅠㄴ -7374
▁ㅁㅜㅅㅡ -7375
▁ㅂㅜㅅㅓㅈㅣ -7376
▁bl -7377
▁ㅌㅔㅁㅍ -7378
ㅈㅜㅁㅣㄴ -7379
▁ㄱㅣㅁㅈㅣㄴ -7380
▁ㅈㅣㄴㅎㅏㄱ -7381
▁ㅊㅔㄱㅏㅁ -7382
▁ㅊㅚㅈㅓㄱ -7383
▁ㅊㅏㅊㅔ -7384
AY -7385
▁ㅇㅟㅇㅏㄴ -7386
▁ㅎㅜㅅㅗㄴ -7387
▁ㅂㅜㄴㅎㅐ -7388
▁ㅁㅏㅋㅗㅌㅗ -7389
▁ㅇㅣㄴㅍㅣㄴㅣ -7390
▁ㅇㅏㄹㅡㅎㅔㄴㅌㅣㄴㅏ -7391
▁ㅈㅏㅇㅁㅣ -7392
▁ㅈㅡㅇㅍㅗㄱ -7393
▁ㅍㅓㄱ -7394
ㅌㅔㄴㄷㅗ -7395
▁ㅌㅓㅅㅡ -7396
▁ㄴㅣㄴㅌㅔㄴㄷㅗ -7397
▁wid -7398
▁ㅅㅏㄴㅎㅏ -7399
▁ㅇㅙㄴㅑ -7400
ms -7401
▁ㅈㅡㅇㅡㅁ -7402
▁ㄱㅏㅇㅇㅝㄴㄷㅗ -7403
▁ㅇㅕㅎㅏㄱㅅㅐㅇ -7404
▁ㅁㅣㄴㅏㅁㅣ -7405
ib -7406
ㅎㅏㅅㅣ -7407
64 -7408
ㅋㅣㄱ -7409
▁ㄱㅘㄴㅈㅓㅁ -7410
▁ㅍㅗㄱㅎㅐㅇ -7411
▁ㅂㅜㅊㅏㄱ -7412
▁ㅇㅏㄷㅗㅇ -7413
▁ㅎㅔㅅ -7414
▁ㅈㅜㄷㅜㄴ -7415
▁al -7416
▁ㅂㅏㅇㅊㅣ -7417
▁ㄱㅠㄱㅕㄱ -7418
▁ㄴㅏㄴㅅㅏ -7419
▁ㄱㅣㅃㅡ -7420
ㅏㅇㅣㄷㅓ -7421
ft -7422
▁ㅇㅓㅂㄱㅖ -7423
▁ㄱㅓㅁㅅㅜㄹ -7424
ㅇㅗㅇ -7425
▁ㅎㅟㅎㅏ -7426
ㅇㅘㄴ -7427
▁ㅈㅗㅇㅜ -7428
ㅊㅠ -7429
now -7430
ㅡㄹㅡ -7431
ㅇㅡㄴㅎㅐㅇ -7432
▁ㄴㅣㅋㅗㄹ -7433
▁ㅅㅣㅂㅈㅏㄱ -7434
▁ㅈㅐㅁ -7435
▁ㅈㅔㄷㅗㄱ -7436
▁ㅇㅏㅁㅣ -7437
▁ㄴㅏㅇㅛ -7438
▁ㄷㅠㅇㅗ -7439
ㄱㅌㅓ -7440
▁ㄴㅣㅋㅗ -7441
▁ㅁㅏㄴㅈㅣ -7442
ㄱㅏㄹㅣ -7443
▁ㅁㅗㄳ -7444
▁ㅌㅡㄹㅔㅇㅣ -7445
ㅔㄴㅈㅣ -7446
▁ㅁㅜㅇㅣㄴ -7447
▁350 -7448
▁ㅆㅏㅇㅣ -7449
▁ㅈㅣㄹㅌㅜ -7450
▁ㅂㅏㄱㅈㅣ -7451
▁width -7452
▁ㄱㅗㅈㅏㅇ -7453
▁ㅈㅜㅇㅅㅔ -7454
▁ㅎㅜㄴㅈㅏㅇ -7455
▁ㅈㅓㄴㅁㅜ -7456
▁Gam -7457
ㅅㅡㅇㅂㅜ -7458
▁ㅈㅗㄱㅣ -7459
▁ㅌㅐㄱㅅㅣ -7460
▁ㅂㅔㄹㅌㅡ -7461
▁ㅂㅜㄹㄹㅑㅇ -7462
▁ㅅㅡㅍㅣㄴ -7463
▁ㄱㅏㅍ -7464
▁ㅈㅗㅋㅓ -7465
MP -7466
▁PP -7467
▁ㅈㅜㅇㅈㅏㅇ -7468
▁ㅋㅗㅌㅡ -7469
▁ㅍㅏㄹㅏㄴㅅㅐㄱ -7470
ps -7471
▁ㅌㅣㄴ -7472
▁ㄴㅏㄹㅡ -7473
▁ㅁㅗㅌㅓ -7474
▁ㄸㅜㅀㄹㅣ -7475
▁ㅊㅡㄱㅈㅓㅇ -7476
▁ㅅㅗㅇㅛ -7477
▁ㄷㅗㄱㅈㅐ -7478
▁ㅅㅗㅅ -7479
▁ㅎㅏㄴㄷㅜ -7480
▁ㄷㅡㄹㅗㄴ -7481
▁IN -7482
▁ㅈㅏㄲㅜ -7483
▁ㅅㅔㅍㅗ -7484
▁ㄷㅟㅈㅣ -7485
▁ㅂㅏㅇㅅㅗㅇㄱㅜㄱ -7486
▁ㄱㅐㅂㅏㄹㅈㅏ -7487
▁BS -7488
▁ㅅㅡㅌㅡㄹㅣㅌㅡ -7489
▁ㄱㅏㅁㄷㅗㅇ -7490
▁ㅁㅕㄴㅎㅓ -7491
▁ㅇㅣㅅㅡㄹㅏㅇㅔㄹ -7492
▁ㄷㅗㅈㅓㅎㅣ -7493
▁ㅇㅗㅇㅕㅁ -7494
▁ㄴㅡㅇㄹㅕㄱㅈㅏ -7495
▁ㅍㅡㄹㅔㅇㅣ -7496
oll -7497
▁ㅌㅗㅋㅡㄴ -7498
▁ㄱㅗㅇㅅㅜ -7499
ㅂㅣㅈㅓㄴ -7500
▁1984 -7501
▁ㅅㅡㅇㅁㅜㅇㅝㄴ -7502
▁ㄴㅗㅈㅗ -7503
▁ㅇㅑㄱㅌㅏㄹ -7504
▁ㄷㅐㅍㅗ -7505
▁ㄱㅣㅇㅝㄴㅈㅓㄴ -7506
▁ㄱㅖㅅㅣ -7507
ㅍㅓㄹ -7508
▁ㅋㅐㅅ -7509
TV -7510
▁ㅎㅜㅈㅏ -7511
▁ㅂㅏㄹㅗㄴ -7512
pl -7513
▁ㅇㅣㅂㅈㅜ -7514
▁ㅇㅖㅅㅜ -7515
▁BR -7516
▁ㅂㅏㄹㅁㅗㄱ -7517
ㅈㅜㅇㅣㄴ -7518
▁ㅅㅣㅅㅏㅇ -7519
▁Man -7520
ㅎㅣㅋㅗ -7521
12 -7522
ㄴㅡㅈ -7523
▁AKB -7524
▁ㄷㅐㄷㅏㄴㅎㅣ -7525
▁ㅇㅣㅈㅗㅇ -7526
▁ㄴㅏㅁㅣ -7527
▁ㄱㅜㄱㅍㅏㄴ -7528
▁ㅈㅣㄴㅈㅜ -7529
▁ㄹㅜㅁㅓ -7530
▁ㄱㅣㅁㄱㅣ -7531
▁ㅇㅟㅅㅓㅇ -7532
▁ㅎㅜㅌㅚ -7533
▁ㅍㅏㄹㅡ -7534
▁ㄴㅏㄹㅜㅌㅗ -7535
port -7536
ㅂㅓㄹㄹㅔ -7537
▁UN -7538
▁ㅅㅡㅌㅔㅂ -7539
▁ㄱㅣㅈㅏㅇ -7540
▁ㄱㅜㅈㅏㅇ -7541
▁ㅇㅕㅇㅑ -7542
▁ㅇㅜㅇㅝㄹ -7543
▁ㅇㅠㄴㅣㅋㅡ -7544
▁ㅇㅏㅅㅣㅇㅏㄴ -7545
▁All -7546
ㄹㅔㅇㅣㅅㅕㄴ -7547
▁ㄱㅘㅇㅈㅏㅇ -7548
▁ㅍㅣㅌㅡ -7549
▁ㅈㅜㅎㅐㅇ -7550
▁ㅅㅓㄴㄱㅓㄱㅜ -7551
▁ㅂㅓㄹㄹㅣ -7552
▁ㅈㅣㅅㅏ -7553
▁ㅇㅘㅇㅇㅟ -7554
▁ㄹㅜㅇㅣㅅㅡ -7555
▁ㅅㅣㄱㅁㅣㄴㅈㅣ -7556
▁ㅅㅏㅇㄱㅘㄴㅇㅓㅄㅇㅣ -7557
▁ㅅㅑㅅㄱㅓㄴ -7558
ㅅㅣㄴㄱㅛ -7559
▁ex -7560
▁ㅁㅣㅅㅏ -7561
ㅅㅡㅁ -7562
▁ㅎㅕㄹㅇㅐㄱㅎㅕㅇ -7563
▁ㅅㅗㅇㅛㅇ -7564
▁ㅇㅏㅅㅟ -7565
▁ㅅㅓㅅㅓㅎㅣ -7566
ㄴㅣㅁ -7567
▁ㅂㅏㄴㅉㅏㄱ -7568
▁ㅈㅗㅇㅛㅇㅎㅣ -7569
▁ㅈㅏㄴㅕ -7570
▁ㅊㅏㅇㄷㅏㄴ -7571
▁ㅁㅓㄹㅣㅋㅏㄹㅏㄱ -7572
▁ㅊㅜㄹㅣ -7573
▁Part -7574
ㄹㅜㅇ -7575
▁ㅊㅓㄹㄱㅝㄴ -7576
▁ㄲㅗㅇㅣ -7577
▁SU -7578
▁ㅂㅔㄱㅣ -7579
▁ㅇㅔㅂㅏㄴ -7580
ㅔㄱㅅㅡ -7581
▁112 -7582
▁ㅇㅓㅍ -7583
▁ㅈㅔㅊㅜㄹ -7584
▁ㄹㅏㅇㅣㄴㅓ -7585
▁KR -7586
▁ㄲㅏㅇㅣ -7587
▁ㄱㅗㅇㅂㅐㄱ -7588
▁ㄱㅣㄷㅜㅇ -7589
▁ㅇㅏㄱㅏㅆㅣ -7590
▁ㅇㅑㄱㅏㄴ -7591
▁ㄹㅜㅋㅡ -7592
ㅣㅇㅗㄹ -7593
ㅌㅗㄱ -7594
▁ㅁㅕㅇㅇㅢ -7595
▁ㅈㅓㄴㅍㅏ -7596
▁ㄷㅏㅇㅜㄴㄹㅗㄷㅡ -7597
▁ㅂㅜㄴㄷㅏㅇ -7598
▁ㅇㅔㄷㅣ -7599
▁ㅍㅡㄹㅏㄴ -7600
▁En -7601
▁ㄴㅏㅋㅏ -7602
▁ㅇㅓㄷㅇㅓㅁㅏㅈ -7603
▁ㅂㅣㅁㅕㅇ -7604
▁ㅁㅏㄱㅏㅁ -7605
▁ㅃㅓㅇ -7606
▁ㄴㅏㅂㅣ -7607
▁ㅇㅣㄹㅎㅘ -7608
▁ㅇㅚㄱㅘ -7609
▁ㅈㅜㅅㅏㅇ -7610
▁ㅎㅣㄹㄹㅓ -7611
▁ㅁㅕㅊㅣㄹ -7612
▁ㅇㅛㅇㅣㄴ -7613
ond -7614
▁ㅇㅜㄴㅅㅜ -7615
▁ㄹㅏㄹㅏ -7616
▁ㅇㅏㄹㅔㄴㅏ -7617
▁ㅇㅑㅁㅏㅌㅗ -7618
ㅅㅔㅅㅓ -7619
▁ㅅㅜㅇㅝㄹ -7620
ㅋㅣㅍㅓ -7621
▁ㅋㅏㅌㅡ -7622
▁ㅇㅕㄴㄱㅗ -7623
▁ㅌㅜㅊㅓㄱ -7624
▁ㅂㅐㄱㅈㅏㄱ -7625
▁ㅅㅛㅍㅣㅇ -7626
▁ㅅㅏㅇㅜ -7627
▁ㄷㅐㅅㅣ -7628
▁ㅅㅣㄴㄷㅗ -7629
▁DC -7630
ment -7631
▁ㄷㅗㄹㅇㅕㄴ -7632
▁ㅅㅣㄹㅈㅏㅇ -7633
▁ㅋㅗㅋㅗ -7634
▁LP -7635
▁ㄱㅗㄹㅗ -7636
▁ㄷㅏㅅㅡ -7637
▁ㄱㅗㅈㅡㅇ -7638
▁ㅈㅜㅇㅅㅣ -7639
▁Sup -7640
▁ㅋㅗㅁㅏ -7641
▁ㄷㅓㅂㅣㅇ -7642
ㄷㅣㅇㅓ -7643
▁ㄱㅜㄺ -7644
▁ㅂㅗㅈㅗㄴ -7645
ㅍㅣㄹㄷㅓ -7646
▁ㅁㅣㄷㅡㅍㅣㄹㄷㅓ -7647
▁ㅈㅓㄹㅊㅏ -7648
▁ㄴㅏㄴㅗ -7649
▁ㅈㅜㄹㄱㅓㄹㅣ -7650
▁Mar -7651
▁ㅇㅝㄴㄹㅣ -7652
▁Fate -7653
▁ㄷㅟㄴㅡㅈ -7654
▁ㅅㅣㅅㅣㄴ -7655
▁ㅇㅣㄱㅡㄹ -7656
▁ㅈㅓㄴㅁㅏㅇ -7657
▁108 -7658
ase -7659
ㄷㅔㄹㅔ -7660
▁ㅂㅓㅁㅈㅚㅈㅏ -7661
▁ㅁㅏㄱㅅㅏㅇ -7662
▁ㅌㅏㅇㅣㄱㅓㅈㅡ -7663
ㄷㅓㄹㅏ -7664
▁ㄹㅣㅈㅡ -7665
▁ㄷㅓㄴㄱㅏ -7666
▁ㅁㅜㅅㅏㄴ -7667
▁ㄱㅕㅇㅇㅏㄱ -7668
▁AN -7669
▁ㄷㅠㅅㅡ -7670
▁ㅎㅏㅂㅂㅕㅇ -7671
▁ㅇㅗㄴㅊㅓㄴ -7672
▁ㅈㅜㄹㅠ -7673
ㅌㅜㅅㅡ -7674
ㅇㅕㄱㅐㄱ -7675
▁ㄹㅔㅇㅣㄹ -7676
▁ㅈㅓㅎㅏ -7677
▁ㅈㅏㅇㅅㅏ -7678
▁ㄹㅕㄷㅏ -7679
▁ㅅㅣㅇㅚ -7680
▁ㅅㅜㅅㅐㄱ -7681
▁ㅇㅗㄹㅏㄱ -7682
▁ㅌㅡㄱㄱㅡㅂ -7683
▁ㄱㅣㄴㄱㅡㅂ -7684
▁ㅇㅔㄹㅣㄱ -7685
▁ㄹㅏㅇㅣㅇㅗㄴㅈㅡ -7686
ool -7687
▁ㅊㅣㅈㅡ -7688
▁ㅈㅔㄹㄹㅣ -7689
▁ㅇㅕㅇㅣㄴ -7690
▁ㄱㅗㄱㅐㄱ -7691
▁ㄴㅓㅁㅇㅓㅈㅣ -7692
ㅏㄱㅏㅂ -7693
▁ㅁㅏㅅㅏㄴ -7694
▁ㅅㅣㄱㅍㅜㅁ -7695
▁ㄱㅗㄹㅋㅣㅍㅓ -7696
▁ㅇㅏㅇㅜ -7697
ㅗㅇㅣㄹㄹㅓ -7698
▁ㅇㅣㄴㄱㅝㄴ -7699
▁ㅍㅕㅇㅇㅣㄹ -7700
▁360 -7701
▁ㅎㅏㅂㄱㅖ -7702
▁117 -7703
▁ㅈㅗㅅㅏㅇ -7704
▁ㅂㅐㄱㅡㅂ -7705
▁ㅇㅝㄴㅈㅗ -7706
▁ㄴㅏㄱㅎㅏ -7707
▁ㅇㅜㅇㅠ -7708
▁ㅂㅏㄴㅂㅜ -7709
▁ㅁㅏㄱㅇㅏㄴㅐ -7710
ㅎㅏㄹㅡㅌㅡ -7711
▁ㅅㅐㅇㅇㅐ -7712
▁ㅊㅓㅇㅇㅘ -7713
▁ㅋㅣㅅ -7714
ㅅㅠㄹ -7715
▁ㄱㅓㄹㅈㅡ -7716
▁ㅁㅏㄱㅖ -7717
▁ㅅㅡㅌㅐㄴㄷㅡ -7718
▁ㅌㅗㅅㅣ -7719
▁ㄱㅛㄷㅏㄴ -7720
▁ㄴㄷㅏㄱㅓㄴㅏ -7721
▁ㅅㅓㅇㄷㅏㅇ -7722
▁ㅊㅓㄹㄱㅓ -7723
▁ㅅㅣㅇㅗㄴ -7724
▁ㅇㅚㅇㅑ -7725
▁ㅈㅣㅊㅣㅇ -7726
▁ㅂㅏㄹㄱㅜㄹ -7727
▁ㅂㅗㄱㅎㅏㅂ -7728
▁ㅌㅐㄱㅎㅏ -7729
▁ㅅㅣㄹㅇㅡㄴ -7730
ㄷㅡㅅ -7731
▁ㅈㅣㄱㅈㅏㅇ -7732
▁ㅂㅣㅌㅡㄹ -7733
▁ㄹㅗㅂㅣㄴ -7734
▁ㅇㅏㄴㅇㅑㅇ -7735
▁ㅈㅡㅇㅅㅏㅇ -7736
▁ㅈㅏㅁㅅㅣㄹ -7737
▁ㅅㅡㅍㅗㅇㅣㄹㄹㅓ -7738
▁ㅇㅣㅁㄱㅡㅁ -7739
▁One -7740
▁ㄹㅜㅍㅣ -7741
▁ㄱㅏㅇㄹㅣㅁ -7742
▁GO -7743
ph -7744
ㅂㅏㄹㅏ -7745
ㄱㅏㅇㅛ -7746
▁ㅅㅏㄹㅇㅏㄴㅏ -7747
▁ㅍㅗㄱㅍㅏ -7748
▁ㄱㅓㅂㅜㄱ -7749
▁ㅁㅏㄴㅇㅣㄹ -7750
▁ㅎㅘㄱㅈㅏㅇㅍㅐㄱ -7751
▁ㅅㅡㅋㅔ -7752
▁ㅂㄴㅣㄲㅏ -7753
▁ㄱㅗㅇㅇㅣㄴ -7754
▁ㅊㅓㅇㅇㅘㄷㅐ -7755
▁ㅇㅓㅅㅣㅅㅡㅌㅡ -7756
ㅅㅣㅈㅡ -7757
▁ㄱㅜㄱㄱㅕㅇ -7758
ㅂㅣㅊㅣ -7759
▁ㄲㅘㄱ -7760
▁ㅇㅕㄱㅗ -7761
▁ㄷㅏㅇㄷㅏㅇ -7762
▁ㅂㅜㅇㅣㅁ -7763
▁ㅁㅗㄹㅗ -7764
▁ㄱㅐㅂㅕㄹ -7765
▁ㅇㅠㅇㅢ -7766
ㅇㅏㅇㅣ -7767
▁ㅈㅏㅂㅣ -7768
▁ㄱㅡㄹㅏㅇㅜㄴㄷㅡ -7769
▁ㅎㅜㅎㅚ -7770
ree -7771
▁Oh -7772
▁ㄱㅏㅁㅆㅏ -7773
▁ㄱㅣㅁㅛ -7774
ㅈㅣㄹㅡ -7775
▁ㄹㅗㅂㅓㅌㅡ -7776
▁ㅅㅔㄱㅡㅁ -7777
▁ㅁㅕㅇㅂㅐㄱ -7778
▁ㅇㅗㄹㅗㅈㅣ -7779
▁ㄱㅛㅂㅗㄱ -7780
▁ㅍㅏㅇㅜㄹ -7781
▁ㅍㅡㄹㅣㄴㅅㅔㅅㅡ -7782
▁ㅋㅗㅅㅡㅌㅠㅁ -7783
▁ㅎㅣㄱㅏㅅㅣ -7784
▁ㄴㅏㄱㅣ -7785
▁ㅇㅖㄱㅗㅍㅕㄴ -7786
▁ㅌㅡㄱㅂㅕㄹㅎㅣ -7787
ㅡㄹㄹㅣㄴ -7788
▁ㅍㅗㅅㅡㅌㅓ -7789
▁ㅇㅕㄱㅅㅡㅂ -7790
▁ㅌㅗㅇㅌㅡㄹ -7791
▁ㅇㅏㄴㅏ -7792
▁ㅎㅏㄱㅅㅐㅇㅎㅚ -7793
▁ㅂㅐㅇㅋㅡ -7794
▁ㅅㅓㄴㅅㅏ -7795
▁ㄱㅐㅈㅏㅇ -7796
▁ㅇㅡㄹㅕㄴ -7797
▁ㄱㅛㄷㅗ -7798
ㄹㅓㅂㅗ -7799
▁ㅂㅓㄷㅡ -7800
▁ㅎㅔㄴㄹㅣ -7801
▁ㅎㅣㄷㅡㄴ -7802
▁ㅂㅗㄷㅡ -7803
▁ㅈㅣㅂㅇㅓㄴㅓㅎ -7804
▁As -7805
▁ㅌㅡㄹㅏㅇㅣ -7806
▁ㅇㅏㅌㅡㄹㄹ -7807
▁ㄱㅡㄱㄷㅗ -7808
▁ㅇㅠㅈㅐ -7809
ㄱㅓㅈㅣ -7810
▁New -7811
▁ㄹㅣㅇㅗ -7812
▁ㅅㅓㅇㅈㅣㄹ -7813
▁ㅎㅚㄷㅏㅁ -7814
ㅎㅏㄱㅈㅏ -7815
▁ㅆㅡㄹㄷㅔ -7816
▁ㅎㅏㅇㅣㄹㅏㅇㅣㅌㅡ -7817
ㅏㅁㅜㄹㅏ -7818
▁ㅈㅗㅁㅕㅇ -7819
▁ㄷㅗㅌㅡ -7820
▁ㄷㅚㅅㅏㄹ -7821
▁ㅅㅜㅇㅕㅁ -7822
ason -7823
▁ㄲㅡㄶㅇㅣㅁ -7824
▁ㅅㅏㅇㅑ -7825
▁ㅍㅓㅈㅡㄹ -7826
▁ㄷㅜㄹㄹㅓㅂㅗ -7827
▁ㅁㅏㄹㅆ -7828
▁FM -7829
▁ㅌㅗㅋㅣ -7830
ㅂㅜㄹㅁㅕㅇ -7831
▁ㄱㅘㄴㅊㅏㄹ -7832
▁ㄸㅡㄴㄱㅡㅁㅇㅓㅄㅇㅣ -7833
▁ㄱㅣㅁㅈㅐ -7834
▁ㅇㅕㄱㅐㄱ -7835
▁103 -7836
▁ㄷㅚㄱㅔ -7837
ㅈㅓㄹㅣ -7838
▁ㅇㅓㅉㅓㅁㅕㄴ -7839
ai -7840
aby -7841
▁ㅂㅜㄹㅎㅐㅇ -7842
▁ㅁㅗㅈㅣㅂ -7843
▁ㄱㅐㅅㅣㄴㄱㅛ -7844
ㄷㅗㄹㅡ -7845
▁ㄹㅔㄴㅈㅡ -7846
ㅌㅟ -7847
▁ㅇㅡㅁㅁㅗ -7848
ㅂㅜㄹㅎㅗ -7849
▁ㅅㅜㄹㅅㅏ -7850
▁ㅎㅗㅂㅜㄹㅎㅗ -7851
▁ㅅㅣㄹㅈㅗㄴ -7852
▁ㅇㅑㅇㅅㅗㄴ -7853
▁ㅎㅢㄴㅅㅐㄱ -7854
▁ㅇㅗㄷㅓ -7855
▁ㅂㅣㅅㅡㅌㅡ -7856
▁ㄷㅓㄹㅏ -7857
▁ㅌㅡㄹㅔㅇㅣㄹㄹㅓ -7858
▁ㄴㅣㅇㅏ -7859
▁ㅅㅏㅁㅏ -7860
▁ㅅㅔㄴㅚ -7861
ㄱㅏㄷㅡ -7862
▁ㅁㅜㄲㅇㅣ -7863
▁1960 -7864
▁ㅇㅠㅇㅓㄴ -7865
ㄹㅣㅇㅏㄴ -7866
▁ㄷㅗㅇㄱㅕㅇ -7867
ㅊㅜㅁ -7868
▁ㅁㅐㅊㅜㄹ -7869
ㅏㄹㄷㅡ -7870
▁ㅇㅢㅈㅏㅇ -7871
▁ㅅㅕㅌㅡㄹ -7872
▁ㄱㅡㅁㅁㅔㄷㅏㄹ -7873
▁ㅂㅜㄷㅗㅇ -7874
▁ㅋㅔㅇㅣㄷㅡ -7875
▁ㅂㅗㄹㅏㅅㅐㄱ -7876
▁220 -7877
▁ㄹㅣㅋㅏ -7878
ㅓㅎㅏ -7879
▁ㄴㅜㄹ -7880
▁ㄱㅏㄱㅇㅗ -7881
ㅓㅁㅐㄴ -7882
▁CS -7883
ㅈㅡㄴㅣ -7884
▁JP -7885
▁ㄱㅓㄷㅡㄴ -7886
▁ㅁㅜㄹㅍㅜㅁ -7887
▁ㅂㅜㄷㅣㅈㅎㅣ -7888
▁ㅇㅗㄹㅅㅡㅌㅏ -7889
▁ㅌㅡㄹㅔㅇㅣㄴㅓ -7890
▁ㄱㅕㄹㄱㅖ -7891
▁ㄱㅘㅎㅏㄱㅈㅏ -7892
▁ㅇㅜㅈㅜㅅㅓㄴ -7893
▁ㅍㅡㄹㅗㅌㅗ -7894
▁ㅈㅣㅇㅣㄴ -7895
▁ㄱㅕㅇㅈㅜ -7896
▁un -7897
▁ㅅㅑㅂ -7898
▁ㅂㅏㅅㅡ -7899
ㅋㅗㄹㄹㅣ -7900
▁ㅋㅏㅌㅏ -7901
ㅣㄱㅡ -7902
▁ㅅㅗㄴㅅㅏㅇ -7903
▁ㅇㅠㅁㅏㅇ -7904
▁ㅇㅗㅂㅡㅈㅔㄱㅌㅡ -7905
▁ㅅㅣㅁㅇㅢ -7906
▁ㅋㅗㅁㅣㄷㅣ -7907
▁ㅇㅕㅍㅏ -7908
▁ㅎㅚㅅㅐㄱ -7909
▁ㄷㅏㄹㄹㅕㄱㅏ -7910
▁ㅇㅕㄴㅂㅗㅇ -7911
▁z -7912
▁UE -7913
▁ㄲㅗㅁㅏ -7914
▁240 -7915
▁ㅂㅓㅂㅊㅣㄱ -7916
▁ㄱㅜㄱㅈㅓㅇ -7917
▁ㅎㅏㅇㄱㅜ -7918
▁ㅈㅣㅎㅑㅇ -7919
▁ㅂㅣㅇㅠ -7920
▁ㅇㅝㄴㄱㅗㄱ -7921
▁ㅇㅔㄴㄷㅡ -7922
▁tv -7923
▁ㄷㅜㄹㅕㅂ -7924
oon -7925
▁ㅅㅣㅌㅡ -7926
▁ㅁㅜㅅㅡㅇㅂㅜ -7927
▁ㅈㅣㄴㄱㅕㄱ -7928
▁ㅇㅟㄴㄷㅡ -7929
▁ㅍㅗㅌㅏㄴ -7930
▁ㅍㅖㄱㅣ -7931
▁ㅊㅓㅇㅈㅜ -7932
▁ㅁㅏㅋㅔ -7933
▁ㅌㅐㅍㅕㅇㅇㅑㅇ -7934
▁ㅅㅗㄴㅅㅣㄹ -7935
▁ㅋㅡㄴ -7936
ㄷㅗㄹㅇㅣ -7937
▁ㄷㅗㅇㅎㅐㅇ -7938
▁ㅂㅜㅌㅈㅏㅂㅎㅣ -7939
▁128 -7940
▁ㅊㅣㅇㅕㄹ -7941
90 -7942
▁ㄷㅡㄹㅗㅇㅜ -7943
ㅋㅡㄹㅏ -7944
ㅅㅣㅇㅌㅓㄴ -7945
▁ㄴㅡㄺ -7946
▁ㅈㅓㅇㅂㅏㄴ -7947
▁ㄱㅣㅁㅇㅛㅇ -7948
▁ㅅㅠㄴ -7949
▁ㅇㅠㅊㅜㄹ -7950
▁ㅍㅗㅈㅏㅇ -7951
▁ㅋㅡㄹㄹㅗㄴ -7952
MS -7953
▁ㄴㅔㄹ -7954
▁ㄱㅓㄴㄱㅜㄱ -7955
▁ㅌㅏㄹㅡ -7956
▁ㄱㅜㄱㅈㅏㅇ -7957
▁ㄴㅏㄹㄸㅟ -7958
▁ㄱㅘㅇㅅㅏㄴ -7959
▁ㅍㅡㄹㅔㄴ -7960
▁ㅎㅗㄹㄷㅡ -7961
▁ㅅㅣㄴㅅㅓㄴ -7962
▁ㄹㅏㅈㅡ -7963
▁ㅋㅗㅇㅣ -7964
▁ㅎㅏㅁㅂㅜㄹㅗ -7965
▁ㅋㅐㅅㅣ -7966
▁ㄸㅏㄸㅡㅅ -7967
▁ㅁㅜㄱㅗㅇ -7968
ㅈㅓㄱㅣ -7969
▁ㄹㅣㅂㅓㅍㅜㄹ -7970
▁ㅇㅕㅇㅈㅣ -7971
▁ㅁㅐㄱㅈㅜ -7972
▁ㅈㅓㅅ -7973
act -7974
▁ㅇㅣㄱㅡㄹㅅㅡ -7975
▁ㅈㅔㄱㅏㄹㄹㅑㅇ -7976
▁ㅈㅡㄱㅇㅟ -7977
ox -7978
▁ㅇㅣㄴㄷㅣ -7979
▁ㅂㅔㅌㅔㄹ -7980
▁ㅇㅣㅁㄱㅣ -7981
▁ㅈㅣㅁㅅㅡㅇ -7982
▁ㄷㅜㄷㅡㄹㄱㅣ -7983
▁ㅇㅓㅁㅁㅣㄹ -7984
▁ㅈㅜㅇㅅㅜㄴ -7985
▁ㄹㅣㅇㅏㄴ -7986
▁ㅌㅡㄹㅐㅂ -7987
▁ㅈㅏㅇㅍㅏㄴ -7988
▁ㅅㅣㄴㄷㅔㄹ -7989
▁ㄹㅔㅈㅣ -7990
▁ㅋㅗㅁㅣㄱ -7991
▁ㄴㅗㄷㅗㅇㅈㅏ -7992
ㅅㅏㅇㅣㄷㅡ -7993
ㅐㅇㅣㄴ -7994
hen -7995
▁ㅍㅐㅈㅓㄴ -7996
▁ㄲㅏㄲㅇㅣ -7997
▁ㄷㅏㄴㄱㅣ -7998
▁ㅂㅏㄴㄱㅏㅁ -7999
▁ㅂㅐㄹㅕ -8000
ㅂㅏㄲ -8001
▁ㄴㅓㅁㅇㅓㅅㅓ -8002
▁ㅇㅕㄱㅣㅈㅓㄱㅣ -8003
ㄷㅗㄹㄹㅣ -8004
▁ㅁㅗㄷㅠㄹ -8005
ㅅㅡㅌㅗㄴ -8006
ARD -8007
▁ㅎㅏㅂㄹㅣ -8008
▁ㅇㅝㅋㅡㄹㅐㅍㅡㅌㅡ -8009
▁ㅍㅗㄹㅡ -8010
ㅍㅛㅇㅠㄹ -8011
ㅊㅣㅇㅝㄴ -8012
▁ㅇㅏㄴㅅㅣㅁ -8013
▁go -8014
▁ㅇㅗㅇㅣ -8015
ㅜㄹㅜㅅㅡ -8016
ㅌㅗㄹㅡ -8017
ㅡㄹㅏ -8018
▁ㅂㅏㄱㅅㅏㄹㄴㅏ -8019
ㅍㅡㄴ -8020
ㅊㅔㄹ -8021
▁TVA -8022
▁ㄴㅔㅌㅣ -8023
▁ㅎㅏㅅㅡ -8024
▁ㅇㅕㄴㄱㅜㅇ -8025
▁ㅎㅏㅍㅡ -8026
ㅎㅏㄴㅏ -8027
▁ㄹㅏㅌㅣㄴ -8028
▁%/ -8029
ㅛㅅㅣ -8030
▁ㅇㅏㄹㄹㅔㄱㅅㅡ -8031
▁ㅋㅓㅅㅡㅌㅓㅁ -8032
▁ㄷㅗㄱㅈㅓㅁ -8033
▁ㅊㅚㅇㅜ -8034
▁ㅅㅒㄷㅗㅇㅜ -8035
ank -8036
▁ㄱㅣㅅㅜ -8037
▁ㅂㅐㄱㅈㅔ -8038
▁ㅌㅡㄹㅏㅇㅜㅁㅏ -8039
▁ㅌㅏㅁㅈㅣ -8040
▁ㄹㅗㅇㅣㄷㅡ -8041
▁ㅌㅡㄹㅣㄱㅓ -8042
▁ㅁㅏㄸㅏㅇ -8043
ㄹㅣㅋㅗ -8044
▁ㅂㅏㅈㅣ -8045
▁ㅌㅡㄹㅗㅍㅣ -8046
▁ㅎㅡㄴㄷㅡㄹ -8047
▁ㄱㅣㅃㅓㅎㅏ -8048
▁ㅈㅣㅇㅕㄴ -8049
▁ㄱㅏㄴㅈㅜ -8050
▁ㄱㅘㄴㅌㅗㅇㄹㅕㄱ -8051
▁ㅎㅠㄱㅏ -8052
▁ㅅㅣㅋ -8053
▁ㅈㅏㅇㄴㅏㄴㄱㅏㅁ -8054
▁ㅅㅣㄴㅇㅛㅇ -8055
▁ㅅㅏㄹㅣㅂ -8056
▁ㄷㅏㄴㄱㅓㅁ -8057
▁ㅂㅏㅇㅌㅏㄴ -8058
▁ㅇㅕㄹㅓㅅ -8059
▁ㅇㅜㅊㅣ -8060
▁ㅁㅗㅅㅡ -8061
▁ㅅㅏㅇㄹㅠㄱ -8062
ich -8063
▁ㄱㅣㅁㅈㅜㄴ -8064
▁ㅅㅐㅇㅈㅓㄴ -8065
▁ㅂㅔㄴㅊㅣ -8066
▁ㅅㅗㅍㅡㅌㅡㅇ -8067
▁ㅇㅣㄹㅇㅛㅇㅣㄹ -8068
▁ㄷㅣㅅㅣ -8069
▁ㅈㅏㅇㄹㅗ -8070
▁ㅅㅗㅍㅡㅌㅡㅇㅞㅇㅓ -8071
▁World -8072
▁ㄴㅏㄹㅆㅣ -8073
▁1982 -8074
▁JT -8075
▁ㅌㅡㄹㅜ -8076
ㄲㅐㅂㅣ -8077
▁ㅇㅜㅇㅣㄱ -8078
ㅇㅣㄹㅂㅗ -8079
▁ㄷㅣㅈㅡㄴㅣ -8080
▁ㅅㅣㄴㄷㅔㄹㅔㄹㄹㅏ -8081
ㅌㅔㄹㅡ -8082
▁ㄷㅏㄴㅈㅗㅇ -8083
▁ㄸㅗㄹ -8084
ear -8085
▁ㅇㅏㅇㅣㄹㅓㄴㅣ -8086
▁ㄷㅏㅇㄷㅐ -8087
▁ㅅㅔㅇㅣㄴㅌㅡ -8088
▁ㅇㅏㅂㅏㅌㅏ -8089
▁ㅃㅏㄹㄱㅏㄴ -8090
▁ㄹㅕㄷㅏㄱㅏ -8091
▁ㅁㅣㄹㅇㅓㄴㅐ -8092
▁ㅁㅣㄱㅜㅇ -8093
▁ㅎㅖㅌㅐㄱ -8094
ife -8095
▁ㅎㅏㅁㅏ -8096
ㄹㅗㄴㅏ -8097
▁ㅊㅐㅁㅍㅣㅇㅓㄴㅅㅣㅂ -8098
▁ㅊㅕㄷㅡㄹ -8099
ㅔㅌㅡ -8100
▁ㅌㅗㅇㅛㅇㅣㄹ -8101
ary -8102
lect -8103
▁ㅇㅑㅇㅈㅏ -8104
▁ㅅㅣㄴㅅㅗㄱ -8105
▁ㅃㅗ -8106
▁ㅌㅐㄱㅜㄱ -8107
▁Mk -8108
▁ㅅㅜㅅㅡㅂ -8109
▁ㄹㅜㅅㅡ -8110
ㄹㅏㅅㅡ -8111
▁ㅇㅣㅁㅗ -8112
▁ㅅㅓㄴㅇㅣㅁ -8113
▁ㅇㅡㅁㄹㅛ -8114
▁ㄱㅝㄴㅇㅠ -8115
▁ㅅㅏㅂㅓㅂ -8116
▁ㅎㅟㄹ -8117
▁ㅂㅕㄴㅅㅜ -8118
▁ㅍㅏㅁㅣㅇ -8119
▁ㄷㅗㄱㅇㅣㄹㄱㅜㄴ -8120
▁ㄱㅖㅅㅜ -8121
▁ㅅㅔㄴㅅㅓ -8122
▁ㄷㅏㅇㅅㅏㅈㅏ -8123
▁ㅇㅛㅎㅏㄴ -8124
▁ㄷㅗㅈㅏㅇ -8125
▁ㅂㅏㅇㅅㅗㅇㅅㅏ -8126
▁ㅁㅣㅅ -8127
ㄹㅏㄷㅣㄴ -8128
▁ㄱㅡㄴㅇㅝㄴ -8129
▁ㅇㅠㄱㅣ -8130
▁ㄴㅔㅌㅣㅈㅡㄴ -8131
▁ㅅㅜㄴㅇㅑㅇㅎㅏㅁ -8132
▁ㄱㅝㄴㅇㅟ -8133
▁ㄱㅣㅁㅌㅐㄱ -8134
▁ㅋㅗㄹㅡ -8135
▁ㅊㅜㅅㅔ -8136
▁ㅅㅡㅌㅡㄹㅏㅇㅣㅋㅓ -8137
▁ㅁㅏㄱㄱㅏㅇ -8138
▁ㅇㅏㅈㅣ -8139
▁ㅅㅗㅁㅗㄹ -8140
▁ㅅㅡㅍㅣㄹㅣㅅ -8141
ㅎㅏㅁㅏ -8142
▁ㄹㅏㅋㅡ -8143
▁ㅅㅓㅂㅏㅇㅣ -8144
ㅆㅏㅇㅜㅁ -8145
▁ㅅㅓㅁㅓ -8146
▁ㅇㅢㅎㅏㄱ -8147
▁ㅈㅣㅁㅗㄱ -8148
ㅂㅏㄴㄱㅣ -8149
uk -8150
ㅌㅗㅅㅡ -8151
AP -8152
▁all -8153
▁ㅊㅜㅂㅏㅇ -8154
▁ㅎㅗㅅㅗ -8155
▁ㅃㅏㅈㅕㄴㅏㄱㅏ -8156
▁ㅆㅏㄹ -8157
▁ㅈㅣㄴㅅㅏㅇ -8158
▁ㄹㅏㅅㅡㅌㅡ -8159
▁ㅎㅜㅇㅣㅁ -8160
▁ㅇㅜㅌㅏ -8161
ㅋㅣㄹㅣ -8162
ET -8163
ㅋㅜㄹㅏ -8164
▁LIVE -8165
▁ㅇㅑㄱㅁㅜㄹ -8166
▁ㄲㅡㅀ -8167
▁ㅈㅓㄴㅅㅐㅇ -8168
▁ㅅㅣㄴㅈㅏ -8169
▁ㅋㅣㅂㅗㄷㅡ -8170
▁ㅂㅓㅅㅡㅌㅡ -8171
▁ㅇㅠㅁㅣ -8172
way -8173
▁SF -8174
▁ㅈㅣㅁㅈㅏㄱ -8175
▁ㄱㅘㄷㅗ -8176
▁ㅅㅓㄱㅣ -8177
▁ㅌㅐㅂ -8178
▁ㅋㅏㄷㅓㄹㅏ -8179
▁ㄱㅕㄹㅈㅔ -8180
▁ㅇㅠㅎㅗㄱ -8181
ㅌㅡㄹㅣㅅㅡ -8182
▁ㅈㅓㄴㄴㅏㅁ -8183
▁ㅅㅡㅋㅏㅇ -8184
▁ㄴㅏㅇㅏㅈㅣ -8185
▁ㅅㅓㄴㅈㅏㅇ -8186
▁ㅇㅓㄺ -8187
▁ㅍㅛㅁㅕㄴ -8188
▁ㄲㅡㄹㄹㅣ -8189
▁ㅂㅐㅊㅜㄹ -8190
▁ㅎㅡㅂㅅㅏ -8191
▁ㅈㅣㄹㅕㄱ -8192
ple -8193
▁ㄱㅡㄱㅎㅣ -8194
▁ㅎㅜㅂㅏㄴㄱㅣ -8195
▁185 -8196
▁ㄱㅜㅈㅗㅁㅜㄹ -8197
▁Day -8198
▁ㅇㅢㅈㅏ -8199
ㄴㅑㅇ -8200
▁ㄱㅡㄴㅈㅓㅂㅈㅓㄴ -8201
▁ㄷㅐㅅㅓㅇ -8202
▁ㄴㅗㄴㅈㅐㅇ -8203
▁Fr -8204
▁ㅌㅐㅋㅡㄹ -8205
ㅆㅏㅇㅣ -8206
▁1983 -8207
▁ㄱㅡㄹㅏㄴ -8208
▁ㄷㅏㅇㄱㅣ -8209
▁ㅅㅣㄹㅅㅣㄱㅏㄴ -8210
▁ㅎㅗㅅㅣ -8211
▁ㅅㅓㄹㄹㅕㅇ -8212
▁ㅅㅏㅇㅅㅏ -8213
▁ㅈㅓㅇㅅㅓㄱ -8214
▁ㄴㅏㄱㅅㅓㄴ -8215
▁ㄴㅓㅁㅂㅓ -8216
▁ㅅㅣㅂㅏ -8217
▁ㅍㅐㅁㅣㄹㄹㅣ -8218
▁ㅁㅏㅍㅣㅇㅏ -8219
▁ㅊㅏㄱㅏㅂ -8220
▁ㅇㅠㅈㅓㄴㅈㅏ -8221
▁ㅈㅘㅈㅓㄹ -8222
▁ㅌㅗㅎㅏ -8223
▁ㅋㅡㄹㄹㅣㄴ -8224
▁ㄱㅏㅁㅅㅜ -8225
▁ㄷㅗㅇㅅㅗㄱ -8226
ㅂㅏㅌ -8227
▁ㄴㅣㅎㅗㄴ -8228
▁ㅊㅣㅁㄷㅐ -8229
▁ㄱㅣㅎㅗ -8230
ㅡㅇㅣㄴ -8231
▁ㄷㅡㄹㅔㅅㅡ -8232
▁ㅇㅕㅅㅓ -8233
▁are -8234
▁ㅎㅏㅂㄷㅗㅇ -8235
▁ㄷㅗㅁㅏ -8236
▁ㄱㅏㅇㅅㅏ -8237
▁ㅁㅐㄴㅣㅇㅏ -8238
▁ㅊㅏㅇㅅㅓㄹ -8239
▁ㄹㅗㄱㅡ -8240
▁ㄱㅏㄴㄱㅏㄴㅎㅣ -8241
▁ㅂㅣㄱㅡㄱ -8242
▁ㅋㅏㅈㅡㅇ -8243
▁ㅅㅡㅌㅏㄷㅣㅇ -8244
▁119 -8245
▁ㅈㅔㄴㅣ -8246
▁ㅍㅗㅎㅚㄱ -8247
ㅅㅑㅅ -8248
▁ㅇㅗㅈㅣ -8249
ㅜㄴㅌㅡ -8250
▁ㅇㅕㄱㅇㅣㅁ -8251
▁ㅇㅜㄹㅌㅡㄹㅏㅁㅐㄴ -8252
▁ㅁㅜㄹㅊㅔ -8253
▁ㄷㅗㄷㅂㅗㅇㅣ -8254
ype -8255
▁nd -8256
ens -8257
▁do -8258
▁DPS -8259
▁ㅇㅝㄴㅎㅕㅇ -8260
▁ㅈㅜㅇㅅㅏㅇ -8261
▁ㅈㅣㅂㄱㅝㄴ -8262
▁ㅂㅐㄱㅎㅘㅈㅓㅁ -8263
▁ㅆㅡㄹㅣ -8264
▁ㄴㅏㅇㅂㅣ -8265
▁ㅋㅜㄹㅏ -8266
▁ㅅㅓㅇㅂㅐ -8267
▁ㅅㅏㄹㅣ -8268
▁lv -8269
▁ㄹㅔㄱㅅㅡ -8270
▁ㄹㅔㅇㅣㅇㅓ -8271
▁{{{# -8272
▁ㅅㅏㅁㅜㅅㅗ -8273
▁ㅈㅓㄴㄴㅏㄹ -8274
▁ㄷㅏㅌㅜ -8275
▁ㅈㅓㄱㅈㅏ -8276
aster -8277
▁ㅂㅓㅁㅇㅛㅇ -8278
▁MB -8279
▁ㅂㅣㄹㄷㅣㅇ -8280
▁ㅁㅏㅇㅣㄹ -8281
orn -8282
ork -8283
▁ㅇㅣㅅㅜ -8284
▁ㅅㅗㄴㅇㅗㄱ -8285
▁ㅈㅓㅇㄱㅛ -8286
▁ㅅㅗㄴㅇㅗㄱㅗㅇ -8287
▁ㅅㅗㅁㅗㄹㅑㅇ -8288
▁ㅌㅡㄴㅌㅡㄴ -8289
▁ㄱㅜㄷㅗㅇ -8290
▁ㅁㅕㅇㅁㅗㄱ -8291
▁ㅉㅑㅇ -8292
▁ㅌㅡㄱㄱㅗㅇ -8293
▁ㅎㅐㅂㅕㅇㄷㅐ -8294
▁ㅎㅗㄹㄹㅣ -8295
▁ㄹㅔㅁ -8296
▁ㄴㅏㅅㅡ -8297
▁ㅇㅕㄴㄱㅜㅇㅝㄴ -8298
▁ㄱㅏㄷㅜ -8299
▁ㅊㅜㄹㅎㅕㄹ -8300
▁123 -8301
▁ㅇㅓㅁㄱㅕㄱ -8302
▁ㄷㅗㅇㄴㅏㅁ -8303
▁ㅅㅣㄹㄴㅐ -8304
▁ㄸㅏㄹㅏㅇㅗ -8305
▁ㄱㅗㅇㄱㅏㅁ -8306
▁104 -8307
▁ㅋㅟㄱ -8308
▁ㅋㅗㄴㅅㅗㄹ -8309
▁ㅅㅏㅇㅏㄱ -8310
▁ㅅㅏㅁㄱㅏㄱ -8311
ㅂㅡㄹㄹㅗ -8312
▁ㅂㅕㄴㅌㅐ -8313
▁ㅈㅣㅅㅓㄴ -8314
11 -8315
▁ㅍㅔㅅㅡㅌㅣ -8316
▁ㅍㅔㅅㅡㅌㅣㅂㅓㄹ -8317
▁ㄸㅐㅇ -8318
▁ㅈㅣㄹㅂㅕㅇ -8319
ㄱㅗㅅㅗㄱ -8320
▁ㅂㅔㅇㅓㅅㅡ -8321
ㅋㅣㄹ -8322
▁ㅅㅜㅈㅣㄱ -8323
▁ㅂㅜㅅㅡㅌㅡ -8324
▁ㅅㅐㅇㅊㅔ -8325
▁ㄷㅐㅌㅏ -8326
▁ㅎㅗㄴㅏㅁ -8327
▁ㅂㅔㅌㅔㄹㅏㅇ -8328
ans -8329
▁ㅆㅡㄹㅁㅗ -8330
▁ㅈㅣㄹㅈㅜ -8331
▁ㅂㅐㅈㅔ -8332
▁Ad -8333
▁ㅍㅔㄹㅣ -8334
▁Up -8335
▁ㅅㅡㅌㅐㅍㅡ -8336
▁DP -8337
▁ㅅㅛㅋㅡ -8338
▁Wi -8339
ㄲㅡㅅ -8340
▁109 -8341
▁ㅅㅔㄹㅏ -8342
▁ㄱㅗㅅㅗ -8343
▁ㅈㅔㅊㅣ -8344
▁ㄱㅏㅇㄹㅕㄹ -8345
▁ㅂㅗㄱㅇㅝㄴ -8346
▁ㅈㅓㅈ -8347
ons -8348
▁ㅁㅗㄹㅇㅏ -8349
▁ㄱㅘㄴㅊㅡㄱ -8350
▁ㄷㅔㅇㅣㅂㅣㄷㅡ -8351
▁Sw -8352
▁ㅇㅗㅁㅔㄱㅏ -8353
▁ㄴㅓㅁㅇㅓㅇㅗ -8354
▁ㅇㅑㅇㅂㅏㄴ -8355
▁ㅅㅣㄹㅅㅏㅇ -8356
▁ㅇㅣㅇㅓㅂ -8357
▁ㄲㅓㄹㅣ -8358
▁AA -8359
▁ㄱㅐㄱㅜㄱ -8360
▁ㅈㅣㄱㅅㅓㄴ -8361
▁ㅃㅏㄹㄱㅏㄴㅅㅐㄱ -8362
▁ㅅㅡㅈㅡㅋㅣ -8363
▁ㄹㅐㅍㅓ -8364
▁OVA -8365
▁ㅇㅔㄱㅅㅣㅈㅡ -8366
▁ㅈㅔㅁㅜㄹ -8367
▁ㅁㅔㅇㅣㄹ -8368
▁ㅈㅗㄹㅡ -8369
▁ㅌㅏㅁㅅㅐㄱ -8370
ㅣㅋㅗ -8371
▁ㄷㅏㄴㅎㅐㅇㅂㅗㄴ -8372
▁ㅅㅟㄹ -8373
ㄱㅘㄹ -8374
▁style -8375
▁ㅌㅡㄱㅂㅕㄹㅅㅣ -8376
ey -8377
▁ㅇㅜㅊㅡㄱ -8378
▁ㅈㅣㄴㄱㅡㅂ -8379
▁ㅋㅔㅇㅣㅂㅡㄹ -8380
▁ㄷㅣㅍㅔㄴ -8381
▁ㄱㅓㅊㅣㄹ -8382
▁KOF -8383
ㅌㅏㄹㅡ -8384
ㄱㅕㅂ -8385
▁ㅍㅔㅁㅣㄴㅣ -8386
▁ㅇㅑㄱㅈㅏ -8387
ㅅㅜㅇㅇㅣ -8388
▁ㅈㅓㄴㄹㅏㄱ -8389
very -8390
▁ㅈㅏㅇㅅㅓㅇ -8391
ㄸㅏㄹ -8392
▁ㅍㅣㅇㅏ -8393
▁sp -8394
▁ㄱㅘㄴㅇㅕ -8395
▁ㅎㅏㄴㅂㅏㄴㄷㅗ -8396
▁ㄷㅗㄲㅐㅂㅣ -8397
▁ㅁㅏㅅㅏㅇ -8398
▁ㅋㅏㅋㅏㅇㅗ -8399
▁ㅁㅣㄹㄹㅕㄴㅏ -8400
▁ㅂㅡㄹㅔㅇㅣㅋㅓ -8401
▁ㄹㅣㅋㅗ -8402
▁ㅅㅓㄴㅈㅗ -8403
▁ㅁㅜㅅㅣㄹ -8404
▁ㄱㅘㅇㄱㅣ -8405
▁ㅅㅗㄴㅅㅟㅂ -8406
▁ㅇㅡㄹㅅㅜㄹㅗㄱ -8407
▁ㅇㅏㄴㅌㅗㄴ -8408
▁ㄱㅓㄹㅗㄴ -8409
▁ㅇㅕㄴㅅㅙ -8410
▁ES -8411
▁ㅇㅕㅇㅢ -8412
▁ㅇㅟㄹㅗ -8413
▁ㅂㅕㄴㄷㅗㅇ -8414
▁ㅁㅔㄹㅣㅌㅡ -8415
▁ㅍㅔㄴㅓㄹㅌㅣ -8416
ㅊㅏㄱㅣ -8417
▁ㅇㅗㄴㅣ -8418
NA -8419
ex -8420
ung -8421
ㅅㅡㅌㅗㄹ -8422
▁ㅅㅐㄴㄷㅡ -8423
▁ㅅㅣㄹㅣㅇㅏ -8424
▁ㅊㅗㅇㅎㅏㅂ -8425
▁ㅂㅗㄴㄱㅘㄴ -8426
▁ㅅㅡㅌㅔㅇㅣㅅㅕㄴ -8427
▁III -8428
ㅇㅣㄴㅏ -8429
▁ㅎㅏㄴㅊㅏㅇ -8430
▁ㅊㅣㄴㅈㅓㄹ -8431
▁ㄸㅏㅇㅂㅗㄹ -8432
▁ㄴㅗㄴㅁㅜㄴ -8433
▁ㅇㅏㅅㅡㅋㅏ -8434
▁ㅇㅠㅌㅏㄴ -8435
▁ㅂㅏㄷㅜㄱ -8436
ㅎㅡㄴ -8437
▁ㅂㅐㄱㅇㅓㅂ -8438
▁ㅇㅝㅅㅣㅇㅌㅓㄴ -8439
▁ㅂㅡㄹㅔ -8440
ㄷㅐㅇㅝㄴ -8441
ㅏㄱㅟ -8442
ㅌㅏㅇㅣㅂ -8443
▁ㅊㅗㄱㅅㅜ -8444
▁ㅎㅣㄹㅗㅅㅣ -8445
▁ㅍㅔㅇㅓ -8446
▁ㅎㅐㅇㅑㅇ -8447
▁ㄱㅡㄺ -8448
▁ㅎㅞㅅㅗㄴ -8449
▁ㅈㅓㄴㄱㅕㄱ -8450
▁ㄱㅣㅁㄷㅐ -8451
ㄹㅐㅇ -8452
▁UEFA -8453
▁ㅅㅣㄹㅗ -8454
▁ㄷㅐㅂㅏㄱ -8455
▁ㅇㅟㅇㅓㅁ -8456
▁ㅅㅜㅂㅣㅅㅜ -8457
▁ㄸㅐㄹㅕ -8458
▁ㄱㅡㄹㅓㄷㅏㄱㅏ -8459
▁ㅇㅣㅈㅡ -8460
▁ㄷㅏㄴㅂㅏㄹ -8461
▁ㄱㅣㅅㅡ -8462
▁ㅁㅕㅇㅁㅜㄴ -8463
ㅕㅈㅣ -8464
▁ㅎㅏㄱㅡㅂ -8465
▁ㅊㅜㄱㅅㅗ -8466
▁ㅈㅏㅇㅇㅐㅁㅜㄹ -8467
▁ㅎㅣㄴ -8468
▁ㅁㅏㅅㅜㄹㅅㅏ -8469
▁ㅍㅔㅇㅣㄴ -8470
EM -8471
ㅞㄹ -8472
▁ㅇㅡㅇㅇㅛㅇ -8473
▁ㅁㅣㄴㅈㅜㅈㅜㅇㅢ -8474
▁ㅍㅡㄹㅣㅁㅣㅇㅓ -8475
▁ㅋㅡㄹㄹㅣㅂ -8476
▁ㅎㅕㅇㅍㅕㄴ -8477
▁ㅈㅜㅇㅈㅣ -8478
▁ㅇㅓㅅㅐㄱ -8479
▁ㅂㅏㄱㅅㅏㄹㄴㅐ -8480
ㄱㅗㄴ -8481
▁ㅇㅔㅇㅣㅈㅣ -8482
ㅋㅡㄹㅣㅁ -8483
▁ㄷㅗㄹㅂㅗ -8484
▁ㅈㅐㅎㅏㄱ -8485
▁ㄲㅓㅂ -8486
▁ㅅㅓㅇㅅㅣㄹ -8487
▁ㅊㅟㅇㅓㅂ -8488
▁ㅅㅡㅌㅏㄷㅣㅇㅜㅁ -8489
ㄲㅔㄲㅣ -8490
▁ㅅㅜㅅㅜㄲㅔㄲㅣ -8491
▁ㅁㅣㅇㅗ -8492
▁ㅅㅗㄴㅣ -8493
▁RA -8494
▁ㅇㅜㅎㅗ -8495
▁ㅋㅡㄹㄹㅔ -8496
▁!" -8497
▁ㅅㅡㅇㅟㅅㅡ -8498
ll -8499
▁ㅅㅡㅈㅡ -8500
▁ㅇㅘㅇㅣㅂ -8501
▁ㅎㅓㅁㅜ -8502
▁ㅅㅡㄹㅣ -8503
▁ㅇㅏㄴㅉㅗㄱ -8504
▁ㅇㅕㄱㄹㅑㅇ -8505
▁ㄱㅜㅅㅓㅇㅇㅝㄴ -8506
▁ㄹㅣㅁㅗ -8507
▁ㄱㅜㄴㅅㅜ -8508
▁ㅇㅣㄴㅈㅐ -8509
▁ㄹㅏㄱㅏ -8510
▁ㅁㅔㅋㅏㄴ -8511
anc -8512
▁as -8513
▁ㅂㅏㄹㅡㅅㅔㄹ -8514
ㅇㅣㅍ -8515
▁ㅎㅘㄱㅅㅏㄴ -8516
▁ㄷㅔㅂㅣㄹ -8517
▁ㅂㅏㄹㅡㅅㅔㄹㄹㅗㄴㅏ -8518
▁ㅊㅏㅇㅁㅜㄴ -8519
▁ㅈㅣㅌ -8520
AK -8521
▁ㅇㅜㅎㅚ -8522
▁ㅌㅡㅇㅟㄴㅅㅡ -8523
▁ㅈㅣㅇㅇㅕㄱ -8524
▁ㄴㅗㄹㅏㄴㅅㅐㄱ -8525
▁ㅇㅣㅇㅇㅕ -8526
▁Windows -8527
▁ㅇㅠㅁㅏㅇㅈㅜ -8528
▁ㄱㅗㄴㅡㄴ -8529
▁ㄴㅗㄱㅏㄷㅏ -8530
▁ㅈㅔㅇㅘㅇ -8531
▁ㅇㅣㅈㅜ -8532
ㅋㅗㄹㄹㅣㅅ -8533
▁ㅊㅗㅋㅗㄹㄹㅣㅅ -8534
▁ㄸㅏㄹㄹㅣ -8535
▁ㅇㅕㄱㅁㅕㅇ -8536
▁ㅁㅏㅇㅠ -8537
▁ㅁㅔㅋㅏㄴㅣㄱ -8538
ㅊㅔㅅㅡㅌㅓ -8539
▁ㅇㅣㅇㅣ -8540
▁ㅂㅣㄴㄷㅗ -8541
▁ㄱㅔㅁ -8542
ㅍㅣㅅ -8543
ㅡㅇㄹㅕㄱ -8544
▁ㄱㅣㅅㅂㅏㄹ -8545
▁no -8546
ㅍㅗㄹㅡ -8547
▁ㄱㅗㅇㅌㅗㅇㅈㅓㅁ -8548
▁ㄱㅏㅇㄷㅡㅇ -8549
▁ㅇㅟㄴㄷㅗㅇㅜ -8550
▁ㅇㅣㅎㅕㄴ -8551
▁ㅊㅓㄴㅇㅕㄴ -8552
▁ㅇㅝㄴㅍㅣㅅㅡ -8553
▁en -8554
▁ㄷㅐㅎㅐㅇ -8555
▁ㅇㅕㅌㅏ -8556
▁ㄱㅘㅈㅏ -8557
▁ㅌㅚㄱㅏㄱ -8558
▁ㅂㅜㄹㅆㅏㅇ -8559
▁ㄱㅕㅇㅅㅏㅇㅂㅜㄱㄷㅗ -8560
▁ㅇㅠㅊㅣ -8561
▁ㅇㅣㄴㅈㅏ -8562
▁ㅂㅏㄹㅎㅐㅇ -8563
▁ㅊㅐㄱㅇㅣㅁㅈㅣ -8564
▁ㄱㅜㄹㅇㅛㄱ -8565
ㅍㅏㄱ -8566
▁ㄹㅏㅈㅣ -8567
ㅣㅇㅔ -8568
▁ㅂㅜㅈㅏㄱㅇㅛㅇ -8569
▁ㄹㅏㄴㅅㅡ -8570
▁ㅂㅜㄴㅅㅏㄴ -8571
▁ㅂㅡㄹㄹㅏ -8572
▁ㄷㅗㄹㅣ -8573
▁ㅎㅣㅂㅎㅏㅂ -8574
▁ㅊㅚㅅㅓㄴ -8575
▁ㅌㅣㅅㅡ -8576
▁ㄲㅡㄹㅇㅓㅇㅗㄹㄹㅣ -8577
▁ㅂㅏㅇㅅㅏ -8578
▁ㅇㅠㄹㅛ -8579
▁ㄱㅜㄷㅗㄱ -8580
▁ㅂㅗㅇㅅㅙ -8581
▁ㄴㅗㅇㅈㅏㅇ -8582
ero -8583
ㅁㅏㄱㅈㅣ -8584
▁ㅁㅜㅈㅣㅁㅏㄱㅈㅣ -8585
▁ㅇㅜㅅㅡㅇㅈㅏ -8586
▁ㄱㅏㅇㅁㅣㄴ -8587
argin -8588
35 -8589
▁ㄷㅐㄹㅕㅇ -8590
▁ㅌㅗㅇㅊㅣㅇ -8591
▁ㅇㅓㄴㅏ -8592
▁ㅅㅜㅇㅣㄴ -8593
▁ㄷㅐㅈㅓㅂ -8594
▁ㄱㅏㅇㅎㅗ -8595
▁ㅈㅓㄴㄷㅏㅇ -8596
▁ㅅㅣㄴㅈㅜㅇ -8597
▁ㅇㅜㅈㅡ -8598
▁ㅊㅟㄷㅡㄱ -8599
▁ㅇㅣㅂㅕㅇ -8600
▁ㄱㅘㄴㅇㅜ -8601
▁ㄷㅡㄹㅐㄱㅗㄴㅂㅗㄹ -8602
▁ㅅㅡㅁㅣㅅㅡ -8603
▁ㄷㅗㅇㅂㅏㄴ -8604
▁ㅌㅓㅌㅡㄹㅣ -8605
▁187 -8606
▁ㅅㅣㅅㅏㅇㅅㅣㄱ -8607
▁ㄹㅜㅍㅡ -8608
oss -8609
▁ㅂㅏㄹㅍㅏㄴ -8610
▁ㅁㅏㅌㅡ -8611
▁ㅍㅕㅇㅎㅏ -8612
▁ㅅㅏㄱㅘㄴ -8613
▁Ph -8614
▁So -8615
ㅔㄴㅊㅓ -8616
▁ㅍㅏㄷㅗ -8617
▁ㅇㅣㄷㅐㄹㅗ -8618
▁ㄱㅡㄹㅣㅂ -8619
▁ㅇㅘㅇㅣㄴ -8620
ㅊㅏㄹㅗ -8621
▁Qu -8622
▁ㅎㅘㅅㅏㄴ -8623
▁LO -8624
▁ㅅㅓㅇㅆㅣ -8625
ㅡㅇㅞㅇㅣ -8626
▁Station -8627
▁ㅂㅗㄴㅌㅗ -8628
▁ㅈㅏㄴㅔ -8629
▁ㅇㅓㄷㅡㅂㅔㄴㅊㅓ -8630
▁ㅇㅓㅂㅔㄴ -8631
▁ㅂㅏㄹㅋㅣㄹㅣ -8632
ㅂㅏㅇㅑ -8633
▁ㄷㅔㄴㅁㅏ -8634
▁ㄹㅗㅁㅐㄴ -8635
▁ㅊㅓㄴㅊㅓㄴ -8636
▁ㄱㅠㅈㅔ -8637
▁ㅋㅡㄹㄹㅏㅇㅜ -8638
ㄹㅣㅇㅗ -8639
▁ㄱㅜㄱㅁㅜ -8640
▁ㅅㅗㄴㄴㅣㅁ -8641
▁ㅇㅞㅅㅡㅌㅡ -8642
ㄷㅗㅇㅈㅏ -8643
▁margin -8644
▁ㅇㅗㅅㅡㅁㅏㄴ -8645
▁ㅇㅝㄴㅅㅣ -8646
▁ㅁㅓㄴㅣ -8647
▁ㄱㅔㄹ -8648
▁ㅊㅐㅁㅍㅡ -8649
▁ㅈㅣㄴㅇㅔ -8650
▁ㄱㅕㄹㅎㅗㄴㅅㅣㄱ -8651
▁ㄱㅗㅇㅅㅏㄴㄷㅏㅇ -8652
▁ㅈㅜㅇㄱㅗ -8653
▁ㅅㅣㄴㄷㅗㅇ -8654
▁ㅈㅏㄴㅇㅣㄴ -8655
▁ㄱㅡㅂㅎㅐㅇ -8656
▁ML -8657
▁ㅊㅡㅂㅏ -8658
▁135 -8659
▁ㅂㅣㅇㅍㅏㄴ -8660
▁ㅁㅓㅇㅊㅓㅇ -8661
ㅋㅏㅇㅣㄷㅗ -8662
99 -8663
▁ㄱㅏㅇㄱㅏㄴ -8664
▁ㄱㅗㅇㄷㅏㄴ -8665
▁ㅁㅣㅁㅣ -8666
▁ㄷㅐㅈㅓㄴㅊㅏ -8667
ㅔㅁㅏ -8668
ㅅㅏㄴㅅㅣ -8669
▁ㅅㅔㄹㅡ -8670
▁ㅎㅜㄷㅡ -8671
▁ㄱㅏㄴㅏㄴ -8672
▁ㅅㅏㅈㅗㄱ -8673
pt -8674
▁ㅇㅜㄷㅡ -8675
▁ㅂㅕㄴㅇㅣ -8676
▁ㅍㅕㅇㅇㅑㅇ -8677
▁210 -8678
▁ㅆㅢㅇㅜ -8679
ㄹㅔㄱㅅㅕㄴ -8680
▁121 -8681
▁ㅅㅙ -8682
▁ㅍㅛㅈㅓㄹ -8683
▁ㅇㅏㅋㅏㄴ -8684
▁ㅇㅡㄹㅏㄱㅗ -8685
ㅅㅡㅁㅏ -8686
▁ㅅㅗㄴㄲㅗㅂ -8687
ㅇㅑㅁㅏ -8688
▁ㅇㅡㄹㅕㄴㅡㄴ -8689
ise -8690
▁ㅇㅚㅇㅜ -8691
▁ㅇㅣㅈㅎㅣ -8692
▁ㅈㅜㅅㅏㅇㅟ -8693
ㄸㅏ -8694
▁ㄹㅔㅇㅣㄷㅣ -8695
▁ㄱㅓㅁㅇㅕㄹ -8696
▁ㅎㅘㅇㅎㅜ -8697
▁ㄷㅐㅈㅗ -8698
▁ㄷㅡㄹㅐ -8699
▁ㅇㅕㅍㅗ -8700
▁ㅇㅏㄲㅏㅂ -8701
▁ㅅㅡㅋㅔㅇㅣㄹ -8702
▁ㅌㅏㅊㅣ -8703
▁ㄹㅏㅇㅜ -8704
▁ㅇㅣㅅㅜㄴ -8705
▁ㅇㅖㅇㅑㄱ -8706
ical -8707
▁ㄱㅕㅇㅇㅕㄴ -8708
▁ㅊㅣㅁㅌㅜ -8709
▁ㅅㅗㅈㅐㅈㅣ -8710
▁ㅅㅡㄴㅏㅇㅣ -8711
▁107 -8712
ㄴㅏㄱㅏ -8713
▁ㅅㅓㄴㅊㅜㄹ -8714
▁ㅁㅟㄴ -8715
▁ㄱㅐㅊㅓㄱ -8716
▁ㅂㅡㄹㄹㅣㅈㅏㄷㅡ -8717
▁ㅇㅣㄱㅕㅇ -8718
▁ㅋㅏㅇㅣㄹ -8719
▁ㄴㅜㄱㅜㄴ -8720
▁ㅇㅗㄴㄷㅗ -8721
▁ㅊㅓㄴㅊㅓㄴㅎㅣ -8722
▁ㅁㅗㄱㄱㅓㄹㅇㅣ -8723
▁ㄱㅔㅇㅣㅁㅓ -8724
▁ㅅㅜㅈㅣ -8725
▁ㅌㅡㄱㅎㅜㄴ -8726
▁ㅇㅣㄹㅏㅋㅡ -8727
▁ㅃㅐㄴ -8728
▁ㄴㅜㄱㅜㄴㄱㅏ -8729
▁ㅅㅡㅌㅐㄱ -8730
▁Ver -8731
▁ㅅㅡㅌㅏㄹㅣㄱㅡ -8732
▁ㄴㅏㄴㅁㅜ -8733
▁ㅂㅐㄷㅡ -8734
▁ㅈㅜㅊㅔ -8735
▁ㅁㅣㄱㅜㄱㅇㅣㄴ -8736
▁ㅋㅔㅂㅣㄴ -8737
▁ㅇㅚㄴㅅㅗㄴ -8738
▁ㅇㅢㅇㅚㄹㅗ -8739
ㅌㅏㄴㅏ -8740
▁ㅇㅕㄹㅎㅕㄹ -8741
▁1981 -8742
▁ㅇㅕㅅㅓㅅ -8743
▁-- -8744
ㄱㅗㅇㅎㅏㅇ -8745
▁ㄱㅏㅇㄱㅕㅇ -8746
▁ㄲㅡㄶㅇㅣㅁㅇㅓㅄㅇㅣ -8747
▁ㅅㅣㅇㅚㅂㅓㅅㅡ -8748
▁ㅍㅔㅇㅓㄹㅣ -8749
▁ㄲㅜㅁㄲㅜ -8750
▁ㄴㅏㄴㅏ -8751
▁ㅇㅝㅋㅡ -8752
▁ㅅㅏㅊㅔ -8753
▁ㅂㅜㅅㅣ -8754
▁MG -8755
ㅌㅡㄹㄹㅣ -8756
▁ㅊㅣㄱ -8757
ㅣㅇㅓㄴㅅㅡ -8758
▁ㅇㅔㄴㅌㅡㄹㅣ -8759
▁ㅂㅜㄹㅌㅐㅇㅜ -8760
▁ㅂㅓㄴㅈㅣ -8761
▁ㅇㅣㄴㅊㅣㅇ -8762
▁ㅂㅜㅈㅐ -8763
▁ㅍㅐㅈㅏ -8764
▁ㄷㅓㅁㅂㅣ -8765
▁ㅅㅗㅌㅗㅇ -8766
▁ㅅㅏㄹㅗ -8767
▁ㅈㅗㅈㅗㅇㅅㅏ -8768
▁ㅂㅏㄱㅅㅓㅇ -8769
▁ㄱㅗㅁㅜ -8770
▁ㄱㅏㅁㅌㅏㄴ -8771
▁ㄱㅘㅇㅁㅜㄹ -8772
▁ㄲㅡㄹㅇㅓㄷㅡㄹㅇㅣ -8773
ㅁㅗㅎㅏㅁ -8774
▁ㅁㅕㅇㅂㅜㄴ -8775
▁ㅇㅓㄴㅏㄷㅓ -8776
▁ㄱㅡㄹㅔㅇㅣㅌㅡ -8777
▁ㅈㅏㅇㅠㄹ -8778
ㄹㅗㄹ -8779
▁ㅈㅔㅈㅐ -8780
▁ㅈㅜㄱㅘㄴ -8781
▁ㅇㅝㅍㅡ -8782
▁pl -8783
▁ㄴㅗㅇㅣ -8784
▁ㄷㅏㅂㄷㅏㅂ -8785
▁ㄹㅣㅍㅓ -8786
▁ㅈㅜㅇㄱㅓㄹㅣ -8787
ign -8788
ㄱㅜㅊㅣ -8789
ㄹㅜㅅㅕㄴ -8790
ㅎㅏㄹㅜ -8791
▁ㅈㅓㅁㄱㅓㅁ -8792
▁ㅊㅡㅋㅏ -8793
▁ㅎㅕㄹㅌㅗㅇ -8794
▁ㅁㅗㄴㅣㅌㅓ -8795
▁ㅅㅏㅅㅜ -8796
ㅎㅔㄹ -8797
ㅍㅏㅇㅣ -8798
▁ㅇㅏㅂㄱㅝㄴ -8799
▁ㅅㅡㅌㅣㅂㅡㄴ -8800
▁ㅍㅓㅅㅡㅌㅡ -8801
ㅏㅇㅜㅌㅡ -8802
ㅈㅏㅊㅣ -8803
▁ㅅㅗㄱㅡㅁ -8804
ㅓㅇㅇㅣ -8805
ㅌㅔㅇㅣㄹ -8806
ㄱㅕㅇㄱㅣ -8807
▁ㅅㅣㄴㅈㅣ -8808
gh -8809
▁ㅊㅓㅅㅉㅐ -8810
▁ㅁㅏㅈㅂㅜㅌ -8811
ㄱㅔㄴ -8812
▁ㅁㅜㅇㅛㅇ -8813
▁ㅅㅓㄴㅈㅣㄴ -8814
▁ㅎㅏㄹㄹㅣ -8815
▁ㅅㅓㅅㅣㄱ -8816
▁ㅍㅡㄹㅗㄱㅔㅇㅣㅁㅓ -8817
▁ㅈㅏㅈㅗㄴ -8818
▁ㅇㅣㅇㅘ -8819
▁ㄴㅐㅇㅈㅓㅇ -8820
▁ㅌㅡㅇㅟㅅ -8821
▁ㄱㅛㅌㅗ -8822
▁ㅁㅗㄷㅔㄹㄹㅣㅇ -8823
▁ㄱㅕㅇㅊㅏㄹㅅㅓ -8824
▁ㄹㅏㄱㅡㄴㅏ -8825
▁ㅇㅓㅁㅇㅕㄴㅎㅣ -8826
▁ㅇㅣㄹㅏㄷㅗ -8827
▁ㅍㅏㄹㅏㅎ -8828
▁ㅁㅣㅈㅓㅇ -8829
▁love -8830
▁ㅍㅡㄹㅗㄴ -8831
▁ㄴㅓㅁㅓ -8832
ㄷㅏㅇㅜㄴ -8833
▁ㅈㅓㅁㅇㅠ -8834
ㅗㅍㅡ -8835
▁ㄱㅣㅁㅅㅡㅇ -8836
ㄷㅜㅁ -8837
▁ㅊㅓㄹㄱㅏㅂ -8838
▁ㅉㅡ -8839
▁EC -8840
▁ㅊㅜㄹㄱㅏㄴ -8841
▁ㄹㅔㅇㅣㄴㅈㅣ -8842
▁ㅇㅣㅍ -8843
▁ㅍㅕㅇㄹㅗㄴ -8844
ㅊㅡㅇㅑ -8845
▁ㅈㅔㄴㅗ -8846
▁ㅎㅐㅅㅏㄴ -8847
ㅅㅅㅗㄱ -8848
▁ㅇㅏㅇㅜㄹ -8849
▁ㄱㅗㅇㄱㅕㄱㅅㅜ -8850
ㅌㅏㅋㅏ -8851
▁ㅎㅔㅅㄱㅏㄹㄹㅣ -8852
▁ㅎㅡㄺ -8853
▁ㅎㅗㅅ -8854
▁ㅇㅗㅈㅜㄱ -8855
▁ㅈㅜㅇㅇㅟ -8856
▁ㅇㅣㅁㅇㅢ -8857
IR -8858
▁ㅉㅗㅈ -8859
ㅋㅣㅅㅡ -8860
▁ㄱㅜㅂㅕㄹ -8861
▁ㅁㅣㅈㅣ -8862
▁ㅈㅣㅅㅜ -8863
▁TR -8864
▁ㅁㅏㅇㅌㅗ -8865
▁ㅍㅗㄱㄱㅕㄱㄱㅣ -8866
▁ㅁㅐㅇㅅㅔ -8867
ail -8868
urn -8869
▁ㄹㅓㅅㅡ -8870
▁ㅊㅣㄴㅂㅜㄴ -8871
▁ㅈㅜㅇㄷㅗㅇ -8872
▁ㅇㅕㄴㅅㅏㄴ -8873
ㅌㅡㄹㅗㄴ -8874
▁ㅂㅗㅈㅘ -8875
▁math -8876
▁ㄴㅐㅂㅓㄹㅣ -8877
▁ㅈㅣㅇㅗ -8878
▁ㅇㅚㄱㅘㄱ -8879
▁ㅍㅔㅅㅡ -8880
ㄴㅗㄹ -8881
ㅣㅇㅓㅅㅡ -8882
▁ㄴㅏㄹㅇㅏㄷㅏㄴㅣ -8883
▁Sk -8884
▁ㄴㅟ -8885
▁ㅇㅓㅇㅣㅇㅓㅄ -8886
▁ㄹㅏㅇㅣㅈㅡ -8887
▁ㄹㅣㄹㅏ -8888
▁ㄷㅜㄲㅓㅂ -8889
▁ㅈㅜㅊㅚ -8890
▁ㅊㅡㄴ -8891
▁ㅍㅣㄹㅗ -8892
▁ㅇㅛㅇㅈㅏ -8893
▁ㄱㅏㅇㅗ -8894
▁ㅅㅣㅅㅏ -8895
▁ㅇㅙㄴㅑㅎㅏㅁㅕㄴ -8896
▁ㅂㅗㄴㄴㅡㅇ -8897
▁ㄱㅗㅅㅏ -8898
▁ㄱㅣㅁㅌㅐ -8899
▁ㅈㅣㄹㅅㅓ -8900
▁ㅇㅕㄹㅈㅓㅇ -8901
▁ㅇㅗㄹㄷㅡ -8902
▁ㅍㅜㅇㅂㅜ -8903
ㅇㅡㄹㅗ -8904
▁ㅎㅘㅅㅏㅇ -8905
▁186 -8906
▁ㅆㅣㅇㅏ -8907
▁ㅈㅐㄱㅐ -8908
▁ㄱㅗㅈㅣㅂ -8909
▁JTBC -8910
▁ㄴㅏㅂㄷㅡㄱ -8911
ence -8912
▁ㅇㅕㅇㄱㅏㅁ -8913
▁ㄱㅡㄹㅡㅅ -8914
▁ㅅㅟㄹㄷㅡ -8915
▁ㄷㅗㅇㅓ -8916
▁ㄷㅗㅇㅈㅓㅇ -8917
▁ㄱㅜㄴㅇㅛ -8918
▁ㅎㅏㄴㅏㅎㅏㄴㅏ -8919
▁To -8920
▁ㅂㅜㄹㄴㅡㅇ -8921
▁ㅇㅠㄴㅣㅂㅓㅅㅡ -8922
▁ㄱㅜㅅㅏㅇ -8923
▁ㅎㅏㅇㄱㅗㅇㅁㅗㅎㅏㅁ -8924
▁ㄹㅗㄹㄹㅓ -8925
ㅊㅜㅇㅓ -8926
▁ㅍㅕㅇㅅㅏㅇ -8927
▁ㅂㅏㅇㅣㅇㅗㄹ -8928
▁ㅇㅠㅇㅣㅂ -8929
▁ㅋㅡㄹㅐㅍㅡㅌㅡ -8930
VER -8931
▁=" -8932
▁ㅇㅗㄴㅗ -8933
▁ㅁㅏㅇㅣㄴㄷㅡ -8934
▁ㅅㅏㅌㅚ -8935
ㄲㅓㅇ -8936
▁ㅅㅏㅁㅜㅅㅣㄹ -8937
▁Super -8938
▁ㅂㅕㄴㅈㅏㅇ -8939
▁ㅅㅣㄹㅅㅏ -8940
▁ㅇㅜㅇㅜㄹ -8941
▁ㅅㅡㅍㅗㄴㅅㅓ -8942
▁ㄱㅗㅅㅗㄱㄷㅗㄹㅗ -8943
▁122 -8944
▁ㅊㅗㄴㅡㅇㄹㅕㄱ -8945
ㅁㅔㅅ -8946
▁ㄱㅗㅇㅅㅗㄱ -8947
▁ㅈㅣㅂㅜ -8948
▁ㄹㅣㄴㅏ -8949
▁ㄱㅘㅇㄱㅕㅇ -8950
▁ㅍㅣㅋㅏ -8951
▁ㅊㅏㄴㅅㅓㅇ -8952
▁ㅌㅗㅈㅣ -8953
▁ㅇㅝㅁ -8954
▁ㅈㅓㅇㅅㅣㄴㄹㅕㄱ -8955
▁ㅅㅏㅇㅣㄹ -8956
▁BJ -8957
▁ㅋㅏㅊㅡ -8958
▁ㅈㅏㄱㅈㅓㅇ -8959
▁ㄱㅘㅇㅁㅕㅇ -8960
▁ㅂㅏㅇㅅㅏㄴ -8961
▁ㅎㅘㄱㅅㅣㄴ -8962
▁ㅂㅣㄹㅣ -8963
▁ㅇㅠㅇㅕㄴ -8964
▁ㅍㅡㄹㅏㅇㅅㅡㅇㅓ -8965
▁ㄱㅔㄹㅣ -8966
▁ㅇㅓㅅㅓㄹ -8967
▁ㅌㅡㄹㅣㄹ -8968
▁ㄱㅜㄱㅈㅔㄱㅗㅇㅎㅏㅇ -8969
▁Dream -8970
▁ㅇㅠㄷㅐ -8971
ㅂㅜㅈㅣ -8972
▁ㄱㅓㅁㅈㅓㅇ -8973
▁ㅇㅗㄹㅂㅏㄹㅡ -8974
▁ㅎㅣㅌㅡㄹㄹㅓ -8975
▁ㅁㅣㄹㅓ -8976
▁ㅁㅓㅅㄷㅐㄹㅗ -8977
ㄷㅗㅇㅕㄱ -8978
▁ㅍㅡㄹㄹㅣ -8979
▁ㅇㅔㄹㄹㅣㅂ -8980
▁ㅇㅔㄹㄹㅣㅂㅔㅇㅣㅌㅓ -8981
▁ㅇㅔㄷㅣㅅㅕㄴ -8982
▁ㄷㅏㅇㅣㅇㅏ -8983
▁ㅁㅗㅁㅌㅗㅇ -8984
▁ㅇㅣㄴㅂㅔㄴ -8985
▁ㅅㅏㅁㅅㅓㅇㅈㅓㄴㅈㅏ -8986
▁ㅌㅏㄱㅜ -8987
▁ㄱㅡㄴㄷㅐ -8988
▁ㄱㅣㅂㅗㄴㄱㅣ -8989
▁ㅇㅐㅊㅣㅇ -8990
▁ㄱㅏㅂㅈㅏㄱㅅㅡㄹㅓㅂ -8991
▁ㅈㅜㅇㅈㅓㅁ -8992
▁ㅍㅐㄹ -8993
ㅅㅕㄴㅓㄹ -8994
ㅍㅗㅇ -8995
▁ㅎㅐㅊㅣ -8996
▁LE -8997
▁ㅈㅏㅇㄹㅖ -8998
▁ㅂㅡㄹㅜ -8999
▁ㅌㅜㄴ -9000
▁1979 -9001
▁ㅊㅜㄹㅂㅓㅁ -9002
▁ㅂㅓㅂㅅㅏ -9003
ㄴㅜㄴ -9004
▁ㄱㅗㅅㅣ -9005
▁ㅅㅠㅍㅓㅁㅐㄴ -9006
▁ㄱㅡㄱㄷㅐ -9007
▁ㅎㅏㄹㄹㅗㅇ -9008
ier -9009
▁ㅂㅕㄴㅁㅕㅇ -9010
▁ㅊㅔㄱㅕㄹ -9011
▁ㅇㅗㅋ -9012
▁ㅇㅝㄴㅅㅜㅇㅇㅣ -9013
▁ㄱㅣㅁㅇㅠ -9014
▁ㅊㅗㅇㅈㅏㅇ -9015
ㅂㅔㅅ -9016
▁can -9017
▁EXP -9018
ㅅㅁㅏㄹ -9019
▁ㅋㅗㅌㅗ -9020
▁ㅅㅡㅌㅡㄹㅣㅁ -9021
▁ㅊㅜㅂ -9022
ㄱㅛㅇ -9023
▁145 -9024
▁ㅌㅜㅈㅐㅇ -9025
▁ㅇㅣㅇㅜㅅ -9026
▁ㄱㅗㄱㅇㅣㄴ -9027
▁ㅇㅠㅊㅣㅇㅝㄴ -9028
▁ㅁㅣㄴㄱㅜㄱ -9029
ㅅㅡㄹㅔ -9030
▁ㅊㅜㄹㅅㅏㄴ -9031
ble -9032
▁ㅇㅝㄹㅣㅇㅓ -9033
▁ㅁㅏㄴㄴㅡㅇ -9034
▁ㅋㅏㅅ -9035
▁ㄴㅗㅁㅜ -9036
▁ㅇㅣㅇㅓㅂㅏㄷ -9037
▁ㅂㅜㄱㅡㄴ -9038
▁ㅁㅗㅇㅣㅁ -9039
▁ㄷㅗㅅㅐㄱ -9040
▁ㅇㅠㄱㅕㄱㅅㅜ -9041
▁ㅅㅡㄹㅍㅡㅁ -9042
▁ㄷㅏㄱㅊㅣ -9043
ㅇㅏㅅㅓ -9044
▁ㅅㅣㄹㅎㅕㄴ -9045
▁ㅂㅡㄹㄹㅓㄱ -9046
IX -9047
▁ㅊㅏㅇㅈㅏㄱㅁㅜㄹ -9048
▁ㅁㅜㅈㅔ -9049
oun -9050
▁ㄹㅣㅌㅡㄹ -9051
▁ㅈㅐㅇㅏㅇ -9052
▁ㅍㅔㅇ -9053
▁ㅌㅔㅇㅣㅂㅡㄹ -9054
▁ㅂㅡㄹㅏㄷㅓㅅㅡ -9055
ㅣㅇㅓㅂ -9056
▁ㅇㅏㅊㅓ -9057
ㄷㅓㅁㅐㄴ -9058
▁ㅈㅏㅈㅔ -9059
▁NO -9060
▁ㄲㅣㅇㅓ -9061
▁ㅅㅓㄹㅣ -9062
▁ㅎㅔㄹㅁㅔㅅ -9063
▁ㅂㅜㅊㅓㄴ -9064
▁ㅁㅐㅈㅜ -9065
▁ㅂㅏㅇㅅㅣㅁ -9066
▁ㅋㅗㄴㅗ -9067
▁ㅎㅜㅇㅣㄹ -9068
▁113 -9069
▁ㅁㅜㅅㅣㄹㅈㅓㅁ -9070
▁ㅋㅣㄹㅏ -9071
▁ㅎㅏㄱㄱㅡㅂ -9072
▁ㄹㅣㅂㅗㄴ -9073
▁ㅇㅏㅁㅎㅗ -9074
▁ㅂㅡㄹㅏㅇㅣㅇㅓㄴ -9075
▁ㅁㅔㅁㅗ -9076
▁ㅔ -9077
▁IM -9078
▁ㅌㅠㅂㅓ -9079
▁Ap -9080
▁ㄱㅗㄷㅡㅇㅎㅏㄱㅅㅐㅇ -9081
▁ㅆㅣㅇㅏㅅ -9082
▁ㅊㅓㄹㅈㅓㅎㅣ -9083
▁ㅈㅗㅋㅏ -9084
▁ㄱㅓㅁㅈㅡㅇ -9085
▁ㅍㅜㅇㅅㅓㄴ -9086
▁165 -9087
▁ㅂㅏㅌ -9088
iver -9089
▁1950 -9090
ㅎㅠㅇ -9091
▁ㄷㅣㅁ -9092
▁ㄷㅜㄹㅕㅇ -9093
▁ㄱㅣㅁㅎㅐ -9094
▁ㅇㅓㅇㅁㅏㅇ -9095
▁ㅇㅘㅇㅂㅗㄱ -9096
▁ㅋㅡㄹㅏㅇㅣ -9097
▁ㅁㅗㄹㅅㅏㄹ -9098
▁ㄷㅏㄹㄹㅕㄷㅡㄹ -9099
ott -9100
▁ㅎㅏㅇㅁㅗ -9101
ㅈㅜㄱㅛ -9102
▁ㄱㅏㄱㅇㅣㄴ -9103
▁ㄱㅡㄹㅓㅁㅕㄴ -9104
▁ㅇㅣㄴㅈㅓㅂ -9105
▁ㅍㅗㅌㅏㄹ -9106
▁ㄱㅡㄹㅆㅣ -9107
▁ㅎㅗㄹㅓ -9108
ㅂㅏㅁ -9109
▁IT -9110
▁144 -9111
▁ㅋㅔㅇㅣㅋㅡ -9112
ㅔㅅㅣㅇㅏ -9113
ㅌㅡㄹㄹㅐㄴㄷㅡ -9114
▁ㅋㅏㄹㅡㄹ -9115
▁ㅅㅏㅇㅕㄴ -9116
▁ㅂㅕㅇㅇㅕㄱ -9117
▁ㄹㅣㄱㅏ -9118
▁ㅇㅓㅁㅁㅣㄹㅎㅣ -9119
▁ㅎㅣㅅㅡ -9120
▁ㅇㅣㄴㅅㅓㅇ -9121
▁155 -9122
▁ㅇㅜㄴㅅㅗㅇ -9123
▁ㅇㅔㄷㅡㅇ -9124
ㅑㅁ -9125
▁ㄹㅔㅇㅣㅂㅡㄹ -9126
▁ㅇㅠㅇㅜㅋㅣ -9127
▁ㅂㅓㅇㅋㅓ -9128
▁ㅅㅡㅂㄴㅣㄲㅏ -9129
▁ATK -9130
▁ㅇㅗㄱㅅㅏㅇ -9131
▁ㅈㅓㄹㅊㅣㄴ -9132
▁at -9133
ㅌㅔㅇㅣㅅㅕㄴ -9134
▁ㅋㅜㄷㅔ -9135
▁ㅎㅘㅍㅖ -9136
▁ㅉㅗㅊㄱㅕㄴㅏ -9137
▁ㄱㅏㄴㅅㅓㅂ -9138
▁ㅇㅏㅁㅏㅈㅗㄴ -9139
▁ㅅㅡㅌㅡㄹㅗ -9140
▁CM -9141
▁ㅅㅏㅇㅁㅜ -9142
▁ㅇㅏㅁㅜㅌㅡㄴ -9143
▁ㅌㅗㅇㅉㅐ -9144
▁ㅁㅏㄷㅏㅇ -9145
▁ㅈㅚㅊㅐㄱ -9146
▁ㅁㅏㄹㅏ -9147
▁ㅅㅡㅇㅇㅣㄴ -9148
▁ㅅㅏㅌㅜ -9149
▁ㅇㅔㄹㅡ -9150
▁ㅈㅗㄱㅜㄱ -9151
▁ㅇㅏㄹㅇㅏㅊㅐ -9152
▁ㅋㅏㅋㅜ -9153
▁ㅅㅣㅁㅠㄹ -9154
▁ㄷㅗㅇㅈㅓㄴ -9155
▁ㅍㅓㅁ -9156
▁ㅍㅜㅁㅈㅣㄹ -9157
▁ㅈㅕㄴ -9158
▁ㅅㅏㄹㅗㅈㅏㅂ -9159
▁ㅂㅗㄱㅅㅏ -9160
▁ㅎㅕㄴㄱㅡㅁ -9161
▁ㅁㅕㅇㅅㅏ -9162
▁ㅁㅜㅈㅣㄱ -9163
eah -9164
▁ㅅㅡㅇㅊㅏ -9165
uck -9166
▁ㅂㅏㅇㅎㅏㄱ -9167
▁ㅍㅔㄹㅡㅅ -9168
▁ㅇㅕㄴㅈㅓㄴ -9169
▁Max -9170
▁ㅇㅕㅇㅇㅑㅇ -9171
▁ㅎㅡㅌㅇㅓㅈㅣ -9172
ㅈㅣㄴㅎㅗ -9173
▁114 -9174
▁ㅂㅣㅂㅣ -9175
▁ㅁㅏㅇㅡㅁㄷㅐㄹㅗ -9176
▁ㅋㅗㅁㅂㅣ -9177
▁ㄹㅟ -9178
ㅍㅗㄱㅌㅏㄴ -9179
▁ㅌㅓㅂㅗ -9180
ㅏㅇㅣㅈㅡ -9181
▁ㅇㅣㄹㄱㅗㅂ -9182
▁ㅁㅣㄴㅏㅁ -9183
▁ㄱㅐㄱㅛ -9184
▁ㅁㅓㅅㅡ -9185
▁ㅁㅗㄱㅅㅏ -9186
▁ㄷㅗㄱㅇㅣㄹㅇㅓ -9187
ㄸㅣ -9188
▁ㄱㅣㅁㅈㅣ -9189
▁ㄱㅓㅈㅣ -9190
ㅃㅏㄱ -9191
▁ㅇㅠㅈㅐㅅㅓㄱ -9192
▁ㅊㅓㄴㅈㅏㅇ -9193
▁ㅅㅏㅇㄱㅡㅁ -9194
▁ㄱㅣㅍㅇㅣ -9195
▁BD -9196
ode -9197
▁ㅇㅣㅂㅁㅜㄴ -9198
▁ㅂㅣㅇㅜ -9199
▁ㅇㅑㅇㅅㅣㄱ -9200
▁ㅎㅏㅁㄹㅏㄱ -9201
▁ERA -9202
▁ㄴㅔㄴ -9203
▁ㅊㅚㅈㅓ -9204
▁ㅈㅣㅂㅎㅚ -9205
▁ㅈㅚㅊㅐㄱㄱㅏㅁ -9206
II -9207
▁ㅅㅡㄴㅏㅇㅣㅍㅓ -9208
oh -9209
▁ㅅㅣㅋㅡㄹㅣ -9210
▁this -9211
▁ㅇㅝㄴㅈㅓㄴ -9212
▁ㅇㅣㄴㅗㅁ -9213
▁ㅎㅕㄴㅈㅏ -9214
▁ㅁㅟㄴㅎㅔㄴ -9215
▁ㅂㅐㅇㄱㅏㄷㅡ -9216
ㅋㅗㅌㅡ -9217
▁ㅅㅡㅍㅡ -9218
▁ㅅㅣㅋㅡㄹㅣㅅ -9219
▁ㅅㅜㅇㅟ -9220
▁ㄱㅐㄱㅜㄹㅣ -9221
▁ㄴㅓㅅㅡ -9222
▁ㄷㅏㅋㅠ -9223
▁ㄱㅣㄷㅗㅇㄹㅕㄱ -9224
ㅕㄷㅡㄹ -9225
▁ㅌㅡㄹㅐ -9226
▁ㄷㅣㅇㅗ -9227
▁ㅎㅘㅎㅐ -9228
▁ㅇㅑㄹ -9229
ㅏㅇㅑㅁㅏ -9230
▁ㅅㅗㄴㅈㅏ -9231
▁ㅎㅕㄱㅅㅣㄴ -9232
▁ㅎㅜㅁㅣ -9233
▁ㅅㅡㅇㅈㅣㄴ -9234
▁ㅎㅗㅇㅢ -9235
▁ㅎㅗㄷㅡ -9236
ㅂㅐㅅ -9237
▁ㄷㅏㄱㅓㄴㅏ -9238
▁ㅇㅣㅌㅡㄹ -9239
▁ㅊㅗㄹㅗㄱㅅㅐㄱ -9240
ㅗㅇㅑ -9241
ㅇㅕㄱㅅㅏ -9242
▁ㅅㅡㅌㅣㅂㅡ -9243
▁ㅇㅏㅋㅜㅇㅏ -9244
▁ㅇㅛㅇㅇㅏㅁ -9245
▁ㅌㅗㄷㅐ -9246
ㅇㅓㅈㅜ -9247
▁ㅅㅓㅇㄱㅕㅇ -9248
▁ㅅㅗㄴㄲㅗㅂㅎㅣ -9249
▁ㅁㅔㅅ -9250
ㄲㅣㄹㅣ -9251
▁ㅅㅡㅋㅏㅇㅜㅌㅡ -9252
▁ㅎㅏㄹㄹㅗㅇㅟㄴ -9253
▁ㄴㄷㅔㄷㅏ -9254
▁ㅈㅓㄴㅎㅑㅇ -9255
ㅏㄴㅐ -9256
▁ㅂㅜㅍㅐ -9257
▁ㅈㅓㅇㅁㅜㄴ -9258
▁ㅅㅏㄴㅌㅏ -9259
▁ㅊㅚㅅㅜㄴ -9260
▁ㄹㅏㅇㅣㅇㅓㄴ -9261
▁ㅈㅗㅇㄱㅕㄹ -9262
▁ㅊㅏㅁㅅㅏ -9263
▁ㄹㅔㅅㅣ -9264
▁ㅅㅡㅋㅓㄹ -9265
▁ㅋㅗㅅㅡㅍㅡㄹㅔ -9266
▁ㄹㅓㅅㅟ -9267
▁ㄱㅜㅇㅎㅏㅂ -9268
▁ㅈㅓㄴㄷㅗㅇㅊㅏ -9269
▁ㅇㅝㄴㅈㅏㅇ -9270
ㅇㅣㄷㅗㅇ -9271
▁ㅅㅔㄹㅗ -9272
▁ㄴㅗㄱㅎㅘ -9273
▁ㅈㅓㄴㄹㅏㄴ -9274
▁ㅂㅓㅈ -9275
▁ㅌㅣㅈㅓ -9276
▁ㅅㅡㅍㅣㅇㅓ -9277
▁750 -9278
ㄹㅔㅂ -9279
▁..! -9280
▁ㅁㅣㅅㅓㅇ -9281
▁ㅍㅕㅇㅎㅐㅇ -9282
▁ㅁㅏㅈㅎㅣ -9283
▁ㅇㅣㄴㄱㅘ -9284
▁ㄲㅐㄲㅡㅅ -9285
▁ㅎㅏㄴㄴㅏㄹㅏ -9286
▁ㅊㅣㄴㅇㅐ -9287
ㅋㅏㄹㅡ -9288
▁ㄹㅔㅅㅡㄴ -9289
▁ㅁㅏㄴㅈㅓㅁ -9290
▁ㅅㅏㅁㅜㄹㅏㅇㅣ -9291
▁GK -9292
▁from -9293
▁ㅈㅓㅇㅂㅏㄴㄷㅐ -9294
▁ㅎㅏㄴㄴㅏㄹㅏㄷㅏㅇ -9295
▁HE -9296
ㅅㅂㅜㄹ -9297
ㅋㅔㅇㅣㅅㅕㄴ -9298
▁ne -9299
▁ㅇㅏㅇㅣㄷㅣㅇㅓ -9300
▁ㅈㅓㅇㅅㅓㅇ -9301
▁ㄷㅐㅇㅟ -9302
ㅇㅓㅂㅗ -9303
▁ㅇㅡㄴㅍㅖ -9304
▁ㅋㅏㄹㅔ -9305
▁ㅈㅐㄱㅅㅡㄴ -9306
▁ㅎㅡㄱㅁㅏ -9307
ㅂㅕㄴㅇㅣ -9308
▁ㄷㅗㄹㅇㅕㄴㅂㅕㄴㅇㅣ -9309
ㅅㅠㅌㅏㅇㅣㄴ -9310
▁ㅈㅣㄹㅗ -9311
▁ㄸㅓㄹㅊㅣ -9312
▁??? -9313
▁ㄷㅏㄲ -9314
▁ㅇㅠㅈㅓㄴ -9315
▁ㅎㅕㅂㅇㅢ -9316
▁ㄷㅣㅈㅏㅇㅣㄴㅓ -9317
bs -9318
▁ㅁㅣㅇㅣㄴ -9319
int -9320
▁ㅁㅏㄹㅆㅡㅁ -9321
▁ㅋㅏㅁㅏ -9322
ㄸㅓㄹㅇㅓㅈㅣ -9323
▁OS -9324
▁ㄷㅗㅇㅑㄱ -9325
▁ㄱㅛㄱㅘㅅㅓ -9326
▁ㄴㅏㅇㅣㅍㅡ -9327
ㅐㄱㅅㅡ -9328
▁ㅍㅔㄹㅡㅅㅗㄴㅏ -9329
▁ㅁㅔㅇㅣㅈㅣ -9330
▁ㅍㅣㄹㄹㅣㅍㅣㄴ -9331
▁ㅁㅏㅌㅏ -9332
▁ㅇㅣㄹㅕㄱ -9333
▁ㅃㅐㅅㄱㅣ -9334
▁ㅈㅏㅊㅣㅇ -9335
▁ㅇㅝㅈㅡ -9336
▁ㅍㅜㅇㄱㅣ -9337
▁ㅎㅏㅇㅎㅐ -9338
▁ㅎㅓㅇㄱㅏㄹㅣ -9339
▁ㄱㅣㅎㅜ -9340
▁ㅅㅣㄹㅊㅔ -9341
▁ㅈㅓㄱㅈㅓㄹㅎㅣ -9342
▁ㄹㅔㄴㅏ -9343
▁ㅈㅓㄴㄹㅏ -9344
▁ㅈㅣㅂㅜㄴ -9345
▁ㅎㅏㅂㅈㅏㄱ -9346
▁ㅊㅣㅇㅏㄴ -9347
▁ㅂㅡㄹㅗㄴ -9348
▁ㅊㅜㅇㅈㅗㄱ -9349
▁ㅎㅡㅂㅎㅕㄹㄱㅟ -9350
▁450 -9351
▁tr -9352
▁NBA -9353
▁ㄱㅐㅅ -9354
▁ㅈㅣㄴㅇㅔㅇㅓ -9355
▁Season -9356
ㅎㅏㅇㄱㅗㅇ -9357
▁AB -9358
▁ㅈㅘㅊㅡㄱ -9359
▁ㅈㅗㅇㅇㅕㅇ -9360
▁ㅂㅜㄹㅓㅈㅣ -9361
▁ㅎㅏㄱㅁㅜㄴ -9362
▁ㄷㅏㅅㅣㄱ -9363
▁ㅈㅏㅇㅣㅇㅓㄴㅌㅡ -9364
▁ㅈㅐㅅㅏㅇ -9365
▁ㄷㅐㄷㅗㅇ -9366
itt -9367
ㅉㅜㄱ -9368
▁ㅈㅜㅇㅇㅝㄴ -9369
▁ㅅㅣㅂㅣ -9370
▁ㄹㅏㅁㅏ -9371
IL -9372
▁ㅇㅑㅁㅏㄴ -9373
▁ㅎㅐㅅ -9374
▁ㅍㅣㅈㅏ -9375
▁ㅇㅏㅇㅗㅇㅣ -9376
▁ㅇㅕㄷㅏㄴ -9377
▁ㅂㅣㄱㅣ -9378
▁ㅈㅣㅎㅖ -9379
ose -9380
▁ㅇㅛㄱㅅㅓㄹ -9381
ㅡㄴㅣ -9382
▁ㅅㅣㄱㅗㄹ -9383
▁ㅅㅓㄹㅠ -9384
▁ㅇㅣㄹㄱㅘㄴ -9385
▁ㄱㅏㄷㅏㅁ -9386
ㅇㅓㅁㅓㄱ -9387
▁ㄴㅐㄱㅣ -9388
▁ㅇㅓㄹㅌㅣㅁ -9389
▁ㄹㅣㄹㅣ -9390
▁new -9391
▁ㅇㅣㅌㅏ -9392
▁ㅎㅏㄱㄷㅐ -9393
▁ㅊㅣㅁㅊㅏㄱ -9394
▁{{{- -9395
ㄹㅏㄷㅡ -9396
▁ㄹㅣㅅㅏ -9397
▁ㅎㅠㅁㅓㄴ -9398
▁ㄴㅡㄴㄱㅜㄴ -9399
▁ㅇㅓㄱㅇㅜㄹ -9400
▁ㅎㅣㄷㅡㄹㅏ -9401
▁ㅇㅣㅂㅈㅡㅇ -9402
▁ㄹㅔㅋㅗㄷㅡ -9403
▁ㅎㅡㄹㄹㅓㄱㅏ -9404
ㅏㅁㅕㄴ -9405
▁EXT -9406
▁ㅅㅡㅌㅗㅇ -9407
▁ㄱㅖㅊㅡㅇ -9408
▁ㄱㅏㄱㅈㅣ -9409
▁ㅁㅐㄷㅏㄹㄹㅣ -9410
ㄹㅣㄱㅅㅡ -9411
▁ㅇㅑㄼ -9412
▁ㅎㅕㅂㅈㅓㅇ -9413
▁ㅇㅚㄱㅜㄱㅇㅓ -9414
▁ㅂㅜㄴㅎㅗㅇ -9415
▁ㅍㅗㅂㅕㅇ -9416
▁ㅅㅡㅋㅝㄷㅡ -9417
▁La -9418
▁ㅇㅔㄹㄹㅣㅈㅏㅂ -9419
▁ㄱㅛㅊㅏ -9420
ㅈㅣㄴㅡㅇ -9421
▁ㅇㅗㅇㅜ -9422
▁ㅈㅗㄴㅈㅜㅇ -9423
▁ㅎㅐㅅㅗ -9424
▁ㄷㅓㅍㅊㅣ -9425
▁ㅅㅗㅅㅐㅇ -9426
▁Im -9427
▁ㄹㅗㄹㅏ -9428
▁ㄱㅏㅁㄷㅏㅇ -9429
▁ㄷㅏㄹㅇㅏㄴㅏ -9430
▁EZ -9431
▁ㅊㅜㅎㅜ -9432
▁ㅅㅏㅇㅈㅜ -9433
▁ㅁㅏㄱㅣ -9434
▁ㅈㅏㄴㅎㅗㄱ -9435
▁314 -9436
ㅈㅠ -9437
ㅣㄹㄷㅡ -9438
▁ㅎㅏㅁㅈㅏㅇ -9439
▁ㅂㅜㅇㅠ -9440
ㅌㅏㅁㅈㅓㅇ -9441
▁ㅂㅔㅇㅣㅈㅣㅇ -9442
reat -9443
ㄷㅡㄹㅗ -9444
▁ㄱㅗㅇㅢ -9445
▁ㄱㅏㅇㅟ -9446
▁ㅁㅔㅌㅡㄹㅗ -9447
▁ㄲㅐㅇㅜ -9448
▁ㅇㅏㅋㅔㅇㅣㄷㅡ -9449
ㅈㅣㄱㅈㅏ -9450
ㅡㄹㄹㅏ -9451
▁ㅊㅗㅅㅏㅇ -9452
▁ㄴㅏㅇㅣㅊㅡ -9453
▁ㄷㅗㅇㅎㅐ -9454
▁ㅈㅓㄱㅡㄹㄹㅣㅇ -9455
▁ㄱㅏㅇㄹㅡㅇ -9456
ㅇㅇㅣ -9457
ㅅㅣㄱㅗ -9458
▁ㄴㅗㄱㅇㅣ -9459
ㅇㅡㄴㅅㅐㄱ -9460
▁ㅁㅜㄹㅈㅏ -9461
▁Con -9462
▁Vol -9463
▁ㅋㅏㄹㅣㅅㅡㅁㅏ -9464
▁ㄴㅏㅇㅣㄴ -9465
▁ㅇㅐㅁ -9466
▁ㅁㅣㄹㄷㅗ -9467
▁ㄱㅏㄹㅅㅐㄱ -9468
▁ㅅㅏㅇㅣㅁ -9469
▁124 -9470
▁ㅂㅜㅇㅝㄴ -9471
▁ㄷㅏㄴㅣㅇㅔㄹ -9472
▁ㅎㅏㄱㄴㅕㄴㄷㅗ -9473
▁ㅇㅣㄴㄱㅗㅇㅈㅣㄴㅡㅇ -9474
▁ㅅㅡㅍㅏㅇㅣㄷㅓㅁㅐㄴ -9475
ㅉㅏㅇ -9476
▁Sch -9477
▁ㅁㅣㄹㅡ -9478
▁ㅅㅣㄴㄱㅗㄱ -9479
▁ㄹㅔㅇㅣㅅㅣㅇ -9480
▁ㅂㅡㄹㄹㅗ -9481
▁ㅇㅠㅅㅡ -9482
ㅂㅏㅇㅑㅅㅣ -9483
▁ㄱㅏㅊㅏㅇ -9484
▁ㄱㅐㄹㄹㅓ -9485
▁ㅈㅓㅁㅁㅕㄹ -9486
▁Ed -9487
▁ㅁㅕㄴㅎㅏ -9488
▁ㄱㅡㄱㅎㅏㄴ -9489
▁ㅍㅣㅈㅣㅋㅓㄹ -9490
▁rd -9491
▁ㅈㅔㄴㅔ -9492
▁ㅈㅜㅅㅓㄱ -9493
▁ㅅㅡㅌㅏㅈㅡ -9494
▁ㄹㅗㅅㅡㅌㅡ -9495
▁ㄷㅐㅅㅔ -9496
▁ㅇㅠㅋㅏ -9497
▁ㅇㅏㄹㅡㅂ -9498
▁ㅊㅜㄹㅍㅏㄴㅅㅏ -9499
▁ㅎㅘㅇㄷㅏㅇ -9500
ube -9501
▁ㄱㅏㅇㅌㅏ -9502
ㅌㅜㅁ -9503
▁ㄱㅣㅇㅜㄹㅇㅣ -9504
▁Girl -9505
ㅖㄴ -9506
▁ㅁㅣㄴㄱㅏㄴㅇㅣㄴ -9507
▁ㅁㅜㄹㅇㅑㄱ -9508
▁ㅈㅓㅁㅅㅣㅁ -9509
▁ㄱㅏㅇㅈㅓㄴ -9510
ㅊㅓㄹㅅㅜ -9511
▁ㅎㅣㅁㅇㅣㅂ -9512
▁ㄱㅘㄱㅡㅁ -9513
▁ㅇㅏㅂㄹㅕㄱ -9514
▁ㄱㅡㄹㅔ -9515
▁ㅍㅓㅁㅍㅡ -9516
▁ㄷㅣㅇㅏㅂㅡㄹㄹㅗ -9517
ㅝㅍㅡ -9518
▁ld -9519
▁ㅇㅝㄴㅈㅏㄹ -9520
ㅇㅠㄹㅓㅂ -9521
▁ㄱㅕㄱㄹㅕ -9522
▁ㅍㅛㅈㅓㄱ -9523
▁RE -9524
▁ㅅㅣㅇㅏㄴ -9525
▁ㅂㅜㅅㅗㄱ -9526
▁ㄷㅐㅂㅕㄴ -9527
▁ㅇㅔㅇㅣㄹ -9528
▁Night -9529
▁ㄷㅐㄱㅓㅁ -9530
▁ㄸㅜㅇ -9531
▁ㅁㅏㅌㅣㄴ -9532
▁ㄱㅡㄹㅓㅁㅡㄹㅗ -9533
▁ㅈㅗㄴㅅㅡ -9534
▁ㅇㅣㄹㄱㅏㄱ -9535
▁ㄱㅣㄹㅣ -9536
ㅂㅏㅇㅅㅗㅇ -9537
ㅂㅜㅋㅣ -9538
▁ㄱㅡㅉㅗㄱ -9539
▁USB -9540
▁ㅇㅏㅂㅊㅜㄱ -9541
▁ㅇㅣㅃㅏㄹ -9542
▁183 -9543
ition -9544
ari -9545
▁ㅇㅣㅋㅔ -9546
▁ㅌㅗㅇㅜ -9547
▁ㅇㅠㅈㅣㄴ -9548
usic -9549
▁ㄱㅚㅇㅣㄴ -9550
▁ㅂㅓㄹㅆㅓ -9551
▁ㅇㅖㅇㅢ -9552
▁ㅇㅏㅇㅣㄴ -9553
▁ㅋㅜㄹㅣ -9554
▁ㅋㅟㅈㅡ -9555
▁ㅅㅏㄴㅁㅐㄱ -9556
ㅣㄹㅔ -9557
▁ㅇㅣㅈㅣㄴ -9558
▁ㄱㅗㅇㅣ -9559
▁ㅅㅡㅌㅣㄱ -9560
ㅊㅣㅇㅜ -9561
ㅏㅁㄷㅗ -9562
▁ㅂㅏㄱㅅㅜ -9563
▁ㅇㅐㅇㅘㄴ -9564
▁ㅅㅐㅇㄱㅣㅁㅅㅐ -9565
msys -9566
ㅇㅜㄷㅡ -9567
▁ㅂㅣㅇㄱㅕㄹ -9568
▁ㅎㅜㅇㅠ -9569
ㄹㅣㄱㅓㄴ -9570
ㅏㄴㅣ -9571
▁ldmsys -9572
ㅅㅏㄹㅏㅇ -9573
ㅊㅓㄹㄷㅗ -9574
▁ㄷㅏㅅㅣㄱㅡㅁ -9575
▁ㅆㅣㅅ -9576
▁ㅇㅣㄹㅈㅣ -9577
ㅂㅐㅇ -9578
▁152 -9579
▁ㅁㅏㅇㅅㅓㄹ -9580
▁ㅁㅣㅇㅏ -9581
▁ㅌㅔㅅㅡ -9582
▁ㅈㅓㄴㅅㅗㅇ -9583
15 -9584
▁ㅂㅕㅇㅅㅏㄹ -9585
▁ㅈㅜㅇㄱㅕㄴ -9586
▁ㄱㅣㄲㅓㅅ -9587
▁ㄴㅗㅇㅏ -9588
▁ㄴㅐㅇㅕㄱ -9589
▁ㄷㅔㅁㅗㄴ -9590
▁ㅌㅚㅊㅣ -9591
▁ㅂㅗㅅㅡㅌㅓㄴ -9592
ats -9593
▁ㄹㅣㅂㅓㅅㅡ -9594
▁TS -9595
▁ㅇㅣㅁㅎㅏ -9596
▁ㅊㅜㄹㄷㅗㅇ -9597
▁ㅇㅕㄴㅅㅓㄹ -9598
▁ㄱㅗㄹㅊㅣ -9599
ㅡㄹㄹㅣ -9600
▁ㅁㅏㅋㅔㅌㅣㅇ -9601
ㄷㅐㅇㅣㄴ -9602
▁..? -9603
▁ㄷㅓㅇㅇㅓㄹㅣ -9604
▁ㅇㅣㄷㅐ -9605
▁ㅈㅐㄱㅓㄴ -9606
▁ㅅㅡㅌㅐㅂ -9607
▁ㅂㅏㄹㅅㅏㄱㅣ -9608
▁ㅎㅏㅈㅣ -9609
ㅡㄴㅂㅏ -9610
▁ㅇㅣㄹㅡㄴㅂㅏ -9611
▁1200 -9612
▁ㄴㅓㄹ -9613
▁ㅇㅏㅋㅏㄴㅔ -9614
▁ㅁㅏㄴㄹㅔㅂ -9615
▁ㄱㅣㅂㅜ -9616
▁ㅈㅏㅈㅗㄴㅅㅣㅁ -9617
▁ㄷㅣㅂ -9618
▁Black -9619
▁ㅋㅣㅁㅣ -9620
▁ㄴㅗㅁㅜㅎㅕㄴ -9621
▁ㅂㅏㄱㅈㅣㄴ -9622
▁ㅈㅣㅂㄱㅖ -9623
ㅣㅇㅠ -9624
▁ㅂㅏㄱㅅㅡㅇㅗ -9625
▁ㅂㅏㄱㅅㅡㅇㅗㅍㅣㅅㅡ -9626
▁BC -9627
ㅇㅏㄷㅡㄹ -9628
▁ㄱㅣㅈㅣㄹ -9629
▁ㅌㅗㅁㅏㅅㅡ -9630
▁ㄷㅗㄷㅓㄱ -9631
ㅜㅁㅗ -9632
▁ㅈㅏㅊㅐㄱㅈㅓㅁ -9633
▁ㅁㅗㅎㅕㅇ -9634
▁ㅌㅗㅁㅣ -9635
▁ㅂㅐㄱㅜ -9636
▁ㅅㅓㄴㄷㅗㅇ -9637
▁182 -9638
▁ㅅㅏㅊㅗㄴ -9639
▁WC -9640
▁ㅁㅜㄴㅕ -9641
▁ㅈㅜㅊㅜㄱ -9642
▁ㅅㅗㅅㅗ -9643
ㅆㄷㅏ -9644
ㄱㅓㅇ -9645
▁ㄱㅗㅇㄷㅐ -9646
▁ㅈㅏㅇㅂㅕㄱ -9647
▁ㄷㅗㄷㅐ -9648
▁Bo -9649
▁NH -9650
▁ㄴㅗㅇㅇㅓㅂ -9651
▁ㅂㅗㄱㅏ -9652
▁ㅁㅗㅈㅗㅇ -9653
▁ㅊㅓㄴㅅㅏㅇ -9654
13 -9655
▁ㅊㅣㅋㅏ -9656
▁ㅍㅗㅊㅏㄱ -9657
▁ㅎㅟㅂㅆㅡㄹ -9658
▁ㅁㅏㅎㅏ -9659
▁ㅂㅏㅌㅓㅁ -9660
▁ㅊㅓㄹㄷㅗㅇㅕㄱ -9661
▁ㄱㅟㄱㅜㄱ -9662
yn -9663
▁ver -9664
ㅅㅣㄷㅐ -9665
▁ㅇㅣㄹㄹㅔㄱ -9666
▁ㅁㅜㄴㅇㅑㅇ -9667
▁ㅇㅝㄴㅍㅏㄴ -9668
▁ㅈㅓㄹㅂㅕㄱ -9669
▁ㅌㅗㅇㅅㅗㄹ -9670
▁ㄷㅡㅇㄱㅡㄱ -9671
ㄱㅏㄹㅜ -9672
▁ㄴㅏㅁㄷㅗㅇㅅㅐㅇ -9673
ㅅㅔㄴㅅㅡ -9674
▁ㄹㅔㅇㅏ -9675
▁ㅇㅕㄴㄷㅗㅇ -9676
▁ㅁㅣㄹㄹㅣㅇㅓㄴ -9677
ㅏㅇㅝㅈㅡ -9678
▁127 -9679
▁ㅁㅐㄷㅡ -9680
▁ㅅㅣㅌㅏ -9681
▁ㅋㅏㄱㅔ -9682
▁ㄷㅡㅇㅝㅍㅡ -9683
▁ㅁㅏㄷㅗㅋㅏ -9684
▁ㄱㅡㄹㅔㅇㅣㄷㅡ -9685
ㄷㅟ -9686
▁ㅂㅜㄹㄱㅣㄹ -9687
▁ㄹㅣㅊㅓ -9688
ㅓㄹㄷㅡ -9689
▁ㅅㅏㅇㄴㅑㅇ -9690
▁ㅁㅓㅁㅜㄹ -9691
▁ㅇㅐㅇㅣㄴ -9692
▁ㄱㅘㄴㅈㅏㅇ -9693
ㅋㅏㄴㅗ -9694
▁Let -9695
▁ㅇㅣㅇㅝㄴ -9696
▁ㅂㅜㄲㅡㄹㅓㅂ -9697
▁ㅈㅓㄱㅅㅣㅌㅏ -9698
▁ㅇㅣㅇㅠㄴ -9699
ㅍㅐㅇ -9700
▁not -9701
▁ㅇㅜㅁㅏ -9702
app -9703
▁ㄱㅛㅊㅏㄹㅗ -9704
ㄷㅏㅇㅊㅗ -9705
▁ㅔㅇㅛ -9706
▁ㅇㅗㄹㅡㄴㅅㅗㄴ -9707
▁ㅌㅏㄴㅎㅐㄱ -9708
▁ㅇㅏㄷㅏㅁ -9709
▁ㅎㅕㄴㅎㅘㅇ -9710
▁ㅁㅗㅅㅡㅋㅡ -9711
▁ㅂㅏㄹㅁㅕㅇ -9712
▁ㄱㅣㅁㅍㅗ -9713
▁ㅁㅗㅂㅣㄹ -9714
▁ㄸㅟㅇㅓㄷㅡㄹ -9715
▁ㅇㅏㅀ -9716
▁ㅃㅓㄹ -9717
▁ㅇㅏㅂㅔ -9718
▁ㅎㅚㄱㅘㄴ -9719
▁ㄷㅗㅂㅐ -9720
▁DM -9721
▁ㅅㅗㄹㅈㅓ -9722
▁MM -9723
▁ㅌㅏㅇㅣㅇㅓ -9724
▁ㅋㅜㄷㅔㅌㅏ -9725
▁ㅅㅓㅇㅜㄹㄷㅐ -9726
▁118 -9727
▁ㅎㅣㄹㅏ -9728
ㅂㅏㅈㅣ -9729
▁ㅇㅘㅇㅅㅣㄹ -9730
DD -9731
▁ㄹㅏㅇㅣㄴㅎㅏㄹㅡㅌㅡ -9732
▁ㅅㅗㅅㅓ -9733
▁ㅈㅔㅂㅏㄹ -9734
▁ㅇㅠㄱㅅㅏㅇ -9735
▁ㅇㅝㅌㅓ -9736
▁ㅅㅔㅇㅣㄹ -9737
▁ㅎㅕㅂㄷㅗㅇ -9738
▁ㅋㅣㅇㅛ -9739
▁ㅂㅏㄹㄱㅡㅂ -9740
▁ㅅㅡㅋㅡㄹㅗㄹ -9741
▁ㅇㅑㅁㅏㅇ -9742
▁ㅇㅘㅇㅂㅣ -9743
▁ㅇㅏㅁㅏㅊㅜㅇㅓ -9744
ㅌㅏㄴㅣ -9745
▁ㅍㅠㅈㅓㄴ -9746
▁ㅍㅡㄹㅐㄴ -9747
▁ㅇㅝㄴㅈㅜㅁㅣㄴ -9748
▁ㅅㅡㅌㅗㅇㅓ -9749
▁ㅇㅔㄷㅡ -9750
▁ㄱㅗㄱㅗ -9751
▁ㅇㅛㅇㅅㅏㄴ -9752
ough -9753
▁ㅂㅗㅇㅅㅏ -9754
▁ㅂㅓㅅㄱㅣ -9755
▁ㅅㅓㅁㄱㅘㅇ -9756
▁ㅈㅓㅇㅁㅣㄹ -9757
ㅣㅇㅏㄴ -9758
▁ㄷㅗㄹㄹㅕㅈㅜ -9759
▁OG -9760
▁ㅅㅏㅂㅏㅇ -9761
▁ㅌㅔㅊㅡ -9762
ㅔㅅㅡㅌㅡ -9763
▁ㅂㅏㅇㅅㅏㄴㅡㅇ -9764
ㅔㄴㅅㅡ -9765
▁184 -9766
▁ㅊㅏㄱㄹㅠㄱ -9767
▁ㅎㅑㅇㅎㅜ -9768
▁ㄲㅏㅁㅏㄱㅟ -9769
▁ㅂㅜㄹㄹㅓㅇㅗ -9770
▁ㅅㅡㅁㅏㅇㅣㄹ -9771
ㅇㅏㅇㅓ -9772
▁ㅈㅓㄴㄷㅏㅁ -9773
▁ㅋㅛㅋㅗ -9774
▁ㅈㅣㅈㅏㅇ -9775
▁ㅍㅡㄹㄹㅔㅇㅣㅁ -9776
▁SSR -9777
▁ㅎㅘㄴㅅㅐㅇ -9778
▁Am -9779
▁ㄱㅏㅁㅈㅏ -9780
▁ㅅㅓㅇㅕㄹ -9781
gr -9782
▁ㅇㅕㅌㅐ -9783
▁Op -9784
▁ㅇㅓㄹㄹㅣ -9785
▁ㄷㅐㅊㅏ -9786
▁ㅅㅜㄱㅅㅗ -9787
▁ㅇㅔㄹㄹㅔ -9788
▁ㅇㅣㄹㄹㅓㅅㅡㅌㅡㄹ -9789
▁ㄷㅏㅅㅡㄹㅣ -9790
▁Str -9791
▁ㅂㅏㄴㅅㅓㅇ -9792
ㅂㅏㄴㅏ -9793
▁Col -9794
▁ㄷㅗㄷㅐㅊㅔ -9795
▁AF -9796
▁ㅈㅏㅇㅏ -9797
▁ㅂㅔㅇㅣㄹ -9798
▁ㅇㅣㅂㅅㅣ -9799
▁ㅎㅐㅇㅈㅣㄴ -9800
▁ㅎㅜㅋㅜㅇ -9801
ye -9802
▁ㅍㅓㅍㅔㄱㅌㅡ -9803
▁ㅇㅣㅂㅕㄹ -9804
▁GM -9805
▁ㄱㅏㄱㄷㅗ -9806
▁ㅇㅣㄴㅍㅣㄴㅣㅌㅣ -9807
▁ㅈㅣㄹㅜ -9808
▁ㅂㅏㄱㅈㅏ -9809
▁ㅁㅣㄴㅍㅖ -9810
▁ㅊㅓㅇㅊㅜㄴ -9811
▁ㄴㅗㄹㅏㅎ -9812
▁ㅅㅏㅇㅘ -9813
▁ㅅㅓㅈㅓㄱ -9814
▁ㅁㅣㄴㅕ -9815
▁000000 -9816
▁ㅎㅏㅇㅕㄱ -9817
▁ㄱㅛㄷㅗㅅㅗ -9818
▁ㅈㅠㄹ -9819
▁ㄱㅔㄲㅡㅁ -9820
▁ㅋㅓㅁㅂㅐㅅ -9821
▁ㅋㅠㅇㅓ -9822
▁ㅍㅣㄹㄹㅡㅁ -9823
ㅔㄴㅗ -9824
▁ㅅㅣㄹㅇㅛㅇ -9825
▁ㅇㅛㄱㅅㅣㅁ -9826
▁ㅇㅓㄺㅎㅣ -9827
▁ㄷㅏㄹㄹㅕㅇㅗ -9828
▁ㅈㅓㅇㄷㅏㅂ -9829
▁Mag -9830
▁ㅁㅜㅈㅣㄱㅐ -9831
CE -9832
▁ㅎㅘㄱㅣ -9833
▁ㄱㅡㄱㅏㄴ -9834
▁ㅅㅓㄴㅂㅏㄱ -9835
▁ㅈㅏㅁㄱㅣ -9836
▁ㄱㅏㅇㅇㅣㄴ -9837
iel -9838
▁ㄷㅜㄹㄹㅓㅆㅏ -9839
▁ㅈㅓㅈㅏ -9840
▁ㅅㅗㄲ -9841
▁ㅅㅣㅇㄱㅏ -9842
ㅌㅡㄴㅓㅁ -9843
ㅜㅇㅕㄱ -9844
▁ㅂㅔㄴㅔ -9845
▁ㅈㅣㅋㅡ -9846
▁ㄷㅐㅇㅕㄱ -9847
▁ㅍㅕㄴㄹㅣ -9848
▁ㅊㅜㅁㅊㅜ -9849
▁ㅂㅜㅅㅡ -9850
▁ㄱㅐㅇㅅㅣㄴ -9851
▁ㅅㅡㅌㅏㅇㅝㅈㅡ -9852
▁ㅊㅣㄴㅊㅓㄱ -9853
▁ㄷㅏㅂㅣ -9854
▁ㄱㅡㅁㅂㅏㄹ -9855
▁ㅅㅡㅇㅍㅐ -9856
▁ㅈㅣㄱㅊㅐㄱ -9857
ㅇㅜㄴㄷㅗㅇ -9858
▁ㄱㅏㅇㅣㄷㅡ -9859
▁ㅈㅜㄱㅗㅇ -9860
▁ㅁㅗㅅㅜㄴ -9861
▁ㅅㅓㄴㅇㅝㄴ -9862
▁ㅁㅏㅇㅡㄹㅂㅓㅅㅡ -9863
▁ㅎㅘㅅㅣㄴ -9864
▁ㅈㅗㅎㅘ -9865
▁ㄱㅓㄴㅈㅣ -9866
▁ㅊㅓㅇㄱㅜ -9867
▁ㅇㅗㅂㅓㄹ -9868
▁ㅇㅣㄹㅇㅣㄹ -9869
▁ㄱㅘㅇㅣㄹ -9870
▁AV -9871
ㅜㅇㅛ -9872
▁ㅎㅡㅇㅂㅜㄴ -9873
▁ㅌㅏㅁㅅㅏ -9874
▁ㅎㅏㄱㅅㅏ -9875
▁1978 -9876
▁ㅅㅏㅇㅣㅋㅡㄹ -9877
▁ㅎㅏㅊㅣ -9878
▁ㅂㅏㄹㄱㅏㄱ -9879
▁ㄱㅏㄴㅈㅣ -9880
▁ㅇㅗㄹㅔㄴㅈㅣ -9881
ull -9882
▁ㅊㅣㅁㅁㅗㄹ -9883
vel -9884
▁ㅅㅏㅊㅣ -9885
▁ㅇㅓㅂㅔㄴㅈㅕ -9886
▁ㅅㅡㅋㅏㅇㅜㅅ -9887
ㅓㄴㅇㅔ -9888
▁ㅎㅏㄴㄲㅓㅂ -9889
▁ㅎㅏㄴㄲㅓㅂㅓㄴㅇㅔ -9890
▁AL -9891
▁ㅇㅏㅍㅗ -9892
▁ㅍㅗㄹㅇㅏㅇㅜㅅ -9893
▁ㅇㅏㅁㅜㄹㅓㅎ -9894
▁ㅅㅓㅁㅁㅕㄹ -9895
▁ㅅㅣㅎㅗ -9896
▁ㄱㅗㄹㅍㅡ -9897
▁ㅂㅏㅇㅣㅇㅔㄹ -9898
▁ㅇㅣㄱㅖ -9899
▁ㅎㅗㄹㅣ -9900
▁ㄱㅣㅁㄱㅘㅇ -9901
▁ㅇㅘㄴㅎㅘ -9902
ㄹㅜㅁ -9903
ㅅㅡㅌㅔㄹ -9904
▁ㄱㅕㅇㅈㅓㄴ -9905
▁ㅌㅔㄹㅣ -9906
ㅣㅅㅣ -9907
▁ㅈㅏㅇㅟ -9908
▁ㄹㅔㅅㅡㄹ -9909
▁ㅎㅡㄱㅇㅕㄱㅅㅏ -9910
▁ㅋㅏㅁㅔㄹ -9911
▁ㅇㅣㅅㅡㅌㅡ -9912
▁ㅂㅔㅅㅡ -9913
▁ㅇㅗㅌㅗㅂㅏㅇㅣ -9914
▁ㅂㅗㄱㅏㅇ -9915
▁ㅎㅐㅇㅜㄴ -9916
▁ㅇㅠㄱㅏ -9917
▁ㅎㅡㄱㅁㅏㄱ -9918
▁ㄹㅡㄴ -9919
▁ㅅㅣㄱㅏㄴㄷㅐ -9920
▁ㅅㅡㄱㅏ -9921
▁ㅊㅓㄴㄱㅜㄱ -9922
ult -9923
▁ㅌㅏㄹㅣ -9924
▁ㅌㅗㅌㅡㄴㅓㅁ -9925
▁ㅁㅗㅇㅛㄱ -9926
▁ㅅㅓㅇㅁㅕㅇ -9927
▁ㄴㅡㅇㄱㅏ -9928
▁ㅇㅓㅈㅔ -9929
ㄸㅏㄴ -9930
▁178 -9931
▁ㄱㅜㅎㅕㅇ -9932
ㅋㅣㅅㅡㅌㅏㄴ -9933
▁ㄹㅣㅂㅜ -9934
▁ㅋㅓㅁㅂㅐㄱ -9935
ㅅㅓㅅㅡ -9936
▁ㅋㅡㄹㅏ -9937
▁CL -9938
ㅋㅗㄱ -9939
▁ㅇㅛㅇㅇㅣ -9940
able -9941
▁ㅁㅣㄴㄱㅏㅁ -9942
▁ㅂㅏㄴㄱㅕㅇ -9943
▁ㅇㅑㄱㅎㅗㄴ -9944
▁ㅅㅡㅌㅔㄹㅅㅡ -9945
▁ㄱㅘㄴㅁㅜㄴ -9946
▁ㄷㅗㄹㅏ -9947
▁ㅂㅡㄹㅐ -9948
▁ㅎㅗㅅㅋㅏㅇㅣㄷㅗ -9949
▁ㅊㅣㅇㅣ -9950
▁ㅇㅣㄷㅏㄴ -9951
ㅜㅇㅣㄷㅡ -9952
▁ㄹㅗㅋㅣ -9953
▁ㅊㅟㅈㅐ -9954
▁ㅈㅓㄴㅈㅣ -9955
▁1945 -9956
ject -9957
▁ㄹㅜㅇ -9958
▁ㅂㅏㄴㅇㅕㄱ -9959
▁ㅅㅣㄴㄱㅘㄴ -9960
▁ㄹㅏㅇㅣㅌㅡㄴ -9961
ㅁㅜㅈㅣ -9962
▁ㅅㅗㄴㅏ -9963
▁ㄴㅗㄹㅡㅅ -9964
▁ㅁㅣㅅㅗㄴㅕ -9965
▁ㅁㅣㄹㄹㅏㄴ -9966
▁ㅅㅣㅇㄱㅏㅍㅗㄹㅡ -9967
▁ㅇㅗㅁㅏㄴ -9968
▁ㅇㅘㄴㄱㅗㅇ -9969
▁ㅇㅓㅇㄷㅓㅇㅇㅣ -9970
▁ㅇㅣㄴㅁㅜㄴ -9971
▁PK -9972
▁ㄷㅗㅇㄱㅖ -9973
ㅂㅣㅅ -9974
▁ㅊㅚㅅㅏㅇㄱㅡㅂ -9975
▁CE -9976
ㅁㅣㄴㅈㅜ -9977
▁ㄷㅡㅇㅈㅐ -9978
▁ㄱㅕㅇㅅㅏㅇㄴㅏㅁㄷㅗ -9979
▁ㄱㅡㄹㅣㅍㅣㄴ -9980
▁ㅇㅣㄹㅊㅔ -9981
▁ㄹㅔㅂㅓ -9982
▁ㅈㅜㅁㅓㄴㅣ -9983
▁ㄹㅡㅂ -9984
18 -9985
▁Co -9986
▁ㅁㅏㅇㅑ -9987
▁cl -9988
eth -9989
▁ㅇㅏㅇㅏ -9990
▁ㅁㅐㄱㅏㄱ -9991
▁ㄴㅐㅁㅣㄹ -9992
▁ㅋㅏㅍㅣ -9993
▁ㅅㅗㄷㅡㄱ -9994
▁ㅇㅏㄹㅣㅇㅏ -9995
▁ㄱㅏㄴㅍㅏㄴ -9996
▁ㅅㅣㅋㅏㄱㅗ -9997
▁ㅈㅣㄱㅎㅐㅇ -9998
▁ㅇㅣㄴㅏㅁㅏ -9999
▁ㅇㅓㄹㅌㅣㅁㅣㅅ -10000
▁ㄱㅏㄹㅕㅇ -10001
▁ㅅㅏㅈㅣㄱ -10002
▁ㄱㅜㄴㅂㅜ -10003
▁ㅅㅡㅇㅟㅇ -10004
ㅂㅏㅇㅇㅜㄹ -10005
▁ㅅㅣㄴㅈㅏㄱ -10006
▁ㅌㅏㅋㅏㅎㅏㅅㅣ -10007
ㄱㅡㄹㅣ -10008
▁ㄹㅣㅍㅡㄹㄹ -10009
ㅇㅓㄷㅡ -10010
▁ㅅㅣㅈㅗㅇ -10011
▁ㄷㅗㄱㅂㅐㄱ -10012
▁ㅁㅣㄷㅗㄹㅣ -10013
▁ㅌㅔㄹㅏㄴ -10014
▁ㅇㅔㅋㅗ -10015
▁ㅇㅜㄹㅇㅡㅁ -10016
▁ㅂㅔㅇㅣㅂㅣ -10017
▁ㄲㅓㅈㅣ -10018
ㅁㅗㅅㅡㅂ -10019
▁ㄹㅏㅇㅣㅌㅡㄴㅣㅇ -10020
MAN -10021
▁ㅂㅜㅊㅐ -10022
▁ㅇㅔㄹㄹㅣㅈㅏㅂㅔㅅㅡ -10023
▁ㅈㅏㅇㄴㅏㅁ -10024
▁ㅈㅓㅇㅈㅓㅁ -10025
▁ㅇㅑㄱㅊㅔ -10026
ㄱㅣㅇㅔ -10027
▁ㅅㅏㅌㅏㅇ -10028
▁ㅁㅕㅇㅈㅏㅇ -10029
ㅗㄹㄹㅗ -10030
▁ㅍㅏㄱㅗ -10031
▁ㅃㅓㄴㅎㅏ -10032
▁ㅇㅛㄱㅕㄱ -10033
▁ㅊㅜㄹㄹㅜ -10034
ㅂㅡㄹㅏ -10035
▁ㅁㅣㄴㅔ -10036
▁ㅋㅏㅌㅔ -10037
▁ㅇㅓㄱㅈㅔ -10038
▁ㄱㅓㄹㅇㅓㄱㅏ -10039
▁ㅌㅏㄹㅊㅟ -10040
▁ㄹㅔㅅㅣㅍㅣ -10041
▁ㄷㅣㅅㅡㅍㅡㄹㄹㅔㅇㅣ -10042
▁ㅋㅏㅈㅔ -10043
ㅅㅗㄱㄱㅣ -10044
▁ㅇㅕㅈㅜㅇㅣㄴ -10045
▁ㄱㅣㅊㅏ -10046
▁ㅁㅗㅇㅡㅁ -10047
▁ㄴㅘ -10048
▁ㅋㅜㄹㅡ -10049
▁ㅅㅜㅊㅓㄴ -10050
▁ㄴㅡㅍ -10051
▁ㄱㅡㅁㅇㅛㅇㅣㄹ -10052
▁ㄹㅣㅂㅗㄹ -10053
ㄹㅣㄱㅡ -10054
▁ㅂㅏㅇㅣㄴ -10055
▁ㅂㅜㄹㅊㅏㅁ -10056
▁ㄴㅜㄴㅇㅏㅍ -10057
▁ㅅㅏㅁㅋㅣ -10058
▁ㄷㅓㄴㅈㅣㄹㅏ -10059
▁ㅇㅣㄹㄱㅏ -10060
ㅎㅔㅇㅣ -10061
▁ㅍㅐㅇㅘㅇ -10062
▁ㅁㅏㅁㅣ -10063
▁ㅈㅓㄱㅣ -10064
▁ㅂㅏㅇㅣㅇㅔㄹㅡㄴ -10065
▁ㅇㅓㄵ -10066
▁ㅁㅗㅇㅔ -10067
▁ㅅㅣㄹㅈㅓㄱ -10068
▁ㅁㅜㄴㅡㅇ -10069
▁Is -10070
ㅍㅗㄹㄹㅔ -10071
▁ㅎㅏㅁㅅㅜ -10072
ㅅㅜㄹㅣ -10073
▁Do -10074
▁ㄷㅏㄴㅈㅏ -10075
▁ㅍㅕㄴㅇㅢㅈㅓㅁ -10076
▁ㄷㅗㅅㅣㅁ -10077
▁ㅂㅐㅌㅡ -10078
▁ㅂㅗㅇㅜ -10079
▁ㄷㅡㄹㄹㅡ -10080
▁TOP -10081
▁ㄱㅛㄹㅣ -10082
▁ㅇㅏㅅㅡㅌㅡ -10083
▁BO -10084
▁ㄹㅔㅇㅣㅈㅣ -10085
▁ㅈㅣㄴㄷㅗㅇ -10086
ild -10087
▁ㅅㅣㄴㅎㅏㄴ -10088
▁ㅅㅡㄹㅗ -10089
▁ㄷㅐㅍㅣ -10090
ㅅㅔㅈㅣ -10091
▁ㅋㅡㄹㅗㅇㅜ -10092
▁ㅂㅏㄱㅈㅓㅇㅎㅢ -10093
▁ㅇㅛㄱㅁㅏㅇ -10094
▁ㅁㅗㄱㅇㅛㄱ -10095
▁ㅋㅗㄹㅔ -10096
▁ㄱㅘㅅㅣ -10097
▁ㅇㅐㅇㅛㅇ -10098
▁ㅋㅏㅇㅣㅈㅓ -10099
▁ㅇㅣㄹㄹㅓㅅㅡㅌㅡㄹㅔㅇㅣㅌㅓ -10100
25 -10101
▁ㄱㅣㅁㅊㅣ -10102
▁ㅅㅗㅁㅏ -10103
▁ㅅㅡㅌㅣㅇ -10104
▁ㅌㅐㅍㅜㅇ -10105
▁ㅁㅐㄴㅊㅔㅅㅡㅌㅓ -10106
ㅌㅏㅇㅜㄴ -10107
▁AFC -10108
▁ㄱㅏㅇㅘㅇ -10109
▁ㄱㅡㄹㅓㄷㅏ -10110
▁ㅎㅏㄴㅎㅏ -10111
▁4000 -10112
▁ㅅㅣㅂㅓㅁ -10113
▁ㅇㅗㄱㅗㅇ -10114
▁ㄴㅜㄴㄷㅗㅇㅈㅏ -10115
▁ㅍㅕㅇㅅㅏㅇㅅㅣ -10116
▁ㅅㅏㅂㅈㅣㄹ -10117
▁ㅇㅓㄱㅡ -10118
ㅅㅐㅇㅎㅘㄹ -10119
▁ㄱㅗㄴㅊㅜㅇ -10120
▁ㄱㅜㄻ -10121
▁ㅌㅗㄹㅏ -10122
ㅣㅇㅓㅄ -10123
▁ㅈㅘㅇㅣㄱ -10124
inal -10125
▁ㅇㅏㅇㅠ -10126
▁BGA -10127
ㅌㅏㄹㅜ -10128
ㅠㄹㄹㅏ -10129
▁ㄴㅔㅋㅡㄹㅗ -10130
▁ㅁㅜㄹㄹㅕㅂㅏㄷ -10131
▁ㅍㅡㄹㅔㅅㅡ -10132
▁ㄴㅏㅊ -10133
▁ㄱㅗㅇㅅㅣㄴ -10134
ㅂㅏㄹㅏㅁ -10135
▁ㅋㅡㄹㄹㅏ -10136
▁ㄱㅣㅁㅇㅣㄹ -10137
▁ㄴㅏㅁㅎㅏㄱㅅㅐㅇ -10138
▁ㅅㅜㄹㅣㅂ -10139
ㄷㅐㅁㅜㄴ -10140
▁ㅅㅗㅈㅣㅂ -10141
▁ㅇㅣㅇㅓㅅㅓ -10142
▁ㅍㅕㅇㄹㅗㄴㄱㅏ -10143
▁ㅇㅞㅍㅗㄴ -10144
▁ㄷㅡㄹㅜㅇㅣㄷㅡ -10145
▁ㅁㅐㅅㅈㅣㅂ -10146
▁ㅇㅕㄴㅇㅣ -10147
▁SA -10148
▁ㄷㅏㄴㄹㅕㄴ -10149
ㄷㅗㅈㅓㄴ -10150
▁ME -10151
▁ㄱㅏㅇㅣㅇㅏ -10152
▁ㄴㅐㅇㅈㅏㅇ -10153
▁ㅅㅡㅍㅏㅋㅡ -10154
ㄱㅓㅅ -10155
▁ㅇㅏㅈㅜㅁ -10156
▁ㅎㅔㅇㅣㄹ -10157
▁Gaming -10158
▁ㅅㅏㅊㅓㄴ -10159
▁ㅈㅣㅇㄱㅖ -10160
▁ㅋㅣㄴㅗ -10161
▁ㄱㅓㅁㅌㅗ -10162
▁CR -10163
▁320 -10164
▁1973 -10165
▁ㄱㅏㅇㄷㅗㅇ -10166
▁ㅅㅓㄴㅎㅚ -10167
ㅔㅁ -10168
▁ㄷㅏㄹㅋㅗㅁ -10169
▁ㅇㅏㅅㅟㅇㅜㅁ -10170
▁ㅁㅕㅇㅅㅣ -10171
▁ㅈㅏㅇㅂㅗㄴ -10172
ings -10173
▁GSL -10174
▁ㄷㅐㅁㅕㄴ -10175
▁315 -10176
▁ㅁㅗㅇㅢ -10177
▁ㅊㅗㄱㅘ -10178
ㅈㅓㄴㅅㅏ -10179
▁ㅅㅗㅇㅣ -10180
▁ㅋㅐㅂㅅㅠㄹ -10181
▁ㄹㅗㅍㅡ -10182
▁ㅅㅓㅇㅂㅜㄴ -10183
▁ㅇㅣㅇㅛㅇㅈㅏ -10184
▁ㅌㅗㅇㅣ -10185
▁ㅈㅠㄴ -10186
ㅠㄹㄹㅓㅁ -10187
▁ㅅㅜㄱㄹㅕㄴㄷㅗ -10188
▁ㅋㅓㄹㄹㅔㄱㅅㅕㄴ -10189
▁ㄷㅏㅇㅊㅗ -10190
▁Gl -10191
▁ㅈㅏㅇㅅㅣㄴㄱㅜ -10192
DX -10193
ㄹㅣㅇㅓㄴ -10194
▁ㅇㅏㄹㅡㅂㅏㅇㅣㅌㅡ -10195
▁ㅁㅏㅁㅏ -10196
▁ㅈㅏㅅㅏ -10197
▁ㅁㅜㅎㅏㄴㄷㅗㅈㅓㄴ -10198
TA -10199
▁ㅈㅏㄹㅕㄱ -10200
▁ㅈㅜㅇㄱㅣ -10201
▁ㄴㄱㅏㅇㅛ -10202
▁ㅅㅣㄹㅕㄴ -10203
▁ㅇㅏㄹㅐㅅ -10204
▁ㅁㅣㄴㅈㅜㅇ -10205
▁ㅌㅜㄱㅗ -10206
▁ㅎㅕㅂㅈㅗ -10207
▁ㄴㅣㅋㅗㄴ -10208
▁Gu -10209
▁ㅁㅜㅅㅓㅇ -10210
ㅌㅡㄹㅣㄱ -10211
▁ㅇㅟㅉㅗㄱ -10212
▁ㅉㅏㅁ -10213
ㄷㅏㅇㄱㅣ -10214
▁ㅈㅜㅇㄱㅜㄱㅇㅣㄴ -10215
▁ㅇㅡㄹㅕㅁㅕㄴ -10216
▁ㅇㅠㄷㅗㅇ -10217
▁ㅅㅡㄹㄹㅏㅇㅣㄷㅡ -10218
▁ㄱㅏㅇㅇㅏㅈㅣ -10219
▁ㅋㅓㄴㄷㅣㅅㅕㄴ -10220
▁ㅌㅡㄹㅗㄴ -10221
reak -10222
▁ㄹㅏㅇㅣㄷㅡ -10223
▁ㅇㅏㅁㅏㄴ -10224
▁ㅈㅣㅂㅅㅏ -10225
▁ㅁㅏㅊㅏㄹ -10226
ㅂㅏㄱㅅㅡ -10227
▁ㅇㅣㄹㅁㅕㅇ -10228
▁ㅇㅣㅁㅕㅇㅂㅏㄱ -10229
▁ㄱㅗㅂㅏㄹ -10230
▁ㄷㅐㅂㅓㅂ -10231
▁ㄱㅏㅎㅐ -10232
▁ㅇㅗㄹㅗㅊㅣ -10233
▁ㅍㅗㅋㅡ -10234
▁ㅈㅣㄴㄷㅏㄴ -10235
ㄷㅐㅅㅏ -10236
▁ㅋㅗㄲㅣㄹㅣ -10237
ㅌㅏㄴㅏㅂㅔ -10238
▁ㅇㅘㅌㅏㄴㅏㅂㅔ -10239
▁ㅇㅣㄴㄷㅗㄴ -10240
ㅎㅣㅌㅗ -10241
▁ㄱㅜㅇㅅㅜ -10242
ron -10243
▁ㅂㅡㄹㄹㅔㅇㅣ -10244
▁ㅈㅓㅎㅏㅇㄹㅕㄱ -10245
▁ㅈㅏㅇㅂㅗㄴㅇㅣㄴ -10246
▁ㅅㅣㅅㅣ -10247
▁ㅁㅏㅅㅂㅗ -10248
ㅁㅏㄹㅜ -10249
▁ㅈㅏㄴㄹㅠ -10250
▁ㄴㄷㅡㅅ -10251
▁ㅅㅗㄲㅜㅂ -10252
▁ㅎㅏㄷㅗ -10253
▁ㅍㅏㅇㅜㄴㄷㅡ -10254
▁ㅁㅜㄴㅢ -10255
▁ㅈㅜㅅㅜㄹㅅㅏ -10256
▁ㄱㅡㅁㄱㅏㅇ -10257
▁ㅋㅐㄹㄹㅣ -10258
▁so -10259
▁ㅌㅗㅁㅗㅇ -10260
ㅎㅏㅇㅣ -10261
▁ㄱㅡㅂㅅㅣㄱ -10262
▁ㅍㅛㅅㅣㄱ -10263
▁ㄴㅏㅍㅗㄹㄹㅔ -10264
▁ㅈㅏㅅㅏㄴ -10265
▁ㅃㅑㅁ -10266
▁ㅇㅚㅇㅑㅅㅜ -10267
▁ㅇㅏㅇㅣㄷㅣ -10268
▁ㄱㅡㅂㄱㅕㄱㅎㅣ -10269
▁ㅇㅘㅇㅣㅂㅓㄴㅅㅡ -10270
▁ㅎㅏㄱㅇㅟ -10271
▁ㅅㅏㅇㅅㅣ -10272
▁168 -10273
▁ㅋㅣㅌㅏ -10274
ㅌㅜㄹ -10275
▁like -10276
▁ㅇㅣㅁㅏㄴ -10277
▁ㅅㅓㅂㅏㅇㅣㅂㅓㄹ -10278
▁ㄴㅔㅇㅣㅅㅕㄴ -10279
ㄸㅓㄱ -10280
ㅈㅜㅇㄱㅏㄴ -10281
▁ㄱㅗㅇㅣㄴ -10282
▁ㅍㅏㄴㅅㅏ -10283
▁ㅈㅜㅅㅜㄹ -10284
▁ㅎㅗㄴㅎㅕㄹ -10285
▁ㄱㅕㅁㅎㅏ -10286
▁ㅅㅜㅅㅣㄴ -10287
▁ㅂㅔㄹㅡㄹㄹㅣㄴ -10288
▁ㄱㅜㄱㄷㅗ -10289
ㅋㅡㅇ -10290
▁ㅎㅏㄷㅡㅇ -10291
▁ㅉㅣㄹㄹㅣ -10292
▁ㅍㅕㅇㅌㅐㄱ -10293
▁ㅂㅏㅇㅊㅣㅁ -10294
▁203 -10295
▁ㄴㅏㅍㅗㄹㄹㅔㅇㅗㅇ -10296
ㅏㄱㅏㅇㅘ -10297
▁ㅇㅣㅇㅛㅇㄱㅐㄱ -10298
▁will -10299
▁ㄴㅐㅇㅚ -10300
▁ㅎㅠㄷㅐㅍㅗㄴ -10301
▁ㄱㅗㅇㅎㅓㄴ -10302
▁ㅇㅠㅋㅏㄹㅣ -10303
▁ㅋㅡㄹㅏㅇㅜㄴ -10304
▁ㅅㅣㄴㅎㅏ -10305
14 -10306
▁NM -10307
▁ㅇㅠㄴㄹㅣ -10308
▁ㄹㅏㅇㅣㅈㅣㅇ -10309
▁ㅂㅜㅅㅏㄴㄱㅘㅇㅇㅕㄱㅅㅣ -10310
ㅅㅏㅇㅘ -10311
▁ㅅㅣㄱㅡ -10312
▁ㅊㅗㅊㅓㅇ -10313
▁ㅇㅏㄱㅎㅐㅇ -10314
▁ㄱㅐㅁㅕㅇ -10315
▁ㄱㅏㄱㅜ -10316
ㄸㅜ -10317
▁ㅇㅣㅂㅅㅏ -10318
▁ㄴㅐㄱㅏㄱ -10319
▁ㅂㅗㅈㅣㄱ -10320
PA -10321
ㅡㄴㅏㄴ -10322
▁ㅂㅔㄹㄱㅣㅇㅔ -10323
▁ㅇㅘㅋㅏ -10324
▁ㅅㅓㅇㄷㅐ -10325
▁ㅈㅐㅇㅇㅣ -10326
▁ㅅㅡㅇㄱㅡㅂ -10327
▁ㅁㅗㄴㅏ -10328
ㅈㅓㄹㅐ -10329
▁ㅁㅗㅁㅁㅐ -10330
▁ㅇㅠㅁㅏ -10331
ㅌㅗㄹㅣㅇㅏ -10332
▁ㅍㅜㄴ -10333
▁ㅎㅠㅇㅇㅏㄱ -10334
▁ㅇㅏㅅㅜㄹ -10335
▁ㅈㅗㄹㅣㅂ -10336
▁218 -10337
17 -10338
▁ㄱㅣㅁㅂㅕㅇ -10339
▁ㅅㅡㄱㅣ -10340
▁ㅇㅣㄹㅐㅈㅓㄹㅐ -10341
ㄹㄹㅓㄴ -10342
ㅅㅓㅇㅇㅣ -10343
▁ㅍㅗㄱㅅㅡ -10344
▁ㅍㅔㄱ -10345
▁Min -10346
▁ㄸㅓㄹㄱㅜ -10347
▁ㄱㅠㄴㅇㅕㄹ -10348
▁ㄱㅏㄹㄱㅣ -10349
▁ㅇㅗㅍㅔㄹㅏ -10350
ㄱㅜㅈㅏㅇ -10351
▁ㅇㅝㄴㅎㅏㄴ -10352
▁ㅈㅠㅇㅓㄹ -10353
▁ㄷㅗㄱㅂㅗ -10354
ㅜㄹㅕㅅ -10355
▁ㄸㅜㄹㅕㅅ -10356
▁ㅋㅏㅇㅣㄴ -10357
ㅗㅇㅏ -10358
▁ㅅㅣㄴㅔㅁㅏ -10359
▁ㅇㅏㅌㅔㄴㅏ -10360
ㅛㅇㅜ -10361
▁ㅅㅣㅇㅓ -10362
▁ㄷㅏㄴㅇㅕㄱ -10363
▁ㅈㅓㄱㅕㄱㅅㅜ -10364
▁ㄷㅏㄴㅊㅗㅇ -10365
▁ㄷㅗㄹㅡ -10366
▁ㅇㅜㄱㅣ -10367
▁ㄹㅓㄴㅊㅓ -10368
▁ㅅㅏㅅㅡㄹ -10369
▁ㅊㅜㅇㅊㅓㅇㄴㅏㅁㄷㅗ -10370
▁ㄱㅓㅅㅔ -10371
▁ㄹㅔㅇㅣㅂㅡㄴ -10372
▁ㅂㅐㄹㅣ -10373
ㅕㄴㅐ -10374
▁ㅇㅟㅅㅣ -10375
▁ㅎㅘㅇㅎㅗㄴ -10376
▁ㅎㅠㄱㅔ -10377
▁ㅁㅜㄷㅗ -10378
▁ㄲㅗㅇ -10379
▁ㅂㅐㅇㅠㄹ -10380
▁ㅇㅓㅇㅝㄴ -10381
▁ㅌㅔㅋㅡㄴㅣㄱ -10382
GA -10383
▁ㅅㅓㅂㅏㅇ -10384
▁ㅌㅏㄴㅇㅏㅂ -10385
ㄹㅕㄱㅗ -10386
▁ㅈㅓㅅㅡㅇ -10387
▁ㄸㅓㄷㅗㄹ -10388
▁one -10389
▁10000 -10390
▁ㅋㅡㄹㅗㅁ -10391
▁ㄴㅣㅌㅡ -10392
▁ㅈㅔㅇㅣㄴ -10393
▁ㅊㅏㅈㅏㅇ -10394
▁ㄷㅜㄹㅕㅇㅝㅎㅏ -10395
▁ㄷㅐㅎㅏㄱㅅㅐㅇ -10396
▁ㅅㅐㅁㅍ -10397
ㅈㅜㅇㅢㅈㅏ -10398
▁ㅍㅣㄹㅅㅏ -10399
ㅂㅓㄱ -10400
▁ㅎㅗㅋㅡ -10401
▁ㄱㅛㅇㅕㄱ -10402
▁ㅅㅡㅊㅣ -10403
▁ㅅㅓㄹㅁㅏ -10404
ECT -10405
▁ㅈㅓㄱㅇㅣ -10406
▁ㅈㅓㄹㄷㅏㄴ -10407
▁ㅂㅣㅅㄴㅏㄱㅏ -10408
▁ㅈㅣㅈㅣㅇㅠㄹ -10409
▁ㅂㅓㅂㅁㅜ -10410
▁ㅅㅜㅈㅜㅇ -10411
▁ㅂㅜㄷㅗㅇㅅㅏㄴ -10412
▁ㄹㅣㅁㅣㄱㅅㅡ -10413
▁ㄱㅜㄱㅌㅗ -10414
▁ㅊㅚㅈㅓㅇ -10415
▁ㄱㅜㄱㅂㅏㅇㅂㅜ -10416
▁ㅊㅜㅇㄱㅕㄱㅍㅏ -10417
▁ㄹㅣㅊㅡ -10418
▁ㅁㅏㅅㅜ -10419
▁ㅇㅠㅁㅔ -10420
▁ㄷㅏㄴㅅㅓ -10421
▁ㅁㅕㄴㅈㅔ -10422
▁ㅎㅏㅊ -10423
▁ㅅㅜㅅㅓㅇ -10424
▁ㅇㅣㅇㅗㄹㅣ -10425
▁ㅂㅓㄱㅓ -10426
▁Ro -10427
▁ㄹㅣㅍㅡㅌㅡ -10428
▁ㅋㅏㄴㅔ -10429
▁iOS -10430
▁ㅈㅜㅅㅏ -10431
▁ㅌㅏㄴㅁㅏㄱ -10432
ㅂㅗㄱㅣ -10433
▁ㄴㅏㄴㄹㅣ -10434
▁ㅇㅏㅅㅡㄹ -10435
▁ㅎㅏㅊㅡㄴㅔ -10436
▁ㅂㅗㄹㅗ -10437
▁ㅈㅏㄱㅇㅟ -10438
▁ㅈㅣㅌㅓ -10439
▁ㄱㅣㅁㅅㅓㅇㄱㅡㄴ -10440
▁ㅂㅔㄹㅡㄴ -10441
▁RO -10442
▁ㅅㅏㄹㅇㅏㅇㅗ -10443
ICE -10444
▁ㄱㅗㄱㅏ -10445
▁ㅇㅣㄹㅣㅈㅓㄹㅣ -10446
▁ㅂㅗㄲ -10447
▁ㅇㅣㄴㅁㅕㅇ -10448
▁na -10449
▁ㄸㅐㄹㅗ -10450
▁ㄱㅕㄴㅎㅐ -10451
▁ㄱㅓㄹㅇㅡㅁ -10452
▁ㅇㅗㅇㅕㄱ -10453
▁ㅂㅣㄷㅏㄴ -10454
ㅔㄱㅌㅓ -10455
▁ㅅㅣㄱㅏㄴㅍㅛ -10456
oul -10457
▁ㄴㅗㅂㅜ -10458
▁ㅈㅏㄹㅜ -10459
▁ㅇㅘㅇㅈㅗㄱ -10460
▁ALL -10461
▁ㄷㅓㅁㅣ -10462
▁Play -10463
▁ㅁㅜㅈㅏ -10464
▁ㅈㅓㅇㅈㅓㄴ -10465
▁ㅇㅔㅁㅂㅡㄹㄹ -10466
▁ㅇㅗㄷㅏ -10467
▁ㅅㅡㅂㅎㅏ -10468
MAX -10469
ould -10470
▁ㅋㅜㅁㅏ -10471
▁1974 -10472
AND -10473
▁ㄲㅚ -10474
▁ㅇㅣㅂㅇㅝㄴ -10475
▁ㅂㅓㅂㅡㄹ -10476
▁ㅍㅕㅇㅍㅏㄴ -10477
▁ㄴㄷㅏㄴ -10478
▁ㅅㅓㅇㅅㅏ -10479
▁ㅋㅜㅅㅡ -10480
▁KB -10481
▁Red -10482
▁ㅈㅓㅁㅎㅏ -10483
▁ㄷㅡㄱㅍㅛㅇㅠㄹ -10484
▁ㄱㅏㄹㅇㅏ -10485
▁Ser -10486
▁ㄸㅏㅁ -10487
▁ㄱㅡㄱㅅㅣㅁ -10488
▁ㅂㅗㅍㅕㄴ -10489
▁ㄱㅖㄹㅑㄱ -10490
▁ㅎㅐㅇㅕㄱ -10491
▁ㄱㅏㅎㅐㅈㅏ -10492
▁ㅈㅜㅇㅎㅘㅁㅣㄴㄱㅜㄱ -10493
▁ㅈㅜㅎㅘㅇ -10494
▁ㅍㅓㅇㅋㅡ -10495
▁ㅎㅔㄹㅏ -10496
▁Type -10497
▁ㅇㅘㄴㅂㅕㄱㅎㅣ -10498
ㅊㅣㄴㄱㅜ -10499
▁ㅈㅣㅁㅕㄴ -10500
▁ㄷㅏㄹㅇㅣㄴ -10501
▁ㄱㅗㅇㄱㅕㄱㄱㅣ -10502
▁ㅅㅑㅇㅣㄴ -10503
ㅡㄱㅏㄴ -10504
ody -10505
▁ㄱㅕㄱㄹㅕㄹ -10506
▁NT -10507
▁ㅎㅏㅅㅏ -10508
▁UC -10509
▁ㅊㅜㄹㅅㅓㄱ -10510
ㄷㅜㅁㅓㄹㅣ -10511
▁ㅈㅓㄴㅂㅓㅂ -10512
ㅌㅔㄱ -10513
▁ㅅㅡㅌㅏㅌㅡ -10514
▁ㄱㅏㄴㅍㅏ -10515
▁ㅁㅏㄴㅈㅜ -10516
▁ㅅㅏㅅ -10517
▁ㅇㅔㄹㅗ -10518
▁ㅅㅏㅇㅣㅌㅗ -10519
▁ㅎㅢㅅㅐㅇㅈㅏ -10520
▁ㅇㅏㄹㅣㅅㅡ -10521
▁ㅇㅕㄴㅁㅏㄱ -10522
▁ㅁㅏㄹㄹㅔㅇㅣ -10523
▁ㅇㅜㄷㅜㅁㅓㄹㅣ -10524
▁ㅂㅏㄴㅈㅏㅇ -10525
▁177 -10526
▁ㄷㅜㅇㅈㅣ -10527
▁se -10528
ㅈㅣㄴㅗ -10529
▁ㅇㅐㄱㅊㅔ -10530
▁Don -10531
ㄷㅏㄷㅡ -10532
ions -10533
▁ㅂㅏㄹㅌㅗㅂ -10534
▁ㅌㅏㄹㅎㅘㄴ -10535
▁ㄱㅖㅈㅓㄹ -10536
▁ㄱㅗㄴㅏㄴ -10537
ㅔㄹㅜ -10538
▁ㅎㅔㄷㅡㅅㅑㅅ -10539
▁ㅅㅜㄴㄱㅏㄴㅇㅣㄷㅗㅇ -10540
▁ㅋㅓㅍㅡㄹㄹㅣㅇ -10541
▁ㄱㅣㅅㅌㅓㄹ -10542
▁ㅇㅣㅈㅡㅁㅣ -10543
▁ㅇㅣㄷㅡㅁ -10544
▁ㅈㅔㅇㅢ -10545
▁ㄱㅣㅁㅇㅠㄴ -10546
▁Car -10547
▁ㅈㅜㅇㅣㅂ -10548
▁ㅎㅐㅂㅕㄴ -10549
▁ㄹㅣㅂㅗㄹㅂㅓ -10550
▁ㄱㅏㅁㅅㅓㅇ -10551
▁ㅌㅗㅂㅣ -10552
STER -10553
ㅜㅇㅔ -10554
▁ㅊㅜㅇㄱㅗ -10555
▁ㄱㅏㅇㅅㅡㅂ -10556
▁ㄱㅏㄹㄱㅜ -10557
▁ㅎㅏㄴㅇㅑㅇ -10558
▁ㅅㅓㅇㅈㅣ -10559
▁ㅍㅡㄹㄹㅔㅇㅣㅂㅓ -10560
▁ㄴㅘㄷㅜ -10561
▁ㅁㅗㅎㅏㅁ -10562
▁ㅅㅗㄴㅈㅏㅂㅇㅣ -10563
▁ㅇㅢㅇㅢ -10564
▁ㅅㅓㅁㄱㅣ -10565
▁ㅈㅣㄴㅎㅕㅇ -10566
ㅇㅏㅇㅗㄹㅡ -10567
▁ㅁㅏㄺ -10568
▁ㅉㅏㄱㅅㅏㄹㅏㅇ -10569
▁ㄹㅐㄴㅅㅓ -10570
▁ㅈㅓㅇㅅㅏ -10571
▁ㅎㅗㅁㄱㅕㅇㄱㅣ -10572
▁ㅌㅐㅅㅐㅇ -10573
▁ㅂㅏㅇㅇㅜㄹ -10574
▁ㅈㅓㄴㄹㅏㄴㅏㅁㄷㅗ -10575
▁ㅁㅜㅂㅣ -10576
▁ㅅㅓㄴㄹㅗ -10577
▁ㅅㅗㅇㅜ -10578
▁us -10579
▁138 -10580
▁ㄱㅘㅇㅓㄴ -10581
ㅌㅔㄱㅅㅡ -10582
▁ㅅㅡㄹㄹㅏㅇㅣㅁ -10583
ㄷㅏㄺ -10584
ㄹㅠㅁ -10585
▁1975 -10586
ㅐㄴㅏ -10587
▁ㅁㅐㅇㄷㅗㄱ -10588
▁ㅇㅏㄴㅈㅔㄹ -10589
▁ㅇㅣㅇㅕㅇㅎㅗ -10590
▁ㄱㅡㅁㄱㅗ -10591
▁ㅇㅣㅎㅐㅇ -10592
▁ㄷㅡㄹㅏㄱ -10593
▁ㄷㅜㄷㅡㄹㅓㅈㅣ -10594
▁ㅅㅣㄴㅅㅏㅇ -10595
▁ㅅㅏㅇㅑㅋㅏ -10596
▁ㅅㅓㅁㅕㅇ -10597
▁ㅈㅜㄱㅛ -10598
▁ㅂㅗㄹㅜ -10599
▁ㅂㅕㅇㄱㅘ -10600
▁ㅇㅣㅂㅈㅏ -10601
▁ㄱㅗㅇㅁㅕㅇ -10602
ㅈㅣㅇㅏ -10603
▁ㅊㅡㄱㄱㅡㄴ -10604
▁ㅇㅠㅈㅣㅂㅣ -10605
▁ㄹㅗㅋㅡ -10606
▁ㅈㅐㅂㅐ -10607
▁ㄷㅗㅇㅅㅓㅇㅇㅐ -10608
▁ㅇㅓㄱㅣ -10609
▁ㅊㅓㄴㅈㅣ -10610
▁Es -10611
▁ㅊㅏㅇㅣㄹㄷㅡ -10612
ㄴㅏㄱ -10613
▁ㅅㅏㅇㅇㅢ -10614
ㅊㅓㄴㄱㅜㄴ -10615
ven -10616
16 -10617
▁ㅅㅡㅋㅏㄹ -10618
▁ㅇㅏㅇㅣㅈㅡ -10619
▁ㅍㅣㄹㄹㅣㅂ -10620
▁ㄴㅓㅋㅡㄹ -10621
▁ㅊㅐㅁㅅㅡ -10622
alk -10623
▁ㅂㅐㅅㅜ -10624
▁ㅇㅝㄷㅡ -10625
ㅐㅁㅣ -10626
▁ㅅㅡㅁㅗ -10627
▁ㅈㅏㅋㅔㅅ -10628
▁ㄹㅣㅊㅓㄷㅡ -10629
▁ㅅㅏㄴㅌㅏㄴㅊㅗㅇ -10630
▁ㅁㅔㅌㅔ -10631
ㄹㅔㅂㅡㄴ -10632
▁ㅅㅓㄱㅇㅠ -10633
▁ㄷㅜㄹㅕㅇㅜㅁ -10634
▁ㄴㅐㅇㅈㅏㅇㄱㅗ -10635
▁ㅂㅜㅈㅔ -10636
▁ㅊㅏㄴㅇㅑㅇ -10637
▁ㅁㅏㄹㅡㅋㅗ -10638
▁ㅅㅣㄲㅡㄹㅓㅂ -10639
▁ㅇㅘㄴㅅㅓㅇㄷㅗ -10640
ㅇㅟㄷㅐ -10641
▁ㅇㅣㄴㄷㅗㄴㅔㅅㅣㅇㅏ -10642
▁ㅅㅗㄴㅁㅗㄱ -10643
ㅗㄴㅗ -10644
▁ㄹㅓㄴㅓ -10645
▁ㅂㅏㅇㅣㅋㅡ -10646
▁ㅌㅣㅌㅏㄴ -10647
▁ㅇㅏㅅㅜㄹㅏ -10648
▁ㅈㅗㄹㅇㅓㅂㅅㅣㄱ -10649
▁ㅅㅐㅇㄱㅏㄱㄴㅏ -10650
▁ㄷㅗㅇㄱㅜ -10651
▁ㅌㅔㄴㅣㅅㅡ -10652
▁ㅍㅡㄹㅗㅅㅡㅌㅡ -10653
▁ㅅㅏㅇㅇㅓ -10654
▁ㅇㅣㅅㅏㅈㅏㅇ -10655
▁ㅋㅜㄱ -10656
▁ㄱㅏㅎㅣ -10657
▁ㅂㅐㄱㅁㅏㄴ -10658
▁ㅇㅓㄹㄹㅏㅇ -10659
▁ㅇㅓㄹㄹㅏㅇㅣㅇㅓㄴㅅㅡ -10660
ㅂㅗㅇㅜ -10661
▁Time -10662
▁ㅇㅘㅅ -10663
▁ㅈㅜㅇㄷㅗ -10664
▁ㅂㅏㄹㄹㅔ -10665
▁''' -10666
af -10667
▁ㄱㅏㄹㅏ -10668
▁ㄴㅗㅂㅜㄴ -10669
▁ㅂㅗㄴㅈㅣㄹ -10670
▁ㅇㅣㄴㅕㅁ -10671
ㅅㅏㅅㅡ -10672
▁ㅁㅏㅅㅡㅋㅗㅌㅡ -10673
▁ㅋㅗㄴㅅㅡㅌㅏㄴ -10674
▁ㅇㅝㄹㄱㅏㄴ -10675
▁ㄹㅔㅇㅣㄴㅂㅗㅇㅜ -10676
▁162 -10677
▁ㅎㅏㅊㅡ -10678
▁ㅁㅗㄹㄹㅕㅇㅗ -10679
▁ㅇㅜㅁㅣ -10680
▁EU -10681
▁ㅌㅏㅅㅡ -10682
ㅅㅗㅊㅗㅇ -10683
▁ㅊㅣㄱㅗ -10684
▁ㅇㅝㄴㅎㅘ -10685
▁have -10686
▁126 -10687
▁ㄱㅡㅅ -10688
▁ㅅㅡㅋㅗㄹ -10689
te -10690
ㅅㅡㅌㅣㅅㅡ -10691
▁ㅅㅜㄱㅏㅁ -10692
▁ㅂㅜㄴㅎㅏㄹ -10693
ㅌㅓㄱ -10694
▁ㅅㅣㄱㅅㅡ -10695
▁ㅎㅣㅇ -10696
▁ㄲㅡㄹㅇㅓㄴㅐ -10697
ㅗㅌㅡ -10698
▁ㅌㅡㅇㅣ -10699
ㅅㅣㄷㅏ -10700
▁ㅋㅡㄹㄹㅣ -10701
▁ㅊㅏㄹㅅㅡ -10702
▁ㅂㅏㄱㅁㅕㅇ -10703
▁ㅇㅔㄴㅈㅣㄴㅣㅇㅓ -10704
▁ㅇㅣㄷㅡㅁㅎㅐ -10705
▁ㅂㅣㅇㅇㅢ -10706
▁ㅇㅓㅇㄸㅜㅇ -10707
▁ㅅㅡㄹㄹㅓㄱㅡ -10708
▁ㅇㅢㅈㅓㅇㅂㅜ -10709
▁ㅇㅔㅂㅓ -10710
▁ㄹㄹㅐ -10711
ㅂㅐㅌ -10712
▁ㅎㅣㅋㅏㄹ -10713
▁ㅂㅜㄱㅏ -10714
▁ㅋㅏㅇㅗㄹㅜ -10715
▁ㅅㅡㅋㅗㅌㅡㄹㄹㅐㄴㄷㅡ -10716
▁ㄹㄲㅏㅇㅛ -10717
▁ㅍㅕㅇㄷㅡㅇ -10718
▁Sum -10719
▁WH -10720
▁ㅂㅗㄱㅗㅅㅓ -10721
ㅂㅅㅡ -10722
▁ㅍㅣㅇㄱㅖ -10723
ㅌㅡㄹㅓㄹ -10724
▁ㄱㅣㅁㅅㅓㄴ -10725
▁ㅎㅏㄴㄱㅏㅇ -10726
ㅌㅔㅇㅣㄴ -10727
ics -10728
ㅃㅏㄹㄹㅣ -10729
▁ㅅㅣㅁㅈㅓㅇ -10730
▁ㅇㅜㅈㅣ -10731
▁ㅈㅣㅇㅕㄱㄱㅜ -10732
▁ㄴㅗㅂㅜㄴㅏㄱㅏ -10733
▁ㅅㅣㄴㅅㅐㅇ -10734
▁ㅍㅗㄱㄹㅗ -10735
▁ㅅㅡㅁㅐㅅㅣ -10736
▁ㅊㅏㄹㅣㅁ -10737
▁ㅍㅗㅌㅓ -10738
▁ㅋㅡㄹㄹㅣㅅ -10739
ㅅㅡㄹㄹ -10740
▁ㅇㅠㅁㅓ -10741
▁ㅅㅡㄴㅗㅇㅜ -10742
▁ㅈㅔㅈㅗㅅㅏ -10743
▁ㄱㅐㄹ -10744
▁ㄱㅗㄹㅣㅂ -10745
▁ㄱㅣㄱㅘㄴㅍㅗ -10746
▁ㄱㅝㄴㅎㅏ -10747
▁ㄴㅗㄹㅡㅇㅞㅇㅣ -10748
▁ㅁㅏㄹㄱㅣ -10749
▁ㅇㅖㄹ -10750
▁ㅌㅔㄹㄹㅔㅍㅗㅌㅡ -10751
▁ㅋㅏㄹㅔㄴ -10752
▁ㅇㅔㄷㅡㅇㅝㄷㅡ -10753
▁ㅇㅡㅇㄱㅡㅂ -10754
▁ㅋㅡㄹㄹㅣㅅㅖ -10755
ㄱㅟㄴ -10756
▁ㅇㅕㅇㅎㅘㅈㅔ -10757
▁ㅊㅗㄷㅡㅇㅎㅏㄱㅅㅐㅇ -10758
▁ㄲㅗㄹㅉㅣ -10759
YP -10760
▁ㅈㅗㄷㅓㄴ -10761
▁ㄱㅘㄱㅕㄱ -10762
▁ㄱㅗㅈㅗㅇ -10763
ㄷㅐㄱㅛ -10764
▁ㅈㅜㅊㅏㅈㅏㅇ -10765
▁ㄷㅗㅇㅅㅏㅇ -10766
▁ㅅㅏㅎㅚㅈㅜㅇㅢ -10767
▁ㅌㅗㄱㅏ -10768
▁ㅇㅏㅋㅔ -10769
▁ㅁㅜㅅㅣㄱ -10770
▁ㅎㅜㅂㅏㄴㅈㅓㄴ -10771
▁ㄱㅗㅇㅉㅏ -10772
▁ㅅㅗㄹㅈㅣㄱㅎㅣ -10773
▁ㄴㅜㅅㅡ -10774
▁ㄴㅏㄹㅏㄱ -10775
▁ㅇㅛㅇㅇㅢ -10776
▁ㄷㅏㅇㅣㅇㅓ -10777
ㄱㅏㅇㅘ -10778
▁ㅇㅠㄹㅏ -10779
▁ㅁㅣㄴㅂㅕㅇ -10780
▁ㅎㅚㄱㅖ -10781
ㅂㅏㄹㅣ -10782
▁ㄱㅕㄹㄱㅘㅁㅜㄹ -10783
▁ㅇㅏㅋㅜ -10784
ㅈㅐㅇㅝㄴ -10785
▁ㅂㅕㅇㅎㅐㅇ -10786
▁ㅁㅏㅈㅁㅓㄱ -10787
ㅈㅐㄱㅣ -10788
▁ㅈㅏㅋㅣ -10789
ㅈㅓㅇㅜ -10790
ㅅㅣㅅㅡㅋㅗ -10791
▁ㅎㅣㅋㅏㄹㅜ -10792
▁ㅇㅔㅁㅣ -10793
▁ㅈㅣㄱㅇㅟ -10794
▁~" -10795
▁ㅍㅐㄱㅅㅕㄴ -10796
ㅡㄹㅣㄷㅡ -10797
▁ㄷㅡㄱㅍㅛㅅㅜ -10798
▁ㄹㅗㅂㅣ -10799
ACK -10800
▁BT -10801
▁know -10802
▁ㄴㅗㄹㅡ -10803
▁ㅁㅔㄴㅂㅜㅇ -10804
▁ㅉㅗㅊㄱㅣ -10805
▁out -10806
▁oh -10807
▁ㄱㅡㄹㅜ -10808
▁ㅈㅜㅇㅈㅐ -10809
▁ㅇㅗㅈㅡ -10810
▁ㄱㅗㅊㅜ -10811
▁ㄷㅏㅈㅣㅁㅏㄴ -10812
▁IIDX -10813
▁CB -10814
▁BA -10815
▁ㅍㅐㄴㅌㅣ -10816
▁ㄱㅏㄹㄹㅏㅈㅣ -10817
▁ㅈㅗㅎㅏㅇ -10818
▁ㅂㅡㄹㅔㅅㅡ -10819
▁ㅂㅗㄹㅡ -10820
▁ㅂㅏㅋㅜ -10821
▁ㅈㅓㅇㅇㅢㄷㅏㅇ -10822
▁ㄹㅗㅈㅔ -10823
▁ㅇㅕㄴㅅㅔㄷㅐ -10824
▁ㅂㅗㅂㅗㄱ -10825
▁ㄱㅑ -10826
▁ㅂㅏㅇㅂㅕㄱ -10827
▁ㅋㅏㅌㅏㄹ -10828
▁ㅇㅐㅅㅟ -10829
▁ㅅㅡㄹㅅㅡㄹ -10830
▁ㅈㅐㅈㅣㄹ -10831
▁ㅋㅜㄴㅣ -10832
ㅇㅡㄴㅇㅣ -10833
▁ㅇㅕㄴㅅㅗ -10834
▁ㅊㅕㄷㅏㅂㅗ -10835
ㅊㅓㄹㅓㅁ -10836
▁ㅅㅜㄱㅊㅓㅇ -10837
▁1976 -10838
▁ㅈㅜㅇㅠ -10839
ㄱㅗㅁ -10840
▁ㄱㅜㄴㄷㅔ -10841
▁ㅈㅔㅈㅏㄹㅣ -10842
tern -10843
▁ㄱㅏㅁㄱㅣ -10844
▁ㅎㅜㅁㅕㄴ -10845
ins -10846
▁Kore -10847
▁ㅂㅜㄴㅂㅐ -10848
▁ㅇㅔㅁㅔㄹ -10849
▁ㄱㅡㄱㅇㅏㄱ -10850
ㅅㅔㅂㅌㅡ -10851
ict -10852
▁ㄹㅓㅂ -10853
▁313 -10854
▁EV -10855
▁ㅅㅗㄲㅜㅂㅊㅣㄴㄱㅜ -10856
▁pr -10857
▁ㄹㅣㅅㅔㅅ -10858
▁ㅈㅣㅂㅐㅈㅏ -10859
▁ㅂㅏㄹㅈㅓㄴㅅㅗ -10860
ㅇㅏㄴㅓㅎ -10861
▁ㅁㅗㄹㅇㅏㄴㅓㅎ -10862
▁ㅅㅜㄹㅏ -10863
▁ㅋㅗㅈㅣ -10864
▁ㄴㅐㅂㅐㅌ -10865
▁ㅎㅏㄴㅈㅓㅇㅍㅏㄴ -10866
▁132 -10867
▁LTE -10868
▁ㄴㅐㅁㅕㄴ -10869
▁ㅍㅔㅇㅣㅋㅡ -10870
▁ㄱㅕㄹㅇㅢ -10871
▁ㄴㅏㄴㅁㅣㄴ -10872
▁ㅇㅝㄴㄷㅓ -10873
ㅗㅅㅗ -10874
ㄹㅕㄴㅗㅎ -10875
▁!!! -10876
▁ㄹㅏㅅ -10877
ㅘㅇㅇㅕㄱㅅㅣ -10878
ange -10879
▁ㅎㅐㄱㅗ -10880
▁ㅊㅏㄹㄴㅏ -10881
ㅂㅏㄹㅜ -10882
▁ㅌㅔㅇㅣㅍㅡ -10883
▁ㄱㅣㅁㅈㅜ -10884
▁ㅅㅣㄴㅎㅏㄱ -10885
ㅁㅗㅅㅡ -10886
▁ㅇㅑㄱㅊㅣㅇ -10887
ater -10888
▁ㅈㅔㅈㅜㄷㅗ -10889
ㅈㅓㄴㅅㅓㄹ -10890
▁ㅅㅏㅇㅂㅜ -10891
▁ㅍㅛㄱㅣㅂㅓㅂ -10892
▁ㅋㅣㅈㅡ -10893
▁ㅂㅣㄴㅇㅑㄱ -10894
▁ㄹㅗㄱㅡㅇㅣㄴ -10895
▁Sun -10896
▁DI -10897
▁ㄱㅓㄲㅜㄹ -10898
▁ㄱㅗㅇㄱㅛ -10899
▁ㅇㅣㅇㅣㄴ -10900
▁ㄷㅏㅈㅓㅅㅡ -10901
▁1972 -10902
▁ㅍㅗㄹㄹㅣ -10903
▁ㅈㅜㅇㅎㅜ -10904
▁ㅊㅐㅉㅣㄱ -10905
▁ㄱㅐㅍㅏㄴ -10906
▁ㅌㅜㅅㅏ -10907
▁ㅋㅏㅌㅔㄱㅗㄹㅣ -10908
▁ㅍㅔㅁㅣㄴㅣㅈㅡㅁ -10909
▁ㅁㅜㅅㅣㄴ -10910
▁ㅅㅜㅎㅘㄱ -10911
ㅅㅡㅌㅏㅇ -10912
▁ㅍㅣㄷㅡ -10913
▁ㅊㅔㅋㅗ -10914
▁ㅇㅏㄹㄹㅏ -10915
▁set -10916
▁ㅇㅠㅂㅣㅌㅡ -10917
ㅡㄹㅜ -10918
▁ㄷㅣㅂㅏ -10919
▁ㅎㅐㅈㅓㄴ -10920
▁ㅇㅑㅋㅜ -10921
▁ㅇㅣㄹㅅㅏㄴ -10922
▁ㅌㅡㄹㅐㄴㅅㅡㅍㅗ -10923
▁ㅂㅕㅇㅈㅗㅇ -10924
▁ㅍㅜㄱ -10925
▁ㅂㅏㄴㄱㅣ -10926
▁ㅈㅐㅂㅓㄹ -10927
▁ㅇㅕㄴㄱㅏㄴ -10928
▁ㅂㅏㅇㅣㅋㅣㅇ -10929
▁ㅅㅜㅇㅕㅇㅂㅗㄱ -10930
▁ㅁㅣㄹㅇㅓㅂㅜㅌ -10931
▁ㅅㅑㄴ -10932
▁ㅅㅓㅇㅅㅜㄱ -10933
▁ㅊㅡㄴㄷㅔㄹㅔ -10934
▁ㅅㅓㄴㅂㅗㅇ -10935
▁ㅈㅗㅇㅈㅓㄴ -10936
▁ㄴㅐㅃ -10937
▁ㅍㅛㅎㅏ -10938
▁ㅈㅓㅂㅈㅓㄴ -10939
▁158 -10940
▁ㄱㅏㅇㅌㅏㄹ -10941
▁ㅎㅏㅈㅣㅁㅔ -10942
▁ㅎㅘㄴㅎㅗ -10943
▁ㅇㅕㅈㅜㅇㅣㄴㄱㅗㅇ -10944
▁ㄷㅐㅁ -10945
▁ㅍㅡㄹㄹㅔ -10946
▁feat -10947
▁IP -10948
▁ㅁㅔㅅㅔㅈㅣ -10949
▁ㅋㅗㅅ -10950
▁ㄱㅜㄷㅗㄱㅈㅏ -10951
▁ㅋㅏㄱㅜ -10952
▁ㅇㅗㄷㅣㄴ -10953
▁ㅈㅣㄴㅉㅏㄹ -10954
▁ㅌㅏㄱㅇㅝㄹ -10955
19 -10956
▁ㄱㅜㅊㅓㅇ -10957
▁GD -10958
▁ㅈㅓㅇㅈㅜㄴ -10959
ㄷㅗㄹㅍㅡ -10960
▁ㅅㅏㄱㅏㄱ -10961
▁ㄱㅡㄹㅏㅇㅍㅡㄹㅣ -10962
ㅂㅜㅇㅣㄴ -10963
ㅅㅏㅇㄱㅏ -10964
ㅍㅔㅇㅣㅅㅡ -10965
▁TP -10966
▁MO -10967
▁ㅅㅏㅇㅜㅅㅡ -10968
▁ㅈㅏㅈㅏㄱ -10969
▁ㅅㅔㅈㅏ -10970
▁ㄱㅏㅅㅓㄹ -10971
▁1977 -10972
▁ㅈㅣㄴㅉㅏㄹㅗ -10973
▁ㅍㅡㄹㅗㄹㄹㅗㄱㅡ -10974
▁ㅎㅣㄴㅌㅡ -10975
▁ㅁㅣㅌㅡ -10976
▁ㅊㅗㅈㅓㅁ -10977
▁ㄷㅐㄷㅡㅇ -10978
▁ㅅㅡㅋㅔㅈㅜㄹ -10979
ㅇㅣㅇ -10980
▁ㄱㅛㅎㅜㄴ -10981
▁IV -10982
▁ㄹㅣㄹㄹㅣㅅㅡ -10983
ㅌㅜㄱㅣ -10984
▁ㅆㅗㄹ -10985
▁230 -10986
▁ㅇㅠㄴㅡㅇ -10987
▁ㄴㅐㅈㅓㅇ -10988
▁ㄹㅔㄱㅠㄹㄹㅓ -10989
▁ㅇㅡㅇㄷㅏㅂ -10990
▁ㅅㅜㅇㅕ -10991
▁ㅎㅓㅂ -10992
▁ㅍㅖㅅㅓㄴ -10993
▁ㄱㅘㄴㄹㅛ -10994
▁ㅅㅣㄴㄴㅕㅁ -10995
ㅌㅜㄱ -10996
▁ㅇㅑㅁㅏㅁㅗㅌㅗ -10997
▁ㅈㅣㄴㄹㅗ -10998
▁ㄱㅓㄲㅜㄹㅗ -10999
▁High -11000
▁ㅁㅜㄱㅜㅇ -11001
▁ㅇㅣㅈㅓㅁ -11002
▁ㅈㅏㅇㄷㅗㅇ -11003
▁ㄸㅜㄱ -11004
ㅎㅘㄹㅇㅑㄱ -11005
▁ㅍㅡㄹㅐㅇㅋㅡ -11006
▁ㅇㅣㅁㅈㅣㄴ -11007
▁ㄴㅣㅋㅗㄴㅣㅋㅗ -11008
▁ㄲㅏㅇㅍㅐ -11009
▁ㅈㅜㅇㅂㅜ -11010
▁ㄱㅜㅎㅗ -11011
▁ㅁㅣㄴㅣㄱ -11012
▁ㅈㅜㅇㄱㅡㅂ -11013
▁172 -11014
▁ㅊㅜㅇㄴㅏㅁ -11015
▁ㅋㅐㄴㄷㅣ -11016
▁ㅈㅏㅍㅗ -11017
▁ㅇㅐㄹㄹㅓㄴ -11018
▁HS -11019
▁ㅈㅓㅂㅅㅜ -11020
▁ㅊㅣㅇㅏ -11021
▁ㅍㅣㄹㄷㅜ -11022
▁Light -11023
▁ㄲㅓㅂㅈㅣㄹ -11024
▁ㅌㅣㅇㅏ -11025
▁ㅈㅜㄹㄱㅣ -11026
▁ㄱㅏㅁㄱㅡㅁ -11027
ㅂㅐㅁ -11028
▁ㅇㅘㅇㄱㅏ -11029
▁ㄸㅐㄹㅕㅈㅏㅂ -11030
▁ㅁㅣㄹㅇㅓㅂㅜㅌㅇㅣ -11031
▁ㄱㅐㅁㅏㄱㅈㅓㄴ -11032
▁ㄹㅏㅂㅣ -11033
▁ㄷㅐㅁㅕㅇ -11034
▁ㄷㅏㄴㅕㅇㅗ -11035
▁ㄹㅣㄴㅠ -11036
▁TE -11037
▁ㅅㅡㅂㅏㄹㅜ -11038
▁ㅌㅔㄹㅔ -11039
▁ㅎㅓㄹㅋㅡ -11040
ㅊㅓㄴㅅㅏ -11041
▁ㅊㅣㅂㅏ -11042
▁ㅌㅐㅁㅣ -11043
che -11044
▁ㄲㅜㅀ -11045
ME -11046
▁ㅇㅛㅇㅜ -11047
▁ㅅㅗㅂㅣㅈㅏ -11048
▁ㅈㅣㅁㅣ -11049
▁ㅍㅣㄴㅏㄴ -11050
▁ㅋㅓㅁㅍㅓㄴㅣ -11051
▁ㅁㅏㅇㅅㅓㄹㅇㅣ -11052
▁ㅇㅑㅇㅅㅣㅁ -11053
▁ㄱㅗㅇㅜ -11054
ㅁㅣㄴㅈㅜㄷㅏㅇ -11055
▁133 -11056
▁ㄱㅗㅇㄱㅜㄱ -11057
▁ㅎㅗㄱㅍㅕㅇ -11058
▁ㅅㅜㄴㅊㅓㄴ -11059
▁ㅂㅏㄱㅈㅟ -11060
▁ㅅㅓㅂㅊㅟ -11061
▁ㅂㅏㅅ -11062
▁LOVE -11063
▁ㅇㅜㅇㅔ -11064
▁ㅇㅣㄴㅗ -11065
▁ㅈㅜㅅㅣㄱㅎㅚㅅㅏ -11066
▁ㅂㅏㄴㄷㅗ -11067
▁ㅇㅣㅅㅜㄴㅅㅣㄴ -11068
▁ㅂㅟ -11069
▁ㅇㅣㄴㅌㅔㄹ -11070
▁ㅅㅡㄴㅏ -11071
▁ㅋㅏㅅㅣ -11072
▁ㅈㅐㄹㅣㅁ -11073
▁ㅂㅐㅎㅜ -11074
▁ㅁㅜㅅㅐㄱ -11075
▁ㅇㅕㄲ -11076
▁ㅋㅔㄴㅈㅣ -11077
ㅊㅏㄹㅣ -11078
▁ㄱㅐㄱㄱㅘㄴ -11079
▁ㅌㅣㅁㅈㅏㅇ -11080
▁Your -11081
▁ㅊㅏㅂㅜㄴ -11082
▁ㅍㅏㄱㅚㄹㅕㄱ -11083
▁ㄱㅣㅅㅜㄹㄹㅕㄱ -11084
▁ㄹㅏㅅㅣ -11085
▁ㄴㅐㅇㄱㅣ -11086
▁ㅂㅣㅋㅣ -11087
▁ㅁㅏㅇㅅㅏㅇ -11088
ㅈㅗㅁ -11089
▁ㅅㅜㄴㅊㅏㄹ -11090
▁ㄱㅡㄴㄹㅗ -11091
▁ㅁㅣㅅㅜㄱ -11092
▁ㅈㅣㅅㅓㅇ -11093
▁ㄷㅡㄱㅅㅣㄹ -11094
▁ㅈㅗㄴㅅㅡㄴ -11095
▁Tw -11096
ㅈㅔㅅㅡ -11097
ㅂㅌㅡ -11098
▁ㅎㅗㅇㅡㅇ -11099
ㅁㅠ -11100
ㄷㅓㄱㅅㅕㄴ -11101
▁ㄱㅘㄱㅏㅁ -11102
▁ㅈㅣㅂㅜㅇ -11103
▁ㅇㅕㄴㄷㅏㄹ -11104
▁la -11105
▁148 -11106
▁ㅁㅣㄲㅣ -11107
▁ㅈㅣㄴㄱㅜ -11108
▁ㄱㅡㅂㅅㅗㄱ -11109
ㅋㅓㄷ -11110
▁ㅇㅕㅈㅏㅇ -11111
▁ㅂㅏㄱㅈㅗㅇ -11112
▁ㅌㅗㅇㅂㅗ -11113
▁NEW -11114
▁ㄹㅐㄴㅅㅡ -11115
▁ㄱㅗㄹㅐ -11116
▁ㄱㅗㅈㅣㄹ -11117
▁ㄷㅗㅅㅏ -11118
▁ㄸㅏㄴㅐ -11119
ㅅㅔㄴㅌㅡ -11120
ㅣㄹㄹㅓㅅㅡ -11121
▁ㄱㅐㄱㅡㅁ -11122
▁ㅋㅜㅂㅏ -11123
▁ㅈㅔㅈㅏㄱㅂㅣ -11124
▁179 -11125
▁ㅅㅣㅇㅗ -11126
▁ㅊㅜㄹㅈㅔ -11127
▁ㅈㅓㅅㅡㅌㅣㅅㅡ -11128
▁Mr -11129
▁ㅂㅗㄱㄷㅗ -11130
▁ㅎㅣㄴㅏㅌㅏ -11131
▁ㅇㅣㄹㅋㅓㄷ -11132
▁ㅍㅔㅇㄱㅟㄴ -11133
▁ㅁㅐㅈㅣ -11134
ㅅㅏㄱㅗ -11135
ㅏㅇㅏㄵ -11136
▁ㅅㅏㄴㅅㅗ -11137
▁ㅁㅔㄱㅜㅁㅣ -11138
▁ㅂㅐㅅ -11139
▁ㅋㅔㄹㅣㄱㅓㄴ -11140
▁ㅇㅓㅂㅔㄴㅈㅕㅅㅡ -11141
▁OF -11142
▁ㄴㅡㅇㅅㅜㄱ -11143
▁ㅉㅣㅈㅣㄹ -11144
▁ㅁㅏㅇㅁㅕㅇ -11145
▁ㅅㅡㅌㅗㄱ -11146
ㅓㅄㅇㅣ -11147
▁ㄱㅏㅇㅅㅓ -11148
▁ㅈㅗㄹㅕㄱ -11149
▁ㅂㅣㅈㅏ -11150
▁ㅇㅗㅋㅔ -11151
▁ㄷㅗㅇㅅㅓ -11152
▁ㄸㅓㄴ -11153
▁ㄷㅗㅅㅡ -11154
ica -11155
▁ㅂㅗㅌㅡ -11156
ㅅㅏㄴㅇㅕㄱ -11157
▁ㅍㅏㄹㅏㅇ -11158
▁ㄷㅏㅋㅔ -11159
▁ㅎㅘㅇㅌㅐ -11160
▁ㅅㅖㅇㅣ -11161
▁ㄹㅔㅅㅡㄹㄹㅓ -11162
▁ㄷㅜㄱㅡㄴ -11163
▁ㅅㅔㄹㅖ -11164
▁ㄱㅕㄱㅌㅚ -11165
▁ㅇㅠㅇㅏ -11166
▁ㅈㅔㅈㅣ -11167
▁ㅇㅗㄹㅡㄴㅍㅏㄹ -11168
▁ㅅㅓㅇㅂㅕㄱ -11169
▁ㄱㅣㅁㄷㅜ -11170
ㅅㅔㅅㅓㄹㅣ -11171
▁ㅁㅗㅅㅡㅋㅡㅂㅏ -11172
ㅅㅑㅇ -11173
▁Gen -11174
▁ㅈㅏㅇㄱㅏㅂㅊㅏ -11175
▁ㅌㅡㄹㅐㄴㅅㅡㅍㅗㅁㅓ -11176
▁GTA -11177
▁ㄹㅏㅇㅣㅅㅔㄴㅅㅡ -11178
▁ㅂㅏㄴㄹㅗㄴ -11179
▁ㄹㅗㅁㅐㄴㅅㅡ -11180
▁ㅊㅕㄷㅡㄹㅇㅓㅇㅗ -11181
▁ㅅㅣㅁㅎㅣ -11182
▁Mi -11183
▁ㄱㅛㅅㅣ -11184
▁ㅍㅗㄴㅣ -11185
▁ㄹㅗㅁㅏㄴ -11186
▁ㅎㅜㅋㅜㅇㅗㅋㅏ -11187
IK -11188
▁ㄹㅓㄱㅋㅣ -11189
▁ㅈㅔㄷㅐ -11190
ㅂㅏㄱㅇㅣ -11191
▁ㅇㅟㄴㅌㅓ -11192
▁ㅅㅏㅈㅣ -11193
ㅂㅜㄹㅡㅋㅡ -11194
▁ㅇㅏㄴㄷㅗㅇ -11195
▁156 -11196
▁ㅈㅏㅁㄱㅡ -11197
▁ㅅㅏㄴㅏㅇㅣ -11198
▁ㅍㅜㅇㄱㅕㅇ -11199
▁Em -11200
▁ㅅㅏㄴㅐ -11201
▁ㄴㅗㄱㅗㄹ -11202
▁am -11203
▁ㄷㅜㄴㅚ -11204
▁ㅇㅕㅁㄷㅜ -11205
▁ㅅㅔㄱㅅㅣ -11206
▁154 -11207
▁ㅈㅣㅇㅛ -11208
▁ㅇㅣㄴㅌㅡ -11209
▁ㅇㅠㅌㅏ -11210
▁ㅈㅜㅇㄱㅗㅇ -11211
▁ㅊㅓㄹㄱㅏㅂㅌㅏㄴ -11212
ㅏㄹㄷㅜ -11213
▁ar -11214
▁ㄲㅗㅁㅅㅜ -11215
▁ㅈㅗㅇㅁㅏㄹ -11216
▁ㄷㅟㅉㅗㄱ -11217
▁ㅎㅗㄴㅏㄹㄷㅜ -11218
▁ㅁㅣㅁㅗ -11219
▁ㅍㅏㅅㅡ -11220
▁ㅎㅗㄴㅇㅣㄴ -11221
▁ㄹㅣㅌㅓ -11222
▁ㅍㅗㄷㅗ -11223
▁ㅍㅡㄹㄹㅏㅇ -11224
▁ㅉㅗㅊㅇㅏㄴㅐ -11225
ㅅㅐㅇㄱㅣ -11226
▁ㅇㅣㅈㅜㄴ -11227
▁ㅍㅛㅊㅏㅇ -11228
▁ㄱㅣㅁㅅㅜ -11229
ors -11230
▁ㅅㅏㅅㅗ -11231
▁ㅅㅣㅈㅗ -11232
ㅇㅓㄷㅏㄴㅣ -11233
▁ㅁㅏㅅㅣㄴ -11234
▁ㅍㅏㅇㅜ -11235
▁ㅌㅏㄷㅏㅇ -11236
ㅋㅡㄹㄹㅣㄴ -11237
▁Par -11238
▁ㅊㅓㅇㅎㅏ -11239
ㅍㅡㄹㅏㅇㅣㄴ -11240
▁ㄱㅛㅇㅠㄱㅊㅓㅇ -11241
ㅈㅣㅅㅏ -11242
▁ㅈㅔㄹㅏ -11243
▁ㅂㅣㅊㅏㅁ -11244
ㅓㄱㅣ -11245
▁ㅂㅏㄴㅏㄴㅏ -11246
ㅔㅇㅗ -11247
FL -11248
▁159 -11249
▁ㅎㅗㅁㅜ -11250
▁ㄴㅗㄹㅐㅂㅏㅇ -11251
▁ㅌㅔㅇㅗ -11252
▁ㄹㅔㅅㅡㄹㄹㅣㅇ -11253
▁ㄴㅡㅇㅎㅏ -11254
▁ㅈㅣㄴㅅㅜㄹ -11255
▁ㅇㅏㅍㅅㅔㅇㅜ -11256
▁ㅎㅏㅇㅜ -11257
▁ㄲㅜㄹㅣ -11258
▁ㅁㅐㅇㅎㅘㄹㅇㅑㄱ -11259
▁ㅊㅗㅋㅗ -11260
▁ㅇㅡㅁㅎㅑㅇ -11261
▁ㅁㅕㅇㄷㅐㅅㅏ -11262
▁ㅎㅗㄱㅜ -11263
ㅕㅁㅓㄱ -11264
ㅂㅏㅅㅡ -11265
▁176 -11266
▁ㅎㅏㄹㅡ -11267
▁ㄴㅏㅌㅏ -11268
ㅓㅌㅡㄹㅣ -11269
▁ㅈㅣㄴㅎㅡㅇ -11270
▁222 -11271
▁ㅇㅏㄹㅇㅏㅊㅏㄹㅣ -11272
HT -11273
▁ㅂㅐㅅㅣㄴㅈㅏ -11274
▁ㄴㅐㅇㄷㅗㅇ -11275
▁ㅈㅚㅅㅜ -11276
▁MK -11277
▁ㅊㅏㄱㅈㅣ -11278
▁ㅇㅡㅇㅅㅣ -11279
▁ㅈㅓㄴㅂㅏㄴㄱㅣ -11280
▁ㄷㅐㅁㅗㄱ -11281
▁ㅂㅜㄴㅅㅙ -11282
▁ㄱㅗㅇㄹㅣㅂ -11283
▁HARD -11284
▁ㅈㅐㅈㅡ -11285
▁ㅁㅣㅅㅔ -11286
ㅋㅣㅁ -11287
▁ㅂㅏㄹㅌㅏㄱ -11288
▁1971 -11289
▁ㅂㅣㄲㅗ -11290
▁ㅇㅔㅍㅣㄹ -11291
▁ㄱㅣㅎㅐㅇ -11292
▁ㅇㅏㄹㅏㅇ -11293
▁ㅈㅓㄴㅎㅏㄱ -11294
▁u -11295
▁ㅂㅏㄹㅂㅏㄹ -11296
▁ㅂㅡㄹㄹㅐㄱㅎㅗㄹ -11297
▁ㅁㅣㄷㅇㅡㅁ -11298
▁ㅅㅓㅇㅍㅗㄱ -11299
ㅋㅏㅁㅣ -11300
▁ㅇㅓㅁㅍㅖ -11301
▁ㅋㅏㄹㄹㅏ -11302
▁ㅁㅏㅈㅁㅜㄹ -11303
▁ㅊㅣㅁㅏ -11304
▁ㅂㅓㅁㅎㅏ -11305
▁129 -11306
▁ㅈㅔㄹㅣ -11307
▁ㅌㅗㅇㅌㅡㄹㅇㅓ -11308
▁ㅍㅖㅎㅓ -11309
▁ㄱㅏㄹㅏㅇㅏㄵ -11310
▁173 -11311
▁ㅌㅏㅁㄱㅜ -11312
▁ㅋㅡㄹㅗㄴ -11313
▁ㅎㅕㄴㅈㅣㄱ -11314
▁OCG -11315
▁ㅂㅜㄹㄹㅣㅇㅜ -11316
▁ㅈㅓㄴㅇㅣㅁ -11317
▁FPS -11318
▁ㄴㅏㅁㅇㅑㅇ -11319
▁ㅅㅏㅊㅓㄴㅇㅘㅇ -11320
▁ㄷㅏㄹㄹㅐ -11321
ㅌㅣㅈㅣ -11322
ㅍㅔㅇㅣ -11323
▁ㄱㅜㄷㅎㅣ -11324
▁ㄴㅏㅊㅡ -11325
▁ㄱㅖㄱㅗㄱ -11326
▁ㅇㅣㅊㅏㅇ -11327
▁AE -11328
▁ㅁㅜㄴㅓㄸㅡㄹㅣ -11329
▁ㅇㅗㄹㅣㅇㅗㄴ -11330
▁ㅊㅐㄱㅅㅏㅇ -11331
▁ㄹㅣㅇㅜㅅㅡ -11332
▁ㅁㅣㅎㅗ -11333
▁ㅅㅣㄹㅂㅏ -11334
▁153 -11335
▁ㅋㅐㅅㅡㄹ -11336
▁ㅁㅕㅇㅌㅏㅁㅈㅓㅇ -11337
▁PL -11338
▁ㅇㅢㅇㅏ -11339
▁was -11340
▁ㅊㅓㄴㅁㅜㄴ -11341
▁ㅎㅘㅅㅓㄱ -11342
▁ㅇㅓㄹㄹ -11343
CH -11344
▁ll -11345
ㅋㅣㄴㅗ -11346
▁ㅌㅏㅇㅜ -11347
▁ㅈㅗㅅㅜ -11348
▁ㅌㅔㄱㅅㅏㅅㅡ -11349
▁ㅋㅐㄹㄹㅣㅍㅗㄴ -11350
▁ㄴㅏㄹㅏㄴㅎㅣ -11351
▁ㄴㅏㅁㅎㅏㄴ -11352
ㅋㅜㄴ -11353
▁ㄷㅡㄹㅣㅂㅡㄹ -11354
▁ㅍㅡㄹㅗㄷㅓㄱㅅㅕㄴ -11355
▁ㄱㅗㅇㅡㅁ -11356
▁ㅅㅓㄴㅍㅗ -11357
▁ㅇㅏㄴㅣㅎㅏ -11358
pr -11359
▁ㅈㅣㄹㅍㅜㅇ -11360
ㅁㅔㄴㅌㅓㄹㅣ -11361
▁ㅅㅣㅁㅠㄹㄹㅔㅇㅣㅅㅕㄴ -11362
UT -11363
ㄴㅗㅇ -11364
ㄱㅔㅇㅣㅁ -11365
▁ㅌㅗㅁㅏㄱ -11366
▁137 -11367
▁ㅅㅡㅌㅏㄹㄹㅣㄴ -11368
▁ㅁㅜㄹㅇㅓㅂㅗ -11369
▁ㅌㅔㄹㅓㄹㅣ -11370
▁Kn -11371
▁ㅇㅔㅁㅔㄹㅏㄹㄷㅡ -11372
eep -11373
▁ㅇㅕㄴㅅㅜ -11374
ㅅㅔㅁ -11375
▁Of -11376
▁ㅈㅛㅈㅛ -11377
▁ㅇㅜㅅㅏㄴ -11378
▁ㅊㅗㅇㅅㅏㄹ -11379
▁ㅁㅏㅊ -11380
▁ㅁㅐㄱㅡㄴ -11381
▁ㅁㅜㄷㅏㄴ -11382
▁ㅋㅐㄹㄹㅣㅍㅗㄴㅣㅇㅏ -11383
▁ㅈㅣㄱㅏㄱ -11384
▁ㅎㅗㄴㄷㅏ -11385
▁ㅇㅏㅅㅏㅎㅣ -11386
ㅅㅏㅇㅣ -11387
▁ㄹㅓㄴㅣㅇ -11388
▁ㅅㅣㄹㅇㅓㅂ -11389
▁ㅇㅣㄴㅍㅡㄹㄹ -11390
▁ㅇㅓㄱㅡㅅ -11391
▁ㄴㅏㄹㄹ -11392
▁ㅇㅗㅍㅓㄹ -11393
▁ㅇㅔㅍㅣㄹㄹㅗㄱㅡ -11394
▁ㅈㅏㄴㅎㅐ -11395
▁ㄹㅐㅅㅡㅌㅓ -11396
▁ㅈㅓㄹㅈㅓㅇ -11397
▁ㅇㅗㄹㅏㄱㅅㅣㄹ -11398
ㅎㅏㅇㅕ -11399
▁ㅇㅣㄱㅘㅇ -11400
▁ㄹㅗㅅㅡㅌㅓ -11401
▁ㄷㅐㅇㅏㄴ -11402
▁ㅁㅜㄴㅎㅘㅈㅐ -11403
▁~~ -11404
▁ㅇㅏㄴㄷㅡㄹㅔ -11405
les -11406
▁What -11407
ㄱㅛㅌㅗㅇ -11408
▁ㅇㅕㅇㄷㅡㅇ -11409
▁ㅊㅐㄱㄹㅑㄱ -11410
▁ㄹㅓㄹ -11411
▁ㅇㅐㅆㅡ -11412
▁ㄴㅏㅋㅏㅁㅜㄹㅏ -11413
▁ㄷㅜㅁㅗㄱ -11414
▁ㄱㅛㅈㅓㅇ -11415
▁ㅅㅣㅁㅅㅏㅇ -11416
▁GHz -11417
▁ㅁㅝㄴ -11418
▁ㅂㅏㄹㄹㅔㄴㅌㅏㅇㅣㄴ -11419
▁ㄹㅏㄷㅓㄴㄱㅏ -11420
▁ㅊㅓㅇㄹㅛㅇ -11421
▁ㅇㅖㅂㅏㅇ -11422
▁ㅂㅐㄹㅣㅇㅓ -11423
▁ㄹㅗㅌㅔㅇㅣㅅㅕㄴ -11424
▁ㅁㅓㅅㅇㅣㅆ -11425
▁ㅅㅡㅌㅔㄹㄹㅏ -11426
▁ㅅㅓㅊㅣ -11427
▁ㅂㅜㄹㅁㅜㄴ -11428
▁ㅍㅜㄹㄹㅕㄴㅏ -11429
ㅏㅇㅓ -11430
ㅏㄱㅎㅣ -11431
ㄱㅗㄷ -11432
▁ㅈㅓㄱㅓ -11433
▁ㅅㅏㅋㅜㄹ -11434
▁ㄱㅕㅇㅎㅗ -11435
▁ㅁㅏㄹㅅㅗ -11436
▁ㅇㅛㅋㅗㅎㅏㅁㅏ -11437
▁ㄹㅣㅂㅏㅇ -11438
▁ㅌㅜㅅㅓㅇㅇㅣ -11439
ㅂㅗㄹㅏ -11440
▁1969 -11441
▁ㄹㅗㅇㅕㄹ -11442
▁ㅅㅣㄴㅅㅔㄱㅖ -11443
▁280 -11444
▁ㅇㅣㄹㅈㅗ -11445
▁ㅈㅏㅇㅅㅣ -11446
▁ㅅㅣㅂㅈㅏㄱㅜㄴ -11447
▁ㄷㅔㄹㅌㅏ -11448
▁ㅅㅜㅇㅂㅐ -11449
▁ㅎㅏㄴㄱㅕㄹ -11450
▁ㅇㅠㄴㅣㅋㅗㄴ -11451
▁BM -11452
▁ㅅㅡㄹㄹㅐㅁ -11453
▁ㅇㅓㄹㅇㅓㅂㅜㅌ -11454
ㄹㅔㄴㅏ -11455
▁ㅁㅔㄷㅣ -11456
▁ㄱㅣㅃㅡㅁ -11457
▁ㅇㅑㄷㅏㅇ -11458
▁ㄷㅏㅋㅠㅁㅔㄴㅌㅓㄹㅣ -11459
ㅇㅏㅅㅡㄹ -11460
▁ㅇㅏㅅㅡㄹㅇㅏㅅㅡㄹ -11461
▁174 -11462
▁ㅊㅗㅇㅅㅓㄴㄱㅓ -11463
▁225 -11464
▁ㄱㅏㄹㅗㅁㅏㄱ -11465
▁ㅋㅏㅌㅗ -11466
▁ㅅㅓㅇㅜㄹㅅㅣ -11467
▁ㅇㅔㅅㅈㅣ -11468
▁ㅁㅕㄴㅈㅓㅂ -11469
▁ㄱㅕㄱㅎㅏ -11470
▁ㄱㅗㄹㅁㅗㄱ -11471
▁139 -11472
▁ㅇㅕㅅㅜ -11473
▁Per -11474
ㄷㅓㄱㅣ -11475
▁ㄷㅐㄱㅛ -11476
▁134 -11477
▁163 -11478
▁ㅇㅝㄴㅁㅏㅇ -11479
▁ㄸㅏㄹㅏㅈㅏㅂ -11480
▁ㅋㅏㅈㅡㅇㅑ -11481
▁ㅁㅣㅅㅣㄱ -11482
▁ㅎㅏㅇㅢ -11483
▁ㅇㅝㄹㅇㅛㅇㅣㄹ -11484
▁ㅈㅜㅍㅏ -11485
▁ㅇㅠㅈㅡ -11486
▁167 -11487
▁ㅅㅣㅁㅇㅕㄴ -11488
▁ㅇㅕㄹㄱㅣ -11489
▁ㅈㅓㅇㅈㅗ -11490
▁143 -11491
▁Fe -11492
▁ㅉㅏㄹㄹㅣ -11493
▁ㅇㅏㄱㄱㅗㄱ -11494
▁ㄷㅏㄴㅇㅢ -11495
▁TO -11496
▁GPU -11497
▁Heart -11498
▁ㄱㅓㄴㄴㅓㄱㅏ -11499
▁ㄷㅔㅇㅣㄹ -11500
▁ㅇㅣㅁㅜ -11501
▁ㅎㅏㅇㅣㅂ -11502
▁ㄹㅗㅁㅏㅇ -11503
▁ㅂㅣㄱㅌㅗㄹㅣㅇㅏ -11504
ㅂㅗㄹㄹㅜㅅㅕㄴ -11505
▁ㅂㅗㄷㅣ -11506
▁ㅂㅜㄴㅍㅗ -11507
▁ㅇㅗㅌㅏㅋㅜ -11508
ㅂㅏㄴㅅㅣㄴ -11509
ㅇㅏㅍㅡㄹㅣㅋㅏ -11510
▁ㅇㅜㅅㅏㅇ -11511
▁ㅅㅡㅍㅏㅇㅣㅋㅡ -11512
▁ㅅㅏㅇㅈㅏㅇ -11513
▁ㅆㅡㄹㄷㅔㅇㅓㅄㅇㅣ -11514
▁ㅎㅐㅅㅏㅇㄷㅗ -11515
ㅍㅡㄹㅏㄴ -11516
▁ㅅㅡㅍㅔㅇㅣㄴㅇㅓ -11517
▁ㄲㅡㅌㅈㅏㅇ -11518
▁ㅊㅚㄷㅐㅊㅣ -11519
ㅎㅏㅇㅣㄹ -11520
▁Good -11521
ㅊㅗㅇㅈㅏㅇ -11522
▁ㄴㅜㅇㅣ -11523
ㅋㅓㄴㄷㅡ -11524
ㅈㅏㄱㅣ -11525
▁ㄱㅡㅈㅔ -11526
▁ㅇㅝㄴㅈㅜ -11527
▁ㅍㅓㅂㅜㅅ -11528
▁ㅅㅔㅋㅓㄴㄷㅡ -11529
▁yout -11530
▁142 -11531
▁ㅈㅓㄴㄱㅘㅇ -11532
▁ㅎㅏㅁㅅㅓㅇ -11533
▁CO -11534
ㄴㅣㅇ -11535
▁ㅊㅓㅇㅅㅏ -11536
▁ㅂㅜㅊㅓ -11537
▁ㄹㅜㄹㅜ -11538
▁ㅇㅣㄴㄱㅜㅅㅜ -11539
▁ㅎㅘㅇㅑㄱ -11540
ㅌㅠㄴ -11541
▁ㅇㅛㅇㅇㅢㅈㅏ -11542
▁ㅇㅕㄴㄱㅣㄹㅕㄱ -11543
▁2500 -11544
agon -11545
▁ㅍㅓㅅㅣ -11546
ㄱㅗㅅㅏ -11547
▁ㄹㅏㅇㅣㅁ -11548
▁ㅇㅘㅇㄱㅘㄴ -11549
▁ㅁㅓㄴㅈㅣ -11550
▁ㅌㅐㄱㅝㄴ -11551
▁ㅁㅏㅈㅁㅜㄹㄹㅣ -11552
▁ㄱㅕㅇㅅㅏ -11553
▁ㅍㅐㄴㅣㄱ -11554
▁ㄱㅘㄴㄱㅘㅇㄱㅐㄱ -11555
▁ㅂㅏㄴㄹㅏㄴㄱㅜㄴ -11556
ert -11557
▁ㅅㅡㅇㅟㅂ -11558
▁ㅅㅡㅍㅏㄹㅡ -11559
▁164 -11560
▁ㅎㅏㅇㄱㅗㅇㅅㅏ -11561
ㅇㅛㅅㅣ -11562
▁ㅇㅣㅎㅗ -11563
▁ㅎㅣㅋㅏㄹㅣ -11564
▁ㅅㅓㄴㅅㅜㄷㅏㄴ -11565
▁CN -11566
▁ㅅㅡㅌㅗㅋㅓ -11567
▁ㅇㅣㄴㅅㅏㅇㅣㄷㅡ -11568
▁ㅌㅡㄹㅔㅇㅣㄴㅣㅇ -11569
▁ㅈㅔㅅㅏ -11570
▁ㄱㅣㅇㅣ -11571
▁beat -11572
▁ㅁㅜㅇㅏㄴ -11573
▁ㅁㅣㅇㅠㅋㅣ -11574
▁ㄹㅏㄷㅡㄴㄱㅏ -11575
▁ㄷㅡㄹㅔㄷㅡ -11576
▁pro -11577
ㅂㅔㄹㅣ -11578
▁ㄲㅡㅀㅇㅣ -11579
▁ㅇㅣㄹㄹㅣ -11580
▁ㄱㅜㅈㅔ -11581
▁ㄷㅗㅅㅣㄹ -11582
ㅔㅈㅡ -11583
▁ㅅㅣㄹㄹㅗ -11584
▁ㅎㅡㄹㅣ -11585
EL -11586
▁ㅇㅑㅁㅏㄷㅏ -11587
▁ㄷㅗㄹㄹㅕ -11588
▁ㅂㅡㄹㅐㄴ -11589
▁ㅅㅣㄴㅈㅜ -11590
▁ㄷㅏㄹㄹㅏ -11591
ㄴㅗㅁ -11592
ㅅㅓㅇㅑ -11593
▁ㅂㅏㄹㅎㅏ -11594
▁ㅂㅓㅌㅓ -11595
▁ㄱㅓㄹㅡ -11596
▁ㄱㅜㄱㄱㅣ -11597
▁ㅅㅣㅁㅇㅑ -11598
ㄹㅣㄴㅏ -11599
▁ㅇㅠㄴㅏ -11600
▁ㅅㅏㄴㅏ -11601
▁ㅁㅏㅇㅢ -11602
▁ONE -11603
▁ㅈㅔㄷㅏㄴ -11604
▁ㄱㅡㄱㅇㅜ -11605
▁ㅊㅓㅇㅈㅏㅇ -11606
▁ㅇㅡㅁㅅㅐㄱ -11607
▁ㅉㅗㅊㅇㅏㄱㅏ -11608
▁ㅅㅓㄴㅇㅣㄴ -11609
▁ㅈㅣㄴㅎㅏ -11610
▁ㅅㅗㄴㅗ -11611
▁ㅈㅣㄱㄱㅕㄱ -11612
▁ㅇㅣㅇㅗ -11613
▁ㅎㅗㅇㅅㅓㅇ -11614
▁ㄴㅠㅈㅣㄹ -11615
▁ㅇㅓㄱㅡㅅㄴㅏ -11616
▁ㅇㅘㅇㅎㅜ -11617
▁ㅇㅏㄱㄹㅕㅇ -11618
ㅇㅜㅊㅣ -11619
▁ㅂㅐㅌ -11620
▁ㄷㅗㅇㅇㅏㅅㅣㅇㅏ -11621
▁ㅇㅜㅌㅜ -11622
▁ㅍㅐㅅㅡㅌㅡ -11623
▁ㄱㅛㄷㅐ -11624
▁ㅈㅣㄱㅌㅗㅇ -11625
▁136 -11626
ㅈㅏㅈㅐ -11627
▁ㅃㅜ -11628
▁ㅊㅜㅁㅗ -11629
▁ㄱㅣㅁㅇㅕㄴ -11630
▁ㄱㅣㅁㅊㅓㄴ -11631
▁ㄱㅘㄴㄱㅖㅇㅓㅄㅇㅣ -11632
▁ㅅㅑㅇㅗ -11633
▁ㅈㅣㄱㅡㄱ -11634
ㅈㅗㅁㅁㅜ -11635
▁ㄱㅗㅇㄱㅗ -11636
▁ㅎㅡㅁㅈㅗㅁㅁㅜ -11637
▁ㅋㅣㅇㄷㅓㅁ -11638
▁ㅋㅗㄴㅅㅔㅂㅌㅡ -11639
▁ㅈㅣㅇㅋㅡㅅㅡ -11640
▁ㅊㅏㅁㅇㅡㄹㅗ -11641
▁ㅆㅡㄹㅓㅌㅡㄹㅣ -11642
▁ㅎㅚㄹㅗ -11643
▁ㅂㅓㅈㄲㅗㅊ -11644
▁ㄹㅣㅂㅜㅌㅡ -11645
▁ㅋㅗㅍㅡ -11646
▁ㅈㅔㅇㅣㅅㅡㄴ -11647
▁Dark -11648
▁ㄷㅗㅇㅇㅣ -11649
ㅍㅏㅇㅣㅇㅓ -11650
}} -11651
▁time -11652
▁KC -11653
▁ㅅㅓㅈㅏㅇ -11654
▁ㅌㅔㅁㅍㅗ -11655
▁ㅂㅏㅇㅇㅏㄴ -11656
▁ㅈㅓㄱㄹㅣㅂ -11657
ㅅㅏㄴㅗ -11658
▁ㅁㅐㅅ -11659
▁ㄱㅣㅅㄷㅡㄹ -11660
▁ㄱㅐㄱㅡㅁㅐㄴ -11661
▁ㅇㅏㅇㅣㅅㅡㅋㅡㄹㅣㅁ -11662
▁ㅂㅜㄹㅋㅙ -11663
▁ㄷㅓㄱㅜㄴㅏ -11664
ㅅㅏㄹㅡ -11665
▁ㅇㅣㄹㅎㅘㄴ -11666
▁ㄷㅔㅅㅡㅌ -11667
▁ㄱㅜㅇㅈㅓㄴ -11668
▁ㅇㅗㅍㅡㄹㅏㅇㅣㄴ -11669
ㅂㅐㄱㄱㅘ -11670
▁ㅎㅐㄴㄷㅡㅍㅗㄴ -11671
▁ㄹㅗㅈㅣ -11672
▁ㄷㅗㅇㅂㅜㄱ -11673
▁ㅅㅏㅂㅓㅁ -11674
▁ㅈㅗㅈㅜㄴㄱㅕㅇ -11675
▁ㅇㅏㅍㄷㅟ -11676
▁ㄱㅕㅇㅊㅏㄹㅊㅓㅇ -11677
▁ㅎㅏㄴㅊㅡㅇ -11678
▁ㅎㅐㅌㅐ -11679
ㄷㅗㄹㅏ -11680
ㅅㅣㅌㅣ -11681
▁ㅂㅏㄴㅣㄹㄹㅏ -11682
▁ㅇㅐㅇㅋㅓ -11683
▁ㅇㅘㄴㄱㅜ -11684
▁ㅂㅓㄴㄱㅏㄹ -11685
▁ㅇㅓㄹㅣㄴㅇㅏㅇㅣ -11686
ㅇㅠㅋㅣ -11687
▁ㅌㅓㅇ -11688
▁ㄱㅕㅇㅈㅣ -11689
▁ㅂㅏㄱㅅㅏㅇ -11690
ㅁㅜㅅㅣㄹ -11691
▁ㅎㅜㄴㅎㅜㄴ -11692
ㅁㅜㄱㅔ -11693
▁ㅈㅏㅂㅜ -11694
▁ㅁㅗㅁㅁㅜㄱㅔ -11695
ㄷㅣㅅㅡ -11696
▁1963 -11697
▁157 -11698
▁ㅁㅣㄹㅏㅇㅣ -11699
▁ㅈㅣㄴㅅㅓㅇ -11700
▁ㅇㅠㅅㅓㄴ -11701
▁ㅇㅏㄴㅊㅓㄹㅅㅜ -11702
▁ㅈㅜㅇㅅㅣㅁㅈㅣ -11703
ㅏㅁㅗ -11704
▁ㅊㅔㄱㅕㄱ -11705
▁ㅅㅜㄹㅈㅣㅂ -11706
▁330 -11707
▁0900 -11708
▁ㅇㅏㄴㅁㅜ -11709
▁ㅈㅚㅅㅗㅇ -11710
▁ㅈㅜㅇㄴㅕㄴ -11711
▁ㅎㅗㄴㄷㅗㅇ -11712
other -11713
▁ㄱㅡㄹㅐㄴ -11714
▁ㄴㅐㅃㅜㅁ -11715
ㄸㅜㅀ -11716
▁ㅁㅗㄷㅓㄴ -11717
▁ㅁㅗㅇㅑㅇㅅㅐ -11718
ㅂㅗㅅ -11719
ㅍㅜㄹㅇㅣ -11720
▁ㅇㅠㅎㅐ -11721
▁ㅎㅘㅅㅗ -11722
▁ㅇㅕㄴㅇㅢ -11723
iew -11724
▁ㅇㅕㄹㅅㅔ -11725
▁ㅈㅓㄴㅅㅜ -11726
▁ab -11727
▁ㄷㅔㄴㅁㅏㅋㅡ -11728
▁ㄴㅏㄴㅌㅜ -11729
ideo -11730
▁ㄹㅣㅈㅏ -11731
land -11732
ㅋㅣㄴㅏ -11733
▁ㅁㅜㄴㅅㅣㄴ -11734
▁ㅈㅘㅍㅏ -11735
▁ㄱㅡㄴㄹㅕㄱ -11736
▁ㅁㅠㅈㅣㅅㅕㄴ -11737
▁Sm -11738
▁ㅇㅚㅁㅕㄴ -11739
▁ㅂㅏㅇㅎㅗ -11740
▁ㅂㅐㅇㅜㅈㅏ -11741
▁ㅅㅜㄴㅈㅓㅇ -11742
ㅌㅣㄴㅓㅁ -11743
▁ㅎㅐㄴㄷㅡㄹ -11744
▁ㅈㅓㄴㅂㅏㄴㅈㅓㄴ -11745
▁ㅍㅡㄹㄹㅐㅌㅣㄴㅓㅁ -11746
▁ㅌㅔㄹㅡ -11747
▁ㄴㅜㄴㅂㅣㅊ -11748
▁ㄹㅔㅍㅡ -11749
▁ㅎㅗㅂㅏㄱ -11750
▁ㄴㅠㅈㅣㄹㄹㅐㄴㄷㅡ -11751
▁ㅅㅏㅌㅜㄹㅣ -11752
▁ㅅㅣㄷ -11753
▁ㅅㅏㄹㅡ -11754
▁ㅈㅕ -11755
▁ㅎㅠㅅㅡㅌㅓㄴ -11756
air -11757
▁ㅊㅏㅇㄹㅣㅂ -11758
▁ㅇㅑㅇㄷㅐ -11759
▁ㅍㅐㄷㅡ -11760
▁ㅇㅏㄹㅂㅏ -11761
▁Sl -11762
▁ㅂㅡㄹㅜㅅㅡ -11763
▁ㅇㅕㄴㄱㅡㅁㅅㅜㄹㅅㅏ -11764
▁ㄴㅔㅅㅡ -11765
▁ㅈㅜㅎㅏㄴ -11766
▁ㄷㅐㅈㅜㅇㄱㅛㅌㅗㅇ -11767
▁1968 -11768
▁ㅇㅜㅊㅓㄴ -11769
▁ㅈㅔㅇㅜㅅㅡ -11770
▁270 -11771
▁ㄴㅏㅁㅜㅅ -11772
▁ㅈㅓㅈㅗ -11773
▁ㅅㅓㄹㅌㅏㅇ -11774
▁ㄸㅒ -11775
▁ㅊㅣㅁㅎㅐ -11776
▁ㅈㅏㅇㄹㅖㅅㅣㄱ -11777
▁ㅊㅜㄹㅇㅕㄴㅈㅣㄴ -11778
▁ㅂㅗㄴㅇㅢ -11779
▁ㅍㅡㄹㄹㅏㅅㅡㅌㅣㄱ -11780
▁ㅊㅓㄴㅕ -11781
▁ㅅㅣㅎㅡㅇ -11782
▁ㅈㅣㅂㅍㅣㄹ -11783
▁Blue -11784
▁ㄲㅞㄸㅜㅀ -11785
▁ㅈㅏㅈㅣㄹ -11786
▁ㅌㅜㅅㅣㄴ -11787
▁ㄴㅗㅇㅁㅣㄴ -11788
▁Baby -11789
▁ㅁㅔㅇㅣㅌㅡ -11790
▁AG -11791
ator -11792
▁ㅈㅓㅇㅅㅓ -11793
▁ㅎㅐㄷㅗㄱ -11794
▁ㅁㅣㄴㅣㅇㅓㄴ -11795
ㄴㅐㅇ -11796
▁ㅇㅚㄱㅘㄴ -11797
▁ㅁㅗㄱㅍㅗ -11798
▁ㄷㅜㅇㄱㅡㄹ -11799
▁ㄷㅗㅅㅣㄹㅏㄱ -11800
▁ㅋㅡㄹㄹㅏㅇㅜㄷㅡ -11801
▁ㄹㄹㅕㄱㅗ -11802
▁...... -11803
oot -11804
▁ㄷㅏㅇㄱㅜㄱ -11805
▁ㅅㅡㅋㅔㅇㅣ -11806
▁ㅈㅜㅇㄱㅜ -11807
▁ㅎㅘㄴㅅㅏ -11808
▁ㅈㅓㄴㅇㅕㄹ -11809
▁ㅌㅔㄹㅓㄹㅣㅅㅡㅌㅡ -11810
▁Ac -11811
anna -11812
▁ㄷㅐㅈㅣㄴ -11813
▁ㅈㅏㅇㅍㅜㅇ -11814
▁ㅍㅏㅇㅣㅍㅡ -11815
▁ㅅㅑㅇㅝ -11816
▁ㅊㅗㄱㅛ -11817
▁ㄲㅐㅇㅏㄹ -11818
▁ㅂㅡㄹㅔㅇㅣㄴ -11819
▁ㄱㅣㅍㅣ -11820
▁ㄱㅣㅁㄷㅐㅈㅜㅇ -11821
ㅐㄱㅅㅕㄴ -11822
▁ㅅㅓㄴㄱㅛ -11823
▁ㅇㅠㅋㅗ -11824
▁ㅈㅓㅎㅢ -11825
ㅅㅏㄹㅣ -11826
▁ㅂㅡㅇㅣ -11827
▁ㅂㅓㄹㄱㅡㅁ -11828
▁ㅎㅏㅇㅣㅂㅡㄹㅣㄷㅡ -11829
▁ㅅㅜㅅㅣㄹㅗ -11830
▁ㅁㅔㄹㄹㅗㄴ -11831
▁ㅂㅜㅅㅏㄱㅘㄴ -11832
▁ㅍㅓㅅ -11833
▁ㅈㅓㄴㄹㅏㅂㅜㄱㄷㅗ -11834
▁ㅂㅏㅇㅇㅓㄴ -11835
▁ㅁㅜㅅㅜ -11836
▁ㅊㅓㅇㄴㅏㄹㅏ -11837
▁ㅈㅏㅊㅣㅅ -11838
ush -11839
▁ㅅㅔㄱㅅㅡ -11840
▁ㅈㅣㅂㅎㅏㅂ -11841
▁ㅇㅏㄹㄹㅔㄱㅅㅏㄴㄷㅓ -11842
▁ㅎㅣㄹㅗㅅㅣㅁㅏ -11843
▁ㅇㅕㄴㅎㅚ -11844
▁ㅆㅙ -11845
▁ㄷㅏㅁㅇㅣㅁ -11846
▁149 -11847
ㄴㅓㄱ -11848
▁ㅋㅣㄷㅡ -11849
▁ㅊㅟㅈㅣ -11850
▁ㅂㅏㅇㄱㅗㅇ -11851
▁ㅁㅗㄹㅇㅏㅂㅜㅌㅇㅣ -11852
▁ㄱㅜㄹㅗ -11853
▁ㅎㅛㅇ -11854
ㅋㅣㅇㅗ -11855
▁ㅈㅜㅁ -11856
▁ㅂㅡㄹㅗㄴㅈㅡ -11857
▁ㅇㅏㄱㅎㅏ -11858
▁ㅅㅔㄴㅌㅡㄹㅓㄹ -11859
ㅇㅝ -11860
▁ㄱㅏㄱㄱㅜㄱ -11861
ㅇㅜㄴㅅㅜ -11862
▁ㅅㅏㅌㅏㄴ -11863
▁ㅈㅓㄱㅅㅓㅇ -11864
▁ㄴㅓㄱㄴㅓㄱ -11865
▁ㄷㅚㅅㅏㄹㄹㅣ -11866
▁ㅎㅢㄷㅐ -11867
▁ㅊㅗㅇㄷㅗㄱ -11868
▁ㄹㅚ -11869
▁ㅈㅗㄴㄷㅐ -11870
▁146 -11871
▁ㅅㅏㅇㅅㅙ -11872
▁ㅌㅡㄹㅓㅂㅡㄹ -11873
▁ㄱㅕㅇㅈㅔㅎㅏㄱ -11874
▁ㄱㅏㅎㅗㄱ -11875
▁ㅎㅘㅇㅅㅣㄹ -11876
▁ㅋㅏㅌㅡㄹ -11877
▁ㅎㅘㄱㄱㅗ -11878
▁ㅎㅓㅂㅡ -11879
▁Li -11880
ㅎㅜㄱ -11881
▁OK -11882
▁ㄱㅗㅇㅁㅗ -11883
▁Fire -11884
▁ㅁㅏㅋㅔㅅ -11885
▁ㅈㅗㄱㅛ -11886
▁ㅊㅕㄴㅐ -11887
▁ㅇㅏㅁㅔㄹㅣㅋㅏㄴ -11888
▁ㅈㅣㄴㅏㄴ -11889
▁ㅌㅏㅋㅣ -11890
▁ㄱㅣㅎㅏㅁ -11891
na -11892
ㅂㅣㄱㅜㄴ -11893
▁ㅈㅣㅁㅜㄴ -11894
ㅏㄱㅅㅡ -11895
▁ㅁㅏㅊㅗ -11896
ㅌㅗㄹㅣㅇㅓㄹ -11897
▁ㄱㅕㄱㅈㅓㄴ -11898
▁ㅎㅏㅇㅕㄱㅡㅁ -11899
▁ㅇㅏㅁㅋㅓㅅ -11900
▁ㄱㅓㅍㅜㅁ -11901
▁ㅇㅣㅅㅔ -11902
▁ㅎㅜㅋㅜㅅㅣㅁㅏ -11903
▁ㅎㅏㅇㅣㅁ -11904
▁ㅌㅠㅌㅗㄹㅣㅇㅓㄹ -11905
ㅍㅗㄹㄹㅣ -11906
▁260 -11907
▁ㄴㅏㄺ -11908
▁ㅇㅑㅈㅓㄴ -11909
ㄹㅔㅇㅣㅌㅓ -11910
▁ㅇㅣㄹㅅㅏㅁ -11911
▁ㅈㅜㅇㅢㅈㅏ -11912
▁ㄱㅗㅇㅇㅕㅇ -11913
▁ㅈㅗㅇㅊㅏㄱ -11914
▁ㅅㅣㅁㅎㅘ -11915
▁ㅇㅝㄹㄷㅡㅇ -11916
▁ㅌㅓㄹㅇㅓㄴㅗㅎ -11917
▁ㅍㅡㄹㅗㅌㅗㅌㅏㅇㅣㅂ -11918
▁ㄱㅏㅇㅅㅔ -11919
▁ㄴㅏㅁㅁㅣ -11920
▁ㅇㅠㄴㅣㅇㅗㄴ -11921
▁El -11922
▁ㅍㅔㅇㅣㅋㅓ -11923
ㅅㅣㄴㅏ -11924
▁ㅇㅞㅇㅣㄴ -11925
▁sm -11926
▁ㅂㅏㅇㅎㅘ -11927
▁ㅍㅡㄹㅔㄴㅈㅡ -11928
▁ㅂㅣㄴㅌㅡㅁ -11929
▁ㄴㅔㅂ -11930
▁ㅂㅕ -11931
▁ㅅㅣㄴㅇㅣㅁ -11932
▁ㅅㅗㄹㅣㅊㅣ -11933
▁ㅁㅗㅇㅓ -11934
▁ㅁㅏㄹㄴㅕㄴ -11935
▁ㅅㅏㅇㄱㅗㅇ -11936
▁ㅂㅕㅇㅈㅏㅇ -11937
▁ㄱㅕㅇㄱㅘ -11938
ㄷㅏㄴㅈㅣ -11939
▁ㅊㅏㄹㄹㅣ -11940
▁ㅇㅏㄹㅡㅋㅏ -11941
▁Dis -11942
OID -11943
▁ㅁㅐㄱㄹㅏㄱ -11944
▁ㅊㅗㅅㅏㅇㅎㅘ -11945
▁ㄹㅔㅇㅣㄴㅓ -11946
▁ㅅㅠㅌㅓ -11947
▁ㅈㅔㅍㅡ -11948
▁ㄹㅐㅂㅌㅓ -11949
▁ㅇㅣㄴㅊㅔ -11950
ㄷㅐㄱㅏㅁ -11951
ady -11952
ㅈㅓㄴㅌㅡ -11953
▁ㅁㅣㄹㅇㅓㅈㅜ -11954
▁ㅅㅣㄹㄹㅕㄱㅈㅏ -11955
▁ㅇㅣㄹㄹㅔㅂㅡㄴ -11956
▁ㅏㅇㅑ -11957
ㄷㅓㅅㅡㄴ -11958
▁ㄱㅗㅇㅅㅗㄴ -11959
▁ㅇㅣㄹㅍㅜㅁ -11960
▁BEMAN -11961
▁ㅂㅜㅊㅣㄴ -11962
▁kr -11963
▁ㄱㅗㅅㅡ -11964
▁ㅇㅝㄴㅈㅏㄹㅕㄱ -11965
ㄷㅡㄹㅣㅂ -11966
▁ㅅㅡㅌㅔㅍㅏㄴ -11967
▁ㅁㅣㅅㅡㅌㅓㄹㅣ -11968
▁ㅎㅏㅂㅂㅓㅂ -11969
▁ㅌㅏㅋㅏㅅㅣ -11970
▁ㄹㅏㄴㅏ -11971
▁ㅇㅗㅇㅢ -11972
▁ㅍㅠㅊㅓ -11973
▁ㄱㅗㄹㅕㅇ -11974
▁ㅅㅓㄱㅅㅏㅇ -11975
▁ㅈㅜㅇㅎㅏㄱㅅㅐㅇ -11976
▁ㄱㅗㅅㅓㅇ -11977
▁ㅍㅏㄱㅕㄱ -11978
▁ㅊㅔㅅㅡ -11979
▁ㅅㅜㄱㅈㅜ -11980
▁ㅍㅗㅇㅝㄷㅡ -11981
▁ㅅㅣㄴㅂㅕㅇ -11982
▁ㅇㅜㄴㅂㅏㄴ -11983
▁ㅍㅡㄹㅗㅁㅗ -11984
▁ㅂㅕㄹㅊㅣㅇ -11985
▁ㅈㅓㄱㅈㅐ -11986
▁ㅍㅕㄴㄱㅕㄴ -11987
▁ㅌㅏㄴㅏ -11988
▁ㅅㅗㄱㄹㅕㄱ -11989
▁ㅈㅓㄹㅓ -11990
▁ㅅㅜㄹㅑㅇ -11991
▁ㅓㅆㅇㅓㅆ -11992
▁DJMAX -11993
▁ㄹㅡㄴㅗ -11994
▁BEMANI -11995
▁ㅁㅣㅈㅡㅋㅣ -11996
▁ㅁㅜㄴㅂㅓㅂ -11997
▁ㅅㅡㄹㄹㅏㅇㅣ -11998
▁ㄱㅕㄱㄱㅣ -11999
▁ㅁㅜㅅㅓㄴ -12000
▁ㅅㅐㅇㅅㅓㄴ -12001
▁ㅁㅚ -12002
▁ㅍㅏㅅㅗㄴ -12003
▁ㄷㅗㄱㅓㅁ -12004
▁ㅂㅗㄱㅜ -12005
▁ㅌㅗㅇㅎㅐㅇ -12006
ㅅㅡㅌㅗㄹㅏㅇ -12007
▁ㄷㅟㅅㅁㅕㄴ -12008
▁ㄹㅔㅅㅡㅌㅗㄹㅏㅇ -12009
▁fl -12010
▁ㅁㅐㅁ -12011
▁ㅂㅣㄴㅂㅓㄴ -12012
▁Champ -12013
▁ㅍㅔㄹㅡㅅㅣㅇㅏ -12014
▁ㅅㅗㄱㄱㅗㅇ -12015
▁ㅂㅣㅇㄱㅡㄹ -12016
▁ㄷㅓㄹㅏㅁㅕㄴ -12017
▁ㅈㅜㄱㅏ -12018
▁ㅁㅏㄹㅇㅏㅁㅓㄱ -12019
▁ㅂㅜㄹㅎㅘ -12020
▁ㄱㅏㅅㅓㅇ -12021
▁ㅇㅕㄴㅁㅏㄹ -12022
▁ㄹㅣㅂㅏㅇㅜㄴㄷㅡ -12023
▁ㄷㅏㅇㅣㄴㅗㅅㅡ -12024
▁ㅇㅜㅍㅕㄴ -12025
ution -12026
▁ㅅㅓㅇㄱㅣ -12027
▁ㅍㅡㄹㅐㄴㅊ -12028
▁STR -12029
▁cc -12030
▁ㅎㅗㅊㅜㄹ -12031
▁ㅈㅜㄱㅗ -12032
▁ㅂㅗㄴㄱㅏ -12033
▁ㅁㅕㅇㅁㅕㅇ -12034
▁ㄱㅏㄹㄹㅣㅇㅏ -12035
▁ㅎㅏㅂㅏㄴㄱㅣ -12036
ㄸㅗㄱ -12037
▁ㅂㅏㄹㅊㅏㄱㅣ -12038
▁ㅇㅠㅇㅠ -12039
ㅇㅏㅇㅅㅡ -12040
▁ㅅㅡㅌㅡㄹㅣㅁㅣㅇ -12041
▁ㅅㅜㄹㅕㅇ -12042
ㄱㅝㄹ -12043
▁ㅅㅗㄹㅕㅇ -12044
▁ㅇㅠㅅㅡㅇ -12045
▁ㅂㅏㄱㅁㅕㅇㅅㅜ -12046
▁ㅍㅣㅋㅏㅊㅠ -12047
▁Pre -12048
▁ㄱㅐㅁㅣ -12049
▁ㄷㅔㅅㅡㅌㅣㄴㅣ -12050
ㅈㅏㅁㅏ -12051
▁ㄹㅏㅍㅡ -12052
▁ㅁㅐㄱㅣ -12053
ㅃㅜㄹ -12054
▁ㅅㅏㅋㅜ -12055
ㅔㅅㅡㄹㄹㅣㅇ -12056
ㅈㅏㄹㅡ -12057
ㅅㅏㅂㅕㄱ -12058
▁ㅂㅜㄱㄱㅜ -12059
▁ㄴㅓㅁㅅㅏㅂㅕㄱ -12060
▁Ev -12061
▁ㅂㅡㄹㄹㅐ -12062
▁ㅍㅡㄹㅐㄴㅊㅏㅇㅣㅈㅡ -12063
▁ㅍㅡㄹㅗㄹㅔㅅㅡㄹㄹㅣㅇ -12064
▁205 -12065
▁ㅈㅐㅃㅏㄹㄹㅣ -12066
▁ㄸㅜㄲㅓㅇ -12067
▁ㅅㅜㅋㅓㅅ -12068
▁1967 -12069
▁ㅇㅏㄹㄹㅔㄱㅅㅏㄴㄷㅡㄹ -12070
ㄷㅓㄹㅣㅇ -12071
ㅌㅡㅁㅔㅇㅓ -12072
▁ㄴㅏㅇㅣㅌㅡㅁㅔㅇㅓ -12073
ㅉㅗㅊ -12074
▁ㅈㅏㄱㅏㄱ -12075
▁ㅍㅣㄹㄹㅏ -12076
▁ㅅㅗㅁㅆㅣ -12077
▁ㅂㅡㄹㅔㅇㅣㅂㅡ -12078
▁ㅍㅕㅇㅊㅏㅇ -12079
▁ㅌㅚㅇㅕㄱ -12080
ㅈㅓㄷㅡ -12081
▁ㅊㅏㅇㅇㅓㅂ -12082
ㅌㅣㅇㅗ -12083
▁ㄴㅟㅇㅏㅇㅅㅡ -12084
▁ㅊㅜㅊㅜㄹ -12085
▁DB -12086
ㅈㅡㅋㅏ -12087
▁ㄷㅗㄱㄹㅣㅂㅇㅜㄴㄷㅗㅇ -12088
▁ㄷㅐㅅㅡㅇ -12089
▁ㅅㅣㄴㅅㅜ -12090
▁ㅈㅓㅇㅎㅕㅇ -12091
▁ㅅㅓㄴㄱㅗㄱ -12092
▁ㅈㅡㅇㅇㅣㄴ -12093
▁ㅇㅏㅍㅁㅕㄴ -12094
▁ㄱㅏㅁㅏ -12095
▁ㅅㅐㅇㅌㅐ -12096
▁ㅍㅡㄹㅣㅈㅡㅁ -12097
▁ㄱㅕㅇㅈㅣㄹ -12098
▁ㅇㅣㅂㅏㅇ -12099
ㅅㅡㅌㅡㄹㅏ -12100
ㅡㄴㅣㅁ -12101
▁ㅇㅣㅈㅇㅓㅂㅓㄹㅣ -12102
▁ㅈㅓㄴㅇㅕㅁ -12103
▁ㅈㅓㅇㅊㅔㅂㅜㄹㅁㅕㅇ -12104
▁ㅃㅗㅁ -12105
▁ㅇㅣㄹㄹㅖ -12106
▁ㅂㅏㄱㅇㅛㅇ -12107
▁ㅇㅝㄴㅎㅠㅇ -12108
ㅅㅓㄱㅁㅣㄴ -12109
▁ㄷㅏㄴㅅㅣㄱ -12110
▁ㅁㅜㅈㅚ -12111
ium -12112
▁550 -12113
▁ㄱㅏㄴㅎㅗㅅㅏ -12114
▁ㅇㅐㄴㄷㅣ -12115
▁ㅋㅡㄹㄹㅓ -12116
ㅌㅣㄴㅗ -12117
▁RP -12118
▁ㅇㅐㄱㅜㄱ -12119
▁GG -12120
▁ㅂㅜㄱㅘㄴ -12121
▁ㅌㅏㄴㅏㅋㅏ -12122
▁ㅈㅓㄴㄷㅗ -12123
▁ㅈㅣㄹㅎㅘㄴ -12124
▁ㄱㅕㄱㄹㅣ -12125
▁Summer -12126
▁ㅇㅜㄴㅅㅓㄱ -12127
▁ㄱㅛㅌㅗㅇㅅㅏㄱㅗ -12128
▁ㄱㅣㅅㅗ -12129
▁ㄱㅏㅇㅢ -12130
▁ㄷㅗㅇㄹㅗ -12131
▁147 -12132
▁ㄱㅘㅇㅈㅓㄴㅅㅏ -12133
▁ㄴㅏㅇㅕㄹ -12134
▁ㄱㅏㅇㅈㅓㅁㄱㅣ -12135
ㅊㅕㄴ -12136
▁ㄷㅣㅂㅣㅈㅓㄴ -12137
▁ㅆㅔ -12138
▁ㅅㅓㄱㅅㅏ -12139
▁ㅊㅡㅂㅏㅅㅏ -12140
▁ㄴㅏㄹㅔㅇㅣㅅㅕㄴ -12141
▁ㅇㅗㅋㅣ -12142
▁ㅅㅡㄹㄹㅗ -12143
ㅔㄴㄷㅡ -12144
▁ㅇㅕㄱㅘㄴ -12145
▁ㅅㅜㅅㅜㄹㅛ -12146
▁ㅁㅔㅇㅜ -12147
▁ㅁㅗㅂㅅㅣ -12148
▁Grand -12149
▁ㄷㅡㄹㅣㄹ -12150
▁Rock -12151
▁ㅇㅔㅁㅣㄹㄹㅣ -12152
▁ㅂㅓㅁㅎㅐㅇ -12153
▁ㄹㅓㅂㅡㄹ -12154
▁ㅁㅣㄷㅡㄹ -12155
▁ㅅㅜㄷㅏ -12156
▁ㅍㅠㄹㅣ -12157
▁ㅇㅖㄴ -12158
▁back -12159
▁ㅇㅝㄴㅈㅏㄱㅈㅏ -12160
▁ㅁㅣㅌㅣㅇ -12161
▁ㅅㅡㅋㅡㄹㅣ -12162
▁ㄴㅔㄱㅅㅓㅅㅡ -12163
▁ㄱㅔㅇㅣㅁㅈㅡ -12164
▁ㄱㅕㄹㅜ -12165
▁ㅅㅔㅇㅣㄹㄹㅓ -12166
▁ㄹㅏㅂㅏ -12167
▁ㄹㅏㅇㅗ -12168
▁ㅇㅜㄱㅏ -12169
▁ㅍㅡㄹㄹㅔㅇㅓ -12170
ㅗㅅㅗㄱ -12171
▁ㅇㅜㅊㅔ -12172
▁ㅅㅓㄷㅜㄹㅡ -12173
▁ㅁㅜㄱㅗ -12174
▁ㅍㅔㄴㄷ -12175
▁ㅊㅜㄱㅜㅇ -12176
▁ㅍㅔㄴㄷㅠㄹㄹㅓㅁ -12177
▁ㅅㅣㄱㅔ -12178
▁ㄱㅏㄴㅎㅗ -12179
▁ㅎㅏㄷㅡㅇㅞㅇㅓ -12180
▁ㅈㅓㄱㅓㅅ -12181
▁ㅌㅏㄱㅗㄴㅏ -12182
▁ㄷㅗㅇㄴㅕㄴ -12183
▁ㅁㅜㅁㅕㅇ -12184
ㅏㄴㄷㅏ -12185
▁ㅌㅗㅁㅏㅌㅗ -12186
▁ㅇㅣㅂㄱㅜㄱ -12187
▁SCP -12188
▁211 -12189
▁ㅇㅑㅁㅏㄱ -12190
▁ㅉㅗㅊㅇㅏㅇㅗ -12191
gain -12192
▁ㄷㅗㅇㄷㅡㅇ -12193
▁ㅁㅓㄹㄹㅣㅅㅓ -12194
▁ㅂㅜㅊㅜㄱ -12195
▁ㅂㅔㅅ -12196
▁ㄴㅔㅋㅗ -12197
ㅌㅗㅇㅅㅜ -12198
ㅍㅓㄷㅡ -12199
▁ㅂㅓㄹㅡㅅ -12200
▁ㅇㅠㅅㅣㄴ -12201
▁ㅌㅏㄴㅌㅏㄴ -12202
▁ㅈㅜㄹㅇㅓㄷㅡ -12203
▁ㅊㅗㅇㅍㅕㅇ -12204
▁now -12205
▁ㅌㅡㄱㅇㅣㅈㅓㅁ -12206
▁ㅍㅣㄴㄹㅏㄴㄷㅡ -12207
▁ㅇㅏㅎㅗ -12208
▁ㅋㅗㄷㅣ -12209
▁ㅂㅐㅅㅗㄱ -12210
▁ㅍㅗㄹㄹㅣㅅㅡ -12211
▁ㅂㅗㄱㅁㅕㄴ -12212
▁ㅅㅐㄹ -12213
▁Over -12214
▁ㅇㅜㅍㅏ -12215
▁ㅇㅠㅁㅜ -12216
▁ㅁㅏㄴㄹㅜ -12217
▁ㅊㅔㅎㅕㅇ -12218
▁ㅇㅝㄴㅈㅗㅇ -12219
▁This -12220
▁ㅈㅓㄴㄹㅖ -12221
▁ㄱㅗㅇㅅㅡㅂ -12222
▁ㄷㅐㅇㅚ -12223
▁ㄴㅣㄴㅏ -12224
▁ㅇㅏㅇㅣㅍㅗㄴ -12225
ㅆㅜ -12226
▁day -12227
▁ㄷㅐㅍㅐ -12228
▁ㅁㅣㄴㅔㄹ -12229
ㅞㄴ -12230
▁ㄱㅜㄴㄹㅣㅁ -12231
▁ㄱㅝㄴㄴㅡㅇ -12232
▁ㅈㅐㅎㅘㄹ -12233
▁ㄱㅏㅁㅈㅓㄴ -12234
▁ㅎㅘㄴㅅㅜ -12235
▁ㅍㅣㅇㅗ -12236
▁ㅇㅡㄴㅁㅔㄷㅏㄹ -12237
▁ㄱㅏㅇㅌㅣㅁ -12238
ㅌㅣㄹ -12239
ㅜㄴㅔ -12240
▁ㅋㅏㄴㅣ -12241
▁ㅅㅣㅁㅁㅜㄴ -12242
ction -12243
▁ㅅㅣㅂㅈㅏㄱㅏ -12244
▁ㅈㅣㄴㄷㅗ -12245
▁ㅁㅣㅅㅜ -12246
ㅊㅣㅇㅗ -12247
▁ㅇㅣㅅㅗㄱ -12248
▁ㄱㅡㄹㅣㄷㅡ -12249
▁ㅍㅗㅅㅣㄱ -12250
▁ㅇㅏㄹㅐㅉㅗㄱ -12251
▁LED -12252
▁Dance -12253
▁ㅎㅣㄹㄹㅣㅇ -12254
▁ㄱㅔㅅㅣㅁㅜㄹ -12255
▁ㅂㅐㅅㅗㅇ -12256
▁ㅁㅏㄹㄹㅔㅇㅣㅅㅣㅇㅏ -12257
▁ㅈㅏㅇㅣㄹ -12258
▁But -12259
▁ㅅㅗㄱㅂㅏㄱ -12260
▁ㅇㅗㄴㅁㅗㅁ -12261
▁ㅈㅔㅂㅗ -12262
ㅍㅕㅇㄱㅏ -12263
▁ㅅㅏㄹㅇㅣㄴㅁㅏ -12264
▁ㄹㅔㅇㅣㅊㅔㄹ -12265
▁ㅂㅜㅅㅏ -12266
▁ㄹㅔㅁㅗㄴ -12267
▁ㅍㅠㅇㅓ -12268
▁ㅅㅏㅅㅡㅁ -12269
▁ㄱㅘㅇㅅㅗㄱ -12270
▁ㄹㅜㅍㅏㅇ -12271
▁ㅂㅏㅇㄱㅘ -12272
▁ㅍㅏㅁㅜㄴ -12273
▁ㄱㅘㄴㅈㅓㄹ -12274
▁DR -12275
▁ㅂㅕㄹㅈㅏㄹㅣ -12276
▁ㅇㅕㅁㅅㅐㄱ -12277
▁ㅁㅜㅈㅔㅎㅏㄴ -12278
▁ㄷㅐㄱㅜㄴ -12279
▁ㅎㅗㄹㄷㅣㅇ -12280
▁ㅎㅏㅁㅈㅐㄱㅣ -12281
▁ㅌㅗㅇㅅㅜ -12282
▁ㅁㅏㅂㅣㄴ -12283
ne -12284
ㅓㄷㅡ -12285
irst -12286
▁ㄴㅐㅇㅑ -12287
▁ㅈㅓㅁㅅㅏ -12288
ㄱㅕㄹㅅㅡㅇ -12289
▁ㄴㅐㄱㅜㄹㅕㄱ -12290
▁VOC -12291
▁ㅎㅗㅌㅜ -12292
▁ㄷㅏㄱㅣ -12293
▁ㅅㅣㅁㅗ -12294
▁ㅁㅣㄹㅊㅣ -12295
▁ㅂㅏㄱㅌㅏㄹ -12296
▁ㅍㅣㄱㅅㅔㄹ -12297
▁ㄴㅏㅅㅏ -12298
▁ㄱㅛㄴㅐ -12299
▁ㄱㅣㄹㄱㅓㄹㅣ -12300
▁SL -12301
▁ㅋㅡㄹㅗㄹ -12302
▁ㄱㅕㄱㅊㅣㅁ -12303
▁ㅎㅘㄴㅐ -12304
▁ㅎㅏㄹㅏ -12305
▁ㅈㅣㄱㅅㅗㄱ -12306
▁ㄴㅗㅌㅡㅂㅜㄱ -12307
▁ㅅㅖㅍㅡ -12308
▁ㅇㅜㅁㅜㄹ -12309
ㅡㅅㅐ -12310
▁ㅇㅓㄴㅡㅅㅐ -12311
▁Wii -12312
▁ㅂㅜㄹㅍㅕㅇ -12313
▁ㅌㅗㅇㅈㅡㅇ -12314
▁ㅊㅐㅊㅟ -12315
▁ㅅㅗㄱㅍㅕㄴ -12316
▁ㅇㅛㄹㅣㅅㅏ -12317
▁ㄱㅗㅇㅊㅓㄴ -12318
▁ㅂㅏㄹㅎㅕㄴ -12319
▁ㅂㅏㄹㄹㅏㄷㅡ -12320
▁ㅎㅣㅅㅏ -12321
▁MSL -12322
▁ㄴㅗㅂㅣ -12323
▁ㄹㅗㅅㅡㅇ -12324
▁ㅎㅔㄱ -12325
ㅂㅏㅇㅣㄴ -12326
ㅏㅎ -12327
▁ㅁㅣㄲㅡㄹ -12328
ㅅㅡㄹㄹㅣㅁ -12329
▁ㅂㅏㄱㅊㅏㄴ -12330
ount -12331
▁Ste -12332
▁ㅁㅜㅅㅡㄹㄹㅣㅁ -12333
▁ㄱㅕㅇㅅㅜㄴ -12334
▁ㅇㅕㅂㅐㅇㅜ -12335
▁ㄱㅏㅂㅡㄹ -12336
▁ㅇㅣㅈㅣㄹ -12337
▁Gold -12338
▁ㅅㅡㅋㅞㅇㅓ -12339
▁ㅎㅏㅎㅐㅇ -12340
▁ㅁㅗㄱㅈㅐ -12341
▁ㅂㅗㅎㅐㅇ -12342
▁ㄱㅣㄱㅚ -12343
▁ㄷㅗㅇㅅㅏ -12344
▁ㅂㅏㄱㅇㅕㅇ -12345
▁ㅌㅜㅁ -12346
▁ㄹㅣㅇㅔㄹ -12347
▁ㅈㅏㄱㅕㄱㅈㅡㅇ -12348
▁ㄹㅈㅣㄹㅏㄷㅗ -12349
▁ㅌㅐㅅㅇㅣ -12350
ㄷㅡㄷ -12351
▁ㅅㅓㅇㅈㅣㄱㅈㅏ -12352
ㅈㅏㄷㅗㅇ -12353
▁ㄴㅔㄴㅗㅁ -12354
▁ㅅㅓㅇㅂㅣ -12355
▁ㅎㅐㅈㅓㄱㄷㅏㄴ -12356
▁ㅎㅏㅅㅣ -12357
▁3164 -12358
▁ㅌㅔㅇㅣㄹㅈㅡ -12359
▁HG -12360
ㄱㅣㅅㅏ -12361
▁ㅍㅗㅎㅛ -12362
▁ㄱㅕㄱㅌㅜㄱㅣ -12363
▁ㅅㅏㅇㅎㅐㅇ -12364
▁ㅅㅣㅊㅗ -12365
▁ㄱㅛㅇㅑㅇ -12366
▁ㅇㅗㅋㅣㄴ -12367
▁ㄱㅏㄷㅡㄴ -12368
▁DX -12369
▁ㄴㅣㄱㅅㅡ -12370
▁ㄹㄹㅏ -12371
▁Just -12372
▁ㅇㅘㅇㅈㅘ -12373
▁ㅈㅣㅇㅗㄴ -12374
ㄱㅏㄹㅑㅇ -12375
▁ㅅㅔㅅㅉㅐ -12376
ㅊㅡㅋㅏ -12377
▁ㄴㅜㅁㅕㅇ -12378
▁ㄷㅗㅇㅁㅜㄴ -12379
▁ㅡ -12380
▁ㅇㅔㅂㅏ -12381
▁ㅉㅗㄹ -12382
▁ㄹㅏㄷㅡ -12383
▁ㅅㅣㅁㅗㄴ -12384
▁ㅈㅡㅇㄱㅏㄹㅑㅇ -12385
▁ㅈㅣㅈㅣㅈㅏ -12386
▁ㄴㅏㅁㅂㅏㄹ -12387
▁ㅈㅜㄹㅈㅜㄹ -12388
▁ㄷㅗㅇㅁㅔㄷㅏㄹ -12389
ㄴㅚ -12390
ㅂㅣㅁ -12391
▁ㅅㅡㄴㅔㅇㅣㅋㅡ -12392
▁ㅌㅏㅊㅣㅂㅏㄴㅏ -12393
▁ㅎㅏㄴㅡㄴㅣㅁ -12394
let -12395
▁1966 -12396
▁ㅊㅓㅅㄴㅏㄹ -12397
▁ㄷㅏㄴㅁㅏㄹ -12398
▁ㄱㅜㅌㅏ -12399
▁HK -12400
ring -12401
▁ㅍㅏㅇㅣㄴ -12402
▁ㄴㅗㅇㄹㅏㄱ -12403
ㅁㅏㄹㅡ -12404
▁ㅅㅔㅅㅡ -12405
▁ㄱㅜㄱㅁㅣㄴㄷㅏㅇ -12406
▁ㄷㅟㅌㅗㅇㅅㅜ -12407
▁ㅇㅣㄹㅇㅣㄹㅇㅣ -12408
▁news -12409
▁ㅂㅣㄹㅂㅗㄷㅡ -12410
▁FL -12411
▁ㄷㅏㄹㄹㅏㅂㅜㅌ -12412
ㅈㅏㅇㅣ -12413
▁ㄷㅐㄱㅗㅇㅍㅗ -12414
▁ㅇㅓㅅㅓㄹㅍㅡ -12415
▁ㅈㅗㅂㅎㅣ -12416
▁ㅁㅣㅅㅏㅋㅣ -12417
ㅃㅕ -12418
▁ㅇㅕㅊㅣㄴ -12419
▁ㄱㅣㅎㅚㄱㅅㅏ -12420
▁ㅈㅡㅇㅂㅏㄹ -12421
▁ㅂㅏㅇㅅㅗㅇㅇㅣㄴ -12422
▁204 -12423
▁ㅊㅏㅇㅅㅔ -12424
ㅈㅓㄱㅓㅅ -12425
▁ㅇㅏㅈㅜㅁㅁㅏ -12426
▁ㅇㅣㄱㅓㅅㅈㅓㄱㅓㅅ -12427
▁ㅇㅣㅋㅏ -12428
▁ㅅㅏㅁㅊㅗㄴ -12429
▁ㅅㅓㄴㅂㅏㅇ -12430
▁ㄹㅠㄱ -12431
▁ㅅㅜㄱㅏㅇ -12432
▁ㄷㅗㄹㅇㅏㅂㅗ -12433
▁ㅅㅗㄴㅌㅗㅂ -12434
▁ㅁㅕㄹㅈㅗㅇ -12435
▁ㅉㅣㅈㅇㅓㅈㅣ -12436
▁ㅁㅕㅇㄴㅏㄹㅏ -12437
▁ㄷㅗㅇㅈㅗ -12438
▁ㅂㅕㄹㅈㅓㅁ -12439
eng -12440
▁ㄹㅜㅁㅏㄴ -12441
▁ㅂㅓㄴㅅㅣㄱ -12442
▁DNA -12443
▁ㄷㅐㅅㅟ -12444
ㅐㄴㄷㅓ -12445
ㅇㅓㅆㅡ -12446
▁ㅁㅗㄹㅇㅏㄴㅐ -12447
▁ㄹㅣㅌㅓㄴ -12448
▁ㅈㅏㄴㅣ -12449
▁ㅎㅠㅇㄴㅐ -12450
DS -12451
▁ㅈㅔㅅㅡ -12452
▁ㅎㅚㄱㅕㄴ -12453
▁ㅁㅣㄹㅗ -12454
ㅣㅇㅜㅅㅡ -12455
▁ㅁㅜㄹㄱㅏ -12456
▁ㅅㅐㄴㅍㅡㄹㅏㄴ -12457
▁ㅅㅐㄴㅍㅡㄹㅏㄴㅅㅣㅅㅡㅋㅗ -12458
▁ㅋㅘ -12459
▁ㅎㅗㄴㅎㅏㅂ -12460
▁ㅅㅣㄱㅏ -12461
▁ㅎㅏㄹㅣ -12462
▁ㅋㅡㄹㅣㅅㅡㅌㅗ -12463
▁ㄱㅗㅇㅈㅗㄴ -12464
ㅋㅗㅇㅓ -12465
▁ㅋㅐㅅㅡㅌㅡ -12466
▁166 -12467
▁ㅅㅡㅋㅣㅂ -12468
▁ㅎㅚㅂㅗㄱㄹㅕㄱ -12469
▁ㄷㅗㄱㅅㅜㄹㅣ -12470
ㄹㅣㅅㅡㅌㅡ -12471
▁ㅋㅏㄱㅜㄹㅏ -12472
▁ㅈㅔㄱ -12473
▁ㅎㅏㄴㅅㅜㅁ -12474
▁ㄱㅕㅇㄱㅏㅁ -12475
▁ㅅㅏㅁㅏㅇㅈㅏ -12476
▁TW -12477
▁ㄷㅗㅇㅈㅗㄱ -12478
ports -12479
▁ㅊㅐㄱㅈㅓㅇ -12480
▁ㄱㅣㅎㅏㅂ -12481
▁ㅅㅡㅋㅡㄹㅣㅂㅌㅡ -12482
▁ㅆㅡㄹㅇㅓㅂㅓㄹㅣ -12483
▁ㅅㅔㅂ -12484
ㄷㅜㄹㅣ -12485
▁ㅂㅗㄱㅇㅛㅇ -12486
▁ㄱㅡㅂㅎㅣ -12487
▁pt -12488
▁ㅇㅗㅋㅣㄴㅏㅇㅘ -12489
▁ㅎㅜㄷㅐ -12490
▁ㅊㅣㄴㅁㅗㄱ -12491
▁ㄱㅚㄹㅕㄱ -12492
▁ㅅㅔㄹㅡㅂ -12493
▁ㅅㅗㅅㅣ -12494
▁ㄹㅗㅂㅡ -12495
▁ㅅㅔㅌㅏㄱ -12496
▁ㅈㅓㅇㅈㅓㅇ -12497
▁ㅇㅏㄴㄷㅡㄹㅗ -12498
▁ㅍㅡㄹㅗㅁㅗㅅㅕㄴ -12499
▁ㅈㅓㅇㅋㅡ -12500
▁Can -12501
▁Korea -12502
▁ㄷㅏㅇㅣㅅㅡㅋㅔ -12503
▁ㅅㅏㄹㅛ -12504
▁ㅈㅜㅅㅣㅁ -12505
▁ㅎㅔㄹㄹㅣㅋㅗ -12506
▁ㅎㅚㄱㅟ -12507
▁ㅁㅕㅇㄱㅗㄱ -12508
▁ㅂㅏㄴㅉㅏㄱㅇㅣ -12509
▁ㅇㅣㄴㅅㅙ -12510
▁ㄹㅗㄹㄹㅣㅇ -12511
▁ㄷㅏㄴㄱㅘ -12512
▁ㅎㅕㄴㅅㅏㅇㄱㅡㅁ -12513
▁ㄷㅗㅇㅇㅏ -12514
▁ㄱㅣㅅㅜㄹㅈㅏ -12515
▁ㅎㅚㅇㅗㄹㅣ -12516
▁ㅋㅜㅁ -12517
▁FB -12518
▁ㄹㅡㅁ -12519
▁ㅅㅛㅌㅡ -12520
ㄹㅜㅅㅡ -12521
ㅋㅔㅇㅣㄴ -12522
▁ㅈㅓㅂㅇㅓㄷㅡㄹ -12523
▁ㄱㅖㄹㅏㄴ -12524
▁CA -12525
▁ㅅㅏㅇㅜㄹㅜㅅㅡ -12526
ina -12527
▁ㅋㅏㅇㅣㅌㅗ -12528
▁ㅈㅣㄱㅁㅜ -12529
▁ㅎㅏㅋㅏ -12530
ㅅㅗㅅㅜ -12531
▁ㅂㅜㄴㅈㅏㅇ -12532
▁VOCAL -12533
▁ㄹㅔㄱㅣ -12534
▁ㅋㅏㅋㅏ -12535
▁ㅋㅗㅂㅏㅇㅑㅅㅣ -12536
ㅇㄱㅏ -12537
▁ㅎㅜㅎㅜ -12538
▁ㅇㅣㄹㅖ -12539
ㅈㅣㅇㅗ -12540
▁ㅂㅣㄹㅗㅅㅗ -12541
▁ㅅㅣㄹㅅㅡㅂ -12542
▁ㅁㅏㄴㅎㅐㅇ -12543
▁ㅂㅏㄱㅊㅣㄱㅣ -12544
▁ㅎㅔㄹㄹㅣㅋㅗㅂㅌㅓ -12545
▁ㅎㅚㅅㅣㅁ -12546
ally -12547
▁ㅇㅏㅋㅏㄹㅣ -12548
▁ㅋㅏㄹㅡㅁㅏ -12549
ㅏㅇㅔㅁㅗㅇ -12550
▁ㄷㅗㄹㅏㅇㅔㅁㅗㅇ -12551
ㅅㅡㅋㅏ -12552
▁ㅇㅕㄴㄱㅗㅈㅣ -12553
▁ㅍㅣㄹㅌㅓ -12554
ㅍㅡㄹㅏ -12555
ㅇㅔㅅ -12556
▁ㄱㅗㅇㅈㅏ -12557
ㅅㅏㅇㄱㅏㅅㅏㅇ -12558
▁ㄱㅣㅁㅇㅝㄴ -12559
▁ㅅㅓㄹㅅㅏㅇㄱㅏㅅㅏㅇ -12560
▁KTX -12561
▁ㅇㅑㅌ -12562
▁ㅅㅡㄹㄹㅗㅇㅜ -12563
▁ㅋㅣㅌㅡ -12564
▁ㅋㅐㄹㅣㅇㅓ -12565
ERO -12566
ㅓㄴㅈㅣ -12567
ㅆㅏㄱ -12568
▁ㅂㅏㄴㄱㅜㄴ -12569
▁ㅁㅏㅌㅔ -12570
ㅇㅗㄹ -12571
▁Sec -12572
▁ㄷㅡㄹㅗ -12573
▁ㅈㅏㅇㅇㅝㄴ -12574
▁ㅂㅜㄹㅠ -12575
ㅂㅏㄷㅏ -12576
ㅋㅓㄴㅕㅇ -12577
▁ㅇㅣㄴㅊㅓㄴㄱㅘㅇㅇㅕㄱㅅㅣ -12578
▁ㅍㅗㄷㅐ -12579
▁ㄱㅜㄴㅅㅏㄹ -12580
▁ㅍㅣㅅㅡㅌㅡ -12581
▁ㅅㅡㄴㅐㅂ -12582
▁ㅎㅗㅇㅈㅣㄴㅎㅗ -12583
▁ㅇㅠㅇㅕㅇ -12584
▁ㅌㅔㄱㅅㅡ -12585
OO -12586
▁ㄹㅗㅋㅓㄹ -12587
UR -12588
▁ㅁㅣㅍㅏㄴ -12589
▁ㄹㅐㄱ -12590
▁650 -12591
▁ㅃㅏㄸㅡㄹㅣ -12592
▁ㅅㅣㄴㅈㅓㅇ -12593
▁MHz -12594
▁ㄴㅏㄴㄱㅏㅁ -12595
▁ㅇㅠㅈㅓㅇ -12596
▁ㅈㅣㅍ -12597
ㅂㅗㄱㅡ -12598
ㅈㅗㅎㅏㅂ -12599
▁ㅅㅏㄷㅏㅇ -12600
▁At -12601
ㄹㅜㅇㅔㅅ -12602
▁ㅇㅏㄱㅇㅓ -12603
ㅕㅇㅜ -12604
▁ㄱㅘㅇㄷㅐ -12605
▁ㄷㅣㄹㅔㄱㅌㅓ -12606
▁Music -12607
▁++ -12608
▁EBS -12609
▁ㅈㅐㅈㅣㄱ -12610
▁ㅂㅕㅇㅅㅏㄹㅌㅏ -12611
▁ㄱㅗㅈㅗ -12612
▁ㄸㅗㄱㄸㅗㄱ -12613
▁ㅇㅕㄹㄹㅏㅁ -12614
ㅅㅏㄴㄷㅗㅇ -12615
ㅌㅣㅋㅗㄴ -12616
▁ㅇㅔㄹㄹㅣㅅㅡ -12617
ㅅㄱㅓㄹㅣ -12618
ㅁㅏㄷㅏㅇ -12619
▁ㅁㅜㅈㅣㄴ -12620
▁ㅅㅡㅇㅘㄴ -12621
▁ㅂㅜㄴㅎㅗㅇㅅㅐㄱ -12622
▁ㅂㅏㄱㄱㅕㅇ -12623
▁ㅅㅏㄹㅅㅏㅇ -12624
▁ㄱㅏㄱㅡㅂ -12625
▁Su -12626
▁ㅇㅗㄷㅣㅇㅗ -12627
▁ㅋㅋ -12628
▁ㄱㅐㅇㅕㄴ -12629
▁ㅁㅣㅅㅓㅇㄴㅕㄴ -12630
▁ㅌㅐㄱㅡㄱ -12631
▁ㄱㅏㅁㅎㅐㅇ -12632
▁ㅂㅗㅅㅏㄹ -12633
▁ㅍㅡㄹㅣㄴㅅㅡ -12634
▁ㅍㅓㅅㅔㄴㅌㅡ -12635
▁ㅉㅓㄹ -12636
▁ㄱㅣㅁㅎㅕㅇ -12637
▁ㅇㅏㅇㅣㅇㅠ -12638
▁1962 -12639
▁ㅍㅏㅅㅜ -12640
▁Ep -12641
▁ㄹㅣㅍㅡㄹㄹㅔㄱ -12642
▁ㅂㅏㅌㅣ -12643
▁ㄹㅗㅈㅓ -12644
ㄷㅜㅎㅘㄴ -12645
▁ㄱㅚㅅㅏㅇ -12646
▁ㅇㅣㅂㅇㅑㅇ -12647
▁ㅁㅗㄴㅣㅇ -12648
▁ㅅㅣㄹㄹㅜㅇㅔㅅ -12649
▁ㅊㅗㅇㅇㅕㄹ -12650
▁ㄱㅏㄹㅇㅏㅌㅏ -12651
▁ㅈㅗㅈㅣㄱㅇㅝㄴ -12652
▁ㅎㅗㅁㅈㅡ -12653
▁ㅃㅗㅇ -12654
▁ㅁㅏㅇㄹㅕㅇ -12655
▁ㅍㅡㄹㅏㅇㅋㅡ -12656
▁ㅌㅏㅅㅣ -12657
▁ㅎㅐㅊㅣㅇㅜ -12658
▁ㄹㅗㅋㅗ -12659
▁ㅅㅡㅂㄱㅘㄴ -12660
▁ㄲㅣㅇㅓㄷㅡㄹ -12661
▁ㅊㅓㄴㅁㅏ -12662
▁ㅎㅏㄴㅂㅏㄹ -12663
▁Live -12664
▁ㄸㅏㄹㄱㅣ -12665
▁ㅎㅏㄱㅈㅓㅁ -12666
▁ㅈㅣㄴㅅㅜ -12667
▁get -12668
▁ㅈㅏㅇㅎㅏㄱ -12669
▁ㄱㅡㄹㅣㅎㅏㅇㅕ -12670
ART -12671
ㅐㅊㅣ -12672
▁ㅇㅏㄱㅇㅢ -12673
▁ㅎㅏㅇㅇㅏㄹㅣ -12674
ㅂㅓㄱㅡ -12675
▁Comm -12676
▁ㅊㅜㄴㅊㅓㄴ -12677
▁ㄷㅏㄴㅈㅓㅇ -12678
▁ㅈㅣㄴㄹㅣ -12679
▁ㅎㅓㅁㅎㅏ -12680
▁GN -12681
ㅇㅓㄹㄱㅓㄹㅣ -12682
▁ㅇㅑㅇㅚ -12683
▁ㄱㅘㄴㅈㅣㄱ -12684
▁ㄷㅏㄹㅂㅣㅊ -12685
▁ㅇㅖㅈㅣ -12686
▁ㅇㅏㅁㅇㅜㄹ -12687
▁ㅁㅗㄱㄷㅗㅇ -12688
▁ㅋㅔㅇㅣㅈㅣ -12689
ㅈㅏㅇㄴㅏㄴ -12690
▁ㅋㅗㄹㄹㅗㅁ -12691
▁ㅅㅓㅁㅣㄴ -12692
▁ㅈㅓㄹㅓㅎㄱㅔ -12693
▁ㅍㅏㄴㄱㅝㄴ -12694
▁BF -12695
▁ㅇㅛㅅㅣㄷㅏ -12696
use -12697
ㅈㅔㄹㄹㅔㅅㅡ -12698
▁ㄱㅗㄹㅣㄹㄹㅏ -12699
▁ㄴㄷㅡㄹ -12700
▁ㅂㅏㄹㄱㅘㅇ -12701
▁ㄱㅗㅌㅗ -12702
▁ㅎㅜㅁㅜㄴ -12703
▁ㄱㅡㅁㅅㅐㄱ -12704
▁ㄱㅕㅇㅇㅠㅈㅣ -12705
▁MX -12706
▁ㅇㅑㅇㅂㅗ -12707
▁ㅇㅟㅋㅣㅂㅐㄱㄱㅘ -12708
▁ㄱㅣㅂㅓㅂ -12709
▁ㅅㅑㄹㅡㄹ -12710
▁ㅃㅐㄴㅐ -12711
▁ㅍㅏㅂㅓㄹ -12712
▁ㄷㅐㅇㅣㄴㅂㅐ -12713
son -12714
▁ㄷㅗㄹㄱㅕㄱㅅㅗㅊㅗㅇ -12715
▁UF -12716
▁ㅊㅓㄴㄱㅗㅇ -12717
▁ㅋㅣㅁㅜㄹㅏ -12718
▁169 -12719
▁ㅅㅏㅇㅣㅂㅗㄱㅡ -12720
▁ㅂㅏㄷㅊㅣ -12721
▁ㅇㅛㅇㄱㅏㅁ -12722
▁` -12723
▁ㄱㅕㅇㅂㅜ -12724
▁ㅇㅡㅇㅎㅏ -12725
▁ㄷㅓㅎㅏ -12726
▁ㅇㅗㅋㅔㅅㅡㅌㅡㄹㅏ -12727
▁ㄷㅡㅇㄱㅛ -12728
▁ㅈㅓㅅㅓ -12729
▁ㅇㅕㄴㅂㅏㄹ -12730
▁ㄱㅗㄷㅡㄴ -12731
▁ㄴㅚㅁㅜㄹ -12732
▁ㅁㅜㅅㅏㅅㅣ -12733
▁man -12734
ㅋㅜㅅㅡ -12735
▁ㄷㅗㅊㅓㅇ -12736
▁ㅁㅏㅊㅡㅁ -12737
▁1800 -12738
▁ㅌㅜㄴㅣ -12739
▁ㅅㅏㄴㅊㅐㄱ -12740
▁ㄹㅔㅇㅣㄴㅏ -12741
▁ㅅㅏㅅㅡㅋㅔ -12742
ㅈㅏㅇㅇㅣ -12743
▁ㄱㅣㅁㅁㅕㅇ -12744
▁ㅂㅏㅈㅜ -12745
▁ㄱㅜㄱㅡㅂ -12746
▁ㄱㅕㅇㅈㅐㅇㅈㅏ -12747
▁gr -12748
▁ㅈㅓㄴㅅㅗㄱ -12749
▁ㅎㅏㄴㅌㅏㄴ -12750
▁ㅍㅡㄹㅗㅇㅣ -12751
▁ㅋㅗㅇㅛ -12752
▁ㅊㅓㄴㄷㅜㅇ -12753
▁ㅅㅗㅈㅓㄹ -12754
itch -12755
▁ㄷㅏㄴㅅㅗㄱ -12756
▁ㄹㅣㅂㅅㅡ -12757
ㄱㅘㄴㅊㅗㅇ -12758
▁ㅋㅗㄷㅏ -12759
▁ㅅㅒㄷㅗ -12760
▁ㄷㅗㅁㅣㄴ -12761
ㅋㅔㄹ -12762
ㄹㅗㅇㅜ -12763
▁ㄷㅣㅍㅔㄴㅅㅡ -12764
tr -12765
▁ㅂㅓㄴㅌㅡ -12766
ㅜㄹㅡㅌㅡ -12767
▁ㅇㅕㅇㅈㅣㄴ -12768
▁ㅇㅘㅇㅣㅇㅓ -12769
▁but -12770
▁ㅂㅔㅇㅣㄷㅓ -12771
▁ㅋㅓㅂㅣ -12772
▁1944 -12773
▁ㅅㅜㅇㅏ -12774
▁ㅇㅏㅌㅗ -12775
▁ㄲㅗㅈㅎㅣ -12776
▁ㄷㅗㄹㅇㅣ -12777
reen -12778
▁GR -12779
ㅗㄷㅡ -12780
▁ㅇㅓㅍㅓ -12781
▁ㅌㅔㄹㅜ -12782
▁ㅂㅔㅇㅣㄴ -12783
▁ㅈㅏㅁㅈㅐㄹㅕㄱ -12784
ㅜㅇㅔㄹ -12785
▁ㅇㅚㄹㅗㅂ -12786
== -12787
▁ㅇㅓㅁㅣ -12788
▁Res -12789
▁Power -12790
▁1940 -12791
▁ㅅㅜㅇㅛㅇㅅㅗ -12792
▁ㄴㄷㅏㄷㅓㄴㄱㅏ -12793
▁ㅅㅣㄴㅈㅗㅇ -12794
▁Leg -12795
▁Af -12796
▁ㅇㅏㄴㅂㅗ -12797
▁ㄹㅗㅈㅓㅅㅡ -12798
attle -12799
▁ㅈㅜㅎㅘㅇㅅㅐㄱ -12800
▁ㄱㅡㅂㄱㅣ -12801
▁ㅇㅜㅅㅡㅂ -12802
▁ㅈㅐㅅㅏㅇㅛㅇ -12803
▁ㄱㅟㅎㅏ -12804
ㄴㅗㅅㅡㅋㅔ -12805
▁ㅅㅜㄱㅇㅣ -12806
▁ㅈㅓㅇㅈㅜㅇ -12807
inn -12808
ㅌㅗㄹㅗㄱ -12809
ㅎㅞ -12810
ㅍㅓㅎㅏ -12811
▁ㅊㅏㅇㅛㅇ -12812
▁ㅍㅔㅇㅣㅌㅡ -12813
▁ㅅㅡㄹㅍㅓㅎㅏ -12814
▁ㅂㅓㅂㅇㅏㄴ -12815
▁ㅂㅗㄹㅌㅔㄱㅅㅡ -12816
ㅐㅅㅣㄴ -12817
▁ㄱㅕㄹㅅㅏ -12818
ㅇㅓㅇㅗㄹㅡ -12819
▁ㅅㅏㅅㅏ -12820
▁ㄴㅏㅁㅈㅏㄱ -12821
▁ㅎㅐㅇㅂㅏㅇㅂㅜㄹㅁㅕㅇ -12822
▁ㅈㅔㄷㅏㅇㅣ -12823
▁ㅅㅐㅇㅜ -12824
▁ㅇㅏㄲㅏ -12825
▁ㅊㅓㅈㅓㄹ -12826
▁ㅇㅡㄴㅎㅖ -12827
▁Hard -12828
▁ㅂㅐㅅㅏㅇ -12829
▁ㅇㅑㅇㄱㅜㄱ -12830
▁ㅊㅜㅈㅓㄱㅈㅏ -12831
▁RC -12832
▁ㄱㅛㄱㅘㄴ -12833
▁ㅈㅗㄹㅕㄱㅈㅏ -12834
▁MR -12835
▁ㅅㅗㅇㅊㅜㄹ -12836
▁ㅁㅏㅇㅛ -12837
▁ㄹㅣㅈㅓㄴ -12838
▁ㄴㅐㅅㅕㄴㅓㄹ -12839
▁ㅇㅕㅇㄴㅏㅁ -12840
▁ㅇㅝㄹㄱㅡㅂ -12841
▁ㅋㅗㄹㄹㅗㄴ -12842
▁Pv -12843
▁ㄹㅔㅇㅣㅌㅡ -12844
▁ㅇㅕㄹㅇㅏㄱ -12845
▁ㅈㅏㅍㅏㄴ -12846
▁ㄸㅏㄱㄸㅏㄱ -12847
▁ㅎㅣㅌㅗㅁㅣ -12848
▁ㅎㅗㄱㅅㅏ -12849
▁ㅈㅓㅂㅈㅓㅁ -12850
▁ㅊㅓㅇㅇㅝㄴ -12851
▁ㄸㅏㄹㅏㄷㅏㄴㅣ -12852
ㅁㅐㅅ -12853
ㅁㅗㅅㅁㅣ -12854
▁ㄱㅓㅅㅡㄹㅡ -12855
▁ㄹㅓㄴㄴㅣㅇ -12856
▁ㅈㅣㅁㅗㅅㅁㅣ -12857
▁ㅅㅜㅎㅏ -12858
▁ㄱㅏㅁㅎㅣ -12859
▁ㅈㅏㅇㅈㅔㅅㅡ -12860
ㅓㅁㄱㅣ -12861
▁ㄱㅗㅅㅏㄴ -12862
▁ㄴㅓㄼㅎㅣ -12863
▁ㅎㅣㄹㅗㅇ -12864
▁UI -12865
▁ㅈㅓㅅㅏㅇ -12866
▁ㄱㅗㅇㅇㅑㄱ -12867
▁ㄹㅏㄱㅜ -12868
▁ㅈㅓㄴㅅㅏㄴ -12869
▁ㅂㅣㅈㅏㅇ -12870
▁ㄴㅐㅇㄱㅏㄱ -12871
▁ㄷㅏㄷㅎㅣ -12872
▁ㅈㅜㄴㄱㅕㄹㅅㅡㅇ -12873
▁ARM -12874
▁ㅇㅝㄴㅏㄱㅇㅔ -12875
▁ㅁㅏㅇㅜㄴㄷㅡ -12876
▁ㅊㅐㅈㅣㅂ -12877
▁ㄱㅕㅇㅅㅓㄴ -12878
▁ㅅㅜㅂㅗㄱ -12879
▁ㅈㅣㄱㄱㅕㄹ -12880
▁Ma -12881
▁Sing -12882
▁ㄹㅣㅌㅣ -12883
▁ㅋㅏㅈㅡㅁㅏ -12884
▁ㅍㅕㄴㅇㅏㄴ -12885
▁ㅋㅏㄹㅡㄹㄹㅗㅅㅡ -12886
▁Che -12887
▁ㅂㅐㄱㅣ -12888
▁ㄱㅏㅁㅣ -12889
▁ㅆㅙㄱㅣ -12890
▁ㅇㅕㅈㅓㅇ -12891
▁ㄴㅗㄹㅕㅂㅗ -12892
▁ㅇㅓㅆㅐㅅㅣㄴ -12893
ㄷㅜㅅㅏ -12894
▁ㅈㅜㄱㅓ -12895
▁ㄹㅣㅈㅗ -12896
▁ㅊㅜㄹㄱㅡㄴ -12897
▁ㅊㅜㄹㅈㅜㅇ -12898
ㅈㅣㅇㅇㅓ -12899
75 -12900
▁Life -12901
▁ㅋㅔㄹㄹㅣ -12902
ern -12903
▁ㅈㅣㄴㅎㅐㅇㅈㅏ -12904
▁co -12905
▁ㄱㅜㄷㅜ -12906
▁ㄷㅗㅇㅇㅛ -12907
▁ㅂㅗㅇㅣㅇ -12908
ㅣㅇㅘ -12909
XT -12910
▁ㄱㅣㅂㅗㄱ -12911
▁ㅁㅣㅋㅗㅌㅗ -12912
▁ㅈㅜㄴㄱㅗㅇ -12913
▁ㄱㅗㅇㄱㅘ -12914
▁ㅂㅡㄹㄹㅐㅅㅡㅌㅡ -12915
▁ㅈㅔㅇㅝㄴ -12916
▁Master -12917
▁ㅅㅛㄴ -12918
▁ㅇㅡㅇㅇㅝㄴㄱㅏ -12919
▁ㅉㅗㄱㅐ -12920
TC -12921
▁ADV -12922
▁ㅈㅣㅂㅇㅓ -12923
▁ㄱㅏㅎㅗ -12924
▁ㄷㅗㄱㅅㅓ -12925
▁ㅇㅣㅋㅜ -12926
ars -12927
▁ㄱㅣㅁㄷㅜㅎㅏㄴ -12928
ㅊㅣㅇㅏ -12929
▁ㄷㅏㅋㅏ -12930
▁ㅂㅏㄴㅣ -12931
▁ㅇㅕㄱㅝㄴ -12932
▁ㅈㅜㄱㅗㅂㅏㄷ -12933
▁ㅅㅣㄹㅈㅓㅇ -12934
▁ㅁㅜㅎㅛㅎㅘ -12935
▁ㅈㅓㅇㅎㅘㄱㄷㅗ -12936
▁ㅈㅓㄹㅣ -12937
▁im -12938
▁ㅁㅜㅂㅣㅇ -12939
▁ㄴㅏㄷㅡㄹ -12940
▁Rem -12941
▁ㅎㅗㄱㅣㅅㅣㅁ -12942
ㅈㅜㄴㅍㅛ -12943
▁ㅈㅓㄴㄷㅜㅎㅘㄴ -12944
▁ㅍㅣㅊㅣ -12945
▁ㅅㅓㄹㅎㅘ -12946
▁ㅂㅜㄹㅓㅂ -12947
▁ㅅㅡㅋㅗㅅ -12948
ㅏㄵ -12949
▁ㅅㅗㄹㄹㅣ -12950
▁ㅈㅓㄴㅅㅔ -12951
▁ㅌㅠㄴㅣㅇ -12952
▁ㅋㅗㅍㅏ -12953
▁ㄴㅏㄷㅡㄹㅁㅗㄱ -12954
▁VOCALOID -12955
▁ㅌㅏㄹㄷㅏㅇ -12956
asy -12957
▁ㅇㅖㅇㅓㄴㅈㅏ -12958
▁ㅎㅘㄴㅏ -12959
▁ㄱㅘㅇㅌㅏㄹ -12960
▁ㅂㅜㄹㅅㅣㄴ -12961
▁ㅎㅠㄱㅔㅅㅗ -12962
▁ㅈㅣㅇㅈㅣㅇ -12963
to -12964
▁LCK -12965
ㄹㅜㅇㅠㄹ -12966
▁ㅊㅜㄹㄹㅜㅇㅠㄹ -12967
▁Lo -12968
ㅊㅗㅇㄹㅣ -12969
▁ㅇㅣㄹㅇㅓㅅㅓ -12970
rain -12971
▁ㄷㅗㅇㅌㅏㄱ -12972
▁ㅎㅔㅁㅐ -12973
▁ㄹㅓㅅㅣㅇㅏㅇㅓ -12974
▁ㅂㅏㄴㄷㅐㅍㅕㄴ -12975
▁ㅎㅕㅇㅍㅕㄴㅇㅓㅄ -12976
▁ㄷㅔㅇㅜㅅㅡ -12977
▁Fem -12978
▁ㅅㅣㄱㅏㅈㅣ -12979
ㅅㅗㅁㅜㄴ -12980
▁ㅇㅝㄴㅎㅘㄹ -12981
▁ㅇㅑㅅㅣㅁ -12982
▁ㄷㅗㅇㅊㅔ -12983
▁ㅅㅏㅊㅜㄹ -12984
▁ㅁㅣㄴㅈㅓㅇ -12985
IE -12986
▁ㄹㅡㅇ -12987
▁1930 -12988
ㅎㅕㄴㅈㅣㄴ -12989
▁ㅂㅠㅌㅣ -12990
▁ㄴㅔㅇㅣㅌㅡ -12991
▁ㄷㅏㅇㅊㅓㅁ -12992
ㅍㅏㅋㅡ -12993
▁Out -12994
▁ㅍㅗㅅ -12995
▁ㅋㅏㅇㅗㄹㅣ -12996
▁ㄷㅏㅈㅣㅁ -12997
UE -12998
▁ㅂㅜㅎㅡㅇ -12999
▁ㅊㅜㅇㅊㅓㅇㅂㅜㄱㄷㅗ -13000
▁ㅅㅡㅍㅓ -13001
▁ㅇㅣㅂㅕㄴ -13002
▁ㅅㅏㅇㅏㄴ -13003
▁ㅍㅣㄱㅇㅓㅂ -13004
▁ㅌㅔㅇㅣㄹㄹㅓ -13005
▁ㄷㅓㅇㅜㄱㅇㅣ -13006
▁ㅈㅡㅇㄱㅣ -13007
ana -13008
ㅈㅜㄱㅜㄴ -13009
▁ㅅㅣㄹㅁㅕㅇ -13010
▁ㅇㅕㄹㄷㅡㅇ -13011
▁ㅂㅜㄷㅏㅇ -13012
▁ㄱㅛㅎㅑㅇ -13013
▁ㄱㅡㄴㅅㅓㅇ -13014
ㄴㅓ -13015
▁ㄷㅐㄴㅅㅓ -13016
▁ㅁㅐㅊㅣㅇ -13017
▁ㅁㅟ -13018
ㅅㅣㅁㅈㅏㅇ -13019
ㅜㄴㅗ -13020
▁ㅅㅠㅌㅏㅇㅣㄴ -13021
▁ㅌㅔㅁㅍㅡㄹ -13022
▁ㅇㅗㅅㅣ -13023
▁ㅊㅔㄹㅣ -13024
▁ㄴㅗㅇㅎㅕㅂ -13025
▁ㄹㅔㅈㅡ -13026
▁ㅇㅛㅅㅣㄴㅗ -13027
▁ㅊㅏㅇㅂㅕㅇ -13028
▁ㅈㅏㅊㅓ -13029
▁ㅋㅏㄴㅗ -13030
▁ㄴㅡㅈㅊㅜ -13031
▁ㅁㅜㄹㅣㅁ -13032
▁ㅁㅐㅊㅜㄹㅇㅐㄱ -13033
▁OPS -13034
▁ㅊㅏㅎㅜ -13035
▁ㄱㅕㅇㅂㅗ -13036
ㅏㅈㅣㅁㅏ -13037
▁ㅇㅣㄹㅈㅓㄹ -13038
ㅁㅏㅊㅣ -13039
ㅊㅏㄹㅖ -13040
ㅁㅏㅊㅣㅁ -13041
▁ㅃㅗㅁㄴㅐ -13042
▁ㄱㅞㅈㅓㄱ -13043
▁ㅍㅗㅌㅡㄹㅣㅅㅡ -13044
▁ㅅㅏㅇㅇㅛㅇ -13045
▁ㅁㅣㅌㅣ -13046
▁ㅅㅓㅈㅣ -13047
▁OB -13048
▁ㅍㅗㅁㅐㅅ -13049
▁151 -13050
▁ㄱㅡㅁㅎㅘ -13051
cl -13052
▁ㅁㅏㅊㅏ -13053
ㅏㅇㅣㅂㅡ -13054
ㄲㅜㅁ -13055
▁ㅈㅏㅎㅚㅅㅏ -13056
▁ㄱㅏㄴㅅㅓㄴ -13057
▁ㅅㅡㄹㄹㅣ -13058
ield -13059
▁ㅁㅏㅇㄱㅏ -13060
▁ㄱㅜㄷㅏㄴㅈㅜ -13061
▁ㅎㅏㄴㄷㅗ -13062
▁ㅊㅣㄴㅈㅓㅇ -13063
▁ㅁㅗㄱㅈㅓㄱㅈㅣ -13064
▁ㅁㅐㄷㅏㄹ -13065
▁ㅇㅗㅅㅔ -13066
▁ㅍㅓㅂㅡㄹ -13067
▁ㄷㅡㄱㅈㅓㅁㅈㅏ -13068
▁ㄸㅐㅁㅏㅊㅣㅁ -13069
ㅁㅣㅇㅏㄴ -13070
▁999 -13071
▁ㅁㅜㄴㄱㅗ -13072
▁ㄷㅓㅂㅣ -13073
▁ㅁㅗㅂㅓㅁ -13074
▁ㅎㅓㄱㅗㅇ -13075
▁ㅇㅓㄹㅣㅅㅓㄱ -13076
▁ㅎㅏㄱㅅㅜㄹ -13077
▁ㅋㅗㅇㅏ -13078
▁ㅇㅠㅂㅏㅇ -13079
ㅖㄹ -13080
▁ㅂㅏㄷㅏㅅ -13081
ㅇㅣㅊㅣㄹㅗ -13082
▁ㅅㅣㅇㅔㄹ -13083
▁ㅇㅏㄷㅔㄹ -13084
24 -13085
ㅋㅡㄹㅣㅌㅡ -13086
▁ㅇㅣㅌㅓㄴ -13087
▁End -13088
▁ㄱㅚㄹㅣ -13089
▁ㅈㅜㄴㅎㅏ -13090
▁256 -13091
▁ㄹㅗㄷㅣㅇ -13092
riend -13093
▁ㅈㅣㄱㅡㄱㅎㅣ -13094
▁ㅊㅔㅇㅣ -13095
▁ㅋㅏㅇㅔ -13096
▁POP -13097
▁Hell -13098
▁ㅁㅜㄴㅇㅓ -13099
▁ㅅㅣㄴㅋㅏㄴ -13100
▁ㄱㅗㅇㅛ -13101
▁ㅅㅓㅇㅇㅕㄱ -13102
▁ㅇㅣㅇㅡㄴ -13103
▁ㅈㅜㅇㅈㅓㄴㅊㅏ -13104
▁ㅇㅣㄴㅂㅔㄴㅌㅗㄹㅣ -13105
▁ㄱㅜㄴㅂㅗㄱ -13106
▁ㄹㅣㅂㅔㄹ -13107
▁ㅅㅔㄴㅏ -13108
ㅗㅁㅣㅇㅑ -13109
▁ㅇㅐㄴㄷㅡㄹ -13110
▁ㅌㅐㅁ -13111
ㄷㅐㄱㅣ -13112
▁ㅍㅏㄹㅉㅣ -13113
▁ㅇㅠㄴㅏㄴㅎㅣ -13114
atic -13115
▁ㅋㅗㅌㅏㄹㅗ -13116
▁ㅅㅣㄴㅈㅗ -13117
▁ㅅㅏㄱㅡㄱ -13118
▁ㄲㅐㅇㅍㅏㄴ -13119
▁ㅇㅏㅇㅣㄹㅣㅅㅡ -13120
▁1964 -13121
▁ㄱㅛㄱㅏㅁ -13122
▁ㄷㅗㅇㄱㅏㅂ -13123
▁1965 -13124
▁just -13125
▁ㅊㅗㅅㅓㄴ -13126
▁ㅈㅣㅈㅜ -13127
▁Fi -13128
▁ㅅㅜㅎㅓㅁ -13129
ㅋㅡㄹㄹㅓㅂ -13130
▁ㅅㅡㅌㅏㅌㅣㅇ -13131
ㅈㅣㅇㅏㄶ -13132
▁ㅋㅡㄹㅣㅇ -13133
▁ㅂㅜㄷㅐㅇㅝㄴ -13134
▁ㅈㅣㅍㅛ -13135
▁ㅍㅣㄹㅇㅕㄴ -13136
▁ㅇㅣㅇㅛㅇㅎㅐ -13137
▁ㅁㅗㅅㅈㅣㅇㅏㄶ -13138
▁ㅈㅏㄹㅣㅁ -13139
▁ㅅㅜㅅㅣㄱ -13140
▁ㅇㅏㅇㅣㅇㅓㄴㅁㅐㄴ -13141
▁ㄱㅣㅁㅇㅣㄹㅅㅓㅇ -13142
▁ㅇㅏㄴㅅㅓㅇ -13143
▁ㅆㅜㄱ -13144
▁ㅅㅣㄴㅋㅏㄴㅅㅔㄴ -13145
▁ㅈㅏㄴㄷㅣ -13146
▁ㅎㅏㅁㅍㅗ -13147
▁ㅎㅗㄹㅗ -13148
▁ㅂㅓㅂㅎㅏㄱ -13149
▁ㅅㅣㅅㅡㅌㅓ -13150
▁"" -13151
▁ㅊㅜㅇㅂㅜㄱ -13152
▁ㅇㅏㅁㅗㄴ -13153
▁ㅎㅘㄱㄹㅣㅂ -13154
▁ㅎㅟㅂㅆㅏㅇㅣ -13155
▁PVP -13156
▁Miss -13157
ㅜㄱㅅㅡ -13158
▁ㄴㅗㄱㅣ -13159
33 -13160
▁ㅂㅐㅇㅕㄹ -13161
▁ㄱㅏㄸㅡㄱ -13162
▁sc -13163
ittle -13164
▁ㅇㅐㄱㅛ -13165
▁ㅊㅓㄴㅈㅜㄱㅛ -13166
▁ㅂㅣㄱㅌㅗㄹㅡ -13167
▁ㅅㅛㅅ -13168
▁ㅁㅏㅊㅡㅇ -13169
▁ㅂㅗㄴㅅㅓㅇ -13170
▁ㅇㅕㅅㅂㅗ -13171
▁ㅋㅓㅁㅓㄴ -13172
▁ㅈㅓㄹㄱㅠ -13173
▁ㅂㅏㄹㅇㅏㄱ -13174
▁ㅇㅑㅁㅏㄱㅜㅊㅣ -13175
▁ㅈㅓㅇㄷㅗㅇ -13176
▁ㅋㅝㄹㅋㅓㅁ -13177
▁ㄱㅜㅈㅓㄹ -13178
ㅎㅡㅁ -13179
▁ㅌㅐㅈㅏ -13180
▁ㅅㅓㄴㅇㅜ -13181
▁Air -13182
▁ㅌㅗㄹㅗ -13183
▁night -13184
▁ㅅㅜㄴㄱㅛ -13185
▁ㅂㅏㄴㄱㅏㅂ -13186
▁q -13187
▁ㅂㅜㅎㅗ -13188
▁ㅅㅡㅋㅐㄴㄷㅡㄹ -13189
▁SG -13190
▁ㄱㅐㄱㅐㅇㅣㄴ -13191
▁ㅈㅣㅂㅈㅜㅇㄹㅕㄱ -13192
▁ㄷㅗㅇㅈㅣ -13193
▁what -13194
▁ㄷㅏㄹㄱ -13195
▁ㄱㅛㅈㅣㄱ -13196
▁ㅎㅑㅇㄱㅣ -13197
▁ㅇㅞㅇㅓ -13198
▁ㄱㅏㄸㅡㄱㅇㅣㄴㅏ -13199
▁ㄷㅐㅂㅓㅂㅇㅝㄴ -13200
▁6000 -13201
▁ㅇㅕㅇㄷㅗㅇ -13202
▁ㅇㅐㅅㅣ -13203
▁ㅋㅏㅅㅡㅁㅣ -13204
LS -13205
▁ㅈㅗㅍㅗㄱ -13206
▁ㅇㅔㅇㅣㄹㄹㅣㅇㅓㄴ -13207
▁ㅂㅏㄴㅎㅏㅇ -13208
ㅍㅏㄹㅣ -13209
▁ㅋㅜㅅㅣ -13210
▁ㅈㅜㅇㄱㅕㄴㅅㅜ -13211
▁ㅅㅓㄹㅂㅣ -13212
▁ㄹㅓㅁㅂㅡㄹ -13213
▁ㅂㅜㄹㄹㅗ -13214
▁ㅍㅏㄹㄹㅏㄷㅣㄴ -13215
▁ㅍㅗㅌㅗ -13216
▁Vo -13217
▁ㅎㅜㅇㅖ -13218
▁ㅇㅣㅊㅣㄱㅗ -13219
▁ㅋㅡㄹㅣㅅㅡㅌㅣㅇ -13220
▁380 -13221
▁ㅇㅕㄴㄱㅜㅅㅣㄹ -13222
▁ㅇㅏㅎㅗㅂ -13223
▁ㅇㅗㅈㅣㅇㅇㅓ -13224
▁ㅅㅓㅈㅓㅇ -13225
▁ㄱㅏㄱㅡㅂㅈㅓㄱ -13226
▁ㅇㅣㄹㅂㅗㄴㅅㅣㄱ -13227
▁ㅇㅏㄱㄹㅏㄹ -13228
▁ㅇㅐㄱㅅㅔㄹ -13229
▁Hy -13230
▁ㄹㅐㄴㅌㅓㄴ -13231
▁ㅇㅕㄱㅂㅕㅇ -13232
▁ㅈㅣㄱㅇㅕㄱ -13233
▁ㅎㅏㄱㅂㅓㄴ -13234
▁ㅊㅗㄷㅏㅇ -13235
▁ㅅㅡㅌㅏㅋㅡ -13236
▁ㅅㅣㄴㅎㅡㅇ -13237
▁VR -13238
▁ㅇㅙㄴㅁㅏㄴ -13239
▁ㅋㅜㅍㅏ -13240
▁ㅅㅗㄱㅏㅁ -13241
▁ㅅㅗㄷㅗㅇ -13242
▁Mod -13243
▁ㅊㅜㄹㅁㅗㄹ -13244
ㅂㅡㄹㄹㅣㅅ -13245
▁ㅂㅏㅈㅜㅋㅏ -13246
▁ㅎㅏㅂㅣ -13247
▁ㅇㅣㅇㅑㅁㅏㄹㄹㅗ -13248
▁ㅈㅣㄱㄱㅜ -13249
▁ㅋㅡㄹㄹㅔㅇㅓ -13250
▁EMP -13251
▁ㄱㅜㄱㅅㅏㄴ -13252
▁ㅂㅗㄹㄹㅠㅁ -13253
▁ㅈㅏㅋㅡ -13254
▁ㅇㅑㄷㅡ -13255
▁ㄱㅗㅍㅗㄱㅌㅏㄴ -13256
ㅐㅅㅟ -13257
▁ㅇㅣㅁㅇㅝㄴ -13258
▁ㄴㅔㄱㅅㅡㄴ -13259
▁1920 -13260
▁ㅅㅑㅋㅡ -13261
▁ㅍㅔㄱㅏ -13262
▁ㄱㅔㄹㅣㄹㄹㅏ -13263
▁ㅅㅓㄹㄱㅖㄷㅗ -13264
▁ㄷㅠㅋㅡ -13265
▁ㅍㅐㅁㅣ -13266
▁ㅊㅏㄱㅘㄴ -13267
▁ㅅㅓㅇㅎㅕㅇ -13268
ㅆㅗㄹ -13269
▁ㄱㅏㅇㅎㅐㅇ -13270
▁ㄷㅐㅇㅢ -13271
▁ㅍㅔㄹㄹㅣ -13272
▁ㅇㅑㅇㅊㅡㄱ -13273
▁ㅈㅡㄱㄱㅏㄱ -13274
▁ㅆㅗㄹㅆㅗㄹ -13275
▁ㅌㅗㅇㅗㄹㅜ -13276
ㄱㅗㅇㅅㅏ -13277
ㄷㅓㅍ -13278
ㅋㅡㄹㄹㅣ -13279
▁ㅍㅔㄹㅡㄴㅏㄴ -13280
28 -13281
▁ㄴㅗㅇㅔㄹ -13282
▁ㅅㅔㅅㅔ -13283
▁YOU -13284
▁ㅅㅡㅇㄹㅕ -13285
▁ㄹㅏㅌㅣㄴㅇㅓ -13286
▁ㅅㅏㅇㅊㅔ -13287
▁Di -13288
▁MT -13289
▁ㅈㅏㅈㅜㅍㅗ -13290
▁ㅊㅏㅅㅓㄴ -13291
▁ㄸㅏㄷㅗㄹㄹㅣ -13292
▁ㅈㅓㅂㄱㅡㄴㅅㅓㅇ -13293
▁ㄱㅏㅇㅍㅏㄴ -13294
▁ㅈㅓㄴㅍㅗㄱ -13295
▁ㅁㅜㅈㅓㄴ -13296
▁ㅎㅏㄴㅅㅣㅁ -13297
▁ㅇㅏㅍㅡㄱㅏㄴ -13298
▁ㄹㅜㅋㅣ -13299
▁ㅅㅗㅁㅐ -13300
▁ㅋㅡㄹㅗㅇ -13301
▁ㅁㅣㅅㅡㅌㅡ -13302
ㅔㅇㅣㄷㅗ -13303
▁ㅁㅏㄷㅗㅅㅏ -13304
ㅅㅗㄹㄹㅣㄴ -13305
▁ㅍㅐㄱㅣ -13306
▁ㅍㅓㅂㅜ -13307
▁King -13308
▁ㅅㅏㅇㄱㅏ -13309
▁Sy -13310
▁ㅅㅜㄹㅏㄱ -13311
▁ㄱㅏㄹㅡㅊㅣㅁ -13312
▁ㅈㅏㅅㅣㄴㄱㅏㅁ -13313
▁ㅇㅕㄴㅂㅣ -13314
▁ㅈㅗㅇㅕㅇ -13315
ㄷㅗㅇㅇㅝㄴ -13316
▁ㅇㅖㅈㅏㅇ -13317
▁Ang -13318
▁ㄷㅡㄹㅏㄱㅜㄴ -13319
▁ㅅㅜㅅㅏㅇㅈㅏ -13320
▁ㄱㅗㅇㅅㅏㄴㅈㅜㅇㅢ -13321
ㅠㅁㅗ -13322
▁ㅌㅐㅇㅕㄴ -13323
▁ㅅㅏㄹㅍㅣ -13324
▁ㅊㅗㅇㅌㅏㄴ -13325
▁XXX -13326
▁ㅈㅔㄴㅓㄹ -13327
▁ㅊㅚㅇㅕㅇ -13328
▁ㄴㅗㅈㅗㅁㅣ -13329
▁ㅅㅗㄱㅠㅁㅗ -13330
▁ㄴㅐㅅㅜ -13331
▁ㅇㅝㄴㅓ -13332
▁ㄱㅣㅅㅓㅇ -13333
▁ㅇㅗㅇㅣㄴ -13334
ㅏㄱㅅㅣ -13335
▁EA -13336
▁ㄴㅗㅇㅣㅈㅡ -13337
▁ㅌㅏㅋㅔㅅㅣ -13338
▁ㅈㅏㅇㅣ -13339
▁ㅈㅣㄴㄹㅛ -13340
ㅋㅏㄴㅏ -13341
▁ㅂㅣㅇㅛ -13342
▁ㅁㅏㅇㅔㄷㅏ -13343
▁ㄱㅓㄴㅈㅐ -13344
▁ㅇㅏㄱㅇㅛㅇ -13345
▁ㅍㅏㅇㅣㅂㅡ -13346
▁ㅇㅗㄹㅗㄹㅏ -13347
▁ㅅㅡㅇㅊㅓㄴ -13348
▁ㅊㅡㄴㅏ -13349
▁ㅇㅛㅇㅁㅐㅇ -13350
▁ㅈㅓㄱㅈㅣㄴ -13351
ony -13352
▁tvN -13353
▁ㅁㅐㅅㅡ -13354
ㅅㅜㅁㅇㅔ -13355
▁ㄷㅏㄴㅅㅜㅁㅇㅔ -13356
▁ㅊㅐㄹㄹㅣㄴㅈㅓ -13357
▁IG -13358
▁ㅎㅗㅋㅜ -13359
▁ㅊㅓㅁㄷㅏㄴ -13360
▁ㄷㅗㅇㅛ -13361
▁ㅂㅣㄴㅅㅏ -13362
▁ㄴㅏㅁㄷㅗㅇ -13363
▁ㅈㅓㄴㄹㅣ -13364
▁ㅁㅣㄹㅈㅣㅂ -13365
▁ㅂㅏㄱㄱㅕㄱ -13366
▁ㄱㅘㅇㅅㅣㄴ -13367
▁ㅁㅓㄱㅂㅏㅇ -13368
▁ㅇㅣㅇㅏ -13369
▁ㅎㅓㅇㅟ -13370
▁ㅇㅕㅈㅜ -13371
▁ㅅㅡㅍㅡㄹㄹ -13372
▁ㅂㅏㅂㅣ -13373
▁ㅊㅗㅅㅏ -13374
▁ㅌㅚㅊㅜㄹ -13375
▁0000 -13376
▁ㅋㅡㄹㅜㅈㅡ -13377
▁ㅅㅜㄱㅗ -13378
▁ㅇㅣㄴㅌㅓㅍㅔㅇㅣㅅㅡ -13379
ㄱㅗㄹㅐ -13380
▁ㅋㅏㅌㅏㄹㅡ -13381
▁ㅌㅏㄱㅜㄱ -13382
▁ㅎㅡㄹㄹㅓㄴ -13383
ㅋㅠㄹㄹㅏ -13384
▁UFC -13385
▁ㅅㅐㅇㅅㅏㄴㄹㅕㄱ -13386
▁ㅌㅚㅅㅏ -13387
ㅍㅗㄷㅡ -13388
ㅜㄱㅏㅇㅘ -13389
▁ㅋㅏㅁㅜㅇㅣ -13390
▁ㄷㅗㅇㅇㅣㄴㅈㅣ -13391
▁ㅅㅔㅋㅣ -13392
▁ㅅㅓㅋㅣㅅ -13393
▁ㅅㅜㅂㅣㅈㅣㄴ -13394
▁ㅌㅏㄴㅗㅅㅡ -13395
▁ㅇㅜㄴㅇㅜㄴ -13396
ㅏㅁㅔ -13397
▁ㄱㅣㄹㄷㅡㄹㅇㅣ -13398
ㅇㅑㅅㅡ -13399
mania -13400
▁ㅅㅏㅅㅏㅋㅣ -13401
▁ㄱㅗㅇㅏ -13402
▁ㅇㅏㄴㅅㅏㄴ -13403
▁ㅋㅏㄹㅣㄴ -13404
▁ㅅㅡㅍㅣㅋㅓ -13405
▁ㄷㅐㅅㅏㅇㅈㅏ -13406
▁ㅂㅏㅇㅣㅇㅗㄹㄹㅣㄴ -13407
▁STER -13408
ㅊㅡㄴㅏ -13409
▁ㅅㅗㄱㅡㄱ -13410
▁ㅇㅝㄴㅈㅏ -13411
ma -13412
▁ㅇㅝㄴㄴㅐ -13413
▁ㅇㅡㄴㅁㅣㄹ -13414
▁ㅅㅣㄹㅎㅘㅇ -13415
▁ㅊㅗㅇㄱㅕㄱ -13416
ㅁㅠㅈㅣㄱ -13417
▁ㅈㅜㅂㅏㅇ -13418
▁ㅅㅓㄴㅈㅔㄱㅗㄹ -13419
▁ㄷㅡㄹㅏㅋㅠㄹㄹㅏ -13420
▁ㅂㅕㄴㅈㅣㄹ -13421
▁ㄷㅐㄷㅐㄹㅗ -13422
▁ㅂㅗㅈㅡㅇ -13423
▁ㅍㅡㄹㅐㅇ -13424
▁ㅇㅏㄴㅁㅕㄴ -13425
▁ㄹㅜㄹㅣ -13426
▁ㅁㅏㄴㄹㅛ -13427
▁ㅈㅐㅇㅟ -13428
▁ㅇㅣㅁㅊㅏㅇ -13429
▁ㅈㅐㄴㅏㄴ -13430
▁ㅇㅗㅂㅌㅣㅁ -13431
▁ㄹㅣㅇㅜ -13432
▁ㅈㅓㄱㅕㄱㅊㅗㅇ -13433
▁ㅁㅣㅂ -13434
ㅋㅜㄹㅗ -13435
▁ㅈㅏㅇㅕㄴㅅㅜ -13436
▁ㄹㅣㅁㅏ -13437
▁ㅇㅣㅅㅓㄴ -13438
▁ㄷㅐㅊㅜㄹ -13439
▁ㅇㅠㅌㅗ -13440
▁ㅇㅏㅇㅣㅈㅏㄱ -13441
▁ㅌㅡㄹㅗㅇㅣ -13442
▁ㅌㅜㅎㅏ -13443
▁ㄷㅓㅊ -13444
▁Cy -13445
▁ㅎㅏㄱㅎㅚ -13446
▁ㄱㅔㄹㅣㅇㅗㄴ -13447
▁ㅋㅏㅈㅣㄴㅗ -13448
▁ㅇㅣㄴㅗㅇ -13449
▁ㄴㅏㄱㅇㅣㄴ -13450
▁ㅇㅣㄹㅈㅣㄴ -13451
▁ㅁㅓㄹㅉㅓㅇㅎㅣ -13452
▁ㅌㅐㅅㅔ -13453
▁Run -13454
▁ㅂㅏㅇㄱㅡㅁ -13455
▁1600 -13456
▁ㄱㅘㄴㄷㅗㅇ -13457
▁ㅅㅖㄹ -13458
▁ㅅㅗㅇㅛㅇㄷㅗㄹㅇㅣ -13459
ㄷㅏㄴㅊㅔ -13460
▁ㅇㅞㅇㅣㄹ -13461
▁ㅅㅑㅍㅡ -13462
▁ㅂㅓㄱㅅㅡ -13463
▁ㅊㅓㄴㄱㅖ -13464
▁IDOL -13465
▁ㅍㅗㄹㅓㅁ -13466
▁ㄱㅏㅂㅡㄹㅣㅇㅔㄹ -13467
▁ㅌㅐㅂㅡㄹㄹㅣㅅ -13468
ㄱㅜㄹㅣ -13469
▁ㄷㅚㅅㅏㄹㅇㅏㄴㅏ -13470
▁ㅊㅣㅁㅕㅇㅅㅏㅇ -13471
▁ㄷㅏㄷㅏㄴ -13472
be -13473
▁ㅊㅗㄹㅐ -13474
▁ㅇㅑㅋㅜㅈㅏ -13475
▁ㅅㅡㅌㅣㅋㅓ -13476
▁ㅁㅗㄱㅇㅛㅇㅣㄹ -13477
▁ㅋㅏㅇㅣㅅㅏㄹㅡ -13478
ual -13479
ㄸㅜㄹ -13480
▁ㅇㅕㅁㄹㅕ -13481
▁ㄱㅗㅇㅅㅓㅇㅈㅓㄴ -13482
▁131 -13483
ret -13484
ㅁㅜㄱㅣ -13485
▁ㄹㅜㅁㅏㄴㅣㅇㅏ -13486
▁ㅅㅐㅇㅅㅏㄴㄹㅑㅇ -13487
▁ㅂㅔㄹㄹㅏ -13488
ㅜㄷㅡ -13489
▁ㅁㅜㄱㅜㅇㅎㅘ -13490
▁ㅂㅕㄴㅎㅗ -13491
▁ㄷㅐㅁㅏ -13492
▁ㅈㅘㅍㅛ -13493
▁ㅊㅜㄱㅈㅓㄱ -13494
ㅎㅏㅇㅣㄴ -13495
▁ㅈㅓㅇㅈㅏㅇ -13496
▁ㄱㅏㅇㅅㅓㅇ -13497
ㅌㅡㄹㅣㄱㅅㅡ -13498
▁ㅊㅓㅇㅅㅏㄴ -13499
▁ㄴㅗㅇㅅㅏ -13500
▁ㅁㅜㄹㄹㅣㅎㅏㄱ -13501
ㅅㅜㅇㅝㄴ -13502
▁ㅂㅜㅍㅕㅇ -13503
▁ㅈㅏㅇㅍㅕㄴ -13504
▁ㅇㅣㅂㅗㄱ -13505
ㅎㅚㅈㅏㅇ -13506
▁ㅈㅏㅅㅜ -13507
▁SV -13508
▁ㅁㅣㄴㅇㅝㄴ -13509
▁ㅇㅑㅅㅣ -13510
▁ㅈㅏㅇㅠㅈㅏㅈㅐ -13511
▁ㄱㅘㅇㅂㅗㄱ -13512
ㅏㄴㅌㅡ -13513
▁ㅇㅏㅇㅑㅋㅏ -13514
▁UM -13515
▁white -13516
▁ㅋㅔㅇㅣㅌㅡ -13517
▁ㅅㅜㅇㅛㅇㅣㄹ -13518
▁ㅈㅏㅇㅌㅏㅇ -13519
▁ㄱㅚㄷㅏㅁ -13520
▁MLB -13521
▁ㄱㅕㅇㅅㅓㅇ -13522
▁ㅇㅜㅊㅔㄱㅜㄱ -13523
▁ㄹㅐㅁㅍㅡ -13524
ㅜㄱㅘㅇㅣ -13525
▁MASTER -13526
▁ㅇㅜㄹㅜㄱㅘㅇㅣ -13527
▁ㅈㅓㄴㄱㅛ -13528
▁ㅎㅗㅈㅓㄴ -13529
▁ㅈㅓㄴㅍㅕㄴ -13530
▁ㅅㅏㄹㅗㅈㅏㅂㅎㅣ -13531
▁ㅂㅣㄱㅂㅐㅇ -13532
▁ㄱㅡㄹㄹ -13533
▁ㄷㅏㅈㅜㅇ -13534
▁don -13535
ecial -13536
▁ㅅㅡㅁㅣ -13537
▁ㄴㅐㅇㅑㅅㅜ -13538
▁ㅊㅣㄹㄹㅔ -13539
▁ㄷㅏㄴㄱㅗㄹ -13540
▁ㅇㅣㅅㅡㅇㅁㅏㄴ -13541
▁ㄷㅐㄱㅏㄱ -13542
▁ㅁㅏㅅㅏㅋㅣ -13543
ㅂㅜㅅㅣ -13544
▁ㄷㅟㄷㅓㅍ -13545
▁School -13546
▁ㄷㅐㅈㅜ -13547
▁ㄷㅗㅇㅊㅏㅇ -13548
▁ㅇㅣㄴㅁㅐㄱ -13549
▁ㅎㅏㅇㅑㅌㅗ -13550
▁ㅇㅝㄴㅎㅗ -13551
▁SO -13552
▁ㄱㅏㅊㅜㄱ -13553
ㄱㅕ -13554
▁ㅇㅣㅅㅗㅇ -13555
▁ㄷㅗㅇㅅㅓㄴ -13556
▁ㄹㅏㅈㅣㅁㅏㄴ -13557
▁ㅁㅏㅈㅣㅇㄱㅏ -13558
▁ㅌㅗㅇㅅㅣㄴㅅㅏ -13559
ane -13560
▁ㅇㅣㅂㅎㅏㄱㅅㅣㄱ -13561
▁ㅁㅜㄹㄷㅡㄹ -13562
ㅅㅜㄹㅑㅇ -13563
▁ㄱㅜㅇㅈㅣ -13564
▁ㅂㅐㄱㅎㅏㅂ -13565
▁ㅂㅜㄴㄱㅣㅈㅓㅁ -13566
ㅌㅡㄹㅐㄱ -13567
▁ㄷㅏㄹㄱㅑㄹ -13568
▁ㅇㅛㅁㅣ -13569
▁ㅇㅛㄱㅎㅏ -13570
▁ㅎㅡㄱㅎㅘ -13571
▁ㄷㅐㅍㅏ -13572
ㄴㅕㄴㄱㅣ -13573
▁ㄱㅕㄹㅎㅏㅁ -13574
▁ㅁㅏㅇㅣㅌㅡ -13575
▁ㅂㅏㄱㅎㅐ -13576
▁ㅇㅕㅇㅁㅣ -13577
▁ㄱㅘㄹ -13578
▁ㅅㅏㄱㅏ -13579
▁ㅇㅓㅈㅣㄹ -13580
▁Rec -13581
▁ㄲㅓㄲㅇㅣ -13582
▁ㅁㅏㅋㅓ -13583
▁ㄱㅏㅇㄷㅐ -13584
ㅂㅓㅁㅈㅚ -13585
▁ㅈㅏㅇㅌㅏㅇㅠㄹ -13586
▁ㅌㅐㅈㅗ -13587
▁ㄷㅗㄷㅗ -13588
▁ㅅㅗㅅㅣㄹ -13589
▁ㅌㅏㄴㄷㅗ -13590
▁ㅈㅣㅅㅏㅇㅍㅏ -13591
▁ㄹㅣㅋㅜ -13592
▁ㅇㅣㄱㅘ -13593
▁ㅂㅗㄹㅣ -13594
▁ㅁㅏㄱㅂㅏㅈㅣ -13595
▁ㅎㅗㅇㅈㅜㄴㅍㅛ -13596
▁ㄱㅣㅁㅈㅓㄴ -13597
▁ㅈㅡㅇㄱㅝㄴ -13598
▁ㅈㅜㅈㅓㅇ -13599
▁way -13600
▁ㅅㅏㅇㅔ -13601
ㅈㅔㄹㅕㄱ -13602
▁ㄱㅗㅅㅗㄱㄷㅗ -13603
ㅈㅣㄹㄱㅣ -13604
ope -13605
▁Sound -13606
▁ㅈㅔㅅㅣㅋㅏ -13607
▁ㅇㅕㄱㅗㅅㅐㅇ -13608
▁ㄲㅡㄴㅈㅣㄹㄱㅣ -13609
▁ㄱㅣㅁㅎㅢ -13610
▁Art -13611
ㅌㅔㅇㅣㄴㅓ -13612
▁Arm -13613
▁ㅇㅣㄴㄴㅐ -13614
▁ㅎㅏㅂㄷㅏㅇ -13615
▁ㅁㅏㅇㅜㄴㅌㅡ -13616
▁ㅁㅏㅇㅣㄴㅓㅅㅡ -13617
▁ㅂㅏㄱㅈㅜㄴ -13618
▁ㅍㅣㄷㅡㅂㅐㄱ -13619
▁ㅅㅓㄹㄹㅔ -13620
▁ㅅㅏㅋㅜㄹㅏㅇㅣ -13621
▁ㅋㅐㄹㅗㄹ -13622
▁ㄹㅜㅋㅏㅅㅡ -13623
▁ㄲㅘㅇ -13624
▁ㅇㅣㄹㄹㅕㄴ -13625
▁Yeah -13626
ㅌㅚㄱㅡㄴ -13627
▁ㅅㅣㅈㅣㅂ -13628
▁ㅇㅓㅇㅣㄴ -13629
Fat -13630
▁ㄷㅜㄹㄹㅓㅆㅏㅇㅣ -13631
▁ㅇㅘㄴㅅㅜ -13632
ㅎㅐㅇㅇㅟ -13633
▁ㅇㅜㅇㅏ -13634
▁ㅅㅗㅅㅓㄹㄱㅏ -13635
▁ㅎㅓㄴㅅㅣㄴ -13636
▁ㄱㅖㅇㅕㄹㅅㅏ -13637
▁ㅂㅔㄱㅏ -13638
▁ㄱㅗㅇㄹㅗ -13639
▁ㅍㅡㄹㅗㄹㅣㄱㅡ -13640
▁ㄱㅖㅈㅘ -13641
ㄹㅕㄷㅡ -13642
ㅌㅓㅅㅡ -13643
▁ㅇㅣㅁㅏㅌㅡ -13644
ㅣㄴㅔ -13645
ㅂㅏㅋㅟ -13646
elf -13647
ㅅㅜㅅㅜ -13648
ㅎㅡㄺ -13649
▁BAS -13650
▁ㄱㅏㅇㅈㅓㄱ -13651
▁ㅈㅓㄱㄹㅛ -13652
▁ㄱㅗㅅㅗㄱㅂㅓㅅㅡ -13653
▁ㄱㅡㄷㅏㄱ -13654
▁ㄱㅣㅁㅣㄹ -13655
▁ㅁㅏㅁㅗㄹㅜ -13656
▁ㅅㅗㅍㅣㅇㅏ -13657
▁ㄷㅏㅇㄴㅏㄹㅏ -13658
▁EM -13659
ㄱㅣㄴ -13660
ㅣㄹㅇㅡㅋㅣ -13661
▁ㅂㅜㄹㄹㅓㅇㅣㄹㅇㅡㅋㅣ -13662
▁ㄱㅗㅇㅓ -13663
ision -13664
▁ㅎㅔㄹㅡㅁ -13665
▁ㅋㅓㄴㅌㅡㄹㅗㄹㄹㅓ -13666
ㅅㅕㅊㅡ -13667
▁Femme -13668
▁ㄹㅣㅇㅔ -13669
▁ㅈㅏㄱㅂㅕㄹ -13670
▁ㅅㅗㅎㅐㅇ -13671
▁ㅇㅔㅁㅣㄹ -13672
ㅈㅐㅍㅏㄴ -13673
▁ㅌㅟㄱㅣ -13674
▁ㅇㅏㅁㅔㄹ -13675
▁ㄹㅗㅅㅡㅇㅐㄴ -13676
▁ㄹㅗㅅㅡㅇㅐㄴㅈㅔㄹㄹㅔㅅㅡ -13677
▁Rev -13678
ㅡㅌㅣㅁ -13679
▁1961 -13680
ㅏㄱㅔ -13681
▁ㅈㅣㄴㄱㅏ -13682
▁Cat -13683
▁ㅂㅜㅊㅡ -13684
▁ㄷㅗㅇㄱㅜㄱ -13685
▁ㅊㅗㅅㅣㄱ -13686
▁ㅅㅡㅋㅗㅍㅡ -13687
ㅣㅇㅓㅉㅣ -13688
▁ㅇㅓㅉㅣㅇㅓㅉㅣ -13689
▁ㄹㅔㅇㅣㅌㅓ -13690
▁ㅂㅜㅅㅣㄱ -13691
▁ㄱㅡㄹㄹㅐ -13692
ㅌㅜㅇㅏㄴ -13693
▁ㄷㅐㅂㅗㄴ -13694
▁ㄱㅏㄴㅏ -13695
▁ㅈㅏㅈㅣㄴ -13696
▁ㅍㅡㄹㄹㅐㄴㅣㅅ -13697
▁Ge -13698
▁ㄱㅕㅇㅎㅢ -13699
▁ㅁㅗㅊㅣㄴ -13700
▁ㄱㅏㄴㄹㅑㄱ -13701
▁ㅅㅠㅍㅓㅅㅡㅌㅏ -13702
▁WE -13703
▁VIP -13704
▁ㅂㅏㄹㅅㅏㅇ -13705
▁ㅂㅡㄹㅏㄷㅓ -13706
▁ㄱㅡㄴㅗㅁ -13707
▁ㅌㅐㅈㅗㅇ -13708
▁ㅇㅝㄴㅊㅓㄴ -13709
▁ㅊㅗㅇㄱㅘㄹ -13710
▁ㅍㅕㄴㄷㅐ -13711
ㅁㅣㅅㅡ -13712
ㅜㅇㅑㅅㅑ -13713
▁ㅇㅣㄴㅜㅇㅑㅅㅑ -13714
▁ㅂㅏㄹㅋㅏㄴ -13715
▁ㅂㅜㄹㅁㅕㄹ -13716
▁ㄷㅗㅇㄱㅡㄹ -13717
▁ㅂㅣㅅㅣ -13718
▁ㄱㅣㅁㅈㅓㄴㅇㅣㄹ -13719
▁ㄱㅡㄱㅅㅗㅅㅜ -13720
▁ㄹㅣㅋㅣ -13721
▁ㅇㅣㅂㅅㅜㄹ -13722
▁ㅁㅏㄷ -13723
▁ㄱㅗㅇㅂㅏㅇㅈㅓㄴ -13724
▁ㄷㅜㅂㅜ -13725
▁ㅃㅏㄹㄱㅏㅇ -13726
▁ㅎㅜㅇㅣㄹㄷㅏㅁ -13727
▁ㅇㅓㄷㅡㅂㅐㄴㅅㅡ -13728
▁DO -13729
▁ㅅㅜㄹㅂㅓㅂ -13730
we -13731
▁ㅂㅏㄱㅈㅐ -13732
▁ㅌㅐㄱㅡㅌㅣㅁ -13733
ㅜㄱㅓ -13734
▁ㅍㅏㅅㅏㄴ -13735
ㅍㅗㄱㅜ -13736
▁ㅅㅣㄱㅅㅣㄴ -13737
▁ㄷㅟㅈㅣㅂㅎㅣ -13738
ㅋㅝㄹ -13739
▁ㅇㅜㅋㅡㄹㅏ -13740
▁ㄴㅣㅋㅏ -13741
▁ㅈㅣㄹㅕㅇ -13742
ㅅㅜㅅㅡ -13743
▁ㅁㅜㅈㅏㄱㅈㅓㅇ -13744
▁ㅅㅓㄱㄱㅜㅇ -13745
▁ㅇㅕㄷㅏㅇ -13746
▁ㄷㅗㄹㅇㅏㅅㅓ -13747
ㅎㅕㄴㅇㅜ -13748
▁ㄱㅜㄴㄱㅣ -13749
▁ㅈㅔㅁㅓㅅ -13750
▁ㅅㅏㅇㅛㅇㅂㅓㅂ -13751
▁ㄱㅕㅇㄹㅑㅇ -13752
▁ㅈㅗㄱㅈㅏㅇ -13753
▁ㅎㅏㄹㄹㅣㅇㅜㄷㅡ -13754
▁ㅅㅣㄹㅁㅜ -13755
▁ㅍㅣㅊㅓ -13756
▁ㅅㅣㄱㅜㅇ -13757
Fatale -13758
▁ㅂㅏㄹㅈㅓㄴㄱㅣ -13759
▁ㅅㅠㄱㅏ -13760
▁ㅈㅏㅊㅟ -13761
▁ㅋㅏㅅㅏ -13762
▁FemmeFatale -13763
ㄲㅜㅁㅊㅣ -13764
▁ㅈㅣㄴㅈㅏㄱ -13765
▁ㅆㅡㄹㄷㅔㅇㅓㅄ -13766
▁ㅁㅜㅇㅓㄴ -13767
▁ㅇㅏㅇㅢ -13768
str -13769
▁ㅈㅐㅅㅜ -13770
▁ㅇㅗㄴㅓ -13771
▁ㅂㅏㄴㅁㅏㄹ -13772
▁ㄷㅏㄷㅓㄴㄱㅏ -13773
ational -13774
▁ㅈㅓㅇㅁㅕㅇ -13775
▁ㅋㅡㄹㅗㄴㅣ -13776
ㅌㅔㅇㅣ -13777
▁ㅎㅣㄴㅗ -13778
▁ㅇㅠㄹㅗㅍㅏ -13779
▁ㅇㅣㄹㅂㅗ -13780
▁ㅂㅏㄹㅈㅏㄱ -13781
▁ㄱㅡㅁㅎㅗ -13782
▁ㄴㅡㄴㅣ -13783
▁ㄷㅐㅈㅏㅁ -13784
▁ㅈㅓㅇㄱㅖ -13785
▁ㅎㅏㄴㅁㅗ -13786
▁ㅇㅖㅁㅕㅇ -13787
▁ㅂㅏㅇㅎㅘㅇ -13788
▁ㅋㅡㄹㅗㄴㅣㅋㅡㄹ -13789
ㅈㅣㅇㅘ -13790
▁ㅈㅏㅋㅏ -13791
▁ㅈㅜㅈㅏㄱ -13792
ouse -13793
▁dis -13794
▁ㅎㅏㅅㅔ -13795
▁ㄷㅏㄴㅂㅓㄴ -13796
▁ㅅㅐㅁㅍㅡㄹ -13797
SS -13798
▁ㅊㅚㅅㅓㅇ -13799
▁ㅎㅏㅎㅏㅎㅏ -13800
▁ㅇㅣㅇㅏㄴ -13801
▁ㄱㅏㅁㅕㅇ -13802
▁ㅅㅣㅋㅗ -13803
ㅓㅂㅈㅏ -13804
▁ㅎㅘㅇㅌㅐㅈㅏ -13805
▁ㅎㅗㅅㅔ -13806
▁ㅅㅓㄴㄷㅐ -13807
▁ㅅㅣㄴㄷㅣ -13808
▁ㅇㅕㄴㄱㅡㅁㅅㅜㄹ -13809
appy -13810
▁ㅅㅗㅈㅣㄴ -13811
▁ㅇㅑㅇㅍㅏ -13812
▁ㅇㅔㅇㅣㅈㅓㄴㅌㅡ -13813
▁ㅎㅓㅅㅔ -13814
▁ㅁㅏㅈㅏㄱ -13815
▁NHK -13816
▁ㄲㅓㄹ -13817
▁ㅎㅏㅇㅝㄷㅡ -13818
▁ㄱㅓㅁㅇㅡㄴㅅㅐㄱ -13819
▁ㅇㅓㄹㅍㅣㅅ -13820
AG -13821
▁ㅅㅓㅁㅇㅠ -13822
▁ㄱㅡㄹㅕㅈㅣ -13823
▁ㅍㅔㄴㅣ -13824
▁ㅎㅗㄴㅈㅗㅇ -13825
▁ㄱㅡㅂㄱㅣㅇㅑ -13826
ORE -13827
ㅇㅓㄴㅈㅓㅇ -13828
▁ㄱㅗㄷㅗㄱ -13829
▁ㅅㅡㅋㅏㄹㄹㅔㅅ -13830
▁ㅂㅏㄴㅎㅘㄴ -13831
▁ㅋㅣㄹㅣㅌㅗ -13832
ㅌㅣㅇㅓ -13833
▁ㅅㅗㅅㅣㅁ -13834
▁ㅎㅛㄱㅘㅇㅡㅁ -13835
▁ㅁㅔㅌㅔㅇㅗ -13836
▁br -13837
▁ㅎㅜㅈㅣㅇㅘ -13838
▁ㅇㅏㄷㅡ -13839
▁ㅎㅗㄴㅗㅋㅏ -13840
▁ㅇㅔㄷㅗ -13841
▁ㅎㅘㅅㅜ -13842
ㅃㅣ -13843
▁ㄱㅘㅇㅅㅓㄱ -13844
▁ㅂㅕㅇㄷㅏㄴ -13845
▁ㅅㅓㅇㄷㅗ -13846
▁ㅆㅡㅂ -13847
▁Order -13848
▁ㄱㅛㅅㅓㅂ -13849
▁ㅇㅐㄷㅏㅇㅊㅗ -13850
ness -13851
▁ㅅㅏㅇㅎㅚ -13852
▁1100 -13853
▁ㄷㅏㅇㅇㅝㄴ -13854
▁ㅅㅏㅁㄱㅓㄹㅣ -13855
▁ㅅㅜㅈㅜㄴㄱㅡㅂ -13856
▁ㄱㅣㅇㅗㄴ -13857
▁ㅈㅓㅁㄱㅓ -13858
▁ㅆㅡㄹㅁㅗㅇ -13859
▁ㅅㅔㄹㅔ -13860
▁ㄴㅏㄴㅈㅓㄴ -13861
▁ㅍㅏㅂㅍㅡㄴ -13862
▁ㅍㅏㅂㅍㅡㄴㅁㅠㅈㅣㄱ -13863
ㅈㅔㄱㅜㄱ -13864
▁ㅅㅡㅍㅡㄹㄹㅐㅅㅣ -13865
▁ㅈㅗㅇㅜㄴ -13866
▁ㅇㅣㅅㅡㅌㅓ -13867
▁ㅋㅣㅍㅓ -13868
▁ㅇㅣㅌㅐ -13869
▁ㅌㅐㄱㅂㅐ -13870
▁MD -13871
ㅅㄷㅐ -13872
▁ㅁㅐㅅㅜ -13873
▁ㅊㅗㅍㅣㄹ -13874
▁ㅁㅣㅈㅣㅅㅜ -13875
▁ㅅㅓㅇㅅㅜ -13876
ㅁㅣㄴㅏ -13877
▁ㄱㅛㅈㅜ -13878
▁ㅈㅘㅇㅣㄱㅅㅜ -13879
▁ㅈㅔㅈㅓㅇㅅㅣㄴ -13880
▁ㅇㅏㅈㅡㅅㅏ -13881
ㄴㅗㄹㅇㅣ -13882
▁ㅈㅏㅈㅏㄹ -13883
▁ㅈㅜㅂㅓㅁ -13884
▁ㅌㅡㄹㅣㅁ -13885
▁ㅎㅔㄹㅅㅡ -13886
▁ㅊㅓㄴㅈㅓㄱ -13887
▁ㄱㅕㅇㅁㅐ -13888
▁ㅅㅓㅇㅊㅐ -13889
▁ㅇㅑㅇㅋㅣㅅㅡ -13890
▁ㄱㅣㅁㅎㅖ -13891
▁ㅌㅗㄹㅗㄴㅌㅗ -13892
▁Elect -13893
▁ㄱㅣㅁㅊㅏㅇ -13894
▁ㅇㅓㅁㅈㅣ -13895
▁ㅈㅓㄱㅂㅏㄹ -13896
▁ㅍㅓㄹㅅㅡ -13897
▁ㅇㅑㅇㅎㅕㄴ -13898
▁ㅍㅗㄱㄷㅗㅇ -13899
▁ㅋㅏㄱㅏ -13900
▁ㅁㅐㅈㅣㄴ -13901
▁ㅅㅣㄴㅈㅜㅋㅜ -13902
▁ㅇㅣㅊㅣㄹㅗ -13903
▁^ -13904
▁ㅎㅏㅂㅜ -13905
▁ㄷㅏㅇㅈㅜ -13906
▁ㅈㅓㅇㄹㅣㅂ -13907
▁ㅎㅏㄴㅁㅗㄳ -13908
ㄷㅔㄹㅍㅣㅇㅏ -13909
▁ㅍㅣㄹㄹㅏㄷㅔㄹㅍㅣㅇㅏ -13910
▁ㅎㅚㅎㅘ -13911
▁ㅇㅘㄴㅈㅓㄴㅊㅔ -13912
▁ㅇㅛㅁㅣㅇ -13913
▁ㅇㅛㅁㅣㅇㅜㄹㅣ -13914
ㅁㅣㅈㅡ -13915
▁ㅁㅣㄹㅏㅋㅡㄹ -13916
▁ㅎㅣㄷㅔㅇㅛㅅㅣ -13917
▁ㄱㅘㅂㅜ -13918
▁ㅋㅗㄹㄷㅡ -13919
▁ㅈㅗㅇㅇㅣㄹ -13920
inc -13921
▁ㄴㅜㄴㅆ -13922
▁ㄱㅣㅍㅅㅜㄱ -13923
▁ㄷㅡㄹㄹㅕㅇㅗ -13924
▁TCG -13925
▁ㅍㅏㄱㅗㄷㅡㄹ -13926
▁ㅂㅡㄹㄹㅔㅇㅣㅈㅡ -13927
▁ㄲㅏㄷㅏㄺ -13928
▁ㅃㅐㄷㅗㄹㄹㅣ -13929
ㅈㅓㅌㅡ -13930
▁EXH -13931
▁ㅍㅡㄹㅗㅅㅔㅅㅓ -13932
▁ㅇㅝㄴㄱㅗ -13933
▁ㅂㅐㅈㅣ -13934
▁ㄱㅣㅎㅏㄴ -13935
▁ㅂㅗㄱㅅㅣㅇ -13936
ㅁㅜㅇ -13937
▁ㅍㅣㄱㅗㄴ -13938
▁ㅅㅓㄷㅡ -13939
▁ㄱㅗㅇㅎㅠ -13940
▁ㅆㅡㄹㅁㅗㅇㅓㅄ -13941
▁CON -13942
▁ㄱㅣㅁㅣ -13943
▁ㅇㅓㅂㅣㅅㅡ -13944
▁ㅇㅗㅂㅌㅣㅁㅓㅅㅡ -13945
▁ㅇㅏㅂㅅㅏㄹ -13946
▁ㅇㅕㄴㅇㅖㄱㅖ -13947
▁ㅍㅡㄹㅏㅇㅋㅔㄴ -13948
▁ㄱㅘㅇㅂㅓㅁ -13949
ㅌㅜㅅㅜ -13950
▁ㅁㅏㄹㅈㅏㅇㄴㅏㄴ -13951
▁ㅈㅓㄴㄹㅣㅍㅜㅁ -13952
▁ㅅㅜㅍㅕㅇ -13953
▁ㅂㅗㄴㄷㅣ -13954
▁ㅅㅣㅎㅏㄴ -13955
▁ㅅㅡㅇㅟㅌㅡ -13956
▁ㅈㅣㅁㅏㅇ -13957
▁ㄷㅗㄹㅣㅇㅓ -13958
▁ㄱㅕㄹㅈㅏㅇ -13959
▁ㅈㅓㄱㅅㅐㄱ -13960
▁ㅅㅓㄴㅂㅏㄹㅌㅜㅅㅜ -13961
▁ㄷㅐㅅㅏㄱㅘㄴ -13962
▁ㄷㅡㄴㄱㅏ -13963
▁ㅇㅜㄴㅎㅏㅇ -13964
▁world -13965
▁ㅅㅓㅌㅐ -13966
▁ㅎㅠㅇㅣㄹ -13967
▁ㅅㅣㄴㅇㅣㅊㅣ -13968
▁ㅂㅏㄴㄷㅏㅇㅣ -13969
▁ㅁㅏㄱㅏ -13970
▁ㅈㅣㄱㅣ -13971
▁ㅅㅡㅇㅘㅂ -13972
▁214 -13973
▁ㅂㅜㄹㄹㅓ -13974
▁RG -13975
▁ㅇㅣㄹㅆㅜ -13976
ㅍㅓㅇ -13977
▁ㅎㅜㄱㅜㅇ -13978
▁ㅈㅗㅎㅕㅇ -13979
▁ㄴㅐㅇㅈㅓㄴ -13980
▁She -13981
ㄷㅔㅇㅏ -13982
▁ㅃㅛ -13983
ㅎㅣㅌㅡ -13984
▁ㅍㅗㄹㄷㅓ -13985
▁ㄱㅕㅇㅈㅏㅇ -13986
▁ㅅㅏㅇㅣㅍㅓ -13987
▁ㅅㅗㄴㅎㅡㅇ -13988
▁ㅋㅡㄹㅔㅇㅣ -13989
▁SHOW -13990
▁ㅈㅏㄱㅅㅏㄹ -13991
▁ㅂㅏㅇㅣㅅㅡ -13992
▁ㅈㅓㅇㅇㅡㄴ -13993
▁ㅂㅔㅇ -13994
▁ㄷㅏㅇㅂㅜㄴ -13995
▁ㅋㅣㅇㅝㄷㅡ -13996
ㅎㅗㅇㅣㄴ -13997
▁ㄱㅛㄹㅏㄴ -13998
IV -13999
▁ㅂㅏㄹㅜ -14000
▁ㄱㅏㅇㅇㅠ -14001
▁ㄷㅗㄹㄹㅕㅂㅗㄴㅐ -14002
▁ㅇㅖㄹㄹㅗ -14003
▁ㄷㅏㅇㅣㅂㅡ -14004
▁ㅎㅏㄴㅈㅗ -14005
day -14006
omb -14007
▁ㅁㅣㅅㅣ -14008
ㅎㅏㄴㅡㄹ -14009
▁ㅎㅜㅇㅏㄴ -14010
ㅅㅏㅇㅢ -14011
▁ㄹㅣㄴㅗ -14012
▁ㅈㅓㅇㄱㅓ -14013
▁1943 -14014
▁ㄱㅗㅇㅎㅠㅇㅣㄹ -14015
▁ㅈㅔㅅㅣㄱ -14016
▁ㅅㅏㄴㅇㅏㄱ -14017
▁ㅅㅡㅍㅗㄴㅈㅣ -14018
ㄷㅙㅈㅣ -14019
▁ㅂㅜㄹㅅㅏㅈㅗ -14020
its -14021
▁ㅌㅏㄹㅏ -14022
▁ㅌㅏㄴㅈㅗㅇ -14023
▁ㄷㅗㅎㅗ -14024
▁ㅅㅓㅇㅊㅜ -14025
▁ㄴㅗㅅㅜㄱ -14026
▁ㅇㅣㄴㅗㅇㅜㅇㅔ -14027
▁ㅅㅡㅇㄱㅣ -14028
▁ㄱㅓㄴㅈㅓㄴ -14029
▁ㄷㅡㄹㅇㅣㄷㅐ -14030
▁ㅍㅡㄹㅓㄴㅌㅡ -14031
▁Da -14032
▁ㅇㅏㅈㅣㅌㅡ -14033
▁ㄷㅐㅍㅛㅈㅏㄱ -14034
▁ㅇㅓㄴㅎㅐㅇ -14035
▁ㅅㅗㄱㅅㅏㄱ -14036
▁ㅌㅡㄹㅣㄴ -14037
▁ㅅㅗㄴㅎㅡㅇㅁㅣㄴ -14038
▁ㅅㅓㅂㅇㅚ -14039
▁ap -14040
▁ㄷㅓㅅㅡㅌㅡ -14041
▁ㅁㅕㅇㅈㅏㄱ -14042
▁ㄷㅗㅋㅜㄱㅏㅇㅘ -14043
▁ㅇㅖㅂㅣㄱㅜㄴ -14044
▁ㄷㅏㅌㅜㅁ -14045
▁ㅊㅗㅌㅗ -14046
ㅍㅓㄹㅓㄴㅅㅡ -14047
▁naver -14048
ㅎㅗㅇㅝㄴ -14049
▁ㅅㅔㄹㅍㅡ -14050
▁ㅎㅏㄴㅏㅁ -14051
▁ㅈㅓㅇㄱㅛㅎㅚ -14052
▁** -14053
▁340 -14054
ㄹㅓㄱㅏ -14055
ㅌㅜㅍㅛ -14056
▁ㅈㅓㅇㄹㅠㅅㅗ -14057
▁ㅎㅐㅇㅌㅐ -14058
▁beatmania -14059
▁ㅈㅣㄱㄱㅏㅁ -14060
▁ㅇㅑㅇㅎㅗ -14061
▁ㄹㅣㅌㅡ -14062
▁ㅇㅔㄹㅣㅋㅏ -14063
▁1942 -14064
▁ㅎㅔㄹㅡ -14065
▁ㅅㅏㅇㅅㅗㄱ -14066
ham -14067
▁ㅁㅔㄲㅜ -14068
▁141 -14069
▁ㅈㅔㅇㅣㄷㅡ -14070
▁ㅋㅗㄹㄹㅏㅂㅗㄹ -14071
▁ㄴㅡㄴㅑㄴㅡㄴ -14072
▁ㄷㅗㅈㅓㄴㅈㅏ -14073
▁ㅇㅗㅂㅓㄹㅗㄷㅡ -14074
▁ㅎㅘㄱㅇㅕㄴㅎㅣ -14075
▁ㅌㅗㅌㅏㄹ -14076
▁ㅂㅏㄱㄱㅕㄱㅍㅗ -14077
▁ㅋㅗㄹㄹㅏㅂㅗㄹㅔㅇㅣㅅㅕㄴ -14078
▁ㅁㅣㅅㅓㅇㄴㅕㄴㅈㅏ -14079
▁ㅁㅜㅅㅏㅇ -14080
ious -14081
▁ㄱㅕㄴㅜ -14082
▁ㅈㅐㅇㅌㅏㄹ -14083
▁ㅇㅔㄱㅅㅗ -14084
▁ㅋㅡㄹㅜㅅ -14085
▁ㅍㅗㄱㅂㅏㄹㅁㅜㄹ -14086
ㅡㄹㄹㅔㄱㅅㅡ -14087
▁ㄱㅐㅇㅣㄴㅈㅓㄴ -14088
▁ㅍㅏㄴㅌㅏ -14089
▁ㅋㅜㅅㅏ -14090
▁ㅈㅗㅁㅂㅣ -14091
▁ㅇㅟㄹㅅㅡㄴ -14092
▁ㅌㅔㄹㄹㅔㅂㅣㅈㅓㄴ -14093
▁ㅅㅗㅍㅣ -14094
▁ㅇㅣㄴㅇㅓ -14095
▁ㅍㅡㄹㅗㅇㅣㅅㅔㄴ -14096
▁ㄱㅣㅁㅏ -14097
▁ㅈㅗㄴㄷㅐㅅㅁㅏㄹ -14098
▁ㄹㅔㅅㅡㅌㅓ -14099
ㅅㅏㅇㅜㄹㅜㅅㅡ -14100
EX -14101
▁SW -14102
▁ㅇㅐㅍㅡ -14103
▁ㅈㅣㄴㄱㅜㄴ -14104
▁ㄱㅗㅇㅇㅣㄱ -14105
▁ㅊㅜㄹㅌㅚㄱㅡㄴ -14106
▁ㅇㅗㄹㄹㅏㅅㅓ -14107
▁ㅁㅐㄴㅓ -14108
▁ㄱㅏㄹㄹㅏ -14109
▁ㅎㅕㄴㅁㅕㅇ -14110
▁ㅂㅜㄹㄱㅏㅅㅏㅇㅢ -14111
▁ㅈㅏㅇㅂㅕㅇ -14112
ㅅㅔㄷㅔㅅㅡ -14113
▁ㅁㅔㄹㅡㅅㅔㄷㅔㅅㅡ -14114
▁ㅊㅏㅇㄷㅏㅇ -14115
▁ㅈㅡㅇㅅㅔ -14116
▁te -14117
▁ㅍㅗㄱㅅㅏ -14118
▁ㅂㅔㄴㅔㅅ -14119
▁ㅅㅕㄹㄹㅗㄱ -14120
▁ㅅㅏㅇㄷㅐㅅㅣㄱ -14121
▁ㅅㅏㅇㄱㅝㄴ -14122
▁ㅍㅡㄹㅗㄱㅡㄹㅐㅁㅣㅇ -14123
ㅏㄷㅡ -14124
ㅔㄹㅏㅇ -14125
ㅅㅓㄹㅣㄴ -14126
▁ㅊㅜㄹㄱㅗ -14127
▁ㅎㅏㅂㅎㅏ -14128
▁ㅅㅣㄴㅊㅜㄱ -14129
▁ㅇㅐㄱㅅㅔㅅㅓㄹㅣ -14130
▁ㅅㅓㅇㅝㄴ -14131
▁ㄲㅏㅁㅓㄱ -14132
▁ㄱㅔㅇㅣㅁㄱㅣ -14133
▁ㄱㅡㄹㄹㅓㅂㅡ -14134
▁Not -14135
▁ㄷㅏㅈㅓㅇ -14136
▁ㄹㅗㅂㅔㄹㅡ -14137
▁ㄱㅘㅇㅂㅓㅁㅇㅟ -14138
▁ㄹㅕㅁ -14139
ㄷㅣㄱ -14140
▁ㅈㅓㅂㅓㄴ -14141
▁ㅍㅕㅇㅇㅝㄴ -14142
▁ㅇㅣㅂㅁㅏㅅ -14143
▁ㅋㅐㅂㅋㅗㅁ -14144
▁ㅎㅏㅂㅊㅏㅇ -14145
▁ㅈㅓㅇㄱㅓㅈㅏㅇ -14146
▁ㅇㅟㅈㅡ -14147
▁ㅅㅡㅍㅏㄹㅡㅌㅏ -14148
▁ㅈㅣㅈㅏ -14149
▁ㅇㅏㄴㄴㅏ -14150
▁ㅈㅏㅇㅕㄴㅅㅡㄹㅔ -14151
▁ㄹㅓㅅㅔㄹ -14152
▁ㅎㅜㄹㅜ -14153
▁ㅂㅜㄹㅅㅏㅇ -14154
ㅏㅂㅣㅇㅏ -14155
▁ㅅㅓㄴㄱㅗㅇ -14156
▁ㅎㅏㄷㅡㅋㅗㅇㅓ -14157
ㅌㅏㄱㅣ -14158
▁ㄱㅓㄴㅡㄹㅣ -14159
▁ㄱㅜㄴㅎㅏㅁ -14160
▁ㄷㅗㅇㅂㅗㅇ -14161
▁ㄴㅔㅁㅔ -14162
▁ㅈㅜㄷㅚ -14163
▁ㅇㅠㅅㅓ -14164
▁ㅅㅜㄹㅌㅏㄴ -14165
▁ㅈㅐㄱㅗ -14166
▁ㅁㅣㄲㅡㄹㅓㅈㅣ -14167
aut -14168
▁ㄹㅏㄱㅓㄴㅏ -14169
▁ㅁㅠㄹ -14170
ivers -14171
▁ㄷㅡㄴㄷㅡㄴ -14172
▁ㅅㅣㄱㅡㅁㅏ -14173
▁ㅅㅡㅋㅡㄹㅐㅊㅣ -14174
▁ㅅㅣㅇㅇㅓ -14175
▁ㅇㅕㄴㅎㅏ -14176
▁ㅈㅏㅇㅇㅏㄴ -14177
▁ㄱㅜㄱㄹㅕㄱ -14178
▁ㅍㅣㄹㅏㅁㅣ -14179
ㅏㄴㄷㅡ -14180
ㄷㅓㄴㅌㅡ -14181
▁ㅌㅔㅇㅣㅋㅡ -14182
▁DEF -14183
▁ㅍㅛㅂㅗㄴ -14184
ㅡㅌㅡㅁ -14185
▁ㅈㅓㅇㅈㅐ -14186
▁ㅈㅓㅇㅂㅗㅇ -14187
▁ㄹㅣㅇㅐㄱㅅㅕㄴ -14188
ㅇㅛㅎㅘㄴ -14189
▁ㅁㅏㄱㅂㅜ -14190
▁Ke -14191
▁ㅅㅏㅇㅣㅇㅗ -14192
ㅈㅜㄹㅣ -14193
▁ㄷㅗㅍㅣ -14194
ㅏㅌㅣㅇㅏ -14195
▁ㄱㅗㅇㄷㅗㅇㅊㅔ -14196
▁With -14197
27 -14198
ㅍㅐㅅㅡ -14199
▁ㅈㅜㅈㅓ -14200
▁ㅈㅣㄹㄹㅑㅇ -14201
▁ㅇㅘㅇㅜ -14202
▁ㅅㅏㅇㅂㅏㄴㄱㅣ -14203
▁RAW -14204
▁ㅅㅣㄴㄷㅐ -14205
23 -14206
ERS -14207
▁ㅂㅜㄷㅗ -14208
▁ㅈㅗㅇㅅㅏ -14209
▁ㅅㅔㅅㅕㄴ -14210
▁ㅎㅘㅈㅏ -14211
▁Every -14212
▁ㅍㅡㄹㅣㅈㅡ -14213
▁ㅁㅏㅇㅡㅁㄲㅓㅅ -14214
ANC -14215
olution -14216
▁ㄹㅐㅅ -14217
▁ㅇㅟㅎㅘ -14218
▁ㅊㅔㅈㅣㄹ -14219
ㅑㄴ -14220
▁ㄷㅐㄱㅏㅇ -14221
▁ㄱㅜㄴㅅㅏㄹㅕㄱ -14222
▁ㅅㅏㅇㅍㅛ -14223
▁ㅇㅗㅅㅡㅇ -14224
▁ㅂㅔㄱ -14225
▁ㅇㅏㅇㅕㄱ -14226
▁ㅋㅣㅇㅅㅡ -14227
▁ㅈㅓㄴㅈㅓㄴ -14228
▁ㅋㅐㅅㅓㄹㅣㄴ -14229
▁ㅇㅣㅁㅇㅛㅎㅘㄴ -14230
▁ㅌㅏㄹㅇㅗㄱ -14231
▁ㅍㅡㄹㅗㄴㅌㅡ -14232
▁ㅁㅏㅇㅈㅏ -14233
▁ㅇㅕㄹㅂㅏㄷ -14234
▁ㅇㅟㅌㅏㄱ -14235
▁ㅇㅚㅊㅜㄹ -14236
▁ㅍㅡㄹㅣㅅㅡㅌㅡ -14237
▁ㄱㅘㄴㄴㅕㅁ -14238
▁ㅇㅟㄹㄹㅣㅇㅓㅁㅅㅡ -14239
olog -14240
▁ㅇㅓㅊㅓㄱ -14241
▁ㅈㅐㅇㅣㅁ -14242
45 -14243
▁ㅂㅡㄹㅣㅅㅈㅣ -14244
▁ㅅㅗㅇㄱㅜ -14245
▁ㅅㅗㄴㅂㅏㄷㅏㄱ -14246
▁ㅈㅘㅇ -14247
▁ㅋㅗㄹㄹㅗㄴㅣ -14248
▁ㅇㅠㄴㅅㅓㅇ -14249
▁ph -14250
ㅌㅔㅅㅡ -14251
▁ㅇㅚㄴㅍㅏㄹ -14252
UC -14253
▁ㅍㅕㅇㅁㅣㄴ -14254
▁310 -14255
▁ㅈㅔㄱㅜ -14256
▁ㅂㅏㅇㅈㅓㅇ -14257
▁ㅋㅗㅇㅣㅊㅣ -14258
▁ㄱㅣㅁㅈㅜㄴㅎㅗ -14259
▁ㄷㅐㅁㅜㄴ -14260
▁ㄹㅔㅂㅏㄴ -14261
▁ㅈㅣㅂㄱㅕㄹ -14262
▁ㅈㅣㄴㅈㅓㅇㅎㅏ -14263
▁ㄱㅡㄹㅔㄴ -14264
▁ㅌㅏㄴㅅㅗ -14265
▁ㅇㅟㄴㅅㅡㅌㅓㄴ -14266
▁ㄹㅜㅌㅓ -14267
▁ㄱㅗㅈㅏㅇㄴㅏ -14268
ㅔㄹㄹㅔ -14269
▁ㅍㅛㅊㅜㄹ -14270
▁ㄴㅗㄴㅎㅏ -14271
▁ㅅㅣㅈㅡㅋㅏ -14272
▁ㅎㅘㄴㄱㅏㄱ -14273
▁ㅇㅝㄴㅈㅔ -14274
▁ㅅㅣㄴㅇㅝㄴ -14275
▁if -14276
▁ㄹㅓㅆㄷㅏ -14277
▁ㅊㅚㅁㅕㄴ -14278
▁ㄴㅏㄴㅏㅁㅣ -14279
▁ㅅㅜㄴㅈㅣㄴ -14280
▁ㅅㅜㅇㅝㄴㅅㅣ -14281
▁ㄷㅠㅌㅣ -14282
▁Get -14283
▁ㅂㅏㄱㅂㅕㅇ -14284
▁ㅅㅗㅅㅜㅈㅏ -14285
▁ㅅㅡㅍㅏㅇㅣㄷㅓ -14286
▁ㅎㅓㄴㄷㅔ -14287
▁ㄴㅏㄱㅇㅝㄴ -14288
▁ㄱㅕㅇㅊㅏㄹㄱㅘㄴ -14289
▁ㅂㅏㅎㅏ -14290
▁ㅂㅗㄷㅏㅂ -14291
▁Chr -14292
▁ㄴㅏㄴㅏㄹ -14293
▁1946 -14294
▁ㅂㅣㅅㅛ -14295
▁ㄹㅠㅎㅕㄴㅈㅣㄴ -14296
▁ㅁㅏㄹㅂㅓㄹ -14297
29 -14298
▁EB -14299
▁007 -14300
▁ㅈㅓㅇㅅㅔ -14301
▁ㅈㅜㅍㅏㅅㅜ -14302
▁ㅅㅜㄴㅕ -14303
66 -14304
▁ㅋㅙㅅㅗㄱ -14305
▁ㅉㅏㄹㅂㅏㅇ -14306
ㄷㅔㄱㅣ -14307
▁FR -14308
▁ㅅㅏㅂㅜ -14309
▁ㅇㅣㅇㅓㅇ -14310
▁CT -14311
▁ㅋㅓㅌㅓ -14312
ㄷㅡㄴㅣ -14313
ㅇㅏㅇㅣㄹ -14314
▁ㅎㅐㅋㅓ -14315
▁ㅂㅜㄴㄱㅕㅇ -14316
▁ㅊㅚㅇㅜㅅㅜ -14317
▁ㄱㅣㅁㅈㅓㅇㅇㅡㄴ -14318
▁ㅅㅏㄱㅘㅁㅜㄴ -14319
▁ㅋㅏㅊ -14320
▁ㅅㅣㅈㅓ -14321
▁ㅅㅣㄴㅗㅂㅜ -14322
▁ㄷㅐㅁㅕㅇㅅㅏ -14323
▁ㅊㅜㅅㅓㄱ -14324
▁ㅁㅣㅇㅑㅈㅏㅋㅣ -14325
ely -14326
ㅌㅔㄹㅏ -14327
▁ㅂㅓㄱㅡㅁ -14328
▁TB -14329
▁ㄹㅡㄴㅔ -14330
▁ㅈㅜㄹㄱㅗㄷ -14331
▁ㄱㅏㅊㅜㄹ -14332
▁ㅁㅏㅇㅣㅇㅓ -14333
▁ㅎㅘㅇㅛㅇㅣㄹ -14334
▁ㅋㅞㅇㅣ -14335
ty -14336
▁Har -14337
▁ㅈㅏㅂㅏㄹ -14338
ㅈㅗㄱㅏㄱ -14339
▁ㅌㅏㅁㅇㅛㄱ -14340
▁ㅎㅡㅂㅇㅕㄴ -14341
▁Boy -14342
▁ㄱㅜㄷㅇㅓㅈㅣ -14343
ㅎㅏㅇㅣㄴㄷㅡ -14344
▁ㅁㅜㅈㅏㅂㅣ -14345
▁ㅋㅣㅁㅔㄹㅏ -14346
▁ㅂㅏㄴㅊㅣㄱ -14347
▁ㅌㅗㄴㅔㅇㅣㄷㅗ -14348
▁ㅂㅣㅎㅏㅇㅣㄴㄷㅡ -14349
▁ㅁㅣㄹㄹㅔㄴ -14350
▁ㄷㅐㅂㅜ -14351
▁ㅇㅖㅂㅐ -14352
▁ㅋㅗㄴㅌㅣ -14353
▁ㅇㅑㅇㅇㅏㅊㅣ -14354
icro -14355
▁ㅁㅣㄴㅇㅕㅇ -14356
ㄲㅗㄹ -14357
▁ㄲㅏㄴ -14358
▁ㅃㅏㄱㅃㅏㄱ -14359
ny -14360
▁1954 -14361
▁ㄱㅣㅊㅗㅇ -14362
▁ㅅㅡㄴㅣㅁ -14363
▁ㅇㅕㅇㅎㅘㅍㅏㄴ -14364
▁ㅇㅕㄴㅎㅢ -14365
▁ㅈㅏㄱㅇㅏㅈㅣ -14366
▁ㄷㅏㅇㄷㅏㅇㅎㅣ -14367
ㅏㄹㅜ -14368
▁ㅇㅏㅈㅏ -14369
▁ㄱㅣㅁㅌㅐㅇ -14370
▁ㅅㅏㄱㅛ -14371
▁Skill -14372
▁ㄱㅓㄹㅇㅓㅇㅗ -14373
▁ㄷㅏㅁㄷㅏㅇㅈㅏ -14374
▁ㅁㅏㄷㅓ -14375
▁ㅈㅜㅇㅇㅏㅇㅅㅓㄴ -14376
ters -14377
ㅊㅜㄱㄱㅜ -14378
▁ㅂㅔㄱㅌㅓ -14379
▁ㅎㅜㅇㅠㅈㅡㅇ -14380
▁720 -14381
▁ㅁㅜㄴㅈㅐ -14382
ㅂㅏㄷㅊㅣㅁ -14383
▁ㄱㅡㅁㄱㅣ -14384
▁ㅈㅣㅊㅣㅁ -14385
▁ㅊㅜㅊㅓㅁ -14386
▁Des -14387
▁ㅇㅗㄹㄹㅣㅂ -14388
▁ㅂㅜㅇㅕㅂㅏㄷ -14389
▁ㅇㅔㄷㅔㄴ -14390
▁ㅇㅏㄹㅜ -14391
▁ㅁㅜㅎㅕㅂ -14392
ㅌㅡㄴㅣ -14393
▁1958 -14394
▁ㅂㅗㅌㅐ -14395
▁ㅎㅖㅅㅓㅇ -14396
▁ㅊㅟㅈㅣㄱ -14397
▁ㅇㅠㄱㅈㅣ -14398
▁>, -14399
▁ㅂㅏㅇㅇㅓㅅㅓㄴ -14400
▁ㅇㅕㅇㅂㅜㄴ -14401
▁ㅇㅢㅁㅣㅅㅣㅁㅈㅏㅇ -14402
▁Ab -14403
▁ㅌㅓㄹㅣ -14404
▁ㄹㅣㅍㅗㅌㅡ -14405
▁ㄱㅜㄹㅂㅗㄱ -14406
ㅋㅔㅇㅣ -14407
▁ㄱㅚㄷㅗ -14408
▁ㅇㅣㄷㅗㅇㅎㅏ -14409
▁ㅅㅓㅁㅅㅔ -14410
▁ㄱㅓㄹㅈㅏㄱ -14411
ㅅㅗㅅㅡ -14412
▁ㅅㅓㄹㄷㅡㄱㄹㅕㄱ -14413
▁CCTV -14414
▁ㅂㅜㄱㅂㅏㅇ -14415
ㄹㅓㄹ -14416
▁ㄹㅣㅈㅔㄴ -14417
▁ㄷㅏㄴㅅㅓㄴ -14418
▁ㅇㅠㄷㅐㅇㅣㄴ -14419
▁ㅁㅐㅂㅗㄱ -14420
▁ㅂㅗㅇㅎㅘㅇ -14421
▁ㅅㅏㅁㅏㅇㅢ -14422
▁ㅇㅜㅅㅣ -14423
▁ㅊㅜㅇㅣ -14424
▁ㅋㅡㄹㄹㅏㄱ -14425
▁ㅇㅣㅇㅓㅇㅣㄴ -14426
▁1941 -14427
▁ㄷㅐㅇㅛㅇ -14428
▁ㅇㅣㄴㅈㅡ -14429
▁ㅈㅣㄹㅡㅁ -14430
▁ㅇㅕㅇㄱㅣ -14431
▁ㅈㅣㄴㅎㅡㄺ -14432
▁ㄷㅏㄴㅌㅔ -14433
ㅂㅓㄹㅣㄴ -14434
▁ㅈㅔㄹㄷㅏ -14435
ㄹㅏㄴㄷㅡㅇ -14436
▁171 -14437
▁=, -14438
ient -14439
▁ㅂㅣㅇㅗ -14440
▁ㅈㅗㄹㄱㅐ -14441
▁ㅁㅏㄴㄹㅠ -14442
▁ㄷㅏㅇㅣㅇㅓㅌㅡ -14443
▁480 -14444
▁ㅊㅜㅇㅅㅓㅇㅅㅣㅁ -14445
▁DA -14446
▁ㅅㅐㅇㅁㅜㄹㅎㅏㄱ -14447
▁ㅅㅓㅇㅊㅔ -14448
▁ㅅㅣㄹㅕㄱ -14449
▁OO -14450
▁ㄱㅛㅎㅘ -14451
▁ㅅㅜㅈㅏㄱ -14452
▁Big -14453
▁ㅊㅔㄱㅏ -14454
▁ㅇㅣㅇㅋㅡ -14455
ㅊㅔㅅㅡ -14456
▁ㅈㅗㅇㅠㄹ -14457
▁ㅇㅑㅇㄴㅕㅁ -14458
ㅔㄴㅣㅇㅏ -14459
▁ㄷㅠㅇㅔㅅ -14460
▁ㅁㅏㄴㄷㅜ -14461
▁id -14462
ㅣㅇㅏㅅㅡ -14463
▁ㅋㅡㄹㅗㅇㅏㅌㅣㅇㅏ -14464
▁ㅁㅔㄹㅏ -14465
▁ㅇㅕㅅㅏ -14466
▁1900 -14467
▁ㅅㅓㄱㅎㅘ -14468
▁ㅅㅓㅇㄴㅕ -14469
▁PSP -14470
▁ㅊㅏㅈㅗㅇ -14471
▁ㅊㅗㅇㅅㅏㄹㅕㅇ -14472
ㅌㅗㅅㅣ -14473
▁ㅈㅏㅁㅜㄴ -14474
▁ㄱㅕㄴㅇㅣㄴ -14475
▁ㅎㅕㅂㄱㅗㄱ -14476
▁ㅋㅏㅇㅜㄴㅌㅣ -14477
▁ㅂㅜㅁㅔㄹㅏㅇ -14478
▁Tri -14479
▁ㅍㅣㄹㅣ -14480
▁ㅃㅏㄱㅅㅔ -14481
▁ㅇㅠㅎㅐㅇㅇㅓ -14482
▁ㄷㅡㄹㅣㅍㅡㅌㅡ -14483
▁png -14484
▁ㅁㅏㄴㅅㅔ -14485
▁ㅇㅝㄴㄹㅗ -14486
▁ㅎㅏㅇㅘㅇㅣ -14487
▁ㄱㅓㅅㅡ -14488
▁kn -14489
▁ㅇㅣㅁㄱㅘㄴ -14490
▁ㅂㅗㄱㅇㅡㅁ -14491
▁ㅌㅠㄴㅓ -14492
▁ㅆㅡㅂㅆㅡㄹ -14493
▁ㅈㅔㅇㅣㅅㅡ -14494
▁ㅇㅗㅋㅡㄹㄹ -14495
▁ㅊㅣㅅㅏ -14496
▁ㅇㅕㅁㅅㅗ -14497
▁181 -14498
ㄷㅡㄱㅔㅇㅣㅁ -14499
▁8000 -14500
▁ㅅㅔㄱㅏㄴ -14501
▁ㄱㅕㅇㅈㅐㅇㄹㅕㄱ -14502
▁UR -14503
ㅈㅣㅁ -14504
▁ㅅㅐㅇㅅㅏ -14505
▁ㅎㅏㄴㅅㅡ -14506
▁ㅁㅜㄴㅎㅓㄴ -14507
▁ㅌㅡㄹㅇㅓㅈㅣ -14508
▁ㅌㅓㅂ -14509
▁DT -14510
▁ㅁㅏㄴㅎㅚ -14511
▁ㄱㅡㅁㄱㅗㄱ -14512
▁ㅇㅣㅂㅊㅔ -14513
ful -14514
uch -14515
▁ㄱㅣㅁㅏㄴ -14516
▁ㅅㅣㄷㅗㅇ -14517
▁ㅂㅣㄱㅌㅓ -14518
▁ㅈㅗㅈㅏㅇ -14519
▁ㄴㄷㅏㅁㅕㄴㅅㅓ -14520
▁ㄷㅗㅇㅊㅏㅁ -14521
▁ㅇㅓㅇㅝㄷㅡ -14522
▁ㅅㅏㅇㅣㄹㄹㅓㄴ -14523
▁ㅁㅣㄹㅕㄴ -14524
▁ㄱㅜㄴㅂㅓㄹ -14525
▁ㅇㅔㅇㅣㅂ -14526
▁ㅅㅏㅇㅇㅝㄴ -14527
▁ㅅㅡㅌㅐㄴㄷㅏㄷㅡ -14528
▁ㅍㅏㅈㅏㅇ -14529
▁ㅇㅕㄴㅎㅕㄱ -14530
▁ㄱㅕㄱㄷㅗㄹ -14531
▁ㅇㅝㄴㄱㅕㄱ -14532
▁ㅊㅓㄴㅎㅘㅇ -14533
▁ㄱㅗㅂㅜㄴ -14534
▁ㅊㅏㅇㅇㅢ -14535
▁ㅂㅏㅇㄹㅏㅇ -14536
▁ㅅㅑㅇㅣㄴㅣㅇ -14537
▁Ext -14538
▁ㄷㅣㄷㅣ -14539
▁ㅅㅡㅍㅔㄱㅌㅓ -14540
▁ㅂㅗㅇㄱㅣ -14541
▁ㄴㅏㄴㄷㅗㅇ -14542
▁ㅇㅠㄱㅏㅁ -14543
▁XP -14544
bl -14545
▁ㄴㅏㅊㅅㅓㄹ -14546
▁ㄱㅏㅊㅣㄱㅘㄴ -14547
▁ㄱㅕㄱㄴㅗ -14548
ㅋㅡㄹㄹㅔㅅㅡ -14549
▁ㄱㅟㅈㅜㅇ -14550
▁ㅅㅐㅇㅁㅗㄹ -14551
▁ㅈㅡㅇㅇㅝㄴ -14552
▁ㅈㅣㄱㄱㅘㄴ -14553
ㅋㅡㄹㅗㅅㅡ -14554
▁ㄱㅏㅈㅔ -14555
ㅍㅡㄹㅔㅅㅡ -14556
▁ㅁㅗㄱㅣ -14557
▁ㅌㅗㅇㅇㅛㅇ -14558
▁RS -14559
ship -14560
▁ㅂㅜㄹㄹㅓㄷㅡㄹㅇㅣ -14561
▁ㅅㅓㅇㅁㅗ -14562
▁ㅇㅠㄹㄹㅣ -14563
▁ㄱㅣㄱㅘㄴㅊㅏ -14564
▁ㅇㅣㅇㅔ -14565
▁ㅇㅝㄴㄴㅕㄴ -14566
85 -14567
▁ㅅㅓㅇㄱㅠㄴ -14568
ㅅㅡㅂㅜㄹㅡㅋㅡ -14569
▁ㅅㅓㄴㅊㅔ -14570
▁ㄹㅔㅈㅣㄴ -14571
▁STAR -14572
▁ㄹㄱㅔㅇㅛ -14573
▁ㅊㅣㅈㅜㅇ -14574
▁ㅇㅠㄴㅈㅗㅇ -14575
▁ㅈㅏㅇㅟㄷㅐ -14576
▁ㅅㅓㅇㄱㅠㄴㄱㅘㄴ -14577
▁ㅅㅑㅇㅏ -14578
▁ㅇㅑㅇㅁㅕㄴ -14579
ㅋㅏㄹㄹㅣ -14580
▁ㅈㅏㅇㄱㅣㄱㅏㄴ -14581
▁ㅊㅡㅋㅏㅅㅏ -14582
▁ㄴㅏㅊㅡㅁㅣ -14583
▁ㅈㅗㅈㅔ -14584
▁ㅌㅏㄷㅏ -14585
▁ㅅㅗㅇㅂㅕㅇ -14586
▁ㅎㅏㄱㅊㅏㅇ -14587
ㅈㅏㅋㅏ -14588
▁1948 -14589
▁ㅇㅣㅅㅓㅇㄱㅖ -14590
▁ㅂㅔㄴㅣ -14591
▁ㅂㅚ -14592
▁ㅇㅗㅂㅣ -14593
▁ㄷㅣㅌㅔㅇㅣㄹ -14594
ㅗㅇㅣㄴ -14595
ㄹㅣㄱㅓㅁ -14596
▁ㅈㅏㅁㅂㅗㄱ -14597
ㅊㅘㄹ -14598
▁ㅎㅡㄱㅂㅐㄱ -14599
▁qu -14600
▁ㄴㅐㄱㅓㄹ -14601
▁ㅇㅞㅇㅣㅌㅡ -14602
ㅊㅐㅇ -14603
▁ㅂㅜㅍㅜㄹ -14604
▁255 -14605
▁ㄴㅡㄱㅡㅅ -14606
▁ㅂㅐㅂㅜㄴ -14607
▁ㅂㅣㅅㅛㅂ -14608
ㄷㅡㄹㅣㅎㅣ -14609
▁ㄱㅏㄹㄹㅐ -14610
▁ㅈㅓㅇㅇㅣㄴ -14611
▁ㅅㅜㄹㅣㄱㅓㅁ -14612
ㄹㅣㅋㅔㅇㅣㅅㅕㄴ -14613
▁Inf -14614
▁ㅎㅣㄹㅗㅇㅠㅋㅣ -14615
▁Bar -14616
▁Sil -14617
▁ㄱㅡㄹㅣㅇ -14618
▁ㅂㅓㄹㅊㅣㄱ -14619
▁ㅇㅜㅇㅣㄱㅅㅜ -14620
▁ㅅㅓㅋㅓㅅㅡ -14621
▁ㅅㅣㄱㅜㅇㅊㅏㅇ -14622
▁ㅅㅗㅇㅇㅣ -14623
▁ㅈㅣㄷㅗㄱ -14624
▁ㅌㅚㄱㅡㄴ -14625
▁KS -14626
▁ㄱㅜㄴㅅㅏㄴ -14627
▁ㅍㅡㄹㅔㄷㅣ -14628
▁ㄷㅐㄴㅣ -14629
▁ㅊㅓㅇㄹㅑㅇ -14630
ㅈㅓㅇㅇㅕㄱ -14631
▁ㅈㅓㄴㄴㅕㄴ -14632
▁ㅇㅘㅇㄱㅜㅇ -14633
▁ㅌㅔㄹㄹㅔㅋㅗㅁ -14634
ㅡㄹㄹㅐㄴㄷㅡ -14635
▁ㅇㅏㄹㅂㅔㄹㅡ -14636
▁ㅁㅗㅎㅗ -14637
▁OR -14638
▁ㅋㅓㅂㅡ -14639
▁White -14640
▁ㅈㅗㅎㅕㄴ -14641
▁ㅍㅔㄹㅗ -14642
ㅌㅔㄹㅣ -14643
▁ㅅㅗㄴㄴㅕ -14644
▁ㅌㅗㅌㅔㅁ -14645
▁ㅇㅏㅌㅔㄴㅔ -14646
▁ㅍㅏㄴㄷㅗㄹㅏ -14647
▁Win -14648
▁ㅌㅐㄱㅗ -14649
▁ㅈㅣㄴㄱㅘ -14650
▁ㅅㅗㄹㄹㅗㅁㅗㄴ -14651
ㄱㅣㅅ -14652
▁ㅇㅛㅇㅣㄹ -14653
▁ㅍㅡㄹㅔㄷㅔ -14654
▁ㅇㅏㄹㅗㄴ -14655
▁ㅊㅏㅇㅅㅣ -14656
▁Back -14657
ump -14658
co -14659
▁ㅂㅜㅎㅘ -14660
▁ㅈㅏㄱㄹㅕㄹ -14661
▁ㅈㅗㅁㅊㅓㄹㅓㅁ -14662
▁ㅆㅏㅁ -14663
▁ㅇㅓㄹㅌㅓ -14664
ㅎㅕㄱㅁㅕㅇ -14665
▁ㅇㅘㅇㄸㅏ -14666
▁ㅇㅕㄷㅗ -14667
▁ㅇㅏㅅㅏㄴ -14668
▁ㅋㅗㄴㅋㅡㄹㅣㅌㅡ -14669
▁ㅇㅡㄹㅏㄴㅡㄴ -14670
▁PO -14671
▁ㄱㅣㅁㅅㅔ -14672
ㄱㅗㅇㄱㅕㄱ -14673
▁ㄴㅡㄹㅇㅓㄴㅗㅎ -14674
▁ㅍㅏㅋㅣㅅㅡㅌㅏㄴ -14675
26 -14676
▁ㄸㅓㄷㅡㄹ -14677
▁ㅌㅏㅋㅜㅁㅣ -14678
▁ㅁㅏㄹㅡㅌㅣㄴ -14679
▁ㄱㅗㅇㅂㅕㅇ -14680
▁ㅌㅡㄱㅊㅘㄹ -14681
▁ㅈㅐㅍㅐㄴ -14682
ㄹㅣㅇㅞ -14683
ift -14684
▁PM -14685
▁ㅂㅏㄴㅡㄹ -14686
▁ㅇㅕㄴㄹㅜ -14687
▁jp -14688
ㅌㅟㄱㅣ -14689
▁ㄷㅏㄴㅅㅣㄴ -14690
▁ㅋㅡㄹㄹㅔㅇㅣ -14691
▁ㅂㅡㄹㄹㅜㅅㅡ -14692
▁ㅍㅗㄱㅍㅗ -14693
▁ㅇㅏㅌㅡㄹㄹㅔ -14694
▁Fre -14695
▁ㅊㅚㅈㅓㄴ -14696
ㅅㅏㄱㅏ -14697
▁down -14698
ㅅㅏㄴㅁㅜㄹ -14699
▁ㄱㅗㄹㄱㅗㄹ -14700
▁ㅈㅓㅂㅅㅣ -14701
▁ㄱㅗㅇㅑㅇㅅㅣ -14702
▁ㅂㅏㄱㅁㅣㄴ -14703
▁ㅅㅔㄹㅡㅂㅣㅇㅏ -14704
▁ㄱㅏㄴㅅㅣㄱ -14705
▁ㅈㅡㄹㄱㅓㅇ -14706
▁ㅊㅗㅇㅝㄴ -14707
▁ㅊㅐㅅㅗ -14708
▁ㄴㅏㄱㅣㅅㅏ -14709
▁ㅈㅔㅇㅣㅋㅡ -14710
▁ㅃㅓㅇㅌㅟㄱㅣ -14711
▁NG -14712
RAM -14713
▁ㅅㅡㅌㅔㅇㅣㅌㅡ -14714
▁ㅃㅐㄱ -14715
▁ㅂㅏㅅㅣㄹ -14716
▁ㅊㅗㄱㅡㅂ -14717
▁ㅎㅓㅇㅕㅇ -14718
▁420 -14719
▁ㅇㅣㅇㅡㄱ -14720
ㅅㅣㄱㅖ -14721
▁ㅇㅗㄷㅣ -14722
▁ㅎㅏㄱㄱㅖ -14723
▁ㅇㅣㅇㅡㄱㄱㅗ -14724
▁ㅅㅣㄹㅎㅓㅁㅅㅣㄹ -14725
▁ㄹㅓㅂㅡㄹㄹㅣ -14726
▁ㅈㅔㅁㅓㅅㄷㅐㄹㅗ -14727
▁ㄱㅡㅁㅈㅓㄴ -14728
▁GL -14729
▁215 -14730
ㅌㅡㄹㄹㅣㅇ -14731
▁ㄱㅓㅅㅡㄹㄹㅣ -14732
▁ㅇㅣㄱㅡㄴ -14733
▁ㄱㅘㄴㅇㅏㄱ -14734
▁ㅇㅓㅈㅣㄱㅏㄴㅎㅣ -14735
ENT -14736
ㄸㅏㄹㅡ -14737
▁ㅂㅐㄱㅅㅐㄱ -14738
▁ㅅㅣㅁㄹㅣㅎㅏㄱ -14739
ㅁㅗㅅㅏ -14740
▁ㅈㅣㅂㅈㅓㅇ -14741
▁ㅅㅗㅇㅡㅁㄱㅣ -14742
▁ㅌㅔㄴㅅㅕㄴ -14743
▁ㅇㅓㅈㅜㅇㄱㅏㄴ -14744
▁ㅎㅚㅇㄷㅏㄴ -14745
▁ㅌㅜㄹㅡ -14746
▁ㅋㅔㄴㅇㅣㅊㅣ -14747
▁FE -14748
▁off -14749
▁1949 -14750
▁ㄷㅗㅌㅏ -14751
ㅁㅓㄱㅇㅣ -14752
▁ㄱㅓㅈㅜㅈㅣ -14753
▁ㅁㅐㅌㅡ -14754
▁ㅇㅏㅍㅁㅏㄷㅏㅇ -14755
ㅈㅡㄹㅜ -14756
ㅇㅙ -14757
ATION -14758
▁ㅇㅑㅇㄷㅗㅇ -14759
▁ㅇㅗㄷㅓㄱ -14760
▁ㅅㅏㅌㅗㅅㅣ -14761
▁ㅅㅓㄷㅗㄱ -14762
▁ㅊㅣㄴㅁㅣㄹ -14763
ㅊㅔㄴ -14764
▁every -14765
▁ㅌㅡㄹㅔㅇㅣㅅㅓ -14766
▁ㅍㅗㅌㅓㄹ -14767
ㅎㅡㄹ -14768
▁ㄱㅏㄹㄱㅗㄹㅣ -14769
▁Met -14770
▁ㅅㅏㅇㅠㄱ -14771
▁ㅎㅡㄹㄹㅓㄴㅏㅇㅗ -14772
▁ㅈㅜㅇㅇㅓㄹㄱㅓㄹㅣ -14773
▁ㅇㅛㄱㄱㅜ -14774
edia -14775
ㅂㅔㅇㅣ -14776
▁ㅇㅏㅍㅗㄹㄹㅗ -14777
▁ㅈㅏㅅㅗㄴ -14778
▁ㄱㅏㅇㅂㅕㄴ -14779
▁ㅅㅣㄹㅊㅓㄴ -14780
▁ㅍㅗㅇㅣ -14781
▁ㅋㅔㅅ -14782
▁ㅈㅓㅇㅇㅠ -14783
▁ㅋㅗㄴㅌㅔ -14784
▁ㅍㅜㅇㅈㅏ -14785
▁ㅎㅔㄷㅣㅇ -14786
▁ㅅㅛㅍㅣㅇㅁㅗㄹ -14787
▁ㅂㅏㅂㅏ -14788
▁ㅁㅔㅇㅏㄹㅣ -14789
▁ㅅㅓㅇㅍㅗㄱㅎㅐㅇ -14790
▁ㄴㅏㅊㅡㅋㅣ -14791
▁ㅂㅐㄱㅁㅣ -14792
▁ㅂㅣㄹㅁㅣ -14793
▁Sky -14794
ㄷㅡㄱㅈㅓㅁ -14795
▁Hey -14796
▁ㅇㅣㄴㅈㅏㅇ -14797
▁ㅇㅕㄹㅍㅜㅇ -14798
▁ㅌㅔㅋㅡㄴㅗ -14799
▁ㅌㅡㄹㄹㅣㅁ -14800
▁CEO -14801
▁ㅅㅚㅌㅚ -14802
▁ㅁㅜㅂㅓㅂ -14803
▁ㅇㅠㅇㅔㄴ -14804
▁ㄴㅡㄹㅇㅓㅈㅣ -14805
▁ㅇㅠㄱㅂㅏㄱ -14806
▁ㄹㅏㅇㅜㄴ -14807
▁ㅍㅓㄸㅡㄹㅣ -14808
▁ㄷㅠㄹ -14809
ㄱㅣㅈㅣ -14810
▁ㅈㅔㅂㅣ -14811
▁ㅅㅐㄱㅊㅐ -14812
▁ㅇㅣㄴㄱㅣㅌㅜㅍㅛ -14813
▁ㄴㅏㅁㅇㅛㅇ -14814
▁ㅍㅣㅇㅔㄹㅡ -14815
▁ㅈㅔㅎㅠ -14816
▁ㅁㅏㅂㅣㄴㅗㄱㅣ -14817
▁ㅇㅣㅅㅡㅇㅇㅕㅂ -14818
▁ㅂㅕㄴㅈㅗㅇ -14819
ㅂㅣㅇㅏㄴ -14820
ALL -14821
▁208 -14822
▁ㅂㅕㅇㅁㅏㅅ -14823
▁ㅎㅕㄴㅈㅗㄴ -14824
▁ㅋㅡㄹㅣㅅㅡㅌㅣㅇㅏㄴ -14825
▁ㅁㅜㅇㅢ -14826
▁ㅂㅣㅌㅗ -14827
▁ㅇㅗㅍㅓㄹㅔㅇㅣㅌㅓ -14828
▁ㄱㅘㅇㅂㅜ -14829
▁235 -14830
▁Act -14831
ㄱㅣㅇㅓ -14832
▁ㅈㅏㄷㅡ -14833
▁ㅅㅓㅈㅣㄴ -14834
▁ㅇㅣㄴㅍㅡㄹㅏ -14835
ㅓㄱㅅㅡ -14836
ERT -14837
▁UFO -14838
▁ㅍㅏㅇㅓㅂ -14839
▁}{ -14840
▁ㄱㅓㅁㅜㄹ -14841
▁ㅅㅓㅇㅅㅓ -14842
▁ㅇㅕㄱㄱㅣ -14843
▁FN -14844
▁ㅍㅐㄱㅓㄹㅣ -14845
▁ㄷㅐㅎㅏㄴㅎㅏㅇㄱㅗㅇ -14846
▁ㅅㅜㅅㅗ -14847
▁ㅇㅠㄱㅅㅣㄱ -14848
ㄷㅡㅇㅟ -14849
▁ㅇㅖㄹㅣ -14850
▁ㅇㅠㅇㅜㅇ -14851
▁ㄱㅓㅈㅔ -14852
▁1936 -14853
▁ㅌㅏㅇㅣㅇ -14854
▁ㅎㅑㅇㅅㅜ -14855
▁ㅅㅣㅈㅜㅇ -14856
▁ㅊㅔㅇㅣㅅㅡ -14857
▁ㅍㅕㄴㅈㅔ -14858
▁ㄷㅚㄷㅗㄹㅇㅏㄱㅏ -14859
▁ㄱㅐㅂ -14860
▁ㅂㅣㄴㅡㄹ -14861
▁ㅅㅜㅂㅐ -14862
▁ㄷㅐㅁㅓㄹㅣ -14863
▁ㄹㅓㄴㄴㅣㅇㅁㅐㄴ -14864
▁333 -14865
▁ㅈㅓㅇㅎㅕㄴ -14866
BM -14867
▁ㅅㅏㅂㅎㅘ -14868
▁ㅅㅏㄷㅏㄹㅣ -14869
▁ㄴㅡㄴㅑㄱㅗ -14870
ㅌㅔㄴㅏ -14871
▁ㄱㅏㅇㅅㅜ -14872
▁ㅎㅏㄹㅔㅁ -14873
oud -14874
▁ㅊㅜㄹㅅㅐㅇㅈㅣ -14875
ㅔㅅㅣ -14876
▁ㅂㅕㅇㅇㅕㅇ -14877
▁ㅇㅏㄹㅇㅏㄷㅡㄷ -14878
▁ve -14879
▁ㅎㅗㅅㅡ -14880
▁ㅍㅡㄹㅣㄹ -14881
▁FX -14882
less -14883
▁ㅁㅏㅈㅏㅇ -14884
▁ㅊㅓㄷㅏㄴ -14885
▁ㅇㅠㅋㅙ -14886
▁ㅎㅟㅂㅆㅡㄹㄹㅣ -14887
▁ㅂㅣㅎㅐㅇㅅㅓㄴ -14888
ㅈㅜㄹㅗ -14889
ㅎㅗㄷㅗ -14890
▁ㅋㅑ -14891
▁That -14892
▁TD -14893
▁206 -14894
▁ㅊㅓㄹㅎㅚ -14895
▁ㄱㅔㅇㅡㄹ -14896
ㅣㅅㅡㅌㅏㄴ -14897
▁ㄷㅓㅇㅋㅡ -14898
▁ㅇㅏㅍㅡㅁ -14899
ize -14900
▁NL -14901
▁ㅋㅏㅅㅔ -14902
▁ㅂㅗㄴㄱㅜㄱ -14903
▁ㅎㅏㅇㅅㅗㄱ -14904
▁ㅋㅗㅈㅣㅁㅏ -14905
ㅇㅣㅇㅓ -14906
▁ㅇㅏㅇㅣㄹㅣ -14907
▁ㅎㅏㅂㅂㅏㅇ -14908
▁ㄱㅐㅌㅡㄹㄹㅣㅇ -14909
▁ㄷㅡㄹㅜ -14910
▁Song -14911
▁ㄴㅏㄴㅍㅗㄱ -14912
▁ㅊㅗㄷㅗㅇ -14913
▁ㅅㅔㅊㅡㄴㅏ -14914
▁em -14915
ㄱㅙ -14916
▁ㅇㅗㄷㅡ -14917
▁ㄱㅡㄱㅊㅏㄴ -14918
ㅎㅘㄱㅜㄱ -14919
▁ㄴㅏㄹㅜㅎㅗㄷㅗ -14920
95 -14921
▁ㄴㅚㄱㅕㄱ -14922
▁ㅂㅣㅇㅑㄱ -14923
ㅂㅕㄴㅅㅗㄱㄱㅣ -14924
▁ㄱㅣㄱㅓㅂ -14925
▁ㅇㅗㅁㅏㅈㅜ -14926
▁con -14927
ㅊㅓㄴㄷㅗㅇ -14928
▁May -14929
▁ㅊㅏㅁㅍㅐ -14930
▁ㅅㅓㅇㅁㅜㄴ -14931
▁ㄱㅣㅎㅏ -14932
▁ㄸㅓㄹㅇㅓㅌㅡㄹㅣ -14933
▁ㄱㅕㅇㅇㅣㄴ -14934
bps -14935
ㄹㄹㅗㅇㅜ -14936
▁ㅁㅜㄴㅇㅢ -14937
▁ㅇㅏㅇㅜㄹㄹㅓ -14938
▁ㅁㅏㅇㅣㅇ -14939
▁ㅋㅣㅂㅏ -14940
▁ㄱㅣㅁㅇㅣㄴ -14941
▁ㅅㅣㅁㅍㅡㄹ -14942
▁ㄹㅈㅣㄷㅗ -14943
▁ㅅㅗㄱㅇㅗㅅ -14944
▁ㅇㅗㄹㄹㅏㅌㅏ -14945
▁ㅍㅣㄹㅏㅁㅣㄷㅡ -14946
▁ㅋㅗㄹㅣ -14947
▁ㅇㅕㅇㄹㅣ -14948
▁ㅅㅓㅂㅜㅌㅓ -14949
ㅇㅢㅎㅚ -14950
▁ㅈㅓㄻㅇㅡㄴㅇㅣ -14951
▁ㅅㅔㅁㅣ -14952
ㅂㅏㅇㅎㅑㅇ -14953
▁161 -14954
ㅂㅏㅅㅣ -14955
ㅎㅏㄴㅣ -14956
▁ㅁㅕㄹㅈㅏ -14957
▁ㅁㅏㅊㅡㅁㅗㅌㅗ -14958
▁ㅇㅘㅇㅣㄹㄷㅡㅋㅏㄷㅡ -14959
▁ㅎㅓㅅㅅㅗㄹㅣ -14960
ㅁㅍㅡ -14961
▁ㄴㅜㅁㅏ -14962
ㅅㅏㄹㅏ -14963
VEL -14964
▁ㅅㅓㅇㄱㅓㅁ -14965
ㅔㅁㅣ -14966
▁ㄱㅖㅂㅗ -14967
▁ㅋㅡㄹㅣㅅㅡㅌ -14968
ㅃㅏㄹㅡ -14969
▁ㅅㅞㄹ -14970
▁ㅇㅠㅁㅗㄱ -14971
ape -14972
▁ㅌㅣㅁㅋㅣㄹ -14973
▁GAM -14974
▁850 -14975
▁ㅇㅟㄴㅏㄹㅏ -14976
▁ㅅㅏㅇㄷㅐㅍㅕㄴ -14977
▁ㅇㅕㅈㅣㄴ -14978
▁ㄴㅐㄴㅕㄴ -14979
▁ㅅㅡㅍㅡㄹㄹㅣㅅ -14980
UB -14981
▁ㄹㅣㅇㅗㅅㅡ -14982
ㅈㅣㄷㅐ -14983
▁ㅇㅑㄴㄷㅔㄹㅔ -14984
▁want -14985
▁ㅂㅐㄱㅡㅂㅅㅏ -14986
▁ㅍㅔㅇㅣㄴㅌㅡ -14987
▁ㅇㅠㅇㅜㅇㅑ -14988
▁ㄱㅣㅁㅌㅐㄱㅠㄴ -14989
▁God -14990
▁ㄱㅏㅁㅅㅣㅈㅏ -14991
▁ㅁㅏㄱㅡㅁㅏ -14992
▁ㅁㅕㅇㅇㅣㄴ -14993
▁ㄲㅡㅌㅍㅏㄴ -14994
▁ㅊㅔㅅ -14995
▁ㅍㅛㅂㅏㅇ -14996
▁ㅍㅜㄹㅂㅐㄱ -14997
▁ㅇㅕㅇㅊㅏㅇ -14998
▁ㅈㅘㅅㅓㄱㅂㅓㅅㅡ -14999
ger -15000
▁ㄱㅏㄲㅏ -15001
▁ㄷㅗㄱㅅㅓㅇ -15002
▁ㅅㅗㅇㄱㅗㅅ -15003
▁ㅈㅓㅇㅂㅓㄹ -15004
▁ㅋㅏㅇㅔㄷㅔ -15005
▁ㄱㅏㄲㅏㅅㅡㄹㅗ -15006
▁ㅂㅜㄹㄱㅏㄹ -15007
▁ㅁㅔㅅㅡ -15008
▁ㄱㅏㄴㅔㅅ -15009
▁ㅂㅐㄴㅅㅣ -15010
▁ㅈㅏㅇㄹㅐ -15011
IST -15012
ㅐㄱㅗㄴ -15013
96 -15014
▁ㅌㅗㅇㅘ -15015
▁ㅂㅜㅊㅣ -15016
ㅔㅇㅣㄴㅈㅣ -15017
▁ㄱㅏㅁㅜㄹ -15018
▁ㄴㅗㅂㅡㄹ -15019
▁ㅇㅣㄹㅈㅏㄹㅣ -15020
▁ㄷㅏㄴㅏㅋㅏ -15021
▁ㅁㅗㅌㅓㅅㅡ -15022
▁ㅇㅑㄱㅣ -15023
▁ㅂㅕㄱㄷㅗㄹ -15024
▁ㅍㅣㅁ -15025
▁ㅌㅡㄹㅣㅇㅗ -15026
▁ㅅㅓㄴㅂㅏㄹㅈㅓㄴ -15027
▁Rain -15028
▁ㅈㅓㄹㅓㅎ -15029
▁ㅂㅜㄱㄱㅡㄱ -15030
▁ㄷㅗㅁㅏㅂㅐㅁ -15031
aka -15032
▁RAM -15033
▁ㅁㅔㅅㅗ -15034
▁ㅎㅗㄷㅐ -15035
▁ㅂㅣㄹㄹㅏ -15036
▁ㅂㅅㅣㄷㅏ -15037
▁ㅅㅗㅇㅣㄴ -15038
▁ㄹㅏㄹㄲㅏ -15039
▁ㄷㅚㄹㅕ -15040
▁ㅇㅕㅇㅈㅏㅇ -15041
ita -15042
▁ㄱㅣㅇㅘ -15043
ㅅㅣㄹㅎㅣ -15044
▁ㄱㅜㅁㅏㄴ -15045
▁ㅇㅓㄴㄹㅏㄱ -15046
▁ㄴㅐㄹㅕㄴㅗㅎ -15047
▁ㅋㅏㄷㅗ -15048
▁ㅎㅗㅇㄷㅐ -15049
▁ㅂㅣㅇㅛㄴ -15050
▁ㅇㅏㄹㅏㄴ -15051
▁ㅈㅣㅇㅂㅕㅇ -15052
▁ㄸㅐㅇㅜ -15053
ㄱㅗㅇㅎㅘㄱㅜㄱ -15054
▁ㅊㅓㅇㅅㅐㄱ -15055
ㄸㅐㄹㅗ -15056
▁ㄴㅗㅎㅏ -15057
▁ㄴㅏㅁㅇㅏㄱ -15058
▁ㅇㅓㄹㅣㄴㅇㅐ -15059
▁ㅇㅣㄴㅍㅣㄴㅣㅌㅡ -15060
▁290 -15061
▁ㅂㅗㄹㄷㅡ -15062
▁ㅍㅡㄹㄹㅏㅇㅝ -15063
▁ㅂㅗㄱㅈㅗㅇ -15064
ㄴㅏㅇ -15065
▁ㅈㅏㅁㅕ -15066
ㄱㅜㅇㅕㄱ -15067
▁ㅂㅜㄱㄷㅜ -15068
▁ㅂㅏㄱㅅㅔ -15069
▁ㄷㅗㄹㅡㅌㅡㅁ -15070
▁RF -15071
ㄷㅐㄱㅜㄱ -15072
▁ㄱㅕㅇㅇㅟ -15073
▁ㄷㅗㄹㅡㅌㅡㅁㅜㄴㅌㅡ -15074
zy -15075
▁ㅂㅜㄹㅇㅜㄴ -15076
▁ㅅㅣㅁㅅㅣㅁㅊㅏㄶ -15077
▁Top -15078
▁ㄴㅏㄴㅎㅐ -15079
▁ㅈㅓㅇㄹㅕㄹ -15080
▁ㅁㅜㄴㅏㄴㅎㅣ -15081
▁ㄱㅡㄹㅔㄱ -15082
▁ㅁㅏㅇㅇㅝㄴ -15083
76 -15084
▁ㅈㅗㅈ -15085
▁ㅇㅣㅈㅐㅇ -15086
ORM -15087
▁ㄱㅗㅅㅡㄹ -15088
▁ㄷㅏㄴㄱㅏㄴ -15089
ㄲㅡㅌ -15090
▁ㅅㅓㅁㅕㄴ -15091
▁ㅇㅕㄱㅓㄴ -15092
▁ㅇㅕㄹㅈㅓㄴ -15093
▁ㅋㅓㄴㅌㅔㅇㅣㄴㅓ -15094
▁ㅅㅜㄹㅔ -15095
▁ㅊㅣㄴㅇㅣㄹ -15096
▁ㄷㅏㅇㅂㅜㄴㄱㅏㄴ -15097
▁ㄱㅚㄹㅗㅇ -15098
▁ㅈㅔㅅ -15099
▁ㄱㅔㄹㅡㅁ -15100
▁." -15101
ㅣㄴㅔㅇㅣㅌㅓ -15102
▁ㅎㅏㄷㅔㅅㅡ -15103
▁ㅋㅝㅇ -15104
ㅁㅗㅈㅏ -15105
▁more -15106
▁ㄷㅐㄱㅏㄱㅅㅓㄴ -15107
▁ㄷㅔㅇㅣㅈㅡ -15108
rop -15109
ㅗㅇㅣㅌㅡ -15110
▁ㅈㅓㅇㄱㅠㄱㅜㄴ -15111
▁ㅌㅡㄱㅊㅜㄹ -15112
▁ㅇㅠㅊㅜ -15113
▁ㅈㅓㄹㅁㅛ -15114
▁ㅈㅜㄹㅈㅜㄹㅇㅣ -15115
▁ㅂㅓㄷㅣ -15116
▁ㅋㅏㄹㄹㅓㅁ -15117
▁ㅅㅜㄴㄱㅛㅈㅏ -15118
▁ㅊㅐㄱㅇㅣㅁㅈㅏ -15119
▁ㅅㅓㄱㅌㅏㄴ -15120
▁Pe -15121
▁WAR -15122
▁ㅊㅣㄴㅇㅟㄷㅐ -15123
▁ㅈㅓㄴㅇㅛㅇㄱㅣ -15124
▁ㄴㅐㄹㅠㄱ -15125
▁ㅇㅕㄱㅎㅏㄱ -15126
▁ㅇㅟㅎㅘㄱㅏㅁ -15127
▁ㅇㅣㅈㅔㄷㅗㅇ -15128
▁ㅊㅜㄱㄱㅜㄷㅏㄴ -15129
▁1955 -15130
▁ㅅㅡㅁㅗㄹ -15131
▁ㅈㅗㄴㅅㅗㄱ -15132
▁ㅇㅏㄷㅏ -15133
▁ㄴㅐㅁ -15134
▁ㅁㅏㅁㅗ -15135
▁ㅇㅛㄷㅗㅇ -15136
▁Battle -15137
▁ㄷㅡㄹㅔㅇㅣㅋㅡ -15138
▁ㅈㅏㅂㅜㅅㅣㅁ -15139
▁ㅌㅡㄱㄱㅗㅇㄷㅐ -15140
ㅔㅇㅣㄴㅈㅓ -15141
▁ㄲㅗㄱㄷㅜㄱ -15142
▁ㄷㅟㅌㅡㄹㄹㅣ -15143
▁ㄷㅏㅇㅣㅅㅡ -15144
IGHT -15145
▁ㄹㅏㅇㅣㅌㅓ -15146
▁ㅁㅐㅌㅡㄹㅣㄱㅅㅡ -15147
▁ㅅㅓㄴㄷㅗ -15148
▁Moon -15149
ㅈㅏㄱㅈㅓㄴ -15150
▁ㅊㅣㅇㅅㅗㅇ -15151
▁ㄲㅗㄱㄷㅜㄱㅏㄱㅅㅣ -15152
▁ㅇㅕㄱㅈㅓㄴㅅㅡㅇ -15153
▁Game -15154
▁ㅎㅗㄱㅡ -15155
▁ㅇㅣㅅㅣㄴ -15156
▁ㄱㅏㅂㅍㅏㄴ -15157
▁ㅈㅜㅇㅅㅓㅇ -15158
▁ㅇㅏㅂㅜ -15159
▁ㅎㅘㅅㅗㄱ -15160
▁ㄱㅏㅊㅏㅇㄹㅕㄱ -15161
bo -15162
net -15163
▁ㅇㅣㄹㅈㅣㄱ -15164
ward -15165
▁ㅈㅏㅇㅏㄴㅐ -15166
▁ㅎㅐㅇㄷㅗㅇㄹㅕㄱ -15167
ㄷㅡㄹㅣㄱ -15168
ara -15169
▁ㅆㅜ -15170
▁ㅅㅓㄴㅍㅜㅇ -15171
▁ㅌㅡㄹㅣㄴㅣ -15172
▁TEC -15173
ㅎㅏㅇㅟ -15174
▁ㄷㅏㄴㄷㅏ -15175
▁ㅊㅗㅇㅌㅗㅇ -15176
▁ㅅㅓㅇㅊㅜㅎㅐㅇ -15177
▁ㅍㅡㄹㄹㅔㅇㅣㅌㅡ -15178
▁ㄷㅗㅁㅗ -15179
▁ㄱㅗㄱㅅㅓㄴ -15180
row -15181
OK -15182
▁ㄴㅗㅇㅇㅓ -15183
▁ㅇㅕㅇㄹㅏㄱ -15184
▁ㅇㅣㄴㅌㅔㄹㅡ -15185
▁ㅅㅡㅋㅔㅇㅣㅌㅣㅇ -15186
▁ㄱㅘㅅㅣㄹ -15187
▁ㅁㅣㅅㅖㄹ -15188
▁ㅅㅣㄴㄱㅗㅇ -15189
com -15190
▁ㅍㅜㄹㅡㄴ -15191
▁ㅅㅐㄹㅗㅇㅣ -15192
▁ㅋㅡㄹㄹㅣㅂㅡㄹㄹㅐㄴㄷㅡ -15193
ren -15194
ㅡㄹㅐ -15195
▁ㄱㅕㅇㅇㅣ -15196
ㅌㅡㄹㄹㅐㄴ -15197
▁ㅂㅜㅊㅜㄱㅣ -15198
▁ㅇㅣㄴㅁㅣㄴㄱㅗㅇㅎㅘㄱㅜㄱ -15199
▁ㄱㅗㄹㄷㅐ -15200
▁SUP -15201
▁Dragon -15202
▁ㅎㅓㄹㅣㅋㅔㅇㅣㄴ -15203
▁ㅅㅐㅎㅐ -15204
▁KG -15205
▁ㅌㅐㅅㅜ -15206
▁212 -15207
▁ㄴㅏㄷㅔ -15208
ㅏㅋㅣ -15209
▁ㄴㅐㅅㅣㅁ -15210
▁ㄷㅗㄱㅈㅐㅈㅏ -15211
▁ㅂㅏㄴㅈㅏㄷㅗㅇ -15212
▁ㅅㅡㄹㅜ -15213
▁ㅇㅠㅁㅕㅇㅅㅔ -15214
▁ㅎㅗㅍㅡ -15215
ㅌㅡㄹㅣㅁ -15216
▁NS -15217
▁ㅌㅓㅁㅣㄴㅔㅇㅣㅌㅓ -15218
▁max -15219
ㅁㅔㄷㅏ -15220
▁ㄱㅕㅇㅎㅗㅇㅝㄴ -15221
▁ㅂㅜㄱㅇㅠㄹㅓㅂ -15222
▁ㅇㅗㅂㅏㄴ -15223
▁ㄱㅐㄷㅡㄹㅣㅂ -15224
▁LS -15225
▁ㅂㅐㄹㄹㅣ -15226
▁ㅋㅗㄴㅏㅁㅣ -15227
ㅂㅏㄼ -15228
▁ㅈㅣㄴㄴㅏㄹㅏ -15229
▁ㄱㅏㅇㄷㅏㅇ -15230
▁Bra -15231
▁ㄹㅏㅁㅣ -15232
▁ㄷㅔㅍㅡ -15233
▁ㅇㅗㅋㅜ -15234
▁ㅁㅣㄹㄹㅔ -15235
▁1959 -15236
▁ㅊㅣㅂㅜ -15237
▁ㅅㅓㅂㅜㄱ -15238
▁ㅇㅟㄱ -15239
▁ㅎㅡㄱㄹㅛㅇ -15240
ㅂㅜㅈㅣㅈ -15241
▁ㅂㅗㄴㅁㅜㄴ -15242
▁ㅋㅏㅇㅑ -15243
▁ㅇㅜㄹㅂㅜㅈㅣㅈ -15244
led -15245
▁ㄷㅐㄷㅏㅁ -15246
▁ㄹㅜㅅㅣㅍㅓ -15247
▁ㄱㅘㅇㅈㅓㅇㅜ -15248
▁ㅂㅜㄱㅘ -15249
▁ㅅㅗㅈㅜㅇㅎㅣ -15250
▁ㄷㅣㅇㅔ -15251
▁ㅇㅢㄹㅣ -15252
▁ㄴㅑㅁㅕㄴㅅㅓ -15253
▁ㅁㅏㅇㅜㄴ -15254
▁ㅇㅑㅊㅐ -15255
▁ㄴㅏㄱㅗㅇㅑ -15256
▁they -15257
▁ㄱㅛㅇㅠㄱㅂㅜ -15258
ㅅㅡㅂㅗㄹ -15259
▁LCD -15260
▁ㅍㅏㄴㄷㅗ -15261
▁ㅍㅐㄱㅌㅗㄹㅣ -15262
▁ㅁㅝㅅ -15263
▁ㅂㅗㄷㅏㄴ -15264
▁ㅊㅜㅇㅝㄹ -15265
▁ㅍㅣㄱㅕ -15266
▁ㄱㅏㅅㅗㄹㄹㅣㄴ -15267
▁ㅌㅣㅋㅗ -15268
▁ㅁㅣㄴㅈㅣ -15269
ㄹㅣㅋㅏ -15270
▁Special -15271
▁ㅇㅑㅋ -15272
▁ㄱㅣㅁㅎㅕㄴㅅㅜ -15273
▁ㅋㅗㄹㅗㄴㅏ -15274
▁ㅌㅗㅇㅛㅌㅏ -15275
ㅏㅇㅜㅅㅡ -15276
▁ㄱㅘㄴㅈㅔ -15277
▁ㅎㅏㄹㄷㅏㅇ -15278
▁ㅂㅔㅇㅣㅅㅡㅂㅗㄹ -15279
ㅉㅏㄱㅣ -15280
▁ㅇㅏㅂㅣ -15281
▁ㅎㅐㅇㅣㅁ -15282
▁ㅊㅓㅇㄷㅗㅇ -15283
▁ㅁㅗㄱㅍㅛㅁㅜㄹ -15284
ㅂㅜㄷㅐ -15285
▁ㄷㅐㅇㅕ -15286
▁ㅋㅡㄹㅣㅁㅅㅡㄴ -15287
▁ㅇㅝㄴㄷㅗㅇ -15288
▁ㅅㅛㅇ -15289
▁ㅂㅏㄹㅅㅏㄴ -15290
▁ㅎㅗㅅㅡㅌㅡ -15291
▁ㅅㅡㅋㅔㅊㅣ -15292
▁ㅈㅗㄷㅏㄹ -15293
▁ㄱㅘㅇㅎㅘ -15294
▁ㅁㅣㄹㄹㅔㄴㅣㅇㅓㅁ -15295
▁ㅈㅏㅅㅓㄱ -15296
▁ㄹㅔㅌㅡ -15297
▁ㅍㅏㄱㅚㅈㅏ -15298
ㅠㅇㅓ -15299
▁ㄱㅏㅁㅔ -15300
▁ㅇㅏㅇㄹㅣ -15301
▁ㅎㅏㅇㅣㅇ -15302
▁ㅎㅕㅂㄱㅗㅇ -15303
▁ㅈㅏㄴㄷㅏㅇ -15304
ㅂㅣㅇㅜㅅㅡ -15305
ㄷㅗㅇㅓ -15306
▁ㅎㅐㄱㅁㅜㄱㅣ -15307
▁001 -15308
▁ㄴㅣㅋㅣ -15309
▁ㅇㅕㄴㅂㅏㅇㄱㅜㄴ -15310
▁ㄹㅣㅍㅡㄹ -15311
▁ㅇㅛㄱㅓㄴ -15312
▁ㅅㅓㅈㅓㅁ -15313
▁ㅇㅗㄴㅈㅓㄴㅎㅣ -15314
▁ㅇㅔㅇㅜ -15315
▁ㅇㅢㅅㅓㄱ -15316
▁ㅅㅓㅇㅜㄹㅇㅕㄱ -15317
▁ㅅㅣㅂㅅㅏㅇ -15318
aven -15319
▁ㅅㅡㅌㅡㄹㅔㅇㅣㅌㅡ -15320
▁ㅍㅔㄴㅅㅡ -15321
▁ㄷㅔㅇㅣㅂㅣㅅ -15322
▁ㅈㅓㄴㅌㅜㅇㅝㄴ -15323
▁ㅇㅛㄴ -15324
▁ㅁㅗㄹㅏ -15325
ㄱㅏㄹㅡ -15326
▁ㄱㅏㅂㅕㄴ -15327
▁ㄷㅡㄹㄹㅕㅈㅜ -15328
▁ㅍㅡㄹㄹㅜ -15329
▁ㅂㅏㅅㅣ -15330
▁ㅈㅣㄱㅏㅂ -15331
ㅋㅗㄹㅗ -15332
▁1956 -15333
▁ㅈㅓㅇㅈㅣㄴ -15334
ㅍㅗㅅㅡ -15335
▁ㄱㅘㅇㅇㅑㅇ -15336
▁ㅎㅐㅇㅅㅓㄴ -15337
▁ㅈㅣㅇㅏ -15338
▁ㄷㅏㄴㄷㅏㄴㅎㅣ -15339
▁ㅋㅏㅌㅡㄹㅏㅇㅣㄷㅓ -15340
ㅎㅣㅅㅏ -15341
▁ㅎㅟㄷㅜㄹ -15342
▁ㄱㅗㄹㄹㅣㅇㅏ -15343
▁ㄱㅏㅇㅇㅕㄴ -15344
▁ㅇㅣㅊㅣㅋㅏ -15345
▁ㅈㅜㄱㅜㄴ -15346
▁ㄷㅟㅅㅂㅏㄷㅊㅣㅁ -15347
▁wiz -15348
▁Hot -15349
▁ㅈㅏㅇㅁㅏㄱ -15350
▁ㅁㅓㄷㅡㄹ -15351
▁ㅅㅓㄹㅅㅏ -15352
▁Amer -15353
▁ㅍㅗㄱㅗ -15354
LD -15355
▁ㅇㅏㄹㅋㅗㅇ -15356
▁ㅇㅕㅇㅢㄷㅗ -15357
▁ㅍㅣㄴㅣㅅㅣ -15358
ㅈㅐㅇㅜ -15359
▁ㅁㅣㅇㅘㄴ -15360
▁ㅂㅣㄴㅅㅡ -15361
▁ㅂㅔㄹㅂㅔㅅ -15362
▁Pop -15363
▁ㅎㅕㅂㅇㅑㄱ -15364
▁Track -15365
▁ㅂㅜㅎㅚㅈㅏㅇ -15366
▁ㅇㅏㄴㄷㅡㄹㅗㅁㅔㄷㅏ -15367
ㅜㄹㅗ -15368
▁ㅏㅇㅛ -15369
▁ㅇㅏㅋㅣㅇ -15370
▁ㅅㅣㅁㄹㅣㅈㅓㄴ -15371
▁ㄷㅡㅇㅅㅏㄴ -15372
▁ㅇㅣㅌㅏㄹㄹㅣㅇ -15373
▁ㄷㅚㄷㅗㄹㅇㅏㅇㅗ -15374
▁ㅇㅗㅇㅣㄹ -15375
ㅍㅐㄷㅡ -15376
▁DAY -15377
▁ㅈㅗㅎㅚ -15378
▁ㅅㅗㄹㄹㅏ -15379
▁ㅇㅘㅇㄴㅕ -15380
▁ㅅㅏㅍㅏㅇㅣㅇㅓ -15381
▁tw -15382
▁ㄱㅟㄷㅗ -15383
▁ㅌㅏㄹㄱㅓㅅ -15384
▁ㅁㅠㅈㅡ -15385
▁ㅇㅣㅁㅍㅡ -15386
▁ㅇㅣㄴㅂㅜㄴ -15387
▁ㅊㅣㄹㅎㅡㄱ -15388
▁ㅁㅜㅉ -15389
▁ㅌㅗㅇㅢ -15390
▁ㅁㅜㄹㄹㅕㅈㅜ -15391
▁ㅈㅡㅁ -15392
▁FFFF -15393
▁ㅅㅓㄱㅂㅏㅇ -15394
▁ㅇㅣㄴㅅㅏㅁ -15395
▁ㅇㅗㄴㅎㅘ -15396
▁ㄴㅡㄴㄷㅔㄷㅗ -15397
▁ㅇㅣㅅㅏㅇㅁㅣㄴ -15398
▁ㅇㅣㅂㅅㅓㅇ -15399
▁ㄹㅔㅁㅣ -15400
▁ㅁㅏㄴㅡㄴ -15401
▁TG -15402
▁ㅋㅚ -15403
▁ㄴㅏㅁㄱㅜ -15404
▁ㅇㅡㅁㅇㅑㅇ -15405
▁ㄱㅔㅇㅣㅁㅣㅇ -15406
▁ㅇㅣㅂㅜㄴ -15407
▁ㅂㅔㄹㅏ -15408
▁ㅎㅏㅂㅅㅏㄴ -15409
▁ㅂㅐㄱㅅㅣㄴ -15410
▁ㅍㅡㄹㄹㅗㄹㅣ -15411
▁ㅅㅓㄴㅈㅣㄴㄱㅜㄱ -15412
▁ㄱㅗㄹㅕㄷㅐ -15413
▁ㅇㅣㄹㅏㄷㅡㄴㄱㅏ -15414
▁ㅈㅗㅇㄹㅗ -15415
▁ㅈㅣㄱㅡ -15416
▁ㅇㅠㅁㅣㄴ -15417
▁ㅊㅏㄴㅏㅁ -15418
▁ㅁㅜㅉㅣㄹㅡ -15419
▁ㅅㅣㄴㄹㅕㅇ -15420
▁ㄷㅡㄹㅇㅣㅂ -15421
▁ㅂㅏㄹㄱㅏㄴ -15422
▁ㄱㅖㅇㅑㄱㅈㅏ -15423
▁ㅇㅣㄱㅅㅡㅌㅡㄹㅣㅁ -15424
▁Cont -15425
▁ㅇㅣㅅㅣㄷㅏ -15426
▁ㅂㅏㅇㅣㅇㅗㄹㄹㅔㅅ -15427
▁ㅊㅓㅂㅂㅗ -15428
▁1939 -15429
▁ㅈㅓㄱㅈㅓㅇ -15430
▁ㄱㅕㅇㅅㅣㄴ -15431
▁ㅇㅑㅇㅈㅜ -15432
▁ㄷㅐㅈㅓㄱ -15433
▁ㅁㅏㄴㅡㄹ -15434
ㅕㅊㅣ -15435
▁TN -15436
▁ㄴㅔㅁㅔㅅㅣㅅㅡ -15437
▁ㄴㅏㅍㅗㄹㄹㅣ -15438
ㅏㄷㅣㅁ -15439
▁ㄱㅏㅁㅅㅗㄱ -15440
▁ㄷㅏㄴㅈㅓㄹ -15441
▁ㅂㅡㄹㄹㅏㄷㅣㅁ -15442
▁ㅍㅡㄹㅏㅇㅅㅡㄱㅜㄴ -15443
▁ㄹㅣㅂㅏㅇㅣ -15444
▁ㅋㅜㅁㅣ -15445
ㅇㅙㄹㅏㄴ -15446
▁ㅇㅣㅁㅈㅣㄴㅇㅙㄹㅏㄴ -15447
▁ㄱㅏㄱㄱㅣ -15448
▁ㅅㅓㅅㅏㄴ -15449
▁ㅅㅏㄷㅏ -15450
▁ㅅㅏㅁㅕㄴ -15451
▁ㅈㅜㅅㅡ -15452
▁ㄸㅟㅇㅓㄷㅏㄴㅣ -15453
▁ㅃㅏㅇㅃㅏㅇ -15454
▁ㅇㅕㄱㄱㅘㄴ -15455
▁ㅁㅔㅅㄷㅙㅈㅣ -15456
ㅈㅣㅁㅜㄹ -15457
▁ㅎㅘㅇㅁㅜㅈㅣ -15458
▁ㄷㅗㅁㅣ -15459
▁ㅈㅔㄴㅈㅣ -15460
play -15461
▁ㅇㅟㅇㅣㄴ -15462
▁". -15463
▁ㅊㅗㅎㅚ -15464
▁ㄱㅏㅁㄷㅗ -15465
▁ㅇㅘㅌㅏㄹㅜ -15466
ands -15467
▁Yes -15468
▁ㅅㅓㅅㅏ -15469
▁ㅎㅏㅇㅣㄷㅡ -15470
▁ㅁㅕㅇㄹㅕㅇㅇㅓ -15471
▁ㅍㅏㄹㄲㅜㅁㅊㅣ -15472
▁ㄴㅐㄹㅕㅉㅣㄱ -15473
▁ㅃㅛㅈㅗㄱ -15474
▁ㄱㅡㅁㅅㅓㅇ -15475
▁ㄱㅣㅂㅕㅇㄷㅐ -15476
▁ㄷㅓㅁㅂ -15477
▁ㅍㅐㅌㅡㄹㅣㄱ -15478
▁ㄴㅓㄱㅜㄹㅣ -15479
▁ㅋㅏㅈㅡㅋㅣ -15480
▁ㄷㅜㄷㅡㄹㅣ -15481
▁ㄹㅏㄹㅍㅡ -15482
▁ㄴㅏㄹㅇㅏㅇㅗㄹㅡ -15483
▁207 -15484
▁ㄱㅘㅇㅈㅜㄱ -15485
▁ㅇㅜㅇㅘ -15486
▁ㄱㅘㅇㅈㅜㄱㅘㅇㅇㅕㄱㅅㅣ -15487
34 -15488
▁ㅋㅓㅌㅡ -15489
▁ㅇㅣㅈㅣㅅㅡ -15490
▁ㅎㅘㅈㅏㅇㅍㅜㅁ -15491
▁ㅊㅏㅅㅔㄷㅐ -15492
▁ㅊㅏㅇㅅㅔㄱㅣ -15493
ㅇㅓㅌㅡ -15494
▁baby -15495
▁ㅎㅘㅇㅈㅏ -15496
▁ㅍㅡㄹㄹㅏㅇㅣㅇ -15497
ㄷㅜㄱㅡㄴ -15498
▁ㄴㅗㄹㅏㅇ -15499
▁COM -15500
▁ㄱㅛㅈㅐ -15501
▁ㅇㅟㅅㅐㅇ -15502
▁ㄷㅏㄴㅂㅐㄱ -15503
▁ㅋㅗㅅㅣ -15504
▁ㄱㅘㄴㄷㅐ -15505
▁ㅍㅜㅅㅂㅗㄹ -15506
▁ㄷㅗㅇㅁㅜㄹㅇㅝㄴ -15507
▁ㅂㅔㄷㅡ -15508
▁ㅁㅏㄷㅡ -15509
▁ㄷㅏㄴㅁㅏㄹㄱㅣ -15510
ze -15511
▁ㅂㅜㄹㄱㅣ -15512
▁ㄱㅣㅌㅏㄹㅣ -15513
▁ㅈㅜㄹㄹㅣㅇ -15514
▁ㄱㅣㅌㅏㄹㅣㅅㅡㅌㅡ -15515
▁ㅁㅐㅈㅣㅋㅓㄹ -15516
▁ㄴㅔㅂㅌㅠㄴ -15517
▁ㅂㅜㄴㅅㅏ -15518
▁ㅅㅐㅅㅣㄴ -15519
▁ㅁㅓㄹㄹㅣㄴ -15520
▁520 -15521
▁ㅅㅓㅁㅜㄴ -15522
▁ㄹㅐㅅㅡ -15523
▁ㅍㅜㄷㅡ -15524
▁good -15525
▁ㄱㅏㄱㅅㅐㄱ -15526
▁ㅍㅗㄹㅡㄴㅗ -15527
▁ㄱㅓㅌㅂㅗㄱㅣ -15528
ㄹㅣㅇㅞㅂ -15529
▁ㄴㅡㄴㄱㅜㄴㅏ -15530
▁ㅇㅣㄴㅅㅣㄴ -15531
▁ㄹㅜㄹㅣㅇㅞㅂ -15532
▁ㄹㅗㄹㅔㄴ -15533
▁777 -15534
▁ㅅㅗㅅㅏ -15535
ㅍㅡㄹㅔㄷㅡ -15536
ien -15537
▁ㄱㅘㅎㅏ -15538
▁ㅈㅗㅇㅈㅏ -15539
▁ㅈㅣㅎㅟㅈㅏ -15540
▁ㅇㅣㅌㅓㄴㅓㄹ -15541
▁over -15542
▁ㄹㅏㅌㅡ -15543
▁ㅊㅐㄱㅜㄹ -15544
ㄷㅓㄹㅣ -15545
ㅂㅣㅇㅝㄴ -15546
ㅋㅗㅍㅡ -15547
ㅂㅏㅇㅟ -15548
▁ㅌㅡㄹㅔㅂㅓ -15549
▁ㅋㅏㅈㅣ -15550
▁ㅌㅏㅎㅕㅂ -15551
▁ㅂㅜㅇㄷㅐ -15552
▁ㅁㅜㅇㅓㄴㄱㅏ -15553
▁PA -15554
ㅁㅣㅌ -15555
▁ㅌㅏㄹㄹㅣ -15556
▁ㄱㅗㅅㅡㄹㅏㄴㅎㅣ -15557
▁ㅇㅠㅅㅔ -15558
▁ㅌㅏㅊㅡㅇㅑ -15559
▁ㅂㅔㅌㅡ -15560
▁ㄷㅜㅌㅓㅂ -15561
▁ㅂㅓㄱㅡㅁㄱㅏ -15562
▁ㅈㅔㅍㅜㅁㄱㅜㄴ -15563
▁BASIC -15564
ㅌㅏㅈㅏ -15565
ㅋㅠㅂㅓㅅㅡ -15566
▁ㅈㅐㅎㅐ -15567
▁ㅊㅔㄱㅡㅂ -15568
▁ㄷㅡㄹㅌㅗㅇ -15569
▁ㅊㅐㄱㅝㄴ -15570
ited -15571
▁ㅅㅏㅇㅈㅓㅇ -15572
▁ㅊㅣㄴㄱㅡㄴ -15573
ㅂㅏㅇㅅㅏㄱㅣ -15574
▁ㅎㅘㅇㅕㅁㅂㅏㅇㅅㅏㄱㅣ -15575
ㅇㅔㄴ -15576
[...]
