▁▃ -0
▁ㅇ -1
▁ㄱ -2
▁ㄷ -3
▁ㅎ -4
▁ㅇㅣ -5
ㅡㄹ -6
▁ㅈ -7
▁ㅅ -8
▁ㄴ -9
ㅡㄴ -10
▁ㅎㅏ -11
▁ㄷㅏ -12
▁ㅂ -13
▁. -14
▁ㅇㅔ -15
ㅏㅇ -16
▁ㅁ -17
▁ㄹ -18
▁ㅇㅢ -19
▁ㅇㅡㄹ -20
ㅏㄴ -21
▁ㄴㅡㄴ -22
▁ᆫ -23
ㅓㄴ -24
ㅕㄴ -25
ㅗㅇ -26
▁ㅇㅏ -27
▁ㅇㅓ -28
▁, -29
ㅅㅓ -30
▁ㅊ -31
ㅣㄴ -32
ㅕㅇ -33
ㅏㄹ -34
▁ㅇㅡㄴ -35
ㅏㄱ -36
▁ㄱㅏ -37
ㅜㄴ -38
ㅗㄱ -39
ㅓㅇ -40
▁ㅍ -41
ㅜㄱ -42
▁1 -43
▁ㄱㅗ -44
▁ㄷㅚ -45
▁ㅈㅣ -46
▁ㄹㅡㄹ -47
ㅜㄹ -48
ㅈㅣ -49
▁ㅇㅓㅆ -50
ㄹㅣ -51
▁ㅇㅕ -52
ㅅㅡ -53
ㅜㅇ -54
▁ㅌ -55
▁ㄴㅕㄴ -56
ㅎㅏ -57
▁ㄹㅗ -58
ㅅㅣ -59
▁ㄱㅣ -60
ㅐㅇ -61
▁ㅇㅡㄹㅗ -62
▁ㅅㅣ -63
▁ㄱㅘ -64
▁2 -65
ㅗㄴ -66
▁ㅇㅔㅅㅓ -67
▁ㅇㅣㅆ -68
ㅇㅣ -69
▁ㅇㅣㄹ -70
ㅡㅁ -71
▁ㅇㅏㅆ -72
▁ㄷㅐ -73
ㅏㅁ -74
ㅡㅇ -75
ㅓㄱ -76
▁ㅋ -77
ㄷㅏ -78
▁ㄷㅗ -79
ㅝㄴ -80
▁ㅇㅘ -81
▁ㄷㅡㄹ -82
▁ㄸ -83
ㅓㅂ -84
ㅓㄹ -85
ㅕㄱ -86
ㅗㄹ -87
ㄱㅜㄱ -88
ㄱㅣ -89
▁ᆫㄷㅏ -90
ㅣㅇ -91
ㅓㅁ -92
ㅅㅏ -93
▁ㅈㅓㄴ -94
▁ㅅㅏㅇ -95
▁ㄱㅡ -96
▁ㅈㅓㄱ -97
▁20 -98
ㅓㅅ -99
ㅝㄹ -100
ㅐㄱ -101
▁ㅈㅜㅇ -102
▁ㅅㅜ -103
ㅎㅘ -104
ㅈㅏㅇ -105
ㅈㅏ -106
ㄷㅗ -107
▁ㅇㅝㄹ -108
▁ㅇㅣㄴ -109
ㅊㅣ -110
▁ㅈㅔ -111
ㅛㅇ -112
▁19 -113
ㅑㅇ -114
ㅈㅓㅇ -115
▁ㅇㅟ -116
▁ㅈㅓㅇ -117
▁ᆯ -118
ㅂㅜ -119
ㅣㄹ -120
ㄷㅐ -121
▁ㄱㅗㅇ -122
▁ㅇㅠ -123
ㅕㄹ -124
▁ㅎㅘ -125
ㄷㅡ -126
▁ㅅㅔ -127
▁ㅂㅜ -128
▁ㅇㅡㅁ -129
▁ㅇㅕㅆ -130
ㅅㅜ -131
ㅅㅏㅇ -132
ㅅㅓㅇ -133
▁ㄱㅔ -134
▁ㄱㅕㅇ -135
▁ㅅㅓㅇ -136
ㅈㅓㄴ -137
▁ㅁㅣ -138
▁ㅈㅏ -139
ㅈㅔ -140
ㅌㅡ -141
ㄷㅗㅇ -142
▁ㄱㅓㅅ -143
▁ㅎㅏㄴ -144
ㄱㅏ -145
▁3 -146
ㅌㅓ -147
ㅎㅏㄱ -148
ㅔㄹ -149
▁ㅁㅏ -150
▁ㄷㅗㅇ -151
▁" -152
ㄱㅜ -153
▁ㄱㅐ -154
▁ㅈㅜ -155
ㅎㅚ -156
▁ㄷㅡㅇ -157
▁ㅅㅓㄴ -158
ㅇㅝㄴ -159
▁ㄷㅏㅇ -160
▁ㅅㅏ -161
▁ㅂㅏ -162
▁ㄲ -163
▁ㅁㅏㄴ -164
ㄱㅘ -165
▁ㄱㅡㄹ -166
ㅗㅅ -167
▁ㅂㅏㄹ -168
ㅈㅜ -169
▁ㅇㅕㄴ -170
ㅡㄱ -171
▁ㅇㅕㅇ -172
ㅔㅇㅣ -173
▁ㄱㅜㄱ -174
ㅣㄱ -175
▁ㅂㅗ -176
▁ㅁㅕ -177
▁ㅅㅡ -178
▁ㅈㅏㅇ -179
ㅣㅁ -180
▁ㅇㅗ -181
▁ㅍㅡㄹ -182
▁ㄴㅏ -183
ㅇㅓ -184
▁ㅁㅕㄴ -185
▁ㅇㅡㅁㅕ -186
ㄱㅛ -187
ㅇㅣㄴ -188
ㅔㄴ -189
ㅏㅇㅣ -190
ㅁㅜㄴ -191
▁201 -192
ㅅㅏㄴ -193
ㅎㅏㄴ -194
ㄱㅖ -195
▁' -196
ㅁㅣㄴ -197
▁4 -198
ㅅㅣㄴ -199
▁ㅅㅣㄴ -200
▁ㅈㅗ -201
▁ㅂㅏㅇ -202
▁ㄱㅘㄴ -203
ㅐㄴ -204
▁ㅁㅕㅇ -205
▁ㄷㅏㄴ -206
ㄹㅗ -207
ㅁㅏㄴ -208
▁ㅁㅗ -209
ㅏㅈㅣ -210
ㄷㅏㄴ -211
ㅋㅣ -212
ㅅㅣㄱ -213
▁ㄱㅜ -214
▁ㅇㅏㄴ -215
▁5 -216
▁ㅈㅣㄴ -217
▁ㄸㅐ -218
▁ㅇㅏㄹ -219
▁200 -220
ㅇㅏ -221
▁- -222
▁ㄷㅏㄹ -223
▁ㅎㅜ -224
ㅈㅏㄱ -225
▁ㄱㅏㅇ -226
▁ㄷㅓㄴ -227
ㅊㅔ -228
▁ㅇㅕㄱ -229
▁ㅈㅏㄱ -230
ㅈㅐ -231
ㄱㅗ -232
▁ㅂㅣ -233
▁ㅁㅜㄴ -234
▁ㄴㅏㅁ -235
ㅓㄴㅏ -236
▁ㅅㅏㄹ -237
ㅇㅕㄱ -238
ㅏㄹㅡ -239
ㅁㅕㅇ -240
ㅅㅗ -241
ㄷㅔ -242
ㅎㅣ -243
▁ㅂㅜㄹ -244
ㄷㅡㄹ -245
▁ㅆ -246
ㅎㅐㅇ -247
▁ㅌㅗㅇ -248
ㅑㄱ -249
ㅎㅜ -250
▁ㅇㅝㄴ -251
ㅜㅁ -252
ㅏㄱㅗ -253
ㅈㅗ -254
▁ㅎㅕㄴ -255
▁ㄱㅖ -256
▁ㄱㅜㄴ -257
ㄱㅔ -258
ㄷㅏㅇ -259
ㅂㅗㄴ -260
▁ㄱㅏㅌ -261
▁ㅂㅜㄴ -262
ㅂㅣ -263
ㅇㅜ -264
▁ㅁㅏㄹ -265
▁6 -266
▁ㅎㅏㄱ -267
ㅁㅜㄹ -268
ㅋㅡ -269
▁ㅅㅗ -270
ㄱㅗㅇ -271
ㅅㅓㄴ -272
▁ㅇㅏㄶ -273
▁ㅅㅐㅇ -274
▁ㄴㅗ -275
▁ㅊㅜㄹ -276
ㅡㄹㄹ -277
▁ㅂㅏㄷ -278
▁ㄲㅏㅈㅣ -279
ㅈㅜㅇ -280
ㅁㅏ -281
ㅂㅏㄴ -282
ㅇㅣㄹ -283
▁ㄱㅕㄹ -284
ㄱㅏㄴ -285
▁ㅎㅚ -286
▁ㅇㅕㄹ -287
▁ㄷㅐㅎㅏ -288
▁ㅇㅔㄱㅔ -289
ㄱㅜㄴ -290
▁ㅈㅣㅂ -291
ㄱㅘㄴ -292
▁ㅈㅗㅇ -293
▁ㅂㅓㄴ -294
▁ㅂㅏㄴ -295
▁ㄱㅛ -296
▁7 -297
▁ㄱㅏㄴ -298
ㄹㅗㄱ -299
▁ㅊㅚ -300
▁ㅇㅖ -301
▁10 -302
▁8 -303
ㄹㅕㄱ -304
▁ㄴㅐ -305
▁ㄹㅏㄴ -306
▁ㅇㅟㅎㅏ -307
ㅌㅏ -308
▁ㅇㅗㄹ -309
▁ㅎㅐ -310
ㄹㅣㅂ -311
ㅈㅣㄴ -312
ㅇㅢ -313
▁ㅅㅣㄹ -314
▁ㅅㅓㄹ -315
▁ㄹㅏ -316
ㅇㅏㄴ -317
ㅋㅏ -318
▁ㅈㅣㅁㅏㄴ -319
ㅂㅗ -320
▁ㅎㅕㅇ -321
ㅇㅟ -322
ㅁㅣ -323
ㅌㅗㅇ -324
ㅌㅗ -325
ㅇㅛㅇ -326
ㅍㅛ -327
▁ㅎㅐㅇ -328
▁ㅍㅗ -329
▁ㅎㅗ -330
▁ㅂㅜㅌㅓ -331
ㅇㅓㅂ -332
ㅅㅐㅇ -333
ㅈㅗㅇ -334
▁ㅅㅏㅁ -335
ㅎㅗ -336
▁ㄷㅜ -337
ㅣㅇㅏ -338
ㅍㅡ -339
▁ㅇㅓㅄ -340
ㄹㅠ -341
▁ㅅㅏㅇㅛㅇ -342
▁9 -343
ㅣㅅㅡ -344
▁ㅁㅣㄱㅜㄱ -345
ㅂㅜㄴ -346
▁ㅅㅓ -347
ㅡㅂ -348
▁ㅇㅜ -349
▁ㅇㅣㅂ -350
▁ㅊㅏ -351
▁ㄹㅏㄱㅗ -352
▁ㅎㅏㅁ -353
▁ㅂㅗㅇ -354
ㅂㅏㄹ -355
▁ㅇㅣㅎㅜ -356
▁ㅅㅏㄴ -357
ㅅㅗㄱ -358
▁ㄹㅏㄴㅡㄴ -359
▁ㅊㅓㅇ -360
▁ㅇㅛ -361
ㅈㅓㄱ -362
▁ㄷㅗㄱ -363
▁ㅅㅡㅇ -364
▁ㅌㅡㄱ -365
▁ㄷㅔ -366
ㅎㅏㅂ -367
ㅁㅕㄴ -368
▁ㅁㅣㄴ -369
ㅂㅓㅂ -370
▁ㅇㅣㄹㅂㅗㄴ -371
▁ㅉ -372
▁ㅁㅕㄴㅅㅓ -373
ㅓㅈㅣ -374
▁ㄱㅏㅁ -375
▁ㅇㅜㄴ -376
ㅎㅐ -377
ㅅㅡㅇ -378
▁ㅎㅘㄹ -379
▁ㅁㅜㄹ -380
▁ㄸㅗ -381
ㅇㅕㅇ -382
▁ㄴㅡㄴㄷㅔ -383
▁ㅈㅐ -384
ㄱㅕㅇ -385
▁ㄱㅝㄴ -386
▁ㅂㅗㄴ -387
▁ㅅㅗㄱ -388
▁ㅁㅗㄷ -389
ㅇㅣㅁ -390
ㅣㅂ -391
▁ㅁㅜ -392
▁ㄱㅓ -393
ㅈㅣㄱ -394
ㅅㅡㅌ -395
ㅍㅗ -396
▁ㅈㅣㄱ -397
▁ㅋㅡ -398
ㅏㄹㅏ -399
▁ㄱㅏㄱ -400
ㅇㅠ -401
▁ㅇㅘㅇ -402
▁ㅇㅑㅇ -403
▁ㄱㅣㅁ -404
▁ㅂㅜㄱ -405
ㅁㅣㄴㄱㅜㄱ -406
ㅂㅏㅇ -407
ㅅㅓㄹ -408
ㅏㄹㅣ -409
▁ㄷㅐㅎㅏㄴ -410
▁ㄷㅏㅇㅡㅁ -411
▁199 -412
▁ㅈㅣㅇㅕㄱ -413
ㅋㅗ -414
▁ㄱㅓㄴ -415
ㅅㅣㄹ -416
▁ㅇㅡㄴㅏ -417
ㄱㅕㄱ -418
ㅕㅂ -419
▁ㅁㅗㄱ -420
▁ㅁㅣㅊ -421
▁ㅍㅕㅇ -422
ㅈㅡ -423
▁ㅊㅗㅇ -424
ㅈㅗㄱ -425
▁12 -426
ㄹㅏ -427
▁ㄷㅐㅎㅏㄴㅁㅣㄴㄱㅜㄱ -428
▁ㅊㅜㄱ -429
ㅈㅓㅁ -430
▁ㅁㅏㄶ -431
ㄷㅡㅇ -432
ㅊㅏ -433
▁ㄸㅏㄹㅡ -434
▁ㅊㅏㅁ -435
ㄱㅓ -436
▁18 -437
ㅅㅔ -438
ㅅㅜㄹ -439
ㄹㅕㅇ -440
ㅇㅛ -441
▁ㄱㅕㅇㄱㅣ -442
▁ㅊㅗ -443
▁ㅂㅗㄱ -444
▁ㄷㅐㅎㅏㄱ -445
▁ㄱㅏㅈㅣ -446
ㄷㅗㄱ -447
ㄹㅔ -448
▁ㄷㅏㄹㅡㄴ -449
ㅅㅣㅁ -450
ㄱㅏㄱ -451
00 -452
▁; -453
▁ㄷㅏㄱㅗ -454
ㅕㅁ -455
▁ㅇㅢㅎㅏ -456
ㅊㅜㄹ -457
▁ㅇㅚ -458
ㅉㅗㄱ -459
ㅐㅇㅜ -460
ㅎㅕㅇ -461
▁ㄱㅡㄴ -462
ㅌㅐ -463
▁ㅋㅗ -464
or -465
▁ㅇㅣㅁ -466
ㅗㅅㅓㄴ -467
▁ㅇㅑ -468
▁S -469
ㅎㅕㄴ -470
▁ㅊㅓㄹ -471
ㅁㅜ -472
▁ㅃ -473
ㅍㅏ -474
ㅅㅓㄱ -475
▁ㅂㅓㅂ -476
▁11 -477
ㅁㅗ -478
▁ㅊㅓㄴ -479
▁ㅎㅏㅇ -480
ㅎㅑㅇ -481
▁ㄸㅐㅁㅜㄴ -482
ㅐㅁ -483
▁ㅅㅣㅈㅏㄱ -484
▁ㅂㅕㄴ -485
ㄹㅏㄴ -486
▁ㄹㅣ -487
ㅍㅏㄴ -488
▁ㅍㅛ -489
▁ㄹㅔ -490
ㅊㅓㄴ -491
▁ㅅㅣㅋㅣ -492
▁ㅇㅛㅇ -493
▁ㅈㅓㅁ -494
ㅍㅜㅁ -495
ㅌㅡㄹ -496
ㄲㅔ -497
▁ᄆ -498
▁& -499
▁ㅂㅏㄱ -500
▁ㅌㅣㅁ -501
▁A -502
▁ㅅㅏㄹㅏㅁ -503
▁ㅇㅏㅇ -504
▁ㅁㅔ -505
ㅇㅕㄴ -506
▁ㅎㅏㅁㄲㅔ -507
ㅈㅐㅇ -508
▁ㅊㅔ -509
ㅓㅅㅡ -510
▁ㅂㅐ -511
ㅇㅏㄱ -512
▁ㄸㅗㅎㅏㄴ -513
ㅎㅏㅇ -514
▁) -515
▁ㅅㅓㄴㅅㅜ -516
▁ㅋㅏ -517
▁ㅇㅑㄱ -518
▁ㅎㅏㄴㄱㅜㄱ -519
▁ㅇㅏㅅㅓ -520
▁ㄷㅓ -521
la -522
▁ㅇㅕㅇㅎㅘ -523
▁ㅇㅐ -524
▁ㄱㅘㅇ -525
▁ㅅㅔㄱㅖ -526
ㅌㅏㄴ -527
▁ㅈㅜㄱ -528
▁ㅅㅣㅈ -529
ㅏㅇㅗ -530
▁ㅌㅏ -531
ㅡㅅ -532
▁ㅍㅏㄴ -533
▁ㅇㅓㄴ -534
▁ㅂㅡㄹ -535
▁ㅆㅡ -536
▁ㅍㅏ -537
▁ㅂㅐㄱ -538
▁C -539
▁ㅊㅏㅇ -540
▁f -541
▁M -542
ㅂㅏ -543
ㅊㅓㅇ -544
ㅇㅑ -545
▁ㄱㅗㄱ -546
ㅅㅗㅇ -547
▁ㄱㅕㅇㅇㅜ -548
▁ㅅㅐ -549
▁ㅈㅏㅅㅣㄴ -550
▁ㅈㅗㄴ -551
ㅐㄴㄷㅡ -552
▁ㅁㅏㅇ -553
▁ㄴㅔ -554
ㅎㅏㅁ -555
▁ㅌㅗㅇㅎㅏ -556
▁T -557
▁ㅎㅕㄴㅈㅐ -558
▁F -559
▁ㄷㅟ -560
▁ㅍㅣㄹ -561
▁ㄱㅗㄹ -562
ㅈㅜㄴ -563
▁ㅅㅏㅇㅣ -564
ㅌㅣ -565
▁ㅇㅣㄹㅡㅁ -566
▁ㅅㅏㄱ -567
▁ㅍㅣ -568
▁198 -569
▁ㄱㅣㄹㅗㄱ -570
▁ㄹㅣㄱ -571
▁ㅍㅕㄴ -572
ㅇㅑㄱ -573
▁ㅎㅘㄱ -574
▁ㄱㅜㄱㄱㅏ -575
▁_ -576
ㅈㅣㄹ -577
▁ㅇㅟㅊㅣ -578
▁ㅁㅐ -579
▁ㅊㅜ -580
▁ㄱㅏㅈㅏㅇ -581
▁ㅇㅏㄴㅣ -582
▁ㄱㅡㅁ -583
▁ㅈㅜㄹ -584
▁ㄷㅏㅇㅅㅣ -585
▁ㅅㅣㅁ -586
▁( -587
▁ㄷㅏㄴㅡㄴ -588
▁ㅎㅏㅂ -589
▁ㅎㅏㄱㄱㅛ -590
ㅊㅗ -591
ㅅㅕㄴ -592
▁ㅈㅗㅅㅓㄴ -593
ㄷㅣㅇ -594
▁ㅎㅘㄹㄷㅗㅇ -595
▁ㅅㅣㄱ -596
▁ㅎㅏㄴㅏ -597
ㅅㅣㅇㅏ -598
▁for -599
▁ㄹㅣㄱㅡ -600
▁ㅁㅏㄴㄷㅡㄹ -601
ㅡㄹㅣ -602
▁15 -603
ㅓㄹㅣ -604
▁ㄱㅠ -605
mu -606
▁ㅇㅣㄴㅏ -607
ㅁㅐ -608
▁ㅈㅡㅇ -609
ㅈㅜㅇㅢ -610
ㄷㅣ -611
▁ㄱㅡㄹㅓㄴㅏ -612
▁ㅂㅗㅇㅣ -613
▁ㄷㅗㄹ -614
▁ㅁㅗㅅ -615
▁ㅅㅗㄴ -616
mula -617
▁formula -618
▁ㅉㅐ -619
ㄹㅣㅇㅏ -620
▁ㅂㅔ -621
ㅇㅑㅇ -622
ㄴㅏㅁ -623
ㅂㅕㅇ -624
ㅍㅕㄴ -625
ㅘㅇ -626
ㅂㅗㄱ -627
▁ㅅㅜㅇ -628
▁ㅅㅗㅇ -629
▁ㅌㅗ -630
▁ㅇㅜㄹ -631
ㄹㅣㅁ -632
▁16 -633
▁ㅈㅗㄱ -634
▁ㅍㅡㄹㅏㅇ -635
ㅗㄴㅡㄴ -636
▁ㅎㅘㅇ -637
▁ㅅㅓㄱ -638
▁ㄸㅗㄴㅡㄴ -639
▁ㅅㅜㄴ -640
ㅣㄱㅗ -641
▁ㄷㅐㅍㅛ -642
ㅔㄹㅡ -643
▁ㅊㅜㅇ -644
▁ㄱㅡㄱ -645
ㅡㄹㅗ -646
▁ㅈㅓ -647
▁ㅂㅕㅇ -648
▁ㅇㅠㄹ -649
▁ㄱㅣㄹ -650
▁ㅁㅗㅇ -651
ㅌㅏㄹ -652
ㅂㅕㄹ -653
▁/ -654
ㄷㅏㄹ -655
▁ㅇㅣㄱ -656
ㅂㅜㅌㅓ -657
ㅗㄹㅡ -658
ㅅㅐㄱ -659
▁m -660
ㅎㅘㄴ -661
ㅎㅘㅇ -662
▁ㄱㅡㄹㅣㄱㅗ -663
▁0 -664
▁ㅈㅏㄹ -665
▁D -666
ㅁㅗㄱ -667
ㄱㅏㅇ -668
▁ㅅㅏㅎㅚ -669
▁ㅇㅏㅍ -670
▁ㄴㅗㅇ -671
ㄱㅕㄴ -672
▁17 -673
ㅊㅣㅇ -674
▁ㅁㅣㄹ -675
ㅎㅓㅁ -676
▁ㅅㅣㅈㅡㄴ -677
▁ㅇㅕㄴㄱㅜ -678
ㅘㄴ -679
▁ㅊㅓㅅ -680
▁ㅂㅣㄹ -681
▁197 -682
▁ㄹㅜ -683
ㄴㅏ -684
▁B -685
ㅌㅜ -686
ㅏㄱㅏ -687
ㄷㅜ -688
ㄱㅡㅂ -689
▁ㅇㅓㅅㅓ -690
ㅊㅏㄹ -691
▁ㅌㅜ -692
ㅇㅕ -693
ㄹㅕㄴ -694
▁ㄴㅗㄹ -695
▁] -696
▁ㅌㅡㄹ -697
▁ㅂㅗㄷㅏ -698
▁[ -699
ㅅㅡㅂ -700
ㄱㅕㄹ -701
▁ㄴㅗㅍ -702
▁ㅇㅘㄴ -703
▁ㅇㅏㄹㄹㅣ -704
▁ㅌㅐㅇ -705
ㄹㅛ -706
▁ㄴㅣ -707
▁ㅈㅜㅇㄱㅜㄱ -708
▁ㅅㅡㅌ -709
▁ㅇㅏㅂ -710
▁ㅎㅕㅂ -711
▁ㅅㅓㅇㅜㄹ -712
▁ㅍㅡㄹㅗ -713
ㅎㅏㄱㄱㅛ -714
▁I -715
▁K -716
▁ㅇㅏㅁ -717
ㅊㅡ -718
▁: -719
ㅂㅜㄱ -720
▁ㅁㅗㅅㅎㅏ -721
▁ㄷㅏㅅㅣ -722
▁ㅇㅕㅇㄱㅜㄱ -723
ㅈㅣㅂ -724
▁ㅅㅣㄷㅐ -725
▁ㅂㅜㅇ -726
▁ㅍㅐ -727
▁ㅌㅔ -728
▁ㅌㅐ -729
▁ㅍㅗㄱ -730
▁ㄷㅣ -731
ㄱㅐ -732
▁k -733
▁ㄸㅡㅅ -734
▁ㄷㅗㅅㅣ -735
▁ㅍㅗㅎㅏㅁ -736
ㅇㅏㅇ -737
▁ㅈㅓㅇㅂㅜ -738
▁ㄲㅡ -739
▁ㅍㅡㄹㅏㅇㅅㅡ -740
ㄹㅗㄴ -741
ㄹㅓ -742
▁ㅅㅜㄹ -743
▁ㄱㅣㄴ -744
▁ㅅㅓㅁ -745
▁ㄱㅜㅇ -746
ㅇㅓㅈㅣ -747
▁ㅇㅔㄴ -748
▁196 -749
▁ㅇㅠㄴ -750
▁14 -751
▁ㅅㅓㅂ -752
▁ㅅㅡㅍ -753
ㅅㅡㅌㅡ -754
ㅈㅓ -755
ㅂㅓㅁ -756
▁ㅋㅡㄹ -757
▁ㄱㅛㅇ -758
ㄱㅡㄴ -759
▁ㅇㅕㄹㅓ -760
▁ㅈㅓㄴㅈㅐㅇ -761
ㅇㅗ -762
er -763
ㄹㅐ -764
▁ㄹㅓ -765
ㄹㅑㅇ -766
▁~ -767
▁ㄷㅐㅎㅚ -768
▁ㅂㅏㄲ -769
▁ㅇㅗㄴ -770
ㄱㅗㄱ -771
▁ㄹㅗㅅㅓ -772
▁ㄷㅗㄱㅇㅣㄹ -773
ㅇㅓㄴㅏ -774
▁ㅂㅐㅇㅜ -775
▁ㅊㅜㄱㄱㅜ -776
▁ㅁㅜㄴㅎㅘ -777
ㅠㄱ -778
▁ㅂㅕㄹ -779
▁13 -780
▁g -781
ㅋㅔ -782
ㄱㅠ -783
▁ㅊㅟ -784
▁P -785
ㅊㅜ -786
in -787
▁ㅇㅟㅇㅝㄴ -788
ㅇㅣㅂ -789
▁ㄱㅏㄴㅡㅇ -790
▁ㄷㅏㄱㅏ -791
ㅓㅎ -792
▁ㄴㅠ -793
▁ㅁㅗㄷㅜ -794
▁ㅇㅣㅅㅏㅇ -795
▁ㅊㅣㄴ -796
▁ㄱㅏㅈ -797
▁ㄱㅓㅁ -798
▁ㄷㅗㅇㅇㅏㄴ -799
▁ㄴㅏㄴ -800
▁ㅎㅐㄱ -801
▁ㅎㅗㅇ -802
▁ㅁㅗㄷㅡㄴ -803
▁ㅇㅓㄹ -804
▁194 -805
▁ㅂㅏㅇㅅㅗㅇ -806
ㅈㅗㄴ -807
▁ㄱㅏㅁㄷㅗㄱ -808
ㅂㅗㅇ -809
▁ㄱㅏㄹ -810
▁ㅎㅘㄴ -811
ㄱㅝㄴ -812
ㅎㅏㄹ -813
ㅊㅜㄱ -814
ㅍㅣ -815
▁ㅁㅏㄱ -816
▁ㄱㅓㄹ -817
▁ㄷㅐㅎㅏㄱㄱㅛ -818
▁ㄴㅏㄹ -819
▁l -820
ㅜㅅㅡ -821
▁ㄱㅐㅂㅏㄹ -822
▁ㅁㅏㅌ -823
▁ㄱㅐㅇ -824
ㅏㅇㅣㄴ -825
▁ㅇㅣㄹㅂㅜ -826
▁L -827
▁ㄴㅡㄴㄷㅏ -828
▁ㅇㅏㅇㅣ -829
▁ㅈㅔㅈㅏㄱ -830
ㅂㅓ -831
ㅇㅓㄴ -832
▁ㅈㅣㅂㅏㅇ -833
▁ㅊㅓㅇㅡㅁ -834
ㅇㅡㅁ -835
▁ㅁㅜㄴㅈㅔ -836
ㅍㅣㄱ -837
▁ㅅㅗㅅ -838
ㄱㅡㅁ -839
ㅠㄹ -840
ㄹㅗㅂ -841
▁ㄱㅜㅅㅓㅇ -842
▁ㅋㅡㄹㄹ -843
▁ㅇㅠㄱ -844
▁ㄱㅜㄱㅈㅔ -845
▁ㄴㅗㄴ -846
▁% -847
▁ㅇㅣㄴㅎㅏ -848
▁ㄱㅔㅇㅣㅁ -849
ㅍㅕㅇ -850
▁ㅋㅏㄹ -851
▁ㅇㅣㅇ -852
▁ㄷㅏㅁ -853
▁ㅈㅜㄴ -854
ㅊㅓㄹ -855
▁ㅅㅏㄱㅓㄴ -856
ㄷㅏㅁ -857
ㄱㅘㅇ -858
▁ㅇㅣㄹㅂㅏㄴ -859
▁ㅅㅔㄱㅣ -860
▁ㅇㅣㅇㅛㅇ -861
ㄹㄹㅣ -862
▁ㅅㅣㄱㅏㄴ -863
▁G -864
▁ㄱㅗㅅ -865
▁ㄲㅡㅌ -866
ㅈㅣㅇ -867
ㄴㅐ -868
ㅏㅁㅏ -869
ㅜㄹㅡ -870
ㄷㅗㄹ -871
▁ㅈㅏㄱㅍㅜㅁ -872
ㅈㅓㄹ -873
▁ㅎㅑㅇ -874
▁ㅈㅗㄴㅈㅐ -875
▁ㅊㅣ -876
▁ㅆㅣ -877
ㅅㅏㄹ -878
▁ㅇㅜㄴㄷㅗㅇ -879
▁N -880
▁ㅇㅣㄴㄱㅜ -881
▁ㅈㅓㅂ -882
▁ㄱㅡㅂ -883
ㅂㅡ -884
▁gt -885
▁ㅈㅓㅇㄷㅗ -886
▁ㅈㅣㄹ -887
on -888
▁ㅊㅗㄱ -889
▁km -890
▁195 -891
ㅌㅔ -892
▁ㅍㅏㄹ -893
▁ㅈㅡㄱ -894
▁ㅈㅜㅈㅏㅇ -895
▁ㄴㅏㅇㅗ -896
▁ㅈㅓㄹ -897
▁ㅂㅜㄹㅡ -898
▁ㄱㅛㅇㅠㄱ -899
ㅎㅚㄱ -900
▁ㄱㅘㄴㄱㅖ -901
▁ㅊㅐㄱ -902
ㅌㅐㄱ -903
▁ㅇㅡㅁㅇㅏㄱ -904
▁ㄱㅟ -905
▁U -906
▁ㄱㅓㄴㅏ -907
▁lt -908
ㅊㅏㅇ -909
▁ㅍㅗㄹ -910
▁ㅇㅕㄱㅅㅏ -911
▁ㅈㅜㅇㅅㅣㅁ -912
ㅈㅡㅇ -913
▁ㄴㅏㅌㅏㄴ -914
ㅁㅏㅇ -915
ㅌㅓㄴ -916
▁ㅅㅣㅇ -917
▁ㅇㅞ -918
▁ㅋㅐ -919
▁R -920
▁ㅈㅓㅇㅊㅣ -921
ㅊㅏㄱ -922
▁30 -923
▁ㅅㅠ -924
▁ㅁㅏㅈ -925
ㅅㅗㄴ -926
ㄴㅕㄴ -927
▁ㅊㅣㄹ -928
▁ㅇㅣㄹㅓ -929
▁ㅇㅏㄷㅡㄹ -930
ㅂㅐ -931
▁ㅊㅏㄹ -932
▁H -933
ㄴㅣ -934
ㅇㅡㄴ -935
▁ㅂㅏㄹㄱㅕㄴ -936
ㅊㅐㄱ -937
ㅂㅜㅂㅜㄴ -938
ㅎㅘㄱㅜㄱ -939
▁E -940
▁ㅇㅗㄹㄹㅣㅁ -941
▁ㄱㅕㅇㅈㅔ -942
ㅌㅗㅇㄹㅕㅇ -943
▁ㄷㅡ -944
▁ㅂㅏㄹㅍㅛ -945
▁ㄴㅐㅇ -946
ㄷㅓ -947
▁ㅌㅏㅇ -948
▁ㄷㅗㄹㅗㄱ -949
▁ㄱㅣㅅㅜㄹ -950
ㅊㅓ -951
ㅋㅡㄹ -952
ㅂㅕㄴ -953
▁ㅍㅡㄹㅗㄱ -954
▁ㅋㅣ -955
▁ㅊㅡㄱ -956
▁ㅂㅓ -957
▁ㅍㅡㄹㄹ -958
ㅅㅡㄴ -959
▁ㄷㅐㅇ -960
▁ㅅㅗㄹ -961
ㅔㅇㅣㄴ -962
▁ㅈㅏㅁ -963
▁ㅇㅜㅅㅡㅇ -964
▁ㅅㅏㅁㅏㅇ -965
ㄱㅡㄹ -966
▁2010 -967
ㅎㅘㄹ -968
ㅇㅘㅇ -969
▁ㅇㅗㄹㄹㅣㅁㅍㅣㄱ -970
▁ㅁㅣㄴㅈㅜ -971
▁ㄹㅗㅂㅜㅌㅓ -972
an -973
ㅈㅓㅂ -974
ㅋㅜ -975
ㅁㅏㄱ -976
▁ㄷㅐㅂㅜㅂㅜㄴ -977
▁ㅂㅓㅁ -978
ㅡㄹㅐㅁ -979
▁ㄷㅐㅌㅗㅇㄹㅕㅇ -980
▁ㅊㅐ -981
▁ㅋㅗㄴ -982
▁ㄱㅗㅇㄱㅕㄱ -983
▁ㅂㅜㄹㄹㅣ -984
▁ㅇㅣㅅ -985
000 -986
▁ㅈㅏㅂ -987
▁ㄴㅓㅁ -988
▁ㅇㅕㅇㅎㅑㅇ -989
ㅍㅓ -990
ㅓㄱㅏ -991
▁ㅇㅕㄹㄹㅣ -992
▁ㅇㅕㄱㅣ -993
▁ㅇㅓㅂ -994
▁ㅈㅣㅇㅝㄴ -995
ㅔㅅㅡ -996
▁193 -997
▁ㅍㅡㄹㅗㄱㅡㄹㅐㅁ -998
ㄷㅏㄴㅡㄴ -999
ㅔㅁ -1000
ㅔㅅ -1001
ㄱㅡㄱ -1002
▁ㄱㅕㄹㄱㅘ -1003
▁ㅊㅣㅁ -1004
▁ㅂㅓㄹ -1005
▁ㅅㅐㄹㅗㅂ -1006
▁ㅇㅓㄷ -1007
▁ㅂㅏㄺ -1008
▁ㅌㅏㄹ -1009
ㅏㅂ -1010
▁ㅎㅛ -1011
▁c -1012
▁ㄱㅘㅈㅓㅇ -1013
▁ㅇㅢㅁㅣ -1014
ㅎㅗㄴ -1015
▁ㅌㅏㄴ -1016
▁ㅈㅜㅇㅇㅏㅇ -1017
▁ㅈㅓㄴㅌㅜ -1018
▁ㅊㅏㅁㅇㅕ -1019
▁ㄱㅘㄴㄹㅕㄴ -1020
▁ㅇㅠㄹㅓㅂ -1021
▁ㅂㅏㄹㅅㅐㅇ -1022
ㅍㅡㄹ -1023
▁ㅂㅔㄹ -1024
▁ㅎㅗㄴ -1025
▁ㅊㅚㅊㅗ -1026
20 -1027
▁ㅇㅏㄱ -1028
▁ㅈㅣㄴㅎㅐㅇ -1029
▁ㅅㅔㄴ -1030
ㄷㅡㄱ -1031
▁ㅇㅓㅁ -1032
▁25 -1033
▁ㅌㅔㄹ -1034
▁ㅅㅓㄹㄹㅣㅂ -1035
▁ㄱㅗㄷㅡㅇ -1036
▁ㅈㅗㅎ -1037
▁ㅌㅐㅇㅓㄴㅏ -1038
▁ㅂㅣㅇ -1039
▁ㅂㅜㅂㅜㄴ -1040
▁ㅊㅗㄷㅡㅇ -1041
ㅜㄹㅣ -1042
ㅆㅓ -1043
▁ㄷㅗㄱㄹㅣㅂ -1044
▁ㅅㅗㄱㅎㅏ -1045
▁ㄷㅏㅇㅑㅇ -1046
▁ㅅㅓㄹㅊㅣ -1047
ㄱㅏㅁ -1048
▁ㅅㅔㅇㅜ -1049
▁ㅍㅏㅇ -1050
ㅌㅡㄴ -1051
▁ㅁㅗㄹ -1052
▁ㅇㅐㄹ -1053
▁ㅌㅡㄱㅎㅣ -1054
ㅜㅂ -1055
▁ㄱㅜㅈㅗ -1056
▁ㅈㅔㄱㅜㄱ -1057
▁ㅈㅏㅇㅠ -1058
▁ㅂㅏㄹㅁㅐ -1059
▁ㄱㅕㄹㅈㅓㅇ -1060
▁ㅍㅖ -1061
▁ㅎㅕㅇㅌㅐ -1062
▁ㅅㅗㅅㅗㄱ -1063
▁2008 -1064
▁W -1065
ㅈㅣㅁㅏㄴ -1066
▁ㅇㅣㄹㅜ -1067
▁ㅅㅏㅇㅌㅐ -1068
ㄹㅜ -1069
▁ㅂㅡㄹㄹ -1070
ㄹㅣㄱ -1071
▁ㄷㅏㅇㅎㅏ -1072
ㅔㅇㅣㅅㅕㄴ -1073
▁21 -1074
▁ㄷㅡㄹㅇ -1075
▁ㄹㅔㅇㅣ -1076
▁ㅎㅣ -1077
▁ㅇㅣㅈㅓㄴ -1078
▁ㄱㅏㅌㅇㅣ -1079
ㅂㅐㄱ -1080
ㅌㅣㄴ -1081
▁ᆫㄷㅏㄴㅡㄴ -1082
▁ㅈㅘ -1083
▁ㅇㅏㅇㅑ -1084
▁ㄹㅣㅇ -1085
ㄷㅣㅇㅗ -1086
▁ㅇㅣㄹㅇㅓㄴㅏ -1087
▁ㄱㅡㄴㅕ -1088
▁ㅁㅜㅇ -1089
▁ㅁㅜㄱ -1090
▁ㅈㅜㄹㅗ -1091
ㄹㅣㄴ -1092
▁ㅋㅗㄹ -1093
▁ㅎㅏㅈㅣㅁㅏㄴ -1094
▁ㅇㅣㄴㅁㅣㄴ -1095
▁ㄷㅔㅇㅣ -1096
▁ㅇㅕㅅㅓㅇ -1097
▁ㄴㅏㄹㅏ -1098
▁ㅅㅏㅅㅣㄹ -1099
▁2012 -1100
▁ㅂㅣㄱ -1101
▁2011 -1102
▁ㅇㅡㄹㅗㅅㅓ -1103
▁ㅊㅜㄹㅅㅣㄴ -1104
ㄷㅓㄱ -1105
▁ㅅㅓㄴㄱㅓ -1106
▁ㅅㅡㄹ -1107
en -1108
▁ㄱㅣㅈㅜㄴ -1109
▁ㄷㅜㄹ -1110
▁ㅇㅣㄱㅓㅅ -1111
▁ㅇㅜㄴㅇㅕㅇ -1112
▁ㅋㅓㅁ -1113
▁ㄷㅔㅂ -1114
▁ㅇㅕㅈㅏ -1115
ㅍㅐ -1116
▁2007 -1117
▁ㅍㅣㄹㅇㅛ -1118
▁100 -1119
▁ㅊㅏㅁㄱㅏ -1120
▁ㅇㅣㅌㅏㄹ -1121
▁t -1122
▁2009 -1123
▁ㅇㅟㅇㅝㄴㅎㅚ -1124
▁2014 -1125
▁ㄱㅘㄴㄹㅣ -1126
▁ㅈㅗㅈㅣㄱ -1127
▁ㅎㅐㅇㅈㅓㅇ -1128
▁ㅅㅐㅇㄱㅏㄱ -1129
ㄷㅏㄱㅗ -1130
▁ㄱㅣㄱㅘㄴ -1131
ㄹㅏㄴㄷㅡ -1132
▁ㅈㅣㅈㅓㅇ -1133
ㄹㅡ -1134
ㅅㅜㄴ -1135
▁ㄱㅖㅎㅚㄱ -1136
▁ㅅㅐㅇㅅㅏㄴ -1137
▁ㅈㅜㅇㅇㅛ -1138
▁ㄷㅡㅇㅈㅏㅇ -1139
▁ㅌㅡ -1140
▁ㅇㅡㅁㅂㅏㄴ -1141
▁ㄹㅏㅇㅣ -1142
ㅣㅇㅓㄴ -1143
▁a -1144
ㄹㅏㄱ -1145
ㅇㅕㄹ -1146
ㅣㅇㅗ -1147
ㅂㅏㄱ -1148
▁ㅈㅗㄹ -1149
▁ㅍㅔ -1150
▁ㅂㅗㄴㅐ -1151
▁ㄱㅓㅇ -1152
ㅏㅇㅜㄴ -1153
ㅌㅚ -1154
▁ㅅㅜㄱ -1155
ㅇㅏㅁ -1156
▁ㅇㅣㄹㅡ -1157
▁O -1158
▁2013 -1159
▁ㄹㅓㅅㅣㅇㅏ -1160
▁ㄷㅔㅂㅟ -1161
▁ㅎㅢ -1162
▁ㄹㅗㅁㅏ -1163
he -1164
▁ㅇㅗㅇ -1165
▁ㅇㅓㄱ -1166
▁ㅇㅓㄸ -1167
▁ㅅㅏㅇㄷㅐ -1168
▁ㅎㅐㄷㅏㅇ -1169
▁ㄱㅖㅅㅗㄱ -1170
▁ㅁㅐㅇㅜ -1171
▁ㅍㅜㅇ -1172
▁ㅅㅓㅇㄱㅗㅇ -1173
▁ㄲㅗ -1174
▁ㅅㅣㄹㅣ -1175
▁ㅇㅗㄹㅡ -1176
▁ㅇㅗㄱ -1177
ㅊㅏㄴ -1178
▁ㅅㅛ -1179
▁ㄱㅜㄱㅁㅣㄴ -1180
▁ㅆㅏㅇ -1181
ㅎㅢ -1182
▁ㄷㅐㅈㅓㄴ -1183
ㄴㅏㄹㅏ -1184
▁ㅎㅓㄴ -1185
▁ㅇㅏㅂㅓㅈㅣ -1186
ㄸㅐ -1187
ㅂㅡㄹ -1188
▁ㄱㅘㅎㅏㄱ -1189
▁ㅇㅐㄴ -1190
▁ㅈㅜㅇㅛ -1191
▁ㅈㅓㅇㅂㅗ -1192
▁191 -1193
▁ㅂㅏㄺㅎㅣ -1194
▁ㅅㅏㅇㅓㅂ -1195
▁ㅇㅏㄹㅐ -1196
ㅓㄴㅣ -1197
▁ㅈㅏㄹㅣ -1198
▁ㅂㅗㄹ -1199
▁23 -1200
▁24 -1201
▁ㄱㅗㄹㅕ -1202
▁ㅂㅏㄹㅈㅓㄴ -1203
▁ㅁㅕㅊ -1204
ar -1205
▁ㅃㅜㄴ -1206
▁2015 -1207
▁ㅅㅡㅋ -1208
▁ㅈㅣㄴㅐ -1209
ㄹㅣㅇ -1210
▁ㅊㅏㅈㅣ -1211
▁2018 -1212
ㅊㅡㄱ -1213
ㅁㅐㅇ -1214
▁000 -1215
▁ㅌㅣ -1216
ㅅㅡㅌㅡㄹ -1217
▁ㅎㅣㅁ -1218
▁2016 -1219
▁ㅊㅏㅈ -1220
▁ㄱㅓㅊㅣ -1221
ㅣㅇㅓ -1222
▁ㅂㅣㄴ -1223
▁ㅇㅣㅇㅠ -1224
▁ㅂㅏㅇㅂㅓㅂ -1225
▁ㄱㅡㄹㅜㅂ -1226
▁ㄴㅡㅇ -1227
▁ㅇㅝㄹㄷㅡ -1228
▁ㅊㅓㄹㅓㅁ -1229
▁ㅋㅜ -1230
▁ㅇㅐㄹㅂㅓㅁ -1231
▁ㅋㅏㄴ -1232
▁ㄱㅡㄹㅣ -1233
ㅊㅣㅁ -1234
▁J -1235
▁ㅇㅜㅇ -1236
▁ㄴㅗㄱ -1237
▁ㅇㅣㅌㅏㄹㄹㅣㅇㅏ -1238
es -1239
▁ㅊㅜㄹㅇㅕㄴ -1240
▁ㅅㅣㄹㅣㅈㅡ -1241
▁ㅁㅗㅁ -1242
ㅊㅜㅇ -1243
▁22 -1244
▁ㄱㅗㄷㅡㅇㅎㅏㄱㄱㅛ -1245
ㄱㅠㄴ -1246
▁ㅁㅐㄱ -1247
▁2006 -1248
ㅇㅐ -1249
ㅆㅡ -1250
▁ㅈㅓㄴㅊㅔ -1251
▁ㄸㅓㄹ -1252
▁ㅅㅐㅇㅎㅘㄹ -1253
▁ㅌㅓ -1254
▁ㅇㅣㄹㅜㅇ -1255
▁ㄱㅘㄴㅎㅏ -1256
▁ㅇㅣㄹㅜㅇㅓㅈㅣ -1257
▁ㅁㅐㄴ -1258
ㅇㅖ -1259
▁ㅁㅛ -1260
▁192 -1261
▁ㅊㅡㅇ -1262
FA -1263
▁ㅊㅚㄱㅗ -1264
▁ㅂㅜㅌ -1265
▁ㅎㅚㅅㅏ -1266
ㅗㅇㅣ -1267
▁ㅅㅑ -1268
▁ㄱㅡㄹㅣㅅㅡ -1269
▁2017 -1270
ㅇㅚ -1271
▁ㅈㅔㄱㅗㅇ -1272
▁ㄴㅓ -1273
▁ㄴㅐㅇㅛㅇ -1274
ㅊㅚ -1275
▁ㅎㅏㄴㅍㅕㄴ -1276
▁ㄱㅕㄹㄱㅜㄱ -1277
▁ㅅㅣㅅㅡㅌ -1278
▁ㅂㅏㅇㅅㅣㄱ -1279
ㅅㅡㅌㅓ -1280
▁ㄱㅕㄱ -1281
ㅂㅓㄹ -1282
▁ㅇㅕㄴㅎㅏㅂ -1283
▁ㅎㅏㅇㄱㅗㅇ -1284
▁ㄹㅠ -1285
ㅌㅣㅇ -1286
▁ㄱㅗㅇㅅㅣㄱ -1287
▁ᆫㄷㅏㄱㅗ -1288
▁ㅎㅗㄱ -1289
▁ㄱㅏㅇㅜㄴ -1290
▁ㄷㅡㄹㅏㅁㅏ -1291
▁ㅁㅏㄶㅇㅣ -1292
▁ㅈㅣㄴㅏ -1293
▁ㄷㅗㅋ -1294
▁ㄱㅏㅇㅜㄴㄷㅔ -1295
▁ㅎㅜㅂㅗ -1296
▁ㅇㅢㅇㅝㄴ -1297
▁ㅅㅣㅅㅡㅌㅔㅁ -1298
▁ㅅㅣㄱㅣ -1299
▁ㅊㅜㄹㅈㅓㄴ -1300
▁ㅎㅗㅁ -1301
▁ㅇㅠㅁㅕㅇ -1302
▁ㅇㅣㄴㄱㅏㄴ -1303
▁ㅇㅣㄲ -1304
▁ㅊㅗㄱㅣ -1305
▁ㅇㅕㄱㅎㅏㄹ -1306
▁ㅆㅡㅇㅣ -1307
▁s -1308
▁ㅂㅔㄴ -1309
▁ㅎㅠ -1310
▁ㅈㅏㄴ -1311
▁ㄱㅣㅇㅓㅂ -1312
▁ㄴㅗㅎ -1313
▁ㄹㅡ -1314
ㅍㅣㄹ -1315
▁ㅈㅔㄷㅗ -1316
▁ㄸㅏㄹ -1317
ㅔㄹㅣ -1318
▁ㅁㅣㄴㅈㅗㄱ -1319
▁ㅅㅐㄱ -1320
ㅁㅏㄹ -1321
▁ㄱㅓㅇㅢ -1322
ㅈㅜㄱ -1323
▁ㅇㅜㄹㅣ -1324
▁ㅈㅗㅅㅏ -1325
▁ㅂㅜㄴㄹㅠ -1326
▁ㅅㅜㅅㅏㅇ -1327
▁ㅂㅏㄴㄷㅐ -1328
▁ㄴㅏㅌㅏㄴㅏ -1329
▁ㄱㅏㄹㅣ -1330
▁ㅁㅔㅇㅣ -1331
ㄴㅏㄹ -1332
▁ㄱㅛㅎㅚ -1333
▁ㅈㅣㄱㅜ -1334
ㄹㅑㄱ -1335
▁ㅇㅡㄹㅗㅆㅓ -1336
▁! -1337
ㅍㅜㅇ -1338
▁ㄷㅏㄹㄹㅣ -1339
▁ㄷㅐㅅㅣㄴ -1340
▁ㄴㅜㄴ -1341
▁26 -1342
at -1343
▁ㅇㅓㄴㅇㅓ -1344
ㅊㅣㄱ -1345
▁ㅇㅝ -1346
ㅌㅏㅇ -1347
▁ㅍㅛㅎㅕㄴ -1348
ㅎㅓㄴ -1349
▁ㅌㅡㄱㅂㅕㄹ -1350
▁ㅍㅏㄱ -1351
ㅇㅏㅂ -1352
▁ㅍㅕㅇㄱㅏ -1353
▁ㅇㅠㅈㅣ -1354
▁ㄱㅣㄴㅡㅇ -1355
▁ㄷㅐㅅㅏㅇ -1356
▁ㄴㅏㄱㅏ -1357
▁ㅊㅣㅇ -1358
▁ㅇㅡㄹㅗㅂㅜㅌㅓ -1359
▁ㄱㅠㅁㅗ -1360
▁ㅇㅡㅇ -1361
▁ㄱㅜㄹ -1362
▁28 -1363
▁ㅂㅔㅇㅣ -1364
▁2019 -1365
ㅡㄹㄹㅐㄴㄷㅡ -1366
▁ㅇㅕㄴㄱㅕㄹ -1367
▁ㄷㅗㅇㅅㅣ -1368
▁ㄴㅏㅇㅣ -1369
▁ㄱㅗㅇㄱㅐ -1370
▁27 -1371
▁ㅈㅏㅇㅕㄴ -1372
▁ㄱㅏㄱㄱㅏㄱ -1373
▁ㅁㅓㄹ -1374
▁ㄱㅜㄴㅅㅏ -1375
ㅂㅜㄱㄷㅗ -1376
▁ㄸㅟ -1377
ㅎㅟ -1378
▁ㅁㅏㅈㅣ -1379
▁ㅅㅟ -1380
▁ㅁㅗㅅㅡㅂ -1381
▁ㄹㅗㅂ -1382
▁ㄴㅗㄷㅗㅇ -1383
▁ㅇㅣㄹㅗㄴ -1384
ㅋㅓ -1385
▁ㄷㅡㄹㅇㅓㄱㅏ -1386
▁ㄱㅐㅇㅣㄴ -1387
▁ㄷㅏㄴㅊㅔ -1388
▁2005 -1389
▁ㅈㅓㄴㅎㅏ -1390
▁ㅁㅗㄱㄹㅗㄱ -1391
▁ㅅㅡㅌㅏ -1392
▁ㅎㅗㄹ -1393
ㅋㅓㅂ -1394
▁ㅇㅣㅇㅑ -1395
▁V -1396
▁ㅋㅐㄴ -1397
ㅊㅗㅇ -1398
▁ㄱㅕㅇㅅㅏㅇ -1399
▁ㅇㅣㅁㅁㅕㅇ -1400
▁2000 -1401
▁ㅇㅔㄹ -1402
▁ㅇㅣㅁㅣ -1403
▁ㅎㅕㄴㄷㅐ -1404
▁ㅅㅡㅂ -1405
▁ㅌㅏㅇㅣ -1406
▁ㅇㅓㅇㅑ -1407
▁ㅊㅓㄹㄷㅗ -1408
▁ㅈㅣㄴㅊㅜㄹ -1409
▁ㅇㅣㄴㅈㅓㅇ -1410
▁ㄹㅏㅁ -1411
▁ㄸㅓㄹㅇㅓㅈㅣ -1412
ic -1413
▁ㅅㅡㅇㄹㅣ -1414
▁ㅈㅓㅇㅇㅢ -1415
▁ㅅㅣㅈㅓㄹ -1416
▁ㅁㅓㄱ -1417
▁ㅈㅓㄴㅁㅜㄴ -1418
▁ㅁㅏㅈㅣㅁㅏㄱ -1419
al -1420
▁ㅅㅣㅈㅏㅇ -1421
ㄴㅕㅁ -1422
▁ㅁㅗㄱㅈㅓㄱ -1423
▁ㅈㅣㄷㅗ -1424
ㅌㅡㅇ -1425
▁ㅍㅔㄹ -1426
ㅎㅡㅇ -1427
ㅇㅔ -1428
▁ㅅㅏㄴㅇㅓㅂ -1429
▁ㅎㅜㄴ -1430
▁ㅋㅓㅂ -1431
▁ㄱㅣㄱㅏㄴ -1432
ㅜㅇㅝㄴ -1433
ㅊㅡㅇ -1434
▁ㅇㅑㄱㅜ -1435
▁ㅇㅣㅇㅑㄱㅣ -1436
▁ㄴㅏㄱ -1437
▁ㅈㅓㅇㅊㅐㄱ -1438
▁ㅈㅣㄱㅈㅓㅂ -1439
ㅂㅜㄹ -1440
BS -1441
▁ㄱㅣㅇㅝㄴ -1442
ㅅㅡㄹ -1443
▁ㄴㅡ -1444
▁2004 -1445
▁ㅍㅡㄹㄹㅔㅇㅣ -1446
▁ㅎㅕㄱ -1447
▁ㄱㅐㅊㅚ -1448
▁ㅅㅓㄹㅗ -1449
▁ㅊㅏㄱ -1450
ㅇㅡㅇ -1451
▁ㅁㅗㄷㅔㄹ -1452
▁ㄱㅖㅇㅑㄱ -1453
▁FC -1454
▁ㄱㅗㅇㄱㅏㄴ -1455
▁ㅅㅏㅇㅎㅘㅇ -1456
ㅎㅕㄱ -1457
▁ㄱㅓㄴㅅㅓㄹ -1458
▁ㄱㅓㄴㅁㅜㄹ -1459
▁ㄱㅗㅇㄷㅗㅇ -1460
▁ㅁㅏㅇㅣ -1461
▁ㅂㅣㄹㅗㅅ -1462
▁ㅊㅜㄱㅏ -1463
▁ㄷㅗㄴ -1464
ㄷㅡㅁ -1465
▁ㅇㅣㄴㄷㅗ -1466
▁50 -1467
ㄷㅡㄴ -1468
▁ㄹㅏㅇ -1469
▁ㅎㅘㄹㅇㅑㄱ -1470
ㅅㅜㄱ -1471
▁b -1472
ㄱㅓㄴ -1473
▁ㅂㅜㅅㅏㄴ -1474
▁ㅅㅡㅍㅔㅇㅣㄴ -1475
▁31 -1476
▁ㄱㅓㄹㅣ -1477
▁ㅇㅡㅁㅕㄴ -1478
▁ㄱㅕㅇㅊㅏㄹ -1479
▁ㅎㅕㅇㅅㅓㅇ -1480
▁ㅋㅓㅁㅍ -1481
ㄹㅠㄹ -1482
▁ㅍㅣㅇ -1483
▁ㅈㅗㄹㅇㅓㅂ -1484
▁ㄱㅕㄹㅎㅗㄴ -1485
▁ㅁㅗㄴ -1486
▁29 -1487
▁ㄱㅏㄲ -1488
▁TV -1489
▁ㄴㅗㄹㅐ -1490
ㅎㅏㄱㅈㅏ -1491
ㅐㅁㅍ -1492
is -1493
▁ㅈㅏㄷㅗㅇ -1494
ㅔㅇㅣㄹ -1495
it -1496
▁ㅎㅣㄹ -1497
ㅅㅠ -1498
▁ㅂㅣㅅㅡ -1499
re -1500
▁ㅂㅕㄴㄱㅕㅇ -1501
▁ㅅㅏㄹㅏㅇ -1502
ㅁㅔ -1503
▁ㅅㅏㅅㅏㅇ -1504
ㄹㅓㄴ -1505
ㄱㅗㄹ -1506
ㅈㅏㅂ -1507
▁ㄱㅜㄱㅎㅚ -1508
ㅌㅔㄴ -1509
▁ㅇㅗㄹㄹㅣ -1510
▁ㄱㅛㅅㅜ -1511
▁ㄱㅗㅇㅎㅘㄱㅜㄱ -1512
ㅡㅋㅣ -1513
▁ㅁㅏㅇㅡㄹ -1514
▁ㅌㅏㅁ -1515
▁ㅇㅣㄴㅁㅜㄹ -1516
▁ㅂㅕㄴㅎㅘ -1517
ㅅㅣㅇ -1518
ㅂㅣㅈㅓㄴ -1519
ㄴㅣㄷㅏ -1520
ㅇㅡㅋㅣ -1521
▁ㅌㅔㄹㄹㅔ -1522
▁ㅌㅏㅂ -1523
▁190 -1524
ㄲㅣ -1525
▁ㄴㅗㅅㅓㄴ -1526
▁ㅇㅗㅅㅡㅌㅡㄹ -1527
ㄱㅏㄹ -1528
▁ㅈㅜㅇㅎㅏㄱㄱㅛ -1529
ㄷㅓㄴ -1530
ㄹㅠㄱ -1531
▁ㄴㅏㅈ -1532
▁2020 -1533
▁ㅇㅣㄴㅁㅣㄴㄱㅗㅇ -1534
▁ㅇㅣㄴㅁㅣㄴㄱㅗㅇㅎㅘㄱㅜㄱ -1535
ㄹㅐㄴㄷㅡ -1536
▁ㄱㅡㄱㅓㅅ -1537
▁ㅇㅘㄴㅈㅓㄴ -1538
▁ㄷㅏㄹㅡ -1539
▁ㄱㅕㄴ -1540
ㅍㅗㄴ -1541
ou -1542
ㅔㄹㅏ -1543
▁ㅂㅗㅌㅗㅇ -1544
▁ㅅㅣㅂ -1545
ㅏㄷㅏ -1546
ㄹㅖ -1547
▁ㅅㅓㅂㅣㅅㅡ -1548
ㄴㅏㅁㄷㅗ -1549
▁ㅁㅏㄹㅡ -1550
▁ㅈㅣㄱㅡㅁ -1551
▁ㅈㅐㄱ -1552
ㅇㅣㄱ -1553
▁ㄹㅗㄴ -1554
▁ㅎㅏㄱㅅㅐㅇ -1555
▁ㅇㅕㄱㅅㅣ -1556
▁ㄹㅗㄱ -1557
▁ㅅㅣㄹㅈㅔ -1558
ㅅㅏㄱ -1559
▁ㅎㅔ -1560
ㅇㅛㄱ -1561
ㅈㅡㅁ -1562
▁ㅅㅗㅅㅓㄹ -1563
▁ㅊㅚㄷㅐ -1564
▁ㅇㅜㅁ -1565
▁ㅈㅓㄴㄱㅜㄱ -1566
▁ㅇㅢㅎㅚ -1567
▁ㅈㅜㅇㅎㅘ -1568
ㅌㅔㄹ -1569
▁ㅎㅓㅇ -1570
ㅇㅕㄱㅅㅣ -1571
▁ㅈㅣㅈㅣ -1572
▁ㅁㅏㄴㄴㅏ -1573
ㅇㅏㅇㅗ -1574
▁ㄱㅕㅁ -1575
ㅡㄹㅣㅋㅏ -1576
▁ㅍㅜㄹ -1577
▁ㄱㅏㅂ -1578
▁ㄴㅏㅇ -1579
▁ㅇㅣㄹㅇㅡㅋㅣ -1580
ㄷㅐㄹㅗ -1581
▁ㅏ -1582
▁ㄱㅣㅂㅗㄴ -1583
▁ㄹㅕ -1584
ㅜㄱㅣ -1585
ㅇㅜㄴ -1586
ㅍㅡㅌㅡ -1587
▁ㄱㅏㅅㅜ -1588
▁ㅅㅣㅇㄱㅡㄹ -1589
ㅎㅘㄱ -1590
▁ㅇㅝㄴㄹㅐ -1591
▁ㅇㅛㄱㅜ -1592
▁ㅂㅐㄴㄷㅡ -1593
▁ㄱㅕㅇㄱㅣㄷㅗ -1594
▁ㅎㅘㅇㅈㅔ -1595
▁ㄴㅗㅍㅇㅣ -1596
▁ㄱㅣㅂㅏㄴ -1597
▁ㅈㅓㄴㅌㅗㅇ -1598
▁ㅌㅚ -1599
▁ㅍㅜ -1600
▁2002 -1601
▁ㅌㅜㅇ -1602
ㄹㅕ -1603
▁ㅇㅓㅄㅇㅣ -1604
ㄹㅔㄱ -1605
ㅋㅏㄴ -1606
▁ㅍㅗㅇ -1607
ㅌㅡㄱ -1608
ㅟㄴ -1609
▁ㅈㅣㅎㅏ -1610
▁ㄱㅏㄹㅣㅋㅣ -1611
▁ㄹㅣㅂ -1612
▁ㅇㅜㅈㅜ -1613
▁ㅅㅜㄷㅗ -1614
▁ㄹㅜㅇ -1615
ㅅㅔㄴ -1616
▁40 -1617
▁ㄱㅔㅆ -1618
▁ㅊㅓ -1619
▁ㅊㅏㅇㅣ -1620
▁ㅈㅏㄹㅛ -1621
▁ㅂㅣㅍㅏㄴ -1622
▁2003 -1623
▁ㄱㅐㄱ -1624
▁ㅈㅣㅇ -1625
▁ㅇㅓㄸㅓㄴ -1626
▁ㅁㅣㅇ -1627
▁ㅈㅏㄱㅣ -1628
▁ㄸㅓㄴㅏ -1629
▁ㅇㅜㄴㅎㅐㅇ -1630
ㄷㅜㅇ -1631
ㄱㅜㄹ -1632
ㅇㅏㄱㅏ -1633
▁ㅈㅗㅇㄱㅛ -1634
▁ㅅㅔㄴㅌㅓ -1635
▁ㅅㅜㅎㅐㅇ -1636
▁ㅁㅗㅇㅑㅇ -1637
ㅈㅚ -1638
▁ㅅㅡㅇㄱㅏㅇ -1639
ㅓㅎㄱㅔ -1640
▁ㅎㅘㄴㄱㅕㅇ -1641
▁ㅅㅔㄹㅕㄱ -1642
ㅊㅗㄴ -1643
▁ㅈㅓㄴㄱㅣ -1644
▁ㄷㅗㅋㅛ -1645
▁ㅅㅣㅅㅓㄹ -1646
▁ㄴㅐㄹㅣ -1647
▁ㅂㅓㄹㅣ -1648
▁ㅅㅗㄹㅕㄴ -1649
▁ㅁㅕㅇㅊㅣㅇ -1650
▁ㅎㅚㅇㅢ -1651
▁ㅌㅔㄹㄹㅔㅂㅣㅈㅓㄴ -1652
▁ㅍㅏㄴㅁㅐ -1653
▁ㅇㅣㄲㅡㄹ -1654
▁ㄹㅓㄴ -1655
ㅂㅔ -1656
ㄹㅔㄴ -1657
ㄹㅣㅅㅡ -1658
▁ㄱㅣㄴㅕㅁ -1659
▁ㄴㅏㅌㅏㄴㅐ -1660
▁ㄸㅏㄹㅏ -1661
▁ㅌㅡㄱㅈㅣㅇ -1662
le -1663
▁ㄷㅓㄱ -1664
▁ㅎㅟ -1665
▁ㄱㅓㄹㅊㅣ -1666
▁ㅇㅝㄹㄷㅡㅋㅓㅂ -1667
▁ㄱㅜㅇㅕㄱ -1668
ㄷㅔㄴ -1669
▁ㅇㅕㅁ -1670
mp -1671
▁ㅋㅏㅁ -1672
▁ㅂㅜㄴㅇㅑ -1673
ㅏㅇㅘ -1674
▁ㄹㅔㄴ -1675
▁ㄹㅣㄴ -1676
▁ㅍㅣㄴ -1677
▁ㅁㅠ -1678
ㅓㄹㄹㅣ -1679
▁ㄱㅗㅇㅇㅕㄴ -1680
▁ㅇㅣㄷㅗㅇ -1681
▁ㅇㅖㅅㅜㄹ -1682
▁ㄴㅏㅁㅈㅏ -1683
▁ㅂㅗㅎㅗ -1684
▁ㅅㅣㄹㅅㅣ -1685
▁ㄱㅣㄷㅗㄱ -1686
ㅍㅔ -1687
▁ㄱㅡㄹㅐ -1688
▁ㅇㅕㄴㅂㅏㅇ -1689
▁ㄷㅗㅇㅁㅜㄹ -1690
▁ㄱㅛㅎㅘㅇ -1691
▁ㄷㅗㅇㅣㅂ -1692
▁ㅅㅓㄴㅈㅓㅇ -1693
▁ㄱㅣㅇ -1694
▁ㅅㅓㄹㅁㅕㅇ -1695
▁ㅋㅓㄴ -1696
ㅇㅓㅁ -1697
ㄹㅕㄹ -1698
▁ㅈㅏㄱㅇㅓㅂ -1699
▁= -1700
▁ㅎㅔㄹ -1701
▁ㅂㅜㄷㅐ -1702
ㅠㅁ -1703
▁ㅇㅟㄴ -1704
▁ㄷㅓㅇ -1705
▁ㄴㅏㅁㅉㅗㄱ -1706
▁ㄸㅏㅇ -1707
▁ㅂㅜㄱㅉㅗㄱ -1708
▁ㅌㅗㅇㅎㅏㅂ -1709
▁ㄴㅓㄼ -1710
▁ㄸㅏㄹㅏㅅㅓ -1711
▁ㄷㅓㅂ -1712
▁ㅈㅏㄱㅇㅛㅇ -1713
▁ㅊㅜㄹㅅㅣ -1714
▁ㅎㅐㅇㄷㅗㅇ -1715
ㅍㅗㄹ -1716
▁ㄱㅛㅌㅗㅇ -1717
▁ㄷㅡㄱ -1718
ㄷㅗㄴ -1719
ㅂㅣㄴ -1720
▁ㅅㅡㅇㄱㅏㅇㅈㅏㅇ -1721
▁ㅊㅏㄹㅑㅇ -1722
▁ㄱㅏㅈㅗㄱ -1723
▁ㅂㅏㅇㅎㅑㅇ -1724
ㄱㅟ -1725
▁ㅋㅡㄹㄹㅓㅂ -1726
ㅈㅟ -1727
▁ㅈㅡㅇㄱㅏ -1728
▁ㄱㅣㅈㅗㄴ -1729
▁ㄴㅡㅇㄹㅕㄱ -1730
▁ㅇㅕㄱㅇㅣㅁ -1731
▁ㅈㅔㅇㅚ -1732
▁ㅈㅏㄱㄱㅏ -1733
▁ㅁㅜㄴㅎㅏㄱ -1734
▁ㅎㅘㄱㅇㅣㄴ -1735
ㄷㅡㄹㅇㅣ -1736
▁ㅇㅗㄻ -1737
▁ㅂㅣㅅㅡㅅ -1738
▁ㄱㅗㄴ -1739
▁ㄱㅜㄴㄷㅐ -1740
ㅌㅓㄹ -1741
▁ㅂㅏㄹㅗ -1742
▁ㄱㅗㄷ -1743
▁ㅌㅐㅇㅑㅇ -1744
▁ㅎㅕㅇㅅㅣㄱ -1745
ㅎㅕㅂ -1746
▁ㅈㅣㅎㅟ -1747
▁ㅁㅡㄹㅗ -1748
▁ㅎㅐㅇㅇㅟ -1749
▁ㅋㅓㅁㅍㅠ -1750
▁ㅇㅕㄹㅊㅏ -1751
▁ㅇㅓㅁㅓㄴㅣ -1752
▁ㅇㅣㄸㅐ -1753
▁ㅎㅡㄹ -1754
▁ㅅㅏㄱㅗ -1755
▁ㅁㅐㅇ -1756
▁ㅈㅏㄱㄱㅗㄱ -1757
▁ㅎㅕㄱㅁㅕㅇ -1758
ㅎㅜㄴ -1759
▁ㅋㅗㅇ -1760
ㅌㅏㄱ -1761
ㅇㅕㅁ -1762
▁ㅇㅠㅇㅣㄹ -1763
▁FI -1764
▁ㅇㅘㅇㄱㅜㄱ -1765
▁ㅎㅛㄱㅘ -1766
▁ㄱㅡㄹㅓ -1767
ㅂㅔㄹ -1768
ㅇㅠㄱ -1769
▁ㅌㅗㄹ -1770
▁ㅇㅣㅈㅓㄱ -1771
▁ㅇㅗㄻㄱㅣ -1772
BC -1773
▁ㄷㅗㄹㅗ -1774
▁ㄱㅏㅇㅎㅏ -1775
▁ㄱㅘㄱㅓ -1776
▁ㄹㅕㄱ -1777
▁ㅎㅕㅂㅎㅚ -1778
ㅁㅣㄹ -1779
▁ㄱㅣㄷㅗㄱㄱㅛ -1780
▁ㅂㅓㅅㅡ -1781
▁ㄴㅡㄹ -1782
▁ㅍㅔㄴ -1783
▁ㅅㅐㅇㄱㅣ -1784
▁ㅊㅜㅈㅓㅇ -1785
▁ㅎㅗㄱㅇㅡㄴ -1786
▁ㅎㅡㅇ -1787
▁ㅋㅐㄴㅏㄷㅏ -1788
ㅌㅗㄴ -1789
▁ㄴㅏㅁㅂㅜ -1790
▁ㄴㅓㅎ -1791
ㅈㅔㄹ -1792
▁ㅍㅡㄹㅣ -1793
ㅋㅗㅇ -1794
▁ㄴㅠㅇㅛㄱ -1795
▁ㅈㅓㄴㅈㅏ -1796
▁ㅎㅡㄴ -1797
▁ㅎㅏㄹ -1798
ㅂㅕㄱ -1799
▁ㅇㅐㄱ -1800
▁ㅈㅣㅂㅐ -1801
ㄹㅏㅇ -1802
▁ㅉㅗㄱ -1803
ㅎㅛ -1804
▁ㄱㅏㅈㅊㅜ -1805
▁ㅇㅠㄱㄱㅜㄴ -1806
▁ㄷㅏㅁㄷㅏㅇ -1807
▁ㅇㅗㅍ -1808
ㅈㅏㄹㅣ -1809
▁ㄱㅓㄷㅜ -1810
ㅆㅣ -1811
▁ㅅㅡㅁ -1812
▁2001 -1813
▁ㄷㅗㅇㅇㅣㄹ -1814
▁ㄷㅗㅇㅉㅗㄱ -1815
▁ㅂㅣㄱㅛ -1816
▁1990 -1817
ㅞㅇㅓ -1818
▁ㅈㅜㅂㅕㄴ -1819
▁X -1820
▁p -1821
▁ㅋㅣㅇ -1822
▁ㄱㅜㄱㅏㄴ -1823
▁ㅇㅣㅇㅓㅈㅣ -1824
▁ㅎㅚㄱ -1825
▁ㄱㅗㅇㅅㅏㄴ -1826
▁ㅈㅏㅇㄱㅘㄴ -1827
ㅋㅔㅅ -1828
▁ㅅㅡㅌㅡㄹ -1829
▁ㅍㅜㅁ -1830
▁ㅁㅜㄹㄹㅣ -1831
▁ㅅㅣㅁㅣㄴ -1832
▁ㅋㅓㅁㅍㅠㅌㅓ -1833
▁ㅇㅖㅈㅓㅇ -1834
▁ㄱㅓㄴㅊㅜㄱ -1835
▁ㅈㅗㅈㅣ -1836
▁ㅇㅣㄴㄱㅣ -1837
▁ㅈㅓㅇㄷㅏㅇ -1838
▁ㅍㅐㄴ -1839
▁ㅊㅜㅇㅊㅓㅇ -1840
▁ㅋㅔㅇㅣ -1841
▁ㅌㅗㄴ -1842
ㄷㅓㄹ -1843
▁ㅅㅓㅉㅗㄱ -1844
▁ㅇㅐㄴㅣㅁ -1845
ㅇㅜㅅㅡ -1846
▁ㅁㅔㅁ -1847
ㅇㅢㅇㅝㄴ -1848
▁189 -1849
▁ㅇㅏㄹㅡ -1850
▁ㄱㅐㄴㅕㅁ -1851
▁ㅅㅏㄷㅏㄴ -1852
▁ㅁㅏㄷㅏ -1853
▁ㅋㅡㄱㅣ -1854
▁ㅈㅓㄱㅇㅛㅇ -1855
▁ㅇㅔㄴㅓㅈㅣ -1856
▁ㅇㅗㄴㅡㄹ -1857
▁ㅅㅓㅇㅈㅏㅇ -1858
▁ㅊㅏㄹㅖ -1859
▁ㄱㅣㅌㅏ -1860
▁ㄱㅚ -1861
ㄱㅜㅇ -1862
▁ㅇㅠㅇ -1863
▁ᆫㄷㅔ -1864
▁ㅅㅏㅇㄷㅏㅇ -1865
▁ㅎㅡㄱ -1866
ㅈㅏㅇㅣㄴ -1867
▁ㅁㅏㅇㅡㅁ -1868
▁ㄱㅜㄱㄴㅐ -1869
▁ㅈㅟ -1870
▁ㅊㅣㄹㅡ -1871
▁ㅊㅏㄴ -1872
▁d -1873
ㅅㅡㅋㅡ -1874
▁ㅇㅓㄹㅣ -1875
ㅂㅣㅇ -1876
▁ㅂㅏㄲㅜ -1877
▁ㄷㅣㅈㅏㅇㅣㄴ -1878
▁ㅇㅔㄴㅈㅣㄴ -1879
▁ㅁㅣㄴㅈㅜㅈㅜㅇㅢ -1880
▁ㅈㅗㄱㅓㄴ -1881
▁ㅅㅔㅍㅗ -1882
▁ㄱㅗㅇㅅㅏ -1883
ㅅㅡㅌㅏㄴ -1884
▁ㅂㅏㅇㅇㅕㅇ -1885
▁ㅁㅓㄹㅣ -1886
▁ㅂㅓㅈㅓㄴ -1887
ㄴㅗ -1888
ㅋㅓㄹ -1889
ㅋㅣㄴ -1890
ㅊㅐ -1891
▁ㄱㅜㄱㄹㅣㅂ -1892
▁ㅇㅗㄹㅐ -1893
ㄱㅅㅡ -1894
▁ㅈㅏㄱㅈㅓㄴ -1895
▁ㅈㅏㅊㅔ -1896
▁FIFA -1897
▁ㄱㅗㅇㅎㅏㅇ -1898
▁ㅈㅗㅇㄹㅠ -1899
ㄱㅐㄱ -1900
▁ㅂㅏㄴㅇㅡㅇ -1901
▁ㅅㅜㄹㅗㄱ -1902
ㅅㅐ -1903
▁ㅂㅣㅎㅏ -1904
el -1905
▁ㅇㅕㄴㄱㅣ -1906
et -1907
ㅊㅟ -1908
▁ㅌㅡㄱㅈㅓㅇ -1909
▁ㅅㅣㄹㅍㅐ -1910
▁ㅋㅡㄹㅣㅅㅡ -1911
▁ㄱㅓㅂ -1912
▁ㅅㅓㄴㅇㅓㄴ -1913
▁ㄷㅗㄹㅇㅏㅇㅗ -1914
ㅁㅐㄱ -1915
▁ㅎㅐㄱㅜㄴ -1916
▁ㄷㅔㄴ -1917
▁ㅇㅕㄴㅅㅗㄱ -1918
▁ㅇㅐㄴㅣㅁㅔㅇㅣㅅㅕㄴ -1919
▁ㅅㅟㅂ -1920
▁ㅇㅓㄴㅡ -1921
▁ㅌㅏㄱ -1922
▁ㅇㅣㄹㅓㄴ -1923
ㅈㅘ -1924
▁ㅎㅓ -1925
▁ㅂㅜㅈㅗㄱ -1926
▁ㅅㅔㄹ -1927
ㄱㅏㅈㅣ -1928
▁ㄸㅏ -1929
▁ㄱㅠㅈㅓㅇ -1930
▁ㅅㅓㄴㅊㅜㄹ -1931
▁ㅅㅓㄴㅌㅐㄱ -1932
▁ㄱㅗㄷㅐ -1933
▁ㅁㅔㅁㅂㅓ -1934
▁ㅂㅜㄱㅂㅜ -1935
▁ㄱㅣㅇㅝㄴㅈㅓㄴ -1936
▁ㅈㅏㅊㅣ -1937
▁ㄷㅏㄹㅜ -1938
▁ㅈㅗㅇㅑㄱ -1939
ion -1940
▁ㅅㅗㄱㄷㅗ -1941
▁ㅎㅓㄴㅂㅓㅂ -1942
▁ㅊㅔㅈㅔ -1943
▁ㅇㅖㅅ -1944
▁ㅇㅣㅅㅏ -1945
▁ㅇㅣㄴㅊㅓㄴ -1946
▁ㄱㅕㄹㅅㅡㅇ -1947
▁ㄴㅐㅂㅜ -1948
▁ㅇㅕㅇㅇㅓ -1949
▁ㅇㅕㄴㄷㅐ -1950
ㄱㅌㅡ -1951
▁ㄴㅏㄴㅜ -1952
ㅅㅜㅇ -1953
ㅊㅣㄴ -1954
ing -1955
▁ㅍㅣㅎㅐ -1956
ㅋㅗㄹ -1957
▁ㅅㅡㅍㅗ -1958
▁ㅇㅙ -1959
▁ㅇㅣㄴㅌㅓㄴ -1960
ㅜㄹㅏ -1961
ㄱㅡㄹㄹㅐㄴㄷㅡ -1962
▁ㅁㅕㅇㄹㅕㅇ -1963
▁ㅂㅣㅁ -1964
▁ㅇㅗㅅ -1965
▁ㄱㅏㅊㅣ -1966
▁ㅇㅕㄴㅈㅜ -1967
▁ㅅㅓㄹㄱㅖ -1968
▁ㅁㅓㄴ -1969
▁ㄷㅏㄴㄱㅖ -1970
▁ㅈㅓㅇㅅㅣㄴ -1971
ㅅㅏㅁ -1972
▁ㅁㅜㄹㅈㅣㄹ -1973
▁ㄹㅕㄴ -1974
▁ㅊㅓㄱ -1975
▁ㅂㅏㅁ -1976
▁ㅊㅚㅈㅗㅇ -1977
ㅌㅡㄴㅏㅁ -1978
▁ㄷㅏㄹㄹㅓ -1979
ㅈㅏㄴ -1980
ㅎㅗㄱ -1981
▁ㄴㅡㄴㅈㅣ -1982
▁ㅊㅚㄱㅡㄴ -1983
▁ㅂㅣㅎㅐㅇ -1984
▁1999 -1985
ol -1986
▁ㄱㅐㅎㅕㄱ -1987
▁ㅈㅣㅁㅕㅇ -1988
▁ㅍㅛㅈㅜㄴ -1989
▁ㅊㅜㄹㅍㅏㄴ -1990
▁ㅊㅣㄴㄱㅜ -1991
ㄱㅣㄹ -1992
21 -1993
▁ㅋㅓ -1994
▁ㄱㅏㄲㅏㅂ -1995
▁ㅍㅕㅇㄱㅠㄴ -1996
▁ㅂㅜㄴㅅㅓㄱ -1997
▁ㅉㅏ -1998
▁ㅇㅏㅅㅣㅇㅏ -1999
▁ㅎㅜㅇ -2000
▁cm -2001
ㅞㅇㅣ -2002
ㅅㅣㅁㅏ -2003
ㄷㅏㅂ -2004
▁1998 -2005
▁ㅎㅏㄱㅖ -2006
▁o -2007
▁ㅎㅏㅁㅅㅜ -2008
▁Y -2009
ㅣㅅㅡㅌㅡ -2010
▁ㅊㅔㄱㅖ -2011
▁ㅂㅐㅊㅣ -2012
▁ㄱㅗㅇㅇㅝㄴ -2013
▁ᆫㅈㅣ -2014
▁ㅇㅢㅅㅏ -2015
▁ㅅㅏㅁㅜ -2016
▁ㅂㅜㅁㅜㄴ -2017
ㄷㅡㄹㅣ -2018
▁ㅊㅣㄹㅛ -2019
▁ㄱㅗㅇㄹㅣㅂ -2020
ㅔㄹㅣㅋㅏ -2021
ㅊㅓㄱ -2022
▁ㄱㅏㅇㅎㅘ -2023
▁ㅈㅐㅇ -2024
▁ㄱㅘㄴㅎㅏㄹ -2025
▁ㅆㅣㄱ -2026
ㅜㄱㅜ -2027
ㅋㅣㅇ -2028
▁ㅎㅚㄱㄷㅡㄱ -2029
ㅍㅡㄹㄹ -2030
▁1980 -2031
▁ㅂㅜㄴㄹㅣ -2032
▁ㅇㅣㅂㄷㅏㄴ -2033
▁ㅇㅣㅇㄱㅡㄹㄹㅐㄴㄷㅡ -2034
ㅍㅖ -2035
ㅎㅐㄱ -2036
▁ㄴㅏㅁㄱㅣ -2037
▁ㄱㅐㅇㅝㄹ -2038
▁ㄴㅐㄱ -2039
▁ㅂㅓㅂㅇㅝㄴ -2040
▁ㅈㅣㅂㄷㅏㄴ -2041
▁60 -2042
ㅍㅣㄴ -2043
ㅏㅎ -2044
▁ㅇㅓㄴㄱㅡㅂ -2045
▁35 -2046
▁ㅇㅠㅅㅏ -2047
▁ㅈㅔㅍㅜㅁ -2048
▁ㅂㅜㄱㅎㅏㄴ -2049
▁ㅎㅘㄱㅈㅏㅇ -2050
▁ㄹㅐ -2051
▁ㄲㅗㅊ -2052
▁ㄴㅏㅁㅜ -2053
▁mm -2054
▁ㄷㅓㅇㅜㄱ -2055
▁ㄱㅘㄴㅅㅣㅁ -2056
ㅏㅇㅣㄹ -2057
▁ㅊㅐㅁㅍ -2058
▁ㅎㅕㄴㅅㅏㅇ -2059
ㅉㅐ -2060
▁ㅊㅓㄹㅣ -2061
▁ㅂㅜㅅㅏㅇ -2062
▁ㅅㅗㅇㅠ -2063
▁ㅈㅡ -2064
ㅅㅙ -2065
▁ㅁㅐㅈ -2066
▁ㅈㅣㅅㅗㄱ -2067
▁ㅅㅡㅍㅗㅊㅡ -2068
▁ㅋㅔ -2069
ㅓㅇㅗ -2070
▁ㅎㅏㅇㅣ -2071
▁ㅅㅣㄹㅎㅓㅁ -2072
▁ㅈㅗㅈㅓㅇ -2073
▁ㅊㅐㅁㅍㅣㅇㅓㄴ -2074
▁ㄷㅐㅈㅜㅇ -2075
▁ㄷㅔㅇㅣㅌㅓ -2076
▁ㅅㅓㄴㅂㅏㄹ -2077
ㅋㅡㅁ -2078
▁ㄱㅓㅈㅜ -2079
▁n -2080
▁ㄷㅗㅇㅜㅁ -2081
▁ㅈㅣㄴㅣ -2082
ㅎㅗㅇ -2083
▁ㅈㅓㅇㄱㅠ -2084
▁ㅌㅗㅇㅇㅣㄹ -2085
▁ㅈㅏㅇㄱㅜㄴ -2086
▁ㅈㅜㄷㅗ -2087
▁ㅁㅗㄱㅍㅛ -2088
▁ㅇㅏㄹㄹㅔㄱ -2089
▁ㅍㅏㄹㅣ -2090
▁ㄱㅗㅈㅏ -2091
▁ㅃㅏㄹㅡ -2092
ㅅㅓㅅ -2093
▁ㅂㅣㅊ -2094
▁ㅇㅛㅅㅗ -2095
▁ㅇㅣㄹㅈㅗㅇ -2096
ㅗㅅㅡ -2097
▁ㅇㅚㄱㅜㄱ -2098
▁ㄱㅗㅅㅗㄱ -2099
▁ㄱㅜㄷㅏㄴ -2100
▁ㅍㅕㄴㅅㅓㅇ -2101
▁ㅁㅏㅊㅣ -2102
▁ㅈㅏㄷㅗㅇㅊㅏ -2103
▁ㅇㅞㅂ -2104
▁ㅈㅐㅍㅏㄴ -2105
▁ㅅㅣㅎㅓㅁ -2106
ㅍㅗㄱ -2107
▁ㅈㅜㅇㅣㄴ -2108
ㅋㅗㄴ -2109
ㄷㅣㅇㅓ -2110
▁ㅂㅏㄲㅟ -2111
▁ㄱㅐㅂㅗㅇ -2112
▁ㄱㅣㄹㅇㅣ -2113
▁ㅇㅓㄹㅕㅂ -2114
▁ㅈㅓㅁㄹㅕㅇ -2115
▁ㄴㅔㄷㅓㄹ -2116
▁ㅌㅗㅇㅅㅣㄴ -2117
▁ㅇㅖㅅㅓㄴ -2118
▁ㅍㅗㄹㅡ -2119
om -2120
ㅎㅖ -2121
▁ㅎㅗㅅ -2122
▁ㅈㅜㅁㅣㄴ -2123
▁ㅅㅏㄹㅕㅇ -2124
▁ㄹㅗㅇ -2125
▁ㅂㅜㄹㄱㅛ -2126
▁ㄱㅕㄹㅎㅏㅂ -2127
▁ㅎㅑㅇㅎㅏ -2128
▁ㅅㅣㄷㅗ -2129
▁ㅊㅓㅂ -2130
▁ㅓ -2131
▁ㅈㅏㅇㅊㅣ -2132
▁ㅂㅗㄴㅅㅓㄴ -2133
▁ㅎㅜㅂㅏㄴ -2134
▁ㅇㅏㅇㅣㄹ -2135
▁ㄱㅕ -2136
▁ㅎㅏㄱㅈㅏ -2137
▁ㅎㅐㅇㅅㅏ -2138
ㅘㄹ -2139
▁1997 -2140
▁ㅁㅜㄴㅅㅓ -2141
ㅇㅗㄱ -2142
ㅈㅔㄱㅌㅡ -2143
▁ㅇㅣㅀ -2144
▁ㅎㅕㄹ -2145
▁ㅇㅔㅇㅣ -2146
▁ㄷㅐㄱㅜ -2147
▁ㅇㅏㄴㅈㅓㅇ -2148
▁ㄷㅏㅁㅕㄴ -2149
▁ㄷㅗㅇㅁㅐㅇ -2150
▁ㄷㅏㅇㅣ -2151
ㅂㅏㄷ -2152
▁ㅂㅐㅇ -2153
▁ㄱㅣㅍ -2154
▁ㄱㅣㅅㅏ -2155
ㄷㅚ -2156
▁ㄱㅡㄹㅓㅎ -2157
▁ㅅㅖ -2158
▁ㅇㅣㅇㅓ -2159
▁ㅂㅔㅌㅡㄴㅏㅁ -2160
▁ㅅㅜㅈㅜㄴ -2161
▁ㄹㅕㄱㅗ -2162
st -2163
▁ㅍㅔㅇㅣ -2164
ㅂㅓㅅㅡ -2165
ㅁㅔㄷㅏㄹ -2166
▁ㅍㅗㄴ -2167
▁ㅅㅡㄹㅓㅂ -2168
▁ㄱㅡㄹㅣㅁ -2169
▁ㅅㅏㅈㅣㄴ -2170
▁ㄱㅏㅁㅜㄴ -2171
▁ㅇㅓㄴㄹㅗㄴ -2172
▁ㄱㅏㄹㅡ -2173
▁ㅁㅣㅊㅣ -2174
▁ㅁㅜㄴㅈㅏ -2175
▁ㅊㅐㄱㅇㅣㅁ -2176
▁1995 -2177
▁ㅅㅣㄴㅁㅜㄴ -2178
▁1996 -2179
▁The -2180
▁ㅌㅜㅍㅛ -2181
ㅇㅝㄹ -2182
▁ㄱㅜㅂㅜㄴ -2183
▁ㅈㅓㅇㅎㅏ -2184
ㅋㅡㄹㄹ -2185
▁ㅇㅏㅍㅡㄹㅣㅋㅏ -2186
▁ㅂㅏㅇㅁㅜㄴ -2187
ㅌㅡㄱㅂㅕㄹ -2188
ㅗㅂ -2189
▁ㅇㅛㅇㅇㅓ -2190
▁ㅇㅠㅈㅓㄴ -2191
▁ㅈㅓㅇㄹㅣ -2192
▁amp -2193
▁ㄲㅡㅌㄴㅏ -2194
▁ㄱㅏㅄ -2195
▁32 -2196
▁ㅇㅛㄹㅣ -2197
▁ㄱㅏㅈㅓㅇ -2198
▁ㅈㅓㅇㅎㅘㄱ -2199
▁ㅌㅗㅇㄱㅘ -2200
▁ㄷㅡㅅ -2201
▁ㅂㅣㄷㅣㅇㅗ -2202
▁70 -2203
ㅅㅡㅌㅓㄴ -2204
ㅗㅊ -2205
ㅅㅣㅂ -2206
▁ᄇ -2207
ㅎㅡ -2208
▁ㅇㅣㅎㅐ -2209
▁ㄹㅣㅁ -2210
▁ㅇㅣㄹㅈㅔ -2211
▁ㅇㅡㄴㅌㅚ -2212
▁ㅂㅜㄹㄱㅜ -2213
▁ㅍㅡㄹㅗㅈㅔㄱㅌㅡ -2214
▁ㅈㅓㅇㄱㅝㄴ -2215
▁ㅋㅔㄴ -2216
▁ㅂㅜㅇㅣㄴ -2217
▁ㅇㅘㅇㅈㅗ -2218
▁ㅈㅜㄴㅂㅣ -2219
▁ㅇㅗㄴㅡㄹㄴㅏㄹ -2220
▁ㅅㅓㅇㅈㅓㄱ -2221
▁ㄴㅓㄹㄹㅣ -2222
▁ㄹㅓㄴㄷㅓㄴ -2223
▁ㄱㅕㅇㅎㅓㅁ -2224
▁ㄷㅓㄹ -2225
ㅇㅐㄱ -2226
▁ㄷㅐㄹㅗ -2227
▁ㅈㅗㅇㅎㅏㅂ -2228
▁ㅍㅕㅇㅎㅘ -2229
▁ㅁㅕㄹ -2230
▁ㅇㅝㄴㅇㅣㄴ -2231
▁ㅂㅏㄷㅏ -2232
▁ㄱㅏㅇㅣ -2233
▁ㅂㅕㅇㅇㅝㄴ -2234
▁ㅇㅣㄱㅗㅅ -2235
▁ㅁㅕㄴㅈㅓㄱ -2236
ㄴㅡㅇ -2237
▁ㅁㅣㄷ -2238
ㅇㅓㅆ -2239
▁ㅊㅜㅈㅣㄴ -2240
▁500 -2241
▁ㅅㅡㅇㅟ -2242
▁ㅇㅣㄴㅌㅓㄴㅔㅅ -2243
▁the -2244
ㅋㅏㄹ -2245
▁ㅈㅜㅇㅕㄴ -2246
ㅏㅁㅣ -2247
▁ㅍㅖㅈㅣ -2248
▁ㄴㅔㄷㅓㄹㄹㅏㄴㄷㅡ -2249
▁ㅇㅏㅈㅣㄱ -2250
am -2251
▁ㅇㅣㄷㅡㅁ -2252
▁ㅈㅓㅂㅎㅏ -2253
▁ㅁㅏㄴㅎㅘ -2254
ㅂㅣㅇㅏ -2255
▁ㅇㅠㄹㅐ -2256
▁ㅌㅗㅇㅊㅣ -2257
▁ㅂㅓㄴㅎㅗ -2258
▁ㅇㅕㅇㅇㅕㄱ -2259
▁ㅊㅗㅇㄹㅣ -2260
▁ㄱㅏㅅㅡ -2261
▁ㅁㅗㄹㅡ -2262
▁ㅁㅜㄷ -2263
▁ㅇㅡㅁㅡㄹㅗ -2264
ㄷㅣㄴ -2265
▁ㅎㅐㅅㅓㄱ -2266
▁ㅅㅓㅂㅜ -2267
▁ㄱㅕㅇㄱㅣㅈㅏㅇ -2268
▁ㅈㅔㅈㅜ -2269
ㅏㅇㅜ -2270
▁ㄷㅗㅅㅓ -2271
▁ㅍㅡ -2272
▁ㅎㅜㄴㄹㅕㄴ -2273
▁ㄱㅕㅇㅈㅐㅇ -2274
▁ㅌㅐㄱ -2275
▁80 -2276
▁188 -2277
▁ㅍㅓ -2278
▁ㅁㅣㅅㅜㄹ -2279
▁ㄹㅕㄴㅡㄴ -2280
ㅅㅡㅌㅏ -2281
ㅎㅣㄹ -2282
▁ㄱㅜㄱㅎㅚㅇㅢㅇㅝㄴ -2283
▁ㄱㅞ -2284
▁ㄱㅣㅇㅕ -2285
▁ㄱㅕㅇㅇㅕㅇ -2286
▁ㅇㅕㄴㅁㅐㅇ -2287
▁UE -2288
▁ㅇㅣㄷㅡㅁㅎㅐ -2289
▁+ -2290
il -2291
ㅂㅓㄴ -2292
▁ㅎㅚㅈㅏㅇ -2293
▁ㅅㅣㄴㄹㅏ -2294
▁ㅍㅏㄱㅚ -2295
▁ㄴㅏㅁㅅㅓㅇ -2296
▁ㅈㅏㅈㅜ -2297
▁ㅁㅗㅇㅡ -2298
▁ㅈㅜㅈㅔ -2299
▁1994 -2300
▁ㅎㅐㅇㅅㅓㅇ -2301
▁ㄱㅕㅇㄱㅖ -2302
▁ㅁㅓㅁ -2303
▁ㅅㅐㅇㅁㅜㄹ -2304
ㅁㅣㅇ -2305
▁ㅇㅏㄹㅡㅁ -2306
▁ㄴㅏㄴㅟ -2307
ㅜㄹㅡㅋㅡ -2308
▁ㅈㅔㅇㅏㄴ -2309
ㅎㅔㄴ -2310
▁ㅇㅗㄹㄹ -2311
▁ㅅㅗㅈㅐ -2312
▁UEFA -2313
ㅇㅏㄷㅡㄹㅇㅣ -2314
ㅅㅡㄹㅗ -2315
▁ㅈㅓㅇㅅㅏㅇ -2316
▁ㅅㅣㄱㅁㅣㄴ -2317
▁ㄷㅐㅅㅏ -2318
▁ㅂㅏㄹㄷㅏㄹ -2319
▁ㅂㅜㅈㅓㅇ -2320
▁1970 -2321
▁ㄴㅗㄹㅕㄱ -2322
▁ㅂㅓㅂㄹㅠㄹ -2323
▁ㅁㅔㄹ -2324
▁ㅈㅜㄱㅇㅣ -2325
ac -2326
▁ㅇㅕㄴㄱㅜㅅㅗ -2327
▁ㅍㅗㄹㄹㅏㄴㄷㅡ -2328
▁ㄲㅡㄹ -2329
▁ㅇㅣㅂㅈㅏㅇ -2330
▁ㅅㅏㅁㅅㅓㅇ -2331
▁ㅇㅏㅅㅣ -2332
▁ㄷㅡㅇㄹㅗㄱ -2333
▁ㅈㅣㅋㅣ -2334
ㄹㅛㅇ -2335
▁ㄷㅗㅂ -2336
▁ㅌㅜㅅㅜ -2337
▁ㅇㅘㄴㅈㅓㄴㅎㅣ -2338
▁ㅍㅛㄱㅣ -2339
▁ㄱㅏㅇㅇㅝㄴ -2340
▁ㅂㅗㄷㅗ -2341
▁ㅂㅏㄱㅁㅜㄹ -2342
ㅗㄹㄹㅣㄱ -2343
ㅝㄷㅡ -2344
ㄱㅅㅣ -2345
▁ㅈㅣㅈㅣㄴ -2346
▁ㄷㅗㅇㅂㅜ -2347
▁ㄹㅏㄷㅣㅇㅗ -2348
▁ㅇㅛㅊㅓㅇ -2349
▁KBS -2350
ㄱㅓㄹㅣ -2351
▁ㅅㅜㅇㅛㅇ -2352
▁ㄷㅏㄹㅣ -2353
ㄴㅕ -2354
▁ㅂㅕㄱ -2355
▁ㄹㅑㅇ -2356
▁ㅂㅏㅌㅏㅇ -2357
▁ㄹㅏㅇㅣㄴ -2358
▁ㅅㅓㅅㅣㄱ -2359
ㅌㅓㅂ -2360
▁ㅈㅔㅎㅏㄴ -2361
▁ㅂㅓㄹㅇㅣ -2362
▁ㅈㅗㄱㅏㄱ -2363
ㄹㅡㅁ -2364
▁ㄷㅐㅊㅔ -2365
▁ㄴㅚ -2366
▁ㄱㅡㅁㅈㅣ -2367
▁ㅈㅓㅇㅅㅣㄱ -2368
▁ㅇㅛㅅㅣ -2369
▁1992 -2370
ㅣㄱㅅㅡ -2371
▁ㅇㅕㅇㅌㅗ -2372
▁ㅇㅟㄹㄹㅣ -2373
▁ㅍㅕㄹ -2374
▁ㅅㅗㅍㅡ -2375
ㅝㅋㅡ -2376
▁ㅈㅓㅂㄱㅡㄴ -2377
▁ㅍㅣㄹㄹㅣ -2378
▁ㄱㅕㄹㅅㅓㅇ -2379
▁ㅇㅜㅁㅈㅣㄱ -2380
▁ㅇㅣㄴㅅㅣㄱ -2381
▁ㅂㅔㄹㅡ -2382
▁ㄴㅏㅁㅓㅈㅣ -2383
ro -2384
▁ㅂㅜㅌㅇㅣ -2385
▁ㅃㅏㅈㅣ -2386
▁ㅁㅜㄷㅐ -2387
▁ㅇㅓㅂㅁㅜ -2388
▁ㅈㅔㅈㅗ -2389
ㄱㅏㅂ -2390
ㅎㅓ -2391
▁ㅇㅚㄱㅛ -2392
▁ㅁㅏㅊㅏㄴ -2393
▁ㅁㅏㅊㅏㄴㄱㅏㅈㅣ -2394
ㄱㅌㅓ -2395
▁45 -2396
▁ㄱㅡㄹㅓㄴ -2397
▁ㅂㅏㄴㅁㅕㄴ -2398
▁ㅊㅓㄹㅎㅏㄱ -2399
▁ㅇㅡㄴㅎㅐㅇ -2400
ㅌㅗㄹㅣ -2401
ㅔㅌㅡ -2402
▁ㄴㅠㅅㅡ -2403
▁ㅁㅣㄴㅈㅜㄷㅏㅇ -2404
ed -2405
ㅅㅓㅂ -2406
ㅏㄴㅗ -2407
▁ㅉㅏㄼ -2408
ㄷㅔㄹ -2409
▁ㄱㅗㅇㅈㅏㄱ -2410
▁ㅅㅜㅎㅏㄱ -2411
▁of -2412
▁ㅅㅡㅅㅡㄹㅗ -2413
ㅔㅇㅣㅅㅡ -2414
ㄹㅔㅅㅡ -2415
▁ㅈㅣㄷㅐ -2416
▁ᄇㄴㅣㄷㅏ -2417
▁ㄱㅏㅌㅗㄹㄹㅣㄱ -2418
ㅌㅏㅂ -2419
ㄹㅏㅁ -2420
ㅌㅡㄹㄹ -2421
▁ㄱㅣㅊㅗ -2422
▁ㅅㅡㅇㅞ -2423
▁ㅂㅏㄱㅁㅜㄹㄱㅘㄴ -2424
▁36 -2425
▁ㅈㅣㅂㅎㅏㅂ -2426
▁ㅍㅔㄹㅡ -2427
▁ㅇㅣㅁㅅㅣ -2428
ㅈㅜㅅㅣ -2429
▁ㅇㅠㄹㅗ -2430
▁ㄱㅓㅂㅜ -2431
▁ㅊㅗㄴ -2432
▁ㄷㅗㄹㅇㅏㄱㅏ -2433
▁ㅂㅏㄱㅅㅏ -2434
▁ㅂㅏㄷㅇㅏㄷㅡㄹㅇㅣ -2435
▁ㅂㅏㄹㅅㅏ -2436
ㅏㅈㅣㄹ -2437
▁ㅂㅗㄱㄱㅟ -2438
ㅁㅗㄴ -2439
▁ㅊㅗㄷㅐ -2440
▁ㅈㅜㅇㅢ -2441
ㅣㅂㅡ -2442
ㅈㅏㄹ -2443
▁ㅅㅗㄹㅣ -2444
ㄹㅡㅇ -2445
ig -2446
▁ㅅㅏㅇㅎㅗ -2447
▁ㅂㅡㄹㅏㅈㅣㄹ -2448
▁ㄷㅏㅅㅜ -2449
▁ㅅㅜㅁㅏ -2450
▁ㅅㅓㅇㄱㅕㄱ -2451
▁ㅈㅣㄷㅗㅈㅏ -2452
▁ㅍㅏㅇㅣㄹ -2453
▁ㅎㅘㅎㅏㄱ -2454
▁ㄱㅣㄱㅜ -2455
▁ㄴㅗㄴㄹㅏㄴ -2456
▁ㄹㅗㅆㅓ -2457
▁ㅍㅛㅅㅣ -2458
▁ㅇㅢㅅㅣㄱ -2459
▁ㄲㅐ -2460
▁ㅇㅕㄹㅡㅁ -2461
▁ㅇㅕㅎㅐㅇ -2462
▁ㅊㅏㅇㅝㄴ -2463
▁ㅈㅏㅇㅅㅗ -2464
▁ㅁㅜㄱㅣ -2465
▁ㄱㅖㅇㅕㄹ -2466
▁ㄷㅣㅅㅡ -2467
▁ㅁㅏㄹㅣ -2468
▁1991 -2469
ㅏㅌ -2470
ㄷㅐㄱ -2471
▁ㄱㅐㄱㅜㄱ -2472
▁1960 -2473
ㅏㅇㅜㄴㄷㅡ -2474
▁ㅅㅣㄹㅈㅔㄹㅗ -2475
▁ㅅㅣㄱㅁㅜㄹ -2476
▁ㅇㅣㄱㅣ -2477
▁ㅇㅕㄴㄱㅡㄱ -2478
▁ㅋㅏㄷㅡ -2479
▁ㅎㅐㄱㅕㄹ -2480
▁ㄱㅡㄷㅐㄹㅗ -2481
▁ㄱㅘㄴㅊㅡㄱ -2482
▁ㅕ -2483
ㅌㅡㅇㅞㅇㅓ -2484
▁ㅅㅡㅇㅞㄷㅔㄴ -2485
▁ㅅㅗㅍㅡㅌㅡㅇㅞㅇㅓ -2486
▁ㅂㅗㅅㅜ -2487
ㅇㅜㅇ -2488
ㅂㅐㅇㅜ -2489
▁ㄷㅡㄱㅈㅓㅁ -2490
▁ㅇㅣㅇㅚ -2491
▁ㅅㅜㅁ -2492
ㅔㅇㅣㄹㄹㅣㅇㅏ -2493
▁ㄷㅣㅈㅣ -2494
▁1993 -2495
▁ㄷㅓㅂㅜㄹ -2496
▁ㅇㅏㅇㅣㄹㄹㅐㄴㄷㅡ -2497
▁ㅁㅛㅅㅏ -2498
▁ㅅㅠㅍㅓ -2499
▁ㅊㅏㅌㅡ -2500
ㅂㅗㄹ -2501
▁ㅎㅚㅇㅝㄴ -2502
▁ㄷㅏㄴㅣ -2503
▁ㅈㅏㅇㅇㅐ -2504
ㅇㅠㅇ -2505
▁ㅂㅜㄴㅍㅗ -2506
ㅈㅔㄴ -2507
ㅣㄹㅡ -2508
ㅑㅁㅏ -2509
▁ㄷㅏㄴㅅㅜㄴ -2510
▁ㅎㅘㄹㅇㅛㅇ -2511
▁ㅋㅐㄹㅣㄱ -2512
▁ㅇㅏㄴㅈㅓㄴ -2513
▁ㄱㅣㄱㅖ -2514
▁ㄱㅡㄴㅊㅓ -2515
ㅅㅡㅋ -2516
▁ㅈㅗㅅㅓㅇ -2517
▁ㄱㅓㅁㅅㅏ -2518
▁33 -2519
▁ㅇㅕㄱㅐㄱ -2520
ㅌㅡㄱㅂㅕㄹㅅㅣ -2521
▁ㅁㅜㅇㅕㄱ -2522
▁ㅂㅡ -2523
▁ㄲㅜㅁ -2524
▁ㄸㅟㅇㅓㄴㅏ -2525
ㄹㄹ -2526
▁ㅂㅏㄹㅎㅐㅇ -2527
▁ㅈㅔㅅㅣ -2528
▁ㅇㅏㄷㅗ -2529
▁ㄱㅏㅇㄹㅕㄱ -2530
ㅔㄴㅌㅡ -2531
ㄱㅚ -2532
▁ㄲㅣ -2533
▁ㅅㅓㅇㅜㄹㅌㅡㄱㅂㅕㄹㅅㅣ -2534
od -2535
▁ㅋㅗㅁ -2536
▁ㄴㅡㄲㅣ -2537
▁ㅎㅕㅇㅈㅔ -2538
▁ㅇㅗㅅㅡㅌㅡㄹㅣㅇㅏ -2539
▁ㄱㅓㄴㄴ -2540
ㄱㅘㅇㅇㅕㄱㅅㅣ -2541
▁ㅈㅣㅎㅏㅊㅓㄹ -2542
▁ㅊㅗㅇㅅㅓㄴ -2543
▁ㅎㅡㅂ -2544
ㄱㅅㅣㅋㅗ -2545
ㅗㅅㅔ -2546
▁ㅅㅡㅌㅠ -2547
▁ㅈㅜㅇㄱㅏㄴ -2548
▁ㅂㅏㅇㅣㄹ -2549
▁ㄱㅝㄴㄹㅕㄱ -2550
▁ㅍㅐㅂㅐ -2551
▁ㅁㅣㅅㅏㅇ -2552
▁ㅆㅏㅇㅜ -2553
▁ㅅㅡㅂㄴㅣㄷㅏ -2554
▁ㅅㅏㅇㅣㅌㅡ -2555
▁ㅂㅏㄴㄹㅏㄴ -2556
ㄷㅏㅁㅕㄴ -2557
▁ㅈㅜㅇㄷㅏㄴ -2558
▁ㄱㅕㅇㅅㅏㅇㄴㅏㅁㄷㅗ -2559
ㅈㅣㅅㅕㄴ -2560
▁ㄷㅏㄴㅇㅓ -2561
▁ㅇㅏㅁㅏ -2562
▁ㅎㅡ -2563
▁ㄸㅣ -2564
ㅜㄹㅕ -2565
▁ㅅㅣㅎㅐㅇ -2566
ㅅㅡㅋㅗ -2567
▁186 -2568
ve -2569
as -2570
▁ㅊㅡ -2571
▁ㅋㅐㄹㅣㄱㅌㅓ -2572
▁ㅇㅣㄹㅈㅓㅇ -2573
▁ㅇㅟㅎㅓㅁ -2574
▁ㅍㅏㅇㅣ -2575
▁ㅅㅔㄷㅐ -2576
ㅇㅗㄴ -2577
▁ㅊㅟㅎㅏ -2578
▁ㄷㅏㅁㅏㄴ -2579
▁ㅎㅐㅇㅏㄴ -2580
ㅣㄹㄹㅣ -2581
ㅏㄷ -2582
▁ㄴㅣㅁ -2583
▁ㅎㅕㅂㄹㅕㄱ -2584
▁ㅇㅗㅅㅡㅌㅡㄹㅔㅇㅣㄹㄹㅣㅇㅏ -2585
▁ㄱㅕㅇㅅㅏㅇㅂㅜㄱㄷㅗ -2586
▁ㅊㅐㄴ -2587
▁ㄱㅣㅈㅏ -2588
ㅈㅡㄴ -2589
ㅔㅇㅣㅁ -2590
▁ㅂㅏㅇㅣ -2591
▁ㅅㅜㄴㅇㅟ -2592
▁ㅇㅗㅂㅡ -2593
▁ㅈㅣㅈㅓㄱ -2594
▁ㅁㅓㄴㅈㅓ -2595
ㅅㅏㅋㅏ -2596
▁", -2597
▁ㅅㅐㅇㅅㅓㅇ -2598
▁ㅈㅓㄴㅅㅣ -2599
▁ㅌㅐㅍㅕㅇ -2600
▁ㅎㅖ -2601
ㅁㅕ -2602
▁ㅎㅜㄱㅣ -2603
▁ㅂㅓㄴㅇㅕㄱ -2604
▁ㅁㅏㄴㅋㅡㅁ -2605
▁ㄷㅗㅊㅏㄱ -2606
ㅅㅗㄴㅕㄴ -2607
▁ㄴㅐㄱㅏㄱ -2608
▁ㄱㅘㅇㅈㅜ -2609
▁ㅇㅓㅇ -2610
▁ㅅㅜㅁㅏㄶ -2611
▁ㅇㅕㄴㅈㅏㅇ -2612
▁ㅈㅣㅅㅏㅇ -2613
▁ㄷㅜㅇ -2614
▁ㄱㅔㅇㅣ -2615
▁ㅍㅏㄱㅕㄴ -2616
▁ㄱㅘㄴㄱㅘㅇ -2617
▁ㅇㅟㄹㄹㅣㅇㅓㅁ -2618
▁ㅇㅠㅎㅕㅇ -2619
▁ㅍㅡㄹㄹㅐ -2620
▁ㄱㅗㅇㅈㅏㅇ -2621
▁ㅂㅗㄴㅂㅜ -2622
▁ㅈㅜㄱㅇㅡㅁ -2623
▁ㅋㅗㄷㅡ -2624
▁ㅅㅓㄴㄱ -2625
▁ㅎㅏㄹㅜ -2626
▁ㅅㅔㅅㅏㅇ -2627
▁1988 -2628
ㅂㅔㄹㅡ -2629
▁ㅂㅗㅇㅠ -2630
▁ㄷㅗㅇㅅㅐㅇ -2631
▁ㅁㅠㅈㅣㄱ -2632
▁ㅂㅗㅈㅗㄴ -2633
▁ㅈㅚ -2634
▁ㅇㅏㅋㅏ -2635
▁ㅇㅑㅇㅅㅣㄱ -2636
▁ㅅㅏㄻ -2637
▁ㅂㅏㅇㅇㅓ -2638
▁ㄷㅡㄹㅇㅓㅇㅗ -2639
▁ㅇㅝㄴㅅㅗ -2640
ㅇㅡㅂ -2641
▁ㅁㅏㅅ -2642
ㄷㅐㅇ -2643
▁ㅂㅏㄹㅡ -2644
▁187 -2645
▁ㄱㅡㄱㅈㅏㅇ -2646
▁ㅅㅏㅇㅈㅣㅇ -2647
▁ㅂㅜㅇㅕ -2648
ㅁㅜㅇㅝㄴ -2649
ㄹㅏㅇㅣㄴ -2650
▁ㄱㅕㄲ -2651
ㄹㅔㅇㅣ -2652
ㅁㅕㄹ -2653
▁ㄱㅏㅁㅅㅗ -2654
▁ㄱㅠㄴ -2655
▁ㅍㅣㄱ -2656
▁ㅂㅡㄹㅣ -2657
▁ㅌㅔㄴ -2658
▁ㅌㅜㅈㅏ -2659
▁ㅎㅏㄱㅇㅟ -2660
▁ㅈㅓㄴㄹㅏㄴ -2661
▁ㄱㅟㅈㅗㄱ -2662
▁ㄴㅜ -2663
▁ㅎㅕㅁ -2664
▁ㅊㅘㄹ -2665
▁ㅎㅘㄱㄷㅐ -2666
▁ㄱㅡㄴㅁㅜ -2667
▁ㅇㅔㅅㅡ -2668
▁ㄷㅣㅈㅣㅌㅓㄹ -2669
▁ㅇㅕㅇㅅㅏㅇ -2670
▁ㅅㅏㅇㅇㅓㅂ -2671
▁ㅎㅔㄴ -2672
▁ㅈㅣㅅㅣㄱ -2673
▁ᆫㄱㅏ -2674
▁ㄷㅏㄴㅇㅟ -2675
▁ㄴㅏㅎ -2676
▁ㄷㅏㄹㅅㅓㅇ -2677
▁ㅂㅏㄹㅁㅐㄷㅚ -2678
▁ㅅㅓㅇㄹㅣㅂ -2679
▁ㄷㅔㄹ -2680
▁? -2681
ㅏㅇㅔㄹ -2682
▁ㅇㅟㄱㅣ -2683
▁ㅈㅔㄱㅣ -2684
▁ㄱㅜㅎㅏ -2685
▁ㅇㅣㄹㅏㄱㅗ -2686
ㄹㅏㅇㅣ -2687
▁ㅈㅣㅅ -2688
id -2689
▁ㅇㅘㄴㅅㅓㅇ -2690
▁ㅁㅔㄱㅅㅣㅋㅗ -2691
▁ㅇㅕㅍ -2692
▁ㅈㅗㅇㅁㅗㄱ -2693
▁34 -2694
▁ㅇㅣㄴㅅㅏ -2695
▁ㄷㅡㄷ -2696
ㅔㅇㅣㅌㅡ -2697
▁ㄷㅐㅇㅡㅇ -2698
ㅜㄴㄷㅡ -2699
ㅎㅚㅅㅏ -2700
▁ㅈㅔㄴ -2701
▁ㄹㅜㅇㅣ -2702
▁ㄷㅡㄴ -2703
▁38 -2704
▁ㅈㅏㄹㅏ -2705
▁ㅇㅠㄹㅣ -2706
▁ㅎㅡㄹㅡ -2707
ㅑㄴ -2708
▁ㄱㅖㅅㅡㅇ -2709
▁ㅊㅘㄹㅇㅕㅇ -2710
▁ㅈㅓㄴㄹㅑㄱ -2711
ㅍㅣㅇ -2712
▁2021 -2713
▁ㄱㅐㅌㅗㅇ -2714
▁ㅇㅏㄹㄹㅔㄱㅅㅏㄴ -2715
ec -2716
▁h -2717
▁ㅅㅡㅇㄱㅕㄱ -2718
ㅊㅣㅇㅣㄴ -2719
▁ㅁㅣㅌ -2720
▁ㄴㅏㅂ -2721
▁ㅊㅔㄱㅕㄹ -2722
▁ㅇㅣㅈㅣㅂ -2723
ㅏㅁㄷㅗ -2724
▁ㄱㅜㄱㅇㅘㅇ -2725
▁ㅈㅜㅅㅣㄱ -2726
▁ㅅㅣㄱㅁㅣㄴㅈㅣ -2727
▁ㄷㅗㅇㄱㅖ -2728
ㅍㅜㄹ -2729
▁ㅁㅜㄴㅎㅘㅈㅐ -2730
▁ㅋㅗㅊㅣ -2731
▁1989 -2732
ㅁㅕㅊ -2733
▁ㅁㅕㅊㅁㅕㅊ -2734
▁90 -2735
▁ㅇㅣㄹㅏㄴ -2736
▁ㅎㅜㄱ -2737
▁ㄷㅏㅇㅅㅓㄴ -2738
▁ㄴㅏㅈㅜㅇ -2739
▁ㅎㅣㄹㅗ -2740
▁ㅅㅣㄴㅐ -2741
▁ㄷㅗㅅㅓㄱㅘㄴ -2742
ㅂㅓㅌㅡ -2743
▁ㅎㅗㅇㅋㅗㅇ -2744
▁ㅊㅐㄴㅓㄹ -2745
▁ㄷㅠ -2746
▁ㅅㅣㅊㅓㅇ -2747
▁ㅈㅓㅇㅊㅣㅇㅣㄴ -2748
▁ㅌㅡㄱㅅㅜ -2749
▁ㅅㅣㅌㅣ -2750
▁ㅌㅓㅁ -2751
▁ㅂㅗㅅ -2752
▁ㅇㅏㄴㅐ -2753
us -2754
▁ㅈㅓㄴㄹㅏ -2755
▁ㅈㅓㄴㄷㅏㄹ -2756
▁ㅊㅜㄴ -2757
▁ㅁㅏㅇㅣㅋㅡ -2758
▁48 -2759
ㅊㅗㄱ -2760
▁ㄷㅐㄹㅠㄱ -2761
and -2762
▁ㅅㅐㅇㅁㅕㅇ -2763
▁ㅁㅣㅅㅏㅇㅣㄹ -2764
▁ㅊㅔㅍㅗ -2765
▁ㅅㅣㅍ -2766
ㅇㅠㄹ -2767
▁ㄹㅠㄹ -2768
▁ㅅㅓㅅ -2769
▁ㅂㅗㄴㄱㅘㄴ -2770
▁ㅂㅓㄹㅇㅓㅈㅣ -2771
▁ㅊㅔㄹ -2772
▁ㄱㅝㄴㄹㅣ -2773
▁ㅊㅡㄱㅈㅓㅇ -2774
▁ㅅㅡㅋㅗ -2775
▁ㅌㅏㅇㅣㅌㅡㄹ -2776
▁ㅈㅣㄱㅎㅜ -2777
ㅁㅜㄱ -2778
▁ㅁㅣㄱㅜㄴ -2779
▁ㅇㅗㅅㅡ -2780
ㅋㅗㄷㅡ -2781
▁ㅅㅓㄹㅈㅓㅇ -2782
ㅎㅕㄹ -2783
▁ㅋㅏㅇㅜㄴ -2784
▁ㅇㅣㄹㅓㅎㄱㅔ -2785
▁ㅁㅏㅈㅊㅜ -2786
ㅠㄴ -2787
ㅇㅓㅄ -2788
▁ㄱㅘㄴㅊㅏㄹ -2789
▁ㅈㅓㄴㄹㅏㄴㅏㅁㄷㅗ -2790
▁ㅈㅜㅇㅓㅈㅣ -2791
▁ㅆㅏㅎ -2792
▁ㅈㅓㄴㅎㅘㄴ -2793
▁e -2794
▁ㅈㅓㄻ -2795
ㅁㅗㅇ -2796
▁ㅅㅗㅅㅜ -2797
▁ㅍㅕㄹㅊㅣ -2798
▁ㅈㅔㅇㅣㅁ -2799
▁ㄱㅓㄹㄹㅣ -2800
▁ㄹㅏㄱ -2801
▁ㅌㅡㄱㅅㅓㅇ -2802
▁| -2803
▁ㅈㅡㄹ -2804
▁ㅍㅏㄴㄷㅏㄴ -2805
ㅁㅗㅅ -2806
▁ㅈㅔㅈㅓㅇ -2807
▁1950 -2808
▁ㄱㅣㅎㅚㄱ -2809
▁ㅈㅗㅇㄹㅛ -2810
▁ㅊㅜㄹㅅㅐㅇ -2811
▁', -2812
NA -2813
▁ㅊㅟㅇㅣㅁ -2814
ad -2815
▁ㄱㅐㅈㅓㅇ -2816
▁300 -2817
ㅅㅔㄹ -2818
▁MBC -2819
▁ㅅㅣㄴㄱㅕㅇ -2820
ㅔㄱ -2821
ㅁㅓㄴ -2822
ㅔㅇㅣㄷㅡ -2823
ㅌㅡㅇㅝㅋㅡ -2824
▁ㄱㅕㄹㅅㅡㅇㅈㅓㄴ -2825
▁ㅊㅓㅇㄴㅕㄴ -2826
▁ㄱㅖㅅㅏㄴ -2827
▁ㅈㅜㅇㅣㄴㄱㅗㅇ -2828
▁ㅇㅔㄹㄹㅣ -2829
▁ㅇㅡㅁㅅㅣㄱ -2830
ㅊㅜㄴ -2831
ent -2832
▁ㄷㅏㄹㅎㅏ -2833
▁ㅇㅏㄹㅏㅂ -2834
ㅕㅇㅗ -2835
▁ㅅㅜㅅㅏ -2836
▁ㅅㅣㅇㅟ -2837
▁ㅈㅣㅇㅟ -2838
▁ㄷㅏㅂ -2839
▁ㅌㅓㄹ -2840
▁ㅂㅏㅇㅣㄹㅓㅅㅡ -2841
▁ㅈㅔㅇㅣㅁㅅㅡ -2842
ㅆㅏ -2843
ㅣㄹㅏ -2844
▁ㅂㅓㅁㅈㅚ -2845
▁ㄴㅔㅌㅡㅇㅝㅋㅡ -2846
▁ㄱㅡㄴㄱㅓ -2847
▁ㅅㅜㅈㅓㅇ -2848
▁ㄴㅗㄱㅇㅡㅁ -2849
ㅣㅇㅔㄹ -2850
▁ㅅㅏㅎㅚㅈㅜㅇㅢ -2851
▁1945 -2852
▁ㅇㅡㄴㅎㅏ -2853
▁ㅈㅏㅂㅗㄴ -2854
▁ㅇㅣㅈㅣㅂㅌㅡ -2855
ㅇㅏㄴㅐ -2856
▁ㅇㅣㅍ -2857
▁ㅇㅢㄱㅕㄴ -2858
▁ㅊㅜㅇㄷㅗㄹ -2859
▁ㅌㅗㅁ -2860
▁ㅊㅔㅇㅠㄱ -2861
▁ㅈㅜㅁㅗㄱ -2862
▁ㅈㅡㄱㅇㅟ -2863
▁ㄱㅛㅊㅔ -2864
▁ㅎㅐㅇㅚ -2865
▁ㅅㅗㄱㅐ -2866
ㄴㅏㄴ -2867
▁ㅊㅓㄴㅎㅘㅇ -2868
▁ㅅㅜㅂㅣ -2869
▁ㅂㅓㅅ -2870
▁ㅇㅡㅁㅕㄴㅅㅓ -2871
▁ㅇㅏㅆㅇㅓㅆ -2872
▁ㅍㅗㅈㅣㅅㅕㄴ -2873
▁ㅋㅡㄹㅗ -2874
▁ㅈㅏㄱㅕㄱ -2875
▁ㅇㅣㅅㅡㄹㄹ -2876
▁ㅅㅓㅇㅇㅜ -2877
▁ㅅㅗㅈㅏㅇ -2878
▁ㅂㅣㅇㅛㅇ -2879
▁ㅈㅏㅇㄱㅣ -2880
▁ㅅㅡㅋㅣ -2881
▁ㅈㅓㄴㅊㅏ -2882
▁ㄷㅔㅇㅣㅂㅣ -2883
▁ㄴㅏㅁㅂㅜㄱ -2884
▁ㅂㅗㄴㄹㅐ -2885
▁ㄱㅓㄴㄱㅏㅇ -2886
▁ㄱㅗㅇㄱㅡㅂ -2887
▁ㅇㅣㄴㄱㅡㄴ -2888
▁ㄱㅞㄷㅗ -2889
50 -2890
▁ㅂㅐㄱㅕㅇ -2891
▁ㄱㅐㅅㅓㄴ -2892
▁ㅅㅡㄹㄹ -2893
▁ㅎㅏㅂㄹㅠ -2894
ㄹㅣㅎㅏㄱ -2895
▁ㅍㅗㅁ -2896
ㅅㅏㄱㅘㄴ -2897
▁ㄱㅗㅇㅂㅜ -2898
▁ㅁㅏㄴㄷㅡ -2899
ㅡㄹㄹㅣㄴ -2900
▁ㅌㅡㄹㅣ -2901
▁ㅁㅕㅇㄷㅏㄴ -2902
▁ㅈㅔㄱㅓ -2903
ㅖㄴ -2904
▁ㅇㅗㄹㅡㄴ -2905
▁ㅇㅠㄴㅣ -2906
▁ㄱㅗㅇㄱㅜㄴ -2907
▁ㅁㅣㄹㅐ -2908
ㄷㅗㅇㅜ -2909
▁ㅇㅣㄹㅐ -2910
▁ㅁㅕㅇㅇㅖ -2911
▁ㄱㅏㅁㅇㅕㅁ -2912
▁ㅇㅚㄴ -2913
ㅋㅏㅇㅣ -2914
▁ㅇㅣㅈㅜ -2915
▁ㅈㅏㄱㅅㅓㅇ -2916
▁ㅁㅗㅇㅣ -2917
▁ㄱㅖㄱㅣ -2918
▁ㄱㅜㄱㄱㅕㅇ -2919
▁ㅍㅡㄹㅔ -2920
▁ㄱㅏㅇㅣㅂ -2921
ㅈㅓㄴㅎㅣ -2922
▁ㅋㅓㄹ -2923
ㅓㄱㅜ -2924
▁ㅊㅓㄴㅁㅜㄴ -2925
▁ㄱㅏㄱㅈㅗㅇ -2926
▁ㄱㅣㅎㅜ -2927
▁ㅌㅓㅁㅣㄴ -2928
▁ㅅㅜㅍ -2929
▁ㅇㅝㄴㅈㅓㅇ -2930
▁ㄱㅜㄴㅇㅣㄴ -2931
▁ㅈㅏㅇㅝㄴ -2932
▁ㅂㅜㅁㅗ -2933
▁ㅇㅣㅂㅎㅏㄱ -2934
▁ㅈㅣㄹㄹㅑㅇ -2935
▁ㅇㅣㄺ -2936
▁ㅅㅚ -2937
▁x -2938
▁ㅇㅜㄹㅅㅏㄴ -2939
▁ㅅㅣㄴㅎㅏㄱ -2940
▁St -2941
▁ㄱㅓㄷㅐ -2942
▁ㅌㅓㄴ -2943
▁ㅋㅏㅇㅣ -2944
▁ㄱㅏㄱㅕㄱ -2945
▁ㄴㅜㄱㅜ -2946
▁ㅏㅆ -2947
ㄷㅗㄹㅗ -2948
▁ㅈㅜㄹㅇㅣ -2949
ㅋㅓㅅ -2950
▁ㅇㅣㅅㅡㄹㄹㅏㅁ -2951
▁ㅈㅣㅂㅈㅜㅇ -2952
▁ㄱㅏㅇㅇㅝㄴㄷㅗ -2953
ot -2954
▁ㄴㅗㅇㅇㅓㅂ -2955
▁ㅈㅓㄴㅅㅏ -2956
ㅌㅜㄱ -2957
▁ㅅㅗㅅㅗㅇ -2958
▁ㅅㅣㄹㅎㅐㅇ -2959
ㅌㅡㄹㅣ -2960
ㅋㅡㅅㅡ -2961
▁ㅊㅓㅁ -2962
▁ㅇㅗㅍㅡㄴ -2963
ㅇㅠㄴ -2964
▁ㅂㅡㄹㄹㅐㄱ -2965
▁ㅌㅓㅁㅣㄴㅓㄹ -2966
▁ㅌㅐㅍㅕㅇㅇㅑㅇ -2967
▁ㅈㅓㅎㅏㅇ -2968
ㅊㅓㄹㄷㅗ -2969
▁in -2970
▁ㄱㅕㅇㅜㄹ -2971
▁ㅁㅜㄹㄹㅗㄴ -2972
un -2973
▁ㅎㅏㄱㅁㅜㄴ -2974
▁ㅊㅡㄱㅁㅕㄴ -2975
▁ㅇㅗㅎㅜ -2976
▁ㅎㅗㅁㄹㅓㄴ -2977
▁ㅁㅏㄴㅇㅑㄱ -2978
▁ㄲㅗㄹㅣ -2979
ㅊㅏㅁ -2980
ㅗㄴㅏ -2981
▁ㅌㅗㅇㅈㅔ -2982
▁ㅋㅔㄹ -2983
▁ㄹㅗㅁ -2984
▁ㅈㅓㅇㅊㅏㄱ -2985
ㅂㅔㄴ -2986
▁ㅇㅣㄴㅅㅜ -2987
ow -2988
▁ㅂㅕㅇㄹㅕㄱ -2989
ㅣㄴㅗ -2990
▁ㄷㅐㄴ -2991
▁ㅌㅔㄱ -2992
▁ㅈㅡㅇㅁㅕㅇ -2993
▁ㅇㅑㄱㄱㅏㄴ -2994
ㅁㅛ -2995
▁37 -2996
▁ㅁㅣㄹㄷㅗ -2997
ㅜㅅ -2998
ㅌㅣㄴㅏ -2999
▁ㅇㅣㅅㅡㄹ -3000
▁ㅍㅕㄴㅈㅣㅂ -3001
▁ㅁㅜㅈㅏㅇ -3002
ㅌㅣㅁ -3003
▁ㅋㅐㄹㄹㅣ -3004
▁ㄱㅜㄱㅂㅏㅇ -3005
▁ㅊㅚㅅㅗ -3006
▁ㅈㅔㅁㅗㄱ -3007
▁ㅇㅚㅂㅜ -3008
▁ㅅㅗㅂㅣ -3009
▁ㅁㅗㅇㄱㅗㄹ -3010
▁ㅍㅣㅎㅏ -3011
▁ㅈㅣㅈㅓㅁ -3012
▁ㅇㅕㅇㅎㅘㅂㅐㅇㅜ -3013
▁ㄷㅏㅋ -3014
▁ㅊㅜㅇㅊㅓㅇㄴㅏㅁㄷㅗ -3015
ㄱㅗㄹㅣ -3016
▁ㄱㅏㅇㅈㅗ -3017
▁ㅂㅏㄹㅏㅁ -3018
▁1987 -3019
▁ㅎㅐㅂㅏㅇ -3020
▁ㅁㅣㄷㅣㅇㅓ -3021
ㅎㅗㄹ -3022
ㅍㅣㅇㅏ -3023
▁ㅂㅕㅇㅅㅏ -3024
ㅈㅜㄹ -3025
▁w -3026
▁ㄴㅏㅅㅓ -3027
ㄷㅗㅇㅇㅏㄴ -3028
▁ㅎㅏㅂㅂㅕㅇ -3029
▁ㄱㅘㅇㄱㅗ -3030
▁ㄱㅡㅁㅇㅠㅇ -3031
▁ㅎㅘㄴㅈㅏ -3032
▁ㅇㅠㄷㅗ -3033
▁ㅍㅛㅁㅕㄴ -3034
▁ㅅㅓㄴㅅㅜㄷㅏㄴ -3035
▁ㄱㅡㅎㅐ -3036
▁ㄱㅣㅎㅚ -3037
▁ㅇㅟㄴㄷㅗㅇㅜ -3038
▁ㄴㅗㄷㅗㅇㅈㅏ -3039
▁ㅃㅏㄹ -3040
▁ㅇㅏㅅㅣㅇㅏㄴ -3041
▁ㄹㅏㅇㅜㄴㄷㅡ -3042
▁ㅍㅗㄹㅡㅌㅜㄱ -3043
▁ㄹㅕㅇ -3044
▁ㅅㅏㄹㅏㅈㅣ -3045
ㄹㅗㅇ -3046
▁ㅎㅏㄱㄴㅕㄴ -3047
▁ㅇㅗㅅㅏㅋㅏ -3048
▁ㅈㅐㅈㅣㄱ -3049
▁ㅍㅗㄹㅡㅌㅜㄱㅏㄹ -3050
▁ㄷㅗㅈㅜㅇ -3051
▁ㅅㅓㅇㄱㅘ -3052
▁ㄷㅡㅇㄱㅡㅂ -3053
▁ㅁㅜㄹㅕㅂ -3054
ur -3055
▁ㅇㅔㅁ -3056
ㅘㅇㅣ -3057
▁ㅈㅓㄴㄹㅕㄱ -3058
▁1984 -3059
▁1986 -3060
▁ㅁㅏㄹㅕㄴ -3061
▁ㅇㅑㅇㅅㅓㅇ -3062
▁ㅅㅣㄴㅎㅗ -3063
▁41 -3064
▁ㅂㅗㅁ -3065
ㅈㅜㄱㅛ -3066
▁ㄷㅐㅅㅜ -3067
▁ㅎㅓㅇㅛㅇ -3068
ㅅㅡㄹㄹ -3069
ㄴㅏㅁㅜ -3070
ㅇㅛㅇㅣㄹ -3071
▁ㄷㅟㅅ -3072
ㅇㅏㅅㅣㅇㅏ -3073
▁ㅇㅐㅇ -3074
ㄱㅏㄹㅣ -3075
▁51 -3076
▁ㅅㅡㅌㅠㄷㅣㅇㅗ -3077
▁ㅁㅣㄴㄱㅏㄴ -3078
▁ㅎㅕㅁㅇㅢ -3079
▁ㅋㅐㄹㄹㅣㅍㅗㄴ -3080
▁ㅁㅔㄴ -3081
▁ㅇㅖㅅㅜ -3082
ㅓㄱㅡ -3083
ㅣㄴㅣ -3084
▁ㅇㅔㄴㅌㅓ -3085
▁ㅂㅜㅇㄱㅚ -3086
▁ㅈㅓㄴㅇㅕㄱ -3087
▁ㅇㅣㅂㅓㄴ -3088
▁ㅈㅐㅅㅏㄴ -3089
▁ᆫㄷㅏㅁㅕㄴ -3090
▁ㅕㅅㅓ -3091
▁ㅊㅜㅇㅂㅜㄴ -3092
▁ㅂㅗㄱㅗ -3093
▁ㅅㅐㄹㅗ -3094
ㄹㅚ -3095
▁ㄱㅗㅇㄱㅗㅇ -3096
▁ㅇㅕㅈㅓㄴㅎㅣ -3097
▁ㅈㅓㄴㅂㅏㄴ -3098
ㅏㅁㅗ -3099
▁ㅎㅐㅇㅎㅏ -3100
▁ㄱㅗㅈㅓㄴ -3101
▁ㅇㅓㅂㅊㅔ -3102
▁ㄱㅗㅇㅈㅜ -3103
▁ㅇㅟㅇㅝㄴㅈㅏㅇ -3104
▁ㅋㅐㄹㄹㅣㅍㅗㄴㅣㅇㅏ -3105
▁ㄷㅐㅎㅏㄱㅇㅝㄴ -3106
▁ㅈㅐㅈㅓㅇ -3107
▁ㅁㅏㄹㅣㅇㅏ -3108
▁ㄱㅕㅇㄹㅕㄱ -3109
▁ㅅㅡㅇㅇㅣㄴ -3110
ㅅㅗㄹㅣ -3111
ㅣㅇㅗㄴ -3112
▁ㄱㅖㄱㅡㅂ -3113
▁ㅇㅣㅁㅁㅜ -3114
▁ㅇㅏㄴㄷㅡㄹ -3115
ㅍㅡㄹㅣㅋㅏ -3116
▁ㅍㅣㄹㄹㅣㅍㅣㄴ -3117
▁ㄱㅜㅊㅜㄱ -3118
ㅌㅡㄹㅗ -3119
ㅏㅋㅡ -3120
▁ㅇㅟㅅㅓㅇ -3121
▁ㅇㅠㅇㅔㄴ -3122
▁ㅈㅓㄴㅅㅓㄴ -3123
ch -3124
▁ㄷㅏㅅㅓㅅ -3125
▁ㄱㅏㅇㅈㅔ -3126
▁ㅈㅏㅂㅈㅣ -3127
▁ㅈㅓㄱㄱㅡㄱ -3128
▁ㅎㅕㄴㅅㅣㄹ -3129
▁ㅇㅛㄱ -3130
▁ㅁㅜㄹㄹ -3131
▁ㅅㅜㅇㅣㅂ -3132
▁ㅅㅓㅇㅇㅣㄴ -3133
ㅏㅅㅡ -3134
▁ㅌㅗㄹㅗㄴ -3135
▁ㅋㅣㄹ -3136
▁ㅅㅜㄹㅣㅂ -3137
▁ㅂㅓㅁㅇㅟ -3138
▁ㄷㅗㅇㄹㅛ -3139
▁ㅊㅐㅌㅐㄱ -3140
ㅡㄴㅗ -3141
▁ㅇㅑㅇㅈㅏ -3142
ㄱㅛㅎㅚ -3143
▁ㅇㅟㅎㅕㅂ -3144
▁ㅎㅏㅇㅅㅏㅇ -3145
▁ㅈㅣㅁ -3146
▁ㅅㅗㅍㅡㅌㅡ -3147
▁ㅊㅜㄹㅂㅏㄹ -3148
▁39 -3149
▁ㅇㅣㅁㅣㅈㅣ -3150
▁ㅋㅐㅁㅍ -3151
▁ㄷㅐㄷㅐ -3152
ㅂㅜㅌ -3153
▁ㄱㅐㅍㅕㄴ -3154
▁ㄱㅏㅇㅇㅢ -3155
▁ㅈㅏㅇㅅㅣㄱ -3156
▁ㄱㅓㄹㅐ -3157
▁ㅅㅣㅇㅣㄴ -3158
▁ㄱㅛㅅㅏ -3159
▁ㅁㅐㄴㅕㄴ -3160
▁ㄱㅡㄴㄷㅐ -3161
▁ㅌㅓㅋㅣ -3162
▁ㄱㅓㄱ -3163
▁400 -3164
▁ㅊㅜㅁ -3165
ㅅㅓㅁ -3166
▁ㅈㅓㄴㄱㅐ -3167
▁ㄱㅗㅇㅅㅏㄴㄷㅏㅇ -3168
▁ㅇㅗㄹㄹㅏㄱㅏ -3169
ㅐㅍㅡㅌㅡ -3170
▁ㅅㅜㄷㅏㄴ -3171
▁ㅂㅣㅁㅣㄹ -3172
▁ㄱㅣㅈㅣ -3173
▁ㄴㅗㄴㅁㅜㄴ -3174
▁64 -3175
▁ㅌㅟ -3176
▁ㅅㅓㄴㅅㅐㅇ -3177
▁ㅋㅡㄹㄹㅐ -3178
▁ㅇㅝㄴㅊㅣㄱ -3179
▁ㅇㅛㅎㅏㄴ -3180
ㅅㅑ -3181
▁1985 -3182
ㅣㄴㅏ -3183
▁ㅂㅕㄴㅎㅗ -3184
▁ㄴㅏㅁㅍㅕㄴ -3185
▁ㅇㅣㅈㅔ -3186
▁ㅇㅣㄹㅇㅝㄴ -3187
ㅂㅗㅇㅣ -3188
▁ㅇㅏㅈㅜ -3189
ㅂㅜㅇ -3190
▁ㅅㅡㅇㅟㅅㅡ -3191
▁ㅇㅗㄴㄷㅗ -3192
▁ㅅㅐㄴ -3193
ㅂㅣㄹ -3194
▁ㅂㅜㄺ -3195
▁ㅎㅘㄱㅂㅗ -3196
▁ㄱㅗㅇㅇㅓㅂ -3197
ay -3198
▁ㅁㅗㅅㅡㅋㅡ -3199
▁ㅁㅏㄴㅈㅗㄱ -3200
▁II -3201
▁ㅈㅏㅇㅂㅣ -3202
▁ㅎㅚㅂㅗㄱ -3203
▁ㅇㅓㄹㄱㅜㄹ -3204
ut -3205
▁ㅎㅏㅇㅅㅓㅇ -3206
ir -3207
▁ㅂㅏㄹㅏ -3208
▁ㅈㅗㅇㅇㅣ -3209
▁ㅈㅓㅁㅊㅏ -3210
▁ㅍㅗㄱㅂㅏㄹ -3211
▁ㅈㅗㅇㅈㅗㅇ -3212
▁ㅂㅣㅌㅡ -3213
▁ㅅㅏㄹㅖ -3214
ㄷㅔㅁㅣ -3215
▁ㅇㅣㅅㅡㄹㅏㅇㅔㄹ -3216
▁ㅇㅝㄴㅈㅏ -3217
▁ㅇㅏㅍㄷㅜ -3218
▁ㄱㅠㅊㅣㄱ -3219
▁ㄷㅐㄱㅣ -3220
▁ㄱㅏㄴㅈㅜ -3221
ㅋㅜㅇ -3222
▁br -3223
ㅁㅗㄹㅣ -3224
um -3225
▁ㅈㅗㅊㅣ -3226
ㅏㄷㅗ -3227
▁ㅅㅜㅇㅝㄴ -3228
▁ㅇㅣㅅㅡㅇ -3229
▁ㄷㅐㅎㅕㅇ -3230
ㅡㄴㅔ -3231
▁ㅇㅣㅎㅏ -3232
▁ㄱㅏㅇㅈㅓㅁ -3233
▁ㅇㅓㄹㅣㄴ -3234
▁ㅁㅓ -3235
▁ㅌㅏㅂㅈㅐ -3236
▁ㅅㅐㄱㅣ -3237
▁ㅂㅏㄱㅈㅟ -3238
ㄹㅓㅁ -3239
▁ㄹㅔㅋㅗㄷㅡ -3240
ㅅㅡㅋㅣ -3241
▁ㅇㅏㅍㅅㅓ -3242
ㅂㅐㄱㅈㅣㄹ -3243
▁ㅇㅗㄹㅣ -3244
▁43 -3245
▁ㅎㅏㅂㅇㅢ -3246
im -3247
▁ㅏㅅㅓ -3248
▁ㅎㅐㅊㅔ -3249
▁ㅇㅏㅋㅏㄷㅔㅁㅣ -3250
▁ㄱㅡㄹㅐㅅㅓ -3251
▁ㄹㅐㅇ -3252
ㅛㅇㅠㄹ -3253
▁ㄱㅟㄱㅜㄱ -3254
▁ㅋㅏㅇㅜㄴㅌㅣ -3255
ㅇㅏㄹ -3256
ㅅㅗㄹ -3257
▁ㄱㅕㅇㅈㅜ -3258
▁ㄱㅜㄴㄷㅏㄴ -3259
ㄷㅗㅇㅕㄱ -3260
▁ㄲㅡㄶ -3261
▁ㅈㅗㅎㅏㅂ -3262
▁ㅇㅢㄹㅛ -3263
▁ㅈㅣㄴㅎㅘ -3264
▁ㄱㅗㅇㅑㅇ -3265
▁ㅎㅓㅇㄱㅏㄹㅣ -3266
ㅗㅇㅣㄷㅡ -3267
▁ㄷㅐㅈㅏㅇ -3268
▁ㄱㅜㄴㅈㅜ -3269
▁ㅊㅓㅇㅅㅗㄴㅕㄴ -3270
▁ㅍㅣㄴㄹㅏㄴㄷㅡ -3271
▁ㅈㅏㅇㅁㅕㄴ -3272
▁ㅈㅓㅈㅣ -3273
▁ㅌㅏㅇㅣㅁ -3274
▁ㅍㅕㅇㅇㅑㅇ -3275
ㅍㅔㄴ -3276
▁ㄴㅏㅁㄷㅗㅇ -3277
ㅔㅅㅣㅇㅏ -3278
▁ㅅㅓㅇㅑㅇ -3279
▁ㄹㅏㅁㅕㄴ -3280
▁42 -3281
▁ㅂㅜㄱㅡㄴ -3282
▁ㅇㅜㅁㅈㅣㄱㅇㅣ -3283
▁ㅅㅣㄴㅎㅘ -3284
ㅊㅣㄹ -3285
▁ㄹㅗㅅㅡ -3286
▁ㄱㅡㄱㅗㅅ -3287
▁ㅅㅣㅁㅎㅏ -3288
▁ㅊㅓㄹㄷㅗㅇㅕㄱ -3289
▁ㅈㅗㄱㅡㅁ -3290
▁ㅇㅢㅈㅏㅇ -3291
▁ㄱㅣㄷㅐ -3292
ver -3293
▁ㅇㅢㅎㅏㄱ -3294
ㅔㄹㅗ -3295
▁ㅌㅜㅇㅓ -3296
▁ㅇㅔㄱㅔㅅㅓ -3297
▁ㄱㅕㅇㅎㅑㅇ -3298
▁ㅈㅓㅅ -3299
▁ㅅㅏㅎㅜ -3300
▁ㅈㅗㅁ -3301
▁ㅎㅑㅇㅅㅏㅇ -3302
▁ㅆㅡㄹ -3303
▁ㄱㅣㅇㅓㄱ -3304
▁ㅎㅘㄱㅅㅣㄹ -3305
▁ㅌㅗㅈㅣ -3306
▁1982 -3307
ㄷㅏㄹㅣ -3308
▁ㅊㅓㅇㄴㅏㄹㅏ -3309
▁ㅇㅏㄹㅡㅁㄷㅏㅂ -3310
▁ㅈㅏㄱㅡㅁ -3311
▁ㅅㅣㄴㅅㅓㄹ -3312
▁55 -3313
▁ㅊㅐㅇ -3314
▁ㄹㅏㅌㅣㄴ -3315
▁ㅁㅔㅇㅣㅈㅓ -3316
▁ㅊㅣㅁㄱㅗㅇ -3317
▁ㅂㅗㅈㅏㅇ -3318
▁ㅅㅗㄴㅕㄴ -3319
▁ㅁㅏㅁ -3320
▁ㅍㅕㄴㅇㅣㅂ -3321
▁ㄱㅗㄱㅜㄹㅕ -3322
▁ㅂㅕㄴㅎㅏ -3323
▁ㅂㅜㄴㅈㅏ -3324
▁ㄴㅓㅁㅜ -3325
▁ㅇㅏㅁㅔㄹㅣㅋㅏ -3326
▁ㄷㅜㄹㄹㅓ -3327
▁ㅈㅜㅇㅎㅘㅁㅣㄴㄱㅜㄱ -3328
▁ㄷㅏㄴㅂㅐㄱㅈㅣㄹ -3329
▁ㅇㅣㄴㅅㅏㅇ -3330
▁ㄹㅏㅁㅕ -3331
ㅍㅏㄹ -3332
▁ㄱㅘㅇㅇㅕㄱㅅㅣ -3333
ㅈㅏㄱㅣ -3334
▁ㄷㅔㄴㅁㅏ -3335
▁i -3336
▁ㅍㅡㄹㄹㅏ -3337
▁ㅅㅡㅌㅏㅇㅣㄹ -3338
ㅏㄹㅡㅌㅡ -3339
▁1983 -3340
▁ㅅㅔㅈㅗㅇ -3341
▁ㄱㅗㅁㅜㄴ -3342
ㅅㅏㅋㅣ -3343
▁ㅂㅗㅂㅕㅇ -3344
▁ㅎㅏㅂㅊㅣ -3345
▁ㅇㅗㄴㄹㅏㅇㅣㄴ -3346
▁ㅈㅐㄷㅏㄴ -3347
▁ㅅㅏㄹㅎㅐ -3348
ㅋㅠ -3349
▁ㅍㅡㄹㅣㅁ -3350
▁ㄷㅏㄴㅈㅣ -3351
ㅓㅂㅡ -3352
FC -3353
▁ㄷㅡㅁ -3354
▁ㅊㅏㅇㅅㅓㄹ -3355
ㄷㅜㄴ -3356
▁ㄷㅗㄱㅈㅏ -3357
▁ㅈㅡㅇㄱㅓ -3358
▁44 -3359
▁ㅈㅏㅁㅅㅣ -3360
▁ㅇㅘㅇㅇㅟ -3361
▁ㅇㅜㅅㅓㄴ -3362
▁ㄱㅏㅅㅏ -3363
▁ㅇㅣㄲㅡ -3364
▁LG -3365
ㅇㅓㄷㅡㄹ -3366
▁ㅂㅓㅂㅇㅣㄴ -3367
▁ㅅㅣㄴㅇㅏㅇ -3368
▁ㅇㅔㅍㅣ -3369
▁ㅂㅣㅇㅠㄹ -3370
▁ㅎㅘㄱㅈㅓㅇ -3371
▁ㅇㅠㄱㅅㅏㅇ -3372
▁ㅅㅓㄴㄱㅓㄱㅜ -3373
▁ㅅㅓㄴㄱㅗ -3374
▁ㅈㅓㄴㅅㅓㄹ -3375
▁ㄱㅗㅎㅑㅇ -3376
ㅋㅓㄴ -3377
▁47 -3378
▁ㄱㅗㅇㅇㅠ -3379
▁ㅎㅏㅁㄷㅐ -3380
▁ㅂㅜㄹㄱㅘ -3381
▁ㅂㅗㄱㅈㅏㅂ -3382
▁ㄴㅏㅍㅗㄹ -3383
ㅇㅏㅁㅔㄹㅣㅋㅏ -3384
▁ㅅㅓㅇㄷㅏㅇ -3385
▁ㅈㅓㅇㅂㅗㄱ -3386
▁ㅊㅏㅂㅕㄹ -3387
▁ㅅㅏㅁㄱㅜㄱ -3388
▁ㅎㅜㄹ -3389
▁ㅋㅜㄹ -3390
▁ㅈㅓㄴㅎㅘ -3391
ㅌㅡㄹㄹㅐㄴㄷㅡ -3392
ㅂㅗㄷㅡ -3393
ㅋㅣㅇㅏ -3394
▁ㄴㅐㄴ -3395
▁ㅅㅔㅇㅣㄴ -3396
▁ㅂㅡㄹㅐㄴㄷㅡ -3397
ㅁㅗㄹ -3398
▁ㅅㅜㅅ -3399
▁ㄱㅏㅇㅈㅓㅁㄱㅣ -3400
ㅎㅏㄹㅏ -3401
▁ㅈㅓㅈㅏㅇ -3402
▁ㅎㅜㅅㅗㄴ -3403
▁ㄱㅏㄹㅗ -3404
▁ㅈㅣㅅㅣ -3405
▁ㅇㅣㅅㅓㅇ -3406
ㄱㅗㅂ -3407
ㅇㅓㅅㅓ -3408
▁Z -3409
▁ㄹㅗㅅ -3410
▁ㅇㅕㄱㄷㅐ -3411
▁ㅂㅏㄴㄷㅗ -3412
▁ㄱㅗㅈㅓㅇ -3413
▁ㄱㅜㅊㅔ -3414
▁75 -3415
ㅐㄴㅅㅡ -3416
ㅍㅔㄹ -3417
ㅡㄹㄹㅗ -3418
▁ㅈㅜㄱㅛ -3419
▁ㄷㅗㅇㅇㅢ -3420
▁ㅂㅗㄱㅡㅂ -3421
▁ㅅㅏㄴㅁㅐㄱ -3422
▁ㄱㅏㅁㅈㅓㅇ -3423
ㅅㅣㅇㅌㅓㄴ -3424
ㅇㅢㅎㅚ -3425
▁ㅇㅠㅎㅏㄱ -3426
ㅇㅏㅍㅡㄹㅣㅋㅏ -3427
▁ㅇㅜㅅㅜ -3428
ㅅㅕㄴㅓㄹ -3429
ㅁㅜㄴㅎㅘ -3430
▁184 -3431
▁ㅋㅏㄹㅡ -3432
▁ㅅㅗㄹㄹㅗ -3433
▁ㅎㅏㄴㅡㄹ -3434
▁ㄴㅗㅇㅖ -3435
▁ㅊㅏㅁㅅㅓㄱ -3436
▁ㅂㅗㅇㅏㄴ -3437
▁1972 -3438
▁ㅇㅕㄴㄱㅗ -3439
▁ㅅㅜㅊㅜㄹ -3440
▁180 -3441
▁ㅇㅖㅅㅏㅇ -3442
▁ㅎㅔㅇㅣ -3443
ㄷㅡㄹㅣㄷㅡ -3444
▁ㅁㅏㄷㅡㄹㅣㄷㅡ -3445
ㄸㅡㄹㅣ -3446
▁ㅎㅐㄱㅅㅣㅁ -3447
ㄷㅡㅂ -3448
ㅣㄴㅌㅡ -3449
ㅉㅣㄱ -3450
▁ㅌㅐㅍㅜㅇ -3451
▁ㄱㅗㅇㅎㅏㄱ -3452
▁ㅍㅏㄴㄱㅕㄹ -3453
▁ㅍㅡㄹㄹㅐㅅ -3454
▁ㅎㅚㅈㅓㄴ -3455
▁ㄷㅔㄴㅁㅏㅋㅡ -3456
▁ㅇㅓㄹㅣㄴㅇㅣ -3457
ㅇㅕㅂ -3458
▁ㅇㅏㅁㅅㅏㄹ -3459
▁ㅇㅓㄷㅗ -3460
▁ㅅㅏㅈㅓㄴ -3461
▁ㄹㅗㅂㅓㅌㅡ -3462
▁ㅌㅏㄴㅅㅐㅇ -3463
▁ㅈㅜㅇㅂㅏㄴ -3464
▁ㅅㅜㄴㅅㅓ -3465
▁ㅈㅓㄴㅇㅛㅇ -3466
▁ㅂㅓㅂㅊㅣㄱ -3467
▁ㅇㅟㄹ -3468
ㅅㅗㄷㅡ -3469
▁ㅇㅏㄹㅡㅎㅔㄴ -3470
CA -3471
▁ㄷㅐㅂㅣ -3472
▁ㅁㅏㄹㄱㅣ -3473
▁ㅇㅠㅈㅓㄱ -3474
▁46 -3475
▁ㅁㅗㄹㅣ -3476
▁ㄱㅓㅁㅊㅏㄹ -3477
ㅓㄴㅌㅡ -3478
▁ㅂㅗㄴㄱㅕㄱ -3479
ㄷㅏㄱㅏ -3480
▁ㅊㅗㅂㅏㄴ -3481
▁ㅈㅏㅅㅔ -3482
ㄷㅠ -3483
ㄷㅣㅇㅏ -3484
▁ㅈㅣㅂㅎㅐㅇ -3485
▁ㅈㅓㄴㄹㅏㅂㅜㄱㄷㅗ -3486
ㅁㅏㅅㅡ -3487
▁ㅈㅜㅇㅅㅣㅁㅈㅣ -3488
ㅇㅜㄴㄷㅗㅇ -3489
▁ㄷㅐㅎㅏㅇ -3490
▁ㅍㅡㄹㅏㄴ -3491
▁ㅅㅜㅇㅕ -3492
▁ㄱㅏㅎㅏ -3493
▁ㅎㅕㅂㅅㅏㅇ -3494
▁1979 -3495
▁ㄷㅐㄹㅣㅂ -3496
▁ㅇㅐㅍㅡㄹ -3497
▁1920 -3498
ㅌㅏㅇㅣ -3499
▁ㅇㅏㄹㅡㅎㅔㄴㅌㅣㄴㅏ -3500
▁ㅂㅕㄹㄷㅗ -3501
▁ㄱㅗㅇㄱㅣ -3502
▁ㄷㅓㅍ -3503
▁ㅎㅡㄴㅎㅣ -3504
▁ㄷㅏㄴㅇㅣㄹ -3505
ㅎㅕ -3506
ㅆㅣㄴ -3507
▁ㅅㅡㅋㅡㄹ -3508
▁ㅇㅣㄴㅌㅓ -3509
ㅔㅇㅣㅋㅡ -3510
ㅂㅏㄴㄷㅗ -3511
▁CD -3512
▁ㄱㅝㄴㅎㅏㄴ -3513
▁ㄹㅗㄹ -3514
▁ㅇㅓㄹㅁㅏ -3515
ㄲㅏ -3516
▁ㅅㅣㄱㅏㄱ -3517
ra -3518
▁ㅅㅔㅅ -3519
ㅡㅇㅞㅇㅣ -3520
▁kg -3521
ㅉㅏ -3522
▁ㅌㅗㅇㄱㅖ -3523
▁ㅇㅜㅋㅡㄹ -3524
▁ㅁㅜㅇㅓㅅ -3525
▁ㅂㅏㅇㅁㅕㄴ -3526
▁ㄱㅘㄴㄹㅛ -3527
▁ㅈㅣㄱㅇㅝㄴ -3528
▁In -3529
▁ㅇㅏㅋㅣ -3530
▁1981 -3531
▁ㅇㅜㄴㅈㅓㄴ -3532
▁ㄱㅡㅁㅁㅔㄷㅏㄹ -3533
▁ㅅㅏㅎㅏㅇ -3534
▁ㅇㅣㅇㅣㄱ -3535
▁ㅎㅛㅅㅗ -3536
▁ㅅㅏㅇㅎㅏ -3537
▁ㅇㅝㅅㅣㅇㅌㅓㄴ -3538
▁ㄱㅏㄹㅡㅊㅣ -3539
ㄲㅗㅊ -3540
▁1973 -3541
▁ㅎㅕㅂㅈㅓㅇ -3542
▁1930 -3543
▁ㅉㅣㄱ -3544
10 -3545
▁v -3546
ㅊㅓㅂ -3547
ㅓㄴㅐ -3548
ㅈㅓㅇㅂㅜ -3549
▁ㅅㅏㅇㅍㅜㅁ -3550
▁ㅂㅕㄴㅎㅗㅅㅏ -3551
▁ㅆㅗ -3552
▁ㅁㅜㄴㅈㅏㅇ -3553
▁ㅈㅏㄱㄱㅗㄱㄱㅏ -3554
▁ㅎㅗㅌㅔㄹ -3555
▁ㅇㅢㅁㅜ -3556
▁ㄱㅗㅇㅍㅗ -3557
▁ㅈㅓㄴㅎㅕ -3558
ㅗㅋㅏ -3559
▁ㅁㅏㅇㅣㅋㅡㄹ -3560
▁ㅅㅣㅋ -3561
▁ㄷㅗㅁ -3562
▁ㅇㅝㄴㅈㅏㄱ -3563
ㅍㅓㄷㅡ -3564
▁ㅇㅏㅋ -3565
▁150 -3566
▁ㅂㅣㄴㅏㄴ -3567
os -3568
▁ㅂㅔㄴㅔ -3569
▁ㅇㅏㅊㅣㅁ -3570
▁ㅈㅏㅇㅊㅏㄱ -3571
▁ㅈㅏㄹㅁㅗㅅ -3572
▁ㄹㅣㅅㅡ -3573
▁ㅈㅓㅅㅓ -3574
▁ㄴㅗㅎㅇㅣ -3575
▁ㅅㅔㅇㅣ -3576
ㅋㅏㅇㅘ -3577
▁ㅂㅣㄹㄹㅣ -3578
▁ㅎㅕㄴㅈㅏㅇ -3579
▁ㅇㅣㄴㄱㅝㄴ -3580
▁ㄱㅓㄴㄱㅜㄱ -3581
ㅃㅡ -3582
ㅇㅗㅍㅡ -3583
▁ㅅㅏㄴㅎㅏ -3584
▁ㄴㅣㅋㅗㄹ -3585
▁ㅈㅔㅇㅣ -3586
▁ㄱㅗㅇㅁㅜㅇㅝㄴ -3587
ㅌㅜㅇ -3588
▁ㅇㅗㄹㅡㄴㅉㅗㄱ -3589
▁ㅈㅓㄴㅎㅜ -3590
ㄷㅓㅁ -3591
▁ㅈㅜㅇㅅㅔ -3592
BO -3593
em -3594
▁ㄱㅣㅁㅈㅓㅇ -3595
▁ㅅㅜㅅㅜㄹ -3596
▁ㄱㅛㅌㅗ -3597
▁ㄱㅛㄹㅠ -3598
▁ㅁㅣㄹㄹㅣ -3599
ㅗㅎ -3600
▁ㅋㅗㅁㅣ -3601
▁ㅌㅐㄱㅜㄱ -3602
▁ㅊㅏㅇㄹㅣㅂ -3603
▁ㅎㅏㅇㅂㅗㄱ -3604
ㄱㅗㄱㅣ -3605
▁ㅍㅡㄹㄹㅔㅇㅣㅇㅓ -3606
▁ㅎㅏㄴㄸㅐ -3607
▁1974 -3608
▁ㅌㅜㅇㅣㅂ -3609
30 -3610
▁ㅇㅑㅁㅏ -3611
▁ㅇㅣㄴㄹㅠ -3612
▁ㅅㅗㅅㅣㄱ -3613
▁ㅇㅛㅅㅐ -3614
▁ㅇㅚㄴㅉㅗㄱ -3615
▁ㄴㅏㅊㅣ -3616
▁185 -3617
▁1940 -3618
ㅎㅠ -3619
▁ㅂㅔㅇㅣㅈㅣㅇ -3620
ter -3621
▁ㅅㅜㄷㅗㅇ -3622
▁ㅅㅓㄱㅣ -3623
ㄱㅕㄴㅏ -3624
▁ㄱㅡㅁㅅㅗㄱ -3625
▁ㅈㅓㄴㅊㅓㄹ -3626
▁ㅎㅝㄹ -3627
▁ㅂㅗㄱㅎㅏㅂ -3628
▁ㅈㅜㅇㅟ -3629
▁ㄱㅗㅇㅎㅘ -3630
▁ㄹㅐㄴ -3631
▁ㅇㅡㅂ -3632
▁ㄴㅗㄹㅡㅇㅞㅇㅣ -3633
▁ㅁㅏㅋㅡ -3634
▁ㅎㅕㅇㅅㅏ -3635
ㅡㅁㅏ -3636
▁ㅅㅓㅇㅈㅣㄹ -3637
▁ㅇㅔㅍㅣㅅㅗㄷㅡ -3638
▁ㄱㅗㅇㅠ -3639
▁ㅂㅜㄱㅅㅓ -3640
▁ㅇㅣㄴㅈㅓㅇㅂㅏㄷ -3641
▁ㅇㅗㄹㅐㄴ -3642
ㅏㅁㅜ -3643
▁ㅍㅏㅋㅡ -3644
▁ㅁㅔㄹㅣ -3645
▁ㅈㅔㅈㅏ -3646
▁ㅌㅏㅇㅣㅇ -3647
▁ㅊㅜㅊㅡㄱ -3648
▁ㅅㅓㅇㄱㅕㅇ -3649
▁ㅇㅕㄴㅅㅏㄴ -3650
▁ㄲㅜ -3651
▁ㄱㅣㅎㅏ -3652
▁ㅇㅠㅈㅓㄴㅈㅏ -3653
▁ㅍㅏㅂ -3654
▁ㅂㅏㅇㅊㅜㄹ -3655
▁ㄷㅣㄹ -3656
▁ㄹㅏㅇㅣㅂㅡ -3657
▁ㅅㅣㅁㄱㅏㄱ -3658
▁ㅇㅜㄴㅇㅛㅇ -3659
▁ㅎㅝㄹㅆㅣㄴ -3660
▁ㅇㅝㄴㅈㅜ -3661
▁ㅎㅔㄴㄹㅣ -3662
▁ㄱㅜㄴㅅㅜ -3663
▁ㄱㅗㅇㅅㅏㄴㅈㅜㅇㅢ -3664
▁ㄱㅏㄱㅂㅗㄴ -3665
▁ㅁㅗㅅㅡㅋㅡㅂㅏ -3666
▁ㅈㅓㄹㄷㅐ -3667
▁ㄱㅓㄴㅈㅗ -3668
▁ㅍㅐㅎㅏ -3669
▁ㅅㅏㅁㄱㅏㄱ -3670
▁SBS -3671
▁ㅂㅗㄴㅇㅣㄴ -3672
ㅅㅟ -3673
▁ㅎㅐㅇㅑㅇ -3674
▁ㅈㅜㅇㅂㅜ -3675
ㄷㅠㅅㅓ -3676
▁ㅍㅡㄹㅗㄷㅠㅅㅓ -3677
▁ㄴㅣㄴ -3678
▁ㅁㅕㄹㅁㅏㅇ -3679
▁ㅎㅏㅂㅅㅓㅇ -3680
▁1948 -3681
ㅔㅇㅣㅈㅣ -3682
▁ㅅㅜㅅㅈㅏ -3683
▁ㅇㅣㄴㅈㅗㅇ -3684
▁ㅅㅏㄹㅕㅇㄱㅘㄴ -3685
▁ㅇㅖㅅㅏㄴ -3686
▁ㄱㅜㅂㅕㄹ -3687
▁ㄴㅗㄴㅇㅢ -3688
▁ㅎㅛㅇㅠㄹ -3689
▁1968 -3690
ㅓㅅㅡㄴ -3691
▁ㄱㅏㄹㄷㅡㅇ -3692
▁54 -3693
▁ㅇㅕㄴㅎㅏㅂㄱㅜㄴ -3694
▁ㅍㅡㄹㄹㅔㅇㅣㅇㅗㅍㅡ -3695
▁1976 -3696
▁ㅅㅣㄹㄹㅣ -3697
▁ㅇㅣㅂㅈㅏ -3698
▁ㅁㅜㄹㅣ -3699
▁ㅅㅏㅇㅣㅁ -3700
ㅏㅌㅡ -3701
▁ㅊㅗㄹ -3702
▁ㄱㅜㄱㄷㅗ -3703
▁ㅈㅣㅂㅇㅏㄴ -3704
▁ㅂㅔㄹㅡㄹㄹㅣㄴ -3705
▁ㅅㅐㅁ -3706
ㅌㅓㄹㅣ -3707
▁ㅊㅏㅇㅈㅗ -3708
▁ㄷㅏㅋㅏ -3709
▁ㅇㅣㄴㄱㅗㅇ -3710
▁ㅇㅡㅁㄹㅕㄱ -3711
▁ㄹㅏㄷㅗ -3712
▁ㅊㅜㄹㅇㅣㅂ -3713
▁ㅂㅏㄴㅂㅗㄱ -3714
▁ㅊㅜㄹㅈㅏㅇ -3715
▁ㅍㅓㅈㅣ -3716
▁ㅇㅝㄴㅈㅏㄹ -3717
▁ㄱㅓㄴㄹㅣㅂ -3718
ㅔㄷㅡ -3719
▁ㄱㅕㅇㅅㅓㅇ -3720
▁ㅇㅓㄸㅓㅎㄱㅔ -3721
▁1975 -3722
▁ㅌㅜㅈㅐㅇ -3723
▁ㄷㅡㄹㅓㄴㅏ -3724
▁ㅋㅏㄹㄹㅣ -3725
ㅌㅐㅇ -3726
▁ㅂㅜㄱㄷㅗㅇ -3727
▁ㅅㅏㅌㅐ -3728
▁ㄴㅗㄴㅈㅐㅇ -3729
▁ㅃㅜㄹㅣ -3730
▁ㅅㅏㅂㅓㅂ -3731
▁ㄷㅓㄴㅈㅣ -3732
▁ㅅㅜㅅㅗㅇ -3733
▁ㅍㅡㄹㄹㅗ -3734
▁ㅇㅣㄴㅈㅗ -3735
▁ㅈㅓㄴㄱㅗㅇ -3736
▁ㅅㅡㅋㅗㅌㅡㄹㄹㅐㄴㄷㅡ -3737
▁ㅇㅗㅌㅗ -3738
ㅇㅓㅄㅇㅣ -3739
▁ㅁㅗㄱㅅㅏ -3740
op -3741
▁ㅃㅗㅂ -3742
▁ㅇㅕㄴㄱㅘㄴ -3743
▁ㅂㅗㅇㅎㅏ -3744
ㅜㅁㅏ -3745
▁ㅂㅓㅅㅇㅓㄴㅏ -3746
▁ㅊㅜㄹㅁㅏ -3747
▁ㅈㅓㅇㅂㅣ -3748
ㅣㅇㅓㄹ -3749
▁ㅈㅜㅈㅓㄴ -3750
▁ㅁㅏㅅㅣ -3751
▁ㄱㅗㄹㅣ -3752
▁ㅅㅏㄹㅕㅇㅂㅜ -3753
ㅂㅜㄹㅡㅋㅡ -3754
ag -3755
▁ㅇㅝㄴㄹㅣ -3756
▁ㅈㅔㅊㅜㄹ -3757
▁ㅊㅟㄱㅡㅂ -3758
▁ㅇㅕㅇㅎㅘㅈㅔ -3759
▁ㄹㅔㄷㅡ -3760
▁ㄱㅏㅈㅕㅇㅗ -3761
ㅏㅇㅣㅌㅣ -3762
▁ㅇㅣㅁㅣㄴ -3763
▁ㅅㅡㄹㅣ -3764
ㄱㅡ -3765
▁ㅊㅜㄱㅈㅔ -3766
▁1978 -3767
▁ㅅㅣㄴㅊㅔ -3768
▁ㅇㅕㄱㅐㄱㅊㅓㄹㄷㅗ -3769
▁ㅇㅜㅅㅡ -3770
▁ㅈㅡㄹㄱㅣ -3771
ㅅㅕ -3772
▁ㅎㅘㄹㅂㅏㄹ -3773
▁ㅅㅗㄴㅕ -3774
▁ㅅㅣㅈㅓㅁ -3775
▁ㅌㅡㄹㅐㄱ -3776
▁ㅅㅗㅅㅡ -3777
▁ㅎㅡㅂㅅㅜ -3778
▁ㅇㅗㅎㅣㄹ -3779
▁ㅇㅠㄴㅏㅇㅣㅌㅣ -3780
▁ㅁㅗㅂㅏㅇ -3781
▁ㄱㅜㄱㅈㅏㅇ -3782
▁1971 -3783
▁ㄱㅓㅈㅓㄹ -3784
▁56 -3785
▁ㄷㅐㅅㅓㅇ -3786
ㅏㅅ -3787
▁ㅇㅏㅍㅏ -3788
▁ㅇㅗㅈㅓㄴ -3789
▁ㅁㅕㅇㅅㅓㅇ -3790
▁ㅊㅟㄷㅡㄱ -3791
▁ㄱㅐㅅㅣ -3792
▁ㅍㅗㅇㅟ -3793
ㅅㅡㅌㅣㅇ -3794
ㄷㅔㅅㅡ -3795
▁ㅎㅘㄹㅅㅓㅇ -3796
▁ㅎㅣㅂ -3797
▁1963 -3798
▁ㅊㅗㅇㄷㅗㄱ -3799
▁ㄹㅗㅅㅡㅇ -3800
▁52 -3801
▁ㅁㅔㅅㅣ -3802
ㅍㅏㅇ -3803
▁ㅁㅏㅆㅡ -3804
ㅌㅗㄹ -3805
▁ㅈㅜㅇㄷㅐ -3806
▁ㅇㅗㅂ -3807
ㅅㅛ -3808
▁ㅈㅜㅌㅐㄱ -3809
▁ㄹㅔㅇㅣㄴ -3810
▁ㅍㅗㄱㅣ -3811
▁ㅂㅜㄴㅈㅐㅇ -3812
▁ㅇㅣㄴㅌㅓㅂ -3813
▁ㅎㅜㅈㅣ -3814
▁ㄱㅗㅇㅛㅇ -3815
▁ㅎㅏㄴㄱㅜㄱㅇㅓ -3816
▁65 -3817
ㅐㅁㅍㅡ -3818
▁ㅅㅣㄴㅅㅓㅇ -3819
▁ㄴㅓㅁㄱㅣ -3820
▁ㅇㅣㄴㅌㅓㅂㅠ -3821
▁ㅎㅏㅇㅟ -3822
ce -3823
▁ㅎㅏㄱㅅㅡㅂ -3824
▁ㅈㅜㄱㅣ -3825
ㅓㄷㅡ -3826
▁ㅇㅠㅁㅜㄹ -3827
ㅅㅣㅅㅡ -3828
▁ㅂㅗㄴㅅㅏ -3829
▁49 -3830
ㅡㄹㄹㅣ -3831
ㅋㅣㅅㅡㅌㅏㄴ -3832
▁00 -3833
ㅇㅗㅇ -3834
▁ㅇㅣㄹㅊㅣ -3835
ㅜㅇㅣ -3836
▁ㅈㅏㅇㅇㅏㄱ -3837
▁ㅌㅏㅇㅣㅇㅘㄴ -3838
▁ㅇㅕㄴㄹㅛ -3839
▁ㅁㅏㅅㅏ -3840
▁ㄱㅘㄴㅈㅣㄱ -3841
▁ㅇㅣㅇㅗㄴ -3842
▁ㄷㅗㅇㅇㅝㄴ -3843
▁Q -3844
▁ㅇㅜㄱ -3845
ㅇㅓㄹ -3846
▁ㅁㅏㅊㅣㅁ -3847
ㅅㅓㅌㅡ -3848
ㅂㅣㅊㅣ -3849
▁ㄱㅗㅈㅗㅇ -3850
▁ㅎㅜㅇㅝㄴ -3851
▁ㄷㅣㅇ -3852
▁ㄱㅕㄴㅎㅐ -3853
▁ㅈㅜㄱㅘㄴ -3854
▁179 -3855
▁1969 -3856
▁ㅇㅑㄱㅅㅗㄱ -3857
ㅈㅔㄹㄹㅔㅅㅡ -3858
▁ㅁㅕㅇㅁㅕㅇ -3859
▁ㄷㅐㄹㅣ -3860
▁ㅂㅜㄹㅅㅏㅇ -3861
▁ㅈㅓㄴㅂㅜ -3862
▁ㄴㅗㅇㅁㅣㄴ -3863
▁ㅋㅗㅅㅡ -3864
▁ㅊㅓㄴㅊㅔ -3865
▁ㅇㅣㅈㅜㅇ -3866
▁ㄷㅏㅅ -3867
▁ㅁㅗㅅㅣ -3868
▁ㅅㅗㅂㅏㅇ -3869
▁ㅎㅐㅅㅏㅇ -3870
▁ㅇㅗㅎㅣㄹㅕ -3871
▁ㄴㅡㄹㅇㅓㄴㅏ -3872
▁ㅂㅣㄹㅗㄱ -3873
▁ㄴㅔㅅ -3874
▁ㅂㅜㄹㅂㅓㅂ -3875
▁ㅂㅡㄹㄹㅗㄱ -3876
▁ㅈㅣㄱㅈㅓㄴ -3877
▁ㄱㅜㅅㅗㄱ -3878
▁ㅎㅏㅇㄱㅗㅇㄱㅣ -3879
▁ㅇㅕㄴㅈㅐ -3880
▁ㅈㅜㅅㅣㄱㅎㅚㅅㅏ -3881
▁ㄴㅑ -3882
▁ㅂㅜㅎㅘㄹ -3883
ㅏㄴㅏ -3884
OS -3885
ㄱㅗㅇㅎㅏㅇ -3886
▁ㅈㅓㅇㅊㅔ -3887
▁ㅇㅕㅇㅇㅓㅂ -3888
▁ㅊㅜㅇㅊㅓㅇㅂㅜㄱㄷㅗ -3889
▁ㅅㅓㅇㄴㅡㅇ -3890
▁ㅂㅏㄲㅇㅔ -3891
ㅂㅜㅌㅇㅣ -3892
▁ㄹㅗㄷㅡ -3893
ㅍㅡㄹㅣ -3894
▁ㅈㅜㄱㅏㄴ -3895
▁1946 -3896
ㅣㅇㅗㄹ -3897
▁ㅌㅡㅇ -3898
▁ㅍㅗㄱㄹㅕㄱ -3899
▁ㅎㅏㄱㅅㅜㄹ -3900
▁ㅅㅜㅈㅣㅂ -3901
▁ㅈㅏㅇㄱㅛ -3902
▁ㅂㅐㄱㅈㅏㄱ -3903
▁ㅂㅗㅎㅓㅁ -3904
▁ㅂㅐㄱㅈㅔ -3905
▁ㄴㅗㄴㄹㅣ -3906
▁ㅅㅓㄴㄱㅛ -3907
▁ㅎㅘㅁㅜㄹ -3908
▁ㄷㅔㅇㅣㅂㅣㄷㅡ -3909
▁ㅎㅗㄴㄹㅏㄴ -3910
▁53 -3911
▁ㄷㅗㄱㅜ -3912
▁ㄷㅗㄷㅏㄹ -3913
▁ㄱㅔㄴ -3914
▁ㅎㅣㄷㅔ -3915
▁ㅁㅜㄹㄹㅓㄴㅏ -3916
▁ㅍㅗㄷㅗ -3917
▁ㅁㅣㄷㅡ -3918
▁ㅈㅣㄱㅇㅓㅂ -3919
▁ㅊㅓㄹㅅㅜ -3920
▁ㅅㅏㅇㄷㅏㅇㅎㅣ -3921
▁ㅈㅗㅂ -3922
▁ㅋㅗㄹㅗㄴㅏ -3923
▁ㄱㅘㄴㅈㅓㅁ -3924
oc -3925
▁ㅂㅗㄱㅘㄴ -3926
▁ㅂㅏㄴㅇㅕㅇ -3927
▁ㄲㅡㅌㄴㅐ -3928
▁ㅍㅕㄴㅈㅣ -3929
▁ㅂㅜㅈㅏㅇ -3930
▁ㅎㅐㅅㅏㄴ -3931
▁1964 -3932
ㅏㄴㅣㅁ -3933
▁ㄷㅓㄹㅏㄷㅗ -3934
▁ㅇㅣㄹㄷㅐ -3935
▁ㅂㅜㅇㅣㅁ -3936
▁ㅇㅕㅂㅜ -3937
▁ㅎㅏㅇㅜㅅㅡ -3938
ㅅㅓㅇㄱㅜㄴ -3939
▁ㅇㅣㅁㄱㅡㅁ -3940
▁ㅎㅓㅁ -3941
▁ㄱㅜㄱㅈㅔㄱㅗㅇㅎㅏㅇ -3942
▁ㅈㅔㅇㅣㄹ -3943
▁ㅈㅓㅇㅇㅝㄴ -3944
▁ㅁㅓㄱㅇㅣ -3945
ri -3946
ㄹㅏㄹ -3947
▁ㅂㅗㄱㅓㄴ -3948
▁US -3949
▁and -3950
ㄹㅏㅈㅣ -3951
▁ㅋㅗㄹㄹㅗ -3952
▁ㅅㅣㅎㅗ -3953
▁ㄷㅐㄹㅑㄱ -3954
▁ㅈㅣㅂㅜㅇ -3955
▁ㅂㅏㄱㅈㅓㅇ -3956
▁ㅎㅏㄱㅂㅜ -3957
ㄷㅣㅇㅓㄴ -3958
ㅣㄷㅡ -3959
▁ㄱㅛㅎㅘㄴ -3960
ㅈㅡㅂ -3961
▁ㄱㅡㄹㄹㅗㅂ -3962
▁ㅅㅣㅁㄹㅣ -3963
▁ㄱㅏㄴㄷㅏㄴ -3964
ㄴㅕㅇ -3965
▁ㅂㅔㄹㄱㅣ -3966
ㄲㅐ -3967
ㅅㅡㅋㅏ -3968
▁ㅎㅓㄱㅏ -3969
▁ㅇㅢㅈㅗㄴ -3970
▁ㅋㅏㅇ -3971
▁ㅈㅐㄹㅛ -3972
▁ㅋㅗㄴㅅㅓㅌㅡ -3973
▁ㄹㅓㅅㅣ -3974
▁ㅇㅣㄴㄷㅗㄴ -3975
▁ㅅㅓㅂㅓ -3976
▁ㅂㅔㅅㅡㅌㅡ -3977
▁ㅂㅏㅂ -3978
▁58 -3979
▁ㅇㅔㄷㅡㅇ -3980
▁ㄱㅐㅊㅔ -3981
▁ㅎㅏㄴㅏㄴㅣㅁ -3982
▁ㅈㅓㄴㅁㅜㄴㄱㅏ -3983
▁ㅈㅓㅇㅈㅣ -3984
▁ㅈㅓㄴㄷㅗㅇ -3985
▁ㅇㅏㄹㅣ -3986
▁ㅈㅏㅅㅏㄹ -3987
▁ㅎㅏㄱㅎㅚ -3988
▁ㅎㅏㄱㅇㅝㄴ -3989
▁PC -3990
▁ㅅㅡㅋㅏ -3991
▁ㅂㅕㄴㅎㅘㄴ -3992
▁ㅇㅏㄴㅌㅏ -3993
▁ㅅㅣㄱㅍㅜㅁ -3994
▁ㅇㅡㅇㅇㅛㅇ -3995
▁ㄱㅗㅇㅌㅗㅇ -3996
▁ㄱㅏㅇㅡㄹ -3997
ㅁㅜㄴㅎㅘㅈㅐ -3998
▁ㄷㅐㅎㅘ -3999
▁ㅌㅗㅂ -4000
▁ㄲㅗㄱ -4001
▁ㅅㅏㄹㅇㅣㄴ -4002
ㅋㅜㄹㅏ -4003
▁ㅅㅡㅇㅈㅣㄴ -4004
ㅎㅏㅁㅏ -4005
▁ㅅㅗㅂㅣㅇ -4006
▁1977 -4007
▁ㄹㅜㅇㅣㅅㅡ -4008
▁ㅅㅏㅇㄹㅠㄱ -4009
▁ㄱㅖㅌㅗㅇ -4010
ㅊㅓㄴㄱㅜㄴ -4011
▁ㅍㅏㅁ -4012
▁ㅅㅏㅈㅏㅇ -4013
▁ㅇㅣㅁㅇㅢ -4014
▁ㅁㅣㄴㅂㅓㅂ -4015
▁ㅇㅕㅇㅎㅑㅇㄹㅕㄱ -4016
▁ㅈㅣㄴㅇㅣㅂ -4017
▁ㅈㅜㄴㅕㄴ -4018
▁ㅁㅣㅇㅑ -4019
▁ㅅㅣㄴㅂㅜㄴ -4020
▁ㅊㅏㅇㄷㅏㄴ -4021
ㅂㅕㅇㄷㅐ -4022
▁ㅈㅣㄹㅂㅕㅇ -4023
▁1000 -4024
▁ㅂㅏㄴㅂㅏㄹ -4025
▁ㅊㅐㅇㅛㅇ -4026
▁ㄱㅣㅁㅇㅕㅇ -4027
▁ㅈㅓㄴㅍㅏ -4028
▁ㅎㅚㅇ -4029
▁ㅍㅣㅇㅏㄴㅗ -4030
ㅏㄱㅣ -4031
▁ㅇㅚㄱㅜㄱㅇㅣㄴ -4032
ㅁㅓㄴㅣ -4033
▁ㅊㅣㄴㅇㅣㄹ -4034
▁ㅁㅣㅌㅓ -4035
▁ㄱㅜㅅㅓㅇㅇㅝㄴ -4036
▁ㅅㅏㅇㅜㄴㄷㅡ -4037
▁ㅋㅟㄴ -4038
igh -4039
▁99 -4040
▁ㅈㅣㄴㅇㅏㅂ -4041
▁ㅎㅗㅅㅜ -4042
ㅈㅓㅇㅅㅣㄱ -4043
▁ㅁㅏㄹㄹㅔㅇㅣ -4044
▁ㅅㅜㅇㅕㅇ -4045
▁ㅌㅗㅇㅅㅏㅇ -4046
▁ㅅㅗㅂㅣㅇㅔㅌㅡ -4047
▁ㅃㅐㅇ -4048
▁ㅋㅐㅁㅍㅓㅅㅡ -4049
▁ㄹㅗㅅㅡㅇㅐㄴ -4050
▁ㄹㅗㅅㅡㅇㅐㄴㅈㅔㄹㄹㅔㅅㅡ -4051
ㅔㄹㄹㅏ -4052
▁ㅊㅏㅁㅈㅓㄴ -4053
▁ㄹㅣㄹ -4054
▁ㅂㅏㅇㅅㅗㅇㄱㅜㄱ -4055
▁ㅎㅘㅅㅓㅇ -4056
▁ㅁㅏㅇㅁㅕㅇ -4057
▁ㅎㅘㅁㅕㄴ -4058
▁ㄴㅏㅇㅏㄱㅏ -4059
▁88 -4060
▁ㅅㅣㄹㅣㅇㅏ -4061
▁ㅅㅏㅇㅅㅡㅇ -4062
ㅗㄹㅣ -4063
▁ㅁㅗㄷㅡ -4064
ㅇㅏㅂㅓㅈㅣ -4065
▁ㅁㅜㄴㅎㅓㄴ -4066
▁ㅇㅝㄴㅎㅏ -4067
▁ㅈㅔㅇㅓ -4068
▁ㅎㅏㅂㄱㅕㄱ -4069
▁ㅇㅠㄷㅐ -4070
▁ㅅㅓㄴㅈㅗ -4071
▁ㅂㅗㄱㅁㅜ -4072
▁ㄱㅗㅇㄷㅗㅇㅊㅔ -4073
▁ㄷㅗㅇㄴㅏㅁ -4074
▁ㅇㅑㄱㅎㅏ -4075
▁1949 -4076
▁ㄷㅏㅁㅕ -4077
▁ㄷㅗㅇㅅㅓㅇ -4078
▁ㄴㅜㄹㅣ -4079
ㅜㅊㅣ -4080
▁ㅎㅏㄱㄱㅘ -4081
ation -4082
ㅌㅡㅁ -4083
▁ㅍㅐㅇ -4084
▁ㅇㅔㄷㅗ -4085
▁ㅂㅔㄹㄱㅣㅇㅔ -4086
▁r -4087
▁ㄹㅗㅅㄷㅔ -4088
▁ㅋㅗㅍㅏ -4089
▁ㅇㅕㅇㅇㅣㅂ -4090
▁ㄱㅓㄱㅣ -4091
▁ㅁㅏㄴㅈㅜ -4092
▁1962 -4093
▁ㅁㅓㅁㅜㄹㅡ -4094
▁ㅎㅕㄴㅇㅕㄱ -4095
ㄹㅗㄹ -4096
▁ㅁㅏㅋㅔ -4097
▁SK -4098
▁ㅈㅣㄴㅂㅗ -4099
ㅌㅏㅇㅣㄴ -4100
▁62 -4101
▁ㅅㅓㅇㅝㄴ -4102
▁FA -4103
▁ㄱㅗㄷㅗ -4104
▁ㅂㅕㄴㅎㅕㅇ -4105
▁ㅈㅣㄹㅣ -4106
▁ㅇㅣㄴㄷㅗㄴㅔㅅㅣㅇㅏ -4107
▁ㅋㅗㅁㅣㄷㅣ -4108
▁ㄱㅣㅎㅗ -4109
ㅊㅓㄴㅅㅣ -4110
▁ㅈㅐㄴ -4111
▁ㅈㅓㅈㅏㄱ -4112
▁ㅇㅣㅁㄷㅐ -4113
▁1967 -4114
▁ㅅㅏㅇㅇㅝㄴ -4115
▁ㅈㅗㅈㅏㄱ -4116
ㄲㅇㅣ -4117
▁ㄷㅗㅇㅈㅏㄱ -4118
▁ㄹㅗㅋㅔㅅ -4119
▁ㅇㅕㄴㅊㅜㄹ -4120
▁ㅇㅏㄹㄹㅔㄱㅅㅏㄴㄷㅡㄹ -4121
▁ㅂㅐㅊㅜㄹ -4122
▁ㅉㅗㅊ -4123
▁ㅅㅡㅌㅏㄹ -4124
▁ㄴㅗㄹㅣ -4125
▁57 -4126
ㅔㅇㅣㅌㅓ -4127
▁ㄱㅣㄷㅗ -4128
▁ㅇㅏㄹㅏ -4129
▁ㄱㅘㅇㅈㅏㅇ -4130
▁ㄸㅢ -4131
▁ㅈㅡㅇㅅㅏㅇ -4132
▁ㅈㅏㄴㅕ -4133
ㅌㅣㄱ -4134
▁ㅇㅟㅅㅏㅇ -4135
▁ㅌㅏㄴㅅㅗ -4136
▁ㄸㅡ -4137
▁ㄷㅗㅁㅏㅇ -4138
ㅈㅓㅇㅜ -4139
▁ㅊㅜㄹㄱㅏㄴ -4140
▁ㅌㅏㄹㅊㅜㄹ -4141
▁ㅇㅢㄷㅗ -4142
▁ㅎㅏㄴㅂㅏㄴㄷㅗ -4143
▁ㄱㅜㄱㅁㅜ -4144
▁ㅎㅠㅇ -4145
▁ㅁㅣㄴㅣ -4146
▁ㅇㅕㄴㅇㅏㄴ -4147
ㅌㅡㄹㅏ -4148
ㅎㅏㅇㅣ -4149
▁ㄹㅜㅌㅡ -4150
▁ㅅㅣㄴㅊㅓㅇ -4151
▁ㅅㅜㅇㅛ -4152
▁ㅇㅟㅂㅏㄴ -4153
▁ㅂㅜㅂㅜ -4154
▁ㅎㅘㅈㅐ -4155
▁ㅍㅏㄴㅅㅓ -4156
▁Ch -4157
▁You -4158
▁ㅌㅏㄹㄹㅏㄱ -4159
ㅌㅏㅁ -4160
▁ㅇㅞㅇㅣ -4161
▁ㅈㅜㄷㅜㄴ -4162
▁ㅈㅗㅈㅓㄹ -4163
▁ㄱㅡㄹㅓㄴㄷㅔ -4164
▁ㄹㅣㄷㅓ -4165
▁ㅅㅣㄹㅅㅜ -4166
▁ㅈㅓㅇㄱㅣ -4167
▁ㅊㅓㅎㅕㅇ -4168
▁ㅇㅣㄹㅉㅣㄱ -4169
▁ㅎㅐㄹㅣ -4170
▁ㄴㅗㅇㄱㅜ -4171
▁.. -4172
▁ㅂㅏㄴㄷㅡ -4173
▁ㅁㅏㄱㅂㅜ -4174
▁ㅌㅓㄴㅓㄹ -4175
▁ㄱㅡㅊㅣ -4176
▁ㅇㅖㅊㅡㄱ -4177
▁ㅅㅣㄴㅇㅣㄴ -4178
ㅠㅂㅡ -4179
▁ㅈㅓㄹㅊㅏ -4180
▁ㄷㅣㄴ -4181
▁ㅂㅏㄹㅇㅓㄴ -4182
▁ㅂㅜㄴㅇㅕㄹ -4183
▁ㅊㅓㄴㅇㅕㄴ -4184
▁ㅎㅘㅇㄱㅡㅁ -4185
▁ㄲㅏ -4186
ㄱㅓㅁ -4187
▁ㄱㅡㅇ -4188
▁ㅈㅏㅇㄹㅡ -4189
▁ㅂㅏㄷㅜㄱ -4190
▁ㅎㅜㅋㅜㅇ -4191
▁ㄱㅣㅂㅓㅂ -4192
ㄱㅗㅅ -4193
▁ㅇㅣㅁㅈㅣㄴ -4194
▁ㄴㅏㅁㅅㅓ -4195
▁ㅇㅣㅅㅡㅇㅁㅏㄴ -4196
▁ㄱㅜㅁ -4197
ㅌㅏㄹㅡ -4198
▁ㅁㅜㄷㅓㅁ -4199
ㅅㅖ -4200
▁ㄱㅣㅊㅔ -4201
ㅋㅏㅇ -4202
▁ㅅㅜㅅㅗ -4203
ㅂㅏㅇㅅㅗㅇ -4204
▁ㅂㅏㅇㅈㅣ -4205
▁ㅎㅕㄴㅈㅣ -4206
▁ㅅㅔㅇㅣㄴㅌㅡ -4207
▁ㅅㅓㄴㅈㅓㄴ -4208
▁181 -4209
ㅍㅗㄹㅡ -4210
▁ㄱㅗㅊㅣ -4211
▁ㄴㅜㄹㅡ -4212
▁ㅇㅛㅇㅣㄴ -4213
▁ㅂㅏㄹㅡㅅ -4214
▁ㅇㅗㅅㅡㅁㅏㄴ -4215
▁ㅅㅏㅂ -4216
ㄹㅕㅇㅗ -4217
▁ㅇㅣㄹㅅㅣㄱ -4218
▁ㅂㅏㅇㅈㅓㅇㅅㅣㄱ -4219
nd -4220
▁ㅌㅡㄱㅇㅣ -4221
▁ㄴㅗㅂㅔㄹ -4222
▁ㅇㅓㄸㅓ -4223
▁ㄱㅐㅈㅗ -4224
▁ㅅㅐㅇㅈㅗㄴ -4225
ㅅㅏㄴㅅㅣ -4226
▁ㅇㅕㄷㅏㄴ -4227
▁ㅊㅟㅅㅗ -4228
▁ㄱㅗㅂ -4229
ㅌㅜㄱㅣ -4230
▁66 -4231
▁ㄲㅓ -4232
▁ㄱㅡㄹㅈㅏ -4233
▁KBO -4234
▁ㅋㅏㅁㅔㄹㅏ -4235
▁ㄱㅜㅂ -4236
▁ㅂㅗㅋㅓㄹ -4237
▁1966 -4238
▁ㅇㅣㄹㅂㅗㄴㄱㅜㄴ -4239
ㄴㅔ -4240
▁ㄱㅗㅈㅣ -4241
ㅅㅜㄹㅗㄱ -4242
▁ㅎㅏㅇㄱㅜ -4243
▁ㅅㅓㄱㅜ -4244
▁ㅋㅗㄴㅅㅡㅌㅏㄴ -4245
▁ㅎㅡㄱㅇㅣㄴ -4246
▁ㅅㅡㅌㅗㄹㅣ -4247
▁ㄷㅗㄱㄹㅣㅂㅇㅜㄴㄷㅗㅇ -4248
▁ㅁㅣㄱㅜㄱㅇㅣㄴ -4249
▁ㄷㅓㅅ -4250
▁ㅂㅗㅈㅗ -4251
▁ㅈㅣㄱㅡㅂ -4252
▁1965 -4253
▁ㄱㅐㄹㄹ -4254
▁ㅇㅘㅇㅈㅏ -4255
▁ㅅㅏㄹㅣㅂ -4256
▁ㄴㅏㄷㅡㄹ -4257
▁68 -4258
▁ㄹㅣㅊㅓ -4259
▁ㅊㅏㅇㅇㅝㄴ -4260
▁ㅂㅏㄴㄷㅡㅅㅣ -4261
▁ㄴㅏㄷㅡㄹㅁㅗㄱ -4262
▁ㄷㅜㄹㅉㅐ -4263
ㅅㅏㅅㅡ -4264
▁ㅇㅛㅋㅗ -4265
ㅌㅣㅂㅡ -4266
▁ㄱㅗㅇㅈㅓㅇ -4267
▁ㄴㅗㄱㅅㅐㄱ -4268
▁ㅈㅣㄴㅈㅜ -4269
▁ㅎㅢㅁㅏㅇ -4270
▁ㅎㅣㅁㄷㅡㄹ -4271
▁ㅎㅘㅅㅏㄴ -4272
▁ㄴㅡㅈ -4273
▁ㄱㅕㅇㄹㅗ -4274
▁ㅎㅣㅌㅡ -4275
ST -4276
▁ㄹㅏㅇㅣㅌㅡ -4277
▁ㄷㅡㅁㅜㄹ -4278
▁ㅍㅗㄹㅗ -4279
▁ㅈㅓㄴㅎㅕㅇ -4280
▁ㅅㅓㄴㅂㅗㅇㅣ -4281
ㅡㄱㅏㄴ -4282
▁ㅇㅏㅌㅔㄴ -4283
ㅇㅜㄹ -4284
▁ㅈㅓㄴㅁㅕㄴ -4285
▁61 -4286
▁ㄱㅏㄴㅎㅐㅇ -4287
▁ㅁㅐㅇㅣㄹ -4288
▁ㄷㅗㄱㅌㅡㄱ -4289
▁ㅂㅓㅂㅈㅓㅇ -4290
▁ㄷㅗㅈㅓㄴ -4291
▁%, -4292
▁ㅇㅏㅂㄹㅕㄱ -4293
ㅅㅡㅋㅔ -4294
▁ㅁㅜㄹㅊㅔ -4295
▁ㅁㅏㅈㅅㅓ -4296
▁ㅎㅐㅁ -4297
▁ㅎㅓㄹ -4298
▁ㅊㅏㄹㅅㅡ -4299
▁183 -4300
▁ㄱㅏㄹㅅㅐㄱ -4301
▁ㄱㅐㅅㅣㄴ -4302
ㄱㅜㅇㅝㄴ -4303
▁ㅊㅣㅇㅎㅏ -4304
ㅋㅡㄴ -4305
ㄷㅗㄹㅡ -4306
▁ㅈㅘㅇㅜ -4307
ice -4308
▁ㅋㅟ -4309
▁ㄴㅡㄴㄱㅏ -4310
▁ㅅㅣㄴㄹㅚ -4311
▁ㅍㅏㅇㅏㄱ -4312
▁ㅅㅗㄴㅈㅏ -4313
ㄱㅓㄹ -4314
ER -4315
▁ㅅㅡㄴ -4316
▁ㅇㅏㅌ -4317
▁ㅎㅏㅇㅣㄴ -4318
▁ㄴㅠㅈㅣㄹ -4319
ㅣㄱㅕㅇ -4320
art -4321
▁ㅆㅏㅇㅜㅁ -4322
▁1961 -4323
▁ㅇㅘㄴㄹㅛ -4324
▁ㅂㅜㄴㅎㅏㄹ -4325
▁ㅍㅐㄱ -4326
▁IS -4327
ㅇㅏㅂㅗ -4328
▁ㄱㅏㅅㅏㅇ -4329
▁ㅂㅕㄹㅁㅕㅇ -4330
▁ㅇㅠㅎㅐㅇ -4331
▁ㄱㅓㄴㄴㅓ -4332
▁ㅂㅜㄴㅁㅕㅇ -4333
▁ㄹㅏㄹ -4334
▁ㄴㅠㅈㅣㄹㄹㅐㄴㄷㅡ -4335
▁ㄷㅐㄱㅐ -4336
▁ㅇㅓㄷㅣ -4337
▁ㅌㅣㅂ -4338
ON -4339
▁ㅌㅔㅇㅣ -4340
▁ㅌㅣㅇ -4341
▁ㄹㅣㄱㅏ -4342
▁ㅇㅣㄴㅈㅣ -4343
▁ㄴㅐㅈㅓㄴ -4344
▁ㅁㅏㅈㅇㅣ -4345
▁ㅌㅔㄹㅓ -4346
▁ㄱㅣㅁㅇㅣㄹ -4347
ㅗㄹㄹㅣ -4348
▁ㅈㅔㄷㅐㄹㅗ -4349
▁ㅁㅗㄱㅅㅗㄹㅣ -4350
▁ㅂㅜㄴㄱㅣ -4351
▁ㅅㅜㄴㅎㅘㄴ -4352
▁800 -4353
▁ㅎㅜㅅ -4354
▁ㅅㅣㄹㅈㅣㄹ -4355
▁86 -4356
ㅣㅂㅓ -4357
▁ㅅㅑㅇ -4358
▁ㅎㅢㄴ -4359
▁ㅇㅘㄴㄱㅗㅇ -4360
▁ㅍㅜㅇㅂㅜ -4361
▁ㄷㅗㅇㄱㅣ -4362
▁ㅈㅜㅇㄱㅣ -4363
ㅇㅓㄱㅏ -4364
▁ㅊㅓㅂㅓㄹ -4365
▁600 -4366
▁ㄷㅗㄹㄹㅣ -4367
▁ㅂㅓㅁㅈㅜ -4368
▁ㅂㅗㄱㅈㅣ -4369
▁ㅁㅗㅎㅕㅇ -4370
▁ㅇㅣㅊㅣ -4371
▁re -4372
ㅅㅣㅇㅗ -4373
▁ㅇㅏㅍㅏㅌㅡ -4374
▁ㅅㅏㅇㅜ -4375
▁ㅎㅏㄴㅈㅏ -4376
▁ㅇㅠㄱㅣ -4377
▁ㄱㅜㅎㅕㄴ -4378
▁ㅂㅜㄴㅎㅐ -4379
▁ㄴㅓㄼㅇㅣ -4380
▁ㅇㅏㄴㅌㅗㄴ -4381
▁ㅌㅏㄱㅕㄱ -4382
▁ㅇㅔㅇㅓ -4383
▁ㅈㅏㄱㅅㅏ -4384
ia -4385
▁ㄹㅜㅁ -4386
▁ㅂㅔㄱㅌㅓ -4387
ㅌㅔㄴㅊㅡ -4388
▁ㅇㅏㄷㅗㅇ -4389
▁ㅅㅑㄹ -4390
▁ㅂㅣㅍㅕㅇ -4391
▁ㅈㅓㄴㅈㅜ -4392
▁ㄱㅣㄷㅜㅇ -4393
▁ㅅㅡㅌㅔ -4394
▁ㅎㅘㅇㅣ -4395
▁ㅁㅜㄹㄹㅣㅎㅏㄱ -4396
ㅂㅣㅊ -4397
▁ㄴㅣㅅ -4398
ㅈㅏㅁ -4399
▁ㅍㅕㅇㄷㅡㅇ -4400
est -4401
▁ㅅㅓㅇㅎㅑㅇ -4402
▁ㅇㅓㅁㅊㅓㅇ -4403
ap -4404
▁ㄷㅡㅇㅈㅣ -4405
▁ㅂㅡㄹㅗ -4406
▁ㅅㅕㄴ -4407
▁120 -4408
▁ㅅㅣㅈㅗ -4409
▁ㅂㅏㅇㅎㅐ -4410
▁ㅅㅔㄹㅡㅂ -4411
ㄹㅠㅇ -4412
▁ㅈㅗㅅ -4413
▁ㅈㅓㄴㅇㅝㄴ -4414
▁ㅁㅜㄱㅔ -4415
▁ㄷㅡㄹㅣ -4416
ㅓㄴㅅㅡ -4417
▁ㅃㅐㅇㅏㅅ -4418
▁ㅎㅘㄱㅅㅏㄴ -4419
▁ㅊㅜㄱㅜ -4420
▁ㅊㅚㄷㅏ -4421
▁ㅈㅓㅅㅜㄹ -4422
▁ㅅㅏㄴㅑㅇ -4423
▁ㄱㅗㅅㅗㄱㄷㅗㄹㅗ -4424
▁ㅎㅏㄴㅈㅓㅇ -4425
ak -4426
▁ㅁㅏㅂㅓㅂ -4427
▁ㅅㅏㅇㅇㅟ -4428
▁ㄴㅏㄹㄱㅐ -4429
▁ㅈㅣㅂㄱㅝㄴ -4430
▁ㅍㅕㄴㅊㅏㄴ -4431
▁ㅇㅣㄴㅈㅓㅂ -4432
ㅓㄹㄷㅡ -4433
▁ㅇㅗㅍㅔㄹㅏ -4434
ㅋㅔㅇㅣㅅㅕㄴ -4435
▁ㅁㅕㅇㄴㅏㄹㅏ -4436
▁ㅎㅢㅅㅐㅇ -4437
▁ㄹㅟ -4438
▁ㅇㅣㄹㅂㅗㄴㅇㅣㄴ -4439
▁ㅊㅜㄹㅂㅓㅁ -4440
▁1919 -4441
▁ㄷㅐㄱㅗㅇ -4442
▁ㅁㅕㅇㅎㅘㄱ -4443
▁1944 -4444
ㅣㄹㄹㅓ -4445
▁98 -4446
ㅗㄹㅗ -4447
▁ㅇㅣㄴㅈㅡㅇ -4448
▁ㅍㅏㄴㅅㅏ -4449
TV -4450
▁ㅇㅜㄹㅕ -4451
▁ㅎㅗㅈㅜ -4452
ㄷㅎㅣ -4453
▁ㄱㅘㄱ -4454
▁ㅇㅕㄴㄱㅜㅇㅝㄴ -4455
▁ㅁㅏㅇㅣㄴ -4456
▁63 -4457
▁ㅂㅜㅈㅣㄴ -4458
AR -4459
▁ㄱㅡㄴㅂㅗㄴ -4460
▁ㅂㅏㅊㅣ -4461
▁ㅅㅏㅎㅕㅇ -4462
▁ㅂㅏㄹㄱㅜㄹ -4463
▁ㅅㅡㅍㅡㄹ -4464
▁ㅁㅔㅁㅗㄹㅣ -4465
ㅇㅘ -4466
▁ㄷㅐㅂㅓㅂ -4467
▁ㄷㅏㄴㄷㅗㄱ -4468
▁ㅇㅕㄴㄱㅏㄴ -4469
▁ㅍㅡㄹㅣㅁㅣㅇㅓ -4470
▁ㅈㅗㅈㅗㅇ -4471
▁ㄷㅡㄹㅇㅓㅅㅓ -4472
ㄷㅏㄹㅡ -4473
▁ㅇㅕㅇㅇㅜㅇ -4474
ㄷㅣㅅㅕㄴ -4475
ㅌㅡㄹㄹㅓ -4476
▁ㅅㅏㅇㅝㄴ -4477
ㄴㅚ -4478
▁ㅌㅏㅁㅅㅏ -4479
▁ㄷㅏㅇㅜㄴ -4480
▁ㅎㅐㅇㄹㅕㄹ -4481
▁ㅂㅡㄹㅏㅇㅜㄴ -4482
▁ㄱㅣㄱㅣ -4483
▁ㄷㅏㅇㅊㅗ -4484
▁95 -4485
▁ㄱㅣㅇㅗㄴ -4486
▁ㅊㅜㅊㅓㄴ -4487
▁ㅁㅗㅇㅣㅁ -4488
▁ㅎㅏㄴㄱㅖ -4489
▁ㅊㅜㅅㅏㄴ -4490
▁ㅍㅗㅎㅏㅇ -4491
▁ㄱㅛㅎㅑㅇ -4492
▁ㅅㅓㅁㅕㅇ -4493
▁ㅁㅜㄴㅁㅕㅇ -4494
▁ㅌㅗㅇㅅㅏㄴ -4495
▁ㄱㅕㅇㅈㅓㄴ -4496
▁ㄱㅘㅇㅂㅗㄱ -4497
▁ㅊㅜㅇㄱㅕㄱ -4498
ct -4499
▁1941 -4500
▁ㅇㅢㅈㅣ -4501
▁ㅈㅓㅁㅈㅓㅁ -4502
▁ㅂㅕㄴㅅㅜ -4503
▁ㅇㅏㅁㅜㄹ -4504
▁ㅁㅏㅊㅣㅁㄴㅐ -4505
▁ㄱㅏㅅㅣ -4506
ㅈㅜㄱㅜㄴ -4507
▁ㅈㅓㄱㅈㅓㄹ -4508
ㅋㅗㅁ -4509
▁ㄱㅣㄹㅣ -4510
▁ㅅㅐㅇㄱㅕㄴㅏ -4511
▁ㄱㅗㅇㄹㅗ -4512
▁ㅇㅏㄱㅎㅘ -4513
▁ㅂㅡㄹㄹㅜ -4514
ㅇㅜㄱ -4515
▁ㅅㅓㅇㅂㅜㄴ -4516
▁ㄱㅏㄱㅈㅣ -4517
▁ㄱㅗㄹㄷㅡㄴ -4518
ㅠㄴㅣ -4519
ㅅㅏㅈㅏ -4520
▁ㄹㅓㅆ -4521
▁IC -4522
▁ㅇㅓㅁㅊㅓㅇㄴㅏ -4523
▁ㅅㅣㅂㅈㅏㄱ -4524
▁59 -4525
▁ㅍㅗㅇㅣㄴㅌㅡ -4526
▁ㅅㅣㅋㅏㄱㅗ -4527
▁ㅂㅔㄹㅡㄴ -4528
▁ㅌㅡㄱㅂㅕㄹㅅㅣ -4529
▁ㅈㅏㅈㅓㄴ -4530
▁ㄱㅐㅁㅏㄱ -4531
▁ㅎㅏㄱㅅㅏㄹ -4532
▁74 -4533
▁178 -4534
▁ㅂㅜㅎㅏ -4535
▁ㅋㅣㅇㅜ -4536
▁ㅎㅘㄱㄹㅠㄹ -4537
▁ㅎㅗㅇㅂㅗ -4538
ㅔㄹㅣㅋㅏㄴ -4539
▁ㅌㅗㄱ -4540
▁ㅂㅏㅇㅟ -4541
▁;/ -4542
▁Lo -4543
▁ㄱㅓㅈㅣ -4544
▁ㅇㅢㅎㅗㄱ -4545
▁ㅈㅏㄱㅡㄱ -4546
ㅎㅏㄱㅅㅐㅇ -4547
▁ㅇㅢㅅㅣㅁ -4548
▁ㅇㅣㅅㅣ -4549
▁to -4550
▁ㅁㅐㅈㅏㅇ -4551
▁ㅍㅗㅌㅡ -4552
▁ㅎㅏㅁㄹㅏㄱ -4553
ㅞㄹ -4554
▁ㅅㅡㅁㅏㅌㅡ -4555
▁82 -4556
▁ㄷㅡㄹㅏㅇㅣ -4557
▁ㄱㅏㅁㅅㅏ -4558
▁ㅍㅡㄹㅣㄴ -4559
ul -4560
▁ㄷㅡㄹㅓㄴㅐ -4561
▁ㅇㅞㅅㅡㅌㅡ -4562
▁ㅅㅏㅅㅣㄹㅅㅏㅇ -4563
▁1958 -4564
▁ㅍㅡㄹㅗㅇㅣ -4565
▁ㅇㅗㄹㅎㅐ -4566
▁ㄱㅗㅇㅎㅓㄴ -4567
▁ㄲㅗㅂ -4568
▁ㅂㅣㅅㅏㅇ -4569
▁ㅇㅣㅁㄱㅣ -4570
▁ㅇㅡㄴㅣ -4571
▁ㅇㅣㅇㅜ -4572
ㅏㅇㅣㅇㅓㄴ -4573
▁ㅎㅗㄴㅎㅏㅂ -4574
ㅁㅜㅂㅜ -4575
▁ㅇㅖㅈㅓㄴ -4576
▁ㅇㅑㄴ -4577
▁ㅎㅏㄴㄱㅜㄱㅇㅣㄴ -4578
▁ㅅㅏㅈㅓㅇ -4579
▁DNA -4580
▁1947 -4581
▁ㅈㅓㅂㅊㅗㄱ -4582
ㄷㅜㄱ -4583
▁ㅈㅜㄹㄱㅣ -4584
▁ㅇㅘㅇㅣ -4585
▁ㅊㅜㄹㄹㅕㄱ -4586
▁ㅇㅏㄱㄱㅣ -4587
▁ㅎㅚㄷㅏㅁ -4588
▁ㅂㅜㄴㅇㅟ -4589
▁ㅈㅣㅇㅇㅕㄱ -4590
▁ㅇㅗㄹㅐㅅ -4591
▁76 -4592
▁ㅅㅜㄴㅅㅜ -4593
▁ㄱㅡㄹㅐㅍㅣㄱ -4594
▁ㄱㅐㅇㅣㅂ -4595
▁ㅌㅔㄱㅅㅏㅅㅡ -4596
▁ㅂㅏㅇㅇㅟ -4597
ㅏㄹㅏㅎ -4598
▁ㅂㅗㄱㅗㅅㅓ -4599
▁SS -4600
▁1956 -4601
▁ㅇㅝㄴㅎㅕㅇ -4602
▁ㅇㅑㅇㅉㅗㄱ -4603
▁ㅅㅡㅇㄱㅐㄱ -4604
▁ㅇㅏㄴㄷㅗㅇ -4605
▁ㄷㅐㅇㅝㄴ -4606
ㅗㅅㅣㄴ -4607
ㅅㅔㅇㅜ -4608
▁ㅇㅣㅂㅂㅓㅂ -4609
ㅈㅣㅋㅓㄹ -4610
▁ㅈㅔㅅㅏ -4611
▁ㅅㅜㄹㅣ -4612
▁ㅇㅣㅂㄹㅕㄱ -4613
▁ㅅㅣㄹㅎㅕㄴ -4614
▁ㅎㅜㅅㄴㅏㄹ -4615
▁ㅇㅏㅇㅣㄷㅗㄹ -4616
▁ㅇㅓㄴㅈㅔ -4617
▁ㅊㅓㅇㄱㅜ -4618
ㅋㅓㅁ -4619
▁ㄱㅜㅇㅝㄴ -4620
▁ㄱㅕㅇㄴㅏㅁ -4621
▁72 -4622
▁ㄱㅡㄸㅐ -4623
▁ㅋㅡㄹㅗㅇ -4624
▁ㅅㅜㅅㅓㄱ -4625
▁ㄷㅏㄴㅍㅕㄴ -4626
▁ㅂㅐㄱㅅㅓㅇ -4627
ㄹㅣㅇㅓ -4628
▁ㄹㅣㅊㅓㄷㅡ -4629
▁ㄱㅐㅅㅣㄴㄱㅛ -4630
ㅅㅜㅇㅇㅣ -4631
▁ㅇㅏㅅㅏ -4632
▁ㄷㅗㅇㅁㅕㅇ -4633
▁160 -4634
ie -4635
ㅇㅙ -4636
▁ㄱㅛㄱㅜ -4637
▁ㅈㅏㄱㅇㅟ -4638
▁ㄴㅔㅇㅣ -4639
▁ㄷㅡㅇㅍㅏㄴ -4640
▁ㅇㅗㄹㅐㅅㄷㅗㅇㅇㅏㄴ -4641
▁ㅈㅣㄴㅈㅓㅇ -4642
ㅍㅓㄹ -4643
ㅂㅏㄹㅡ -4644
▁ㅇㅘㅇㅅㅣㄹ -4645
▁ㅇㅕㅇㅑ -4646
▁ㅇㅣㄹㅏㅋㅡ -4647
▁ㅋㅓㅁㅠㄴㅣ -4648
▁ㅊㅜㄱㄱㅜㄷㅏㄴ -4649
▁ㅅㅜㄴㄱㅏㄴ -4650
▁ㄱㅏㅁㅅㅣ -4651
▁77 -4652
ㄷㅐㅂㅜ -4653
▁ㅋㅏㄹㅏ -4654
▁ㅇㅔㄷㅡㅇㅝㄷㅡ -4655
▁ㄷㅗㄱㅇㅣㄹㄱㅜㄴ -4656
▁ㅈㅓㄴㅕㄱ -4657
▁ㅅㅣㅅㅏㅇ -4658
ㅈㅗㄹ -4659
▁ㄲㅓㄲ -4660
▁ㅂㅣㅈㅜㅇ -4661
▁ㅌㅜㄹ -4662
▁ㅈㅜㄹㅇㅓㄷㅡㄹ -4663
ㅎㅡㅂ -4664
▁ㄷㅜㄱ -4665
▁ㅂㅏㄷㅏㄱ -4666
▁ㅈㅐㄱㅓㄴ -4667
▁ㅈㅗㅂㅕㄹ -4668
ud -4669
ㅋㅗㅅㅡ -4670
▁ㄷㅐㄹㅑㅇ -4671
▁ㅊㅔㄴ -4672
ㄹㅗㄷㅡ -4673
▁ㅂㅏㄹㅂㅏㄹ -4674
▁67 -4675
▁ㅇㅕㅇㅘㅇ -4676
▁ㄱㅠㄴㅎㅕㅇ -4677
ㅋㅟ -4678
▁ㅇㅏㅅㅡ -4679
▁ㅌㅐㄷㅗ -4680
▁ㅅㅣㄴㅂㅜ -4681
▁ㅇㅔㄱㅅㅡ -4682
▁ㅇㅔㅅㅓㅂㅜㅌㅓ -4683
ly -4684
ㄴㅏㅂ -4685
▁ㅇㅕㄹㅗㄴ -4686
▁ㅇㅣㄴㅣㅇ -4687
▁ㅍㅗㅋㅔㅅ -4688
▁Th -4689
ㄹㅏㄴㅗ -4690
▁ㅈㅏㅇㅅㅜ -4691
▁ㅇㅕㅇㅈㅣ -4692
▁ㅂㅕ -4693
▁ㅋㅗㄹㅡ -4694
▁ㅂㅗㄱㅇㅝㄴ -4695
ㅓㅁㅍㅡ -4696
▁ㅎㅡㄹㅡㅁ -4697
▁AFC -4698
ㅇㅡㄴㅎㅐㅇ -4699
▁ㅊㅣㅁㄹㅑㄱ -4700
▁ㅌㅏㅇㅝ -4701
og -4702
ㅍㅗㅁ -4703
▁1939 -4704
▁ㅍㅡㄹㅏㅇㅋㅡ -4705
th -4706
▁ㅎㅏㄴㄱㅡㄹ -4707
ㅎㅔㄹ -4708
▁ㅈㅜㅊㅚ -4709
▁ㅋㅗㄴㅅㅡㅌㅏㄴㅌㅣㄴ -4710
▁ㅂㅕㅇㅎㅏㅂ -4711
▁ㅈㅏㅁㅅㅜ -4712
▁ㅂㅏㄲㅏㅌ -4713
▁ㅈㅓㅁㅅㅜ -4714
▁ㄱㅜㄱㄱㅣ -4715
▁ㅂㅗㅁㅜㄹ -4716
▁ㅆㅏㄹ -4717
▁ㄷㅜㄹㄹㅓㅆㅏ -4718
▁ㅂㅣㅊㅣ -4719
▁ㅍㅗㄱㅌㅏㄴ -4720
▁ㅎㅐㄴ -4721
ㅅㅔㅁ -4722
ㅜㄴㅣ -4723
▁ㄱㅣㅅ -4724
▁ㄱㅜㄱㅡㄹ -4725
▁ㅍㅗㄹㄹㅣ -4726
ㅛㅅㅣ -4727
ㅣㅅㅡㅌㅏㄴ -4728
▁ㄱㅘㅎㅏㄱㅈㅏ -4729
ist -4730
▁ㄷㅐㅇㅘㅇ -4731
▁ㅂㅏㅇㅅㅏ -4732
▁ㅇㅝㄴㅅㅜ -4733
▁ㄱㅝㄴㅇㅟ -4734
▁ㅍㅏㄹㄹㅣ -4735
▁ㅌㅔㅅㅡㅌㅡ -4736
▁ㄴㅐㅅㅕㄴㅓㄹ -4737
▁ㅅㅓㄱㅇㅠ -4738
▁ㄴㅕ -4739
▁ㅇㅏㅁㅜ -4740
▁ㅎㅘㄱㄹㅣㅂ -4741
▁ㅇㅏㅁㅎㅗ -4742
▁85 -4743
▁ㅇㅣㄹㅅㅏㅇ -4744
▁1954 -4745
▁ㄱㅕㅂ -4746
▁ㅂㅜㅅ -4747
▁ㄱㅏㄱㅗㅇ -4748
▁ㅇㅣㄴㅅㅙ -4749
▁ㅌㅏㅇㅣㅂ -4750
▁ㅎㅜㄴㅈㅏㅇ -4751
AS -4752
▁ㅌㅏㅈㅏ -4753
ight -4754
▁ㅇㅏㄵ -4755
▁ㄱㅣㅇㅜㄹ -4756
▁ㅁㅜㅅㅏ -4757
▁ㅊㅣㅁㅇㅣㅂ -4758
ㅏㅂㅣㅇㅏ -4759
ㅊㅣㅇㅏ -4760
ㅇㅙㄹㅏㄴ -4761
▁ㄷㅗㅇㅇㅑㅇ -4762
▁ㅇㅣㅁㅈㅣㄴㅇㅙㄹㅏㄴ -4763
▁ㅂㅗㄱㅅㅜ -4764
▁ㅈㅏㅅㅣㄱ -4765
▁ㄷㅐㅅㅓㄴ -4766
▁ㅁㅓㄹㄹㅣ -4767
▁ㅍㅕㅇㅇㅏㄴ -4768
▁ㅅㅣㅅㅏ -4769
▁ㅅㅣㅁㅅㅏ -4770
▁ㅇㅏㅇㅜ -4771
▁ㅈㅣㅎㅕㅇ -4772
▁ㅅㅏㅇㅇㅕㄱ -4773
▁ㄱㅏㄹㅑㅇ -4774
▁ㅂㅜㄴㅇㅟㄱㅣ -4775
▁ㅂㅜㅅㅏ -4776
▁ㅁㅓㅅ -4777
▁ㅇㅕㄴㅇㅖ -4778
▁ㅌㅏㅇㅜㄴ -4779
▁ㅂㅗㄱㅇㅡㅁ -4780
ㅋㅏㅇㅣㄷㅗ -4781
▁ㅇㅓㄴㄷㅓㄱ -4782
▁ㅁㅜㅅㅣ -4783
▁ㅁㅣㄴㅈㅜㅇ -4784
ㅊㅕ -4785
▁1952 -4786
▁ㅇㅣㄹㅅㅣ -4787
▁* -4788
▁ㄱㅗㅇㅈㅜㅇ -4789
▁ㅂㅏㄹㅇㅡㅁ -4790
▁ㄷㅏㅇㄱㅜㄱ -4791
▁ㅅㅔㄹㅣ -4792
▁ㄴㅏㅍㅗㄹㄹㅔ -4793
▁73 -4794
▁ㅊㅏㅇㅈㅏㄱ -4795
▁ㄱㅡㅂㅈㅔ -4796
▁ㅅㅡㅇㅂㅜ -4797
▁ㅇㅔㄱ -4798
▁ㄴㅏㅍㅗㄹㄹㅔㅇㅗㅇ -4799
AT -4800
▁ㅅㅡㅌㅏㄷㅣㅇ -4801
▁ㅅㅜㅇㅣㄱ -4802
▁ㅎㅕㄱㅅㅣㄴ -4803
▁ㅍㅖㅅㅙ -4804
▁ㄱㅓㄷㅡㅂ -4805
▁ㅈㅗㅈㅗ -4806
▁ㅈㅐㅂㅐ -4807
▁ㅇㅏㄹㅍㅏ -4808
▁ㅈㅓㄴㅅㅣㄴ -4809
▁ㅎㅜㄱㅖ -4810
▁ㄱㅏㄷㅏㅁ -4811
▁ㄷㅗㅇㅛ -4812
▁ㅊㅓㄴㅈㅜㄱㅛ -4813
▁ㄷㅐㅈㅣ -4814
▁ㅂㅣㄹㅂㅗㄷㅡ -4815
▁ㅊㅏㅁㅁㅗ -4816
ㅜㄱㅅㅡ -4817
▁ㄲㅣㅊㅣ -4818
▁ㅎㅣㄴ -4819
ㄹㅕㄱㅏ -4820
ㅈㅏㅊㅣ -4821
ㅇㅏㄴㅏ -4822
▁ㄱㅖㅊㅡㅇ -4823
▁ㅂㅗㄴㅈㅣㄹ -4824
▁ㅇㅏㅌㅔㄴㅔ -4825
▁ㅂㅏㄱㅈㅓㅇㅎㅢ -4826
▁96 -4827
▁Al -4828
▁ㅅㅏㅈㅔ -4829
ㅍㅜ -4830
▁78 -4831
▁ㄷㅗㅇㅂㅏㅇ -4832
▁ㄱㅡㄹㅔ -4833
ㅈㅗㅎㅏㅂ -4834
▁202 -4835
▁ㅂㅗㅅㅏㄹ -4836
ㅕㄱㅏ -4837
ㅈㅣㅅ -4838
▁ㅁㅜㅎㅏㄴ -4839
▁ㅂㅏㅇㅣㅇㅔㄹ -4840
▁81 -4841
▁ㅇㅓㄲㅐ -4842
▁ㄹㅗㅂㅗㅅ -4843
ㅏㅁㅗㅌㅗ -4844
ㅓㅅㅡㅌㅡ -4845
▁ㅁㅜㄴㅅㅣㄴ -4846
▁ㅅㅏㄴㅎㅘ -4847
▁ㅁㅠㅈㅣㅋㅓㄹ -4848
▁ㅈㅏㅇㄴㅏㅁ -4849
▁ㅎㅜㅅㅗㄱ -4850
ㄷㅏㄹㄹㅣ -4851
ㅍㅣㄹㄷㅓ -4852
▁ㅊㅓㅇㅈㅜ -4853
▁ㅁㅣㄷㅡㅍㅣㄹㄷㅓ -4854
▁ㄱㅏㅅㅓㄹ -4855
▁ㅊㅗㅇㅎㅚ -4856
▁ㅎㅐㅂㅏㄹ -4857
▁ㄴㅗㄹㄹㅏ -4858
▁ㅇㅓㄹㅕㅇ -4859
▁ㄴㅗㅊㅜㄹ -4860
▁ㅍㅕㅇㄹㅗㄴ -4861
▁ㅈㅐㅎㅏㄱ -4862
▁ㅌㅏㄹㅌㅚ -4863
ess -4864
ㅁㅣㄴㅈㅜ -4865
▁DV -4866
▁NH -4867
ㅇㅣㄹㅂㅗ -4868
▁ㄱㅡㄹㅣㅅㅡㄷㅗ -4869
▁ㅎㅏㅇㅝㄴ -4870
▁ㄱㅐㅅㅓㄹ -4871
ㅋㅓㄷ -4872
▁ㅈㅓㄴㄴㅏㅁ -4873
▁ㅁㅟㄴ -4874
ㅡㅁㅏㄴ -4875
▁ㄸㅏㄹㅗ -4876
▁ㄱㅡㄹㅣㄴ -4877
▁ㅊㅏㅁㄱㅗ -4878
ㅇㅏㅎㅏ -4879
▁ㅅㅣㄴㅈㅏ -4880
▁Li -4881
▁ㅂㅣㄹㄷㅣㅇ -4882
▁ㅅㅏㅁㅜㅅㅗ -4883
▁ㄷㅡㄹㅇㅣ -4884
ㅌㅣㄹ -4885
▁ㅅㅣㅁㅈㅣ -4886
▁ㅈㅓㄴㅌㅜㄱㅣ -4887
▁1959 -4888
▁ㅈㅘㅅㅏㅇ -4889
▁ㅇㅣㄹㅋㅓㄷ -4890
▁ㅎㅐㅇㅂㅗㄱ -4891
▁ㅈㅗㅎㅇㅏㅎㅏ -4892
▁ㅎㅘㅈㅏㅇ -4893
▁ㅈㅓㄴㅈㅣㄱ -4894
▁ㅈㅜㅇㄹㅕㄱ -4895
▁ㅅㅣㄴㄱㅗ -4896
▁ㅅㅜㄷㅗㅇㅝㄴ -4897
▁ㄷㅏㅅㅗ -4898
▁ㅍㅏㅇㅝ -4899
▁ㅅㅣㄹㄹㅕㄱ -4900
▁71 -4901
▁ㅌㅏㅇㅣㄴ -4902
▁ㅉㅣ -4903
▁ㅍㅡㄹㅏ -4904
ㅔㄴㅣㅇㅏ -4905
▁ㄱㅣㅁㅅㅓㅇ -4906
▁ㅈㅓㄹㅂㅏㄴ -4907
ㄹㅣㄹ -4908
▁ㄷㅗㅁㅏ -4909
▁AT -4910
▁177 -4911
▁ㅇㅟㅅ -4912
▁ㅂㅣㅅㅓ -4913
▁ㅇㅗㄱㅏ -4914
▁ㄱㅡㄹㅓㅁ -4915
▁ㅎㅘㅇㅣㅌㅡ -4916
▁ㅍㅔㄹㅡㅅㅣㅇㅏ -4917
▁ㅊㅐㅇㅜ -4918
▁ㄷㅗㅇㅅㅓ -4919
▁ㄷㅏㅋㅔ -4920
▁ㄹㅔㅇㅏㄹ -4921
▁ㅅㅏㅈㅏ -4922
▁ㅇㅜㅁㅈㅣㄱㅇㅣㅁ -4923
▁ㅅㅏㅇㄱㅘㄴ -4924
▁ㅊㅓㄴㅇㅏㄴ -4925
▁ㅎㅘㅎㅏㅂ -4926
▁91 -4927
▁ㅂㅠ -4928
ㅌㅔㄹㅡ -4929
ㄹㅗㅅㅡ -4930
▁ㄱㅏㄲㅏㅇㅣ -4931
▁ㄱㅗㅌㅗㅇ -4932
▁ㅇㅕㅅㅓㅅ -4933
▁ㅇㅣㄴㅇㅛㅇ -4934
▁ㄱㅣㅅㅗ -4935
▁ㅎㅘㅇㅎㅜ -4936
▁ㅈㅣㄹㅎㅘㄴ -4937
▁ㅁㅜㄹㅡ -4938
ㄱㅘㄹ -4939
ㅋㅡㄹㄹㅣ -4940
▁ㄷㅏㅇㄴㅏㄹㅏ -4941
▁ㅇㅟㅋㅣ -4942
▁ㅇㅣㅎㅗㄴ -4943
ㅏㅌㅣㅇㅏ -4944
▁ㅅㅡㅌㅐㄴ -4945
▁ㅅㅐㅇㅁㅜㄹㅎㅏㄱ -4946
BA -4947
▁ㅇㅐㄱㅅㅕㄴ -4948
ㅇㅣㄴㅁㅜㄹ -4949
▁ㅅㅗㄴㅅㅏㅇ -4950
ㅊㅔㅅㅡㅌㅓ -4951
▁\ -4952
ㅔㄴㅏ -4953
▁ㄷㅡㅅㅇㅣ -4954
▁ㅂㅐㄱㅁㅏㄴ -4955
ㅑㄹ -4956
ㅁㅣㅌㅓ -4957
▁ㅂㅜㅈㅣ -4958
▁ㄷㅣㅅㅡㅋㅡ -4959
ㅜㄴㅏ -4960
▁ㅅㅣㅁㅈㅏㅇ -4961
▁st -4962
▁ㅈㅏㄱㄷㅗㅇ -4963
▁ㅅㅡㅇㄹㅕ -4964
▁ㅍㅐㅅㅕㄴ -4965
▁ㄱㅜㄱㄱㅜㄴ -4966
ub -4967
▁ㄱㅏㅅㅡㅁ -4968
ㅌㅓㅅㅡ -4969
▁ㅁㅏㅁㅜㄹㅣ -4970
▁ㅂㅏㅇㅣㅇㅔㄹㅡㄴ -4971
▁1942 -4972
▁ㅇㅢㄷㅐ -4973
▁ㅂㅜㅅㅏㄴㄱㅘㅇㅇㅕㄱㅅㅣ -4974
▁ㅁㅗㅌㅗ -4975
▁ㅂㅗㅅㅏㅇ -4976
▁ㅎㅗㅅㅋㅏㅇㅣㄷㅗ -4977
ㅡㄹㅣㅌㅡ -4978
▁ㅇㅏㅁㅔㄹㅣㅋㅏㄴ -4979
▁ㅈㅣㅎㅑㅇ -4980
▁ㅇㅣㄴㅅㅐㅇ -4981
▁ㄱㅕㅇㅂㅜㄱ -4982
▁ㅇㅠㅎㅕㅇㅁㅜㄴㅎㅘㅈㅐ -4983
ㄲㅣㅁ -4984
▁ㅂㅣㄹㅖ -4985
▁ㅁㅔㅅㅣㅈㅣ -4986
▁ㅅㅓㅅㅣㄱㅈㅣ -4987
▁ㄱㅡㄹㄹㅗㅂㅓㄹ -4988
▁ㄱㅡㅁㅏㄴ -4989
▁ㄱㅘㄴㅇㅕ -4990
▁ㅇㅑㄱㅁㅜㄹ -4991
▁ㅇㅠㅌㅗㅇ -4992
▁ㅈㅣㅅㅏ -4993
▁ㅈㅜㄹㅕㄱ -4994
▁ㄸㅜ -4995
▁ㅊㅓㅎㅏ -4996
ㄷㅡㄹㅣㅎㅣ -4997
ㅋㅐ -4998
ㅣㅂㅡㄴ -4999
▁ㅅㅏㄹㄹㅣ -5000
▁ㅍㅔㅇㅣㅈㅣ -5001
▁ㅎㅗㄴㅇㅣㄴ -5002
▁87 -5003
▁ㄱㅡㄹㅓㅎㄱㅔ -5004
▁ㄴㅣㅅㅣ -5005
ㄱㅏㄹㅏㄱ -5006
▁1955 -5007
▁ㄱㅛㄹㅣ -5008
▁159 -5009
▁ㅂㅐㄴ -5010
▁ㅅㅣㅇㄱㅏ -5011
▁ㅁㅏㄹㄹㅔㅇㅣㅅㅣㅇㅏ -5012
▁ㄷㅗㄷㅓㄱ -5013
▁ㄱㅜㅁㅐ -5014
▁ㅅㅡㅌㅏㄷㅣㅇㅜㅁ -5015
▁ㅇㅝㄴㄴㅕㄴ -5016
▁AP -5017
▁ㅇㅕㄱㅎㅏㄱ -5018
▁ㅈㅣㄴㄷㅏㄴ -5019
▁ㅇㅘㅇㅂㅣ -5020
▁ㅅㅓㄴㅂㅏㄱ -5021
▁ㄱㅜㄱㅈㅓㅇ -5022
▁ㅁㅜㄹㅛ -5023
▁ㄷㅡㄹㅐㅍㅡㅌㅡ -5024
IA -5025
ab -5026
▁ㅇㅣㄹㅂㅗㄴㅇㅓ -5027
▁ㅈㅓㅇㅊㅏ -5028
▁1953 -5029
▁ㄱㅏㅇㅘ -5030
ㄹㅣㅎㅣ -5031
▁ㅈㅓㄱㅎㅏㅂ -5032
▁ㅊㅗㅇㅈㅏㅇ -5033
▁1943 -5034
▁ㅅㅏㅇㅠ -5035
▁ㄹㅜㅁㅏㄴ -5036
▁ㅈㅗㅅㅏㅇ -5037
▁ㅋㅡㄹㅗㅇㅏㅌㅣㅇㅏ -5038
▁ㅁㅐㅊㅔ -5039
▁ㅋㅠ -5040
▁ㄱㅣㅅㅏㅇ -5041
▁ㅇㅘㅇㅎㅜ -5042
▁ㅅㅏㄴㅅㅗ -5043
▁ㅌㅗㅇㅎㅘ -5044
▁ᆯㅈㅣ -5045
▁ㅅㅡㅌㅗ -5046
ㅇㅠㅅㅏㄴ -5047
▁ㅅㅣㅇㄱㅏㅍㅗㄹㅡ -5048
▁1936 -5049
▁ㅂㅔㅇㅣㅅㅡ -5050
▁ㅈㅓㄴㄷㅗㅇㅊㅏ -5051
▁ㄱㅏㅇㅛ -5052
ㅈㅣㄱㅈㅏ -5053
▁ㅇㅖㅂㅏㅇ -5054
▁ㅅㅏㅇㅅㅣㄹ -5055
▁ㅍㅣㅎㅐㅈㅏ -5056
▁84 -5057
▁ㅁㅗㅂㅏㅇㅣㄹ -5058
▁ㅈㅜㅅㅓㄱ -5059
▁ㅈㅣㄴㅏㄱㅏ -5060
▁ㄴㅡㄴㄷㅏㄴㅡㄴ -5061
▁ㅅㅓㄴㅇㅣㅁ -5062
▁ㄱㅣㅁㅇㅣㄹㅅㅓㅇ -5063
▁ㄱㅠㅈㅔ -5064
▁ㄴㅐㄹㅕㅇㅗ -5065
IV -5066
▁ㄷㅔㅅㅡ -5067
ㅅㅡㅌㅣㄴ -5068
▁ㄱㅕㄹㅇㅢ -5069
▁ㅂㅜㄹㅁㅏㄴ -5070
▁ㄴㅣㄱ -5071
▁ㅋㅜㄷㅔ -5072
ㅎㅣㄹㅗ -5073
▁ㅎㅜㅋㅜㅇㅗㅋㅏ -5074
▁ㄱㅐㅅㅓㅇ -5075
▁ㅇㅏㅇㅜㅅ -5076
▁ㄱㅐㅂㅏㅇ -5077
▁ㅍㅣㄹㄷㅡ -5078
▁ㄲㅔ -5079
▁700 -5080
▁ㅌㅣㄱ -5081
▁ㅅㅏㅁㅜㅅㅣㄹ -5082
▁ㅇㅡㅁㅇㅏㄱㄱㅏ -5083
▁ㅂㅏㄹㅌㅏㄱ -5084
▁ㄴㅓㅁㅇㅓㄱㅏ -5085
ㄹㅗㄴㅏ -5086
▁ㅍㅡㄹㅗㅇㅣㅅㅔㄴ -5087
ㅏㄷㅡ -5088
▁ㅇㅗㅈㅣㄱ -5089
▁ㅇㅣㄹㅊㅔ -5090
ㅊㅔㄹㅗ -5091
▁ㄱㅣㄷㅗㅇ -5092
▁ㅇㅕㄴㅅㅡㅂ -5093
▁ㄱㅐㅊㅣㅇ -5094
ㅋㅡㄹㅗ -5095
▁ㅂㅜㄷㅏㅁ -5096
ㅋㅔㄹ -5097
▁ㅈㅏㅇㅣㅇㅓㄴ -5098
ine -5099
▁ㅅㅣㅁㅍㅏㄴ -5100
▁ㅇㅟㄷㅐ -5101
▁ㅎㅜㅋㅜ -5102
▁ㅅㅔㄹㅡㅂㅣㅇㅏ -5103
▁ㄱㅗㄱㅣ -5104
ㄷㅡㄹㅗ -5105
▁1910 -5106
▁Re -5107
▁ㅅㅗㄷㅡㄱ -5108
▁ㅇㅓㄱㅈㅔ -5109
▁ㄱㅕㄹㄹㅗㄴ -5110
▁ㅇㅏㄹㄱㅗㄹㅣ -5111
▁ㅇㅣㄹㄱㅣ -5112
▁ㅇㅣㄴㅇㅝㄴ -5113
ㅎㅏㅇㅕ -5114
▁ㅍㅡㄹㅐㅇ -5115
▁ㅅㅡㅌㅣㅂㅡㄴ -5116
▁ㅈㅓㄴㅂㅜㄱ -5117
ㅏㄴㅅㅐㄱ -5118
▁ㅂㅓㅈㅣㄴ -5119
▁ㅇㅛㄱㅡㅁ -5120
▁ㅊㅓㅂㅜㄴ -5121
▁ㄱㅏㅇㄹㅡㅇ -5122
▁ㄴㅗㅅㅡ -5123
▁ㅈㅗㅋㅏ -5124
▁ㅂㅗㄴㅁㅕㅇ -5125
ㄷㅗㄱㅂㅜ -5126
ㅕㅂㅗ -5127
▁ㅌㅐㅈㅗ -5128
▁ㄱㅓㅁㅌㅗ -5129
▁ㄱㅣㅁㅈㅗㅇ -5130
▁ㅅㅏㄱㅕㄱ -5131
▁ㅅㅓㄹㄷㅡㄱ -5132
ㅌㅗㅅㅡ -5133
▁ㅋㅜㄷㅔㅌㅏ -5134
▁ㅈㅓㄴㄷㅏㅇ -5135
▁ㄴㅏㅁㅇㅏㅍㅡㄹㅣㅋㅏ -5136
▁ㅅㅗㅁㅕㄹ -5137
▁ㅋㅜㅇ -5138
▁ㄷㅗㅁㅗ -5139
ew -5140
▁=" -5141
▁;, -5142
▁ㄷㅗㅇㅂㅜㄱ -5143
▁ㅇㅏㅌㅡ -5144
ㅗㅅㅏㄴ -5145
▁ㅈㅓㅇㅅㅜ -5146
▁ㄱㅜㅇㅈㅓㄴ -5147
▁ㅋㅙ -5148
ㅅㅡㅌㅗㄴ -5149
▁ㅍㅓㄹ -5150
▁1957 -5151
▁ㅌㅗㅇㅛ -5152
▁ㅍㅗㄱㄱㅕㄱ -5153
ㄲㅏㄹ -5154
ㄹㅣㅅ -5155
▁ㅇㅏㄹㄱㅗㄹㅣㅈㅡㅁ -5156
▁ㅎㅓㄹㅣ -5157
▁ㅊㅏㅇㄷㅏㅇ -5158
▁ㅅㅣㅁㅈㅣㅇㅓ -5159
▁ㅈㅓㄴㅅㅗㅇ -5160
▁ㄹㅐㄴㄷㅡ -5161
▁ㅁㅔㅇㅣㅈㅣ -5162
▁ㅈㅐㄱㅅㅡㄴ -5163
▁ㅇㅡㅁㅅㅓㅇ -5164
▁ㅊㅐㅁㅍㅣㅇㅓㄴㅅㅣㅂ -5165
▁ㅇㅓㄹㅕㅇㅜㅁ -5166
▁ㅌㅗㄹㅗㄴㅌㅗ -5167
▁1914 -5168
▁ㅂㅜㄴㄴㅗ -5169
▁ㅍㅡㄹㅏㅇㅣ -5170
▁ㅇㅣㅁㅕㅇ -5171
ㅁㅜㄹㅏ -5172
▁69 -5173
▁ㄱㅜㅇㅣㅂ -5174
▁ㅎㅡㄴㅎㅏ -5175
▁ㅍㅗㅅㅡㅌㅡ -5176
ㅅㅔㅇㅣ -5177
▁ㅅㅏㄷㅗ -5178
▁ㅍㅡㄹㅣㄷㅡㄹㅣㅎㅣ -5179
ㅣㅌㅡ -5180
ue -5181
▁ㅌㅔㅇㅣㄹ -5182
ㅌㅣㅅㅡ -5183
▁ㅂㅣㅈ -5184
▁ㄱㅏㅁㅏ -5185
▁ㅂㅏㄹㅁㅕㅇ -5186
▁ㅋㅗㄴㅌㅔㄴㅊㅡ -5187
▁97 -5188
▁ㄷㅐㅊㅔㄹㅗ -5189
▁ㄴㅏㅃㅡ -5190
▁ㄱㅓㅁㅅㅐㄱ -5191
▁ㅅㅏㅇㅅㅗㄱ -5192
▁ㅇㅝㄴㅈㅜㅁㅣㄴ -5193
ㅅㅡㅌㅡㄹㅏ -5194
▁ㅌㅏㅇㅣㄱ -5195
▁ㅍㅗㅋㅔㅅㅁㅗㄴ -5196
▁ㅅㅣㄴㅈㅏㅇ -5197
▁ㅌㅔㅁㅏ -5198
▁1900 -5199
▁ㅌㅡㄹㅗ -5200
▁ㅁㅣㅅㅜㄹㄱㅘㄴ -5201
▁ㄱㅣㅍㅇㅣ -5202
ㄷㅏㅇㅣ -5203
▁ㅎㅠㄷㅐ -5204
▁ㅈㅣㄴㅇㅕㅇ -5205
▁ㅈㅡㄱㅅㅣ -5206
▁ㄱㅡㅇㅈㅓㅇ -5207
▁ㅅㅏㅁㅏㄱ -5208
▁ㅇㅏㅍㅡㄱㅏㄴ -5209
▁ㄹㅜㄱ -5210
▁92 -5211
▁ㅊㅗㅈㅓㅁ -5212
▁ㅈㅏㄴㅡㄴ -5213
EC -5214
▁ㅊㅜㅂㅏㅇ -5215
ㅅㅣㅅㅡㅋㅗ -5216
▁ㅍㅣㄹㅅㅜ -5217
ㅣㅇㅏㄴ -5218
▁ㅅㅡㅁㅣㅅㅡ -5219
ㅋㅔㄴ -5220
▁ㄱㅗㄹㅡ -5221
▁ㅁㅏㄱㄷㅐ -5222
▁ㅂㅜㄹㄱㅏㄹ -5223
▁ㄷㅐㅊㅐㄱ -5224
▁ㅎㅣㅌㅡㄹㄹㅓ -5225
▁ㅍㅣㅌㅓ -5226
▁01 -5227
▁ㄱㅘㅇㅂㅓㅁ -5228
▁ㄷㅜㄴ -5229
▁ㅍㅓㅇ -5230
▁1938 -5231
▁ㅅㅓㄱㅅㅏ -5232
▁HD -5233
ㅇㅝㄴㄱㅕㅇ -5234
▁ㅂㅐㅍㅗ -5235
▁DVD -5236
▁ㅇㅞㅇㅣㄹ -5237
▁ㄷㅏㄱ -5238
▁ㄷㅏㅁㄱㅣ -5239
▁ㅇㅣㄴㄷㅣㅇㅓㄴ -5240
▁ㅈㅏㄱㅜㄱ -5241
▁ㅂㅜㄹㅇㅏㄴ -5242
ㅗㅅㅔㅅㅓ -5243
▁ㅍㅜㅅ -5244
ㄱㅛㅇ -5245
▁ㅅㅓㄴㅎㅕㅇ -5246
▁{ -5247
ㄹㅠㅁ -5248
▁ㅌㅣㄹ -5249
▁ㅍㅗㅅㅡ -5250
▁ㅅㅏㅇㅜㅅㅡ -5251
▁ㅎㅏㄱㅅㅏ -5252
ㅊㅗㅇㄷㅗㄱㅂㅜ -5253
▁ㅈㅗㅅㅓㄴㅊㅗㅇㄷㅗㄱㅂㅜ -5254
▁ㄹㅔㅅㅡ -5255
▁ㅇㅏㅁㅣ -5256
▁101 -5257
▁ㅎㅏㅅ -5258
▁ㅊㅓㄴㅁㅏㄴ -5259
▁ㅍㅏㄹㅡ -5260
▁ㅅㅣㄴㅐㅂㅓㅅㅡ -5261
▁ㅈㅐㅈㅡ -5262
▁ㅇㅕㄴㅍㅕㅇ -5263
▁ㄹㅣㅂㅓ -5264
▁ㅈㅜㅅㅗ -5265
▁ㅉㅏㄱ -5266
ㅈㅏㅋㅣ -5267
▁ㄷㅜㅇㄱㅡㄹ -5268
▁ㅇㅓㅂㅈㅓㄱ -5269
▁ㅎㅗㅅㅗ -5270
ㄷㅏㄱ -5271
▁ㅇㅕㄴㅅㅓㄹ -5272
ㅂㅣㅎㅣ -5273
ㅗㅌㅗ -5274
▁ㅂㅜㅇㅟ -5275
▁ㅅㅓㅅㅜㄹ -5276
▁ㅅㅔㅌㅡ -5277
ㅗㄴㅣ -5278
▁ㅅㅠㄹ -5279
▁ㄴㅡㄹㄹㅣ -5280
▁ㅅㅓㄹㅊㅣㄹㅠ -5281
BM -5282
▁ㅎㅜㅇㅣㅁ -5283
▁ㄹㅣㄷㅡ -5284
▁ㅇㅠㅅㅏㄴ -5285
▁ㅇㅟㅇ -5286
▁ㄴㅔㄱ -5287
▁ㅇㅕㅇㅇㅑㅇ -5288
ㄷㅔㅇㅣ -5289
ㅌㅜㅅㅡ -5290
▁ㅇㅣㄴㅐ -5291
▁ㅌㅡㄹㅏ -5292
▁ㅅㅔㅂㅜ -5293
▁ㅍㅣㅂㅜ -5294
▁ㅅㅜㅇㅓㅂ -5295
▁ㅂㅏㄹㅡㅅㅔㄹ -5296
▁ㅂㅏㄹㅡㅅㅔㄹㄹㅗㄴㅏ -5297
▁on -5298
▁1918 -5299
ㅊㅗㅇㄹㅣ -5300
▁ㅅㅏㄱㅘ -5301
▁ㅂㅜㄷㅗㅇ -5302
▁ㅈㅣㄴㄱㅕㄱ -5303
▁ㄷㅡㅇㅈㅏㅇㅇㅣㄴㅁㅜㄹ -5304
▁ㄹㅏㅌㅣㄴㅇㅓ -5305
▁ㅇㅕㄴㄹㅏㄱ -5306
▁ㄴㅣㅇ -5307
▁ㄴㅡㄲㅣㅁ -5308
ㄷㅐㅇㅣㄴ -5309
▁ㅁㅣㅆㅡ -5310
▁ㅂㅜㄴㄱㅛ -5311
▁1951 -5312
▁ㅈㅏㅂㅎㅣ -5313
ㅂㅏㄹㅗ -5314
▁ㄷㅏㅅㅡㄹㅣ -5315
▁1932 -5316
▁ㅅㅡㅍㅡㄹㅣㅇ -5317
ect -5318
▁ㅎㅘㄴㅅㅡㅇ -5319
ㅅㅔㅍㅗ -5320
▁ㄱㅐㄹㅑㅇ -5321
▁ㅅㅣㄴㄷㅗ -5322
ㅜㅇㅏ -5323
ㅔㅇㅗ -5324
ㅅㅏㄴㅎㅘ -5325
▁ㅇㅏㅁㅋㅓㅅ -5326
ㅐㄴㅏ -5327
▁ㅈㅓㅈㅏ -5328
▁ㄹㅕㅁㅕㄴ -5329
▁ㅂㅏㅇㅇㅓㄴ -5330
ㅂㅐㅇ -5331
▁ㅁㅏㅅㅡㅌㅓ -5332
▁ㅇㅜㄴㅎㅏㅇ -5333
▁ㅈㅓㅇㄱㅛㅎㅚ -5334
ㅈㅔㄱㅜㄱ -5335
▁ㄷㅡㄹㅐㄱ -5336
▁ㄴㅡㄱ -5337
▁ㅁㅏㅌㅣㄴ -5338
▁ㅊㅚㅇㅜ -5339
ㅓㄷ -5340
ㄷㅏㄹㅏㅎ -5341
ㅅㅏㅈㅓㄴ -5342
▁ㄷㅐㅁㅏㄴ -5343
▁ㅋㅗㄹㅣㅇㅏ -5344
▁ㄱㅜㄱㅈㅓㄱ -5345
▁ㄱㅣㄷㅏㄹㅣ -5346
▁ㅎㅘㄹㅕ -5347
▁ㄱㅏㄱㄱㅜㄱ -5348
▁ㄱㅖㄱㅗㄱ -5349
▁ㄷㅗㅇㅎㅐ -5350
▁ㄱㅡㅂㄱㅕㄱ -5351
▁89 -5352
ㅈㅜㄱㅜㄱ -5353
▁ㅇㅛㅇㅇㅣㄴ -5354
▁ㄱㅗㄱㅡㅂ -5355
▁ㅅㅏㅇㅇㅣㄴ -5356
▁ㄸㅗㄱ -5357
▁ㅈㅓㄴㅅㅜㄹ -5358
ㅃㅏ -5359
▁ㄹㅔㅇㅗㄴ -5360
▁ㅇㅓㄴㅅㅡ -5361
▁ㄱㅗㅁ -5362
▁ㅁㅣㄹㅣ -5363
▁1937 -5364
▁ㅌㅣㄴ -5365
▁ㅅㅜㅁㄱㅣ -5366
ㅈㅣㅅㅏ -5367
▁ㅅㅣㅇㅇㅓ -5368
▁ㅇㅜㅋㅡㄹㅏ -5369
▁ㅎㅢㄴㅅㅐㄱ -5370
▁ㅎㅘㅅㅓㄱ -5371
ㄹㅔㅁ -5372
▁ㅈㅗㅊㅏ -5373
ㅕㅂㅏㄷ -5374
▁ㅅㅣㅁㅏ -5375
▁ㅁㅏㄴㄷㅡㄴ -5376
▁ㅅㅗㅎㅕㅇ -5377
▁ㅇㅓㄷㅜ -5378
▁ㅂㅓㄴㅈㅣ -5379
▁ㅇㅣㄹㄹㅕㄴ -5380
▁ㅅㅗㅂㅣㅈㅏ -5381
▁ㅅㅣㄴㅅㅏ -5382
▁ㅇㅘㄴㅂㅕㄱ -5383
ㄱㅘㄱ -5384
ㅁㅏㄴㅏ -5385
ㅜㄴㅌㅡ -5386
▁ㄹㅗㄹㅔㄴ -5387
▁ㅎㅏㅇㅕㄱ -5388
▁1935 -5389
▁182 -5390
▁ㄹㅐㅂ -5391
▁ㄱㅗㅇㅟ -5392
▁ㄴㅗㄹㅡ -5393
▁ㅅㅣㄹㅊㅓㄴ -5394
▁ㄱㅗㅇㅑㅇㅇㅣ -5395
ㅅㅜㅁ -5396
▁ㅁㅏㄹㄹㅣ -5397
▁ㄱㅜㅅㅏㅇ -5398
▁ㅅㅏㅊㅏㄹ -5399
ㅏㅌㅏ -5400
ㅡㄹㄹㅏ -5401
▁ㄹㅓㅆㄷㅏ -5402
ㅍㅣㄹㄷㅡ -5403
▁ㅂㅐㄱㅇㅣㄴ -5404
▁ㄱㅗㄱㅐㄱ -5405
▁ㅃㅐ -5406
▁ㄷㅡㄹㅓㅁ -5407
▁ㅅㅏㅌㅚ -5408
▁ㅊㅣㅇㅎㅗ -5409
▁ㅂㅜㅊㅣㄴ -5410
ㄲㅡㄹ -5411
▁ㅇㅠㅎㅛ -5412
▁ㅁㅜㄹㄱㅓㄴ -5413
▁ㅇㅏㅇㅣㅅㅡ -5414
▁ㅅㅗㄴㅅㅣㄹ -5415
▁Be -5416
▁ㄱㅕㅇㅈㅔㅎㅏㄱ -5417
▁93 -5418
ㄷㅏㄴㅣ -5419
▁ㄷㅗㄱㅈㅐ -5420
▁ㅈㅣㄴㅎㅏㄱ -5421
▁ㅁㅟㄴㅎㅔㄴ -5422
▁ㅇㅣㅇㅘ -5423
▁ㅅㅕ -5424
▁ㄱㅔㄷㅏㄱㅏ -5425
▁ㅌㅏㅇㅠㄹ -5426
▁ㅅㅔㄱㅡㅁ -5427
▁ㄱㅘㅇㅂㅓㅁㅇㅟ -5428
▁ㄴㅐㄴㅗㅎ -5429
ㅁㅜㄴㅢ -5430
▁ㅂㅣㅎㅐㅇㄱㅣ -5431
ㅌㅗㅂ -5432
▁ㅈㅗㅈㅣㅇㅏ -5433
▁ㅇㅗㄹㅅㅡㅌㅏ -5434
ㅁㅣㄴㅈㅜㄷㅏㅇ -5435
ㅌㅜㅇㅏㄴ -5436
ㄷㅗㅇㅅㅐㅇ -5437
▁ㅅㅣㄹㅇㅓㅂ -5438
▁ㄹㅜㅁㅏㄴㅣㅇㅏ -5439
▁ㅈㅜㅊㅔ -5440
▁ㅈㅣㄹㅁㅜㄴ -5441
▁ㄱㅗㅇㅅㅣㄴ -5442
▁ㅂㅏㄹㄱㅏㄴ -5443
ㄹㅠㄴ -5444
ㅣㅇㅗㅅㅡ -5445
▁FM -5446
ore -5447
▁ㅇㅣㅇㅜㅅ -5448
▁ㅁㅗㄱㅅㅓㅇ -5449
▁ㅎㅚㄹㅗ -5450
▁ㅎㅏㅇㄱㅗㅇㅅㅏ -5451
▁ㅅㅓㄴㅍㅗ -5452
▁ㅎㅘㅈㅔ -5453
▁ㅈㅣㅂㅎㅚ -5454
IN -5455
▁ㅇㅠㅌ -5456
▁ㄷㅚㄷㅗㄹ -5457
▁ㅁㅕㄴㅇㅕㄱ -5458
▁ㅎㅜㄱㅖㅈㅏ -5459
▁ㄱㅗㄱㅅㅓㄴ -5460
▁ㅊㅔㅎㅓㅁ -5461
ㅌㅗㄹㅣㅇㅏ -5462
▁ㄹㅛ -5463
▁ㄱㅐㅂㅕㄹ -5464
▁ㅈㅏㅁㅅㅜㅎㅏㅁ -5465
▁ㅊㅏㄷㅏㄴ -5466
▁ㅅㅏㅇㄷㅐㅅㅣㄱ -5467
▁ㄱㅓㅌ -5468
▁ㅅㅐㅇㅌㅐ -5469
▁ㅍㅏㅇㅣㄴ -5470
▁ㄷㅏㅇㅣㅁ -5471
▁ㅅㅓㅇㄴㅏㅁ -5472
▁ㅎㅓㅅ -5473
▁OS -5474
ㅇㅣㅊㅣ -5475
▁ㅈㅐㄱㅐ -5476
▁ㅁㅏㄹㅡㅋㅡㅅㅡ -5477
▁ㅂㅔㄹㅣ -5478
▁ㅊㅏㄴㅅㅓㅇ -5479
▁ㅇㅑㅇㅅㅏㄴ -5480
▁ㅍㅡㄹㅏㅇㅅㅡㄱㅜㄴ -5481
▁ㅌㅐㅈㅗㅇ -5482
▁ㄷㅗㅇㄱㅜㄹ -5483
ㅅㅠㅌㅏㅇㅣㄴ -5484
▁ㅂㅜㄴㅎㅘ -5485
▁ㅋㅡㄹㅣ -5486
▁ㅇㅣㅈㅏ -5487
▁ㅂㅓㅂㅎㅏㄱ -5488
ㅌㅜㄴ -5489
▁ㅅㅏㅇㅅㅜ -5490
▁ㄱㅕㄱㅍㅏ -5491
ㅜㄹㅡㅌㅡ -5492
▁ㄹㅜㅅㅡ -5493
▁ㄱㅏㅁㄱㅏㄱ -5494
ㄱㅗㄴ -5495
▁ㄱㅗㅅㅣ -5496
▁ㅈㅏㅅㅏㄴ -5497
ㅏㄱㅏㅇㅘ -5498
▁ㅋㅡㄹㄹㅐㅅㅣㄱ -5499
ㅂㅐㅁ -5500
▁ㅇㅖㅂㅣ -5501
our -5502
▁94 -5503
▁ㅇㅜㅅ -5504
▁1928 -5505
▁ㅇㅕㅇㅈㅜ -5506
▁1933 -5507
▁ㄷㅐㅇㅜ -5508
▁ㅇㅢㅁㅜㄴ -5509
▁ㅁㅜㄹㄱㅗㄱㅣ -5510
▁ㅎㅓㅂ -5511
▁ㅇㅑㅇㄱㅜㄱ -5512
▁ㄱㅏㅂㅈㅏㄱㅣ -5513
▁ㅊㅣㄱ -5514
ㄷㅗㅅㅏ -5515
ㅎㅜㄱ -5516
▁ㅅㅜㅂㅐㄱ -5517
▁ㄱㅓㅈㅣㅅ -5518
▁ㅊㅜㄱㅣㄱㅕㅇ -5519
▁ㅌㅡㄹㅔㅇㅣㄷㅡ -5520
▁ㅅㅏㄱㅣ -5521
▁ㅅㅡㅌㅗㄴ -5522
ㅂㅗㅅ -5523
▁ㅌㅏㄴㅇㅏㅂ -5524
▁ㄴㅣㄹ -5525
▁ㅅㅜㅊㅣ -5526
▁ㅍㅡㄹㅗㄱㅡㄹㅐㅁㅣㅇ -5527
▁CP -5528
▁ㅇㅕㅇㅇㅝㄴ -5529
▁ㄱㅐㅁㅕㅇ -5530
▁ㄷㅗㅇㄱㅕㅇ -5531
▁ㅎㅘㅍㅖ -5532
ㅈㅗㅅㅓㄴ -5533
▁ㄷㅏㅇㅇㅝㄴ -5534
▁ㅅㅏㅇㅈㅜ -5535
▁ㄱㅏㅇㄴㅏㅁ -5536
▁ㅊㅗㄱㅈㅣㄴ -5537
▁ㅎㅏㅇㅇㅢ -5538
ㅗㄹㄹㅗ -5539
▁ㅅㅡㅋㅡㄹㅣㄴ -5540
▁ㅇㅠㅂㅐ -5541
▁ㄱㅜㅁㅓㅇ -5542
▁ㅇㅣㅎㅐㅇ -5543
ㅇㅜㄷㅡ -5544
▁ㄱㅐㄹㄹㅓㄱ -5545
▁ㅁㅜㄲ -5546
▁ㅈㅣㅅㅜ -5547
▁1924 -5548
ㅗㅅㅗ -5549
▁ㄲㅜㅈㅜㄴ -5550
end -5551
ㅅㅡㅌㅣㄱ -5552
▁ㅊㅚㅎㅜ -5553
▁ㄱㅐㅊㅓㄱ -5554
▁ㅇㅕㅇㄱㅜ -5555
▁ㅂㅜㄹㄱㅏㄹㅣㅇㅏ -5556
▁ㄱㅏㅅㅗㄱ -5557
▁ㅂㅡㄹㅏ -5558
▁ㄷㅐㅊㅣㅇ -5559
▁ㅇㅏㅌㅣㅅㅡㅌㅡ -5560
ell -5561
▁ㄱㅐㅈㅏㅇ -5562
▁ㅈㅗㅎㅏㅇ -5563
▁79 -5564
▁ㅇㅡ -5565
▁ㄸㅏㅇㅗ -5566
▁ㅇㅣㄴㅕㅁ -5567
▁ㅅㅏㅇㅑㅇ -5568
▁ㅅㅣㅅㅣㄴ -5569
▁ㅎㅚㅅㅐㄱ -5570
▁ㄸㅓㅇ -5571
▁ㄷㅔㄹㅣ -5572
▁ㅅㅗㅁㅜㄴ -5573
▁ㅊㅣㄹㄹㅔ -5574
ㅐㅁㅐ -5575
▁ㄷㅗㅇㅎㅘ -5576
ㅁㅣㅇㅑ -5577
▁ㅎㅓㄹㅏㄱ -5578
▁ㅈㅣㄹㅅㅓ -5579
▁ㅅㅜㅅㅣㅂ -5580
▁ㅈㅜㄴㅣㅇㅓ -5581
▁110 -5582
▁ㄱㅐㅊㅏㄹ -5583
▁ㅈㅔㄹ -5584
▁ㅇㅝㄴㅅㅣ -5585
▁09 -5586
▁ㅂㅗㅍㅕㄴ -5587
▁ㅇㅕㄹㅁㅐ -5588
▁ㅈㅓㅇㄹㅠ -5589
▁04 -5590
▁ㅈㅡㅇㅇㅓㄴ -5591
▁ㄱㅡㄱㄷㅏㄴ -5592
▁ㅅㅡㅂㄱㅕㄱ -5593
▁ㅅㅗㅎㅘ -5594
▁ㅌㅗㅊㅏㄱ -5595
▁ㅇㅛㅇㄷㅗ -5596
▁ㅅㅡㅋㅔㅇㅣ -5597
▁ㅍㅡㄹㄹㅗㄹㅣ -5598
ain -5599
▁ㅇㅓㄷㅜㅂ -5600
▁ㅅㅓㄴㅎㅗ -5601
▁ㅋㅗㄹㄹㅗㅁ -5602
▁ㅅㅔㄹㅡ -5603
▁ㅅㅗㅈㅣㅂ -5604
▁ㄷㅓㅅㅂㅜㅌㅇㅣ -5605
▁ㄷㅐㅂㅓㅂㅇㅝㄴ -5606
ㅗㅇㅓ -5607
▁ㅇㅜㄴㅅㅗㅇ -5608
▁ㅇㅣㄱㅅㅡ -5609
ㅜㄱㅏㅇㅘ -5610
▁ㅇㅝㄴㅈㅏㄹㅕㄱ -5611
ㅈㅓㅅㅡ -5612
ㅅㅔㅂ -5613
▁ㅊㅜㄱㅅㅗ -5614
▁ㅅㅗㅇㅟ -5615
▁ㅇㅠㅊㅣ -5616
▁ㄱㅓㄷ -5617
▁ㄴㅜㅅㅡ -5618
▁ㅋㅓㅂㅓ -5619
▁ㅈㅓㄴㅈㅓㄱ -5620
▁ㅈㅓㅇㅁㅕㄴ -5621
▁ㅌㅏㄴㅎㅐㄱ -5622
ㅂㅏㅋㅣㅇㅏ -5623
▁ㅇㅢㅈㅓㅇㅂㅜ -5624
▁ㅇㅣㅂㄷㅐ -5625
▁ㄱㅣㅁㄷㅐ -5626
▁ㅍㅡㄹㅗㅌㅗ -5627
▁ㄹㅔㅇㅗ -5628
ㄱㅔㄴ -5629
ㄷㅏㅅㅜ -5630
▁08 -5631
▁ㄷㅐㄴㅅㅡ -5632
ㅆㅏㅇㅣ -5633
▁ㄷㅏㄱㅌㅓ -5634
▁ㅅㅏㄷㅏㅇ -5635
▁ㅈㅜㅇㅣㄹ -5636
ㅔㄹㄹㅣ -5637
ㅇㅘㄴ -5638
ㅇㅏㅇㅓ -5639
▁ㅈㅣㅂㅜㄹ -5640
ㅜㄹㄹㅣ -5641
ers -5642
▁ㅈㅏㅂㅗㄴㅈㅜㅇㅢ -5643
▁ㅈㅓㄴㅁㅏㅇ -5644
ill -5645
▁ㄹㅏㅅㅡ -5646
▁ㅂㅗㅅㅡ -5647
▁ㅎㅔㄹㅡ -5648
▁ㄱㅜㄹㅡㅁ -5649
ㅏㅇㅣㅌㅡ -5650
▁ㅎㅗㄴㅈㅏ -5651
ID -5652
▁ㄷㅐㄱㅜㄱ -5653
▁ㅂㅕㅅㅡㄹ -5654
▁ㄴㅐㅅㅔㅇㅜ -5655
▁83 -5656
▁170 -5657
ㅣㅇㅜㅅㅡ -5658
ㅂㅡㄴ -5659
▁ㅊㅗㅅㅏㅇ -5660
▁Co -5661
▁ㄷㅐㅅㅡㅇ -5662
▁ㅍㅏㅋㅣㅅㅡㅌㅏㄴ -5663
▁ㅍㅠ -5664
▁ㅎㅕㅇㅅㅏㅇ -5665
▁ㅇㅓㅇㅛ -5666
▁ㅍㅡㄹㅏㅇㅅㅡㅇㅓ -5667
ㅍㅔㅇㅣㅅㅡ -5668
▁ㅍㅕㅇㅁㅕㄴ -5669
ard -5670
ㅌㅡㄴㅓ -5671
▁ㅈㅐㄴㅡㅇ -5672
▁ㅃㅓㄷ -5673
▁ㄱㅣㅇㅔ -5674
▁ㅁㅐㅊㅣ -5675
▁ㅇㅐㄱㅊㅔ -5676
▁ㅅㅜㅋㅓㅅ -5677
▁ㅅㅔㅇㅝㄹ -5678
▁ㅈㅣㅈㅜㅇ -5679
▁ㅁㅔㅌㅏㄹ -5680
▁ㅎㅏㅂㄷㅗㅇ -5681
ㅇㅣㅍ -5682
▁ㅈㅐㅅㅐㅇ -5683
▁ㅈㅣㅍㅛ -5684
ㅂㅜㅇㅣㄴ -5685
▁ㅍㅓㄴ -5686
ㅋㅗㅍㅡ -5687
▁ㄱㅏㄴㅂㅜ -5688
▁ㅂㅜㅅㅗㄱ -5689
▁ㅃㅕ -5690
▁ㅈㅓㅇㅌㅗㅇ -5691
▁ㅎㅣㅂㅎㅏㅂ -5692
▁ㅎㅏㄷㅡ -5693
▁ㅅㅓㄴㄹㅗ -5694
▁ㅎㅏㅇㅕㄱㅡㅁ -5695
▁ㅂㅣㅈㅏㄴ -5696
▁ㅌㅗㅁㅏㅅㅡ -5697
▁ㅎㅏㅁㄱㅕㅇ -5698
▁ㄱㅕㅇㅊㅏㄹㅅㅓ -5699
AN -5700
▁ㅎㅏㄹㅇㅏㅂㅓㅈㅣ -5701
▁ㅎㅡㄴㅈㅓㄱ -5702
ㅍㅡㄹㄹㅔㅇㅣ -5703
▁ㅁㅜㅇㅛㅇ -5704
ㅡㄹㅡ -5705
▁ㅌㅡㅁ -5706
▁ㅈㅜㅁㅜㄴ -5707
▁MS -5708
ㄲㅓㅂ -5709
▁ㅃㅏㅇ -5710
▁ㄷㅣㅇㅏ -5711
▁ㅌㅗㄷㅐ -5712
▁ㅁㅜㄴㅓㅈㅣ -5713
▁ㅅㅔㄹㅗ -5714
ㅍㅐㄱ -5715
▁ㅁㅔㅌㅡㄹㅗ -5716
▁ㅊㅜㅇㅂㅜㄴㅎㅣ -5717
ㄹㅏㅅㅡ -5718
▁ㄱㅜㄱㅌㅗ -5719
▁ㅇㅏㄴㅉㅗㄱ -5720
▁ㄴㅏㅁㄱㅡㄱ -5721
▁ㄴㅗㅌㅡ -5722
▁ㄷㅏㅇㅅㅣㄴ -5723
▁ㅇㅛㅋㅗㅎㅏㅁㅏ -5724
ㅊㅏㄹㅗ -5725
▁ㄴㅗㄹㅇㅣ -5726
▁1934 -5727
▁ㅈㅜㅇㄷㅗㅇ -5728
▁ㅇㅣㅂㅔㄴㅌㅡ -5729
▁ㅇㅗㄹㅠ -5730
▁ㄱㅜㄱㅂㅏㅇㅂㅜ -5731
▁ㅂㅗㄹㅡ -5732
▁ㅎㅐㅈㅔ -5733
▁ㅈㅣㄴㅏㅊㅣ -5734
▁De -5735
▁ㅅㅜㅈㅏㅇ -5736
▁ㄷㅏㄴㅅㅜㄴㅎㅣ -5737
▁ㅂㅐㅇㅕㄹ -5738
▁ㄹㅏㅇㅣㅍㅡ -5739
▁ㄱㅜㄷ -5740
▁ㅎㅗㅎㅡㅂ -5741
▁ㅇㅓㅉ -5742
▁ㅂㅏㄴㅎㅏ -5743
▁ㄷㅗㅇㅁㅔㄷㅏㄹ -5744
▁ㅂㅜㅅㅓ -5745
▁ㅂㅓㅂㅇㅏㄴ -5746
▁ㅇㅡㄴㅁㅔㄷㅏㄹ -5747
▁ㄱㅏㄴㅏㄴ -5748
▁ㅈㅏㄹㅏㅇ -5749
▁ㅍㅕㄴㅇㅢ -5750
▁ㅊㅣㅂ -5751
▁ㅌㅣㅂㅔㅌㅡ -5752
▁130 -5753
▁ㄱㅘㅇㅅㅏㄴ -5754
▁ㄷㅐㅅㅏㄱㅘㄴ -5755
▁ㄹㅓㅂㅡ -5756
▁ㅊㅗㅇㅈㅐ -5757
▁ㄷㅐㄷㅗㅇ -5758
▁ㅇㅏㅇㅜㄹ -5759
ㄱㅏㅄ -5760
▁ㅁㅏㅈㅜ -5761
▁ㄷㅏㅇㄷㅐ -5762
ㅆㅡㅁ -5763
▁ㅂㅏㄴㅅㅏ -5764
▁ㅁㅗㄹㄹㅣ -5765
▁ㅆㅏㅎㅇㅣ -5766
▁ㅍㅗㄷㅡ -5767
▁ㄴㅗㅇㅈㅏㅇ -5768
▁ㅍㅣㄹㄹㅣㅂ -5769
▁ㅇㅣㅂㄱㅜ -5770
▁ㅈㅓㅂㅅㅗㄱ -5771
ㅣㅇㅓㄹㅗ -5772
▁ㅈㅏㄹㅡ -5773
▁ㅍㅏㄴㅈㅓㅇ -5774
ne -5775
▁Me -5776
▁ㅂㅜㄹㄱㅏ -5777
▁ㅌㅗㅁㅓㅅㅡ -5778
▁ㅎㅏㄴㅅㅓㅇ -5779
▁ㅂㅔㄴㅔㅊㅣㅇㅏ -5780
▁ㄱㅗㄱㅛ -5781
▁ㅇㅏㅍㅡㄱㅏㄴㅣㅅㅡㅌㅏㄴ -5782
▁ㄱㅕㅇㅂㅣ -5783
▁ㅈㅏㅇㄹㅖ -5784
▁ㅇㅓㅁㄱㅕㄱ -5785
▁ㅅㅏㅁㅏㅇㅈㅏ -5786
▁ㅓㅆ -5787
▁ㅋㅗㅇㅓ -5788
▁ㅁㅔㄷㅏㄹ -5789
▁ㅈㅗㄴㅅㅡ -5790
ㅌㅔㅅㅡ -5791
▁ㅁㅐㅈㅜ -5792
▁ㅊㅜㅈㅓㄱ -5793
▁ㅈㅣㄴㅅㅣㄹ -5794
ㅍㅡㄹㅗ -5795
▁ㄴㅡㄹㅣ -5796
▁ㅁㅏㄱㅏㅁ -5797
▁ㅎㅕㄴㅈㅗㄴ -5798
ㅇㅏㅈㅣ -5799
▁ㅅㅓㅇㅅㅓ -5800
▁ㅍㅏㄹㄹㅔ -5801
▁ㅎㅣㅇㅓㄹㅗ -5802
▁ㄷㅗㅋㅜㄱㅏㅇㅘ -5803
▁th -5804
▁140 -5805
▁ㅂㅗㅅㅡㅌㅓㄴ -5806
▁ㅂㅣㅌㅡㄹ -5807
ㅡㄴㅂㅏ -5808
▁ㅈㅣㄱㅁㅜ -5809
▁ㅎㅕㄹㅇㅐㄱ -5810
▁ㄴㅗㄷㅗㅇㄷㅏㅇ -5811
▁ㅇㅣㄹㅡㄴㅂㅏ -5812
ㄴㅗㅇ -5813
▁ㅅㅓㅂㅏㅇ -5814
OR -5815
▁Sh -5816
ㅔㄴㅗ -5817
▁ㄱㅡㄹㅣㅎㅏㅇㅕ -5818
▁ㅋㅡㄹㅜ -5819
ㅂㅏㅂ -5820
▁ㅅㅓㄴㅁㅜㄹ -5821
▁ㅈㅜㅇㅈㅣ -5822
▁ㄱㅡㄴㅇㅠㄱ -5823
▁ㅋㅏㄹㄹㅣㅈㅣ -5824
▁cod -5825
▁ㅎㅣㄱㅏ -5826
▁ㅁㅜㄹㅕㄱ -5827
▁ㅇㅗㄹㄹㅣㅂ -5828
▁ㅋㅏㄹㅡㄹㄹㅗ -5829
▁ㄱㅓㅈㅓㅁ -5830
▁ㅈㅓㄴㅈㅔ -5831
▁ㄱㅗㄴㅊㅜㅇ -5832
▁ㅈㅜㅇㅅㅓㅇ -5833
ㅋㅜㄹ -5834
▁ㅂㅜㄱㅁㅣ -5835
▁ㅈㅓㅇㅎㅘㄱㅎㅣ -5836
ㅗㅇㅑ -5837
▁ㅊㅏㅈㅇㅏㄱㅏ -5838
▁ㅂㅏㄹㅈㅓㄴㅅㅗ -5839
▁ㅍㅜㄹㅡ -5840
▁ㅇㅠㅂㅏㄹ -5841
▁ㅈㅜㅈㅐ -5842
▁ㄹㅔㄴㅣㄴ -5843
▁ㅌㅜㅅㅡ -5844
▁ㅁㅏㅌㄱㅣ -5845
ㅅㅔㄷㅐ -5846
▁ㅎㅘㅎㅏㅂㅁㅜㄹ -5847
ㅣㅌㅓ -5848
▁ㅅㅣㄱㅖ -5849
▁ㅈㅜㅇㄱㅖ -5850
▁ㅎㅏㅇㅑ -5851
▁ㄱㅓㄴㅡㄹㅣ -5852
▁ㅂㅗㅇㄱㅣ -5853
▁ㄴㅏㅋㅏ -5854
ㅔㅇㅏ -5855
▁ㅍㅔㄹㅣ -5856
▁ㄱㅏㅂㅕㅂ -5857
▁ㅁㅏㅅㅏㄴ -5858
▁ㅊㅔㅇㅠㄱㄱㅘㄴ -5859
ㄷㅜㄹ -5860
ㅉㅏㄱ -5861
▁1931 -5862
▁ST -5863
▁ㅁㅕㄹㅈㅗㅇ -5864
▁ㅂㅜㅊㅓ -5865
▁ㅈㅐㅍㅏㄴㅅㅗ -5866
▁ㄱㅏㅇㄷㅡㅇ -5867
▁ㅅㅐㄲㅣ -5868
ㄷㅡㄹㄹㅣ -5869
▁ㅈㅓㅇㅈㅗ -5870
▁ㄴㅐㄹㅕㄱㅏ -5871
ㄷㅗㄹㅍㅡ -5872
▁ㄱㅕㅇㄱㅗ -5873
▁ㅇㅣㄹㄷㅏㄴ -5874
▁ㅌㅠ -5875
ㅋㅣㅍㅓ -5876
ㄱㅏㅌ -5877
▁ㄴㅏㅁㄴㅕ -5878
▁ㅇㅣㄴㅁㅣㄴㄱㅜㄴ -5879
AM -5880
▁ㄴㅗㅂㅜ -5881
▁ㄱㅡㅁㄱㅏㅇ -5882
▁ㄱㅗㄹㅋㅣㅍㅓ -5883
▁ㅊㅓㄹㅎㅏㄱㅈㅏ -5884
▁ㄸㅔ -5885
▁ㅇㅣㅅㅡ -5886
▁ㅂㅜㄴㅅㅏㄴ -5887
▁ㄷㅗㅇㅈㅣ -5888
▁ㅈㅣㄴㄷㅗㅇ -5889
▁ㄱㅡㄹㅣㅅㅡㅇㅓ -5890
▁ㅌㅏㅅ -5891
▁ㅂㅗㄴㅌㅗ -5892
▁ㅇㅑㄱㅎㅘ -5893
▁ㅇㅣㅅㅡㅌㅡ -5894
▁ㅋㅣㅅㅡ -5895
▁ㅊㅗㅊㅓㅇ -5896
▁ㄱㅡㄹㅐㅍㅡ -5897
▁ㅍㅏㄹㅏ -5898
▁ㅈㅡㅇㄱㅝㄴ -5899
all -5900
ㅝㅎㅏ -5901
ㅅㅣㄱㅏㄴ -5902
▁ㅋㅡㄹㄹㅐㅅㅡ -5903
▁ㅌㅡㄱㅂㅕㄹㅎㅣ -5904
▁ㅈㅗㅁㅜㄴ -5905
▁ㄱㅏㄴㄱㅕㄱ -5906
ㅋㅣㅅㅡ -5907
▁ㄱㅏㅇㅇㅛ -5908
▁ㅌㅏㅇㅝㄴ -5909
▁ㅅㅗㄴㅎㅐ -5910
▁ㅈㅐㅇㅣㅁ -5911
▁ㅇㅑㅁ -5912
▁ㅎㅣㄹㅗㅅㅣㅁㅏ -5913
▁ㅂㅜㄷㅡㄹ -5914
▁ㅁㅓㅁㅊㅜ -5915
▁ㄱㅏㅇㄷㅗ -5916
▁ㄱㅗㄹㄷㅡ -5917
▁ㅎㅏㅇㅎㅐ -5918
▁ㅎㅐㅎㅕㅂ -5919
▁ㅁㅐㄴㅊㅔㅅㅡㅌㅓ -5920
▁ㄱㅡㄹㄹㅣ -5921
▁ㅂㅣㅅ -5922
▁ㅋㅜㅂㅏ -5923
ㅋㅡㄹㅐㅍㅡㅌㅡ -5924
▁ㅇㅟㅇㅏㄴ -5925
▁ㅇㅏㅇㅣㄴ -5926
▁ㄱㅓㄴㄴㅓㄱㅏ -5927
▁ㅅㅣㄱㄹㅑㅇ -5928
▁ㅇㅣㄹㄱㅗㅂ -5929
ㅘㅇㅇㅕㄱㅅㅣ -5930
▁ㄱㅜㄹㅣ -5931
▁ㅋㅐㅂ -5932
▁y -5933
▁An -5934
▁ㅈㅗㅇㅅㅏ -5935
▁ㅅㅐㅇㅇㅐ -5936
▁176 -5937
▁ㅇㅕㄴㅎㅗ -5938
▁ㅇㅗㅇㅣ -5939
▁ㅁㅕㅇㅅㅣ -5940
▁ㅈㅗㄴㅅㅡㄴ -5941
▁ㅈㅗㅇㅈㅓㄴ -5942
ang -5943
▁ㅇㅗㅇㅕㅁ -5944
ㄷㅓㅅㅡ -5945
▁ㅁㅜㄴㅢ -5946
▁ㄷㅓㅂㅡㄹ -5947
▁ㅂㅜㄹㅣ -5948
▁ㅅㅜㄱㅈㅗㅇ -5949
▁ㅅㅐㅂㅕㄱ -5950
▁ㅈㅣㅊㅣㅇ -5951
▁ㄱㅣㅅㅐㅇ -5952
▁ㅅㅡㅍㅔㄱ -5953
▁ㄱㅣㄱㅏㅂ -5954
▁ㅅㅡㅌㅏㄹㄹㅣㄴ -5955
ㅂㅣㅅㅡ -5956
▁05 -5957
▁ㅍㅏㅌㅣ -5958
▁ㅇㅕㄴㅍㅕㅇㄱㅠㄴ -5959
ㅌㅡㄴㅣ -5960
▁ㅅㅏㅇㅣㄷㅡ -5961
ㅇㅓㄴㅐ -5962
▁ㅇㅣㅈㅓㅇ -5963
▁ㄴㅗㅇㅊㅗㄴ -5964
▁ㅇㅜㄴㄷㅗㅇㄱㅏ -5965
▁ㅅㅡㅌㅔㅇㅣㅅㅕㄴ -5966
▁1929 -5967
ㅓㅁㅓㄴㅌㅡ -5968
▁ㅁㅣㅅㅡ -5969
▁ㄱㅗㅇㄹㅛㅇ -5970
ㅌㅣㅇㅗ -5971
▁ㅇㅑㄷㅏㅇ -5972
ㅋㅣㅅ -5973
▁ㅌㅡㄹㅐㄴㅅㅡ -5974
ㅂㅗㄴㅐ -5975
▁ㅅㅗㅇㅛ -5976
▁ㅂㅜㅍㅜㅁ -5977
▁ㅈㅓㄴㅈㅏㄱ -5978
▁ㄹㅡㄴㅔ -5979
▁ㅂㅏㄹㄹㅔ -5980
▁ㅇㅣㄴㅌㅓㅍㅔㅇㅣㅅㅡ -5981
▁1921 -5982
▁ㅎㅟㅎㅏ -5983
▁ㄷㅗㄱㅈㅓㅁ -5984
ㄹㅓㄹ -5985
▁ㅂㅜㅈㅏㄱ -5986
ㅊㅓㅁ -5987
▁ㄷㅏㄻ -5988
▁ㄱㅣㄹㅡ -5989
▁ㅇㅠㄹㅕㄱ -5990
▁ㅅㅓㄱㅂㅏㅇ -5991
ss -5992
▁ㅌㅗㄴㅓㅁㅓㄴㅌㅡ -5993
▁ㅇㅏㄴㅏ -5994
▁ㄷㅐㄷㅏㅅㅜ -5995
▁ㅁㅜㄹㄹㅣㅊㅣ -5996
▁ㄱㅐㄹㄹㅓㄱㅅㅣ -5997
▁250 -5998
ㅜㄹㅕㅅ -5999
▁ㅅㅔㅈㅏ -6000
▁ㄸㅜㄹㅕㅅ -6001
▁ㄱㅘㅇㅣㄹ -6002
▁ㄷㅏㄴㅅㅓㄴ -6003
ㅁㅜㄱㅔ -6004
▁ㅋㅐㅁㅍㅡ -6005
▁ㅈㅣㅂㅍㅣㄹ -6006
▁ㄷㅏㄹㄹㅏㅈㅣ -6007
▁ㅁㅗㅁㅁㅜㄱㅔ -6008
▁ㄲㅜㄴ -6009
▁ㄹㅏㅇㅜ -6010
ㅠㅁㅔㄴ -6011
▁ㄱㅛㅎㅑㅇㄱㅗㄱ -6012
▁ㅎㅞ -6013
ㅈㅡㄴㅣ -6014
ㅋㅗㅂ -6015
ㄱㅗㅇㅅㅏ -6016
ㅇㅏㅇㅣㄹ -6017
▁ㅈㅏㅇㅈㅓㅁ -6018
▁ㅎㅏㅇㅘㅇㅣ -6019
▁ㄸㅏㄱ -6020
▁ㄷㅗㅎㅗ -6021
▁ㅋㅣㄴ -6022
ㅇㅏㄹㅣ -6023
▁ㄱㅣㅁㄱㅜ -6024
▁ㅅㅣㅁㄹㅣㅎㅏㄱ -6025
ㄱㅝㄹ -6026
ity -6027
▁ㅈㅘㅍㅏ -6028
▁ㅁㅣㅂㅜㄴ -6029
▁1925 -6030
▁ㅅㅜㅂㅏㄴ -6031
▁ㅅㅜㅅㅏㄴ -6032
ㅁㅓ -6033
▁ㄱㅗㅇㄱㅜㄱ -6034
▁ㅇㅠㅅㅓㅇ -6035
▁1923 -6036
ㅝㄴㄱㅜㄴ -6037
▁ㅅㅏㄱㅘㄴ -6038
▁ㅇㅣㄹㅎㅘㄴ -6039
▁ㅍㅡㄹㄹㅗㄹㅣㄷㅏ -6040
▁ㄱㅏㅁㅇㅗㄱ -6041
▁ㅂㅜㄷㅡㄹㅓㅂ -6042
▁07 -6043
▁ㅂㅏㄹㄹㅔㄴ -6044
▁ㅊㅓㄹㄱㅓ -6045
▁ㄹㅏㅇㅗ -6046
ㅅㅜㄹㅑㅇ -6047
▁ㅁㅗㄱㅍㅗ -6048
▁ㅊㅏㄱㅇㅛㅇ -6049
▁ㄱㅘㄴㄱㅖㅈㅏ -6050
▁ㄱㅣㅂㅕㅇ -6051
▁ㅈㅏㅁㅐ -6052
▁ㅋㅡㄹㅣㅁ -6053
▁ㅋㅐㄹㄹㅣㅍㅗㄴㅣㅇㅏㅈㅜ -6054
▁ㄴㅏㅋ -6055
ㅡㄴㅣㅁ -6056
▁ㄴㅡㄴㅑ -6057
▁ㅇㅠㄷㅐㅇㅣㄴ -6058
▁ㅋㅓㄷㅏㄹㅏㅎ -6059
▁ㅂㅜㄱㅇㅏㅁㅔㄹㅣㅋㅏ -6060
▁ㅇㅏㄹㄹㅔㄱㅅㅏㄴㄷㅓ -6061
▁ㄱㅡㄹㅔㅇㅣ -6062
▁ㄴㅏㅁㅇㅏㅁㅔㄹㅣㅋㅏ -6063
▁SC -6064
▁codice -6065
▁ㅅㅜㅂㅣㅅㅜ -6066
▁ㅇㅠㅂㅣ -6067
▁ㅊㅜㄷㅐ -6068
▁ㄱㅕㅁㅎㅏ -6069
▁ㄷㅏㄴㅈㅏㅇ -6070
▁ㅂㅜㄱㅅㅓㅉㅗㄱ -6071
▁ㅇㅝㄴㅈㅗ -6072
▁ㅇㅣㅈ -6073
▁ㅅㅡㅌㅡㄹㅏㅇㅣ -6074
▁ㅇㅏㅂㅊㅜㄱ -6075
ㄷㅡㄴㅣ -6076
▁ㄷㅡㄱㅍㅛ -6077
▁ㅈㅣㅎㅟㄱㅘㄴ -6078
▁ㅊㅏㅈㅇㅏㅇㅗ -6079
▁ㅈㅏㅇㅠㅈㅜㅇㅢ -6080
▁ㄱㅘㄴㄹㅣㅈㅏ -6081
▁ㅈㅏㅇㅣㅇㅓㄴㅊㅡ -6082
▁ㅇㅞㄹ -6083
ㅋㅡㄹㄹㅣㄴ -6084
▁ㅅㅏㄱㅓㄹㅣ -6085
▁ㄷㅐㅎㅏㄴㅈㅔㄱㅜㄱ -6086
▁ㅁㅜㄱㅓㅂ -6087
▁ㄱㅡㄹㅓㅁㅡㄹㅗ -6088
▁ㅇㅐㅂ -6089
▁ㅅㅡㄹㄹㅗ -6090
▁ㅈㅣㅂㅜ -6091
▁ㄱㅣㅁㅎㅐ -6092
▁ㅊㅐㅁ -6093
ㄷㅐㅁㅜㄴ -6094
▁ㅂㅜㄹㅎㅘ -6095
▁ㅌㅏㅈㅓㅁ -6096
▁ㅋㅡㄴ -6097
▁ㅇㅗㄹㄹㅏㅇㅗ -6098
▁ㄱㅓㄴㄷㅏㅁ -6099
▁ㅂㅜㄱㄱㅡㄱ -6100
▁ㅋㅣㅁ -6101
▁ㄷㅗㅇㅅㅓㅇㅇㅐ -6102
ㅇㅠㄹㅓㅂ -6103
▁ㅁㅏㅈㅓ -6104
▁ㅎㅏㄴㅡㄴㅣㅁ -6105
▁ㄱㅜㄴㅂㅜ -6106
▁ㅇㅞㅇㅣㄹㅅㅡ -6107
▁ㅅㅏㅁㄱㅏㄱㅎㅕㅇ -6108
▁AC -6109
ㅗㅍㅡ -6110
▁ㄹㅏㅌㅡ -6111
ㅎㅐㅇㅅㅓㅇ -6112
▁ㄱㅏㄲㅡㅁ -6113
▁ㄷㅐㅂㅕㄴ -6114
▁ㄱㅣㄱㅘㄴㅊㅏ -6115
ㅏㄴㄷㅡ -6116
▁ㅊㅓㅇㄷㅗㅇ -6117
▁ㅇㅔㄹㄹㅣㅈㅏㅂ -6118
▁ㅈㅣㄴㅎㅡㅇ -6119
ㅌㅔㅁ -6120
ff -6121
▁ㄴㅡㄱㄷㅐ -6122
▁ㅇㅕㄴㄱㅖ -6123
▁ㅇㅠㄴㄹㅣ -6124
▁ㅎㅕㅂㅇㅑㄱ -6125
ㄹㅣㅇㅗ -6126
▁ㅇㅏㄴㄴㅐ -6127
▁ㅎㅏㅂㄹㅣ -6128
▁ㄱㅏㅇㅈㅓㄴ -6129
▁ㅊㅔㅋㅗ -6130
▁ㅁㅣㄴㅅㅗㄱ -6131
▁ㅇㅕㄱㅈㅓㄴ -6132
▁ㅈㅏㅇㄱㅏㅂ -6133
▁ㅇㅑㅅㅡ -6134
ㅇㅢㅈㅓㅇ -6135
▁ㅇㅣㅂㅅㅏ -6136
▁ㅌㅡㄱㅎㅓ -6137
▁ㄷㅗㅇㅂㅏㄴ -6138
▁ㅎㅜㄹㄹㅠㅇ -6139
▁ㅍㅡㄹㅗㅅㅔㅅㅓ -6140
▁ㄱㅘㄴㄱㅐㄱ -6141
ㅏㄹㅡㅌㅏ -6142
▁ㅁㅗㅇㅡㅁ -6143
▁ㅇㅕㅇㅜ -6144
▁ㅅㅣㄹㄴㅐ -6145
▁ㅍㅣㄹㄹㅡㅁ -6146
▁ㄷㅗㅁㅏㅂㅐㅁ -6147
ㅣㄹㄹㅏ -6148
ㄷㅜㅇㅇㅣ -6149
ㅔㄷㅏ -6150
▁ㄷㅣㅂ -6151
▁ㅅㅓㅇㅁㅕㅇ -6152
▁ㅇㅝㄴㅈㅏㅇ -6153
ㅅㅣㅇㅗㄴ -6154
▁ㄷㅐㄱㅏ -6155
▁ㄱㅏㄱㅜ -6156
▁ㅁㅔㄹㅡ -6157
▁ㄷㅐㄱㅕㄹ -6158
▁ㅈㅗㅎㅘ -6159
▁ㅈㅜㅈㅏ -6160
▁ㅋㅗㄴㅓ -6161
▁ㄱㅗㅂㅜㄴ -6162
▁ㅁㅗㄱㅅㅜㅁ -6163
▁ㄷㅗㅁㅏㅇㅊㅣ -6164
▁ㅁㅗㅎㅓㅁ -6165
▁ㅊㅜㄹㅏㄱ -6166
ㅣㅅ -6167
▁ㅎㅏㄹㄹㅣ -6168
ㅅㅣㅅㅡㅌㅡ -6169
▁161 -6170
▁ㅇㅣㅁㅅㅣㄴ -6171
▁ㅅㅜㅎㅗ -6172
▁ㅇㅜㅇㅕㄴ -6173
▁ㄱㅗㄱㅗ -6174
▁ㅅㅓㅇㅆㅣ -6175
▁de -6176
▁ㅅㅓㅁㅇㅠ -6177
▁ㅊㅓㅅㅉㅐ -6178
▁ㄱㅛㅊㅏㄹㅗ -6179
▁ㅇㅣㄴㅊㅓㄴㄱㅘㅇㅇㅕㄱㅅㅣ -6180
▁ㅈㅜㅇㄱㅗㅇ -6181
▁ㄱㅖㅅㅜ -6182
▁ㅅㅜㅈㅣㄱ -6183
▁ㅇㅛㅇㅝㄴ -6184
▁ㄷㅏㅇㅣㅁㅛ -6185
▁ㅁㅜㄴㅇㅣㄴ -6186
▁ㅂㅏㅇㅣㅇㅗㄹ -6187
▁ㅇㅕㅂ -6188
▁ㄹㅣㅅㅡㅌㅡ -6189
▁ㅇㅗㄹㅣㅈㅣㄴ -6190
▁ㅁㅏㅇㅣㄹ -6191
▁ㅇㅕㄴㅅㅏㅇ -6192
▁ㅉㅡㅁ -6193
▁ㅍㅣㅅㅡ -6194
▁ㅃㅏ -6195
ㅊㅜㅇㅓ -6196
▁ㅅㅓㅇㅣㄴ -6197
▁ㅁㅏㅇㅇㅝㄴㄱㅕㅇ -6198
ㅅㅓㅇㄱㅣ -6199
▁ㄹㅔㅂㅔㄹ -6200
▁ㅅㅔㄴㅌㅡㄹ -6201
▁ㅍㅕㅇㄹㅗㄴㄱㅏ -6202
▁ㅈㅏㅊㅣㄱㅜ -6203
ㄹㄹㅣㄴ -6204
▁ㅎㅜㅌㅚ -6205
▁ㅇㅗㅁ -6206
ㅈㅡㅋㅣ -6207
ㅡㄴㅏ -6208
▁ㅇㅏㄱㅘ -6209
▁ㅇㅕㅇㅎㅗㄴ -6210
▁ㄹㅔㅇㅣㅂㅡㄹ -6211
▁EP -6212
▁1922 -6213
▁ㄷㅗㅇㅇㅣㄹㅂㅗㄴ -6214
▁ㅅㅓㅇㅈㅣㄱㅈㅏ -6215
▁ㅂㅓㅈㅣㄴㅣㅇㅏ -6216
▁ㅈㅜㄴㅇㅜ -6217
▁175 -6218
▁ㄲㅗㅂㅎㅣ -6219
ㅋㅓㅅㅡ -6220
▁ㄱㅡㄹㅆㅣ -6221
▁ㅋㅣㄹㄹㅗ -6222
▁ㄱㅠㅅㅠ -6223
▁ㅇㅑㄱㅌㅏㄹ -6224
ㅅㅡㅌㅏㅇㅣㄴ -6225
▁ㄴㅔㅇㅣㅅㅕㄴ -6226
▁1912 -6227
▁ㅂㅜㅎㅗ -6228
▁ㄷㅗㅇㅇㅣㄴ -6229
▁ㅇㅕㅇㄱㅏㅁ -6230
▁ㄹㅣㄴㅜㄱㅅㅡ -6231
ㅁㅜㅇ -6232
ㄱㅏㅅㅡ -6233
ㅊㅣㅇㅗ -6234
▁ㄴㅡㄴㄷㅏㄱㅗ -6235
▁ㄷㅓㄱㅂㅜㄴ -6236
▁My -6237
▁ㅍㅛㅈㅣ -6238
▁ㅅㅏㅁㅜㄹ -6239
▁ㅅㅓㄴㄱㅛㅅㅏ -6240
▁ㅅㅏㄱㅈㅔ -6241
▁ㅈㅔㅇㅑㄱ -6242
ㅇㅑㅇㄱㅜㄴ -6243
ㅅㅏㅇㅣ -6244
ㅍㅡㄹㅏㄴ -6245
▁ㅇㅕㅇㄱㅘㅇ -6246
▁ㄹㅜㅌㅡㅂㅣㅎㅣ -6247
▁ㄱㅛㄱㅘ -6248
▁ㅎㅘㄱㅏ -6249
▁ㄱㅗㅇㅅㅔ -6250
▁ㅁㅜㄴㅂㅓㅂ -6251
▁ㅈㅜㅇㄹㅣㅂ -6252
▁ㅍㅡㄹㅔㅇㅣㅁ -6253
▁ㅊㅚㅅㅏㅇ -6254
ㅔㅅㅣ -6255
▁ㅍㅗㅇㅠ -6256
▁ㄱㅡㄱㅂㅗㄱ -6257
▁ㅂㅗㄱㄱㅜ -6258
▁ㅂㅕㄴㅅㅣㄴ -6259
▁ㅅㅜㅅㅏㅇㅈㅏ -6260
ㅇㅏㄴㅏㅁ -6261
▁ㄷㅏㅇㅑㅇㅊㅔ -6262
▁ㅅㅏㄹㅇㅏㄴㅏㅁ -6263
▁ㅂㅗㄱㅅㅏ -6264
▁"" -6265
ㄹㄹㅓ -6266
▁ㅇㅢㅅㅓㄱ -6267
▁ㅎㅑㅇㅌㅗ -6268
▁ㅂㅏㄱㄱㅡㄴ -6269
▁ㅂㅣㄱㅌㅗㄹㅣㅇㅏ -6270
up -6271
▁Go -6272
ong -6273
ㅆㅡㅇ -6274
▁ㅇㅗㅋㅔ -6275
▁ㅁㅗㄱㅈㅗ -6276
▁ㅅㅓㅈㅓㄱ -6277
▁ㅅㅗㅅㅓㄹㄱㅏ -6278
▁ㄷㅙ -6279
▁ㅋㅏㄹㅡㄹ -6280
▁ㄱㅏㅌㅗㄹㄹㅣㄱㄱㅛㅎㅚ -6281
▁ㅈㅣㄱㅅㅓㄴ -6282
ㅍㅣㅅㅡ -6283
▁ㅋㅗㅌㅡ -6284
▁ㅍㅔㄹㅜ -6285
▁ㅇㅠㅇㅕㄱ -6286
▁ㄱㅡㄹㅐㄴㄷㅡ -6287
▁ㅂㅗㅌㅗㅇㅎㅏㄱㄱㅛ -6288
ㅇㅗㄹ -6289
ㅅㅏㄱㅣ -6290
▁164 -6291
▁ㅁㅜㅇㅣㄴ -6292
ㅋㅏㅇㅗ -6293
▁06 -6294
▁ㅍㅕㅇㅅㅐㅇ -6295
▁ㄱㅓㄴㅊㅜㄱㅁㅜㄹ -6296
▁ㅁㅗㄷㅠㄹ -6297
▁ㅊㅓㅇㅎㅏ -6298
▁ㅎㅘㅇㅌㅐ -6299
▁ㅂㅏㄹㅎㅟ -6300
▁ㅌㅓㅂ -6301
▁1908 -6302
▁ㅂㅜㅇㅠ -6303
▁ㄸㅗㄱㄱㅏㅌ -6304
▁ㅇㅣㄹㅈㅏ -6305
▁1906 -6306
▁ㅇㅔㄹㅡ -6307
ㅇㅏㅇㅣㄴ -6308
▁ㄱㅗㅇㅏㄴ -6309
▁ㄷㅜㄹㅕㅇ -6310
▁ㅇㅕㅇㅣㄴ -6311
▁ㅅㅡㅋㅔㅇㅣㅌㅣㅇ -6312
▁ㅍㅗㄱㅍㅜㅇ -6313
▁ㄸㅐㄹㅗ -6314
▁ㅁㅐㄴㅣ -6315
▁ㅂㅡㄹㅜ -6316
▁ㄹㅐㅇㅋㅣㅇ -6317
▁ㄹㅓㄱ -6318
▁Love -6319
▁ㅁㅣㅅㅣ -6320
▁JR -6321
▁ㅅㅡㅍㅣ -6322
▁ㄱㅕㅇㅇㅠ -6323
▁ㅈㅜㅇㅅㅣ -6324
▁ㅁㅗㄹㅐ -6325
▁ㅅㅓㄹㅂㅣ -6326
▁ㄱㅣㅂㅜ -6327
ip -6328
▁ㅌㅗㅂㅓㄹ -6329
▁ㅍㅏㅌㅡㄴㅓ -6330
ㄹㄹㅣㅇ -6331
▁ㄴㅏㅁㄷㅗㅇㅉㅗㄱ -6332
▁ㅇㅠㅇㅛㅇ -6333
▁ㅍㅡㄹㄹㅏㅇ -6334
▁ㅇㅏㅁㅏㅊㅜㅇㅓ -6335
ㅠㅁㅔㄴㅌㅓㄹㅣ -6336
▁ㅇㅔㄹㄹㅣㅈㅏㅂㅔㅅㅡ -6337
▁ㅍㅓㅅㅣ -6338
▁ㄱㅗㅇㄱㅕㄱㅅㅜ -6339
ㄷㅡㄹㅏ -6340
▁ㅈㅜㄹㅠ -6341
OM -6342
▁03 -6343
▁ㅈㅜㅇㄱㅜ -6344
▁ㅍㅐㅌㅓㄴ -6345
▁ㅋㅡㄹㄹㅏㅇㅜ -6346
▁ㅅㅏㅊㅗㄴ -6347
▁ㄱㅜㅁㅣ -6348
▁ㄱㅣㅇㅛ -6349
▁ㅌㅗㅅㅡ -6350
▁ㄱㅣㅁㄷㅐㅈㅜㅇ -6351
▁KT -6352
▁ㅅㅓㄱㅈㅗ -6353
▁ㅇㅏㅌㅡㄹㄹ -6354
▁ㅇㅕㄴㄹㅕㅇ -6355
▁ㅁㅜㄹㅡㅍ -6356
▁ㅋㅡㄹㄹㅗ -6357
▁ㄱㅕㄹㅅㅣㅁ -6358
ㅌㅗㅅㅣ -6359
▁ㅇㅘㅇㄱㅏ -6360
IS -6361
▁ㅇㅣㅈㅗㅇ -6362
▁ㅇㅠㄱㅏ -6363
▁ㄱㅗㅅㅓ -6364
▁ㄹㅡㅇ -6365
▁ㄱㅛㄷㅗ -6366
▁ㅂㅔㅌㅏ -6367
▁ㅈㅣㅇㅕㄴ -6368
ㅎㅚㅇㅢ -6369
▁ㅇㅕㅇㅈㅗ -6370
▁ㅈㅣㅈㅜㅇㅎㅐ -6371
▁ㄴㅏㅇㅣㅌㅡ -6372
▁ㅅㅡㅍㅏㅇㅣ -6373
ㅅㅚ -6374
▁ㅇㅣㄴㅏㄹ -6375
▁ㅈㅣㄴㅅㅜㄹ -6376
ld -6377
▁ㅇㅏㄴㅇㅑㅇ -6378
▁ㅇㅜㅋㅡㄹㅏㅇㅣㄴ -6379
▁ㅋㅞ -6380
▁ㅁㅜㅅㅏㄴ -6381
▁SM -6382
ㅋㅏㅅㅡ -6383
ㅂㅔㄹㅡㅋㅡ -6384
▁ㅇㅐㄹㄹㅓㄴ -6385
▁ㄱㅜㅅ -6386
ㄹㅏㅇㅣㅌㅓ -6387
▁ㅂㅗㅇㅅㅏ -6388
▁ㅇㅓㅄㅇㅐ -6389
▁ㅂㅜㄱㄷㅗㅇㅉㅗㄱ -6390
▁ㅅㅗㅇㄹㅏㅇㅣㅌㅓ -6391
▁1927 -6392
▁ㅂㅐㄱㅡㅂ -6393
▁ㄹㅏㅇㅣㅇㅗㄴ -6394
ㅎㅐㄱㅜㄴ -6395
ant -6396
▁ㄱㅏㄱㅈㅏ -6397
▁ㅇㅓㅇㅝㄷㅡ -6398
▁1907 -6399
ㅋㅗㄱ -6400
ㄹㅣㄱㅅㅡ -6401
▁BBC -6402
ㄷㅏㅇㅣㄹㅏ -6403
▁ㅅㅏㄴㅇㅏㄱ -6404
▁ㄷㅏㅋㅠㅁㅔㄴㅌㅓㄹㅣ -6405
▁ㄷㅐㄱㅛ -6406
▁ㅈㅜㄴㅇㅜㅅㅡㅇ -6407
▁ㄱㅜㄱㅁㅣㄴㄷㅏㅇ -6408
▁ㅅㅡㅇㅘ -6409
▁ㅇㅣㄴㅈㅏ -6410
▁ㅅㅏㅂㅇㅣㅂ -6411
▁ㅋㅡㄹㅗㅅㅡ -6412
▁ㅁㅕㅇㅅㅏ -6413
▁ㅌㅜㄱㅜ -6414
▁ㅇㅏㄹㅂㅏㄴ -6415
▁ㅈㅣㄱㅇㅟ -6416
▁|| -6417
ㅅㅅㅜ -6418
▁ㄱㅣㅈㅗㅇ -6419
▁1917 -6420
▁ㄷㅗㅇㅓ -6421
▁ㅍㅡㄹㅗㄹ -6422
▁ㅊㅏㅇㄱㅏㄴ -6423
▁ㅍㅜㅇㅅㅗㄱ -6424
▁ㅂㅏㅇㅣㅇㅗㄹㄹㅣㄴ -6425
av -6426
▁ㅍㅣㅌㅡ -6427
▁ㅌㅗㅇㄹㅗ -6428
▁ㅂㅜㅅㅜ -6429
▁ㅈㅗㅅㅔ -6430
▁ㅂㅜㅌㅏㄱ -6431
ㅇㅓㄷㅗ -6432
ㅜㅇㅔㄹ -6433
ㅔㄴㅅㅡ -6434
▁ㅇㅏㅂㄷㅗ -6435
▁ㄴㅏㅂㅊㅣ -6436
▁ㅇㅣㄴㄹㅕㄱ -6437
▁ㅁㅜㄴㅎㅏ -6438
▁ㅁㅕㅇㅁㅜㄴ -6439
▁ㅌㅏㅁㅎㅓㅁ -6440
▁ㅎㅡㄺ -6441
▁ㅇㅚㄱㅖ -6442
▁ㅎㅏㅅㅏ -6443
▁ㅈㅔㅈㅜㄷㅗ -6444
ㅓㅇㅣㄹ -6445
▁ㄴㅗㅂㅣ -6446
▁ㄷㅣㅈㅡㄴㅣ -6447
▁ㅅㅣㅅㅏㅇㅅㅣㄱ -6448
▁ㅁㅗㄹㅗ -6449
▁ㅈㅓㄴㅎㅑㅇ -6450
▁ㅂㅓㄱ -6451
▁1926 -6452
▁ㅁㅜㅅㅓㄴ -6453
▁He -6454
▁ㄴㅔㄹ -6455
▁ㄷㅐㅎㅐㅇ -6456
▁ㅈㅣㄹㅡㅁ -6457
ㅇㅕㅇㅅㅏㅇ -6458
ED -6459
▁ㅁㅛㅈㅣ -6460
▁ㅊㅐㄱㅝㄴ -6461
▁ㅇㅠㄱㅅㅓㅇ -6462
▁ㅇㅏㅁㅣㄴ -6463
ㄷㅏㄷㅡ -6464
▁ㅅㅔㅈㅗ -6465
▁ㄹㅣㄷㅡㅁ -6466
ㄹㄹㅓㄴ -6467
▁ㄱㅡㄴㄹㅗ -6468
▁ㅇㅢㅂㅕㅇ -6469
▁ㅁㅣㄹㄹㅏㄴㅗ -6470
▁ㅈㅓㄱㅇㅓㄷㅗ -6471
▁ㄷㅐㅁ -6472
▁ㅈㅏㅁㅜㄴ -6473
▁ㅁㅜㄴㅎㅘㅇㅠㅅㅏㄴ -6474
▁MV -6475
▁ㅋㅓㅍㅣ -6476
ㅌㅔㄴㄷㅗ -6477
▁ㄴㅣㄴㅌㅔㄴㄷㅗ -6478
▁ㅈㅗㅁㅕㅇ -6479
▁ㅊㅔㅇㅣㄴ -6480
ㅔㅂㅏ -6481
▁ㅇㅠㅇㅣㄴ -6482
▁ㄷㅗㅇㅇㅏㅅㅣㅇㅏ -6483
▁NHK -6484
▁ㅊㅣㅁㅎㅐ -6485
ㅡㅂㅏ -6486
▁ㄴㅗㅇㅣㄴ -6487
▁ㅁㅐㄱㅏㄱ -6488
▁ㅇㅕㄴㅅㅗ -6489
▁ㅈㅓㄱㅇㅡㅇ -6490
▁ㅈㅓㄴㅅㅡㅇ -6491
se -6492
▁ㄱㅛㅇㅕㄱ -6493
ㅗㅅㅡㄹㄹ -6494
▁ㅂㅣㅈㅓㄴ -6495
ㅌㅓㅂㅔㅇㅣㅅㅡ -6496
▁ㄱㅡㄹㅏㅇ -6497
▁ㅇㅕㄱㄱㅘ -6498
ㅡㄴㅏㄴ -6499
▁ㄷㅔㅇㅣㅌㅓㅂㅔㅇㅣㅅㅡ -6500
▁ㅌㅐㅈㅏ -6501
▁ㄱㅏㄴㅅㅓㅂ -6502
▁ㅎㅏㅇㅁㅗㄱ -6503
▁ㅂㅡㄹㅔ -6504
▁ㅎㅐㅅㅓㄹ -6505
▁ㅇㅕㄴㄱㅗㅈㅣ -6506
ame -6507
▁ㅈㅏㅊㅐㄱ -6508
ㅣㅇㅔ -6509
▁ㅁㅏㄹㅜ -6510
▁ㅅㅣㅇㅚ -6511
▁ㅅㅏㅇㅎㅏㅇㅣ -6512
ㅕㄷㅡㄹ -6513
▁ㄱㅘㅈㅏㅇ -6514
▁ㄱㅣㅁㄷㅗㅇ -6515
ㄱㅔㄹ -6516
▁ㄱㅛㅊㅏ -6517
▁ㅂㅗㅈㅘ -6518
▁ㅎㅏㅂㄱㅖ -6519
AC -6520
▁ㅍㅡㄹㄹㅔ -6521
▁ㅎㅕㅂㅇㅢㅎㅚ -6522
▁ㅇㅗㅋ -6523
▁ㅇㅏㄱㅣ -6524
ㅅㅐㅇㅁㅜㄹ -6525
▁ㅇㅘㅇㄹㅣㅂ -6526
▁ㅂㅏㄱㄱㅡㄴㅎㅖ -6527
▁SN -6528
▁ㅈㅛ -6529
ind -6530
▁ㄷㅗㄱㅇㅣㄹㅇㅓ -6531
ㅌㅔㄱ -6532
▁ㄴㅐㅈㅏㅇ -6533
▁ㅅㅏㅅㅣㄴ -6534
▁ㅈㅣㅇㅕㄱㄱㅜ -6535
▁ㅈㅓㅇㄹㅠㅈㅏㅇ -6536
▁PD -6537
▁ㅅㅣㅌㅡ -6538
ㄷㅗㄴㅣㅇㅏ -6539
▁ㄹㅔㅇㅣㄷㅏ -6540
▁ㅅㅏㅇㅊㅓ -6541
▁ㅈㅏㅇㅅㅏ -6542
▁ㄴㅗㅁㅜ -6543
▁ㅅㅣㅈㅣㅂ -6544
▁ㅅㅏㅇㅇㅕㅇ -6545
▁ㅊㅓㄹㅈㅓ -6546
▁ㅂㅕㄹㄹㅗ -6547
▁ㅅㅓㅂㅜㄱ -6548
▁ㅎㅏㅊㅓㄴ -6549
▁ㅈㅗㅇㅈㅗㄱ -6550
▁ㅊㅜㄹㅎㅕㄴ -6551
▁ㅅㅏㄴㅈㅣ -6552
▁ㅅㅜㅈㅣ -6553
▁168 -6554
▁ㅅㅐㄱㅅㅏㅇ -6555
ㅡㄹㅏ -6556
▁ㅊㅏㅁㅈㅗ -6557
ㅇㅣㅂㅡ -6558
▁ㅎㅣㅅㅡ -6559
▁ㅅㅡㅋㅏㅇㅣ -6560
▁ㅍㅏㅇㅜㄴㄷㅡ -6561
▁162 -6562
▁ㅌㅏㅂㅅㅡㅇ -6563
▁ㅈㅏㅈㅓㄴㄱㅓ -6564
ry -6565
▁ㄱㅣㄹㅡㅁ -6566
▁ㅇㅜㅇㅣㄱ -6567
▁ㅂㅔㅇㅓ -6568
▁ㅇㅠㅌㅠㅂㅡ -6569
ith -6570
ㅊㅡㅁ -6571
ㅌㅗㄹㅡ -6572
▁1905 -6573
▁ㅋㅜㅅㅡ -6574
▁ㄱㅣㅎㅏㅎㅏㄱ -6575
▁Sp -6576
▁166 -6577
▁ㅇㅝㄴㅅㅏㄴ -6578
▁151 -6579
▁ㅅㅜㄱㅏㅁ -6580
▁ㅎㅗㄹㄹㅗ -6581
▁ㅅㅣㅀ -6582
▁ㅇㅔㄹㅣㄱ -6583
▁ㅇㅐㄹㄹㅣ -6584
▁ㅁㅜㄷㅎㅣ -6585
ㅍㅔㅇㅣㅈㅣ -6586
ㅣㅇㅜ -6587
▁ㅈㅓㅇㅅㅓ -6588
▁ㅈㅜㅁㅏㄹ -6589
▁ㅎㅏㄷㅡㅇ -6590
▁ㅋㅡㄹㅣㅅㅡㅌㅗ -6591
ort -6592
▁ㅅㅚㅌㅚ -6593
▁02 -6594
▁ㅂㅣㄷㅏㄴ -6595
▁ㅅㅜㅁㅕㅇ -6596
ES -6597
▁ㅈㅗㄱㅣ -6598
▁ㄷㅏㄴㅎㅐㅇ -6599
ok -6600
▁ㅇㅣㅈㅗ -6601
▁ㅋㅓㅈㅣ -6602
▁ㄷㅗㅇㅊㅣ -6603
▁ㅌㅡㄱㄱㅡㅂ -6604
▁158 -6605
▁ㄷㅗㅇㄱㅜ -6606
▁ㅇㅠㅇㅣㅂ -6607
▁ㅍㅏㅇㅜㄹ -6608
ㅔㅅㅕㄹ -6609
▁ㄷㅡㄹㅐㄱㅗㄴ -6610
▁ㅈㅜㅍㅏ -6611
▁ㄲㅜㅁㅣ -6612
▁ㅈㅏㅂㅏ -6613
▁ㅅㅏㄹㅛ -6614
▁ㅎㅗㅁㅍㅔㅇㅣㅈㅣ -6615
ㅊㅏㅈ -6616
▁ㅈㅏㅁㅈㅐ -6617
▁ㅂㅟ -6618
▁ㅍㅔㅅㅡㅌ -6619
▁ㅍㅛㅂㅗㄴ -6620
▁ㅂㅔㅌㅗ -6621
▁ㅇㅣㄴㅌㅔㄹ -6622
▁ㅇㅗㅇㅎㅗ -6623
▁ㅍㅏㄴㅌ -6624
ㅅㅡㅂㅗㄹ -6625
▁ㅇㅏㄹㄹㅔ -6626
▁ㄱㅣㄴㅕㅁㅁㅜㄹ -6627
▁ㅂㅜㅅㅣ -6628
▁ㄷㅗㄹㅣ -6629
▁ㅂㅐㅁ -6630
▁ㅎㅑㅇㄴㅕㄴ -6631
▁ㄴㅏㅁㅅㅓㅉㅗㄱ -6632
▁ㅁㅛㅅㅗ -6633
▁ㅍㅖㄱㅣ -6634
ㅌㅐㅇㅜ -6635
▁ㅍㅣㄹㄹㅏ -6636
ㅊㅗㅇㅈㅏㅇ -6637
▁ㄱㅘㅇㅇㅕㄱ -6638
▁ㅍㅜㅁㅈㅣㄹ -6639
▁ㅋㅓㅁㅠㄴㅣㅌㅣ -6640
▁ㅂㅔㅇㅣㅅㅡㅂㅗㄹ -6641
▁ㅁㅓㅁㅜㄹ -6642
ㄴㅐㅇ -6643
ㅜㄹㅜㅅㅡ -6644
▁ㅅㅓㄱㅌㅏㅂ -6645
▁ㅈㅡㅇㄱㅣ -6646
▁ㅂㅣㅍㅕㅇㄱㅏ -6647
▁ㅁㅏㄹㅡㅌㅣㄴ -6648
▁ㅁㅏㅅㅡ -6649
▁ㅇㅓㅁㅁㅏ -6650
▁ㅅㅐㄱㄲㅏㄹ -6651
ㅅㅔㅅㅡ -6652
▁ㅍㅗㅋㅡ -6653
▁ㅌㅡㄹㅓㄱ -6654
▁ㅇㅖㅇㅚ -6655
▁ㅍㅡㄹㄹㅐㄴ -6656
▁ㅇㅠㄴㅣㅅ -6657
▁ㅇㅠㅅㅣㄴ -6658
▁ㅁㅏㅆㅡㄷㅏㅇㅣㄹㅏ -6659
▁ㅎㅗㅈㅗ -6660
▁ㅅㅡㅅㅡㅇ -6661
▁ㅇㅑㅅㅐㅇ -6662
▁ㅅㅡㅍㅔㅅㅕㄹ -6663
▁ㅇㅏㄴㄷㅡㄹㅗㅇㅣㄷㅡ -6664
ㅅㅏㄹㅡ -6665
▁ㄱㅙ -6666
▁ㄷㅏㄴㅊㅡㅇ -6667
▁ㅈㅗㅅㅓㄴㅇㅣㄴ -6668
▁ㄱㅘㄴㅈㅜㅇ -6669
▁ㅈㅣㅂㅏ -6670
▁ㄱㅣㅈㅓㅁ -6671
▁ㅅㅗㄴㅣ -6672
▁ㅁㅜㄴㄱㅘ -6673
ㄷㅓㅇ -6674
▁ㅂㅐㅅㅏㅇ -6675
▁ㄲㅜㅈㅜㄴㅎㅣ -6676
▁ㄷㅗㅅㅣㅁ -6677
▁ㅈㅘㅇㅣㄱ -6678
▁ㄷㅣㅈㅏㅇㅣㄴㅓ -6679
▁ㅋㅐㅁ -6680
▁ㄱㅡㄹㅔㄱㅗㄹㅣ -6681
ㅇㅓㄱ -6682
▁ㅂㅏㄴㅎㅘㄴ -6683
▁ㅁㅣㄴㅈㅗㄱㅈㅜㅇㅢ -6684
ㅡㄴㅣ -6685
ㄹㅣㅋㅔㅇㅣㅅㅕㄴ -6686
ㅣㅂㅓㄹ -6687
▁ㅇㅣㄴㄷㅣ -6688
ㅂㅣㄱ -6689
ㅌㅗㅁㅣ -6690
▁ㅅㅔㅅㅉㅐ -6691
ㅂㅗㅅㅏㄹ -6692
▁ㅊㅚㅇㅜㅅㅜ -6693
▁ㅂㅜㄷㅗㅇㅅㅏㄴ -6694
▁ㅇㅗㄹㅣㅈㅣㄴㅓㄹ -6695
ㅂㅏㅇㅣ -6696
▁ㅁㅗㅈㅣㅂ -6697
▁ㅅㅏㅇㅅㅗ -6698
▁ㅅㅏㅈㅣㄱ -6699
▁ㅅㅜㅊㅓㄴ -6700
▁ㄷㅗㅇㅇㅕㅇㅅㅏㅇ -6701
▁ㅁㅏㅇㅗ -6702
▁ㅇㅣㅂㅁㅜㄴ -6703
▁ㅋㅔㅇㅣㅂㅡㄹ -6704
▁ㅋㅗㄹㄹㅗㅁㅂㅣㅇㅏ -6705
ㅁㅐㅅ -6706
▁ㄹㅔㄴㅈㅡ -6707
▁ㅌㅔㅁ -6708
▁ㄹㅣㅇㅏ -6709
▁ㄱㅏㄹㄹㅣ -6710
▁ㄱㅡㅂㅎㅐㅇ -6711
▁ㄸㅡㄱ -6712
ㄷㅐㄱㅛ -6713
▁1904 -6714
▁Un -6715
ㅌㅣㅇㅜㅁ -6716
▁ㅌㅔㄹㅡ -6717
▁ㄱㅘㄴㅈㅏㅇ -6718
ㅍㅡㄹㅏㄴㅅㅣㅅㅡㅋㅗ -6719
▁ㅂㅓㄱㅡ -6720
▁ㅇㅏㄴㅂㅗ -6721
▁ㅇㅠㄱㅗㅅㅡㄹㄹ -6722
▁ㅇㅠㄱㅗㅅㅡㄹㄹㅏㅂㅣㅇㅏ -6723
ㅁㅐㄴ -6724
▁ㄷㅐㅇㅏㄴ -6725
▁ㄱㅡㅂㅅㅗㄱ -6726
▁ㄹㅏㅇㅣㅂㅓㄹ -6727
▁ㅅㅐㄴㅍㅡㄹㅏㄴㅅㅣㅅㅡㅋㅗ -6728
▁ㅍㅡㄹㅐㄴ -6729
▁ㅁㅜㅅㅣㄴ -6730
▁ㅇㅖㅅㄴㅏㄹ -6731
▁ㅌㅗㄹㅡ -6732
▁ㅅㅓㄴㅈㅣㄴ -6733
ord -6734
ㄹㅔㅇㅣㅅㅕㄴ -6735
ㄹㅕㄴㅏ -6736
ㅌㅡㄹㅓㅁ -6737
▁ㅅㅓㄱㅕㅇ -6738
▁ㅋㅏㅍㅔ -6739
▁ㄹㅔㅇㅣㅅㅡ -6740
▁ㅇㅕㄴㅈㅜㅈㅏ -6741
▁ㅈㅓㅁㅅㅓㅇ -6742
▁ㄴㅏㅍㅗㄹㄹㅣ -6743
ㅇㅛㅅㅣ -6744
▁ㅎㅗㄴㅏㅁ -6745
▁ㄷㅗㅇㅈㅓㄴ -6746
▁ㅎㅣㄱㅏㅅㅣ -6747
▁ㅁㅜㄱㅘㄴ -6748
▁ㅂㅏㄷㅊㅣㅁ -6749
▁ㅊㅜㄹㅍㅏㄴㅅㅏ -6750
▁ㅍㅔㅅㅡㅌㅣㅂㅓㄹ -6751
▁ㅂㅏㄱㅅㅡ -6752
ob -6753
▁Se -6754
▁ㅈㅓㄱㅅㅐㄱ -6755
▁ㅍㅏㄴㅌㅏㅈㅣ -6756
qu -6757
▁ㄷㅐㅇㅢ -6758
ㅇㅜㅇㅖㄴ -6759
ㄷㅣㅅㅡ -6760
ㅋㅜㅅㅡ -6761
▁ㅁㅣㅁㅏㄴ -6762
▁ㅈㅜㅎㅏㄴ -6763
▁ㅂㅔㅌㅗㅂㅔㄴ -6764
▁ㅋㅏㅈㅏ -6765
▁ㅈㅜㅇㅢㅈㅏ -6766
▁165 -6767
▁ㅌㅡㅇㅟ -6768
▁ㄷㅗㄹㅍㅏ -6769
▁ㄷㅗㅁㅔㅇㅣㄴ -6770
▁ㅇㅢㄱㅓ -6771
▁ㅋㅏㅅㅡ -6772
▁ㅎㅡㅇㅁㅣ -6773
▁ㅇㅜㄴㅂㅏㄴ -6774
▁ㅂㅏㄹㅏㅂㅗ -6775
▁ㅅㅔㄴㅌㅡㄹㅓㄹ -6776
▁154 -6777
▁ㅅㅓㅇㅣㄹ -6778
▁ㅁㅗㄱㄱㅕㄱ -6779
▁ㄴㅐㄹㅠㄱ -6780
▁ㅇㅘㅇㅈㅗㄱ -6781
▁ㅇㅕㄴㄱㅡㅁ -6782
▁ㅅㅡㅋㅗㅅ -6783
▁ㅍㅏㅅㅐㅇ -6784
▁ㄱㅐㅅㅜ -6785
▁ㄱㅖㄷㅏㄴ -6786
▁ㅊㅜㄹㅅㅏㄴ -6787
▁ㅇㅖㄴ -6788
▁ㅌㅜㄹㅡ -6789
▁ㅂㅗㄱㅈㅔ -6790
ate -6791
ㅁㅣㄴㅣ -6792
ㅌㅏㅇㅜㄴ -6793
▁ㅇㅜㄴㅁㅕㅇ -6794
▁ㅂㅏㅌ -6795
▁ㅈㅏㅅㅏ -6796
▁ㅋㅜㄴ -6797
▁ㅇㅏㄱㅈㅏㅇ -6798
▁ㄱㅣㅇㅛㅇ -6799
▁ㅇㅓㅎㅏㅇ -6800
▁ㅇㅐㄴㄷㅡㄹ -6801
▁ㅎㅗㅎㅘㄴ -6802
▁Wh -6803
▁156 -6804
▁ㄴㄷㅏㄱㅗ -6805
ㅈㅡㄴㅣㅅㅡ -6806
▁ㄸㅜㅀ -6807
▁ㅈㅏㅇㅠㄹ -6808
▁ㅅㅓㄴㅈㅔ -6809
▁ㅈㅓㅇㅈㅏ -6810
▁SF -6811
▁ㄹㅚ -6812
▁ㅇㅏㅁㅜㄹㅓㄴ -6813
▁ㅂㅣㅈㅡㄴㅣㅅㅡ -6814
▁ㄸㅏㄴ -6815
ㅂㅜㅅㅏ -6816
▁ㅇㅔㅅㅡㅍㅏㄴ -6817
▁ㄹㅣㅌㅜㅇㅏㄴ -6818
PS -6819
ㅔㅇㅑ -6820
ㅇㅓㅅ -6821
ㅈㅜㄱㅗㄱ -6822
▁ㅈㅓㅇㄱㅛ -6823
▁ㅈㅣㅎㅟㅈㅏ -6824
ㅈㅏㅂㅎㅣ -6825
▁ㄹㅣㅇㅋㅡ -6826
▁ㄷㅗㅋㅏㅇㅣ -6827
▁ㄱㅗㄷㅂㅏㄹㅗ -6828
▁ㅇㅗㄷㅣㅅㅕㄴ -6829
ㄱㅣㄴ -6830
▁ㄱㅜㅅㅏ -6831
▁163 -6832
▁ㅂㅡㄹㅏㅇㅣㅇㅓㄴ -6833
▁ㅂㅜㅍㅐ -6834
ㅅㅣㄴㅗ -6835
▁ㅇㅣㄴㅊㅣ -6836
▁ㅇㅛㅇㅅㅏㄴ -6837
▁ㅈㅣㄱㅈㅏㅇ -6838
▁ㄱㅜㅈㅏㅇ -6839
▁ㅅㅡㅍㅔㄱㅌㅡㄹㅓㅁ -6840
ㄹㅏㄴㄷㅡㅇ -6841
▁ㅅㅣㄴㅂㅣ -6842
▁ㅎㅏㅂㅈㅏㄱ -6843
▁ㄹㅗㅈㅡ -6844
▁ㅎㅕㅂㅇㅢ -6845
ㄱㅣㄹㅇㅣ -6846
▁ㅇㅖㅅㅜㄹㄱㅏ -6847
▁ㅃㅏㄹㄹㅣ -6848
▁ㅅㅡㅁㅏㅌㅡㅍㅗㄴ -6849
▁ㄴㅏㅌ -6850
▁ㅇㅕㄷㅗㅇㅅㅐㅇ -6851
ㄷㅣㄱ -6852
▁ㅁㅏㄹㅏ -6853
▁ㅂㅏㅇㅇㅏㄴ -6854
ㅂㅏㄹㅏ -6855
▁ㅅㅡㅋㅜㄹ -6856
▁ㅋㅗㅇㄱㅗ -6857
▁ㅍㅣㄹㅔㄴ -6858
▁ㅂㅔㄴㅔㅅ -6859
▁ㅍㅕㅇㅅㅗ -6860
▁ㅅㅣㄴㅇㅣㅁ -6861
▁ㅍㅐㄹㅓ -6862
▁ㅈㅣㄴㅅㅏㅇ -6863
IC -6864
▁ㅅㅏㄹㅏ -6865
▁ㅍㅗㅁㅐㅅ -6866
▁ㅈㅜㄹㅣㅂ -6867
▁ㄴㅗㅈㅗ -6868
ㅁㅜㄴㅎㅏㄱ -6869
▁ㅅㅏㅂㅓㅁ -6870
▁ㄱㅣㄴㄱㅡㅂ -6871
▁ㅌㅏㅇㅣㄱㅓ -6872
ㅋㅙ -6873
▁ㅅㅡㅌㅔㅇㅣㅈㅣ -6874
▁ㄷㅗㅇㅅㅏ -6875
▁ㅎㅏㅇㅇㅣㄹ -6876
▁ㄱㅏㄱㅔ -6877
▁ㅅㅜㅁㅕㄴ -6878
▁ㅈㅘㅅㅓㄱ -6879
▁ㅇㅕㅅㅣㄴ -6880
ㅌㅡㄹㅡ -6881
▁ㅇㅣㄹㅎㅐㅇ -6882
▁ㅎㅏㄴㅇㅑㅇ -6883
ㄹㅜㅅㅏㄹ -6884
▁ㅈㅏㅇㅍㅕㄴ -6885
▁ㅈㅏㅎㅚㅅㅏ -6886
ㄹㅜㅅㅏㄹㄹㅔㅁ -6887
▁ㅁㅏㅋㅔㄷㅗㄴㅣㅇㅏ -6888
▁ㄱㅣㅈㅐ -6889
▁ㄷㅜㄷㅡㄹ -6890
▁ㅅㅡㅌㅣㄹ -6891
▁ㄲㅏㄹ -6892
ㅌㅏㅋㅏ -6893
ㅌㅡㄹㅗㄹ -6894
▁ㄷㅚㅊㅏㅈ -6895
▁167 -6896
▁900 -6897
▁ㅃㅜㄹ -6898
▁ㅊㅜㅇㄴㅏㅁ -6899
▁ㅎㅚㅇㅝㄴㄱㅜㄱ -6900
▁ㅍㅐㅁ -6901
▁ㄱㅝㄴㄱㅗ -6902
▁AM -6903
▁ㅁㅓㄹㅌㅣ -6904
▁ㅁㅣㅇㅑㄴ -6905
▁ㄱㅕㅇㅜ -6906
▁ㅇㅜㄷㅡ -6907
▁ㄱㅕㅂㅊㅣ -6908
▁ㅂㅜㄴㅈㅣ -6909
▁ㅇㅛㅇㄱㅣ -6910
▁ㅈㅣㄴㅈㅣ -6911
ㅜㅇㅓ -6912
▁ㄱㅛㅈㅓㄴ -6913
▁ㅇㅖㅇㅓㄴ -6914
▁ㅅㅏㅇㅇㅣㅁ -6915
▁ㅅㅓㄴㅅㅏ -6916
▁ㅈㅣㅈㅏㅇ -6917
▁139 -6918
▁ㅂㅓㄴㅈㅜ -6919
▁ㅅㅡㅍㅣㄷㅡ -6920
▁ㅎㅏㄴㄱㅏㅇ -6921
▁DJ -6922
▁ㅊㅏㄱㄹㅠㄱ -6923
ㅌㅣㅇㅏㄴ -6924
▁ㅇㅣㄹㅇㅛㅇㅣㄹ -6925
▁ㄹㅏㅁㅏ -6926
ㅈㅡㅁㅣ -6927
ㅊㅕㅈㅣ -6928
▁ㅂㅜㄴㅂㅐ -6929
▁ㅂㅐㅈㅔ -6930
▁ㅈㅗㄹㅠ -6931
▁ㅅㅣㄴㅇㅛㅇ -6932
▁ㅁㅗㅁㄱㅣㄹㅇㅣ -6933
▁ㄷㅗㄹㅡ -6934
▁ㅅㅣㄴㅎㅏ -6935
▁ㄷㅏㄴㅈㅗㅇ -6936
▁ㅎㅏㄷㅡㅇㅞㅇㅓ -6937
ㅏㅇㅇㅣ -6938
▁ㅁㅜㅅㅡㄹ -6939
▁ㅇㅛㅇㄹㅑㅇ -6940
▁ㄱㅜㄹㅗ -6941
▁ㄲㅣㄹㅣ -6942
▁ㅇㅡㅇㅇㅜㅇㅖㄴ -6943
ast -6944
▁AS -6945
ㅍㅡㄹㅏ -6946
ㅅㅣㄱㅁㅜㄹ -6947
▁ㅇㅣㅂㅈㅡㅇ -6948
▁ㄴㅣㅅㅡ -6949
▁ㄷㅏㅇㅣㄴ -6950
▁ㅇㅣㅂㅎㅣ -6951
▁ㄱㅐㅂㅏㄹㅈㅏ -6952
▁ㅁㅜㅅㅡㄹㄹㅣㅁ -6953
▁ㄱㅔㅅㅣ -6954
▁ㅈㅐㅁㅜ -6955
▁ㄱㅣㅌㅏㄹ -6956
▁ㅍㅡㄹㅗㅅ -6957
ET -6958
ㅍㅐㅇ -6959
ㅛㄱ -6960
▁ㅈㅣㅌ -6961
▁ㄱㅏㄴㅏ -6962
▁ㅇㅠㅎㅏ -6963
▁ㅇㅣㅌㅗ -6964
▁ㅇㅡㅁㅁㅗ -6965
▁ㅈㅓㅇㄱㅖ -6966
▁ㄷㅏㅇㅇㅕㄴ -6967
▁ㅊㅗㄹㅐ -6968
▁ㅈㅓㅈㅣㄹㅡ -6969
ㄱㅓㅈㅣ -6970
▁ㅇㅏㅂㅣ -6971
▁ㅈㅣㅈㅣㄹ -6972
ㅂㅔㄹㅡㅌㅡ -6973
▁ㅇㅖㄹㅜㅅㅏㄹㄹㅔㅁ -6974
▁ㅂㅓㄴㅅㅣㄱ -6975
▁ㅊㅐㄹㄹㅣㄴ -6976
▁ㅇㅐㄱㅜㄱ -6977
▁ㅇㅕㄴㅇㅐ -6978
▁ㅋㅣㄹㄹㅗㅁㅣㅌㅓ -6979
ㅠㅋㅣ -6980
ㅈㅣㄹㅡ -6981
▁ㄹㅔㅈㅣ -6982
▁ㅅㅣㅅㅡ -6983
▁ㄴㅗㅇㄷㅗ -6984
▁ㅅㅡㅌㅡㄹㅣㅌㅡ -6985
▁ㅊㅚㅅㅣㄴ -6986
ㄸㅡㅅ -6987
▁ㅈㅗㄹㅡ -6988
▁ㅎㅏㄴㄴㅏㄹㅏ -6989
▁ㅋㅗㄴㅅㅡㅌㅏㄴㅌㅣㄴㅗ -6990
ㅣㅇㅑ -6991
▁ㄴㅏㄹㄹㅣ -6992
▁ㅇㅖㄴㅡㅇ -6993
ㅌㅓㄱ -6994
ㅈㅏㅂㅇㅣ -6995
▁ㅅㅓㅇㅈㅗㅇ -6996
▁ㅎㅏㄴㄴㅏㄹㅏㄷㅏㅇ -6997
▁145 -6998
ㅇㅓㅌㅡ -6999
▁ㅎㅖㅅㅓㅇ -7000
▁ㅈㅓㄴㅇㅕㅁ -7001
▁ㄱㅘㄴㄱㅘㅇㄱㅐㄱ -7002
ㅍㅐㄴ -7003
▁ㅌㅡㄹㅔ -7004
ㅣㄱㅡ -7005
▁ㅈㅜㅇㄱㅜㄱㅇㅓ -7006
ㄹㅓㅁㅂㅣㅇㅏ -7007
▁ㄷㅐㅈㅗ -7008
▁ㅇㅏㅎㅗ -7009
▁ㄱㅏㄷㅡㄱ -7010
ㄷㅔㅇㅣㅌㅡ -7011
▁DS -7012
▁ㅊㅣㄴㅈㅓㅇ -7013
▁ㄷㅣㅂㅣㅈㅓㄴ -7014
▁UN -7015
▁ㅆㅏ -7016
▁ㅇㅣㅁㅅㅏㅇ -7017
▁ㅇㅓㅂㄷㅔㅇㅣㅌㅡ -7018
▁ㅇㅛㅋㅡ -7019
▁ㅊㅏㄱㅘㄴ -7020
ㅣㅇㅏㅂ -7021
▁ㅇㅑㄱㅣ -7022
▁ㅂㅏㄹㅈㅗㄱ -7023
▁ㅅㅏㅁㅕㄴ -7024
▁ㅁㅣㄹㅈㅓㅂ -7025
▁ㅈㅣㅈㅜ -7026
▁ㄱㅗㅇㄱㅘ -7027
▁ㅇㅝㄹㄱㅏㄴ -7028
▁ㄱㅣㅌㅏㄹㅣㅅㅡㅌㅡ -7029
▁ㅇㅕㄷㅓ -7030
▁ㅅㅛㄱㅜㄴ -7031
▁ㅅㅣㄹㅈㅓㅁ -7032
▁ㅇㅐㅍㅡㄹㄹㅣㅋㅔㅇㅣㅅㅕㄴ -7033
if -7034
▁ㅋㅡㄹㅔ -7035
DP -7036
▁IP -7037
▁ㅅㅡㅍㅏ -7038
▁ㄱㅕㅇㅅㅏ -7039
▁ㄱㅗㄹㅣㅂ -7040
▁ㅅㅓㅇㄱㅗㅇㅎㅚ -7041
▁ㅅㅣㅂㅈㅏㄱㅜㄴ -7042
▁ㅅㅓㅇㅜㄹㅅㅣ -7043
▁ㅅㅡㅍㅣㄴ -7044
▁ㅇㅘㄹ -7045
ㄹㅗㄱㅡ -7046
▁ㅁㅗㅅㅜㄴ -7047
ㅋㅗㅅ -7048
▁ㄸㅡㄱㅓㅂ -7049
▁ㅇㅗㄹㅣㅇ -7050
▁ㄱㅗㅇㅇㅛㅇ -7051
▁ㅇㅠㅇㅎㅏㅂ -7052
▁ㅂㅜㅌㅗㅇㄹㅕㅇ -7053
▁ㅅㅓㅇㅣㄹㅂㅗㄴ -7054
▁ㄹㅣㅌㅜㅇㅏㄴㅣㅇㅏ -7055
▁ㄱㅡㄹㅏ -7056
ㅌㅡㄹㅣㄱ -7057
▁ㅂㅐㅈㅓㅇ -7058
▁ㄷㅏㅇㅅㅏㅈㅏ -7059
▁ㅇㅓㅆㅇㅓㅆ -7060
▁1896 -7061
▁ㅈㅓㄴㅇㅣ -7062
▁ㅍㅣㄹㅔㄴㅊㅔ -7063
ure -7064
▁ㄱㅗㄱㅐ -7065
▁ㄷㅐㄹㅕㅇ -7066
ㅃㅕ -7067
▁ㅁㅐㅂ -7068
ㅔㄹㅣㅇㅏ -7069
▁ㄱㅏㅇㅇㅕㄴ -7070
▁ㅎㅐㅇㅣㄴ -7071
ack -7072
▁ㅆㅢ -7073
▁ㅇㅗㅂㅓ -7074
ㅔㅅㅡㅋㅗ -7075
▁ㄱㅛㅅㅓㅂ -7076
▁ㅋㅚ -7077
ㅔㄴㅈㅣ -7078
▁ㅇㅓㄹㅇㅡㅁ -7079
▁ㅈㅓㄴㄹㅠ -7080
▁ㅅㅣㄱㅅㅏ -7081
▁ㅊㅐㅁㅍㅣ -7082
▁ㅈㅣㄴㄴㅏㄹㅏ -7083
▁ㄲㅗㄹ -7084
▁ㅊㅣㄴㅅㅓㄴ -7085
▁ㅈㅗㄱㅜㄱ -7086
▁ᆯㅅㅜㄹㅗㄱ -7087
▁ㅅㅣㄷㅡㄴㅣ -7088
▁ㅅㅗㅅㅗㅇㅂㅓㅂ -7089
▁ㅎㅏㄱㅍㅏ -7090
▁ㅎㅞㅅㅗㄴ -7091
▁ㅅㅜㅎㅏㄱㅈㅏ -7092
▁ㅅㅣㄷㅏㄹㄹㅣ -7093
ive -7094
▁ㅅㅏㄹㅡ -7095
▁ㅌㅜㅁㅕㅇ -7096
IT -7097
▁ㄲㅓㅂ -7098
▁ㅇㅔㄹㅣ -7099
ㅇㅣㅇ -7100
▁ㅅㅣㅊㅔ -7101
▁ㄱㅘㅈㅔ -7102
▁ㅈㅜㅇㄷㅗㄱ -7103
▁ㅂㅏㄹㅎㅛ -7104
▁ㅈㅓㅇㅂㅓㄹ -7105
▁ㅂㅜㅎㅡㅇ -7106
▁ㄱㅗㅇㅈㅓㄴ -7107
▁ㅇㅕㄷㅓㄼ -7108
▁ㅅㅣㄴㅋㅏㄴ -7109
▁ㅇㅏㅂㅂㅏㄱ -7110
▁ㄷㅜㄹㄹㅓㅆㅏㅇㅣ -7111
▁ㅅㅡㅌㅏㅋㅡㄹㅐㅍㅡㅌㅡ -7112
ock -7113
▁ㅌㅔㅇㅗ -7114
iv -7115
▁ㅅㅣㅇㅏ -7116
▁ㅁㅏㅋㅔㅌㅣㅇ -7117
▁ㅂㅗㄱㅅㅗ -7118
▁ㅎㅐㅇㅈㅓㅇㅂㅜ -7119
▁ㅁㅣㄹㅇㅑㅇ -7120
▁ㅈㅏㅇㅅㅓㅇ -7121
ㄲㅗㄹ -7122
▁ㄷㅐㄷㅏㄴ -7123
▁ㅅㅏㄹㅗ -7124
▁ㅅㅏㅇㅣㄴ -7125
▁ㅎㅕㅇㅂㅓㅂ -7126
▁ㅂㅜㄷㅗ -7127
ㅋㅔㅇㅣㄴ -7128
ㅏㅇㅜㄴㅅㅓ -7129
▁ㅇㅏㄴㅏㅇㅜㄴㅅㅓ -7130
▁ㄱㅓㅅㅡㄹㅡ -7131
▁ㅈㅓㄴㅇㅣㅁ -7132
▁ㅅㅛㅍㅣㅇ -7133
▁ㅈㅓㄴㅈㅣ -7134
▁ㅇㅟㅈㅜ -7135
▁ㅁㅣㄴㅏㅁㅣ -7136
▁ㅇㅣㄹㅣ -7137
▁ㄱㅠㄱㅕㄱ -7138
▁ㄱㅠㅁㅕㅇ -7139
ㄱㅠㄴㄱㅘㄴ -7140
▁ㅍㅡㄹㅗㅅㅔㅅㅡ -7141
▁157 -7142
▁174 -7143
▁ㄱㅟㅎㅘㄴ -7144
▁ㅅㅜㅅㅣㄴ -7145
▁ㄱㅏㄴㅈㅓㅂ -7146
▁ㄴㅗㅁㅜㅎㅕㄴ -7147
▁ㅂㅗㅈㅓㄴ -7148
▁ㅇㅗㅋㅔㅅㅡㅌㅡㄹㅏ -7149
▁ㄹㅜㄹ -7150
▁ㅊㅡㄱㄱㅡㄴ -7151
▁Ar -7152
▁ㄱㅡㅁㅅㅓㅇ -7153
▁ㄹㅗㅂㅔㄹㅡ -7154
▁ㅂㅐㄱㅅㅣㄴ -7155
▁ㅂㅓㄴㄴㅚ -7156
▁ㅇㅣㅇㅣ -7157
▁ㅌㅔㅇㅣㄹㄹㅓ -7158
▁ㅂㅣㅈㅏㄴㅌㅣㅇㅜㅁ -7159
ck -7160
ㅜㄷㅡ -7161
▁ㅇㅏㅅㅔ -7162
▁ㅇㅣㅈㅣ -7163
▁j -7164
ㅈㅏㅇㅘ -7165
▁ㅊㅜㄹㄱㅜ -7166
▁152 -7167
▁ㄹㅗㅂㅣㄴ -7168
ㅈㅡㅋㅏ -7169
▁ㅅㅓㄴㄷㅜ -7170
ㄷㅐㄱㅜㄴ -7171
▁ㅈㅓㄴㅈㅏㅇ -7172
▁ㅍㅕ -7173
▁5000 -7174
ㅗㅇㅜ -7175
▁HIV -7176
▁ㅍㅏㄷㅗㅇ -7177
▁ㅈㅓㅈ -7178
▁ㅈㅘㅍㅛ -7179
▁ㄴㅐㄹㅕ -7180
▁ㅍㅣㅇㅔㄹㅡ -7181
ㅅㅡㅂㅜㄹㅡㅋㅡ -7182
▁ㅁㅏㄹㅣㅇㅗ -7183
▁ㅋㅡㄹㄹㅣㄴ -7184
▁ㅈㅜㄴㄱㅗㅇ -7185
▁ㅊㅜㅇㅅㅓㅇ -7186
▁WW -7187
▁ㅈㅜㅅㅏ -7188
▁ㅊㅏㄱㅅㅜ -7189
▁ㅈㅓㅇㅊㅏㄹ -7190
▁ㄴㅗㄷㅗㅇㅈㅗㅎㅏㅂ -7191
ㅅㅠㄹ -7192
▁MVP -7193
▁ㅂㅜㅈㅏ -7194
▁ㄱㅘㄴㅊㅏㄹㅅㅏ -7195
ㅂㅡㄹㅣ -7196
▁ㄱㅕㅇㅅㅓㄴ -7197
▁ㅈㅓㄴㅁㅜㄴㅎㅏㄱㄱㅛ -7198
ㅁㅏㅈ -7199
▁ㄱㅕㅌ -7200
▁ㅈㅓㅁㅇㅠ -7201
▁ㄱㅗㅈㅗ -7202
▁ㅁㅛㅇ -7203
▁ㄱㅜㄷㅗㅇ -7204
▁ㅎㅏㄹㄷㅏㅇ -7205
▁ㄱㅘㄴㅅㅡㅂ -7206
▁ㅎㅏㅂㅓㄷㅡ -7207
ㅗㄴㄷㅡ -7208
▁ㅁㅣㅅㅏ -7209
▁ㅊㅏㅊㅔ -7210
▁ㅎㅏㅌㅡ -7211
▁ㅅㅓㅇㅕㄹ -7212
▁ㅊㅐㄱㅂㅗㅇ -7213
▁ㅇㅘㅈㅜㅇ -7214
▁ㅇㅏㅇㅣㄷㅣㅇㅓ -7215
▁ㄱㅣㅇㅏ -7216
▁ㅅㅏㅁㅕㅇ -7217
▁ㄹㅜㅅㅜ -7218
▁ㅅㅓㅇㅂㅕㄱ -7219
▁ㅇㅕㅁㅅㅐㄱ -7220
▁ㅇㅜㅈㅣ -7221
▁ㅈㅏㅁㅏ -7222
▁ㅌㅡㄹㅐ -7223
▁ㅇㅘㄴㅎㅘ -7224
▁ㅅㅣㄴㅋㅏㄴㅅㅔㄴ -7225
▁ㅌㅡㅇㅟㄴ -7226
▁ㅇㅕㄹㅐ -7227
12 -7228
▁MP -7229
▁ㅋㅏㅌㅏㄹ -7230
▁ㅅㅓㄱㅌㅏㄴ -7231
▁ㅊㅏㅁㅍㅏㄴ -7232
ㅔㄱㅣ -7233
▁ㅍㅔㅇㅓ -7234
▁ㅅㅏㄹㅇㅏㄱㅏ -7235
▁ㅅㅓㅇㄱㅠㄴㄱㅘㄴ -7236
▁ㅌㅗㄴㅣ -7237
▁ㅈㅏㅅㅗㄴ -7238
▁ㅁㅣㅅㅡㅌㅓ -7239
▁146 -7240
▁ㄱㅗㄹㅕㅇ -7241
▁ㅂㅐㅇㅋㅡ -7242
▁ㅅㅣㄹㅣㅂ -7243
ㅏㅇㅑ -7244
▁ㄱㅝㄴㅇㅠ -7245
▁ㅎㅏㄴㅎㅘ -7246
▁ㅍㅡㄹㅗㅌㅗㅋㅗㄹ -7247
ㅓㅂㅣ -7248
ㅜㅁㅣ -7249
▁ㄱㅚㅇ -7250
ㅓㄹㅣㅇ -7251
ㅗㄱㄷㅗㄹㅗ -7252
ime -7253
▁ㅅㅗㄱㅘㄴ -7254
▁ㅇㅣㅅㅜㄴ -7255
▁ㅍㅣㄴㅏㄴ -7256
▁ㅇㅣㅁㅕㅇㅂㅏㄱ -7257
▁ㅅㅣㄹㅇㅛㅇ -7258
▁ㅌㅗㅇㅎㅐㅇ -7259
ㅈㅐㄱ -7260
ㅁㅗㅌㅗ -7261
▁ㄷㅣㅂㅣ -7262
▁ㄴㅏㅇㅕㄹ -7263
ㄲㅡㄹㅓㅂ -7264
▁ㅅㅣㅇㅚㅂㅓㅅㅡ -7265
ㄷㅔㄹㅡ -7266
▁ㅊㅏㄱㄱㅗㅇ -7267
ㅅㅏㄴㅁㅜㄹ -7268
▁ㅅㅗㅈㅐㅈㅣ -7269
▁ㅈㅔㅎㅠ -7270
▁ㅎㅡㅇㅎㅐㅇ -7271
▁ㄴㅏㅁㅇㅑㅇ -7272
▁ㅇㅜㄹㅏㄴ -7273
ㅂㅡㄹㄹ -7274
▁ㅇㅣㅅㅠ -7275
▁ㅇㅣㅂㅗㄱ -7276
▁125 -7277
▁ㅎㅐㅈㅓㄴ -7278
▁ISO -7279
▁ㅂㅏㄱㅇㅕㅇ -7280
▁ㅅㅔㄹㅖ -7281
ㄱㅕㄹㅅㅡㅇ -7282
▁ㅈㅏㅇㅇㅣㄴ -7283
▁ㄴㅣㅇㅏ -7284
▁ㅎㅣㅁㅆㅡ -7285
ㅈㅓㄴㅈㅏ -7286
▁ㅅㅗㅊㅗㅇ -7287
▁ㄹㅓㅅ -7288
▁ㅇㅛㅁㅣㅇ -7289
▁ㅅㅣㄱㄷㅏㅇ -7290
▁ㅇㅛㅁㅣㅇㅜㄹㅣ -7291
▁ㅅㅏㄹㅣ -7292
ㅋㅣㄴㅅㅡ -7293
▁ㄱㅓㅁㅈㅡㅇ -7294
▁105 -7295
▁ㅅㅏㅈㅣ -7296
▁ㅈㅔㅇㅢ -7297
▁ㄷㅏㅁㅂㅐ -7298
▁ㄷㅗㅇㄴㅏㅁㅇㅏㅅㅣㅇㅏ -7299
▁ㅈㅗㄴㄱㅕㅇ -7300
▁ㅈㅣㄱㅏㄱ -7301
▁ㅇㅡㄹㅕ -7302
▁ㅅㅗㄱㅡㅁ -7303
▁1911 -7304
▁ㄸㅏㅇㅟ -7305
ㅌㅡㄹㅐㄱ -7306
▁ㄱㅏㅇㅅㅏ -7307
▁ㅇㅟㄹㅅㅡㄴ -7308
ㅍㅡㅅㅡ -7309
▁ㄷㅗㅇㅇㅟ -7310
▁ㄱㅏㅅ -7311
▁ㅅㅗㄴㅣㄱ -7312
▁ㅇㅝㄴㄴㅏㄹㅏ -7313
ML -7314
one -7315
▁ㅇㅕㅇㅢ -7316
▁ㄴㅏㅁㅇㅣㄴ -7317
ㅁㅏㄹㅡ -7318
▁ㅂㅕㄴㄷㅗㅇ -7319
ㅍㅗㄹㄹㅣㅅㅡ -7320
▁Le -7321
▁ㅁㅏㅊㅓㄴ -7322
▁ㅈㅓㄴㅈㅣㄴ -7323
▁ㅇㅗㄷㅏ -7324
ㅎㅕㄱㅁㅕㅇ -7325
▁ㅅㅜㄴㅊㅓㄴ -7326
▁ㅊㅏㅇㅇㅓㅂ -7327
▁1500 -7328
▁ㄱㅜㄱㅇㅓ -7329
▁ㄱㅘㄴㅎㅕㄴ -7330
▁PS -7331
▁ㅅㅏㅇㄹㅠ -7332
▁ㅊㅟㅇㅑㄱ -7333
▁ㄱㅡㅂㅈㅣㄴ -7334
▁ㅎㅐㅇㅈㅣㄴ -7335
ㅎㅔ -7336
▁ㄱㅜㅈㅔ -7337
▁ㅇㅔㅁㅣㄹ -7338
▁ㅈㅗㅇㅛㅇ -7339
▁ㅅㅣㄴㅈㅓㄴ -7340
▁Pro -7341
▁ㅈㅏㅁㅕㄴ -7342
▁ㅈㅜㅁㅓㄴㅣ -7343
▁ㄱㅏㅇㅅㅜㄹㅑㅇ -7344
▁ㅅㅔㅁ -7345
▁3000 -7346
▁ㅇㅜㄹㅡ -7347
▁ㅇㅣㅂㅡ -7348
▁ㅇㅜㅈㅓㅇ -7349
▁ㄴㅗㄷㅡ -7350
▁ㅅㅓㅂㅡ -7351
ㅂㅔㅇㅣㄴ -7352
▁ㅂㅣㄹㅎㅔㄹ -7353
ㅈㅡㄹ -7354
▁ㅂㅜㄹㄹ -7355
ㅈㅐㅇㅣㄴ -7356
▁ㄱㅏㄱㅂㅗㄴㄱㅏ -7357
▁ㄱㅗㅂㅔ -7358
▁ㄱㅣㅁㅇㅛㅇ -7359
▁ㅇㅚㅁㅜ -7360
▁ㄷㅣㅈㅔㄹ -7361
▁ㄱㅘㄷㅗ -7362
▁ㄱㅗㅇㅝㄴ -7363
▁ㅇㅘㅇㅣㄴ -7364
▁ㅊㅓㅇㅅㅏ -7365
▁ㅎㅏㅇㄱㅗㅇㅁㅗ -7366
▁153 -7367
▁ㄲㅡㄴ -7368
▁ㅈㅓㄱㅎㅣ -7369
▁ㅅㅞ -7370
ㅋㅏㄷㅡ -7371
▁ㄷㅏㅈㅣ -7372
▁ㅅㅓㄷㅗㄱ -7373
▁ㅅㅏㅇㅅㅏㅇ -7374
▁ㅂㅐㄱㅜ -7375
▁ㅅㅏㅅ -7376
▁ㅇㅕㄴㄹㅜ -7377
▁ㅎㅢㄱㅡㄱ -7378
▁ㅅㅜㄹㅌㅏㄴ -7379
▁ㅊㅜㄹㅇㅣㅂㄱㅜ -7380
▁ㅊㅓㄴㅁㅜㄴㅎㅏㄱ -7381
ㅅㅜㅅㅜ -7382
ㅆㅏㅇ -7383
▁ㄱㅐㅇㅓㅂ -7384
▁ㄱㅓㅇㅣㄴ -7385
▁ㅁㅣㄴㄱㅜㄱ -7386
▁ㅁㅔㅇㅣㄴ -7387
▁ㅍㅐㅈㅓㄴ -7388
▁ㄷㅜㄹㅡ -7389
▁ㄷㅣㅇㅗ -7390
▁ㅇㅑㄼ -7391
ㅈㅔㅍㅡ -7392
▁ㅎㅐㅇㅣㅁ -7393
▁ㅂㅣㄱㅡㄱ -7394
▁ㅇㅣㄹㄹㅔㄱ -7395
▁ㅎㅡㅌ -7396
▁ㅎㅚㅅㅜ -7397
AP -7398
▁ㅁㅐㅊㅜㄹ -7399
▁ㅇㅣㄴㄱㅘ -7400
▁ㄱㅣㅇㅜㄹㅇㅣ -7401
▁ㅋㅜㄹㅡ -7402
▁ㅈㅣㅂㅜㄴ -7403
▁ㅁㅣㅇㅑㄴㅁㅏ -7404
▁ㅇㅔㅇ -7405
▁ㅈㅓㅌㅐㄱ -7406
ㅇㅏㄷㅏㄴㅣ -7407
▁ㅅㅣㄷㅡ -7408
▁ㅇㅠㅊㅜㄹ -7409
▁ㅇㅓㄹㅁㅏㄴㅏ -7410
▁ㄱㅣㅈㅏㅇ -7411
ㅏㄹㅏㅂㅣㅇㅏ -7412
▁ㅈㅓㅇㅊㅣㄱㅏ -7413
▁ㅇㅏㅍㅁㅕㄴ -7414
▁ㅁㅐㄱㅐ -7415
ㄷㅔㄹㅍㅣㅇㅏ -7416
▁ㅍㅣㄹㄹㅏㄷㅔㄹㅍㅣㅇㅏ -7417
ㅎㅜㄱㅜㄴ -7418
▁ㅇㅏㄱㅁㅏ -7419
▁ㄱㅏㄹㄹㅏㅈㅣ -7420
▁ㅎㅗㅍㅕㅇ -7421
▁ㅅㅓㅇㅈㅓㄴ -7422
▁ㅈㅜㅍㅏㅅㅜ -7423
▁ㄷㅏㄴㅇㅝㄴ -7424
▁ㅁㅗㄹㄹㅏㄱ -7425
▁ㅈㅡㅇㅎㅜㄱㅜㄴ -7426
▁ㅎㅓㅂㅡ -7427
▁ㅌㅡㄹㅐㄴ -7428
▁ㅊㅓㅇㅇㅝㄴ -7429
▁ㄷㅏㄺ -7430
▁ㅇㅕㅅㅜ -7431
▁ㄱㅘㅁㅗㄱ -7432
▁ㅂㅗㅇㅣㅇ -7433
▁ㅇㅗㅋㅣㄴ -7434
ㅎㅏㄹㅡㅌㅡ -7435
▁ㄷㅓㅁ -7436
▁ㅁㅏㅊㅏㄹ -7437
▁ㅊㅚㅈㅓㄱ -7438
▁ㅍㅗㅈㅏㅇ -7439
▁ㄱㅕㅁㅇㅣㅁ -7440
▁ㅇㅕㄴㄱㅜㅈㅏ -7441
▁ㄹㅔㅂㅏㄴ -7442
▁ㅈㅜㅇㅈㅓㅁ -7443
▁ㅍㅕㄴㄱㅗㄱ -7444
ㅏㄱㅎㅕㅇ -7445
te -7446
▁ㅍㅏㄴㅁㅐㄹㅑㅇ -7447
▁ㄷㅗㄱㄹㅣㅂㅇㅜㄴㄷㅗㅇㄱㅏ -7448
▁ㄱㅜㄺ -7449
▁ㅁㅜㅎㅛ -7450
OC -7451
▁ㅇㅣㅇㅝㄴ -7452
▁ㅇㅡㅇㄷㅏㅂ -7453
▁103 -7454
▁ㅅㅏㅁㅏ -7455
▁ㅊㅜㅇㅈㅗㄱ -7456
▁ㅇㅜㅈㅜㅅㅓㄴ -7457
▁ㅅㅙ -7458
▁ㅁㅣㄷㅇㅡㅁ -7459
▁ㅇㅕㄴㅇㅣㄴ -7460
▁ㅎㅘㄴㅇㅝㄴ -7461
▁ㄱㅐㅊㅏㄹㄱㅜ -7462
▁ㅇㅏㅇㅜㄹㄹㅓ -7463
▁ㄱㅔㅇ -7464
▁ㄱㅣㅇㅏㅂ -7465
▁ㅈㅜㅇㅈㅗㅇ -7466
▁ㅈㅜㅇㅈㅏㅇ -7467
▁ㄷㅏㄹㅇㅏㄴㅏ -7468
▁155 -7469
▁ㅂㅜㄱㄷㅗㅇㅂㅜ -7470
▁ㅇㅣㅈㅐ -7471
ㅁㅜㄴㄱㅘㄴ -7472
ㅇㅗㅅ -7473
▁ㅈㅔㅎㅜ -7474
▁ㅈㅣㅁㅗㄱ -7475
▁ㅊㅓㅇㅇㅘ -7476
ㄷㅗㅇㅁㅜㄹ -7477
▁ㅇㅖㅂㅐ -7478
▁MC -7479
▁ㅁㅐㄱㅣ -7480
▁ㅇㅠㅇㅓㄴ -7481
▁ㅊㅓㄴㅅㅏ -7482
▁ㅊㅏㅈㅇㅏㅂㅗ -7483
▁ㅇㅜㅍㅕㄴ -7484
ㅇㅏㄱㄷㅏㄴ -7485
▁ㄱㅘㄴㄴㅕㅁ -7486
▁ㅌㅚㄱㅏㄱ -7487
▁ㅍㅕㅇㅎㅐㅇ -7488
▁ㅎㅕㅂㄷㅗㅇ -7489
▁ㅈㅏㅊㅐㄱㅈㅓㅁ -7490
▁ㅇㅠㅎㅐ -7491
ㅡㄴㅣㅇㅏ -7492
▁ㅊㅓㅇㅇㅘㄷㅐ -7493
▁ㅁㅜㄴㅈㅔㅈㅓㅁ -7494
▁Con -7495
▁ㅅㅗㅈㅣ -7496
▁ㅇㅗㄹㅔㄴㅈㅣ -7497
▁ㄱㅔㄹㅡㅁ -7498
▁ㅇㅣㅇㅣㄴ -7499
▁ㄱㅗㅇㅇㅣㄴ -7500
▁ㅇㅗㅋㅏ -7501
▁ㅌㅗㅋㅡ -7502
▁ㅎㅡㄹㄹ -7503
▁ㅌㅡㄹㅏㅇ -7504
▁ㅎㅐㅇㅕㄱ -7505
▁ㅇㅣㄴㅎㅕㅇ -7506
▁ㅇㅗㄷㅣㅇㅗ -7507
▁Bo -7508
▁ㅈㅗㅇㅓㄴ -7509
▁ㅎㅘㄴㅅㅏㅇ -7510
▁108 -7511
▁ㅂㅗㅊㅜㅇ -7512
▁ㄱㅗㅅㄱㅗㅅ -7513
▁ㅅㅓㄴㅇㅝㄴ -7514
ㅍㅗㅅㅡ -7515
▁ㄱㅏㅁㅣ -7516
ㅅㅏㄴㅁㅕㄴ -7517
▁ㅂㅣㅌㅡㄹㅈㅡ -7518
▁ㅍㅗㄹㄹㅣㅅㅡ -7519
▁ㅎㅏㅇㄱㅗㅇㅁㅗㅎㅏㅁ -7520
▁ㅅㅏㅇㅁㅜ -7521
▁ㅇㅕㅇㄷㅗㅇ -7522
▁ㅌㅗㅇㅛㅇㅣㄹ -7523
▁ㅈㅔㅌㅡ -7524
▁ㅂㅓㅌㅡㄴ -7525
▁ㅁㅣㄴㅇㅕㅇ -7526
▁ㅂㅕㄹㅈㅏㄹㅣ -7527
▁ㅆㅗㄷ -7528
▁ㄲㅏㅁ -7529
▁ㅅㅣㅁㅗ -7530
▁ㄱㅡㄴㅈㅓㅂ -7531
▁ㅇㅣㅂㅅㅏㅇ -7532
▁ㅌㅗㄹㅣ -7533
▁ㅅㅐㅇㅇㅣㄹ -7534
▁ㅊㅣㄴㅊㅓㄱ -7535
▁ㅂㅣㄹㅎㅔㄹㄹㅡㅁ -7536
ㅗㄱㅣ -7537
▁ㅅㅓㅇㅁㅗ -7538
▁ㄴㅏㄱㅗㅇㅑ -7539
ㄴㅓ -7540
▁ㅇㅏㅇㅗ -7541
▁ㅇㅣㅂㅏㄴ -7542
▁ㅇㅏㄹㅡㅁㅔㄴㅣㅇㅏ -7543
▁ㅇㅣㅅㅜ -7544
▁IT -7545
▁ㅂㅓㅂㄹㅕㅇ -7546
▁ㅇㅑㅇㅅㅏㅇ -7547
▁ㅎㅚㄱㅖ -7548
▁ㅎㅑㅇㄱㅛ -7549
▁ㅂㅕㄹㄱㅐ -7550
▁ㅌㅡㄱㅇㅠ -7551
▁ㅅㅏㄹㅍ -7552
▁ㄷㅡㄹㄹㅣ -7553
▁ㄷㅡㄹㅏㅇㅣㅂㅡ -7554
ber -7555
▁ㅊㅟㅈㅐ -7556
ㅅㅡㅌㅔㄹ -7557
▁ㅈㅜㄱㅝㄴ -7558
▁ㅇㅏㄴㅣㅎㅏ -7559
▁ㅍㅓㅅ -7560
▁ㄱㅔㅈㅐ -7561
io -7562
▁ㅇㅟㄴㄷㅗ -7563
ㅍㅔㅇㅣ -7564
▁ㄱㅗㅇㅈㅏ -7565
▁ㅈㅣㅈㅣㅈㅏ -7566
ㅔㄷㅣ -7567
▁ㅇㅏㄴㅈㅏㅇ -7568
▁ㅅㅏㄹㅍㅕㅂㅗ -7569
▁ㄹㅛㅇ -7570
ㅏㄴㅌㅡ -7571
▁ㅈㅣㄴㄹㅣ -7572
▁ㄴㅜㄴㅁㅜㄹ -7573
▁ㄴㅐㄴㅐ -7574
▁ㅎㅜㅈㅏ -7575
▁ㄸㅓㅇㅗㄹㅡ -7576
▁ㅎㅐㅇㅜㄴ -7577
ㅏㅇㅓ -7578
▁ㅍㅗㅅㅜ -7579
▁ㅈㅗㅂㅏㄴ -7580
▁ㅊㅏㅁㄱㅏㅈㅏ -7581
▁ㅎㅟㅂ -7582
ㅅㅏㄹㅕㅇ -7583
▁ㅅㅑㄹㅡㄹ -7584
▁ㅎㅜㅇㅏㄴ -7585
▁ㄱㅔㄹ -7586
▁ㅅㅔㄱㅠㄴ -7587
▁ㄴㅏㅁㅇㅝㄴ -7588
▁ㅍㅓㅅㅣㅍㅣㄱ -7589
ㅊㅡㅋㅣ -7590
▁ㅉㅏㄹㅣ -7591
▁ㄱㅏㄱㄱㅣ -7592
ㅡㅂㅜㄹㅡㅋㅡ -7593
▁ㄱㅔㄹㅡㅁㅏㄴ -7594
▁ㅋㅡㄹㅣㅅㅡㅁㅏㅅㅡ -7595
▁ㅅㅏㅅㅡ -7596
▁ㅅㅏㅇㅈㅏ -7597
ㅜㅇㅔㄹㄹㅏ -7598
ㅌㅜㅁ -7599
▁ㅅㅜㅅㅓㅇ -7600
▁ㅅㅡㅇㅊㅏ -7601
▁ㅎㅚㄱㅕㄴ -7602
▁128 -7603
▁# -7604
▁ㅎㅚㅎㅘ -7605
▁ㅅㅏㅇㅈㅏㅇ -7606
▁ㅇㅜㅋㅡㄹㅏㅇㅣㄴㅏ -7607
▁1909 -7608
▁ㅅㅓㅅㅓ -7609
▁ㅌㅔㅅㅡ -7610
▁ㅇㅟㅈㅏㅇ -7611
▁ㅍㅗㄱㅅㅡ -7612
▁ㄱㅗㅇㄹㅑㄱ -7613
▁ㅇㅠㄱㅕㄱ -7614
▁ㅇㅣㅇㅕㅇ -7615
▁ㄱㅣㅅㅡ -7616
▁ㅊㅜㅁㅗ -7617
▁ㅁㅣㄴㅅㅏ -7618
▁ㅋㅓㄴㅌㅡㄹㅗㄹ -7619
age -7620
▁149 -7621
▁ㅇㅒ -7622
▁ㅁㅐㅅㅏ -7623
▁ㅇㅠㄱㅛ -7624
▁ㄹㅔㅈㅓㄴ -7625
▁ㅅㅏㄴㅌㅏ -7626
ㅂㅏㄷㅊㅣㅁ -7627
ㅋㅏㅇㅑㅁㅏ -7628
▁ㅅㅏㅇㅂㅜ -7629
▁ㅇㅑㄱㅏㄴ -7630
▁ㅂㅏㄱㅌㅏㄹ -7631
▁ㅅㅡㅇㅁㅜㅇㅝㄴ -7632
ㅊㅔㄴ -7633
ㄸㅐㄹㅗ -7634
▁ㅈㅐㅁㅣ -7635
▁ㄱㅓㄴㅇㅢ -7636
▁ㅂㅏㄹㅇㅝㄴ -7637
▁ㅇㅣㄹㅈㅗㄱ -7638
▁ㄱㅛㄷㅏㄴ -7639
▁ㅌㅐㅇㅜ -7640
ㅂㅐㄱㄱㅘ -7641
▁ㅅㅡㅌㅔㅍㅏㄴ -7642
▁ㅍㅏㅌㅡ -7643
▁ㄱㅛㅈㅏㅇ -7644
ㄲㅜ -7645
ㅂㅏㅌ -7646
ㄹㅏㅁㅎㅚ -7647
▁102 -7648
▁ㅇㅚㄱㅜㄱㅇㅓ -7649
▁ㅎㅏㅇㅣㄴㄹㅣㅎㅣ -7650
ㅌㅏㄴㅣ -7651
▁ㅇㅏㄱㅜㄴ -7652
▁ㅂㅗㄱㅈㅏㅇ -7653
▁ㅇㅣㄹㄱㅘㄴ -7654
▁ㅇㅣㄹㅉㅣㄱㅇㅣ -7655
▁ㅎㅔㄷㅡ -7656
▁ㅇㅏㅇㄹㅣ -7657
▁ㅌㅖㄴ -7658
▁ㅇㅚㄱㅘㄱ -7659
▁ㄷㅗㅇㄷㅡㅇ -7660
▁ㅅㅏㅇㅛㅇㅈㅏ -7661
▁ㅇㅝㄴㅈㅏㄹㅗ -7662
▁ㅌㅓㅈㅣ -7663
▁$ -7664
▁ㅎㅘㅅㅏㄹ -7665
ㅂㅔㅅ -7666
▁ㅇㅕㄴㄷㅗ -7667
▁ㅎㅗㅊㅣㅇ -7668
▁ㅃㅐㅇㅏㅅㄱㅣ -7669
ㄷㅏㄷ -7670
▁ㅂㅔㄹㅡㅋㅡ -7671
ㅣㅁㅔ -7672
▁ㅇㅠㄹㄹㅣ -7673
▁ㅇㅣㄴㄱㅕㄱ -7674
ㅌㅣㅇㅏ -7675
▁ㅅㅏㅇㄱㅗㅇ -7676
iz -7677
▁ㄸㅐㄸㅐㄹㅗ -7678
ㅏㅇㅋㅏ -7679
▁ㅌㅡㄹㅔㅇㅣㄴ -7680
ㅈㅣㅂㅎㅏㅂ -7681
▁ㄷㅜㄷㅡㄹㅓㅈㅣ -7682
▁ㅈㅜㅇㄷㅗ -7683
▁ㅈㅏㅂㅏㄹ -7684
▁ㅅㅣㄹㅈㅗㅇ -7685
▁ㅇㅣㅅㅏㅈㅏㅇ -7686
▁ㅅㅐㅇㅁㅕㅇㅊㅔ -7687
▁ㄷㅜㅅㅏㄴ -7688
▁ㅈㅓㄴㄹㅖ -7689
▁ㄷㅗㅇㄱㅜㄱ -7690
▁ㅅㅣㅊㅓㅇㅈㅏ -7691
▁ㅌㅏㄹㅡ -7692
▁ㅈㅣㄴㄷㅗ -7693
▁ㅈㅜㄴㄱㅕㄹㅅㅡㅇ -7694
▁ㅂㅗㄷㅡ -7695
▁ㅊㅣㅅㅔ -7696
▁ㅇㅣㅇㅓㅂ -7697
▁ㅌㅡㄹㅓㅁㅍㅡ -7698
▁ㅇㅣㅅㅡㄹㄹㅏㅁㄱㅛ -7699
▁ㅇㅣㅇㅓㅅㅓ -7700
▁ㄱㅓㄴㅊㅜㄱㄱㅏ -7701
sp -7702
▁ㄲㅚ -7703
ㅡㄹㅅㅡ -7704
▁ㄷㅏㅈㅜㅇ -7705
▁ㄷㅐㅈㅜㄱㅛ -7706
ㄹㅕㅈㅜ -7707
▁ㄱㅖㅈㅓㄹ -7708
▁ㅎㅏㅂㅂㅓㅂ -7709
▁Bl -7710
▁ㅈㅓㅁㅍㅡ -7711
▁ㅊㅏㄴㅏㅁ -7712
▁ㄴㅔㅇㅣㅂㅓ -7713
ㅁㅓㄱ -7714
▁ㄱㅣㄱㅡㅁ -7715
▁ㅈㅓㄱㅈㅏ -7716
▁ㅈㅣㅂㄱㅖ -7717
ge -7718
ㄱㅛㅇㅠㄱ -7719
▁ㅇㅜㄴㄷㅗㅇㅈㅏㅇ -7720
ㅎㅘㅈㅓㅁ -7721
ㅅㅡㅌㅣ -7722
▁ㅈㅡㄹㄱ -7723
▁ㅅㅓㅇㅈㅜ -7724
▁ㅁㅔㄷㅣ -7725
▁ㅂㅣㅇㅏ -7726
▁ㅁㅐㄹㅕㄱ -7727
▁ㄱㅡㅁㅇㅐㄱ -7728
▁ㅇㅕㄱㅁㅕㅇ -7729
▁ㅇㅙㅅㅓㅇ -7730
▁ㅇㅣㅌㅡㄹ -7731
▁ㅅㅓㄲㅇㅣ -7732
▁ㅂㅏㄹㅎㅕㄴ -7733
ㄱㅣㅁ -7734
▁ㅈㅏㅇㅠㄷㅏㅇ -7735
▁ㅅㅏㅇㄷㅐㅂㅏㅇ -7736
ㅅㅏㅇㅅㅡ -7737
▁ㅊㅜㅇㅈㅜ -7738
▁ㅌㅐㅅㅐㅇ -7739
▁ㅈㅔㅈㅏㄱㅈㅏ -7740
▁ㅇㅔㄷㅣ -7741
ㄱㅕㅇㄱㅣ -7742
▁ㄹㅔㅇㅣㅈㅓ -7743
▁ㅌㅔㄱㅅㅡㅌㅡ -7744
▁ㅇㅔㄹㄹㅣㅂ -7745
▁ㄱㅡㄹㅏㅇㅍㅡㄹㅣ -7746
▁ㅎㅗㅇㅟ -7747
▁ㅇㅔㄹㄹㅣㅂㅔㅇㅣㅌㅓ -7748
ㅅㅗㅅㅡ -7749
ㄱㅜㅈㅏㅇ -7750
▁ㄹㅔㅅㅡㄹ -7751
▁ㄱㅔㅇㅣㅌㅡ -7752
▁ㅇㅖㄹ -7753
▁ㄴㅗㄹㅏㄴㅅㅐㄱ -7754
▁ㅋㅐㅁㅍㅔㅇㅣㄴ -7755
▁ㅈㅠ -7756
ㅗㄹㅏ -7757
▁ㄱㅕㄱㄹㅕㄹ -7758
▁ㅎㅣㄷㅔㅇㅛㅅㅣ -7759
AD -7760
▁ㅂㅜㅊㅏㄱ -7761
▁ㅈㅔㄱㅗㅂ -7762
ㅅㅏㄴㄱㅜㄴ -7763
▁CPU -7764
▁ㅇㅠㅋㅣ -7765
▁ㅅㅡㅌㅔㄹ -7766
▁ㅇㅕㅈㅣㄴ -7767
▁ㅍㅗㄷㅗㅈㅜ -7768
▁ㅈㅏㄱㅗ -7769
▁ㅇㅔㅇㅣㅅㅡ -7770
▁ㅈㅓㄴㄷㅐ -7771
ㅎㅏㅇㄱㅗㅇ -7772
ㅇㅡㄹ -7773
▁ㄷㅐㄱㅜㄴ -7774
▁ㄴㅐㅈㅣ -7775
▁ㅁㅣㄹㅜ -7776
▁ㄱㅏㅁㅈㅣ -7777
▁ㅊㅗㅊㅏㅇ -7778
▁ㅈㅓㅇㅁㅣㄹ -7779
▁ㅇㅠㅅㅗㄴㅕㄴ -7780
▁ㅁㅕㅇㅇㅢ -7781
▁ㅊㅜㅈㅡㅇ -7782
▁ㅍㅗㄱㅘㄹ -7783
▁ㅂㅡㄹㄹㅜㅅㅡ -7784
▁ㅅㅏㅇㅜㄷㅣㅇ -7785
▁ㅅㅏㅇㅜㄷㅣㅇㅏㄹㅏㅂㅣㅇㅏ -7786
▁ㄷㅐㅇㅕㄱ -7787
▁ㄷㅗㅇㄷㅏㅇ -7788
▁ㅈㅣㄱㅊㅐㄱ -7789
▁ㄹㅗㅁㅐㄴㅅㅡ -7790
▁ㅇㅟㅋㅣㅂㅐㄱㄱㅘ -7791
▁ㄷㅏㄷ -7792
▁ㄱㅗㅊㅔ -7793
▁ㅂㅏㄴㄱㅕㄱ -7794
ㅅㅜㅇㅏ -7795
▁ㄱㅏㄹㅡㅊㅣㅁ -7796
▁ㅇㅏㄹㅂㅏㄴㅣㅇㅏ -7797
▁ㅈㅜㅇㄱㅜㄱㅇㅣㄴ -7798
▁1915 -7799
ㅏㄴㅎㅣ -7800
ㅍㅡㄹㅗㅅㅡ -7801
▁ㅁㅜㄴㅇㅑㅇ -7802
▁ㅂㅜㄴㄱㅘㅇ -7803
▁ㅂㅔㄴㅔㅅㅜㅇㅔㄹㄹㅏ -7804
▁ㄱㅡㅁㅏㄴㄷㅜ -7805
ㅁㅏㅊㅣ -7806
▁ㅈㅜㅈㅣㅅㅏ -7807
▁ㅍㅕㄹㅊㅕㅈㅣ -7808
▁ㄱㅘㅇㄴㅕㄴ -7809
▁ㄷㅐㅇㅚ -7810
▁ㅌㅔㄴㅣㅅㅡ -7811
ㅁㅕㅇㅅㅏㅈㅓㄴ -7812
▁ㅇㅔㅅㅡㅍㅏㄴㅑ -7813
ㅖㅍㅡ -7814
▁147 -7815
▁ㅁㅔㄱㅏ -7816
▁ㅂㅜㅊㅓㄴ -7817
ㅈㅏㅊㅣㄷㅗ -7818
▁ㅈㅔㅈㅜㅌㅡㄱㅂㅕㄹ -7819
ㅣㅊㅣ -7820
orld -7821
▁ㄱㅣㅅㅜ -7822
ㄷㅜㅎㅘㄴ -7823
▁ㅊㅓㅇㅈㅏㅇ -7824
▁ㅁㅜㄴㅈㅐㅇㅣㄴ -7825
▁ㅅㅓㄲ -7826
▁ㅁㅣㅎㅏㅇ -7827
▁ㄱㅜㅇㅈㅓㅇ -7828
▁127 -7829
ㅂㅗㄱㅣ -7830
▁ㅌㅏㅋㅏ -7831
▁ㄱㅗㄹㅐ -7832
ㄸㅡ -7833
▁ㄱㅏㅇㄱㅘ -7834
▁ㄷㅜㄹㄹㅔ -7835
▁ㅅㅜㅍㅕㅇ -7836
▁ㄴㅏㅁㅎㅏㄴ -7837
▁ㅋㅏㅈㅏㅎㅡ -7838
▁ㄹㅔㅈㅓㄴㄷㅡ -7839
▁ㅅㅗㅇㄴㅏㄹㅏ -7840
ㅊㅏㄹㅖ -7841
▁ㅋㅏㅁㅂㅗ -7842
▁ㅌㅏㅁㅈㅣ -7843
▁ㄱㅗㅂㅏㄹ -7844
ㅍㅏㄱ -7845
▁ㅌㅓㄱ -7846
▁1913 -7847
▁ㅅㅔㄴㅅㅓ -7848
▁ㅇㅜㄹㄹㅣ -7849
ㅊㅏㅇㄱㅜㄴ -7850
ㅏㅋㅏ -7851
ㅅㅓㄹㅣ -7852
▁ㅊㅏㅇㄱㅓㄴ -7853
▁al -7854
▁ㄴㅜㄹ -7855
▁ㅁㅜㄴㅎㅏㄱㅅㅏㅇ -7856
ik -7857
▁171 -7858
▁ㅇㅗㄹㅗ -7859
▁ㄷㅐㄷㅏㅂ -7860
▁ㅅㅓㅂㅊㅟ -7861
ㅏㄴㄷㅏ -7862
▁ㅇㅏㄱㅏ -7863
▁ㅅㅏㅇㅅㅔ -7864
▁ㅎㅑㅇㅎㅜ -7865
▁ㄹㅡㄴㅔㅅㅏㅇㅅㅡ -7866
ㅅㅣㅌㅣ -7867
▁ㄷㅗㅅㅡ -7868
▁ㄲㅜㄹ -7869
▁ㄴㅏㄹㅣ -7870
ㄷㅡㄹㅣㄱ -7871
ㅊㅜㅇㅝㄴ -7872
▁ㅁㅓㅅㅣㄴ -7873
▁ㅊㅜㄱㅕㄱ -7874
▁ㄴㅏㄴㅁㅣㄴ -7875
ㅊㅣㄹㄹㅣㅇㅏ -7876
▁ㅁㅔㅌㅏ -7877
ㅁㅜㄴㅔ -7878
ㅍㅗㅌㅡ -7879
▁ㄷㅏㄴㅣㅇㅔㄹ -7880
▁ㅅㅓㅅㅓㅎㅣ -7881
▁ㅅㅗㄴㄱㅏㄹㅏㄱ -7882
▁ㄱㅘㅇㅂㅜ -7883
▁ㅍㅡㄹㅐㅇㅋㅡ -7884
ㄹㅏㄷㅡ -7885
▁ㄱㅣㄴㅈㅏㅇ -7886
▁ㅎㅜㅁ -7887
▁ㅌㅗㅁㅏ -7888
▁ㅅㅜㄱㅜㄴ -7889
▁ㄷㅏㄴㅈㅓㅁ -7890
▁ㄷㅙㅈㅣ -7891
▁ㄷㅏㄴㄱㅣ -7892
▁ㅅㅣㄴㅈㅜㅇ -7893
ㅍㅗㄱㅜ -7894
▁ㅌㅐㅅㅜ -7895
▁ㅍㅜㄴ -7896
▁ㅂㅜㄱㄱㅜ -7897
ㅍㅕㅇㄱㅜㄴ -7898
▁ㅌㅗㅇㅊㅣㅇ -7899
▁ㅍㅐㅇㅊㅏㅇ -7900
▁1895 -7901
▁ㅅㅏㅋㅏ -7902
▁ㅅㅗㅁ -7903
▁ㅅㅣㄴㅎㅡㅇ -7904
▁ㅊㅓㄴㅁㅜㄴㅎㅏㄱㅈㅏ -7905
▁ㅃㅗㅂㅎㅣ -7906
▁ㄷㅣㅅㅡㅍㅡㄹㄹㅔㅇㅣ -7907
ㅋㅡㅇ -7908
▁ㅂㅐㅌㅡㄹ -7909
▁ㅇㅗㄴㅊㅓㄴ -7910
▁ㅇㅝㄴㅂㅏㄴ -7911
▁ㄴㅏㄱㅏㅅㅏㅋㅣ -7912
▁ㅅㅜㄹㅕㅁ -7913
▁ㅊㅜㄹㅌㅗ -7914
▁SP -7915
▁ㅂㅜㄱㅘ -7916
▁ㅊㅏㅇㅅㅣ -7917
▁ㅎㅜㅇㅣㄹ -7918
▁ㄷㅏㅎ -7919
▁ㅂㅓㅂㅈㅔ -7920
▁GT -7921
▁ㅅㅗㄱㅅㅓㅇ -7922
▁ㄴㄷㅏ -7923
EN -7924
▁ㅅㅣㅇㅗ -7925
ㅅㅏㄴㄹㅣ -7926
▁ㅊㅗㅇㅕㄴ -7927
▁ㅍㅜㅅㅂㅗㄹ -7928
▁ㅇㅗㅋㅣㄴㅏㅇㅘ -7929
ㅏㅇㅣㅇㅓ -7930
ㅋㅡㄹㅣㅌㅡ -7931
▁ㄱㅏㅇㄱㅕㅇ -7932
▁141 -7933
▁ㄸㅏㄸㅡㅅ -7934
▁ㅇㅣㅂㅊㅔ -7935
▁ㅂㅜㄱㅂㅏㅇ -7936
▁ㅊㅗㅊㅏㅇㄱㅣ -7937
▁Tr -7938
ㅓㅇㅜ -7939
▁ㅎㅗㅅㅔ -7940
▁ㄴㅓㄼㅎㅣ -7941
▁ㄷㅗㅇㄴㅕㄴ -7942
▁ㄷㅏㅇㅜㄴㄹㅗㄷㅡ -7943
▁ㅇㅓㄴㄹㅗㄴㅇㅣㄴ -7944
▁ㅁㅕㅇㅁㅗㄱ -7945
▁ㅂㅜㄱㅅㅓㅂㅜ -7946
▁ㅍㅏㄹㄹㅔㅅㅡㅌㅏㅇㅣㄴ -7947
ㅍㅗㅇ -7948
▁ㅊㅜㅅㅏㅇ -7949
MS -7950
ㅅㅜㄹㅣ -7951
▁ㅈㅗㄴㅈㅜㅇ -7952
▁ㄹㅏㅇㅣㅇㅓㄴ -7953
▁ㄱㅣㅁㅇㅕㅇㅅㅏㅁ -7954
▁ㅁㅜㅈㅔ -7955
ㅌㅔㅇㅣㄴ -7956
ㅅㅐㅇㅎㅘㄹ -7957
▁ㅁㅜㄴㅎㅘㅂㅏㅇㅅㅗㅇ -7958
ㄹㅣㅇㅔ -7959
▁ㅁㅜㄹㅈㅏ -7960
▁ㅂㅣㅁㅜㄴ -7961
▁ㅅㅣㅁㅇㅢ -7962
▁ㅈㅓㄴㅎㅏㅁ -7963
ust -7964
ㅎㅐㅇㅇㅟ -7965
▁ㅅㅜㅇㅂㅐ -7966
▁ㄷㅗㅇㄷㅗㄱ -7967
▁169 -7968
▁ㄱㅐㄱㅘㄴ -7969
▁ㅁㅕㅊㅣㄹ -7970
▁ㅅㅏㅈㅓㄹ -7971
▁ㅇㅣㅈㅣㄴ -7972
ㅃㅏㄹ -7973
▁ㄱㅗㄹㅍㅡ -7974
▁ㅈㅓㄱㄷㅐ -7975
ㄱㅗㅁ -7976
▁ㅊㅚㅅㅗㅎㅏㄴ -7977
int -7978
▁ㄷㅏㅁㅏ -7979
ㅇㅓㄷㅡㄹㅇㅣ -7980
▁ㅈㅓㄱㅣㅇㅏㅂ -7981
▁ㄹㅣㅁㅔㅇㅣㅋㅡ -7982
▁135 -7983
▁ㅋㅐㅅㅡㅌㅣㅇ -7984
▁ㅇㅟㄹㄹㅣㅇㅓㅁㅅㅡ -7985
ep -7986
▁144 -7987
ㅇㅓㅇㅗ -7988
▁ㄱㅣㅁㅈㅣㄴ -7989
▁ㅈㅜㅊㅜㄱ -7990
▁ㄷㅗㅎㅗㅋㅜ -7991
▁ㅂㅕㅇㅇㅕㄱ -7992
▁ㅊㅐㅁㅜ -7993
▁ㅇㅏㅂㅔㄹ -7994
▁ㅋㅝ -7995
▁ㄱㅟㅈㅜㅇ -7996
▁ㅂㅡㄹㅏㅇㅜ -7997
▁ㅅㅜㅅㅜ -7998
ㅈㅏㅅㅡ -7999
▁ㅅㅡㅌㅣ -8000
▁ㄱㅏㅂㅈㅏㄱ -8001
▁ㅇㅣㅇㅓㅂㅏㄷ -8002
▁111 -8003
▁ㅈㅜㅊㅏ -8004
▁ㅅㅣㄹㅏ -8005
▁ㅇㅑㅇㅈㅜ -8006
▁ㅈㅏㅁㅏㅈㅏ -8007
▁ㅅㅜㄹㅕㅇ -8008
▁ㅈㅓㄴㄷㅜㅎㅘㄴ -8009
ㄹㅕㅁ -8010
ㅇㅕㅈㅣ -8011
▁ㄱㅜㄱㅅㅏ -8012
▁ㅊㅣㅁㅁㅗㄹ -8013
▁ㅈㅏㄱㅣㅈㅏㅇ -8014
▁ㅎㅏㅇㅜ -8015
ㅅㅓㄱㄱㅣ -8016
▁ㅅㅗㅅㅣㄹ -8017
▁ㅇㅓㅇㅓㅂ -8018
▁ㅋㅓㄹㄹㅓ -8019
▁ㅎㅗㅇㅅㅜ -8020
▁ㄲㅙ -8021
▁ㅂㅏㅅㅣㄹ -8022
▁ㅋㅓㅁㅍㅓㄴㅣ -8023
▁ㅅㅏㅇㄷㅏㅇㅅㅜ -8024
▁ㅊㅗㅇㅅㅓㄴㄱㅓ -8025
▁ㅇㅏㅈㅗㅇ -8026
▁ㅇㅣㅁㅣㄴㅈㅏ -8027
▁119 -8028
▁ㅅㅡㅌㅐ -8029
▁ㄴㅏㅈㅊㅜ -8030
▁ㅊㅣㄴㅇㅣㄹㅇㅣㄴ -8031
▁ㄱㅗㅇㅊㅐ -8032
▁ㅇㅗㄱㅅㅡ -8033
▁CO -8034
ㅣㅇㅐ -8035
▁ㅎㅜㅅㅔ -8036
▁ㅊㅗㅇㄱㅘㄹ -8037
▁ㅁㅜㅈㅚ -8038
▁ㅋㅡㄹㅏ -8039
GC -8040
▁ㄴㅏㅈㅜ -8041
▁ㅅㅡㅌㅓ -8042
▁ㄱㅖㅁㅗㅇ -8043
▁ㅍㅕㅇㅇㅑ -8044
ㅏㄹㄹㅏ -8045
▁ㅅㅣㄱㅗㅇ -8046
▁ㅇㅕㅇㄹㅣ -8047
▁ㄱㅐㅁㅣ -8048
▁ㅁㅜㄹㅕ -8049
▁ㄷㅐㅍㅗ -8050
▁ㅍㅕㅇㅇㅝㄴ -8051
▁ㅅㅜㅇㅛㅇㅅㅗ -8052
▁ㅊㅗㅅㅏㅇㅎㅘ -8053
▁ㅋㅡㄹㄹㅣ -8054
▁ㅅㅓㅂㅈㅓㅇ -8055
▁ㄱㅛㅇㅚ -8056
▁ㅁㅛㅇㅕㄱ -8057
▁ㄷㅓㄱㅡㄹㄹ -8058
▁ㅈㅓㅇㅈㅓㄴ -8059
▁ㅍㅕㅇㅇㅣㄹ -8060
ude -8061
▁TH -8062
▁ㅅㅡㅌㅗㅇ -8063
▁ㅇㅏㄷㅏㅁ -8064
▁ㄱㅚㅇㅈㅏㅇ -8065
ㅔㅇㅓ -8066
▁ㄱㅗㅁㅜ -8067
▁ㄱㅣㅁㅅㅏㅇ -8068
▁ㅂㅕㄹㅊㅣㅇ -8069
▁ㅇㅠㄴㅣㅂㅓ -8070
▁ㅇㅠㄴㅔㅅㅡㅋㅗ -8071
▁ㅎㅕㅂㅈㅗ -8072
▁ㅁㅗㄴㅌㅡㄹ -8073
▁ㅎㅡㅌㅇㅓㅈㅣ -8074
▁ㅇㅣㄴㅈㅐ -8075
▁ㅇㅓㄴㅈㅔㄴㅏ -8076
▁ㅌㅏㅁㅏ -8077
ㅍㅐㄱㅌㅡ -8078
▁ㅅㅡㅍㅏㄹㅡㅌㅏ -8079
▁ㅊㅟㅈㅣ -8080
ㅋㅣㅈㅣ -8081
▁ㅅㅓㅅㅏ -8082
▁ㅍㅐㅅㅡ -8083
▁ㅇㅓㅅㅡ -8084
▁ㅍㅖㅇㅟ -8085
▁ㅎㅐㅂㅕㅇㄷㅐ -8086
▁ㅁㅗㄴㅌㅡㄹㅣㅇㅗㄹ -8087
▁ㅅㅣㄱㅂㅕㄹ -8088
▁172 -8089
▁ㄹㅗㅍㅡ -8090
▁ㅎㅏㅂㅜ -8091
▁ㅇㅏㅅㅏㅎㅣ -8092
▁ㅇㅠㅇㅕㄴ -8093
▁ㅎㅜㄷㅐ -8094
▁ㅇㅡㅁㅇㅝㄴ -8095
▁ㅁㅗㅅㅡ -8096
▁ㅊㅗㄱㄱㅜ -8097
ib -8098
▁ㅇㅚㅇㅑ -8099
▁ㅈㅓㅁㅕㅇ -8100
ㅎㅡㅁ -8101
ㅗㅇㅣㄴ -8102
▁ㅈㅓㄴㄷㅗ -8103
ㅏㅂㅔ -8104
▁ㅋㅏㄹㅣㅂㅡ -8105
▁It -8106
ㅌㅡㄹㄹㅐㄴ -8107
▁ㅂㅏㅇㅊㅣㅁ -8108
▁ㅅㅓㅇㅜㄹㄷㅐ -8109
▁ㅅㅣㄴㅎㅏㄱㄱㅛ -8110
▁ㅈㅣㅍㅖ -8111
▁ㄷㅐㅇㅜㅇ -8112
▁ㅋㅏㅁㅂㅗㄷㅣㅇㅏ -8113
▁ㅂㅏㄹㅣ -8114
▁ㅇㅜㄹㅏ -8115
▁ㅂㅜㄱㅇㅟ -8116
▁ㄷㅗㅇㄹㅕㄱ -8117
▁106 -8118
▁ㅁㅐㅋㅏ -8119
▁ㅎㅏㄴㄷㅗㅇㅇㅏㄴ -8120
▁ㅈㅏㅇㅁㅣ -8121
▁ㅊㅏㄱㅣ -8122
▁ㅍㅕㄴㄹㅣ -8123
ㅍㅡㅁ -8124
ㅡㅂㅏㅇㅣ -8125
▁ㅈㅣㄴㄱㅜㄴ -8126
▁ㅇㅗㅍㅡ -8127
▁ㄹㅏㅇㅣㅂㅡㄹ -8128
▁ㄴㅏㅅ -8129
▁ㅈㅗㅇㄱㅕㄹ -8130
▁ㅅㅡㄹㅣㄹㄹㅓ -8131
▁ㄴㅐㅇㅚ -8132
▁ㅇㅏㅇㅣㅅㅡㄹㄹ -8133
▁ㅌㅏㄹㅎㅘㄴ -8134
▁ㅋㅓㄹㄹㅓㅁㅂㅣㅇㅏ -8135
▁ㅇㅐㄷㅓㅁ -8136
ome -8137
▁ㄷㅐㅊㅓ -8138
▁ㅇㅏㅂㅔ -8139
▁ㄴㅏㄹㅉㅏ -8140
▁ㅈㅗㄷㅏㄹ -8141
▁ㅋㅗㄹㄹㅏ -8142
▁ㅊㅏㅈㅇㅏㄴㅐ -8143
▁ㄹㅣㅇㅋㅓㄴ -8144
▁ㅇㅜㄹㅏㄴㅠㅁ -8145
▁ㄸㅐㄹㅣ -8146
▁ㅅㅣㄴㅅㅔ -8147
▁ㄲㅓㅂㅈㅣㄹ -8148
▁ㅈㅜㅇㅊㅜㅇㅝㄴ -8149
ㅅㅓㄴㅅㅡ -8150
▁ㄱㅗㅂㅐㄱ -8151
▁ㄱㅘㄴㄹㅏㅁ -8152
▁ㅅㅡㅌㅣㅂㅡ -8153
▁ㅈㅓㄴㅇㅏㅂ -8154
▁ㅇㅣㄱㅡㄹㅅㅡ -8155
ㅈㅣㅇㅘ -8156
▁ㅇㅗㅃㅏ -8157
▁ㄴㅏㄱㅅㅓㄴ -8158
ㅁㅔㄴ -8159
ㅂㅏㄱㅈㅟ -8160
▁ㅆㅡㄹㅓㅈㅣ -8161
▁ㅈㅓㅇㄹㅕㄹ -8162
▁ㅈㅜㅇㄹㅑㅇ -8163
▁ㅇㅕㄴㅅㅔㄷㅐ -8164
▁ㅇㅐㄴㅣ -8165
▁ㄱㅗㅇㅁㅗ -8166
▁ㅎㅏㅁㅇㅠ -8167
▁ㄴㅏㅌㅁㅏㄹ -8168
▁ㅊㅜㅇㅂㅜㄱ -8169
ian -8170
▁ㄱㅣㅅㅡㅂ -8171
▁ㅈㅔㄱㅏㄹ -8172
▁ㅅㅣㅂㅈㅏㄱㅏ -8173
▁ㄷㅐㅈㅔ -8174
ㅐㅅㅕㄴㅓㄹ -8175
▁ㅇㅣㄴㅌㅓㄴㅐㅅㅕㄴㅓㄹ -8176
ㄱㅣㅈㅣ -8177
ㅅㅔㅊㅡ -8178
▁ㅌㅔㄹㅔ -8179
▁ㅇㅣㄱㅘㅇ -8180
▁ㅂㅐㄱㅇㅏㄱ -8181
▁ㄹㅐㅁ -8182
▁ㅇㅏㅌㅡㄹㄹㅔ -8183
ment -8184
▁ㅇㅠㄴㅊㅣ -8185
▁ㅍㅜㅇㄱㅕㅇ -8186
ㅏㄷㅣㅁ -8187
▁ㄷㅡㅇㅈㅐ -8188
▁ㅇㅐㄴㄷㅡ -8189
▁ㄱㅐㄱㄱㅘㄴ -8190
▁ㅁㅐㅅㅏㅊㅜ -8191
▁ㅅㅏㅇㅣㅂㅓ -8192
▁ㅂㅡㄹㄹㅏㄷㅣㅁ -8193
▁ㄱㅛㅇㅑㅇ -8194
▁ㅁㅕㄴㅎㅏ -8195
▁ㅂㅓㄴㅇㅕㅇ -8196
▁ㅇㅣㄴㅅㅏㄴ -8197
▁ㅈㅏㅇㅇㅏㄴ -8198
▁CE -8199
▁ㅇㅠㅅㅜ -8200
▁ㅁㅐㅅㅏㅊㅜㅅㅔㅊㅡ -8201
▁ㅇㅣㅁㅏ -8202
ㅏㄹㅣㅇㅗ -8203
▁ㅇㅏㅇㅣㅌㅔㅁ -8204
▁ㅋㅗㄴㅋㅡㄹㅣㅌㅡ -8205
ere -8206
▁We -8207
▁ㅌㅜㄱ -8208
ㅍㅡㄹㅏㅇ -8209
▁ㄴㅗㅂㅜㄴ -8210
▁ㅁㅜㅅㅏㅇ -8211
▁ㅎㅠㅅㅣㄱ -8212
▁ㅍㅡㄹㅏㅇㅅㅜㅇㅏ -8213
▁ㄴㅜㅂ -8214
▁ㅅㅗㅌㅗㅇ -8215
▁ㅊㅗㅇㄷㅐ -8216
▁ㅂㅜㄹㅍㅕㄴ -8217
▁ㅈㅜㅇㅈㅐ -8218
▁ㅁㅏㅎㅏ -8219
▁ㅎㅐㅂㅕㄴ -8220
ㅅㅓㄱㅌㅏㅂ -8221
ㅣㅇㅓㅂ -8222
▁ㅇㅣㅅㅣㄱ -8223
▁ㅈㅜㅇㅅㅜㄴ -8224
▁ㅎㅛㄹㅕㄱ -8225
ㅊㅡㅇㅅㅓㄱㅌㅏㅂ -8226
▁ㅅㅣㄴㅎㅏㄱㅈㅏ -8227
ㄹㅜㅅㅕㄴ -8228
▁ㅅㅓㅅㅏㄴ -8229
▁ㅈㅔㅅㅜ -8230
▁ㄷㅏㅎㅏㅇ -8231
▁ㅅㅓㄴㅈㅗㅇ -8232
▁ㄹㅏㅇㅣㅅㅓㄴㅅㅡ -8233
pe -8234
▁ㄹㅣㅊㅣ -8235
▁ㅂㅏㅋㅟ -8236
ㅊㅣㅇㅝㄴ -8237
▁ㅇㅔㅅㅡㅌㅗㄴ -8238
ire -8239
▁ㅅㅡㅍㅔㅇㅣㄴㅇㅓ -8240
▁ㄱㅛㅇㅝㄴ -8241
▁ㅈㅡㅇㅈㅣㄴ -8242
▁ㅋㅔㄴㅔㄷㅣ -8243
▁ㅎㅜㅈㅣㅇㅘ -8244
▁ㅅㅏㅇㅣㅋㅡㄹ -8245
▁ㅅㅡㅍㅔㅇㅣㅅㅡ -8246
▁ㅈㅓㄴㅅㅓㅇㄱㅣ -8247
▁ㄷㅡㄴㅈㅣ -8248
ㅅㅣㄹㄹㅗㄱ -8249
▁ㄱㅘㄴㅌㅗㅇ -8250
▁ㄷㅗㄹㅇㅕㄴ -8251
▁ㅇㅏㄹㅣㅅㅡ -8252
▁ㄹㅣㅂㅓㅍㅜㄹ -8253
▁ㅁㅗㄹㅇㅏㄴㅐ -8254
ㅂㅓㄹㄹㅔ -8255
▁ㅁㅔㄹㄹㅗ -8256
▁ㅇㅏㄹㅔㄴㅏ -8257
▁ㅍㅕㅇㅌㅐㄱ -8258
▁ㅇㅚㄱㅛㄱㅘㄴ -8259
▁ㄷㅐㅈㅓㄴㄱㅘㅇㅇㅕㄱㅅㅣ -8260
▁HT -8261
▁ㅂㅡㄹㅐ -8262
▁ㄹㅗㄱㅗ -8263
▁ㅇㅢㅅㅏㅇ -8264
▁ㅇㅏㅂㅏ -8265
▁ㄷㅏㄴㅅㅣㄱ -8266
▁ㅅㅐㅇㅈㅓㄴ -8267
▁ㅌㅗㅇㄱㅡㄴ -8268
▁ㅇㅠㄴㅣㅍㅗㅁ -8269
▁ㅍㅔㄹㅡㄴㅏㄴ -8270
▁ㄴㅔㅇㅣㅅㅕㄴㅅㅡ -8271
ㄴㅏㄱ -8272
▁ㄷㅐㅇㅟ -8273
ㅅㅣㄹㅗ -8274
▁ㅅㅡㅋㅐㄴ -8275
ide -8276
▁ㄴㅏㄹㅡ -8277
▁ㅊㅗㄱㅘ -8278
ㅍㅡㄹㄹㅓ -8279
▁ㅁㅏㄴㅅㅔ -8280
ace -8281
▁ㅇㅘㅇㅣㄹ -8282
▁ㅇㅝㄴㄱㅗ -8283
▁ㅈㅏㅇㄹㅗ -8284
▁ㄱㅗㅇㄷㅏㄴ -8285
▁ㅅㅣㄹㅈㅓㄴ -8286
ㄷㅜㄹㅡ -8287
▁ㅇㅏㅁㅅㅓㄱ -8288
▁ㅂㅏㅇㅍㅐ -8289
▁ㅈㅣㅎㅖ -8290
▁ㅍㅏㅇㅓㅂ -8291
▁ㅇㅏㅅ -8292
▁ㅋㅏㅁㅔㄹ -8293
▁ㅊㅜㅇㅅㅣㄹ -8294
▁ㅇㅝㄴㄴㅐ -8295
▁ㅈㅣㅋ -8296
ㅏㅁㅈㅟ -8297
▁ㅅㅗㅎㅘㄴ -8298
▁ㅅㅣㄴㄱㅣ -8299
▁ㄹㅗㅇㅕㄹ -8300
▁ㅇㅜㅇㅕㄴㅎㅣ -8301
▁IBM -8302
▁ㅅㅓㄴㅏㅁ -8303
▁ㅎㅠㅈㅓㄴ -8304
ㅓㄴㅣㅈㅡㅁ -8305
ㅅㅏㄱㅏ -8306
IM -8307
ㅏㅂㅡ -8308
▁ㅁㅣㅌㅗ -8309
▁ㅅㅣㄱㅔ -8310
▁ㅅㅣㅎㅡㅇ -8311
▁ㅍㅕㅇㅂㅓㅁ -8312
▁ㅎㅔㄹㄹㅔㄴ -8313
ㄹㅓㅅㅡ -8314
ㅔㅇㅣㅁㅓ -8315
▁ㅇㅟㅇㅣㅁ -8316
▁ㅇㅣㄹㅎㅘ -8317
▁ㅎㅘㅇㅌㅐㅈㅏ -8318
▁ㅋㅏㅇㅣㄹ -8319
▁TO -8320
▁ㅎㅡㅁ -8321
▁ㅂㅕㅇㅈㅗ -8322
▁ㅂㅡㄹㅏㅇㅜㅈㅓ -8323
▁ㅊㅐㄱㅇㅣㅁㅈㅏ -8324
▁ㅊㅚㅈㅓ -8325
ㄸㅏㄹㅡ -8326
▁ㅂㅏㄹㅌㅡ -8327
▁ㅂㅗㅇㅘㄴ -8328
▁ㄱㅓㄱㅈㅓㅇ -8329
▁ㅂㅜㄹㅁㅕㅇ -8330
cl -8331
ㅈㅣㄹㅣㅇㅏ -8332
▁ㅅㅡㅇㅈㅓㅁ -8333
▁ㄴㅏㅇㅣㅈㅣㄹㅣㅇㅏ -8334
▁148 -8335
▁ㄱㅗㅁㅣㄴ -8336
▁ㅂㅡㄹㅜㄴ -8337
▁ㅇㅕㄱㅅㅓㄹ -8338
ㅎㅏㅅㅣ -8339
▁ㅅㅏㅅㅡㄹ -8340
▁ㅇㅏㅈㅔㄹ -8341
▁ㅎㅏㄴㅅㅓㅇㅂㅜ -8342
▁ㅁㅜㄹㄹㅣㅎㅏㄱㅈㅏ -8343
▁ㅁㅏㅂㅣ -8344
ㅅㅡㄹㅓㅂ -8345
▁ㅍㅛㅁㅕㅇ -8346
▁ㄱㅗㅇㅈㅣㄱ -8347
ㅌㅏㄹㅗ -8348
▁ㅇㅕㄴㅍㅐ -8349
▁ㅍㅓㅅㅔㄴㅌㅡ -8350
▁ㅎㅏㄹㄹㅣㅇㅜㄷㅡ -8351
ㅍㅗㄷㅡ -8352
▁ㄴㅐㅈㅜ -8353
▁ㄴㅣㅅㅍㅗㄴ -8354
▁ㅇㅑㄱㅊㅣㅇ -8355
ㄱㅏㄹㅜ -8356
▁ㅁㅏㅇㅑㄱ -8357
▁ㅁㅏㅇㅣㄴㅓ -8358
▁ㅅㅣㄹㅅㅣㄱㅏㄴ -8359
▁ㄷㅏㅊㅣ -8360
▁ㅇㅔㅇㅜ -8361
ㅈㅜㅇㅢㅈㅏ -8362
▁ㅇㅏㄴㅅㅓㅇ -8363
ㅡㅂㅏㅇㅣㅈㅏㄴ -8364
▁ㅇㅏㅈㅔㄹㅡㅂㅏㅇㅣㅈㅏㄴ -8365
ㅗㅇㅏ -8366
▁ㄲㅡㅀ -8367
▁ㅅㅓㄴㄱㅜ -8368
▁ㅇㅜㅇㅜㄹ -8369
▁ㄲㅡㄶㅇㅣㅁ -8370
ㅇㅓㅇ -8371
▁ㅈㅏㅈ -8372
▁ㄱㅣㄷㅏㄴ -8373
▁ㅇㅏㅅㅏㄴ -8374
▁ㅂㅏㅌㅣ -8375
▁ㅇㅠㅇㅏ -8376
▁ㅇㅣㅇㅗ -8377
▁ㅇㅣㅂㅈㅣ -8378
▁ㅈㅏㅇㄴㅏㄴ -8379
▁ㅂㅗㅅㅡㄴㅣㅇㅏ -8380
▁136 -8381
▁ㅇㅔㅌㅣㅇㅗ -8382
▁ㅎㅕ -8383
▁ㅅㅏㅂㅏ -8384
▁ㅅㅜㄴㅎㅚ -8385
▁ㅇㅓㅂㄱㅖ -8386
▁ㅅㅛㅌㅡ -8387
▁ㅇㅓㄹㅏ -8388
▁ㅅㅏㄴㄹㅣㅁ -8389
▁ㅂㅜㅊㅐ -8390
▁ㅈㅜㄱㅓ -8391
▁ㄱㅏㄴㅎㅗ -8392
▁ㅂㅐㅌㅓㄹㅣ -8393
▁ㄱㅗㅇㅇㅢㅎㅚ -8394
▁ㅅㅏㅎㅚㅎㅏㄱ -8395
▁ㄱㅜㄹㅡㅇ -8396
▁ㅍㅏㅈㅏㅇ -8397
▁ㅈㅓㅇㅁㅏㄹ -8398
▁ㅈㅜㅇㅅㅣㅁㅂㅜ -8399
▁ㄷㅓㅍㅇㅣ -8400
▁ㅇㅠㄱㅈㅣ -8401
▁ㅍㅕㅇㅎㅏ -8402
▁ㅅㅏㅁㅈㅣㄴ -8403
▁ㅇㅣㄴㅇㅕㄴ -8404
▁ㅎㅕㄴㄱㅡㅁ -8405
▁ㅅㅔㄱㅖㄱㅘㄴ -8406
▁ㄹㅏㅇㅣㅂㅡㄹㅓㄹㅣ -8407
▁ㅁㅕㅇㅈㅔ -8408
▁ㅈㅓㄴㄹㅏㄷㅗ -8409
▁ㅅㅣㄴㅏㄹㅣㅇㅗ -8410
▁ㅈㅣㄹㅠ -8411
▁ㄹㅣㅂㅣㅇㅏ -8412
▁ㅈㅏㄱㅅㅔㄴ -8413
▁ㅎㅏㄹㅡ -8414
▁ㅅㅓㅇㅅㅜㄱ -8415
▁ㅋㅣㄱ -8416
▁1916 -8417
▁ㅇㅏㅍㅡ -8418
▁ㅍㅐㅋㅣㅈㅣ -8419
ㅈㅔㄹㅣ -8420
ㅔㄱㅅㅡ -8421
▁ㄷㅗㅇㅅㅏㅇ -8422
▁ㄷㅣㄱ -8423
▁ㅋㅗㄱ -8424
ㅋㅏㄹㅡ -8425
▁ㅇㅔㅌㅣㅇㅗㅍㅣㅇㅏ -8426
ㅅㅗㄹㄹㅣㄴ -8427
▁ㅇㅏㅇㅜㄱㅜ -8428
▁ㅅㅡㅌㅠㅇㅓㅌㅡ -8429
▁ㅇㅢㅇㅑㄱ -8430
▁ㅂㅏㄴㅂㅏㄱ -8431
▁la -8432
ㅁㅜㄱㅣ -8433
▁ㅎㅐㅁㅣㄹ -8434
▁ㄷㅏㅇㅇㅣㄹ -8435
▁ㅅㅣㄴㅅㅐㅇ -8436
▁ㅌㅡㄱㅈㅣㅂ -8437
▁ㅈㅣㅇㅜ -8438
▁ㅊㅜㅊㅜㄹ -8439
▁ㅂㅗㄹㅣ -8440
▁ㄹㅣㅌㅡㄹ -8441
▁ㄱㅕㄹㅅㅓㄴ -8442
▁ㅅㅓㅇㅇㅜㄴ -8443
▁ㅆㅏㅇㄷㅜㅇㅇㅣ -8444
▁138 -8445
▁ㅈㅘㅈㅓㄹ -8446
▁ㄴㅐㄹㅕㅈㅣ -8447
▁ㄱㅏㄹㅗㅈㅣㄹㅡ -8448
▁ㄱㅓㅈㅔ -8449
ㅎㅐㅇㅏㄴ -8450
▁ㄱㅐㄱㅊㅔ -8451
▁ㅇㅟㅌㅏㄱ -8452
▁ㅅㅏㅇㄷㅏㅁ -8453
▁ㄴㅗㅂㅜㄴㅏㄱㅏ -8454
▁ㅂㅔㄷㅡ -8455
▁ㄱㅣㅇㅣㄴ -8456
▁ㅊㅣㄴㅎㅏ -8457
▁ㅅㅣㅊㅗ -8458
▁ㅎㅓㄹㅣㅋㅔㅇㅣㄴ -8459
▁ㅋㅡㄹㅣㅅㅡㅌㅣㅇㅏㄴ -8460
▁ㅂㅐㅅㅣㄴ -8461
▁ㅈㅗㅇㅕㄴ -8462
▁ㄱㅚㄹㅗㅂ -8463
▁ㅊㅣㅇㅕㄹ -8464
ㅁㅅㅐ -8465
▁ㅇㅗㅌㅏ -8466
▁ㅅㅣㅅㅓㄴ -8467
▁ㅅㅗㅇㅠㅈㅏ -8468
▁DC -8469
▁ㄱㅏㄷㅗㅇ -8470
▁ㅍㅡㄹㄹㅜ -8471
▁ㄴㅗㄹㅡㅁ -8472
▁ㅁㅕㅇㅂㅐㄱ -8473
▁ㅅㅣㄴㅅㅗㄱ -8474
▁ㅇㅣㅅㅏㅎㅚ -8475
▁ㅇㅕㅇㄴㅏㅁ -8476
▁ㄱㅜㅈㅗㅁㅜㄹ -8477
▁ㅋㅏㄱ -8478
▁ㄲㅔㅅㅓ -8479
▁ㄱㅗㅅㅓㅇ -8480
▁ㅎㅏㅂㅊㅏㅇ -8481
▁ㅈㅗㅇㅣ -8482
ㅊㅔㄹ -8483
▁ㅂㅗㄱㅅㅓㄴ -8484
ㅂㅔㅇㅣ -8485
▁ㅂㅏㄷㅏㅅ -8486
▁ㄱㅡㄱㄷㅗㅇ -8487
▁ㅂㅜㄴㄷㅏㅇ -8488
▁ㅇㅕㅇㅈㅏㅇ -8489
▁ㅊㅚㅅㅏㅇㅇㅟ -8490
ㅇㅟㄷㅐ -8491
▁ㅎㅔㄹㅏ -8492
▁ㅈㅣㅅㅓㄴ -8493
▁ㅇㅣㅂㄷㅏㅇ -8494
▁ㅋㅗㅁㅜㄴㅔ -8495
ㅊㅜㅁ -8496
▁ㅎㅏㄴㅅㅡ -8497
ㅈㅜㅇㄱㅜㄱ -8498
▁ㅇㅝㄴㅅㅜㅇㅇㅣ -8499
▁ㄱㅜㄱㅁㅜㅊㅗㅇㄹㅣ -8500
ㅂㅅㅡ -8501
▁ㄱㅕㅇㅇㅕㄴ -8502
▁ㅂㅏㄴㄱㅏㅁ -8503
▁ㅎㅕㅂㅈㅜㄱㅗㄱ -8504
▁ㅎㅜㅋㅜㅅㅣㅁㅏ -8505
ㅅㅖㄹ -8506
▁ㅎㅗㄱㅣ -8507
▁ㅂㅗㅇㅅㅙ -8508
▁ㅊㅣㄴㅇㅘㅇ -8509
▁ᆯㄲㅏ -8510
▁ㅂㅕㅇㅎㅐㅇ -8511
▁ㅇㅢㄹㅚ -8512
▁ㅅㅓㅈㅓㅇ -8513
▁ㅌㅐㅇㅋㅡ -8514
▁En -8515
ㅡㅁㅣ -8516
▁NBA -8517
▁ㄷㅏㅇㅣㅇㅏㅁ -8518
ㄹㅗㄱㅜ -8519
▁ㄱㅕㄴㄷㅣ -8520
▁ㄷㅜㄲㅓㅂ -8521
ㅊㅘㄴ -8522
▁360 -8523
ㅔㄱㅌㅓ -8524
▁ㄷㅔㅇㅣㅂㅣㅅㅡ -8525
▁ㅂㅏㄼ -8526
▁ㅊㅔㄹㅅㅣ -8527
▁ㅇㅗㅍㅣㅅㅡ -8528
▁ㅂㅏㄴㄷㅗㅊㅔ -8529
▁WWE -8530
▁ㅂㅜㅈㅐ -8531
▁ㅈㅡㅇㅡㅁ -8532
ㅐㅇㅣㄴ -8533
▁ㅊㅜㅅㅔ -8534
▁ㅎㅘㅇㅎㅐ -8535
▁ㅇㅕㅇㅇㅢㅈㅓㅇ -8536
▁ㄱㅗㅅㅜ -8537
▁ㄱㅡㄹㅜ -8538
▁ㄱㅐㅇㅝㄴ -8539
▁ㅎㅕㄴㅈㅗㅇ -8540
ㄹㅗㄹㄹㅏㅇㅣㄴ -8541
▁ㅂㅜㅁ -8542
▁ㅈㅓㄴㄴㅕㅁ -8543
▁ㅇㅓㅎㅟ -8544
▁ㅈㅜㅇㅇㅟ -8545
▁ㅂㅜㅈㅓㄱ -8546
▁ㅌㅔㅇㅣㅂㅡㄹ -8547
▁ㅈㅜㅇㅅㅓㅇㅈㅏ -8548
▁104 -8549
▁ㅈㅏㅇㄹㅕ -8550
▁ㅈㅣㄴㅡㅇ -8551
▁ㅊㅜㄴㅊㅓㄴ -8552
▁ㅈㅐㅇㅟ -8553
▁ㅍㅗㄱㅕㄱ -8554
▁ㅇㅔㄷㅏ -8555
▁ㅇㅕㅈㅣ -8556
▁ㄱㅣㅁㅍㅗ -8557
▁ㅅㅔㅅㅕㄴ -8558
▁ㅅㅡㅌㅗㄱ -8559
▁ㅂㅐㄱㅅㅐㄱ -8560
▁ㄹㅜㅅㅣ -8561
▁ㅌㅗㅅㅓㅇ -8562
▁ㅇㅏㅀ -8563
ㄷㅔㅅㅣ -8564
▁ㅎㅐㅅㅗ -8565
ㅣㅇㅏㅈㅜ -8566
▁ㄱㅏㅁㅕㄴ -8567
▁ㄷㅗㅇㅇㅣ -8568
▁ㅁㅗㄴㅣㅌㅓ -8569
▁ㄱㅕㄹㅎㅗㄴㅅㅣㄱ -8570
▁ㄹㅣㅅ -8571
▁ㅇㅙㄴ -8572
▁ㅅㅓㅁㄱㅣ -8573
▁ㅅㅣㅁㅗㄴ -8574
▁ㅁㅗㄱㅍㅏㄴ -8575
ark -8576
▁ㅋㅓㄹㅣ -8577
▁ㅇㅔㅅㅡㅌㅗㄴㅣㅇㅏ -8578
▁ㄱㅏㅁㄹㅣ -8579
▁ㄷㅗㄹㅜ -8580
▁ㅇㅐㅌㅡㄹㄹㅐㄴ -8581
▁ㅅㅏㅌㅗ -8582
▁ㅇㅓㄷㅏ -8583
▁ㅊㅣㅈㅡ -8584
ㄷㅐㅅㅣㄴ -8585
▁ㅅㅏㅎㅓㄴ -8586
▁ㅅㅗㅇㅅㅣ -8587
▁ㅇㅣㄱㅎㅣ -8588
▁ㅂㅐㄱㅎㅘㅈㅓㅁ -8589
▁109 -8590
ㄲㅡㅁ -8591
▁ㅅㅓㅈㅐ -8592
▁ㅅㅡㅋㅔ -8593
▁ㅇㅝㄷㅡ -8594
▁ㅁㅣㄴㅎㅚ -8595
▁ㅇㅠㄷㅗㅇ -8596
▁ㅎㅏㄹㅏㄱ -8597
▁ㄹㅣㅇㅜㅅㅡ -8598
▁ㄷㅗㅈㅜ -8599
ㅋㅗㅇㅗㄹ -8600
▁ㅇㅑㅇㄷㅗ -8601
ㅌㅗㄱ -8602
▁123 -8603
▁ㅌㅏㄹㄷㅏㅇ -8604
▁ㅎㅡㄹㄹㅣ -8605
▁ㅇㅏㄹㅇㅏㄴㅐ -8606
▁ㅁㅕㅇㄹㅕㅇㅇㅓ -8607
▁ㄱㅗㅅㅏ -8608
▁ㅍㅣㅇㅏ -8609
▁ㄱㅓㅎㅐㅇ -8610
▁ㅈㅓㅇㅁㅜ -8611
ㅇㅡㄴㅅㅐㄱ -8612
▁ㅂㅜㄴㄱㅣㅈㅓㅁ -8613
ㅂㅏㅇㅑ -8614
▁ㄹㅗㅇㅣ -8615
▁ㄷㅏㅂㅏㄹ -8616
▁ㅈㅣㄴㅉㅏ -8617
▁ㄷㅐㅍㅛㅈㅏㄱ -8618
▁ㅋㅓㅅ -8619
▁ㅂㅣㅅㅣ -8620
ㄷㅓㅅㅡㄴ -8621
▁ㄹㅔㄴㅗㄴ -8622
▁ㅋㅗㅍㅡ -8623
▁ㅈㅜㄹㅡㅁ -8624
▁ㅈㅗㅇㄹㅗㄱㅜ -8625
ㅎㅚㅈㅏㅇ -8626
▁Pr -8627
ㄱㅣㅅㅡ -8628
ㅇㅓㄹㅣ -8629
▁ㅈㅓㅎㅏ -8630
▁ㄱㅗㅇㅣㄴ -8631
▁ㄱㅗㅈㅏㅇ -8632
▁ㅈㅜㅎㅐㅇ -8633
▁ㅇㅣㅁㅇㅛㅇ -8634
▁ㅌㅐㄱㅅㅣ -8635
▁ㅌㅔㅋㅡㄴ -8636
▁CS -8637
▁col -8638
ㅁㅓㄹㅣ -8639
ㅜㄱㅘㅇㅣ -8640
▁ㅊㅓㅁㄱㅏ -8641
▁ㅇㅜㄹㅜㄱㅘㅇㅣ -8642
▁ㅍㅔㄴㅅㅣㄹ -8643
▁ㅍㅔㄴㅅㅣㄹㅂㅔㅇㅣㄴ -8644
▁ㅅㅖㄹ -8645
ㅈㅜㄹㅣ -8646
ㅈㅣㄹㅡㅁ -8647
▁ㄴㅐㅇㄱㅏㄱ -8648
▁ㅎㅐㅇㅈㅓㄱ -8649
▁ㄱㅕㄱㅌㅚ -8650
▁ㅊㅏㅈㅏㅇ -8651
▁ㅇㅏㅁㅏㄷㅗ -8652
Pa -8653
▁AR -8654
▁ㄹㅡㄴ -8655
▁ㄱㅗㄱㅏ -8656
▁ㄷㅚㄱㅔ -8657
▁ㄱㅓㄹㅗㄴ -8658
▁ㅅㅜㅅㅡㅂ -8659
ㅣㅇㅏㅇㅣㄴ -8660
▁ㅎㅕㄹㅌㅗㅇ -8661
▁ㅋㅓㅁㅍㅏㅇㅣㄹ -8662
ㅗㄹㄹㅏ -8663
▁ㄴㅓㅂㅣ -8664
▁ㅎㅏㄴㅉㅗㄱ -8665
▁143 -8666
▁ㅁㅕㄴㅎㅓ -8667
▁ㅅㅣㅇㅓ -8668
▁ㅅㅏㅎㅓㄴㅂㅜ -8669
▁ㄴㅏㅇㅁㅏㄴ -8670
▁ㅇㅓㅇㅜㄹㄹㅣ -8671
▁ㄱㅣㅁㄱㅣ -8672
▁ㅇㅡㄹㅈㅣ -8673
▁ㅅㅐㅇㅅㅣㄱ -8674
▁ㅅㅣㄹㅈㅏㅇ -8675
▁ㅈㅏㅇㅎㅏㄱ -8676
▁ㅈㅗㄹㅣ -8677
ㅎㅔㅁ -8678
ㄷㅗㄹㅣ -8679
▁ㄷㅏㅂㅣ -8680
▁ㅂㅏㄴㅈㅣ -8681
▁ㅊㅏㅇㄱㅗ -8682
▁ㅇㅒㄱㅣ -8683
▁ㄱㅕㅇㄱㅘㄴ -8684
▁ㄷㅗㅈㅏㅇ -8685
▁ㅅㅣㄴㄱㅠ -8686
▁ㅅㅏㄴㄹㅏㄴ -8687
▁NC -8688
▁ㅈㅔㄷㅗㄱ -8689
▁ㅈㅓㄱㅂㅜㄴ -8690
▁ㅂㅏㅇㅅㅗㅇㅅㅏ -8691
▁AK -8692
▁ㄱㅜㄷㅗ -8693
▁ㅎㅚㅅㅅㅜ -8694
▁ㅂㅏㅎㅡ -8695
ㅌㅡㄹㅗㄴ -8696
▁ㄱㅣㅈㅓㄱ -8697
ile -8698
ㅅㅡㅋㅏㄹㅡ -8699
▁CC -8700
▁ㅊㅜㄹㅊㅓ -8701
▁ㅊㅣㅁㅕㅇ -8702
▁ㅅㅣㄴㅎㅏㄴ -8703
▁ㅊㅓㅇㅊㅜㄴ -8704
▁ㅌㅏㅇㅣㄱㅓㅈㅡ -8705
▁ㅋㅏㅈㅏㅎㅡㅅㅡㅌㅏㄴ -8706
▁ㄱㅘㅇㅁㅜㄹ -8707
▁ㄱㅡㅂㄱㅕㄱㅎㅣ -8708
ㅏㄷㅓㅅㅡ -8709
AL -8710
▁ㅅㅓㅁㅓ -8711
▁ㄲㅐㄷㅏㄹ -8712
▁ㅎㅏㅇㅝㄷㅡ -8713
▁ㄱㅜㅇㅣ -8714
▁ㅅㅏㄷㅏ -8715
▁ㅅㅜㄴㄱㅛ -8716
▁ㅈㅏㄴㄹㅠ -8717
▁ㅌㅗㅇㅈㅡㅇ -8718
ㅂㅓㅂㅇㅣㄴ -8719
▁ㅅㅣㄴㅌㅏㄱ -8720
▁ㅂㅏㄱㄹㅏㅁㅎㅚ -8721
▁ㅇㅏㅎㅗㅂ -8722
▁ㅎㅐㅈㅓㄱ -8723
▁ㅂㅓㅂㅁㅜ -8724
▁ㅇㅕㄴㅎㅏㅂㅎㅚ -8725
▁ㄱㅛㅎㅘㅇㅊㅓㅇ -8726
▁ㅁㅏㄷ -8727
▁ㅂㅜㄷㅣ -8728
ㅅㅡㅇㅈㅣ -8729
ㅎㅏㅁㅕㄴ -8730
▁ㅅㅏㅇㅈㅓㅁ -8731
▁ㄴㅏㅁㄷㅗㅇㅂㅜ -8732
xt -8733
▁ㅅㅏㅇㄷㅏㄴ -8734
ㅍㅣㅂ -8735
▁ㄹㅜㅍㅡ -8736
▁ㅇㅠㄹㅗㅍㅏ -8737
▁ㅇㅕㄹㄷㅐ -8738
ㅅㅡㅌㅡㄹㅣ -8739
▁CON -8740
▁ㅂㅏㄱㅎㅐ -8741
▁ㅈㅓㅇㅈㅓㅁ -8742
▁ㄷㅐㅎㅏㄱㅅㅐㅇ -8743
▁ㅅㅣㅊㅣㄹㄹㅣㅇㅏ -8744
▁ㅇㅠㅎㅏㄴ -8745
ㅇㅑㅇㅎㅏㅁ -8746
▁ㅇㅗㄹㅂㅏㄹㅡ -8747
▁ㅊㅗㅅ -8748
▁ㅅㅏㅅㅏ -8749
▁ㄱㅡㄱㅎㅣ -8750
▁ㅇㅏㄹㄹㅜ -8751
▁ㅌㅗㅇㅇㅕㅇ -8752
▁ㅅㅏㅁㅊㅡㅇㅅㅓㄱㅌㅏㅂ -8753
▁ㅅㅜㄹㅕㄴ -8754
▁ㅇㅕㄴㅎㅏ -8755
▁ㅈㅔㅇㅣㄴ -8756
▁ㅌㅏㅁㄱㅜ -8757
▁ㅍㅓㅇㅋㅡ -8758
▁ㅎㅗㄹㅏㅇㅇㅣ -8759
▁is -8760
ㅓㅁㅣ -8761
ㅡㄹㄹㅣㅇ -8762
▁ㄱㅏㄱㅜㄴ -8763
▁ㄱㅜㄱㅅㅗ -8764
▁ㄱㅡㄹㅐㅁ -8765
▁ㄹㅗㄹㄹㅣㅇ -8766
▁ㅇㅕㅍㅁㅕㄴ -8767
▁LP -8768
▁Op -8769
ㅎㅔㅇㅣ -8770
▁ㅌㅣㅅㅡ -8771
▁ㅁㅐㅇㅣㅂ -8772
▁ㅈㅗㄹㅣㅂ -8773
▁ㄷㅔㅁㅗ -8774
ㅂㅡㄹㄹㅗ -8775
▁ㅇㅣㅈㅜㄴ -8776
▁ㅈㅜㅇㅕㄱ -8777
ㅇㅓㅂㅓㄹㅣ -8778
▁ㅈㅓㄱㄷㅏㅇ -8779
▁ㅇㅑㄱㅜㅈㅏㅇ -8780
▁ㅌㅐㅇㅑㅇㄱㅖ -8781
▁ㄴㅜㅇㅣ -8782
▁ㅂㅜㄹㅡㅋㅡ -8783
▁ㅇㅏㅇㅣㅅㅡㄹㄹㅏㄴㄷㅡ -8784
ㅕㄹㅐ -8785
▁ㅎㅏㅇㅅㅗ -8786
▁ㅅㅠㅍ -8787
▁ㅇㅡㅁㄹㅛ -8788
▁ㅋㅣㅍㅡㄹㅗㅅㅡ -8789
▁ㅇㅏㄴㄱㅣ -8790
▁ㅇㅏㄹㄹㅏ -8791
ㅅㅣㅍㅣ -8792
▁ㄱㅜㅎㅗ -8793
▁ㄹㅐㅍㅓ -8794
▁ㅎㅠㅅㅡㅌㅓㄴ -8795
ㅅㅠㅁ -8796
▁ㅈㅐㅎㅕㄴ -8797
ㅇㅏㄴㄱㅜㄴ -8798
▁ㅅㅓㅇㄷㅏㄴ -8799
▁ㅎㅘㄴㅇㅕㅇ -8800
ㅇㅑㅁㅏ -8801
ㅅㅏㄹㅇㅣ -8802
▁ㄱㅡㄴㅏㄹ -8803
▁ㅅㅓㅇㅊㅔ -8804
▁ㅇㅓㅇㅝㄴ -8805
▁ㅇㅕㅁㄱㅣ -8806
▁ㅂㅕㄹㄷㅏㄹㅡ -8807
▁ㅇㅏㄹㅏㅂㅇㅓ -8808
▁ㅊㅣㄴㅇㅣㄹㅍㅏ -8809
▁ㅅㅓㄹㅌㅏㅇ -8810
▁ㅅㅡㅌㅡㄹㅣㅁ -8811
▁ㅂㅗㄹㄹㅣㅂ -8812
▁ㅍㅗㄱㄷㅗㅇ -8813
▁ㄷㅐㅇㅜㅇㅈㅓㄴ -8814
▁ㄹㅏㅌㅡㅂㅣㅇㅏ -8815
▁ㄷㅗㄹㅂㅗ -8816
▁ㅇㅣㄴㅍㅡㄹㄹ -8817
▁ㅅㅡㅌㅡㄹㅔㅅㅡ -8818
▁ㅅㅡㄹㄹㅗㅂㅏㅋㅣㅇㅏ -8819
ft -8820
▁ㄸㅓ -8821
ㅍㅜㅅㅡ -8822
▁ㅎㅜㅂㅏㅇ -8823
▁ㅃㅏㄹㄱㅏㄴ -8824
▁ㄹㅏㅇㅗㅅㅡ -8825
▁ㅈㅗㄴㅅㅗㄱ -8826
▁ㅊㅜㅇㅈㅓㄴ -8827
ies -8828
▁ㄷㅗㄷ -8829
▁ㅈㅔㅎㅏ -8830
ㅇㅡㄴㅇㅣ -8831
▁ㄱㅡㄴㄱㅛ -8832
▁ㅅㅏㅇㅇㅛㅇ -8833
▁ㅎㅐㅅ -8834
▁ㅂㅜㅅㅓㄹ -8835
▁ㄱㅕㅇㅊㅏㄹㅊㅓㅇ -8836
▁ㅇㅜㅇㅟ -8837
▁ㄱㅓㅂㅜㄱ -8838
▁ㄹㅔㅇㅣㄹ -8839
▁ㅌㅏㅁㅅㅏㅅㅓㄴ -8840
ite -8841
▁ㅅㅓㅇㅊㅟ -8842
▁ㄱㅗㅇㄱㅘㄴ -8843
▁ㄱㅕㅇㅅㅏㅇㄷㅗ -8844
▁ㅋㅏㅇㅣㅅㅏㄹㅡ -8845
▁ㅂㅡㄹㄹㅏㄷㅣㅁㅣㄹㅡ -8846
▁ㄴㅜㄱ -8847
▁ㅂㅣㄹㅣ -8848
▁ㅁㅗㄱㅈㅐ -8849
▁ㅊㅏㅇㅣㅈㅓㅁ -8850
▁ㅁㅐㄱㅈㅜ -8851
▁ㅇㅜㅅㅡㅇㅈㅏ -8852
▁ㅂㅡㄹㅏㄷㅓㅅㅡ -8853
▁ㅇㅏㄹㅋㅗㅇㅗㄹ -8854
▁ㅈㅜㅇㅇㅢㅇㅝㄴ -8855
ㅔㅁㅏ -8856
▁ㅊㅏㅈㅗㅇ -8857
▁112 -8858
▁ㄱㅗㅇㅅㅜ -8859
▁ㄹㅗㅁㅏㄴ -8860
▁ㅎㅏㄴㅇㅣㄴ -8861
ㅇㅏㅇㅣㄹㅂㅗ -8862
▁ㄷㅗㅇㅇㅏㅇㅣㄹㅂㅗ -8863
ㅊㅏㄱㅣ -8864
ㅈㅣㅂㅜㅇ -8865
▁ㅇㅡㅇㅇㅝㄴ -8866
▁ㅊㅜㄱㅈㅓㄱ -8867
▁ㅅㅏㅇㅠㄱ -8868
ㅈㅣㅁㅏ -8869
▁ㅈㅜㄱㅏ -8870
▁ㅅㅏㅇㅂㅏㄴ -8871
▁ㅅㅏㅇㅓㅂㅈㅏ -8872
▁107 -8873
▁ㅂㅣㅆㅏ -8874
▁ㅅㅠㅌㅡ -8875
▁ㅇㅓㄱㅇㅏㅂ -8876
▁ㅈㅜㄹㅁㅜㄴㅢ -8877
▁ㄷㅏㅇㅈㅜ -8878
▁ㅁㅜㅅㅓㅇ -8879
ㄴㅔㅅ -8880
▁ㅂㅡㄹㄹㅏ -8881
▁ㅎㅏㅂㅎㅏ -8882
▁ㄷㅏㅇㅣㅇㅏㅁㅗㄴㄷㅡ -8883
▁SE -8884
ㄴㅗㄹ -8885
▁ㅂㅔㅅㅡ -8886
▁ㅅㅡㄹㄹㅗㅂ -8887
▁ㅅㅣㄴㅁㅣㄴ -8888
▁ㄹㅣㅇㅓ -8889
▁ㅌㅓㅊㅣ -8890
▁ㅂㅓㄹㄱㅡㅁ -8891
▁ㅂㅡㄹㄹㅗㄱㅡ -8892
▁ㄴㅏㅅㅡ -8893
▁ㅇㅚㅊㅣ -8894
▁ㄱㅘㅇㅎㅏㄱ -8895
▁ㅈㅏㅇㄱㅓㄹㅣ -8896
▁ㅇㅣㅅㅜㄴㅅㅣㄴ -8897
▁126 -8898
▁ㄴㅏㅁㅣ -8899
ㅓㄸㅡㄹㅣ -8900
▁ㅅㅜㅂㅓㅂ -8901
▁ㅅㅣㄱㅗㄹ -8902
▁ㄱㅗㅇㅇㅣㄱ -8903
▁ㄱㅗㅇㅅㅏㄴㅈㅜㅇㅢㅈㅏ -8904
▁ㅍㅓㅂ -8905
▁ㅅㅐㅁㅍㅡㄹ -8906
▁Te -8907
ㄲㅗㅂ -8908
▁ㅁㅣㅋㅏ -8909
▁ㅇㅜㅅㅔ -8910
▁ㄷㅗㅁㅏㅂㅐㅁㅂㅜㅌㅇㅣ -8911
▁ㅅㅓㅇㅅㅏ -8912
▁ㅎㅕㄴㅈㅓ -8913
▁ㅇㅕㄹㅈㅓㅇ -8914
▁ㄷㅗㅇㅇㅏ -8915
▁ㄷㅏㄴㄷㅏㄴ -8916
▁ㅅㅐㅇㅅㅏㄴㄹㅑㅇ -8917
▁ㅂㅜㄷㅏㅇ -8918
▁ㅅㅏㅇㅅㅓ -8919
▁ㅊㅚㅇㅏㄱ -8920
▁ㄱㅜㅊㅜㄱㅎㅏㅁ -8921
▁ㅅㅗㅇㅅㅣㅇㅕㄹ -8922
▁ㅍㅜㅁㅈㅗㅇ -8923
▁ㅍㅡㄹㄹㅓㅅㅡ -8924
ㅂㅅㅣㄹ -8925
ㅡㄴㅓ -8926
▁ㅇㅔㅋ -8927
▁ㅍㅣㅂ -8928
▁ㅇㅜㅇㅠ -8929
▁ㄱㅣㅁㄱㅕㅇ -8930
▁ㄱㅏㅉㅏ -8931
▁ㅇㅜㄴㅎㅏ -8932
ㄱㅏㄹㅅㅐㄱ -8933
▁ㅁㅚ -8934
▁117 -8935
▁ㅇㅣㅅㅏㄴㅎㅘ -8936
▁ㅅㅣㄴㅈㅜ -8937
▁ㅇㅛㄷㅗㅇ -8938
ㅇㅜㅁ -8939
▁ㅇㅘㅅ -8940
▁ㅁㅣㄴㅔ -8941
▁ㄱㅕㄴㅈㅔ -8942
▁ㅁㅏㅅㅏㅇ -8943
▁ㅅㅣㅂㅔㄹㅣㅇㅏ -8944
▁ㄸㅏㅅ -8945
▁ㅇㅏㅂㅜ -8946
▁ㄱㅣㅃ -8947
▁ㅈㅜㅇㅣ -8948
▁ㅇㅠㄱㅊㅔ -8949
▁ㅂㅔㅇㅓㅅㅡ -8950
▁ㅎㅘㅇㅅㅣㄹ -8951
▁ㄱㅡㄹㅗ -8952
▁ㅇㅣㅋㅔ -8953
▁ㄱㅛㅈㅓㅇ -8954
▁ㅇㅕㄴㅅㅙ -8955
▁ㅇㅣㄹㅈㅗ -8956
▁ㄱㅗㅅㅗㄱㄷㅗ -8957
▁ㅊㅏㅇㅇㅝㄴㅅㅣ -8958
▁ㅁㅗㄴㅗ -8959
▁ㅇㅗㅂㅣ -8960
▁ㅂㅗㅅㅓㄱ -8961
▁ㅈㅗㅅㅓㄴㅇㅣㄹㅂㅗ -8962
▁ㅂㅗㅎㅗㄱ -8963
▁ㅈㅏㅁㅣㄴ -8964
▁ㅅㅗㄴㅏㅌㅏ -8965
▁ㅃㅏㄹㄱㅏㄴㅅㅐㄱ -8966
▁ㅂㅏㅇㅣㅇㅗ -8967
▁com -8968
ㄹㅣㅅㅡㅌㅡ -8969
▁ㅋㅔㅇㅣㅅㅡ -8970
ㅈㅗㅂㅜ -8971
ㅠㄱㅣㄴㅣ -8972
▁ㅈㅗㅈㅗㅇㅅㅏ -8973
ㄸㅏㄹ -8974
ㅍㅏㄹㅡ -8975
▁ㅇㅕㄷㅏㅇ -8976
▁ㅍㅗㄹㅓㅁ -8977
▁137 -8978
ㄷㅏㅈㅣ -8979
▁ㄱㅐㄱㅛ -8980
▁ㄱㅖㅅㅣ -8981
▁ㅇㅗㅎㅐ -8982
▁ㅊㅏㄱㅏ -8983
▁ㄱㅓㅊㅣㄹ -8984
▁ㅇㅘㅇㅂㅗㄱ -8985
▁ㄱㅏㅈㅜㄱ -8986
▁ㅇㅏㅁㅅㅣ -8987
▁ㅈㅓㅇㅅㅏ -8988
▁ㅍㅕㅇㅇㅢㅎㅚ -8989
▁ㅍㅡㄹㅗㄱㅔㅇㅣㅁㅓ -8990
OL -8991
ath -8992
ㅌㅓㅁ -8993
▁113 -8994
ㅣㅇㅓㅁ -8995
▁ㅇㅣㄱㅕㅇ -8996
▁ㅅㅣㄴㅅㅓㄴ -8997
ㅁㅏㄷㅡ -8998
▁ㄴㅜㄴㅏ -8999
▁ㅈㅣㄹㅡ -9000
▁ㄱㅛㄱㅘㅅㅓ -9001
▁ㄷㅐㅇㅢㅇㅝㄴ -9002
ond -9003
▁ㄷㅗㅇㅁㅜㄴ -9004
▁ㅎㅣㅁㅇㅣㅂ -9005
▁ㄱㅡㄷㅗㅇㅇㅏㄴ -9006
ㄹㅓㅅ -9007
▁ㅇㅑㅇㅋㅣㅅㅡ -9008
▁ㅅㅏㅁㅅㅓㅇㅈㅓㄴㅈㅏ -9009
▁ㄱㅗㅅㅗ -9010
▁ㅇㅏㅋㅡ -9011
▁ㅌㅐㄱㅝㄴ -9012
▁ㄱㅏㅁㅅㅏㅇ -9013
ound -9014
▁RNA -9015
▁ㅎㅜㄱㅜㅇ -9016
▁ㅁㅏㄴㄴㅏㅁ -9017
ov -9018
▁ㄴㅗㅅ -9019
▁ㅇㅙㄴㅑ -9020
ㅔㅇㅑㅅㅡ -9021
▁ㅇㅏㄹㅇㅏ -9022
▁ㅇㅣㅇㅔㅇㅑㅅㅡ -9023
ㄸㅜㄱ -9024
▁ㅇㅓㄴㄴㅣ -9025
▁ㅇㅣㄹㄹㅣㄴ -9026
▁ㅋㅏㄹㅡㄹㄹㅗㅅㅡ -9027
ory -9028
▁1894 -9029
▁ㅈㅜㅈㅜ -9030
▁ㅊㅓㄴㅈㅏㅇ -9031
ㅅㅟㅂ -9032
▁121 -9033
▁173 -9034
▁ㅂㅔㅇ -9035
▁ㅂㅣㅇㅠ -9036
▁ㅅㅣㄴㄴㅕㅁ -9037
ㄹㅜㅅㅡ -9038
▁ㅍㅣㄹㅌㅓ -9039
▁ㅌㅡㅇㅟㄴㅅㅡ -9040
▁ㅎㅘㅈㅏㅇㅅㅣㄹ -9041
▁ㅇㅏㅋㅏㄷㅔㅁㅣㅅㅏㅇ -9042
▁ㅂㅣㄹㅡ -9043
▁ㄱㅠㅂㅓㅁ -9044
▁ㅇㅣㄴㅊㅔ -9045
▁ㅋㅡㄹㄹㅣㅂ -9046
▁ㅌㅏㅁㅅㅐㄱ -9047
▁ㅌㅡㅇㅟㅌㅓ -9048
▁be -9049
ㅂㅣㄴㅏ -9050
▁ㅇㅠㅈㅚ -9051
▁ㅅㅣㄴㅇㅑㄱ -9052
▁ㅋㅡㄹㄹㅏㅇㅜㄷㅡ -9053
▁CF -9054
▁ㅁㅣㄹㅡ -9055
▁350 -9056
▁z -9057
▁ㄷㅏㅌㅜ -9058
▁ㅂㅜㅈㅔ -9059
▁ㅂㅏㅇㅎㅘ -9060
▁ㅅㅗㅅㅕㄹ -9061
▁ㅎㅐㄱㅁㅜㄱㅣ -9062
ㄹㅣㅇㅏㄴ -9063
▁ㄱㅗㅇㅅㅡㅂ -9064
▁ㅁㅣㄱ -9065
ㄹㅣㅌㅡ -9066
ㅌㅗㅁㅗ -9067
▁ㅊㅣㅇㅏㄴ -9068
▁ㅇㅣㅇㅠㄴ -9069
▁ㅊㅜㄱㅎㅏ -9070
ㄱㅡㄹㅔㅇㅣㄷㅡ -9071
▁ㅈㅣㄴㄱㅡㅂ -9072
ㄴㅡ -9073
▁ㄹㅜㅌㅓ -9074
▁ㄹㅣㅇㅓㄹ -9075
▁ㄱㅡㄴㅇㅝㄴ -9076
▁ㄷㅟㅅㅁㅕㄴ -9077
▁ㅍㅗㄱㅎㅐㅇ -9078
▁ㅈㅏㅇㅕㄴㅅㅜ -9079
iver -9080
ㅂㅏㄷㅏ -9081
▁ㄴㅔㅅㅡ -9082
▁ㅈㅔㄹㅗ -9083
ㅅㅏㄴㄷㅗㅇ -9084
▁ㅂㅜㅇㅢ -9085
▁ㅈㅓㄴㅂㅗㄱ -9086
▁ㅇㅓㅂㄱㅡㄹㅔㅇㅣㄷㅡ -9087
▁ㅇㅕㅅ -9088
ㄱㅡㄹㄹ -9089
▁ㅎㅢㅅㅐㅇㅈㅏ -9090
▁ㄴㅗㅂㅏ -9091
▁ㅁㅣㅅㅕㄴ -9092
▁ㄴㅐㅂㅗㄴㅐ -9093
▁ㅂㅓㅁㅇㅣㄴ -9094
▁ㅊㅓㄴㅕ -9095
▁ㅁㅜㅇㅏㄴ -9096
▁ㅇㅣㅂㅇㅝㄴ -9097
ㄷㅐㄱㅣ -9098
▁ㅇㅕㅍㅏ -9099
▁ㅈㅔㄴㅣ -9100
▁ㄱㅡㄹㅐㄴ -9101
▁ㅌㅔㅇㅣㅍㅡ -9102
▁ㅁㅜㄹㄹㅕㅂㅏㄷ -9103
ㄹㅔㄹ -9104
▁ㄱㅏㅊㅜㄱ -9105
▁ㄴㅗㅇㄹㅣㅁ -9106
▁ㅁㅗㄴㅅㅡㅌㅓ -9107
▁ㅂㅓㅂㅁㅜㅂㅜ -9108
▁ㅊㅗㅇㄷㅗㄱㅂㅜ -9109
▁ㅎㅏㄷㅗㅇ -9110
▁ㅁㅐㄱㄹㅏㄱ -9111
▁ㄱㅏㅁㅏㅋㅜㄹㅏ -9112
▁ㅇㅣㄹㅂㅏㄴㅇㅣㄴ -9113
ㅔㅈㅡ -9114
▁ㄴㅗㄹㄹㅏㅂ -9115
▁ㅅㅓㅇㅂㅕㄹ -9116
▁ㅌㅐㄹㄹㅓㄴ -9117
ㅂㅓㄱㅡ -9118
▁ㅍㅔㄹㄹㅣ -9119
▁ㅇㅣㄴㅁㅜㄴ -9120
▁ㄹㅠㄱ -9121
▁ㄱㅓㅇㅜㄹ -9122
▁ㄱㅗㄱㅇㅣㄴ -9123
ㄴㅓㄼ -9124
▁ㄱㅣㅇㅓ -9125
▁ㅈㅣㅁㅣ -9126
▁ㄸㅏㅅㅈㅟ -9127
▁ㅁㅜㄴㅇㅖ -9128
▁ㄱㅘㄴㅇㅡㅁ -9129
man -9130
▁ㄷㅣㅁ -9131
▁ㄴㅏㄹㅆㅣ -9132
▁ㄹㅣㄹㄹㅣ -9133
▁ㄹㅏㅇㅣㄴㅓ -9134
▁ㅅㅣㄴㅈㅗㅇ -9135
▁ㅍㅣㄹㄹㅣㅍㅡ -9136
▁ㄱㅏㅈㅏㅇㅈㅏㄹㅣ -9137
▁ㅈㅔㄷㅐ -9138
▁ㅌㅐㄹㄹㅓㄴㅌㅡ -9139
ㅋㅣㄱ -9140
ㄱㅗㄹㅐ -9141
▁ㅈㅔㅍㅡ -9142
▁ㅍㅏㅇㅣㅇㅓ -9143
▁ㅎㅐㄴㄷㅡ -9144
▁ㄱㅗㅇㅁㅣㄴ -9145
▁ㅎㅘㄱㅅㅣㄴ -9146
▁ㅇㅗㅅㅔ -9147
ㄷㅏㄴㅊㅔ -9148
▁ㄱㅜㅊㅜㄹ -9149
▁ㅈㅡㅇㄷㅐ -9150
▁ㅎㅐㅁㅕㅇ -9151
ㄹㅜㅇ -9152
ㅃㅜㄹ -9153
ㅡㄱㅗㄴ -9154
▁ㅇㅙㄱㅗㄱ -9155
ㅍㅜㄹㅡㅌㅡ -9156
▁ㄴㅏㅁㅅㅓㅂㅜ -9157
ㅏㅁㅜㄹㅏ -9158
▁ㅅㅡㅇㄱㅖ -9159
▁ㅂㅣㄴㄱㅗㄴ -9160
▁ㅅㅗㅇㅝㄴ -9161
▁ㄱㅔㅇㅣㅈㅣ -9162
▁ㄷㅗㅇㅈㅓㅁ -9163
ㅍㅓㄹㅓㄴㅅㅡ -9164
▁ㅍㅔㄹㅡㄷㅣㄴ -9165
▁ㅎㅏㄹㅁㅓㄴㅣ -9166
▁ㅋㅡㄹㅣㅅㅡㅌㅗㅍㅓ -9167
▁". -9168
▁ㄹㅔㄱ -9169
▁ㅆㅏㅇㅣ -9170
▁ㅎㅓㅇㅟ -9171
▁ㅅㅣㄹㅊㅔ -9172
▁ㅍㅜㄹㄹㅣ -9173
▁ㅎㅗㄹㅡㅁ -9174
▁ㅌㅗㅇㅌㅡㄹ -9175
▁ㅎㅚㅇㄷㅏㄴ -9176
ㅓㄴㄷㅡ -9177
▁ㄷㅐㅍㅗㄱ -9178
▁ㅈㅣㅍㅕㅇ -9179
▁ㄱㅔㅅㅡㅌㅡ -9180
▁ㄱㅔㅇㅗㄹㅡ -9181
▁ㅇㅏㄹㅈㅔㄹㅣ -9182
▁ㅇㅠㄴㅊㅣㅎㅗ -9183
ㄲㅣㄹㅣ -9184
▁ㅅㅓㅇㄷㅗ -9185
▁ㅂㅏㅇㅗㄹㅗ -9186
ㄷㅐㅇㅝㄴㄱㅜㄴ -9187
▁ㄱㅕㅇㅂㅗ -9188
▁ㅂㅗㅈㅡㅇ -9189
▁ㅅㅏㅁㅜㄱ -9190
▁ㅇㅕㅇㅅㅏㄴ -9191
▁ㄱㅖㅈㅓㅇ -9192
▁ㅇㅏㅇㅖ -9193
▁ㅌㅜㅇㅗㄱ -9194
▁On -9195
ㄹㅣㄱㅡ -9196
▁ㅅㅣㅁㅠㄹ -9197
▁ㅈㅣㄴㄱㅗㅇ -9198
▁ㄱㅣㅇㅓㅂㅇㅣㄴ -9199
ich -9200
ㄷㅡㄹㅡ -9201
ㄸㅏㄱ -9202
▁ㄷㅏㄱㅏㄱ -9203
▁ㅊㅗㄹㅗㄱ -9204
▁ㄱㅗㅇㅣ -9205
ㅈㅜㄹㄱㅣ -9206
▁ㅂㅏㄴㄱㅕㅇ -9207
▁ㅈㅡㅇㅅㅗㄴ -9208
▁ㄱㅣㅁㅈㅓㅇㅇㅣㄹ -9209
▁hPa -9210
ㄹㅗㅇㅝㄴ -9211
▁World -9212
▁ㅁㅜㄴㄱㅜ -9213
▁ㅈㅏㅇㅡㅁ -9214
▁New -9215
▁ㅂㅏㅌㅣㅋㅏㄴ -9216
▁ㅁㅗㅈㅏ -9217
ㄱㅝㄴㅈㅏ -9218
▁ㅍㅗㅂㅕㅇ -9219
MA -9220
ㅔㅌㅣ -9221
▁ㄷㅜㅇㅈㅣ -9222
▁ㄱㅗㄱㅗㅎㅏㄱ -9223
▁ㄲㅚㅎㅏ -9224
▁ㅈㅣㄴㅎㅏ -9225
▁ㅇㅛㅇㅂㅕㅇ -9226
▁ㅎㅕㅂㅂㅏㄱ -9227
▁ㄱㅚㅇㅈㅏㅇㅎㅣ -9228
▁ㅅㅏㅇㅜㄹㅜㅅㅡ -9229
▁ㅁㅣㄹㅏ -9230
▁ㄷㅐㅁㅕㅇ -9231
▁ㅅㅏㅇㅍㅛ -9232
▁ㅇㅑㅇㅎㅗ -9233
ㅌㅏㄹㅣㅇㅗ -9234
▁114 -9235
▁ㅅㅓㅁㅣㄴ -9236
▁CR -9237
▁ㄴㅟ -9238
▁ㅍㅏㄴㅂㅗㄴ -9239
mer -9240
▁124 -9241
ㅍㅡㄹㅔㅅㅡ -9242
▁ㄱㅜㄴㅈㅓㅇ -9243
ㅅㅑㅇ -9244
▁ㅎㅏㄱㅁㅕㅇ -9245
▁ㅇㅕㄴㅎㅏㅂㄱㅜㄱ -9246
▁ㅋㅓㅁㅠㄴㅣㅋㅔㅇㅣㅅㅕㄴ -9247
ㅂㅔㄱ -9248
ㅎㅏㄹㅜ -9249
▁ㅅㅓㅇㅁㅜㄴ -9250
▁ㄷㅣㅂㅣㅅㅣㅇㅗㄴ -9251
▁ㅈㅔㅈㅐ -9252
▁ㄱㅏㄷㅎㅣ -9253
▁ㄲㅐㄷㅏㄷ -9254
▁ㅊㅚㄱㅏㅇ -9255
▁ㅌㅏㄷㅏㅇ -9256
▁SU -9257
▁ㅅㅏㅇㅅㅏ -9258
▁ㅇㅠㄴㅕㄴ -9259
▁ㅇㅣㅁㅎㅏ -9260
▁ㅂㅡㄹㅣㅈㅣ -9261
▁ㅋㅗㄹㄹㅣㄴ -9262
▁ㅍㅔㅇㅣㅅㅡ -9263
▁ㅋㅘ -9264
ㄷㅗㄱㅛ -9265
▁ㄷㅐㅍㅣ -9266
▁ㅎㅜㅅㅏ -9267
▁ㅇㅕㄴㅅㅜ -9268
ㅇㅞㅇㅣ -9269
▁1890 -9270
▁ㅅㅓㄴㅂㅣ -9271
▁ㄷㅗㄱㅇㅣㄹㅇㅣㄴ -9272
▁ㅁㅗㄹㄹㅐ -9273
▁ㅋㅡㄹㅗㅁ -9274
▁ㄱㅡㄱㅅㅣㅁ -9275
▁ㄱㅡㄱㅈㅏㅇㅍㅏㄴ -9276
ign -9277
ㄴㅐㅇㅚ -9278
▁ㅍㅏㅅㅡ -9279
▁ㄱㅜㄱㄴㅐㅇㅚ -9280
ial -9281
▁ㄷㅏㄷㅎㅣ -9282
▁ㅎㅕㄹㄱㅘㄴ -9283
▁ㅇㅙㄴㅑㅎㅏㅁㅕㄴ -9284
▁ㅉㅏㅇ -9285
▁ㅅㅡㅋㅡㄹㅣㅂ -9286
▁ㅁㅟ -9287
▁ㄴㅏㅂㅣ -9288
▁ㅈㅗㅇㅊㅏㄱ -9289
▁ㅍㅡㄹㅗㄷㅓㄱ -9290
▁ㄹㅣㅇㅜ -9291
▁ㅇㅣㄹㄹㅣㄴㅗㅇㅣ -9292
▁118 -9293
▁ㄱㅜㅈㅓㄹ -9294
▁ㄱㅣㅁㄱㅠ -9295
▁ㅎㅔㄹㄹㅣ -9296
▁ㄱㅜㅅㅡㅌㅏ -9297
▁EC -9298
▁ㅂㅏㅅㅡ -9299
▁ㄱㅕㄹㅎㅏㅁ -9300
▁ㅂㅔㄹㄹㅏㄹ -9301
▁ㅇㅝㄴㅈㅓㄴ -9302
▁ㅇㅣㄹㅅㅐㅇ -9303
▁Sc -9304
▁ㅅㅣㅂㅏ -9305
▁ㅊㅔㅈㅗ -9306
▁ㅋㅐㅅㅣ -9307
ㅋㅏㄹㅏㄱ -9308
ㅣㅇㅓㅅㅡ -9309
▁ㅊㅓㄹㅎㅚ -9310
▁ㅇㅣㄹㅂㅏㅇ -9311
▁ㄱㅐㅈㅗㅇ -9312
▁ㅅㅔㅅㅗㄱ -9313
▁ㅎㅏㄱㄱㅖ -9314
▁ㅅㅜㅇㅛㅇㅊㅔ -9315
▁ㄷㅡㄹㅏㅇㅣㅂㅓ -9316
▁ㅅㅒ -9317
▁ㄹㅔㄹ -9318
▁ㅁㅗㅊㅣㄴ -9319
▁ㅇㅑㅇㅊㅡㄱ -9320
▁ㅇㅗㄹㅣㅋㅗㄴ -9321
▁ㅈㅗㅂㅜ -9322
▁ㅇㅏㄹㅐㅅ -9323
▁ㄱㅡㄴㄹㅗㅈㅏ -9324
▁ㅇㅗㅍㅡㄴㅣㅇ -9325
▁ㅇㅜㅎㅗ -9326
ㅇㅠㅎㅐㅇ -9327
▁ㅋㅏㄹㅗㄹ -9328
▁ㅇㅏㄱㄷㅏㄴ -9329
▁ㅎㅓㄱ -9330
▁ㅌㅟㄹㅡ -9331
▁ㅁㅕㅇㅎㅏ -9332
▁ㅇㅣㄴㅏㅁ -9333
▁ㅁㅔㄹㄹㅗㄷㅣ -9334
ㅌㅜㄹ -9335
▁ㅈㅏㅅㅓㄴ -9336
▁ㄱㅜㅇㄱㅡㄱ -9337
▁ㅍㅏㄹㅏㄴㅅㅐㄱ -9338
▁ㄹㅏㅇㅣㅇㅗㄴㅈㅡ -9339
ㅅㅣㅌㅏ -9340
▁ㄱㅏㅈㅕㄱㅏ -9341
▁ㅎㅏㅇㅈㅐㅇ -9342
▁ㅅㅡㄹㄹㅗㅂㅔㄴㅣㅇㅏ -9343
▁ㅇㅓㅁㅣ -9344
▁ㅅㅜㅅㅐㄱ -9345
▁ㅈㅐㅅㅏㅇ -9346
▁ㄱㅗㅇㅂㅐㄱ -9347
▁ㅍㅕㅇㅈㅓㅇ -9348
▁ㅇㅠㅈㅓ -9349
▁ㅎㅐㄱㅗ -9350
▁ㄴㅐㅈㅓㅇ -9351
▁ㅅㅣㄴㅅㅏㅇ -9352
ㅓㄹㄹㅣㅅㅡㅌㅡ -9353
ㅗㅂㅓ -9354
▁ㅍㅣㅇㅜ -9355
ㄱㅣㄴㅕㅁ -9356
▁ㅂㅏㅂㅣㄹ -9357
▁ㅋㅓㄴㅓㄹ -9358
▁ㅂㅏㄴㅈㅣㄹㅡㅁ -9359
ㅎㅘㅇㅎㅜ -9360
▁ㅁㅓㄴㅈㅣ -9361
▁ㅂㅔㄴㅔㄷㅣㄱ -9362
▁ㅎㅣㅇㅓㄹㅗㅈㅡ -9363
hn -9364
▁ㅁㅏㄺ -9365
▁ㅅㅓㅈㅏ -9366
▁ㄱㅘㄴㄱㅜ -9367
▁ㅍㅏㅇㅣㄴㅓㄹ -9368
▁ㅂㅏㅇㅅㅏㅅㅓㄴ -9369
IP -9370
ㅈㅡㅂㅔ -9371
ㅋㅏㅁㅣ -9372
▁ㄱㅡㄷㅐ -9373
▁ㅇㅜㅈㅡㅂㅔ -9374
▁ㅅㅏㅅㅏㄹ -9375
▁ㅌㅐㄱㅎㅏ -9376
▁ㅁㅏㄴㅇㅣㄹ -9377
▁ㅂㅗㅇㅇㅏㄴ -9378
▁ㄷㅗㅊㅓㅇ -9379
▁ㅇㅛㄱㄱㅜ -9380
ㅠㄹㅓㅂ -9381
▁ㅈㅏㅌㅐㄱ -9382
▁ㄱㅗㅇㅂㅏㅇ -9383
▁SD -9384
▁ㅌㅜㄴ -9385
▁ㅇㅣㅅㅔ -9386
▁ㅁㅗㄹㅗㅋㅗ -9387
▁ㅇㅞㅅㅡㅌㅓㄴ -9388
ㅅㅖㅂㅣ -9389
ㅈㅓㅈㅣ -9390
▁1898 -9391
▁ㄹㅣㅇㅗ -9392
▁ㄹㅔㅂㅏㄴㅗㄴ -9393
ㅠㅁㅗ -9394
▁ㅇㅣㄹㄱㅏ -9395
▁ㅇㅗㅂㅅㅕㄴ -9396
▁ㅂㅓㅁㅇㅠㅎㅐㅇ -9397
▁ㅁㅏㄹㅣㄴ -9398
▁ㄷㅏㄴㅕㅇㅗ -9399
▁LC -9400
ㄷㅜㄱㅛ -9401
▁ㅋㅔㄴㅑ -9402
ㄱㅗㅇㅅㅣㄴ -9403
ㅂㅡㄹㅣㅈㅣ -9404
ㅗㄴㅌㅡ -9405
▁ㅇㅖㅅㅣ -9406
ㅅㅡㅇㅂㅜ -9407
▁ㅁㅣㅎㅏㅇㅣㄹ -9408
▁ㅊㅐㄹㄹㅣㄴㅈㅣ -9409
ㅗㅁ -9410
ㄹㅗㅇㅣ -9411
▁ㄷㅟㅈㅣㅂ -9412
▁ㅅㅣㅈㅓㅇ -9413
▁ㄱㅓㅁㅊㅏㄹㅊㅓㅇ -9414
▁115 -9415
ㅅㅡㅂㅜㄱ -9416
▁ㄱㅣㅁㅎㅕㄴ -9417
ㅈㅜㄹㅗ -9418
▁ㅎㅢㄱㅟ -9419
▁ㅁㅜㅎㅏㅁ -9420
▁GS -9421
ㅈㅏㅇㅣ -9422
ㅑㄴㅡㄴ -9423
▁ㅁㅏㄴㄹㅛ -9424
▁ㅅㅣㅇㅟㄷㅐ -9425
▁ㅅㅏㅇㅟ -9426
▁ㄱㅣㅈㅣㄹ -9427
▁ㅅㅗㄱㅠㅁㅗ -9428
▁ㅇㅓㄱㅡㅅ -9429
▁ㅇㅚㅇㅑㅅㅜ -9430
▁ㄱㅘㅇㅎㅐㄱㅜㄴ -9431
▁GP -9432
▁ㄴㅐㅇㅈㅓㄴ -9433
▁ㅈㅡㄱㄱㅏㄱ -9434
▁ㄱㅖㅇㅕㄹㅅㅏ -9435
▁129 -9436
▁ㄹㅗㅇㅜ -9437
▁ㄴㅏㅁㄱㅜ -9438
▁ㅂㅜㄷㅣㅈ -9439
▁ㄱㅗㄴㄹㅏㄴ -9440
▁ㅊㅣㅇㅊㅏㄴ -9441
▁ㄹㅜㄴ -9442
ㄹㅣㄴㅏ -9443
▁ㅁㅐㄱㅅㅡ -9444
▁ㅂㅣㅊㄴㅏ -9445
▁ㅌㅐㄱㅡㄱ -9446
▁ㅎㅔㄹㄱㅣ -9447
ㅂㅏㅇㅅㅗㅇㄱㅗㅇㅅㅏ -9448
rom -9449
▁ㄱㅏㅇㅗㄱ -9450
▁ㄱㅡㄴㅑㅇ -9451
▁ㅊㅗㅇㅝㄹ -9452
▁ㅍㅐㄹㅓㄹ -9453
▁ㄴㅠㅈㅓㅈㅣ -9454
▁ㅍㅡㄹㄹㅐㅅㅣ -9455
ㅗㅇㅣㅌㅡ -9456
▁ㄴㅓㅁㅊㅣ -9457
▁ㅎㅚㅅㅏㅇ -9458
▁ㅓㅅㅓ -9459
▁ㅇㅝㅋㅡ -9460
▁ㅎㅘㅎㅐ -9461
▁ㄱㅘㅂㅏㄴ -9462
▁ㅍㅜㅇㅈㅏ -9463
▁ㅂㅡㄹㄹㅐㄱㅎㅗㄹ -9464
ㅌㅗㄹㄹㅔ -9465
▁ㄱㅘㄴㅅㅔ -9466
▁ㄷㅔㄹㅡ -9467
▁ㅅㅏㅂㅗㄴ -9468
▁ㅎㅘㅇㅈㅗㄱ -9469
▁ㅅㅓㅇㄹㅣㅎㅏㄱ -9470
▁ㄹㅓㅁ -9471
▁ㅇㅏㅇㅣㄷㅣ -9472
ㅡㄹㅔ -9473
▁ㅂㅐㅎㅜ -9474
▁ㄴㅗㅎㅊㅣ -9475
▁ㅇㅛㅈㅓㅇ -9476
▁ㅈㅓㄴㅓㄹ -9477
▁ㅎㅗㅊㅜㄹ -9478
▁ㄷㅗㅁㅣㄴㅣ -9479
▁ㅇㅣㄴㅁㅕㅇ -9480
▁ㅊㅜㄱㅊㅜㄹ -9481
▁JT -9482
ㅏㅇㅣㄷㅡ -9483
▁III -9484
▁ㅇㅗㄴㅗ -9485
▁ㄱㅏㅁㅈㅏ -9486
▁ㄸㅓㄹㅊㅣ -9487
▁ㅊㅚㄷㅐㅎㅏㄴ -9488
▁ㅇㅢㅇㅑㄱㅍㅜㅁ -9489
▁ㄱㅏㅇㅅㅓ -9490
▁ㄴㅏㅁㅁㅣ -9491
▁ㄷㅏㅅㅡ -9492
▁ㅊㅔㅅㅡ -9493
ㄷㅗㄱㅜㄴ -9494
▁ㅅㅣㄱㅏㅈㅣ -9495
▁ㅁㅏㅇㅜㄴㅌㅡ -9496
▁ㅈㅔㅊㅣ -9497
▁ㅋㅐㄴㅈㅏㅅㅡ -9498
▁ㄱㅡㄱㅈㅏㄱ -9499
▁ㅁㅣㅅㅗ -9500
▁ㅇㅡㄴㄷㅔ -9501
▁ㅇㅏㄹㅇㅏㅂㅗ -9502
▁ㅌㅗㅇㅊㅣㅈㅏ -9503
▁ㅇㅏㄹㄹㅜㅁㅣㄴ -9504
▁ㅇㅛㅇㅇㅣ -9505
▁ㄱㅕㅇㅅㅣㄴ -9506
ㅆㅜ -9507
▁ㅋㅛ -9508
ㅎㅣㅋㅗ -9509
▁ㄷㅡㄹㅣㅁ -9510
▁ㅇㅘㅇㅅㅔ -9511
▁ㅇㅞㅂㅌㅜㄴ -9512
▁ㅂㅔㄹㄹㅏㄹㅜㅅㅡ -9513
ph -9514
▁ㅈㅐㅎㅗㄴ -9515
ㅎㅐㅁ -9516
▁ㄷㅏㄷㅏ -9517
▁ㅈㅓㅇㅂㅕㄴ -9518
▁ㄱㅕㅇㅊㅏㄹㄱㅘㄴ -9519
▁ㅂㅜㄹㅌㅏ -9520
▁ㅇㅏㄴㅌㅗㄴㅣㅇㅗ -9521
▁ㅇㅣㄱㅓ -9522
ㄷㅐㅅㅓㅇ -9523
▁ㅁㅣㄱㅅㅡ -9524
▁ㅈㅣㅇㅣㄴ -9525
ㅇㅣㅆ -9526
ㅅㅜㅅㅗ -9527
▁ㅁㅏㄱㄴㅐ -9528
▁ㅁㅏㅇㅣㅋㅡㄹㅗ -9529
urn -9530
ㅆㅡㄹ -9531
ㅜㅇㅔ -9532
ㅎㅏㅁㅅㅜ -9533
▁ㅋㅏㄹㄹㅏ -9534
▁ㅍㅗㄱㅍㅗ -9535
▁ㅍㅜㄹㄹㅕㄴㅏ -9536
▁ㅇㅔㄷㅡ -9537
▁ㅂㅣㅅㅓㄱ -9538
▁ㅅㅜㄴㅈㅗ -9539
ㄷㅏㅎ -9540
ㄷㅗㅂㅏ -9541
ction -9542
▁ㅅㅡㅇㅈㅏ -9543
▁ㅋㅙㅅㅗㄱ -9544
▁ㄱㅘㅇㅈㅜㄱ -9545
ㄱㅞ -9546
▁ㅅㅓㄴㄷㅗ -9547
▁ㅈㅔㅇㅏㅂ -9548
▁ㅊㅓㅁㄷㅏㄴ -9549
▁ㅊㅓㅇㅈㅜㅅㅣ -9550
▁ㅇㅝㄹㅇㅛㅇㅣㄹ -9551
▁ㅊㅓㄴㅁㅜㄴㄷㅐ -9552
ㅏㅇㅜㅅㅡ -9553
▁ㅂㅏㄹㄹㅣ -9554
▁ㅈㅓㅇㄹㅕ -9555
▁ㅈㅣㅊㅣㅁ -9556
▁ㄷㅗㄹㄱㅕㄱ -9557
▁ㅇㅗㄴㅌㅏㄹㅣㅇㅗ -9558
▁142 -9559
▁ㄷㅏㅋㅡ -9560
▁ㅇㅠㄹㅏ -9561
▁ㅍㅣㄹㅅㅏ -9562
▁ㅂㅕㄱㄷㅗㄹ -9563
▁ㅍㅡㄹㅗㄷㅓㄱㅅㅕㄴ -9564
▁ㅊㅣㅁㅌㅜ -9565
ㅋㅛ -9566
▁ㅂㅜㅍㅣ -9567
ㅊㅓㄴㄹㅣ -9568
▁ㅂㅗㄴㄱㅜㄱ -9569
▁ㅊㅗㅇㅊㅣㅇ -9570
▁ㅂㅕㄴㅇㅣ -9571
▁ㅈㅣㅇㄱㅖ -9572
▁ㅁㅐㄴㅣㅈㅓ -9573
▁ㅇㅑㅁㅏㅌㅗ -9574
▁ㄹㅔㅅㅡㄹㄹㅣㅇ -9575
ㄹㅗㄹㄹㅏㅇㅣㄴㅏ -9576
ㅎㅏㅇㅣㅁ -9577
▁ㅂㅏㄺㄱㅣ -9578
▁ㅇㅓㅅ -9579
▁ㅇㅞㄴ -9580
▁ㄱㅘㅇㅈㅜㄱㅘㅇㅇㅕㄱㅅㅣ -9581
TS -9582
▁Ne -9583
▁1899 -9584
▁ㅇㅖㅎㅏ -9585
ㅈㅣㄴㄱㅜㄴ -9586
▁ㅅㅜㄱㅊㅓㅇ -9587
▁ㅊㅜㄱㅁㅜㄹ -9588
ㅌㅔㄹㅡㅂㅜㄹㅡㅋㅡ -9589
▁CJ -9590
ㅋㅗㄷㅣㅇ -9591
▁ㄱㅕㄹㅋㅗ -9592
▁ㅈㅗㅈㅣㅍㅡ -9593
▁ㅅㅡㅇㅂㅜㅊㅏㄱㅣ -9594
ㅎㅘㅁㅜㄹ -9595
▁ㄱㅘㄴㅈㅔ -9596
▁ㅈㅐㅅㅓㄴ -9597
▁ㅋㅔㅇㅣㅁ -9598
▁ch -9599
ㅇㅏㅁㅓㄱ -9600
▁ㄱㅚㅁㅜㄹ -9601
▁ㅎㅚㄱㅘㄴ -9602
▁ㄹㅓㅅㅔㄹ -9603
▁ㄷㅐㅅㅓㅇㅑㅇ -9604
pp -9605
▁ㅎㅔㄱ -9606
▁ㅈㅜㅇㅅㅏㄴ -9607
ㅍㅗㄹㅗ -9608
▁ㅅㅗㅁㅐ -9609
▁ㅇㅚㅁㅗ -9610
▁ㅇㅠㅈㅣㄴ -9611
▁ㄷㅏㄱㅏㅇㅗ -9612
▁ㅍㅗㄱㄴㅓㄼ -9613
▁ㅎㅗㄴㄷㅗㅇ -9614
▁ㅂㅜㅇㅢㅈㅏㅇ -9615
▁ㅈㅏㅇㄹㅖㅅㅣㄱ -9616
ㅉㅣ -9617
▁ㅁㅣㄹㅈㅣㅂ -9618
▁ㄷㅓㄴㅣ -9619
▁ㅈㅜㅂㅜ -9620
ㅂㅏㄷㅏㄱ -9621
▁ㅇㅜㅊㅡㄱ -9622
▁ㅊㅟㅇㅓㅂ -9623
▁ㅈㅓㄴㅈㅏㄱㅣ -9624
▁ㅇㅕㄴㅅㅏㄴㅈㅏ -9625
▁ㄱㅏㄹㅜ -9626
▁ㅈㅓㅇㅅㅔ -9627
▁` -9628
▁ㅂㅣㅊㅜ -9629
▁ㅇㅣㄷㅡ -9630
ㅈㅐㅇㅇㅣ -9631
▁ㄱㅣㅈㅡㅇ -9632
▁ㄷㅐㅅㅗㄴ -9633
▁ㅅㅓㅈㅣㄴ -9634
▁ㅁㅕㅇㅈㅗㅇ -9635
▁ㅁㅣㅅㅔ -9636
▁ㅂㅏㄹㅎㅐ -9637
▁ㅎㅏㄱㅇㅓㅂ -9638
▁ㅊㅗㅇㅅㅏㄹㅕㅇ -9639
▁ㄱㅏㅂㅈㅏㄱㅅㅡㄹㅓㅂ -9640
▁ㄷㅐㅂㅜ -9641
▁ㅍㅣㄱㅕ -9642
▁ㅁㅣㄷㅡㄹ -9643
▁ㅇㅗㅇㄹㅣㅂ -9644
▁ㅅㅏㅅㅏㅇㅈㅏ -9645
▁ㅈㅓㄻㅇㅡㄴㅇㅣ -9646
▁Man -9647
▁ㅁㅏㄷㅣ -9648
▁ㄱㅡㅁㅇㅛㅇㅣㄹ -9649
▁ㄹㅣㅂㅠ -9650
▁ㅅㅗㅅㅐㅇ -9651
▁ㅂㅏㄹㅂㅕㅇ -9652
lan -9653
▁ㄴㅠㅌㅓㄴ -9654
▁ㅌㅚㅇㅣㅁ -9655
▁ㅇㅣㄹㅋㅓㄹ -9656
▁ㅈㅓㄴㄴㅕㄴ -9657
▁ㅂㅡㄹㅣㅌㅡㄴ -9658
▁ㄱㅛㅌㅗㅇㄱㅜㄱ -9659
▁ㅍㅏㅅㅏㄴ -9660
▁ㅉㅗㅊㄱㅕㄴㅏ -9661
▁1902 -9662
▁ㄱㅏㄱㄷㅗ -9663
▁ㅂㅏㄹㄱㅣ -9664
▁ㅇㅣㄴㄷㅣㅇ -9665
▁ㅋㅓㄴㅅㅔㅂ -9666
▁ㅇㅕㄴㅇㅖㅇㅣㄴ -9667
▁ㅋㅣㄹㅡ -9668
▁ㅌㅗㅇㅂㅗ -9669
▁ㄱㅘㅇㄷㅜㅇ -9670
▁ㅋㅣㅂㅗㄷㅡ -9671
ens -9672
▁ㅇㅜㅊㅔ -9673
ㅈㅗㄱㅓㄴ -9674
▁ㄷㅗㅇㅈㅓㅇ -9675
▁ㅂㅜㅇㅕㅂㅏㄷ -9676
▁ㅍㅡㄹㄹㅏㅅㅡㅌㅣㄱ -9677
ㅌㅏㅈㅜ -9678
ㅡㄱㅏㅇ -9679
ㅌㅏㅁㅣㄴ -9680
▁ㅋㅔㄹㄹㅣ -9681
▁ㅈㅗㅇㅅㅗㄱ -9682
▁ㅌㅗㅊㅏㄱㅈㅗㅇ -9683
lic -9684
▁ㄷㅜㄹㅜ -9685
▁ㄱㅏㅎㅘㄴ -9686
▁ㅋㅔㅂㅣㄴ -9687
▁ㅎㅘㄹㅕㄱ -9688
▁ㄱㅓㄹㅐㅅㅗ -9689
▁ㅁㅏㄹㅆㅡㅁ -9690
▁ㅇㅣㅁㅇㅝㄴ -9691
▁ㅅㅓㄹㅎㅘ -9692
▁ㅇㅠㅂㅏㅇ -9693
▁ㄷㅓㄱㅡㄹㄹㅓㅅㅡ -9694
▁ID -9695
ㄹㅐㅇ -9696
▁ㅈㅣㅇㅗㄱ -9697
▁ㅎㅏㅇㅑㅎ -9698
▁ㅅㅔㅇㅣㅂㅡ -9699
▁ㅊㅐㅅㅗ -9700
▁ㅊㅔㅋㅗㅅ -9701
▁ㅎㅖㅌㅐㄱ -9702
▁ㅊㅔㅋㅗㅅㅡㄹㄹㅗ -9703
▁ㅊㅔㅋㅗㅅㅡㄹㄹㅗㅂㅏㅋㅣㅇㅏ -9704
ㄹㅣㅇㅓㄹ -9705
▁ㅇㅓㄹㅡㄴ -9706
▁ㅌㅏㄴㄷㅗ -9707
▁ㅇㅝㄴㄹㅗㅇㅝㄴ -9708
▁ㅍㅡㄹㄹㅐㅅㅍㅗㅁ -9709
▁ㄹㅑ -9710
▁ㄱㅔㄹㅡ -9711
▁ㅇㅏㅈㅡ -9712
▁ㄴㅏㄴㅈㅣㅇ -9713
▁ㄹㅜㄱㅅㅔㅁ -9714
▁ㄷㅗㅇㄹㅐ -9715
▁ㅁㅜㅁㅕㅇ -9716
▁ㅎㅘㅅㅏㅇ -9717
▁'' -9718
▁ㅇㅕㄴㄲㅗㅊ -9719
▁ㅇㅏㄹㄹㅜㅁㅣㄴㅠㅁ -9720
▁ㅁㅝ -9721
▁ㅎㅏㄱㄱㅣ -9722
▁ㅇㅕㄴㅇㅣ -9723
▁ㄱㅏㅇㄷㅗㅇ -9724
▁ㅁㅏㄴㅅㅓㅇ -9725
ㅡㄹㅓㅁㅣ -9726
▁ㄱㅜㄱㅕㅇ -9727
▁ㅂㅗㅇㄱㅓㄴ -9728
▁ㅅㅣㄴㅇㅝㄴ -9729
▁ㄱㅐㅁㅏㄱㅈㅓㄴ -9730
▁ㅂㅜㄴㅁㅕㅇㅎㅣ -9731
▁ㅇㅓㄵ -9732
▁ㅁㅐㅁㅐ -9733
▁ㅇㅑㅁㅏㄱ -9734
▁ㅇㅡㅇㅅㅣ -9735
▁ㅋㅡㄹㄹㅔㅁ -9736
▁ㅎㅏㄴㅈㅗㄱ -9737
▁ㅂㅜㄴㅂㅣ -9738
▁ㅂㅡㄹㅐㄴ -9739
▁ㅊㅓㄴㅎㅏ -9740
▁ㅇㅑㅇㅂㅏㄴ -9741
▁ㅇㅝㄴㅈㅗㅇ -9742
▁ㅋㅜㄱ -9743
▁ㄹㅗㄹㅏ -9744
TC -9745
▁ㅎㅏㅊㅏ -9746
ㄹㅡㄷㅏㄴ -9747
▁ㄱㅏㅁㅁㅏ -9748
▁ㅈㅣㄴㅅㅏ -9749
▁ㄱㅗㅇㅈㅓㄱ -9750
▁ㅇㅕㄴㅅㅡㅇ -9751
▁ㄱㅣㅅㅏㄷㅏㄴ -9752
▁ㅂㅣㅎㅐㅇㅈㅏㅇ -9753
ㄲㅜㄹ -9754
▁ㄹㅗㅂㅣ -9755
▁ㄱㅏㄴㅅㅓㄴ -9756
▁ㄷㅐㅅㅓㅇㄷㅏㅇ -9757
▁ㅅㅡㅌㅏㄹㅣㄱㅡ -9758
▁IM -9759
▁ㄹㅓㅅㅡ -9760
▁ㅎㅏㄷㅏㄴ -9761
▁ㅈㅓㄴㅅㅗㄱ -9762
▁ㄱㅐㅅㅗ -9763
▁ㅌㅗㄲㅣ -9764
ㅏㅇㅣㅈㅡ -9765
▁ㄱㅣㄱㅏㄱ -9766
▁ㄴㅚㅁㅜㄹ -9767
▁ㅅㅜㅂㅜㄴ -9768
▁ㅌㅗㅇㅑㅇ -9769
▁ㅂㅏㄹㄱㅡㅂ -9770
▁ㅇㅚㄴㅅㅗㄴ -9771
▁ㄷㅏㅎㅏㅇㅅㅣㄱ -9772
▁BS -9773
▁ㄹㅔㅁ -9774
▁ㅌㅏㅈㅣ -9775
▁ㄱㅏㄹㄹㅏ -9776
▁ㄱㅗㅇㅈㅗ -9777
▁ㄱㅗㅇㄱㅏㅁ -9778
▁ㅅㅔㅇㅣㅂㅜ -9779
▁ㅅㅡㅈㅡㅋㅣ -9780
▁ㅍㅡㄹㅏㄴㅊㅡ -9781
▁ㄷㅐㄱㅓ -9782
▁ㄱㅏㅅㅣㄴ -9783
▁ㅂㅔㄹㄹㅣ -9784
▁ㅅㅐㅇㅊㅔ -9785
▁ㅎㅣㄴㄷㅜㄱㅛ -9786
ary -9787
▁ㅇㅛㄱㅓㄴ -9788
▁ㅈㅓㄱㄷㅗ -9789
▁ㅅㅗㄴㅏㅁㅜ -9790
▁ㅁㅣㅋㅣ -9791
▁ㅇㅞㅅㅡㅌ -9792
▁ㅊㅏㅇㅊㅜㄹ -9793
▁ㅋㅗㅁㅣㄱㅅㅡ -9794
▁ㅇㅣㄱㅅㅡㅍㅡㄹㅔㅅㅡ -9795
▁ㅍㅡㄹㅏㅇㅋㅡㅍㅜㄹㅡㅌㅡ -9796
▁ㅕㅆ -9797
ㅌㅠㅁ -9798
▁ㅈㅜㅇㅂㅗㄱ -9799
▁ㅈㅜㅇㅎㅕㅇ -9800
ㄲㅜㅁ -9801
▁ㅍㅗㅎㅚㄱ -9802
▁ㅎㅘㄱㅏㅇ -9803
▁ㄱㅜㄱㅇㅕㅇ -9804
▁ㅈㅑ -9805
ㅔㄴㅣ -9806
▁ㅅㅏㅅㅡㅁ -9807
▁ㅅㅡㅂㅈㅣ -9808
▁ㄷㅗㅇㅎㅏㄱ -9809
▁ㅂㅣㄹㅗㅅㅗ -9810
▁ㅅㅗㅅㅣ -9811
▁ㅇㅖㅈㅗ -9812
▁ㅇㅣㅎㅘ -9813
▁ㅎㅘㅈㅏ -9814
▁ㅅㅓㅅㅣㄴ -9815
▁ㅊㅓㄱㅊㅜ -9816
▁ㄱㅣㅅㅜㄹㅈㅏ -9817
▁ㅇㅣㅂㅡㄴ -9818
▁ㅈㅜㅇㅊㅜ -9819
▁ㅅㅐㅇㅅㅐㅇ -9820
▁ㅇㅕㅇㄷㅡㅇ -9821
ㄷㅏㅁㅕ -9822
▁ㄱㅣㄴㅣ -9823
▁ㅈㅏㅇㅏ -9824
▁ㄱㅡㄹㅡㅅ -9825
▁ㅇㅕㅇㅁㅜㄴ -9826
▁ㅍㅡㄹㄹㅏㅇㅣ -9827
▁ㄹㅓㅅㅣㅇㅏㅇㅓ -9828
▁ㅎㅐㅁㅣㄹㅌㅓㄴ -9829
▁ㅍㅗㅋㅔㅅㅁㅗㄴㅅㅡㅌㅓ -9830
▁ㅋㅏㅅㅣ -9831
▁ㅅㅣㅂㅓㅁ -9832
▁ㄱㅏㅇㅂㅕㄴ -9833
▁ㅂㅏㄲㅏㅌㅉㅗㄱ -9834
▁ㄷㅗㄱㅅㅓ -9835
▁ㄲㅡㄹㅇㅓㄷㅡㄹㅇㅣ -9836
ㄱㅗㅋㅜ -9837
▁ㅇㅣㅈㅡ -9838
▁ㅎㅕㄴㅇㅡㄴ -9839
TA -9840
▁ㅅㅣㄱㅏ -9841
ㅅㅡㅌㅗㄹ -9842
▁ㅂㅕㅇㄱㅣ -9843
▁ㄷㅏㅂㅂㅕㄴ -9844
▁ㅅㅐㅇㄹㅑㄱ -9845
▁ㅌㅓㄸㅡㄹㅣ -9846
▁ㄹㅜㄱㅅㅔㅁㅂㅜㄹㅡㅋㅡ -9847
▁ㄷㅐㅅ -9848
▁ㅇㅝㅌㅓ -9849
ㅅㅣㅈㅡㅁ -9850
ㅈㅣㅅㅈㅓㅁ -9851
▁ㄷㅏㄴㅊㅜㄱ -9852
▁ㅈㅓㅇㅅㅓㅇ -9853
▁ㅁㅜㅅㅡㅇㅂㅜ -9854
▁ㄱㅕㅇㅅㅓㅇㅂㅜ -9855
ㅏㄱㅗㄴ -9856
▁ㅈㅓㅈㅜ -9857
▁ㅌㅗㅁㅗ -9858
ㅁㅣㅅㅏㅇ -9859
▁ㅂㅗㅇㅣㅅㅡ -9860
▁ㄲㅗㄱㅈㅣㅅㅈㅓㅁ -9861
▁ㄷㅐㅊㅣ -9862
▁ㅂㅣㄱㅣ -9863
ㅇㅟㅇㅝㄴ -9864
▁ㄴㅏㅁㅈㅏㄱ -9865
▁ㅈㅣㄱㅁㅕㄴ -9866
▁ㅇㅜㄹㅅㅏㄴㄱㅘㅇㅇㅕㄱㅅㅣ -9867
ach -9868
▁ㅇㅟㅉㅗㄱ -9869
▁No -9870
▁ㅍㅣㅅㅣㄴ -9871
ㅅㅔㅅ -9872
▁ㄱㅗㅅㅏㄴ -9873
▁ㅇㅏㄷㅗㄹㅍㅡ -9874
ert -9875
▁ㅊㅜㅂ -9876
▁ㅎㅗㄹㅡㅁㅗㄴ -9877
▁ㅁㅐㅋㅏㅌㅡㄴㅣ -9878
LE -9879
ㅍㅗㅌㅓ -9880
▁ㅅㅓㄹㅣ -9881
▁ㅊㅓㄴㅈㅐ -9882
▁ㅊㅗㄱㅁㅐ -9883
▁ㅇㅏㅂㄷㅜㄹ -9884
▁ㅂㅏㅂㅣㄹㄹㅗㄴ -9885
ㅏㄴㅣ -9886
▁ㄴㅏㄴㅗ -9887
▁ㅁㅜㄹㅏ -9888
▁ㅆㅡㅊㅘㄴ -9889
▁ㅊㅜㄱㅈㅗ -9890
▁ㄱㅗㅇㅑㅇㅅㅣ -9891
▁ㅂㅜㅎㅚㅈㅏㅇ -9892
▁ㄷㅜㄹㅕㅇㅝㅎㅏ -9893
▁ㅇㅣㅀㅇㅓㅂㅓㄹㅣ -9894
▁ㄷㅐㄱㅜㄱㅘㅇㅇㅕㄱㅅㅣ -9895
out -9896
ㄷㅜㄹㅣ -9897
▁ㅊㅔㄹㅠ -9898
▁ㅇㅕㄹㄷㅗ -9899
▁ㅎㅢㄱㅗㄱ -9900
▁ㄷㅐㅂㅕㄴㅇㅣㄴ -9901
▁ㅇㅑㄱㅈㅏ -9902
▁ㄱㅜㄴㅈㅜㅇ -9903
▁ㅁㅏㄱㅅㅣㅁ -9904
▁ㅂㅗㄱㅇㅛㅇ -9905
▁ㄴㅓㅁㅇㅓㅅㅓ -9906
▁} -9907
▁1901 -9908
▁ㄷㅗㄱㅅㅓㅇ -9909
▁ㅅㅡㅇㅟㅊㅣ -9910
▁ㅌㅏㅇㅣㅁㅅㅡ -9911
▁ㄱㅏㅇㅕㄱ -9912
▁ㅇㅚㄱㅘㄴ -9913
▁ㅊㅏㅁㅇㅢ -9914
▁ㄱㅣㅅㅂㅏㄹ -9915
▁ㅈㅓㅇㅈㅓㄱ -9916
▁ㅇㅓㄱㅡㅅㄴㅏ -9917
▁ㅈㅏㅋㅡ -9918
▁ㅅㅓㅇㅍㅗㄱ -9919
▁ㅇㅓㄹㅠ -9920
ㅅㅖㅂㅣㅋㅣ -9921
▁ㄷㅗㅇㅎㅐㅇ -9922
▁ㅈㅔㄴㅔㅂㅏ -9923
▁ㅈㅣㄱㄱㅕㄹ -9924
LS -9925
ㄱㅛㄷㅗ -9926
▁ㅅㅔㅇㅣㄹ -9927
▁ㅍㅛㅈㅓㄱ -9928
▁ㄱㅘㅇㅁㅕㅇ -9929
▁ㅇㅣㅇㅛㅇㅈㅏ -9930
IG -9931
ug -9932
▁MB -9933
▁ㅁㅗㄳ -9934
▁ㅇㅓㅉㅓ -9935
▁ㅅㅡㄹㅣㄹ -9936
▁ㅈㅣㅊㅜㄹ -9937
▁ㅆㅓㄹ -9938
ㅈㅓㅇㄹㅣ -9939
▁ㄱㅗㅇㄹㅣ -9940
▁ㄷㅏㄴㅇㅢ -9941
▁ㄷㅗㅇㄴㅔ -9942
▁ㅅㅏㄱㅏㄴ -9943
▁ㅂㅗㄴㅁㅜㄴ -9944
▁ㅍㅜㅇㅔㄹㅡ -9945
▁ㄷㅏㄲ -9946
▁ㅇㅗㅀ -9947
▁ㅁㅜㅇㅓ -9948
ㄷㅐㅈㅏㅇ -9949
ㅌㅏㅇㅣㅁ -9950
▁ㄷㅡㄹㅓㅁㅓ -9951
▁ㅎㅟㄹ -9952
▁ㅈㅟㄱㅘ -9953
▁ㅍㅡㅌㅗㄹㄹㅔ -9954
ㅁㅏㅇㅣㅇㅗㅅㅡ -9955
▁ㅍㅡㅌㅗㄹㄹㅔㅁㅏㅇㅣㅇㅗㅅㅡ -9956
▁ㄱㅓㅅㅔ -9957
▁ㅊㅗㅅㅣㄴ -9958
▁ㅅㅏㅅㅍㅗㄹㅗ -9959
▁ㅁㅣㄹㅡㄱ -9960
▁ㅇㅝㄴㅊㅓㄴ -9961
▁ㅂㅜㅈㅏㄱㅇㅛㅇ -9962
ㅈㅏㄹㅡ -9963
▁ㅅㅡㄴㅣㅁ -9964
▁ㅇㅣㅎㅕㄴ -9965
ㅋㅏㄱㅏ -9966
▁ㅇㅖㄱㅗ -9967
▁ㅎㅏㅁㅏ -9968
▁ㄱㅏㅁㅆㅏ -9969
▁ㅋㅗㄲㅣㄹㅣ -9970
ey -9971
▁ㄹㅏㅂ -9972
▁ㅇㅜㅇㅢ -9973
▁ㅈㅣㅊㅣ -9974
▁ㅈㅗㅇㄹㅐ -9975
▁ㄱㅣㅁㅎㅗㅇ -9976
▁ㄷㅏㄴㅈㅓㄹ -9977
▁ㅅㅣㄴㄷㅗㅂㅣ -9978
▁ㄱㅣㅁㅊㅏㅇ -9979
▁ㅍㅗㄱㄱㅕㄱㄱㅣ -9980
ㄱㅑㄹ -9981
▁ㅁㅏㄴㅕ -9982
▁ㅊㅔㅈㅜㅇ -9983
▁ㅂㅜㅌㅈㅏㅂㅎㅣ -9984
▁ㅂㅔㄴㅣ -9985
▁ㅎㅗㅁㅗ -9986
▁ㅅㅡㅍㅗㄴ -9987
▁ㅁㅏㅅㅡㅋㅡ -9988
▁ㅂㅡㄹㅟ -9989
▁ㅁㅜㄹㅍㅜㅁ -9990
▁ㅈㅓㅇㅁㅜㄴ -9991
▁ㄱㅘㅇㅈㅓㅇㅜ -9992
▁ㄷㅟㅅㅂㅏㄷㅊㅣㅁ -9993
▁ㅁㅜㄱㅜㅇ -9994
▁ㅈㅏㅈㅏㄱ -9995
▁ㅇㅣㅁㄱㅘㄴ -9996
▁ㅎㅘㄱㅅㅣㄹㅎㅣ -9997
▁ㅇㅏㄹㄹㅔㄱㅅㅏㄴㄷㅡㄹㅡ -9998
▁THE -9999
ㅅㅡㅌㅔ -10000
▁ㅍㅛㄱㅣㅂㅓㅂ -10001
▁ㅇㅓㄺ -10002
ㅎㅣㅌㅗ -10003
▁ㅍㅔㅇㅣㄴ -10004
▁ㅇㅛㄹㅡㄷㅏㄴ -10005
ㅅㅈㅣ -10006
▁134 -10007
▁ㅅㅠㄴ -10008
▁1903 -10009
▁ㄷㅜㄲㅔ -10010
ㅅㅔㄴㅌㅡ -10011
ㅌㅔㄱㅊㅓ -10012
▁ㄱㅣㅁㅈㅔ -10013
▁ㅇㅕㅁㅈㅡㅇ -10014
▁ㅈㅣㅅㅣㄱㅇㅣㄴ -10015
▁ㅇㅏㅋㅣㅌㅔㄱㅊㅓ -10016
ㅊㅣㄱㅣ -10017
▁ㄷㅐㅍㅐ -10018
ㅍㅗㄹㄹㅣ -10019
▁ㄱㅏㄴㅌㅗ -10020
▁ㅋㅞㅂㅔㄱ -10021
ㅂㅔㅌㅡㄴㅏㅁ -10022
ㅊㅓㅅㅡ -10023
ㅍㅜㄹㅡ -10024
▁ㅌㅗㄱㅣ -10025
▁ㅇㅕㄴㄱㅣㅈㅏ -10026
ㄹㅔㄴㅏ -10027
▁ㅇㅠㅊㅔ -10028
▁ㅈㅜㄷㅚ -10029
▁ㅇㅗㄹㄹㅏ -10030
▁ㄱㅝㄴㅊㅗㅇ -10031
▁ㅅㅏㅇㄱㅡㅁ -10032
▁ㅅㅓㄴㅎㅐㅇ -10033
▁ㅅㅏㅎㅚㄷㅏㅇ -10034
▁ㅇㅕㅁㅅㅐㄱㅊㅔ -10035
▁ㄹㅖ -10036
▁ㄱㅏㄴㄷㅏㄴㅎㅣ -10037
▁ㅅㅗㄴㄲㅗㅂ -10038
▁ㅇㅣㅅㅓㅇㄱㅖ -10039
ase -10040
▁ㄱㅘㅇㄷㅐ -10041
▁ㅎㅏㅁㅈㅓㅇ -10042
▁ㅇㅓㄴㅇㅓㅎㅏㄱ -10043
▁AN -10044
▁One -10045
▁ㄱㅜㅇㅘ -10046
ㅣㅇㅏㅅㅡ -10047
▁ㅅㅓㅁㅜㄴ -10048
▁ㅅㅜㅎㅘㄱ -10049
▁ㅁㅗㅅㅓㄹㅣ -10050
▁ㅇㅏㅁㅏㅈㅗㄴ -10051
ㅓㅂㅓㅂ -10052
▁ㅁㅜㅎㅏㅁㅁㅏㄷㅡ -10053
▁ㄱㅣㅅㅜㄱ -10054
▁ㄱㅐㅇㅅㅣㄴ -10055
▁ㄹㅏㅍ -10056
▁ㅅㅓㅇㅈㅣ -10057
▁ㅇㅡㄹㅕㄱ -10058
▁ㅋㅗㅁㅍㅐㄱㅌㅡ -10059
▁ㅇㅘㅋㅏ -10060
ㄱㅡㄹㄹㅏ -10061
▁ㅇㅣㅌㅏㄹㄹㅣ -10062
▁ㄱㅘㄴㄱㅘㅇㅈㅣ -10063
▁ㅇㅏㅇㅣㄴㅅㅠㅌㅏㅇㅣㄴ -10064
ㄹㅔㅅ -10065
▁1884 -10066
▁ㅅㅓㄹㅠ -10067
▁ㄱㅗㅇㅇㅖ -10068
▁ㄱㅡㄹㄹㅜ -10069
▁ㅅㅓㄴㅂㅐ -10070
▁ㅇㅔㄴㄷㅣㅇ -10071
▁ㅇㅕㄱㄹㅑㅇ -10072
▁ㅇㅗㄱㅅㅡㅍㅓㄷㅡ -10073
▁ㄹㅣㅍㅡ -10074
▁ㅅㅗㅁㅏㄹ -10075
ㅇㅓㄸㅡㄹㅣ -10076
▁ㅎㅗㅁㄱㅜㅈㅏㅇ -10077
▁ㅋㅔㅇㅣㅁㅂㅡㄹㅣㅈㅣ -10078
▁KIA -10079
ㅠㅇㅓㄹ -10080
▁ㅇㅣㅂㅅㅓㅇ -10081
▁ㅈㅣㄱㄱㅕㅇ -10082
▁Gr -10083
▁ㅁㅕㄴㅈㅔ -10084
▁ㅅㅓㄹㄱㅛ -10085
▁ㅎㅔㅇㅣㄹ -10086
ㅅㅡㅌㅔㄹㅡ -10087
▁ㅌㅡㄹㅗㅍㅣ -10088
▁ㅍㅏㅇㅣㅌㅓ -10089
▁ㅅㅏㅇㅓㅂㄱㅏ -10090
▁EX -10091
ㅂㅏㄴㅏ -10092
ㅔㄹㅏㄹ -10093
▁ㅇㅢㅇㅢ -10094
▁ㅌㅚㅇㅕㄱ -10095
▁ㄱㅏㅁㅎㅐㅇ -10096
▁ㅇㅣㅂㄱㅜㄱ -10097
▁ㅂㅗㅎㅔㅁ -10098
▁ㅊㅜㄴㅊㅜ -10099
▁ㅎㅐㄴㅏㅁ -10100
▁ㅇㅡㄹㅕㄱㅗ -10101
▁ㅈㅓㅇㅅㅓㄴ -10102
ㅍㅣㅇㅓ -10103
▁ㅁㅏㄹㅕㄱ -10104
▁ㅅㅜㅊㅜㄱ -10105
▁ㅅㅗㅎㅐㅇㅅㅓㅇ -10106
▁All -10107
▁ㅍㅏㅅ -10108
▁ㅂㅏㅇㅣㄴ -10109
▁ㅇㅣㅅㅏㄱ -10110
▁ㅅㅣㄹㅁㅏㅇ -10111
▁ㅎㅡㄴㄷㅡㄹㄹㅣ -10112
▁ㅇㅟㄱ -10113
ㅂㅡㅅㅡ -10114
▁ㅂㅗㅇㅟ -10115
ㅘㄷㅗㄹㅡ -10116
▁ㅇㅣㄱㅘㄴ -10117
▁ㅂㅜㄹㄲㅗㅊ -10118
▁ㅂㅗㄱㅅㅗㅅㅜ -10119
▁ㄱㅐㅎㅘ -10120
▁ㅇㅔㅋㅘㄷㅗㄹㅡ -10121
▁ㅂㅣㄴㅠ -10122
▁ㄷㅐㅁㅜㄴ -10123
▁ㅇㅡㅇㅎㅏ -10124
▁ㅂㅏㅇㅣㅋㅣㅇ -10125
ㅏㅇㅣㅇㅓㄴㅌㅡ -10126
▁ㅇㅝㄴㄹㅛ -10127
▁ㅇㅣㅈㅏㅇ -10128
ㄹㅔㅇㅣㅌㅓ -10129
▁ㅋㅓㅁㅂㅐㄱ -10130
▁ㅅㅗㅂㅏㅇㅅㅓ -10131
▁ㅇㅕㅇㄱㅜㄱㅇㅣㄴ -10132
▁ㅇㅜㄴㅅㅜ -10133
▁ㅂㅏㅇㄱㅡㄹㄹㅏ -10134
▁ㅇㅑㅁㅏㄱㅜㅊㅣ -10135
▁ㅈㅔㄱㅜㄱㅈㅜㅇㅢ -10136
▁ㅂㅏㅇㄱㅡㄹㄹㅏㄷㅔㅅㅣ -10137
▁ㅋㅡㄹㄹㅏㅇㅣㅇㅓㄴㅌㅡ -10138
ree -10139
ㅎㅡㄱ -10140
▁ㅇㅣㄴㄷㅗㅇ -10141
▁ㅅㅏㅁㄱㅜㄱㅈㅣ -10142
▁ㅂㅔㄱ -10143
▁ㅈㅓㅇㄷㅗㅇ -10144
▁ㅁㅏㄴㅈㅜㄱㅜㄱ -10145
▁ㅂㅗㄱㅎㅏㅂㅊㅔ -10146
▁ㅇㅣㅂㅕㅇ -10147
▁ㅈㅓㅁㅅㅓㅇㅅㅜㄹ -10148
ㄲㅡㅅ -10149
ㅅㅕㄹ -10150
▁ㅈㅜㅈㅗ -10151
▁ㅊㅣㅇㅏ -10152
▁ㄱㅓㅁㅇㅕㄹ -10153
▁ㄱㅗㅇㅁㅕㅇ -10154
▁ㅁㅣㄴㄱㅏㅁ -10155
▁ㅇㅣㄹㅅㅏㄴ -10156
▁ㅅㅓㅇㅠㄹㅓㅂ -10157
▁ㅇㅏㅅㅣㅋㅏㄱㅏ -10158
▁ㅇㅣㄷㅏㄴ -10159
▁ㄷㅏㄹㄱㅑㄹ -10160
ㄱㅜㅊㅣ -10161
▁ㅇㅕㅈㅜ -10162
▁ㅍㅐㄴㅓㄹ -10163
ㄴㅜㄴ -10164
▁ㅍㅛㅂㅏㅇ -10165
ㅔㅅㅡㄹㄹㅣㅇ -10166
▁ㅍㅡㄹㅗㄹㅔㅅㅡㄹㄹㅣㅇ -10167
▁ㅂㅜㅅㅡ -10168
▁ㅇㅜㅍㅏ -10169
▁ㅎㅏㄹㅣ -10170
ㅂㅓㄴㄴㅚ -10171
▁ㅆㅡㄹㅔㄱㅣ -10172
▁ㅇㅏㅁㅣㅌㅏ -10173
▁with -10174
▁ㅇㅕㅇㅜㄴ -10175
▁ㅅㅡㅌㅗㅇㅓ -10176
▁ㄷㅗㄴㅓㄹㄷㅡ -10177
▁ㄱㅏㄹㅅㅜㄹㅗㄱ -10178
▁ㅈㅏㅇㄱㅣㄱㅏㄴ -10179
▁ㅍㅡㄹㅔㄴ -10180
ㅂㅜㄹㄱㅛ -10181
▁ㄱㅡㄷㅏㅈㅣ -10182
▁IN -10183
ㅏㅇㅣㅅㅡ -10184
▁ㅂㅏㅇㅅㅏㄴ -10185
▁ㅎㅣㄹㅗㅅㅣ -10186
▁ㄲㅗㄱㄷㅐㄱㅣ -10187
▁ㅇㅏㄹㅏㅂㅣㅇㅏ -10188
▁1800 -10189
▁ㅁㅏㅇㅑ -10190
▁ㄱㅕㅇㅂㅜ -10191
▁ㅆㅡㅅㅣㅁㅏ -10192
▁ㅌㅗㅅㅣ -10193
▁ㅁㅗㅌㅓ -10194
▁ㅍㅔㄴㅣ -10195
▁ㄴㅜㅈㅓㄱ -10196
▁ㅇㅝㄴㅂㅗㄴ -10197
▁ㅊㅓㅇㅅㅏㄴ -10198
▁ㄱㅣㄴㅕㅁㄱㅘㄴ -10199
▁ㄷㅡㄹㅏ -10200
▁ㄱㅕㅇㄱㅘ -10201
▁ㅂㅜㄴㅊㅜㄹ -10202
▁ㅅㅏㅁㅊㅗㄴ -10203
▁ㅇㅣㅂㄱㅏㄱ -10204
▁ㅈㅓㅇㄹㅣㅂ -10205
▁ㄱㅐㅇㅣㄴㅈㅓㄴ -10206
▁ㅌㅐㄱㅡ -10207
▁ㅎㅣㄹㅏ -10208
▁ㅁㅗㅎㅏㅁ -10209
▁ㅇㅜㄹㅍㅡ -10210
ㅣㅇㅓㄴㅅㅡ -10211
▁ㄷㅏㄴㅁㅕㄴ -10212
▁ㅎㅡㅇㅅㅓㄴ -10213
▁ㅍㅡㄹㅏㄴㅊㅔ -10214
▁ㅂㅏㅇㅅㅏㅅㅓㅇ -10215
▁ㄴㅣㅋㅗㄹㄹㅏㅇㅣ -10216
▁ㅈㅓㅇㅇㅠ -10217
▁ㅋㅗㅁㅣㄱ -10218
▁ㅎㅕㅇㅈㅗ -10219
▁ㄱㅕㅇㅇㅣㄴ -10220
▁ㄴㅏㄹㅋㅏㄹ -10221
▁ㅈㅗㅂㅏㄴㄴㅣ -10222
▁ㅇㅗㅅㅏㅋㅏㅂㅜ -10223
ㅏㄵ -10224
▁ㄹㅣㅁㅏㄴ -10225
▁ㄱㅜㄴㅅㅏㄴ -10226
▁ㄷㅗㅇㅛㅌㅗㅁㅣ -10227
ㅏㄱㅅㅡ -10228
ㅏㅅㅣㅇㅏ -10229
▁ㄱㅜㅎㅕㅇ -10230
▁ㅋㅐㅅㅓㄹ -10231
▁ㅊㅏㅇㄴㅕㅇ -10232
▁ㅌㅡㄱㄱㅝㄴ -10233
▁Cl -10234
ㄹㅜㄴ -10235
▁ㅅㅗㅈㅏ -10236
▁ㅅㅡㅋㅏㅇㅜ -10237
▁ㄱㅓㅁㅊㅜㄹ -10238
▁ㅍㅐㅁㅣㄹㄹㅣ -10239
11 -10240
act -10241
ㅅㅏㅇㅘ -10242
ㅎㅏㅋㅣ -10243
▁ㅈㅏㅎㅕㅇ -10244
▁ㅍㅣㅇㅋㅡ -10245
▁ㅂㅏㄹㅋㅏㄴ -10246
▁ㅈㅓㄴㅇㅕㅁㅂㅕㅇ -10247
▁ㅈㅔㄹㅣ -10248
▁ㄴㅗㄴㅎㅏ -10249
ㅇㅝㄴㄱㅜㄴ -10250
▁ㅊㅜㅇㅊㅓㅇㄷㅗ -10251
▁LA -10252
ㅈㅜㅇㅣㄴ -10253
▁ㄷㅗㅅㅓㄴ -10254
ys -10255
▁ㅁㅔㅁㅗ -10256
▁ㄱㅣㅅㅡㄺ -10257
▁ㅇㅓㄷㅜㅁ -10258
▁ㅈㅜㄴㅈㅜ -10259
▁ㅎㅓㄴㅅㅣㄴ -10260
▁ㄱㅏㄴㅏㄱㅏㅇㅘ -10261
▁ㅎㅛㄱㅗ -10262
▁ㅂㅗㅂㅗㄱ -10263
▁ㄲㅡㄶㅇㅣㅁㅇㅓㅄㅇㅣ -10264
▁ㅊㅏㄹㅡ -10265
▁ㅅㅏㅇㅇㅡㅇ -10266
▁ㅈㅜㅇㄹㅕㅇ -10267
▁ㅎㅕㄴㄱㅏㅁ -10268
▁ㄱㅣㄴㅕㅁㅂㅣ -10269
pt -10270
▁Ad -10271
▁ㄷㅡㅇㄱㅣ -10272
▁ㄱㅝㄴㅈㅏㅇ -10273
ㅌㅏㅋㅔ -10274
▁ㄹㅣㅈㅗ -10275
▁ㅁㅗㄴㅏ -10276
▁ㅌㅡㄹㅔㅇㅣ -10277
▁GO -10278
▁ㅅㅜㅁㅗㄱ -10279
▁ㄱㅜㄴㅎㅏㅁ -10280
▁ㄴㅠㅇㅛㄱㅈㅜ -10281
▁ㄴㅏㅁㄷㅗㅇㅅㅐㅇ -10282
ㄹㅜㄱ -10283
▁ㄱㅛㄹㅑㅇ -10284
▁ㄴㅏㅁㅁㅐ -10285
▁ㄱㅘㄴㅈㅓㄹ -10286
▁ㅅㅓㄴㄷㅗㅇ -10287
ㅓㅇㅣㄹㅇㅡㅋㅣ -10288
▁ㅂㅜㄹㄹㅓㅇㅣㄹㅇㅡㅋㅣ -10289
▁ㅂㅡㄹㅏㄴ -10290
▁ㅇㅜㅁㅜㄹ -10291
▁ㅈㅓㄴㅂㅏㅇ -10292
ㄱㅣㄴㅕㅁㅁㅜㄹ -10293
▁ㄹㅗㅈㅓ -10294
▁ㅇㅝㄴㅓ -10295
▁ㅁㅏㅂㅡㄹ -10296
▁ㄱㅏㅇㄱㅏㄴ -10297
▁ㅈㅘㅊㅡㄱ -10298
▁ㅅㅗㅅㅜㅈㅏ -10299
ass -10300
▁ㄱㅗㅊㅜ -10301
▁ㅎㅣㅁㅔ -10302
▁ㄱㅗㅇㄱㅗ -10303
▁ㄷㅏㅇㅅㅜ -10304
▁ㅊㅓㄹㅍㅖ -10305
▁ㅍㅣㅇㅏㄴ -10306
▁ㅇㅕㄴㅂㅗㅇ -10307
▁ㄱㅛㅇㅠㄱㅊㅓㅇ -10308
ㅗㄴㅔ -10309
▁ㅇㅏㅁㅜㄱ -10310
▁ㅈㅓㄴㅅㅣㅎㅚ -10311
▁ㅅㅡㅋㅡㄹㅣㅂㅌㅡ -10312
ㄹㅐㄴ -10313
▁ㅇㅣㄹㅓㅎ -10314
▁ㅂㅗㄹㄹㅣㅂㅣㅇㅏ -10315
▁ㅅㅗㅁㅗ -10316
▁ㅋㅏㅇㅜ -10317
▁ㄹㅣㅂㅗㄴ -10318
▁ㅈㅟㅅㅗㄱ -10319
▁ㄷㅔㅅㅡㅋㅡ -10320
▁ㅅㅏㄴㅊㅜㄹ -10321
▁ㅇㅏㄹㄹㅔㄱㅅㅏㄴㄷㅡㄹㅣㅇㅏ -10322
ㅑㅂㅏ -10323
▁ㅅㅣㅋㅗ -10324
▁ㅂㅗㅅㅓㅇ -10325
▁ㅈㅓㄴㄱㅜ -10326
▁ㅊㅜㅊㅓㅁ -10327
▁ㄱㅗㄱㅁㅜㄹ -10328
▁ㄱㅜㅇㅈㅜㅇ -10329
▁116 -10330
▁ㅇㅓㄹㅚ -10331
▁ㄷㅟㅉㅗㄱ -10332
▁ㅅㅓㄱㅂㅜㄹ -10333
▁ㅇㅏㄹㅣㅅㅡㅌㅗ -10334
▁ㅊㅗㅇㄷㅐㅈㅜㄱㅛ -10335
▁ㅁㅠㅈㅣㅅㅕㄴ -10336
▁ㅂㅜㄱㅇㅏㅍㅡㄹㅣㅋㅏ -10337
▁ㅇㅓㄷㅡ -10338
▁ㅌㅚㅈㅓㄱ -10339
▁ㅍㅏㄹㄹㅏ -10340
▁ㅅㅔㄱ -10341
▁ㄲㅡㄹㄹ -10342
▁ㅇㅜㅎㅚ -10343
▁ㅈㅣㄹㅅㅗ -10344
▁ㅎㅏㄱㄷㅐ -10345
▁ㅅㅡㄹㄹㅏㅂㅡ -10346
▁ㅁㅏㅇㅐ -10347
▁ㅌㅡㄹㅣㄱ -10348
▁ㄱㅕㅇㅈㅏㄱ -10349
ㅋㅡㄹㄹㅔㅅㅡ -10350
▁ㄲㅐㅈㅣ -10351
▁ㅎㅜㅁㅊㅣ -10352
▁ㅂㅜㄴㄹㅑㅇ -10353
▁ㅇㅏㄴㄱㅕㅇ -10354
▁ㅈㅜㅇㅇㅏㅇㅇㅏㅅㅣㅇㅏ -10355
▁Br -10356
ㅋㅡㄹㅏ -10357
▁ㅎㅏㄴㅌㅔ -10358
ㅇㅕㄱㅎㅏㄱ -10359
▁ㅅㅏㅇㄱㅕㅇ -10360
▁ㅅㅣㄴㅊㅜㄱ -10361
▁ㅎㅏㅁㅅㅓㄴ -10362
▁ㅋㅐㅅㅓㄹㅣㄴ -10363
▁ㄱㅡㄹㅏㄴ -10364
▁ㄱㅓㅈㅜㅈㅣ -10365
▁CN -10366
ㅎㅡㄹ -10367
ㅅㅏㅇㅓㅂ -10368
▁ㅅㅣㄹㅁㅜ -10369
▁ㅇㅣㅂㅜㄱ -10370
▁ㄱㅏㄱㅅㅐㄱ -10371
▁ㅂㅏㄹㄹㅕㅇ -10372
▁ㅎㅓㄴㅈㅓㅇ -10373
▁ㅂㅏㄹㄹㅔㄴㅅㅣㅇㅏ -10374
ㅋㅜㅂㅓ -10375
▁ㄷㅔㄹㅌㅏ -10376
▁1897 -10377
▁ㅁㅔㄹㅏ -10378
▁ㅎㅠㄱㅏ -10379
▁ㅌㅐㅂㅐㄱ -10380
▁ㅍㅕㅇㅊㅏㅇ -10381
▁ㅇㅓㄷㅡㅂㅔㄴ -10382
▁ㄴㅏㄹㅋㅏㄹㅗㅂ -10383
ㄱㅏㅎ -10384
ream -10385
▁ㄱㅏㅅㅏㄴ -10386
▁ㅅㅐㄱㅊㅐ -10387
▁ㄱㅣㄱㅘㄴㅊㅗㅇ -10388
▁ㅂㅏㅇㅅㅗㅇㅇㅣㄴ -10389
▁ㅁㅣㅋ -10390
▁1860 -10391
▁ㄷㅗㅇㅎㅕㅇ -10392
▁ㅈㅏㅇㅂㅕㄱ -10393
▁ㅁㅓㅇ -10394
▁ㄱㅣㅂㅜㄴ -10395
▁ㅁㅗㄴㅌㅔ -10396
▁ㅅㅣㄴㅈㅗ -10397
ㅅㅏㄴㅁㅐㄱ -10398
▁ㅂㅜㄹㅅㅣㄴ -10399
▁ㅇㅔㄷㅣㅅㅕㄴ -10400
▁2022 -10401
▁ㅂㅓㅌㅣ -10402
▁ㄷㅐㅊㅜㄹ -10403
▁ㅎㅘㅅㅜㄴ -10404
▁Ex -10405
▁Is -10406
▁ㅂㅔㄹㄹㅏ -10407
▁ㅅㅏㅇㅂㅓㅂ -10408
ㅁㅏㅅ -10409
▁ㅂㅣㅈㅏ -10410
▁ㅈㅏㅂㅣ -10411
ㄹㅣㄹㄹㅏ -10412
▁ㅈㅓㄴㅇㅟ -10413
▁ㄷㅡㅇㅇㅛㅇ -10414
▁220 -10415
▁NGC -10416
ㅋㅏㄴㅗ -10417
▁ㅊㅟㅁㅣ -10418
▁ㄴㅗㅇㅂㅜ -10419
▁ㅁㅏㄷㅏㅇ -10420
▁ㄱㅛㄷㅗㅅㅗ -10421
▁ㅎㅘㄱㅈㅣㄴ -10422
▁ㅇㅘㅇㅣㄹㄷㅡ -10423
▁ㅅㅔㅂㅏ -10424
▁ㄴㅐㅁㅅㅐ -10425
▁ㅁㅜㄲㅇㅣ -10426
▁ㅅㅠㅌㅣㅇ -10427
▁ㅋㅗㄴㅌㅔ -10428
▁ㄱㅏㅇㄴㅏㅁㄱㅜ -10429
▁ㄱㅡㄹㅔㅇㅣㅌㅡ -10430
▁ㄹㅣㅎㅣ -10431
▁ㅎㅚㅍㅣ -10432
▁ㄱㅕㄴㅇㅣㄴ -10433
▁ㅇㅣㄴㅈㅣㄹ -10434
▁122 -10435
▁ㄷㅐㄷㅜ -10436
▁ㅋㅏㅌㅏㄹㅡ -10437
▁con -10438
▁ㅁㅓㅅㅡ -10439
▁ㅁㅗㅇㅛㅇ -10440
▁ㄱㅗㅇㅊㅓㄴ -10441
▁ㅁㅏㅋㅏㅇㅗ -10442
▁ㅁㅔㅋ -10443
▁ㅇㅛㅇㅑㄱ -10444
▁ㅎㅜㅈㅏㄱ -10445
▁ㄷㅏㅋㅔㄷㅏ -10446
▁ㅁㅗㄹㅣㅅㅡ -10447
▁ㅂㅏㄴㄱㅜㄴ -10448
▁ㅂㅓㅋㅡㄹㄹㅣ -10449
▁ㅇㅣㄹㅂㅜㅂㅜㄴ -10450
▁ㅂㅡㄹㄹㅣ -10451
▁ㅎㅛㅈㅗㅇ -10452
▁ㅂㅐㅇㅜㅈㅏ -10453
▁ㅇㅣㅈㅜㅎㅏ -10454
▁ㅇㅠㄴㅣㄱㅅㅡ -10455
▁ㅇㅓㄷㅡㅂㅔㄴㅊㅓ -10456
▁ㅈㅗㅎㅕㅇ -10457
▁ㅈㅓㄴㅅㅏㄴ -10458
▁ㅁㅣㄴㄱㅏㄴㅇㅣㄴ -10459
ㅗㄹㅜ -10460
ㅔㄹㅌㅡ -10461
▁ㅅㅜㄹㅛ -10462
▁ㄷㅗㄹㄱㅣ -10463
▁ㅍㅏㄹㅏㄱ -10464
▁ㅈㅣㄷㅗㅂㅜ -10465
▁ㄹㅜㅌㅏ -10466
▁ㅂㅡㄹㅜㅅㅡ -10467
▁ㅈㅗㅇㅈㅓㅁ -10468
▁ㅈㅣㅋㅕㅂㅗ -10469
▁ㅍㅗㅅㅡㅌㅓ -10470
▁ㅇㅏㅁㅣㄴㅗㅅㅏㄴ -10471
▁ㅊㅓㄴㅇㅕㄴㄱㅣㄴㅕㅁㅁㅜㄹ -10472
ㅐㄱㅗㄹ -10473
▁ㄲㅐㄲㅡㅅ -10474
▁ㅈㅓㄹㅕㅁ -10475
ㅂㅏㅇㅇㅜㄹ -10476
▁ㅌㅡㄹㅣㅍㅡㄹ -10477
▁ㅅㅔㄹㅏ -10478
▁ㄱㅕㅇㅈㅔㅎㅏㄱㅈㅏ -10479
▁ㅌㅗㅁㅣ -10480
▁ㅊㅟㅎㅏㅇ -10481
▁ㅂㅏㄴㄱㅗㅇ -10482
▁ㅇㅏㄹㅍㅡㄹ -10483
▁ㅁㅔㅋㅓㄴㅣㅈㅡㅁ -10484
▁ㅍㅔㅇㅣㅅㅡㅂㅜㄱ -10485
▁;& -10486
ㅌㅡㅍㅔ -10487
▁ㅅㅣㄴㅗ -10488
▁ㅁㅐㄱㄷㅗㄴ -10489
▁ㅅㅏㅇㅌㅡㅍㅔ -10490
▁ㅈㅜㅇㄱㅗㅇㅇㅓㅂ -10491
ㅋㅏㅌㅏ -10492
▁ㄱㅏㅇㅢ -10493
▁ㅁㅏㄱㅅㅡ -10494
▁ㅂㅏㄱㅈㅣ -10495
▁ㅇㅢㄱㅕㄹ -10496
▁ㅁㅣㄴㅔㅅㅗ -10497
▁ㄸㅓㄱ -10498
ㅏㄷㅏㄺ -10499
ㅐㄱㅅㅡ -10500
▁ㄲㅏㄷㅏㄺ -10501
▁ㄱㅗㅇㅎㅘㅇ -10502
▁ㅅㅡㅋㅞㅇㅓ -10503
▁ㅅㅣㄴㄷㅗㅇ -10504
▁ㅅㅗㄹㄹㅜㅅㅕㄴ -10505
▁ㄹㅡㅁ -10506
▁ㅊㅔㅋㅡ -10507
▁ㅎㅗㄹㅣ -10508
▁ㅇㅣㅅㅗㅇ -10509
▁ㅈㅗㅇㅍㅏ -10510
▁ㄱㅜㄴㅊㅓㅇ -10511
▁ㅈㅓㄹㄷㅏㄴ -10512
▁ㅅㅡㅌㅡㄹㅏㅇㅣㅋㅡ -10513
ㄹㄹㅏ -10514
▁ㄴㅗㅇㅣ -10515
▁ㅎㅏㅍㅡ -10516
▁ㅅㅣㅇㅏㄴ -10517
▁ㅈㅓㅇㅈㅜ -10518
▁ㄷㅡㄹㅔㅅㅡ -10519
▁ㅇㅕㄴㄷㅐㄱㅣ -10520
▁ㅂㅓㅂㅈㅓㅇㄷㅗㅇ -10521
ii -10522
▁ㄱㅜㅇㅑㄱ -10523
▁ㅅㅗㅎㅐㅇ -10524
▁ㅇㅏㅍㅗㄹㄹㅗ -10525
ㅓㅈㅣㄴ -10526
▁ㅇㅛㅇㅇㅏㅁ -10527
ㅂㅡㄹㅣㅇㅔㄹ -10528
▁ㄲㅏㄲ -10529
▁ㄱㅏㅇㅕㄹ -10530
▁ㄱㅡㅂㅅㅜ -10531
▁ㄷㅣㅌㅡㄹ -10532
▁ㅅㅏㅈㅓㄱ -10533
▁ㅍㅏㅂㅕㅇ -10534
▁ㄱㅗㅇㅅㅗㄴ -10535
▁ㅇㅏㄴㅅㅏㄴ -10536
▁ㄱㅗㅇㅇㅛㅇㅇㅓ -10537
▁ㅇㅖㅁㅕㅇ -10538
▁ㅁㅗㅌㅣㅂㅡ -10539
ㅅㅡㄹㄹㅣ -10540
▁ㄷㅗㅇㅈㅗ -10541
▁ㅁㅣㄹㄹㅏㄴ -10542
▁ㅋㅓㄴㅌㅡㄹㅣ -10543
clude -10544
ㅋㅗㅂㅌㅓ -10545
▁ㄱㅏㄹㄹㅐ -10546
▁ㅇㅣㄹㄱㅘㄹ -10547
▁ㅈㅏㅇㅎㅡㅇ -10548
▁ㅁㅏㄹㅏㅌㅗㄴ -10549
▁ㅎㅡㅇㅅㅓㄴㄷㅐㅇㅝㄴㄱㅜㄴ -10550
▁ㄴㅈㅣ -10551
▁ㅂㅗㅌㅡ -10552
▁ㅇㅡㅁㅎㅑㅇ -10553
▁ㅈㅣㄴㅈㅓㄴ -10554
▁ㅈㅣㄴㅎㅐㅇㅈㅏ -10555
▁ㄹㅗㅍ -10556
▁ㄱㅏㄱㅖ -10557
▁ㅌㅣㅋㅗ -10558
▁ㄹㅗㄹㅓㄴ -10559
▁ㅅㅓㄱㅎㅚ -10560
▁ㅊㅓㅇㅅㅐㄱ -10561
▁ㄹㅣㄷㅓㅅㅣㅂ -10562
ㄹㅜㄹ -10563
ㄱㅏㄴㅈㅣ -10564
▁ㅁㅜㄹㄱㅏ -10565
▁ㅅㅏㅇㄱㅏ -10566
▁ㅂㅏㄴㅈㅓㄴ -10567
▁ㅋㅗㅅ -10568
ㄷㅗㅅㅡ -10569
▁ㄴㅏㄹㅜ -10570
▁ㅁㅣㄹㄹㅓ -10571
▁ㅂㅕㄱㅎㅘ -10572
▁ㅇㅕㅁㅅㅗ -10573
▁ㅅㅓㄹㄹㅣㅂㅈㅏ -10574
ㅉㅓ -10575
ㅅㅜㅇㅝㄴ -10576
▁ㅅㅣㄹㅈㅐ -10577
▁ㅇㅣㅂㅈㅜ -10578
▁ㅈㅏㅇㅈㅔ -10579
▁ㅁㅏㅈㅂㅜㅌ -10580
▁ㄷㅚㄷㅗㄹㄹㅣ -10581
▁ㅅㅑㄴ -10582
▁ㄱㅏㅁㅇㅏㄴ -10583
▁ㄴㅏㄱㄷㅗㅇ -10584
▁ㅍㅔㄴㅅㅣㅇ -10585
▁ㅎㅏㅁㅇㅑㅇ -10586
iss -10587
▁ㅇㅑㅅㅣ -10588
ㅈㅏㅊㅣㅅㅣ -10589
▁ㄱㅐㄹㄹㅓㄹㅣ -10590
▁ㅌㅡㄱㅂㅕㄹㅈㅏㅊㅣㅅㅣ -10591
ick -10592
ㄸㅏㅇ -10593
▁133 -10594
ㅊㅡㅋㅡ -10595
▁ㅇㅣㅇㅓㄴ -10596
▁ㅂㅜㄱㄱㅕㅇ -10597
▁ㅍㅗㅌㅓ -10598
▁ㄷㅏㅇㅣㄹ -10599
ㄹㅣㅁㅍㅣㄱ -10600
▁ㄷㅣㅌㅡㄹㅗㅇㅣㅌㅡ -10601
▁ㅅㅕㄹ -10602
ㅇㅚㅅㅓㄴ -10603
ㅌㅡㄹㄹㅣ -10604
▁ㅂㅣㄴㄷㅗ -10605
▁ㅅㅏㅋㅏㅇㅣ -10606
▁ㅋㅡㄹㄹㅏㅋㅡ -10607
own -10608
▁CBS -10609
▁ㅇㅠㅈㅓㅇ -10610
▁ㅈㅏㅅㅐㅇ -10611
▁ㅊㅔㄹㅕㄱ -10612
▁ㄷㅓㅇㅜㄱㅇㅣ -10613
▁ㅅㅣㄷ -10614
▁1880 -10615
▁ㅇㅏㄴㅌㅣ -10616
▁ㄱㅏㅇㅊㅓㄹ -10617
▁ㅂㅏㄹㅡㅅㅑㅂㅏ -10618
▁ㄱㅛㄷㅐ -10619
▁ㅍㅏㅈㅣ -10620
▁ㅂㅜㅌㅇㅕㅈㅣ -10621
ake -10622
▁ㄴㅔㅇㅗ -10623
▁ㅊㅓㅈㅣ -10624
ㅍㅓㅅㅡㄴ -10625
▁ㅈㅔㅈㅏㄱㅅㅏ -10626
▁ㅅㅡㄹㅣㄹㅏㅇㅋㅏ -10627
▁++ -10628
▁ㅌㅓㅂㅗ -10629
▁ㅇㅣㄹㅍㅏ -10630
▁ㅅㅏㅇㅣㅌㅗ -10631
▁ㅋㅜㅂ -10632
▁ㅁㅜㅅㅡ -10633
ㅏㅁㅏㅆㅡ -10634
▁ㄷㅐㄱㅘㄴ -10635
▁ㅂㅔㄹㅡㄱ -10636
▁ㅊㅣㅁㅊㅔ -10637
▁ㅇㅣㄹㅈㅏㄹㅣ -10638
▁BM -10639
ㅅㄱㅏㅄ -10640
▁ㅊㅜㄹㅗㄴ -10641
▁ㅁㅣㄴㅈㅓㅇ -10642
▁ㅅㅛㄴ -10643
▁ㅇㅏㄴㅊㅣ -10644
▁ㅇㅗㄱㅅㅜㅅㅜ -10645
▁ㄷㅏㅇㅇㅕㄴㅎㅣ -10646
▁ㅅㅣㄹㅂㅓ -10647
▁ㅅㅣㅁㅇㅑ -10648
HO -10649
ㅜㅇㅏㄹㅡ -10650
▁ㅇㅣㅇㅘㄴ -10651
▁ㅁㅜㄴㄱㅕㅇ -10652
▁ㅅㅗㄴㄲㅗㅂㅎㅣ -10653
▁ㅍㅏㄹㅏㄱㅘㅇㅣ -10654
▁ㅎㅏㅁㅂㅜㄹㅡㅋㅡ -10655
▁ㅎㅣㅅㅏ -10656
▁ㄱㅣㅁㅈㅣ -10657
▁ㅈㅓㅇㅎㅘ -10658
▁ㅊㅏㅇㅇㅢ -10659
▁ㅅㅣㄴㅈㅓㅇ -10660
▁ㅈㅜㅇㅇㅝㄴ -10661
▁ㄱㅡㄱㅈㅏㄱㄱㅏ -10662
▁ㅇㅣㄱㅠ -10663
▁ㄱㅣㅁㅅㅜ -10664
▁ㄱㅣㅅㅓㅇ -10665
▁ㅂㅣㄹㄹㅏ -10666
▁ㅇㅗㅅㅏㄴ -10667
▁ㅈㅏㄱㅕㄹ -10668
▁ㅂㅓㄴㅅㅓㅇ -10669
▁ㅁㅜㅅㅜㄹ -10670
▁ㅇㅜㄹㅣㅁ -10671
▁ㅈㅓㅇㄱㅕㅇ -10672
▁ㄱㅓㅈㅣㅅㅁㅏㄹ -10673
▁ㅇㅏㄴㄷㅡㄹㅔㅇㅏ -10674
▁ㅅㅣㅇㅑ -10675
▁ㅇㅛㅇㅅㅓ -10676
▁ㅈㅏㅇㅇㅝㄴ -10677
▁ㅎㅔㄹㄹㅠㅁ -10678
UR -10679
▁Mus -10680
▁ㅁㅣㅈㅡ -10681
▁ㅍㅗㄱㄹㅗ -10682
▁ㄱㅘㅇㅇㅑㅇ -10683
▁ㅅㅣㄹㅈㅓㄱ -10684
▁ㅇㅣㅂㅇㅑㅇ -10685
▁ㅈㅓㅇㅂㅜㄱ -10686
▁ㅋㅣㅇㅖㅍㅡ -10687
Hz -10688
old -10689
ork -10690
▁ㄱㅏㅇㄷㅐ -10691
▁ㅂㅜㅇㅕㄱ -10692
▁ㄱㅡㄱㄷㅐ -10693
▁ㄱㅡㄱㄹㅏㄱ -10694
▁ㅁㅏㄷㅏㄱㅏ -10695
▁ㅇㅕㄴㄷㅗㅇ -10696
▁ㅈㅣㅁㅈㅏㄱ -10697
▁ㅇㅐㄹㅣ -10698
▁ㅇㅓㄹㅗ -10699
▁ㅇㅐㅊㅣㅇ -10700
▁ㅇㅜㅅㅏㅇ -10701
▁ㅇㅘㅇㅈㅓㅇ -10702
▁ㅁㅜㄱㅜㅇㅎㅘ -10703
ㄴㅡㄴ -10704
▁ㅈㅣㅊㅓㅇ -10705
▁ㅂㅗㄱㄱㅝㄴ -10706
▁ㅇㅠㄷㅐㄱㅛ -10707
▁ㅈㅓㄴㄱㅕㄱ -10708
▁ㅍㅐㄹㅓㄹㄹㅣㅁㅍㅣㄱ -10709
ㅌㅡㄹㅠㅁ -10710
▁ㅇㅏㄴㅏㅋㅣ -10711
▁ㄱㅓㅌㅂㅗㄱㅣ -10712
ㄱㅗㄱㄹㅣ -10713
▁ㅅㅗㄹㅕㅇ -10714
▁ㄱㅓㄴㄹㅠㅇ -10715
ㅇㅟㅅㅓㅇ -10716
▁ㅇㅣㅃㅏㄹ -10717
▁ㅅㅓㄴㅇㅜ -10718
▁ㅍㅔㄴㅓㄹ -10719
▁ㅎㅏㄴㅊㅡㅇ -10720
▁ㄷㅐㅅㅓㅇㅈㅓㄴ -10721
▁ㅁㅣㅅㅣㅅㅣㅍㅣ -10722
ㅏㄹㅜ -10723
▁ㅎㅗㅍㅡ -10724
▁ㅅㅜㅈㅜㅇ -10725
▁ㅈㅗㅅㅜ -10726
▁ㅈㅓㅇㅇㅣㄴ -10727
▁ㄴㅏㄹㅏㄴㅎㅣ -10728
▁ㅇㅏㄹㅐㅉㅗㄱ -10729
ㅅㅏㄱㅘㄴㅎㅏㄱㄱㅛ -10730
ㅏㄹㅗ -10731
▁ㅅㅜㅅㅣㅁ -10732
▁ㅈㅣㄴㄹㅛ -10733
▁ㅊㅕㄷㅡㄹ -10734
▁ㅎㅕㄴㅇㅏㄱ -10735
▁ㅁㅣㅅㅐㅇㅁㅜㄹ -10736
▁ㅇㅣㄴㄷㅣㅇㅐㄴㅏ -10737
▁ㅇㅣㅎㅏㅇ -10738
▁ㅎㅗㅇㅡㅇ -10739
▁ㄱㅜㄱㅇㅏㄱ -10740
▁ㅇㅐㅌㅡㄹㄹㅐㄴㅌㅏ -10741
() -10742
▁or -10743
▁ㅉㅡ -10744
▁pro -10745
ㅅㅡㄹㄹㅓ -10746
ㅈㅗㅇㅓㅂ -10747
▁ㅈㅔㅇㅘㅇ -10748
▁ㅅㅐㄹㅗㅇㅣ -10749
lo -10750
CAF -10751
▁ㅂㅗㄱㅏㅇ -10752
▁ㅇㅗㄹㅏㄱ -10753
▁ㅋㅗㄹㄹㅔ -10754
▁ㅋㅗㅅㅡㅌ -10755
▁ㄱㅏㅂㅇㅗㅅ -10756
▁ㅇㅕㄴㅁㅗㅅ -10757
▁ㅈㅏㅇㄹㅗㄱ -10758
▁ㅇㅣㄷㅗㅇㅎㅏ -10759
▁ㅍㅏㅇㅜ -10760
▁ㅎㅏㅇㅣㅁ -10761
▁ㄱㅛㅇㅠㄱㅂㅜ -10762
▁ㅎㅜㅂㅏㄴㄱㅣ -10763
▁ES -10764
▁ㅅㅏㅁㅜㅊㅗㅇㅈㅏㅇ -10765
ㅡㄹㅐ -10766
ㄱㅐㅁㅣ -10767
▁ㄴㅐㅅㅓㅇ -10768
▁ㅁㅜㅅㅡㄴ -10769
▁ㅅㅏㄹㅍㅣ -10770
▁ㅈㅗㅇㅁㅏㄹ -10771
▁ㄱㅡㄹㅣㅅㅡㅇㅣㄴ -10772
GA -10773
▁132 -10774
▁ㄷㅠㅇㅗ -10775
ㅅㅗㄱㄱㅣ -10776
▁ㅇㅠㄹㅕㅇ -10777
▁ㅈㅗㅂㅕㅇ -10778
▁ㅎㅕㅁㅇㅗ -10779
▁ㅇㅟㄴㅏㄹㅏ -10780
▁ㄱㅔㄹㅣㄹㄹㅏ -10781
▁ㅍㅣㄱㅗㅇㅣㄴ -10782
▁ㄱㅏㅆㅡ -10783
▁ㅅㅔㄴㅔ -10784
▁ㅈㅗㄱㅖ -10785
▁ㅅㅣㅁㅎㅘ -10786
▁ㅇㅟㅅㅐㅇ -10787
▁ㅇㅝㄴㄱㅕㄱ -10788
▁ㅈㅣㅂㄱㅕㄹ -10789
▁ㅅㅣㅁㅠㄹㄹㅔㅇㅣㅅㅕㄴ -10790
▁ㅇㅏㅊㅣ -10791
▁ㄱㅕㄹㅈㅔ -10792
▁ㅅㅔㄱㅅㅡ -10793
▁ㄱㅣㅁㅇㅗㄱ -10794
▁GDP -10795
ㅂㅔㅅㅡ -10796
▁ㄷㅓㅂㅣ -10797
▁ㅈㅐㅎㅐ -10798
▁ㅈㅣㄴㅅㅜ -10799
▁ㅎㅏㅇㅣㄹ -10800
▁ㄱㅚㄹㅗㅂㅎㅣ -10801
▁ㄱㅡㄹㅣㅁㅈㅏ -10802
▁ㄱㅏㅁㅊㅜ -10803
▁ㅈㅓㅂㅅㅜ -10804
▁ㄱㅕㄹㅍㅣㅂ -10805
▁ㄷㅜㄱㅐㄱㅗㄹ -10806
▁ㄷㅐㄱㅏㄱ -10807
▁ㄱㅘㄴㅇㅏㄱ -10808
▁ㅁㅏㅇㅜㅅㅡ -10809
▁ㅇㅣㄴㅌㅔㄹㅡ -10810
▁ㅇㅜㅊㅔㄱㅜㄱ -10811
▁ㄷㅗㄹㅇㅏㄷㅏㄴㅣ -10812
ix -10813
ㄷㅗㅁ -10814
▁ㅅㅏㄱㅏ -10815
▁ㅊㅣㅇㅜ -10816
ㅎㅐㅌㅡㄴ -10817
▁ㄱㅗㅇㅇㅑㄱ -10818
▁ㄱㅕㅇㅈㅐㅇㄹㅕㄱ -10819
▁ㄱㅏㅇㅎㅢ -10820
▁ㄱㅐㅎㅏㅇ -10821
▁ㅌㅏㅎㅕㅂ -10822
ㄱㅏㅈ -10823
ㄱㅣㄱㅜ -10824
▁ㅅㅏㅇㄱㅗ -10825
▁ㅊㅗㅇㅝㄴ -10826
▁ㅎㅜㅅㅗㄱㅈㅏㄱ -10827
▁ㅊㅜㅈㅗㅇ -10828
ㄸㅟ -10829
ㅌㅏㅁㅏ -10830
▁ㄴㅐㅇㅑ -10831
▁ㅁㅣㄴㅏ -10832
▁ㅅㅡㅋㅏㄴ -10833
▁ㅈㅓㅇㅂㅗㅇ -10834
▁ㅌㅏㄱㅇㅝㄹ -10835
▁ㅈㅜㄴㄱㅕㄹㅅㅡㅇㅈㅓㄴ -10836
▁DM -10837
▁Ro -10838
ence -10839
▁ㄴㅏㄲ -10840
ㅏㅇㅣㄷㅓ -10841
▁ㅅㅗㄱㅍㅕㄴ -10842
▁ㄷㅏㄹㅏㅁㅈㅟ -10843
▁ㅇㅣㄴㅍㅡㄹㅏ -10844
▁ㄱㅏㅂㅡㄹㅣㅇㅔㄹ -10845
▁ㄹㅣㅁㅗ -10846
▁ㄴㅐㄱㅓㄹ -10847
▁ㅅㅜㄴㅕㄴ -10848
▁ㅇㅛㅈㅔㅍㅡ -10849
▁ㅌㅡㄱㅅㅐㄱ -10850
▁ㅎㅏㅂㄷㅏㅇ -10851
▁ㄷㅐㅈㅣㅈㅣㄴ -10852
▁ㄷㅏㄴㅎㅐㅇㅂㅗㄴ -10853
▁NE -10854
ㅂㅡㄹㅏ -10855
ㅅㅔㄱㅣ -10856
▁ㅇㅝㅊㅣ -10857
▁ㅈㅜㅎㅘ -10858
ㅎㅗㄹㄹㅡㅁ -10859
▁ㄴㅗㅌㅐㅇㅜ -10860
▁kt -10861
▁ㅃㅓㄴ -10862
ㅎㅏㄹㅅㅣ -10863
▁ㅅㅔㅅㅗㄴ -10864
▁ㅌㅡㄹㅣㄴㅣ -10865
▁ㅁㅐㄲㅡㄹㅓㅂ -10866
▁ㅅㅏㅁㄱㅜㄱㅅㅏㄱㅣ -10867
▁PR -10868
ㅊㅓㄴㅅㅏ -10869
ection -10870
▁ㅁㅣㅅㅖㄹ -10871
▁ㅇㅔㄹㄹㅣㅌㅡ -10872
▁ㅍㅗㄷㅗㄷㅏㅇ -10873
▁ㄱㅜㅅㅡ -10874
▁ㄱㅘㅅㅣㄹ -10875
▁ㅈㅐㄴㅏㄴ -10876
▁ㅍㅕㅇㅇㅏㄴㅂㅜㄱㄷㅗ -10877
▁USS -10878
▁ㄷㅜㅁ -10879
▁only -10880
▁ㄷㅗㅅㅏ -10881
ㅊㅜㄱㄱㅜ -10882
▁ㄱㅗㅇㅍㅏ -10883
▁ㅊㅏㄹㄹㅣ -10884
▁ㅅㅏㅋㅜㄹㅏ -10885
▁ㅎㅕㄴㅎㅘㅇ -10886
ㅡㄹㅌㅔ -10887
▁ㅎㅗㅈㅗㄱ -10888
ㅡㄹㅌㅔㅁㅕㄴ -10889
▁ㅇㅣㄹㅡㄹㅌㅔㅁㅕㄴ -10890
▁ㅃㅛ -10891
▁ㅍㅔㅅ -10892
▁ㄷㅠㅇㅓㄹ -10893
▁ㅇㅛㅂㅓㅂ -10894
▁ㄱㅏㄹㄹㅣㅇㅏ -10895
▁ㅈㅏㅇㄹㅗㄱㅛ -10896
▁ㄴㅗㅇㅅㅏㄴㅁㅜㄹ -10897
ㅍㅣㅇㅓㄴ -10898
▁Ph -10899
▁ㅇㅓㅉㅣ -10900
▁ㄱㅜㄱㅅㅜ -10901
▁ㅂㅔㄹㅌㅡ -10902
▁ㅊㅗㅇㄱㅣ -10903
ㅅㅏㄴㅅㅓㅇ -10904
▁ㄷㅡㅇㄱㅡㄱ -10905
▁ㅈㅓㄱㄱㅜㄴ -10906
▁ㅊㅜㄹㅅㅓㄱ -10907
▁ㅂㅗㅎㅔㅁㅣㅇㅏ -10908
▁ㄱㅡㄹㅓㅎㅈㅣㅁㅏㄴ -10909
▁ㄱㅗㅌㅗ -10910
▁ㅇㅗㅋㅣ -10911
▁ㄱㅏㄴㅅㅣㄴ -10912
▁ㅂㅏㄴㅇㅕㄱ -10913
▁ㅅㅏㅇㅇㅕㄴ -10914
▁ㅈㅡㄹㄱㅓㅂ -10915
▁ㅎㅗㅇㅁㅜㄴㄱㅘㄴ -10916
▁ㅅㅡㅌㅡㄹㅏㅇㅣㅋㅓ -10917
▁ㄱㅣㅈㅓ -10918
▁ㅅㅣㅈㅗㅇ -10919
▁ㅇㅡㄹㄲㅏ -10920
▁ㅊㅓㅇㅈㅏ -10921
▁ㅍㅕㅇㅁㅣㄴ -10922
▁ㅎㅕㄴㅈㅣㄱ -10923
▁ㅇㅏㄴㄷㅡㄹㅗ -10924
ㅍㅓㅇ -10925
▁ㅁㅣㅈㅜㄹㅣ -10926
▁ㄱㅡㄹㄹㅗㅂㅡ -10927
▁ㅎㅘㄹㅈㅜㄹㅗ -10928
▁ㅁㅗㅌㅓㅅㅡ -10929
▁ㅍㅡㄹㅐㅇㅋㅡㄹㄹㅣㄴ -10930
▁ㅇㅜㅈㅡㅂㅔㅋㅣㅅㅡㅌㅏㄴ -10931
▁ㅎㅠㄱㅔ -10932
▁ㄷㅏㄴㄱㅘ -10933
▁ㅇㅏㄹㄹㅐ -10934
ㅎㅐㅈㅣ -10935
▁ㄱㅣㅁㅁㅣㄴ -10936
▁ㅁㅏㄴㄴㅕㄴ -10937
▁ㅁㅏㄹㄴㅕㄴ -10938
▁ㅂㅣㅈㅜㅇㅓㄹ -10939
lass -10940
▁NAS -10941
▁ㄷㅡㄹㅔ -10942
▁ㅇㅗㅇㅗ -10943
▁ㅇㅢㄱㅘ -10944
ㅂㅗㅅㅓㄴ -10945
ㅇㅝ -10946
▁ㄱㅜㄱㅇㅠ -10947
▁ㄷㅗㄹㅇㅣㅂ -10948
▁ㅊㅏㅇㅅㅣㅈㅏ -10949
▁ㄱㅡㄹㅔㄱㅗㄹㅣㅇㅗ -10950
▁ㅍㅕㅇㅇㅏㄴㄴㅏㅁㄷㅗ -10951
▁La -10952
▁450 -10953
ㅅㅡㄹㄹㅏ -10954
▁ㅍㅛㅊㅏㅇ -10955
▁ㅂㅗㄱㅅㅣㄱ -10956
▁ㅇㅖㅈㅓㅇㅈㅏ -10957
▁un -10958
▁ㅅㅏㅇㄱㅣ -10959
ㅇㅕㄴㅎㅏㅂ -10960
▁ㅌㅏㅇㅣㅂㅔㅇㅣ -10961
▁ㅍㅡㄹㅐㄴㅅㅣㅅㅡ -10962
▁ㅇㅏㅇㅣㅅㅡㅎㅏㅋㅣ -10963
▁CEO -10964
▁Mar -10965
▁ㅇㅣㅎㅘㅇ -10966
▁ㅁㅐㄱㅓㅈㅣㄴ -10967
ance -10968
▁1885 -10969
▁ㅋㅏㅌㅏ -10970
ㅣㅂㅓㅅㅡ -10971
▁ㅇㅐㄹㄹㅣㅅㅡ -10972
▁ㅇㅑㅇㅅㅓㅇㅈㅏ -10973
▁ㅈㅜㅇㅇㅏㅇㅂㅜ -10974
▁To -10975
▁ㅁㅐㅅ -10976
ㅂㅕㄴㅇㅣ -10977
▁ㄱㅡㄱㄷㅗ -10978
▁ㅈㅐㅈㅣㄹ -10979
▁ㄱㅘㄴㄷㅗㅇ -10980
▁ㄷㅗㄹㅇㅕㄴㅂㅕㄴㅇㅣ -10981
▁ㄲㅜㅁㄲㅜ -10982
▁ㄷㅗㅇㅇㅛ -10983
▁ㅁㅔㄹㅣㄹ -10984
▁ㅇㅏㅍㅈㅏㅇ -10985
▁ㅇㅐㄴㄷㅓㅅㅡㄴ -10986
▁ㅈㅣㅂㅏㅇㅅㅏㄴ -10987
▁ㅇㅗㅋㅡㄹㄹㅐㄴㄷㅡ -10988
ㅁㅏㄹㅜ -10989
▁ㅈㅜㅈㅣ -10990
▁ㅌㅏㅅㅓㄱ -10991
▁ㅁㅏㄹㅡㅋㅗ -10992
▁ㅂㅣㄴㅂㅓㄴ -10993
▁ㅇㅏㅇㅣㅇㅗ -10994
▁1870 -10995
▁ㅅㅡㄹㅗ -10996
▁ᆫㄷㅏㅁㅕ -10997
▁ㅅㅏㅎㅏㄱ -10998
▁ㅅㅗㄱㅈㅜ -10999
▁ㅇㅔㅇㅣㅂ -11000
▁ㄱㅏㅁㄷㅗㅇ -11001
ild -11002
▁1871 -11003
▁ㅇㅣㄷㅔ -11004
ㅅㅣㅂㅈㅏ -11005
▁ㅎㅘㄱㄱㅗ -11006
▁ㄴㅣㅋㅗㄹㄹㅏ -11007
▁ㅊㅓㅇㄷㅗㅇㄱㅣ -11008
▁ㅁㅏㄷㅏㄱㅏㅅㅡㅋㅏㄹㅡ -11009
▁ㅅㅜㅇㅕㅁ -11010
▁ㅁㅕㅇㅂㅜㄴ -11011
▁ㅇㅕㄹㅅㅣㅁ -11012
▁ㅅㅜㅇㅝㄴㅅㅣ -11013
ear -11014
▁GN -11015
ㅌㅔㄴㅏ -11016
▁ㅅㅜㅁㅈㅣ -11017
▁ㅇㅑㅁㅏㄱㅏ -11018
▁ㅋㅏㄹㅂㅐㅇ -11019
▁ㅇㅠㄴㅂㅗㅅㅓㄴ -11020
▁ㅈㅣㄹㅗ -11021
▁ㅅㅗㅇㅜㄹ -11022
▁ㅂㅏㄱㅎㅓㄴ -11023
▁ㅌㅏㅂㅅㅣㄴ -11024
▁ㅎㅏㅂㅅㅡㅂㅜㄹㅡㅋㅡ -11025
ㅊㅔㄱㅗ -11026
▁ㅇㅠㅂㅜ -11027
▁ㅇㅢㅈㅏ -11028
ㅂㅏㄴㄱㅜ -11029
▁ㅅㅓㅈㅏㅇ -11030
▁ㅅㅜㄱㅈㅜ -11031
▁ㅈㅜㅇㅅㅐㅇ -11032
ㄹㅏㄴㄷㅡㅇㅓ -11033
ㅊㅔㄱㅗㅂㅣㄴㅏ -11034
ㅋㅗㅌㅗ -11035
▁ㅇㅠㄹㅓ -11036
ㅂㅏㅇㅑㅅㅣ -11037
▁ㅇㅠㄹㅛ -11038
▁ㄱㅕㄱㅈㅏ -11039
▁ㅂㅐㅅㅗㄱ -11040
▁ㅇㅕㄱㄷㅗ -11041
▁ㅂㅏㄹㄱㅏㄱ -11042
▁ㄷㅣㄹㅔㄱㅌㅓ -11043
▁ㅇㅏㄹㄹㅐㅅㅡㅋㅏ -11044
▁ㅂㅜㄱㅏ -11045
ㅌㅣㄱㅅㅡ -11046
▁ㅈㅓㅇㄱㅜㄱ -11047
▁ㅅㅔㄴㄱㅗㅋㅜ -11048
▁ㅇㅠㄹㅓㅍㅣㅇㅓㄴ -11049
ㄷㅣㅂ -11050
▁ㅈㅐㅇㅚ -11051
▁ㅎㅏㅁㅈㅏ -11052
▁ㅎㅘㅇㄷㅗ -11053
▁ㅇㅏㅍㅉㅗㄱ -11054
▁ㅋㅏㅅㅡㅌㅣㅇ -11055
▁SL -11056
▁1600 -11057
▁ㄹㅗㄹㅣ -11058
▁ㅅㅔㅂㅡㄴ -11059
▁ㅅㅗㅍㅣㅇㅏ -11060
▁ㅂㅜㅇㅝㄴㄱㅜㄴ -11061
▁1200 -11062
▁ㅇㅙㄱㅜ -11063
▁ㅎㅏㄱㅗ -11064
▁ㅈㅓㄱㅕㄱ -11065
▁ㅈㅏㅅㅔㅎㅣ -11066
▁ㄹㅗㄹㅔㄴㅅㅡ -11067
ㄱㅗㅅㅗㄱㄷㅗㄹㅗ -11068
▁ㅇㅔㄴㅈㅣㄴㅣㅇㅓ -11069
EM -11070
ㄹㅡㄴ -11071
▁ㅅㅓㄴㅈㅏㅇ -11072
▁ㄱㅗㅇㅍㅛ -11073
▁ㅅㅣㄱㅜㄱ -11074
▁ㅅㅐㅇㅅㅓㄴ -11075
▁ㅎㅕㄴㅎㅐㅇ -11076
▁vs -11077
▁ㄴㅓㄱ -11078
ㅇㅏㄱㅣ -11079
▁ㅎㅘㄹㅏㅇ -11080
include -11081
▁ㄴㅐㅁㅜㅂㅜ -11082
▁ㅍㅏㄴㅏㅁㅏ -11083
▁ㅅㅗㄱㅇㅣ -11084
▁ㅌㅗㅇㅌㅡㄹㅇㅓ -11085
ㅐㅂ -11086
▁240 -11087
ㅅㅡㄴㅓㄹ -11088
▁ㅈㅓㅇㄱㅘㄴ -11089
▁ㄷㅗㅇㅅㅓㅇㅇㅐㅈㅏ -11090
ype -11091
ivers -11092
▁ㄱㅗㅁㅏ -11093
▁ㅊㅜㄹㅣ -11094
ㅅㅏㅅㅏㅇ -11095
▁ㅁㅐㅇㅅㅔ -11096
▁ㄱㅣㅁㅂㅕㅇ -11097
▁ㅇㅗㄴㄱㅏㅈ -11098
ㅇㅟㅇㅝㄴㅎㅚ -11099
ㅍㅏㅋㅡ -11100
▁ㅇㅛㅈㅣ -11101
▁ㅅㅐㅇㄱㅖ -11102
▁ㅎㅏㅇㅣㄷㅡ -11103
▁ㅇㅏㅅㅡㄴㅓㄹ -11104
▁ㄱㅣㅁㄱㅠㅅㅣㄱ -11105
▁ㅈㅡㅁ -11106
ㅈㅣㄹㅣ -11107
▁ㅇㅟㅅㅡ -11108
▁ㅂㅏㄹㅈㅏㄱ -11109
▁ㅋㅏㅍㅡ -11110
▁ㅈㅗㄱㅘㅇ -11111
▁ㅅㅏㅇㅎㅐㅇ -11112
▁ㅁㅐㄴㅎㅐㅌㅡㄴ -11113
▁ㅂㅗㄱㅇㅡㅁㅅㅓ -11114
▁AD -11115
▁Sy -11116
ㅌㅔㅆㅡ -11117
▁ㅇㅏㅃㅏ -11118
▁ㅇㅘㅇㅣㅂ -11119
ㅊㅓㄴㅁㅕㄴ -11120
▁ㄷㅗㄹㅊㅜㄹ -11121
▁ㅍㅡㄹㅔㅅㅡ -11122
▁": -11123
▁ㅇㅓㄸㅓㅎ -11124
▁ㅌㅜㅎㅏㅇ -11125
▁ㄱㅏㅁㄱㅡㅁ -11126
▁ㅋㅏㅌㅓ -11127
ㅗㅇㅑㅁㅏ -11128
▁ㄴㅏㄱㅎㅏ -11129
▁ㄴㅡㅇㅅㅓㄴ -11130
▁ㅃㅏㄹㄱㅏㅎ -11131
▁ㅇㅏㅁㅎㅡㄱ -11132
▁ㅊㅓㅇㄹㅛㅇ -11133
▁ㅂㅗㄹㅅㅖㅂㅣㅋㅣ -11134
▁ㅃㅏㅈ -11135
▁ㅇㅣㄷㅡㄱ -11136
▁ㄹㅣㅈㅗㅌㅡ -11137
▁ㄱㅜㅁㅏㅁㅗㅌㅗ -11138
▁EBS -11139
▁ㄴㅗㅇㅅㅏ -11140
▁ㅈㅏㅇㄷㅐ -11141
▁ㄴㅏㅁㅅㅏㄴ -11142
▁ㅂㅣㄱㅌㅗㄹㅡ -11143
ㅜㅇㅑ -11144
▁ㅇㅗㄹㅏ -11145
▁ㅇㅠㅅㅡ -11146
▁ㅂㅕㅇㅁㅏ -11147
ㄹㅏㄴㄷㅡㅇㅣㄴ -11148
OV -11149
ans -11150
ㅂㅏㅁ -11151
▁ㅎㅛㅇ -11152
▁ㄹㅜㅋㅡ -11153
▁ㅅㅣㅇㅐ -11154
▁ㅇㅏㄹㄹㅔㄱㅅㅡ -11155
ㄴㅗㄴ -11156
ㅁㅣㄴㅏ -11157
ㅏㄹㅡㄷㅗ -11158
▁ㄴㅏㄴㅇㅣ -11159
▁ㄴㅐㅁㅕㄴ -11160
▁ㅁㅐㅈㅣㄱ -11161
▁ㄷㅗㅇㅊㅏㅁ -11162
▁ㅂㅜㄹㅎㅐㅇ -11163
▁ㄷㅐㅎㅏㅂㅅㅣㄹ -11164
▁ㄱㅜㄱㅂㅗ -11165
▁ㄷㅜㄹㅕㅂ -11166
ㅅㅏㅇㅣㄷㅡ -11167
▁ㅅㅓㅇㄹㅕㅇ -11168
▁ㅁㅜㅈㅗㄱㅓㄴ -11169
▁ㅅㅓㅈㅐㅍㅣㄹ -11170
▁ㄱㅣㅁㅈㅓㅇㅇㅡㄴ -11171
ㅅㅏㄹㅣ -11172
ㅌㅏㄹㅣ -11173
ㅅㅣㅁㅗㅌㅗ -11174
▁ㅇㅐㄴㄷㅡㄹㅜ -11175
▁ㄱㅕㄱㅊㅏ -11176
▁ㅎㅠㅇㄴㅗ -11177
ㅌㅏㅇㅣㄷㅡ -11178
▁ㅇㅑㅇㅇㅠㄱ -11179
▁ㅍㅕㄴㅈㅣㅂㅈㅏ -11180
ㅠㅇ -11181
ish -11182
▁ㄷㅐㅈㅏㅇㄱㅜㄴ -11183
▁ㅅㅓㅇㄴㅏㅁㅅㅣ -11184
TP -11185
▁@ -11186
▁ㄴㅛ -11187
▁ㅎㅗㅇㅢ -11188
▁ㅃㅛㅈㅗㄱ -11189
▁ㅅㅓㄴㄷㅐ -11190
▁ㅊㅏㅁㅅㅏ -11191
▁ㅎㅘㅇㅓㅁ -11192
ㅌㅔㄹㅣㅇㅏ -11193
▁ㅋㅏㅂ -11194
ㅣㅇㅏㅇㅓ -11195
▁ㄱㅛㅅㅣㄹ -11196
▁ㅂㅗㅇㅅㅜ -11197
▁ㅈㅏㅇㅈㅏ -11198
▁ㅍㅏㅁㅜㄴ -11199
▁ㄱㅜㅇㄱㅝㄹ -11200
▁ㅈㅏㅊㅣㅊㅔ -11201
▁ㄱㅜㅊㅓㅇ -11202
▁ㄱㅡㄹㄹㅐ -11203
▁ㅊㅜㄹㄱㅏ -11204
▁ㅈㅏㅂㅇㅏㅁㅓㄱ -11205
ke -11206
irl -11207
▁ㅋㅏㄴㅏ -11208
ㅁㅜㄱㅘㄴ -11209
▁ㅇㅔㄷㅡㅁ -11210
ㅁㅣㄹㅣㅌㅡ -11211
▁ㅈㅏㅇㄷㅏㄴ -11212
▁ex -11213
ㅎㅡㄴ -11214
▁ㅂㅐㅅㅜ -11215
▁ㅈㅗㄹㅖ -11216
▁ㅌㅏㅋㅔ -11217
▁ㅇㅗㄹㄷㅡ -11218
▁ㅈㅓㅇㅈㅔ -11219
▁ㅈㅔㄷㅗㅇ -11220
▁ㅈㅜㅇㅅㅏㅇ -11221
▁ㅎㅔㄹㄹㅣㅋㅗㅂㅌㅓ -11222
▁ㅂㅏㅇㅜ -11223
▁ㅋㅔㅇㅣㄴ -11224
▁ㄷㅐㄷㅐㄹㅗ -11225
▁ㅈㅓㄴㄴㅏㄹ -11226
▁ㅅㅣㅇㅐㅌㅡㄹ -11227
▁ㅎㅘㄹㅂㅏㄹㅎㅣ -11228
▁ㅁㅏㄹㅡㅋㅡㅅㅡㅈㅜㅇㅢ -11229
GM -11230
▁ㄹㅓㅂ -11231
▁ㅍㅜㄱ -11232
ㅁㅣㄹㅡ -11233
▁ㅇㅔㄹㅡㄴ -11234
▁ㅈㅏㅊㅣㅇ -11235
▁ㅈㅣㅅㅓㅇ -11236
▁ㅍㅡㄹㅔㅇㅣ -11237
▁ㄴㅔㅇㅣㅅㅕㄴㅅㅡㅋㅓㅂ -11238
▁ㅇㅏㅇㅛ -11239
▁ㅋㅔㄹㅏ -11240
▁ㄱㅘㄴㅁㅜㄴ -11241
▁ㅎㅏㄴㅗㅇㅣ -11242
▁ㄱㅗㅇㅁㅣㄴㅇㅘㅇ -11243
▁sc -11244
▁ㅎㅐㅈㅓ -11245
ㅍㅛㅇㅠㄹ -11246
▁ㄱㅕㅇㅅㅣ -11247
ㅗㄹㄹㅗㅈㅣ -11248
▁ㅁㅗㅁㅌㅗㅇ -11249
▁ㅊㅣㄴㅂㅜㄴ -11250
▁ㅁㅏㄴㅣㄹㄹㅏ -11251
▁ㅈㅔㅈㅗㅇㅓㅂ -11252
▁ㄷㅗㅇㄷㅐㅁㅜㄴ -11253
ㅓㅇㅣㄴ -11254
▁ㄱㅕㅇㅎㅢ -11255
▁ㅇㅣㅇㅑㅇ -11256
▁ㅌㅡㄹㅏㅇㅣ -11257
▁ㄷㅗㅇㅁㅜㄹㅇㅝㄴ -11258
AF -11259
ㄷㅠㅁ -11260
▁ㄱㅘㄹ -11261
▁ㄹㅣㄹㅏ -11262
▁ㅈㅏㅇㅟ -11263
▁ㅎㅘㄱㅣ -11264
▁ㅇㅓㄱㅜㄴ -11265
▁ㅇㅞㅇㅣㄴ -11266
▁ㅇㅣㅂㅅㅜ -11267
ㄷㅡㅇㅅㅣㄱ -11268
▁ㅅㅏㄱㅏㄱㅎㅕㅇ -11269
▁ㅇㅗㄹㅡㄴㅅㅗㄴ -11270
▁ㅇㅣㅌㅏ -11271
ㅅㅡㅋㅜㄹ -11272
▁ㅊㅗㅂㅣㅇ -11273
ㅏㄹㄹㅗㄱㅡ -11274
▁ㄸㅏㄹㅏㄱㅏ -11275
ㅞㄴ -11276
▁CM -11277
ㄴㅣㄲㅏ -11278
▁ㄱㅣㅂㅕㅇㄷㅐ -11279
▁ㅎㅐㄹㅣㅅㅡㄴ -11280
▁ㅁㅣㄱㅜㄴㅈㅓㅇ -11281
▁ㅂㅏㄱㅎㅓㄴㅇㅕㅇ -11282
▁ㅂㅏㄴㄹㅏㄴㄱㅜㄴ -11283
▁ㅇㅑㅌ -11284
ㅌㅣㅅㅣ -11285
▁ㅅㅜㄷㅏ -11286
▁ㅊㅏㄹㅣ -11287
▁ㅅㅣㅈㅜㅇ -11288
▁ㅂㅜㄴㄹㅠㄱㅜㄴ -11289
▁ㅂㅔㄴㅊㅣ -11290
▁ㅂㅣㄴㅡㄹ -11291
▁ㅋㅓㅍㅡㄹ -11292
▁ㅅㅏㅇㄱㅡㅂ -11293
▁ㅈㅣㅇㅂㅕㅇ -11294
▁ㅌㅗㅇㅇㅛㅇ -11295
▁ㄹㅜㄷㅗㄹㅍㅡ -11296
▁ㅎㅏㅁㄱㅕㅇㄴㅏㅁㄷㅗ -11297
OD -11298
▁ㅋㅡㅁ -11299
▁ㅎㅓㅈㅓㅇ -11300
▁ㅁㅜㄹㅗ -11301
▁ㅉㅣㄹㅡ -11302
▁ㅎㅏㅋㅣ -11303
▁ㅎㅏㅂㅏㄴ -11304
▁ㅋㅔㅇㅣㅍㅡ -11305
▁ㄱㅏㅈㅡ -11306
▁ㅆㅣㅇㅏ -11307
▁ㅇㅗㅈㅣ -11308
▁ㅅㅜㅇㅣㄴ -11309
▁ㅊㅏㅇㅛㅇ -11310
▁ㄱㅘㄴㅎㅐㅇ -11311
▁ㅅㅣㄴㅁㅜㄴㅅㅏ -11312
ㅋㅏㄹㅣ -11313
▁ㄱㅔㄹㅣ -11314
▁ㅂㅜㄴㄱㅘ -11315
▁ㅇㅣㅂㅏㅇ -11316
▁ㅅㅣㄴㅂㅏㄹ -11317
▁ㅇㅣㅅㅏㅂㅔㄹ -11318
▁ㅅㅣㄹㅎㅓㅁㅅㅣㄹ -11319
ㅁㅓㄴㅅㅡ -11320
▁ㅌㅡㄹㄹㅣ -11321
▁ㄹㅓㅅㅣㅇㅏㅇㅣㄴ -11322
▁ㅅㅡㅌㅗㄱㅎㅗㄹㄹㅡㅁ -11323
EG -11324
oun -11325
ㅍㅏㄹㅣ -11326
▁ㅁㅔㄴㅠ -11327
▁ㅇㅜㅇㅏ -11328
▁ㄱㅏㄴㅡㄹ -11329
▁ㅇㅏㅋㅣㅌㅏ -11330
▁ㅂㅣㅌㅏㅁㅣㄴ -11331
ㅇㅏㅇㅣㄹㄹㅐㄴㄷㅡ -11332
ㅅㅏㄱㅅㅡ -11333
ㅔㅇㅣㄹㅜ -11334
▁ㅈㅜㅇㅣㅁ -11335
▁ㅇㅏㅋㅣㄹㅏ -11336
▁ㅇㅗㄹㅗㅈㅣ -11337
▁ㅈㅏㅊㅣㅈㅜ -11338
▁ㅍㅡㄹㅗㄹㅣㄱㅡ -11339
ㅣㅁㅏ -11340
ㄷㅡㅅㅡㄴ -11341
▁ㅁㅏㄱㅎㅣ -11342
▁ㅅㅓㅁㅅㅔ -11343
▁ㄴㅗㅁ -11344
▁ㅍㅏㄷㅗ -11345
▁ㅁㅐㅋㅣㄴ -11346
▁ㅌㅗㅇㅇㅕㄱ -11347
▁ㅓㅇ -11348
▁ㅌㅔㄹㅣ -11349
▁ㅂㅜㄴㅅㅜ -11350
▁ㅊㅓㅇㅅㅗ -11351
▁ㅌㅣㅋㅔㅅ -11352
▁ㄴㅐㅇㅑㅅㅜ -11353
▁ㅊㅏㅇㅁㅜㄴ -11354
▁ㅌㅜㄹㅡㅋㅡ -11355
▁ㅈㅜㄹㄱㅓㄹㅣ -11356
ㄹㄹㅡㄴ -11357
ㅈㅣㅅㅡ -11358
ㅠㄹㄹㅓ -11359
▁ㅎㅐㅅㅜ -11360
▁ㅈㅐㅎㅘㄹ -11361
▁ㅊㅗㅇㅁㅜ -11362
▁ㄱㅡㄱㅎㅏㄴ -11363
fe -11364
▁ㅁㅗㅂ -11365
▁ㅁㅜㅊㅓㄱ -11366
▁ㅈㅘㅇ -11367
▁ㄷㅗㅁㅣ -11368
▁ㄹㅡㄴㅗ -11369
▁ㅊㅓㄴㄷㅗ -11370
▁ㅇㅏㄴㄴㅕㅇ -11371
lat -11372
▁ㄱㅕㅇㅈㅣㄹ -11373
▁ㄱㅣㅁㅇㅝㄴ -11374
▁ㅈㅡㅇㅇㅣㄴ -11375
▁ㅍㅡㄹㅏㅎㅏ -11376
▁ㅇㅕㄱㅅㅏㄱㅏ -11377
ㅓㅇㅇㅣ -11378
▁ㄱㅓㅁㅈㅓㅇ -11379
▁ㅋㅏㄹㄹㅓㅁ -11380
▁CH -11381
ical -11382
▁ㅋㅗㅋㅏ -11383
ㅉㅓㄷㅜㅇ -11384
ㅊㅏㅇㅎㅗ -11385
ㅋㅡㄹㄹㅏ -11386
▁ㄱㅏㄷㅡㄴ -11387
▁ㄴㅏㅅㅓㄴ -11388
▁ㅅㅜㅍㅣㄹ -11389
▁ㅅㅣㅈㅡㅇ -11390
ㅈㅓㅇㅇㅝㄴ -11391
▁ㄱㅏㄱㅅㅓㅇ -11392
▁ㄷㅏㄴㅏㅋㅏ -11393
▁ㅅㅓㄷㅐㅁㅜㄴ -11394
▁ㅊㅣㄴㅇㅟㄷㅐ -11395
▁ㅁㅏㅇㅗㅉㅓㄷㅜㅇ -11396
▁ㅍㅏㄴㅏ -11397
▁ㅁㅜㄴㄱㅗ -11398
▁ㅎㅜㅈㅣㄴ -11399
▁ㄷㅗㄱㅛ -11400
▁ㄱㅐㅎㅓㄴ -11401
▁ㅇㅑㅁㅏㅇ -11402
▁ㄱㅘㄴㅊㅓㅇ -11403
▁ㄴㅗㅇㄱㅕㅇ -11404
▁Jo -11405
ㅊㅡㅂ -11406
▁ㅅㅛㅇ -11407
▁ㅇㅔㅂㅓ -11408
▁ㄹㅕㄷㅓㄴ -11409
▁ㅅㅜㅇㅑㅇ -11410
▁ㅇㅗㅎㅏㅇ -11411
▁ㅂㅏㅇㅣㅌㅡ -11412
▁ㅍㅕㅇㅎㅕㅇ -11413
▁NT -11414
ㅎㅣㅌㅡ -11415
▁ㅁㅣㄴㅇㅛ -11416
▁ㄱㅣㄴㅌㅔㅆㅡ -11417
▁ㅋㅓㅁㅍㅠㅌㅣㅇ -11418
▁ㅋㅗㄴㅌㅔㅅㅡㅌㅡ -11419
▁ㅇㅕㄴㄱㅡㄱㅂㅐㅇㅜ -11420
▁ㄹㅗㄱㅡ -11421
▁ㅂㅏㄴㅅㅓㅇ -11422
▁ㅇㅛㅅㅣㄷㅏ -11423
▁ㅊㅗㅇㅌㅗㅇ -11424
▁ㅈㅣㅈㅣㅇㅠㄹ -11425
▁ㅅㅗㄹㄹㅗㅁㅗㄴ -11426
▁DD -11427
▁pr -11428
▁ㅆㅜ -11429
▁ㅅㅣㅇㅔ -11430
▁ㅌㅏㅅㅡ -11431
▁ㅇㅏㄹㅡㄴ -11432
▁ㅅㅔㄴㅌㅣㅁ -11433
▁ㅇㅜㅊㅣ -11434
▁ㅍㅣㅇㅗ -11435
▁ㄷㅏㄷㅏㅇ -11436
▁ㅂㅗㅎㅐㅇ -11437
▁ㅅㅏㅁㅈㅗㄴ -11438
▁AV -11439
ㅅㅡㅌㅗ -11440
▁ㅁㅏㅅㅜㄹ -11441
▁ㅆㅣㅇㅏㅅ -11442
▁ㅊㅗㅇㅇㅐ -11443
ㄹㅔㄱㅅㅕㄴ -11444
▁ㅎㅔㄹㅅㅣㅇ -11445
ㅅㅡㅌㅗㄹㅏㅇ -11446
▁ㅍㅡㄹㄹㅏㅌㅗㄴ -11447
▁ㄹㅔㅅㅡㅌㅗㄹㅏㅇ -11448
▁ㅂㅐㄹㅕ -11449
▁ㅇㅝㄴㅅㅣㅁ -11450
▁ㅋㅡㄹㅏㅇㅣ -11451
▁ㅂㅜㄹㅌㅐㅇㅜ -11452
▁ㅎㅘㄱㅏㅇㅇㅏㅁ -11453
▁ㄱㅏㄷㅡ -11454
▁ㅇㅏㄹㅣㅇㅏ -11455
▁ㅊㅣㄱㅘ -11456
▁ㅋㅓㅅㅡ -11457
▁ㅁㅏㅋㅔㅅ -11458
▁ㅂㅜㄱㅏㄱ -11459
▁ㅌㅏㅇㅣㄹ -11460
ㅌㅗㅇㅇㅣㄹ -11461
▁ㅅㅓㅇㅅㅣㄹ -11462
▁ㅍㅓㅅㅡㅌㅡ -11463
▁ㄷㅐㅅㅏㅎㅓㄴ -11464
▁ㅎㅔㄹㅡㅊㅔㄱㅗㅂㅣㄴㅏ -11465
▁ㅂㅜㅈㅗ -11466
▁ㅈㅓㄴㄹㅐ -11467
▁ㅊㅏㄱㅏㅂ -11468
▁ㅎㅏㄱㅅㅓㄹ -11469
▁ㅁㅏㅊㅓㄴㄹㅜ -11470
▁ㅅㅣㅎㅏㅂ -11471
▁ㄴㅠㅋㅡㄹㄹ -11472
ㅌㅔㄹㄹㅔㅅㅡ -11473
▁ㅇㅛㅇㅇㅣㄴㅅㅣ -11474
▁ㅇㅗㄹㄹㅣㅁㅍㅣㅇㅏ -11475
▁ㅊㅗㅇㅅㅏㄹㅕㅇㄱㅘㄴ -11476
ㄴㅛ -11477
▁ㄷㅡㅁㅣ -11478
▁ㅊㅜㅇㅣ -11479
▁ㅎㅐㅂㅜ -11480
ㅅㅏㄱㅏㄱ -11481
▁ㅇㅏㄹㅍㅡㅅㅡ -11482
IR -11483
▁210 -11484
ㅂㅏㅅㅣ -11485
▁ㄹㅗㅂㅓ -11486
▁ㄴㅏㅁㅇㅛㅇ -11487
▁ㅇㅏㅇㄱㅗㄹ -11488
▁ㄲㅡㄹㄹㅕㄱㅏ -11489
▁ㅇㅐㅁ -11490
ㅁㅔㅇㅣ -11491
▁ㅁㅗㅇㅢ -11492
▁ㅅㅜㄱㅛ -11493
▁ㅎㅏㄹㅠ -11494
▁ㅇㅑㄱㅎㅗㄴ -11495
▁ㅈㅓㅇㅈㅏㄱ -11496
▁ㅋㅡㄹㄹㅣㄴㅌㅓㄴ -11497
FL -11498
▁ㅂㅚ -11499
ㄷㅣㄹ -11500
▁ㅎㅏㄴㅎㅏ -11501
▁ㅂㅏㅇㅋㅗㄱ -11502
▁ㅈㅜㅊㅏㅈㅏㅇ -11503
are -11504
▁ABC -11505
▁ㅁㅔㅅ -11506
▁ㄱㅗㅋㅜ -11507
ㄱㅜㄱㅅㅏ -11508
▁ㄷㅏㅇㄴㅐ -11509
▁ㅇㅣㄹㅜㄱ -11510
▁ㅇㅝㄴㅌㅗㅇ -11511
▁ㅋㅗㄹㄹㅗㄴ -11512
▁ㅂㅜㄴㅍㅏ -11513
▁ㅅㅗㅇㅡㅁ -11514
▁ㅁㅔㅇㅣㅋㅓ -11515
▁ㅇㅣㄹㄷㅏㅇ -11516
▁ㅍㅡㄹㅔㄷㅔ -11517
▁ㅅㅡㅍㅗㄴㅅㅓ -11518
▁ㅈㅔㅍㅓㅅㅡㄴ -11519
▁ㅁㅗㄱㅇㅛㅇㅣㄹ -11520
EE -11521
▁ㅅㅐㄱㅅㅗ -11522
▁ㅇㅣㄹㄹㅣ -11523
ㅎㅘㄴㄱㅕㅇ -11524
▁ㅊㅣㄱㄹㅕㅇ -11525
▁ㄷㅐㅇㅝㄴㄱㅜㄴ -11526
▁ㅇㅏㄹㅍㅏㅂㅔㅅ -11527
▁ㅂㅜㄱㅇㅏㅇㅣㄹㄹㅐㄴㄷㅡ -11528
ㅂㅡㄹㅡ -11529
▁ㄱㅣㅊㅏ -11530
▁ㄹㅣㅌㅓ -11531
▁ㄱㅘㅇㄷㅗ -11532
▁ㄷㅗㄱㄷㅗ -11533
▁ㅁㅏㅅㅕㄹ -11534
▁ㅂㅐㄱㄷㅜ -11535
▁ㅅㅜㅂㅗㄱ -11536
▁ㅈㅓㅇㄱㅓ -11537
▁ㄷㅗㄱㅊㅏㅇ -11538
▁ㅂㅏㄱㅈㅗㅇ -11539
▁ㅌㅡㄱㅈㅓㄴ -11540
60 -11541
▁he -11542
▁ㅈㅜㄱㅗ -11543
▁ㅂㅐㄹㄹㅣ -11544
▁ㅌㅡㄹㅗㅇㅣ -11545
▁ㄸㅟㅇㅓㄷㅡㄹ -11546
▁ㅌㅏㅇㅣㅌㅏㄴ -11547
▁ㅅㅓㄴㄱㅓㅂㅓㅂ -11548
▁ㅇㅏㄹㅣㅅㅡㅌㅗㅌㅔㄹㄹㅔㅅㅡ -11549
▁ㅂㅔㄴㅊㅓ -11550
▁ㅊㅓㄴㄱㅓ -11551
▁ㅂㅜㄹㅂㅕㄴ -11552
▁ㅇㅓㅁㅁㅣㄹ -11553
▁ㅍㅣㄹㅏㅁㅣ -11554
▁ㄷㅗㅇㅇㅠㄹㅓㅂ -11555
▁Ma -11556
ㅈㅣㅇㅏ -11557
▁ㅇㅏㅅㅗ -11558
▁ㄱㅗㄷㅡㄴ -11559
▁ㅈㅜㅇㅣㅂ -11560
▁ㅍㅗㅅㅣㄱ -11561
▁ㅍㅗㅊㅏㄱ -11562
▁ㅇㅠㅇㅏㄱㅣ -11563
ㅅㅐㅁ -11564
ㅇㅏㄱㅜㄴ -11565
▁ㄱㅕㅇㅈㅓㄴㅊㅓㄹ -11566
▁ㅎㅣㅇ -11567
▁ㅈㅏㅈㅔ -11568
▁ㄴㅔㅅㅉㅐ -11569
▁ㄹㅓㄱㅂㅣ -11570
▁ㅅㅔㄴㅌㅡ -11571
▁ㅊㅓㄴㅇㅘㅇ -11572
▁ㅇㅖㅅㅓㄴㅈㅓㄴ -11573
▁ㅁㅐㅅㅜ -11574
▁CONCA -11575
ㅅㅣㄴㅁㅜㄴ -11576
▁ㄱㅏㅇㄹㅕㅇ -11577
▁ㅌㅟㄹㅡㅋㅡ -11578
▁ㄱㅜㄴㅐ -11579
▁ㄴㅣㅋㅗ -11580
▁ㅌㅔㅋㅡ -11581
▁ㅂㅏㄴㄱㅣ -11582
▁ㅇㅏㄴㅏㅌ -11583
▁ㅈㅔㅁㅜㄹ -11584
▁ㅌㅖㄴㅈㅣㄴ -11585
▁ㅇㅏㄹㅂㅔㄹㅡ -11586
▁ㅇㅠㅎㅗㄱ -11587
▁ㄹㅔㅇㅣㅋㅡ -11588
▁ㅈㅓㄱㅇㅚㅅㅓㄴ -11589
ㅔㅁㅗㅇ -11590
▁ㅎㅗㄷㅐ -11591
▁ㄱㅏㅁㅅㅜ -11592
▁ㅈㅓㄴㅁㅜ -11593
▁ㄷㅏㅈㅓㅅㅡ -11594
▁ㅇㅕㅇㅈㅓㅇ -11595
▁ㅇㅏㅁㅜㄱㅓㅅ -11596
▁CONCACAF -11597
ica -11598
ㄲㅏㄴ -11599
ㅇㅞㄹ -11600
ㅅㅡㅋㅐ -11601
▁ㅅㅓㅇㅎㅘ -11602
ㅊㅓㄴㄷㅗㅇ -11603
▁ㅁㅗㅎㅗ -11604
▁ㅇㅗㅋㅡ -11605
▁ㅈㅜㄱㅖ -11606
▁ㄷㅏㅇㅣㅂ -11607
▁ㅇㅏㄷㅔㄴ -11608
▁ㅋㅡㄹㄹㅔ -11609
ㄹㅏㅇㅣㄷㅓ -11610
▁ㅊㅓㄴㄱㅜㄱ -11611
▁ㄴㅏㅌㅡㄹㅠㅁ -11612
▁ㅂㅣㅁㅣㄹㄹㅣ -11613
▁ㅇㅕㄴㅅㅏㄴㄱㅜㄴ -11614
▁ㅁㅗㅇㅓ -11615
▁ㅍㅏㅅㅗㄴ -11616
▁ㅅㅗㅇㅅㅣㄴ -11617
▁ㅅㅣㄹㄱㅝㄴ -11618
▁1889 -11619
▁ㄴㅑㄴㅡㄴ -11620
ㅅㅡㅌㅡㄹㅗ -11621
▁ㅂㅗㄴㅈㅏㄱ -11622
▁ㅅㅓㄴㄱㅜㅈㅏ -11623
ㅅㅜㅅㅡ -11624
▁ㄹㅜㅋㅏ -11625
▁ㅇㅑㄷㅡ -11626
▁ㅇㅑㅈㅓㄴ -11627
▁ㅇㅣㅈㅓㅁ -11628
▁ㄱㅜㄱㄱㅗㅇ -11629
▁ㅌㅜㅈㅏㅈㅏ -11630
▁ㅇㅠㅊㅣㅇㅝㄴ -11631
▁Fr -11632
ㄲㅓㅇ -11633
▁ATP -11634
▁MTV -11635
▁ㄹㅏㅅㅓ -11636
▁ㅊㅐㅊㅟ -11637
▁ㄱㅏㄹㅏㄱ -11638
▁ㄷㅐㅂㅗㄴ -11639
▁ㅅㅏㅂㅏㅇ -11640
▁ㅅㅡㄹㅎㅏ -11641
▁ㅇㅢㄹㅕㅇ -11642
▁ㅈㅗㅇㅣㄴ -11643
▁ㄷㅔㄹㅕㅇㅗ -11644
▁ㅋㅚㄹㄹㅡㄴ -11645
▁ㅂㅗㅅㅜㄷㅏㅇ -11646
▁ㅂㅐㄹ -11647
▁ㅌㅜㅇㅕ -11648
▁ㅍㅓㅍㅗ -11649
▁ㅍㅔㄹㅗ -11650
▁ㅁㅏㄴㅈㅏㅇ -11651
▁ㄴㅡㄴㄷㅏㅁㅕㄴ -11652
▁ㅈㅓㅇㅂㅜㄱㅜㄴ -11653
ㄷㅔㄴㅂㅜㄹㅡㅋㅡ -11654
▁ㅍㅓㅍㅗㅁㅓㄴㅅㅡ -11655
▁ㅅㅠㅅ -11656
ㅈㅣㄱㅣ -11657
ㅍㅏㅇㅣ -11658
▁Live -11659
▁ㅋㅏㄴㄱㅜㄱ -11660
▁ㅁㅏㄴㅜㅇㅔㄹ -11661
▁ㅁㅐㅁ -11662
ㅌㅣㄴㅓㅁ -11663
▁ㅅㅣㄹㅈㅗㄴ -11664
▁ㅍㅐㅌㅡㄹㅣㄱ -11665
▁ㅍㅡㄹㄹㅐㅌㅣㄴㅓㅁ -11666
ㅏㄴㅌㅗ -11667
▁ㅂㅓㄷㅡ -11668
▁ㅅㅡㅌㅔㅂ -11669
▁ㅈㅜㅇㅌㅚ -11670
▁ㅎㅗㄹㄹㅣ -11671
▁ㅈㅓㅇㅇㅡㅂ -11672
ㅁㅐㅁㅐ -11673
▁ㅂㅕㄹㅅㅔ -11674
▁ㅊㅏㅊㅜㄹ -11675
▁ㅌㅚㅈㅏㅇ -11676
▁ㅍㅣㅍㅣㄴ -11677
▁ㅂㅏㅇㅇㅓㅅ -11678
▁ㅈㅓㄴㄷㅏㅁ -11679
ㄱㅏㄹㅡ -11680
ㅇㅝㅋㅡ -11681
▁ㅂㅏㄷㅣ -11682
ㅋㅓㄴㄷㅐ -11683
▁ㄷㅐㅂㅜㄱ -11684
▁ㅈㅓㅇㅈㅗㅇ -11685
▁ㅇㅗㄹㅣㅇㅗㄴ -11686
▁ㄱㅏㄴㅏㄱㅏㅇㅘㅎㅕㄴ -11687
▁ㅈㅣㅇㅗ -11688
▁ㅇㅛㅊㅜㅇ -11689
▁ㅅㅣㄹㅈㅓㅇ -11690
▁ㅊㅐㄱㅇㅣㅁㅈㅣ -11691
bo -11692
▁ㅎㅛㅈㅏ -11693
ㅊㅜㅇㄹㅠ -11694
▁ㄷㅗㄷㅜㄱ -11695
▁ㅁㅜㅇㅊㅣ -11696
▁ㅊㅏㄴㅅㅏ -11697
▁ㅅㅏㅁㄹㅣㅁ -11698
▁ㄱㅗㅅㅗㄱㅂㅓㅅㅡ -11699
▁ㅇㅘㅇㅣㅂㅓㄴㅅㅡ -11700
▁ㅇㅣㅇㅢ -11701
▁ㅎㅏㅊㅣ -11702
▁ㅂㅣㅇㅔㄴ -11703
▁ㅍㅗㄱㅍㅏ -11704
▁ㅅㅣㄹㄹㅗㄱ -11705
▁ㅍㅔㄴㅓㄹㅌㅣ -11706
▁ㅍㅣㅇㅏㄴㅣㅅㅡㅌㅡ -11707
▁ㅋㅜㅁ -11708
▁JTBC -11709
▁ㅇㅢㄹㅠ -11710
▁ㅎㅐㅊㅣ -11711
▁ㄱㅣㅁㅇㅠ -11712
▁ㅇㅕㅇㅇㅠ -11713
▁ㅅㅡㅂㅇㅠㄴ -11714
▁ㅂㅐㄴㅋㅜㅂㅓ -11715
▁ㅇㅏㅇㅣㅍㅗㄴ -11716
▁ㅇㅠㄱㅝㄴㅈㅏ -11717
▁ㅁㅣㅇㅑㅈㅏㅋㅣ -11718
▁ㅋㅏㅌㅏㄹㄹㅜㄴ -11719
▁So -11720
▁ㄴㅣㅎㅗㄴ -11721
▁ㅊㅗㅅㅣㄴㅅㅓㅇ -11722
ㅓㄹㅓㄹ -11723
▁ㄱㅏㅁㅐㅇ -11724
▁ㄱㅗㅇㅎㅠ -11725
▁ㅁㅜㅎㅕㅇ -11726
▁ㄱㅣㅅㅏㅇㅊㅓㅇ -11727
ㄷㅓㅇㅇㅣ -11728
ㅔㄱㅡㄹㅗ -11729
▁ㅌㅐㅇㅏㄴ -11730
▁ㅅㅏㄴㅅㅓㅇ -11731
▁ㅅㅡㅍㅗㄹㅡ -11732
▁ㅈㅓㄹㅁㅏㅇ -11733
▁ㅇㅘㅇㅅㅔㅈㅏ -11734
EL -11735
sh -11736
▁ㄹㅣㅅㅏ -11737
▁ㅂㅜㅊㅣ -11738
ㄹㅏㄴㅌㅡ -11739
▁ㅇㅠㅅㅓㄴ -11740
▁ㅇㅏㄴㅌㅔㄴㅏ -11741
▁ㅅㅡㅋㅏㅇㅜㅌㅡ -11742
▁int -11743
▁ㅊㅗㄱㅗ -11744
▁ㄱㅜㅅㅣㄹ -11745
▁ㄴㅡㅇㅎㅏ -11746
▁ㅇㅓㄴㅡㄴ -11747
▁ㅈㅜㄴㅅㅜ -11748
▁ㅎㅘㅇㅅㅗ -11749
ㅅㅏㄴㄷㅏㅇ -11750
▁ㅅㅓㄴㅊㅓㄴ -11751
▁ㅈㅣㄱㅌㅗㅇ -11752
▁ㅅㅔㄴㅌㅣㅁㅣㅌㅓ -11753
▁ㄴㅗㄹㅗㄴ -11754
▁ㅈㅓㅇㅎㅕㅇ -11755
▁ㅈㅜㅇㅎㅏㅂ -11756
▁ㅅㅗㅁㅏㄹㄹㅣㅇㅏ -11757
▁ㅎㅔㅅ -11758
▁ㄷㅐㅈㅗㅇ -11759
▁ㄱㅕㅇㅇㅕㅇㅈㅏ -11760
▁ㅂㅐㄱㄱㅘ -11761
▁ㄱㅕㄹㅂㅕㄹ -11762
▁For -11763
ㄹㅣㅋㅡ -11764
ㅡㄹㅣㄷㅡ -11765
▁ㅅㅜㄹㅏㄱ -11766
▁ㅇㅡㄴㄱㅓ -11767
▁ㅇㅖㅅㅜㅎㅚ -11768
▁ㅇㅛㄱㅁㅏㅇ -11769
▁ㅋㅏㅋㅏㅇㅗ -11770
IL -11771
▁ㅍㅓㅁㅍㅡ -11772
▁ㅇㅠㄴㅣㅂㅓㅅㅓㄹ -11773
span -11774
▁GB -11775
ㅓㅌㅡ -11776
▁ㄴㅗㅂㅗ -11777
▁ㅊㅣㅎㅘㄴ -11778
▁ㅌㅚㅈㅣㄱ -11779
▁ㄱㅣㅁㅎㅕㅇ -11780
▁ㅎㅐㄹㅣㅅㅡ -11781
▁ㅋㅔㅍㅡㄹㄹㅓ -11782
▁ㅇㅏㅍㅈㅏㅇㅅㅓ -11783
▁onlyinclude -11784
▁ㅋㅡㄹㄹㅣㅂㅡㄹㄹㅐㄴㄷㅡ -11785
ㄷㅗㄹㄹㅣ -11786
▁ㅂㅏㅇㅊㅣ -11787
▁ㅊㅜㄹㅕㄱ -11788
▁ㅇㅘㅇㄱㅝㄴ -11789
▁ㅓㅇㅑ -11790
▁ㄱㅣㅁㅈㅐ -11791
▁ㅇㅕㅇㅇㅖ -11792
▁ㅇㅠㅁㅗㄱ -11793
▁ㄱㅏㅁㅊㅏㄹ -11794
▁ㅊㅏㄴㅇㅑㅇ -11795
ost -11796
▁Com -11797
▁ㄹㅜㅂㅣ -11798
▁ㅌㅡㄹㅜ -11799
▁ㄱㅕㄱㄹㅣ -11800
▁ㅂㅏㄴㅍㅗ -11801
▁ㅅㅣㄴㅔㅁㅏ -11802
▁ㅈㅏㅇㅠㅁㅣㄴㅈㅜㄷㅏㅇ -11803
tern -11804
▁Col -11805
▁Sou -11806
ㅁㅣㅅㅡ -11807
▁ㄷㅏㅌㅔ -11808
▁ㅁㅜㅅㅣㄹ -11809
▁ㅇㅕㄲ -11810
▁Time -11811
ㅅㅗㅌㅗㅇ -11812
▁ㅍㅏㄴㄹㅖ -11813
▁ㅊㅣㅁㅁㅜㄱ -11814
▁ㅍㅡㄹㅏㅇㅣㅁ -11815
▁ㅂㅣㅇㅑ -11816
▁ㅁㅗㄱㅡㅁ -11817
▁ㅂㅗㅇㅎㅘ -11818
▁ㅅㅗㅈㅜㅇ -11819
ㅎㅕㄴㄷㅗㅇ -11820
▁ㅈㅗㅇㅅㅣㄱ -11821
ㅅㅏㄱㅗ -11822
▁ㅅㅐㅇㅜ -11823
ㅇㅏㅇㅜㅅ -11824
▁ㅇㅣㄴㄱㅏ -11825
▁ㅅㅗㅇㅊㅜㄹ -11826
▁TR -11827
▁ㅁㅏㅊㅏ -11828
▁ㄷㅐㅇㅕㅇ -11829
▁ㅁㅔㄷㅣㅊㅣ -11830
▁ㅂㅡㄹㅔㅇㅣㅋㅡ -11831
▁ㅂㅏㅌㅡ -11832
▁ㅂㅏㄷㅊㅣ -11833
▁ㅇㅠㅅㅣㄱ -11834
ㅍㅇㅣ -11835
▁ㄱㅣㅇㅘ -11836
▁ㅇㅣㅁㅗ -11837
▁ㄷㅏㅇㅟㄴ -11838
▁ㄱㅗㅇㅈㅗㄴ -11839
▁ㄱㅡㅁㅅㅏㄴ -11840
▁ㅎㅏㄴㄹㅣㅁ -11841
▁ㄱㅗㅇㅎㅠㅇㅣㄹ -11842
▁ㅇㅢㅅㅏㅅㅗㅌㅗㅇ -11843
ㅂㅜㄹㅗ -11844
▁ㅎㅏㄱㅜ -11845
▁ㅎㅏㅎㅐㅇ -11846
▁ㄹㅔㅇㅣㅅㅣㅇ -11847
▁ㅍㅣㄹㅏㅁㅣㄷㅡ -11848
ㄷㅐㅅㅏ -11849
▁ㅇㅗㅅㅏ -11850
▁ㅅㅗㄱㅡㄱ -11851
▁ㅈㅗㅇㅈㅏ -11852
▁ㄱㅣㅁㅈㅜㄴ -11853
▁ㅎㅏㅇㅁㅏㄴ -11854
▁ㄴㅠㅋㅡㄹㄹㅔㅇㅗ -11855
▁Part -11856
▁ㄴㅔㅌㅡ -11857
▁ㄸㅏㅈㅣ -11858
ㅈㅗㅇㅣㄴ -11859
▁ㅇㅕㄱㅝㄴ -11860
▁ㅇㅛㄱㅕㄱ -11861
▁ㅎㅘㅇㅑㄱ -11862
▁ㅂㅜㄹㄹㅑㅇ -11863
▁ㅅㅓㅇㄱㅘㄱ -11864
▁ㅈㅓㄴㅈㅓㄴ -11865
▁ㅇㅠㄱㅕㄱㅅㅜ -11866
▁ㅍㅡㄹㅏㄴㅊㅔㅅㅡㅋㅗ -11867
ood -11868
▁ㄱㅏㄹㅏ -11869
▁ㄱㅗㄷㅣㄱ -11870
▁ㅂㅗㄹㅌㅡ -11871
▁ㅇㅗㅂㅏㅁㅏ -11872
▁ㅈㅏㄱㅁㅜㄹ -11873
▁ㄷㅐㅅㅡㅇㅂㅜㄹㄱㅛ -11874
ㄴㅣㅈㅣ -11875
▁ㅈㅣㅈㅏ -11876
▁ㅊㅣㄹㅜ -11877
▁ㅂㅜㄹㅊㅏㅁ -11878
▁ㅅㅡㄹㅍㅡㅁ -11879
▁ㅇㅘㅇㄱㅓㄴ -11880
▁ㅌㅟㄴㅣㅈㅣ -11881
▁ㅋㅡㄹㄹㅔㅇㅣ -11882
▁ㄴㅏㅋㅏㅁㅜㄹㅏ -11883
▁ㄱㅓㅁㅇㅡㄴㅅㅐㄱ -11884
▁ㅌㅡㄴ -11885
ㅆㅡㅁㅏ -11886
ㅡㄹㄹㅔ -11887
▁ㄷㅐㄴㅅㅓ -11888
▁ㅇㅜㅎㅏㄴ -11889
▁ㅁㅜㄴㅈㅣㅂ -11890
▁ㅇㅝㄴㄱㅜㄴ -11891
▁ㅂㅣㅈㅜㄴ -11892
▁ㅅㅏㅌㅏㅇ -11893
ㅈㅓㅇㄷㅗㅇ -11894
▁ㅋㅏㅅㅡㅌㅣㅇㅑ -11895
▁ㅇㅣㄹㅂㅗㄴㄱㅜㄱ -11896
▁ㅅㅗㅇㄷㅗ -11897
▁ㅁㅣㅇㅑㄱㅣ -11898
▁ㅅㅏㅁㅈㅜㅇ -11899
▁ㅌㅏㅇㅣㅇㅓ -11900
▁ㅇㅗㅎㅏㅇㅣㅇㅗ -11901
▁ㄱㅣㅇㅣ -11902
▁ㅇㅕㄴㅁㅏㄹ -11903
▁ㅇㅕㅂㅐㅇㅜ -11904
▁ㅅㅏㄹㅗㅈㅏㅂ -11905
uc -11906
▁ㅁㅗㅅㅔ -11907
▁ㅇㅕㅇㅠ -11908
ㅁㅣㅇㅏㅁ -11909
ㅔㅅㅡㅌㅡ -11910
▁ㅁㅜㅈㅏㄱ -11911
▁ㅇㅡㅁㅈㅓㄹ -11912
ㅍㅡㄹㅏㅇㅋㅡ -11913
▁ㅁㅏㄹㅁㅣㅇㅏㅁ -11914
▁AKB -11915
▁ㅇㅏㄴㄴㅏ -11916
▁ㄱㅏㅇㅍㅜㅇ -11917
▁ㄱㅓㄴㅈㅓㄴ -11918
▁ㅇㅣㅁㅈㅓㅇ -11919
▁ㅍㅕㅇㅍㅕㅇ -11920
ㅎㅐㅅㅏㄹㅇㅣ -11921
▁ㅌㅏㅇㅣㄱㅓㅅㅡ -11922
▁"& -11923
▁ㄱㅏㄷㅗ -11924
▁ㄱㅡㄹㄹ -11925
▁ㅈㅜㅇㅅㅓ -11926
ㄷㅗㄹㅡㅍㅡ -11927
▁ㅂㅗㄴㅅㅓㅇ -11928
▁ㅇㅕㄴㅈㅓㅇ -11929
▁ㅌㅗㄹㅣㄴㅗ -11930
▁ㅎㅕㅇㅈㅣㄹ -11931
▁ㅇㅔㄴㅌㅡㄹㅣ -11932
lay -11933
row -11934
▁ㄱㅗㅈ -11935
ㄷㅐㅍㅛ -11936
▁ㄱㅡㄴㅅㅏ -11937
▁ㄹㅏㅇㅣㅁ -11938
ㅂㅣㅅ -11939
ㅊㅏㄶ -11940
▁ㄷㅡㄹㅗ -11941
ㅏㅇㅑㅁㅏ -11942
▁ㄹㅏㅍㅏㅇㅔㄹ -11943
▁ㄱㅣㅁㅌㅐ -11944
▁ㅂㅗㄹㅕㅇ -11945
▁ㄸㅓㄹㅇㅓㄸㅡㄹㅣ -11946
ous -11947
ㅌㅓㅅ -11948
ㅜㅇㅕㄱ -11949
▁ㄹㅏㄹㅣ -11950
ㅋㅐㅅㅡㄹ -11951
▁ㄱㅗㅊㅏㅇ -11952
▁ㄷㅗㅇㄹㅗ -11953
▁ㅈㅐㅍㅐㄴ -11954
▁ㄱㅏㅇㄹㅕㄹ -11955
▁ㄱㅣㅁㅇㅣㄴ -11956
▁ㄹㅏㅇㅣㄷㅓ -11957
▁ㄹㅗㅁㅏㅇㅣㄴ -11958
▁EU -11959
▁ㅇㅏㄲㅣ -11960
▁ㅅㅓㅇㅣㅁ -11961
▁ㄷㅐㄴㅣㅇㅓㄹ -11962
▁ㅇㅣㅅㄸㅏㄹㅡ -11963
ㅇㅝㄴㅅㅜㅇㅇㅣ -11964
▁ㄱㅘㅇㅂㅗㄱㄱㅜㄴ -11965
▁ㄴㅡㄺ -11966
▁ㄹㅠㅋㅠ -11967
ㅣㅇㅐㅁㅣ -11968
▁ㅅㅣㅁㅔㄴㅌㅡ -11969
▁ㅁㅏㅇㅣㅇㅐㅁㅣ -11970
▁at -11971
▁ㄱㅝㄴㅎㅏ -11972
▁ㅇㅔㄹㄹㅔ -11973
▁ㄱㅡㄹㄲㅗㄹ -11974
▁ㅎㅜㅈㅣㅇㅘㄹㅏㄴㅗ -11975
ows -11976
▁ㅊㅠ -11977
▁ㅈㅏㅅㅓ -11978
▁ㄷㅣㅇㅗㄴ -11979
▁ㅂㅕㅇㅈㅏ -11980
▁ㅈㅓㅇㄱㅓㅈㅏㅇ -11981
ㅁㅣㅈㅡ -11982
ㅏㅇㄷㅣ -11983
▁ㅁㅜㄱㅘ -11984
▁ㅋㅡㄹㄹㅏ -11985
▁ㄱㅜㄱㄷㅏㅇ -11986
▁ㅇㅣㄴㅊㅣㅇ -11987
▁ㅈㅏㅁㅈㅓㅇ -11988
▁ㅈㅗㅇㄱㅜㄴ -11989
▁ㅎㅏㄴㅈㅜㅇ -11990
ㅍㅡㄹㅏㅇㅣㄴ -11991
▁ㄱㅗㅇㅣㄴㄷㅗㄹ -11992
▁ㅅㅔㅋㅣ -11993
▁ㅁㅏㅆㅡㅇ -11994
▁ㅅㅏㅅㅓㄹ -11995
▁ㅊㅜㅇㅓㄱ -11996
ㅋㅣㄴㅗ -11997
ㅅㅡㅌㅔㄴ -11998
▁ㄹㅔㅇㅣㅌㅡ -11999
▁ㅈㅓㄹㅈㅓㅇ -12000
▁ㄴㅠㅋㅐㅅㅡㄹ -12001
▁ㅂㅏㄹㄹㅏㄷㅡ -12002
▁ㅂㅜㅊㅗㅇㄹㅣ -12003
▁ㄱㅜㄱㅈㅔㅂㅓㅂ -12004
▁API -12005
▁ㅇㅠㅎㅢ -12006
▁ㅌㅏㄹㅣ -12007
ㄹㅣㄱㅓㄴ -12008
ㅅㅡㄹㅕㅇ -12009
▁ㅁㅗㄱㅎㅚ -12010
▁ㅂㅗㅈㅗㄱ -12011
▁ㅈㅐㅇㅣㄹ -12012
ㅌㅔㅇㅣㄴㅓ -12013
▁ㅈㅓㄴㅎㅏㄴ -12014
▁ㅍㅡㄹㅏㅇㅅㅡㄹㅕㅇ -12015
▁u -12016
ㄷㅜㅁ -12017
▁ㄴㅕㅇ -12018
▁ㅌㅜㅁ -12019
▁ㄷㅏㅇㄱㅣ -12020
▁ㅂㅜㅍㅕㅇ -12021
▁ㄱㅏㅁㅅㅓㅇ -12022
▁ㅁㅏㄹㅡㅋㅡ -12023
▁ㄱㅛㅌㅗㅇㅂㅜ -12024
olog -12025
ㅈㅣㅂㅜ -12026
▁ㅎㅜㅂㅐ -12027
▁ㅁㅕㅇㅅㅗ -12028
▁ㅈㅣㅇㅅㅜ -12029
▁ㄱㅜㄹㅈㅓㄹ -12030
▁ㄹㅔㅇㅣㄷㅓ -12031
▁ㄹㅔㅂ -12032
ㅔㅇㅣㅋㅏ -12033
▁ㄱㅕㄱㅊㅜ -12034
▁ㅇㅖㅇㅑㄱ -12035
▁ㅈㅜㅇㅅㅜ -12036
▁ㅎㅏㄴㅏㅁ -12037
▁ㄱㅕㅇㅂㅗㄱ -12038
▁ㄱㅣㅁㅁㅕㅇ -12039
▁ㄷㅗㅁㅏㅇㄱㅏ -12040
▁ㅂㅏㅇㅇㅓㅅㅓㄴ -12041
▁ㅈㅏㅇㅎㅏㄱㄱㅡㅁ -12042
az -12043
▁131 -12044
ㄱㅓㄹㅐ -12045
▁1848 -12046
▁ㅅㅣㅋㅗㅋㅜ -12047
ㅓㄹㄹㅣㅈㅡㅁ -12048
▁ㄱㅣㅅㅜㄱㅅㅏ -12049
▁ㄷㅜㄹㅕㅇㅜㅁ -12050
▁ㅇㅏㄹㅏㅂㅇㅔ -12051
▁ㅈㅏㅁㅔㅇㅣㅋㅏ -12052
▁ㅇㅏㄹㅏㅂㅇㅔㅁㅣㄹㅣㅌㅡ -12053
OP -12054
ㅎㅣㄴ -12055
ㅡㅇㅣㄴ -12056
▁ㅌㅏㅇㅜ -12057
▁ㅅㅏㅇㅕㄱ -12058
▁ㅇㅐㅈㅓㅇ -12059
▁ㅇㅗㅁㅏㄴ -12060
▁ㅍㅡㄹㅔㅅ -12061
▁ㅈㅓㄹㅂㅕㄱ -12062
ㅋㅡㄹㄹㅣㄷㅡ -12063
▁ㅈㅣㅅㅏㅇㅍㅏ -12064
▁ㅋㅏㅁㅔㄹㅜㄴ -12065
▁ㅅㅐㅇㅈㅗㄴㅈㅏ -12066
▁ㄴㅏㄱㄷㅗㅇㄱㅏㅇ -12067
ㅐㅇㅇㅣ -12068
▁ㄷㅗㅋㅜ -12069
ㄹㅣㅇㅗㄴ -12070
▁ㅅㅣㅁㅅㅏㅇ -12071
▁ㅇㅔㅇㅣㅈㅡ -12072
▁ㅁㅣㅅㅜ -12073
▁ㅂㅏㄱㅡ -12074
ㅎㅘㅁㅜㄴ -12075
▁ㅍㅗㅌㅓㄹ -12076
▁ㄱㅏㄴㅊㅓㅂ -12077
▁ㅅㅜㄴㅈㅗㅇ -12078
▁ㅇㅕㄹㄱㅏㅇ -12079
▁ㅈㅓㅈㅣㄷㅐ -12080
▁BC -12081
ㅈㅏㄹㅜ -12082
ㅈㅣㄹㅗ -12083
▁ㅇㅠㅇㅢ -12084
▁ㅌㅔㄹㅏ -12085
▁ㄷㅗㄹㅏㅇ -12086
▁ㄹㅗㅇㅑㄹ -12087
▁ㄹㅣㅇㅗㅇ -12088
▁EM -12089
ㅈㅣㄴㅡㅇ -12090
▁ㄱㅓㄹㅏㄴ -12091
▁ㅅㅏㅁㅣㄴ -12092
▁ㄷㅐㄴㅏㅁㅜ -12093
▁ㅍㅡㄹㅏㅇㅅㅡㅇㅣㄴ -12094
▁ㅈㅔㅇㅟ -12095
▁ㅈㅣㅅㅓㄱ -12096
▁ㄱㅣㅁㄱㅘㅇ -12097
▁ㄸㅗㄱㄱㅏㅌㅇㅣ -12098
▁ㅌㅔㄱㅅㅏㅅㅡㅈㅜ -12099
▁ㅇㅣㄴㄱㅗㅇㅈㅣㄴㅡㅇ -12100
ann -12101
▁Bla -12102
ㅂㅣㅇㅑ -12103
▁ㅇㅛㅇㅇㅢ -12104
▁ㅂㅗㄹㅏ -12105
▁ㅋㅜㄴㅣ -12106
▁ㅅㅜㄱㅂㅜ -12107
▁ㅇㅟㄴㅓㅅㅡ -12108
▁ㅎㅏㄴㅗㅂㅓ -12109
▁ㄱㅡㄹㅐㄴㅌㅡ -12110
▁ㅇㅕㅅㅏ -12111
▁ㅇㅕㅅㅓ -12112
ㅌㅡㄴㅓㅁ -12113
▁ㅁㅏㅂㅓㅂㅅㅏ -12114
▁NASA -12115
▁ㅋㅗㅅㅣ -12116
▁ㅌㅡㄱㅎㅘ -12117
▁ㅅㅏㄴㄷㅜㅇ -12118
▁ㅇㅏㄹㅏㄱㅗㄴ -12119
▁ㅁㅏㄴㅣ -12120
ㅏㅇㅗㅋㅏ -12121
▁ㄱㅏㄹㅏㅇ -12122
▁ㅇㅏㄱㅂㅗ -12123
▁ㅎㅐㄷㅗㄱ -12124
▁ㅎㅘㅇㅅㅐㄱ -12125
▁ㅈㅔㅇㅣㅅㅡㄴ -12126
▁ㄱㅗㅂㅜㄴㄱㅜㄴ -12127
▁ㅈㅓㅂㅇㅓㄷㅡㄹ -12128
▁ㅂㅓㅁㅏ -12129
ㅜㄹㅣㅇㅏ -12130
▁ㅅㅏㄹㅣㅁ -12131
▁ㅎㅏㅇㅊㅔ -12132
▁ㅅㅣㄴㄱㅗㄱ -12133
▁ㅇㅜㄹㅜㅅㅡ -12134
▁ㅈㅗㅇㅇㅑㅇ -12135
▁ㅈㅣㅂㅈㅓㅇ -12136
▁ㅇㅕㄹㅅㅣㅁㅎㅣ -12137
▁OST -12138
▁ㄱㅗㅇㅏ -12139
▁ㅇㅗㄷㅣ -12140
▁ㅂㅣㅈㅓㅇ -12141
▁ㄱㅗㅇㅇㅕㅇ -12142
▁ㄴㅏㅁㅂㅏㅇ -12143
▁ㅇㅗㅁㅣ -12144
▁ㄴㅗㅁㅕㄴ -12145
▁ㅇㅕㄴㅎㅢ -12146
▁ㅁㅏㅇㅣㅇㅓ -12147
▁ㅈㅜㄹㄱㅣㅅㅔㅍㅗ -12148
ern -12149
▁ㅎㅗㅂ -12150
ㅎㅣㅅㅏ -12151
▁ㅅㅓㅎㅐ -12152
▁ㅍㅣㄹㅣ -12153
▁ㄱㅡㄱㅇㅜ -12154
▁ㅁㅗㄱㅓㄴ -12155
▁ㅊㅗㅋㅗㄹ -12156
▁ㄹㅣㅍㅡㅌㅡ -12157
▁ㅂㅜㄷㅣㅈㅎㅣ -12158
▁ㅍㅡㄹㅗㄱㅡㄹㅐㅁㅓ -12159
ㅍㅔㅅ -12160
▁Your -12161
▁ㄱㅛㅇㅢ -12162
▁ㄴㅗㅇㅇㅓ -12163
▁ㅁㅗㅅㅐㄱ -12164
▁ㅇㅜㅅㅏㄴ -12165
▁ㅈㅔㅇㅜㅅㅡ -12166
▁ㅌㅏㄴㅇㅑㄱ -12167
▁ㅁㅏㄴㅎㅘㄱㅏ -12168
▁ㄱㅘㄴㅎㅕㄴㅇㅏㄱㄷㅏㄴ -12169
ㄷㅡㅇㅣㄴ -12170
▁ㅅㅔㄹㅡㄱ -12171
▁ㅈㅔㅁㅕㅇ -12172
▁ㅊㅗㅇㄱㅕㄱ -12173
▁ㄷㅡㄱㅍㅛㅇㅠㄹ -12174
▁ㅇㅑㅁㅏㄱㅏㅌㅏ -12175
ㅇㅓㅅㅏ -12176
▁1883 -12177
▁ㅎㅐㅌㅐ -12178
▁ㅅㅜㅅㅣㄱ -12179
ㅍㅔㅅㅡㅌㅡ -12180
▁ㄴㅏㅁㄱㅜㄴ -12181
ㅏㅋㅣ -12182
▁ㅅㅓㄱㅟ -12183
▁ㅂㅗㄴㄸㅡ -12184
▁ㅇㅑㅁㅏㄴ -12185
▁ㅎㅐㅅㅏㅇㄷㅗ -12186
▁ㅈㅓㄱㄹㅛ -12187
▁ㅅㅓㄴㅁㅕㅇ -12188
▁ㅈㅓㅇㅊㅣㅎㅏㄱ -12189
80 -12190
ㅍㅜㄹㅇㅣ -12191
▁ㅈㅏㅁㅕㅇ -12192
▁ㅈㅗㅇㄹㅗ -12193
▁ㄱㅘㄴㅅㅏㅇ -12194
▁ㅇㅕㅇㅢㄷㅗ -12195
▁ㅈㅜㅇㅅㅗㄱ -12196
▁ㅍㅏㄴㅅㅗㄹㅣ -12197
ㅅㅓㅅㅡ -12198
▁ㄱㅖㅈㅜ -12199
▁ㄷㅐㅈㅘ -12200
▁ㅁㅗㅇㅛㄱ -12201
▁ㅇㅠㄱㅗㅇ -12202
▁ㅈㅜㅅㅏㅇ -12203
▁ㅇㅗㄴㄴㅏㄴ -12204
▁ㅈㅣㅂㅐㅈㅏ -12205
ㄷㅗㅇㅓ -12206
ㅝㄴㅅㅜ -12207
▁ㅍㅗㄱㅗ -12208
▁ㅎㅔㅂㅣ -12209
▁ㄱㅗㅎㅡㅇ -12210
▁ㅂㅏㅇㄷㅐ -12211
▁ㅇㅏㄴㄱㅐ -12212
▁ㅎㅏㄴㅅㅣㄴ -12213
▁ㄷㅓㅂㅡㄹㄹㅣㄴ -12214
ㄲㅏㅂ -12215
▁ref -12216
▁ㄹㅗㅋㅣ -12217
▁ㅁㅛㅂㅣ -12218
ㄴㅗㄹㅇㅣ -12219
▁ㄱㅟㅅㅣㄴ -12220
▁ㅈㅓㅁㅍㅗ -12221
▁ㅍㅕㅇㅈㅣ -12222
▁ㅇㅏㄴㅂㅏㅇ -12223
▁ㅂㅓㅂㅇㅝㄴㅈㅏㅇ -12224
CC -12225
▁FK -12226
▁tv -12227
ㅂㅓㄹㅡㄴ -12228
▁ㅋㅜㅂㅣㄹ -12229
▁ㅎㅗㄴㄷㅏ -12230
▁ㄱㅏㄴㄹㅑㄱ -12231
▁ㅇㅏㅇㅣㅈㅡ -12232
▁ㅇㅡㅇㄱㅡㅂ -12233
40 -12234
▁ㅅㅏㅇㅕㅇ -12235
▁ㅍㅏㅍㅜㅇ -12236
▁ㅇㅕㄹㅈㅓㄴ -12237
▁ㅇㅝㄴㅅㅏㄴㅈㅣ -12238
orn -12239
▁ㅁㅜㅉ -12240
▁ㄱㅏㄱㅏ -12241
▁ㅇㅏㅁㅗㄱ -12242
▁ㅇㅛㅇㅇㅐㄱ -12243
▁ㅅㅠㅍㅓㅋㅓㅂ -12244
▁Wind -12245
▁ㅇㅑㅇㅚ -12246
ㅋㅏㅇㅣㄴ -12247
▁ㄷㅓㅍㄱㅐ -12248
▁ㅅㅏㅂㅎㅘ -12249
▁ㅁㅜㄴㄷㅏㄴ -12250
▁ㅂㅜㅅㅏㅇㅈㅏ -12251
ㅅㅡㅌㅔㄹㅡㄷㅏㅁ -12252
▁ㅋㅜㅂㅣㄹㄹㅏㅇㅣ -12253
▁RP -12254
ㄷㅡㄹㅣㅇㅏ -12255
▁ㅁㅜㅉㅣㄹㅡ -12256
▁ㅅㅓㅇㄷㅗㅇ -12257
▁ㅇㅑㅇㅅㅣㅁ -12258
▁ㅂㅗㅅㅜㅈㅜㅇㅢ -12259
▁ㅇㅜㅇㅔ -12260
▁ㄱㅓㅅㅓㅇ -12261
▁ㄱㅣㅈㅓㄴ -12262
▁ㄷㅏㄴㄱㅕㄹ -12263
▁ㅂㅡㄹㅔㅇㅣ -12264
▁ㅎㅏㄴㄱㅕㄹ -12265
▁RS -12266
▁1882 -12267
▁ㄴㅗㄱㅎㅘ -12268
▁ㄱㅜㄱㅎㅏㄴ -12269
▁ㅅㅓㄹㅁㅜㄴ -12270
▁ㅇㅕㄴㄱㅜㄱ -12271
▁ㅍㅐㄹㅓㄷㅣ -12272
▁ㅇㅔㅇㅣㅈㅓㄴ -12273
▁ㅇㅣㅇㅛㅇㄱㅐㄱ -12274
▁ㅈㅣㅂㅜㅇㄷㅗㄹ -12275
▁ㅌㅐㅁ -12276
ㅂㅓㄹㅓ -12277
▁ㄷㅐㅁㅏ -12278
▁ㅂㅔㅌㅡ -12279
▁ㅂㅜㅇㅏㄴ -12280
▁ㅈㅣㅂㅓㅂ -12281
▁ㅇㅣㄹㄱㅏㄱ -12282
▁ㅌㅗㅁㅏㅌㅗ -12283
▁ㅇㅔㅅㅡㅍㅔㄹ -12284
▁ㄷㅏㄴㅊㅔㅈㅓㄴ -12285
▁ㄱㅏㄷㅜ -12286
▁ㅎㅏㄴㅁㅣ -12287
▁ㄷㅗㅇㅅㅏㄴ -12288
▁ㅎㅔㅇㅓㅈㅣ -12289
▁ㅁㅕㅇㅎㅘㄱㅎㅣ -12290
ㅏㄴㅡㄴ -12291
▁ㅇㅛㅈㅓㄹ -12292
▁ㄷㅏㄴㄱㅜㄴ -12293
▁ㄷㅗㅇㅈㅣㄴ -12294
▁ㅅㅏㅇㄹㅗㄱ -12295
▁ㅇㅞㅅㅡㅌㅡㅁ -12296
ink -12297
▁SNS -12298
▁new -12299
▁ㄴㅏㅇㅣㄴ -12300
▁ㄱㅘㄴㅁㅗㄱ -12301
▁ㅅㅗㄱㄹㅕㄱ -12302
▁ㅇㅟㄱㅜㄹㅡ -12303
▁Ge -12304
▁ㅍㅔㅅㅡ -12305
▁ㅃㅏㅈㅕㄴ -12306
▁ㅇㅓㅂㅈㅏ -12307
▁ㅇㅣㄱㅅㅜㄱ -12308
▁ㅎㅠㄱㅔㅅㅗ -12309
▁Day -12310
▁ㄱㅏㄱㅗ -12311
ㅇㅏㄷㅡㄹ -12312
▁ㄴㅐㅇㅣㄹ -12313
▁ㅅㅜㅇㅕㄹ -12314
▁ㅈㅐㅍㅕㄴ -12315
▁ㅈㅔㅊㅓㄴ -12316
▁ㅅㅓㄴㅂㅗㅇ -12317
▁ㅇㅣㅅㅡㅌㅏㄴ -12318
▁ㅁㅣㅅㅡㅌㅓㄹㅣ -12319
▁ㅈㅔㄱㅏㄹㄹㅑㅇ -12320
▁ㅅㅓㅌㅐ -12321
▁ㅋㅜㅍㅓ -12322
ㅈㅔㅍㅜㅁ -12323
▁ㅇㅠㅅㅐㅇ -12324
▁ㄱㅗㅇㅅㅓㅇ -12325
▁ㅎㅏㅁㄹㅑㅇ -12326
▁ㅇㅕㄴㄱㅜㅎㅚ -12327
▁ㅅㅣㅈㅡㅇㅗㅋㅏ -12328
▁ㅈㅓㅇㅂㅗㅇㅝㄴ -12329
▁ㅈㅜㅇㅅㅗㄱㅣㅇㅓㅂ -12330
ㅐㄴㅌㅣㄱ -12331
ㅊㅜㅂㅜㅅㅏ -12332
▁ㅎㅕㅇㅂㅓㄹ -12333
II -12334
▁Sch -12335
▁ㅋㅏㅅㅏ -12336
▁ㄱㅗㅇㅁㅜ -12337
▁ㄷㅏㄷㅡㅁ -12338
▁ㅈㅜㅇㅇㅕㅂ -12339
▁ㅇㅏㅇㅣㅇㅓㄴ -12340
▁ㅊㅔㅇㅣㄴㅈㅣ -12341
ㅋㅗㄹㅡ -12342
ㅍㅗㅅㅣ -12343
ㅏㅇㅣㅁ -12344
▁ㄱㅗㄹㄱㅕㄱ -12345
▁ㄷㅔㄴㅣㅅㅡ -12346
▁ㄷㅣㄹㄹㅓㄴ -12347
▁ㅂㅡㄹㄹㅜㅁ -12348
▁ㅍㅡㄹㅣㄴㅅㅡ -12349
▁ㅎㅐㅇㅏㄴㅅㅓㄴ -12350
ㅟㄹㅡ -12351
▁ㅋㅐㄹ -12352
ㅞㅇㅣㅌㅡ -12353
▁ㅅㅏㄴㅇㅛ -12354
ㅎㅏㅂㅅㅓㅇ -12355
▁ㅍㅕㅇㅍㅏㄴ -12356
▁ㄴㅏㄹㅇㅏㄱㅏ -12357
▁ㄷㅏㅌㅜㅁ -12358
▁ㅁㅏㄸㅏㅇ -12359
▁ㅂㅜㅇㅘㅇ -12360
▁ㅅㅏㄴㅅㅣ -12361
▁ㅈㅓㅇㅇㅡㄴ -12362
▁ㄷㅐㄹㅣㅇㅣㄴ -12363
▁ㄴㅗㅂㅔㄹㅅㅏㅇ -12364
▁ㅍㅏㅇㅣㄹㄹㅓㅅ -12365
ㄷㅡㅇㅟ -12366
ㄹㅗㅈㅣ -12367
▁ㅅㅏㅅㅓ -12368
▁ㅅㅡㄴㅗ -12369
▁ㄱㅓㅁㄱㅓ -12370
▁ㄴㅏㄲㅅㅣ -12371
▁ㅅㅔㅅㅡㅂ -12372
▁ㅁㅗㄴㅌㅔㄴ -12373
ㅌㅔㅇㅣㅅㅕㄴ -12374
ㅋㅏㄴㅏ -12375
▁ㅇㅜㅅㅣ -12376
▁ㅋㅏㅍㅣ -12377
ㅁㅏㄹㄹㅏ -12378
▁ㅇㅝㄴㄹㅗ -12379
▁ㄱㅐㄱㅜㄹㅣ -12380
▁ㅇㅕㄴㄹㅣㅂ -12381
▁ㅇㅕㅇㅎㅘㅅㅏㅇ -12382
▁ㅈㅗㄱㅛ -12383
▁ㅇㅝㄹㅌㅓ -12384
▁ㅋㅔㄹㅌㅡ -12385
▁ㄷㅡㄷㅣㅇㅓ -12386
▁ㄴㅣㅋㅣ -12387
▁ㄱㅡㅂㅇㅕ -12388
▁ㅇㅡㄴㅎㅖ -12389
▁ㅂㅏㄷㄷㅡㄹ -12390
▁ㅇㅐㅇㄱㅡㄹ -12391
▁ㄱㅕㅇㅈㅜㅅㅣ -12392
▁ㅁㅔㄹㅂㅓㄹㅡㄴ -12393
▁ㅂㅏㅇㅅㅏㄴㅡㅇ -12394
▁ㅍㅣㄹㄹㅣㅂㅅㅡ -12395
▁ㅂㅡㄹㅜㅋㅡㄹㄹㅣㄴ -12396
ㅉㅜㄱ -12397
▁ㄱㅜㄷㅜ -12398
▁ㄱㅜㄹㅡ -12399
▁ㄱㅏㅎㅗㄱ -12400
▁ㅈㅣㄴㄹㅗ -12401
ㅈㅏㄴㅣㅇㅏ -12402
▁ㄴㅗㄹㅡㅁㅏㅇㄷㅣ -12403
OT -12404
▁GM -12405
ㄷㅡㄹㅔ -12406
ㅅㅓㄴㅣ -12407
▁ㄱㅘㅌㅔ -12408
▁ㅂㅗㄹㅗ -12409
▁ㅅㅜㅇㅟ -12410
ㄷㅗㄹㅇㅣ -12411
▁ㅆㅣㅈㅗㄱ -12412
▁ㅂㅏㄱㅡㄴㅓ -12413
▁ㅈㅓㅇㅇㅝㄹ -12414
▁ㄱㅘㅌㅔㅁㅏㄹㄹㅏ -12415
▁ㄱㅛㅎㅑㅇㅇㅏㄱㄷㅏㄴ -12416
▁SA -12417
▁ㅂㅜㄷㅏ -12418
▁ㅁㅗㅂㅓㅁ -12419
▁ㅈㅓㄹㄱㅏㅁ -12420
▁ㅋㅗㄴㅅㅗㄹ -12421
▁ㄱㅡㄹㅏㅇㅜㄴㄷㅡ -12422
▁ㅇㅏㄴㅏㄹㄹㅗㄱㅡ -12423
▁ㄱㅡㅈㅓ -12424
▁ㅋㅗㅅㅗ -12425
▁ㄱㅘㄴㄹㅖ -12426
▁ㅊㅚㅇㅕㅇ -12427
▁ㅂㅏㄹㅅㅏㅇ -12428
▁ㅂㅗㅇㅇㅣㄴ -12429
▁colspan -12430
▁ㅈㅜㄱㅖㅇㅕㄹ -12431
▁ㅇㅓㅍㅏ -12432
ㅂㅣㄱㅜㄴ -12433
▁ㄱㅏㅇㄷㅏㅇ -12434
▁ㄷㅏㄴㅅㅗㄱ -12435
▁ㅂㅓㄴㅊㅏㅇ -12436
▁ㅊㅣㄴㅈㅗㄱ -12437
▁ㄹㅔㄷㅡㅅㅏㄱㅅㅡ -12438
▁ㅅㅡㅁㅣ -12439
▁ㅈㅐㄹㅐ -12440
ㅁㅏㄹㄹㅣ -12441
▁ㄱㅏㅈㅜㅇ -12442
▁ㄱㅗㅇㅅㅗ -12443
▁ㅅㅣㄱㅅㅡ -12444
▁ㅅㅏㄴㅌㅣㅇ -12445
▁ㅈㅣㄱㅅㅗㄱ -12446
▁ㅎㅕㅂㅇㅓㅂ -12447
▁ㅁㅗㄴㅌㅔㄴㅔㄱㅡㄹㅗ -12448
ㄷㅟ -12449
▁ㄷㅗㅍㅣ -12450
▁ㅎㅏㅋㅗ -12451
▁ㅂㅜㅎㅏㅂ -12452
▁ㅈㅔㄷㅏㄴ -12453
▁ㅂㅜㄱㄱㅜㄴ -12454
▁ㅈㅓㅇㅈㅓㅇ -12455
▁ㅅㅏㅇㅓㅂㅅㅗ -12456
▁ㅈㅓㅇㅇㅢㄷㅏㅇ -12457
▁ㅇㅠㅋㅡㄹㄹㅣㄷㅡ -12458
▁Or -12459
ㄴㅣㅁ -12460
ㅏㄱㅟ -12461
ㅐㄱㅡ -12462
ㄷㅗㄹㅏ -12463
ㅡㅅㅔㄴ -12464
▁ㄱㅕㅇㅇㅟ -12465
▁ㅈㅣㄱㅡㄱ -12466
▁ㅂㅏㄱㅅㅓㅇ -12467
ㅗㅅㅗㄱㄷㅗㄹㅗ -12468
▁ㅋㅣㅂ -12469
ㅋㅔㅇㅣ -12470
▁ㄱㅣㅅㅔ -12471
▁ㅌㅐㅎㅜ -12472
ㅅㅏㄹㅕㄱ -12473
ㅎㅏㄱㅔㄴ -12474
▁ㅅㅓㅊㅗㄱ -12475
▁ㅎㅏㅇㅇㅝㄴ -12476
▁ㅅㅏㅅㅜ -12477
▁ㄷㅗㅂㅏㄱ -12478
▁ㅈㅓㅇㄹㅕㅇ -12479
▁ㅊㅜㅇㄹㅕㄹ -12480
▁ㅅㅏㅇㅣㅌㅏㅁㅏ -12481
▁ㅌㅗㅇㅅㅣㄴㅅㅏ -12482
▁ㅋㅓㄴㅌㅡㄹㅗㄹㄹㅓ -12483
▁ㄹㅣㅈㅡ -12484
▁ㅂㅏㅈㅣ -12485
▁ㅇㅠㅅㅓ -12486
ㅂㅗㄴㅂㅜ -12487
ㅏㄹㅣㅋㅏ -12488
▁ㄱㅗㅇㅎㅘㅈㅓㅇ -12489
▁ㅋㅗㅍㅔㄴ -12490
▁ㅌㅏㄹㅏㄱ -12491
▁ㄴㅔㄹㅅㅡㄴ -12492
▁ㅇㅕㅇㅇㅏㅁ -12493
▁ㅎㅛㄱㅗㅎㅕㄴ -12494
▁ㅇㅏㅇㄱㅗㄹㄹㅏ -12495
US -12496
▁end -12497
▁ㅎㅚㄱㅟ -12498
▁ㄱㅜㄱㅇㅚ -12499
▁ㅇㅛㅇㅑㅇ -12500
▁ㄷㅐㅍㅛㅈㅏ -12501
▁ㄷㅗㅇㅈㅓㄱ -12502
▁ㅇㅕㅇㄷㅓㄱ -12503
▁ㅁㅣㅌㅗㅋㅗㄴ -12504
▁ㅁㅣㅌㅗㅋㅗㄴㄷㅡㄹㅣㅇㅏ -12505
▁4000 -12506
▁ㄱㅗㄹㅗ -12507
▁ㅂㅜㅍㅏ -12508
▁ㅎㅜㅇㅖ -12509
▁ㄱㅝㄴㅇㅕㄱ -12510
▁ㅈㅗㅇㅇㅕㅇ -12511
▁ㅍㅕㄴㄱㅕㄴ -12512
▁ㄷㅐㄷㅏㄴㅎㅣ -12513
▁ㅅㅣㄴㅈㅜㅋㅜ -12514
▁330 -12515
▁ㄱㅏㄴㅅㅏ -12516
▁ㄹㅏㅇㅜㄹ -12517
▁ㅈㅗㅅㅔㅂ -12518
▁ㅋㅡㄹㅣㅇ -12519
▁ㄱㅏㄴㅅㅣㄴㅎㅣ -12520
ㅗㅌㅡ -12521
▁ㅊㅜㅅㅓ -12522
ㄱㅛㅌㅗㅇ -12523
ㅊㅣㅎㅣ -12524
▁ㅈㅗㅅㅠ -12525
▁ㄷㅐㅊㅓㅇ -12526
▁ㄹㅗㅁㅏㅈㅏ -12527
▁ㄱㅣㅁㅇㅗㄱㄱㅠㄴ -12528
▁ㅌㅏㅅㅜ -12529
▁ㄱㅣㄹㅑㅇ -12530
▁ㅈㅜㅊㅏㅇ -12531
▁ㅅㅣㄱㅇㅛㅇ -12532
▁ㅇㅕㅇㅇㅝㄹ -12533
▁ㅇㅘㅇㄱㅜㅇ -12534
▁ㅎㅏㄹㅇㅣㄴ -12535
▁ㄹㅔㅇㅗㅍㅗㄹ -12536
▁ㅇㅗㅇㅣㄹㄹㅓ -12537
▁ㄷㅐㅂㅓㅂㄱㅘㄴ -12538
▁ㅇㅣㅅㅡㅌㅏㄴㅂㅜㄹ -12539
▁ㄷㅡㅂ -12540
▁ㅋㅐㅅ -12541
ㅓㄹㅅㅡ -12542
▁ㄱㅗㅅㅐㅇ -12543
▁ㅈㅜㅅㅓㄴ -12544
▁ㅊㅚㅅㅓㄴ -12545
▁ㅇㅓㅅㅣㅅㅡㅌㅡ -12546
▁ㅁㅔㄹㅣㄹㄹㅐㄴㄷㅡ -12547
oll -12548
ㅌㅏㄴㅏ -12549
▁1868 -12550
▁ㅂㅐㅂㅜㄴ -12551
▁ㄷㅏㄴㅁㅏㄹ -12552
▁ㅅㅜㅇㅛㅇㅣㄹ -12553
▁ㄱㅣㄴㅕㅁㅇㅣㄹ -12554
ㅔㄱㅗ -12555
▁ㅂㅐㄷㅏㄹ -12556
▁ㅅㅓㅁㅕㄴ -12557
▁ㅇㅏㄴㅌㅣㅇㅗ -12558
▁by -12559
▁ㅍㅗㅌㅗ -12560
ㅇㅠㅇㅎㅏㅂ -12561
▁ㄷㅗㅇㅅㅣㄷㅐ -12562
ㅌㅣㅁㅗㅇㅓ -12563
▁ㄴㄷㅏㅁㅕㄴ -12564
▁ㅅㅣㄹㅈㅡㅇ -12565
▁ㅇㅛㅊㅜㅇㅈㅣ -12566
▁ㅍㅔㅂ -12567
▁ㅈㅔㄴㅗ -12568
ㅎㅗㄹㅏㄴ -12569
▁ㅈㅗㄱㅂㅗ -12570
▁ㅋㅏㅌㅜㄴ -12571
▁ㅂㅜㄱㅇㅠㄹㅓㅂ -12572
▁ㅎㅐㄱㅇㅠㅇㅎㅏㅂ -12573
ㅋㅏㄹㄹㅣ -12574
▁ㄷㅐㄷㅓㄱ -12575
▁ㅇㅜㅇㅘㅇ -12576
▁ㅍㅏㅂㅓㄹ -12577
▁ㅋㅓㄹㅣㅇㅓ -12578
gin -12579
▁ㄱㅡㅂㅈㅡㅇ -12580
▁ㅅㅓㅇㅇㅝㄴ -12581
▁ㅊㅜㄱㅅㅏㄴ -12582
▁ㅇㅏㅋㅔㅇㅣㄷㅡ -12583
▁ㅆㅏㄱ -12584
▁ㄷㅗㄹㅐ -12585
ㅁㅏㄹㄹㅗ -12586
▁ㅂㅜㄹㄱㅖ -12587
▁ㅇㅠㅇㅕㅇ -12588
ㅌㅗㄹㅣㅋㅗ -12589
▁ㄷㅏㄴㅈㅓㅇ -12590
▁ㅅㅣㄴㅇㅣㅂ -12591
▁ㅂㅣㅅㅓㄱㅘㄴ -12592
▁ㅅㅓㄴㅈㅣㄴㄱㅜㄱ -12593
amp -12594
▁OB -12595
▁Girl -12596
▁ㅇㅠㄱㅗ -12597
▁ㅊㅚㅈㅣㄴ -12598
▁ㅎㅏㅇㄹㅗ -12599
▁ㅌㅔㄴㅔㅅㅣ -12600
▁320 -12601
▁ㅇㅟㅊㅗㄱ -12602
▁ㅁㅜㄴㅈㅗㅇ -12603
▁ㅋㅗㄹㄹㅓㅁ -12604
▁ㅍㅡㄹㅏㄴㅅㅣㅅㅡㅋㅗ -12605
ㅔㅁㅔㄴ -12606
▁ㄷㅟㅇㅣ -12607
ㅂㅜㄱㄱㅜ -12608
▁ㅁㅏㅆㅡㅁ -12609
▁ㅁㅗㅌㅓㅅ -12610
▁ㅂㅡㄹㅏㅁ -12611
▁ㅎㅏㄱㄹㅕㄱ -12612
▁ㅈㅓㄴㅂㅏㄴㄱㅣ -12613
▁ㅍㅣㅅ -12614
▁ㄱㅏㅇㅜ -12615
▁ㄹㅏㄱㅏ -12616
▁ㅅㅗㅇㅚ -12617
▁ㅎㅐㅍㅣ -12618
▁ㅂㅗㄹㅡㅁ -12619
▁ㅊㅏㅅㅓㄴ -12620
▁ㅈㅗㅇㅅㅣㄴ -12621
▁ㅋㅓㄴㅅㅓㄹ -12622
▁ㅅㅡㅋㅐㄴㄷㅡㄹ -12623
ㄱㅗㅇㅅㅏㄴㄷㅏㅇ -12624
▁ㄱㅘㄴㄱㅖㅇㅓㅄㅇㅣ -12625
RT -12626
ㅗㄴㅗ -12627
▁ㄴㅑㅇ -12628
ㅇㅡㄹㅗ -12629
▁ㅇㅚㄱㅘ -12630
▁ㅌㅡㅇㅣ -12631
▁ㄱㅕㄹㅅㅏ -12632
▁ㅇㅓㅇㅞㅇㅣ -12633
▁ㅋㅗㅍㅔㄴㅎㅏㄱㅔㄴ -12634
▁ㅋㅏㅁㅣ -12635
▁ㅁㅜㅅㅓㅂ -12636
▁ㅅㅓㅇㅅㅏㄴ -12637
▁ㅇㅣㅂㅏㅈㅣ -12638
▁ㅅㅏㅇㅣㅁㅓㄴ -12639
▁ㅇㅗㅅㅡㅌㅣㄴ -12640
▁ㅍㅛㅇ -12641
ㅎㅣㄷㅡ -12642
▁ㅎㅏㅇㅢ -12643
▁ㄹㅐㅇㅋㅡ -12644
▁ㅅㅣㅌㅡㅋㅗㅁ -12645
▁ㅇㅏㅁㅅㅡㅌㅔㄹㅡㄷㅏㅁ -12646
▁ㅍㅜㅇㅔㄹㅡㅌㅗㄹㅣㅋㅗ -12647
ㅈㅣㄱㅐ -12648
▁ㄲㅓㄴㅐ -12649
▁ㅇㅝㅋㅓ -12650
▁ㄷㅗㅅㅏㅇ -12651
▁ㅁㅓㅅㅈㅣ -12652
▁ㅊㅗㅇㅏㄴ -12653
ㄱㅡㄹㅏㄷㅡ -12654
▁ㅇㅕㅇㅊㅓㄴ -12655
▁ㅍㅡㄹㅐㄴㅊ -12656
ㅜㅌㅡ -12657
▁ㄹㅣㅁㅏ -12658
▁ㅅㅑㅍㅡ -12659
▁ㅇㅣㄴㅗ -12660
▁ㅅㅏㅊㅓㄴ -12661
▁ㄱㅏㅇㅅㅓㅇ -12662
▁ㄱㅜㄴㅂㅓㄹ -12663
▁ㅇㅑㅁㅏㅁㅗㅌㅗ -12664
▁DF -12665
ㅕㅈㅣ -12666
▁ㅎㅣㅌㅏ -12667
ㅂㅡㄹㄹㅣ -12668
▁ㄱㅘㄴㅇㅜ -12669
▁ㄱㅜㄱㄱㅛ -12670
▁ㄹㅓㅇㅣㄹ -12671
▁ㅎㅣㅂㅡㄹㅣ -12672
▁ㅅㅏㄹㅗㅈㅏㅂㅎㅣ -12673
▁Fe -12674
▁ㄱㅏㅌㅗ -12675
▁ㄹㅏㄱㅣ -12676
▁ㅇㅠㅇㅜ -12677
▁ㅇㅚㅎㅕㅇ -12678
▁ㅎㅏㄴㅈㅏㅇ -12679
▁ㅂㅡㄹㅟㅅㅔㄹ -12680
▁ㅇㅖㅋㅓㄴㄷㅐ -12681
▁ㅎㅔㅇㅣㅇㅏㄴ -12682
ㅈㅣㄴㅡㄹㅓㅁㅣ -12683
▁ㅋㅗㅅㅡㅌㅏㄹㅣㅋㅏ -12684
gr -12685
ㅅㅗㅅ -12686
▁ㅂㅏㅇㅗ -12687
▁ㅌㅏㄹㅗ -12688
▁ㄴㅔㅇㅣㅁ -12689
▁ㅍㅓㅈㅡㄹ -12690
▁ㅂㅏㄱㅅㅏㅇ -12691
▁ㅅㅏㅇㄱㅜㄱ -12692
▁ㅊㅜㄱㅈㅓㄴ -12693
▁ㅎㅗㅅㅡㅌㅡ -12694
▁ㅋㅜㅇㅞㅇㅣㅌㅡ -12695
ㅅㅏㅇㅜ -12696
ㅎㅕㅂㅎㅚ -12697
▁ㅇㅡㄴㅅㅣㄴ -12698
▁ㅅㅓㅎㅐㅇㅏㄴ -12699
▁ㅇㅕㅇㅇㅝㄴㅎㅣ -12700
▁ㅌㅔㄹㄹㅔㅋㅗㅁ -12701
▁ㅁㅏㅊㅡ -12702
▁ㅈㅗㅈㅔ -12703
ㅈㅣㅇㅐㄴㅏ -12704
▁ㄷㅐㅅㅏㅇㅈㅏ -12705
▁ㅅㅡㅋㅏㄹㄹㅏ -12706
▁ㅇㅔㄹㅡㄴㅅㅡㅌㅡ -12707
▁ㄹㅜㅇㅣㅈㅣㅇㅐㄴㅏ -12708
OW -12709
▁ㅇㅓㄱㅣ -12710
ㄱㅡㄹㄹㅣ -12711
▁ㄱㅠㅌㅏㄴ -12712
▁ㄹㅣㅌㅠㅁ -12713
▁ㅂㅜㅌㅈㅏㅂ -12714
▁ㅈㅏㅁㄲㅏㄴ -12715
▁ㅈㅓㅂㅈㅗㅇ -12716
▁ㅎㅓㄴㅈㅏㅇ -12717
ㄷㅣㄴㅏㅂㅣㅇㅏ -12718
▁ㅅㅏㄴㅌㅣㅇㅏㄱㅗ -12719
▁ㅇㅕㄴㅈㅏㅇㅈㅓㄴ -12720
▁ㅅㅡㅋㅏㄴㄷㅣㄴㅏㅂㅣㅇㅏ -12721
▁ㄱㅜㄴㅣ -12722
ㅍㅏㅇㅇㅣ -12723
▁ㄱㅛㅈㅣㄱ -12724
▁ㅁㅗㄹㅌㅏ -12725
▁ㅂㅔㅍㅜㄹ -12726
▁ㅇㅔㄴㄹㅣ -12727
▁ㅈㅜㅅㅓㅇ -12728
▁ㅂㅏㄹㄷㅗㅇ -12729
▁ㅂㅓㅂㄱㅘㄴ -12730
▁ㅎㅏㅁㅎㅡㅇ -12731
▁ㅍㅡㄹㅐㄴㅊㅏㅇㅣㅈㅡ -12732
▁ㅅㅏㅎㅚㅁㅣㄴㅈㅜㄷㅏㅇ -12733
▁ㄴㅗㅇㅏ -12734
▁ㅂㅗㄹㅜ -12735
▁ㄷㅏㅁㅂㅗ -12736
▁ㅇㅔㅇㅣㄴ -12737
▁ㅇㅜㅇㅝㄹ -12738
▁ㅂㅏㄹㅈㅓㄴㄱㅣ -12739
▁ㅂㅜㄹㄱㅖㅅㅡㅇ -12740
▁ㅊㅓㄴㅇㅏㄴㅅㅣ -12741
▁ㅇㅟㅈㅗ -12742
▁ㄱㅗㅇㅗㄴ -12743
▁ㅅㅏㅇㅇㅓ -12744
▁ㅈㅓㅇㅁㅗㅇ -12745
▁ㅂㅓㅂㅈㅗㅇㅣㄴ -12746
▁le -12747
▁ㄱㅘㅁ -12748
▁ㄱㅗㅇㅢ -12749
▁ㅁㅔㅅㅡ -12750
▁ㅊㅣㅎㅏ -12751
▁ㄷㅐㅇㅣㄴ -12752
▁ㅈㅗㅇㅕㅇ -12753
▁ㅊㅜㄹㄷㅗㅇ -12754
▁ㄴㅣㅋㅗㄹㄹㅏㅅㅡ -12755
▁ㅂㅗㄱㅇㅡㅁㅈㅜㅇㅢ -12756
▁ㅎㅜㅋㅜㅇㅗㅋㅏㅎㅕㄴ -12757
ung -12758
▁1893 -12759
▁ㄹㅔㅍㅡ -12760
▁ㅂㅜㄱㅛ -12761
▁ㄴㅗㄹㅏㅇ -12762
▁ㄷㅗㅇㅍㅗ -12763
▁ㅅㅔㄹㅕㄴ -12764
▁ㅇㅠㅎㅏㄱㅈㅏ -12765
▁203 -12766
▁ㄱㅐㅅ -12767
ㅁㅣㅅㅏ -12768
▁ㄷㅐㄷㅗ -12769
▁ㄹㅣㅋㅗ -12770
▁ㄷㅗㅇㅑㅁㅏ -12771
▁ㅊㅡㄱㄹㅑㅇ -12772
▁ㄱㅛㅇㅠㄱㅈㅏ -12773
▁ㄹㅏㅇㅣㄴㅇㅓㅂ -12774
ㅣㄹㄹㅗ -12775
▁ㅇㅗㅋㅜ -12776
▁ㅂㅡㄹㄹㅗ -12777
▁ㅍㅖㄹㅕㅁ -12778
▁ㄱㅕㄹㅎㅐㄱ -12779
▁ㄱㅜㄱㅊㅓㄹ -12780
▁ㅈㅡㅇㅍㅗㄱ -12781
▁ㅋㅏㅌㅏㄹㄹㅜㄴㅑ -12782
▁ㅇㅣㅌㅏㄹㄹㅣㅇㅏㅇㅓ -12783
ㅎㅡㄺ -12784
ㅣㅍㅏ -12785
ㅍㅡㄹㅔ -12786
▁ㄱㅓㅊㅓ -12787
▁ㅅㅡㅋㅣㅁ -12788
▁ㅇㅔㄴㄷㅡ -12789
▁ㅈㅏㅇㄷㅓㄱ -12790
▁ㅈㅜㄴㅈㅏㅇ -12791
▁Univers -12792
▁ㅈㅏㅅㅓㅈㅓㄴ -12793
▁ㅍㅔㄹㄹㅣㄱㅅㅡ -12794
▁ㅌㅏㄴㅈㅏㄴㅣㅇㅏ -12795
ㅎㅐㅈㅏ -12796
▁ㄴㅗㅎㅜ -12797
▁ㅈㅓㅈㅗ -12798
ㄷㅏㄴㅈㅣ -12799
▁ㄲㅡㅀㅇㅣ -12800
▁ㅁㅏㄱㅡㄴ -12801
▁ㅇㅓㄺㅎㅣ -12802
▁ㄱㅡㅁㄷㅗㅇ -12803
▁ㅅㅓㄴㅇㅣㄴ -12804
▁ㅈㅓㅇㅂㅏㄴ -12805
▁ㅈㅣㄱㅎㅐㅇ -12806
▁ㄷㅗㄱㅅㅜㄹㅣ -12807
▁ㅇㅕㅅㅓㅇㅈㅜㅇㅢ -12808
ㅇㅜㄹㅣ -12809
ㅎㅕㄴㅐ -12810
▁ㄴㅓㅁㅓ -12811
▁ㅁㅗㄷㅓㄴ -12812
▁ㄱㅣㅁㅊㅓㄴ -12813
▁ㅎㅏㄱㅈㅏㅇ -12814
▁ㅂㅏㄺㅎㅕㄴㅐ -12815
▁ㄱㅡㅂㅅㅗㄱㅎㅣ -12816
▁ㅇㅔㅅㅡㅍㅔㄹㅏㄴㅌㅗ -12817
▁TBS -12818
▁Rock -12819
▁ㅅㅏㅊㅣ -12820
▁ㅁㅔㅇㅣㄹ -12821
▁ㅎㅐㅇㅘㅇ -12822
▁ㄱㅣㅁㅇㅠㄴ -12823
▁ㅈㅏㅇㅂㅕㅇ -12824
▁ㅎㅏㅁㄱㅕㅇㅂㅜㄱㄷㅗ -12825
▁ㅇㅕㅁㄹㅕ -12826
▁ㅈㅓㄴㅅㅔ -12827
▁ㅊㅗㅈㅓㄴ -12828
▁ㅎㅓㄴㅌㅓ -12829
▁ㅋㅏㄹㅅㅠㅁ -12830
▁LED -12831
▁ㄴㅐㅂㅜㄴ -12832
▁ㅊㅓㅇㄱㅖ -12833
ㅌㅡㄹㅣㅅㅡ -12834
▁ㅇㅜㅇㅢㅈㅓㅇ -12835
▁ㅈㅘㅇㅢㅈㅓㅇ -12836
▁ㅍㅣㄱㅊㅓㅅㅡ -12837
▁ㄱㅏㄱㅗㅅㅣㅁㅏ -12838
▁ㅎㅘㅈㅏㅇㅍㅜㅁ -12839
▁ㅅㅏㅇㅜㄴㄷㅡㅌㅡㄹㅐㄱ -12840
▁NP -12841
ㄲㅓㅅ -12842
ㅂㅣㅋㅡ -12843
▁ㅁㅏㅋㅣ -12844
▁ㅂㅡㄹㅡ -12845
▁ㅇㅔㅍㅡ -12846
▁ㅎㅗㅅㅡ -12847
ㅅㅏㅇㅅㅣ -12848
▁ㅂㅓㅅㅓㅅ -12849
▁ㅍㅛㅈㅓㅇ -12850
▁ㅎㅏㄴㅋㅠ -12851
▁ㅎㅠㅇㅑㅇ -12852
▁ㅂㅜㄹㄱㅕㅇ -12853
▁ㅇㅏㅂㄹㅗㄱ -12854
▁ㄹㅔㅅ -12855
ㅂㅏㅇㅗ -12856
ublic -12857
▁ㄹㅣㅋㅏ -12858
▁ㅈㅜㅇㄱㅗㅇㄱㅜㄴ -12859
LA -12860
les -12861
▁Mo -12862
ㅋㅜㄴ -12863
▁Car -12864
▁ㄴㅔㅌㅣ -12865
▁ㄲㅡㄶㄱㅣ -12866
▁ㄴㅏㅁㅎㅏ -12867
▁ㅅㅜㄴㅊㅏ -12868
▁ㅇㅗㄴㅎㅘ -12869
▁ㄴㅡㅇㄷㅗㅇ -12870
▁ㄷㅗㅈㅏㄱㅣ -12871
▁ㅅㅓㅅㅏㅅㅣ -12872
eth -12873
ㅇㅣㅇㅓ -12874
▁ㄷㅗㄴㅔ -12875
▁ㅅㅏㅇㅏㄴ -12876
▁ㅈㅏㅇㄴㅕ -12877
▁ㄷㅗㅇㅎㅑㅇ -12878
▁ㅍㅡㄹㄹㅏㅇㅋㅡ -12879
▁ㅋㅓㄴㅌㅔㅇㅣㄴㅓ -12880
▁GNU -12881
▁IOC -12882
▁ㅉㅣㅈ -12883
▁ㅈㅗㄴㅣ -12884
ㄷㅏㅇㄱㅣ -12885
▁ㅂㅓㅁㅎㅏ -12886
ㅍㅗㄱㅌㅏㄴ -12887
▁ㅂㅓㅁㅎㅐㅇ -12888
▁ㅅㅓㅊㅗㄱㅜ -12889
▁ㅇㅛㅅㅣㄴㅗ -12890
▁ㅍㅖㄱㅣㅁㅜㄹ -12891
▁ㅎㅐㅇㅏㄴㄱㅏ -12892
▁ㄱㅜㄴㅅㅏㄹㅕㄱ -12893
▁ㅊㅗㅋㅗㄹㄹㅣㅅ -12894
▁Rec -12895
▁ㄱㅏㅇㅈㅣㄴ -12896
▁ㅂㅔㄹㅡㅌㅏ -12897
▁ㅅㅓㅇㅇㅏㄱ -12898
▁ㅈㅓㄴㅎㅏㄱ -12899
▁ㅊㅣㅇㅅㅗㅇ -12900
▁ㅍㅡㄹㅣㅅㅡ -12901
▁ㅂㅓㅌㅓ -12902
▁ㅂㅣㄷㅐ -12903
▁ㅎㅜㅎㅏ -12904
▁ㅇㅝㄹㅌㅡ -12905
ㄲㅗㄹㅣ -12906
▁from -12907
ㅅㅔㄹㄹㅓ -12908
▁ㄱㅐㄱㅊㅏ -12909
▁ㄱㅔㄲㅡㅁ -12910
▁ㄷㅐㄱㅏㅇ -12911
▁ㅎㅕㄴㅍㅏㄴ -12912
▁ㅂㅏㄹㅅㅏㅊㅔ -12913
▁ㅇㅠㅈㅓㄱㅈㅣ -12914
▁ㄱㅔㅇㅗㄹㅡㅋㅡ -12915
▁ㅁㅣㄴㅗ -12916
▁ㅇㅣㅎㅚ -12917
▁ㅈㅏㅈㅐ -12918
▁ㅅㅐㅇㄹㅣ -12919
▁ㅊㅓㄴㅁㅏ -12920
▁ㅎㅡㅂㅅㅏ -12921
▁ㄴㅗㅁㅣㅇㅑ -12922
▁ㅂㅣㅅㅡㅌㅏ -12923
▁ㅅㅡㅌㅡㄹㅗ -12924
▁Comp -12925
▁ㄱㅡㅁㅈㅓㄴ -12926
▁ㄱㅣㅁㅅㅓㄴ -12927
▁ㅍㅏㅅㅣㅈㅡㅁ -12928
▁ㅇㅟㅅㅂㅜㅂㅜㄴ -12929
▁280 -12930
▁ㅁㅣㅅ -12931
ㅌㅏㄱㅗ -12932
▁ㄴㅐㅁㅜ -12933
ㅇㅣㄱㅅㅡ -12934
▁ㄷㅏㅇㄴㅛ -12935
▁ㅇㅑㅇㅂㅗ -12936
▁ㅂㅜㄴㄷㅏㄴ -12937
▁ㅇㅣㄴㄱㅗㅇㅇㅟㅅㅓㅇ -12938
▁ㅍㅡㄹㄹㅗㄹㅣㄷㅏㅈㅜ -12939
▁ㅌㅔㅋ -12940
▁ㅈㅏㅅㅜ -12941
▁ㅅㅣㅅㅗㄱ -12942
▁ㅁㅕㅇㅇㅣㄴ -12943
▁ㅇㅏㅁㅁㅗㄴ -12944
▁ㅈㅣㅂㅏㅎㅕㄴ -12945
▁ㄱㅏㅇㅘㅅㅏㅋㅣ -12946
oth -12947
▁IV -12948
▁ㅊㅣㅇㅠ -12949
▁ㅋㅐㄹㅣ -12950
▁ㅅㅔㄹㄹㅔ -12951
▁ㅇㅜㅇㅔㅅㅡ -12952
▁ㄹㅣㅁㅣㄱㅅㅡ -12953
▁ㄷㅗㅋㅏㅇㅣㄷㅗ -12954
▁Sup -12955
▁ㅅㅣㅇㅜ -12956
▁ㄱㅜㄷㅗㄱ -12957
▁ㄷㅐㅈㅣㄴ -12958
▁ㅂㅏㅇㅜㄹ -12959
▁ㅅㅔㄱㅜㄴ -12960
▁ㄱㅗㅇㅇㅏㄴ -12961
▁ㅊㅓㅇㅅㅗㅇ -12962
▁ㅎㅕㅇㅍㅕㄴ -12963
▁ㄱㅕㄹㄱㅘㅁㅜㄹ -12964
ㅇㅣㄱㅅㅡㅍㅣㅇㅓ -12965
▁ㅅㅓㅈㅜ -12966
▁ㅈㅜㅅㅔ -12967
▁ㅎㅚㄱㅗ -12968
ㄷㅏㅇㅜㄴ -12969
▁ㅇㅟㄹㅕㄱ -12970
▁ㅎㅏㅇㅣㅂ -12971
▁ㅇㅣㅂㅏㄹㅏ -12972
▁ㅈㅏㄴㅇㅣㄴ -12973
▁ㅅㅖㅇㅣㄱㅅㅡㅍㅣㅇㅓ -12974
▁Am -12975
▁ㅈㅏㅇㅣ -12976
▁ㅍㅔㅇㅗ -12977
▁ㅎㅜㅇㅠ -12978
ㅎㅘㅎㅏㄱ -12979
ㅡㄱㅗㄴㅠ -12980
▁ㅇㅣㅂㅗㅇ -12981
▁ㅂㅗㄱㅈㅗㅇ -12982
▁ㅅㅡㅂㄱㅘㄴ -12983
▁ㅇㅏㅇㅜㄹㅡ -12984
▁ㅊㅓㅇㄹㅑㅇ -12985
▁ㅎㅏㄴㅁㅜㄴ -12986
▁ㅂㅜㄹㅡㄱㅗㄴㅠ -12987
▁ㅋㅓㄹㄹㅔㄱㅅㅕㄴ -12988
▁Su -12989
▁230 -12990
▁ㅇㅑㅋ -12991
ㅈㅔㅇㅣ -12992
▁ㄱㅜㅁㅏ -12993
▁ㅁㅔㅅㅗ -12994
▁ㅊㅣㅋㅏ -12995
▁ㅅㅣㅁㅜㄴ -12996
▁ㅌㅗㅁㅅㅡㄴ -12997
▁ㅍㅡㄹㄹㅗㄹ -12998
▁AB -12999
▁ㅇㅟㄹㅗ -13000
▁ㄱㅏㄱㄹㅛ -13001
▁ㅂㅜㄴㅅㅏ -13002
▁ㅈㅓㅁㄱㅓ -13003
▁ㅇㅣㅈㅡㅁㅣ -13004
▁ㅍㅡㄹㅏㄴㅊㅣ -13005
▁ㅁㅜㄴㅈㅏㅇㅕㄹ -13006
▁ㄴㅡㅍ -13007
ㅗㄱㅓㄴ -13008
▁ㅂㅐㄹㅣ -13009
ㅌㅐㅍㅕㅇ -13010
▁ㄱㅣㅁㅅㅡㅇ -13011
▁ㅇㅜㄴㅇㅣㅁ -13012
▁ㅁㅜㅅㅣㄹㅈㅓㅁ -13013
ㅃㅏㅇ -13014
ㅡㅇㅞ -13015
ㅍㅏㄱㅜ -13016
▁ㅁㅏㅋㅏ -13017
▁ㅅㅜㄹㅗ -13018
▁ㅁㅕㅇㅂㅜ -13019
▁ㅅㅜㄹㅑㅇ -13020
ㅣㄴㅅㅡㅌㅓ -13021
▁ㄹㅔㅇㅣㄴㅈㅓㅅㅡ -13022
▁ar -13023
▁1888 -13024
▁ㄷㅗㅇㅣ -13025
▁ㅂㅐㄱㅈㅏ -13026
▁ㄱㅘㄴㅅㅓㅇ -13027
▁ㄴㅗㅅㅡㅋㅐ -13028
▁ㅅㅐㄴㄷㅣㅇ -13029
▁ㄴㅗㅅㅡㅋㅐㄹㅗㄹㄹㅏㅇㅣㄴㅏ -13030
▁ㅇㅗㅇㅏ -13031
ㅣㅇㅔㄹㅡ -13032
▁ㅁㅣㅅㅓㅇ -13033
▁ㅁㅣㅅㅣㄱ -13034
ㄷㅡㄹㅏㅁㅏ -13035
▁ㄱㅗㅇㅇㅑㅇ -13036
▁ㅈㅣㅁㅅㅡㅇ -13037
▁ㅍㅔㄹㅡㅅㅣ -13038
▁ㅇㅟㅇㅏㄴㅂㅜ -13039
▁ㅈㅜㅇㅇㅏㅇㅇㅡㄴㅎㅐㅇ -13040
▁ㄴㅗㅇㅈㅣ -13041
▁ㅁㅏㅇㅊㅣ -13042
▁ㅇㅠㅈㅗㄱ -13043
▁ㄱㅏㄴㅈㅣㄱ -13044
▁ㅅㅓㄱㄱㅏㅁ -13045
▁ㅅㅔㅂㅣㅇㅑ -13046
▁ㅅㅏㅅㅏㅇㄱㅏ -13047
▁ㄴㅗㄱㅅㅐㄱㄷㅏㅇ -13048
▁ㄱㅕㄱㅌㅜ -13049
▁ㅈㅓㄹㅈㅔ -13050
▁ㅍㅏㅍㅕㄴ -13051
▁ㅎㅑㅇㄱㅣ -13052
▁ㄷㅔㅇㅣㅂㅡ -13053
▁ㅈㅣㅂㅊㅏㄱ -13054
▁ㅅㅡㅌㅐㄴㄹㅣ -13055
▁ㅁㅣㄴㅂㅕㅇㄷㅐ -13056
ㅡㅁㅗ -13057
▁1892 -13058
▁ㄷㅐㅊㅏ -13059
▁ㄹㅣㅂㅡ -13060
▁ㅇㅏㅋㅔ -13061
▁ㅌㅗㅇㅣ -13062
▁ㄴㅓㅁㅜㄴㅏ -13063
▁ㅅㅏㄴㅊㅓㅇ -13064
▁ㄱㅏㄹㅏㅇㅏㄵ -13065
▁Do -13066
▁ㅂㅓㄹㅓ -13067
▁ㅅㅏㅋㅓ -13068
▁ㅈㅓㄴㅁㅣ -13069
▁ㄷㅔㄹㅕㄱㅏ -13070
▁ㄷㅗㅇㅈㅗㅇ -13071
▁ㅇㅛㅇㅍㅜㅁ -13072
▁ㅇㅣㄴㅌㅓㄹ -13073
▁ㅊㅓㄴㅊㅓㄴ -13074
AI -13075
▁Sw -13076
▁ㅋㅔㅁ -13077
▁ㅍㅔㅇ -13078
▁ㄱㅕㄹㅜ -13079
▁ㄴㅏㅇㅜ -13080
▁ㅅㅡㄱㅏ -13081
▁ㅈㅡㅇㅇㅗ -13082
▁ㅇㅜㄹㄹㅡㅇ -13083
▁ㅎㅘㅇㅅㅏㄴ -13084
▁ㄷㅐㅁㅕㅇㅅㅏ -13085
▁ㄷㅔㅇㅣㄹㄹㅣ -13086
▁ㅂㅏㅅㅣㄹㄹㅣ -13087
▁ㄷㅔㅅㅡㅋㅡㅌㅗㅂ -13088
▁ㅅㅜㄴㅇㅑㅇㅎㅏㅁ -13089
▁ㄱㅗㅅㅡ -13090
▁ㄱㅜㅊㅣ -13091
▁ㅇㅣㅂㅓㅁ -13092
▁ㅊㅔㄹㄹㅗ -13093
▁ㅅㅜㄴㅏㄹㅏ -13094
▁ㄱㅣㅇㅓㅂㄱㅏ -13095
▁ㄱㅏㅁㅕㄴㄹㅏㅇㅣㄷㅓ -13096
▁ㅍㅡㄹㅔㅇㅣㅁㅇㅝㅋㅡ -13097
▁wh -13098
▁ㄱㅗㄴㅗ -13099
▁ㄴㅗㅍㅡ -13100
▁ㅋㅏㅇㅘ -13101
▁ㄹㅐㅁㅍㅡ -13102
▁ㅁㅔㅌㅣㄹ -13103
▁ㅇㅐㅇㅣㄴ -13104
▁ㅌㅏㄹㅊㅟ -13105
▁ㅎㅏㄴㅂㅓㄴ -13106
▁ㄱㅣㄱㅘㄴㅈㅣ -13107
▁ㄱㅏㅅㅗㄹㄹㅣㄴ -13108
▁ㅇㅜㅇㅜㄹㅈㅡㅇ -13109
▁ㅍㅔㄴㅅㅣㄹㅂㅔㅇㅣㄴㅣㅇㅏ -13110
ㅌㅏㄴㅗ -13111
ㄷㅡㄹㄹㅓ -13112
▁ㄱㅕㄱㅎㅏ -13113
▁ㄱㅖㄹㅑㅇ -13114
▁ㅇㅝㄴㅎㅘㄹ -13115
▁ㅊㅓㄴㅊㅓㄴㅎㅣ -13116
ㅣㅋㅏ -13117
ㄱㅏㅇㅘ -13118
▁ㅋㅗㄹㅣ -13119
ㄹㄹㅣㅅㅡ -13120
▁ㅊㅏㅁㅁㅗㅊㅗㅇㅈㅏㅇ -13121
▁ㅎㅗㅋㅡ -13122
▁ㅇㅑㅇㄷㅐ -13123
▁ㅇㅝㄴㅅㅏㅇ -13124
▁ㅂㅜㄹㅡㅈㅜㅇ -13125
▁ㅅㅠㅌㅏㅇㅣㄴ -13126
▁CG -13127
▁ㄴㅠㅇ -13128
▁ㅋㅏㅁㅏ -13129
▁ㅁㅜㄷㅏㄴ -13130
▁ㅇㅣㅅㅏㄴ -13131
▁ㅋㅔㄴㅌㅡ -13132
▁ㄴㅏㄱㅇㅑㅇ -13133
▁ㄴㅗㅇㅊㅜㄱ -13134
▁ㅅㅏㄴㅅㅡㅋ -13135
▁ㅅㅚㄱㅗㄱㅣ -13136
▁ㅈㅗㅅㅓㄴㅇㅘㅇ -13137
▁ㅅㅏㄴㅅㅡㅋㅡㄹㅣㅌㅡ -13138
▁ㅋㅠㅂㅡ -13139
▁ㄱㅟㅅㅗㄱ -13140
ㅁㅏㄹㅡㅋㅡ -13141
▁ㅇㅣㅂㅎㅓㄴ -13142
▁ㅈㅓㅁㄱㅓㅁ -13143
▁ㄱㅏㅇㅎㅘㄷㅗ -13144
▁ㅈㅓㄹㄷㅗㅅㅏ -13145
▁IR -13146
ㅅㅔㅇㅠ -13147
▁ㅋㅏㅌㅔ -13148
▁ㅎㅗㄹㅡ -13149
▁ㅍㅔㄹㅌㅡ -13150
▁ㄹㅗㅇㅣㄷㅡ -13151
▁ㅂㅏㄴㄷㅗㅇ -13152
▁ㅅㅓㅂㅏㅇㅣ -13153
▁ㄷㅗㅇㅁㅐㅇㄱㅜㄱ -13154
AE -13155
▁ㄷㅗㅊㅜㄹ -13156
▁ㅅㅣㅈㅣㄱ -13157
ㄷㅗㄱㄹㅣㅂ -13158
ㅎㅗㅇㅅㅐㄱ -13159
▁ㅎㅏㅂㅊㅓㄴ -13160
▁ㄱㅡㄹㄹㅐㅅㅡ -13161
▁ㅅㅣㅈㅣㄱㄱㅕㅇ -13162
▁ㄱㅜㄱㅈㅓㅇㅇㅝㄴ -13163
ㅅㅜㄹㅗ -13164
▁ㄹㅣㅊㅏ -13165
▁ㅅㅏㄱㅟ -13166
ㄹㅣㅇㅓㄴ -13167
▁ㅇㅣㅁㄱㅖ -13168
▁ㅈㅏㄹㅣㅂ -13169
▁ㅊㅓㄱㄷㅗ -13170
▁ㄱㅗㅇㅂㅓㅂ -13171
▁ㅈㅓㅇㅈㅣㄴ -13172
▁ㅅㅓㄱㅣㄱㅘㄴ -13173
▁ㄷㅐㄱㅗㅇㄱㅜㄱ -13174
▁ㅂㅜㄱㅈㅗㅅㅓㄴ -13175
ㄴㅣㅇ -13176
▁ㄹㅏㄹㅡ -13177
ㅇㅕㄱㅐㄱ -13178
ㅈㅏㄷㅗㅇ -13179
ㅡㄹㅏㄷㅡ -13180
▁ㄱㅣㄴㅋㅣ -13181
▁ㅂㅐㅇㅑㅇ -13182
▁ㅅㅓㄴㅇㅑㅇ -13183
ㅋㅠㅇㅓ -13184
▁ㅈㅏㄱㅜㅇ -13185
▁ㅋㅔㅇㅣㅋㅡ -13186
▁ㅅㅗㅎㅏㄱㄱㅛ -13187
▁ㄱㅏㄹㅡㅅㅣㅇㅏ -13188
▁ㅅㅏㅇㄱㅘㄴㅇㅓㅄㅇㅣ -13189
▁co -13190
ㅏㅎㅣㅁ -13191
▁ㄱㅏㅂㅜ -13192
▁ㅁㅏㅇㅛ -13193
▁ㅇㅓㅇㅢ -13194
ㅇㅓㄴㅓㅎ -13195
▁ㄷㅐㅈㅓㅂ -13196
▁ㅇㅕㄴㅎㅚ -13197
▁ㅇㅣㅁㅏㄴ -13198
ㄱㅘㅇㅅㅓㅇ -13199
▁ㄱㅣㄴㅁㅣㄹ -13200
▁ㅈㅓㄴㅈㅜㅅㅣ -13201
▁ㅎㅓㄷㅡㅅㅡㄴ -13202
▁ㄴㅓㄹ -13203
▁ㄲㅣㅇㅜ -13204
▁ㄱㅕㄴㄱㅗ -13205
▁ㄱㅣㅃㅡㅁ -13206
▁ㄴㅣㅋㅔㄹ -13207
▁ㅅㅗㄴㄴㅕ -13208
▁ㅍㅕㄴㅎㅑㅇ -13209
▁ㄷㅏㅇㅣㅂㅣㅇ -13210
▁ㄱㅕㅇㄱㅖㅅㅓㄴ -13211
EST -13212
ㅏㅁㅣㄴ -13213
▁ㅂㅐㄱㅣ -13214
▁ㅇㅠㅁㅜ -13215
▁ㅇㅣㅌㅐ -13216
▁ㅁㅐㄷㅏㄹ -13217
▁ㄱㅏㄴㅎㅗㄱ -13218
▁ㅇㅡㅁㅇㅜㄴ -13219
▁ㅇㅐㄴㅅㅓㄴㅣ -13220
▁ㅅㅏㅋ -13221
▁ㅋㅏㅌㅡㄹ -13222
▁ㅎㅏㄱㅡㅂ -13223
▁ㄱㅏㅇㅎㅐㅇ -13224
▁ㅁㅜㄹㄹㅕㅈㅜ -13225
▁ㅇㅐㄷㅓㅁㅅㅡ -13226
▁ㅈㅣㄹㅣㅎㅏㄱ -13227
▁1876 -13228
▁ㄴㅗㄹㅏㅎ -13229
▁ㅂㅗㄹㄹㅗㄴ -13230
▁ㅂㅔㅇㅣㅅㅣㅅㅡㅌㅡ -13231
ah -13232
▁260 -13233
ㄷㅜㄹㅏ -13234
▁ㅋㅗㅎㅗ -13235
ㅂㅏㅇㅣㄴ -13236
▁ㅅㅏㅂㅕㄴ -13237
▁ㄱㅡㅁㅏㄴㅋㅡㅁ -13238
▁ㄹㅗㅂㅣㄴㅅㅡㄴ -13239
▁ㅂㅜㅂㅜㄴㄱㅜㄴ -13240
ron -13241
ㅇㅢㅅㅏ -13242
▁1886 -13243
▁ㅈㅗㄱㅐ -13244
▁ㄱㅗㅈㅣㅂ -13245
▁ㄸㅟㅇㅓㄴ -13246
▁ㅅㅓㅇㄱㅣ -13247
▁ㅈㅔㅊㅏㅇ -13248
▁ㅈㅔㅊㅓㄹ -13249
▁ㄱㅗㄹㅕㄷㅐ -13250
aw -13251
ㅈㅏㄹㅏ -13252
▁ㄹㅗㅋㅡ -13253
▁ㅅㅓㅇㅖ -13254
ㄱㅏㄹㄹㅣ -13255
ㄹㅕㄷㅡㄹ -13256
▁ㅇㅐㄴㄷㅣ -13257
▁ㅌㅡㄱㅅㅏ -13258
▁ㅌㅡㄹㅔㄴ -13259
▁ㅂㅗㄱㅅㅣㅇ -13260
▁ㅇㅓㄹㄹㅜㄱ -13261
▁ㅇㅣㅇㅓㅈㅜ -13262
▁ㅈㅓㄴㄹㅏㄱ -13263
▁ㅊㅜㄱㅅㅓㅇ -13264
▁ㄱㅜㄱㅈㅔㅅㅓㄴ -13265
▁ㄷㅐㅈㅜ -13266
▁ㄷㅗㄹㅏ -13267
▁ㅇㅏㅊㅡ -13268
▁ㅇㅟㄱㅖ -13269
▁ㅈㅏㅈㅣㄴ -13270
▁ㅎㅕㄴㄱㅘ -13271
▁ㄱㅛㄱㅜㅈㅏㅇ -13272
▁ㅁㅣㄹㄹㅕㄴㅏ -13273
▁ㅅㅡㅌㅔㅇㅣㄴ -13274
▁ㅂㅏㄱㅌㅔㄹㅣㅇㅏ -13275
▁ㅇㅞㅅㅡㅌㅡㅁㅣㄴㅅㅡㅌㅓ -13276
ㄷㅣㅅ -13277
▁Gre -13278
▁ㅇㅟㅍㅐ -13279
▁ㅇㅝㄴㅇㅠ -13280
▁ㅊㅏㅊㅡㅁ -13281
▁ㅊㅓㄹㅈㅓㅎㅣ -13282
▁ㅅㅏㅁㄱㅏㄱㅈㅜ -13283
▁ㅍㅔㄹㅡㄴㅏㄴㄷㅗ -13284
▁USB -13285
ㅁㅣㅌㅡ -13286
ㅅㅡㅇㅞ -13287
ㅈㅣㄴㅗ -13288
▁ㄱㅏㄴㅔ -13289
▁ㅈㅣㄱㄱㅖ -13290
ㅂㅜㄴㅇㅕㄹ -13291
▁ㅅㅏㅇㅈㅓㅇ -13292
▁ㅈㅓㄴㄱㅝㄴ -13293
▁ㅊㅏㅅㅔㄷㅐ -13294
▁270 -13295
▁ㅇㅕㄷㅗ -13296
▁ㅇㅗㅎㅏ -13297
▁ㅆㅏㅇㄷㅐ -13298
▁ㅇㅣㄴㅈㅔ -13299
▁ㅈㅓㄴㅅㅜ -13300
▁ㅌㅗㅇㅍㅖ -13301
▁ㅈㅏㄹㅏㄴㅏ -13302
▁ㄷㅓㅇㅇㅓㄹㅣ -13303
land -13304
ㅏㄹㅣㄴ -13305
ㅡㄹㅏㅇ -13306
▁ㅁㅗㄴㅣㅇ -13307
▁ㅂㅐㅇㅕㄱ -13308
▁ㅅㅐㅇㅁㅗ -13309
▁ㅈㅗㄹㅗㅇ -13310
▁ㅊㅣㅁㄹㅖ -13311
▁ㅍㅓㄴㄷㅡ -13312
▁ㅋㅡㄹㅔㅇㅣ -13313
▁ㄱㅏㄴㅅㅏㅇㅣ -13314
▁ㅎㅘㅇㅛㅇㅣㄹ -13315
▁ㅊㅜㄱㄱㅜㅌㅣㅁ -13316
▁1866 -13317
ㄱㅛㅇㅣㄴ -13318
▁ㄱㅗㅇㅅㅣ -13319
▁ㄱㅜㄴㄷㅔ -13320
▁ㅇㅡㄹㅕㄴ -13321
▁ㅊㅐㅅㅐㄱ -13322
▁ㄱㅜㄴㄱㅘㄴ -13323
▁ㅅㅣㅁㅁㅜㄴ -13324
▁ㅇㅏㄹㅍㅗㄴ -13325
▁ㅋㅔㅇㅣㅌㅡ -13326
▁ㅍㅕㅇㅇㅏㄴㄷㅗ -13327
▁ㄱㅓㅁㅣ -13328
▁ㄹㅏㄷㅡ -13329
▁ㅍㅓㅅㅡ -13330
▁ㄱㅗㄹㅕㅅㅏ -13331
▁ㅂㅗㄹㄹㅗㄴㅑ -13332
▁ㅍㅡㄹㅣㄴㅅㅡㅌㅓㄴ -13333
▁KB -13334
ㅌㅏㅅㅡ -13335
ㅌㅣㅇㅑ -13336
▁ㄲㅜㄹㅣ -13337
ㄱㅡㄹㅜㅂ -13338
▁ㄱㅡㄹㄹㅗ -13339
▁ㅅㅏㄴㅎㅗ -13340
▁ㅍㅣㅅㅏㄹ -13341
ㅍㅏㅇㅣㅇㅓ -13342
▁ㅂㅓㄴㄱㅏㄹ -13343
▁ㅋㅗㅅㅗㅂㅗ -13344
▁ㄷㅐㅈㅓㄴㅊㅏ -13345
▁it -13346
ㅗㅋㅣ -13347
▁ㅍㅣㄷㅡ -13348
▁ㅎㅡㅇㅂㅜㄴ -13349
▁ㄹㅗㅅㅡㅋㅜㄹ -13350
▁ㅂㅗㅅㅏㄹㅅㅏㅇ -13351
▁ㅂㅡㄹㅣㅌㅣㅅㅣ -13352
▁ㅇㅏㄹㄹㅔㄱㅅㅏㄴㄷㅡㄹㅗㅅㅡ -13353
ㄷㅔㄹㅏ -13354
▁ㅍㅕㄴㅐ -13355
▁ㅈㅜㅁㅓㄱ -13356
▁ㅁㅜㄹㄱㅕㄹ -13357
▁ㅍㅜㅇㅅㅡㅂ -13358
▁ㅇㅗㄹㄹㅣㅂㅓ -13359
▁ㅍㅔㄹㄹㅣㅍㅔ -13360
▁ㄱㅕㅇㅇㅕㅇㅎㅏㄱ -13361
▁ㅂㅔㄴㅔㄷㅣㄱㅌㅗ -13362
▁SV -13363
▁ㄷㅗㅅ -13364
ㄱㅓㅅㅡ -13365
▁ㅎㅏㅂㅣ -13366
▁ㄷㅜㄱㅏㄱ -13367
▁ㅅㅜㄴㄹㅖ -13368
▁ㅅㅜㄹㅕㄱ -13369
▁ㅈㅏㅇㄹㅐ -13370
▁ㅅㅡㅇㄷㅏㄴ -13371
▁ㅍㅗㄹㅡㅌㅜ -13372
▁ㅁㅏㄹㅡㅅㅔㅇㅠ -13373
ㅡㄹㅜ -13374
▁ㅆㅣㅅ -13375
▁ㅋㅏㄴㅣ -13376
ㄱㅓㄹㅇㅣ -13377
▁ㄴㅣㅋㅗㄴ -13378
▁ㅎㅐㅂㅕㅇ -13379
▁ㅅㅣㄴㅈㅣㄴ -13380
▁ㅊㅜㄹㅎㅕㄹ -13381
▁ㄷㅗㅁㅣㄴㅣㅋㅏ -13382
▁ㅅㅏㄷㅏㄴㅈㅏㅇ -13383
19 -13384
ㅂㅗㄹㅣ -13385
▁ㅎㅗㅇㅏ -13386
▁ㅎㅗㅇㅅㅓㅇ -13387
▁ㄷㅏㄴㄱㅓㄹㅣ -13388
▁ㅉㅗㅊㅇㅏㄴㅐ -13389
▁ㄱㅜㅅㅡㅌㅏㅍㅡ -13390
▁ㄱㅘㄴㅎㅕㄴㅇㅏㄱ -13391
ble -13392
▁ㄱㅏㅍ -13393
ㅋㅗㅌㅏ -13394
ㅌㅗㄴㅗ -13395
ㅏㄹㄷㅡ -13396
▁ㅁㅣㅇㅏ -13397
▁ㅅㅗㄷㅗㅇ -13398
▁ㅎㅕㅇㅇㅛㅇ -13399
▁ㄴㅗㄴㄹㅣㅎㅏㄱ -13400
▁ㅌㅗㅇㅍㅖㅎㅏㅂ -13401
▁ㅎㅘㄹㄷㅗㅇㄱㅏ -13402
▁ㅈㅐㄷㅏㄴㅂㅓㅂㅇㅣㄴ -13403
▁Wii -13404
▁ㄱㅔㅅ -13405
▁ㅅㅓㅅㅡ -13406
▁ㄴㅏㅁㅜㅅ -13407
▁ㅊㅜㄹㅈㅏ -13408
▁ㄷㅏㅋㅏㄹㅏ -13409
▁ㄹㅔㅇㅣㄷㅣ -13410
▁ㅂㅏㄹㅁㅗㄱ -13411
▁ㅅㅜㅊㅏㄹㅖ -13412
▁ㄱㅔㅅㅣㅍㅏㄴ -13413
▁ㅅㅓㅇㅁㅐㅁㅐ -13414
▁ㅋㅏㅅ -13415
ㅅㅡㅇㅘ -13416
▁1887 -13417
ㄱㅜㅇㅕㄱ -13418
▁ㄱㅜㄷㅎㅣ -13419
▁ㅇㅔㅂㅏㄴ -13420
▁ㅅㅐㅁㅠㅇㅓㄹ -13421
▁Up -13422
ㄴㅗㅁ -13423
▁ㄱㅗㅌㅡ -13424
▁ㅍㅏㅋㅓ -13425
ㅍㅔㄱㅌㅡ -13426
▁ㅂㅜㄹㅅㅏ -13427
▁ㄱㅏㅇㅅㅓㄱㅜ -13428
▁ㅁㅏㅇㅡㄹㅂㅓㅅㅡ -13429
▁ㅁㅓㄹㅣㅋㅏㄹㅏㄱ -13430
ave -13431
▁ML -13432
ㅁㅜㄹㅡ -13433
▁1864 -13434
▁Dream -13435
▁ㄴㅏㄹㅡㅁ -13436
▁ㄷㅗㅅㅓㅇ -13437
▁ㄱㅗㅇㅂㅏㅇㅈㅓㄴ -13438
ition -13439
▁ㄱㅛㅂㅜ -13440
▁ㅁㅔㅋㅏ -13441
ㄷㅜㄹㄱㅣ -13442
▁ㄱㅜㄱㅡㅁ -13443
▁ㄱㅜㅁㅜㄴ -13444
▁ㅂㅔㅌㅔㄹ -13445
▁ㅅㅔㅂㅜㄴ -13446
▁ㅊㅜㅈㅗㄴ -13447
▁ㅎㅗㄹㄷㅣㅇ -13448
▁ㄱㅡㅁㄴㅏㄹㅏ -13449
▁ㅂㅐㄱㅇㅏㄱㄱㅣ -13450
ㄸㅣ -13451
▁SH -13452
ㅣㄱㅗㅇ -13453
▁ㄷㅗㅇㅑㄱ -13454
▁ㅎㅘㅇㅎㅐㄷㅗ -13455
▁ㅂㅔㅅ -13456
▁Life -13457
▁ㄲㅓㄹㅣ -13458
▁ㄹㅔㅌㅡ -13459
▁ㅇㅣㄹㄹ -13460
▁ㅌㅚㅇㅟ -13461
▁ㅈㅣㄴㅏㄴ -13462
▁ㅁㅏㄱㅍㅏㄴ -13463
▁ㅇㅠㅈㅓㄴㅎㅏㄱ -13464
▁if -13465
▁ㄱㅐㄱㅡㅁ -13466
▁ㄹㅣㅇㅗㄴ -13467
▁ㅇㅗㅇㅣㄹ -13468
▁ㄴㅣㄱㅅㅡㄴ -13469
▁ㅂㅗㅇㅎㅘㅇ -13470
▁ㅇㅏㄱㄱㅗㄱ -13471
▁ㅎㅜㅇㅝㄴㅈㅏ -13472
▁ㅎㅟㅁㅏㄹㄹㅣ -13473
▁ㅎㅐㅇㅈㅓㅇㄷㅗㅇ -13474
ult -13475
▁RT -13476
ㅣㄹㄷㅡ -13477
▁ㄱㅘㅅㅣ -13478
▁ㅅㅏㄴㅅㅜ -13479
▁ㅈㅏㄹㄹㅣ -13480
▁ㅈㅜㅅㅣㅁ -13481
▁ㅅㅏㅆㅡㅁㅏ -13482
▁ㄷㅗㅇㅁㅐㅇㄱㅜㄴ -13483
▁ㄱㅜㄻ -13484
▁ㅂㅜㄹㅠ -13485
ㅇㅕㄴㅎㅣ -13486
▁ㅂㅜㅇㅑㅇ -13487
▁ㅈㅐㅇㅏㅇ -13488
▁ㅇㅣㄹㅈㅣㄴ -13489
▁ㅍㅏㅇㅣㅍㅡ -13490
▁ㅋㅓㄴㅌㅔㄴㅊㅡ -13491
▁ㅇㅑㄹ -13492
▁1861 -13493
▁Tour -13494
▁ㅇㅠㅌㅏ -13495
ㅅㅡㅇㅞㄹ -13496
▁ㄱㅓㄹㅜㄱ -13497
▁ㄱㅕㄱㄹㅕ -13498
▁ㅅㅔㅇㅣㅂ -13499
▁ㅇㅣㄴㅗㅇ -13500
▁ㄷㅗㅇㅊㅏㅇ -13501
▁ㅈㅘㅍㅛㄱㅖ -13502
▁ㅇㅛㄱㅡㅁㅅㅗ -13503
▁ㅁㅣㄴㅇㅕㅇㅎㅘ -13504
▁ㅅㅐㅇㄹㅣㅎㅏㄱ -13505
▁ㄷㅗㄱㄹㅣㅂㄱㅜㄴ -13506
▁ㅂㅗㄹㅌㅣㅁㅗㅇㅓ -13507
▁ㄴㅏㅁㅂㅔㅌㅡㄴㅏㅁ -13508
▁ㅋㅓㅁㅍㅏㅇㅣㄹㄹㅓ -13509
▁ㅇㅣㄴㅍㅡㄹㄹㅔㅇㅣㅅㅕㄴ -13510
DA -13511
▁ㅂㅣㄹㅗ -13512
ㄱㅗㅇㅈㅜ -13513
▁ㄴㅐㄹㅣㅁ -13514
▁ㅂㅓㄹㄹㅔ -13515
▁ㅅㅗㅇㅛㅇ -13516
▁ㄱㅣㅅㅌㅓㄹ -13517
▁ㅈㅏㅇㅈㅔㅅㅡ -13518
▁ㅇㅜㅇㅔㅅㅡㄱㅣ -13519
▁TC -13520
ㅅㅏㅌㅐ -13521
ㅌㅏㄴㅠ -13522
▁ㄱㅛㅈㅣ -13523
▁ㅇㅝㅋㅣㅇ -13524
▁ㅎㅏㅇㅑㄴ -13525
▁ㅇㅘㄴㄱㅕㄹ -13526
▁ㅍㅕㅇㅌㅏㄴ -13527
▁en -13528
▁ㄱㅜㄹㅖ -13529
▁ㄴㅓㅅㅡ -13530
▁ㅈㅐㅊㅏ -13531
▁ㄱㅏㄹㅇㅏ -13532
▁ㄷㅗㅁㅣㄴ -13533
▁ㄷㅐㅅㄱㅡㄹ -13534
▁ㅈㅜㄴㅣㅊㅣ -13535
▁ㄱㅡㄴㄱㅓㅈㅣ -13536
▁ㄷㅔㅇㅣㅂㅣㅅ -13537
▁ㅊㅏㅁㅇㅢㅇㅝㄴ -13538
▁ㄷㅗㄹㅏㅇㅔㅁㅗㅇ -13539
▁ㅅㅡㅌㅡㄹㅣㅁㅣㅇ -13540
ㅁㅏㅅㅏ -13541
▁ㄷㅗㅎㅏ -13542
▁ㅂㅣㅇㅜ -13543
▁ㅇㅝㅈㅡ -13544
▁ㄷㅏㅅㅣㄱ -13545
▁ㅈㅐㅂㅏㄹ -13546
ㅂㅔㄹㅣㅇㅏ -13547
▁ㄱㅕㅇㅈㅗㅇ -13548
▁ㄷㅐㄱㅛㄱㅜ -13549
▁ㅂㅜㄹㅂㅜㄴ -13550
▁ㅇㅛㅇㅇㅢㅈㅏ -13551
▁ㅅㅏㄱㅏㄴㅇㅝㄴ -13552
EP -13553
ㅌㅗㅍㅡ -13554
ㅗㄴㅣㅇ -13555
▁ㅋㅏㅇㅑ -13556
▁ㅇㅣㅎㅗㅇ -13557
▁ㅈㅏㅇㅈㅓㄴ -13558
ㅔㄱㅡ -13559
ㅜㅈㅣ -13560
▁ㅁㅜㅁ -13561
ㄹㅏㅌㅡ -13562
▁ㅇㅡㅅㅣ -13563
▁ㄱㅙㅂㅜㄹ -13564
▁ㅁㅕㄴㅁㅗ -13565
▁ㅁㅗㄱㅜㄱ -13566
▁ㅂㅗㄴㅊㅔ -13567
ㅂㅏㄷㅗㄹㅡ -13568
▁ㄷㅏㅁㅕㄴㅅㅓ -13569
▁ㅂㅗㅈㅘㄱㅘㄴ -13570
▁ㅅㅐㅇㅅㅓㅇㅁㅜㄹ -13571
ㄱㅕㅁ -13572
ㅂㅡㄹㅗ -13573
▁ㅅㅏㅋㅣ -13574
ㄲㅜㅁㅊㅣ -13575
ㄱㅗㅇㅇㅓㅂ -13576
ㅋㅗㄴㅅㅣㄴ -13577
▁ㄱㅘㅇㅅㅓㄴ -13578
▁ㅂㅏㄹㅌㅗㅂ -13579
▁ㅅㅏㅁㅊㅓㄱ -13580
▁ㅇㅡㄹㅕㄴㅡㄴ -13581
▁ㅎㅜㅅㅔㅇㅣㄴ -13582
▁ㅇㅟㅅㅡㅋㅗㄴㅅㅣㄴ -13583
▁ㄷㅗㅈㅔ -13584
▁ㅋㅝㅋㅡ -13585
ㄷㅣㅅㅡㄴ -13586
▁ㅈㅏㅍㅏㄴ -13587
▁ㅅㅏㄴㅁㅜㄹ -13588
▁ㅅㅔㄴㅔㄱㅏㄹ -13589
▁ㅅㅣㄴㅅㅔㄱㅖ -13590
▁ㅍㅡㄹㅏㅇㅋㅗ -13591
▁ㅁㅏㄹㅡㅋㅜㅅㅡ -13592
▁ㅂㅡㄹㅡㅌㅏㄴㅠ -13593
ㅔㄴㅔ -13594
▁ㄹㅔㅈㅡ -13595
▁ㅅㅡㄹㅜ -13596
▁ㅅㅡㅌㅜ -13597
▁ㅅㅡㅇㅎㅏ -13598
▁ㅍㅗㅌㅏㄴ -13599
ational -13600
▁ㅍㅏㄹㅈㅏㄱ -13601
▁AG -13602
▁ㄲㅗㅈ -13603
ㅂㅜㄹㅣ -13604
▁ㅁㅣㅁㅣ -13605
▁ㅈㅣㅁㅕㄴ -13606
▁ㅋㅗㄴㅏㄴ -13607
▁ㅅㅗㅇㅎㅘㄴ -13608
▁ㅇㅘㅇㄱㅘㄴ -13609
▁ㅈㅗㄴㅏㄹㅏ -13610
▁ㄱㅗㅇㅇㅕㄴㅈㅏㅇ -13611
▁ㄹㅓㅅㅣㅇㅏㄱㅜㄴ -13612
ㅍㅓㄴ -13613
ject -13614
ㅁㅕㄴㅊㅔ -13615
ㅎㅘㄱㅕㅇ -13616
▁ㄱㅘㄴㄴㅐ -13617
▁ㅂㅏㄹㅇㅢ -13618
▁ㅈㅡㅇㅅㅔ -13619
▁ㅍㅔㄹㄹㅗ -13620
ㅇㅔㄹ -13621
▁ㅁㅜㄴㅔ -13622
▁ㅇㅏㅌㅗ -13623
▁ㅇㅠㅍㅗ -13624
▁ㅈㅣㄴㅎㅐ -13625
▁ㅌㅗㅁㅗㄱ -13626
▁ㅁㅗㅁㄷㅗㄹ -13627
▁ㅅㅏㄴㅏㅇㅣ -13628
▁ㅅㅏㅈㅓㄹㄷㅏㄴ -13629
orm -13630
▁1881 -13631
▁ㅊㅏㅅㅜ -13632
▁ㅌㅡㄱㄱㅣ -13633
▁ㅁㅣㄴㅁㅜㄹ -13634
▁ㅅㅡㅇㅇㅛㅇ -13635
▁ㅍㅗㅎㅘ -13636
▁Music -13637
▁ㅂㅗㄴㅓㅅㅡ -13638
▁ㅇㅜㅅㅇㅡㅁ -13639
▁ㅋㅏㅇㅜㄴㅌㅡ -13640
▁ㅈㅏㅇㅇㅐㅁㅜㄹ -13641
▁te -13642
ㄴㅏㅇ -13643
ㅣㅅㅣ -13644
ㄸㅟㄱㅣ -13645
ㄹㅏㄷㅗ -13646
ㅈㅡㅁㅏ -13647
▁ㅇㅏㅇㅠ -13648
▁ㅅㅓㅍㅗㅌㅓ -13649
▁ㅇㅑㄱㅈㅓㅁ -13650
▁ㅎㅐㅇㅂㅏㅇ -13651
ㅗㄹㅔ -13652
ㅍㅕㅇㄹㅣ -13653
▁ㅁㅏㅇㅎㅏ -13654
▁ㅁㅗㄴㅏㅋㅗ -13655
▁ㅅㅡㅌㅔㅇㅣ -13656
▁ㅇㅣㄱㅅㅏㄴ -13657
▁ㅎㅗㅁㄱㅕㅇㄱㅣ -13658
ㅝㅅㅡ -13659
▁Open -13660
▁ㅇㅔㅂㅏ -13661
▁ㅂㅜㅇㅇㅓ -13662
▁ㅂㅏㅇㄱㅗㅇ -13663
▁ㅂㅔㅇㅣㅂㅣ -13664
▁ㅇㅠㄴㅣㅂㅓㅅㅡ -13665
▁ㅎㅐㄱㅕㄹㅊㅐㄱ -13666
ㅇㅠㅅㅏ -13667
▁ㅅㅜㅇㅣ -13668
▁ㅇㅟㅅㅣ -13669
▁ㄹㅣㅁㅍㅡ -13670
▁ㅇㅏㅋㅏㄴ -13671
▁ㅋㅐㄹㅗㄹ -13672
▁ㅇㅑㄱㅜㄷㅏㄴ -13673
▁BL -13674
▁ㅍㅗㅅ -13675
▁ㄱㅏㄷㅏㄱ -13676
ㅊㅏㄹㅡㅌㅡ -13677
▁ㅇㅕㄱㅅㅏㅎㅏㄱ -13678
▁ㅍㅡㄹㅣㅁㅣㅇㅓㅁ -13679
ㅛㄴ -13680
▁Ed -13681
▁ㅅㅔㅁㅣ -13682
▁ㅅㅣㅂㅣ -13683
▁ㄱㅐㄱㅇㅝㄴ -13684
▁ㅂㅐㄱㅇㅓㅂ -13685
▁ㅅㅡㅂㄷㅡㄱ -13686
▁ㅇㅣㄱㅁㅕㅇ -13687
ㅏㅇㅣㅇㅓㅌㅣ -13688
▁ㅇㅕㅎㅏㄱㅅㅐㅇ -13689
▁ㅂㅓㄹㅏㅇㅣㅇㅓㅌㅣ -13690
▁an -13691
ㄴㅡㅈ -13692
ㅐㅅㅣ -13693
▁1850 -13694
▁ㄷㅔㄷㅡ -13695
▁ㅇㅕㅌㅏ -13696
▁ㅁㅜㄹㄹㅠ -13697
▁ㅂㅐㅊㅓㄱ -13698
▁ㅈㅓㄴㄹㅣ -13699
ㅍㅡㄹㄹㅣㄴ -13700
▁ㅂㅏㄴㅈㅜㄱ -13701
▁ㅎㅘㄴㄱㅘㄴ -13702
ION -13703
ton -13704
▁XP -13705
ㄷㅣㅇㅓㄹ -13706
▁ㄷㅗㅅㅏㄴ -13707
▁ㅅㅡㄹㅍㅡ -13708
▁ㅊㅏㄱㅎㅏ -13709
▁ㄷㅏㅇㅈㅣㄴ -13710
▁ㅅㅡㄹㄹㅐㅁ -13711
▁ㅁㅗㅁㅔㄴㅌㅡ -13712
ㅁㅗㅁ -13713
▁ㅅㅏㄴㅐ -13714
ㅅㅔㄴㅅㅡ -13715
ㅗㄴㅗㅅㅡ -13716
▁ㅂㅗㄱㅇㅟ -13717
▁ㅇㅠㄴㅡㅇ -13718
▁ㅈㅗㅎㅕㄴ -13719
▁ㅋㅔㄴㅌㅓ -13720
ㅣㄹㄹㅣㅌㅣ -13721
▁ㅍㅏㄴㄱㅘㄴ -13722
▁ㅁㅣㅋㅏㅇㅔㄹ -13723
▁ㅁㅣㄴㅔㅅㅗㅌㅏ -13724
ㅓㄱㅣ -13725
▁ㄴㅐㅍㅗ -13726
▁ㄱㅛㄷㅗㅇ -13727
▁ㄱㅡㄴㄹㅐ -13728
▁ㅂㅏㄱㅈㅏ -13729
▁ㅂㅡㄹㅜㄱ -13730
▁ㅂㅏㄹㅗㅋㅡ -13731
▁ㅇㅑㅇㄱㅜㅇ -13732
▁ㅍㅕㄴㅇㅏㄴ -13733
▁ㅁㅜㅈㅏㄱㅇㅟ -13734
▁ㅅㅔㄱㅜㄴㄷㅏ -13735
▁ㅇㅏㅂㅣㄷㅏㄹ -13736
▁ㅁㅗㅊㅏㄹㅡㅌㅡ -13737
▁ㄷㅐㅈㅜㅇㄱㅛㅌㅗㅇ -13738
ㅝㅈㅡ -13739
ㅉㅏㄱㅣ -13740
ㅎㅗㅁㅏ -13741
▁ㄱㅖㅂㅗ -13742
▁ㅂㅏㅂㅣ -13743
▁ㅇㅛㄱㅚ -13744
▁ㄸㅏㄹㄹㅣ -13745
▁ㅁㅐㄱㅇㅏ -13746
▁ㅂㅜㅈㅓㄴ -13747
▁ㅈㅏㅁㅅㅣㄹ -13748
ㅏㅁㅔ -13749
ㅋㅡㄹㅣ -13750
▁ㅅㅠㅌㅔ -13751
▁ㅇㅐㅊㅗ -13752
▁ㄷㅐㄱㅡㅁ -13753
▁ㄷㅗㅇㅊㅏ -13754
▁ㄹㅓㄴㅣㅇ -13755
▁ㅅㅡㅁㅗㄹ -13756
▁ㄴㅣㅅㅅㅏㄴ -13757
▁ㅅㅣㄴㅅㅣㄴ -13758
▁ㅌㅗㅌㅡㄴㅓㅁ -13759
▁ㅎㅘㅅㅓㅇㅅㅣ -13760
ㅣㅁㅐ -13761
ㄷㅏㅂㅗ -13762
ㅚㅅㅓㄴ -13763
▁HTML -13764
▁ㄹㅏㅈㅏ -13765
ㄹㅣㅁㅅㅏ -13766
ㅌㅏㅇㅣㅂ -13767
▁ㄱㅣㅁㅣㄹ -13768
▁ㅈㅐㄱㅕㄹ -13769
▁ㅈㅓㅇㅇㅖ -13770
▁ㅎㅓㅁㅗㄱ -13771
ㄱㅜㄱㅈㅓㄱ -13772
▁ㄴㅏㅁㅅㅗㅇ -13773
▁ㅅㅡㅇㅅㅏㅇ -13774
▁ㅅㅣㄹㄱㅏㄱ -13775
▁ㅅㅏㄷㅡㄹㅇㅣ -13776
▁ㅎㅏㅇㅑㄴㅅㅐㄱ -13777
ru -13778
▁ㅅㅜㄴㅎㅏㅇ -13779
▁ㅇㅏㄴㅏㅌㅗㄹ -13780
▁ㅈㅐㅍㅏㄴㄱㅘㄴ -13781
▁ㅇㅡㅁㅇㅏㄱㅇㅝㄴ -13782
▁ㅈㅏㅇㄴㅏㄴㄱㅏㅁ -13783
▁"- -13784
ㅂㅣㅁ -13785
ㄱㅓㄱㅜ -13786
▁ㄹㅜㄴㅏ -13787
▁ㅈㅚㅅㅜ -13788
▁ㅍㅛㅎㅏ -13789
▁ㅇㅛㅇㅅㅏ -13790
▁ㄱㅗㅂㅅㅔㅁ -13791
▁ㄴㅔㅌㅣㅈㅡㄴ -13792
▁ㅇㅣㅁㅔㅇㅣㄹ -13793
ㅓㅁㅏ -13794
ㄷㅏㅇㅗ -13795
ㄹㄹㅓㅅㅡ -13796
▁ㅍㅏㅈㅣㄱ -13797
ㄷㅓㄱㅇㅘㅇ -13798
▁ㅂㅏㄹㅅㅏㄴ -13799
▁ㅂㅡㄹㅐㄷㅡ -13800
▁ㅇㅐㅅㅡㄹㄹ -13801
▁ㄹㅗㄷㅡㄹㅣㄱ -13802
▁ㅎㅔㄹㅏㅋㅡㄹㄹㅔㅅㅡ -13803
ㄷㅓㅈㅣ -13804
ㄷㅏㄴㅇㅟ -13805
▁ㄱㅜㅎㅚㄱ -13806
▁ㄴㅏㅇㅣㄹ -13807
▁ㅁㅗㄹㅏㄴ -13808
▁ㅂㅏㄴㅈㅜ -13809
▁ㅇㅓㅊㅗㄴ -13810
▁ㄹㅏㅊㅣㅇㅗ -13811
▁ㅇㅠㄹㅏㅅㅣㅇㅏ -13812
▁ㅊㅓㅇㄴㅕㄴㅎㅚ -13813
▁ㅋㅏㄹㅡㅌㅏㄱㅗ -13814
▁ㅇㅏㅇㅣㄷㅣㅇㅓㄹ -13815
▁ㅇㅣㄹㄹㅔㄱㅌㅡㄹㅗㄴ -13816
ics -13817
ode -13818
▁ret -13819
▁ㅁㅜㅅㅜ -13820
▁ㅇㅖㅇㅢ -13821
▁ㅇㅠㄷㅏ -13822
▁ㅈㅣㅋㅜ -13823
▁ㅇㅣㄹㅕㄱ -13824
▁ㅎㅓㅂㅡㄹ -13825
▁ㄱㅘㄴㅇㅛㅇ -13826
▁ㅁㅏㄹㅡㅅㅔㄹ -13827
▁ㅁㅣㄹㄱㅏㄹㅜ -13828
▁ㅍㅣㄴㅣㄱㅅㅡ -13829
▁ㅎㅘㅎㅏㄱㅈㅏ -13830
▁ㅇㅣㅅㅣㅋㅏㅇㅘ -13831
▁ㅂㅜㄹㅂㅜㄴㅁㅕㅇ -13832
▁iOS -13833
ㅇㅜㅎㅚ -13834
▁1872 -13835
▁ㄷㅗㅂㅗㅇ -13836
▁ㅅㅣㅇㅝㄴ -13837
▁ㅍㅏㅇㅕㄹ -13838
ㅌㅏㄴㅣㅇㅏ -13839
▁ㄱㅕㅇㄱㅓㄴ -13840
▁ㄱㅕㅇㄹㅑㅇ -13841
▁ㅇㅑㅇㅎㅕㄴ -13842
▁ㅇㅚㅁㅜㅂㅜ -13843
▁ㅈㅜㅇㄹㅏㅇ -13844
▁ㅋㅏㅁㅍㅏㄴ -13845
▁ㅌㅏㄴㅅㅏㄴ -13846
▁ㄹㅗㅁㅂㅏㄹㅡ -13847
▁ㅇㅏㅂㄹㅗㄱㄱㅏㅇ -13848
▁ㄷㅏㅋㅏㄹㅏㅈㅡㅋㅏ -13849
▁750 -13850
▁ㅅㅑㅁ -13851
ㄷㅔㅈㅏㄴ -13852
▁ㅂㅐㅎㅑㅇ -13853
▁ㅇㅓㄴㄷㅓ -13854
▁ㅌㅡㄹㅏㄴ -13855
ㅊㅡㅂㅓㄱㅡ -13856
▁ㄱㅗㅇㅍㅏㄴ -13857
▁ㅎㅟㄷㅜㄹㅡ -13858
▁ㅎㅡㄱㅂㅐㄱ -13859
▁ㅇㅗㅋㅡㄹㄹㅏ -13860
▁ㅇㅠㄴㅣㅇㅓㄴ -13861
▁ㅇㅗㅋㅡㄹㄹㅏㅎㅗㅁㅏ -13862
ㄸㅓㄹ -13863
▁Don -13864
▁ㅇㅔㄹㅗ -13865
ㄷㅗㅇㅈㅏ -13866
▁ㄱㅡㅁㅎㅗ -13867
▁ㄹㅜㅅㅡㅂ -13868
▁ㅇㅗㄴㄷㅐ -13869
▁ㅈㅗㄱㅕㅇ -13870
ㄷㅡㅇㅞㅇㅣ -13871
▁ㅂㅏㄱㅅㅡㅇ -13872
▁ㅈㅓㅇㅎㅘㅇ -13873
▁ㄱㅘㄴㄹㅕㄴㅈㅏ -13874
▁ㄹㅗㅁㅐㄴㅌㅣㄱ -13875
▁ㅂㅏㄱㅇㅕㅇㅎㅛ -13876
▁ㄹㅜㅅㅡㅂㅔㄹㅌㅡ -13877
▁ㄴㄷㅔ -13878
▁1830 -13879
▁ㄱㅏㅇㅅㅔ -13880
▁ㄱㅕㅇㄷㅗ -13881
▁ㅂㅜㄹㄹㅓ -13882
▁ㅅㅔㄱㅏㄴ -13883
▁ㄷㅏㅇㅎㅘㅇ -13884
▁ㅎㅗㄴㅎㅕㄹ -13885
ㅌㅐㅍㅕㅇㅇㅑㅇ -13886
▁ㅇㅗㅋㅏㅇㅑㅁㅏ -13887
▁ㅌㅏㅁㅎㅓㅁㄱㅏ -13888
ier -13889
▁1863 -13890
▁ㄱㅏㄷㅗㄱ -13891
▁ㅍㅐㄱㅝㄴ -13892
▁ㅎㅗㅁㅈㅡ -13893
▁ㄴㅗㅇㅇㅓㅊㅗㄴ -13894
▁ㅅㅔㄹㅡㄱㅔㅇㅣ -13895
▁ㅂㅏㄷㅊㅣㅁㄷㅗㄹ -13896
▁ㄱㅗㅇㄱㅜㄴㄱㅣㅈㅣ -13897
QL -13898
▁ㅎㅔㅁ -13899
▁ㄹㅔㅇㅏ -13900
▁ㄱㅗㄱㅁㅕㄴ -13901
▁ㅂㅕㄴㅈㅗㅇ -13902
▁ㅈㅓㅇㅈㅜㅇ -13903
▁ㅊㅓㄹㅈㅗㅇ -13904
ㅌㅡㅁㅜㄴㅌㅡ -13905
ㅣㄹㄹㅣㅇㅏㄴ -13906
▁ㅊㅗㄹㅗㄱㅅㅐㄱ -13907
▁ㅅㅔㄱㅖㅇㅠㅅㅏㄴ -13908
▁ㄷㅗㄹㅡㅌㅡㅁㅜㄴㅌㅡ -13909
TE -13910
ㄲㅔㄲㅣ -13911
▁ㄹㅏㅅㅣ -13912
▁ㅎㅔㅇㅓ -13913
▁ㄱㅡㅂㅎㅣ -13914
▁ㅅㅡㅇㅟㅇ -13915
▁ㅊㅣㅁㄷㅐ -13916
▁ㅍㅡㄹㅣㄹ -13917
▁ㅂㅕㄹㅈㅏㅇ -13918
▁ㅊㅗㅅㅂㅜㄹ -13919
▁ㅍㅣㄱㅅㅔㄹ -13920
▁ㅎㅐㅅㅂㅣㅊ -13921
▁ㅅㅜㅅㅜㄲㅔㄲㅣ -13922
▁1865 -13923
▁ㄱㅣㅁㅎㅢ -13924
▁ㅁㅐㅈㅣㄴ -13925
▁ㅎㅚㄱㅗㄹ -13926
▁ㄷㅏㄴㄱㅜㄱ -13927
▁ㅁㅗㄱㅇㅛㄱ -13928
▁ㅂㅔㅇㅣㅋㅓ -13929
▁ㅂㅗㄱㅇㅕㄱ -13930
▁ㅇㅏㅂㅡㄹㅏ -13931
▁ㅇㅑㅁㅏㄴㅏ -13932
▁ㄱㅏㅁㄹㅣㄱㅛ -13933
▁ㄷㅗㄷㅂㅗㅇㅣ -13934
▁ㅂㅏㄴㄷㅐㅍㅏ -13935
▁ㅅㅣㄱㅏㄴㄷㅐ -13936
▁ㅇㅏㅇㅣㅋㅗㄴ -13937
▁DR -13938
▁ㅅㅜㅎ -13939
▁ㅅㅜㄴㅕ -13940
ㄷㅐㅇㅝㄴ -13941
ㄷㅗㅇㅣㄴ -13942
ㅈㅡㄹㄹㅣ -13943
▁ㄱㅏㄱㅗㄱ -13944
▁ㅇㅓㅈㅣㄹ -13945
▁ㅇㅣㄱㅏㅇ -13946
▁ㅊㅓㄴㅈㅣ -13947
▁ㅌㅏㅁㅈㅓㅇ -13948
▁ㅍㅗㄹㄹㅣㄴ -13949
▁ㄱㅕㄱㅌㅜㄱㅣ -13950
▁ㅈㅏㅇㅠㅎㅕㅇ -13951
▁ㅈㅗㅅㅓㄴㅅㅗ -13952
▁ㅂㅜㄹㄹㅓㄷㅡㄹㅇㅣ -13953
▁ㅉㅓㄹ -13954
▁ㅇㅏㅇㅘ -13955
▁Night -13956
▁ㅇㅏㅍㅕㄴ -13957
▁ㅇㅣㅂㅕㄹ -13958
▁ㄲㅏㅁㅏㄱㅟ -13959
▁ㅊㅓㄹㄱㅏㅇ -13960
▁ㅇㅜㄱㅏㄴㄷㅏ -13961
▁ㅋㅔㄴㅌㅓㅋㅣ -13962
▁ㅌㅡㄹㅔㅇㅣㄴㅣㅇ -13963
▁Sm -13964
▁ㅎㅡㄹㅣ -13965
ㅋㅗㅇㅣㄴ -13966
▁ㅂㅜㅍㅜㄹ -13967
▁ㅇㅗㄹㄹㅔ -13968
▁ㅍㅕㄴㅎㅏ -13969
ㅎㅜㄴㅈㅏㅇ -13970
▁ㄱㅏㅎㅐㅈㅏ -13971
▁ㅂㅗㄱㅈㅣㄱ -13972
▁ㅎㅗㅋㅡㅅㅡ -13973
▁ㅂㅏㄹㄱㅣㅇㅣㄴ -13974
▁ㄹㅣㅇㅜㄷㅔㅈㅏㄴ -13975
▁ㅋㅡㄹㄹㅔㅁㅔㄴㅅㅡ -13976
▁ㄹㅣㅇㅜㄷㅔㅈㅏㄴㅔㅇㅣㄹㅜ -13977
UC -13978
▁ㅍㅣㅊㅣ -13979
▁ㄱㅘㅇㅣㅇ -13980
▁ㅇㅗㅇㅈㅜ -13981
▁ㅈㅏㅇㅆㅜ -13982
▁ㄱㅜㄱㄱㅏㅇ -13983
▁ㅇㅘㅇㅅㅓㅇ -13984
▁ㅆㅗㄷㅇㅏㅈㅣ -13985
▁ㅇㅠㅈㅓㄴㅊㅔ -13986
▁ㄷㅏㅇㅅㅓㄴㅈㅏ -13987
ool -13988
▁AL -13989
▁Ab -13990
ㅣㅈㅡㅁ -13991
▁ㄱㅕㅇㅁㅏ -13992
▁ㅇㅘㄴㅂㅣ -13993
▁ㅁㅏㄹㄷㅏㄴ -13994
▁ㅇㅏㅁㅜㄹㅣ -13995
▁ㅋㅡㄹㄹㅣㄱ -13996
▁ㅌㅔㅁㅜㄹㅡ -13997
▁ㄱㅐㅈㅓㅇㅇㅏㄴ -13998
▁ㅇㅕㅈㅣㄴㅈㅗㄱ -13999
▁ㅈㅏㄱㅍㅜㅁㅅㅏㅇ -14000
▁ㅈㅣㅂㅈㅓㅇㄱㅘㄴ -14001
▁ㅇㅗㄴㅌㅏㄹㅣㅇㅗㅈㅜ -14002
▁ㅍㅏㄹㅈㅏㄱㅈㅣㅂㅜㅇ -14003
stem -14004
▁ㄱㅛㅈㅔ -14005
▁ㄷㅡㄹㅜ -14006
▁ㅁㅏㅌㅡ -14007
ㅣㅇㅓㄹㅣㅇ -14008
▁ㅍㅏㅊㅜㅇㄹㅠ -14009
▁ㅅㅡㅇㅈㅓㅇㅇㅝㄴ -14010
▁ㅊㅛ -14011
▁ㅇㅢㄹㅖ -14012
▁ㄱㅘㅇㅕㄴ -14013
▁ㄴㅏㅂㅂㅜ -14014
▁ㄴㅣㄴㅈㅏ -14015
▁ㅁㅣㅇㅣㄴ -14016
▁ㅂㅗㅈㅓㅇ -14017
▁ㅅㅓㅇㄱㅏ -14018
▁ㅈㅐㅂㅓㄹ -14019
▁ㅋㅗㅇㅣㄴ -14020
▁ㄱㅡㄹㅐㅁㅣ -14021
▁ㅂㅏㄴㅈㅓㅁ -14022
▁ㄱㅗㅅㅓㅇㄱㅜㄴ -14023
▁ㅅㅔㅇㅣㄴㅌㅡㄹ -14024
▁ㄱㅕㅇㅂㅗㄱㄱㅜㅇ -14025
▁-- -14026
▁MA -14027
ㅗㄹㅓ -14028
▁ㅋㅗㅂ -14029
ㅗㅂㅣㅊㅣ -14030
▁ㅅㅏㄱㅅㅡ -14031
▁ㅇㅚㅎㅘㄴ -14032
▁ㅈㅓㄴㄱㅛ -14033
▁ㅅㅣㄴㅂㅗㅇ -14034
▁ㅇㅔㄹㄹㅓㄴ -14035
▁ㄷㅐㅍㅛㄷㅏㄴ -14036
ㅜㅇㅝㄴㅅㅜㅇㅇㅣ -14037
▁1891 -14038
▁ㅇㅗㄷㅐ -14039
ㅇㅕㄹㅊㅏ -14040
▁ㄷㅏㅎㅐㅇ -14041
▁ㅁㅗㄹㄷㅜ -14042
▁ㅉㅣㄱㅎㅣ -14043
▁ㄴㅏㅂㅈㅏㄱ -14044
▁ㅇㅏㄹㅁㅏㅈ -14045
▁ㅇㅑㅇㅁㅕㄴ -14046
ㅅㅗㄹㄹㅣㄴㅣ -14047
▁section -14048
▁ㅂㅜㄷㅏㅍㅔㅅㅡㅌㅡ -14049
▁ㄹㄹㅏ -14050
▁ㅂㅏㅅㅣ -14051
▁ㅊㅔㅎㅏ -14052
▁ㅌㅗㅇㅠ -14053
▁ㅈㅓㅂㅎㅏㅂ -14054
▁ㅈㅜㄴㅏㄹㅏ -14055
▁ㅍㅔㅌㅡㄹㅗ -14056
▁ㄸㅟㅇㅓㄴㅓㅁ -14057
▁ㄷㅡㅁㅣㅌㅡㄹㅣ -14058
▁ㅎㅏㅂㅊㅏㅇㄷㅏㄴ -14059
▁NS -14060
ㅇㅇㅣ -14061
ㄷㅓㄹㅣ -14062
▁ㅋㅐㅍㅣ -14063
ㅊㅣㄴㅇㅘㅇ -14064
▁ㅅㅑㅂ -14065
ㅏㄴㄷㅗ -14066
▁ㄷㅜㅇㅓ -14067
▁ㅈㅣㅎㅏㅇ -14068
▁ㅎㅕㄹㅇㅏㅂ -14069
▁ㅎㅐㅅㅓㄱㅎㅏㄱ -14070
ise -14071
ㅂㅏㅎㅡ -14072
ㅆㅡㄱㅣ -14073
▁ㄱㅐㄱㅡ -14074
▁ㅋㅔㄹㅡ -14075
ㅂㅣㅇㅏㄴ -14076
▁ㅅㅏㅎㅏㄹ -14077
▁ㅅㅐㅇㄷㅗ -14078
▁ㅇㅕㄱㅓㄴ -14079
▁ㅈㅗㅅㅣㅁ -14080
▁ㅈㅜㅇㄱㅗ -14081
▁ㄷㅏㅂㅣㄷㅡ -14082
▁ㄷㅏㄱㅜㄱㅈㅓㄱ -14083
70 -14084
▁ㄱㅣㅁㅇㅕㄴ -14085
▁ㄷㅡㅇㄷㅏㄴ -14086
▁ㅇㅐㄴㄷㅡㄹㅠ -14087
▁qu -14088
▁Can -14089
ㅈㅔㅂㅣ -14090
▁ㅅㅖㅇㅣ -14091
▁ㅇㅏㅈㅣ -14092
ㅌㅣㄴㅔㄴ -14093
▁ㄱㅜㄱㅏㅇ -14094
▁ㄴㅜㄴㅊㅣ -14095
▁ㄷㅟㄴㅡㅈ -14096
ㅋㅡㄹㄹㅓㅂ -14097
▁ㅍㅗㅎㅏㅇㅅㅣ -14098
ai -14099
ower -14100
▁ㄱㅏㅇㅑ -14101
▁ㅇㅗㅁㅔ -14102
▁ㄹㅏㄴㅅㅡ -14103
▁ㅇㅣㅇㅡㄴ -14104
ㅅㅡㅌㅜㅅㅡ -14105
▁ㅈㅔㅍㅡㄹㅣ -14106
ㅁㅗㄹㄹㅗㅈㅣ -14107
▁ㅂㅓㅁㅈㅚㅈㅏ -14108
▁ㅅㅣㅌㅣㅈㅡㄴ -14109
▁ㅋㅗㅎㅗㅁㅗㄹㄹㅗㅈㅣ -14110
▁ㄴㅗㅅㅏ -14111
▁ㄱㅓㄲㅜㄹ -14112
▁ㅅㅡㅋㅣㄴ -14113
▁ㅇㅕㅅㅂㅗ -14114
▁ㅈㅗㅇㅁㅛ -14115
▁ㅈㅜㅇㅅㅗ -14116
▁ㅍㅕㄴㅈㅔ -14117
▁ㄱㅖㅅㅡㅇㅈㅏ -14118
▁ㅎㅏㅇㅇㅏㄹㅣ -14119
▁ㅇㅏㄴㅅㅏㄴㅅㅣ -14120
▁ㅂㅔㅅㅡㅌㅡㅅㅔㄹㄹㅓ -14121
▁q -14122
ㅅㅣㄷㅐ -14123
▁ㄱㅘㄷㅏ -14124
▁ㅁㅐㄹㅣㅂ -14125
▁ㅇㅔㄷㅜㅇ -14126
▁ㅍㅏㄹㅏㅇ -14127
▁ㅋㅏㅇㅣㄹㅗ -14128
▁ㄹㅣㄹㄹㅔㅇㅣ -14129
▁ㅅㅔㄴㄷㅏㅇㅣ -14130
▁ㅌㅏㅇㅣㅁㅈㅡ -14131
▁ㅇㅣㅂㅏㄹㅏㅋㅣ -14132
▁ㅎㅏㅇㅣㅂㅡㄹㅣㄷㅡ -14133
ㅋㅣㅁ -14134
ㅂㅡㄹㅔ -14135
▁ㄹㅏㅂㅏ -14136
▁ㅅㅓㅇㅟ -14137
▁ㅅㅗㄷㅐ -14138
▁ㅅㅣㅈㅣㄴ -14139
ㅂㅏㅂㅡㅇㅞ -14140
▁ㅈㅣㅁㅂㅏㅂㅡㅇㅞ -14141
▁ㅌㅜㅎㅏ -14142
▁ㅈㅏㅋㅔㅅ -14143
▁ㅂㅓㅂㅈㅓㄴ -14144
▁ㄱㅛㅌㅗㅇㅅㅏㄱㅗ -14145
▁ㄷㅐㅎㅏㄴㅎㅏㅇㄱㅗㅇ -14146
NG -14147
▁705 -14148
ㅅㅔㄷㅏ -14149
ㅇㅠㅇㅖ -14150
▁1873 -14151
▁ㅁㅏㅌㅏ -14152
▁ㅇㅕㄷㅐ -14153
▁ㅍㅣㄹㅗ -14154
▁ㅎㅐㅅㅣ -14155
ㅔㄹㅡㅋㅡ -14156
▁ㅂㅓㅍㅓㄹ -14157
▁ㅇㅏㄷㅔㄹ -14158
▁ㅈㅣㄴㅎㅡㄺ -14159
▁ㄱㅐㅊㅔㄱㅜㄴ -14160
▁ㅈㅣㅂㅎㅐㅇㅇㅠㅇㅖ -14161
che -14162
▁Good -14163
▁ㅇㅏㄷㅣ -14164
▁ㅋㅏㅇㅗ -14165
▁ㅁㅗㅂㅣㄹ -14166
▁ㅇㅐㅇㅘㄴ -14167
▁ㅊㅚㅈㅏㅇ -14168
▁ㅋㅗㅁㅟㄴ -14169
▁ㅊㅣㄴㅁㅣㄹ -14170
ㅎㅐㅅㅏㄹㅇㅣㅍㅜㄹ -14171
▁ㄹㅗㅂㅡ -14172
▁ㄱㅜㄴㅅㅔ -14173
▁ㄷㅔㄴㅅㅛ -14174
▁ㅇㅝㄴㄷㅗㅇ -14175
▁ㄱㅣㅎㅚㄱㅅㅏ -14176
▁ㅅㅑㄹㄹ -14177
▁ㅍㅡㄹㄹㅣ -14178
▁ㅅㅜㅅㅣㄹㅗ -14179
ㅏㅎㅡ -14180
ㅁㅗㅅㅡ -14181
▁ㄹㅏㄹㅏ -14182
▁ㅌㅏㄱㅜ -14183
▁Black -14184
▁ㄴㅏㅁㅇㅏㄱ -14185
▁ㅁㅏㅅㅡㅋㅗ -14186
▁ㅇㅑㅇㅇㅑㅇ -14187
▁ㅇㅏㅇㅗㅁㅗㄹㅣ -14188
ank -14189
▁MM -14190
▁ㅈㅔㅁ -14191
▁ㄷㅗㄷㅗ -14192
▁ㅂㅏㄹㅎㅏ -14193
▁ㅎㅏㅇㅇㅜ -14194
▁ㅎㅐㅋㅣㅇ -14195
▁ㅅㅏㄴㅅㅣㄴ -14196
▁ㅅㅗㅇㅈㅣㄴ -14197
▁ㅂㅕㄴㄱㅘㅇㅅㅓㅇ -14198
▁AI -14199
▁Let -14200
ㅁㅜㅈㅔ -14201
ㅎㅗㅇㅣㄴ -14202
▁ㅇㅕㄴㅎㅘ -14203
▁ㅇㅚㅅㅏㅇ -14204
▁ㅋㅐㄴㅗㄴ -14205
ㅋㅣㄴㅅㅡㄴ -14206
▁ㄹㅏㅇㅣㅅㅡ -14207
▁ㅎㅓㄴㄴㅏㅂ -14208
▁ㅈㅔㄴㅓㄹㅓㄹ -14209
▁ㅂㅏㄹㅏㅁㅈㅣㄱ -14210
▁ㄴㅏㅇㅁㅏㄴㅈㅜㅇㅢ -14211
ㄲㅗ -14212
ㅜㅁㅓㄴ -14213
▁ㄱㅖㅈㅘ -14214
▁ㅅㅠㄱㅗ -14215
▁ㅋㅣㅈㅡ -14216
ㅅㅜㅇㅕㅁ -14217
▁ㄷㅜㅌㅓㅂ -14218
▁ㅇㅣㅂㅅㅣ -14219
ㅅㅡㅂㅏㄱㅅㅡ -14220
ㅏㅍㅡㄹㅣㅋㅏ -14221
▁ㅍㅔㄹㅡㄷㅣㄴㅏㄴㅌㅡ -14222
▁PM -14223
ㅅㅜㄱㅛ -14224
ㅔㄹㄹㅗ -14225
▁ㅊㅔㄴㅐ -14226
ㅔㄹㅡㅌㅡ -14227
▁ㅇㅏㅅㅟㅂ -14228
▁ㅁㅜㄴㅈㅓㅇ -14229
▁AU -14230
▁ㅈㅗㅇㅓ -14231
▁ㅍㅏㅈㅜ -14232
▁ㅂㅏㄹㅍㅗ -14233
▁ㅅㅡㅇㅈㅣ -14234
▁ㅌㅓㅂㅣㄴ -14235
▁ㄴㅏㄴㅇㅣㄷㅗ -14236
▁ㅇㅗㅅㅡㅌㅡㄹㅣ -14237
ㄸㅓㄱ -14238
▁ㅅㅜㅈㅜ -14239
▁ㅍㅣㅅㅕ -14240
ㅁㅣㄱㅕㅇ -14241
▁ㄱㅜㄱㅎㅗ -14242
▁ㅂㅕㅇㄱㅘ -14243
▁ㅇㅢㅇㅛㅇ -14244
▁ㅊㅓㅂㅏㅇ -14245
▁ㄴㅔㄱㅅㅔㄴ -14246
▁ㅁㅏㄴㅈㅓㅁ -14247
▁ㅊㅓㅇㅁㅜㄴ -14248
▁ㄷㅏㅅㅣㄱㅡㅁ -14249
▁ㅇㅔㄱㅅㅡㅍㅗ -14250
ㅂㅡㄱ -14251
▁650 -14252
ㅈㅣㄴㄱㅜ -14253
▁ㄱㅜㅅㅡㄹ -14254
▁ㅇㅛㅈㅡㅁ -14255
▁ㅅㅏㄴㅊㅐㄱ -14256
▁ㅈㅗㅇㅇㅓㅂ -14257
▁ㅍㅡㄹㅔㄷㅡ -14258
▁ㅂㅜㄹㅡㅈㅜㅇㅏ -14259
ㅎㅏㅂㅈㅜㅇㄱㅜㄱ -14260
ㅉㅗㅊ -14261
ings -14262
▁550 -14263
▁ㅂㅏㅅ -14264
▁ㅆㅜㅇ -14265
▁ㅎㅐㄹ -14266
ㅁㅜㅅㅡ -14267
ㅇㅏㅇㅣ -14268
▁ㄷㅐㅁㅗㄱ -14269
▁ㅈㅗㄱㅗㅇ -14270
▁ㅎㅘㅇㅈㅏ -14271
▁ㄱㅏㅇㅣㄷㅡ -14272
▁ㄱㅘㅇㅇㅓㅂ -14273
▁ㅎㅏㅂㄱㅡㅁ -14274
▁ㅈㅡㅇㅈㅗㅂㅜ -14275
▁ㄱㅣㅁㅅㅓㅇㅅㅜ -14276
▁ㄴㅗㄷㅗㅇㄹㅕㄱ -14277
▁ㅂㅐㄱㅇㅏㄱㄱㅘㄴ -14278
▁ㅅㅏㅇㅣㅌㅏㅁㅏㅎㅕㄴ -14279
▁-& -14280
▁ㅇㅣㄹㅖ -14281
▁ㄴㅏㅁㅈㅗ -14282
▁ㅈㅏㅁㄱㅣ -14283
▁ㅈㅏㄱㄴㅕㄴ -14284
▁ㄹㅔㅇㅣㄴㅈㅓ -14285
▁ㅈㅏㅇㅚㅅㅓㄴ -14286
▁ㅇㅣㄴㅗㅇㅜㅇㅔ -14287
▁ㅁㅔㅇㅜ -14288
▁ㅍㅗㄷㅐ -14289
ㅏㄹㅣㅇㅏ -14290
▁ㄱㅕㅇㅈㅣ -14291
▁ㄱㅘㅇㅈㅏ -14292
ㄱㅏㄱㅎㅕㅇ -14293
ㄷㅗㅇㅁㅐㅇ -14294
▁ㅈㅣㄴㅇㅝㄴ -14295
▁ㅎㅏㄴㅊㅏㅇ -14296
DS -14297
ㅡㄱㅗㅅㅡ -14298
▁ㅅㅣㅇㅕㄱ -14299
▁ㄷㅡㅇㄷㅡㅇ -14300
▁ㅁㅜㄴㅈㅜㅇ -14301
▁ㅂㅣㄱㅂㅐㅇ -14302
▁ㅍㅣㅊㅡㅂㅓㄱㅡ -14303
▁ㅁㅜㅅㅗㄹㄹㅣㄴㅣ -14304
▁El -14305
▁1867 -14306
▁ㅂㅐㅇㅏ -14307
▁ㅇㅏㄷㅡ -14308
ㅅㅜㅅㅏㄴ -14309
▁ㅎㅘㄹㅈㅏ -14310
▁ㅁㅏㅈㅊㅜㅁ -14311
▁ㅌㅡㄴㅌㅡㄴ -14312
▁ㅈㅐㅍㅏㄴㅂㅜ -14313
▁ㅅㅗㄴㅈㅏㅂㅇㅣ -14314
ㄲㅡㄴ -14315
ㅇㅔㄴ -14316
ㅅㅣㄴㅣ -14317
▁ㅅㅔㄹㅔ -14318
ㄷㅏㅂㅏㄹ -14319
ㅋㅡㄹㅣㅁ -14320
ㄷㅜㄹㅏㅅㅡ -14321
ㅂㅏㅇㄱㅜㄴ -14322
▁ㅂㅏㄹㄱㅏㄹㅏㄱ -14323
▁ㅇㅗㄴㄷㅜㄹㅏㅅㅡ -14324
ㄹㅗㅋㅜ -14325
▁ㅈㅣㅇㅏ -14326
ㅈㅓㅇㅅㅏ -14327
ㅓㅅㅡㅌㅓ -14328
▁ㄱㅣㅌㅗㅇ -14329
▁ㅇㅘㅇㅣㄷㅡ -14330
▁ㅈㅣㄱㄱㅘㄴ -14331
▁ㅍㅡㄹㅗㅌㅔ -14332
ㅈㅓㄹㄷㅗㅅㅏ -14333
▁ㅎㅕㅂㄷㅗㅇㅈㅗㅎㅏㅂ -14334
ㅎㅞ -14335
▁ㅇㅏㄹㅚ -14336
▁ㅈㅏㅇㅗ -14337
▁ㄱㅣㅁㅊㅣ -14338
▁ㅁㅏㅇㅜㄴ -14339
▁ㅊㅐㄱㅜㄹ -14340
▁ㅋㅣㄹㅣㄹ -14341
ㅌㅏㄴㅏㅂㅔ -14342
▁ㅈㅓㄱㅂㅏㄹ -14343
▁ㅌㅡㄹㅗㅌㅡ -14344
▁ㅎㅡㅂㅇㅕㄴ -14345
▁ㅎㅏㅂㅏㄴㄱㅣ -14346
▁ㅈㅗㅅㅓㄴㅇㅘㅇㅈㅗ -14347
▁ㅋㅣㅅ -14348
ㄹㅔㄹㅡ -14349
▁ㅇㅔㅊㅣ -14350
▁ㄱㅓㄴㄴㅔ -14351
▁ㄱㅕㅇㅁㅐ -14352
▁ㅂㅓㄹㄹㅣ -14353
▁ㅅㅓㅎㅏㄴ -14354
▁ㅍㅣㄹㄷㅜ -14355
ㅅㅓㅇㄱㅕㅇ -14356
▁ㅂㅜㄱㅂㅓㄹ -14357
▁ㅎㅟㅂㅆㅡㄹ -14358
▁ㄱㅏㄹㅇㅏㅌㅏ -14359
▁ㅂㅜㅇㅕㄱㅜㄴ -14360
ㅋㅏㅁ -14361
▁ㄱㅗㅎㅏ -14362
▁ㅅㅔㅁㅜ -14363
ㅣㅁㅐㄱㅣㅁ -14364
▁ㄷㅏㅇㄷㅏㅇ -14365
▁ㅅㅏㄹㅉㅏㄱ -14366
▁ㅍㅣㄹㅇㅕㄴ -14367
▁ㅇㅐㄹㅂㅓㅌㅡ -14368
▁ㅈㅏㄹㅣㅁㅐㄱㅣㅁ -14369
ta -14370
▁802 -14371
▁ㅍㅜㄷㅡ -14372
ㅁㅗㅅㅕㄴ -14373
ㅜㅇㅣㅅㅡ -14374
▁ㅇㅖㅈㅗㅇ -14375
▁ㅍㅔㄹㅡㅁ -14376
▁ㄲㅗㅊㅇㅣㅍ -14377
▁ㅈㅣㄴㅇㅓㄴ -14378
▁ㄱㅕㅌㄷㅡㄹㅇㅣ -14379
▁ㅇㅛㅇㅅㅏㄴㄱㅜ -14380
▁ㄱㅏㅁㅇㅕㅁㅈㅡㅇ -14381
▁1862 -14382
▁ㄹㅔㅂㅓ -14383
▁ㄱㅘㄱㅕㄱ -14384
▁ㄱㅘㄹㅎㅗ -14385
▁ㅅㅣㄴㅇㅢ -14386
▁ㄱㅕㅇㅇㅡㄴ -14387
▁ㅂㅗㄹㄹㅗㄱ -14388
▁ㅇㅕㄹㄹㅕㄹ -14389
▁ㅍㅣㄹㅎㅏㅁ -14390
▁ㅅㅡㄹㄹㅗㄱㅓㄴ -14391
▁ㅇㅑㅋㅜㄹㅡㅌㅡ -14392
▁ㄱㅜㄱㅁㅣㄴㅎㅏㄱㄱㅛ -14393
ky -14394
lar -14395
ㅏㅂㅏ -14396
ㅅㅣㄱㅔ -14397
▁ㄱㅐㄱㅣ -14398
▁ㅇㅗㄱㅅㅣ -14399
▁ㅈㅣㄱㄱㅛ -14400
▁ㄱㅡㄹㄹㅔㄴ -14401
▁ㅇㅘㅅㅅㅡㄴ -14402
▁ㅊㅣㄹㅛㅈㅔ -14403
▁ㅁㅐㄷㅏㄹㄹㅣ -14404
▁ㅇㅣㄷㅔㅇㅗㄹ -14405
▁ㅇㅏㄹㅍㅗㄴㅅㅗ -14406
▁ㅅㅏㅁㄱㅜㄱㅇㅠㅅㅏ -14407
▁ㅁㅣㅎㅏㅂㅈㅜㅇㄱㅜㄱ -14408
▁ㄱㅙㄴ -14409
▁ㅁㅜㅈㅣ -14410
ㄹㅔㅂㅏㄴ -14411
▁ㄱㅡㅁㄱㅗ -14412
▁ㅁㅏㄹㅣㅇ -14413
ㅇㅏㅁㄷㅗㅇ -14414
▁ㄱㅏㄴㅍㅏㄴ -14415
▁ㄱㅓㄹㅈㅏㄱ -14416
▁ㅊㅗㄱㅂㅏㄹ -14417
▁ㅂㅏㄴㅈㅓㅇㅂㅜ -14418
▁ㅎㅗㄹㄷㅣㅇㅅㅡ -14419
▁ㄱㅗㅇㅌㅗㅇㅈㅓㅁ -14420
tr -14421
ㅡㄱㅗ -14422
▁6000 -14423
▁ㅁㅏㄱㅏ -14424
▁ㄱㅏㅁㅜㄹ -14425
▁ㄱㅖㅇㅓㅁ -14426
▁ㄱㅡㅂㅎㅏ -14427
▁ㅇㅏㅁㅏㄹ -14428
▁ㅇㅟㅂㅓㅂ -14429
▁ㅊㅐㅇㄱㅣ -14430
ㅌㅏㅁㅣㅇㅏ -14431
▁ㅇㅣㅂㅅㅜㄹ -14432
▁ㅊㅜㅇㄷㅏㅇ -14433
▁ㅁㅜㄹㅗㅁㅏㅊㅣ -14434
▁ㅂㅗㅇㅏㄴㅂㅓㅂ -14435
▁ㅊㅜㄹㅇㅣㅂㅁㅜㄴ -14436
▁ㅣ -14437
▁LS -14438
▁ㅈㅗㅅㅣ -14439
▁ㄷㅏㄴㅈㅏ -14440
▁ㅊㅟㅎㅑㅇ -14441
▁ㅁㅔㅅㅗㅍㅗ -14442
▁ㄱㅕㅇㅎㅢㄷㅐ -14443
▁ㅅㅏㅁㅜㄱㅜㄱ -14444
▁ㅊㅐㄹㄹㅣㄴㅈㅓ -14445
▁ㅂㅐㄱㄱㅘㅅㅏㅈㅓㄴ -14446
▁ㅁㅔㅅㅗㅍㅗㅌㅏㅁㅣㅇㅏ -14447
▁Ac -14448
rist -14449
▁Ser -14450
ㄹㅗㄱㅣ -14451
▁1878 -14452
▁ㄹㅣㅊㅣㅁ -14453
▁ㄴㅠㄱㅣㄴㅣ -14454
▁ㅈㅡㅇㄱㅏㅇ -14455
▁ㅂㅡㄹㄹㅏㄷㅣ -14456
▁ㅍㅗㅁㅠㄹㄹㅓ -14457
ㅋㅏㄹㅡㅌㅏ -14458
▁ㅂㅏㄱㅈㅣㄴ -14459
▁ㅈㅓㅇㅁㅕㅇ -14460
▁ㅈㅣㅈㅏㅊㅔ -14461
▁ㅍㅕㄴㅈㅣㅂㅈㅏㅇ -14462
▁ㄷㅔㄱ -14463
ㅂㅏㅈㅣ -14464
▁ㄱㅣㅃㅡ -14465
▁ㅂㅜㅇㅓ -14466
▁ㅅㅗㅈㅏㄱ -14467
▁ㅊㅏㅁㅅㅜ -14468
▁ㄴㅗㅇㅅㅓㅇ -14469
▁ㅇㅣㅅㅓㅇㅈㅣㄹ -14470
▁UC -14471
ㄱㅟㄴ -14472
▁ㅌㅓㅇ -14473
▁ㅈㅗㅅㅓ -14474
▁ㄷㅏㅇㄱㅘ -14475
▁ㄹㅔㅁㅗㄴ -14476
▁ㅇㅠㄹㅣㅁ -14477
▁ㅌㅔㄱㅅㅡ -14478
▁ㅂㅏㄴㅎㅏㅇ -14479
▁ㅈㅔㅈㅗㅅㅏ -14480
▁ㅇㅏㅍㅅㅔㅇㅜ -14481
▁ㅇㅣㄹㅂㅗㄴㅅㅣㄱ -14482
▁Qu -14483
▁ㄲㅞ -14484
▁ㅁㅔㅊㅡ -14485
▁ㅌㅐㅇㅏ -14486
▁ㅎㅏㅈㅜㅇ -14487
▁ㄱㅓㄲㅜㄹㅗ -14488
▁ㄷㅗㅇㅌㅏㄱ -14489
▁ㅇㅗㄱㅊㅓㄴ -14490
▁ㄷㅏㅇㅣㄴㅗㅅㅡ -14491
▁ㅇㅕㄴㅊㅜㄹㄱㅏ -14492
▁ㅇㅛㅎㅏㄴㅔㅅㅡ -14493
ㅆㅡㄴㅗ -14494
▁ㄱㅘㅈㅏ -14495
▁ㄷㅓㅎㅏ -14496
▁ㄹㅏㅈㅣ -14497
▁ㄹㅗㄴㅣ -14498
▁ㄹㅣㅌㅡ -14499
▁ㅇㅐㄱㅣ -14500
▁ㅇㅗㅇㅜ -14501
ㅔㅇㅣㄹㅏ -14502
▁ㅈㅗㅈㅜㄴ -14503
▁ㅂㅜㄴㄱㅕㅇ -14504
▁ㅇㅛㅇㄱㅏㅁ -14505
▁ㅊㅜㅇㅅㅣㄴ -14506
▁ㅋㅡㄹㅜㅈㅡ -14507
hem -14508
▁MSL -14509
▁ㄱㅛㅅㅓ -14510
▁ㄹㅔㅂㅣ -14511
▁ㅊㅓㅊㅣ -14512
▁ㅂㅜㅅㅣㄹ -14513
▁ㅇㅣㄴㅇㅟ -14514
ㅂㅔㄴㅅㅕㄴ -14515
▁ㄱㅜㄹㅂㅗㄱ -14516
▁ㅇㅣㄹㅅㅓㄹ -14517
▁ㅈㅏㅇㅅㅣㄴ -14518
▁ㅈㅡㅇㅅㅣㄱ -14519
▁ㅋㅗㅅㅡㅌㅡ -14520
▁ㄱㅣㅇㅝㄴㅎㅜ -14521
▁ㅇㅣㄷㅔㅇㅗㄹㄹㅗㄱㅣ -14522
▁ㅇㅣㄹㄹㅣㄴㅗㅇㅣㅈㅜ -14523
▁HMS -14524
▁ㅅㅑㄹㅡ -14525
▁ㄷㅏㅁㅗㄱ -14526
▁ㅈㅣㄱㅕㅇ -14527
▁ㅊㅏㄱㅊㅟ -14528
▁ㄲㅡㄹㅇㅓㅇ -14529
▁ㅇㅠㄴㅊㅣㅇ -14530
▁ㅈㅡㅇㅂㅏㄹ -14531
▁ㅇㅣㄹㄹㅓㅅㅡㅌㅡ -14532
▁ㄹㅡㅂ -14533
▁ㅍㅏㄱㅣ -14534
▁ㅁㅗㅂㅏㄴ -14535
▁ㅌㅜㅅㅣㄴ -14536
▁ㄱㅜㄱㅇㅣㄴ -14537
▁ㄱㅡㅂㅅㅓㅇ -14538
▁ㅈㅓㄴㅁㅕㄹ -14539
▁ㅇㅏㄴㄷㅗㅇㅅㅣ -14540
▁tr -14541
ㅐㅌㅣ -14542
▁ㅁㅐㅅㅠ -14543
▁ㅇㅣㅅㅗ -14544
▁ㅎㅣㄴㅗ -14545
ㅌㅜㅇㅇㅣ -14546
ㅓㅅㅡㅌㅏ -14547
▁ㄷㅏㄹㅑㅇ -14548
▁ㄷㅐㄹㅣㅅㅓㄱ -14549
▁ㅂㅜㄷㅡㅇㅅㅣㄱ -14550
▁ㅅㅡㅌㅔㅇㅣㅌㅡ -14551
▁ㅇㅣㄴㅋㅗㄷㅣㅇ -14552
▁ㅋㅡㄹㅣㅅㅡㅌㅣㄴ -14553
ae -14554
▁Ag -14555
▁And -14556
▁ㄷㅐㄴㅣ -14557
ㅈㅔㄹㄹㅗ -14558
▁ㅍㅗㅊㅓㄴ -14559
▁ㅇㅞㅇㅣㅂㅡ -14560
▁ㅅㅡㅌㅐㄴㄷㅡ -14561
▁ㅈㅣㅎㅏㅇㅕㄱ -14562
▁ㅍㅡㄹㄹㅏㅅㅡ -14563
▁ㄸㅏㅁ -14564
▁ㅅㅖㄴ -14565
▁ㄴㅐㅈㅐ -14566
▁ㅁㅜㅈㅏ -14567
▁ㅅㅏㄱㅛ -14568
▁ㅅㅓㅈㅣ -14569
▁ㅇㅗㅅㅣ -14570
▁ㅂㅓㄴㄱㅐ -14571
▁ㅇㅕㄹㅅㅚ -14572
▁ㅈㅗㅅㅓㄱ -14573
▁ㅍㅐㅋㅣㅅ -14574
ㅅㅣㅇㅏㄷㅡ -14575
▁ㅇㅘㄴㅁㅏㄴ -14576
▁ㅊㅜㅇㅊㅣㅇ -14577
▁ㅎㅓㄴㅂㅕㅇ -14578
ㅍㅡㄹㄹㅗㄹㅓ -14579
▁ㅂㅗㅇㅇㅜㄹㅣ -14580
▁ㅇㅓㄴㄹㅗㄴㅅㅏ -14581
▁ㅅㅣㄴㅅㅣㄴㅐㅌㅣ -14582
▁ㅍㅡㄹㅗㅁㅗㅅㅕㄴ -14583
▁ㅎㅐㄱㅂㅜㄴㅇㅕㄹ -14584
▁ㅅㅣㄴㅎㅏㄴㅇㅡㄴㅎㅐㅇ -14585
▁ㅇㅣㄱㅅㅡㅍㅡㄹㄹㅗㄹㅓ -14586
▁ㅍㅐㅅ -14587
ㄷㅏㅅㅡ -14588
▁ㄹㅏㄴㅣ -14589
▁ㄷㅏㄴㅈㅗ -14590
▁ㅈㅗㅈㅏㅇ -14591
▁ㅊㅏㄹㅣㅁ -14592
▁ㅎㅕㅇㅈㅜ -14593
▁ㅇㅘㅅㅔㄷㅏ -14594
▁ㅇㅠㄴㅣㅂㅓㅅㅣㅇㅏㄷㅡ -14595
▁AA -14596
ㅍㅡㄴ -14597
▁1869 -14598
ㅣㄹㅓㅅㅡ -14599
▁ㅂㅔㅇㅣㄹ -14600
▁ㅈㅣㄹㅣㄴ -14601
ㅅㅔㅇㅜㅅㅡ -14602
▁ㅇㅗㄴㄱㅓㄴ -14603
ee -14604
▁ㅋㅔㅅ -14605
ㅅㅏㅎㅘ -14606
ㅍㅏㅅㅡ -14607
ㅣㅁㅕㄴ -14608
▁ㄱㅣㅁㅛ -14609
▁ㅂㅓㅋㅡ -14610
▁ㅈㅐㄱㅗ -14611
▁ㅅㅡㅌㅗㅁ -14612
▁ㅇㅘㄴㅅㅜ -14613
▁ㅇㅑㅇㄱㅜㄴ -14614
▁ㅍㅣㄹㅁㅕㅇ -14615
▁ㅎㅡㄴㄷㅡㄹ -14616
▁ㅁㅓㄴㅣ -14617
▁ㅅㅣㄹㅡ -14618
▁ㅇㅣㅅㅣㅁ -14619
▁ㅇㅣㅈㅡㅁ -14620
▁ㅋㅗㅍㅓㄹ -14621
▁ㅇㅕㄴㅎㅐㅇ -14622
▁ㅇㅠㄱㅅㅣㄱ -14623
▁ㅈㅓㄹㅇㅑㄱ -14624
▁ㅇㅓㅂㄹㅗㄷㅡ -14625
▁ㅁㅏㅅㅡㅋㅗㅌㅡ -14626
▁ㅅㅡㅋㅔㅇㅣㅌㅡ -14627
▁ㅊㅣㄴㅅㅓㄴㄱㅕㅇㄱㅣ -14628
▁ㄱㅝㄹ -14629
▁ㅈㅡㅂ -14630
▁ㅊㅣㅇㅣ -14631
▁ㄱㅘㅇㅂㅐ -14632
▁ㅅㅜㄷㅏㅇ -14633
▁ㅇㅑㅅㅣㅁ -14634
▁ㄱㅏㄴㄱㅕㄹ -14635
▁ㅁㅏㅍㅗㄱㅜ -14636
▁ㅅㅓㄴㅇㅠㄹ -14637
▁ㅈㅏㄴㅈㅗㄴ -14638
▁ㅎㅏㅇㅅㅐㅇ -14639
▁ㄱㅣㅂ -14640
▁ㅅㅏㅇㅅㅓㄹ -14641
▁ㅊㅟㄹㅣㅎㅣ -14642
▁ㄹㅏㅇㅣㅍㅡㅊㅣㅎㅣ -14643
▁ㅁㅕㅇㅅㅓㅇㅎㅘㅇㅎㅜ -14644
ㅘㄱ -14645
▁ㅂㅐㅅ -14646
ㄷㅐㅈㅓㄴ -14647
ㅇㅘㅇㅎㅜ -14648
▁ㄴㅏㅌㅏㄹ -14649
▁ㅂㅡㄹㅔㄴ -14650
▁ㅍㅗㅇㅣㄴ -14651
▁return -14652
▁ㅇㅣㅂㅡㅅㅡ -14653
▁ㅋㅐㅅㅡㅌㅡ -14654
▁ㅅㅣㄴㄱㅣㄹㅗㄱ -14655
▁ㅇㅣㅂㅂㅓㅂㅂㅜ -14656
▁ㅍㅡㄹㅏㅇㅣㅈㅡ -14657
▁ㅎㅣㄹㅂㅔㄹㅡㅌㅡ -14658
▁ㅇㅕㅇㅜㅇㅝㄴㅅㅜㅇㅇㅣ -14659
▁me -14660
ㅅㅣㄴㅏ -14661
▁1592 -14662
▁ㅅㅏㅋㅜㄹ -14663
▁ㅅㅣㅁㅅㅗ -14664
▁ㅇㅣㅇㅋㅡ -14665
▁ㄱㅡㄱㅊㅏㄴ -14666
▁ㅍㅡㄹㅣㅊㅡ -14667
▁ㄴㅗㄹㅡㅁㅏㄴ -14668
▁ㄱㅣㄷㅗㅇㅈㅓㄴ -14669
▁ㅈㅗㅇㅇㅓㅂㅇㅝㄴ -14670
▁ㅋㅗㅍㅓㄹㅔㅇㅣㅅㅕㄴ -14671
▁ㅁㅐㄹ -14672
▁ㅅㅛㅋㅡ -14673
▁ㅂㅜㄱㅜㄴ -14674
▁ㅎㅘㅇㅍㅖ -14675
▁ㅂㅗㄹㄴㅔㅅ -14676
▁ㅈㅜㅇㅇㅛㅇ -14677
▁ㅍㅗㄹㅡㄴㅗ -14678
▁ㄹㅔㅈㅣㅅㅡㅌㅓ -14679
▁ㅅㅡㅇㅇㅛㅇㅊㅏ -14680
pr -14681
ata -14682
ㅔㅌㅏ -14683
▁ㅇㅣㅌㅓ -14684
▁ㅍㅣㅋㅏ -14685
▁ㅈㅣㅌㅐㅇ -14686
▁ㅌㅗㅇㅈㅣ -14687
▁ㅍㅗㅌㅏㅂ -14688
▁ㅈㅏㄱㅈㅜㅇ -14689
▁ㄱㅗㅇㅅㅣㄱㅈㅓㄴ -14690
ㅋㅝ -14691
ㅂㅔㄹㅣ -14692
▁ㄷㅏㅇㅍㅏ -14693
▁ㅁㅗㅁㅊㅔ -14694
▁ㅇㅗㄱㅌㅏ -14695
▁ㅆㅓㄴ -14696
ㅜㅇㅔㄴ -14697
▁ㄱㅣㄱㅗ -14698
▁ㅇㅏㅇㅓ -14699
▁ㅇㅟㅈㅡ -14700
▁ㅈㅏㅋㅗ -14701
▁ㅋㅜㄹㅏ -14702
▁ㄱㅏㄱㅡㄱ -14703
▁ㅂㅗㅈㅣㄱ -14704
▁ㅈㅏㄴㄷㅣ -14705
▁ㅊㅓㅈㅏㅇ -14706
▁ㅎㅏㅇㅣㅍㅓ -14707
▁ㅇㅐㄱㅅㅔㅅㅡ -14708
▁ㅈㅏㅇㄹㅗㅎㅚ -14709
▁ㅍㅡㄹㅏㄴㅊㅣㅅㅡㅋㅗ -14710
ㅓㄱㅓ -14711
▁ㄷㅗㅋㅣ -14712
▁ㅋㅜㄹㅗ -14713
▁ㄱㅗㅊㅏㄹ -14714
▁ㅂㅗㄹㅍㅡ -14715
▁ㅇㅟㅎㅓㄴ -14716
▁ㅇㅕㄴㄷㅏㄹ -14717
▁ㅊㅓㅇㄱㅏㄱ -14718
▁RC -14719
▁ab -14720
ount -14721
▁ㅊㅜㅎㅜ -14722
▁ㄱㅗㄴㅏㄴ -14723
▁ㅅㅡㅋㅣㄹ -14724
ㅌㅏㄹㅣㅇㅏ -14725
▁ㅇㅘㅌㅏㄴㅏㅂㅔ -14726
▁ㅇㅝㄴㅈㅏㅎㅐㄱ -14727
▁ㅋㅣㄹㅡㄱㅣㅅㅡ -14728
▁ㄷㅚㄷㅗㄹㅇㅏㄱㅏ -14729
▁KN -14730
▁ㅁㅜㄱㅗ -14731
▁ㅎㅔㄹㅗ -14732
▁ㄱㅜㄱㅎㅘ -14733
▁ㅇㅠㅁㅏㅇ -14734
▁ㅇㅣㅁㅗㄱ -14735
▁ㅁㅕㄴㅈㅣㄱ -14736
▁ㅇㅏㅇㅣㄹㄹㅐㄴ -14737
OU -14738
per -14739
▁Mon -14740
▁ㅂㅗㄲ -14741
ㅅㅗㄴㅕ -14742
▁ㅇㅕㅍㅗ -14743
▁ㅎㅜㄷㅡ -14744
▁ㄴㅣㄱㅅㅡ -14745
▁ㅂㅜㄱㅘㄴ -14746
▁ㅅㅓㅈㅓㅁ -14747
▁ㄱㅡㄴㅂㅏㅇ -14748
▁ㄴㅗㄴㅅㅏㄴ -14749
▁ㅅㅏㅇㅅㅓㄴ -14750
▁ㅈㅗㅇㅊㅏㄱㅇㅕㄱ -14751
▁ㄱㅗㄷㅡㅇㅎㅏㄱㅅㅐㅇ -14752
ㅇㅔㅅ -14753
▁ㅆㅓㄱ -14754
▁ㅈㅐㅁ -14755
▁ㄹㅜㄷㅗ -14756
ㅎㅜㄱㅜㄱ -14757
▁ㄷㅐㄷㅏㅁ -14758
▁ㅈㅏㄴㅎㅐ -14759
ㅔㅌㅣㅋㅓㅅ -14760
▁ㅁㅣㄴㅏㅁㅗ -14761
▁ㅂㅔㅇㄱㅗㄹ -14762
▁ㅋㅓㅁㅍㅣㄹ -14763
▁ㄱㅗㄹㅉㅏㄱㅣ -14764
▁ㅇㅕㄱㅐㄱㄱㅣ -14765
▁ㅇㅜㄴㄷㅗㅇㄹㅑㅇ -14766
▁ㅋㅗㄴㅔㅌㅣㅋㅓㅅ -14767
▁ㅋㅓㅁㅍㅣㄹㄹㅔㅇㅣㅅㅕㄴ -14768
90 -14769
ㅟㅅ -14770
▁IMF -14771
▁ㅇㅠㅇㅣ -14772
▁ㅊㅓㄴㅅㅜ -14773
ㅎㅘㄹㅇㅑㄱ -14774
▁ㄱㅐㄱㅅㅣㄹ -14775
▁ㄷㅏㄴㅇㅕㄱ -14776
▁ㅇㅓㄷㅗㅂㅣ -14777
▁ㅇㅣㅂㅊㅜㄹ -14778
▁ㅈㅓㄱㅈㅓㅇ -14779
▁ㅊㅜㄱㅇㅣㄹ -14780
▁ㅍㅣㄹㅅㅏㅂㅗㄴ -14781
▁ㅇㅠㄹㄹㅣㅇㅜㅅㅡ -14782
ade -14783
▁ㅆㅢㅇㅜ -14784
▁ㅈㅏㅂㅜ -14785
▁ㅌㅏㄷㅗ -14786
ㅌㅡㅁㅏㄴ -14787
▁ㅂㅗㅇㅠㅈㅏ -14788
▁ㅅㅏㅇㅣㅇㅓㄴㅅㅡ -14789
▁ㅆㅣㄴ -14790
▁Song -14791
▁ㄱㅗㅈㅔ -14792
▁ㅅㅓㄱㅓ -14793
ㅅㅓㄴㄱㅓ -14794
ㅇㅓㄴㅅㅡ -14795
▁ㅈㅜㄱㅗㅂㅏㄷ -14796
▁ㅎㅐㅂㅜㅎㅏㄱ -14797
▁ㅁㅐㅇㅎㅘㄹㅇㅑㄱ -14798
▁ㄱㅡㄹㄹㅗㅂㅡㅅㅏㅇ -14799
▁ㄹㅗㄷㅡㄹㅣㄱㅔㅅㅡ -14800
▁DB -14801
▁ㄲㅐㅇ -14802
ㅏㄷㅡㄹ -14803
▁ㅋㅐㅊㅣ -14804
▁ㄹㅗㅁㅏㅇ -14805
ㄱㅗㄱㄷㅗㅇ -14806
▁ㅅㅓㅇㅍㅜㅁ -14807
▁ㅈㅓㅁㅈㅣㄴ -14808
▁ㅈㅓㅇㅂㅏㄱ -14809
▁ㅈㅣㄱㅁㅜㄹ -14810
▁ㅍㅡㄹㅗㄹㄹㅔ -14811
▁ㄱㅕㅇㅈㅐㅇㅈㅏ -14812
▁ㅁㅣㄴㅏㅁㅗㅌㅗㄴㅗ -14813
▁ㅈㅣㅈㅏㅇㅂㅗㅅㅏㄹ -14814
▁ㅍㅡㄹㅗㄹㄹㅔㅌㅏㄹㅣㅇㅏ -14815
▁ㄴㅏㅊ -14816
▁ㅍㅓㅁ -14817
ㅈㅣㅇㅗ -14818
▁ㅎㅗㅋㅜ -14819
▁ㄱㅗㅇㅡㄹ -14820
▁ㅁㅜㅅㅐㄱ -14821
▁ㅅㅏㅇㄱㅘ -14822
▁ㅂㅕㅇㅍㅜㅇ -14823
▁ㅁㅐㅋㅣㄴㅌㅗㅅㅣ -14824
▁ㅋㅟㅈㅡ -14825
ㄷㅐㄱㅗㅇ -14826
ㅌㅡㅁㅐㄴ -14827
▁ㄱㅕㅇㅎㅗ -14828
▁ㄱㅡㅁㅜㄹ -14829
▁ㅇㅑㄱㅅㅏ -14830
ㅂㅡㄹㅣㅇㅏ -14831
▁ㅁㅗㄱㄷㅗㅇ -14832
▁ㅂㅏㄱㅇㅝㄴ -14833
▁ㅇㅕㄴㅇㅖㄱㅖ -14834
▁ㅇㅕㄴㅈㅜㅎㅚ -14835
▁ㄱㅜㄱㅁㅣㄴㅎㅚ -14836
▁ㅃㅏㅈㅕㄴㅏㄱㅏ -14837
▁ㄴㅏㅁㅇㅏㅅㅣㅇㅏ -14838
ium -14839
ㄱㅣㅅ -14840
▁516 -14841
ㄹㅏㅇㅑ -14842
▁ㄱㅏㅌㅏ -14843
▁ㅇㅣㅌㅡ -14844
▁ㄱㅖㄹㅛㅇ -14845
▁ㅇㅑㅇㅈㅗ -14846
▁ㅂㅏㄹㅊㅏㄱ -14847
▁ㅂㅜㄴㅂㅕㄹ -14848
▁ㅆㅏㅇㅅㅓㅇ -14849
▁ㅊㅏㅇㄹㅣㅂㅈㅏ -14850
ㅂㅜㅅㅣ -14851
ㅓㅇㅜㅁ -14852
▁ㅁㅜㅂㅣ -14853
▁ㅇㅟㄷㅗ -14854
ㅔㅇㅣㄱㅗ -14855
▁Heart -14856
▁ㄱㅣㅎㅐㅇ -14857
▁ㄴㅗㅂㅜㅇ -14858
▁ㄷㅗㅇㅈㅏ -14859
▁ㅅㅡㅌㅐㄱ -14860
▁ㄱㅡㅁㅅㅐㄱ -14861
▁ㅇㅗㅅㅡㅋㅏ -14862
▁ㅇㅚㄱㅛㅂㅜ -14863
▁ㅇㅣㄹㅅㅓㄴ -14864
▁ㅈㅜㄴㄷㅗㅇ -14865
▁ㅈㅏㄹㅣㅅㅅㅜ -14866
▁ㄱㅡㅁㄱㅏㅇㅅㅏㄴ -14867
▁ㄱㅡㄴㅂㅗㄴㅂㅓㄴㄴㅚ -14868
IX -14869
ㅈㅗㄹㅣ -14870
▁ㄲㅗㅁㅏ -14871
▁ㅇㅗㅈㅏ -14872
▁ㄱㅓㅊㅏㅇ -14873
▁ㄱㅟㅇㅣㄴ -14874
▁ㅂㅕㄴㅁㅗ -14875
▁ㅍㅛㅈㅓㄹ -14876
▁ㅅㅜㅂㅣㄷㅐ -14877
▁ㅅㅣㄴㅣㅇㅓ -14878
▁Windows -14879
▁ㅅㅐㅇㅎㅘㅎㅏㄱ -14880
▁ㅋㅡㄹㅣㅅㅡㅌㅣㄴㅏ -14881
▁ㅌㅠㅂㅡ -14882
ㅇㅓㅂㅈㅏ -14883
ㅊㅓㄹㅅㅜ -14884
▁ㅁㅏㅅㅂㅗ -14885
▁ㅅㅔㄷㅏㄴ -14886
▁ㅇㅛㅇㅎㅐ -14887
▁ㅍㅐㅅㅡㅌㅡ -14888
▁ㅇㅘㅋㅏㅇㅑㅁㅏ -14889
ㅛㄹ -14890
▁As -14891
ㅂㅏㄹㅣ -14892
▁ㄴㅏㅁㅏ -14893
▁ㄷㅐㅌㅏ -14894
▁ㄹㅏㅍㅡ -14895
▁ㄱㅓㄹㅍㅡ -14896
▁ㅇㅕㅇㅁㅣ -14897
▁ㅈㅓㄴㄷㅏㄴ -14898
▁ㅇㅣㄴㅈㅣㄷㅗ -14899
▁ㅁㅗㄱㅈㅓㄱㅈㅣ -14900
▁ㅇㅔㅇㅣㅈㅓㄴㅌㅡ -14901
▁ㅌㅡㄱㅂㅕㄹㅂㅓㅂ -14902
▁Pe -14903
▁ㅅㅕㅁ -14904
▁1840 -14905
▁ㄷㅗㄱㅈㅜ -14906
▁ㅇㅣㅈㅣㄹ -14907
▁ㅌㅔㄴㅅㅓ -14908
▁ㅂㅣㄴㅁㅣㄴ -14909
▁ㅈㅓㄹㅊㅣㄴ -14910
▁ㅇㅕㅇㅇㅠㄱㅝㄴ -14911
▁ㅅㅏㅇㅘ -14912
▁ㅈㅏㅊㅓ -14913
▁ㅋㅏㅂㅏ -14914
▁ㅋㅏㅌㅡ -14915
▁ㄴㅗㅎㅕㄴ -14916
▁ㅍㅛㅊㅜㄹ -14917
▁ㅅㅓㄷㅜㄹㅡ -14918
▁ㅇㅕㄴㅈㅜㅇ -14919
▁ㅎㅚㅇㄹㅕㅇ -14920
▁ㅁㅜㄴㅓㄸㅡㄹㅣ -14921
▁ㅂㅏㅇㅇㅟㄱㅜㄴ -14922
▁ㅎㅜㅈㅣㅇㅘㄹㅏ -14923
IF -14924
▁ㅇㅓㅅㅏ -14925
ㅇㅣㄹㅊㅣ -14926
▁ㅈㅏㅎㅐㅇ -14927
▁ㅍㅜㅇㄱㅣ -14928
▁ㅎㅡㅇㅇㅝㄴ -14929
▁Aw -14930
ㄷㅓㅂ -14931
▁Out -14932
▁ㅎㅐㅈㅣ -14933
▁ㄱㅗㄱㅜㄱ -14934
▁ㅂㅐㄱㅈㅗ -14935
▁ㅈㅓㅊㅜㄱ -14936
ㅋㅏㄹㅡㅌㅡ -14937
▁ㅅㅣㅁㅣㅈㅡ -14938
▁ㅇㅏㅇㅣㅈㅔㄴ -14939
▁ㅍㅏㅅㅣㅅㅡㅌㅡ -14940
▁AMD -14941
▁ㄴㅏㄺ -14942
▁ㄹㅐㄹㅣ -14943
▁ㅅㅡㄱㅣ -14944
▁ㅈㅏㅊㅟ -14945
▁ㅎㅚㅇㅠ -14946
▁ㄱㅣㄹㅣㄴ -14947
▁ㄷㅏㅇㅣㅇ -14948
▁ㅇㅠㄱㅗㄹ -14949
▁ㅇㅠㄴㅎㅠ -14950
▁ㄴㅔㅇㅣㅌㅡ -14951
▁ㅅㅗㄴㄴㅣㅁ -14952
ㅗㄴㅔㅅㅣㅇㅏ -14953
▁ㅇㅏㄴㅊㅏㅇㅎㅗ -14954
▁ㅅㅔㅇㅣㄴㅌㅡㄹㅜㅇㅣㅅㅡ -14955
ㅣㅇㅠ -14956
ㅎㅣㄷㅔ -14957
ㅅㅜㄷㅏㄴ -14958
▁ㅂㅣㄱㅌㅓ -14959
▁ㅇㅏㅁㅅㅜ -14960
▁ㅇㅝㄱㅅㅡ -14961
▁ㅈㅣㄴㅈㅜㅅㅣ -14962
▁ㅅㅣㅁㄹㅣㅎㅏㄱㅈㅏ -14963
itt -14964
▁sh -14965
ㄱㅗㄷ -14966
ㅎㅜㅇ -14967
▁ㅂㅓㅇ -14968
ㅐㅇㅋㅡ -14969
▁ㅎㅣㅌㅗ -14970
ㄷㅓㄴㅌㅡ -14971
▁ㅅㅣㄴㅎㅐ -14972
▁ㅇㅔㄹㄹㅏ -14973
▁ㅇㅝㄹㅎㅘ -14974
▁ㅈㅣㅁㅜㄴ -14975
▁ㅋㅣㅇㅅㅡ -14976
ㅋㅡㄹㄹㅗㄴ -14977
▁ㅂㅏㄴㅇㅣㅂ -14978
▁ㅅㅣㅁㅈㅓㅇ -14979
▁ㅍㅏㅈㅜㅅㅣ -14980
▁ㅎㅔㄹㅡㅁㅏㄴ -14981
▁ㅈㅣㅈㅣㄹㅎㅏㄱ -14982
▁ㅍㅏㄹㄲㅜㅁㅊㅣ -14983
▁ㅂㅜㄱㄱㅡㄱㅈㅓㅁ -14984
▁ㅇㅕㅇㄷㅡㅇㅍㅗㄱㅜ -14985
ㅅㅣㅅ -14986
ㅓㅎㅏ -14987
ㄱㅜㅅㅡ -14988
▁ㅍㅣㅊㅓ -14989
▁ㅊㅗㅇㅡㅁ -14990
▁ㅎㅏㅅㅏㄴ -14991
ㅈㅓㄴㅅㅓㄴ -14992
▁ㅁㅜㅅㅏㅎㅣ -14993
▁ㅅㅏㄷㅐㅂㅜ -14994
▁ㅌㅜㄹㅡㅋㅡㅁ -14995
▁ㄱㅏㅎㅘㄴㅎㅘㄴ -14996
ㅈㅜㅇㅊㅜㅂㅜㅅㅏ -14997
ㅡㅂㅗㅇ -14998
▁ㄹㅗㅈㅣ -14999
▁ㅂㅗㄹㅠ -15000
▁ㅇㅝㅅㅡ -15001
▁ㅍㅣㅋㅡ -15002
ㅂㅣㅇㅕㄱ -15003
▁ㅅㅗㅂㅏㄱ -15004
▁ㄱㅕㅁㅈㅣㄱ -15005
▁ㄱㅗㅇㅅㅏㅇ -15006
▁ㄱㅡㄴㅏㅁㅏ -15007
▁ㅁㅕㄴㅡㄹㅣ -15008
▁ㅅㅜㄷㅗㅎㅚ -15009
▁ㅊㅜㄹㄱㅜㄱ -15010
▁ㄱㅗㅁㅜㄴㅅㅓ -15011
▁ㄱㅡㄹㄹㅓㅂㅡ -15012
ㅋㅣㄴㅏ -15013
▁8000 -15014
▁ㅅㅏㄷㅡ -15015
▁ㅋㅗㅁㅏ -15016
▁ㅇㅚㅊㅓㄱ -15017
▁ㅊㅜㄹㅅㅔ -15018
▁ㅍㅐㅁㅏㅇ -15019
▁ㄹㅗㅌㅏㄹㅡ -15020
▁ㅈㅓㄱㅅㅣㅂㅈㅏ -15021
▁ㅇㅏㄴㅏㅌㅗㄹㄹㅣㅇㅏ -15022
▁ㅇㅣㅇㅏ -15023
▁ㅈㅏㄹㅜ -15024
▁ㅈㅣㅊㅔ -15025
▁ㅇㅕㅇㅅㅏ -15026
▁ㅈㅏㅈㅣㄹ -15027
ㅈㅏㄱㅈㅓㄴ -15028
▁ㄱㅝㄴㅇㅣㄱ -15029
▁ㅅㅏㄴㄴㅏㅁ -15030
▁ㅋㅓㄴㅂㅔㄴㅅㅕㄴ -15031
▁ㅂㅣㅅㅡㅁㅏㄹㅡㅋㅡ -15032
▁ㅍㅗㄹㅡㅌㅜㄱㅏㄹㅇㅓ -15033
▁Gl -15034
ㅌㅣㅈㅣ -15035
▁ㅇㅡㄹㅓ -15036
▁ㅈㅓㅎㅐ -15037
▁ㄱㅗㅇㄷㅐ -15038
▁ㅅㅐㅇㅈㅟ -15039
▁ㄱㅜㄱㄹㅕㄱ -15040
▁ㅊㅓㄴㅅㅏㅇ -15041
▁ㅅㅏㅁㅜㄱㅘㄴ -15042
▁ㅇㅏㅇㅌㅜㅇㅏㄴ -15043
▁ㅈㅔㅈㅏㄱㅈㅣㄴ -15044
▁ㅊㅓㅇㅊㅟ -15045
▁ㄷㅏㄴㅇㅑㅇ -15046
▁ㄱㅔㅇㅣㅁㄱㅣ -15047
▁ㄷㅐㄹㄹㅓㅅㅡ -15048
▁ㄹㅣㅅㅡㅂㅗㄴ -15049
▁ㅌㅗㅇㄷㅗㅅㅏ -15050
▁ㅂㅣㄷㅏㄴㅌㅓㄹ -15051
▁ㅇㅏㄹㅍㅡㄹㅔㄷㅡ -15052
able -15053
ㅋㅜㄹㅡ -15054
▁ㅁㅏㄱㅜ -15055
▁ㅅㅏㅅㅗ -15056
▁ㅇㅠㅎㅘ -15057
▁ㅈㅣㅇㅛ -15058
▁ㅋㅏㄹㅔ -15059
ㅍㅔㄹㄹㅓ -15060
ㅣㄴㅣㅊㅣ -15061
▁ㄹㅏㄴㅌㅡ -15062
▁ㅅㅜㄱㅡㅂ -15063
▁ㅅㅜㅁㅏㄴ -15064
▁ㅉㅗㅊㄱㅣ -15065
▁ㅊㅓㄹㅈㅏ -15066
▁ㅊㅚㄴㅏㅁ -15067
▁ㅌㅏㄱㄱㅜ -15068
▁ㅅㅏㅇㄷㅗㅇ -15069
▁ㅇㅏㄴㅈㅜㅇ -15070
▁ㅇㅗㄴㅅㅣㄹ -15071
▁ㅂㅕㅇㅈㅏㅎㅗㄹㅏㄴ -15072
▁ㅂㅣㄷㅏㄴㅌㅓㄹㅈㅟ -15073
ㅏㅇㅔ -15074
ㄱㅏㅌㅏ -15075
▁1875 -15076
▁ㄹㅏㄷㅏ -15077
▁ㅅㅡㅇㅔ -15078
▁ㄴㅐㄹㅏㄴ -15079
▁ㅇㅢㅅㅓㅇ -15080
▁ㅇㅢㅈㅓㅇ -15081
▁ㄱㅏㅇㅇㅣㄴ -15082
▁ㄱㅡㅁㅈㅓㅇ -15083
▁ㄴㅏㅊㅣㅇㅗ -15084
▁ㄷㅗㄱㅅㅏㄹ -15085
▁ㅇㅣㅇㅘㅌㅔ -15086
▁ㅎㅐㅇㄱㅜㄴ -15087
ㅅㅡㅋㅗㄹㅣㅇㅏ -15088
▁ㄱㅘㅇㄷㅜㅇㅅㅓㅇ -15089
▁VS -15090
▁"() -15091
ㅅㅡㄹㅔ -15092
ㄷㅓㄹㅣㅇ -15093
▁ㅅㅓㅇㄷㅐ -15094
▁ㅇㅢㅂㅗㄱ -15095
▁ㅎㅕㄴㄷㅗ -15096
▁ㅎㅗㄴㅈㅏㅂ -15097
▁ㄱㅜㄷㅏㄴㅈㅜ -15098
▁ㄲㅗㅊㅊㅏㄹㅖ -15099
▁ㄷㅗㄹㄱㅗㄹㅐ -15100
▁ㅂㅏㄷㅏㅅㅁㅜㄹ -15101
▁ㅍㅡㄹㅏㅇㅅㅡㅇㅘ -15102
▁ㅌㅗㄹㅏ -15103
ㅍㅡㅁㅏㄴ -15104
▁ㅂㅔㄴㅊㅡ -15105
▁ㄴㅗㄹㅡㄷㅡ -15106
▁ㅇㅠㄴㅕㄴㄱㅣ -15107
▁ㅋㅗㅌㅡㄷㅣㅂ -15108
▁ㅌㅜㄹㅡㅋㅡㅁㅔㄴ -15109
▁ㅅㅐㄴㄷㅣㅇㅔㅇㅣㄱㅗ -15110
▁ㅋㅗㅌㅡㄷㅣㅂㅜㅇㅏㄹㅡ -15111
▁TS -15112
ㅈㅣㅈ -15113
▁Gen -15114
▁ㅅㅜㅍㅓ -15115
▁ㄸㅏㄱㄸㅏㄱ -15116
▁ㅁㅗㅈㅏㅇㅣ -15117
▁ㅁㅣㄴㅅㅣㅁ -15118
▁ㄱㅘㅂㅏㄴㅅㅜ -15119
▁ㅇㅖㅂㅣㅇㅕㄱ -15120
BI -15121
ng -15122
▁708 -15123
▁ㅂㅓㅈ -15124
▁ㅇㅟㅋㅡ -15125
▁ㄱㅏㅂㅏㅇ -15126
▁ㅍㅏㄹㅏㅎ -15127
▁ㄷㅏㅇㅣㅅㅛ -15128
▁ㅁㅜㅈㅣㄱㅐ -15129
▁ㅅㅔㅁㅣㄴㅏ -15130
▁ㅍㅗㅁㅍㅔㅇㅣ -15131
▁ㅁㅗㅈㅏㅇㅣㅋㅡ -15132
▁ㅂㅏㄴㄱㅏㅁㄱㅣ -15133
▁PL -15134
ㄱㅜㄹㅣ -15135
ㅎㅐㅇㅍㅏ -15136
▁ㄱㅜㄱㅅㅔ -15137
▁ㄱㅙㄴㅊㅏㄶ -15138
▁ㅂㅏㅇㅇㅜㄹ -15139
▁ㅂㅗㄹㅣㅅㅡ -15140
▁ㅅㅏㅇㅣㅈㅡ -15141
▁ㅎㅣㅌㅏㅊㅣ -15142
ㄹㅗㄱㄷㅐㅂㅜ -15143
▁ㅇㅔㅇㅣㅂㅡㄹ -15144
ㄱㅕㅂ -15145
▁ㅆㅣㅂ -15146
ㅅㅏㅇㅠ -15147
ㅇㅓㅎㅏ -15148
▁ㅇㅏㅌㅔ -15149
▁ㄷㅏㄴㅅㅓ -15150
▁ㄹㅗㅋㅡㄴ -15151
▁ㄱㅡㅁㅎㅘㄴ -15152
▁ㅇㅣㅁㅈㅗㅇ -15153
▁ㅈㅓㅇㅊㅣㄱ -15154
▁ㅇㅖㅇㅓㄴㅈㅏ -15155
▁ㅊㅣㄹㅛㅂㅓㅂ -15156
▁ㅇㅕㄴㅅㅗㄱㄱㅡㄱ -15157
▁ㄱㅡㄹㅣㄴㄹㅏㄴㄷㅡ -15158
ㅢㅈㅏ -15159
ㅊㅗㄴㄹㅣ -15160
▁ㄴㅗㅇㄱㅏ -15161
▁ㄴㅗㅇㅝㄴ -15162
▁ㅍㅗㅅㅏㅇ -15163
▁ㅇㅏㅅㅔㅌㅣㄹ -15164
ㅌㅠ -15165
son -15166
▁ㅅㅏㅈㅜ -15167
▁ㅇㅠㅁㅓ -15168
▁ㅌㅗㄹㅗ -15169
ㅈㅐㄷㅏㄴ -15170
▁ㅅㅜㄱㅅㅗ -15171
▁ㅇㅔㅂㅗㄹ -15172
▁ㅋㅓㅂㅅㅡ -15173
ㅊㅏㄴㅅㅓㅇ -15174
▁ㄴㅏㄹㅣㅌㅏ -15175
▁ㅅㅏㄱㄱㅏㅁ -15176
▁ㅅㅓㄴㅅㅏㅇ -15177
▁ㅁㅐㄷㅣㅅㅡㄴ -15178
▁ㅇㅗㄹㄹㅣㅂㅡ -15179
▁ㄱㅗㄷㅡㅇㄱㅛㅇㅠㄱ -15180
▁ㄴㅏㅁㅇㅑㅇㅈㅜㅅㅣ -15181
ㅣㅇㅅㅡ -15182
▁ㅇㅢㅈㅜ -15183
▁ㅁㅗㅈㅣㄹ -15184
▁ㅅㅏㅇㅇㅢ -15185
▁ㅇㅏㅁㅏㄴ -15186
▁ㅇㅑㅇㅍㅏ -15187
▁ㅇㅕㄹㅓㅅ -15188
▁ㅈㅓㅇㅇㅔ -15189
▁ㅎㅟㅂㅏㄹ -15190
▁ㅅㅐㅇㅇㅝㄴ -15191
▁ㅇㅏㄱㅁㅕㅇ -15192
▁ㅎㅏㅁㄱㅕㅇㄷㅗ -15193
▁ㅎㅏㅇㄱㅗㅇㄷㅐ -15194
ale -15195
ㄸㅜㅇ -15196
ㄱㅣㅈㅡ -15197
ㅌㅏㄴㄷㅜ -15198
▁ㅇㅓㅅㅓㄴ -15199
▁ㅇㅛㅇㅈㅣ -15200
▁ㅊㅜㅊㅜㄱ -15201
ㄱㅗㅁㅔㄹㅣ -15202
▁ㅁㅗㄹㄷㅗㅂㅏ -15203
▁ㅇㅗㄹㅡㄱㅏㄴ -15204
▁ㅅㅏㅅㅐㅇㅎㅘㄹ -15205
▁ㅅㅛㅍㅣㅇㅁㅗㄹ -15206
▁ㅍㅡㄹㄹㅜㅌㅗㄴ -15207
▁University -15208
▁JC -15209
ㅔㅎㅕㄴ -15210
▁ㄱㅜㅅㅣ -15211
▁ㄷㅏㄹㅡㅁ -15212
▁ㄷㅗㅈㅓㄱ -15213
▁ㅅㅓㄷㅏㅇ -15214
▁ㅊㅏㅁㅍㅐ -15215
▁ㅊㅟㅈㅣㄱ -15216
▁ㅅㅡㅍㅣㅋㅓ -15217
▁ㅇㅏㄹㅣㄹㅏㅇ -15218
▁ㅎㅚㄱㅗㄹㅗㄱ -15219
ㅋㅣㅇㅗ -15220
▁ㅇㅜㅁㅏ -15221
ㅁㅜㄱㅗㅇ -15222
▁ㄱㅛㄱㅘㄴ -15223
ㅂㅏㅇㅎㅑㅇ -15224
▁ㅁㅗㄱㅈㅏㅇ -15225
▁ㅈㅣㅂㅈㅓㄴ -15226
ㅎㅐㅂㅏㅇㄱㅜㄴ -15227
▁ㅅㅓㄴㄱㅓㅇㅣㄴ -15228
▁ㅅㅣㄴㅅㅓㄱㄱㅣ -15229
▁ㅊㅣㄴㅎㅘㄴㄱㅕㅇ -15230
▁ㄹㅏㅇㅣㅂㅔㄹㅣㅇㅏ -15231
▁ㅇㅣㄴㅁㅣㄴㅎㅐㅂㅏㅇㄱㅜㄴ -15232
ㅜㄴㅔ -15233
▁ATC -15234
▁ㅇㅔㅂ -15235
ㅇㅜㅊㅣ -15236
▁ㄴㅣㅋㅔ -15237
▁ㄴㅠㄹㅓㄴ -15238
▁ㄹㅣㅇㅏㄴ -15239
▁ㅅㅣㅊㅏㄹ -15240
▁ㅇㅣㅂㅡㄹ -15241
▁ㅈㅏㅈㅓㅇ -15242
▁ㅇㅡㄴㅁㅣㄹ -15243
▁ㄱㅏㅇㄹㅕㄱㅎㅣ -15244
▁ㅈㅓㅇㅊㅣㄱㅜㄱ -15245
▁ㄷㅚㄷㅗㄹㅇㅏㅇㅗ -15246
▁380 -15247
▁ㄱㅛㅍㅏ -15248
▁ㅂㅔㄹㅏ -15249
▁ㅈㅗㅂㅣ -15250
▁ㄱㅛㅎㅜㄴ -15251
▁ㄱㅟㅇㅕㅂ -15252
▁ㄱㅣㄹㄷㅡ -15253
▁ㅅㅓㅋㅡㄹ -15254
▁ㅅㅕㅌㅡㄹ -15255
▁ㅇㅏㄹㅡㅂ -15256
▁ㅊㅣㄴㅎㅘ -15257
ㅅㅔㄷㅔㅅㅡ -15258
▁ㄱㅡㄹㅐㄷㅗ -15259
▁ㅊㅜㄹㅍㅜㅁ -15260
▁ㅍㅏㄹㅏㅇㅗ -15261
▁ㅈㅏㅇㄱㅏㅂㅊㅏ -15262
▁ㅈㅜㅇㅇㅏㅇㅅㅓㄴ -15263
▁ㅈㅓㄴㅓㄹㄹㅣㅅㅡㅌㅡ -15264
▁KTX -15265
ㅋㅠㄹㅣ -15266
▁ㄱㅛㅎㅘ -15267
▁ㅇㅣㅎㅢ -15268
▁ㅍㅛㅈㅔ -15269
ㅅㅏㄹㅗㄴ -15270
▁ㄹㅣㄴㄷㅏ -15271
▁ㅇㅣㅅㅓㄴ -15272
▁ㄱㅏㅇㅅㅡㅂ -15273
▁ㅇㅝㄴㄷㅏㄴ -15274
▁ㅈㅜㅇㄱㅕㄴ -15275
▁ㅊㅣㅁㅅㅣㄱ -15276
▁ㄹㅏㅁㅕㄴㅅㅓ -15277
▁ㅊㅣㅇㄱㅣㅈㅡ -15278
▁ㅅㅓㄴㅈㅔㄱㅗㄹ -15279
▁ㅇㅜㄴㅈㅓㄴㅈㅏ -15280
▁ㅎㅕㅇㅇㅛㅇㅅㅏ -15281
▁ㅁㅗㅇㄱㅗㅁㅔㄹㅣ -15282
▁ㅁㅔㄹㅡㅅㅔㄷㅔㅅㅡ -15283
▁At -15284
▁205 -15285
▁Vol -15286
▁ㅅㅗㄹㅏ -15287
▁ㄱㅠㅇㅑㄱ -15288
▁ㅅㅜㅈㅡㅇ -15289
▁ㅈㅗㅂㅗㅇ -15290
▁ㄷㅏㄹㅋㅗㅁ -15291
▁ㅂㅕㄴㅈㅡㅇ -15292
▁ㅎㅑㅇㅅㅣㄴ -15293
▁ㅎㅏㅂㅅㅓㅇㅇㅓ -15294
▁ㅋㅕ -15295
▁ㅌㅓㄴㅓ -15296
▁ㅋㅗㄹㄹㅣ -15297
▁ㅅㅣㄹㅅㅏㅇ -15298
▁ㅇㅣㄹㅁㅕㅇ -15299
▁ㅍㅛㅌㅡㄹㅡ -15300
▁ㅅㅏㅎㅏㄹㄹㅣㄴ -15301
▁ㄴㅏㅁㄱㅡㄱㅈㅓㅁ -15302
▁ㅅㅓㅇㅍㅗㄱㅎㅐㅇ -15303
▁GR -15304
▁WC -15305
ㅋㅜㅅㅏ -15306
ㅎㅣㅁㅔ -15307
▁ㅂㅏㅃㅡ -15308
ㅁㅗㅇㅡㅁ -15309
ㅂㅗㄷㅏㅇ -15310
ㅍㅔㅇㅣㄴ -15311
ㅣㄷㅣㅇㅓ -15312
▁ㄱㅜㄱㅂㅜ -15313
▁ㄱㅣㅍㅏㄴ -15314
▁ㅇㅙㄱㅜㄴ -15315
▁ㅇㅐㄹㅣㅈㅗ -15316
▁ㅇㅑㅁㅏㄷㅏ -15317
▁ㅈㅣㅇㅈㅣㅂ -15318
▁ㅋㅗㄴㄹㅏㅌㅡ -15319
▁ㅎㅗㅎㅡㅂㄱㅣ -15320
▁ㅇㅓㅅㄱㅏㄹㄹㅣ -15321
▁ㄱㅘㄴㅇㅡㅁㅂㅗㅅㅏㄹ -15322
▁Par -15323
▁ㅍㅣㅅㅏ -15324
▁ㄱㅣㄱㅗㅇ -15325
▁ㄷㅡㄹㄹㅡ -15326
▁ㅅㅓㄴㅊㅔ -15327
▁ㅇㅚㅎㅏㄹ -15328
▁ㅊㅓㅂㅂㅗ -15329
▁ㅎㅓㄴㅏㄴ -15330
▁ㅅㅜㄱㄹㅕㄴ -15331
▁ㅇㅣㄴㅅㅡㅇ -15332
▁ㅍㅏㅅㅡㅋㅏㄹ -15333
ㅋㅡㄹㅏㅌㅔㅅㅡ -15334
▁ㄷㅏㅁㄷㅏㅇㅈㅏ -15335
▁ㅇㅔㄱㅅㅡㅂㅏㄱㅅㅡ -15336
▁ㄱㅠㅇㅠㄹ -15337
▁ㅈㅏㅈㅏㅇ -15338
▁ㅎㅐㅇㅂㅗ -15339
▁ㄷㅡㅇㅅㅏㄴ -15340
▁ㅈㅜㅇㅇㅣㄹ -15341
▁ㅈㅣㄱㄹㅕㄹ -15342
ㄹㅡㄴㅂㅔㄹㅡㅋㅡ -15343
▁235 -15344
▁ㅇㅠㅋㅏ -15345
▁ㅌㅗㅍㅣ -15346
▁ㄹㅔㄱㅅㅡ -15347
▁ㅁㅏㄹㅡㄱ -15348
▁ㅅㅏㄱㅏㄱ -15349
▁ㅅㅏㅇㄱㅖ -15350
▁ㅇㅑㅇㅅㅜ -15351
▁ㅎㅔㅅㅔㄴ -15352
▁ㅂㅏㄴㄹㅗㄴ -15353
▁ㅇㅣㄴㅁㅓㄴ -15354
▁ㅂㅗㅎㅗㅂㅓㅂ -15355
▁ㅂㅜㄹㄱㅏㅍㅣ -15356
▁ㅇㅛㄹㅣㅌㅗㅁㅗ -15357
▁ㅎㅏㄱㅅㅜㄹㅈㅣ -15358
▁ㅇㅏㄴㄷㅡㄹㅗㅁㅔ -15359
▁ㅈㅣㅎㅏㅊㅓㄹㅇㅕㄱ -15360
ㅁㅔㄹ -15361
ㅈㅏㄷㅡ -15362
▁ㅇㅑㅋㅜ -15363
▁ㅍㅣㅈㅣ -15364
▁ㄷㅔㅇㅣㄹ -15365
▁ㄹㅏㅅㅡㅂ -15366
▁ㅅㅣㄴㄷㅐ -15367
▁ㅅㅣㄴㅅㅣ -15368
▁ㄷㅔㅇㅣㅌㅡ -15369
▁ㅂㅏㅇㅣㅇㅓ -15370
▁ㅅㅏㅇㅅㅣㄱ -15371
[...]
