[PAD]	0
[UNK]	0
[BOS]	0
[EOS]	0
[CLS]	0
[SEP]	0
[MASK]	0
▁▃	-0
▁ㅇ	-1
▁ㅇㅡ	-2
▁⊸	-3
▁⊸⊸	-4
▁하	-5
▁ㄱ	-6
▁.	-7
▁ㄷ	-8
ㅡㄴ	-9
ㄴㅡㄴ	-10
▁이	-11
▁ㅇㅔ	-12
▁ㄴㅡㄴ	-13
▁ㄹ	-14
▁ㄷㅏ	-15
▁ㅇㅡㄹ	-16
▁ㅇㅢ	-17
▁ㅇㅓ	-18
▁ㅇㅏ	-19
▁ㅇㅣ	-20
▁,	-21
ㅅㅓ	-22
ㅡㄹ	-23
▁ㄹㅡㄹ	-24
▁ㄱㅏ	-25
▁ㅇㅡㄴ	-26
▁ㄱㅗ	-27
▁1	-28
ㄷㅏ	-29
ㅁㅕ	-30
▁있	-31
▁되	-32
ㅈㅣ	-33
▁2	-34
ㄹㅗ	-35
▁ㅇㅓㅆ	-36
ㄴㄷㅏ	-37
▁ㄷㅗ	-38
▁ㄹㅗ	-39
▁그	-40
▁사	-41
▁ㅇㅏㅆ	-42
▁시	-43
▁들	-44
▁아	-45
▁ㅈㅣ	-46
▁ㅁㅕ	-47
▁대	-48
▁수	-49
▁보	-50
▁가	-51
▁지	-52
▁것	-53
▁일	-54
▁ㄹㅏ	-55
▁ㄱㅣ	-56
▁전	-57
ㅁㅏ	-58
▁기	-59
▁주	-60
▁나	-61
▁ㄱㅔ	-62
▁-	-63
ㅁㅏㄴ	-64
▁자	-65
▁다	-66
▁적	-67
▁ㅁㅕㄴ	-68
▁스	-69
▁3	-70
▁마	-71
▁ㄱㅘ	-72
▁정	-73
▁상	-74
▁ㅇㅘ	-75
▁모	-76
ㄱㅗ	-77
▁20	-78
▁오	-79
▁때	-80
▁년	-81
▁공	-82
▁'	-83
▁:	-84
ㄴㅏ	-85
▁경	-86
▁인	-87
▁중	-88
▁유	-89
▁제	-90
▁부	-91
▁위	-92
▁한	-93
▁없	-94
▁비	-95
▁4	-96
▁무	-97
▁소	-98
▁성	-99
▁등	-100
▁어	-101
▁않	-102
ㄱㅔ	-103
▁5	-104
▁ㄷㅓ	-105
▁개	-106
▁만	-107
▁미	-108
▁0	-109
ㄷㅔ	-110
▁여	-111
▁세	-112
▁바	-113
▁월	-114
▁"	-115
▁ㄷㅓㄴ	-116
▁내	-117
▁조	-118
▁고	-119
▁201	-120
▁장	-121
▁/	-122
▁방	-123
▁거	-124
▁동	-125
▁카	-126
▁타	-127
▁도	-128
▁선	-129
▁연	-130
▁말	-131
ㄲㅏ	-132
▁영	-133
▁안	-134
▁신	-135
▁화	-136
▁후	-137
▁생	-138
▁구	-139
ㄴㅣ	-140
▁버	-141
▁당	-142
▁ㅁㅏㄴ	-143
▁차	-144
▁발	-145
▁ㅂ	-146
▁리	-147
▁ㄴㅡㄴㄷㅔ	-148
▁레	-149
ㅁㅕㄴ	-150
▁6	-151
▁때문	-152
▁크	-153
▁원	-154
▁ㅇㅕ	-155
▁강	-156
▁파	-157
▁ㅈ	-158
▁10	-159
▁우	-160
▁명	-161
▁ㄲㅏ	-162
▁아니	-163
▁최	-164
▁서	-165
▁실	-166
▁노	-167
▁의	-168
▁문	-169
▁데	-170
▁7	-171
▁번	-172
▁해	-173
▁더	-174
▁포	-175
▁불	-176
▁같	-177
▁회	-178
▁나오	-179
▁진	-180
▁단	-181
▁관	-182
▁S	-183
▁특	-184
▁8	-185
▁받	-186
▁ㅈㅏ	-187
▁많	-188
▁초	-189
▁결	-190
▁반	-191
▁라	-192
▁!	-193
▁작	-194
▁프	-195
▁알	-196
▁보이	-197
▁역	-198
▁쓰	-199
▁19	-200
▁게	-201
▁배	-202
▁드	-203
▁ㅁㅕㄴㅅㅓ	-204
▁피	-205
▁9	-206
▁계	-207
▁코	-208
▁경우	-209
▁공격	-210
▁분	-211
▁추	-212
▁남	-213
ㄱㅏ	-214
ㄷㅗ	-215
▁A	-216
▁사용	-217
▁물	-218
▁출	-219
▁ㄴㅏ	-220
▁국	-221
▁치	-222
▁두	-223
▁에	-224
▁못	-225
▁현	-226
레이	-227
▁매	-228
▁M	-229
▁자신	-230
▁좋	-231
▁패	-232
▁편	-233
▁점	-234
▁달	-235
▁이후	-236
▁%	-237
▁저	-238
▁감	-239
▁호	-240
▁그리	-241
▁트	-242
ㅌㅓ	-243
▁학	-244
▁로	-245
▁따	-246
▁교	-247
▁재	-248
▁정도	-249
▁메	-250
▁사람	-251
▁C	-252
▁통	-253
▁요	-254
▁입	-255
▁예	-256
▁속	-257
▁또	-258
스트	-259
ㅇㅑ	-260
▁B	-261
▁플	-262
▁캐	-263
▁가능	-264
▁T	-265
▁김	-266
▁설	-267
▁참	-268
▁위하	-269
▁형	-270
▁본	-271
▁함	-272
▁등장	-273
▁평	-274
▁D	-275
▁ㅂㅜ	-276
▁~	-277
▁ᄆ	-278
▁대하	-279
▁+	-280
▁과	-281
▁돌	-282
▁시키	-283
▁..	-284
▁12	-285
▁종	-286
▁다른	-287
▁죽	-288
▁아이	-289
▁승	-290
▁?	-291
▁토	-292
▁체	-293
▁게임	-294
▁권	-295
▁버리	-296
▁외	-297
▁팀	-298
▁ㄴㅡㄴㄷㅏ	-299
▁군	-300
er	-301
▁살	-302
▁ㅂㅗ	-303
▁200	-304
▁11	-305
▁직	-306
▁애	-307
▁L	-308
▁용	-309
▁판	-310
00	-311
▁처	-312
▁키	-313
▁가지	-314
▁그리고	-315
▁ㅅ	-316
▁잘	-317
▁확	-318
▁맞	-319
▁ㅅㅓ	-320
▁심	-321
▁올	-322
▁하나	-323
▁행	-324
▁그러	-325
어지	-326
in	-327
▁경기	-328
▁변	-329
▁사실	-330
▁박	-331
▁F	-332
▁만들	-333
▁못하	-334
▁필	-335
▁시간	-336
▁운	-337
▁P	-338
ㅂㄴㅣ	-339
▁ㄴㅣ	-340
▁뒤	-341
▁베	-342
▁ㅇㅕㅆ	-343
▁투	-344
▁날	-345
▁디	-346
▁ㄱㅓ	-347
▁모습	-348
▁네	-349
▁목	-350
ㄹㅏ	-351
▁간	-352
▁집	-353
▁높	-354
▁히	-355
▁G	-356
▁활	-357
▁약	-358
▁이상	-359
▁루	-360
▁사이	-361
▁이름	-362
▁E	-363
▁각	-364
▁표	-365
▁양	-366
▁순	-367
▁건	-368
▁언	-369
▁상대	-370
▁야	-371
▁테	-372
스터	-373
an	-374
▁능	-375
지만	-376
▁너	-377
▁시작	-378
▁효	-379
▁ㄹㅕ	-380
on	-381
▁15	-382
▁존	-383
▁문제	-384
▁일본	-385
▁함께	-386
▁터	-387
▁잡	-388
▁왕	-389
▁하지만	-390
▁증	-391
▁힘	-392
▁손	-393
▁별	-394
▁병	-395
▁한국	-396
▁생각	-397
▁#	-398
▁ㄱㅔㅆ	-399
▁H	-400
▁캐릭	-401
▁열	-402
ㄹㅓ	-403
▁브	-404
▁R	-405
▁K	-406
▁천	-407
▁막	-408
어나	-409
▁폭	-410
▁캐릭터	-411
▁ㄴ	-412
▁완	-413
▁따르	-414
▁끝	-415
▁듯	-416
▁프로	-417
▁능력	-418
▁t	-419
ㄴㄷㅔ	-420
대로	-421
▁블	-422
▁들어	-423
▁총	-424
▁클	-425
▁플레이	-426
▁I	-427
▁독	-428
▁ㅊ	-429
▁다시	-430
▁시즌	-431
ㄴㅈㅣ	-432
▁N	-433
▁먹	-434
▁스킬	-435
▁페	-436
이트	-437
▁항	-438
▁ㅊㅓ	-439
ㄹㅓㅁ	-440
▁광	-441
▁근	-442
▁추가	-443
▁음	-444
▁새	-445
▁복	-446
▁m	-447
▁식	-448
▁당하	-449
▁채	-450
▁빠	-451
▁ㅇㅑ	-452
▁검	-453
▁가장	-454
▁카드	-455
▁상황	-456
▁태	-457
▁그렇	-458
▁또한	-459
▁삼	-460
or	-461
미지	-462
▁누	-463
▁상태	-464
▁얼	-465
▁당시	-466
▁걸	-467
ar	-468
▁모두	-469
▁길	-470
▁결국	-471
▁효과	-472
▁백	-473
▁충	-474
▁곡	-475
▁업	-476
▁18	-477
▁모든	-478
▁16	-479
▁앞	-480
▁다만	-481
▁쿠	-482
▁악	-483
▁친	-484
▁금	-485
▁넘	-486
▁많이	-487
▁눈	-488
▁30	-489
▁O	-490
▁전투	-491
▁시리	-492
at	-493
▁및	-494
▁티	-495
▁임	-496
▁급	-497
▁싸	-498
▁13	-499
▁산	-500
▁커	-501
▁레벨	-502
▁민	-503
he	-504
▁]	-505
▁s	-506
▁선수	-507
▁세계	-508
▁W	-509
▁합	-510
▁존재	-511
▁엔	-512
라이	-513
▁14	-514
▁[	-515
▁현재	-516
▁여기	-517
ㅇㅛ	-518
▁라이	-519
▁시리즈	-520
▁매우	-521
▁머	-522
▁취	-523
▁무기	-524
▁그런	-525
▁슈	-526
▁상당	-527
▁달리	-528
▁느	-529
▁스타	-530
▁물론	-531
▁레이	-532
▁그러나	-533
▁첫	-534
▁마법	-535
▁통하	-536
▁골	-537
▁절	-538
▁극	-539
en	-540
▁17	-541
▁ㅅㅣ	-542
▁c	-543
▁엄	-544
▁얻	-545
▁팬	-546
▁황	-547
▁난	-548
▁찾	-549
▁밀	-550
▁창	-551
▁허	-552
▁100	-553
▁자체	-554
▁00	-555
▁기술	-556
거리	-557
ㅁㅡ	-558
▁벌	-559
▁ㅁㅏ	-560
▁이런	-561
▁청	-562
▁니	-563
▁실제	-564
▁주인	-565
▁놓	-566
▁이유	-567
▁25	-568
▁모르	-569
▁줄	-570
▁관련	-571
▁떨	-572
ou	-573
▁V	-574
al	-575
이지	-576
▁탈	-577
▁인하	-578
▁이것	-579
▁U	-580
▁이용	-581
▁필요	-582
▁방송	-583
▁들어가	-584
▁해당	-585
▁기본	-586
▁케	-587
▁다음	-588
▁철	-589
▁지역	-590
▁법	-591
▁기록	-592
▁워	-593
▁역시	-594
▁처음	-595
▁바로	-596
▁부르	-597
▁방어	-598
▁일반	-599
▁곳	-600
▁은	-601
▁환	-602
▁거의	-603
▁째	-604
▁돌아	-605
▁잠	-606
▁귀	-607
▁2017	-608
▁199	-609
▁혼	-610
▁피해	-611
리스	-612
▁다르	-613
학교	-614
▁나가	-615
▁북	-616
ㄴㄱㅏ	-617
▁범	-618
이스	-619
▁그래	-620
▁아무	-621
▁좀	-622
▁2018	-623
▁ㅇㅡㅁ	-624
▁붙	-625
▁사건	-626
▁여러	-627
▁같이	-628
▁이야	-629
▁미국	-630
▁ㄴㅑ	-631
▁격	-632
▁특히	-633
▁탄	-634
▁ㄴㅡㄴㅈㅣ	-635
▁이야기	-636
▁k	-637
▁글	-638
▁싶	-639
▁몬	-640
es	-641
▁없이	-642
▁진행	-643
▁부분	-644
▁영화	-645
리아	-646
▁학교	-647
지막	-648
▁본인	-649
▁증가	-650
▁인간	-651
▁2019	-652
▁참고	-653
it	-654
▁풀	-655
▁둘	-656
▁쉽	-657
▁즉	-658
▁담	-659
ㄹㅗㄱ	-660
▁팔	-661
▁리그	-662
▁엘	-663
▁주인공	-664
부분	-665
▁제작	-666
▁뿐	-667
▁면	-668
▁속도	-669
▁마지막	-670
▁작품	-671
▁21	-672
▁자기	-673
▁헤	-674
▁X	-675
▁50	-676
▁몸	-677
▁준	-678
▁그냥	-679
▁의하	-680
▁몰	-681
▁덕	-682
▁ㅅㅡ	-683
▁내용	-684
▁밝	-685
▁2016	-686
▁와	-687
▁떨어지	-688
▁넣	-689
▁슬	-690
▁공격력	-691
▁개요	-692
▁ㅅㅡㅂㄴㅣ	-693
▁지나	-694
▁대표	-695
▁대부분	-696
▁인물	-697
▁수준	-698
▁접	-699
is	-700
▁계속	-701
▁생기	-702
▁우리	-703
▁올리	-704
▁&	-705
▁암	-706
re	-707
▁갈	-708
▁몇	-709
▁쪽	-710
전히	-711
▁비슷	-712
▁위치	-713
▁동안	-714
▁어느	-715
▁질	-716
▁비하	-717
▁22	-718
▁w	-719
le	-720
▁딜	-721
▁대신	-722
▁국가	-723
토리	-724
▁홈	-725
▁강하	-726
▁축	-727
▁상당히	-728
▁지금	-729
▁평가	-730
▁기사	-731
▁활동	-732
▁타이	-733
▁일부	-734
▁관계	-735
▁이전	-736
▁J	-737
▁영상	-738
▁보스	-739
▁낮	-740
▁울	-741
▁만나	-742
▁서울	-743
▁d	-744
▁멀	-745
▁알리	-746
▁24	-747
▁올라	-748
▁체력	-749
▁규	-750
▁유닛	-751
▁그대로	-752
▁문서	-753
▁감독	-754
▁최대	-755
▁너무	-756
▁맡	-757
▁괴	-758
▁기준	-759
▁뛰	-760
▁성공	-761
▁빠르	-762
▁시절	-763
ing	-764
ic	-765
▁홍	-766
ㅇㅔ	-767
▁죽이	-768
▁f	-769
▁러	-770
▁떠	-771
▁데미지	-772
▁제외	-773
▁밝히	-774
▁중국	-775
▁실제로	-776
▁ㅁㅡ	-777
▁망	-778
▁몬스터	-779
as	-780
▁츠	-781
▁희	-782
▁메이	-783
▁바람	-784
▁유저	-785
▁b	-786
▁정보	-787
▁멤	-788
▁결과	-789
▁설정	-790
라지	-791
시아	-792
▁논	-793
▁지원	-794
▁전쟁	-795
▁23	-796
▁그녀	-797
▁승리	-798
▁어렵	-799
▁소속	-800
▁ㄹㅏㄴ	-801
▁멤버	-802
▁2015	-803
▁이미	-804
▁애니	-805
▁언급	-806
▁자리	-807
▁40	-808
▁님	-809
▁원래	-810
▁맨	-811
▁온	-812
▁퍼	-813
▁칼	-814
▁성우	-815
▁직접	-816
▁설명	-817
▁도시	-818
▁컨	-819
▁던	-820
▁육	-821
버지	-822
▁싸우	-823
▁전체	-824
▁이동	-825
▁선택	-826
▁a	-827
▁의미	-828
▁그것	-829
▁여자	-830
▁배우	-831
▁씩	-832
운드	-833
▁마음	-834
▁ㄹㅓ	-835
▁깨	-836
가지	-837
▁과거	-838
▁<	-839
▁뭐	-840
▁듣	-841
랜드	-842
▁머리	-843
▁늘	-844
▁협	-845
▁봉	-846
▁보내	-847
▁묘	-848
▁엄청	-849
▁플레이어	-850
▁차이	-851
▁친구	-852
▁아이템	-853
▁방법	-854
이션	-855
▁출연	-856
▁힘들	-857
▁돈	-858
▁뉴	-859
▁측	-860
▁이루	-861
▁장면	-862
▁나타	-863
▁버전	-864
▁갑	-865
▁스토리	-866
▁거리	-867
▁소리	-868
om	-869
▁씨	-870
▁ㄷㅡ	-871
▁탑	-872
am	-873
▁센	-874
▁꽤	-875
▁p	-876
▁즈	-877
▁ㄷㅡㄴ	-878
▁답	-879
▁향	-880
▁빌	-881
▁h	-882
▁대사	-883
▁바뀌	-884
▁놀	-885
▁공식	-886
▁모드	-887
▁류	-888
▁사랑	-889
▁파이	-890
벤트	-891
▁스럽	-892
▁혹	-893
▁프리	-894
▁압	-895
▁조금	-896
▁송	-897
▁개발	-898
▁198	-899
el	-900
▁대상	-901
▁이렇	-902
▁갖	-903
▁까	-904
▁대학	-905
▁초반	-906
▁버스	-907
▁책	-908
▁전부	-909
▁o	-910
▁연구	-911
▁이벤트	-912
▁속성	-913
▁침	-914
▁최고	-915
▁남자	-916
▁26	-917
▁링	-918
▁2014	-919
▁제대로	-920
▁볼	-921
▁기타	-922
▁궁	-923
▁강화	-924
▁유명	-925
▁동시	-926
▁걸리	-927
▁만큼	-928
▁여성	-929
이도	-930
▁파괴	-931
▁n	-932
▁스테	-933
▁층	-934
▁28	-935
▁나이	-936
▁빠지	-937
▁역사	-938
▁색	-939
▁정말	-940
▁아버지	-941
▁쇼	-942
▁드래	-943
▁소환	-944
▁27	-945
▁성능	-946
▁자주	-947
▁the	-948
▁불리	-949
▁최종	-950
▁찍	-951
▁학생	-952
▁31	-953
▁운영	-954
▁우승	-955
▁회복	-956
▁빼	-957
▁아직	-958
▁석	-959
▁왜	-960
▁앨	-961
▁후반	-962
이드	-963
ㅁㅕㄴㅅㅓ	-964
▁출신	-965
▁농	-966
▁누구	-967
▁마이	-968
▁당연	-969
▁특성	-970
▁=	-971
▁다니	-972
▁그런데	-973
▁인터	-974
▁공개	-975
▁강력	-976
▁확률	-977
ㅇㅓ	-978
▁콘	-979
▁주로	-980
▁사망	-981
▁노래	-982
▁노선	-983
다가	-984
리어	-985
▁유지	-986
▁ㅎ	-987
▁끼	-988
▁마리	-989
▁착	-990
▁ㄷㅐ	-991
▁발매	-992
▁서로	-993
▁엄청나	-994
▁이때	-995
ㅂㅜ	-996
ol	-997
▁끌	-998
▁밖	-999
▁000	-1000
▁샤	-1001
▁슈퍼	-1002
▁방식	-1003
⊸⊸	-1004
⊸⊸⊸	-1005
▁ㄷㅡㅅ	-1006
▁발생	-1007
▁특수	-1008
▁잔	-1009
▁마찬	-1010
▁마찬가지	-1011
▁시스	-1012
▁라인	-1013
▁느끼	-1014
▁대전	-1015
ion	-1016
▁월드	-1017
▁영향	-1018
▁이기	-1019
▁정신	-1020
et	-1021
▁결정	-1022
▁나라	-1023
▁이러	-1024
▁변경	-1025
▁솔	-1026
▁장비	-1027
▁영웅	-1028
ac	-1029
▁오르	-1030
ㅇㅓㅆ	-1031
▁오히	-1032
▁기존	-1033
▁포함	-1034
▁비교	-1035
▁오히려	-1036
아가	-1037
▁역할	-1038
▁보통	-1039
▁빨	-1040
▁이제	-1041
▁인기	-1042
▁나타나	-1043
▁32	-1044
▁일어나	-1045
▁어떻	-1046
▁ㅎㅏ	-1047
▁뜻	-1048
▁르	-1049
▁작중	-1050
▁게다가	-1051
머니	-1052
▁쓰이	-1053
▁맵	-1054
▁수록	-1055
▁움	-1056
▁사라지	-1057
▁차량	-1058
▁먼	-1059
▁억	-1060
▁푸	-1061
▁형태	-1062
▁마을	-1063
▁Y	-1064
▁섬	-1065
▁싱	-1066
▁아예	-1067
▁중요	-1068
▁짓	-1069
▁바꾸	-1070
▁세트	-1071
▁성격	-1072
▁어떤	-1073
▁술	-1074
▁좌	-1075
▁난이도	-1076
il	-1077
us	-1078
▁행동	-1079
▁일단	-1080
▁대한	-1081
▁이번	-1082
▁29	-1083
▁가깝	-1084
프트	-1085
▁v	-1086
ig	-1087
▁액	-1088
▁모양	-1089
ow	-1090
우스	-1091
▁음악	-1092
▁흑	-1093
▁과정	-1094
▁시대	-1095
레이드	-1096
▁대회	-1097
▁드라	-1098
▁주장	-1099
▁최초	-1100
▁심지	-1101
ed	-1102
▁뽑	-1103
민국	-1104
▁부족	-1105
▁2013	-1106
▁구성	-1107
▁빛	-1108
▁사회	-1109
▁발동	-1110
▁스트	-1111
너지	-1112
▁맞추	-1113
▁심지어	-1114
▁끝나	-1115
▁새롭	-1116
▁윤	-1117
▁풍	-1118
▁구하	-1119
▁숨	-1120
▁이렇게	-1121
▁휴	-1122
▁입장	-1123
▁폐	-1124
▁l	-1125
▁ㄱㅜ	-1126
▁뜨	-1127
▁유일	-1128
▁확인	-1129
▁거기	-1130
▁바이	-1131
▁사진	-1132
▁다이	-1133
▁획	-1134
▁애니메	-1135
▁x	-1136
▁60	-1137
▁항목	-1138
▁여담	-1139
▁정치	-1140
▁아래	-1141
▁먼저	-1142
▁흔	-1143
▁응	-1144
▁모델	-1145
▁활약	-1146
▁조건	-1147
▁자세	-1148
▁원작	-1149
▁35	-1150
▁어리	-1151
▁콜	-1152
▁Lv	-1153
▁훈	-1154
▁덕분	-1155
▁대한민국	-1156
▁어디	-1157
▁득	-1158
▁시스템	-1159
▁감소	-1160
▁하이	-1161
▁녹	-1162
▁돌아오	-1163
▁내리	-1164
▁굉	-1165
▁들어오	-1166
id	-1167
▁주변	-1168
▁완전히	-1169
인트	-1170
▁명칭	-1171
▁따라	-1172
▁프랑	-1173
▁드러	-1174
▁챔	-1175
ay	-1176
▁ㅂㅏ	-1177
▁애니메이션	-1178
▁그래서	-1179
▁자유	-1180
ad	-1181
▁특징	-1182
▁2012	-1183
▁독일	-1184
▁관리	-1185
▁얼굴	-1186
▁날리	-1187
▁ㄹㅜ	-1188
버스	-1189
▁자동	-1190
▁순간	-1191
▁전혀	-1192
▁01	-1193
▁우주	-1194
▁차지	-1195
▁경찰	-1196
▁적용	-1197
▁영어	-1198
▁잃	-1199
▁교육	-1200
▁부대	-1201
▁할	-1202
▁가격	-1203
▁짜	-1204
나마	-1205
▁듀	-1206
▁굉장	-1207
▁뮤	-1208
▁of	-1209
▁고등	-1210
▁r	-1211
▁정부	-1212
▁마스터	-1213
▁패배	-1214
▁드래곤	-1215
▁웨	-1216
▁아군	-1217
▁지키	-1218
▁기간	-1219
▁무엇	-1220
▁오브	-1221
소드	-1222
▁돌아가	-1223
▁앨범	-1224
▁실패	-1225
▁휘	-1226
없이	-1227
ot	-1228
▁생산	-1229
▁개인	-1230
ve	-1231
and	-1232
▁건물	-1233
▁덱	-1234
▁상승	-1235
▁얼마	-1236
▁그렇게	-1237
▁시점	-1238
▁지속	-1239
▁하루	-1240
▁기능	-1241
▁혹은	-1242
▁국내	-1243
▁모으	-1244
▁획득	-1245
▁이거	-1246
▁작가	-1247
▁그나마	-1248
▁TV	-1249
▁견	-1250
▁ㅂㅏㄲ	-1251
▁ㅂㅏㄲㅇㅔ	-1252
디오	-1253
▁지구	-1254
▁넘어	-1255
▁패치	-1256
▁아들	-1257
주의	-1258
▁반대	-1259
▁턴	-1260
▁에피	-1261
▁처리	-1262
레스	-1263
▁소개	-1264
▁물리	-1265
▁떠나	-1266
▁발견	-1267
▁기억	-1268
▁y	-1269
▁퀘	-1270
▁틀	-1271
▁실력	-1272
▁반응	-1273
▁만화	-1274
▁참조	-1275
▁랭	-1276
▁제국	-1277
▁정확	-1278
20	-1279
▁동일	-1280
▁도움	-1281
▁대학교	-1282
▁영국	-1283
▁익	-1284
▁선발	-1285
▁홀	-1286
▁킹	-1287
▁현대	-1288
ch	-1289
▁담당	-1290
▁출시	-1291
▁쏘	-1292
▁그림	-1293
▁습	-1294
▁맛	-1295
▁칸	-1296
▁에피소드	-1297
▁올라가	-1298
▁맥	-1299
▁기관	-1300
▁쿨	-1301
▁땅	-1302
▁량	-1303
▁세대	-1304
▁초기	-1305
▁드라마	-1306
▁단계	-1307
아내	-1308
▁계획	-1309
▁딸	-1310
▁아마	-1311
ㅌㅔ	-1312
▁밤	-1313
un	-1314
▁판매	-1315
▁ㅎㅏㄴ	-1316
ㅇㅣ	-1317
▁ㅎㅏㄴㅌㅔ	-1318
▁딱	-1319
▁범위	-1320
▁또는	-1321
▁롭	-1322
▁움직	-1323
▁폴	-1324
▁37	-1325
▁버프	-1326
BS	-1327
▁헬	-1328
▁The	-1329
▁2010	-1330
▁ㅈㅗ	-1331
소리	-1332
ㅊㅏ	-1333
▁퇴	-1334
▁패턴	-1335
▁시청	-1336
▁상위	-1337
▁등급	-1338
▁ㅇㅏㅆㅇㅓㅆ	-1339
▁g	-1340
▁쉬	-1341
▁탐	-1342
▁문화	-1343
▁대미지	-1344
▁데이	-1345
▁회사	-1346
▁폭발	-1347
▁타입	-1348
▁벨	-1349
▁시기	-1350
▁표현	-1351
뜨리	-1352
▁80	-1353
▁밀리	-1354
▁500	-1355
▁요구	-1356
▁St	-1357
▁무시	-1358
▁확실	-1359
▁던지	-1360
▁45	-1361
▁라운드	-1362
▁수비	-1363
▁스페	-1364
▁굉장히	-1365
▁사고	-1366
▁이미지	-1367
▁미치	-1368
▁진짜	-1369
ER	-1370
▁발사	-1371
▁인정	-1372
▁경험	-1373
▁*	-1374
▁어떻게	-1375
▁꾸	-1376
▁겨	-1377
▁소모	-1378
▁파워	-1379
▁컴	-1380
▁졸	-1381
▁09	-1382
▁주의	-1383
▁가족	-1384
▁)	-1385
▁생활	-1386
▁오리	-1387
▁세이	-1388
▁낙	-1389
▁묘사	-1390
▁특별	-1391
▁피하	-1392
dd	-1393
▁족	-1394
▁굴	-1395
들이	-1396
▁활용	-1397
▁율	-1398
▁심하	-1399
ㅈㅏ	-1400
▁디자	-1401
▁km	-1402
▁중앙	-1403
▁아주	-1404
▁대체	-1405
▁히로	-1406
▁197	-1407
▁연기	-1408
▁02	-1409
▁한정	-1410
ㅆㅓ	-1411
▁방향	-1412
▁트리	-1413
▁03	-1414
▁진출	-1415
▁운동	-1416
▁헌	-1417
인물	-1418
▁펼	-1419
로스	-1420
▁데뷔	-1421
▁엑	-1422
▁중간	-1423
▁지니	-1424
▁그룹	-1425
▁꿈	-1426
▁나쁘	-1427
▁프랑스	-1428
▁생명	-1429
▁린	-1430
▁빈	-1431
▁숙	-1432
▁포인트	-1433
▁엔딩	-1434
▁싸움	-1435
▁믿	-1436
▁웃	-1437
▁2011	-1438
ㄹㅈㅣ	-1439
▁약하	-1440
▁스테이지	-1441
ff	-1442
▁야구	-1443
▁남기	-1444
▁준비	-1445
▁핵	-1446
ㄹㄲㅏ	-1447
▁선거	-1448
▁등장인물	-1449
▁묻	-1450
▁유리	-1451
▁ㄹㅏㅇ	-1452
▁ㅇㅗ	-1453
▁안타	-1454
ir	-1455
▁혼자	-1456
▁당연히	-1457
▁후보	-1458
▁흐	-1459
▁시장	-1460
▁논란	-1461
▁옆	-1462
▁위험	-1463
▁순위	-1464
▁조합	-1465
▁05	-1466
▁사실상	-1467
▁현실	-1468
▁무장	-1469
▁노리	-1470
▁아르	-1471
통령	-1472
▁욕	-1473
▁퀘스트	-1474
▁Z	-1475
▁표기	-1476
▁내려	-1477
▁흡	-1478
os	-1479
▁더욱	-1480
▁미션	-1481
▁고등학교	-1482
ㅡㅁ	-1483
▁민주	-1484
▁어머니	-1485
▁크리스	-1486
▁프로그	-1487
▁챔피	-1488
스크	-1489
▁분위	-1490
▁70	-1491
▁브라	-1492
▁죄	-1493
▁참여	-1494
▁싫	-1495
▁90	-1496
▁괜	-1497
▁비판	-1498
▁08	-1499
▁블랙	-1500
▁그래도	-1501
▁구조	-1502
▁학년	-1503
▁단순	-1504
im	-1505
아오	-1506
▁분위기	-1507
▁계약	-1508
▁07	-1509
▁동료	-1510
▁얘	-1511
▁약간	-1512
▁중심	-1513
▁링크	-1514
▁투수	-1515
▁훨	-1516
▁방어력	-1517
▁대통령	-1518
▁취급	-1519
▁조선	-1520
▁직업	-1521
▁48	-1522
ㅅㅣ	-1523
▁설치	-1524
▁바라	-1525
▁HP	-1526
▁콤	-1527
▁흥	-1528
▁열리	-1529
▁나무	-1530
▁똑	-1531
▁ㄴㅔ	-1532
▁보호	-1533
ter	-1534
비스	-1535
▁구간	-1536
▁계열	-1537
▁방면	-1538
리카	-1539
▁즐	-1540
▁다양	-1541
▁위원	-1542
▁여전히	-1543
▁이어지	-1544
▁결혼	-1545
▁훨씬	-1546
▁전용	-1547
머지	-1548
▁나머지	-1549
▁그거	-1550
▁염	-1551
이크	-1552
ㄹㅕ	-1553
▁뛰어나	-1554
▁시도	-1555
▁다루	-1556
▁돕	-1557
▁디자인	-1558
▁주요	-1559
▁06	-1560
티브	-1561
▁mm	-1562
▁300	-1563
▁2000	-1564
▁보상	-1565
▁일정	-1566
▁불구	-1567
▁축구	-1568
으키	-1569
▁읽	-1570
▁성적	-1571
러지	-1572
▁33	-1573
▁소녀	-1574
▁...	-1575
니아	-1576
▁탓	-1577
▁연속	-1578
▁기대	-1579
▁터지	-1580
▁목적	-1581
▁수정	-1582
▁갤	-1583
▁탱	-1584
▁배틀	-1585
ur	-1586
▁지하	-1587
▁종류	-1588
▁36	-1589
▁꼬	-1590
▁삼성	-1591
▁부산	-1592
▁고려	-1593
▁론	-1594
▁쌍	-1595
▁률	-1596
▁도망	-1597
▁세력	-1598
▁04	-1599
▁성장	-1600
▁벽	-1601
▁대화	-1602
▁가져	-1603
▁각각	-1604
▁아프	-1605
▁지방	-1606
▁올라오	-1607
▁캠	-1608
▁팩	-1609
▁잘못	-1610
▁e	-1611
▁징	-1612
od	-1613
스로	-1614
▁참가	-1615
▁발표	-1616
▁이해	-1617
다리	-1618
▁해결	-1619
▁력	-1620
▁의견	-1621
▁th	-1622
▁포켓	-1623
ㄹㄹㅗ	-1624
▁넘어가	-1625
▁당신	-1626
▁털	-1627
▁전설	-1628
▁부상	-1629
ag	-1630
ㅋㅡㅁ	-1631
▁방영	-1632
▁큐	-1633
▁세우	-1634
▁느낌	-1635
▁예정	-1636
▁변하	-1637
▁픽	-1638
▁마치	-1639
▁전문	-1640
▁짧	-1641
▁거대	-1642
▁일행	-1643
▁펼치	-1644
▁프로그램	-1645
▁스피	-1646
▁you	-1647
▁종족	-1648
▁랜	-1649
▁일으키	-1650
▁센터	-1651
▁운행	-1652
▁굳	-1653
▁벗	-1654
▁밴	-1655
▁힐	-1656
▁소설	-1657
▁움직이	-1658
▁ㅁㅏㄴㅋㅡㅁ	-1659
▁과학	-1660
▁FC	-1661
▁끊	-1662
▁근접	-1663
▁각성	-1664
▁종료	-1665
▁부활	-1666
지션	-1667
ub	-1668
▁죽음	-1669
▁향하	-1670
▁배치	-1671
ㅜㄴ	-1672
▁조사	-1673
▁전하	-1674
▁도중	-1675
▁충분	-1676
▁렌	-1677
▁장착	-1678
▁녀	-1679
▁최근	-1680
▁빅	-1681
데이트	-1682
▁삭	-1683
▁아이돌	-1684
▁칭	-1685
▁업데이트	-1686
▁국민	-1687
▁러시아	-1688
▁옥	-1689
▁정상	-1690
▁무리	-1691
▁점수	-1692
▁척	-1693
ㅈㅓ	-1694
▁스카	-1695
▁세상	-1696
▁안정	-1697
▁cm	-1698
▁항공	-1699
▁덤	-1700
▁가리	-1701
▁나중	-1702
▁SK	-1703
▁제목	-1704
igh	-1705
▁절대	-1706
▁유니	-1707
▁제공	-1708
▁경제	-1709
▁이루어지	-1710
▁달성	-1711
▁엔진	-1712
▁번호	-1713
▁지도	-1714
▁자연	-1715
▁챔피언	-1716
▁붙이	-1717
▁오래	-1718
▁켄	-1719
▁스스로	-1720
ver	-1721
▁배경	-1722
▁충격	-1723
▁추정	-1724
▁어찌	-1725
▁미사	-1726
▁목록	-1727
▁만드	-1728
▁번역	-1729
▁벌어지	-1730
ak	-1731
▁사이트	-1732
▁작전	-1733
▁레어	-1734
▁롤	-1735
▁목소리	-1736
▁가끔	-1737
▁포켓몬	-1738
▁비행	-1739
스타	-1740
▁곧	-1741
너스	-1742
▁34	-1743
▁똑같	-1744
▁셈	-1745
▁요소	-1746
▁조직	-1747
▁미래	-1748
▁규모	-1749
▁196	-1750
▁정체	-1751
▁스파	-1752
▁전작	-1753
▁남성	-1754
자기	-1755
▁출전	-1756
▁악마	-1757
▁빙	-1758
▁파티	-1759
▁공중	-1760
▁전차	-1761
▁훈련	-1762
▁전사	-1763
▁스타일	-1764
▁십	-1765
▁타카	-1766
▁품	-1767
어들	-1768
▁타격	-1769
ent	-1770
▁벌이	-1771
▁클리어	-1772
▁사냥	-1773
▁에너지	-1774
▁변화	-1775
▁돌리	-1776
▁만약	-1777
▁괜찮	-1778
▁홈런	-1779
▁동물	-1780
▁혈	-1781
▁클래	-1782
▁다리	-1783
▁위기	-1784
▁생존	-1785
다니	-1786
▁분노	-1787
BC	-1788
▁자랑	-1789
▁나누	-1790
▁신경	-1791
▁그만	-1792
▁더불	-1793
▁득점	-1794
▁75	-1795
um	-1796
▁뒷	-1797
▁수상	-1798
▁크리	-1799
▁필드	-1800
▁애초	-1801
ut	-1802
▁건담	-1803
▁단점	-1804
▁로봇	-1805
▁연결	-1806
▁저지	-1807
▁장갑	-1808
▁소재	-1809
▁국제	-1810
▁포지션	-1811
러스	-1812
▁얘기	-1813
▁vs	-1814
▁요리	-1815
▁ㄴㅡ	-1816
ec	-1817
▁38	-1818
디어	-1819
▁특정	-1820
▁비용	-1821
▁싱글	-1822
▁전기	-1823
▁기동	-1824
▁냉	-1825
▁ㄹㅣ	-1826
▁연합	-1827
▁판정	-1828
▁사항	-1829
▁시험	-1830
▁런	-1831
▁반면	-1832
▁장소	-1833
▁롯	-1834
▁공연	-1835
▁한편	-1836
▁옵	-1837
▁맹	-1838
▁55	-1839
▁기체	-1840
▁목표	-1841
▁ㄷㅡㅅㅇㅣ	-1842
▁항상	-1843
▁멸	-1844
▁화력	-1845
▁연출	-1846
▁사거리	-1847
▁넘기	-1848
▁무대	-1849
▁늘어나	-1850
▁예상	-1851
▁in	-1852
▁정작	-1853
▁시설	-1854
▁사업	-1855
▁2009	-1856
▁꽃	-1857
▁가르	-1858
▁던전	-1859
▁최소	-1860
리오	-1861
▁인터뷰	-1862
▁유럽	-1863
▁관심	-1864
▁교체	-1865
▁철도	-1866
▁하늘	-1867
▁내부	-1868
▁Q	-1869
▁야마	-1870
트리	-1871
▁비밀	-1872
ST	-1873
▁제일	-1874
ro	-1875
▁카이	-1876
▁지휘	-1877
▁사격	-1878
▁인사	-1879
▁별로	-1880
▁엘리	-1881
▁찌	-1882
▁다크	-1883
▁변신	-1884
▁to	-1885
▁록	-1886
▁수치	-1887
▁찬	-1888
▁바르	-1889
▁작곡	-1890
▁정식	-1891
▁나름	-1892
▁기계	-1893
▁넓	-1894
▁스포	-1895
▁수도	-1896
▁시전	-1897
▁교통	-1898
▁파일	-1899
▁결승	-1900
▁놈	-1901
▁카운	-1902
▁오버	-1903
▁벤	-1904
▁부여	-1905
▁각종	-1906
▁마나	-1907
▁일러	-1908
▁따로	-1909
▁쌓	-1910
▁비롯	-1911
▁케이	-1912
▁옷	-1913
▁레인	-1914
▁코스	-1915
▁졸업	-1916
▁확정	-1917
동안	-1918
▁오늘	-1919
▁진화	-1920
▁특이	-1921
▁지상	-1922
나라	-1923
▁치명	-1924
▁황제	-1925
▁이탈	-1926
▁언제	-1927
▁지지	-1928
▁이쪽	-1929
▁_	-1930
▁도로	-1931
▁란	-1932
▁전반	-1933
▁깔	-1934
▁북한	-1935
▁따라서	-1936
▁라이브	-1937
▁제한	-1938
▁드리	-1939
▁기업	-1940
보이	-1941
▁거두	-1942
▁발전	-1943
▁시티	-1944
▁드러나	-1945
▁건설	-1946
▁아키	-1947
▁병력	-1948
▁갑자기	-1949
▁튀	-1950
em	-1951
▁왼	-1952
▁이외	-1953
▁누르	-1954
▁EX	-1955
▁때리	-1956
▁살리	-1957
▁일러스트	-1958
▁쯤	-1959
▁가사	-1960
▁의외	-1961
▁2008	-1962
▁압도	-1963
▁나이트	-1964
▁역대	-1965
▁ㅃ	-1966
▁사정	-1967
▁이르	-1968
▁어쩌	-1969
▁외국	-1970
▁삭제	-1971
▁아파	-1972
ight	-1973
▁주문	-1974
▁베이	-1975
▁꺼	-1976
▁저항	-1977
▁티어	-1978
▁이끌	-1979
▁무슨	-1980
▁ㅃㅜㄴ	-1981
AN	-1982
▁탈출	-1983
▁직전	-1984
▁이닝	-1985
▁골드	-1986
▁띄	-1987
라인	-1988
어로	-1989
▁고양	-1990
▁감정	-1991
▁임무	-1992
▁위력	-1993
▁보유	-1994
▁느리	-1995
▁프레	-1996
▁거치	-1997
▁아카	-1998
▁텐	-1999
▁자원	-2000
▁납	-2001
▁정하	-2002
AR	-2003
▁노트	-2004
▁표시	-2005
▁세기	-2006
▁마시	-2007
▁서비스	-2008
▁로드	-2009
▁점프	-2010
▁어둠	-2011
▁집중	-2012
▁전국	-2013
▁분류	-2014
▁사례	-2015
▁ㅋ	-2016
▁깊	-2017
▁잉	-2018
▁마르	-2019
▁',	-2020
▁랭크	-2021
▁페이	-2022
▁인구	-2023
▁효율	-2024
젝트	-2025
▁히어로	-2026
▁작업	-2027
▁뇌	-2028
▁상관	-2029
ap	-2030
▁완전	-2031
▁루트	-2032
▁아스	-2033
▁극장	-2034
▁회피	-2035
▁파트	-2036
▁인식	-2037
▁가수	-2038
▁연습	-2039
▁공간	-2040
ON	-2041
▁관하	-2042
▁도전	-2043
▁42	-2044
▁41	-2045
▁명령	-2046
▁오른	-2047
▁화면	-2048
▁잇	-2049
▁이어	-2050
▁태어나	-2051
▁물건	-2052
▁별명	-2053
▁기회	-2054
▁경쟁	-2055
▁컬	-2056
▁션	-2057
▁장점	-2058
▁높이	-2059
▁컵	-2060
▁폰	-2061
▁기다리	-2062
▁촬	-2063
▁레드	-2064
▁녀석	-2065
▁행정	-2066
▁지내	-2067
▁래	-2068
그레이드	-2069
▁업그레이드	-2070
▁인천	-2071
▁단어	-2072
▁잠시	-2073
▁No	-2074
▁옛	-2075
▁키우	-2076
▁사기	-2077
▁개념	-2078
▁버티	-2079
▁부모	-2080
▁군사	-2081
▁몽	-2082
▁추천	-2083
▁오프	-2084
▁39	-2085
ㄷㅓ	-2086
▁Ch	-2087
▁병원	-2088
▁빌리	-2089
▁근처	-2090
무리	-2091
▁발언	-2092
▁펜	-2093
▁불가	-2094
▁꾼	-2095
▁무려	-2096
▁194	-2097
▁미니	-2098
▁살인	-2099
▁ㅇㅡㄴㄷㅔ	-2100
▁전력	-2101
▁아파트	-2102
▁ㅈㅛ	-2103
▁신체	-2104
▁크기	-2105
▁전개	-2106
학생	-2107
▁의식	-2108
▁정리	-2109
▁겸	-2110
▁포기	-2111
▁촬영	-2112
▁kg	-2113
▁>	-2114
ul	-2115
▁숨기	-2116
▁주제	-2117
페이지	-2118
▁본래	-2119
▁히트	-2120
▁킬	-2121
▁고정	-2122
▁강제	-2123
▁44	-2124
▁타임	-2125
▁밑	-2126
ㄴㅑ	-2127
▁판단	-2128
▁st	-2129
▁라이트	-2130
▁붕	-2131
▁낫	-2132
▁노력	-2133
ce	-2134
▁잡히	-2135
▁나서	-2136
▁버그	-2137
▁홈페이지	-2138
라스	-2139
▁부정	-2140
▁이하	-2141
▁공주	-2142
▁스코	-2143
▁평균	-2144
000	-2145
▁데스	-2146
▁셋	-2147
▁독립	-2148
▁뿌	-2149
▁2020	-2150
▁;	-2151
▁멘	-2152
▁학원	-2153
▁최강	-2154
▁선생	-2155
▁구매	-2156
아들이	-2157
▁빨리	-2158
▁제거	-2159
▁왕국	-2160
▁99	-2161
▁LG	-2162
▁폭탄	-2163
▁제품	-2164
▁갖추	-2165
▁롯데	-2166
▁위키	-2167
▁조종	-2168
▁꼭	-2169
▁살아	-2170
▁속하	-2171
요일	-2172
▁닌	-2173
▁끝내	-2174
▁칠	-2175
▁곤	-2176
믹스	-2177
▁분명	-2178
▁마법사	-2179
▁병사	-2180
▁고속	-2181
▁웹	-2182
▁가드	-2183
▁리더	-2184
▁여행	-2185
ik	-2186
▁동생	-2187
▁중반	-2188
▁단체	-2189
▁닥	-2190
▁군대	-2191
▁윈	-2192
▁옵션	-2193
▁붉	-2194
▁예전	-2195
▁2007	-2196
▁부탁	-2197
▁떡	-2198
▁전자	-2199
▁행위	-2200
▁음식	-2201
▁짐	-2202
▁쫓	-2203
▁앞서	-2204
▁195	-2205
▁43	-2206
▁대구	-2207
▁현상	-2208
▁완벽	-2209
all	-2210
▁수행	-2211
▁겪	-2212
▁가문	-2213
▁요시	-2214
IN	-2215
▁구분	-2216
▁탈락	-2217
▁모이	-2218
야마	-2219
▁ㄱㅗㄴ	-2220
▁바다	-2221
▁새로	-2222
▁원인	-2223
이치	-2224
모토	-2225
▁완성	-2226
▁그야	-2227
▁대기	-2228
드시	-2229
▁MA	-2230
▁통합	-2231
▁개그	-2232
▁의원	-2233
▁반드시	-2234
란드	-2235
▁쓸	-2236
▁재료	-2237
▁하드	-2238
▁마사	-2239
▁전략	-2240
▁차원	-2241
▁주민	-2242
▁단지	-2243
드리	-2244
▁크로	-2245
▁직후	-2246
▁쥬	-2247
▁복귀	-2248
▁템	-2249
▁광역	-2250
▁환경	-2251
튜브	-2252
nd	-2253
타임	-2254
말로	-2255
▁한글	-2256
▁연재	-2257
러리	-2258
▁46	-2259
▁기반	-2260
▁흘	-2261
▁서버	-2262
▁47	-2263
▁그야말로	-2264
트라	-2265
▁아쉽	-2266
▁밸	-2267
▁늦	-2268
▁지정	-2269
▁정규	-2270
▁치료	-2271
▁인도	-2272
▁해군	-2273
이어	-2274
▁마무리	-2275
▁2006	-2276
▁연장	-2277
▁걱	-2278
▁보너스	-2279
▁타이틀	-2280
▁멜	-2281
▁해외	-2282
▁대장	-2283
▁걱정	-2284
▁평범	-2285
▁월드컵	-2286
th	-2287
▁다수	-2288
▁다행	-2289
▁줄이	-2290
▁보병	-2291
▁입히	-2292
▁유사	-2293
아하	-2294
▁워낙	-2295
▁옮	-2296
▁조작	-2297
▁51	-2298
▁포스	-2299
▁공포	-2300
▁밥	-2301
▁미사일	-2302
▁상세	-2303
▁코스트	-2304
▁심각	-2305
▁덜	-2306
▁가면	-2307
▁추측	-2308
▁우선	-2309
조건	-2310
▁재미	-2311
▁실험	-2312
▁책임	-2313
르트	-2314
▁샷	-2315
▁캡	-2316
▁필살	-2317
▁뻔	-2318
루스	-2319
▁디스	-2320
▁점점	-2321
▁폼	-2322
▁도착	-2323
▁아무리	-2324
▁택	-2325
▁중학교	-2326
▁다소	-2327
op	-2328
▁로마	-2329
▁굳이	-2330
▁성향	-2331
▁타자	-2332
▁즐기	-2333
▁좋아하	-2334
▁교수	-2335
▁닉	-2336
▁실점	-2337
▁SP	-2338
▁받아들이	-2339
▁한계	-2340
▁접근	-2341
▁톤	-2342
▁무조건	-2343
st	-2344
▁의사	-2345
▁영혼	-2346
▁국회	-2347
▁무한	-2348
▁대결	-2349
▁채우	-2350
▁잭	-2351
▁사무	-2352
▁비중	-2353
▁모자	-2354
▁고르	-2355
운데	-2356
▁죠	-2357
▁멋	-2358
▁보조	-2359
▁부하	-2360
ation	-2361
▁댄	-2362
▁정확히	-2363
tt	-2364
▁함정	-2365
▁복수	-2366
▁암살	-2367
▁장르	-2368
ra	-2369
▁정의	-2370
▁광고	-2371
▁엠	-2372
▁인터넷	-2373
▁지배	-2374
▁아내	-2375
시마	-2376
▁평소	-2377
ia	-2378
▁옮기	-2379
▁혁	-2380
ack	-2381
▁마력	-2382
▁투표	-2383
▁1000	-2384
▁채널	-2385
무라	-2386
▁숲	-2387
▁범죄	-2388
▁확장	-2389
▁도쿄	-2390
▁봉인	-2391
▁운용	-2392
▁사령	-2393
나이	-2394
아지	-2395
▁기념	-2396
▁이곳	-2397
▁공략	-2398
▁와중	-2399
▁합류	-2400
▁알아	-2401
▁and	-2402
▁초등	-2403
▁장치	-2404
▁150	-2405
▁몇몇	-2406
▁금지	-2407
▁검사	-2408
▁앙	-2409
▁이적	-2410
ㅅㅜ	-2411
▁빵	-2412
▁다운	-2413
▁종종	-2414
▁65	-2415
▁소련	-2416
▁전화	-2417
▁오리지	-2418
버리	-2419
▁소유	-2420
▁가치	-2421
로그	-2422
▁에이	-2423
▁도입	-2424
▁아웃	-2425
▁보컬	-2426
시브	-2427
▁유튜브	-2428
▁네이	-2429
▁플래	-2430
▁시청자	-2431
▁특유	-2432
▁코드	-2433
▁가운데	-2434
▁브레이	-2435
▁VS	-2436
▁정당	-2437
▁클럽	-2438
oc	-2439
▁사쿠	-2440
▁충분히	-2441
▁근데	-2442
▁미드	-2443
▁줄어들	-2444
▁화염	-2445
▁뚫	-2446
▁프로젝트	-2447
▁실수	-2448
▁소년	-2449
ㄷㅡㄴ	-2450
▁뉴스	-2451
▁잊	-2452
▁개조	-2453
▁본격	-2454
▁고대	-2455
▁시민	-2456
▁시나	-2457
▁투입	-2458
▁대로	-2459
▁취하	-2460
ie	-2461
▁전원	-2462
▁기지	-2463
▁저격	-2464
ill	-2465
▁종교	-2466
▁무사	-2467
▁스포츠	-2468
▁괴물	-2469
▁형제	-2470
▁로스	-2471
▁%,	-2472
▁고양이	-2473
▁ㄴㅡㄴㄱㅏ	-2474
▁행사	-2475
▁인상	-2476
▁수많	-2477
▁도망치	-2478
▁앤	-2479
라이더	-2480
▁얼마나	-2481
▁KBS	-2482
▁52	-2483
▁희생	-2484
▁II	-2485
▁릴	-2486
비아	-2487
로드	-2488
▁이탈리아	-2489
▁2005	-2490
▁발음	-2491
▁상징	-2492
▁밴드	-2493
art	-2494
▁카메	-2495
▁ㅇㅡㄹㅈㅣ	-2496
▁터미	-2497
▁대중	-2498
▁종합	-2499
▁요청	-2500
▁흉	-2501
▁셀	-2502
일러	-2503
▁원정	-2504
▁64	-2505
▁넥	-2506
▁사태	-2507
▁클래스	-2508
▁구역	-2509
려가	-2510
▁숫	-2511
▁쥐	-2512
▁올림	-2513
▁대형	-2514
텐츠	-2515
▁군단	-2516
▁외모	-2517
▁스크	-2518
▁끄	-2519
▁패러	-2520
▁대비	-2521
▁방패	-2522
▁이사	-2523
▁조정	-2524
▁서브	-2525
▁일본어	-2526
▁불명	-2527
니티	-2528
▁인원	-2529
▁생물	-2530
▁최후	-2531
▁따지	-2532
▁서술	-2533
▁컨셉	-2534
▁형식	-2535
▁위협	-2536
려오	-2537
▁관통	-2538
▁뿌리	-2539
▁자료	-2540
▁광주	-2541
▁장난	-2542
▁비고	-2543
▁섞	-2544
▁약점	-2545
ri	-2546
▁그저	-2547
▁2004	-2548
▁몹	-2549
▁You	-2550
▁49	-2551
ab	-2552
▁통신	-2553
오르	-2554
런스	-2555
RA	-2556
uby	-2557
▁액션	-2558
▁정책	-2559
▁행성	-2560
▁상자	-2561
▁모험	-2562
▁오리지널	-2563
▁AP	-2564
▁달러	-2565
시스	-2566
▁눈물	-2567
▁트랙	-2568
▁56	-2569
▁ST	-2570
▁드러내	-2571
▁바닥	-2572
▁쿨타임	-2573
▁앉	-2574
▁전술	-2575
est	-2576
▁부수	-2577
래프트	-2578
▁박사	-2579
▁400	-2580
▁젊	-2581
로우	-2582
▁인형	-2583
▁거부	-2584
▁빼앗	-2585
▁리어	-2586
▁MBC	-2587
▁등록	-2588
▁미리	-2589
▁명중	-2590
▁dd	-2591
▁간단	-2592
▁매일	-2593
▁들리	-2594
▁ruby	-2595
▁ㅇㅛ	-2596
▁회장	-2597
▁반복	-2598
▁이치	-2599
▁의도	-2600
▁In	-2601
▁개월	-2602
▁공동	-2603
▁벗어나	-2604
▁마크	-2605
▁영입	-2606
▁구단	-2607
▁열차	-2608
AL	-2609
▁대응	-2610
▁개봉	-2611
▁해석	-2612
▁오토	-2613
▁챙	-2614
▁언론	-2615
▁의지	-2616
▁값	-2617
▁놀라	-2618
▁지명	-2619
▁85	-2620
▁웬	-2621
▁지적	-2622
▁코어	-2623
▁주력	-2624
▁원거리	-2625
▁한국어	-2626
▁먹이	-2627
스케	-2628
▁오랜	-2629
▁53	-2630
▁언어	-2631
▁데이터	-2632
▁54	-2633
▁더블	-2634
▁설계	-2635
자리	-2636
▁윌	-2637
▁그때	-2638
▁가하	-2639
▁탯	-2640
▁흡수	-2641
▁디지	-2642
▁193	-2643
▁선언	-2644
▁카즈	-2645
▁혐	-2646
▁자동차	-2647
▁사상	-2648
▁소식	-2649
▁목숨	-2650
▁찾아오	-2651
▁2002	-2652
▁차례	-2653
리트	-2654
▁텔	-2655
▁모티브	-2656
▁지나가	-2657
▁여름	-2658
▁카페	-2659
▁풀리	-2660
퓨터	-2661
▁편하	-2662
▁방해	-2663
▁역전	-2664
▁혜	-2665
▁승부	-2666
▁연계	-2667
▁거짓	-2668
▁필살기	-2669
▁닮	-2670
▁사과	-2671
▁살아남	-2672
▁대단	-2673
▁숫자	-2674
▁조각	-2675
▁합치	-2676
▁핑	-2677
▁망하	-2678
▁쓰러지	-2679
▁체육	-2680
▁엄마	-2681
오스	-2682
▁미스	-2683
▁저지르	-2684
▁완료	-2685
▁기자	-2686
▁황금	-2687
▁저주	-2688
▁dddd	-2689
▁텍	-2690
▁소울	-2691
▁dddddd	-2692
▁겹	-2693
▁쿄	-2694
▁Sh	-2695
▁진입	-2696
▁PC	-2697
▁긴	-2698
▁떼	-2699
ttp	-2700
▁수리	-2701
▁상대방	-2702
▁원하	-2703
▁수호	-2704
나가	-2705
▁산업	-2706
▁불과	-2707
▁착용	-2708
▁생성	-2709
▁유우	-2710
▁http	-2711
올리	-2712
▁해제	-2713
▁ff	-2714
▁컴퓨터	-2715
▁맺	-2716
▁공화	-2717
▁테마	-2718
▁장기	-2719
▁덩	-2720
▁가정	-2721
▁터미널	-2722
▁적절	-2723
동생	-2724
▁쳐	-2725
▁무섭	-2726
▁드라이	-2727
▁실시	-2728
니스	-2729
▁필수	-2730
▁컷	-2731
▁편성	-2732
▁단순히	-2733
▁행적	-2734
▁선정	-2735
▁비트	-2736
어내	-2737
▁에이스	-2738
▁가져오	-2739
up	-2740
▁꼴	-2741
▁독자	-2742
▁카운터	-2743
▁딱히	-2744
▁멈	-2745
▁질문	-2746
▁뮤직	-2747
▁특기	-2748
▁기점	-2749
▁드립	-2750
▁날개	-2751
▁연주	-2752
▁기어	-2753
▁유도	-2754
▁패시브	-2755
▁들이	-2756
▁표정	-2757
▁전환	-2758
▁감안	-2759
▁선물	-2760
▁훌	-2761
▁ㅁ	-2762
▁페르	-2763
▁꾸준	-2764
▁습격	-2765
▁확실히	-2766
▁59	-2767
▁소비	-2768
▁왼쪽	-2769
▁횟	-2770
▁의심	-2771
▁퓨	-2772
▁안전	-2773
▁i	-2774
▁솔로	-2775
▁아름	-2776
▁무력	-2777
▁MP	-2778
▁개선	-2779
▁인류	-2780
▁집단	-2781
▁박스	-2782
▁걷	-2783
▁함대	-2784
▁위원회	-2785
▁제도	-2786
VE	-2787
▁스킨	-2788
▁경력	-2789
▁회전	-2790
▁당장	-2791
▁코치	-2792
▁Re	-2793
▁마츠	-2794
▁구축	-2795
▁설립	-2796
▁잠깐	-2797
▁Sp	-2798
▁가스	-2799
▁돌파	-2800
▁행복	-2801
▁사장	-2802
▁올림픽	-2803
▁확보	-2804
▁날아가	-2805
▁랍	-2806
▁지옥	-2807
▁58	-2808
▁스마	-2809
▁테크	-2810
▁친하	-2811
▁블루	-2812
▁보다	-2813
▁희망	-2814
레이션	-2815
▁시나리오	-2816
▁비싸	-2817
▁시내	-2818
▁데리	-2819
▁일종	-2820
▁전통	-2821
▁횟수	-2822
▁챙기	-2823
▁부리	-2824
▁듀얼	-2825
▁120	-2826
▁장군	-2827
▁가슴	-2828
▁라디오	-2829
▁공항	-2830
▁ㅇㅡㄹㄲㅏ	-2831
AT	-2832
▁통과	-2833
▁공사	-2834
▁하위	-2835
▁안드	-2836
OR	-2837
모리	-2838
▁ㅋㅜ	-2839
▁문명	-2840
ang	-2841
▁57	-2842
▁re	-2843
▁해금	-2844
▁진정	-2845
ate	-2846
▁초대	-2847
▁제압	-2848
▁체제	-2849
▁멈추	-2850
▁멀티	-2851
▁적극	-2852
▁수사	-2853
▁촉	-2854
▁비디오	-2855
▁편집	-2856
▁버튼	-2857
▁상처	-2858
▁셰	-2859
▁펀	-2860
▁66	-2861
▁수원	-2862
▁95	-2863
▁지나치	-2864
▁딜러	-2865
▁꺼내	-2866
▁인지	-2867
▁롱	-2868
▁방문	-2869
▁위주	-2870
▁처치	-2871
▁2003	-2872
▁패스	-2873
▁귀엽	-2874
▁케이스	-2875
▁리스	-2876
울리	-2877
트롤	-2878
▁마침	-2879
▁댓	-2880
▁작성	-2881
▁묶	-2882
연히	-2883
▁선보이	-2884
ard	-2885
▁의문	-2886
▁콩	-2887
▁현장	-2888
▁동맹	-2889
▁대답	-2890
▁장전	-2891
▁뱀	-2892
▁유키	-2893
▁분리	-2894
▁태양	-2895
▁전장	-2896
▁진영	-2897
IA	-2898
▁코너	-2899
▁고통	-2900
▁투자	-2901
▁한자	-2902
▁예선	-2903
▁눈치	-2904
▁갱	-2905
▁크로스	-2906
▁태도	-2907
▁대놓	-2908
▁계기	-2909
▁노동	-2910
▁스페인	-2911
▁핸	-2912
▁삼국	-2913
▁마왕	-2914
▁엉	-2915
▁육군	-2916
▁고유	-2917
▁랩	-2918
▁비난	-2919
▁최악	-2920
▁료	-2921
▁흐르	-2922
▁Bl	-2923
PS	-2924
▁스위	-2925
ess	-2926
▁BG	-2927
▁후속	-2928
▁에스	-2929
ant	-2930
▁아름답	-2931
▁레이저	-2932
▁be	-2933
▁스펙	-2934
▁공부	-2935
▁110	-2936
▁게시	-2937
▁개최	-2938
▁가까	-2939
▁깎	-2940
▁제안	-2941
▁나카	-2942
▁제로	-2943
▁ㄱㅓㄴ	-2944
▁평화	-2945
▁시체	-2946
▁아머	-2947
▁오른쪽	-2948
▁회의	-2949
▁게이지	-2950
▁성인	-2951
▁꼽	-2952
르크	-2953
▁좁	-2954
▁그라	-2955
IC	-2956
▁극장판	-2957
▁조준	-2958
▁배신	-2959
▁on	-2960
▁기획	-2961
▁여부	-2962
▁겨우	-2963
▁룰	-2964
▁탑재	-2965
ell	-2966
▁SS	-2967
▁용병	-2968
▁궤	-2969
▁매치	-2970
▁컨트롤	-2971
▁내려가	-2972
▁젤	-2973
▁or	-2974
▁궁극	-2975
ㄹㅅㅜ	-2976
▁가져가	-2977
▁373	-2978
▁춤	-2979
▁카메라	-2980
▁청소	-2981
▁락	-2982
▁달라지	-2983
ct	-2984
▁62	-2985
▁봄	-2986
ㅇㅏ	-2987
▁베이스	-2988
▁멀리	-2989
머리	-2990
ue	-2991
라리	-2992
▁보급	-2993
▁어울리	-2994
▁견제	-2995
▁타이밍	-2996
ine	-2997
▁가볍	-2998
▁다가	-2999
▁점령	-3000
▁애매	-3001
▁자라	-3002
▁체인	-3003
▁충전	-3004
▁관광	-3005
▁순서	-3006
▁댄스	-3007
아리	-3008
▁온라인	-3009
▁스피드	-3010
마스	-3011
▁진실	-3012
▁에어	-3013
▁정령	-3014
▁은퇴	-3015
▁게이	-3016
▁보도	-3017
▁쓰러	-3018
▁한화	-3019
▁최대한	-3020
▁직원	-3021
▁그레이	-3022
의원	-3023
▁남편	-3024
▁NP	-3025
▁레전	-3026
▁Al	-3027
▁모션	-3028
▁기분	-3029
▁민주당	-3030
▁후반부	-3031
▁하트	-3032
▁튜	-3033
▁수단	-3034
▁오스	-3035
▁늘리	-3036
▁세계관	-3037
ist	-3038
래도	-3039
▁트레	-3040
▁아무래도	-3041
▁격투	-3042
▁76	-3043
▁교회	-3044
▁멸망	-3045
▁트위	-3046
▁밸런스	-3047
▁얼음	-3048
▁스코어	-3049
무원	-3050
ove	-3051
▁틈	-3052
▁갤러리	-3053
▁파이터	-3054
▁스탠	-3055
▁알렉	-3056
▁Th	-3057
ore	-3058
▁허용	-3059
▁오오	-3060
▁후지	-3061
▁보수	-3062
▁우수	-3063
▁여왕	-3064
▁빔	-3065
▁스프	-3066
▁77	-3067
▁울트라	-3068
▁갓	-3069
▁치르	-3070
▁약속	-3071
▁61	-3072
▁유용	-3073
▁대원	-3074
▁등등	-3075
▁융	-3076
oo	-3077
▁로켓	-3078
다르	-3079
▁....	-3080
▁부담	-3081
▁{	-3082
▁헤드	-3083
▁무게	-3084
▁토스	-3085
▁판타	-3086
▁생일	-3087
▁고급	-3088
워하	-3089
▁미나	-3090
▁돌격	-3091
▁본선	-3092
▁가면라이더	-3093
▁뱅	-3094
▁샌	-3095
▁ㄱㅜㄴ	-3096
▁규정	-3097
▁72	-3098
▁지식	-3099
▁커뮤	-3100
피스	-3101
▁88	-3102
▁아프리카	-3103
▁갈리	-3104
▁기절	-3105
▁랜덤	-3106
▁병기	-3107
▁렉	-3108
▁막히	-3109
▁com	-3110
▁중단	-3111
▁차별	-3112
▁그리스	-3113
▁삶	-3114
▁자이	-3115
▁끼리	-3116
▁장애	-3117
▁분야	-3118
▁2001	-3119
로이드	-3120
▁스케	-3121
▁패러디	-3122
▁경기도	-3123
▁퍼지	-3124
붙이	-3125
▁입수	-3126
▁트레이	-3127
▁}	-3128
▁ffff	-3129
▁측면	-3130
▁겹치	-3131
▁지점	-3132
▁넷	-3133
심히	-3134
▁셔	-3135
▁ㄹㅔ	-3136
▁마녀	-3137
ive	-3138
▁주목	-3139
▁언니	-3140
바이	-3141
▁도서	-3142
두르	-3143
▁유래	-3144
▁회수	-3145
▁발휘	-3146
OS	-3147
▁따위	-3148
▁포르	-3149
ort	-3150
▁드물	-3151
▁공통	-3152
▁웨이	-3153
▁닥터	-3154
▁미야	-3155
ong	-3156
▁외부	-3157
▁ffffff	-3158
▁자살	-3159
▁국적	-3160
▁SBS	-3161
▁오프닝	-3162
▁인생	-3163
▁삽	-3164
▁도구	-3165
▁승강	-3166
ㄱㅓ	-3167
▁취소	-3168
▁교환	-3169
▁개편	-3170
▁트위터	-3171
▁공원	-3172
AM	-3173
▁제시	-3174
▁스페셜	-3175
ers	-3176
▁아사	-3177
▁커버	-3178
▁ㅇㅜ	-3179
▁피해자	-3180
▁군주	-3181
▁자르	-3182
워드	-3183
▁경계	-3184
크래프트	-3185
오리	-3186
▁릭	-3187
▁살해	-3188
▁아라	-3189
▁페이스	-3190
▁내주	-3191
▁PS	-3192
▁서포	-3193
▁장수	-3194
▁민족	-3195
AS	-3196
▁윙	-3197
▁아침	-3198
▁킥	-3199
▁공장	-3200
달리	-3201
▁98	-3202
▁출생	-3203
▁계산	-3204
▁핵심	-3205
▁외치	-3206
▁부진	-3207
▁재판	-3208
▁구입	-3209
▁브랜드	-3210
▁메탈	-3211
유키	-3212
▁어차	-3213
니어	-3214
▁붕괴	-3215
▁191	-3216
▁용도	-3217
ED	-3218
▁사단	-3219
▁대놓고	-3220
▁단독	-3221
▁어차피	-3222
ip	-3223
▁젠	-3224
▁당선	-3225
스티	-3226
터리	-3227
▁제기	-3228
▁탄생	-3229
▁겨울	-3230
▁바탕	-3231
▁작사	-3232
▁오후	-3233
▁교사	-3234
▁주연	-3235
▁갑옷	-3236
▁어린	-3237
▁상하	-3238
▁아야	-3239
▁끌어	-3240
다수	-3241
▁페이지	-3242
▁아시아	-3243
▁펠	-3244
▁카나	-3245
▁영역	-3246
어리	-3247
ain	-3248
▁온갖	-3249
▁CD	-3250
▁이성	-3251
▁낳	-3252
▁함선	-3253
▁소수	-3254
▁은근	-3255
▁출발	-3256
▁건너	-3257
▁살짝	-3258
▁은행	-3259
▁찌르	-3260
▁요원	-3261
▁습득	-3262
▁분석	-3263
▁600	-3264
▁몰리	-3265
즈키	-3266
if	-3267
▁하수	-3268
▁꾸준히	-3269
▁스파이	-3270
피아	-3271
▁화살	-3272
▁재생	-3273
하라	-3274
▁납치	-3275
▁엑스	-3276
▁선배	-3277
▁타워	-3278
▁순수	-3279
▁대공	-3280
ee	-3281
▁홍보	-3282
▁|	-3283
▁거절	-3284
▁예술	-3285
▁자식	-3286
리티	-3287
▁유형	-3288
▁업무	-3289
▁자격	-3290
▁이스	-3291
▁섭	-3292
EN	-3293
▁1990	-3294
티컬	-3295
▁ㄲ	-3296
▁가르치	-3297
▁귀족	-3298
▁증거	-3299
▁파악	-3300
▁보정	-3301
▁쏟	-3302
가락	-3303
▁협력	-3304
▁경유	-3305
디션	-3306
▁레전드	-3307
▁프라	-3308
▁군인	-3309
▁베르	-3310
▁훌륭	-3311
▁MV	-3312
▁신화	-3313
▁폭풍	-3314
▁테러	-3315
▁사카	-3316
▁63	-3317
▁무너지	-3318
▁플라	-3319
▁흔히	-3320
▁밟	-3321
▁고민	-3322
▁댓글	-3323
▁응원	-3324
▁영원	-3325
▁미소	-3326
▁종점	-3327
▁적당	-3328
▁퀄	-3329
▁보물	-3330
▁출처	-3331
▁카르	-3332
▁쓰레	-3333
▁마인	-3334
▁열심히	-3335
세이	-3336
▁68	-3337
아나	-3338
▁소드	-3339
▁챠	-3340
▁가로	-3341
▁지우	-3342
▁러브	-3343
▁탑승	-3344
▁채용	-3345
▁틱	-3346
▁내내	-3347
▁네이버	-3348
▁당황	-3349
▁모리	-3350
▁장관	-3351
▁왕자	-3352
▁스트라이	-3353
▁뒤집	-3354
▁무적	-3355
▁주도	-3356
▁아리	-3357
▁괴롭	-3358
▁맡기	-3359
▁만족	-3360
▁누리	-3361
▁불안	-3362
▁부인	-3363
ith	-3364
▁우려	-3365
▁거래	-3366
▁본명	-3367
▁없애	-3368
▁컨텐츠	-3369
▁비록	-3370
ly	-3371
▁71	-3372
▁정말로	-3373
▁나뉘	-3374
들리	-3375
ld	-3376
▁800	-3377
▁흘리	-3378
▁정류	-3379
▁혼란	-3380
▁대다수	-3381
▁중계	-3382
▁감사	-3383
ind	-3384
▁문제점	-3385
▁계급	-3386
레인	-3387
▁실질	-3388
▁커뮤니티	-3389
▁연도	-3390
▁운전	-3391
▁늑	-3392
▁운명	-3393
▁지급	-3394
▁74	-3395
▁라이벌	-3396
▁옹	-3397
▁균	-3398
▁AC	-3399
OL	-3400
▁두산	-3401
▁반격	-3402
▁초월	-3403
▁치명타	-3404
▁푸르	-3405
▁오류	-3406
▁67	-3407
▁내놓	-3408
▁트라	-3409
▁짝	-3410
▁미군	-3411
▁수입	-3412
▁파이어	-3413
▁전공	-3414
▁랜드	-3415
▁전함	-3416
▁연예	-3417
▁김성	-3418
▁돌진	-3419
▁오해	-3420
▁카라	-3421
▁기기	-3422
▁아트	-3423
▁파라	-3424
▁메타	-3425
▁라스	-3426
ew	-3427
이터	-3428
▁가까이	-3429
▁찾아가	-3430
▁공군	-3431
▁73	-3432
아먹	-3433
▁체계	-3434
▁코믹스	-3435
ry	-3436
다지	-3437
▁TH	-3438
▁반영	-3439
▁여신	-3440
▁낚	-3441
▁통일	-3442
▁거주	-3443
▁불꽃	-3444
▁단위	-3445
▁캔	-3446
▁소문	-3447
▁충돌	-3448
▁안습	-3449
▁즉시	-3450
▁NC	-3451
▁문자	-3452
ast	-3453
▁아오	-3454
▁96	-3455
▁학과	-3456
▁AT	-3457
IT	-3458
▁그림자	-3459
▁메가	-3460
▁크리티컬	-3461
▁홍콩	-3462
▁주년	-3463
▁화장	-3464
▁찰	-3465
▁편의	-3466
▁슬롯	-3467
▁닿	-3468
▁레오	-3469
카와	-3470
▁전투력	-3471
▁제하	-3472
▁아나	-3473
▁설득	-3474
▁국회의원	-3475
▁크루	-3476
나다	-3477
▁걸치	-3478
▁짜리	-3479
▁me	-3480
▁비율	-3481
▁생명력	-3482
▁시야	-3483
▁말리	-3484
LC	-3485
츠키	-3486
▁상향	-3487
▁피아	-3488
▁떡밥	-3489
EC	-3490
▁해방	-3491
▁내려오	-3492
▁둘러	-3493
▁81	-3494
▁다행히	-3495
바로	-3496
▁제조	-3497
▁CP	-3498
▁소프트	-3499
▁토모	-3500
▁널	-3501
▁격파	-3502
▁정지	-3503
▁지시	-3504
▁공화국	-3505
▁판타지	-3506
▁그다지	-3507
▁ㅈㅏㄶ	-3508
▁써	-3509
▁으	-3510
▁신뢰	-3511
▁파이널	-3512
▁깃	-3513
FA	-3514
사카	-3515
▁암흑	-3516
▁닌자	-3517
▁관객	-3518
▁심장	-3519
▁사전	-3520
▁192	-3521
▁1999	-3522
▁일부러	-3523
▁사운드	-3524
▁등판	-3525
▁가입	-3526
▁j	-3527
▁무난	-3528
▁수업	-3529
▁오로	-3530
▁연사	-3531
▁유비	-3532
▁신고	-3533
▁78	-3534
▁맘	-3535
▁동네	-3536
▁NPC	-3537
▁늑대	-3538
▁별개	-3539
▁그만큼	-3540
▁창작	-3541
end	-3542
▁91	-3543
▁84	-3544
▁쓰러뜨리	-3545
▁본부	-3546
▁가득	-3547
▁엘프	-3548
▁니시	-3549
▁마술	-3550
ㅂㅅㅣ	-3551
▁an	-3552
▁제주	-3553
▁아티	-3554
▁고기	-3555
▁덮	-3556
▁지하철	-3557
▁건강	-3558
▁지켜	-3559
▁실드	-3560
▁짱	-3561
▁막장	-3562
▁룡	-3563
▁장식	-3564
▁재능	-3565
▁근무	-3566
고기	-3567
▁업체	-3568
▁마주	-3569
▁붙잡	-3570
▁팝	-3571
▁화이트	-3572
▁1998	-3573
▁집안	-3574
▁경험치	-3575
▁반란	-3576
식간	-3577
▁지형	-3578
▁수학	-3579
▁추적	-3580
▁드디어	-3581
▁곰	-3582
▁전적	-3583
▁압박	-3584
▁입학	-3585
▁ㄷㅡㄴㅈㅣ	-3586
▁순식간	-3587
▁상품	-3588
▁리버	-3589
▁An	-3590
▁천사	-3591
▁묵	-3592
▁저런	-3593
▁기원	-3594
▁브리	-3595
▁신세	-3596
▁게이트	-3597
▁노멀	-3598
▁it	-3599
▁뛰어	-3600
▁예고	-3601
▁경향	-3602
▁대만	-3603
▁쿼	-3604
▁증명	-3605
▁블레이드	-3606
▁불만	-3607
▁오픈	-3608
▁사쿠라	-3609
▁형성	-3610
▁스티	-3611
▁가이	-3612
▁신청	-3613
▁전방	-3614
▁테이	-3615
▁낭	-3616
▁여동생	-3617
▁지켜보	-3618
▁97	-3619
▁콜라	-3620
▁쿠키	-3621
세우	-3622
▁쌓이	-3623
광역	-3624
▁처하	-3625
▁매력	-3626
▁의상	-3627
▁사령관	-3628
▁Ar	-3629
▁유희	-3630
▁적히	-3631
▁마도	-3632
▁절반	-3633
▁감염	-3634
▁쓰레기	-3635
▁팅	-3636
▁섹	-3637
▁82	-3638
▁나루	-3639
▁69	-3640
▁타점	-3641
▁라이더	-3642
▁이마	-3643
▁마이크	-3644
▁룬	-3645
▁단일	-3646
▁He	-3647
아버지	-3648
▁클로	-3649
▁정권	-3650
▁외국인	-3651
▁어택	-3652
▁주먹	-3653
ㅍㅣ	-3654
▁엔터	-3655
▁사토	-3656
▁연상	-3657
▁코인	-3658
▁복장	-3659
▁지르	-3660
▁여론	-3661
▁메카	-3662
▁오빠	-3663
▁회차	-3664
광역시	-3665
▁별도	-3666
돼지	-3667
▁령	-3668
▁250	-3669
▁강조	-3670
▁!!	-3671
▁이론	-3672
▁이승	-3673
▁덴	-3674
트로	-3675
▁선호	-3676
▁키스	-3677
▁MAX	-3678
▁소멸	-3679
지컬	-3680
▁180	-3681
▁ㅈㅏㄶㅇㅏ	-3682
▁근거	-3683
▁실행	-3684
▁86	-3685
▁for	-3686
▁스톤	-3687
▁바보	-3688
▁전선	-3689
▁is	-3690
▁공기	-3691
▁주전	-3692
▁아메	-3693
▁고치	-3694
▁190	-3695
▁최상	-3696
▁SN	-3697
▁한때	-3698
▁따오	-3699
▁부품	-3700
▁출현	-3701
▁대륙	-3702
▁썰	-3703
▁간격	-3704
▁요정	-3705
▁반지	-3706
▁작용	-3707
▁평타	-3708
▁디아	-3709
▁화려	-3710
▁호환	-3711
돌리	-3712
▁스토	-3713
▁아가	-3714
▁헌터	-3715
▁공작	-3716
파이어	-3717
▁흔하	-3718
▁울산	-3719
▁해설	-3720
▁출장	-3721
▁핀	-3722
▁뉴욕	-3723
모로	-3724
▁BGM	-3725
▁퀸	-3726
▁전형	-3727
▁총기	-3728
▁경상	-3729
▁찾아	-3730
어버리	-3731
▁토리	-3732
ath	-3733
▁사자	-3734
둥이	-3735
더스	-3736
▁무효	-3737
▁마스	-3738
서트	-3739
▁요새	-3740
▁아무것	-3741
타로	-3742
RE	-3743
▁굽	-3744
av	-3745
▁스카이	-3746
▁탱크	-3747
▁프레임	-3748
▁박살	-3749
레나	-3750
▁시드	-3751
▁권력	-3752
▁Te	-3753
▁주위	-3754
▁연애	-3755
50	-3756
▁De	-3757
▁명예	-3758
▁탁	-3759
▁추격	-3760
▁1997	-3761
▁여러모로	-3762
▁바라보	-3763
▁조용	-3764
▁돌아다니	-3765
▁모바	-3766
▁권총	-3767
▁구도	-3768
▁키리	-3769
▁동기	-3770
▁신규	-3771
▁폭격	-3772
▁블록	-3773
▁하수인	-3774
▁후쿠	-3775
▁몰래	-3776
▁주어지	-3777
▁경영	-3778
▁테스트	-3779
▁영업	-3780
▁우스	-3781
▁이슬	-3782
듀서	-3783
▁프로듀서	-3784
se	-3785
드라	-3786
▁대우	-3787
▁지대	-3788
▁경비	-3789
히로	-3790
타인	-3791
▁추락	-3792
▁MS	-3793
▁소총	-3794
▁심리	-3795
웨이	-3796
▁범인	-3797
▁공유	-3798
▁수요	-3799
▁탄약	-3800
▁심판	-3801
어스	-3802
▁전대	-3803
▁폭주	-3804
one	-3805
▁일상	-3806
▁클라	-3807
▁그래픽	-3808
▁아무런	-3809
▁아크	-3810
▁계승	-3811
▁고교	-3812
▁외교	-3813
▁메이저	-3814
남도	-3815
▁환상	-3816
▁사양	-3817
▁Be	-3818
▁마리오	-3819
▁북미	-3820
▁제이	-3821
▁브라질	-3822
▁변호	-3823
▁놓치	-3824
▁상점	-3825
▁갈등	-3826
▁보석	-3827
og	-3828
사키	-3829
▁83	-3830
▁렙	-3831
▁요괴	-3832
▁입력	-3833
▁거짓말	-3834
▁고전	-3835
▁변형	-3836
▁공학	-3837
▁터치	-3838
▁언제나	-3839
▁시각	-3840
▁학살	-3841
▁통제	-3842
겨나	-3843
▁제법	-3844
▁통상	-3845
▁미츠	-3846
▁띄우	-3847
▁리스트	-3848
▁KT	-3849
▁마련	-3850
▁커맨	-3851
▁89	-3852
퍼스	-3853
▁92	-3854
▁이득	-3855
▁블러	-3856
▁혁명	-3857
▁믹	-3858
▁탱커	-3859
스트라	-3860
▁폭력	-3861
▁유령	-3862
ㄹㅏㅇ	-3863
▁승강장	-3864
ust	-3865
가와	-3866
▁불편	-3867
▁제작진	-3868
▁작동	-3869
▁프로필	-3870
▁94	-3871
▁용사	-3872
▁훔	-3873
▁빗	-3874
▁미디어	-3875
▁예외	-3876
▁옛날	-3877
▁맞서	-3878
ide	-3879
▁타케	-3880
▁메인	-3881
▁스마트	-3882
▁전투기	-3883
▁79	-3884
▁일자	-3885
▁수집	-3886
▁구현	-3887
▁조치	-3888
도우	-3889
▁Le	-3890
▁연대	-3891
▁파일럿	-3892
▁진지	-3893
자키	-3894
▁동원	-3895
▁휘두르	-3896
▁둥	-3897
▁챕	-3898
▁머신	-3899
▁네임	-3900
▁모바일	-3901
▁검색	-3902
▁Se	-3903
▁앵	-3904
▁한국인	-3905
ity	-3906
▁사이즈	-3907
▁그곳	-3908
▁민간	-3909
▁쿠로	-3910
▁조심	-3911
▁워치	-3912
▁포탑	-3913
▁고생	-3914
▁현지	-3915
▁이리	-3916
▁경기장	-3917
나무	-3918
▁신장	-3919
노스	-3920
▁93	-3921
▁콘서트	-3922
▁US	-3923
PG	-3924
일드	-3925
▁신인	-3926
려움	-3927
▁동영	-3928
▁만든	-3929
▁쇠	-3930
▁챕터	-3931
▁ㄲㅔ	-3932
▁조절	-3933
▁레인저	-3934
▁표준	-3935
OT	-3936
▁부위	-3937
▁조조	-3938
▁음반	-3939
▁정류장	-3940
▁ㄹㅣㅇ	-3941
▁",	-3942
▁멋지	-3943
▁다이아	-3944
▁꺾	-3945
▁동방	-3946
▁요즘	-3947
▁87	-3948
ㅇㅗ	-3949
보내	-3950
▁카미	-3951
▁101	-3952
▁메시	-3953
▁입구	-3954
일리	-3955
▁감시	-3956
▁배차	-3957
북도	-3958
▁마루	-3959
▁1996	-3960
▁시행	-3961
▁수송	-3962
▁DJ	-3963
▁되찾	-3964
▁스톰	-3965
AC	-3966
▁긍	-3967
▁동영상	-3968
▁프린	-3969
▁보장	-3970
▁리얼	-3971
▁레스	-3972
▁용어	-3973
▁교전	-3974
▁1995	-3975
▁MC	-3976
▁길드	-3977
▁프리미	-3978
▁공산	-3979
▁자이언	-3980
▁편지	-3981
▁도발	-3982
▁음성	-3983
▁패널	-3984
▁AI	-3985
▁물러	-3986
저히	-3987
▁폐지	-3988
▁차단	-3989
▁겐	-3990
▁앱	-3991
▁덧	-3992
▁On	-3993
▁호평	-3994
어도	-3995
▁상상	-3996
ere	-3997
▁텔레	-3998
▁볼넷	-3999
▁라이프	-4000
▁기습	-4001
▁특화	-4002
age	-4003
▁김정	-4004
▁맞이	-4005
▁연방	-4006
▁계정	-4007
▁이재	-4008
▁나타내	-4009
▁루타	-4010
▁한방	-4011
▁강철	-4012
▁구출	-4013
▁흥행	-4014
▁겁	-4015
▁사이드	-4016
▁볼트	-4017
▁똑같이	-4018
▁세월	-4019
▁어깨	-4020
▁도서관	-4021
펙트	-4022
▁쟁	-4023
▁추진	-4024
▁무료	-4025
ㅌㅇㅣ	-4026
▁.....	-4027
▁ㄱㅏㅌㅇㅣ	-4028
▁연락	-4029
▁슈트	-4030
▁잠수	-4031
▁어지	-4032
▁태우	-4033
▁연관	-4034
▁루시	-4035
▁그치	-4036
▁도달	-4037
▁핸드	-4038
▁이날	-4039
▁농구	-4040
▁신문	-4041
▁결승전	-4042
▁슛	-4043
▁번개	-4044
▁익숙	-4045
▁레이드	-4046
▁훔치	-4047
▁@	-4048
▁간부	-4049
▁주소	-4050
▁리메	-4051
▁매니	-4052
▁향상	-4053
▁헤이	-4054
▁지휘관	-4055
▁삼진	-4056
▁ㄷㅏㄴ	-4057
메달	-4058
▁전직	-4059
오프	-4060
▁가시	-4061
▁사마	-4062
▁웬만	-4063
▁묘지	-4064
▁양산	-4065
레이터	-4066
▁가상	-4067
▁출력	-4068
▁전달	-4069
▁겉	-4070
▁px	-4071
▁극단	-4072
▁신분	-4073
▁빌드	-4074
▁신기	-4075
▁노예	-4076
▁조지	-4077
▁고향	-4078
▁소닉	-4079
▁부문	-4080
▁신성	-4081
▁켈	-4082
▁빛나	-4083
▁환자	-4084
▁수술	-4085
▁스튜	-4086
▁갤럭	-4087
▁환승	-4088
▁넘치	-4089
qu	-4090
▁가속	-4091
▁노출	-4092
▁글자	-4093
▁마구	-4094
▁박근	-4095
▁입단	-4096
▁켜	-4097
▁레이스	-4098
▁임명	-4099
▁아우	-4100
▁도망가	-4101
▁동작	-4102
▁DLC	-4103
오카	-4104
▁세이브	-4105
▁캐리	-4106
▁멕	-4107
▁전역	-4108
▁베트	-4109
▁헨	-4110
ood	-4111
▁장교	-4112
▁커플	-4113
▁복잡	-4114
▁제자	-4115
▁'.	-4116
▁AK	-4117
▁내구	-4118
▁성별	-4119
▁봇	-4120
▁캐스	-4121
▁쾌	-4122
▁THE	-4123
▁내성	-4124
▁대체로	-4125
조리	-4126
▁막차	-4127
BO	-4128
▁명중률	-4129
▁팀원	-4130
▁적어도	-4131
▁타마	-4132
창기	-4133
▁해체	-4134
▁발매되	-4135
▁페이즈	-4136
▁임시	-4137
▁브레이크	-4138
▁진심	-4139
▁핫	-4140
▁반하	-4141
▁알파	-4142
▁갤럭시	-4143
▁MVP	-4144
▁기병	-4145
▁종이	-4146
▁절망	-4147
▁듯이	-4148
▁전시	-4149
▁가게	-4150
란색	-4151
PM	-4152
▁샘	-4153
IS	-4154
▁플레	-4155
▁구속	-4156
▁득표	-4157
▁연구소	-4158
▁육성	-4159
▁수영	-4160
▁망치	-4161
▁중화	-4162
▁틀리	-4163
▁ㅇㅓㅆㅇㅓㅆ	-4164
▁근육	-4165
▁착각	-4166
▁아빠	-4167
▁개통	-4168
▁융합	-4169
▁$	-4170
▁이즈	-4171
▁CC	-4172
▁리메이크	-4173
ㄱㅣ	-4174
▁공지	-4175
▁뼈	-4176
▁여유	-4177
▁차리	-4178
▁너무나	-4179
are	-4180
▁분기	-4181
▁자매	-4182
▁대량	-4183
▁강원	-4184
▁차라리	-4185
▁1994	-4186
▁인수	-4187
▁Wh	-4188
▁카오스	-4189
▁날짜	-4190
▁창조	-4191
전자	-4192
▁이시	-4193
▁인증	-4194
▁협회	-4195
▁지능	-4196
▁물질	-4197
▁초창기	-4198
▁럭	-4199
▁리치	-4200
▁글로	-4201
▁엮	-4202
▁규칙	-4203
▁묻히	-4204
▁고백	-4205
▁시즈	-4206
▁빡	-4207
OM	-4208
▁남부	-4209
▁1980	-4210
▁인연	-4211
▁파리	-4212
▁게스트	-4213
▁실버	-4214
▁참전	-4215
▁그럼	-4216
▁이자	-4217
끄럽	-4218
▁소화	-4219
▁대대	-4220
▁경고	-4221
▁배트	-4222
▁하필	-4223
브리	-4224
▁700	-4225
▁구체	-4226
▁카타	-4227
▁아끼	-4228
▁Tr	-4229
▁분량	-4230
▁톱	-4231
▁태그	-4232
▁의뢰	-4233
ㄷㅓㄴ	-4234
▁뭉	-4235
▁점차	-4236
크스	-4237
▁악역	-4238
▁가량	-4239
▁끼치	-4240
▁제어	-4241
▁의혹	-4242
▁청년	-4243
▁멍	-4244
ock	-4245
▁테일	-4246
▁성과	-4247
▁누적	-4248
▁투구	-4249
▁먹히	-4250
▁회원	-4251
▁메모리	-4252
▁미카	-4253
▁''	-4254
▁어둡	-4255
▁김영	-4256
▁흠	-4257
▁합격	-4258
▁고용	-4259
ake	-4260
▁객	-4261
OW	-4262
▁대립	-4263
▁합체	-4264
▁찾아보	-4265
▁돼지	-4266
ect	-4267
▁정복	-4268
먼트	-4269
▁그대	-4270
▁식사	-4271
▁웅	-4272
our	-4273
▁FI	-4274
▁이내	-4275
▁춘	-4276
▁녹음	-4277
▁이명	-4278
▁웹툰	-4279
ass	-4280
▁호감	-4281
ire	-4282
▁왠	-4283
티나	-4284
▁피격	-4285
구리	-4286
▁반발	-4287
▁의료	-4288
▁아시	-4289
▁차트	-4290
▁중대	-4291
▁뷰	-4292
oy	-4293
ark	-4294
보드	-4295
▁귀신	-4296
도로	-4297
▁꼬리	-4298
▁삼국지	-4299
▁출판	-4300
▁뚜	-4301
▁둔	-4302
▁파트너	-4303
▁후속작	-4304
▁위장	-4305
▁합성	-4306
ob	-4307
▁he	-4308
ite	-4309
▁베스트	-4310
▁오가	-4311
▁여지	-4312
▁츄	-4313
▁써먹	-4314
▁게시판	-4315
지마	-4316
▁쟈	-4317
▁그동안	-4318
▁잦	-4319
▁와이	-4320
▁모모	-4321
▁유로	-4322
▁편곡	-4323
▁히데	-4324
▁외계	-4325
▁감옥	-4326
▁랭킹	-4327
▁스턴	-4328
▁결론	-4329
▁기초	-4330
▁서부	-4331
▁축제	-4332
▁강의	-4333
ㄱㅜ	-4334
▁한번	-4335
웨어	-4336
▁떠올리	-4337
▁마키	-4338
▁체포	-4339
▁부서	-4340
▁떠오르	-4341
▁예쁘	-4342
▁카스	-4343
▁몰아	-4344
▁아기	-4345
▁협박	-4346
주시	-4347
▁림	-4348
▁퀄리티	-4349
▁블리	-4350
▁SR	-4351
▁문장	-4352
▁동화	-4353
▁안드로이드	-4354
▁썩	-4355
▁햄	-4356
▁깨지	-4357
▁본작	-4358
▁예비	-4359
▁사제	-4360
▁토론	-4361
ES	-4362
FC	-4363
▁Cl	-4364
▁정면	-4365
▁비아	-4366
▁괴롭히	-4367
▁구멍	-4368
▁kt	-4369
▁개방	-4370
▁FA	-4371
▁단장	-4372
▁AR	-4373
▁곧바로	-4374
▁공급	-4375
▁소형	-4376
▁어쨌	-4377
▁매체	-4378
▁렛	-4379
▁수련	-4380
▁토르	-4381
▁은하	-4382
▁유행	-4383
UN	-4384
ah	-4385
▁다섯	-4386
▁불러	-4387
▁초간	-4388
▁대폭	-4389
▁횡	-4390
▁트로	-4391
▁플랫	-4392
▁마리아	-4393
▁깜	-4394
▁전면	-4395
▁룸	-4396
▁인공	-4397
▁문학	-4398
▁대가	-4399
▁활성	-4400
▁부부	-4401
▁투어	-4402
▁캐나다	-4403
▁wh	-4404
▁립	-4405
▁소원	-4406
라이언	-4407
▁예능	-4408
▁GT	-4409
ound	-4410
디아	-4411
▁내장	-4412
▁매직	-4413
iz	-4414
▁저그	-4415
▁과목	-4416
▁일시	-4417
▁외형	-4418
▁해병	-4419
릭스	-4420
▁클리	-4421
성기	-4422
▁대략	-4423
▁아일	-4424
▁연타	-4425
▁뜬	-4426
▁고문	-4427
▁김태	-4428
▁커맨드	-4429
▁파견	-4430
▁관중	-4431
▁곁	-4432
▁간혹	-4433
▁달하	-4434
ime	-4435
▁신호	-4436
▁컬러	-4437
▁시위	-4438
▁넉	-4439
▁왕조	-4440
▁희귀	-4441
▁세이버	-4442
▁적군	-4443
▁야스	-4444
▁슈팅	-4445
▁스틸	-4446
▁일원	-4447
▁SD	-4448
▁식물	-4449
▁포스트	-4450
▁손가락	-4451
▁플레이오프	-4452
▁데모	-4453
▁팬덤	-4454
▁블로그	-4455
▁Gr	-4456
▁뺏	-4457
▁피부	-4458
▁에드	-4459
▁커지	-4460
▁정글	-4461
▁긍정	-4462
▁마이클	-4463
▁박근혜	-4464
▁반사	-4465
LL	-4466
ㄷㅓㄴㄱㅏ	-4467
▁소지	-4468
▁김민	-4469
▁코우	-4470
▁KIA	-4471
iv	-4472
▁my	-4473
▁펀치	-4474
▁PD	-4475
▁프라이	-4476
▁Me	-4477
▁타이거	-4478
▁목격	-4479
▁의무	-4480
우드	-4481
▁바위	-4482
▁수수	-4483
▁구원	-4484
▁신라	-4485
▁은근히	-4486
▁SC	-4487
▁움직임	-4488
▁들어서	-4489
▁크라	-4490
▁준수	-4491
어나오	-4492
▁주말	-4493
ID	-4494
▁널리	-4495
▁상성	-4496
▁섀	-4497
▁파크	-4498
▁116	-4499
▁이지	-4500
▁곡명	-4501
▁연인	-4502
잡이	-4503
▁오카	-4504
스턴	-4505
▁피스	-4506
▁육체	-4507
▁특집	-4508
▁전철	-4509
▁인근	-4510
큐어	-4511
페인	-4512
▁나아가	-4513
▁최소한	-4514
▁다가오	-4515
▁메뉴	-4516
▁섞이	-4517
버트	-4518
▁굴리	-4519
▁멘탈	-4520
▁대처	-4521
▁개체	-4522
▁수용	-4523
▁My	-4524
▁ㄹㅏㄹ	-4525
▁불법	-4526
MA	-4527
밀리	-4528
▁스미	-4529
▁아니면	-4530
▁대충	-4531
▁일격	-4532
▁실리	-4533
▁자치	-4534
▁까다	-4535
▁박정	-4536
▁킨	-4537
▁예측	-4538
▁영문	-4539
▁헤비	-4540
OP	-4541
▁털리	-4542
▁130	-4543
▁동부	-4544
▁환영	-4545
▁건축	-4546
▁홀로	-4547
▁조성	-4548
시코	-4549
▁떨어	-4550
▁각자	-4551
▁원본	-4552
▁로즈	-4553
▁커스	-4554
구치	-4555
▁{{	-4556
▁보안	-4557
디언	-4558
▁적대	-4559
▁냄	-4560
▁바리	-4561
▁기사단	-4562
▁다스	-4563
미야	-4564
▁왈	-4565
▁딩	-4566
▁영토	-4567
▁서양	-4568
▁Pr	-4569
▁뜯	-4570
▁멀쩡	-4571
▁주포	-4572
▁접속	-4573
▁놀랍	-4574
▁냥	-4575
▁형사	-4576
▁국군	-4577
▁쉐	-4578
▁오랫	-4579
ge	-4580
▁{{{	-4581
▁강남	-4582
▁누나	-4583
▁좌우	-4584
▁아바	-4585
▁더더	-4586
▁탄창	-4587
▁침공	-4588
▁따라가	-4589
▁어린이	-4590
▁액티브	-4591
▁계단	-4592
▁시내버스	-4593
▁훗	-4594
▁소중	-4595
▁안내	-4596
▁면역	-4597
▁첨	-4598
▁사우	-4599
▁골든	-4600
▁어른	-4601
▁결말	-4602
▁바치	-4603
▁튀어나오	-4604
▁BE	-4605
▁펫	-4606
▁대지	-4607
▁플로	-4608
▁호주	-4609
▁기독	-4610
▁유이	-4611
▁정찰	-4612
ax	-4613
▁작화	-4614
▁지도자	-4615
▁이래	-4616
▁더더욱	-4617
데스	-4618
▁갇	-4619
▁시마	-4620
가미	-4621
▁후기	-4622
▁음원	-4623
▁호텔	-4624
▁허나	-4625
▁까다롭	-4626
▁학부	-4627
▁DF	-4628
▁깡	-4629
▁험	-4630
ㄴㄷ	-4631
▁회상	-4632
▁대항	-4633
▁괴수	-4634
▁현역	-4635
▁죄다	-4636
ome	-4637
▁처벌	-4638
▁거인	-4639
ance	-4640
▁MF	-4641
▁갇히	-4642
▁취미	-4643
▁알아보	-4644
▁퀴	-4645
▁버스터	-4646
▁딘	-4647
▁하야	-4648
▁포트	-4649
▁시선	-4650
▁식당	-4651
▁씌	-4652
▁히메	-4653
▁아이스	-4654
▁상당수	-4655
▁캐스팅	-4656
▁프리큐어	-4657
▁치우	-4658
uc	-4659
▁닫	-4660
▁고스트	-4661
▁주간	-4662
▁해적	-4663
ick	-4664
▁라인업	-4665
▁리듬	-4666
▁요코	-4667
▁절대로	-4668
▁과제	-4669
▁아티스트	-4670
▁첫차	-4671
▁재미있	-4672
덜란드	-4673
▁네덜란드	-4674
▁미안	-4675
▁Pl	-4676
▁일기	-4677
▁새벽	-4678
▁로그	-4679
▁메르	-4680
▁과연	-4681
▁전문가	-4682
▁그로	-4683
▁ch	-4684
▁시계	-4685
▁삐	-4686
▁스키	-4687
▁혀	-4688
▁저녁	-4689
▁HD	-4690
가시	-4691
▁전진	-4692
▁WW	-4693
▁유치	-4694
▁도우	-4695
ix	-4696
▁니코	-4697
mer	-4698
▁어떠	-4699
▁천재	-4700
▁리아	-4701
▁트윈	-4702
▁비행기	-4703
▁승격	-4704
닉스	-4705
▁하얗	-4706
▁한동안	-4707
▁파츠	-4708
▁고지	-4709
ord	-4710
스탄	-4711
▁오스트	-4712
▁SM	-4713
▁총선	-4714
▁열쇠	-4715
▁드레	-4716
▁꽂	-4717
▁모자라	-4718
▁촌	-4719
▁방지	-4720
요시	-4721
▁기적	-4722
▁검찰	-4723
▁마비	-4724
▁트레이드	-4725
▁깨닫	-4726
▁주사	-4727
려주	-4728
▁스타크래프트	-4729
▁자금	-4730
▁160	-4731
▁용기	-4732
▁안경	-4733
▁한참	-4734
ure	-4735
▁고수	-4736
▁리드	-4737
▁방사	-4738
▁GB	-4739
▁저장	-4740
▁코코	-4741
▁트럭	-4742
▁디지털	-4743
▁챌	-4744
▁경기력	-4745
▁짤	-4746
▁익히	-4747
▁캠페인	-4748
▁별다르	-4749
특별	-4750
▁허리	-4751
아웃	-4752
▁신비	-4753
▁휴대	-4754
▁양쪽	-4755
▁OST	-4756
▁이슬람	-4757
▁국어	-4758
▁전라	-4759
10	-4760
▁캠퍼스	-4761
▁청소년	-4762
▁토끼	-4763
▁유희왕	-4764
▁어지간	-4765
▁개성	-4766
▁보라	-4767
▁농담	-4768
▁크리스마스	-4769
▁대리	-4770
▁상급	-4771
▁우위	-4772
▁할아버지	-4773
▁ㄱㅔㅅ	-4774
이즈	-4775
▁동굴	-4776
▁꼽히	-4777
프레	-4778
▁1992	-4779
▁갈수	-4780
고리	-4781
▁한마	-4782
▁무덤	-4783
▁with	-4784
▁캡틴	-4785
▁램	-4786
덩이	-4787
▁아이콘	-4788
ud	-4789
▁클래식	-4790
▁로우	-4791
▁\	-4792
▁방출	-4793
▁갈수록	-4794
▁체크	-4795
▁인지도	-4796
바라	-4797
▁화제	-4798
▁문재	-4799
▁개정	-4800
▁김동	-4801
▁빚	-4802
▁1993	-4803
▁마이너	-4804
▁KO	-4805
▁영향력	-4806
▁오랫동안	-4807
▁북부	-4808
▁바퀴	-4809
▁올해	-4810
▁물러나	-4811
▁원소	-4812
▁미술	-4813
▁곽	-4814
▁기독교	-4815
▁이영	-4816
▁칭하	-4817
▁해리	-4818
▁ㅌ	-4819
▁연료	-4820
라이트	-4821
▁정원	-4822
▁클릭	-4823
▁터키	-4824
▁호위	-4825
라드	-4826
▁시아	-4827
양함	-4828
▁어마	-4829
지로	-4830
▁베트남	-4831
▁어쨌든	-4832
▁중독	-4833
▁140	-4834
▁안티	-4835
▁웃음	-4836
톨릭	-4837
▁Ex	-4838
▁원수	-4839
▁조언	-4840
▁일제	-4841
▁접촉	-4842
▁국방	-4843
ame	-4844
▁https	-4845
▁귀찮	-4846
▁바이러스	-4847
▁무작	-4848
▁빼앗기	-4849
▁극복	-4850
▁SKT	-4851
▁하락	-4852
80	-4853
▁비추	-4854
▁미라	-4855
▁팔리	-4856
▁JR	-4857
▁의존	-4858
▁마침내	-4859
▁델	-4860
▁인정받	-4861
▁장악	-4862
▁신설	-4863
▁전신	-4864
▁사도	-4865
▁하우스	-4866
▁??	-4867
▁놀이	-4868
▁윌리	-4869
▁선택지	-4870
▁톰	-4871
▁노인	-4872
▁식량	-4873
▁무겁	-4874
▁생존자	-4875
AD	-4876
▁sh	-4877
멘트	-4878
▁담기	-4879
▁흐름	-4880
▁보관	-4881
▁외전	-4882
▁개수	-4883
▁수익	-4884
▁투명	-4885
▁체육관	-4886
▁캐논	-4887
▁본체	-4888
▁결코	-4889
쳐지	-4890
임스	-4891
▁챌린	-4892
▁핏	-4893
▁살아가	-4894
▁부장	-4895
▁취향	-4896
▁도끼	-4897
▁헛	-4898
▁de	-4899
▁모조리	-4900
▁커리어	-4901
▁공무원	-4902
▁IC	-4903
▁카트	-4904
▁노부	-4905
▁데려오	-4906
몬드	-4907
ost	-4908
▁예시	-4909
▁흔들리	-4910
▁비주	-4911
▁전멸	-4912
▁Love	-4913
▁이브	-4914
▁치유	-4915
▁최다	-4916
▁앞두	-4917
▁전성기	-4918
▁칭찬	-4919
▁손해	-4920
▁모래	-4921
▁에리	-4922
치기	-4923
▁기종	-4924
세스	-4925
▁콜라보	-4926
▁데드	-4927
▁루수	-4928
▁제작자	-4929
old	-4930
리그	-4931
▁교장	-4932
▁김종	-4933
▁후방	-4934
▁GS	-4935
▁기아	-4936
▁씹	-4937
▁이터	-4938
▁스승	-4939
▁유니폼	-4940
카리	-4941
코토	-4942
out	-4943
▁힙	-4944
▁한마디	-4945
▁어스	-4946
▁논리	-4947
▁돋	-4948
▁가톨릭	-4949
▁900	-4950
▁Un	-4951
▁툴	-4952
▁재현	-4953
▁정비	-4954
▁마린	-4955
▁충청	-4956
▁작곡가	-4957
▁무릎	-4958
▁수십	-4959
▁반동	-4960
▁무지	-4961
▁첼	-4962
▁우연히	-4963
▁레이더	-4964
▁변호사	-4965
다랗	-4966
▁불타	-4967
▁충성	-4968
▁구경	-4969
▁사막	-4970
▁칩	-4971
own	-4972
▁당일	-4973
▁일반인	-4974
네스	-4975
▁오전	-4976
▁세르	-4977
▁202	-4978
▁동의	-4979
▁명성	-4980
▁우라	-4981
▁사정거리	-4982
▁코미	-4983
▁제임스	-4984
▁트랜	-4985
▁이정	-4986
▁카츠	-4987
▁쵸	-4988
▁패션	-4989
스키	-4990
▁적응	-4991
▁업적	-4992
▁그러니	-4993
▁기여	-4994
▁소스	-4995
▁.."	-4996
▁거미	-4997
▁구사	-4998
▁날아오	-4999
▁로고	-5000
▁타선	-5001
▁아일랜드	-5002
▁멕시코	-5003
▁맥스	-5004
워크	-5005
▁접하	-5006
▁아즈	-5007
▁수류	-5008
▁판매량	-5009
▁소라	-5010
▁잉글	-5011
▁유통	-5012
▁자세히	-5013
카드	-5014
▁합의	-5015
▁타인	-5016
▁무방	-5017
▁연금	-5018
US	-5019
▁SH	-5020
▁선전	-5021
▁잘리	-5022
▁스트리	-5023
▁잡지	-5024
▁집어	-5025
▁둘째	-5026
▁증언	-5027
▁개입	-5028
▁빨갛	-5029
▁초보	-5030
▁상업	-5031
▁LI	-5032
▁넥센	-5033
▁타락	-5034
▁드라이브	-5035
▁기도	-5036
▁법원	-5037
▁스웨	-5038
▁조연	-5039
▁기량	-5040
▁고맙	-5041
▁취임	-5042
▁아쿠	-5043
▁EP	-5044
▁무라	-5045
▁바깥	-5046
▁신부	-5047
시로	-5048
▁다름	-5049
▁유물	-5050
▁의회	-5051
▁북쪽	-5052
▁FF	-5053
▁울리	-5054
▁가짜	-5055
▁폴란드	-5056
ok	-5057
▁루카	-5058
▁법률	-5059
▁정수	-5060
▁찢	-5061
▁구리	-5062
▁할머니	-5063
▁자국	-5064
pe	-5065
▁수류탄	-5066
다이	-5067
▁어드	-5068
▁출마	-5069
▁포격	-5070
▁가루	-5071
▁차기	-5072
▁닭	-5073
▁주기	-5074
▁전후	-5075
▁벌레	-5076
미니	-5077
▁오사카	-5078
▁눕	-5079
ace	-5080
ave	-5081
▁쌍둥이	-5082
per	-5083
▁복무	-5084
▁싱크	-5085
▁금속	-5086
▁드롭	-5087
▁IS	-5088
▁깔끔	-5089
▁박히	-5090
▁펑	-5091
▁결성	-5092
▁교실	-5093
▁화장실	-5094
▁인조	-5095
ng	-5096
▁대개	-5097
▁비례	-5098
▁똥	-5099
▁XX	-5100
▁남쪽	-5101
▁안타깝	-5102
▁위상	-5103
ㄷㅡㄴㄱㅏ	-5104
▁일방	-5105
▁히나	-5106
▁포드	-5107
▁주식	-5108
▁교차	-5109
▁기르	-5110
▁정착	-5111
▁동력	-5112
▁승점	-5113
▁과장	-5114
노우	-5115
▁인격	-5116
ice	-5117
▁독특	-5118
▁방어구	-5119
▁1991	-5120
▁팽	-5121
▁새끼	-5122
네임	-5123
▁흔적	-5124
▁라이온	-5125
▁구르	-5126
▁CV	-5127
▁도주	-5128
▁주일	-5129
▁보고	-5130
▁연패	-5131
▁도적	-5132
▁훗날	-5133
▁스마트폰	-5134
▁자폭	-5135
▁CF	-5136
▁포항	-5137
▁스프링	-5138
▁숭	-5139
▁국립	-5140
▁스터	-5141
▁즐겁	-5142
▁잠재	-5143
▁그러니까	-5144
▁AD	-5145
▁공룡	-5146
▁블러드	-5147
▁ㄹㅐ	-5148
▁1988	-5149
▁대인	-5150
▁부작	-5151
OD	-5152
▁스텔	-5153
▁화학	-5154
▁자책	-5155
▁남녀	-5156
▁공성	-5157
▁정치인	-5158
ov	-5159
▁냄새	-5160
▁타수	-5161
▁처형	-5162
▁튕	-5163
▁더럽	-5164
▁내세우	-5165
▁사라	-5166
▁노르	-5167
▁강도	-5168
▁위대	-5169
▁포수	-5170
▁상호	-5171
▁연승	-5172
▁We	-5173
▁람	-5174
▁크리스탈	-5175
▁클랜	-5176
▁매니저	-5177
▁스튜디오	-5178
▁각본	-5179
▁클레	-5180
ont	-5181
▁스페이스	-5182
▁패하	-5183
▁런던	-5184
▁시너지	-5185
▁미루	-5186
▁비상	-5187
▁시노	-5188
▁개량	-5189
▁추억	-5190
▁이슈	-5191
▁김재	-5192
려나	-5193
▁일찍	-5194
▁오타	-5195
▁아츠	-5196
▁트라이	-5197
▁귀환	-5198
▁놓이	-5199
▁간신	-5200
랑이	-5201
▁혈액	-5202
▁후술	-5203
▁기용	-5204
▁색깔	-5205
▁몰락	-5206
▁가리키	-5207
▁제갈	-5208
▁105	-5209
▁광역시	-5210
▁권한	-5211
▁주역	-5212
▁행보	-5213
▁사신	-5214
나카	-5215
▁녹색	-5216
▁AM	-5217
▁일람	-5218
▁승률	-5219
▁아케	-5220
▁사유	-5221
▁개막	-5222
자드	-5223
orld	-5224
▁거점	-5225
▁지뢰	-5226
랭크	-5227
▁미스터	-5228
▁상술	-5229
▁적당히	-5230
▁고작	-5231
▁너희	-5232
▁유대	-5233
ies	-5234
▁생년	-5235
▁히어로즈	-5236
▁숙련	-5237
▁자막	-5238
▁커피	-5239
▁DS	-5240
▁타로	-5241
▁해피	-5242
▁카운트	-5243
▁학력	-5244
▁루나	-5245
▁색상	-5246
▁코리아	-5247
▁길이	-5248
▁뜬금	-5249
ann	-5250
▁어려움	-5251
▁시달리	-5252
▁흥미	-5253
▁실망	-5254
▁이중	-5255
▁혐오	-5256
팡이	-5257
▁화성	-5258
▁공세	-5259
▁계통	-5260
블린	-5261
▁내지	-5262
▁서포터	-5263
▁재단	-5264
▁금융	-5265
▁의대	-5266
▁스트라이크	-5267
로나	-5268
OC	-5269
특별시	-5270
▁특전	-5271
▁제작사	-5272
▁인민	-5273
▁ㅅㅠ	-5274
▁다치	-5275
고속	-5276
▁펴	-5277
▁요금	-5278
▁티켓	-5279
▁SNS	-5280
▁관람	-5281
▁디지몬	-5282
▁소위	-5283
▁다름없	-5284
▁ED	-5285
▁터뜨리	-5286
▁끊기	-5287
▁서울특별시	-5288
▁차이점	-5289
▁영구	-5290
▁미터	-5291
▁아이언	-5292
▁개시	-5293
▁릿	-5294
▁흡혈	-5295
▁아마도	-5296
▁구슬	-5297
▁세종	-5298
▁중량	-5299
▁하단	-5300
▁배터리	-5301
▁CPU	-5302
▁국왕	-5303
▁뿔	-5304
▁면모	-5305
▁심사	-5306
LE	-5307
럼프	-5308
▁나치	-5309
▁사이버	-5310
▁추종	-5311
▁칭호	-5312
▁쪼	-5313
▁기숙	-5314
▁어뢰	-5315
▁쓸모	-5316
▁펄	-5317
▁DE	-5318
▁세븐	-5319
▁아서	-5320
▁오크	-5321
▁wik	-5322
시타	-5323
▁오랜만	-5324
▁리타	-5325
▁스팀	-5326
▁단단	-5327
▁미묘	-5328
▁ㄹㅓㄴ	-5329
▁소대	-5330
BA	-5331
▁보호막	-5332
▁중첩	-5333
▁오직	-5334
▁튕기	-5335
▁공공	-5336
▁민첩	-5337
▁좌석	-5338
▁썬	-5339
▁생략	-5340
▁연령	-5341
▁잉글랜드	-5342
▁시그	-5343
▁히토	-5344
▁호수	-5345
▁편입	-5346
▁증오	-5347
▁언더	-5348
▁LV	-5349
▁애플	-5350
▁노벨	-5351
▁고구	-5352
▁뎀	-5353
▁재산	-5354
▁단편	-5355
▁LC	-5356
▁혐의	-5357
▁맛있	-5358
▁찾아내	-5359
▁부지	-5360
▁해상	-5361
▁워커	-5362
▁타율	-5363
▁치루	-5364
▁상단	-5365
▁들키	-5366
ber	-5367
▁NE	-5368
▁십자	-5369
로디	-5370
▁총알	-5371
ys	-5372
▁하차	-5373
▁실전	-5374
시스트	-5375
▁네트	-5376
▁신사	-5377
▁연예인	-5378
▁오라	-5379
▁가만	-5380
▁지경	-5381
▁휴식	-5382
▁메리	-5383
베르	-5384
▁펌	-5385
▁중국어	-5386
▁SE	-5387
▁익스	-5388
▁탈퇴	-5389
ION	-5390
▁가요	-5391
▁협상	-5392
▁189	-5393
▁아저	-5394
▁마약	-5395
▁후배	-5396
▁딜링	-5397
▁그만두	-5398
▁예언	-5399
어마	-5400
▁카카	-5401
▁아저씨	-5402
▁모노	-5403
▁쿼터	-5404
der	-5405
▁기관총	-5406
▁임대	-5407
▁정화	-5408
▁수장	-5409
▁your	-5410
▁오마	-5411
▁네오	-5412
▁덧붙이	-5413
▁언스	-5414
저스	-5415
aw	-5416
▁상인	-5417
▁용량	-5418
▁문구	-5419
▁동쪽	-5420
▁막대	-5421
▁드럼	-5422
▁혹시	-5423
▁곤란	-5424
▁예산	-5425
▁이익	-5426
60	-5427
▁3000	-5428
▁구석	-5429
▁강자	-5430
▁어마어마	-5431
▁흘러	-5432
FF	-5433
려들	-5434
▁눈치채	-5435
▁큐브	-5436
▁수호자	-5437
바르	-5438
▁BPM	-5439
▁턱	-5440
▁캠프	-5441
▁떨어뜨리	-5442
▁EN	-5443
▁공방	-5444
▁소장	-5445
▁원주	-5446
▁It	-5447
40	-5448
▁하루카	-5449
▁악당	-5450
▁잠수함	-5451
▁강요	-5452
▁개혁	-5453
▁김현	-5454
▁진보	-5455
▁인치	-5456
▁총리	-5457
▁찬스	-5458
▁굿	-5459
▁원칙	-5460
▁부각	-5461
▁용서	-5462
ream	-5463
이너	-5464
▁자극	-5465
▁메달	-5466
사자	-5467
▁학자	-5468
▁포르투	-5469
▁금방	-5470
ike	-5471
▁원문	-5472
▁표지	-5473
▁엿	-5474
▁칼리	-5475
▁상실	-5476
▁틸	-5477
▁기울	-5478
▁Com	-5479
▁루이	-5480
▁125	-5481
▁저작	-5482
▁데려가	-5483
▁교류	-5484
▁엑스트라	-5485
▁미쿠	-5486
▁앨리스	-5487
나미	-5488
▁결전	-5489
▁포로	-5490
월일	-5491
▁모토	-5492
▁가을	-5493
▁타운	-5494
▁집행	-5495
▁상관없	-5496
술사	-5497
▁활발	-5498
▁1989	-5499
▁카와	-5500
▁자전	-5501
▁뱀파이어	-5502
▁로리	-5503
▁서번	-5504
▁ㄷㅓㄴㅈㅣ	-5505
▁유효	-5506
▁도루	-5507
▁마디	-5508
▁중립	-5509
▁엘리트	-5510
▁PV	-5511
▁신앙	-5512
▁입지	-5513
▁채팅	-5514
▁서번트	-5515
▁찍히	-5516
▁저렴	-5517
▁잡아내	-5518
▁제트	-5519
가스	-5520
▁깨어나	-5521
▁일족	-5522
▁칼날	-5523
▁생년월일	-5524
▁낚시	-5525
▁묘하	-5526
▁마그	-5527
▁기생	-5528
▁얻어	-5529
▁화물	-5530
▁메시지	-5531
▁며	-5532
티아	-5533
▁후계	-5534
▁사명	-5535
▁루비	-5536
▁UP	-5537
iss	-5538
▁요약	-5539
▁사형	-5540
▁무척	-5541
▁이끄	-5542
▁헬기	-5543
▁미즈	-5544
▁ww	-5545
▁사귀	-5546
▁담배	-5547
▁첩	-5548
위대	-5549
▁피터	-5550
▁위원장	-5551
▁복지	-5552
▁정예	-5553
▁힌	-5554
▁구축함	-5555
▁행운	-5556
▁동아	-5557
▁안녕	-5558
▁간신히	-5559
▁일본인	-5560
▁대학원	-5561
▁순환	-5562
▁딜레이	-5563
▁짜증	-5564
팩트	-5565
▁조이	-5566
▁터널	-5567
▁존재감	-5568
▁거울	-5569
▁바이오	-5570
▁레알	-5571
▁재밌	-5572
▁캐스터	-5573
▁텍스트	-5574
▁라면	-5575
▁그랜드	-5576
▁끈	-5577
▁엮이	-5578
▁나리	-5579
▁무렵	-5580
▁최신	-5581
▁추구	-5582
▁테라	-5583
▁잡아먹	-5584
▁피아노	-5585
데이	-5586
▁엔젤	-5587
▁www	-5588
▁AS	-5589
▁주자	-5590
▁불사	-5591
▁BL	-5592
▁음모	-5593
chor	-5594
▁철학	-5595
▁커다랗	-5596
▁가동	-5597
▁성남	-5598
▁도둑	-5599
30	-5600
▁부딪	-5601
▁애정	-5602
▁부스터	-5603
▁무역	-5604
▁착하	-5605
▁반전	-5606
ian	-5607
▁영주	-5608
▁지라	-5609
▁공용	-5610
▁태평	-5611
▁거듭	-5612
▁격추	-5613
▁->	-5614
▁기구	-5615
▁서쪽	-5616
▁사원	-5617
▁참석	-5618
▁모니	-5619
▁생겨나	-5620
▁고개	-5621
▁심심	-5622
라기	-5623
▁유나이	-5624
걸이	-5625
▁공허	-5626
▁잔뜩	-5627
▁기숙사	-5628
▁알렉산	-5629
▁체중	-5630
▁비치	-5631
▁드래프트	-5632
▁통산	-5633
▁비서	-5634
▁주차	-5635
회사	-5636
io	-5637
▁해골	-5638
▁부적	-5639
ㄹㅐ	-5640
▁이집	-5641
▁유나이티	-5642
▁분신	-5643
▁취약	-5644
▁이집트	-5645
▁초록	-5646
▁플라이	-5647
무르	-5648
▁CJ	-5649
테르	-5650
▁준우	-5651
▁언젠	-5652
▁Pro	-5653
▁ㅅㅗ	-5654
▁언젠가	-5655
▁휩	-5656
▁명단	-5657
▁붓	-5658
소녀	-5659
말리	-5660
▁하츠	-5661
▁스펠	-5662
▁탄환	-5663
▁궤도	-5664
▁윌리엄	-5665
▁이토	-5666
▁that	-5667
▁종목	-5668
▁베리	-5669
▁훼	-5670
▁우르	-5671
▁상기	-5672
▁확대	-5673
▁걸어	-5674
▁씬	-5675
▁나츠	-5676
▁교황	-5677
▁유적	-5678
▁되돌리	-5679
▁경로	-5680
▁토벌	-5681
▁브루	-5682
▁분대	-5683
▁쭉	-5684
▁글로벌	-5685
게임	-5686
▁밍	-5687
▁왠지	-5688
▁악명	-5689
▁말투	-5690
▁출입	-5691
▁Fl	-5692
▁페널	-5693
▁복구	-5694
▁업로드	-5695
▁권리	-5696
▁이식	-5697
하면	-5698
▁발리	-5699
▁코멘트	-5700
0000	-5701
ory	-5702
우마	-5703
▁조리	-5704
▁1970	-5705
▁건조	-5706
▁은신	-5707
▁도박	-5708
▁외계인	-5709
▁식민	-5710
▁트랜스	-5711
▁대선	-5712
▁옳	-5713
▁난입	-5714
▁레딧	-5715
정부	-5716
▁Br	-5717
▁장탄	-5718
▁간접	-5719
▁아미	-5720
▁;&	-5721
▁anchor	-5722
▁형상	-5723
▁연맹	-5724
▁헤어지	-5725
▁와일드	-5726
▁레슬	-5727
▁시라	-5728
▁건드리	-5729
▁디스크	-5730
▁신전	-5731
▁양성	-5732
▁하향	-5733
▁윗	-5734
▁ㅌㅣ	-5735
▁천하	-5736
▁발달	-5737
▁소유자	-5738
▁끔	-5739
▁적합	-5740
가리	-5741
▁구글	-5742
▁연극	-5743
▁드라이버	-5744
▁이펙트	-5745
▁얀	-5746
▁라이플	-5747
▁도라	-5748
▁일치	-5749
▁꾸미	-5750
▁이드	-5751
▁이수	-5752
▁흰	-5753
▁김대	-5754
▁WWE	-5755
▁릴리	-5756
▁아메리카	-5757
▁그램	-5758
▁미키	-5759
▁제약	-5760
▁알아내	-5761
▁&#	-5762
▁전이	-5763
▁뿜	-5764
▁해치	-5765
▁동인	-5766
▁유독	-5767
▁천만	-5768
▁마주치	-5769
▁팬텀	-5770
▁가방	-5771
▁크림	-5772
▁사후	-5773
▁화재	-5774
IP	-5775
▁명확	-5776
▁내보내	-5777
▁쏟아지	-5778
▁정황	-5779
▁로얄	-5780
▁그르	-5781
▁매장	-5782
▁주택	-5783
▁강점	-5784
▁할인	-5785
▁리뷰	-5786
▁170	-5787
▁띠	-5788
▁인디	-5789
IG	-5790
UM	-5791
▁Or	-5792
▁빠져	-5793
▁울프	-5794
▁리스크	-5795
▁곳곳	-5796
포트	-5797
▁헌법	-5798
▁비주얼	-5799
▁아키라	-5800
▁이민	-5801
▁운동장	-5802
▁딕	-5803
▁하이퍼	-5804
▁문단	-5805
VD	-5806
▁저택	-5807
▁셜	-5808
▁마블	-5809
▁다이아몬드	-5810
▁단축	-5811
▁le	-5812
▁렐	-5813
▁끔찍	-5814
TE	-5815
▁실책	-5816
▁을	-5817
▁보완	-5818
▁그럭	-5819
▁조별	-5820
▁암시	-5821
▁야수	-5822
▁웃기	-5823
▁메이드	-5824
▁웨이브	-5825
▁치즈	-5826
저럭	-5827
▁by	-5828
▁테츠	-5829
▁어필	-5830
▁박물	-5831
▁플래시	-5832
▁충실	-5833
▁평생	-5834
▁1987	-5835
▁승객	-5836
▁언덕	-5837
▁금액	-5838
▁그럭저럭	-5839
▁자이언츠	-5840
az	-5841
어하	-5842
▁걸맞	-5843
▁원자	-5844
▁~!	-5845
▁새기	-5846
▁만남	-5847
▁호기	-5848
▁샌드	-5849
▁Dr	-5850
▁헤어	-5851
▁비스	-5852
oth	-5853
ep	-5854
▁여우	-5855
man	-5856
▁뻗	-5857
▁상영	-5858
▁;&#	-5859
▁항공기	-5860
▁고위	-5861
▁백성	-5862
▁등지	-5863
▁승자	-5864
▁뽑히	-5865
▁파편	-5866
▁스웨덴	-5867
▁스크린	-5868
▁토너	-5869
OU	-5870
▁덩치	-5871
ale	-5872
▁딴	-5873
▁치킨	-5874
▁록맨	-5875
▁출격	-5876
▁감각	-5877
데미	-5878
▁불펜	-5879
▁구미	-5880
▁허락	-5881
▁위반	-5882
▁시합	-5883
▁토니	-5884
▁성립	-5885
▁OP	-5886
▁트롤	-5887
VA	-5888
▁매년	-5889
▁답변	-5890
▁권장	-5891
▁입대	-5892
▁평점	-5893
▁기동성	-5894
▁상식	-5895
▁마법소녀	-5896
▁축복	-5897
▁뛰어넘	-5898
▁에르	-5899
▁필리	-5900
▁잃어버리	-5901
▁넘버	-5902
▁시원	-5903
▁안기	-5904
▁깔리	-5905
▁니스	-5906
ky	-5907
▁문재인	-5908
▁꼼	-5909
▁킬러	-5910
비드	-5911
▁흩	-5912
▁보드	-5913
▁스테이	-5914
▁대수	-5915
▁부자	-5916
▁호칭	-5917
▁유학	-5918
▁급격	-5919
▁미네	-5920
▁서구	-5921
▁동성	-5922
▁플래그	-5923
arg	-5924
▁RPG	-5925
▁꿀	-5926
ach	-5927
▁아카데미	-5928
▁스폰	-5929
▁견디	-5930
▁일대	-5931
▁스즈	-5932
▁사살	-5933
70	-5934
▁적중	-5935
▁참가자	-5936
▁배트맨	-5937
운서	-5938
▁우에	-5939
▁아나운서	-5940
▁긴장	-5941
▁토마	-5942
▁낮추	-5943
▁관할	-5944
▁기인	-5945
▁집착	-5946
▁Sc	-5947
▁탐험	-5948
▁신나	-5949
▁노바	-5950
▁시공	-5951
▁싫어하	-5952
▁작년	-5953
▁1500	-5954
▁퇴장	-5955
▁곱	-5956
▁중형	-5957
▁열매	-5958
▁구름	-5959
▁전주	-5960
ows	-5961
▁창고	-5962
▁교과	-5963
쟁이	-5964
▁헐	-5965
▁어판	-5966
부르크	-5967
▁사키	-5968
▁맷	-5969
▁해명	-5970
▁5000	-5971
▁학기	-5972
▁리플	-5973
▁근거리	-5974
▁지치	-5975
▁내전	-5976
▁휘말리	-5977
orm	-5978
▁실종	-5979
▁법인	-5980
▁케인	-5981
ㄹㄱㅔ	-5982
▁결합	-5983
▁뜨겁	-5984
▁서서	-5985
▁정기	-5986
리나	-5987
▁고도	-5988
▁용인	-5989
▁채보	-5990
▁팟	-5991
▁선고	-5992
▁111	-5993
▁믹스	-5994
▁약화	-5995
▁Team	-5996
▁타쿠	-5997
▁분명히	-5998
ish	-5999
▁토너먼트	-6000
무시	-6001
▁완결	-6002
▁그렇지만	-6003
갈리	-6004
스럽	-6005
▁경직	-6006
▁천안	-6007
▁호시	-6008
▁해안	-6009
▁결투	-6010
▁페이스북	-6011
▁KBO	-6012
▁전승	-6013
▁BB	-6014
▁결심	-6015
▁야생	-6016
▁싹	-6017
▁기운	-6018
▁}}	-6019
▁센스	-6020
▁호흡	-6021
▁발렌	-6022
ae	-6023
ㄹㅏㄴ	-6024
▁정차	-6025
▁헝	-6026
▁랄	-6027
군다	-6028
GE	-6029
▁생명체	-6030
▁럼	-6031
▁마스크	-6032
▁막내	-6033
▁흑인	-6034
▁암살자	-6035
▁감추	-6036
▁본사	-6037
▁동아리	-6038
ook	-6039
▁솜	-6040
거지	-6041
▁내일	-6042
▁동점	-6043
▁박물관	-6044
▁베타	-6045
▁불교	-6046
▁엔드	-6047
▁변환	-6048
▁보이스	-6049
Hz	-6050
▁악몽	-6051
▁슬라이	-6052
▁커녕	-6053
▁스위치	-6054
ug	-6055
ade	-6056
▁본진	-6057
▁연습생	-6058
▁수능	-6059
▁와타	-6060
▁연합군	-6061
▁지팡이	-6062
▁우정	-6063
▁두들	-6064
▁마우스	-6065
▁파르	-6066
▁괜히	-6067
▁줍	-6068
ile	-6069
▁면적	-6070
▁지위	-6071
▁소음	-6072
▁침묵	-6073
▁가라	-6074
커스	-6075
▁FIFA	-6076
yle	-6077
rom	-6078
▁사용자	-6079
▁장인	-6080
▁뮤지컬	-6081
▁근본	-6082
일보	-6083
▁크레	-6084
▁침입	-6085
▁키타	-6086
▁초인	-6087
▁유발	-6088
▁침략	-6089
▁통계	-6090
irl	-6091
▁동급	-6092
▁솔직	-6093
▁ㅣ	-6094
ash	-6095
▁관리자	-6096
ower	-6097
▁망가지	-6098
▁한쪽	-6099
▁밀어	-6100
▁대왕	-6101
▁트리플	-6102
▁서클	-6103
▁유력	-6104
▁참모	-6105
▁통화	-6106
▁부실	-6107
▁지진	-6108
▁wiki	-6109
▁무작위	-6110
아다니	-6111
▁타석	-6112
▁영광	-6113
▁CH	-6114
▁1986	-6115
▁임팩트	-6116
ink	-6117
▁법정	-6118
▁우타	-6119
▁선두	-6120
▁출구	-6121
▁유격	-6122
▁사인	-6123
▁프리미엄	-6124
▁소방	-6125
▁돌입	-6126
▁갈아	-6127
▁FW	-6128
프리	-6129
▁CG	-6130
▁노스	-6131
▁인피	-6132
데드	-6133
반도	-6134
▁수급	-6135
▁수비력	-6136
▁가죽	-6137
TS	-6138
▁디젤	-6139
▁리카	-6140
▁지불	-6141
▁마물	-6142
▁가디언	-6143
atch	-6144
▁채택	-6145
▁무시무시	-6146
IM	-6147
▁간간	-6148
▁스쿨	-6149
▁언데드	-6150
▁재정	-6151
▁대거	-6152
▁허가	-6153
▁세팅	-6154
▁삽입	-6155
▁보험	-6156
▁폐쇄	-6157
▁썬더	-6158
▁철수	-6159
▁토시	-6160
▁콜로	-6161
▁신발	-6162
CG	-6163
▁창원	-6164
▁벙	-6165
▁DD	-6166
▁교도	-6167
▁안개	-6168
▁히라	-6169
▁무관	-6170
▁핑크	-6171
ial	-6172
▁포켓몬스터	-6173
▁감지	-6174
▁균형	-6175
▁물리치	-6176
▁남북	-6177
sh	-6178
▁싸이	-6179
▁바디	-6180
▁we	-6181
▁통치	-6182
▁몽골	-6183
군다나	-6184
▁경남	-6185
▁임신	-6186
부로	-6187
▁고블린	-6188
▁비전	-6189
▁판결	-6190
펴보	-6191
▁인방	-6192
▁살펴보	-6193
머스	-6194
▁인력	-6195
▁격차	-6196
은행	-6197
▁속이	-6198
▁배포	-6199
▁기름	-6200
▁리프	-6201
▁막판	-6202
▁텟	-6203
▁War	-6204
▁인종	-6205
▁질리	-6206
그리	-6207
▁항복	-6208
▁관계자	-6209
▁더군다나	-6210
센트	-6211
여객	-6212
▁트럼프	-6213
▁ID	-6214
▁철저	-6215
▁여주	-6216
▁인질	-6217
▁이타	-6218
▁제정	-6219
▁급하	-6220
▁스파이더	-6221
▁Star	-6222
▁쿠라	-6223
▁단원	-6224
▁행하	-6225
▁인용	-6226
▁체인지	-6227
▁아틀	-6228
▁코르	-6229
▁의외로	-6230
래시	-6231
▁바쁘	-6232
▁남매	-6233
▁이혼	-6234
▁김경	-6235
▁출루	-6236
▁존경	-6237
▁골렘	-6238
▁고구려	-6239
▁복선	-6240
▁투스	-6241
▁여러분	-6242
먼스	-6243
▁개설	-6244
전차	-6245
▁106	-6246
▁복제	-6247
▁중복	-6248
▁후계자	-6249
ㄷㅡㄴㅈㅣ	-6250
▁팁	-6251
▁메이플	-6252
▁유인	-6253
▁일본군	-6254
▁읍	-6255
▁끼우	-6256
▁LA	-6257
▁동양	-6258
▁두르	-6259
▁오늘날	-6260
▁반박	-6261
▁동명	-6262
코드	-6263
▁예수	-6264
▁수면	-6265
▁놀리	-6266
▁영원히	-6267
▁백인	-6268
▁이글	-6269
▁학습	-6270
▁포위	-6271
▁일당	-6272
▁에픽	-6273
▁매번	-6274
▁스트레스	-6275
▁그린	-6276
▁캐치	-6277
▁준우승	-6278
▁처지	-6279
▁포르투갈	-6280
▁챌린지	-6281
▁선행	-6282
▁소송	-6283
▁아테	-6284
카이	-6285
▁국당	-6286
▁up	-6287
▁지리	-6288
▁무사히	-6289
▁레지	-6290
▁미나미	-6291
▁장신	-6292
필드	-6293
▁해머	-6294
▁기세	-6295
오루	-6296
천시	-6297
▁물고기	-6298
태우	-6299
▁수출	-6300
▁토크	-6301
▁물량	-6302
▁오디션	-6303
▁DVD	-6304
▁갑작	-6305
▁마다	-6306
▁깨달	-6307
키지	-6308
▁펼쳐지	-6309
▁PR	-6310
▁ㄴㅗ	-6311
▁슬프	-6312
▁네트워크	-6313
다보	-6314
▁미만	-6315
▁닉네임	-6316
▁날카	-6317
▁피우	-6318
▁탕	-6319
▁보충	-6320
▁보건	-6321
▁기상	-6322
▁라라	-6323
▁멜로디	-6324
▁개업	-6325
▁대책	-6326
▁뽀	-6327
▁버섯	-6328
▁어이	-6329
▁시크	-6330
▁ON	-6331
▁115	-6332
▁코난	-6333
▁이주	-6334
▁오키	-6335
▁오우	-6336
▁간단히	-6337
▁전북	-6338
▁하마	-6339
▁102	-6340
▁코트	-6341
▁나미	-6342
▁축하	-6343
▁상한	-6344
▁중력	-6345
▁피닉스	-6346
▁정통	-6347
티스	-6348
▁배정	-6349
▁패키지	-6350
▁단행	-6351
▁상담	-6352
▁입주	-6353
▁가만히	-6354
▁왜곡	-6355
▁메이커	-6356
▁포즈	-6357
▁분열	-6358
ING	-6359
▁공업	-6360
▁체험	-6361
▁fe	-6362
▁오메	-6363
▁수석	-6364
▁뭉치	-6365
▁데이트	-6366
▁부드	-6367
▁장탄수	-6368
▁즉사	-6369
▁기동전	-6370
화점	-6371
▁야마토	-6372
▁웰	-6373
ous	-6374
▁Ne	-6375
▁여전	-6376
▁악기	-6377
▁해내	-6378
▁배역	-6379
amp	-6380
▁For	-6381
▁벨트	-6382
▁잠입	-6383
▁혼돈	-6384
▁날카롭	-6385
▁ㅁㅗ	-6386
▁만만	-6387
▁기재	-6388
▁플러스	-6389
▁후원	-6390
▁벼	-6391
▁트릭	-6392
▁고리	-6393
att	-6394
▁마드리	-6395
▁처분	-6396
▁해킹	-6397
▁}}}	-6398
▁서포트	-6399
▁진압	-6400
▁사령부	-6401
▁자전거	-6402
▁리오	-6403
▁Go	-6404
▁아랍	-6405
세대	-6406
▁콘텐츠	-6407
▁장거리	-6408
▁And	-6409
▁선제	-6410
▁닛	-6411
▁항의	-6412
▁야구장	-6413
▁퍼포	-6414
▁정발	-6415
▁퍼포먼스	-6416
▁돔	-6417
자와	-6418
▁유산	-6419
▁마드리드	-6420
▁꿰	-6421
▁둘러싸	-6422
게이	-6423
▁기갑	-6424
▁파이트	-6425
▁대포	-6426
▁GP	-6427
▁성전	-6428
▁175	-6429
▁억지로	-6430
▁부드럽	-6431
▁도감	-6432
야수	-6433
▁라그	-6434
▁세부	-6435
▁수백	-6436
▁자본	-6437
▁Cr	-6438
▁호랑이	-6439
▁블라	-6440
▁악화	-6441
▁사이코	-6442
▁수명	-6443
▁파멸	-6444
▁오스트리아	-6445
▁Wind	-6446
▁토키	-6447
▁파동	-6448
▁가공	-6449
▁모시	-6450
▁유미	-6451
▁188	-6452
▁주니어	-6453
▁탐정	-6454
▁신입	-6455
▁분쟁	-6456
▁통로	-6457
아키	-6458
me	-6459
▁젤리	-6460
▁김상	-6461
▁뽑아내	-6462
▁옹호	-6463
▁파생	-6464
하시	-6465
▁첼시	-6466
▁1985	-6467
▁wid	-6468
▁배달	-6469
▁".	-6470
▁모험가	-6471
▁디즈	-6472
▁이스라	-6473
▁무술	-6474
▁머무르	-6475
▁대치	-6476
ms	-6477
▁조약	-6478
▁세포	-6479
▁우세	-6480
▁분해	-6481
▁잠들	-6482
▁모터	-6483
▁산하	-6484
▁전제	-6485
▁최상위	-6486
크로	-6487
▁궁금	-6488
▁유성	-6489
▁프레이	-6490
AY	-6491
▁광선	-6492
▁진주	-6493
바닥	-6494
▁공정	-6495
▁논의	-6496
▁bl	-6497
64	-6498
가드	-6499
▁시트	-6500
▁기력	-6501
▁노조	-6502
텐도	-6503
▁장미	-6504
▁차체	-6505
▁닌텐도	-6506
▁마코토	-6507
▁무스	-6508
▁재회	-6509
▁터스	-6510
▁강원도	-6511
▁위안	-6512
▁박지	-6513
▁버드	-6514
▁나비	-6515
▁처참	-6516
▁부착	-6517
▁규격	-6518
▁증폭	-6519
▁후손	-6520
▁체감	-6521
▁width	-6522
▁김진	-6523
▁진학	-6524
▁부서지	-6525
▁조우	-6526
▁레일	-6527
▁깜짝	-6528
▁아르헨	-6529
▁al	-6530
12	-6531
ib	-6532
▁행방	-6533
▁여학생	-6534
ft	-6535
▁롬	-6536
▁그날	-6537
▁나르	-6538
▁350	-6539
▁즈음	-6540
▁Gam	-6541
▁히가시	-6542
▁고로	-6543
▁계시	-6544
▁나기	-6545
▁양상	-6546
▁드루	-6547
▁아동	-6548
▁업계	-6549
▁리온	-6550
▁다가가	-6551
▁독재	-6552
now	-6553
▁니콜	-6554
▁조기	-6555
▁시카	-6556
▁검술	-6557
▁PP	-6558
▁방치	-6559
▁휘하	-6560
▁BS	-6561
▁훈장	-6562
▁전파	-6563
▁주둔	-6564
▁카구	-6565
벌레	-6566
▁난사	-6567
▁개발자	-6568
▁파란색	-6569
▁IN	-6570
▁끌려가	-6571
▁아르헨티나	-6572
▁경주	-6573
▁베네	-6574
아이	-6575
▁반부	-6576
▁무인	-6577
▁폭행	-6578
ps	-6579
▁스트리트	-6580
▁브레	-6581
▁듀오	-6582
▁건네	-6583
▁공수	-6584
▁전동	-6585
▁톨	-6586
oll	-6587
▁페널티	-6588
▁비웃	-6589
▁스탠드	-6590
▁방송국	-6591
비전	-6592
▁BR	-6593
▁만지	-6594
▁한두	-6595
▁측정	-6596
MP	-6597
▁관점	-6598
▁소요	-6599
▁토큰	-6600
▁기원전	-6601
▁전무	-6602
▁1984	-6603
▁Man	-6604
렐라	-6605
▁감상	-6606
▁제독	-6607
어놓	-6608
▁AKB	-6609
▁이온	-6610
▁운수	-6611
▁베테	-6612
히코	-6613
▁국판	-6614
▁세인트	-6615
▁질투	-6616
▁몫	-6617
▁중세	-6618
▁능력자	-6619
▁고장	-6620
▁김기	-6621
▁산탄	-6622
▁중장	-6623
▁오염	-6624
▁택시	-6625
▁면허	-6626
▁지사	-6627
▁승무원	-6628
승부	-6629
▁시상	-6630
▁조커	-6631
▁루스	-6632
▁감싸	-6633
▁왜냐	-6634
▁마냥	-6635
▁이라	-6636
TV	-6637
▁최적	-6638
pl	-6639
▁우치	-6640
▁UN	-6641
▁All	-6642
▁기쁘	-6643
▁유니크	-6644
▁뚫리	-6645
▁불량	-6646
▁드론	-6647
▁부사	-6648
▁이스라엘	-6649
▁혈액형	-6650
▁후자	-6651
▁닝	-6652
▁감동	-6653
▁루머	-6654
▁나루토	-6655
▁피트	-6656
태프	-6657
▁트루	-6658
▁위성	-6659
▁아레나	-6660
▁선거구	-6661
▁대단히	-6662
▁코마	-6663
▁Part	-6664
▁이종	-6665
▁기장	-6666
▁스텝	-6667
▁스캔	-6668
▁약탈	-6669
▁브로	-6670
▁도저히	-6671
▁신도	-6672
▁디바	-6673
▁아시안	-6674
리스트	-6675
▁KR	-6676
▁발목	-6677
ㄹㄹㅐ	-6678
▁SU	-6679
▁주행	-6680
▁창단	-6681
▁티아	-6682
▁자꾸	-6683
신교	-6684
▁추리	-6685
▁베기	-6686
▁광장	-6687
▁에디	-6688
▁뒤지	-6689
▁En	-6690
▁반짝	-6691
▁하하	-6692
▁바론	-6693
▁112	-6694
▁상관없이	-6695
카락	-6696
▁다운로드	-6697
▁철권	-6698
▁우월	-6699
▁룩	-6700
▁머리카락	-6701
▁샷건	-6702
▁루이스	-6703
▁분당	-6704
▁자비	-6705
ond	-6706
세서	-6707
▁후퇴	-6708
▁명의	-6709
▁Sup	-6710
▁루크	-6711
▁붐	-6712
▁까이	-6713
▁식민지	-6714
▁연고	-6715
▁왕위	-6716
번에	-6717
▁프렌	-6718
▁DC	-6719
▁나노	-6720
▁야간	-6721
▁일화	-6722
▁Fate	-6723
▁서서히	-6724
▁줄거리	-6725
경기	-6726
▁둠	-6727
▁아가씨	-6728
▁Mar	-6729
▁과도	-6730
▁노가	-6731
▁소용	-6732
▁대시	-6733
▁제출	-6734
▁기둥	-6735
▁토미	-6736
▁더빙	-6737
▁라이너	-6738
▁벌리	-6739
▁자녀	-6740
▁아쉬	-6741
▁투척	-6742
▁타이거즈	-6743
▁돌연	-6744
▁쇼핑	-6745
▁ex	-6746
▁공백	-6747
▁원리	-6748
▁ㄷㅓㄴㄱㅏ	-6749
▁간호	-6750
▁뻥	-6751
▁엑시	-6752
▁듀스	-6753
▁LP	-6754
▁루피	-6755
▁캣	-6756
▁드림	-6757
▁굵	-6758
▁108	-6759
▁마감	-6760
▁AN	-6761
▁요인	-6762
▁힐러	-6763
ase	-6764
▁수월	-6765
▁라이온즈	-6766
▁보존	-6767
▁전망	-6768
▁꼬이	-6769
▁중시	-6770
▁특급	-6771
▁고증	-6772
데레	-6773
ool	-6774
▁이란	-6775
▁틴	-6776
▁조롱	-6777
▁철거	-6778
▁조용히	-6779
▁합계	-6780
▁오락	-6781
도리	-6782
▁sp	-6783
▁프란	-6784
▁얻어맞	-6785
▁온천	-6786
키퍼	-6787
▁절차	-6788
▁장사	-6789
▁시바	-6790
▁평일	-6791
▁쇼크	-6792
필더	-6793
▁닐	-6794
▁미드필더	-6795
▁배급	-6796
▁스리	-6797
▁360	-6798
▁며칠	-6799
▁시외	-6800
▁무산	-6801
▁수동	-6802
▁합병	-6803
▁식품	-6804
▁원조	-6805
▁백작	-6806
▁비명	-6807
▁배드	-6808
▁생애	-6809
▁117	-6810
▁모로	-6811
▁저하	-6812
▁이나	-6813
유럽	-6814
▁긴급	-6815
▁범죄자	-6816
▁시신	-6817
▁주류	-6818
▁타일	-6819
▁안양	-6820
▁One	-6821
▁유재	-6822
투스	-6823
▁걸즈	-6824
▁마계	-6825
▁킷	-6826
▁고객	-6827
▁와카	-6828
▁막상	-6829
▁잠실	-6830
우치	-6831
▁인권	-6832
런트	-6833
▁오이	-6834
▁세라	-6835
우리	-6836
▁실장	-6837
▁꼬마	-6838
▁청와	-6839
▁스포일러	-6840
▁뒤늦	-6841
▁우유	-6842
▁복합	-6843
▁에릭	-6844
▁빅토	-6845
▁샤이	-6846
▁지칭	-6847
블로	-6848
▁에반	-6849
▁여인	-6850
▁카시	-6851
▁확장팩	-6852
▁러시	-6853
▁증상	-6854
▁낙하	-6855
▁발굴	-6856
▁로빈	-6857
▁수색	-6858
산시	-6859
▁실은	-6860
▁방위	-6861
▁직장	-6862
▁아아	-6863
▁어시스트	-6864
▁강림	-6865
▁교단	-6866
▁공인	-6867
▁골키퍼	-6868
▁바스	-6869
▁코스튬	-6870
▁호소	-6871
▁팡	-6872
▁의자	-6873
▁성당	-6874
▁예고편	-6875
ree	-6876
ph	-6877
▁청와대	-6878
▁만일	-6879
▁로이	-6880
▁개별	-6881
▁배수	-6882
▁부임	-6883
▁택하	-6884
▁기묘	-6885
하르트	-6886
▁경악	-6887
▁여고	-6888
비치	-6889
▁임금	-6890
▁뱅크	-6891
▁청주	-6892
▁넘어지	-6893
▁포스터	-6894
▁As	-6895
▁남아	-6896
▁고소	-6897
▁폭파	-6898
플레이	-6899
▁유의	-6900
▁히든	-6901
▁교복	-6902
▁New	-6903
▁ㅇㅗㅂ	-6904
저리	-6905
▁거북	-6906
▁로버트	-6907
ason	-6908
▁하이라이트	-6909
▁그라운드	-6910
▁살아나	-6911
▁개장	-6912
▁학생회	-6913
▁꽉	-6914
▁나폴	-6915
카이도	-6916
▁때려	-6917
aby	-6918
▁당당	-6919
▁뱃	-6920
▁국경	-6921
▁막아내	-6922
▁리즈	-6923
▁통틀	-6924
▁특별히	-6925
▁Oh	-6926
▁프린세스	-6927
학자	-6928
▁헨리	-6929
▁103	-6930
틀러	-6931
▁케이드	-6932
▁여객	-6933
▁도트	-6934
▁아이러	-6935
▁퍼즐	-6936
ai	-6937
▁GO	-6938
▁조명	-6939
▁FM	-6940
▁수염	-6941
▁오로지	-6942
▁선사	-6943
▁실존	-6944
▁회담	-6945
도르	-6946
▁렌즈	-6947
▁JP	-6948
▁흰색	-6949
▁트레일러	-6950
▁비스트	-6951
불호	-6952
▁호불호	-6953
▁술사	-6954
▁개신교	-6955
▁둘러보	-6956
▁ㄷㅜ	-6957
▁그레	-6958
▁후회	-6959
▁모집	-6960
▁집어넣	-6961
▁220	-6962
▁휠	-6963
릴라	-6964
ment	-6965
▁에로	-6966
▁사야	-6967
베스	-6968
▁금메달	-6969
불명	-6970
▁사리	-6971
▁쓸데	-6972
▁명백	-6973
▁헷	-6974
러그	-6975
▁뜬금없이	-6976
▁보라색	-6977
▁극도	-6978
▁시로	-6979
▁양손	-6980
▁1960	-6981
크라	-6982
▁엎	-6983
▁마케	-6984
▁매출	-6985
▁유기	-6986
▁역습	-6987
▁끊임	-6988
▁CS	-6989
▁동경	-6990
▁되살	-6991
▁오더	-6992
▁캘	-6993
▁관찰	-6994
▁부동	-6995
▁성질	-6996
▁올스타	-6997
리온	-6998
▁z	-6999
▁바지	-7000
▁프로토	-7001
▁라즈	-7002
나오	-7003
▁라크	-7004
▁유언	-7005
▁트레이너	-7006
▁비틀	-7007
▁240	-7008
▁모듈	-7009
▁셔틀	-7010
▁불행	-7011
▁어쩌면	-7012
▁되게	-7013
▁심의	-7014
▁tv	-7015
▁원곡	-7016
▁UE	-7017
oon	-7018
▁캐시	-7019
▁윈드	-7020
▁코미디	-7021
▁회색	-7022
▁오브젝트	-7023
▁과학자	-7024
▁우주선	-7025
▁타르	-7026
▁샵	-7027
▁un	-7028
▁128	-7029
▁타이탄	-7030
▁장로	-7031
에이	-7032
▁초콜	-7033
▁웨스트	-7034
▁묶이	-7035
▁지인	-7036
▁법칙	-7037
▁항구	-7038
키아	-7039
▁손상	-7040
▁나스	-7041
▁여파	-7042
▁이와	-7043
마크	-7044
MS	-7045
90	-7046
돌이	-7047
▁에서	-7048
▁드로우	-7049
▁결계	-7050
▁물품	-7051
▁부딪히	-7052
▁연봉	-7053
▁홀드	-7054
▁포탄	-7055
베이	-7056
▁폐기	-7057
▁이글스	-7058
▁지향	-7059
▁풋	-7060
▁우즈	-7061
▁비유	-7062
▁태평양	-7063
act	-7064
싱턴	-7065
ox	-7066
▁유망	-7067
▁유출	-7068
▁김용	-7069
▁정반	-7070
▁광산	-7071
▁건국	-7072
▁엘리자	-7073
▁세뇌	-7074
▁국정	-7075
▁갤러	-7076
▁각오	-7077
▁무승부	-7078
ARD	-7079
▁손실	-7080
ㄴㅑㅇ	-7081
▁신선	-7082
▁제네	-7083
▁맥주	-7084
▁진격	-7085
▁코믹	-7086
▁중순	-7087
▁슬로	-7088
▁워크래프트	-7089
▁알라	-7090
▁국장	-7091
▁포장	-7092
▁무공	-7093
▁장판	-7094
▁브라운	-7095
▁즉위	-7096
라노	-7097
hen	-7098
▁패전	-7099
▁임기	-7100
▁트랩	-7101
▁늙	-7102
▁랑	-7103
▁우드	-7104
▁따뜻	-7105
▁엄밀	-7106
▁%/	-7107
▁치열	-7108
▁두렵	-7109
▁TVA	-7110
▁모스	-7111
▁클론	-7112
▁단기	-7113
토스	-7114
▁제갈량	-7115
▁네티	-7116
▁붙잡히	-7117
▁짐승	-7118
▁서머	-7119
▁아바타	-7120
저기	-7121
▁날뛰	-7122
▁스핀	-7123
▁노동자	-7124
메이	-7125
▁쿤	-7126
▁섀도우	-7127
▁최우	-7128
▁탐지	-7129
▁깎이	-7130
▁반감	-7131
▁달려가	-7132
ank	-7133
▁커스텀	-7134
▁영지	-7135
▁계수	-7136
▁사이클	-7137
ㄹㅣ	-7138
▁로이드	-7139
▁이웃	-7140
▁넘어서	-7141
▁트로피	-7142
▁하스	-7143
▁관통력	-7144
▁라틴	-7145
▁리안	-7146
▁튼	-7147
▁박살나	-7148
▁하프	-7149
▁함부로	-7150
▁간주	-7151
▁World	-7152
▁여기저기	-7153
▁기수	-7154
▁양자	-7155
▁두들기	-7156
▁트리거	-7157
▁신데	-7158
▁신용	-7159
ich	-7160
▁독점	-7161
▁배려	-7162
▁소프트웨어	-7163
ary	-7164
lect	-7165
▁원더	-7166
▁이모	-7167
▁일요일	-7168
▁김준	-7169
▁레온	-7170
▁키라	-7171
▁사립	-7172
▁단종	-7173
▁방탄	-7174
▁알렉스	-7175
깨비	-7176
▁백제	-7177
▁스나이	-7178
▁콤비	-7179
▁생전	-7180
▁지연	-7181
▁합리	-7182
▁JT	-7183
▁챔피언십	-7184
▁디즈니	-7185
▁장난감	-7186
▁프라임	-7187
▁토요일	-7188
▁안심	-7189
▁1982	-7190
▁당대	-7191
▁Mk	-7192
▁신자	-7193
▁옐	-7194
ife	-7195
포르	-7196
▁단검	-7197
▁트라우마	-7198
▁여럿	-7199
▁대조	-7200
▁날씨	-7201
더라	-7202
▁흔들	-7203
▁후미	-7204
▁야쿠	-7205
▁태국	-7206
▁빨간	-7207
▁시인	-7208
ear	-7209
▁아이러니	-7210
▁신데렐라	-7211
▁우익	-7212
▁벤치	-7213
▁카더라	-7214
▁방송사	-7215
▁휴가	-7216
▁상륙	-7217
뻐하	-7218
▁기뻐하	-7219
▁네티즌	-7220
ㄹㄹㅕ	-7221
uk	-7222
▁센서	-7223
▁신속	-7224
▁리버풀	-7225
▁마땅	-7226
에르	-7227
▁손오	-7228
▁혜택	-7229
▁ㅁㅓ	-7230
하마	-7231
▁음료	-7232
블리	-7233
반기	-7234
▁스트라이커	-7235
▁시비	-7236
▁서바이	-7237
▁LIVE	-7238
▁스피릿	-7239
▁밀어내	-7240
▁서기	-7241
▁쉴	-7242
ET	-7243
렉션	-7244
아치	-7245
▁디시	-7246
▁동속	-7247
려받	-7248
란히	-7249
▁도장	-7250
▁SF	-7251
11	-7252
▁선임	-7253
▁추세	-7254
▁수습	-7255
▁파밍	-7256
▁실내	-7257
▁라스트	-7258
▁키보드	-7259
▁사법	-7260
▁버스트	-7261
▁슬라	-7262
▁ㅅㅕ	-7263
▁근원	-7264
▁의학	-7265
▁막강	-7266
▁김해	-7267
way	-7268
▁185	-7269
▁탭	-7270
▁all	-7271
▁권유	-7272
▁Day	-7273
ple	-7274
타카	-7275
▁벡	-7276
▁낙선	-7277
▁변수	-7278
▁결제	-7279
▁순양함	-7280
▁시리아	-7281
▁상사	-7282
▁지목	-7283
▁쳐들	-7284
▁허무	-7285
▁권위	-7286
▁전남	-7287
키리	-7288
사기	-7289
▁Fr	-7290
▁지력	-7291
▁경북	-7292
▁끓	-7293
▁니혼	-7294
▁흡사	-7295
▁독일군	-7296
▁기호	-7297
쿠라	-7298
▁마카	-7299
▁1983	-7300
▁실시간	-7301
▁후임	-7302
하나	-7303
▁쓰리	-7304
▁구조물	-7305
▁샬	-7306
▁갚	-7307
▁약물	-7308
사리	-7309
▁배출	-7310
▁표면	-7311
▁스타디	-7312
▁나아지	-7313
▁빠져나가	-7314
▁{{{#	-7315
▁엽	-7316
▁추방	-7317
▁후반기	-7318
▁lv	-7319
▁울트라맨	-7320
ype	-7321
▁로보	-7322
▁드레스	-7323
▁토하	-7324
▁얽	-7325
▁파울	-7326
▁선장	-7327
노리	-7328
▁극히	-7329
▁창설	-7330
싸움	-7331
▁논쟁	-7332
▁근접전	-7333
▁매니아	-7334
▁경호	-7335
▁당사자	-7336
▁패밀리	-7337
▁유전자	-7338
▁포획	-7339
ens	-7340
▁nd	-7341
▁119	-7342
▁유혹	-7343
▁짐작	-7344
▁역임	-7345
▁페리	-7346
▁조상	-7347
숭이	-7348
▁끌리	-7349
▁성배	-7350
▁간간히	-7351
▁차갑	-7352
aster	-7353
▁진상	-7354
▁도리	-7355
▁태클	-7356
▁당기	-7357
▁강사	-7358
▁정석	-7359
▁침대	-7360
▁원형	-7361
▁소모량	-7362
orn	-7363
ork	-7364
▁MB	-7365
▁합동	-7366
▁시온	-7367
▁go	-7368
▁범용	-7369
▁좌절	-7370
▁베어스	-7371
▁감수	-7372
▁물체	-7373
▁전생	-7374
▁비극	-7375
▁돋보이	-7376
▁페어	-7377
▁백화점	-7378
▁마피아	-7379
▁비비	-7380
▁조르	-7381
▁DP	-7382
▁DPS	-7383
▁손오공	-7384
▁지선	-7385
▁123	-7386
▁구동	-7387
▁104	-7388
스티벌	-7389
▁페스티벌	-7390
▁부스트	-7391
▁연구원	-7392
▁특공	-7393
▁ㅅㅕㄴ	-7394
▁퀵	-7395
▁Wi	-7396
▁출혈	-7397
▁사무소	-7398
▁해병대	-7399
▁중상	-7400
▁Ad	-7401
▁Sw	-7402
▁are	-7403
▁빌딩	-7404
▁마트	-7405
▁미궁	-7406
▁쏠	-7407
▁집권	-7408
▁콘솔	-7409
▁RA	-7410
▁설령	-7411
▁튼튼	-7412
▁OVA	-7413
▁Up	-7414
▁홀리	-7415
▁특별시	-7416
▁낭비	-7417
▁엑시즈	-7418
▁동남	-7419
▁다투	-7420
▁거스	-7421
▁삼각	-7422
▁수직	-7423
▁피로	-7424
ans	-7425
▁변태	-7426
▁style	-7427
▁명목	-7428
▁질병	-7429
▁109	-7430
▁생체	-7431
▁단행본	-7432
▁의장	-7433
우트	-7434
▁정교	-7435
▁스태프	-7436
▁헤르	-7437
▁래퍼	-7438
▁한반도	-7439
ons	-7440
▁바나	-7441
▁복원	-7442
▁오메가	-7443
▁미미	-7444
▁가두	-7445
▁토요	-7446
▁전날	-7447
▁강렬	-7448
▁질주	-7449
▁AA	-7450
▁빨간색	-7451
▁스즈키	-7452
▁개국	-7453
▁사악	-7454
▁호남	-7455
▁엄격	-7456
사이	-7457
▁쨩	-7458
▁do	-7459
▁베테랑	-7460
▁닷	-7461
ey	-7462
▁탐색	-7463
▁KOF	-7464
▁관측	-7465
▁오지	-7466
버그	-7467
▁땡	-7468
▁직선	-7469
▁하인	-7470
▁동행	-7471
▁케이블	-7472
▁젖	-7473
▁공대	-7474
▁실상	-7475
▁공감	-7476
▁제치	-7477
▁배제	-7478
very	-7479
▁ㅈㅠ	-7480
▁제물	-7481
▁대타	-7482
▁리코	-7483
▁도깨비	-7484
▁브레이커	-7485
▁넘어오	-7486
▁스플	-7487
▁데이비드	-7488
ung	-7489
▁약자	-7490
▁III	-7491
▁본관	-7492
공항	-7493
▁디펜	-7494
▁ES	-7495
▁양반	-7496
▁우측	-7497
▁페미니	-7498
▁본토	-7499
▁센트	-7500
▁장성	-7501
▁거칠	-7502
▁블로	-7503
▁따라오	-7504
▁스테이션	-7505
▁총합	-7506
▁진급	-7507
▁위로	-7508
▁ㅇㅡㄹㅅㅜ	-7509
▁변동	-7510
▁쌀	-7511
▁연쇄	-7512
▁무실	-7513
NA	-7514
▁바둑	-7515
▁광기	-7516
▁메리트	-7517
▁앰	-7518
▁마타	-7519
▁히로시	-7520
▁잉여	-7521
▁전격	-7522
▁UEFA	-7523
▁관여	-7524
▁라그나	-7525
▁우호	-7526
▁해양	-7527
▁밀려나	-7528
▁거론	-7529
▁전락	-7530
타입	-7531
▁오노	-7532
▁코토	-7533
▁선조	-7534
렉스	-7535
▁스타디움	-7536
▁단발	-7537
▁앗	-7538
▁워싱턴	-7539
브라	-7540
▁되돌	-7541
EM	-7542
▁군수	-7543
▁고무	-7544
▁유탄	-7545
▁위엄	-7546
▁메일	-7547
▁프리미어	-7548
▁여의	-7549
▁그랑	-7550
▁촉수	-7551
▁훼손	-7552
▁구장	-7553
나기	-7554
▁에이지	-7555
▁역명	-7556
▁하급	-7557
▁아스카	-7558
▁논문	-7559
▁엇	-7560
anc	-7561
박스	-7562
▁축소	-7563
▁친절	-7564
▁리모	-7565
능력	-7566
AK	-7567
차기	-7568
▁트윈스	-7569
▁할로	-7570
▁세금	-7571
ll	-7572
▁응용	-7573
▁마술사	-7574
▁손쉽	-7575
▁스와	-7576
▁스위스	-7577
▁장애물	-7578
▁백업	-7579
▁중지	-7580
▁대박	-7581
▁한창	-7582
▁마오	-7583
께끼	-7584
▁수수께끼	-7585
▁벅	-7586
▁Windows	-7587
▁인재	-7588
▁데빌	-7589
▁치카	-7590
▁카를	-7591
▁민주주의	-7592
▁경상북도	-7593
▁노란색	-7594
▁긁	-7595
▁ne	-7596
▁성실	-7597
▁코바	-7598
▁확산	-7599
▁징역	-7600
▁원피스	-7601
▁최저	-7602
▁짙	-7603
▁구성원	-7604
▁제왕	-7605
체스터	-7606
▁수비수	-7607
▁워크	-7608
▁재학	-7609
▁키미	-7610
▁어색	-7611
▁박살내	-7612
argin	-7613
▁강호	-7614
▁겜	-7615
ㄱㅜㄴ	-7616
35	-7617
▁땅볼	-7618
▁명문	-7619
▁소니	-7620
▁취업	-7621
▁as	-7622
▁안쪽	-7623
▁카카오	-7624
▁미지	-7625
▁초콜릿	-7626
▁돌보	-7627
▁천연	-7628
▁란스	-7629
▁형편	-7630
▁대행	-7631
▁윈도우	-7632
▁힙합	-7633
▁노가다	-7634
ero	-7635
▁깃발	-7636
▁츠카	-7637
▁빈도	-7638
▁메카닉	-7639
▁이현	-7640
▁en	-7641
▁우승자	-7642
▁산타	-7643
▁포터	-7644
▁공통점	-7645
▁강등	-7646
▁승차	-7647
▁유료	-7648
▁역량	-7649
▁자네	-7650
▁여타	-7651
▁과자	-7652
▁딸리	-7653
▁고스	-7654
▁Station	-7655
▁껍	-7656
▁온도	-7657
▁중고	-7658
▁썸	-7659
▁우회	-7660
▁레이디	-7661
▁인자	-7662
▁폴리	-7663
▁구독	-7664
▁통칭	-7665
▁드래곤볼	-7666
▁창문	-7667
누스	-7668
▁젬	-7669
▁Ph	-7670
▁187	-7671
▁티스	-7672
벤처	-7673
▁나나	-7674
▁전당	-7675
▁렉스	-7676
▁유망주	-7677
▁Qu	-7678
▁분산	-7679
▁어드벤처	-7680
▁margin	-7681
▁바르셀	-7682
oss	-7683
▁LO	-7684
▁바르셀로나	-7685
▁no	-7686
▁취득	-7687
▁리퍼	-7688
▁부작용	-7689
▁책임지	-7690
▁시상식	-7691
▁농장	-7692
▁마유	-7693
▁성씨	-7694
▁수인	-7695
▁퇴각	-7696
▁이병	-7697
▁끌어올리	-7698
▁So	-7699
▁엔지	-7700
▁스미스	-7701
루미	-7702
지막지	-7703
▁무지막지	-7704
▁불쌍	-7705
모스	-7706
▁동반	-7707
▁발판	-7708
▁올드	-7709
▁대령	-7710
▁파도	-7711
▁크레이	-7712
▁루프	-7713
▁화산	-7714
▁굴욕	-7715
▁클린	-7716
▁로맨	-7717
▁급행	-7718
▁발행	-7719
▁봉쇄	-7720
▁135	-7721
▁다이스	-7722
▁스노우	-7723
▁블레이	-7724
▁번지	-7725
▁ML	-7726
▁레이어	-7727
▁210	-7728
▁평하	-7729
▁그립	-7730
ise	-7731
▁관우	-7732
▁발키리	-7733
▁최선	-7734
▁츠바	-7735
동자	-7736
▁카마	-7737
port	-7738
▁규제	-7739
pt	-7740
▁빙판	-7741
▁렘	-7742
▁대접	-7743
▁요한	-7744
▁매드	-7745
▁121	-7746
▁터트리	-7747
니시	-7748
▁원시	-7749
▁공단	-7750
▁주사위	-7751
▁소재지	-7752
99	-7753
▁진에	-7754
▁사족	-7755
▁어벤	-7756
▁머니	-7757
▁타치	-7758
▁후드	-7759
▁오스만	-7760
▁결혼식	-7761
▁표절	-7762
▁변이	-7763
▁챔프	-7764
ical	-7765
▁평양	-7766
▁공산당	-7767
▁잔인	-7768
AP	-7769
▁국무	-7770
▁대전차	-7771
▁톡	-7772
구장	-7773
▁천천	-7774
▁미오	-7775
▁특훈	-7776
▁잊히	-7777
▁손님	-7778
▁경연	-7779
▁107	-7780
▁겔	-7781
▁손꼽	-7782
▁와이번	-7783
네마	-7784
▁아베	-7785
▁예약	-7786
▁Ver	-7787
▁쿵	-7788
▁황후	-7789
▁카리스	-7790
셔널	-7791
▁피카	-7792
▁선출	-7793
▁스케일	-7794
▁이대로	-7795
▁검열	-7796
▁쯔	-7797
▁가난	-7798
▁씌우	-7799
▁어나	-7800
▁블리자드	-7801
구미	-7802
▁스택	-7803
▁시사	-7804
▁개척	-7805
▁열혈	-7806
베이터	-7807
▁페어리	-7808
▁수지	-7809
▁신중	-7810
▁외우	-7811
▁강간	-7812
▁게이머	-7813
▁MG	-7814
▁목걸이	-7815
▁1981	-7816
▁아깝	-7817
▁여포	-7818
▁뮌	-7819
▁패자	-7820
▁사로	-7821
▁엔트리	-7822
▁김수	-7823
▁캄	-7824
▁인과	-7825
▁호크	-7826
▁인칭	-7827
▁스타리그	-7828
▁어나더	-7829
▁와인	-7830
▁꿈꾸	-7831
▁시외버스	-7832
▁난무	-7833
▁여섯	-7834
▁신동	-7835
▁프랑스어	-7836
▁멍청	-7837
ign	-7838
▁주체	-7839
루션	-7840
모함	-7841
▁사체	-7842
▁이라크	-7843
▁침투	-7844
▁저렇	-7845
리스타	-7846
▁--	-7847
▁!"	-7848
▁간지	-7849
▁왼손	-7850
▁마인드	-7851
▁쇄	-7852
▁천천히	-7853
다운	-7854
▁교토	-7855
▁기부	-7856
▁광물	-7857
▁강경	-7858
▁대성	-7859
▁퍼스트	-7860
▁pl	-7861
▁강민	-7862
베리	-7863
▁주관	-7864
▁지수	-7865
▁김지	-7866
▁서식	-7867
▁점검	-7868
▁세리	-7869
▁이순	-7870
게이머	-7871
▁프로게이머	-7872
▁케빈	-7873
▁슌	-7874
▁워프	-7875
▁사관	-7876
군가	-7877
▁사수	-7878
▁끊임없이	-7879
▁기리	-7880
▁부재	-7881
테이션	-7882
▁love	-7883
▁미정	-7884
▁폭스	-7885
으로	-7886
▁지오	-7887
▁그레이트	-7888
▁스컬	-7889
▁트윗	-7890
▁압권	-7891
▁소금	-7892
▁조종사	-7893
▁제재	-7894
▁이노	-7895
▁타츠	-7896
▁모니터	-7897
하루	-7898
▁출간	-7899
▁불태우	-7900
▁미러	-7901
▁혈통	-7902
▁모델링	-7903
▁파랗	-7904
▁김승	-7905
▁소통	-7906
▁동해	-7907
▁큰	-7908
IR	-7909
▁누군가	-7910
▁레인지	-7911
▁루리	-7912
▁무용	-7913
▁스티븐	-7914
▁프론	-7915
▁선진	-7916
▁고시	-7917
▁중거리	-7918
gh	-7919
▁미국인	-7920
▁토지	-7921
▁레시	-7922
▁TR	-7923
▁Sk	-7924
▁평론	-7925
▁첸	-7926
▁철갑	-7927
스레	-7928
테일	-7929
▁해산	-7930
▁덤비	-7931
▁답답	-7932
▁크라이	-7933
▁끌어들이	-7934
센스	-7935
ail	-7936
▁요미	-7937
▁맞붙	-7938
▁페스	-7939
어드	-7940
▁임의	-7941
▁헷갈리	-7942
▁아스트	-7943
▁math	-7944
▁경찰서	-7945
▁첫째	-7946
▁186	-7947
▁용자	-7948
▁망토	-7949
▁사사	-7950
▁장타	-7951
▁리나	-7952
바나	-7953
▁엄연히	-7954
▁폭격기	-7955
▁너머	-7956
▁냉정	-7957
▁이경	-7958
urn	-7959
▁흙	-7960
▁명분	-7961
▁개교	-7962
ode	-7963
▁점유	-7964
▁주최	-7965
▁라이즈	-7966
▁날아다니	-7967
▁구별	-7968
▁러스	-7969
▁도어	-7970
▁친분	-7971
▁실사	-7972
▁마산	-7973
▁중동	-7974
▁재개	-7975
▁플랜	-7976
▁상무	-7977
▁오죽	-7978
▁자존	-7979
VER	-7980
▁ㄷㅚ	-7981
▁유니버스	-7982
▁Super	-7983
▁감탄	-7984
▁JTBC	-7985
▁보좌	-7986
ence	-7987
▁To	-7988
▁알바	-7989
민주	-7990
▁연산	-7991
▁화상	-7992
▁공격수	-7993
▁자제	-7994
▁(	-7995
▁크래프트	-7996
▁카레	-7997
▁풍부	-7998
▁중위	-7999
▁고속도로	-8000
▁하여	-8001
▁항공모함	-8002
▁이대	-8003
▁트릴	-8004
▁122	-8005
▁고사	-8006
추어	-8007
▁비기	-8008
▁외곽	-8009
▁국제공항	-8010
▁Dream	-8011
▁사퇴	-8012
▁열정	-8013
▁ㅇㅡㄴㅈㅣ	-8014
▁스폰서	-8015
▁BJ	-8016
틀랜드	-8017
▁본능	-8018
▁질서	-8019
▁초능력	-8020
▁="	-8021
▁공속	-8022
▁EC	-8023
▁에디션	-8024
▁웜	-8025
▁코노	-8026
▁삼성전자	-8027
▁LE	-8028
▁영감	-8029
▁정신력	-8030
▁물어	-8031
▁검정	-8032
▁그릇	-8033
▁불능	-8034
▁유입	-8035
▁애칭	-8036
!!	-8037
▁박성	-8038
▁지부	-8039
▁우울	-8040
▁맹세	-8041
▁마일	-8042
▁내버리	-8043
▁시타	-8044
▁쫒	-8045
▁EXP	-8046
▁인벤	-8047
▁라이언	-8048
▁하나하나	-8049
▁출범	-8050
ier	-8051
▁어이없	-8052
▁홋	-8053
▁김유	-8054
▁뉘	-8055
라미	-8056
▁변장	-8057
▁몸통	-8058
▁리틀	-8059
▁비리	-8060
바지	-8061
▁까마	-8062
▁원숭이	-8063
▁우마	-8064
▁까지	-8065
배우	-8066
▁김포	-8067
▁어설	-8068
▁동정	-8069
▁유연	-8070
▁광명	-8071
▁민국	-8072
▁찬성	-8073
▁기본기	-8074
▁법사	-8075
의자	-8076
▁고집	-8077
▁중점	-8078
▁하치	-8079
▁1979	-8080
이동	-8081
IX	-8082
▁카쿠	-8083
▁납득	-8084
▁곡인	-8085
▁평상	-8086
▁기스	-8087
▁템플	-8088
▁에버	-8089
▁엘리베이터	-8090
▁워즈	-8091
▁카자	-8092
▁쉴드	-8093
▁145	-8094
ble	-8095
▁왜냐하면	-8096
▁아쿠아	-8097
▁극대	-8098
▁벙커	-8099
▁사무실	-8100
▁근대	-8101
▁유치원	-8102
▁로키	-8103
▁엘레	-8104
▁체결	-8105
▁마모	-8106
▁브라더스	-8107
▁창작물	-8108
▁닦	-8109
▁장례	-8110
▁도색	-8111
▁히틀러	-8112
▁쿠마	-8113
▁올바르	-8114
▁춥	-8115
oun	-8116
▁박수	-8117
▁꺼리	-8118
▁만능	-8119
▁광경	-8120
▁무제	-8121
▁카네	-8122
▁갑작스럽	-8123
▁멋대로	-8124
▁매주	-8125
▁총장	-8126
▁스가	-8127
▁Ap	-8128
▁NO	-8129
▁블럭	-8130
▁부천	-8131
iver	-8132
▁can	-8133
▁청구	-8134
▁작정	-8135
▁토트	-8136
▁워리어	-8137
▁퍽	-8138
▁113	-8139
▁롤러	-8140
▁이어받	-8141
▁모임	-8142
▁튜버	-8143
워즈	-8144
이나	-8145
▁165	-8146
▁다지	-8147
▁부스	-8148
▁쿠니	-8149
▁가이드	-8150
▁비키	-8151
▁할리	-8152
▁씨앗	-8153
▁부근	-8154
이치로	-8155
▁후일	-8156
▁왕복	-8157
▁일가	-8158
▁펭	-8159
▁헬멧	-8160
▁ㄱㅜㄴㅇㅛ	-8161
ott	-8162
▁IM	-8163
▁확신	-8164
▁출산	-8165
▁암호	-8166
▁투쟁	-8167
▁학급	-8168
▁테이블	-8169
▁마운	-8170
▁호러	-8171
▁풍선	-8172
▁조카	-8173
▁무실점	-8174
▁144	-8175
▁동전	-8176
▁슈퍼맨	-8177
▁슬픔	-8178
▁이누	-8179
▁글씨	-8180
▁터보	-8181
▁복사	-8182
▁실현	-8183
▁레이블	-8184
▁만주	-8185
▁이카	-8186
▁인접	-8187
▁고등학생	-8188
▁명사	-8189
▁스쿼	-8190
▁히스	-8191
▁방심	-8192
▁유격수	-8193
▁마라	-8194
▁IT	-8195
▁헝가리	-8196
▁부시	-8197
▁1950	-8198
역사	-8199
▁브라이언	-8200
▁쳐들어	-8201
▁항모	-8202
▁상주	-8203
▁ATK	-8204
▁포탈	-8205
▁병역	-8206
▁Max	-8207
▁155	-8208
▁케이크	-8209
▁운송	-8210
▁기차	-8211
▁CM	-8212
▁아처	-8213
▁재앙	-8214
▁아지	-8215
▁이이	-8216
▁유우키	-8217
▁사연	-8218
▁닥치	-8219
▁엄밀히	-8220
▁니아	-8221
▁리가	-8222
▁손자	-8223
▁변명	-8224
▁생김	-8225
페라	-8226
▁각인	-8227
리안	-8228
▁검증	-8229
▁세로	-8230
▁노무	-8231
▁타구	-8232
▁연수	-8233
▁ERA	-8234
▁시뮬	-8235
▁at	-8236
▁카지	-8237
▁젼	-8238
▁엉망	-8239
▁넬	-8240
▁BD	-8241
▁몰살	-8242
▁사투	-8243
▁114	-8244
▁철저히	-8245
▁알레	-8246
uck	-8247
▁방학	-8248
▁인성	-8249
▁연전	-8250
II	-8251
▁신지	-8252
자치	-8253
▁상금	-8254
▁영양	-8255
oh	-8256
▁조국	-8257
▁독일어	-8258
▁히카	-8259
▁절친	-8260
▁츤	-8261
진호	-8262
▁승인	-8263
▁시크릿	-8264
▁페르소	-8265
폭탄	-8266
▁통째	-8267
페이	-8268
▁화폐	-8269
코트	-8270
▁입문	-8271
슬라	-8272
▁바쿠	-8273
▁제니	-8274
▁유재석	-8275
▁유메	-8276
▁쿠데	-8277
▁일곱	-8278
▁집회	-8279
▁흩어지	-8280
▁유카	-8281
▁햇	-8282
▁품질	-8283
▁현금	-8284
야시	-8285
eah	-8286
▁엔지니어	-8287
▁매트	-8288
▁원전	-8289
▁천장	-8290
아들	-8291
▁목사	-8292
▁옥상	-8293
▁사나	-8294
▁스틱	-8295
▁다큐	-8296
▁아무튼	-8297
▁양식	-8298
▁제리	-8299
▁마음대로	-8300
▁동대	-8301
▁스나이퍼	-8302
▁간섭	-8303
▁친애	-8304
▁이케	-8305
▁GK	-8306
▁전동차	-8307
▁사로잡	-8308
▁리본	-8309
▁쿠스	-8310
▁할로윈	-8311
지르	-8312
▁티저	-8313
▁초록색	-8314
▁쫓겨나	-8315
▁우연	-8316
▁함락	-8317
▁750	-8318
▁달려들	-8319
▁솟	-8320
▁스카우트	-8321
▁수위	-8322
▁시모	-8323
▁멧	-8324
▁샐	-8325
▁뮌헨	-8326
▁혁신	-8327
▁오렌	-8328
▁개구리	-8329
▁용암	-8330
▁호드	-8331
▁너스	-8332
▁감자	-8333
▁코스프레	-8334
▁깊이	-8335
▁메트로	-8336
주교	-8337
▁궁합	-8338
▁스피어	-8339
▁죄책	-8340
▁정문	-8341
▁손꼽히	-8342
▁아자	-8343
▁기동력	-8344
▁전향	-8345
▁참사	-8346
▁성경	-8347
▁사무라이	-8348
가루	-8349
끼리	-8350
케이션	-8351
▁this	-8352
▁페르소나	-8353
▁마당	-8354
▁비우	-8355
네시아	-8356
▁..?	-8357
방송	-8358
▁승진	-8359
bs	-8360
▁토대	-8361
▁거지	-8362
▁부패	-8363
int	-8364
▁종결	-8365
▁최순	-8366
▁녹화	-8367
▁아드	-8368
▁스티브	-8369
▁디자이너	-8370
▁시게	-8371
▁Season	-8372
변이	-8373
▁화해	-8374
▁돌연변이	-8375
▁평행	-8376
▁오니	-8377
▁알아채	-8378
▁이놈	-8379
▁토우	-8380
▁미르	-8381
▁ㅅㅑ	-8382
▁450	-8383
▁AB	-8384
▁러쉬	-8385
▁이력	-8386
▁OS	-8387
▁HE	-8388
▁아오이	-8389
▁자율	-8390
▁협의	-8391
▁아리아	-8392
▁만점	-8393
▁정반대	-8394
▁한나라	-8395
▁메이지	-8396
▁from	-8397
▁미성	-8398
▁죄책감	-8399
▁오퍼	-8400
▁한나라당	-8401
▁호의	-8402
▁고아	-8403
▁{{{-	-8404
▁깨끗	-8405
▁원장	-8406
▁스매	-8407
▁필리핀	-8408
▁맞히	-8409
▁종영	-8410
▁합작	-8411
IL	-8412
▁기후	-8413
▁풍기	-8414
▁이스트	-8415
▁도약	-8416
▁자칭	-8417
▁EXT	-8418
ose	-8419
▁레나	-8420
itt	-8421
▁교과서	-8422
▁미인	-8423
운동	-8424
▁은폐	-8425
▁갯	-8426
▁얼티	-8427
▁tr	-8428
▁떨치	-8429
▁브론	-8430
▁항해	-8431
▁자이언트	-8432
▁유전	-8433
▁나이프	-8434
▁파스	-8435
▁지분	-8436
▁정성	-8437
▁아이디어	-8438
▁가위	-8439
떨어지	-8440
▁EZ	-8441
▁진에어	-8442
▁동서	-8443
▁잭슨	-8444
▁적절히	-8445
▁La	-8446
▁실체	-8447
▁흑마	-8448
▁에미	-8449
▁좌측	-8450
▁다니엘	-8451
▁충족	-8452
▁314	-8453
▁마에	-8454
▁레코드	-8455
▁현자	-8456
철도	-8457
▁대위	-8458
▁치안	-8459
▁여단	-8460
▁뱅가드	-8461
▁트래	-8462
▁리사	-8463
▁이틀	-8464
▁흡혈귀	-8465
▁마기	-8466
▁스타트	-8467
▁분홍	-8468
▁외국어	-8469
탐정	-8470
▁Im	-8471
▁지혜	-8472
직자	-8473
▁이태	-8474
▁저글	-8475
▁Vol	-8476
▁new	-8477
▁툰	-8478
렉터	-8479
크리	-8480
▁베이징	-8481
▁헥	-8482
▁학문	-8483
▁시골	-8484
▁히드라	-8485
▁Con	-8486
▁스쿼드	-8487
▁얇	-8488
▁뺏기	-8489
▁욕설	-8490
▁피자	-8491
▁NBA	-8492
▁부러지	-8493
▁저기	-8494
▁밀도	-8495
▁소생	-8496
▁갈색	-8497
▁내기	-8498
ats	-8499
▁계층	-8500
▁Sch	-8501
▁ㅁㅗㄴ	-8502
▁가담	-8503
▁바이올	-8504
▁강릉	-8505
▁말씀	-8506
▁Ed	-8507
▁각지	-8508
▁신곡	-8509
▁124	-8510
▁포병	-8511
▁학년도	-8512
▁임하	-8513
▁서류	-8514
▁ld	-8515
▁일관	-8516
▁추후	-8517
▁로스트	-8518
▁초상	-8519
▁rd	-8520
▁아케이드	-8521
▁흘러가	-8522
▁잔혹	-8523
▁Girl	-8524
느리	-8525
▁고고	-8526
▁협정	-8527
▁우루	-8528
▁스타즈	-8529
▁출판사	-8530
▁학대	-8531
▁침착	-8532
▁가오	-8533
▁찔	-8534
나베	-8535
▁카테	-8536
▁주석	-8537
▁무도	-8538
▁부원	-8539
▁해소	-8540
▁카리스마	-8541
▁Gre	-8542
15	-8543
▁에메	-8544
우라	-8545
마루	-8546
▁스파이더맨	-8547
▁잼	-8548
▁물자	-8549
▁입증	-8550
▁나이츠	-8551
▁매달리	-8552
은색	-8553
▁RE	-8554
▁대동	-8555
▁Night	-8556
▁펌프	-8557
ari	-8558
ube	-8559
▁나인	-8560
▁배구	-8561
철수	-8562
▁미아	-8563
▁밀레	-8564
▁시어	-8565
▁존스	-8566
▁워터	-8567
부키	-8568
▁물약	-8569
▁부속	-8570
▁억울	-8571
msys	-8572
▁녹이	-8573
▁덮치	-8574
ition	-8575
지능	-8576
▁강타	-8577
▁인공지능	-8578
▁ldmsys	-8579
▁대세	-8580
▁이오	-8581
▁ㅊㅣ	-8582
usic	-8583
▁중원	-8584
▁183	-8585
▁판도	-8586
바이트	-8587
므로	-8588
13	-8589
▁고의	-8590
▁저글링	-8591
슈타인	-8592
▁격려	-8593
▁존중	-8594
▁강전	-8595
▁USB	-8596
▁라마	-8597
▁대검	-8598
▁압축	-8599
▁힘입	-8600
▁감당	-8601
워프	-8602
오피스	-8603
▁과금	-8604
▁정사	-8605
▁디아블로	-8606
▁유스	-8607
▁피지컬	-8608
▁부유	-8609
▁괴인	-8610
▁퀴즈	-8611
▁생김새	-8612
▁ㄷㅔ	-8613
▁대변	-8614
▁스탈	-8615
▁점심	-8616
▁기울이	-8617
▁함장	-8618
▁빙결	-8619
25	-8620
▁점멸	-8621
▁표적	-8622
▁면하	-8623
▁내역	-8624
▁극한	-8625
▁레이싱	-8626
▁압력	-8627
▁테스	-8628
▁이빨	-8629
항공	-8630
▁동구	-8631
▁마하	-8632
▁애완	-8633
슬리	-8634
▁산맥	-8635
▁황당	-8636
▁1200	-8637
▁민간인	-8638
▁달아나	-8639
▁키요	-8640
▁Black	-8641
▁리버스	-8642
▁경부	-8643
▁세자	-8644
▁발사기	-8645
리얼	-8646
▁박스오피스	-8647
▁WC	-8648
▁집계	-8649
▁철도역	-8650
▁대차	-8651
▁자책점	-8652
▁법무	-8653
▁하지	-8654
시오	-8655
▁TS	-8656
▁김주	-8657
ㅁㅏㄹㄹㅗ	-8658
▁이소	-8659
▁소소	-8660
▁마케팅	-8661
▁뚱	-8662
▁모형	-8663
▁아카네	-8664
▁그러므로	-8665
▁마틴	-8666
▁후유	-8667
▁만렙	-8668
▁스탭	-8669
▁골프	-8670
▁NH	-8671
▁보스턴	-8672
▁퇴치	-8673
yn	-8674
▁중견	-8675
▁일렉	-8676
업자	-8677
▁벌써	-8678
▁예의	-8679
▁덩어리	-8680
▁그쪽	-8681
▁다시금	-8682
▁그레이드	-8683
▁제노	-8684
▁농업	-8685
▁씻	-8686
ㅆㅇㅓㅆ	-8687
▁마도카	-8688
▁병살	-8689
▁127	-8690
▁연동	-8691
른바	-8692
▁박진	-8693
▁이른바	-8694
▁BC	-8695
▁일지	-8696
▁기질	-8697
▁데몬	-8698
▁지로	-8699
▁재건	-8700
사랑	-8701
▁모종	-8702
▁주축	-8703
시대	-8704
▁현황	-8705
▁원판	-8706
▁교차로	-8707
▁리처	-8708
▁기껏	-8709
▁이원	-8710
▁노아	-8711
▁그러면	-8712
▁출동	-8713
DD	-8714
▁토마스	-8715
▁어서	-8716
▁무녀	-8717
▁연설	-8718
▁자아	-8719
▁디오	-8720
▁통솔	-8721
토니	-8722
18	-8723
▁문양	-8724
▁MM	-8725
app	-8726
▁ver	-8727
▁남동생	-8728
▁DM	-8729
▁포착	-8730
▁천상	-8731
▁Let	-8732
▁로프	-8733
▁사촌	-8734
▁드워프	-8735
▁상냥	-8736
▁등극	-8737
▁구상	-8738
▁모빌	-8739
▁유진	-8740
▁장벽	-8741
세지	-8742
▁각도	-8743
▁휩쓸	-8744
▁스토어	-8745
▁자존심	-8746
▁망설	-8747
▁억제	-8748
▁발명	-8749
▁불길	-8750
▁SSR	-8751
▁선동	-8752
▁관장	-8753
▁도덕	-8754
▁118	-8755
▁귀국	-8756
▁레아	-8757
▁모스크	-8758
▁바텀	-8759
▁킴	-8760
▁스크롤	-8761
▁퓨전	-8762
▁OG	-8763
▁도대	-8764
▁카게	-8765
▁Am	-8766
▁Op	-8767
▁들여	-8768
▁184	-8769
▁육상	-8770
▁프랜	-8771
▁Col	-8772
▁노무현	-8773
▁오른손	-8774
▁아마추어	-8775
▁아포	-8776
▁용산	-8777
▁절벽	-8778
ye	-8779
▁사치	-8780
▁앓	-8781
▁Str	-8782
gr	-8783
▁AF	-8784
▁전담	-8785
▁봉사	-8786
▁서울대	-8787
▁애인	-8788
▁토라	-8789
▁발레	-8790
▁부끄럽	-8791
▁머물	-8792
▁회관	-8793
▁시안	-8794
▁까마귀	-8795
▁라미	-8796
▁발급	-8797
당초	-8798
▁원주민	-8799
▁아담	-8800
▁타이어	-8801
▁그란	-8802
▁도배	-8803
▁이윤	-8804
▁not	-8805
▁쿄코	-8806
▁서리	-8807
▁섬광	-8808
▁리바	-8809
▁청춘	-8810
▁얄	-8811
▁왕실	-8812
▁탄핵	-8813
▁서적	-8814
▁향후	-8815
CE	-8816
▁학사	-8817
▁퍼펙트	-8818
ough	-8819
▁Mag	-8820
▁152	-8821
▁큐어	-8822
▁방사능	-8823
▁박자	-8824
▁잎	-8825
▁환생	-8826
▁쿠데타	-8827
▁왕비	-8828
▁필름	-8829
▁GM	-8830
▁솔저	-8831
▁입시	-8832
▁불러오	-8833
▁하사	-8834
▁뻘	-8835
▁베를	-8836
▁정밀	-8837
▁베스	-8838
▁시시	-8839
타이	-8840
▁착륙	-8841
▁챔스	-8842
iel	-8843
▁루마	-8844
▁다카	-8845
▁행진	-8846
▁사방	-8847
▁컴뱃	-8848
▁뛰어들	-8849
▁..!	-8850
려워하	-8851
▁미녀	-8852
▁시오	-8853
▁뤼	-8854
▁이무	-8855
▁마을버스	-8856
▁인피니티	-8857
▁리자	-8858
▁지장	-8859
▁노랗	-8860
▁밀리언	-8861
▁실용	-8862
▁피오	-8863
▁000000	-8864
▁춤추	-8865
▁협동	-8866
▁우두	-8867
▁얼리	-8868
▁프롤	-8869
▁싱가	-8870
▁싱가포르	-8871
어트	-8872
▁적시타	-8873
▁선박	-8874
▁보우	-8875
vel	-8876
▁루미	-8877
▁오렌지	-8878
▁유가	-8879
▁스타워즈	-8880
▁벗기	-8881
▁지루	-8882
▁금발	-8883
▁여태	-8884
▁주공	-8885
▁갱신	-8886
▁카리	-8887
▁편리	-8888
ull	-8889
▁카피	-8890
▁서열	-8891
▁강인	-8892
▁직책	-8893
▁폴아웃	-8894
▁제발	-8895
▁스로	-8896
▁얽히	-8897
▁AV	-8898
▁화기	-8899
▁숙소	-8900
▁테리	-8901
▁얌	-8902
▁옴	-8903
▁시호	-8904
▁민폐	-8905
▁선원	-8906
▁1978	-8907
▁경전	-8908
▁승패	-8909
▁돌려주	-8910
▁침몰	-8911
▁과일	-8912
▁AL	-8913
▁브래	-8914
▁182	-8915
▁아수	-8916
▁김치	-8917
▁김광	-8918
▁다스리	-8919
▁취재	-8920
▁스카웃	-8921
▁우미	-8922
▁탐사	-8923
▁지크	-8924
ult	-8925
▁스네	-8926
▁조화	-8927
▁전송	-8928
▁반성	-8929
▁쿠사	-8930
..	-8931
ㄲㅡㅁ	-8932
프리카	-8933
▁잠기	-8934
▁라인하르트	-8935
▁완화	-8936
▁이진	-8937
▁툭	-8938
▁도대체	-8939
▁욕심	-8940
▁178	-8941
▁팔라	-8942
▁교도소	-8943
무지	-8944
▁홋카이도	-8945
▁전지	-8946
▁시간대	-8947
▁리부	-8948
▁해운	-8949
▁한꺼	-8950
▁한꺼번에	-8951
▁오즈	-8952
▁욱	-8953
헤이	-8954
서스	-8955
▁섬멸	-8956
▁중구	-8957
▁#!	-8958
▁일일	-8959
▁성명	-8960
▁친척	-8961
able	-8962
▁화신	-8963
▁그간	-8964
▁반경	-8965
▁CL	-8966
▁스기	-8967
▁아무렇	-8968
▁경상남도	-8969
▁건지	-8970
▁이계	-8971
▁구형	-8972
▁컴백	-8973
▁호리	-8974
▁모순	-8975
ject	-8976
▁어벤져	-8977
▁아사히	-8978
▁흑역사	-8979
▁군부	-8980
▁흑막	-8981
▁이별	-8982
▁미소녀	-8983
▁도르	-8984
▁가구	-8985
소년	-8986
▁천국	-8987
마리	-8988
바리	-8989
▁소나	-8990
▁흥분	-8991
▁오토바이	-8992
▁사와	-8993
▁안무	-8994
에른	-8995
▁완공	-8996
▁동계	-8997
▁모나	-8998
▁달려오	-8999
▁보강	-9000
▁모에	-9001
▁아슬	-9002
▁신관	-9003
▁등재	-9004
▁타카하시	-9005
▁최상급	-9006
▁얼티밋	-9007
▁관문	-9008
MAN	-9009
▁그리핀	-9010
▁정답	-9011
▁치이	-9012
▁스텔스	-9013
키스탄	-9014
▁CE	-9015
▁신작	-9016
▁일어	-9017
▁용이	-9018
▁인문	-9019
▁라비	-9020
▁레버	-9021
eth	-9022
▁Co	-9023
▁대역	-9024
▁발각	-9025
▁엣	-9026
바람	-9027
▁이단	-9028
▁민감	-9029
▁직행	-9030
▁사직	-9031
▁1945	-9032
▁능가	-9033
▁주머니	-9034
▁스윙	-9035
▁PK	-9036
▁매각	-9037
▁토트넘	-9038
oot	-9039
▁헬리	-9040
▁se	-9041
▁유즈	-9042
▁단자	-9043
▁시카고	-9044
▁디스플레이	-9045
▁쿠리	-9046
▁간판	-9047
▁일체	-9048
▁코레	-9049
▁저자	-9050
▁마야	-9051
▁에코	-9052
▁스마일	-9053
▁금요일	-9054
방울	-9055
속기	-9056
▁머스	-9057
▁플라스	-9058
▁반역	-9059
▁베이비	-9060
▁패트	-9061
▁레시피	-9062
▁프레스	-9063
▁cl	-9064
▁엉덩이	-9065
▁모욕	-9066
▁부채	-9067
모습	-9068
▁사탕	-9069
기에	-9070
▁소득	-9071
▁BO	-9072
▁라이트닝	-9073
수리	-9074
구니	-9075
▁수라	-9076
▁매그	-9077
▁불참	-9078
▁약혼	-9079
▁TOP	-9080
▁시종	-9081
▁늪	-9082
▁여주인	-9083
▁일러스트레이터	-9084
틀리	-9085
▁장남	-9086
▁카제	-9087
▁강대	-9088
▁엘리자베스	-9089
▁AFC	-9090
▁마미	-9091
▁밈	-9092
▁오다	-9093
타리	-9094
▁바이에른	-9095
ild	-9096
▁약체	-9097
▁가왕	-9098
▁도쿠	-9099
▁파운드	-9100
▁BGA	-9101
▁겟	-9102
▁정점	-9103
▁태풍	-9104
▁울음	-9105
▁레이지	-9106
▁맨체스터	-9107
▁카사	-9108
니코	-9109
▁오케	-9110
▁모음	-9111
▁오만	-9112
inal	-9113
▁명장	-9114
▁Is	-9115
▁애용	-9116
▁휴먼	-9117
드러지	-9118
▁편의점	-9119
▁적자	-9120
▁카이저	-9121
▁삼키	-9122
▁4000	-9123
▁도심	-9124
▁시범	-9125
▁얹	-9126
▁실적	-9127
▁수천	-9128
▁Do	-9129
▁이쿠	-9130
▁탈취	-9131
스크림	-9132
▁소마	-9133
▁드루이드	-9134
파이	-9135
▁맛보	-9136
▁아랫	-9137
▁스파크	-9138
▁곤충	-9139
▁교리	-9140
▁걸어가	-9141
▁Gaming	-9142
▁한하	-9143
▁함수	-9144
▁아이디	-9145
▁파고	-9146
▁자사	-9147
▁무지개	-9148
러브	-9149
▁과시	-9150
▁내밀	-9151
▁요격	-9152
▁신한	-9153
▁웨폰	-9154
▁가이아	-9155
도전	-9156
▁대피	-9157
▁평상시	-9158
▁평론가	-9159
▁입사	-9160
▁꺼지	-9161
▁박정희	-9162
▁김일	-9163
▁눈동자	-9164
▁카일	-9165
▁크로우	-9166
▁GSL	-9167
▁어그	-9168
▁320	-9169
DX	-9170
▁눈앞	-9171
▁들르	-9172
▁투고	-9173
▁진동	-9174
생활	-9175
▁CR	-9176
▁스모	-9177
▁욕망	-9178
▁315	-9179
▁네크로	-9180
▁SA	-9181
▁컬렉션	-9182
▁유아	-9183
▁집사	-9184
▁무능	-9185
ings	-9186
▁부가	-9187
▁Gl	-9188
▁ME	-9189
▁달콤	-9190
▁유머	-9191
▁연이	-9192
쿠스	-9193
아시아	-9194
ㅡㅅ	-9195
▁노릇	-9196
14	-9197
▁고가	-9198
▁선회	-9199
▁아마존	-9200
▁남학생	-9201
▁공신	-9202
▁삽질	-9203
▁1973	-9204
▁맷집	-9205
▁타리	-9206
▁장신구	-9207
▁물려받	-9208
▁목욕	-9209
▁수아	-9210
▁보르	-9211
▁캡슐	-9212
▁소집	-9213
TA	-9214
▁뻔하	-9215
▁오공	-9216
▁정우	-9217
▁패왕	-9218
▁숙련도	-9219
▁중소	-9220
▁이용자	-9221
▁포크	-9222
▁무한도전	-9223
▁명시	-9224
▁Gu	-9225
▁좌익	-9226
▁검토	-9227
▁리볼	-9228
▁굶	-9229
▁식스	-9230
▁단련	-9231
▁성분	-9232
▁라이드	-9233
▁하도	-9234
▁당초	-9235
▁신하	-9236
▁슬라이드	-9237
▁마마	-9238
▁아르바이트	-9239
reak	-9240
▁사천	-9241
▁장본	-9242
▁일명	-9243
ron	-9244
대사	-9245
▁자력	-9246
▁초과	-9247
▁중부	-9248
▁징계	-9249
▁와타나베	-9250
▁적이	-9251
히토	-9252
▁배리	-9253
▁아쉬움	-9254
중간	-9255
▁중기	-9256
▁케리	-9257
▁미노	-9258
▁저항력	-9259
▁주술사	-9260
▁덥	-9261
▁아유	-9262
▁위쪽	-9263
▁고이	-9264
▁와이번스	-9265
▁모의	-9266
▁유동	-9267
▁오로치	-9268
▁무늬	-9269
▁궁수	-9270
▁테란	-9271
▁민중	-9272
▁키노	-9273
▁짬	-9274
▁독백	-9275
티니	-9276
▁시련	-9277
▁냉장	-9278
▁돌려	-9279
당기	-9280
▁놔	-9281
▁리리	-9282
타운	-9283
▁공교	-9284
▁금강	-9285
▁잔류	-9286
▁이호	-9287
▁마수	-9288
트론	-9289
▁하이드	-9290
▁상시	-9291
▁외야수	-9292
▁소꿉	-9293
▁캘리	-9294
▁코끼리	-9295
▁부산광역시	-9296
▁168	-9297
▁NM	-9298
▁네이션	-9299
▁표식	-9300
17	-9301
▁급식	-9302
▁이용객	-9303
▁이명박	-9304
▁중국인	-9305
▁장본인	-9306
▁인도네시아	-9307
▁컨디션	-9308
▁진단	-9309
▁서바이벌	-9310
▁평택	-9311
▁벨기에	-9312
▁국도	-9313
▁앤드	-9314
▁so	-9315
▁마찰	-9316
▁203	-9317
▁학위	-9318
▁유카리	-9319
닐라	-9320
▁그루	-9321
▁218	-9322
▁가해	-9323
▁라이징	-9324
사와	-9325
▁협조	-9326
PA	-9327
▁like	-9328
▁보로	-9329
운수	-9330
▁무자	-9331
▁성대	-9332
▁겸하	-9333
▁판사	-9334
▁개명	-9335
▁Min	-9336
▁이즈미	-9337
▁크라운	-9338
▁고인	-9339
▁혼혈	-9340
▁도미	-9341
▁급격히	-9342
▁가령	-9343
▁쥬얼	-9344
▁일리	-9345
▁공헌	-9346
▁충청남도	-9347
▁초청	-9348
▁대면	-9349
▁방침	-9350
▁승급	-9351
▁주술	-9352
▁고발	-9353
▁도마	-9354
▁강동	-9355
▁강아지	-9356
▁시네마	-9357
▁수신	-9358
▁몸매	-9359
▁밭	-9360
▁내외	-9361
GA	-9362
▁어원	-9363
▁김병	-9364
▁단역	-9365
▁보직	-9366
▁재수	-9367
▁will	-9368
▁헤라	-9369
▁이어서	-9370
▁소우	-9371
▁내각	-9372
▁체코	-9373
▁나폴레	-9374
▁조립	-9375
▁오페라	-9376
▁뺨	-9377
저래	-9378
▁낯	-9379
MAX	-9380
▁국토	-9381
▁이래저래	-9382
마치	-9383
▁수립	-9384
▁리믹스	-9385
▁휴대폰	-9386
▁레이븐	-9387
▁단총	-9388
▁런처	-9389
▁쟁이	-9390
▁배율	-9391
▁휴게	-9392
▁의정부	-9393
▁주저	-9394
▁하츠네	-9395
ECT	-9396
▁10000	-9397
▁자산	-9398
▁균열	-9399
▁천지	-9400
전사	-9401
▁황혼	-9402
▁흉악	-9403
▁오사	-9404
성이	-9405
▁떨구	-9406
▁찔리	-9407
▁아테나	-9408
ㄴㄷㅡㄹ	-9409
▁갈기	-9410
▁고우	-9411
▁뚜렷	-9412
▁나폴레옹	-9413
▁윤리	-9414
▁iOS	-9415
▁사슬	-9416
▁테크닉	-9417
▁볶	-9418
▁비자	-9419
▁니트	-9420
▁독보	-9421
▁수중	-9422
▁라가	-9423
▁차장	-9424
ICE	-9425
▁버거	-9426
▁교역	-9427
▁one	-9428
▁시간표	-9429
▁충격파	-9430
AND	-9431
▁로크	-9432
▁ALL	-9433
▁대학생	-9434
▁부동산	-9435
▁보가	-9436
르타	-9437
▁트론	-9438
▁엠블	-9439
▁위시	-9440
▁거세	-9441
▁우기	-9442
▁베를린	-9443
ㄴㄷㅡㅅ	-9444
▁na	-9445
▁오역	-9446
▁Type	-9447
▁RO	-9448
▁악행	-9449
▁국방부	-9450
▁떠돌	-9451
보우	-9452
▁원한	-9453
▁Red	-9454
oul	-9455
▁스치	-9456
▁절단	-9457
ㄷㅓㄴㅈㅣ	-9458
▁스코틀랜드	-9459
▁경사	-9460
▁저격수	-9461
주의자	-9462
▁저승	-9463
▁탄막	-9464
▁탄압	-9465
▁서방	-9466
▁인명	-9467
▁1974	-9468
▁히사	-9469
▁Ser	-9470
▁리프트	-9471
▁면제	-9472
▁말레이	-9473
te	-9474
▁플레임	-9475
▁이오리	-9476
▁리츠	-9477
▁지지율	-9478
저우	-9479
▁KB	-9480
▁Play	-9481
▁정전	-9482
▁주황	-9483
▁자루	-9484
▁성지	-9485
▁사이토	-9486
▁타우	-9487
▁미남	-9488
ater	-9489
▁더미	-9490
ody	-9491
▁타키	-9492
▁UC	-9493
▁캇	-9494
▁중화민국	-9495
▁해역	-9496
▁때로	-9497
▁플레이버	-9498
▁버블	-9499
STER	-9500
▁펑크	-9501
▁NT	-9502
16	-9503
▁두려워하	-9504
▁177	-9505
다드	-9506
▁Car	-9507
▁견해	-9508
▁칼라	-9509
▁아수라	-9510
▁흉내	-9511
친구	-9512
▁비단	-9513
▁달인	-9514
▁걸음	-9515
▁발톱	-9516
▁작위	-9517
▁대국	-9518
▁설마	-9519
▁필사	-9520
▁출석	-9521
▁Don	-9522
▁원로	-9523
▁공격기	-9524
▁전라남도	-9525
▁액체	-9526
▁단서	-9527
▁토비	-9528
▁빗나가	-9529
▁커플링	-9530
▁대법	-9531
▁둥지	-9532
▁김윤	-9533
▁계절	-9534
▁득표율	-9535
▁이리저리	-9536
▁사물	-9537
▁지터	-9538
▁습하	-9539
ions	-9540
▁무비	-9541
▁평판	-9542
▁깃털	-9543
▁난리	-9544
▁이듬	-9545
▁사우스	-9546
▁선로	-9547
ould	-9548
▁재배	-9549
▁성사	-9550
▁다케	-9551
▁랜서	-9552
▁보편	-9553
▁벚	-9554
▁마저	-9555
▁한양	-9556
▁살아오	-9557
▁련	-9558
▁우두머리	-9559
▁다녀	-9560
▁샘플	-9561
▁딥	-9562
▁팰	-9563
▁입원	-9564
▁해변	-9565
텍스	-9566
▁요우	-9567
▁138	-9568
▁희생자	-9569
▁손잡이	-9570
▁의의	-9571
▁차일드	-9572
▁전법	-9573
▁Es	-9574
▁격렬	-9575
▁고난	-9576
▁1975	-9577
▁마르코	-9578
▁강습	-9579
▁극심	-9580
▁리볼버	-9581
▁슬라임	-9582
▁반장	-9583
▁가해자	-9584
과이	-9585
▁감성	-9586
▁맑	-9587
▁진형	-9588
▁방울	-9589
▁점하	-9590
▁사야카	-9591
▁완벽히	-9592
▁왕족	-9593
▁주입	-9594
▁스콜	-9595
천군	-9596
레븐	-9597
▁김성근	-9598
▁유지비	-9599
▁홈경기	-9600
▁보루	-9601
▁순간이동	-9602
▁태생	-9603
alk	-9604
▁크롬	-9605
▁너클	-9606
▁연막	-9607
▁반도	-9608
▁지면	-9609
▁부제	-9610
▁짝사랑	-9611
▁us	-9612
▁산탄총	-9613
▁간파	-9614
▁과언	-9615
스카	-9616
▁접수	-9617
▁상어	-9618
▁섬기	-9619
▁메테	-9620
▁아이즈	-9621
▁입자	-9622
▁헤드샷	-9623
▁레슨	-9624
▁탈환	-9625
ven	-9626
▁졸업식	-9627
▁서명	-9628
▁맹독	-9629
▁자켓	-9630
▁워드	-9631
▁두드러지	-9632
▁안젤	-9633
▁중도	-9634
▁Time	-9635
▁러너	-9636
▁리처드	-9637
▁필립	-9638
▁어드밴	-9639
▁상의	-9640
▁제의	-9641
▁'''	-9642
▁중재	-9643
▁계략	-9644
▁마스코트	-9645
▁금고	-9646
▁월간	-9647
▁동성애	-9648
▁아리스	-9649
▁석유	-9650
▁공명	-9651
▁병과	-9652
▁원화	-9653
▁162	-9654
▁레인보우	-9655
▁테니스	-9656
af	-9657
▁삿	-9658
▁갈구	-9659
▁놔두	-9660
▁코디	-9661
라이언스	-9662
▁주교	-9663
▁측근	-9664
▁바이크	-9665
▁타스	-9666
드로	-9667
▁126	-9668
야스	-9669
소총	-9670
▁완성도	-9671
▁얼라이언스	-9672
▁팍	-9673
▁찬양	-9674
▁EU	-9675
▁이사장	-9676
▁Sum	-9677
▁마지	-9678
▁분할	-9679
▁테일즈	-9680
▁데미	-9681
▁프로스트	-9682
공사	-9683
▁WH	-9684
▁생각나	-9685
▁우지	-9686
스티스	-9687
▁가히	-9688
▁일각	-9689
▁고래	-9690
▁콘스탄	-9691
▁충고	-9692
▁ㅋㅔ	-9693
▁아울	-9694
▁어제	-9695
ics	-9696
▁이념	-9697
▁이듬해	-9698
▁스바	-9699
맥스	-9700
▁백만	-9701
▁교대	-9702
▁두려움	-9703
▁시끄럽	-9704
▁???	-9705
▁스매시	-9706
ㄹㄹㅏ	-9707
▁키즈	-9708
▁트이	-9709
▁히카루	-9710
▁영화제	-9711
▁자키	-9712
▁왓	-9713
▁Bo	-9714
▁조수	-9715
▁찰스	-9716
▁빙의	-9717
▁카오루	-9718
▁김선	-9719
▁박명	-9720
YP	-9721
▁이영호	-9722
▁구로	-9723
▁냉장고	-9724
▁신생	-9725
▁득표수	-9726
ACK	-9727
▁슬러그	-9728
▁연소	-9729
▁수감	-9730
▁클리셰	-9731
▁두껍	-9732
▁초등학생	-9733
그라	-9734
▁BT	-9735
▁기관포	-9736
▁IIDX	-9737
▁본질	-9738
▁엉뚱	-9739
▁have	-9740
▁CB	-9741
보기	-9742
▁평등	-9743
▁주차장	-9744
▁노부나가	-9745
▁펙	-9746
▁차림	-9747
▁스칼	-9748
▁고종	-9749
▁회계	-9750
▁동상	-9751
▁몰려오	-9752
▁BA	-9753
ㅇㅡㄴ	-9754
시스코	-9755
랄드	-9756
▁카토	-9757
▁말기	-9758
▁어기	-9759
▁에드워드	-9760
▁연세대	-9761
▁나락	-9762
▁보고서	-9763
▁텔레포트	-9764
▁끌어내	-9765
▁ㄹㅗㄹ	-9766
▁대니	-9767
▁꼴찌	-9768
▁로비	-9769
마르	-9770
▁민병	-9771
▁oh	-9772
▁313	-9773
▁지역구	-9774
재기	-9775
▁폭로	-9776
▁애드	-9777
▁응급	-9778
tern	-9779
▁맞먹	-9780
▁병행	-9781
▁왕가	-9782
▁후면	-9783
미터	-9784
▁직위	-9785
▁사회주의	-9786
▁심정	-9787
▁주유	-9788
▁~"	-9789
▁팜	-9790
▁과격	-9791
▁난투	-9792
▁공짜	-9793
페이스	-9794
▁Kore	-9795
르드	-9796
전설	-9797
▁누스	-9798
▁권하	-9799
ict	-9800
▁EV	-9801
▁LTE	-9802
▁종로	-9803
▁김두	-9804
▁신상	-9805
▁고립	-9806
▁제너	-9807
▁카인	-9808
▁결과물	-9809
ins	-9810
▁젝	-9811
▁브레스	-9812
▁콰	-9813
▁갈라지	-9814
▁한정판	-9815
▁깨우	-9816
▁제자리	-9817
ange	-9818
ator	-9819
▁1976	-9820
▁재질	-9821
▁투사	-9822
▁카렌	-9823
▁레귤	-9824
▁유비트	-9825
시티	-9826
▁132	-9827
▁조항	-9828
▁핑계	-9829
▁know	-9830
▁갸	-9831
보라	-9832
▁손목	-9833
▁out	-9834
▁팩션	-9835
셉트	-9836
▁꾀	-9837
▁아인	-9838
▁무식	-9839
▁솔직히	-9840
빨리	-9841
▁정의당	-9842
▁팬티	-9843
▁거꾸	-9844
▁Sun	-9845
▁약칭	-9846
▁포도	-9847
▁볼드	-9848
▁소꿉친구	-9849
고사	-9850
▁이세	-9851
▁피드	-9852
▁set	-9853
▁신조	-9854
▁극악	-9855
▁트랜스포	-9856
▁야망	-9857
▁김구	-9858
▁표기법	-9859
▁pr	-9860
▁멘붕	-9861
▁분배	-9862
▁DI	-9863
▁두루	-9864
▁군데	-9865
은이	-9866
▁제주도	-9867
▁로제	-9868
▁페이크	-9869
▁숙청	-9870
▁리셋	-9871
▁감기	-9872
퍼니	-9873
▁테르	-9874
▁캔디	-9875
▁바나나	-9876
▁긋	-9877
▁발전소	-9878
▁병종	-9879
▁후반전	-9880
▁쫓기	-9881
▁미트	-9882
▁feat	-9883
▁채찍	-9884
▁카테고리	-9885
▁노하	-9886
▁결의	-9887
▁자포	-9888
▁연간	-9889
▁로그인	-9890
▁럭키	-9891
▁TP	-9892
▁1972	-9893
▁보복	-9894
▁상부	-9895
▁하지메	-9896
▁세츠	-9897
▁그랑프리	-9898
▁수확	-9899
▁일산	-9900
▁슬슬	-9901
▁츤데레	-9902
▁MO	-9903
▁158	-9904
▁여주인공	-9905
▁IV	-9906
▁내면	-9907
▁몰아넣	-9908
▁페미니즘	-9909
긋나	-9910
▁수영복	-9911
▁해고	-9912
▁테이프	-9913
▁빈약	-9914
▁난민	-9915
▁내뱉	-9916
▁선봉	-9917
19	-9918
▁근로	-9919
▁서치	-9920
▁230	-9921
▁쑤	-9922
▁개판	-9923
레이크	-9924
▁재벌	-9925
▁폐선	-9926
무이	-9927
▁메디	-9928
▁해전	-9929
▁구독자	-9930
▁산소	-9931
▁교훈	-9932
고속도로	-9933
▁종전	-9934
▁탁월	-9935
▁프롤로그	-9936
▁미도리	-9937
▁니코니코	-9938
▁바이킹	-9939
▁HS	-9940
▁지미	-9941
▁1977	-9942
▁강탈	-9943
▁겨루	-9944
▁퉁	-9945
▁자카	-9946
▁High	-9947
▁도사	-9948
▁제조사	-9949
▁레귤러	-9950
▁인트	-9951
▁콧	-9952
▁르노	-9953
▁구호	-9954
▁무궁	-9955
▁Light	-9956
▁정준	-9957
처럼	-9958
▁프로그래	-9959
▁일조	-9960
▁오딘	-9961
▁밀어붙이	-9962
▁쿠바	-9963
ME	-9964
▁TE	-9965
▁사각	-9966
▁메세지	-9967
▁쥰	-9968
▁응답	-9969
▁최하	-9970
▁172	-9971
▁반기	-9972
▁자작	-9973
▁중급	-9974
▁마가	-9975
▁IP	-9976
▁리뉴	-9977
▁가설	-9978
▁제인	-9979
▁로렌	-9980
▁초점	-9981
▁GD	-9982
▁야마모토	-9983
▁환호	-9984
▁충남	-9985
▁치바	-9986
▁수여	-9987
▁앨런	-9988
사스	-9989
che	-9990
▁접전	-9991
▁스케줄	-9992
▁이니	-9993
▁키드	-9994
▁껍질	-9995
▁진로	-9996
ㄴㅡㄴㄷㅔ	-9997
▁거꾸로	-9998
▁스나	-9999
천사	-10000
▁관료	-10001
▁대명	-10002
▁스바루	-10003
민주당	-10004
▁힌트	-10005
▁카이사	-10006
▁표하	-10007
▁프랭크	-10008
활약	-10009
▁개막전	-10010
▁컴퍼니	-10011
▁133	-10012
▁LOVE	-10013
▁내정	-10014
▁순천	-10015
▁지배자	-10016
▁태미	-10017
▁쳐다보	-10018
▁주식회사	-10019
▁덴마크	-10020
▁소비자	-10021
▁임진	-10022
▁얼터	-10023
▁필두	-10024
▁재림	-10025
▁줄기	-10026
▁정조	-10027
▁테레	-10028
▁무신	-10029
상가	-10030
▁냉기	-10031
▁인텔	-10032
▁뚝	-10033
▁이점	-10034
▁박쥐	-10035
돌프	-10036
▁Your	-10037
▁캐슬	-10038
▁NEW	-10039
▁실바	-10040
▁유라	-10041
▁Tw	-10042
▁대등	-10043
덕션	-10044
▁방벽	-10045
▁148	-10046
키스	-10047
▁도스	-10048
▁신념	-10049
▁강서	-10050
▁조던	-10051
▁구청	-10052
▁깡패	-10053
▁아폴	-10054
▁플리	-10055
▁때려잡	-10056
▁파괴력	-10057
▁랜스	-10058
▁릴리스	-10059
▁트러	-10060
▁진짜로	-10061
▁댐	-10062
▁혹평	-10063
▁la	-10064
▁유능	-10065
▁179	-10066
▁%.	-10067
▁라시	-10068
▁Mr	-10069
▁박종	-10070
▁일컫	-10071
▁제작비	-10072
지사	-10073
▁섭취	-10074
▁OF	-10075
▁공국	-10076
ica	-10077
▁바인	-10078
▁매지	-10079
▁존슨	-10080
▁여장	-10081
▁차분	-10082
▁득실	-10083
▁앵커	-10084
▁망설이	-10085
▁저스티스	-10086
산역	-10087
▁감금	-10088
▁찰나	-10089
▁펭귄	-10090
▁노르웨이	-10091
▁수성	-10092
▁ㅇㅜㅁ	-10093
▁최정	-10094
▁베어	-10095
▁애쉬	-10096
▁다저스	-10097
▁무색	-10098
▁피난	-10099
▁보트	-10100
▁양심	-10101
▁스톡	-10102
▁지붕	-10103
▁황태	-10104
▁기술력	-10105
IK	-10106
▁트랜스포머	-10107
▁이만	-10108
▁Gen	-10109
제스	-10110
▁망상	-10111
▁팀장	-10112
▁메구미	-10113
▁라우	-10114
▁헐크	-10115
▁다녀오	-10116
▁지성	-10117
세서리	-10118
▁고질	-10119
▁연달	-10120
▁소노	-10121
▁아비	-10122
▁따내	-10123
▁후쿠오카	-10124
▁레슬러	-10125
▁Mi	-10126
▁교시	-10127
▁순찰	-10128
▁GTA	-10129
▁렀	-10130
▁호응	-10131
▁객관	-10132
▁리터	-10133
▁꿇	-10134
▁두근	-10135
▁라이센스	-10136
박이	-10137
▁립스	-10138
▁샤오	-10139
▁모스크바	-10140
▁배후	-10141
▁포니	-10142
▁로맨스	-10143
▁이순신	-10144
ex	-10145
▁파랑	-10146
▁급속	-10147
▁신학	-10148
▁스팅	-10149
▁조력	-10150
▁156	-10151
▁사내	-10152
▁Par	-10153
▁능숙	-10154
▁윈터	-10155
▁미끼	-10156
리칸	-10157
▁장갑차	-10158
▁Em	-10159
생기	-10160
▁과감	-10161
교통	-10162
▁망명	-10163
▁찌질	-10164
▁오른팔	-10165
▁154	-10166
FL	-10167
메라	-10168
▁복도	-10169
▁탐구	-10170
▁사나이	-10171
▁심히	-10172
▁명대사	-10173
▁철갑탄	-10174
차리	-10175
▁표창	-10176
▁HARD	-10177
▁진흥	-10178
▁세례	-10179
▁섹시	-10180
▁안동	-10181
▁제대	-10182
▁어벤져스	-10183
▁교육청	-10184
▁풍경	-10185
▁시조	-10186
▁노래방	-10187
▁드로	-10188
▁격퇴	-10189
▁출제	-10190
▁176	-10191
▁히나타	-10192
▁음향	-10193
▁여수	-10194
HT	-10195
▁미숙	-10196
▁초코	-10197
▁OCG	-10198
▁두뇌	-10199
▁222	-10200
▁호무	-10201
▁ar	-10202
▁미모	-10203
▁슈가	-10204
▁공립	-10205
▁레슬링	-10206
사고	-10207
▁성벽	-10208
▁159	-10209
▁am	-10210
▁재즈	-10211
▁치마	-10212
▁잠그	-10213
▁파우	-10214
▁MK	-10215
▁밧	-10216
▁사일	-10217
▁꼼수	-10218
▁능하	-10219
▁뒤쪽	-10220
▁염두	-10221
▁129	-10222
▁u	-10223
▁케리건	-10224
▁AE	-10225
▁사지	-10226
▁1971	-10227
▁173	-10228
▁생태	-10229
▁종말	-10230
▁남양	-10231
▁장시	-10232
날두	-10233
▁냉동	-10234
▁맹활약	-10235
▁바닷	-10236
▁사소	-10237
▁호날두	-10238
▁동이	-10239
▁른	-10240
CH	-10241
▁미호	-10242
▁벨라	-10243
▁FPS	-10244
▁핀란드	-10245
▁반론	-10246
▁쳐들어오	-10247
▁명탐정	-10248
▁블랙홀	-10249
▁기행	-10250
▁사르	-10251
▁제지	-10252
▁중후	-10253
▁노골	-10254
▁게르	-10255
▁현직	-10256
클린	-10257
▁비참	-10258
▁꾸리	-10259
▁발발	-10260
퀘어	-10261
▁발탁	-10262
▁호구	-10263
▁오리온	-10264
티지	-10265
▁계곡	-10266
▁에그	-10267
▁착지	-10268
▁전반기	-10269
▁불리우	-10270
▁153	-10271
▁응시	-10272
UT	-10273
▁Kn	-10274
▁미세	-10275
▁PL	-10276
▁통틀어	-10277
바스	-10278
▁캘리포	-10279
▁앞세우	-10280
▁프로덕션	-10281
▁성폭	-10282
▁레오나	-10283
▁맞물	-10284
▁폐허	-10285
▁청하	-10286
▁세키	-10287
▁텍사스	-10288
▁ll	-10289
▁전학	-10290
pr	-10291
▁전임	-10292
멘터리	-10293
▁가마	-10294
어붙	-10295
▁137	-10296
▁나카무라	-10297
▁대목	-10298
▁Of	-10299
▁죠죠	-10300
▁사천왕	-10301
▁에메랄드	-10302
▁죄수	-10303
▁코프	-10304
▁고음	-10305
▁천문	-10306
▁분쇄	-10307
▁리우스	-10308
▁가라앉	-10309
▁배신자	-10310
▁진술	-10311
▁안드레	-10312
eep	-10313
▁세일러	-10314
▁화석	-10315
▁샹	-10316
▁비꼬	-10317
▁쫓아내	-10318
▁전도	-10319
▁시뮬레이션	-10320
▁캘리포니아	-10321
▁오락실	-10322
▁나란히	-10323
▁질풍	-10324
▁GHz	-10325
▁사가	-10326
▁통보	-10327
▁굳히	-10328
▁혼인	-10329
슬링	-10330
▁아니하	-10331
▁문화재	-10332
▁수하	-10333
▁파이프	-10334
▁토막	-10335
▁Ro	-10336
▁유타	-10337
▁래스터	-10338
▁책상	-10339
les	-10340
▁러닝	-10341
타니	-10342
▁엄폐	-10343
▁에필	-10344
▁에필로그	-10345
▁우산	-10346
▁알아차리	-10347
▁남한	-10348
▁로스터	-10349
▁테러리	-10350
▁혼다	-10351
▁목포	-10352
▁인플	-10353
▁테오	-10354
▁무너	-10355
▁무너뜨리	-10356
▁말소	-10357
▁꽁	-10358
▁범하	-10359
▁280	-10360
▁굴러	-10361
▁책략	-10362
▁무단	-10363
▁총선거	-10364
▁대교	-10365
▁지각	-10366
▁유니콘	-10367
▁발렌타인	-10368
▁영등	-10369
▁선포	-10370
▁오쿠	-10371
구나	-10372
▁모기	-10373
▁드리블	-10374
▁174	-10375
▁was	-10376
▁Per	-10377
▁225	-10378
▁요코하마	-10379
▁절정	-10380
▁호스	-10381
▁BM	-10382
▁로열	-10383
▁믿음	-10384
▁신주	-10385
▁ㄹㅏㄱ	-10386
▁달래	-10387
▁이광	-10388
▁대안	-10389
▁서울시	-10390
▁다큐멘터리	-10391
▁교정	-10392
▁GPU	-10393
▁1969	-10394
▁잔해	-10395
▁빅토리아	-10396
▁맞대	-10397
▁이행	-10398
▁139	-10399
▁로테이션	-10400
▁엣지	-10401
▁월요일	-10402
▁슬램	-10403
▁예방	-10404
▁청룡	-10405
▁Heart	-10406
지않	-10407
▁163	-10408
▁143	-10409
▁카즈야	-10410
▁델타	-10411
▁134	-10412
▁스탈린	-10413
▁167	-10414
▁불문	-10415
플러스	-10416
▁멋있	-10417
▁악곡	-10418
▁마신	-10419
하여	-10420
▁Fe	-10421
▁얼어붙	-10422
▁미식	-10423
볼루션	-10424
▁레바	-10425
▁풀려나	-10426
▁신세계	-10427
▁중공	-10428
▁~~	-10429
▁하의	-10430
▁의아	-10431
▁토가	-10432
▁먼지	-10433
▁아랑	-10434
더기	-10435
▁CO	-10436
▁Good	-10437
▁오바	-10438
▁분포	-10439
▁TO	-10440
▁버터	-10441
▁심연	-10442
▁스페인어	-10443
▁숭배	-10444
▁스텔라	-10445
▁함성	-10446
▁단의	-10447
▁해상도	-10448
▁상장	-10449
▁격하	-10450
▁142	-10451
▁투성이	-10452
▁저거	-10453
총장	-10454
}}	-10455
▁주파	-10456
▁처녀	-10457
컨드	-10458
▁beat	-10459
▁오타쿠	-10460
▁세컨드	-10461
▁스파이크	-10462
▁열기	-10463
▁골치	-10464
▁전광	-10465
▁2500	-10466
▁청사	-10467
▁왕관	-10468
▁기쁨	-10469
▁루루	-10470
▁이준	-10471
▁최대치	-10472
▁총사	-10473
▁김도	-10474
▁로지	-10475
▁나사	-10476
▁퍼시	-10477
▁블라디	-10478
▁두목	-10479
반신	-10480
▁CN	-10481
▁골목	-10482
agon	-10483
▁발하	-10484
▁ㄷㅣ	-10485
▁누이	-10486
▁애쓰	-10487
EL	-10488
ert	-10489
▁땀	-10490
▁짤리	-10491
▁깽	-10492
▁배리어	-10493
▁면접	-10494
▁히카리	-10495
▁164	-10496
▁필라	-10497
▁십자군	-10498
▁야당	-10499
▁퓨처	-10500
▁What	-10501
▁물어보	-10502
▁진하	-10503
▁쓸데없이	-10504
▁보디	-10505
▁yout	-10506
▁스윕	-10507
▁항공사	-10508
▁국기	-10509
▁관광객	-10510
아슬	-10511
▁아슬아슬	-10512
▁우투	-10513
▁추모	-10514
▁건너가	-10515
▁인사이드	-10516
▁ㅡ	-10517
에몽	-10518
▁태권	-10519
▁가로막	-10520
▁드레드	-10521
▁네스	-10522
▁해태	-10523
▁ONE	-10524
▁인구수	-10525
▁화약	-10526
▁김천	-10527
▁직통	-10528
▁미유키	-10529
공화	-10530
▁따라잡	-10531
▁심야	-10532
▁트레이닝	-10533
▁뉴질	-10534
▁뉴질랜드	-10535
▁무안	-10536
▁스트로	-10537
▁연기력	-10538
▁하우	-10539
▁맞물리	-10540
▁136	-10541
▁하후	-10542
▁Dark	-10543
▁pro	-10544
▁유나	-10545
▁벚꽃	-10546
▁청장	-10547
부인	-10548
▁스토커	-10549
▁킹덤	-10550
▁부처	-10551
▁용의자	-10552
▁왕후	-10553
▁홍성	-10554
▁선수단	-10555
▁끓이	-10556
▁전수	-10557
▁야마다	-10558
▁리부트	-10559
▁패닉	-10560
▁기소	-10561
ㄴㅕ	-10562
백과	-10563
▁음색	-10564
▁선인	-10565
▁콘셉트	-10566
▁기이	-10567
▁바닐라	-10568
▁원망	-10569
▁라임	-10570
▁0900	-10571
▁마의	-10572
▁실로	-10573
▁제단	-10574
▁회로	-10575
▁거르	-10576
▁반란군	-10577
▁관계없이	-10578
▁극우	-10579
▁끝장	-10580
프란	-10581
▁비로	-10582
▁로브	-10583
▁오프라인	-10584
▁완구	-10585
▁개그맨	-10586
▁공고	-10587
▁김연	-10588
▁경찰청	-10589
▁동아시아	-10590
▁time	-10591
▁야전	-10592
▁일환	-10593
▁적립	-10594
ㄴㅕㅇ	-10595
ideo	-10596
▁페르시아	-10597
▁달라	-10598
▁틀어	-10599
▁157	-10600
▁조준경	-10601
▁KC	-10602
좀무	-10603
▁구제	-10604
▁이인	-10605
▁흠좀무	-10606
▁330	-10607
▁모던	-10608
▁직격	-10609
▁불쾌	-10610
▁패스트	-10611
▁뱉	-10612
▁화소	-10613
▁동사	-10614
▁안철수	-10615
립트	-10616
무게	-10617
▁몸무게	-10618
레이트	-10619
▁사범	-10620
▁텀	-10621
▁메이트	-10622
▁유고	-10623
▁퍼붓	-10624
▁랙	-10625
▁서장	-10626
▁징크스	-10627
▁Sm	-10628
▁템포	-10629
▁Sl	-10630
▁아이스크림	-10631
▁궁전	-10632
▁출고	-10633
무실	-10634
▁방안	-10635
▁쓰러트리	-10636
▁유해	-10637
▁중심지	-10638
▁세미	-10639
▁미라이	-10640
▁뮤지션	-10641
려보	-10642
던지	-10643
티넘	-10644
▁훈훈	-10645
▁플래티넘	-10646
지오	-10647
▁혼동	-10648
ors	-10649
▁숙주	-10650
▁제이슨	-10651
▁카니	-10652
▁어긋나	-10653
▁유선	-10654
▁한층	-10655
▁라바	-10656
other	-10657
▁번갈	-10658
디스	-10659
▁그제	-10660
▁1963	-10661
▁중년	-10662
air	-10663
▁Blue	-10664
▁지극	-10665
▁순정	-10666
▁자부	-10667
▁모양새	-10668
▁270	-10669
▁에일리	-10670
▁알렉산더	-10671
▁연의	-10672
▁우천	-10673
▁연금술사	-10674
▁악령	-10675
▁Baby	-10676
▁어린아이	-10677
▁하카	-10678
▁제우스	-10679
▁경지	-10680
land	-10681
▁Ac	-10682
▁양대	-10683
▁창립	-10684
▁깃들	-10685
▁ab	-10686
▁시흥	-10687
▁체격	-10688
▁코즈	-10689
▁브이	-10690
▁호박	-10691
▁레프	-10692
▁설탕	-10693
▁타고	-10694
▁AG	-10695
▁방호	-10696
anna	-10697
▁휴스턴	-10698
▁대중교통	-10699
▁갈리아	-10700
▁패드	-10701
iew	-10702
▁문신	-10703
▁쫓아가	-10704
▁안토니	-10705
▁워너	-10706
▁외관	-10707
▁주한	-10708
▁근력	-10709
▁유코	-10710
▁술집	-10711
▁집필	-10712
▁사투리	-10713
▁전라북도	-10714
▁출연진	-10715
▁1968	-10716
▁클라우드	-10717
▁내뿜	-10718
▁ㅇㅠ	-10719
▁타다	-10720
▁오키나	-10721
▁핸드폰	-10722
▁플라스틱	-10723
▁박상	-10724
▁스케이	-10725
▁성숙	-10726
▁대진	-10727
▁앞뒤	-10728
▁열세	-10729
▁저조	-10730
▁환사	-10731
애나	-10732
▁깨알	-10733
ush	-10734
풀이	-10735
▁샤를	-10736
▁브루스	-10737
▁본의	-10738
▁하이브리	-10739
▁침해	-10740
▁미티	-10741
▁우상	-10742
▁투신	-10743
▁하이브리드	-10744
▁히로시마	-10745
▁나뭇	-10746
▁고자	-10747
▁신수	-10748
▁참으로	-10749
▁정서	-10750
ㄴㄷㅏㄴ	-10751
▁미니언	-10752
▁장례식	-10753
▁하시	-10754
▁눈빛	-10755
▁제프	-10756
▁Li	-10757
▁브론즈	-10758
▁149	-10759
▁브레인	-10760
▁좌파	-10761
▁후루	-10762
▁선교	-10763
▁꿰뚫	-10764
▁농민	-10765
▁테러리스트	-10766
▁외면	-10767
▁벌금	-10768
▁테루	-10769
▁동호	-10770
▁해독	-10771
▁샤워	-10772
▁죄송	-10773
▁제사	-10774
▁집합	-10775
▁타당	-10776
▁멜론	-10777
▁센트럴	-10778
▁방언	-10779
▁도시락	-10780
▁Fire	-10781
▁악하	-10782
▁146	-10783
▁저러	-10784
▁줄리	-10785
▁공영	-10786
▁후쿠시마	-10787
▁허브	-10788
토리얼	-10789
▁세스	-10790
▁오비	-10791
▁전열	-10792
▁청나라	-10793
▁브레이브	-10794
카미	-10795
▁사탄	-10796
▁로라	-10797
▁튜토리얼	-10798
▁마켓	-10799
▁경제학	-10800
▁공모	-10801
▁무수	-10802
▁수시로	-10803
OID	-10804
▁희대	-10805
▁260	-10806
▁종착	-10807
▁오리진	-10808
▁장풍	-10809
▁총독	-10810
▁적성	-10811
▁El	-10812
▁체스	-10813
▁이아	-10814
▁부사관	-10815
na	-10816
▁냅	-10817
▁기피	-10818
▁크롤	-10819
▁각국	-10820
▁트러블	-10821
▁모어	-10822
▁프렌즈	-10823
▁Dis	-10824
▁BEMAN	-10825
▁김대중	-10826
▁취지	-10827
▁전반전	-10828
▁담임	-10829
▁심상	-10830
▁프로토타입	-10831
▁푹	-10832
▁일레븐	-10833
▁조교	-10834
▁암컷	-10835
▁OK	-10836
▁강세	-10837
▁기하	-10838
▁남미	-10839
▁자칫	-10840
▁기함	-10841
▁환수	-10842
▁초교	-10843
▁마초	-10844
▁격전	-10845
▁DJMAX	-10846
▁경과	-10847
▁지문	-10848
▁황실	-10849
▁하비	-10850
▁리액	-10851
▁상쇄	-10852
▁베일	-10853
▁BEMANI	-10854
▁넉넉	-10855
▁미스터리	-10856
▁거품	-10857
▁프로모	-10858
▁마테	-10859
▁모함	-10860
▁아르카	-10861
▁낡	-10862
르도	-10863
▁헤일	-10864
▁방공	-10865
▁라프	-10866
▁소사	-10867
▁연회	-10868
▁sm	-10869
▁Champ	-10870
▁되살리	-10871
▁쳐내	-10872
▁더구나	-10873
▁원자력	-10874
▁초상화	-10875
▁몰아붙이	-10876
▁유니온	-10877
ady	-10878
▁확고	-10879
▁가혹	-10880
▁인체	-10881
▁타카시	-10882
▁럴	-10883
▁일품	-10884
▁줌	-10885
두사	-10886
▁성비	-10887
▁심화	-10888
▁주의자	-10889
▁다이노스	-10890
▁섹스	-10891
▁장동	-10892
▁별칭	-10893
▁개미	-10894
▁저희	-10895
전트	-10896
글라스	-10897
▁STR	-10898
▁루키	-10899
▁웨인	-10900
▁페이커	-10901
▁속력	-10902
▁문법	-10903
▁fl	-10904
▁도검	-10905
▁적재	-10906
▁방화	-10907
▁켄지	-10908
▁밀어주	-10909
▁미즈키	-10910
▁하여금	-10911
▁오의	-10912
▁고추	-10913
▁수량	-10914
▁월등	-10915
단지	-10916
▁성기	-10917
▁핸들	-10918
▁상공	-10919
레드	-10920
▁실력자	-10921
▁격기	-10922
ution	-10923
나리	-10924
▁파격	-10925
▁쎄	-10926
▁랩터	-10927
▁무선	-10928
▁Pre	-10929
▁하반기	-10930
▁데스티니	-10931
▁고성	-10932
▁빈틈	-10933
▁kr	-10934
더링	-10935
▁Ev	-10936
▁명명	-10937
▁브랜	-10938
▁석상	-10939
▁찰리	-10940
▁레이너	-10941
▁클러	-10942
▁연말	-10943
▁지난	-10944
▁병장	-10945
▁북구	-10946
▁중학생	-10947
▁뒷면	-10948
▁일삼	-10949
▁우편	-10950
▁속공	-10951
베트	-10952
레슬링	-10953
▁스트리밍	-10954
▁합법	-10955
▁205	-10956
▁운반	-10957
▁주가	-10958
▁프랜차	-10959
▁므	-10960
▁cc	-10961
▁맥락	-10962
토랑	-10963
티노	-10964
▁공손	-10965
▁슈터	-10966
▁레스토랑	-10967
▁생선	-10968
▁포워드	-10969
▁야만	-10970
▁프로레슬링	-10971
구역	-10972
▁통행	-10973
ium	-10974
▁평창	-10975
▁유승	-10976
▁파손	-10977
▁선곡	-10978
▁신병	-10979
▁퇴역	-10980
▁DB	-10981
▁배우자	-10982
▁피카츄	-10983
▁단식	-10984
▁프랜차이즈	-10985
▁Summer	-10986
앙스	-10987
▁오세	-10988
▁550	-10989
▁말년	-10990
▁자질	-10991
저드	-10992
▁소령	-10993
▁1967	-10994
▁수령	-10995
▁유유	-10996
▁타나카	-10997
▁Grand	-10998
▁앞면	-10999
▁본가	-11000
▁수컷	-11001
▁추출	-11002
▁매기	-11003
▁말아먹	-11004
▁RP	-11005
▁빈번	-11006
▁솜씨	-11007
▁탯이	-11008
▁아메리칸	-11009
메어	-11010
▁쐐	-11011
▁가브리	-11012
▁편견	-11013
▁하라	-11014
▁앤디	-11015
▁프리즘	-11016
▁석사	-11017
▁클립	-11018
▁독립운동	-11019
넘기	-11020
▁박용	-11021
▁발차기	-11022
▁박명수	-11023
▁뚜껑	-11024
▁Rock	-11025
사벽	-11026
석민	-11027
▁넘사벽	-11028
▁맴	-11029
▁정재	-11030
▁뉘앙스	-11031
▁하와	-11032
▁호출	-11033
▁디비전	-11034
▁불화	-11035
▁나레이션	-11036
▁주고	-11037
▁블래	-11038
▁격리	-11039
▁운석	-11040
▁부친	-11041
▁강점기	-11042
▁당국	-11043
▁리바운드	-11044
▁정체불명	-11045
▁다면	-11046
와라	-11047
▁원작자	-11048
▁미로	-11049
▁211	-11050
▁뽐	-11051
▁져	-11052
▁애국	-11053
▁질환	-11054
치아	-11055
▁전염	-11056
▁147	-11057
▁나이트메어	-11058
엘라	-11059
▁부관	-11060
▁나열	-11061
▁노블	-11062
리드	-11063
▁게임즈	-11064
▁경질	-11065
▁츠바사	-11066
▁총평	-11067
▁광전사	-11068
▁신임	-11069
듈럼	-11070
▁대승	-11071
▁우체	-11072
미르	-11073
더슨	-11074
▁니나	-11075
▁오시	-11076
▁Over	-11077
▁정형	-11078
▁원흉	-11079
▁내셔널	-11080
▁일례	-11081
▁자각	-11082
▁플레어	-11083
▁하드웨어	-11084
▁증인	-11085
gain	-11086
▁우파	-11087
퍼드	-11088
▁미들	-11089
▁잊어버리	-11090
▁무죄	-11091
스틴	-11092
▁back	-11093
▁간호사	-11094
▁토마토	-11095
▁메우	-11096
▁넥서스	-11097
모어	-11098
▁동년	-11099
▁복면	-11100
▁SCP	-11101
▁은메달	-11102
▁교통사고	-11103
▁특이점	-11104
▁미팅	-11105
▁브라우	-11106
▁페인	-11107
▁네코	-11108
▁우가	-11109
▁GG	-11110
▁조그	-11111
▁펜듈럼	-11112
▁배속	-11113
▁재빨리	-11114
▁Dance	-11115
▁콕	-11116
현우	-11117
▁day	-11118
▁퓨어	-11119
▁퓨리	-11120
▁수수료	-11121
평가	-11122
▁유신	-11123
▁무명	-11124
▁코지	-11125
▁말레이시아	-11126
▁LED	-11127
▁드릴	-11128
ction	-11129
▁몹시	-11130
▁아이폰	-11131
▁원종	-11132
▁호노	-11133
▁가의	-11134
▁범행	-11135
▁체형	-11136
▁메모	-11137
▁포식	-11138
▁게시물	-11139
▁DR	-11140
▁입국	-11141
▁VOC	-11142
▁실루	-11143
▁별자리	-11144
▁여관	-11145
▁유무	-11146
고래	-11147
▁이방	-11148
▁탄탄	-11149
▁감전	-11150
▁개개	-11151
▁This	-11152
▁만루	-11153
▁영등포	-11154
▁줄어드	-11155
▁버릇	-11156
▁무고	-11157
▁now	-11158
▁힐링	-11159
▁대외	-11160
▁더하	-11161
▁인어	-11162
노스케	-11163
▁재활	-11164
▁옌	-11165
통수	-11166
▁십자가	-11167
▁방과	-11168
▁공습	-11169
▁전례	-11170
▁타고나	-11171
ne	-11172
▁저것	-11173
▁리키	-11174
▁싣	-11175
▁픽셀	-11176
irst	-11177
▁파문	-11178
▁텅	-11179
▁군림	-11180
▁염색	-11181
▁전두	-11182
▁But	-11183
▁Gold	-11184
▁동등	-11185
▁푼	-11186
▁아래쪽	-11187
▁광속	-11188
▁SL	-11189
▁사슴	-11190
▁관절	-11191
▁3164	-11192
▁Wii	-11193
▁경순	-11194
▁그리드	-11195
▁함재기	-11196
츠카	-11197
▁미스트	-11198
▁살인마	-11199
▁에바	-11200
▁내구력	-11201
▁한강	-11202
▁폴리스	-11203
▁멀리서	-11204
▁홀딩	-11205
▁속박	-11206
▁보구	-11207
▁유마	-11208
▁통수	-11209
트랙	-11210
▁하행	-11211
▁알렉산드	-11212
▁이창	-11213
▁Ste	-11214
▁발라드	-11215
▁상행	-11216
▁속편	-11217
▁무제한	-11218
ount	-11219
▁오디오	-11220
▁동북	-11221
▁쫓아오	-11222
▁강팀	-11223
파리	-11224
▁사교	-11225
▁온몸	-11226
▁HG	-11227
▁배송	-11228
▁박찬	-11229
▁교내	-11230
▁박재	-11231
▁증가량	-11232
▁떄	-11233
▁캐스트	-11234
▁권능	-11235
▁박영	-11236
▁노트북	-11237
결승	-11238
▁제보	-11239
▁호투	-11240
▁카우	-11241
▁뭔	-11242
▁진도	-11243
▁시초	-11244
▁잖	-11245
▁ㅅㅜ	-11246
▁루팡	-11247
▁공천	-11248
▁점사	-11249
▁여배우	-11250
▁대패	-11251
▁해적단	-11252
▁미수	-11253
▁목재	-11254
▁격침	-11255
▁DX	-11256
▁직속	-11257
▁FL	-11258
▁동메달	-11259
▁Just	-11260
▁륙	-11261
▁자격증	-11262
▁기괴	-11263
▁라파	-11264
▁HK	-11265
기사	-11266
자동	-11267
let	-11268
ring	-11269
▁스퀘어	-11270
▁대군	-11271
▁길거리	-11272
▁발현	-11273
▁빌보드	-11274
▁무슬	-11275
▁별점	-11276
▁교양	-11277
▁심문	-11278
▁성직자	-11279
▁왕좌	-11280
▁가창	-11281
▁보행	-11282
▁노비	-11283
▁통증	-11284
▁타치바나	-11285
▁성수	-11286
▁채취	-11287
▁격투기	-11288
▁새우	-11289
▁요리사	-11290
▁아까	-11291
콥터	-11292
▁우물	-11293
eng	-11294
▁밀치	-11295
▁박탈	-11296
▁204	-11297
▁클레이	-11298
▁둥글	-11299
▁창세	-11300
▁단말	-11301
▁1966	-11302
▁쇼트	-11303
▁호그	-11304
▁국민당	-11305
▁안드로	-11306
▁어느새	-11307
▁MSL	-11308
DS	-11309
▁추궁	-11310
▁기획사	-11311
▁스네이크	-11312
▁pt	-11313
▁대공포	-11314
▁서두르	-11315
▁리엘	-11316
▁쫄	-11317
▁첫날	-11318
▁셋째	-11319
▁지온	-11320
▁멸종	-11321
▁166	-11322
느님	-11323
▁가성	-11324
▁화내	-11325
▁회복력	-11326
레일	-11327
▁방송인	-11328
▁샌프란	-11329
▁샌프란시스코	-11330
▁남발	-11331
줌마	-11332
▁TW	-11333
▁동문	-11334
▁프로모션	-11335
▁번식	-11336
▁혼합	-11337
▁독수리	-11338
▁무사시	-11339
▁스킵	-11340
플렉스	-11341
▁레이첼	-11342
▁미사키	-11343
무네	-11344
▁지지자	-11345
박히	-11346
▁줄줄	-11347
▁news	-11348
▁VOCAL	-11349
▁Korea	-11350
▁오키나와	-11351
▁아줌마	-11352
▁털어놓	-11353
▁크리스토	-11354
산동	-11355
▁동로	-11356
▁달라붙	-11357
▁사우루스	-11358
▁손톱	-11359
▁대쉬	-11360
▁하느님	-11361
▁CA	-11362
▁구타	-11363
▁수강	-11364
▁여친	-11365
▁책정	-11366
▁Can	-11367
▁닉스	-11368
▁리턴	-11369
▁코바야시	-11370
▁무슬림	-11371
▁머릿	-11372
▁명곡	-11373
▁비즈	-11374
▁기합	-11375
▁불평	-11376
▁일일이	-11377
▁증발	-11378
▁경감	-11379
▁DNA	-11380
어쓰	-11381
현진	-11382
▁진구	-11383
▁스크립트	-11384
두리	-11385
▁다이스케	-11386
▁뒤통수	-11387
▁카구라	-11388
저것	-11389
▁이것저것	-11390
▁사모	-11391
ina	-11392
▁사망자	-11393
▁인천광역시	-11394
파크	-11395
▁회견	-11396
▁직무	-11397
▁뷔	-11398
▁도라에몽	-11399
▁슬로우	-11400
▁농락	-11401
▁물가	-11402
▁삼촌	-11403
▁괴력	-11404
스트림	-11405
▁친목	-11406
▁어설프	-11407
▁공존	-11408
▁제스	-11409
▁롤링	-11410
ERO	-11411
▁커트	-11412
▁MHz	-11413
▁카이토	-11414
▁셸	-11415
▁단과	-11416
▁연고지	-11417
▁반짝이	-11418
▁악어	-11419
▁누명	-11420
▁주심	-11421
▁인쇄	-11422
▁Sec	-11423
UR	-11424
▁사료	-11425
▁회오리	-11426
▁650	-11427
▁이례	-11428
▁호프	-11429
소수	-11430
▁후대	-11431
▁아카리	-11432
▁회귀	-11433
▁몰아내	-11434
▁좁히	-11435
▁계란	-11436
▁복용	-11437
▁비타	-11438
▁소서	-11439
▁실습	-11440
▁찢어지	-11441
▁미판	-11442
▁정정	-11443
▁현상금	-11444
▁시가	-11445
▁레이트	-11446
자재	-11447
▁포효	-11448
▁KTX	-11449
조합	-11450
▁신정	-11451
▁Music	-11452
▁니카	-11453
▁키트	-11454
▁트렌	-11455
▁기술자	-11456
▁쓸어버리	-11457
▁동조	-11458
메스	-11459
▁타시	-11460
▁At	-11461
▁명나라	-11462
▁네놈	-11463
▁로컬	-11464
ally	-11465
▁카르마	-11466
▁우메	-11467
▁EBS	-11468
▁리플렉	-11469
OO	-11470
▁FB	-11471
▁......	-11472
▁헬리콥터	-11473
▁필터	-11474
▁박치기	-11475
▁프린스	-11476
보그	-11477
▁장원	-11478
▁토이	-11479
▁시부	-11480
▁고조	-11481
▁포대	-11482
▁접어들	-11483
▁광대	-11484
▁분홍색	-11485
▁분장	-11486
▁디렉터	-11487
▁회심	-11488
▁Su	-11489
티콘	-11490
▁김형	-11491
▁로저	-11492
▁박경	-11493
▁휩싸	-11494
프라	-11495
▁김원	-11496
▁돌아보	-11497
▁천마	-11498
▁총열	-11499
▁Ep	-11500
▁진수	-11501
▁파수	-11502
▁브릿	-11503
▁문어	-11504
▁Live	-11505
▁동족	-11506
▁스냅	-11507
▁한숨	-11508
네이터	-11509
▁홍진호	-11510
▁실루엣	-11511
▁듀크	-11512
소문	-11513
▁퐁	-11514
▁이속	-11515
▁GN	-11516
ART	-11517
▁유영	-11518
▁쿠시	-11519
▁미하	-11520
▁경보	-11521
니카	-11522
▁태극	-11523
▁소리치	-11524
▁셉	-11525
▁유난	-11526
▁Comm	-11527
▁부류	-11528
▁루마니아	-11529
▁비로소	-11530
▁박해	-11531
▁텍스	-11532
▁하리	-11533
▁얕	-11534
▁레즈	-11535
▁캐리어	-11536
▁BF	-11537
▁정크	-11538
▁급히	-11539
▁1962	-11540
▁딸기	-11541
▁괴상	-11542
▁춘천	-11543
▁선우	-11544
▁로코	-11545
▁가급	-11546
▁난감	-11547
▁유정	-11548
▁경유지	-11549
ㅋㅓ	-11550
▁빠뜨리	-11551
▁MX	-11552
▁만행	-11553
▁달빛	-11554
▁피스트	-11555
▁아타	-11556
▁케이지	-11557
▁카가미	-11558
▁열람	-11559
▁뽕	-11560
▁공자	-11561
▁갈아타	-11562
▁`	-11563
▁항아리	-11564
▁고토	-11565
▁스완	-11566
젤레스	-11567
바다	-11568
널드	-11569
▁살상	-11570
▁장학	-11571
▁망령	-11572
▁병살타	-11573
▁츠나	-11574
son	-11575
▁바티	-11576
▁요시다	-11577
▁미성년	-11578
▁위키백과	-11579
▁가미	-11580
▁무진	-11581
▁프랑크	-11582
▁어퍼	-11583
▁보살	-11584
▁한발	-11585
▁금색	-11586
▁get	-11587
▁습관	-11588
▁재직	-11589
▁판권	-11590
▁고릴라	-11591
▁서태	-11592
장난	-11593
▁목동	-11594
▁퍼센트	-11595
▁돌격소총	-11596
use	-11597
▁대마	-11598
▁똑똑	-11599
▁키무라	-11600
▁발광	-11601
▁관직	-11602
▁슬퍼	-11603
▁리티	-11604
▁1800	-11605
▁바주	-11606
▁반군	-11607
▁학점	-11608
▁홈즈	-11609
▁김명	-11610
▁감행	-11611
▁암울	-11612
▁코다	-11613
▁주거	-11614
▁레기	-11615
▁소절	-11616
상가상	-11617
▁요시노	-11618
▁설상가상	-11619
▁입양	-11620
▁UF	-11621
▁야외	-11622
▁콜롬	-11623
▁짚	-11624
▁기법	-11625
▁후문	-11626
▁투니	-11627
▁GR	-11628
▁영진	-11629
▁가나	-11630
▁진정하	-11631
▁악의	-11632
▁천공	-11633
▁169	-11634
▁그리하여	-11635
▁섀도	-11636
itch	-11637
▁조직원	-11638
▁해치우	-11639
▁Power	-11640
▁카에	-11641
▁강수	-11642
▁개연	-11643
▁진리	-11644
▁험하	-11645
▁사이보그	-11646
▁저서	-11647
▁Leg	-11648
▁gr	-11649
▁주되	-11650
▁대인배	-11651
▁스퍼	-11652
▁코요	-11653
▁Res	-11654
▁클라이	-11655
▁용감	-11656
▁셰프	-11657
▁천둥	-11658
▁Af	-11659
▁고든	-11660
▁레이나	-11661
▁++	-11662
▁뇌물	-11663
▁진성	-11664
tr	-11665
▁단정	-11666
▁오케스트라	-11667
관총	-11668
attle	-11669
ㅇㅘ	-11670
▁주황색	-11671
inn	-11672
▁구급	-11673
▁Hard	-11674
▁도청	-11675
▁타니	-11676
▁북아	-11677
▁볼텍스	-11678
▁man	-11679
▁에도	-11680
▁바니	-11681
▁연발	-11682
▁경쟁자	-11683
▁디펜스	-11684
▁MR	-11685
▁차용	-11686
▁파벌	-11687
누르	-11688
▁로저스	-11689
▁RC	-11690
▁ARM	-11691
▁똘	-11692
▁라드	-11693
▁산책	-11694
▁실업	-11695
▁양보	-11696
▁끼어들	-11697
▁세탁	-11698
문트	-11699
▁안보	-11700
▁예지	-11701
▁저상	-11702
75	-11703
▁UI	-11704
▁서민	-11705
▁받치	-11706
▁송출	-11707
▁커비	-11708
▁사스케	-11709
▁추적자	-11710
니클	-11711
▁히토미	-11712
▁그랜	-11713
▁빼내	-11714
▁Ma	-11715
▁ADV	-11716
못미	-11717
▁지못미	-11718
▁전산	-11719
▁결사	-11720
▁자판	-11721
▁1940	-11722
▁쿠루	-11723
▁Life	-11724
▁Sing	-11725
쌔신	-11726
▁어쌔신	-11727
▁외롭	-11728
▁잠재력	-11729
▁치사	-11730
▁엘리스	-11731
▁응원가	-11732
일라	-11733
▁귀하	-11734
얼거리	-11735
▁Master	-11736
▁전속	-11737
▁but	-11738
마당	-11739
징어	-11740
▁Che	-11741
▁바그	-11742
▁코이	-11743
▁법안	-11744
▁제원	-11745
▁블래스트	-11746
XT	-11747
▁영남	-11748
▁베이더	-11749
▁마요	-11750
▁접점	-11751
▁단속	-11752
ern	-11753
▁배상	-11754
▁크리스티	-11755
▁돌이	-11756
▁직결	-11757
▁미코토	-11758
▁조력자	-11759
아라	-11760
▁보잉	-11761
▁행방불명	-11762
▁VOCALOID	-11763
▁진행자	-11764
▁경선	-11765
▁꽂히	-11766
TC	-11767
▁카즈마	-11768
ars	-11769
▁넓히	-11770
▁호로	-11771
▁독서	-11772
▁응하	-11773
▁청원	-11774
▁번트	-11775
▁Pv	-11776
▁교관	-11777
▁천주교	-11778
▁나들	-11779
▁수복	-11780
큘라	-11781
▁런닝	-11782
▁어미	-11783
▁배기	-11784
▁장제스	-11785
▁처절	-11786
▁아이유	-11787
▁공과	-11788
▁나들목	-11789
▁Fem	-11790
놀이	-11791
▁리조	-11792
▁워낙에	-11793
▁저렇게	-11794
▁공약	-11795
▁설화	-11796
▁냉각	-11797
▁모닝	-11798
▁수용소	-11799
▁준결승	-11800
▁남작	-11801
asy	-11802
▁준공	-11803
▁Rem	-11804
▁거스르	-11805
▁출루율	-11806
▁출중	-11807
▁여정	-11808
▁쐐기	-11809
▁정확도	-11810
▁월급	-11811
장이	-11812
rain	-11813
▁코파	-11814
▁뷰티	-11815
▁튜닝	-11816
▁카밀	-11817
▁따라다니	-11818
▁co	-11819
▁매너	-11820
▁은혜	-11821
▁피치	-11822
▁우습	-11823
▁탈당	-11824
니스트	-11825
▁충청북도	-11826
▁급기	-11827
▁im	-11828
▁한탄	-11829
▁Out	-11830
▁Lo	-11831
▁카를로스	-11832
IE	-11833
▁마운드	-11834
▁무효화	-11835
UE	-11836
▁열악	-11837
▁ㅋㅋ	-11838
▁혹사	-11839
▁페이트	-11840
규모	-11841
▁휴게소	-11842
▁켈리	-11843
총리	-11844
토르	-11845
▁슬퍼하	-11846
▁편안	-11847
▁닫히	-11848
▁동요	-11849
▁제다이	-11850
▁기복	-11851
▁무르	-11852
▁슬리	-11853
▁키사	-11854
▁화나	-11855
▁채집	-11856
to	-11857
▁갈라	-11858
▁출근	-11859
▁카오리	-11860
▁구두	-11861
▁예언자	-11862
▁증기	-11863
▁""	-11864
24	-11865
▁숙이	-11866
▁더비	-11867
▁노려보	-11868
▁러시아어	-11869
ana	-11870
▁재사	-11871
▁시가지	-11872
▁쪼개	-11873
▁근성	-11874
▁동체	-11875
▁금호	-11876
▁댄서	-11877
▁한도	-11878
▁교향	-11879
▁트리스	-11880
▁망가	-11881
▁미끄	-11882
▁매출액	-11883
▁동탁	-11884
▁네이트	-11885
▁1944	-11886
▁광탈	-11887
▁LCK	-11888
▁훅	-11889
▁득점자	-11890
▁사출	-11891
▁가호	-11892
▁픽업	-11893
▁데우스	-11894
▁리전	-11895
▁박준	-11896
▁포트리스	-11897
▁간선	-11898
cl	-11899
▁151	-11900
▁당첨	-11901
테이	-11902
▁매칭	-11903
▁여권	-11904
▁OPS	-11905
▁실명	-11906
▁1930	-11907
▁문고	-11908
▁선방	-11909
▁지주	-11910
▁자회사	-11911
▁농협	-11912
ield	-11913
▁원활	-11914
▁사당	-11915
▁체리	-11916
▁주고받	-11917
▁호기심	-11918
▁End	-11919
▁부럽	-11920
▁실정	-11921
▁무빙	-11922
▁전두환	-11923
▁제라	-11924
▁궤적	-11925
▁이변	-11926
▁헤매	-11927
▁소매	-11928
▁금화	-11929
▁카노	-11930
▁신칸	-11931
▁전세	-11932
년기	-11933
▁256	-11934
▁토로	-11935
▁999	-11936
▁징징	-11937
▁반대편	-11938
▁OB	-11939
▁카디	-11940
▁고산	-11941
▁포맷	-11942
▁무림	-11943
▁내수	-11944
▁비장	-11945
▁쩔	-11946
▁부흥	-11947
▁노기	-11948
▁이노우	-11949
▁불어	-11950
▁베인	-11951
▁불신	-11952
▁야심	-11953
▁창병	-11954
▁Fi	-11955
▁구단주	-11956
▁상용	-11957
▁형편없	-11958
▁늦추	-11959
▁차후	-11960
▁학술	-11961
▁김두한	-11962
▁인벤토리	-11963
▁시에	-11964
▁농사	-11965
▁초선	-11966
▁부당	-11967
▁숀	-11968
심장	-11969
▁괴리	-11970
▁Hell	-11971
riend	-11972
▁신칸센	-11973
▁뽐내	-11974
▁감히	-11975
▁POP	-11976
▁등교	-11977
▁이은	-11978
▁일어서	-11979
▁중전차	-11980
▁일절	-11981
▁퀄컴	-11982
▁태자	-11983
▁Miss	-11984
▁사안	-11985
코어	-11986
▁매달	-11987
▁열등	-11988
▁성역	-11989
atic	-11990
▁시스터	-11991
▁유방	-11992
무소	-11993
▁동갑	-11994
▁이질	-11995
▁탬	-11996
▁세레	-11997
▁더욱이	-11998
▁1965	-11999
클럽	-12000
▁사극	-12001
▁유난히	-12002
▁법학	-12003
▁저리	-12004
▁Air	-12005
▁자처	-12006
33	-12007
▁교감	-12008
▁모범	-12009
▁친정	-12010
▁야마구치	-12011
▁부호	-12012
▁night	-12013
차례	-12014
▁준하	-12015
▁코타로	-12016
▁팔찌	-12017
▁1964	-12018
▁동지	-12019
▁잔디	-12020
▁순교	-12021
▁서해	-12022
▁배열	-12023
▁충북	-12024
▁향기	-12025
ittle	-12026
▁소시	-12027
▁수식	-12028
▁테일러	-12029
▁김일성	-12030
▁스타팅	-12031
▁지표	-12032
▁숏	-12033
▁허공	-12034
▁군복	-12035
▁SG	-12036
▁sc	-12037
▁세일	-12038
▁PVP	-12039
▁못지않	-12040
▁함포	-12041
▁민정	-12042
▁안성	-12043
LS	-12044
▁목적지	-12045
▁서지	-12046
▁세세	-12047
대기	-12048
▁에일리언	-12049
지부	-12050
▁커먼	-12051
▁포토	-12052
▁리마	-12053
▁확립	-12054
▁아이언맨	-12055
▁교직	-12056
▁클레어	-12057
▁다짐	-12058
▁Hy	-12059
▁6000	-12060
뮤직	-12061
▁깽판	-12062
▁구절	-12063
▁q	-12064
▁아카이	-12065
▁just	-12066
▁Vo	-12067
▁지극히	-12068
▁380	-12069
▁트로이	-12070
▁오징어	-12071
▁타나	-12072
▁영동	-12073
▁서정	-12074
▁음주	-12075
▁카스미	-12076
▁웨어	-12077
▁애교	-12078
▁불로	-12079
▁일본식	-12080
▁정동	-12081
▁신대	-12082
▁Mod	-12083
▁막아	-12084
▁파파	-12085
▁바주카	-12086
▁스캔들	-12087
28	-12088
▁엿보	-12089
▁어리석	-12090
▁보리	-12091
▁센티	-12092
▁빅토르	-12093
▁애시	-12094
▁설비	-12095
마침	-12096
▁랜턴	-12097
▁수험	-12098
▁아홉	-12099
▁Di	-12100
▁VR	-12101
▁액셀	-12102
▁필연	-12103
▁쑥	-12104
▁이용해	-12105
▁이치고	-12106
▁아몬	-12107
▁패미	-12108
▁부대원	-12109
▁밋	-12110
▁가뜩	-12111
▁라틴어	-12112
▁넥슨	-12113
▁콜드	-12114
▁본성	-12115
▁직역	-12116
▁차관	-12117
▁챌린저	-12118
▁역병	-12119
▁자주포	-12120
▁럼블	-12121
▁때마침	-12122
▁신흥	-12123
▁케로	-12124
▁마차	-12125
▁출몰	-12126
▁설계도	-12127
▁고폭탄	-12128
▁Sy	-12129
▁후예	-12130
▁토오루	-12131
▁노엘	-12132
▁바비	-12133
▁샤크	-12134
▁MT	-12135
▁국산	-12136
레스트	-12137
▁볼륨	-12138
▁학번	-12139
▁스타크	-12140
▁로딩	-12141
▁시코	-12142
▁레몬	-12143
▁YOU	-12144
▁예장	-12145
▁가급적	-12146
▁tvN	-12147
▁쏠쏠	-12148
▁억지	-12149
▁일렉트로	-12150
▁손아	-12151
▁집중력	-12152
▁가뜩이나	-12153
▁수녀	-12154
▁팔라딘	-12155
▁what	-12156
▁휩싸이	-12157
▁발악	-12158
▁조폭	-12159
▁XXX	-12160
▁임원	-12161
▁중견수	-12162
▁1920	-12163
▁King	-12164
▁서대	-12165
▁연구실	-12166
▁Ang	-12167
▁수상자	-12168
사관	-12169
▁게릴라	-12170
▁개개인	-12171
▁토네	-12172
ony	-12173
▁연비	-12174
▁그려	-12175
▁김택	-12176
▁하타	-12177
▁자크	-12178
▁직구	-12179
▁차선	-12180
▁악랄	-12181
▁전폭	-12182
▁승려	-12183
▁페니	-12184
▁도요	-12185
▁스콧	-12186
▁소동	-12187
▁접근성	-12188
▁반갑	-12189
▁호쿠	-12190
▁왠만	-12191
▁강판	-12192
▁재사용	-12193
▁노조미	-12194
▁조영	-12195
mania	-12196
▁상체	-12197
▁소감	-12198
▁성형	-12199
▁야드	-12200
▁파이브	-12201
▁마도사	-12202
▁다비	-12203
▁폿	-12204
▁리우	-12205
▁포지	-12206
▁첨단	-12207
▁상가	-12208
▁안산	-12209
▁절규	-12210
▁매스	-12211
▁전리	-12212
▁칙	-12213
▁콘티	-12214
▁페가	-12215
▁인터페이스	-12216
▁용맹	-12217
▁소규모	-12218
▁서킷	-12219
▁자연수	-12220
▁리에	-12221
▁STER	-12222
▁최영	-12223
▁노이즈	-12224
▁반항	-12225
▁공산주의	-12226
▁시몬	-12227
▁동인지	-12228
▁0000	-12229
로프	-12230
▁가르침	-12231
▁샤프	-12232
▁UFC	-12233
▁EMP	-12234
ma	-12235
▁강행	-12236
▁총탄	-12237
▁IG	-12238
▁즉각	-12239
테이너	-12240
동원	-12241
이센	-12242
▁박격	-12243
▁실황	-12244
▁ㄹㅏㅁ	-12245
▁태조	-12246
▁Cy	-12247
포드	-12248
▁건재	-12249
▁리쿠	-12250
▁펠리	-12251
▁따돌리	-12252
▁드라큘라	-12253
란트	-12254
▁먹방	-12255
▁진료	-12256
▁카린	-12257
▁오로라	-12258
▁퇴사	-12259
▁악용	-12260
▁퇴출	-12261
▁생산력	-12262
▁이우	-12263
▁와이어	-12264
▁EA	-12265
▁패기	-12266
▁마에다	-12267
▁플루	-12268
▁기성	-12269
▁크루즈	-12270
블릿	-12271
▁사사키	-12272
▁양측	-12273
▁만료	-12274
▁빈사	-12275
▁IDOL	-12276
▁광신	-12277
▁밀란	-12278
▁길들이	-12279
▁타케시	-12280
▁밀집	-12281
▁초사	-12282
▁바루	-12283
▁사임	-12284
단체	-12285
▁딱딱	-12286
▁웨이트	-12287
▁1600	-12288
▁밉	-12289
▁우아	-12290
▁아델	-12291
▁카무이	-12292
곡동	-12293
미스	-12294
타르	-12295
▁재난	-12296
▁쿠파	-12297
▁대상자	-12298
▁오인	-12299
▁옵티	-12300
▁포럼	-12301
be	-12302
▁자수	-12303
▁원내	-12304
▁이선	-12305
▁공성전	-12306
▁131	-12307
▁카타르	-12308
숨에	-12309
▁단숨에	-12310
▁자신감	-12311
인드	-12312
무기	-12313
▁타국	-12314
▁게리온	-12315
▁수고	-12316
ual	-12317
▁목요일	-12318
▁white	-12319
▁Run	-12320
▁장편	-12321
▁카탈	-12322
▁카지노	-12323
▁말미	-12324
▁솔라	-12325
▁로사	-12326
▁무전	-12327
▁남동	-12328
▁허위	-12329
▁무궁화	-12330
▁적진	-12331
▁스피커	-12332
▁파인	-12333
▁드라군	-12334
▁페르난	-12335
▁학회	-12336
▁스위트	-12337
▁은밀	-12338
▁MASTER	-12339
터스	-12340
▁유토	-12341
▁대출	-12342
하하	-12343
▁부평	-12344
▁벅스	-12345
▁안면	-12346
▁변질	-12347
▁퍼부	-12348
▁마사키	-12349
▁초당	-12350
▁한심	-12351
▁소용돌이	-12352
▁대주	-12353
▁수요일	-12354
▁관동	-12355
▁광복	-12356
▁프랭	-12357
▁대대로	-12358
▁소극	-12359
▁원고	-12360
▁메테오	-12361
▁스티커	-12362
▁진가	-12363
▁저격총	-12364
▁경성	-12365
▁살피	-12366
▁에밀리	-12367
▁마이트	-12368
▁괴담	-12369
▁투하	-12370
▁선대	-12371
▁우체국	-12372
ecial	-12373
미즈	-12374
▁총격	-12375
▁내야수	-12376
▁입학식	-12377
▁School	-12378
▁덫	-12379
▁생산량	-12380
▁좌표	-12381
밀리아	-12382
▁SV	-12383
▁UM	-12384
▁원호	-12385
▁보증	-12386
▁지그	-12387
어먹	-12388
회장	-12389
페르	-12390
▁MLB	-12391
▁낙인	-12392
ane	-12393
▁깁	-12394
▁운운	-12395
▁물리학	-12396
▁외래	-12397
▁다단	-12398
▁멀쩡히	-12399
▁통신사	-12400
▁가브리엘	-12401
▁SO	-12402
▁홍준	-12403
▁승천	-12404
▁수비진	-12405
▁서초	-12406
▁태세	-12407
▁Rec	-12408
▁분기점	-12409
▁치명상	-12410
▁민원	-12411
▁마징	-12412
▁마징가	-12413
▁장타율	-12414
▁되살아나	-12415
▁대각	-12416
▁백합	-12417
▁미타	-12418
▁Sound	-12419
▁부도	-12420
▁전편	-12421
▁뮬	-12422
▁자유자재	-12423
Fat	-12424
▁다중	-12425
▁단골	-12426
▁청산	-12427
▁Art	-12428
▁타노스	-12429
▁샴	-12430
▁아야카	-12431
셔츠	-12432
▁빅뱅	-12433
▁축적	-12434
▁카이사르	-12435
▁선제골	-12436
▁램프	-12437
▁이승만	-12438
▁지상파	-12439
▁든	-12440
▁김전	-12441
▁뒤덮	-12442
▁사쿠라이	-12443
▁전교	-12444
▁마커	-12445
▁케이트	-12446
▁하야토	-12447
▁사에	-12448
▁재위	-12449
▁경매	-12450
▁벡터	-12451
▁BAS	-12452
ope	-12453
ret	-12454
▁증권	-12455
▁don	-12456
▁초래	-12457
▁아이작	-12458
▁야쿠자	-12459
▁염려	-12460
▁영미	-12461
▁소실	-12462
▁Femme	-12463
▁동창	-12464
티어	-12465
▁달걀	-12466
▁물들	-12467
▁도도	-12468
▁우루과이	-12469
▁마운트	-12470
▁테이크	-12471
▁가축	-12472
▁대파	-12473
▁일진	-12474
▁way	-12475
▁김희	-12476
▁쉘	-12477
▁흑화	-12478
▁Arm	-12479
▁탄도	-12480
▁아이리스	-12481
▁피에	-12482
▁골리	-12483
부시	-12484
▁결함	-12485
▁아루	-12486
내리	-12487
▁계열사	-12488
▁Cat	-12489
▁소설가	-12490
▁미시	-12491
▁호전	-12492
▁여고생	-12493
ision	-12494
▁꺾이	-12495
범죄	-12496
▁이마트	-12497
▁컨트롤러	-12498
퇴근	-12499
▁적료	-12500
무장	-12501
▁EM	-12502
권자	-12503
▁고속도	-12504
니즘	-12505
▁경희	-12506
▁히노	-12507
▁Rev	-12508
▁로스앤	-12509
▁로스앤젤레스	-12510
▁베가	-12511
▁사로잡히	-12512
대교	-12513
▁부츠	-12514
▁어인	-12515
▁인맥	-12516
▁욕하	-12517
▁천계	-12518
베르트	-12519
▁태블릿	-12520
▁괄	-12521
▁Ge	-12522
▁마모루	-12523
▁마이너스	-12524
▁레지스	-12525
▁캐롤	-12526
▁대법원	-12527
elf	-12528
바퀴	-12529
▁플래닛	-12530
▁합당	-12531
▁제시카	-12532
▁방금	-12533
▁렀다	-12534
▁리트	-12535
▁인내	-12536
▁태그팀	-12537
▁어드밴스	-12538
▁리베	-12539
▁고속버스	-12540
▁강적	-12541
▁설레	-12542
▁루카스	-12543
▁주방	-12544
▁바이스	-12545
▁칠레	-12546
에이터	-12547
▁고어	-12548
▁김전일	-12549
Fatale	-12550
수수	-12551
▁강성	-12552
▁비시	-12553
▁막바지	-12554
▁FemmeFatale	-12555
▁일련	-12556
▁스코프	-12557
▁DO	-12558
▁이과	-12559
▁둘러싸이	-12560
▁그닥	-12561
재판	-12562
카즈	-12563
▁WE	-12564
we	-12565
▁피드백	-12566
▁구마	-12567
▁당나라	-12568
▁프로리그	-12569
▁간략	-12570
▁VIP	-12571
▁동래	-12572
str	-12573
▁오너	-12574
▁궁지	-12575
▁기밀	-12576
▁세르비아	-12577
▁매수	-12578
▁계좌	-12579
▁소행	-12580
▁완수	-12581
즈카	-12582
일으키	-12583
▁불러일으키	-12584
▁발칸	-12585
ㅈㅓㅇ	-12586
▁식신	-12587
▁홍준표	-12588
▁피처	-12589
▁경량	-12590
▁세나	-12591
▁슈퍼스타	-12592
질기	-12593
▁부식	-12594
▁시집	-12595
▁총괄	-12596
▁레이터	-12597
▁끈질기	-12598
ational	-12599
▁박주	-12600
▁불멸	-12601
▁Yeah	-12602
▁크로니클	-12603
▁두부	-12604
▁양국	-12605
▁빨강	-12606
▁지령	-12607
▁1961	-12608
▁실무	-12609
▁허구	-12610
▁헌신	-12611
▁원천	-12612
▁입술	-12613
▁페더	-12614
▁모친	-12615
▁소피아	-12616
▁야시	-12617
▁자진	-12618
ouse	-12619
▁예명	-12620
▁꽝	-12621
AG	-12622
행위	-12623
▁요하	-12624
▁발전기	-12625
▁브라더	-12626
▁사용법	-12627
▁할리우드	-12628
SS	-12629
▁일보	-12630
▁하세	-12631
▁공방전	-12632
수스	-12633
▁석궁	-12634
▁우크라	-12635
▁화수	-12636
ORE	-12637
▁다이나	-12638
▁파산	-12639
어찌	-12640
appy	-12641
▁작별	-12642
▁Order	-12643
▁팝픈	-12644
▁팝픈뮤직	-12645
▁광석	-12646
▁시궁	-12647
▁극소수	-12648
▁마작	-12649
▁후타	-12650
ㄴㅔ	-12651
려드	-12652
▁튀기	-12653
▁이스터	-12654
▁황태자	-12655
▁대잠	-12656
▁족장	-12657
▁양파	-12658
▁NHK	-12659
▁효과음	-12660
▁편대	-12661
▁미츠루	-12662
▁이에	-12663
▁1100	-12664
▁넵	-12665
▁MD	-12666
▁섬유	-12667
야샤	-12668
▁성도	-12669
▁이누야샤	-12670
휴일	-12671
▁Elect	-12672
▁무언	-12673
▁그려지	-12674
▁무작정	-12675
수아	-12676
▁배지	-12677
▁에이전트	-12678
▁회화	-12679
▁여당	-12680
▁자취	-12681
▁어찌어찌	-12682
케인	-12683
▁br	-12684
▁악세	-12685
▁제르	-12686
쿠로	-12687
서야	-12688
▁호노카	-12689
▁제멋	-12690
▁연금술	-12691
ness	-12692
▁하임	-12693
▁가명	-12694
▁EXH	-12695
▁술법	-12696
▁군기	-12697
▁창업	-12698
▁쓸데없	-12699
▁TCG	-12700
▁뒤집히	-12701
▁반말	-12702
꿈치	-12703
▁혼종	-12704
▁정계	-12705
▁쿠르	-12706
▁공로	-12707
▁초필	-12708
▁반환	-12709
▁검은색	-12710
▁스플래시	-12711
▁양현	-12712
▁김혜	-12713
▁네모	-12714
▁삼거리	-12715
▁유로파	-12716
▁대본	-12717
▁얼핏	-12718
▁아의	-12719
▁CON	-12720
▁방황	-12721
▁이치로	-12722
스트로	-12723
▁메꾸	-12724
▁프로세서	-12725
▁양키스	-12726
▁소심	-12727
▁바하	-12728
▁신디	-12729
▁수준급	-12730
▁키리토	-12731
▁토론토	-12732
▁진작	-12733
▁주작	-12734
▁하부	-12735
▁아즈사	-12736
▁하워드	-12737
▁코카	-12738
▁그놈	-12739
▁소진	-12740
▁수락	-12741
▁카도	-12742
▁엄지	-12743
▁후일담	-12744
inc	-12745
▁정명	-12746
▁허세	-12747
▁돌아서	-12748
축구	-12749
▁완전체	-12750
▁RG	-12751
▁성채	-12752
▁자잘	-12753
▁헬스	-12754
▁정립	-12755
▁천적	-12756
▁미라클	-12757
▁블레이즈	-12758
델피아	-12759
▁필라델피아	-12760
▁택배	-12761
라이나	-12762
▁스크래	-12763
▁병단	-12764
같이	-12765
▁적발	-12766
▁주범	-12767
▁SHOW	-12768
▁교섭	-12769
▁소피	-12770
▁프론트	-12771
▁운항	-12772
▁조형	-12773
▁스칼렛	-12774
▁전리품	-12775
▁214	-12776
▁말장난	-12777
▁어비스	-12778
▁기마	-12779
▁연예계	-12780
▁껄	-12781
▁당원	-12782
▁서드	-12783
▁적색	-12784
▁옵티머스	-12785
▁미지수	-12786
▁애당초	-12787
▁이노우에	-12788
▁이안	-12789
▁휴일	-12790
▁과부	-12791
▁dis	-12792
▁한몫	-12793
▁대사관	-12794
투아	-12795
투수	-12796
▁기미	-12797
그룹	-12798
▁리노	-12799
▁복싱	-12800
▁매진	-12801
▁폴더	-12802
▁선발투수	-12803
▁연하	-12804
▁태종	-12805
▁공휴일	-12806
시계	-12807
히트	-12808
▁world	-12809
▁다인	-12810
day	-12811
▁beatmania	-12812
▁도호	-12813
▁폭동	-12814
▁점거	-12815
▁She	-12816
▁결장	-12817
▁신주쿠	-12818
▁키워드	-12819
▁Da	-12820
▁기한	-12821
▁임창	-12822
▁콜로니	-12823
▁수평	-12824
its	-12825
▁로만	-12826
omb	-12827
▁고령	-12828
▁카가	-12829
▁펄스	-12830
ham	-12831
IV	-12832
▁뛰쳐	-12833
▁대표작	-12834
▁경장	-12835
▁지망	-12836
▁리브	-12837
▁광범	-12838
▁스왑	-12839
▁탄종	-12840
▁후궁	-12841
▁본디	-12842
▁시엘	-12843
▁조운	-12844
▁파고들	-12845
▁당주	-12846
우루스	-12847
저트	-12848
▁양호	-12849
사의	-12850
▁냉전	-12851
▁정거	-12852
▁코시	-12853
▁키퍼	-12854
▁루이지	-12855
▁종일	-12856
▁좌익수	-12857
▁제정신	-12858
제국	-12859
▁사이퍼	-12860
▁쓸모없	-12861
▁들려오	-12862
ㅅㅔ	-12863
▁아멜	-12864
▁정류소	-12865
투표	-12866
▁340	-12867
▁유포	-12868
▁141	-12869
▁명작	-12870
▁요미우리	-12871
▁ㄷㅡㄴㄱㅏ	-12872
▁콜라보레이션	-12873
▁비토	-12874
▁도전자	-12875
▁흐리	-12876
ㄴㅈㅓㅇ	-12877
▁속삭	-12878
▁급기야	-12879
▁재고	-12880
날드	-12881
▁교주	-12882
▁유서	-12883
▁깊숙	-12884
▁도쿠가와	-12885
▁강유	-12886
▁킹스	-12887
▁ㅇㅏㅅ	-12888
▁고독	-12889
▁빌라	-12890
▁신이치	-12891
▁성추	-12892
퍼런스	-12893
▁당분	-12894
▁정은	-12895
▁후안	-12896
▁상대식	-12897
▁naver	-12898
▁볼프	-12899
EX	-12900
▁토탈	-12901
▁애프	-12902
▁히데요시	-12903
▁더스트	-12904
▁작살	-12905
▁산악	-12906
▁개인전	-12907
ious	-12908
▁스폰지	-12909
▁기온	-12910
▁툼	-12911
▁탄소	-12912
▁호세	-12913
ㅇㅓㄴㅈㅓㅇ	-12914
▁교란	-12915
▁프런트	-12916
▁빼돌리	-12917
==	-12918
▁ap	-12919
▁상회	-12920
▁셀프	-12921
▁제이드	-12922
▁압살	-12923
▁레스터	-12924
▁윌슨	-12925
▁다이브	-12926
▁불사조	-12927
▁텔레비전	-12928
▁피곤	-12929
사이드	-12930
▁노숙	-12931
▁에리카	-12932
▁엑소	-12933
▁창당	-12934
▁해수	-12935
▁건전	-12936
▁박격포	-12937
▁씁	-12938
▁오모	-12939
▁일쑤	-12940
▁프로그래밍	-12941
▁부추	-12942
▁여사	-12943
▁섭외	-12944
▁불가사의	-12945
▁초토	-12946
▁프랑켄	-12947
▁루터	-12948
ivers	-12949
▁액세서리	-12950
▁동봉	-12951
▁게임기	-12952
▁스크래치	-12953
▁사부	-12954
먹이	-12955
세데스	-12956
▁메르세데스	-12957
▁te	-12958
▁Not	-12959
▁언행	-12960
▁출퇴근	-12961
▁쟁탈	-12962
▁캡콤	-12963
아티아	-12964
▁예비군	-12965
▁크로아티아	-12966
ANC	-12967
데아	-12968
▁합창	-12969
▁제식	-12970
▁좀비	-12971
▁SW	-12972
▁오클	-12973
▁양주	-12974
▁오버로드	-12975
27	-12976
▁공익	-12977
▁^	-12978
aut	-12979
▁지기	-12980
▁확연히	-12981
매니아	-12982
▁폭발물	-12983
olution	-12984
▁정거장	-12985
인간	-12986
▁상속	-12987
▁아그	-12988
▁시그마	-12989
▁미성년자	-12990
ERS	-12991
▁신축	-12992
▁아지트	-12993
▁하드코어	-12994
▁Ke	-12995
▁손흥	-12996
▁승기	-12997
▁RAW	-12998
댓말	-12999
▁정교회	-13000
▁존댓말	-13001
▁상권	-13002
▁싱어	-13003
▁프로이센	-13004
▁옥타	-13005
▁상반기	-13006
▁도리어	-13007
▁표본	-13008
▁글러브	-13009
▁디디	-13010
▁로망	-13011
▁폭사	-13012
23	-13013
▁위즈	-13014
▁캐서	-13015
▁With	-13016
▁장병	-13017
▁김창	-13018
▁반다이	-13019
▁다툼	-13020
▁트린	-13021
▁위탁	-13022
▁합하	-13023
▁증세	-13024
▁DEF	-13025
▁스파르타	-13026
▁난전	-13027
▁광범위	-13028
▁윌리엄스	-13029
투르	-13030
▁네메	-13031
▁막부	-13032
▁셜록	-13033
▁상표	-13034
▁장안	-13035
▁행태	-13036
▁Every	-13037
▁지자	-13038
UC	-13039
▁리액션	-13040
요환	-13041
▁세션	-13042
▁글래	-13043
▁아역	-13044
▁손흥민	-13045
▁평원	-13046
▁피라미	-13047
▁군함	-13048
▁들이대	-13049
▁올라서	-13050
▁프리즈	-13051
▁종사	-13052
▁화자	-13053
▁프리스트	-13054
olog	-13055
패스	-13056
▁310	-13057
▁까먹	-13058
▁다정	-13059
▁와우	-13060
▁자연스레	-13061
▁한조	-13062
▁돌려보내	-13063
▁직감	-13064
▁도피	-13065
▁우시	-13066
라이어	-13067
▁입맛	-13068
무늬	-13069
▁바우	-13070
▁시한	-13071
▁미끄러지	-13072
45	-13073
▁해커	-13074
▁현명	-13075
던트	-13076
▁오재	-13077
▁질량	-13078
▁체이	-13079
▁정장	-13080
▁마이어	-13081
▁브릿지	-13082
주리	-13083
▁아부	-13084
66	-13085
▁임요환	-13086
▁어처	-13087
▁랏	-13088
레미	-13089
▁진군	-13090
▁김준호	-13091
▁시즈카	-13092
▁뾰	-13093
▁위화	-13094
▁쾌속	-13095
▁수원시	-13096
▁007	-13097
▁마음껏	-13098
▁코이치	-13099
29	-13100
▁든든	-13101
▁1943	-13102
스톤	-13103
▁최우수	-13104
▁카바	-13105
▁수다	-13106
▁백미	-13107
▁거느리	-13108
데르	-13109
▁러셀	-13110
▁넘쳐	-13111
▁안나	-13112
▁Chr	-13113
▁캐서린	-13114
▁FR	-13115
▁사다	-13116
▁저번	-13117
▁짤방	-13118
▁사이오	-13119
▁**	-13120
▁꼭두	-13121
▁방정	-13122
▁Get	-13123
▁해운대	-13124
▁원제	-13125
▁제구	-13126
▁체질	-13127
▁구자	-13128
▁듀티	-13129
▁서원	-13130
▁망자	-13131
icro	-13132
▁나나미	-13133
지리	-13134
▁Skill	-13135
▁박병	-13136
▁추석	-13137
▁Boy	-13138
▁공동체	-13139
▁술탄	-13140
▁정세	-13141
▁전전	-13142
▁TB	-13143
▁송구	-13144
▁대문	-13145
▁호르	-13146
▁무상	-13147
▁화요일	-13148
즈마	-13149
▁내걸	-13150
▁가솔	-13151
▁고장나	-13152
ty	-13153
▁왼팔	-13154
▁미야자키	-13155
▁손바닥	-13156
▁어우	-13157
▁시노부	-13158
▁비하인드	-13159
▁Har	-13160
▁if	-13161
ely	-13162
▁최면	-13163
▁뢰	-13164
▁낙원	-13165
▁옐로	-13166
▁외출	-13167
ny	-13168
▁김세	-13169
▁국력	-13170
reat	-13171
▁겨누	-13172
▁촛	-13173
▁720	-13174
▁1946	-13175
▁스루	-13176
▁피츠	-13177
▁ㄴㅡㄴㄱㅜㄴ	-13178
▁집결	-13179
▁Des	-13180
▁대명사	-13181
▁르네	-13182
노기	-13183
▁CT	-13184
▁시저	-13185
▁중앙선	-13186
데기	-13187
▁환각	-13188
▁커터	-13189
▁탈옥	-13190
▁영화판	-13191
▁토네이도	-13192
▁ㄲㅗ	-13193
▁신원	-13194
▁주파수	-13195
▁메라	-13196
조각	-13197
▁기총	-13198
▁도모	-13199
▁사과문	-13200
나드	-13201
▁비오	-13202
▁나날	-13203
▁대부	-13204
▁김정은	-13205
▁=,	-13206
▁관념	-13207
▁지침	-13208
리에	-13209
▁재임	-13210
▁켄타	-13211
▁군사력	-13212
▁Ab	-13213
▁무협	-13214
▁굳어지	-13215
▁부여받	-13216
▁1942	-13217
▁불상	-13218
▁에덴	-13219
▁1954	-13220
▁어처구니	-13221
▁예배	-13222
베르토	-13223
▁아폴로	-13224
▁작아지	-13225
▁가출	-13226
▁순진	-13227
▁인즈	-13228
▁평민	-13229
▁경찰관	-13230
▁키메라	-13231
아아	-13232
▁연희	-13233
▁한스	-13234
▁ㅅㅏ	-13235
▁열받	-13236
▁홍대	-13237
▁흡연	-13238
▁리포트	-13239
▁바오	-13240
▁영분	-13241
▁분경	-13242
▁생사	-13243
▁추첨	-13244
▁슈타인	-13245
▁까닭	-13246
무니	-13247
▁480	-13248
▁1958	-13249
▁171	-13250
▁랫	-13251
소스	-13252
▁소수자	-13253
▁걸작	-13254
▁DA	-13255
▁표출	-13256
▁벵	-13257
킨스	-13258
ient	-13259
▁영기	-13260
라이즈	-13261
▁>,	-13262
▁마더	-13263
▁미상	-13264
ters	-13265
▁보답	-13266
▁정중	-13267
▁교화	-13268
▁마누	-13269
▁혜성	-13270
▁Big	-13271
▁논하	-13272
▁리젠	-13273
▁PSP	-13274
▁민영	-13275
▁웨일	-13276
▁만세	-13277
▁탐욕	-13278
▁당당히	-13279
▁북방	-13280
베리아	-13281
▁Tri	-13282
▁스님	-13283
▁부메	-13284
▁담당자	-13285
▁빡빡	-13286
▁무자비	-13287
의사	-13288
▁괴도	-13289
▁금기	-13290
▁튜너	-13291
▁듀엣	-13292
▁줄곧	-13293
▁png	-13294
▁지름	-13295
▁예리	-13296
▁1900	-13297
▁대용	-13298
▁드리프트	-13299
▁육지	-13300
▁자발	-13301
▁181	-13302
▁체가	-13303
▁커리	-13304
▁가든	-13305
▁단테	-13306
▁진흙	-13307
▁류현진	-13308
▁UR	-13309
▁반칙	-13310
▁부메랑	-13311
▁후유증	-13312
▁이동하	-13313
▁생물학	-13314
▁초고	-13315
▁단조	-13316
리우스	-13317
▁시력	-13318
▁견인	-13319
▁다이어트	-13320
받침	-13321
▁졸개	-13322
▁추이	-13323
▁kn	-13324
▁츠루	-13325
▁의미심장	-13326
▁이어인	-13327
▁성체	-13328
▁전태	-13329
▁카운티	-13330
▁섬세	-13331
▁양아치	-13332
▁유행어	-13333
▁발상	-13334
▁어워드	-13335
▁8000	-13336
▁연혁	-13337
▁미디	-13338
▁사마의	-13339
테스	-13340
▁석화	-13341
▁피리	-13342
▁성녀	-13343
▁차종	-13344
▁Ext	-13345
▁협곡	-13346
▁DT	-13347
▁취직	-13348
▁트림	-13349
▁스탠다드	-13350
체스	-13351
칼리	-13352
▁생몰	-13353
▁수작	-13354
▁임관	-13355
르기	-13356
▁걸어오	-13357
▁문헌	-13358
▁XP	-13359
▁복음	-13360
▁자문	-13361
▁피어	-13362
프레스	-13363
▁샤이닝	-13364
▁양념	-13365
▁기관차	-13366
ship	-13367
ful	-13368
bl	-13369
uch	-13370
▁RS	-13371
▁제이스	-13372
85	-13373
▁id	-13374
▁라오	-13375
토시	-13376
▁설득력	-13377
▁방랑	-13378
크리트	-13379
ㄴㅡ	-13380
▁바바	-13381
▁성균	-13382
▁오피스	-13383
▁잉크	-13384
▁CCTV	-13385
▁라자	-13386
ports	-13387
▁STAR	-13388
클레스	-13389
▁천황	-13390
▁총사령	-13391
▁매복	-13392
▁봉황	-13393
▁상원	-13394
▁원년	-13395
▁고분	-13396
▁충성심	-13397
▁빡세	-13398
▁윤종	-13399
▁성균관	-13400
▁1941	-13401
▁군벌	-13402
▁염소	-13403
▁파장	-13404
▁ㄴㅡㄴㄱㅜ	-13405
버린	-13406
▁조율	-13407
▁오디	-13408
▁EB	-13409
▁기라	-13410
▁원격	-13411
▁데카	-13412
▁직관	-13413
자카	-13414
▁군산	-13415
▁입체	-13416
▁통용	-13417
▁박세	-13418
▁부화	-13419
▁성모	-13420
▁세간	-13421
▁경쟁력	-13422
▁방어선	-13423
▁스펙터	-13424
▁클락	-13425
▁퍼스	-13426
▁가토	-13427
▁초식	-13428
무진	-13429
▁태연	-13430
▁Inf	-13431
리케이션	-13432
▁선공	-13433
▁빅터	-13434
▁Sil	-13435
▁츠카사	-13436
슬러	-13437
▁OO	-13438
▁나츠미	-13439
▁송이	-13440
▁격노	-13441
기업	-13442
기지	-13443
▁ㄱㅡ	-13444
테리	-13445
▁송도	-13446
▁255	-13447
▁샤아	-13448
▁창의	-13449
▁텔레콤	-13450
▁White	-13451
▁풍자	-13452
▁봉기	-13453
▁야하	-13454
▁채소	-13455
▁OR	-13456
▁굴복	-13457
▁비숍	-13458
니트	-13459
▁조장	-13460
▁Bar	-13461
▁메스	-13462
▁요일	-13463
정역	-13464
▁시동	-13465
▁Fre	-13466
▁클로즈	-13467
▁KS	-13468
▁제비	-13469
▁디테일	-13470
▁기만	-13471
▁낯설	-13472
▁정인	-13473
▁미련	-13474
▁귀중	-13475
▁선체	-13476
▁1948	-13477
▁웍	-13478
▁역기	-13479
▁회고	-13480
▁Back	-13481
▁뫼	-13482
▁토템	-13483
▁헌데	-13484
레트	-13485
▁격돌	-13486
▁Win	-13487
▁틀어지	-13488
▁서커스	-13489
▁흑백	-13490
▁학창	-13491
▁프레데	-13492
ump	-13493
▁만회	-13494
▁청량	-13495
▁장기간	-13496
▁만류	-13497
26	-13498
▁무의	-13499
▁윈스턴	-13500
▁유대인	-13501
▁양면	-13502
▁유감	-13503
▁농어	-13504
▁씁쓸	-13505
▁히로유키	-13506
▁갈래	-13507
▁송병	-13508
▁동참	-13509
▁재팬	-13510
▁최전	-13511
▁아테네	-13512
co	-13513
▁뒤이	-13514
▁특촬	-13515
▁조제	-13516
▁잠복	-13517
▁크래	-13518
▁420	-13519
RAM	-13520
▁난동	-13521
▁증원	-13522
▁수리검	-13523
▁시궁창	-13524
▁배분	-13525
▁여의도	-13526
▁qu	-13527
▁PO	-13528
▁느긋	-13529
▁아제	-13530
▁스테이트	-13531
▁가치관	-13532
▁피에르	-13533
버릇	-13534
노미야	-13535
▁마비노기	-13536
도스	-13537
혁명	-13538
▁창시	-13539
ift	-13540
▁태고	-13541
▁자위대	-13542
▁불러들이	-13543
산물	-13544
ENT	-13545
ATION	-13546
▁GL	-13547
▁만두	-13548
▁커브	-13549
▁판도라	-13550
▁켄이치	-13551
▁초급	-13552
▁전년	-13553
▁솔로몬	-13554
▁타쿠미	-13555
▁우익수	-13556
▁손녀	-13557
▁다이너	-13558
▁그리스도	-13559
▁NG	-13560
▁jp	-13561
▁모라	-13562
▁모호	-13563
▁오드	-13564
▁고양시	-13565
▁공병	-13566
▁색채	-13567
▁콘크리트	-13568
▁부풀	-13569
▁바이올린	-13570
▁215	-13571
▁아틀레	-13572
▁초원	-13573
▁간식	-13574
모사	-13575
▁샨	-13576
▁FE	-13577
▁파키스탄	-13578
▁젤다	-13579
edia	-13580
호도	-13581
▁오덕	-13582
▁하와이	-13583
▁베니	-13584
마츠	-13585
▁퇴근	-13586
▁Met	-13587
▁Sky	-13588
▁심리학	-13589
▁치중	-13590
▁학계	-13591
▁도타	-13592
▁왕궁	-13593
튀기	-13594
▁즐거	-13595
▁down	-13596
▁연루	-13597
▁관악	-13598
▁벌칙	-13599
▁수소	-13600
▁폭포	-13601
▁접시	-13602
▁바늘	-13603
▁뻥튀기	-13604
▁실험실	-13605
ALL	-13606
ERT	-13607
▁단신	-13608
▁백색	-13609
▁하코	-13610
▁off	-13611
▁메아리	-13612
▁박민	-13613
▁진과	-13614
▁소음기	-13615
MC	-13616
▁사토시	-13617
▁제휴	-13618
▁FN	-13619
▁시구	-13620
▁포털	-13621
▁인기투표	-13622
▁지독	-13623
▁하르	-13624
▁고려대	-13625
▁정유	-13626
▁맏	-13627
▁나츠키	-13628
▁나고	-13629
▁1949	-13630
▁컨테이너	-13631
▁강변	-13632
▁자드	-13633
레인지	-13634
링크	-13635
▁맥도	-13636
▁쇼핑몰	-13637
▁텐션	-13638
▁횡단	-13639
▁Act	-13640
▁허영	-13641
▁이성계	-13642
▁333	-13643
▁왕따	-13644
▁최성	-13645
▁광부	-13646
▁성서	-13647
▁CEO	-13648
▁금전	-13649
▁선구	-13650
▁카세	-13651
▁테크노	-13652
▁235	-13653
▁제이크	-13654
▁서진	-13655
▁러블리	-13656
틀링	-13657
▁제멋대로	-13658
▁오퍼레이터	-13659
▁208	-13660
▁타라	-13661
▁흘러나오	-13662
▁every	-13663
▁변종	-13664
▁거제	-13665
▁거주지	-13666
▁유엔	-13667
▁작렬	-13668
▁친밀	-13669
▁거슬리	-13670
▁려	-13671
바위	-13672
oud	-13673
▁병맛	-13674
▁인장	-13675
공격	-13676
▁쇠퇴	-13677
▁현존	-13678
▁사육	-13679
▁어중간	-13680
▁라운	-13681
▁1936	-13682
▁삽화	-13683
▁출생지	-13684
▁FX	-13685
▁206	-13686
▁갭	-13687
따르	-13688
▁바시	-13689
▁어지간히	-13690
모니	-13691
▁떠들	-13692
▁열풍	-13693
▁UFO	-13694
▁Song	-13695
각시	-13696
▁}{	-13697
▁..'	-13698
▁집정	-13699
▁TD	-13700
▁듬	-13701
▁초동	-13702
▁늘어놓	-13703
▁성폭행	-13704
▁파업	-13705
▁양동	-13706
less	-13707
▁실천	-13708
▁포고	-13709
▁키바	-13710
▁육식	-13711
▁프레디	-13712
▁메소	-13713
▁항속	-13714
▁대머리	-13715
ize	-13716
▁이승엽	-13717
▁비늘	-13718
▁가차	-13719
▁퍼뜨리	-13720
▁욕구	-13721
▁향수	-13722
▁디스코	-13723
▁자손	-13724
케이	-13725
▁뇌격	-13726
▁시중	-13727
▁헤딩	-13728
▁럽	-13729
▁May	-13730
VEL	-13731
▁마장	-13732
▁후려	-13733
bps	-13734
▁em	-13735
▁늘어지	-13736
▁인프라	-13737
드래	-13738
사우루스	-13739
천동	-13740
득점	-13741
방향	-13742
변속기	-13743
95	-13744
니스탄	-13745
▁런닝맨	-13746
▁오마주	-13747
▁체이스	-13748
▁심플	-13749
▁육박	-13750
▁마츠모토	-13751
UB	-13752
▁거물	-13753
▁서독	-13754
▁유쾌	-13755
▁안도	-13756
▁부치	-13757
▁정현	-13758
▁배급사	-13759
▁남용	-13760
▁동선	-13761
▁어머	-13762
▁161	-13763
▁하렘	-13764
▁아론	-13765
▁GAM	-13766
▁나루호도	-13767
▁미쓰	-13768
▁경인	-13769
▁ㄹㅏㄹㄲㅏ	-13770
▁850	-13771
▁NL	-13772
▁ve	-13773
▁되돌아가	-13774
공화국	-13775
▁비행선	-13776
BM	-13777
▁병영	-13778
▁편제	-13779
IST	-13780
▁덩크	-13781
▁빌미	-13782
▁갈고리	-13783
▁좀처럼	-13784
지대	-13785
▁문의	-13786
▁마그마	-13787
ape	-13788
ger	-13789
린스	-13790
▁틀림	-13791
▁세츠나	-13792
▁소이	-13793
▁크러	-13794
▁con	-13795
▁난폭	-13796
▁도르트	-13797
▁계보	-13798
▁That	-13799
▁Rain	-13800
▁김인	-13801
▁카멜	-13802
▁모터스	-13803
▁본국	-13804
aka	-13805
러드	-13806
▁대여	-13807
▁피라미드	-13808
▁우로	-13809
▁코지마	-13810
▁휩쓸리	-13811
▁개드	-13812
▁아픔	-13813
▁처단	-13814
▁철회	-13815
▁비약	-13816
▁사다리	-13817
▁누마	-13818
▁스릴	-13819
▁개틀링	-13820
▁김하	-13821
네트	-13822
▁감시자	-13823
▁아울러	-13824
ita	-13825
▁명인	-13826
▁수배	-13827
▁RAM	-13828
▁좌석버스	-13829
▁독성	-13830
▁멸자	-13831
▁오미	-13832
96	-13833
▁인피니트	-13834
▁단선	-13835
▁얀데레	-13836
▁송곳	-13837
▁영리	-13838
▁팀킬	-13839
▁합방	-13840
▁Hey	-13841
▁알아듣	-13842
▁카에데	-13843
▁표방	-13844
▁속옷	-13845
▁God	-13846
▁김태균	-13847
▁RF	-13848
▁벽돌	-13849
▁와일드카드	-13850
▁가물	-13851
▁내년	-13852
의회	-13853
ORM	-13854
▁스플릿	-13855
타자	-13856
▁단간	-13857
▁라트	-13858
▁참패	-13859
▁호대	-13860
▁이따	-13861
▁페인트	-13862
▁290	-13863
▁극찬	-13864
▁언락	-13865
▁떨어트리	-13866
▁중얼거리	-13867
▁이윽	-13868
▁청색	-13869
▁데이브	-13870
▁선발전	-13871
▁커넥	-13872
▁위나라	-13873
▁이윽고	-13874
▁젊은이	-13875
▁끝판	-13876
zy	-13877
▁신시	-13878
▁Top	-13879
▁리오스	-13880
▁디에	-13881
▁북극	-13882
▁올라타	-13883
▁쭈	-13884
▁도마뱀	-13885
모자	-13886
▁밴시	-13887
▁하데스	-13888
▁정렬	-13889
▁순교자	-13890
▁패거리	-13891
▁설사	-13892
▁데이즈	-13893
▁아이리	-13894
▁앞마당	-13895
▁불가리아	-13896
▁페로	-13897
레인저	-13898
▁장래	-13899
▁북두	-13900
주군	-13901
rop	-13902
▁난해	-13903
▁마드	-13904
▁소인	-13905
▁열전	-13906
▁나기사	-13907
▁무법	-13908
▁야기	-13909
▁트레이서	-13910
▁want	-13911
▁전용기	-13912
▁축구단	-13913
때로	-13914
빠르	-13915
▁Pe	-13916
▁토와	-13917
76	-13918
▁친일	-13919
▁버디	-13920
▁버금	-13921
▁정벌	-13922
▁풀백	-13923
IGHT	-13924
▁마니	-13925
▁유목	-13926
▁심심찮	-13927
▁Battle	-13928
▁Game	-13929
▁서면	-13930
▁성검	-13931
▁플라워	-13932
net	-13933
▁포이	-13934
▁기겁	-13935
▁Moon	-13936
▁이복	-13937
▁콘테	-13938
▁대각선	-13939
▁베라	-13940
▁때우	-13941
▁지아	-13942
▁헛소리	-13943
▁상대편	-13944
▁수레	-13945
▁성문	-13946
▁코스타	-13947
▁영장	-13948
▁석탄	-13949
▁어린애	-13950
▁징병	-13951
▁야채	-13952
OK	-13953
▁정규군	-13954
▁TEC	-13955
▁WAR	-13956
기어	-13957
ㅇㅗㄴ	-13958
암동	-13959
렉트	-13960
ara	-13961
com	-13962
▁칼럼	-13963
▁화속	-13964
▁SUP	-13965
▁선도	-13966
▁무난히	-13967
▁일자리	-13968
▁more	-13969
▁비욘	-13970
▁1955	-13971
▁망원	-13972
비우스	-13973
▁역학	-13974
▁당분간	-13975
ren	-13976
bo	-13977
▁노브	-13978
ward	-13979
▁행동력	-13980
▁도르트문트	-13981
▁불운	-13982
▁영창	-13983
지원	-13984
▁손수	-13985
▁스몰	-13986
▁경위	-13987
▁여건	-13988
▁max	-13989
실히	-13990
운전	-13991
▁좆	-13992
▁호타	-13993
▁미셸	-13994
▁게리	-13995
▁Bra	-13996
▁최재	-13997
▁특출	-13998
▁곡선	-13999
▁바실	-14000
▁유우야	-14001
▁젯	-14002
▁존속	-14003
row	-14004
▁줄줄이	-14005
▁책임자	-14006
▁코로나	-14007
▁스케치	-14008
▁가까스로	-14009
무스	-14010
▁중성	-14011
▁스케이팅	-14012
▁일직	-14013
▁보태	-14014
버거	-14015
▁대강	-14016
▁절묘	-14017
▁212	-14018
▁유추	-14019
▁코나미	-14020
▁가창력	-14021
포스	-14022
▁위화감	-14023
▁뒤틀리	-14024
▁허리케인	-14025
작전	-14026
▁반자동	-14027
▁갑판	-14028
▁내려놓	-14029
▁광저우	-14030
▁Dragon	-14031
▁새로이	-14032
▁한가	-14033
▁NS	-14034
▁새해	-14035
▁인민공화국	-14036
▁선풍	-14037
▁여진	-14038
▁남구	-14039
▁토요타	-14040
▁LS	-14041
▁분사	-14042
▁꼭두각시	-14043
▁괴로	-14044
▁KG	-14045
▁성추행	-14046
▁자부심	-14047
▁LCD	-14048
▁특공대	-14049
니엄	-14050
▁되려	-14051
▁북유럽	-14052
▁Special	-14053
버드	-14054
▁라이터	-14055
▁드레이크	-14056
▁국사	-14057
메다	-14058
▁과실	-14059
▁칭송	-14060
▁밸리	-14061
▁영락	-14062
▁플레이트	-14063
▁인테르	-14064
▁내륙	-14065
▁복종	-14066
▁울부	-14067
▁1959	-14068
▁터미네이터	-14069
▁총통	-14070
▁나고야	-14071
▁밀레니엄	-14072
▁개드립	-14073
▁피겨	-14074
▁독재자	-14075
▁레트	-14076
▁카야	-14077
▁친위대	-14078
▁베이스볼	-14079
▁유명세	-14080
▁가솔린	-14081
여행	-14082
▁강당	-14083
▁흑룡	-14084
▁루시퍼	-14085
▁역전승	-14086
▁교육부	-14087
▁다나카	-14088
연합	-14089
▁알프레	-14090
▁가메	-14091
led	-14092
▁사이언	-14093
리아나	-14094
aven	-14095
▁매트릭스	-14096
▁나데	-14097
▁민지	-14098
▁이신	-14099
▁본문	-14100
▁푸른	-14101
▁연방군	-14102
▁탤	-14103
▁001	-14104
▁카트라이더	-14105
▁부과	-14106
▁자석	-14107
▁할당	-14108
블랜드	-14109
▁초회	-14110
▁치타	-14111
▁wiz	-14112
▁Track	-14113
▁클리블랜드	-14114
러기	-14115
짜기	-14116
▁쿠미	-14117
럭스	-14118
코프	-14119
▁경이	-14120
▁진나라	-14121
▁이제동	-14122
▁팩토리	-14123
▁FFFF	-14124
▁귀도	-14125
▁와이드	-14126
▁호스트	-14127
▁Pop	-14128
▁플로리	-14129
▁가변	-14130
▁광화	-14131
▁행선	-14132
▁데프	-14133
클리	-14134
▁래스	-14135
▁Amer	-14136
▁티코	-14137
▁파괴자	-14138
LD	-14139
▁Hot	-14140
▁태수	-14141
▁발산	-14142
카스	-14143
▁스트레이트	-14144
그레	-14145
▁뮤즈	-14146
▁서점	-14147
그래	-14148
▁해임	-14149
▁서울역	-14150
▁캬	-14151
▁니키	-14152
▁도미니	-14153
▁부추기	-14154
▁대담	-14155
▁목표물	-14156
▁소중히	-14157
▁1956	-14158
▁광양	-14159
▁피고	-14160
▁관제	-14161
▁DAY	-14162
▁가네	-14163
▁플러그	-14164
토록	-14165
▁요건	-14166
▁임프	-14167
▁킬로	-14168
▁아산	-14169
▁카즈키	-14170
▁치부	-14171
▁전투원	-14172
▁협약	-14173
▁벨벳	-14174
▁우사	-14175
▁경호원	-14176
▁크림슨	-14177
▁조달	-14178
▁내심	-14179
▁사파이어	-14180
▁종자	-14181
▁울부짖	-14182
▁이치카	-14183
하이	-14184
▁마포	-14185
▁뭣	-14186
▁레미	-14187
▁오반	-14188
▁의리	-14189
▁펜스	-14190
▁레고	-14191
▁특허	-14192
▁의석	-14193
▁장막	-14194
▁머들	-14195
▁TG	-14196
▁무성	-14197
여지	-14198
▁원동	-14199
▁Cont	-14200
▁살라	-14201
▁피니시	-14202
부대	-14203
▁발간	-14204
▁베드	-14205
▁앙리	-14206
▁이시다	-14207
테나	-14208
▁핵무기	-14209
▁기와	-14210
▁추월	-14211
▁십상	-14212
▁활주	-14213
▁익스트림	-14214
▁they	-14215
히사	-14216
▁안드로메다	-14217
▁강연	-14218
▁칠흑	-14219
패드	-14220
▁왕녀	-14221
▁협공	-14222
▁부회장	-14223
▁스켈	-14224
▁들려주	-14225
▁유민	-14226
▁마티	-14227
▁잔당	-14228
▁합산	-14229
▁백신	-14230
▁tw	-14231
▁미완	-14232
▁차남	-14233
▁신령	-14234
▁포르노	-14235
▁계약자	-14236
▁명령어	-14237
▁에스파	-14238
바키아	-14239
▁아란	-14240
▁보단	-14241
▁이화	-14242
▁조회	-14243
▁트리오	-14244
▁골대	-14245
▁게이밍	-14246
▁슐	-14247
▁음양	-14248
▁baby	-14249
▁증후	-14250
▁TN	-14251
▁마고	-14252
▁광주광역시	-14253
▁207	-14254
▁이분	-14255
▁와타루	-14256
▁네메시스	-14257
▁무찌	-14258
▁첩보	-14259
▁온화	-14260
▁적정	-14261
▁이상민	-14262
34	-14263
▁입성	-14264
▁심리전	-14265
▁창세기	-14266
▁무심	-14267
▁토의	-14268
▁지갑	-14269
▁오스카	-14270
▁주군	-14271
▁너구리	-14272
▁멧돼지	-14273
▁1939	-14274
▁등산	-14275
▁520	-14276
▁아치	-14277
ands	-14278
▁ㄴㅜ	-14279
▁휘둘	-14280
▁청동	-14281
▁COM	-14282
바시	-14283
▁각기	-14284
▁금성	-14285
▁마늘	-14286
▁에우	-14287
▁뒷받침	-14288
내기	-14289
▁불기	-14290
▁대한항공	-14291
쿠버	-14292
ien	-14293
▁석방	-14294
▁우와	-14295
▁온전히	-14296
▁플라잉	-14297
두근	-14298
▁인분	-14299
▁동물원	-14300
▁뾰족	-14301
▁랄프	-14302
▁내려찍	-14303
▁파드	-14304
▁BASIC	-14305
▁패트릭	-14306
▁날아오르	-14307
▁넵튠	-14308
▁노랑	-14309
▁자아내	-14310
ze	-14311
▁신공	-14312
▁프랑스군	-14313
▁매지컬	-14314
▁차세대	-14315
▁오피	-14316
▁황무지	-14317
▁루리웹	-14318
▁이지스	-14319
▁물려주	-14320
▁되돌아오	-14321
▁경신	-14322
▁빵빵	-14323
▁나시	-14324
▁선진국	-14325
▁기타리스트	-14326
▁퀑	-14327
▁김현수	-14328
▁단단히	-14329
▁단말기	-14330
▁대적	-14331
▁로자	-14332
▁박기	-14333
▁코리	-14334
▁새신	-14335
▁주스	-14336
▁기병대	-14337
▁이터널	-14338
▁PA	-14339
▁슈타	-14340
▁IDOLM	-14341
▁초중	-14342
▁위인	-14343
아스	-14344
orts	-14345
왜란	-14346
▁모티	-14347
▁위생	-14348
▁무찌르	-14349
▁제품군	-14350
▁서사	-14351
▁단백	-14352
▁영재	-14353
▁화장품	-14354
지물	-14355
캐스트	-14356
▁임진왜란	-14357
▁good	-14358
▁탈것	-14359
▁푸드	-14360
▁777	-14361
▁바사	-14362
▁각색	-14363
▁트레버	-14364
▁무어	-14365
▁교재	-14366
▁빈스	-14367
▁역관	-14368
▁바이올렛	-14369
ited	-14370
▁나우	-14371
▁사시	-14372
▁외야	-14373
▁호라이	-14374
▁단절	-14375
▁분자	-14376
▁재해	-14377
▁209	-14378
▁팔꿈치	-14379
▁Yes	-14380
▁구치	-14381
play	-14382
▁Bur	-14383
▁겉보기	-14384
▁애프터	-14385
▁뛰어다니	-14386
▁천체	-14387
▁조비	-14388
▁티탄	-14389
▁도널드	-14390
▁미공	-14391
▁과하	-14392
▁구세	-14393
▁다트	-14394
▁네타	-14395
▁문호	-14396
▁Project	-14397
▁서문	-14398
▁데이빗	-14399
▁크레이지	-14400
▁배고	-14401
방사기	-14402
▁화염방사기	-14403
▁정진	-14404
▁Mir	-14405
▁철벽	-14406
▁col	-14407
▁over	-14408
거진	-14409
▁배럴	-14410
큐버스	-14411
au	-14412
▁황자	-14413
▁무언가	-14414
▁블라디미르	-14415
▁송파	-14416
▁투타	-14417
▁두드리	-14418
▁TF	-14419
▁정제	-14420
▁최적화	-14421
르바	-14422
그러지	-14423
▁로마자	-14424
▁심슨	-14425
▁감속	-14426
▁그래프	-14427
▁로로	-14428
중국	-14429
▁붕대	-14430
▁Sur	-14431
▁버금가	-14432
▁보유자	-14433
▁이나즈마	-14434
▁비정	-14435
▁마코	-14436
▁항로	-14437
▁동거	-14438
▁유세	-14439
▁인신	-14440
▁고스란히	-14441
▁1400	-14442
▁전류	-14443
▁친근	-14444
▁소모품	-14445
▁배틀필드	-14446
▁FFFFFF	-14447
▁선명	-14448
▁다이렉트	-14449
용차	-14450
▁Off	-14451
▁솔리드	-14452
▁터무니	-14453
▁스탠딩	-14454
▁창원시	-14455
▁단연	-14456
▁이가	-14457
▁콜롬비아	-14458
▁시제	-14459
드리히	-14460
▁전투복	-14461
ius	-14462
▁상정	-14463
▁로드리	-14464
▁뿜어내	-14465
파니	-14466
▁성급	-14467
▁몰아치	-14468
UK	-14469
둘기	-14470
▁자라나	-14471
▁일부분	-14472
겨지	-14473
로이	-14474
▁사면	-14475
▁사설	-14476
위치	-14477
▁이어폰	-14478
▁집정관	-14479
▁사바	-14480
▁유스케	-14481
36	-14482
▁글리	-14483
▁버즈	-14484
교육	-14485
▁터리	-14486
▁리바이	-14487
▁상류	-14488
▁중령	-14489
▁안토니오	-14490
▁신촌	-14491
▁포화	-14492
▁동포	-14493
▁증후군	-14494
▁주성	-14495
21	-14496
블랑	-14497
준호	-14498
▁단거리	-14499
▁지휘자	-14500
▁체급	-14501
▁강호동	-14502
▁채굴	-14503
▁비범	-14504
▁KD	-14505
▁~'	-14506
▁타협	-14507
▁에로게	-14508
▁사카모토	-14509
ata	-14510
▁심포	-14511
▁부딪치	-14512
▁프론티어	-14513
▁yeah	-14514
HD	-14515
▁콥	-14516
▁군단장	-14517
▁노사	-14518
▁정연	-14519
▁비즈니스	-14520
▁독설	-14521
▁모방	-14522
▁액트	-14523
▁Bad	-14524
▁Int	-14525
▁김택용	-14526
▁간장	-14527
▁WOR	-14528
▁칸나	-14529
▁현질	-14530
▁아노	-14531
ㄸㅏ	-14532
▁풋볼	-14533
▁매사	-14534
▁제네시스	-14535
▁탈리	-14536
▁투기	-14537
▁랜디	-14538
▁써니	-14539
oney	-14540
▁장단	-14541
▁정직	-14542
▁민병대	-14543
▁선비	-14544
▁엠파이어	-14545
▁김영삼	-14546
INE	-14547
▁감도	-14548
▁공석	-14549
▁노마	-14550
▁두텁	-14551
▁선형	-14552
▁대제	-14553
▁락스	-14554
▁장동민	-14555
▁한결	-14556
▁황족	-14557
▁DDR	-14558
▁톡톡	-14559
▁프리드리히	-14560
▁데뷔작	-14561
▁1938	-14562
▁대두	-14563
▁들통	-14564
▁백수	-14565
▁피버	-14566
▁류지	-14567
▁코브라	-14568
▁자민	-14569
▁시프트	-14570
▁자의	-14571
▁결투장	-14572
▁세이지	-14573
▁노이	-14574
▁스탠스	-14575
▁최우선	-14576
▁당근	-14577
▁시세	-14578
▁군중	-14579
▁인스	-14580
▁Po	-14581
▁안치	-14582
▁WCS	-14583
▁미유	-14584
▁나탈	-14585
▁침식	-14586
▁나폴리	-14587
▁아르테	-14588
▁'-	-14589
▁저력	-14590
vent	-14591
▁가산	-14592
▁미토	-14593
▁Ul	-14594
▁결별	-14595
▁안중	-14596
▁관대	-14597
▁어도	-14598
▁역전패	-14599
▁끊이	-14600
▁마호	-14601
▁산화	-14602
▁영령	-14603
▁체조	-14604
▁치히로	-14605
준혁	-14606
ck	-14607
▁억압	-14608
▁골리앗	-14609
▁버니	-14610
▁성유	-14611
▁파열	-14612
▁긴장감	-14613
▁그지	-14614
▁휴전	-14615
▁천도	-14616
▁조류	-14617
▁주시	-14618
틱스	-14619
▁걸스	-14620
▁행정부	-14621
▁JC	-14622
토미	-14623
▁전갈	-14624
마트	-14625
드래곤	-14626
▁메이크	-14627
▁운전자	-14628
▁275	-14629
▁탈탈	-14630
▁블루스	-14631
▁Ass	-14632
▁노스케	-14633
제이	-14634
▁카논	-14635
▁리조트	-14636
▁관건	-14637
▁일갈	-14638
line	-14639
▁메두사	-14640
▁Are	-14641
▁동대문	-14642
UL	-14643
▁마공	-14644
▁오아	-14645
▁짓밟	-14646
▁org	-14647
▁탄수	-14648
▁외래어	-14649
▁그토록	-14650
▁하늘색	-14651
▁TWICE	-14652
렁이	-14653
▁명품	-14654
▁매개	-14655
▁비올	-14656
▁템플러	-14657
▁221	-14658
비언	-14659
▁유노	-14660
▁치프	-14661
▁튜브	-14662
▁때때로	-14663
▁성가시	-14664
▁분전	-14665
▁루드	-14666
▁광학	-14667
▁두께	-14668
▁구애	-14669
ague	-14670
▁애틀	-14671
▁Match	-14672
▁산산	-14673
▁페루	-14674
▁say	-14675
고루	-14676
▁입법	-14677
▁순순	-14678
ㄴㄷㅐ	-14679
▁졸지	-14680
▁현행	-14681
▁패미컴	-14682
AA	-14683
UST	-14684
▁Eng	-14685
▁만화책	-14686
▁소량	-14687
▁학업	-14688
ton	-14689
▁모치	-14690
▁외침	-14691
▁거유	-14692
▁휘둘리	-14693
▁눌	-14694
▁재빠르	-14695
▁교직원	-14696
방식	-14697
▁타츠야	-14698
감치	-14699
▁가가	-14700
▁즉석	-14701
찌감치	-14702
▁올리버	-14703
▁배척	-14704
▁베른	-14705
▁애틀랜	-14706
▁총구	-14707
▁노동당	-14708
▁시오리	-14709
▁#,	-14710
▁차마	-14711
▁섹터	-14712
▁지체	-14713
▁출세	-14714
▁팻	-14715
규어	-14716
▁용품	-14717
▁정자	-14718
▁잿	-14719
▁마리사	-14720
▁클로버	-14721
세이더	-14722
▁아르메	-14723
▁크루세이더	-14724
홍철	-14725
▁ac	-14726
▁쿼드	-14727
▁샌드박스	-14728
▁요동	-14729
▁PvP	-14730
▁경전차	-14731
▁대장장이	-14732
78	-14733
▁세토	-14734
▁시발	-14735
▁쏠리	-14736
▁찾아다니	-14737
피탈	-14738
▁레베	-14739
▁에프	-14740
▁AMD	-14741
▁아츠시	-14742
▁신한은행	-14743
▁프라이즈	-14744
▁음모론	-14745
▁홈구장	-14746
▁래쉬	-14747
페스트	-14748
▁자본주의	-14749
▁건립	-14750
▁스스	-14751
▁발트	-14752
▁샌디	-14753
▁조로	-14754
▁엇갈리	-14755
▁응징	-14756
▁브리핑	-14757
컨대	-14758
▁RED	-14759
▁쌩	-14760
▁폭군	-14761
▁멀린	-14762
▁시립	-14763
▁법무부	-14764
▁로미	-14765
▁하얀	-14766
▁케미	-14767
▁Char	-14768
▁가와	-14769
툭튀	-14770
▁플로리다	-14771
▁시르	-14772
▁짤막	-14773
▁여명	-14774
▁사생활	-14775
▁기린	-14776
▁헬로	-14777
▁바이퍼	-14778
▁커맨더	-14779
▁괴멸	-14780
▁금곡	-14781
▁Core	-14782
▁즘	-14783
erm	-14784
▁시애	-14785
▁최진	-14786
▁치키	-14787
▁갑툭튀	-14788
▁고원	-14789
▁엘소드	-14790
▁리벤	-14791
▁폭투	-14792
▁여행자	-14793
▁XY	-14794
▁츠바키	-14795
▁트레인	-14796
▁노후	-14797
▁셔츠	-14798
▁슬래시	-14799
▁타케루	-14800
▁see	-14801
▁캉	-14802
매치	-14803
▁피크	-14804
und	-14805
의지	-14806
ute	-14807
▁대관	-14808
▁제드	-14809
▁부두	-14810
▁티타	-14811
▁1952	-14812
▁데스매치	-14813
▁중소기업	-14814
▁데이비스	-14815
▁아쉬워하	-14816
▁재혼	-14817
▁희미	-14818
▁사업자	-14819
hy	-14820
▁행각	-14821
▁몬테	-14822
▁번거	-14823
▁수영장	-14824
▁순순히	-14825
▁케르	-14826
▁제각	-14827
▁단번에	-14828
▁최형	-14829
▁216	-14830
▁수도원	-14831
▁}}}}	-14832
▁방대	-14833
▁거듭나	-14834
▁꼼짝	-14835
▁티나	-14836
▁갱단	-14837
▁수뇌	-14838
▁경비원	-14839
▁일정량	-14840
▁}}}}}}	-14841
▁BW	-14842
▁BRV	-14843
▁리언	-14844
▁묵직	-14845
▁Now	-14846
▁일직선	-14847
▁매거진	-14848
▁자판기	-14849
▁Blood	-14850
▁퇴마	-14851
▁수속	-14852
▁뒤바	-14853
▁416	-14854
▁눈부시	-14855
▁발렌시아	-14856
▁치아	-14857
▁213	-14858
▁농어촌	-14859
▁란트	-14860
▁노드	-14861
▁부합	-14862
▁세단	-14863
▁유시	-14864
▁척하	-14865
▁힘쓰	-14866
▁마토	-14867
▁히이	-14868
▁고베	-14869
▁진공	-14870
▁우동	-14871
▁여덟	-14872
▁조원	-14873
▁다크니스	-14874
▁부녀	-14875
▁빼놓	-14876
▁넘쳐나	-14877
▁앞쪽	-14878
▁재규어	-14879
▁동국	-14880
▁아재	-14881
자루	-14882
▁2021	-14883
▁수군	-14884
▁화랑	-14885
▁탈주	-14886
▁댈	-14887
ILL	-14888
▁Rob	-14889
▁길목	-14890
▁Joh	-14891
▁타가	-14892
▁시애틀	-14893
▁요르	-14894
어들이	-14895
▁루즈	-14896
▁럭스	-14897
▁환불	-14898
▁헤라클레스	-14899
▁츠치	-14900
▁가쿠	-14901
red	-14902
정동	-14903
▁기공	-14904
▁누님	-14905
▁매점	-14906
▁리히	-14907
▁our	-14908
레즈	-14909
▁햇빛	-14910
▁티셔츠	-14911
▁아틀라스	-14912
▁서스	-14913
▁선하	-14914
▁쪽지	-14915
▁해저	-14916
▁아카기	-14917
▁Last	-14918
▁레비	-14919
▁후후	-14920
▁장녀	-14921
▁슬쩍	-14922
▁우이	-14923
▁관전	-14924
나들	-14925
▁농촌	-14926
▁릭스	-14927
ism	-14928
▁브란	-14929
▁조인	-14930
▁앨리	-14931
▁일선	-14932
▁치밀	-14933
▁서유	-14934
▁도보	-14935
▁fr	-14936
▁소름	-14937
▁ㅇㅜㄹ	-14938
▁후리	-14939
▁릉	-14940
▁욕먹	-14941
▁친선	-14942
▁테츠야	-14943
▁퍼시픽	-14944
▁간편	-14945
▁둔화	-14946
▁익스프레스	-14947
55	-14948
▁BBC	-14949
▁숙명	-14950
▁아리사	-14951
맹이	-14952
III	-14953
▁현수	-14954
▁충공	-14955
▁힘겹	-14956
▁부끄	-14957
▁볼일	-14958
▁바흐	-14959
▁명장면	-14960
▁세무	-14961
아내리	-14962
▁충실히	-14963
▁사력	-14964
▁야자	-14965
▁대장군	-14966
▁1300	-14967
▁평안	-14968
▁정적	-14969
▁위조	-14970
▁기염	-14971
▁스노	-14972
▁흉터	-14973
▁능동	-14974
▁건너편	-14975
OCK	-14976
▁충동	-14977
▁마사무네	-14978
▁선글라스	-14979
▁고모	-14980
▁레그	-14981
▁코칭	-14982
▁햄버거	-14983
▁에테르	-14984
▁디트로	-14985
▁막아서	-14986
▁디트로이트	-14987
▁심부	-14988
▁리시	-14989
▁모건	-14990
▁재화	-14991
▁오일	-14992
▁유배	-14993
▁중사	-14994
▁모탈	-14995
▁아득	-14996
▁아종	-14997
▁화판	-14998
▁급상	-14999
조작	-15000
▁ㅁㅐ	-15001
▁헌병	-15002
▁헤븐	-15003
▁right	-15004
ets	-15005
▁속사	-15006
▁필기	-15007
▁사납	-15008
▁케어	-15009
add	-15010
▁토코	-15011
▁승부조작	-15012
▁애리	-15013
▁조슈	-15014
▁친화	-15015
▁타오르	-15016
괭이	-15017
일관	-15018
게임넷	-15019
▁온게임넷	-15020
▁기판	-15021
애미	-15022
▁두근두근	-15023
▁비둘기	-15024
▁ㅁㅕㄴㅇㅡㄴ	-15025
▁기통	-15026
▁임상	-15027
▁전고	-15028
▁경영학	-15029
▁경의	-15030
▁Magic	-15031
미츠	-15032
뿌리	-15033
▁블리츠	-15034
▁마이애미	-15035
미사	-15036
▁검찰청	-15037
▁기생충	-15038
▁벤트	-15039
▁분수	-15040
▁선천	-15041
▁회자	-15042
▁강남구	-15043
▁cr	-15044
▁과다	-15045
▁악인	-15046
▁알비	-15047
▁업종	-15048
▁재선	-15049
▁미니게임	-15050
xt	-15051
포로	-15052
▁보이드	-15053
▁시라이	-15054
▁여느	-15055
▁국물	-15056
▁무모	-15057
▁통학	-15058
▁경희대	-15059
▁방어전	-15060
▁소망	-15061
▁1953	-15062
▁조선일보	-15063
▁드래곤즈	-15064
코스	-15065
▁NA	-15066
▁센트리	-15067
ama	-15068
▁구미호	-15069
▁돌풍	-15070
▁단백질	-15071
▁레이크	-15072
▁저스틴	-15073
▁완패	-15074
▁데일리	-15075
▁유소년	-15076
장구	-15077
▁료마	-15078
▁학부모	-15079
▁슬라이딩	-15080
▁가주	-15081
▁국수	-15082
▁다이크	-15083
▁데스크	-15084
▁Like	-15085
ㅇㅜ	-15086
▁메탈기어	-15087
▁안식	-15088
▁여하	-15089
88	-15090
▁풍속	-15091
OWN	-15092
▁직계	-15093
천역	-15094
▁표명	-15095
▁근래	-15096
▁자자	-15097
▁거리표	-15098
▁7000	-15099
매매	-15100
외선	-15101
▁악질	-15102
▁눈썹	-15103
▁병신	-15104
▁나뭇잎	-15105
▁짊	-15106
▁Alb	-15107
▁소아	-15108
▁초딩	-15109
▁HOT	-15110
▁중화기	-15111
▁팬클럽	-15112
▁백룡	-15113
▁동산	-15114
▁비석	-15115
▁국정원	-15116
▁pe	-15117
▁앞장	-15118
▁무네	-15119
수엘라	-15120
▁RR	-15121
▁해프	-15122
▁그해	-15123
▁쓸쓸	-15124
▁희생양	-15125
그마	-15126
▁서인	-15127
▁상하이	-15128
▁시빌	-15129
▁튀김	-15130
▁영화관	-15131
▁재판소	-15132
▁활주로	-15133
▁정종	-15134
▁진해	-15135
▁카츠키	-15136
타기	-15137
▁관광지	-15138
▁극성	-15139
니지	-15140
▁암흑기	-15141
▁피칭	-15142
▁Happy	-15143
▁눕히	-15144
▁서약	-15145
▁Soul	-15146
▁순삭	-15147
▁홉	-15148
▁호우	-15149
▁권고	-15150
▁총대	-15151
ader	-15152
▁찜	-15153
▁승부차기	-15154
▁재미없	-15155
▁Nor	-15156
▁법정동	-15157
▁사쿠야	-15158
▁권역	-15159
▁텐더	-15160
▁출연자	-15161
▁토사	-15162
▁히코	-15163
▁매그넘	-15164
▁암기	-15165
▁침체	-15166
OWER	-15167
▁거미줄	-15168
▁양도	-15169
▁차출	-15170
▁프랭클린	-15171
▁하자드	-15172
▁가세	-15173
▁박태	-15174
▁잔여	-15175
▁첨가	-15176
▁드래그	-15177
▁자가	-15178
▁미나토	-15179
▁아킬	-15180
▁RPM	-15181
이인	-15182
▁223	-15183
▁잽	-15184
▁원어	-15185
▁음란	-15186
▁남극	-15187
▁이천	-15188
ga	-15189
▁가넷	-15190
▁사단장	-15191
탕스	-15192
▁고갈	-15193
▁농부	-15194
▁세레나	-15195
▁레지스탕스	-15196
▁자정	-15197
▁성남시	-15198
▁이대호	-15199
▁몸집	-15200
▁포진	-15201
▁there	-15202
▁메르시	-15203
▁방정식	-15204
이프	-15205
▁사병	-15206
▁세실	-15207
▁토토	-15208
▁잘생기	-15209
▁총사령관	-15210
▁불허	-15211
▁프라이드	-15212
▁본드	-15213
▁사역	-15214
▁니즘	-15215
▁악보	-15216
▁사비	-15217
ther	-15218
▁생방송	-15219
▁연안	-15220
▁마크로스	-15221
▁TT	-15222
▁포레스트	-15223
ocal	-15224
▁베네수엘라	-15225
▁정윤	-15226
▁필승	-15227
▁해프닝	-15228
▁사요	-15229
▁Party	-15230
▁신종	-15231
▁그물	-15232
▁이메	-15233
▁전과	-15234
▁체로	-15235
▁리포	-15236
어내리	-15237
▁삽입곡	-15238
▁몽땅	-15239
▁이범	-15240
▁비룡	-15241
▁크리드	-15242
▁ph	-15243
▁이로	-15244
▁범주	-15245
▁코팅	-15246
▁Sim	-15247
▁Side	-15248
▁365	-15249
▁낙하산	-15250
▁GX	-15251
▁금하	-15252
▁김소	-15253
베이스	-15254
▁베르크	-15255
uz	-15256
▁이의	-15257
▁레프트	-15258
▁Show	-15259
▁볼리	-15260
▁비대	-15261
▁성동	-15262
▁클라우	-15263
▁대입	-15264
▁문성	-15265
▁사위	-15266
▁화룡	-15267
▁방관	-15268
▁이목	-15269
▁철퇴	-15270
▁갈아입	-15271
▁동명이인	-15272
▁피신	-15273
▁혼나	-15274
▁역과	-15275
▁교향곡	-15276
▁무당	-15277
ERF	-15278
▁임페	-15279
▁Edition	-15280
부리	-15281
ONE	-15282
▁수송선	-15283
▁자멸	-15284
▁체구	-15285
▁골고루	-15286
니치	-15287
▁날라	-15288
▁하이브	-15289
▁정대	-15290
▁net	-15291
▁girl	-15292
니르	-15293
▁산호	-15294
▁민트	-15295
▁선역	-15296
▁카메오	-15297
▁불안감	-15298
▁공시	-15299
▁덤벼	-15300
▁Open	-15301
자국	-15302
▁370	-15303
더리	-15304
BOX	-15305
▁도입부	-15306
ated	-15307
▁충공깽	-15308
▁아레스	-15309
▁임용	-15310
▁계승자	-15311
▁테슬라	-15312
장판	-15313
▁IF	-15314
▁깜빡	-15315
▁바트	-15316
▁쿠도	-15317
▁뒤쳐지	-15318
▁막말	-15319
▁여대	-15320
rew	-15321
▁헤지	-15322
▁크리에이터	-15323
work	-15324
▁이츠키	-15325
▁읊	-15326
▁산체스	-15327
▁장기전	-15328
ley	-15329
▁에티	-15330
▁got	-15331
▁스피리	-15332
▁1957	-15333
▁쌈	-15334
벅지	-15335
▁마취	-15336
▁Und	-15337
▁성희	-15338
▁feel	-15339
▁격납	-15340
▁순조	-15341
▁쩌	-15342
▁네로	-15343
▁주임	-15344
▁크로노스	-15345
ASS	-15346
▁장학금	-15347
▁Mark	-15348
▁조세	-15349
▁Cap	-15350
▁Way	-15351
hammer	-15352
▁역설	-15353
▁용왕	-15354
▁마키나	-15355
▁뜬공	-15356
▁수납	-15357
▁연성	-15358
▁his	-15359
▁아유미	-15360
▁에어리어	-15361
▁룽	-15362
▁링컨	-15363
▁맨날	-15364
▁청문	-15365
▁기어이	-15366
▁진행하	-15367
형제	-15368
▁레타	-15369
▁조나	-15370
▁알파벳	-15371
▁플랫폼	-15372
▁재무	-15373
▁일찌감치	-15374
▁미달	-15375
98	-15376
▁얌전	-15377
▁who	-15378
▁시위대	-15379
▁노원	-15380
▁이쁘	-15381
ster	-15382
▁붉은색	-15383
▁키쿠	-15384
▁수법	-15385
▁임페리얼	-15386
▁미용	-15387
▁공중전	-15388
▁사우디아	-15389
▁코로	-15390
▁Pol	-15391
▁투표율	-15392
▁쟁탈전	-15393
▁보급품	-15394
▁구루	-15395
▁대의	-15396
▁후카	-15397
▁도호쿠	-15398
▁성범죄	-15399
▁경순양함	-15400
▁투석	-15401
▁감염자	-15402
▁천연가스	-15403
▁방영일	-15404
▁플레인	-15405
▁하시모토	-15406
▁유수	-15407
▁급상승	-15408
▁에러	-15409
▁블루투스	-15410
▁micro	-15411
▁김호	-15412
▁SKE	-15413
▁Val	-15414
▁Na	-15415
▁여리	-15416
▁ㄹㅑ	-15417
▁작물	-15418
▁후려치	-15419
▁Angel	-15420
▁브라이	-15421
▁watch	-15422
ird	-15423
▁시커	-15424
▁터프	-15425
▁대변인	-15426
▁충주	-15427
▁타지	-15428
▁인플레	-15429
▁개화	-15430
▁반달	-15431
▁남아공	-15432
▁특출나	-15433
▁총재	-15434
▁라이토	-15435
▁쿠폰	-15436
▁퍼니	-15437
▁영조	-15438
▁시종일관	-15439
48	-15440
▁신년	-15441
▁남친	-15442
▁아프가	-15443
▁몸체	-15444
▁Comp	-15445
▁능욕	-15446
▁엘런	-15447
▁전복	-15448
▁프레드	-15449
▁활약상	-15450
▁비운	-15451
▁토카	-15452
▁내리치	-15453
▁음식점	-15454
▁내려지	-15455
▁아르메니아	-15456
선거	-15457
▁역전재판	-15458
▁복각	-15459
▁입상	-15460
더스트	-15461
▁오리콘	-15462
▁떨리	-15463
▁백지	-15464
▁정경	-15465
▁카터	-15466
▁봄버	-15467
▁바람직	-15468
▁잣	-15469
▁맞춤	-15470
▁950	-15471
▁배수량	-15472
▁금서	-15473
▁레테	-15474
▁옵스	-15475
▁지자체	-15476
▁해결책	-15477
▁변함	-15478
▁아야노	-15479
▁왕건	-15480
▁며느리	-15481
▁바운드	-15482
▁구라	-15483
▁화보	-15484
▁의존도	-15485
▁퍼트	-15486
▁부토	-15487
▁알루미	-15488
▁버퍼	-15489
▁알코	-15490
▁베르나	-15491
피드	-15492
▁만악	-15493
▁090	-15494
▁1947	-15495
▁그리폰	-15496
▁디에고	-15497
▁미공개	-15498
▁남짓	-15499
▁장담	-15500
▁시드니	-15501
▁빽	-15502
▁댈러스	-15503
▁덕택	-15504
▁큰일	-15505
▁절약	-15506
▁Legend	-15507
▁알맞	-15508
▁화끈	-15509
▁누락	-15510
▁피쳐	-15511
▁Fly	-15512
▁토우마	-15513
▁소주	-15514
▁근황	-15515
▁성주	-15516
▁푸쉬	-15517
▁개더링	-15518
▁Fall	-15519
▁Stage	-15520
▁허니	-15521
▁의류	-15522
▁전령	-15523
▁효력	-15524
▁엘더스	-15525
▁민족주의	-15526
▁경합	-15527
▁화질	-15528
▁복권	-15529
▁엑셀	-15530
▁특권	-15531
▁에어컨	-15532
▁카트리	-15533
▁부러	-15534
▁상고	-15535
▁하반신	-15536
▁기각	-15537
▁위태	-15538
▁수족	-15539
▁윤성	-15540
▁소탕	-15541
▁이석	-15542
레톤	-15543
▁교무실	-15544
▁점포	-15545
▁애틀랜타	-15546
▁잠식	-15547
▁치토	-15548
▁무서	-15549
▁상임	-15550
▁식인	-15551
▁유하	-15552
▁키시	-15553
▁폐하	-15554
▁스켈레톤	-15555
stem	-15556
▁First	-15557
▁멱	-15558
▁무패	-15559
▁분과	-15560
ura	-15561
▁선별	-15562
▁맞대결	-15563
▁일기토	-15564
▁!!!	-15565
▁245	-15566
▁중순양함	-15567
▁적기	-15568
▁벼락	-15569
▁연기자	-15570
▁한성	-15571
▁수분	-15572
▁항우	-15573
▁Sam	-15574
▁짊어지	-15575
▁아프가니스탄	-15576
▁부디	-15577
▁전경	-15578
▁희박	-15579
▁호라이즌	-15580
무로	-15581
▁수박	-15582
▁중추	-15583
라비아	-15584
▁빅토리	-15585
▁촛불	-15586
▁Perf	-15587
▁케니	-15588
▁미카엘	-15589
▁신민	-15590
▁주루	-15591
▁이관	-15592
▁통역	-15593
▁흐트	-15594
▁이끌리	-15595
▁꼭대기	-15596
▁박병호	-15597
▁life	-15598
udio	-15599
▁불분	-15600
▁상경	-15601
▁엘릭	-15602
▁유교	-15603
▁활기	-15604
▁빌헬	-15605
▁양평	-15606
▁어설트	-15607
▁엑스맨	-15608
▁구비	-15609
▁마운틴	-15610
▁꾀하	-15611
▁재주	-15612
▁예매	-15613
▁유한	-15614
▁540	-15615
▁쥴	-15616
지기	-15617
▁평정	-15618
▁경전철	-15619
벨트	-15620
▁단타	-15621
▁저항군	-15622
▁익명	-15623
▁웨딩	-15624
▁234	-15625
▁로버	-15626
▁코일	-15627
트리스	-15628
▁검도	-15629
▁자위	-15630
▁Free	-15631
▁전념	-15632
▁번영	-15633
▁FBI	-15634
▁그리스어	-15635
▁벌어들이	-15636
▁조현	-15637
▁좌완	-15638
▁가중	-15639
▁중공업	-15640
▁트라웃	-15641
▁Class	-15642
▁Final	-15643
▁추위	-15644
▁-!	-15645
▁과잉	-15646
▁판과	-15647
▁틀어막	-15648
▁생포	-15649
▁중론	-15650
▁시연	-15651
▁알몸	-15652
▁전염병	-15653
▁무소	-15654
▁비열	-15655
▁이도	-15656
▁Break	-15657
▁갑주	-15658
▁이유로	-15659
▁겸비	-15660
▁푸른색	-15661
부수	-15662
▁부기	-15663
▁불분명	-15664
고생	-15665
▁Er	-15666
▁콩두	-15667
▁행세	-15668
▁오바마	-15669
err	-15670
▁헤더	-15671
▁top	-15672
▁ㅇㅡㄴㄱㅏ	-15673
▁만화가	-15674
▁오카다	-15675
▁알루미늄	-15676
▁성우진	-15677
▁손책	-15678
▁Spring	-15679
TH	-15680
arius	-15681
▁헌납	-15682
▁파워레인저	-15683
▁소폭	-15684
▁운임	-15685
▁어쩌다	-15686
▁유다	-15687
▁오리지날	-15688
▁총회	-15689
ling	-15690
레일리아	-15691
건설	-15692
▁City	-15693
치오	-15694
▁라지	-15695
▁세조	-15696
▁승승	-15697
▁440	-15698
▁상승세	-15699
▁스튜어트	-15700
▁반대쪽	-15701
▁내공	-15702
▁언론사	-15703
AGE	-15704
▁온전	-15705
캐슬	-15706
▁~?	-15707
피어	-15708
▁엎드리	-15709
▁카자마	-15710
▁나카노	-15711
▁Down	-15712
▁키사라기	-15713
▁수뇌부	-15714
▁Never	-15715
페어	-15716
▁포메	-15717
▁불가피	-15718
가요	-15719
혀가	-15720
▁로페	-15721
▁김구라	-15722
▁무방비	-15723
ux	-15724
▁미처	-15725
▁엠블럼	-15726
▁ㄹㅏㅂㅅㅣ	-15727
▁잡혀가	-15728
▁지명타자	-15729
▁진범	-15730
▁덩달	-15731
▁249	-15732
▁막론	-15733
▁Cor	-15734
▁아스타	-15735
▁이문	-15736
▁힘내	-15737
▁MAN	-15738
yes	-15739
▁베끼	-15740
▁쇼군	-15741
▁GDP	-15742
▁투르	-15743
▁명실	-15744
▁아벨	-15745
▁준장	-15746
▁체내	-15747
만다	-15748
▁김제	-15749
▁슬래	-15750
▁이니셜	-15751
▁하얀색	-15752
소니	-15753
해군	-15754
▁조니	-15755
▁쥬라기	-15756
▁자바	-15757
▁오우거	-15758
tm	-15759
▁겁쟁이	-15760
▁잠자	-15761
▁엄폐물	-15762
▁카라스	-15763
▁중파	-15764
▁졸리	-15765
▁경비병	-15766
▁뉴캐슬	-15767
▁청주시	-15768
▁이시카와	-15769
▁수제	-15770
▁슬러	-15771
▁린다	-15772
▁비평	-15773
▁껴	-15774
▁봉하	-15775
REME	-15776
▁Mon	-15777
IVE	-15778
▁수혜	-15779
▁머릿속	-15780
▁대전광역시	-15781
슬쩍	-15782
▁If	-15783
▁노프	-15784
▁부우	-15785
▁사냥터	-15786
▁바드	-15787
▁법조	-15788
▁GOT	-15789
▁삿포로	-15790
▁잔재	-15791
▁명은	-15792
▁복부	-15793
그라드	-15794
▁How	-15795
▁메츠	-15796
ㄱㅓㄹ	-15797
고쿠	-15798
▁선상	-15799
▁대리인	-15800
▁루기	-15801
▁세가	-15802
▁벤츠	-15803
▁질질	-15804
▁급습	-15805
▁제복	-15806
▁앤더슨	-15807
▁나지	-15808
▁허술	-15809
▁-.	-15810
▁우려먹	-15811
▁후작	-15812
▁PRO	-15813
▁쌍용	-15814
▁무안타	-15815
▁BP	-15816
▁물음	-15817
▁도메	-15818
ㄲㅏㄴ	-15819
▁"..	-15820
▁더러	-15821
▁송병구	-15822
블루	-15823
▁후세	-15824
▁케로로	-15825
▁프리드	-15826
▁최원	-15827
▁동급생	-15828
▁자재	-15829
▁망각	-15830
▁죄인	-15831
▁김정일	-15832
▁엠블렘	-15833
▁광폭	-15834
▁분화	-15835
▁열렬	-15836
▁평지	-15837
▁동유럽	-15838
▁티라노	-15839
▁베토	-15840
tain	-15841
영수	-15842
▁밀러	-15843
▁나오키	-15844
▁사죄	-15845
현동	-15846
▁어로	-15847
▁유체	-15848
▁지중	-15849
ause	-15850
▁김신	-15851
▁니퍼	-15852
▁유죄	-15853
IME	-15854
▁검기	-15855
▁판본	-15856
▁뚱뚱	-15857
즐리	-15858
erry	-15859
▁219	-15860
▁사우디아라비아	-15861
▁체크카드	-15862
▁AW	-15863
▁또래	-15864
▁악수	-15865
▁인승	-15866
▁Sn	-15867
▁한승	-15868
▁신격	-15869
▁창출	-15870
▁1914	-15871
▁Swe	-15872
▁띵	-15873
▁일개	-15874
제리	-15875
▁sk	-15876
▁자치령	-15877
▁직진	-15878
▁무리수	-15879
raft	-15880
칼리버	-15881
▁1951	-15882
피온	-15883
▁9000	-15884
▁이형	-15885
▁티거	-15886
▁Mem	-15887
iny	-15888
▁226	-15889
▁레니	-15890
▁명백히	-15891
▁공채	-15892
▁입당	-15893
▁안테나	-15894
▁연호	-15895
▁품종	-15896
▁건축물	-15897
▁서스펜	-15898
나시	-15899
▁맥시	-15900
▁엠마	-15901
▁짱구	-15902
▁편도	-15903
▁마카오	-15904
▁세이부	-15905
라이언트	-15906
▁자유주의	-15907
▁로토	-15908
▁사복	-15909
▁알트	-15910
▁위저드	-15911
▁뛰어오르	-15912
안군	-15913
평균	-15914
▁팰리스	-15915
▁불발	-15916
▁저널	-15917
▁밸브	-15918
▁011	-15919
▁현무	-15920
▁광동	-15921
▁수전	-15922
▁클라이언트	-15923
▁악장	-15924
▁선후	-15925
▁시녀	-15926
▁저음	-15927
▁걷어	-15928
▁번번	-15929
▁코우지	-15930
▁염동	-15931
신기	-15932
▁스투	-15933
▁구이	-15934
▁베아	-15935
▁신태	-15936
영향	-15937
▁성령	-15938
▁시프	-15939
▁KCC	-15940
스부르크	-15941
재욱	-15942
▁베레	-15943
▁청취	-15944
▁페달	-15945
▁순항	-15946
코스터	-15947
▁빈센트	-15948
de	-15949
▁정치력	-15950
닥치	-15951
▁승계	-15952
▁국무총리	-15953
▁합금	-15954
▁버겁	-15955
▁변속기	-15956
▁곡사	-15957
▁성품	-15958
▁야스오	-15959
▁후하	-15960
▁RX	-15961
▁한중	-15962
▁end	-15963
리히	-15964
ival	-15965
▁최형우	-15966
▁롤러코스터	-15967
▁체하	-15968
▁끝없이	-15969
▁의뢰인	-15970
▁그제서야	-15971
▁그러다가	-15972
요리	-15973
▁숙지	-15974
▁반납	-15975
▁주주	-15976
▁토바	-15977
테라	-15978
▁1937	-15979
▁꾹	-15980
▁베로	-15981
▁위닝	-15982
▁노선도	-15983
▁허벅지	-15984
▁섣	-15985
▁숨결	-15986
▁야인	-15987
▁니즈	-15988
▁뛰어내리	-15989
▁박하	-15990
▁하나님	-15991
▁마석	-15992
▁바알	-15993
▁전우	-15994
▁화가	-15995
74	-15996
▁투여	-15997
▁APC	-15998
▁cont	-15999
▁티모	-16000
▁빙글	-16001
▁브래드	-16002
▁난장판	-16003
▁명왕	-16004
▁서재	-16005
▁다이빙	-16006
▁얍	-16007
▁만우	-16008
RO	-16009
▁밀접	-16010
▁오산	-16011
▁aqu	-16012
▁그레이브	-16013
▁오스트레일리아	-16014
▁하쿠	-16015
▁검색어	-16016
▁make	-16017
▁228	-16018
대표	-16019
▁신봉	-16020
▁양양	-16021
▁큐트	-16022
▁가늠	-16023
▁슬립	-16024
김없이	-16025
▁훈련소	-16026
▁애시당초	-16027
▁오스틴	-16028
▁"'	-16029
▁에버튼	-16030
▁샬롯	-16031
▁예술가	-16032
▁이송	-16033
다듬	-16034
▁컬링	-16035
▁메가트론	-16036
▁EXTREME	-16037
▁폴라	-16038
▁크리스토퍼	-16039
테리어	-16040
▁224	-16041
▁375	-16042
▁play	-16043
▁Christ	-16044
▁젓	-16045
ATE	-16046
que	-16047
▁노라	-16048
▁서동	-16049
▁포자	-16050
▁PT	-16051
▁디럭스	-16052
▁블로킹	-16053
▁410	-16054
▁굴러가	-16055
▁어우러지	-16056
▁키치	-16057
▁방망	-16058
▁조개	-16059
나가와	-16060
▁233	-16061
▁어지럽	-16062
▁코요미	-16063
▁요양	-16064
▁베네치아	-16065
소통	-16066
▁의사소통	-16067
▁원상	-16068
▁Hol	-16069
▁세계수	-16070
▁설진	-16071
▁양말	-16072
▁평준	-16073
▁사생	-16074
▁시메	-16075
▁펠트	-16076
▁말살	-16077
▁행군	-16078
▁part	-16079
갔다	-16080
▁미도	-16081
▁선지	-16082
▁탄두	-16083
▁톱니	-16084
▁호각	-16085
▁제너럴	-16086
▁애니플러스	-16087
22	-16088
▁강령	-16089
▁결단	-16090
▁김은	-16091
▁춘추	-16092
▁보호자	-16093
리즘	-16094
모델	-16095
▁애니메이터	-16096
▁소란	-16097
▁라리	-16098
넌트	-16099
▁사하	-16100
▁츳	-16101
erg	-16102
▁박차	-16103
▁끌어오	-16104
▁피그	-16105
▁사츠키	-16106
▁착수	-16107
▁이달	-16108
▁싱크로	-16109
▁연구자	-16110
ONG	-16111
▁외장	-16112
▁차오르	-16113
▁야마자키	-16114
▁칼질	-16115
▁만우절	-16116
▁건의	-16117
▁성시	-16118
▁이강	-16119
▁정무	-16120
▁MIX	-16121
ino	-16122
▁경시	-16123
성군	-16124
▁성원	-16125
▁쌍검	-16126
▁Club	-16127
▁반려	-16128
▁자택	-16129
▁애리조	-16130
idd	-16131
▁캠핑	-16132
▁스맥	-16133
▁회유	-16134
▁일생	-16135
▁스맥다운	-16136
▁KE	-16137
▁골짜기	-16138
▁허다	-16139
▁러스트	-16140
▁again	-16141
▁미약	-16142
▁오보	-16143
▁최하위	-16144
▁리제	-16145
▁험악	-16146
▁Cry	-16147
▁레전더리	-16148
▁어시	-16149
▁반죽	-16150
▁래리	-16151
린더	-16152
▁사상자	-16153
ya	-16154
▁위아	-16155
썰트	-16156
▁중산	-16157
▁어썰트	-16158
▁태후	-16159
▁WHIP	-16160
▁과반	-16161
▁쇼타	-16162
▁에노	-16163
▁이롭	-16164
▁사찰	-16165
▁잔소리	-16166
전함	-16167
▁우먼	-16168
▁몸싸움	-16169
▁생계	-16170
▁개칭	-16171
▁교목	-16172
▁코러스	-16173
lo	-16174
임수	-16175
▁월터	-16176
▁세카	-16177
▁착취	-16178
▁hp	-16179
▁악평	-16180
▁황소	-16181
▁흉기	-16182
먼드	-16183
▁북서	-16184
▁슈리	-16185
▁유승민	-16186
▁판단력	-16187
▁고뇌	-16188
가르드	-16189
▁앤드류	-16190
▁폰트	-16191
▁슬로건	-16192
▁수퍼	-16193
▁시어터	-16194
▁고안	-16195
▁레코	-16196
▁스미레	-16197
▁레볼루션	-16198
▁간절	-16199
▁라니	-16200
▁음력	-16201
▁Come	-16202
▁둔기	-16203
▁heart	-16204
이라	-16205
▁전패	-16206
▁차우	-16207
▁근위	-16208
▁실탄	-16209
BY	-16210
▁귤	-16211
▁ㅇㅣㄴ	-16212
▁참모총장	-16213
사람	-16214
▁면도	-16215
▁알코올	-16216
▁대구경	-16217
▁편집자	-16218
▁오승	-16219
▁찬사	-16220
▁흥하	-16221
▁동탄	-16222
하니	-16223
HN	-16224
▁식별	-16225
일기	-16226
▁레이카	-16227
▁소프	-16228
▁필적	-16229
살렘	-16230
▁KA	-16231
▁유원	-16232
▁수산	-16233
▁이장	-16234
▁아르타	-16235
▁원성	-16236
▁진전	-16237
▁노홍철	-16238
▁윤종신	-16239
▁뺑	-16240
▁매도	-16241
루살렘	-16242
▁스테이크	-16243
▁린이	-16244
▁무로	-16245
▁증표	-16246
▁고철	-16247
▁순례	-16248
▁진기	-16249
걸음	-16250
▁악영향	-16251
▁항쟁	-16252
베르크	-16253
▁투수진	-16254
▁겉모습	-16255
▁노획	-16256
▁은혼	-16257
▁절감	-16258
▁성희롱	-16259
▁편애	-16260
▁줄리아	-16261
▁카르텔	-16262
▁NORM	-16263
▁never	-16264
▁블랑	-16265
▁젠지	-16266
▁쿄스케	-16267
▁이바	-16268
▁악세사리	-16269
▁급여	-16270
▁강서구	-16271
▁ㄷㅏㄴㄷㅏ	-16272
▁이탈리아어	-16273
▁한복	-16274
▁김종국	-16275
▁마사토	-16276
▁인원수	-16277
cy	-16278
▁린치	-16279
▁백병	-16280
이즈미	-16281
▁CIA	-16282
▁적과	-16283
▁라이덴	-16284
▁PH	-16285
▁독도	-16286
▁안장	-16287
▁미완성	-16288
▁받아치	-16289
열차	-16290
▁PM	-16291
▁블레	-16292
▁카오	-16293
폴리스	-16294
자치단체	-16295
▁설문	-16296
일본	-16297
▁성소	-16298
▁포상	-16299
▁김한	-16300
▁대도	-16301
▁어휘	-16302
▁bb	-16303
▁제명	-16304
▁앞장서	-16305
▁뻐	-16306
▁명확히	-16307
▁호문	-16308
▁적어지	-16309
▁마우	-16310
▁미네랄	-16311
▁땜	-16312
공주	-16313
▁이메일	-16314
ORA	-16315
OUR	-16316
▁동결	-16317
▁파탄	-16318
▁관용	-16319
▁미우	-16320
▁치과	-16321
▁지하실	-16322
▁이에야스	-16323
▁충원	-16324
▁Will	-16325
▁류우	-16326
▁옴니	-16327
▁일루	-16328
▁XC	-16329
▁xx	-16330
▁티격	-16331
▁불거지	-16332
▁Girls	-16333
aker	-16334
▁NORMAL	-16335
▁시정	-16336
▁Ah	-16337
▁거머	-16338
▁환원	-16339
▁유키노	-16340
▁돗	-16341
▁벳	-16342
▁동그	-16343
▁화전	-16344
▁끌어당기	-16345
▁동하	-16346
▁임재	-16347
▁어려	-16348
전대	-16349
▁순차	-16350
▁어부	-16351
▁정시	-16352
▁마이티	-16353
▁깍	-16354
▁예루살렘	-16355
▁콘테스트	-16356
회의	-16357
▁성취	-16358
르슈	-16359
▁쁘	-16360
▁루시안	-16361
▁퍼플	-16362
▁브로드	-16363
▁체이서	-16364
▁틈새	-16365
anger	-16366
▁차크라	-16367
▁카모	-16368
▁카프	-16369
▁세련	-16370
▁MY	-16371
▁코만	-16372
▁has	-16373
▁그분	-16374
▁물러서	-16375
메리카	-16376
▁멩	-16377
▁다마	-16378
▁평이	-16379
▁신빙	-16380
▁밤중	-16381
▁본거지	-16382
해야	-16383
▁김종민	-16384
onder	-16385
▁컨퍼런스	-16386
▁게재	-16387
▁부전	-16388
▁다이노	-16389
▁수사관	-16390
▁MUS	-16391
▁Sol	-16392
▁동남아	-16393
▁뜬금없	-16394
▁only	-16395
관계	-16396
▁수료	-16397
▁SEED	-16398
▁개리	-16399
▁수렴	-16400
▁실감	-16401
▁데니스	-16402
▁랠	-16403
▁RB	-16404
▁1919	-16405
▁프렌드	-16406
▁밧줄	-16407
▁수당	-16408
▁EXO	-16409
▁다그	-16410
▁음악가	-16411
▁Best	-16412
푸스	-16413
▁유부	-16414
▁점치	-16415
NG	-16416
▁빨아들이	-16417
▁개종	-16418
▁뿌요	-16419
▁각별	-16420
▁미코	-16421
▁페이퍼	-16422
▁경대	-16423
▁우대	-16424
▁포커	-16425
▁제네레이션	-16426
▁납품	-16427
▁용호	-16428
▁천진	-16429
▁시리우스	-16430
▁채무	-16431
▁성공회	-16432
▁비서관	-16433
osh	-16434
▁인테리어	-16435
ball	-16436
▁Net	-16437
▁페미니스트	-16438
쩌둥	-16439
▁메트	-16440
▁열광	-16441
▁마오쩌둥	-16442
▁간첩	-16443
▁몰입	-16444
▁볶음	-16445
▁첨부	-16446
▁나주	-16447
▁보크	-16448
팔로	-16449
▁올인	-16450
▁해설자	-16451
▁쇼코	-16452
▁외환	-16453
▁아이젠	-16454
▁Little	-16455
▁철혈	-16456
▁활력	-16457
▁눈보라	-16458
▁올리브	-16459
▁지상군	-16460
ㄷㅡㄴㅇㅛ	-16461
▁매입	-16462
▁Ind	-16463
▁마자	-16464
▁나츠메	-16465
▁Dest	-16466
▁서큐버스	-16467
▁스커	-16468
▁217	-16469
▁미식축구	-16470
65	-16471
▁여중	-16472
▁장대	-16473
▁짝퉁	-16474
▁옥타브	-16475
UD	-16476
▁문과	-16477
▁재차	-16478
전쟁	-16479
▁하남	-16480
▁미워하	-16481
▁시미즈	-16482
▁전쟁터	-16483
세포	-16484
▁남산	-16485
▁고아원	-16486
▁후지와라	-16487
▁우크	-16488
▁이리스	-16489
▁최연	-16490
▁ㅅㅡㅁ	-16491
▁트롤링	-16492
▁SMG	-16493
▁소나무	-16494
▁우크라이나	-16495
▁미스테리	-16496
▁연마	-16497
light	-16498
오버	-16499
▁OM	-16500
▁개전	-16501
▁해인	-16502
샤인	-16503
▁에너	-16504
▁라파엘	-16505
▁red	-16506
▁오컬	-16507
▁초전	-16508
▁스턴트	-16509
▁한국군	-16510
▁포메이션	-16511
▁억양	-16512
▁카니발	-16513
고스	-16514
▁교원	-16515
▁곧장	-16516
▁스팟	-16517
▁전곡	-16518
▁미술관	-16519
▁환산	-16520
▁약수	-16521
▁증강	-16522
▁배반	-16523
▁북동	-16524
▁우의	-16525
▁없음	-16526
▁초심	-16527
▁호화	-16528
▁1911	-16529
▁주부	-16530
▁픽처	-16531
ANCED	-16532
날리	-16533
▁KN	-16534
▁산전	-16535
▁어르	-16536
▁투항	-16537
▁슬라이더	-16538
▁이보	-16539
▁거머쥐	-16540
▁낙서	-16541
▁민심	-16542
▁부록	-16543
▁소대장	-16544
▁월등히	-16545
▁메모리얼	-16546
▁승하	-16547
▁다듬	-16548
디우스	-16549
▁데미안	-16550
▁라이엇	-16551
▁파주	-16552
▁우선시	-16553
▁서프	-16554
▁신드	-16555
▁전황	-16556
소년단	-16557
▁스콜피온	-16558
▁'~	-16559
▁은빛	-16560
▁적시	-16561
▁내용물	-16562
▁타쿠야	-16563
▁물류	-16564
▁연화	-16565
▁페트	-16566
▁here	-16567
▁시술	-16568
▁010	-16569
▁교명	-16570
월드	-16571
ASY	-16572
▁정민	-16573
▁Take	-16574
▁궤멸	-16575
▁베이커	-16576
HC	-16577
▁정근	-16578
▁폐업	-16579
▁켐	-16580
니컬	-16581
▁301	-16582
▁우치하	-16583
eek	-16584
▁di	-16585
▁소품	-16586
▁피노	-16587
▁한눈	-16588
▁아라시	-16589
▁고요	-16590
▁낭만	-16591
▁로어	-16592
▁파나	-16593
▁Mix	-16594
▁플랜트	-16595
▁과열	-16596
▁브룩	-16597
▁사드	-16598
▁생리	-16599
▁추기	-16600
▁Inv	-16601
▁복수심	-16602
와르	-16603
티티	-16604
▁체르	-16605
▁마스터즈	-16606
▁기교	-16607
▁악연	-16608
▁정승	-16609
▁나리타	-16610
▁서태지	-16611
▁수년	-16612
세움	-16613
▁GPS	-16614
▁노노	-16615
▁조짐	-16616
▁검거	-16617
▁뻔뻔	-16618
▁str	-16619
ㄷㅐ	-16620
▁let	-16621
▁난쟁이	-16622
▁나성	-16623
▁익산	-16624
▁소셜	-16625
▁Single	-16626
▁정선	-16627
▁한판	-16628
▁야나기	-16629
▁조선소	-16630
▁끊어지	-16631
▁고하	-16632
▁별거	-16633
▁액수	-16634
▁부상자	-16635
▁오컬트	-16636
38	-16637
▁발령	-16638
▁gu	-16639
▁오아시스	-16640
▁하노	-16641
IO	-16642
불리	-16643
▁크류	-16644
▁Aut	-16645
▁Ult	-16646
▁남아프리카	-16647
▁래빗	-16648
▁요지	-16649
▁NFL	-16650
▁야구단	-16651
▁내레이션	-16652
데라	-16653
▁레닌	-16654
▁비터	-16655
▁앵글	-16656
oom	-16657
▁세터	-16658
▁BMW	-16659
▁액스	-16660
▁다량	-16661
▁헌트	-16662
▁\]	-16663
▁aquarius	-16664
▁ad	-16665
▁화합	-16666
▁고드	-16667
▁무트	-16668
▁252	-16669
▁대기실	-16670
▁빌헬름	-16671
▁유창	-16672
▁연장전	-16673
▁음료수	-16674
▁초라	-16675
▁게르만	-16676
▁에이미	-16677
▁방탄소년단	-16678
▁담원	-16679
▁세바스	-16680
▁야구부	-16681
▁유니버	-16682
▁강정	-16683
▁변모	-16684
▁세이야	-16685
▁ADVANCED	-16686
아오르	-16687
uture	-16688
▁특색	-16689
장치	-16690
ena	-16691
▁고참	-16692
▁미움	-16693
▁패권	-16694
▁프레데터	-16695
▁반주	-16696
▁저축	-16697
▁미하일	-16698
lex	-16699
▁해지	-16700
▁타카히로	-16701
▁광란	-16702
▁괴이	-16703
▁굴림	-16704
▁맹수	-16705
▁하계	-16706
▁영국인	-16707
▁CGV	-16708
▁뮐	-16709
서리	-16710
▁허약	-16711
▁지효	-16712
▁스트림	-16713
▁타카오	-16714
▁뉴타입	-16715
▁카즈미	-16716
▁mA	-16717
비지	-16718
시장	-16719
▁냉혹	-16720
▁러시아군	-16721
▁우디	-16722
▁체류	-16723
▁부적절	-16724
▁출입구	-16725
▁클러치	-16726
▁업자	-16727
▁피파	-16728
▁사이비	-16729
32	-16730
▁Real	-16731
▁FO	-16732
▁촉진	-16733
▁해밀	-16734
▁상반	-16735
▁제후	-16736
▁로켓단	-16737
▁Storm	-16738
▁사대	-16739
▁페라리	-16740
▁환장	-16741
▁Dec	-16742
각형	-16743
▁사주	-16744
▁YG	-16745
▁드미	-16746
▁마방	-16747
▁티르	-16748
▁512	-16749
▁골수	-16750
▁꼬시	-16751
▁라다	-16752
▁지탱	-16753
▁껌	-16754
▁재보	-16755
▁재상	-16756
▁정국	-16757
▁통찰	-16758
▁통솔력	-16759
ital	-16760
▁사카이	-16761
▁둘째치	-16762
▁코미디언	-16763
성어	-16764
▁를	-16765
▁자백	-16766
▁하로	-16767
▁형벌	-16768
▁신천	-16769
▁이트	-16770
▁정관	-16771
▁촉구	-16772
▁고마	-16773
▁닛산	-16774
▁밝혀	-16775
▁대성공	-16776
▁독단	-16777
▁Med	-16778
교사	-16779
▁카르타	-16780
▁스냅드래곤	-16781
▁ㄴㅡㄴㅋㅓ	-16782
▁어떡	-16783
▁메커	-16784
▁호위함	-16785
ano	-16786
▁저상버스	-16787
▁뜯어	-16788
▁우여	-16789
▁들여오	-16790
▁아카이브	-16791
▁공직	-16792
▁얼룩	-16793
▁퍼블	-16794
세우스	-16795
▁2022	-16796
▁광화문	-16797
▁오자	-16798
▁알라딘	-16799
▁|[	-16800
▁백두	-16801
▁명지	-16802
▁백종	-16803
▁예민	-16804
▁Def	-16805
▁EPL	-16806
▁Gun	-16807
▁헤이세이	-16808
▁멘토	-16809
▁요령	-16810
▁케네	-16811
▁이동기	-16812
▁도넛	-16813
▁최장	-16814
▁초계	-16815
▁속임수	-16816
▁켓	-16817
▁항성	-16818
니케이션	-16819
▁녹스	-16820
▁폐인	-16821
▁밀가루	-16822
▁하야테	-16823
▁애플리케이션	-16824
▁교제	-16825
▁파기	-16826
ude	-16827
▁거창	-16828
▁투덜	-16829
▁Hero	-16830
▁커뮤니케이션	-16831
빠지	-16832
▁니르	-16833
▁아틀란	-16834
요이	-16835
▁로젠	-16836
▁잡아	-16837
▁재발	-16838
▁샤르	-16839
▁스탬	-16840
▁Zero	-16841
네즈	-16842
▁야요이	-16843
▁츠네	-16844
▁포구	-16845
▁츳코	-16846
▁DSP	-16847
▁youtu	-16848
▁의거	-16849
▁착공	-16850
▁스케이트	-16851
공학	-16852
대왕	-16853
▁Rad	-16854
▁나오미	-16855
▁프란츠	-16856
▁하원	-16857
레오	-16858
▁섬뜩	-16859
▁포식자	-16860
▁소홀	-16861
DDR	-16862
UG	-16863
모트	-16864
▁가즈	-16865
▁정찰기	-16866
▁김시	-16867
▁다람	-16868
▁사이먼	-16869
▁베토벤	-16870
▁EXTRA	-16871
덱스	-16872
마사	-16873
▁운동가	-16874
▁Warhammer	-16875
경민	-16876
▁시놉	-16877
▁ER	-16878
▁신승	-16879
▁서유럽	-16880
▁윤석민	-16881
▁크래시	-16882
소타	-16883
▁학파	-16884
apan	-16885
러미	-16886
▁강급	-16887
▁산출	-16888
▁수차례	-16889
▁HR	-16890
▁내쫓	-16891
39	-16892
▁사춘	-16893
▁자음	-16894
▁390	-16895
▁Cal	-16896
노트	-16897
ett	-16898
▁손길	-16899
▁절도	-16900
▁토드	-16901
▁선샤인	-16902
▁시놉시스	-16903
▁Ry	-16904
▁걷어차	-16905
▁정착지	-16906
ning	-16907
▁야가미	-16908
▁미네소타	-16909
▁승낙	-16910
▁아토	-16911
▁밝혀내	-16912
ㄴㄷㅏㅂㅅㅣ	-16913
▁227	-16914
▁껄끄럽	-16915
폴트	-16916
▁그딴	-16917
▁텐트	-16918
▁Ag	-16919
▁Park	-16920
▁보이즈	-16921
lection	-16922
▁QP	-16923
▁꼬박	-16924
▁왕성	-16925
▁제때	-16926
▁총점	-16927
▁클럭	-16928
▁급속도	-16929
ler	-16930
▁격변	-16931
▁레터	-16932
▁부설	-16933
▁집요	-16934
▁탐험가	-16935
▁BLACK	-16936
aid	-16937
BE	-16938
▁암석	-16939
▁은색	-16940
▁자릿	-16941
▁재탕	-16942
▁송곳니	-16943
unk	-16944
▁보그	-16945
▁횡령	-16946
▁틀림없	-16947
arm	-16948
unt	-16949
▁붙여지	-16950
▁Sweet	-16951
▁처방	-16952
▁Mbps	-16953
▁욘	-16954
▁스프레이	-16955
병기	-16956
▁짜이	-16957
▁대장간	-16958
▁공안	-16959
▁데이지	-16960
▁매료	-16961
▁아로	-16962
▁폭언	-16963
une	-16964
ours	-16965
▁크로스오버	-16966
지우	-16967
▁경관	-16968
irect	-16969
▁관습	-16970
▁여차	-16971
▁문관	-16972
쩐지	-16973
▁경부선	-16974
▁어쩐지	-16975
▁1934	-16976
▁샌드위치	-16977
▁교가	-16978
▁htm	-16979
▁트렌드	-16980
▁멜리	-16981
▁지저	-16982
▁라티	-16983
▁베풀	-16984
▁브록	-16985
▁any	-16986
▁when	-16987
▁웍스	-16988
▁표준어	-16989
▁급증	-16990
▁등용	-16991
▁주름	-16992
▁John	-16993
▁다채	-16994
조림	-16995
▁예하	-16996
▁시부야	-16997
▁마사히로	-16998
▁오거	-16999
▁태백	-17000
▁풀이	-17001
▁투영	-17002
oj	-17003
▁시급	-17004
리스크	-17005
▁Gal	-17006
▁추격전	-17007
하늘	-17008
▁우등	-17009
ouble	-17010
곡절	-17011
▁노보	-17012
▁루팅	-17013
▁알프레드	-17014
▁양방향	-17015
▁툭하면	-17016
▁예거	-17017
▁합숙	-17018
▁홍련	-17019
▁Space	-17020
▁만신	-17021
▁우여곡절	-17022
▁사춘기	-17023
▁아랍어	-17024
ather	-17025
▁콴	-17026
▁엄연	-17027
44	-17028
나타	-17029
▁오정	-17030
▁샤이니	-17031
▁거액	-17032
▁youtube	-17033
▁쿠보	-17034
▁세균	-17035
▁Hel	-17036
▁미시마	-17037
▁정보원	-17038
▁돌변	-17039
▁만장	-17040
▁몽환	-17041
▁압승	-17042
▁휴지	-17043
▁ㅇㅡㄹㅅㅣ	-17044
▁다라	-17045
▁토치	-17046
▁대지진	-17047
▁밴쿠버	-17048
▁백악	-17049
▁오소	-17050
▁쿠퍼	-17051
▁신노스케	-17052
▁서북	-17053
ords	-17054
▁내비치	-17055
▁파이팅	-17056
▁쇼우	-17057
▁자습	-17058
▁레이브	-17059
▁보좌관	-17060
▁비밀리	-17061
▁231	-17062
▁리비	-17063
uct	-17064
▁햐	-17065
▁장민	-17066
▁차고	-17067
▁나크	-17068
▁최민	-17069
br	-17070
▁롱주	-17071
▁노리코	-17072
▁ㅈㅔ	-17073
▁료코	-17074
▁치요	-17075
▁홍수	-17076
▁보리스	-17077
▁페가수스	-17078
▁LEVEL	-17079
립스	-17080
▁분양	-17081
▁컷인	-17082
▁Feel	-17083
▁자객	-17084
브론	-17085
▁오현	-17086
레마	-17087
살이	-17088
헤치	-17089
▁우터	-17090
ames	-17091
▁Bu	-17092
▁아틀란티스	-17093
TER	-17094
▁대련	-17095
oe	-17096
▁요가	-17097
▁구스	-17098
END	-17099
▁숙제	-17100
▁게으	-17101
▁ㅇㅏㄴ	-17102
▁동맹군	-17103
▁연대기	-17104
▁오라클	-17105
▁op	-17106
▁조슈아	-17107
▁코스모스	-17108
▁Je	-17109
▁가야	-17110
▁정몽	-17111
▁아오키	-17112
▁냅다	-17113
▁주재	-17114
▁연막탄	-17115
▁서바이버	-17116
▁HT	-17117
▁반쪽	-17118
▁파비	-17119
▁Say	-17120
KO	-17121
▁Kim	-17122
▁mAh	-17123
▁쿠루미	-17124
▁ㄹㅏㄴㄷㅏ	-17125
▁난도	-17126
▁윤영	-17127
▁ㄱㅣㄹㄹㅐ	-17128
▁효용	-17129
▁에디터	-17130
▁고영	-17131
▁깐	-17132
방지	-17133
▁린드	-17134
▁진명	-17135
▁관람객	-17136
▁ㄸㅏ	-17137
▁위임	-17138
▁바래	-17139
▁제련	-17140
▁함경	-17141
yr	-17142
▁심복	-17143
▁개머리	-17144
▁영수	-17145
▁핍	-17146
▁초구	-17147
ople	-17148
▁코타	-17149
▁브라우저	-17150
▁구스타	-17151
▁교활	-17152
▁나가사키	-17153
▁안즈	-17154
▁흡입	-17155
▁정명훈	-17156
▁코스모	-17157
▁옅	-17158
▁인삼	-17159
▁타타	-17160
▁보름	-17161
▁유상	-17162
▁need	-17163
▁포섭	-17164
▁min	-17165
▁텝	-17166
▁자물	-17167
▁하가	-17168
▁베가스	-17169
▁옥수수	-17170
▁올려	-17171
▁수송기	-17172
▁PG	-17173
▁은신처	-17174
▁주변인	-17175
▁뜻밖	-17176
▁로더	-17177
▁사칭	-17178
▁판명	-17179
▁오사무	-17180
thing	-17181
▁하즈	-17182
▁계약서	-17183
▁떠나가	-17184
▁피고인	-17185
▁사념	-17186
개골	-17187
▁부착물	-17188
▁명심	-17189
▁약품	-17190
▁웬디	-17191
▁나카지마	-17192
▁출진	-17193
▁트리니티	-17194
▁금단	-17195
▁아날	-17196
▁유족	-17197
▁용족	-17198
▁이부키	-17199
▁자물쇠	-17200
▁뜸	-17201
▁Ret	-17202
▁남녀공학	-17203
vil	-17204
▁대첩	-17205
▁협의회	-17206
▁공적	-17207
ㅇㅕ	-17208
▁안톤	-17209
▁라몬	-17210
▁최준	-17211
▁은근슬쩍	-17212
▁양지	-17213
▁거침	-17214
▁근방	-17215
▁마즈	-17216
▁용납	-17217
▁경상도	-17218
거스	-17219
▁극하	-17220
▁가르시아	-17221
▁낙사	-17222
▁Sou	-17223
▁설립자	-17224
▁Dem	-17225
▁근로자	-17226
▁법령	-17227
동물	-17228
▁두각	-17229
▁뭉개	-17230
▁바카	-17231
▁병합	-17232
▁성물	-17233
▁실컷	-17234
후미	-17235
▁방주	-17236
▁비견	-17237
▁중대장	-17238
▁투지	-17239
▁카나코	-17240
▁Tour	-17241
▁겸임	-17242
▁피쉬	-17243
▁프리킥	-17244
곡리	-17245
uel	-17246
소연	-17247
자스	-17248
▁아와	-17249
리아스	-17250
▁멱살	-17251
▁GTX	-17252
▁JYP	-17253
▁간직	-17254
▁일간	-17255
ODE	-17256
▁도봉	-17257
▁햄튼	-17258
▁마쓰	-17259
▁주점	-17260
사노	-17261
▁프리퀄	-17262
▁조공	-17263
▁컬트	-17264
▁소양	-17265
▁손발	-17266
▁잭스	-17267
▁청문회	-17268
▁견고	-17269
▁구식	-17270
▁레베카	-17271
▁후진	-17272
▁여제	-17273
▁달려드	-17274
▁를르슈	-17275
나우	-17276
비슷	-17277
▁조련	-17278
▁불러내	-17279
▁즐거움	-17280
▁Kill	-17281
aser	-17282
▁430	-17283
▁막스	-17284
▁코아	-17285
▁흑발	-17286
▁238	-17287
▁뜯어내	-17288
▁골절	-17289
▁부포	-17290
▁이그	-17291
▁조동	-17292
▁페드로	-17293
▁LOL	-17294
▁모리스	-17295
▁짓거리	-17296
▁탤런트	-17297
▁블룸	-17298
▁스타킹	-17299
▁사루	-17300
▁재기	-17301
▁하강	-17302
▁스틸러스	-17303
부르	-17304
▁크레인	-17305
▁저질	-17306
▁비화	-17307
▁아누	-17308
▁꼬맹이	-17309
▁Orig	-17310
분투	-17311
▁발열	-17312
▁전광판	-17313
▁피통	-17314
▁버팔로	-17315
▁some	-17316
린트	-17317
▁치솟	-17318
▁노동조합	-17319
▁역마	-17320
arth	-17321
▁벗겨지	-17322
▁조그맣	-17323
▁드럼매니아	-17324
태격	-17325
▁누비	-17326
▁백스	-17327
▁티격태격	-17328
▁지네	-17329
뚜기	-17330
▁앉히	-17331
▁나이지	-17332
▁나이지리아	-17333
설수	-17334
▁후사	-17335
▁동남아시아	-17336
▁폄	-17337
▁다다르	-17338
▁요요	-17339
▁ㅇㅜㄴ	-17340
▁규율	-17341
▁말라	-17342
▁명계	-17343
▁평면	-17344
▁마일리	-17345
▁플리트	-17346
▁236	-17347
▁KBL	-17348
▁치어리	-17349
▁포커스	-17350
▁횃	-17351
로리	-17352
▁셔먼	-17353
비야	-17354
▁카로	-17355
▁개머리판	-17356
▁Great	-17357
노프	-17358
ner	-17359
▁Beat	-17360
▁스메	-17361
▁어정	-17362
▁포이즌	-17363
▁남원	-17364
▁지출	-17365
▁위아래	-17366
▁치아키	-17367
▁지중해	-17368
교도	-17369
메이트	-17370
onna	-17371
▁어려우	-17372
ormal	-17373
▁엑스칼리버	-17374
▁근육질	-17375
▁부대장	-17376
▁정부군	-17377
▁견습	-17378
▁변기	-17379
다카	-17380
제트	-17381
▁입점	-17382
▁톰슨	-17383
▁사일런트	-17384
▁WORLD	-17385
▁매튜	-17386
▁265	-17387
▁닳	-17388
▁동률	-17389
▁참치	-17390
▁Story	-17391
▁경멸	-17392
▁포츈	-17393
▁걔	-17394
▁덴마	-17395
▁연주자	-17396
▁만년	-17397
▁이규	-17398
▁초밥	-17399
▁PERF	-17400
▁them	-17401
▁지원군	-17402
▁마로	-17403
▁외지	-17404
▁코라	-17405
ways	-17406
▁짭	-17407
UND	-17408
▁도가	-17409
▁서남	-17410
▁이북	-17411
▁뫼비우스	-17412
▁Luc	-17413
▁매크로	-17414
▁올레	-17415
▁파라오	-17416
▁사오	-17417
▁목장	-17418
▁복식	-17419
▁격납고	-17420
▁로밍	-17421
▁열화	-17422
▁옐로우	-17423
▁식구	-17424
▁원가	-17425
▁GC	-17426
마니	-17427
▁난데	-17428
▁무서워하	-17429
37	-17430
슬로	-17431
▁김건	-17432
▁라카	-17433
▁뒤바뀌	-17434
▁싯	-17435
▁하피	-17436
iful	-17437
팽이	-17438
▁타깃	-17439
▁르블랑	-17440
▁껴안	-17441
▁사절	-17442
▁똑바로	-17443
▁<<	-17444
▁MAD	-17445
▁사이다	-17446
▁정근우	-17447
도어	-17448
▁WWF	-17449
▁원정대	-17450
▁장문	-17451
▁앞머리	-17452
숭아	-17453
▁사서	-17454
▁통통	-17455
▁마츠다	-17456
▁Tech	-17457
▁신야	-17458
▁넥스트	-17459
▁마커스	-17460
▁주유소	-17461
▁티베트	-17462
▁더듬	-17463
▁한인	-17464
▁프랑켄슈타인	-17465
▁방아	-17466
▁엘라	-17467
▁철구	-17468
▁끌어안	-17469
▁경기관총	-17470
▁본뜨	-17471
▁her	-17472
▁메커니즘	-17473
▁감찰	-17474
▁미니건	-17475
▁백과	-17476
▁표류	-17477
▁3500	-17478
▁수트	-17479
▁팔다리	-17480
입구역	-17481
▁억누르	-17482
▁위안부	-17483
▁Album	-17484
▁원사	-17485
▁스트롱	-17486
▁인턴	-17487
▁NAS	-17488
▁이리야	-17489
▁When	-17490
fl	-17491
▁저술	-17492
리역	-17493
▁놀러	-17494
▁잘나	-17495
▁픽처스	-17496
▁파병	-17497
ental	-17498
주니어	-17499
▁다비드	-17500
▁뒤집어쓰	-17501
ANG	-17502
▁개관	-17503
▁코코로	-17504
▁선율	-17505
▁방탄복	-17506
▁쿡	-17507
▁신스	-17508
▁테디	-17509
▁사이킥	-17510
▁바바리	-17511
▁이모티콘	-17512
▁아스가르드	-17513
슐리	-17514
▁노미	-17515
▁로아	-17516
▁세이프	-17517
문화	-17518
▁엘사	-17519
▁폭죽	-17520
ations	-17521
▁편찬	-17522
▁피스톨	-17523
▁Step	-17524
천리	-17525
▁DIO	-17526
▁기대감	-17527
▁리비아	-17528
▁불굴	-17529
ene	-17530
▁루가	-17531
▁시속	-17532
▁아브	-17533
▁하르트	-17534
▁가로지르	-17535
▁한국식	-17536
▁일파	-17537
▁쿠즈	-17538
▁232	-17539
▁가희	-17540
▁로니	-17541
▁밀리터리	-17542
▁강민호	-17543
▁대나무	-17544
▁블러디	-17545
포동	-17546
▁램지	-17547
▁GE	-17548
▁조라	-17549
▁즌	-17550
배기	-17551
시간	-17552
▁집게	-17553
▁형주	-17554
▁마성	-17555
▁내려치	-17556
OSS	-17557
▁마개	-17558
실록	-17559
▁판다	-17560
▁구실	-17561
사전	-17562
▁앙쥬	-17563
▁정설	-17564
▁케네디	-17565
▁군세	-17566
▁심영	-17567
▁풀타임	-17568
▁she	-17569
▁칼데아	-17570
▁결번	-17571
▁막시	-17572
▁내신	-17573
▁상디	-17574
▁일전	-17575
▁이윤열	-17576
▁로드리게	-17577
▁간과	-17578
▁라르	-17579
▁로데	-17580
▁홍차	-17581
구멍	-17582
▁물결	-17583
▁상병	-17584
▁Death	-17585
▁어진	-17586
▁출국	-17587
▁서슴	-17588
▁공구	-17589
ait	-17590
▁서강	-17591
▁갈비	-17592
▁쓸리	-17593
▁질럿	-17594
▁조건부	-17595
▁Champion	-17596
▁맨서	-17597
▁항소	-17598
통일	-17599
▁김장	-17600
▁조부	-17601
▁순전히	-17602
▁실기	-17603
▁희한	-17604
▁괄호	-17605
▁금빛	-17606
▁레티	-17607
▁변속	-17608
▁볼링	-17609
▁일괄	-17610
body	-17611
▁사우디	-17612
▁한없이	-17613
▁땅굴	-17614
▁옥스	-17615
▁진중	-17616
▁드로이드	-17617
▁샛	-17618
▁노어	-17619
▁암묵	-17620
▁의병	-17621
▁두개골	-17622
▁호루스	-17623
▁급감	-17624
▁행렬	-17625
▁헤엄	-17626
▁공연장	-17627
▁공격대	-17628
▁세리카	-17629
▁1931	-17630
▁아디	-17631
그래피	-17632
페르노	-17633
▁번쩍	-17634
▁바빌	-17635
▁세인	-17636
▁의약	-17637
▁정준하	-17638
프스	-17639
▁구기	-17640
▁외화	-17641
▁sec	-17642
▁산산조각	-17643
▁인기가요	-17644
▁대북	-17645
▁돌려받	-17646
▁Line	-17647
▁인페르노	-17648
▁마레	-17649
▁하네	-17650
▁다르크	-17651
▁510	-17652
▁art	-17653
▁비타민	-17654
▁공평	-17655
▁안영	-17656
▁양현종	-17657
▁훌쩍	-17658
▁수첩	-17659
▁Tra	-17660
뉴스	-17661
▁숙적	-17662
▁푸딩	-17663
IDE	-17664
▁대영	-17665
▁엽기	-17666
▁원산	-17667
▁수식어	-17668
▁기껏해야	-17669
▁힛	-17670
▁서경	-17671
▁족족	-17672
▁투혼	-17673
▁곁들이	-17674
▁언뜻	-17675
▁음파	-17676
사무소	-17677
▁사이렌	-17678
ume	-17679
▁루디	-17680
▁재결	-17681
▁최승	-17682
AE	-17683
▁소굴	-17684
▁못생기	-17685
▁팔아먹	-17686
▁혼잡	-17687
▁삼국사기	-17688
▁사학	-17689
▁테드	-17690
▁토모코	-17691
레스타인	-17692
▁금세	-17693
▁위드	-17694
▁Bus	-17695
▁SNK	-17696
rough	-17697
발리	-17698
주곡	-17699
▁온건	-17700
스틱	-17701
투사	-17702
▁벨리	-17703
▁착안	-17704
게일	-17705
▁카툰	-17706
▁찻	-17707
▁도면	-17708
▁독살	-17709
▁TRA	-17710
▁다이어	-17711
▁손대	-17712
▁플롯	-17713
▁Apple	-17714
▁이클	-17715
ESS	-17716
▁얼른	-17717
▁퍼레이드	-17718
orever	-17719
▁전위	-17720
▁1935	-17721
예프	-17722
▁."	-17723
▁닷컴	-17724
▁도맡	-17725
욕장	-17726
▁박원	-17727
▁탈락자	-17728
▁XBOX	-17729
▁참수	-17730
▁외교관	-17731
▁Electr	-17732
84	-17733
빙글	-17734
상부	-17735
▁넬슨	-17736
▁푸시	-17737
▁나즈	-17738
▁남서	-17739
▁밀짚	-17740
▁엘더	-17741
▁747	-17742
▁매혹	-17743
▁이코	-17744
▁총애	-17745
▁타츠미	-17746
▁클래시	-17747
▁1700	-17748
INAL	-17749
▁종로구	-17750
▁대구광역시	-17751
시즘	-17752
▁뮐러	-17753
▁재킷	-17754
로그램	-17755
바야시	-17756
▁비행장	-17757
▁워페어	-17758
마을	-17759
▁리더십	-17760
▁파커	-17761
▁니콜라	-17762
▁수없이	-17763
▁이크	-17764
▁조각상	-17765
하임	-17766
▁구가	-17767
▁약사	-17768
▁흑색	-17769
▁Who	-17770
▁프리티	-17771
파일	-17772
▁머독	-17773
▁셀렉	-17774
▁천자	-17775
▁타사	-17776
▁곧이어	-17777
ral	-17778
▁about	-17779
▁육신	-17780
▁콘스탄티노	-17781
▁디나	-17782
ander	-17783
▁왕정	-17784
▁SUPER	-17785
▁래더	-17786
▁장발	-17787
▁증차	-17788
▁철자	-17789
▁LCS	-17790
▁SB	-17791
▁불륜	-17792
▁305	-17793
슬라비아	-17794
▁유고슬라비아	-17795
▁RT	-17796
▁공모전	-17797
▁승승장구	-17798
▁노우	-17799
▁에리스	-17800
uss	-17801
▁이불	-17802
▁족보	-17803
▁모로코	-17804
▁2400	-17805
▁케일	-17806
▁나선	-17807
▁니지	-17808
▁섬머	-17809
▁원안	-17810
▁신뢰도	-17811
▁에볼루션	-17812
▁에델	-17813
▁640	-17814
▁캡쳐	-17815
▁양의지	-17816
법인	-17817
▁Mal	-17818
펙터	-17819
▁데스노트	-17820
▁딱지	-17821
▁자일	-17822
▁이바라	-17823
▁화성시	-17824
▁괴짜	-17825
▁이민자	-17826
▁횃불	-17827
lease	-17828
▁이따금	-17829
▁들어올리	-17830
상스	-17831
틀린	-17832
▁권혁	-17833
▁역적	-17834
▁하야시	-17835
▁325	-17836
▁Dead	-17837
▁콜로세움	-17838
▁타케우치	-17839
▁국지	-17840
self	-17841
▁사오리	-17842
▁러프	-17843
ortex	-17844
▁Pass	-17845
▁댁	-17846
▁쿠토	-17847
▁포박	-17848
▁come	-17849
▁비방	-17850
▁자결	-17851
▁명하	-17852
▁무마	-17853
▁불계	-17854
▁공전	-17855
▁아오바	-17856
▁달랑	-17857
▁조성주	-17858
▁무례	-17859
▁설날	-17860
▁장화	-17861
덴티티	-17862
▁아이덴티티	-17863
▁교묘	-17864
▁사벨	-17865
▁양육	-17866
▁자하	-17867
▁존기	-17868
▁지석	-17869
▁이클립스	-17870
▁EXPERT	-17871
▁NV	-17872
▁삼각형	-17873
31	-17874
▁꼼꼼	-17875
▁조경	-17876
▁겨냥	-17877
▁팔레스타인	-17878
▁거너	-17879
▁애덤	-17880
▁노기자카	-17881
▁실물	-17882
▁히로미	-17883
▁짠	-17884
ines	-17885
autiful	-17886
▁쟤	-17887
▁스캇	-17888
▁오클랜드	-17889
▁쾌락	-17890
▁229	-17891
▁추기경	-17892
▁EASY	-17893
▁모사	-17894
▁아날로그	-17895
▁절제	-17896
▁바퀴벌레	-17897
▁셧	-17898
▁개표	-17899
▁환율	-17900
awn	-17901
다이스	-17902
elie	-17903
▁Green	-17904
▁변칙	-17905
▁카자흐	-17906
▁합격자	-17907
▁League	-17908
▁지겹	-17909
▁아이슬	-17910
▁신진	-17911
▁Ant	-17912
▁천왕	-17913
▁코만도	-17914
▁쫒아	-17915
▁채권	-17916
▁Lee	-17917
▁각본가	-17918
▁개인차	-17919
▁맥크리	-17920
▁바가지	-17921
▁Home	-17922
▁백호	-17923
▁첩자	-17924
▁추축	-17925
▁전면전	-17926
▁1910	-17927
▁아이파크	-17928
▁Wanna	-17929
▁극동	-17930
▁디스트로	-17931
리언	-17932
▁급소	-17933
▁기시	-17934
▁노련	-17935
▁연못	-17936
▁완승	-17937
▁Tem	-17938
▁렴	-17939
▁시티즌	-17940
▁TEAM	-17941
비어	-17942
▁혈압	-17943
▁Tom	-17944
▁선량	-17945
▁황천	-17946
▁페널티가	-17947
▁독립운동가	-17948
▁디스트로이어	-17949
윤수	-17950
▁기폭	-17951
▁초연	-17952
▁바운	-17953
▁윤지	-17954
▁파충	-17955
위원	-17956
▁ma	-17957
▁고척	-17958
▁시우	-17959
▁IEM	-17960
▁경비대	-17961
▁솔루션	-17962
▁지니어스	-17963
▁인제	-17964
▁코퍼	-17965
▁큘	-17966
▁앙상	-17967
▁초음	-17968
▁바사라	-17969
▁EL	-17970
▁장시간	-17971
▁사고방식	-17972
IAL	-17973
▁완주	-17974
▁전주시	-17975
▁정신기	-17976
▁스구	-17977
▁발효	-17978
▁오기	-17979
▁토머스	-17980
▁동자	-17981
▁자행	-17982
▁황녀	-17983
▁스트링	-17984
▁da	-17985
▁ㄴㅛ	-17986
▁총수	-17987
▁가신	-17988
▁악재	-17989
▁내던지	-17990
▁감격	-17991
▁인계	-17992
▁ㅈㅑ	-17993
▁샤인	-17994
▁물어뜯	-17995
▁스펙트	-17996
▁각광	-17997
▁1918	-17998
▁각주	-17999
▁송신	-18000
▁아키코	-18001
▁흑기사	-18002
▁Del	-18003
▁미츠키	-18004
▁사토미	-18005
eter	-18006
▁무구	-18007
▁이하일	-18008
▁다리우스	-18009
트릭	-18010
▁잔존	-18011
▁죠셉	-18012
▁일찍이	-18013
▁된	-18014
▁ah	-18015
▁NAT	-18016
▁사업가	-18017
창민	-18018
▁컬쳐	-18019
▁껍데기	-18020
▁GAME	-18021
▁프라모델	-18022
▁이효	-18023
▁황폐	-18024
ily	-18025
▁sw	-18026
▁가온	-18027
▁기색	-18028
▁단도	-18029
▁랠리	-18030
리카와	-18031
▁예비역	-18032
▁제각각	-18033
▁새턴	-18034
▁수만	-18035
▁이어주	-18036
▁트와	-18037
▁마구잡이	-18038
▁하루히	-18039
▁아이슬란드	-18040
▁Friend	-18041
▁검출	-18042
▁쏙	-18043
▁비들	-18044
훈련	-18045
▁굳건	-18046
▁정주	-18047
▁아우구	-18048
볼트	-18049
▁노을	-18050
▁Cha	-18051
▁뜯기	-18052
▁마천	-18053
▁무예	-18054
▁과부하	-18055
▁사이키	-18056
▁룰렛	-18057
▁분실	-18058
▁장지	-18059
▁히키	-18060
▁백종원	-18061
▁시즈쿠	-18062
▁용인시	-18063
▁히데키	-18064
아르	-18065
츠미	-18066
▁선호도	-18067
▁실비아	-18068
▁Level	-18069
▁이산	-18070
▁BMS	-18071
▁떠넘기	-18072
▁심해	-18073
▁키네	-18074
▁허물	-18075
▁밀라노	-18076
▁종속	-18077
▁무리뉴	-18078
68	-18079
백호	-18080
▁건달	-18081
▁왼발	-18082
▁AAA	-18083
▁몰아가	-18084
▁스무	-18085
▁스쿠	-18086
▁코쿠	-18087
▁승자전	-18088
▁시그널	-18089
▁마니아	-18090
▁Univers	-18091
▁대물	-18092
▁무토	-18093
▁모자이크	-18094
94	-18095
ves	-18096
▁박동	-18097
▁추대	-18098
▁팽팽	-18099
▁나오토	-18100
▁넛	-18101
▁비어	-18102
▁마리나	-18103
▁Chap	-18104
▁신룡	-18105
▁호조	-18106
onic	-18107
▁ㅁㅐㄴ	-18108
▁Pack	-18109
문서	-18110
rol	-18111
▁내치	-18112
▁숙박	-18113
▁Mac	-18114
▁강대국	-18115
▁중심부	-18116
다주	-18117
바탕	-18118
▁라나	-18119
▁이연	-18120
▁기념일	-18121
▁미분	-18122
▁라이저	-18123
▁복판	-18124
▁원로원	-18125
▁말뚝	-18126
▁북벌	-18127
▁얌전히	-18128
▁자릿수	-18129
▁뒤떨어지	-18130
마드	-18131
▁평온	-18132
▁에그맨	-18133
▁에비	-18134
▁장영	-18135
▁장진	-18136
▁하룻	-18137
더미	-18138
▁이큐	-18139
ider	-18140
▁유괴	-18141
▁품목	-18142
▁그레이스	-18143
ISS	-18144
▁디셉	-18145
▁버크	-18146
▁무법자	-18147
▁비틀즈	-18148
▁캅	-18149
▁망신	-18150
▁혹시나	-18151
▁스코어링	-18152
해머	-18153
bsp	-18154
▁뒤섞	-18155
▁신영	-18156
▁후타바	-18157
▁AO	-18158
▁로건	-18159
▁오도	-18160
▁자선	-18161
▁토착	-18162
▁IMF	-18163
▁bit	-18164
▁들이받	-18165
▁설교	-18166
ouch	-18167
▁골격	-18168
▁에라	-18169
▁TBS	-18170
▁지도부	-18171
▁hell	-18172
▁야유	-18173
▁박진영	-18174
▁우즈베	-18175
▁Young	-18176
▁사이코패스	-18177
▁뎁	-18178
▁눈여	-18179
▁질책	-18180
▁머큐	-18181
▁타코	-18182
▁로스쿨	-18183
▁미야코	-18184
▁제국주의	-18185
▁갉	-18186
▁영도	-18187
ible	-18188
▁사보	-18189
DER	-18190
▁요크	-18191
▁한미	-18192
▁251	-18193
▁타이가	-18194
▁코피	-18195
▁공격진	-18196
▁렬	-18197
▁맹렬	-18198
사관학교	-18199
▁동떨어지	-18200
세이돈	-18201
▁포세이돈	-18202
72	-18203
보잡	-18204
▁강국	-18205
▁리라	-18206
▁김상수	-18207
▁간수	-18208
▁레츠	-18209
▁발사체	-18210
ㅓㄴ	-18211
▁당부	-18212
▁듣보잡	-18213
alent	-18214
▁결선	-18215
▁NXT	-18216
▁불곰	-18217
▁허접	-18218
▁글래스	-18219
▁사카키	-18220
▁무궁화호	-18221
▁디언	-18222
▁이를	-18223
my	-18224
▁컨버	-18225
▁쿠노	-18226
▁레일건	-18227
▁알제리	-18228
▁Japan	-18229
▁돌기	-18230
▁hats	-18231
▁나돌	-18232
▁뱃지	-18233
▁재래	-18234
▁결정력	-18235
▁조준기	-18236
테면	-18237
▁재계	-18238
▁컵스	-18239
▁마츠리	-18240
▁nbsp	-18241
▁DL	-18242
▁일회	-18243
▁정액	-18244
▁황인	-18245
▁이를테면	-18246
▁대칭	-18247
▁라키	-18248
▁조만	-18249
▁주저앉	-18250
▁성계	-18251
▁스릴러	-18252
▁버지	-18253
▁하오	-18254
▁ABC	-18255
▁돌이키	-18256
▁아이카	-18257
▁기권	-18258
▁발랄	-18259
▁벼슬	-18260
▁their	-18261
콜로	-18262
▁백설	-18263
▁야미	-18264
▁정신병	-18265
▁맥도날드	-18266
▁케이스케	-18267
▁가관	-18268
▁단호	-18269
▁클리프	-18270
▁Full	-18271
▁태반	-18272
▁알려주	-18273
▁빙글빙글	-18274
ubl	-18275
▁실격	-18276
▁잠정	-18277
▁일컬	-18278
▁제이콥	-18279
▁조종당	-18280
▁제이미	-18281
▁기울어지	-18282
▁외동	-18283
▁장난치	-18284
▁나자	-18285
▁발포	-18286
▁에마	-18287
▁유희열	-18288
▁!!!!	-18289
▁Champions	-18290
▁한류	-18291
마이트	-18292
St	-18293
ha	-18294
▁ATM	-18295
▁시게루	-18296
▁신재	-18297
▁분대장	-18298
▁구축전차	-18299
▁차차	-18300
▁핑거	-18301
▁강북	-18302
leep	-18303
▁Que	-18304
▁루시우	-18305
▁독소	-18306
▁풀어내	-18307
▁POWER	-18308
플러	-18309
▁고군	-18310
▁660	-18311
▁스트레인지	-18312
by	-18313
▁자초	-18314
▁블리치	-18315
▁밀짚모자	-18316
▁560	-18317
▁엄하	-18318
▁저편	-18319
▁상수	-18320
▁속출	-18321
icle	-18322
▁놀림	-18323
▁완력	-18324
▁제동	-18325
선스	-18326
▁순발	-18327
▁마르크스	-18328
▁그늘	-18329
일라잇	-18330
▁부르크	-18331
▁트와일라잇	-18332
▁묵묵	-18333
▁츠지	-18334
▁홍익	-18335
▁느와르	-18336
▁반신	-18337
▁보살피	-18338
에트	-18339
OTH	-18340
▁격분	-18341
▁이남	-18342
▁프리랜	-18343
▁매뉴	-18344
▁빈민	-18345
▁파헤치	-18346
▁펠레	-18347
도니아	-18348
▁조지아	-18349
press	-18350
▁라이선스	-18351
▁계책	-18352
▁765	-18353
▁순발력	-18354
▁스테판	-18355
▁hatsan	-18356
▁포제	-18357
구석	-18358
▁정가	-18359
▁어웨이	-18360
ement	-18361
키오	-18362
▁약탈자	-18363
▁res	-18364
회전	-18365
▁마담	-18366
▁전조	-18367
▁바닷가	-18368
독스	-18369
▁분하	-18370
▁시이	-18371
▁켈트	-18372
▁포톤	-18373
▁크리스티나	-18374
▁메기	-18375
▁신검	-18376
▁바그너	-18377
▁조선인	-18378
▁서주	-18379
▁셰이	-18380
▁펑펑	-18381
▁루시아	-18382
▁카이바	-18383
헤드	-18384
▁개헌	-18385
▁에지	-18386
▁노지	-18387
▁치세	-18388
▁뒤엎	-18389
▁특혜	-18390
▁피시	-18391
▁서스펜션	-18392
▁ㅋㅋㅋ	-18393
벌이	-18394
▁사토루	-18395
IF	-18396
gg	-18397
▁윅	-18398
그럽	-18399
제품	-18400
▁눈길	-18401
▁뒤돌	-18402
▁형법	-18403
▁스타더스트	-18404
▁럿	-18405
트니	-18406
▁황색	-18407
▁레진	-18408
▁분식	-18409
▁안대	-18410
▁혐한	-18411
▁리투아	-18412
▁리투아니아	-18413
▁이타치	-18414
▁황재	-18415
▁굶주리	-18416
▁루돌프	-18417
로트	-18418
▁동호회	-18419
▁마르셀	-18420
▁척추	-18421
▁바깥쪽	-18422
▁불량배	-18423
▁잠자리	-18424
▁콩고	-18425
▁탁구	-18426
▁들이닥치	-18427
▁모선	-18428
▁살벌	-18429
▁신해	-18430
▁퇴임	-18431
▁아이오	-18432
매기	-18433
▁==	-18434
▁반반	-18435
▁버들	-18436
▁심볼	-18437
▁역행	-18438
▁제아	-18439
▁피콜로	-18440
▁칵	-18441
송이	-18442
잣집	-18443
▁소고	-18444
▁괴로워하	-18445
▁관세	-18446
▁주권	-18447
▁여군	-18448
▁호타루	-18449
▁사이클론	-18450
멘션	-18451
▁-,	-18452
▁잔잔	-18453
▁큐라	-18454
▁Ele	-18455
▁디멘션	-18456
▁일평균	-18457
▁낙동	-18458
▁스도	-18459
▁미우라	-18460
▁다이너마이트	-18461
도나	-18462
수염	-18463
▁남코	-18464
▁로렌스	-18465
▁des	-18466
▁티아라	-18467
▁레인저스	-18468
▁업소	-18469
▁승용차	-18470
▁보류	-18471
▁237	-18472
▁기형	-18473
▁길가	-18474
▁이면	-18475
▁징집	-18476
▁GA	-18477
▁마음먹	-18478
▁호시노	-18479
바인	-18480
▁서산	-18481
▁성운	-18482
▁야오	-18483
▁히브리	-18484
삭스	-18485
툴루	-18486
레이브	-18487
▁리빌	-18488
▁분출	-18489
▁송정	-18490
▁단축키	-18491
▁OT	-18492
▁상반신	-18493
▁농도	-18494
▁재일	-18495
▁끼얹	-18496
▁오줌	-18497
▁르네상스	-18498
▁Shad	-18499
▁20000	-18500
▁왕세	-18501
수아비	-18502
▁어정쩡	-18503
▁가차없이	-18504
▁허수아비	-18505
▁틈타	-18506
▁희소	-18507
▁모조	-18508
▁창시자	-18509
태인	-18510
▁레이팅	-18511
▁수호신	-18512
▁아카시	-18513
라이어티	-18514
▁경산	-18515
▁긍지	-18516
▁버라이어티	-18517
▁밀수	-18518
▁가격대	-18519
▁대항해	-18520
▁브리스	-18521
▁DH	-18522
▁매매	-18523
▁244	-18524
▁짜장	-18525
▁마라톤	-18526
보스	-18527
펠러	-18528
▁쿠지	-18529
▁판교	-18530
▁발당	-18531
▁서커	-18532
▁소방서	-18533
▁박건	-18534
▁생소	-18535
▁지바	-18536
▁동독	-18537
▁로트	-18538
▁설리	-18539
▁요네	-18540
▁티오	-18541
▁알고리	-18542
uj	-18543
▁송지	-18544
▁Mad	-18545
▁문파	-18546
▁차징	-18547
▁클라라	-18548
▁이반	-18549
▁절실	-18550
▁NMB	-18551
▁하룻밤	-18552
▁금정	-18553
▁살포	-18554
▁웬리	-18555
▁감마	-18556
▁넷째	-18557
▁찬란	-18558
▁아구	-18559
▁심부름	-18560
거래	-18561
▁은인	-18562
▁김광현	-18563
▁스노우볼	-18564
▁프리랜서	-18565
▁난징	-18566
▁아이코	-18567
▁장자	-18568
▁스타터	-18569
▁앞부분	-18570
▁충이	-18571
▁상층	-18572
▁연장포	-18573
▁피어스	-18574
▁집어던지	-18575
▁MUSIC	-18576
▁도래	-18577
ground	-18578
▁파라다이스	-18579
▁TSM	-18580
▁명치	-18581
▁오웬	-18582
▁하운드	-18583
▁가발	-18584
▁여운	-18585
▁꽃잎	-18586
▁살육	-18587
▁이광수	-18588
▁활발히	-18589
▁패러독스	-18590
▁브금	-18591
▁Att	-18592
▁타카미	-18593
▁헤드폰	-18594
▁ㄱㅓㄴㅁㅏㄴ	-18595
▁ㅠ	-18596
그러	-18597
▁담그	-18598
▁도살	-18599
▁아사미	-18600
▁유이치	-18601
▁근친	-18602
▁람보	-18603
▁빗대	-18604
▁성의	-18605
▁코니	-18606
▁노미야	-18607
ori	-18608
▁지브	-18609
▁헤카	-18610
▁SUV	-18611
▁제천	-18612
미트	-18613
▁Mel	-18614
▁뉴비	-18615
▁호르몬	-18616
▁반년	-18617
▁다이애나	-18618
▁선단	-18619
▁환술	-18620
▁Mil	-18621
▁사나다	-18622
▁시트콤	-18623
▁발도	-18624
▁008	-18625
▁경제력	-18626
▁html	-18627
▁유투	-18628
▁주화	-18629
▁boy	-18630
▁로미오	-18631
▁쿠사나기	-18632
▁모차	-18633
▁박현	-18634
▁봉투	-18635
럴드	-18636
▁아우라	-18637
▁수기	-18638
▁양분	-18639
▁248	-18640
▁레이서	-18641
관리	-18642
▁그렌	-18643
폭풍	-18644
▁넷플	-18645
▁향신	-18646
▁넷플릭스	-18647
▁금천	-18648
▁반입	-18649
▁두루마리	-18650
▁덜하	-18651
▁메사	-18652
▁특례	-18653
바위보	-18654
▁가위바위보	-18655
▁직종	-18656
▁김재환	-18657
▁크라이시스	-18658
대군	-18659
▁애착	-18660
▁264	-18661
▁카미야	-18662
▁강진	-18663
▁라이스	-18664
▁늄	-18665
▁야루	-18666
▁정상급	-18667
▁결속	-18668
▁세속	-18669
▁한문	-18670
매김	-18671
▁Mer	-18672
▁노태우	-18673
▁아라이	-18674
▁알고리즘	-18675
▁하세가와	-18676
hn	-18677
▁미역	-18678
▁HKT	-18679
▁아키야마	-18680
yo	-18681
▁쳇	-18682
▁일면	-18683
▁아르테미스	-18684
▁조승	-18685
▁펠릭스	-18686
▁배틀로	-18687
▁아사쿠라	-18688
▁자리매김	-18689
▁매춘	-18690
▁자이로	-18691
▁팬더	-18692
▁한라	-18693
▁곡괭이	-18694
▁릴레이	-18695
▁니티	-18696
▁외무	-18697
▁1933	-18698
▁국보	-18699
▁발병	-18700
▁압둘	-18701
▁일렉트릭	-18702
▁파우스트	-18703
▁센고쿠	-18704
▁명절	-18705
▁사타	-18706
▁호밍	-18707
▁스크랩	-18708
▁242	-18709
▁이재명	-18710
▁1917	-18711
▁라이브러리	-18712
산리	-18713
▁주리	-18714
플라이	-18715
▁시베리아	-18716
▁전라도	-18717
▁클로이	-18718
파르	-18719
▁내무	-18720
▁포신	-18721
▁바이트	-18722
스코	-18723
▁속죄	-18724
▁지원자	-18725
▁광교	-18726
▁미적	-18727
▁짬뽕	-18728
▁쿠우	-18729
▁ESP	-18730
▁Games	-18731
총사	-18732
▁연두	-18733
▁유린	-18734
▁펌웨어	-18735
▁배고프	-18736
▁약혼자	-18737
▁워해머	-18738
▁동성애자	-18739
▁다분	-18740
▁통폐	-18741
▁지드	-18742
▁판넬	-18743
▁There	-18744
▁Lun	-18745
▁디바인	-18746
▁탐지기	-18747
▁덤블	-18748
▁추론	-18749
▁!!"	-18750
▁과거사	-18751
▁카나메	-18752
▁망원경	-18753
67	-18754
▁거하	-18755
▁체면	-18756
▁목욕탕	-18757
▁냉철	-18758
▁퇴직	-18759
▁줄리엣	-18760
▁포터블	-18761
▁뿅	-18762
▁콜트	-18763
▁조나단	-18764
▁인조인간	-18765
▁루니	-18766
▁불릿	-18767
▁워스	-18768
▁크툴루	-18769
▁Easy	-18770
볶이	-18771
▁가맹	-18772
▁겐지	-18773
▁증식	-18774
▁매뉴얼	-18775
▁표지판	-18776
▁베로니카	-18777
▁르브론	-18778
고로	-18779
▁식용	-18780
▁코드네임	-18781
▁wanna	-18782
▁Ho	-18783
▁저속	-18784
▁카나타	-18785
▁카미조	-18786
▁보아	-18787
▁모모코	-18788
▁해밀턴	-18789
▁Pa	-18790
▁정훈	-18791
▁커밍	-18792
▁돌고래	-18793
▁클라크	-18794
▁갈망	-18795
▁카루	-18796
▁타도	-18797
네이션	-18798
▁떄문	-18799
ility	-18800
▁범퇴	-18801
▁우왕	-18802
▁문경	-18803
▁동강	-18804
▁장작	-18805
▁주지	-18806
▁크리스티안	-18807
avy	-18808
▁아코	-18809
▁네기	-18810
▁대격	-18811
▁설원	-18812
▁도키	-18813
▁보람	-18814
▁Spe	-18815
▁계엄	-18816
▁오레	-18817
▁동아일보	-18818
▁고글	-18819
▁김남	-18820
▁실례	-18821
▁도류	-18822
▁티비	-18823
▁항마	-18824
▁옆집	-18825
▁Road	-18826
▁서든	-18827
▁시영	-18828
▁치어리더	-18829
▁리디	-18830
▁신탁	-18831
▁전범	-18832
▁관리인	-18833
▁혼내	-18834
ison	-18835
▁보성	-18836
ense	-18837
▁SKY	-18838
▁주둔지	-18839
▁카디널	-18840
▁비야	-18841
▁이시스	-18842
▁뛰쳐나가	-18843
▁낙양	-18844
▁견주	-18845
▁아귀	-18846
▁460	-18847
▁보옥	-18848
▁통장	-18849
▁마르티	-18850
▁맹독충	-18851
▁엑스포	-18852
▁예컨대	-18853
우먼	-18854
▁덤벼들	-18855
▁무기고	-18856
▁쟝	-18857
▁VC	-18858
▁왕창	-18859
▁취항	-18860
[...]
