{"version":"1.0","truncation":null,"padding":null,"added_tokens":[{"id":0,"special":true,"content":"[PAD]","single_word":false,"lstrip":false,"rstrip":false,"normalized":false},{"id":1,"special":true,"content":"[UNK]","single_word":false,"lstrip":false,"rstrip":false,"normalized":false},{"id":2,"special":true,"content":"[CLS]","single_word":false,"lstrip":false,"rstrip":false,"normalized":false},{"id":3,"special":true,"content":"[SEP]","single_word":false,"lstrip":false,"rstrip":false,"normalized":false},{"id":4,"special":true,"content":"[MASK]","single_word":false,"lstrip":false,"rstrip":false,"normalized":false}],"normalizer":{"type":"BertNormalizer","clean_text":true,"handle_chinese_chars":true,"strip_accents":false,"lowercase":false},"pre_tokenizer":{"type":"BertPreTokenizer"},"post_processor":null,"decoder":{"type":"WordPiece","prefix":"##","cleanup":true},"model":{"type":"WordPiece","unk_token":"[UNK]","continuing_subword_prefix":"##","max_input_chars_per_word":100,"vocab":{"[PAD]":0,"[UNK]":1,"[CLS]":2,"[SEP]":3,"[MASK]":4,"!":5,"\"":6,"#":7,"$":8,"%":9,"&":10,"'":11,"(":12,")":13,"*":14,"+":15,",":16,"-":17,".":18,"/":19,"0":20,"1":21,"2":22,"3":23,"4":24,"5":25,"6":26,"7":27,"8":28,"9":29,":":30,";":31,"<":32,"=":33,">":34,"?":35,"@":36,"A":37,"B":38,"C":39,"D":40,"E":41,"F":42,"G":43,"H":44,"I":45,"J":46,"K":47,"L":48,"M":49,"N":50,"O":51,"P":52,"Q":53,"R":54,"S":55,"T":56,"U":57,"V":58,"W":59,"X":60,"Y":61,"Z":62,"[":63,"\\":64,"]":65,"^":66,"_":67,"`":68,"a":69,"b":70,"c":71,"d":72,"e":73,"f":74,"g":75,"h":76,"i":77,"j":78,"k":79,"l":80,"m":81,"n":82,"o":83,"p":84,"q":85,"r":86,"s":87,"t":88,"u":89,"v":90,"w":91,"x":92,"y":93,"z":94,"{":95,"|":96,"}":97,"~":98,"ㄱ":99,"ㄲ":100,"ㄳ":101,"ㄴ":102,"ㄵ":103,"ㄶ":104,"ㄷ":105,"ㄸ":106,"ㄹ":107,"ㄺ":108,"ㄻ":109,"ㄼ":110,"ㄽ":111,"ㄾ":112,"ㄿ":113,"ㅀ":114,"ㅁ":115,"ㅂ":116,"ㅃ":117,"ㅄ":118,"ㅅ":119,"ㅆ":120,"ㅇ":121,"ㅈ":122,"ㅉ":123,"ㅊ":124,"ㅋ":125,"ㅌ":126,"ㅍ":127,"ㅎ":128,"ㅏ":129,"ㅐ":130,"ㅑ":131,"ㅒ":132,"ㅓ":133,"ㅔ":134,"ㅕ":135,"ㅖ":136,"ㅗ":137,"ㅘ":138,"ㅙ":139,"ㅚ":140,"ㅛ":141,"ㅜ":142,"ㅝ":143,"ㅞ":144,"ㅟ":145,"ㅠ":146,"ㅡ":147,"ㅢ":148,"ㅣ":149,"가":150,"각":151,"갂":152,"갃":153,"간":154,"갅":155,"갇":156,"갈":157,"갉":158,"갊":159,"갋":160,"갌":161,"갍":162,"갎":163,"감":164,"갑":165,"값":166,"갓":167,"갔":168,"강":169,"갖":170,"갗":171,"갘":172,"같":173,"갚":174,"갛":175,"개":176,"객":177,"갞":178,"갟":179,"갠":180,"갡":181,"갢":182,"갣":183,"갤":184,"갥":185,"갦":186,"갧":187,"갨":188,"갩":189,"갪":190,"갫":191,"갬":192,"갭":193,"갮":194,"갯":195,"갰":196,"갱":197,"갲":198,"갴":199,"갵":200,"갶":201,"갷":202,"갸":203,"갹":204,"갺":205,"갼":206,"갾":207,"갿":208,"걀":209,"걁":210,"걂":211,"걃":212,"걄":213,"걅":214,"걆":215,"걇":216,"걈":217,"걉":218,"걊":219,"걋":220,"걌":221,"걍":222,"걎":223,"걏":224,"걐":225,"걑":226,"걒":227,"걓":228,"걔":229,"걕":230,"걖":231,"걗":232,"걘":233,"걙":234,"걛":235,"걜":236,"걝":237,"걞":238,"걟":239,"걠":240,"걡":241,"걢":242,"걣":243,"걤":244,"걥":245,"걦":246,"걧":247,"걨":248,"걩":249,"걫":250,"걬":251,"걭":252,"걮":253,"걯":254,"거":255,"걱":256,"걲":257,"걳":258,"건":259,"걵":260,"걶":261,"걷":262,"걸":263,"걹":264,"걺":265,"걻":266,"걼":267,"걽":268,"걾":269,"걿":270,"검":271,"겁":272,"겂":273,"것":274,"겄":275,"겅":276,"겆":277,"겇":278,"겈":279,"겉":280,"겊":281,"겋":282,"게":283,"겍":284,"겎":285,"겐":286,"겑":287,"겒":288,"겓":289,"겔":290,"겕":291,"겘":292,"겙":293,"겛":294,"겜":295,"겝":296,"겞":297,"겟":298,"겠":299,"겡":300,"겢":301,"겣":302,"겤":303,"겥":304,"겦":305,"겧":306,"겨":307,"격":308,"겪":309,"겫":310,"견":311,"겭":312,"겯":313,"결":314,"겱":315,"겲":316,"겳":317,"겴":318,"겵":319,"겶":320,"겷":321,"겸":322,"겹":323,"겺":324,"겻":325,"겼":326,"경":327,"겾":328,"겿":329,"곀":330,"곁":331,"곂":332,"곃":333,"계":334,"곅":335,"곈":336,"곊":337,"곋":338,"곌":339,"곎":340,"곏":341,"곐":342,"곑":343,"곒":344,"곓":345,"곔":346,"곕":347,"곖":348,"곗":349,"곘":350,"곙":351,"곚":352,"곛":353,"곜":354,"곝":355,"곟":356,"고":357,"곡":358,"곤":359,"곧":360,"골":361,"곩":362,"곪":363,"곫":364,"곬":365,"곮":366,"곯":367,"곰":368,"곱":369,"곲":370,"곳":371,"곴":372,"공":373,"곶":374,"곷":375,"곸":376,"곹":377,"곺":378,"곻":379,"과":380,"곽":381,"관":382,"괂":383,"괃":384,"괄":385,"괆":386,"괋":387,"괌":388,"괍":389,"괏":390,"괐":391,"광":392,"괕":393,"괗":394,"괘":395,"괙":396,"괜":397,"괞":398,"괟":399,"괠":400,"괢":401,"괧":402,"괨":403,"괩":404,"괫":405,"괬":406,"괭":407,"괱":408,"괳":409,"괴":410,"괵":411,"괸":412,"괺":413,"괻":414,"괼":415,"괾":416,"굄":417,"굅":418,"굇":419,"굈":420,"굉":421,"교":422,"굑":423,"굔":424,"굗":425,"굘":426,"굠":427,"굡":428,"굣":429,"굥":430,"굦":431,"구":432,"국":433,"군":434,"굳":435,"굴":436,"굵":437,"굶":438,"굷":439,"굸":440,"굻":441,"굼":442,"굽":443,"굾":444,"굿":445,"궁":446,"궂":447,"궃":448,"궄":449,"궅":450,"궆":451,"궇":452,"궈":453,"궉":454,"궊":455,"궋":456,"권":457,"궍":458,"궎":459,"궏":460,"궐":461,"궑":462,"궒":463,"궓":464,"궔":465,"궕":466,"궖":467,"궗":468,"궘":469,"궙":470,"궚":471,"궛":472,"궜":473,"궝":474,"궞":475,"궟":476,"궠":477,"궡":478,"궢":479,"궤":480,"궥":481,"궧":482,"궨":483,"궫":484,"궬":485,"궭":486,"궮":487,"궯":488,"궰":489,"궱":490,"궲":491,"궳":492,"궴":493,"궵":494,"궶":495,"궷":496,"궸":497,"궹":498,"궺":499,"궻":500,"궼":501,"궽":502,"궾":503,"귀":504,"귁":505,"귂":506,"귃":507,"귄":508,"귅":509,"귆":510,"귇":511,"귈":512,"귉":513,"귊":514,"귋":515,"귌":516,"귍":517,"귎":518,"귏":519,"귐":520,"귑":521,"귒":522,"귓":523,"귔":524,"귕":525,"귖":526,"귗":527,"귘":528,"귙":529,"귚":530,"귛":531,"규":532,"귝":533,"귞":534,"귟":535,"균":536,"귡":537,"귢":538,"귣":539,"귤":540,"귥":541,"귦":542,"귧":543,"귨":544,"귩":545,"귪":546,"귬":547,"귭":548,"귯":549,"귱":550,"귵":551,"귶":552,"그":553,"극":554,"귺":555,"귻":556,"근":557,"귽":558,"귾":559,"귿":560,"글":561,"긁":562,"긂":563,"긃":564,"긄":565,"긅":566,"긆":567,"긇":568,"금":569,"급":570,"긊":571,"긋":572,"긌":573,"긍":574,"긎":575,"긏":576,"긐":577,"긑":578,"긒":579,"긓":580,"긔":581,"긕":582,"긖":583,"긗":584,"긘":585,"긙":586,"긚":587,"긛":588,"긜":589,"긞":590,"긟":591,"긠":592,"긡":593,"긣":594,"긤":595,"긥":596,"긦":597,"긧":598,"긨":599,"긩":600,"긪":601,"긫":602,"긬":603,"긮":604,"긯":605,"기":606,"긱":607,"긲":608,"긳":609,"긴":610,"긵":611,"긶":612,"긷":613,"길":614,"긹":615,"긺":616,"긻":617,"긼":618,"긾":619,"긿":620,"김":621,"깁":622,"깂":623,"깃":624,"깄":625,"깅":626,"깆":627,"깇":628,"깈":629,"깉":630,"깊":631,"깋":632,"까":633,"깍":634,"깎":635,"깏":636,"깐":637,"깑":638,"깒":639,"깓":640,"깔":641,"깕":642,"깖":643,"깗":644,"깘":645,"깙":646,"깚":647,"깛":648,"깜":649,"깝":650,"깞":651,"깟":652,"깠":653,"깡":654,"깢":655,"깣":656,"깤":657,"깥":658,"깧":659,"깨":660,"깩":661,"깪":662,"깬":663,"깯":664,"깰":665,"깳":666,"깶":667,"깸":668,"깹":669,"깻":670,"깼":671,"깽":672,"꺀":673,"꺁":674,"꺃":675,"꺄":676,"꺅":677,"꺆":678,"꺈":679,"꺋":680,"꺌":681,"꺍":682,"꺏":683,"꺐":684,"꺑":685,"꺔":686,"꺕":687,"꺗":688,"꺘":689,"꺙":690,"꺠":691,"꺢":692,"꺤":693,"꺨":694,"꺰":695,"꺴":696,"꺵":697,"꺼":698,"꺽":699,"꺾":700,"껀":701,"껂":702,"껃":703,"껄":704,"껇":705,"껌":706,"껍":707,"껏":708,"껐":709,"껑":710,"껒":711,"껓":712,"껕":713,"껖":714,"껗":715,"께":716,"껙":717,"껚":718,"껜":719,"껟":720,"껠":721,"껨":722,"껩":723,"껫":724,"껬":725,"껭":726,"껱":727,"껴":728,"껵":729,"껶":730,"껸":731,"껻":732,"껼":733,"꼄":734,"꼅":735,"꼇":736,"꼈":737,"꼉":738,"꼍":739,"꼐":740,"꼑":741,"꼔":742,"꼗":743,"꼠":744,"꼣":745,"꼤":746,"꼥":747,"꼬":748,"꼭":749,"꼮":750,"꼯":751,"꼰":752,"꼱":753,"꼲":754,"꼳":755,"꼴":756,"꼵":757,"꼶":758,"꼸":759,"꼻":760,"꼼":761,"꼽":762,"꼿":763,"꽁":764,"꽂":765,"꽃":766,"꽅":767,"꽆":768,"꽇":769,"꽈":770,"꽉":771,"꽊":772,"꽌":773,"꽏":774,"꽐":775,"꽑":776,"꽘":777,"꽙":778,"꽛":779,"꽜":780,"꽝":781,"꽣":782,"꽤":783,"꽥":784,"꽦":785,"꽨":786,"꽫":787,"꽬":788,"꽯":789,"꽴":790,"꽵":791,"꽸":792,"꽹":793,"꾀":794,"꾁":795,"꾄":796,"꾇":797,"꾈":798,"꾐":799,"꾑":800,"꾓":801,"꾔":802,"꾕":803,"꾜":804,"꾠":805,"꾣":806,"꾤":807,"꾩":808,"꾫":809,"꾬":810,"꾭":811,"꾱":812,"꾲":813,"꾳":814,"꾸":815,"꾹":816,"꾼":817,"꾾":818,"꾿":819,"꿀":820,"꿁":821,"꿂":822,"꿃":823,"꿅":824,"꿆":825,"꿇":826,"꿈":827,"꿉":828,"꿋":829,"꿍":830,"꿎":831,"꿏":832,"꿐":833,"꿑":834,"꿔":835,"꿕":836,"꿘":837,"꿛":838,"꿜":839,"꿝":840,"꿤":841,"꿥":842,"꿧":843,"꿨":844,"꿩":845,"꿯":846,"꿰":847,"꿱":848,"꿴":849,"꿷":850,"꿸":851,"꿻":852,"꿿":853,"뀀":854,"뀁":855,"뀃":856,"뀄":857,"뀅":858,"뀌":859,"뀍":860,"뀐":861,"뀓":862,"뀔":863,"뀙":864,"뀜":865,"뀝":866,"뀟":867,"뀠":868,"뀡":869,"뀢":870,"뀨":871,"뀩":872,"뀪":873,"뀬":874,"뀰":875,"뀸":876,"뀹":877,"뀻":878,"뀽":879,"끄":880,"끅":881,"끆":882,"끈":883,"끉":884,"끊":885,"끋":886,"끌":887,"끍":888,"끎":889,"끏":890,"끑":891,"끓":892,"끔":893,"끕":894,"끗":895,"끙":896,"끛":897,"끜":898,"끝":899,"끟":900,"끠":901,"끡":902,"끤":903,"끧":904,"끨":905,"끫":906,"끳":907,"끵":908,"끼":909,"끽":910,"끾":911,"낀":912,"낃":913,"낄":914,"낋":915,"낌":916,"낍":917,"낏":918,"낐":919,"낑":920,"낔":921,"낕":922,"나":923,"낙":924,"낚":925,"낛":926,"난":927,"낞":928,"낟":929,"날":930,"낡":931,"낢":932,"낣":933,"낤":934,"낧":935,"남":936,"납":937,"낪":938,"낫":939,"났":940,"낭":941,"낮":942,"낯":943,"낰":944,"낱":945,"낲":946,"낳":947,"내":948,"낵":949,"낶":950,"낸":951,"낻":952,"낼":953,"낿":954,"냀":955,"냃":956,"냄":957,"냅":958,"냇":959,"냈":960,"냉":961,"냌":962,"냎":963,"냏":964,"냐":965,"냑":966,"냔":967,"냗":968,"냘":969,"냙":970,"냛":971,"냟":972,"냠":973,"냡":974,"냣":975,"냤":976,"냥":977,"냦":978,"냨":979,"냩":980,"냫":981,"냬":982,"냴":983,"넀":984,"넁":985,"너":986,"넉":987,"넊":988,"넋":989,"넌":990,"넍":991,"넎":992,"넏":993,"널":994,"넑":995,"넒":996,"넓":997,"넔":998,"넖":999,"넗":1000,"넘":1001,"넙":1002,"넚":1003,"넛":1004,"넜":1005,"넝":1006,"넞":1007,"넟":1008,"넠":1009,"넡":1010,"넢":1011,"넣":1012,"네":1013,"넥":1014,"넧":1015,"넨":1016,"넫":1017,"넬":1018,"넴":1019,"넵":1020,"넶":1021,"넷":1022,"넸":1023,"넹":1024,"넼":1025,"넽":1026,"넾":1027,"넿":1028,"녀":1029,"녁":1030,"녂":1031,"녃":1032,"년":1033,"녇":1034,"녈":1035,"녋":1036,"념":1037,"녑":1038,"녓":1039,"녔":1040,"녕":1041,"녘":1042,"녙":1043,"녚":1044,"녛":1045,"녜":1046,"녝":1047,"녠":1048,"녣":1049,"녤":1050,"녬":1051,"녭":1052,"녯":1053,"녱":1054,"녵":1055,"노":1056,"녹":1057,"녺":1058,"녻":1059,"논":1060,"녾":1061,"녿":1062,"놀":1063,"놂":1064,"놃":1065,"놅":1066,"놈":1067,"놉":1068,"놊":1069,"놋":1070,"농":1071,"놎":1072,"놏":1073,"놐":1074,"놑":1075,"높":1076,"놓":1077,"놔":1078,"놕":1079,"놗":1080,"놘":1081,"놛":1082,"놜":1083,"놞":1084,"놤":1085,"놥":1086,"놧":1087,"놨":1088,"놩":1089,"놬":1090,"놯":1091,"놰":1092,"놴":1093,"놸":1094,"뇄":1095,"뇌":1096,"뇍":1097,"뇐":1098,"뇓":1099,"뇔":1100,"뇜":1101,"뇝":1102,"뇟":1103,"뇠":1104,"뇡":1105,"뇦":1106,"뇨":1107,"뇩":1108,"뇬":1109,"뇯":1110,"뇰":1111,"뇸":1112,"뇹":1113,"뇻":1114,"뇽":1115,"뇾":1116,"눀":1117,"눂":1118,"누":1119,"눅":1120,"눈":1121,"눋":1122,"눌":1123,"눍":1124,"눐":1125,"눓":1126,"눔":1127,"눕":1128,"눗":1129,"눙":1130,"눚":1131,"눛":1132,"눜":1133,"눝":1134,"눞":1135,"눟":1136,"눠":1137,"눡":1138,"눤":1139,"눧":1140,"눨":1141,"눰":1142,"눱":1143,"눳":1144,"눴":1145,"눵":1146,"눶":1147,"눼":1148,"눽":1149,"뉀":1150,"뉃":1151,"뉄":1152,"뉌":1153,"뉍":1154,"뉏":1155,"뉐":1156,"뉑":1157,"뉔":1158,"뉘":1159,"뉙":1160,"뉜":1161,"뉟":1162,"뉠":1163,"뉨":1164,"뉩":1165,"뉫":1166,"뉭":1167,"뉯":1168,"뉴":1169,"뉵":1170,"뉸":1171,"뉻":1172,"뉼":1173,"늄":1174,"늅":1175,"늇":1176,"늉":1177,"늊":1178,"늋":1179,"늎":1180,"늏":1181,"느":1182,"늑":1183,"늒":1184,"늓":1185,"는":1186,"늕":1187,"늖":1188,"늗":1189,"늘":1190,"늙":1191,"늚":1192,"늛":1193,"늜":1194,"늝":1195,"늞":1196,"늟":1197,"늠":1198,"늡":1199,"늢":1200,"늣":1201,"능":1202,"늦":1203,"늧":1204,"늨":1205,"늩":1206,"늪":1207,"늫":1208,"늬":1209,"늭":1210,"늰":1211,"늳":1212,"늴":1213,"늼":1214,"늽":1215,"늿":1216,"닀":1217,"닁":1218,"니":1219,"닉":1220,"닊":1221,"닌":1222,"닍":1223,"닏":1224,"닐":1225,"닑":1226,"닒":1227,"닓":1228,"닔":1229,"님":1230,"닙":1231,"닚":1232,"닛":1233,"닜":1234,"닝":1235,"닞":1236,"닟":1237,"닠":1238,"닡":1239,"닢":1240,"닣":1241,"다":1242,"닥":1243,"닦":1244,"닧":1245,"단":1246,"닪":1247,"닫":1248,"달":1249,"닭":1250,"닮":1251,"닯":1252,"닰":1253,"닲":1254,"닳":1255,"담":1256,"답":1257,"닶":1258,"닷":1259,"닸":1260,"당":1261,"닺":1262,"닻":1263,"닼":1264,"닽":1265,"닾":1266,"닿":1267,"대":1268,"댁":1269,"댄":1270,"댇":1271,"댈":1272,"댋":1273,"댐":1274,"댑":1275,"댓":1276,"댔":1277,"댕":1278,"댖":1279,"댗":1280,"댘":1281,"댙":1282,"댚":1283,"댛":1284,"댜":1285,"댝":1286,"댠":1287,"댤":1288,"댥":1289,"댧":1290,"댬":1291,"댭":1292,"댯":1293,"댱":1294,"댷":1295,"댸":1296,"댼":1297,"덀":1298,"덌":1299,"덍":1300,"더":1301,"덕":1302,"덖":1303,"덗":1304,"던":1305,"덙":1306,"덛":1307,"덜":1308,"덝":1309,"덞":1310,"덟":1311,"덢":1312,"덣":1313,"덤":1314,"덥":1315,"덦":1316,"덧":1317,"덨":1318,"덩":1319,"덪":1320,"덫":1321,"덬":1322,"덭":1323,"덮":1324,"덯":1325,"데":1326,"덱":1327,"덲":1328,"덴":1329,"덷":1330,"델":1331,"덻":1332,"덿":1333,"뎀":1334,"뎁":1335,"뎂":1336,"뎃":1337,"뎄":1338,"뎅":1339,"뎆":1340,"뎈":1341,"뎉":1342,"뎊":1343,"뎋":1344,"뎌":1345,"뎍":1346,"뎏":1347,"뎐":1348,"뎓":1349,"뎔":1350,"뎗":1351,"뎘":1352,"뎜":1353,"뎝":1354,"뎟":1355,"뎠":1356,"뎡":1357,"뎢":1358,"뎦":1359,"뎧":1360,"뎨":1361,"뎩":1362,"뎬":1363,"뎰":1364,"뎸":1365,"뎹":1366,"뎻":1367,"뎽":1368,"도":1369,"독":1370,"돆":1371,"돇":1372,"돈":1373,"돋":1374,"돌":1375,"돍":1376,"돎":1377,"돏":1378,"돐":1379,"돒":1380,"돓":1381,"돔":1382,"돕":1383,"돖":1384,"돗":1385,"돘":1386,"동":1387,"돚":1388,"돛":1389,"돜":1390,"돝":1391,"돞":1392,"돟":1393,"돠":1394,"돡":1395,"돣":1396,"돤":1397,"돧":1398,"돨":1399,"돩":1400,"돫":1401,"돰":1402,"돱":1403,"돳":1404,"돴":1405,"돵":1406,"돼":1407,"돽":1408,"돿":1409,"됀":1410,"됃":1411,"됄":1412,"됈":1413,"됌":1414,"됍":1415,"됏":1416,"됐":1417,"됑":1418,"됒":1419,"됗":1420,"되":1421,"됙":1422,"된":1423,"됟":1424,"될":1425,"됢":1426,"됤":1427,"됧":1428,"됨":1429,"됩":1430,"됫":1431,"됬":1432,"됭":1433,"됮":1434,"됯":1435,"됰":1436,"됱":1437,"됴":1438,"됵":1439,"됸":1440,"됻":1441,"됼":1442,"둄":1443,"둅":1444,"둇":1445,"둈":1446,"둉":1447,"둍":1448,"둏":1449,"두":1450,"둑":1451,"둔":1452,"둗":1453,"둘":1454,"둙":1455,"둚":1456,"둛":1457,"둟":1458,"둠":1459,"둡":1460,"둣":1461,"둥":1462,"둧":1463,"둩":1464,"둪":1465,"둫":1466,"둬":1467,"둭":1468,"둰":1469,"둳":1470,"둴":1471,"둼":1472,"둽":1473,"둿":1474,"뒀":1475,"뒁":1476,"뒈":1477,"뒉":1478,"뒌":1479,"뒏":1480,"뒐":1481,"뒑":1482,"뒓":1483,"뒕":1484,"뒗":1485,"뒘":1486,"뒙":1487,"뒛":1488,"뒜":1489,"뒝":1490,"뒤":1491,"뒥":1492,"뒨":1493,"뒫":1494,"뒬":1495,"뒴":1496,"뒵":1497,"뒷":1498,"뒸":1499,"뒹":1500,"뒺":1501,"뒾":1502,"뒿":1503,"듀":1504,"듁":1505,"듄":1506,"듇":1507,"듈":1508,"듐":1509,"듑":1510,"듓":1511,"듕":1512,"드":1513,"득":1514,"듟":1515,"든":1516,"듣":1517,"들":1518,"듥":1519,"듦":1520,"듧":1521,"듨":1522,"듫":1523,"듬":1524,"듭":1525,"듮":1526,"듯":1527,"듰":1528,"등":1529,"듲":1530,"듳":1531,"듴":1532,"듵":1533,"듶":1534,"듷":1535,"듸":1536,"듹":1537,"듼":1538,"듿":1539,"딀":1540,"딈":1541,"딉":1542,"딋":1543,"딍":1544,"디":1545,"딕":1546,"딘":1547,"딛":1548,"딜":1549,"딤":1550,"딥":1551,"딦":1552,"딧":1553,"딨":1554,"딩":1555,"딪":1556,"딫":1557,"딬":1558,"딭":1559,"딮":1560,"딯":1561,"따":1562,"딱":1563,"딲":1564,"딴":1565,"딷":1566,"딸":1567,"딹":1568,"딺":1569,"딻":1570,"딿":1571,"땀":1572,"땁":1573,"땃":1574,"땄":1575,"땅":1576,"땈":1577,"땋":1578,"때":1579,"땍":1580,"땎":1581,"땐":1582,"땓":1583,"땔":1584,"땕":1585,"땗":1586,"땛":1587,"땜":1588,"땝":1589,"땞":1590,"땟":1591,"땠":1592,"땡":1593,"땣":1594,"땧":1595,"땨":1596,"땩":1597,"땬":1598,"땰":1599,"땳":1600,"땸":1601,"땹":1602,"땻":1603,"땽":1604,"떁":1605,"떄":1606,"떅":1607,"떈":1608,"떋":1609,"떌":1610,"떔":1611,"떗":1612,"떘":1613,"떙":1614,"떟":1615,"떠":1616,"떡":1617,"떢":1618,"떣":1619,"떤":1620,"떥":1621,"떦":1622,"떧":1623,"떨":1624,"떪":1625,"떫":1626,"떭":1627,"떯":1628,"떰":1629,"떱":1630,"떳":1631,"떴":1632,"떵":1633,"떻":1634,"떼":1635,"떽":1636,"뗀":1637,"뗃":1638,"뗄":1639,"뗆":1640,"뗉":1641,"뗋":1642,"뗌":1643,"뗍":1644,"뗏":1645,"뗐":1646,"뗑":1647,"뗔":1648,"뗗":1649,"뗘":1650,"뗙":1651,"뗛":1652,"뗜":1653,"뗟":1654,"뗠":1655,"뗡":1656,"뗣":1657,"뗨":1658,"뗩":1659,"뗫":1660,"뗬":1661,"뗭":1662,"뗳":1663,"뗴":1664,"뗵":1665,"뗶":1666,"뗸":1667,"뗻":1668,"뗼":1669,"똄":1670,"똅":1671,"똇":1672,"똈":1673,"똏":1674,"또":1675,"똑":1676,"똒":1677,"똔":1678,"똗":1679,"똘":1680,"똙":1681,"똚":1682,"똟":1683,"똠":1684,"똡":1685,"똣":1686,"똤":1687,"똥":1688,"똧":1689,"똫":1690,"똬":1691,"똭":1692,"똰":1693,"똴":1694,"똵":1695,"똷":1696,"똻":1697,"똽":1698,"똿":1699,"뙀":1700,"뙁":1701,"뙇":1702,"뙈":1703,"뙉":1704,"뙌":1705,"뙍":1706,"뙏":1707,"뙐":1708,"뙒":1709,"뙗":1710,"뙘":1711,"뙙":1712,"뙛":1713,"뙜":1714,"뙡":1715,"뙤":1716,"뙥":1717,"뙨":1718,"뙫":1719,"뙬":1720,"뙭":1721,"뙳":1722,"뙴":1723,"뙵":1724,"뙷":1725,"뙸":1726,"뙹":1727,"뚀":1728,"뚁":1729,"뚂":1730,"뚄":1731,"뚊":1732,"뚐":1733,"뚔":1734,"뚕":1735,"뚜":1736,"뚝":1737,"뚞":1738,"뚠":1739,"뚢":1740,"뚣":1741,"뚤":1742,"뚥":1743,"뚦":1744,"뚧":1745,"뚫":1746,"뚬":1747,"뚭":1748,"뚮":1749,"뚯":1750,"뚱":1751,"뚴":1752,"뚵":1753,"뚷":1754,"뚸":1755,"뚼":1756,"뚿":1757,"뛀":1758,"뛃":1759,"뛈":1760,"뛋":1761,"뛌":1762,"뛔":1763,"뛗":1764,"뛘":1765,"뛛":1766,"뛜":1767,"뛝":1768,"뛟":1769,"뛤":1770,"뛥":1771,"뛨":1772,"뛩":1773,"뛰":1774,"뛴":1775,"뛷":1776,"뛸":1777,"뛹":1778,"뛻":1779,"뜀":1780,"뜁":1781,"뜃":1782,"뜄":1783,"뜅":1784,"뜌":1785,"뜍":1786,"뜐":1787,"뜔":1788,"뜛":1789,"뜜":1790,"뜝":1791,"뜡":1792,"뜨":1793,"뜩":1794,"뜫":1795,"뜬":1796,"뜮":1797,"뜯":1798,"뜰":1799,"뜲":1800,"뜳":1801,"뜵":1802,"뜷":1803,"뜸":1804,"뜹":1805,"뜻":1806,"뜼":1807,"뜽":1808,"띁":1809,"띃":1810,"띄":1811,"띅":1812,"띈":1813,"띌":1814,"띎":1815,"띔":1816,"띕":1817,"띙":1818,"띠":1819,"띡":1820,"띤":1821,"띧":1822,"띨":1823,"띯":1824,"띰":1825,"띱":1826,"띳":1827,"띵":1828,"띻":1829,"라":1830,"락":1831,"띾":1832,"란":1833,"랂":1834,"랃":1835,"랄":1836,"랅":1837,"랆":1838,"랈":1839,"랋":1840,"람":1841,"랍":1842,"랎":1843,"랏":1844,"랐":1845,"랑":1846,"랒":1847,"랓":1848,"랔":1849,"랕":1850,"랖":1851,"랗":1852,"래":1853,"랙":1854,"랛":1855,"랜":1856,"랟":1857,"랠":1858,"랢":1859,"랣":1860,"랤":1861,"램":1862,"랩":1863,"랫":1864,"랬":1865,"랭":1866,"랮":1867,"랰":1868,"랱":1869,"랲":1870,"랳":1871,"랴":1872,"략":1873,"랸":1874,"랻":1875,"랼":1876,"럂":1877,"럄":1878,"럅":1879,"럇":1880,"럈":1881,"량":1882,"럌":1883,"럍":1884,"럐":1885,"럑":1886,"럔":1887,"럘":1888,"럣":1889,"럤":1890,"러":1891,"럭":1892,"럮":1893,"럯":1894,"런":1895,"럲":1896,"럳":1897,"럴":1898,"럶":1899,"럷":1900,"럸":1901,"럻":1902,"럼":1903,"럽":1904,"럾":1905,"럿":1906,"렀":1907,"렁":1908,"렂":1909,"렃":1910,"렄":1911,"렆":1912,"렇":1913,"레":1914,"렉":1915,"렌":1916,"렏":1917,"렐":1918,"렘":1919,"렙":1920,"렚":1921,"렛":1922,"렜":1923,"렝":1924,"렞":1925,"렠":1926,"렡":1927,"렢":1928,"렣":1929,"려":1930,"력":1931,"렦":1932,"렧":1933,"련":1934,"렫":1935,"렬":1936,"렰":1937,"렴":1938,"렵":1939,"렷":1940,"렸":1941,"령":1942,"렺":1943,"렼":1944,"렾":1945,"렿":1946,"례":1947,"롁":1948,"롄":1949,"롇":1950,"롈":1951,"롊":1952,"롐":1953,"롑":1954,"롓":1955,"롕":1956,"로":1957,"록":1958,"론":1959,"롣":1960,"롤":1961,"롥":1962,"롨":1963,"롫":1964,"롬":1965,"롭":1966,"롮":1967,"롯":1968,"롱":1969,"롲":1970,"롳":1971,"롴":1972,"롵":1973,"롶":1974,"롷":1975,"롸":1976,"롹":1977,"롻":1978,"롼":1979,"뢀":1980,"뢇":1981,"뢈":1982,"뢉":1983,"뢋":1984,"뢌":1985,"뢍":1986,"뢐":1987,"뢓":1988,"뢔":1989,"뢘":1990,"뢛":1991,"뢜":1992,"뢤":1993,"뢧":1994,"뢨":1995,"뢰":1996,"뢱":1997,"뢴":1998,"뢵":1999,"뢷":2000,"뢸":2001,"룀":2002,"룁":2003,"룃":2004,"룄":2005,"룅":2006,"료":2007,"룍":2008,"룐":2009,"룓":2010,"룔":2011,"룜":2012,"룝":2013,"룟":2014,"룡":2015,"룥":2016,"룧":2017,"루":2018,"룩":2019,"룫":2020,"룬":2021,"룯":2022,"룰":2023,"룱":2024,"룳":2025,"룴":2026,"룸":2027,"룹":2028,"룺":2029,"룻":2030,"룽":2031,"뤀":2032,"뤁":2033,"뤂":2034,"뤃":2035,"뤄":2036,"뤅":2037,"뤈":2038,"뤋":2039,"뤌":2040,"뤔":2041,"뤕":2042,"뤗":2043,"뤘":2044,"뤙":2045,"뤠":2046,"뤡":2047,"뤤":2048,"뤨":2049,"뤩":2050,"뤯":2051,"뤰":2052,"뤱":2053,"뤳":2054,"뤴":2055,"뤵":2056,"뤼":2057,"뤽":2058,"륀":2059,"륃":2060,"륄":2061,"륌":2062,"륍":2063,"륏":2064,"륐":2065,"륑":2066,"륗":2067,"류":2068,"륙":2069,"륜":2070,"륟":2071,"률":2072,"륨":2073,"륩":2074,"륫":2075,"륭":2076,"륮":2077,"륰":2078,"륱":2079,"륳":2080,"르":2081,"륵":2082,"륶":2083,"륷":2084,"른":2085,"륻":2086,"를":2087,"륽":2088,"륾":2089,"륿":2090,"릀":2091,"릁":2092,"릃":2093,"름":2094,"릅":2095,"릆":2096,"릇":2097,"릈":2098,"릉":2099,"릊":2100,"릋":2101,"릌":2102,"릍":2103,"릎":2104,"릏":2105,"릐":2106,"릑":2107,"릔":2108,"릘":2109,"릞":2110,"릠":2111,"릡":2112,"릣":2113,"릥":2114,"릫":2115,"리":2116,"릭":2117,"릯":2118,"린":2119,"릱":2120,"릳":2121,"릴":2122,"릵":2123,"림":2124,"립":2125,"릾":2126,"릿":2127,"맀":2128,"링":2129,"맂":2130,"맃":2131,"맄":2132,"맅":2133,"맆":2134,"맇":2135,"마":2136,"막":2137,"맊":2138,"만":2139,"맍":2140,"많":2141,"맏":2142,"말":2143,"맑":2144,"맒":2145,"맓":2146,"맔":2147,"맕":2148,"맖":2149,"맗":2150,"맘":2151,"맙":2152,"맛":2153,"맜":2154,"망":2155,"맞":2156,"맟":2157,"맠":2158,"맡":2159,"맢":2160,"맣":2161,"매":2162,"맥":2163,"맨":2164,"맪":2165,"맫":2166,"맬":2167,"맭":2168,"맴":2169,"맵":2170,"맷":2171,"맸":2172,"맹":2173,"맺":2174,"맻":2175,"맼":2176,"맽":2177,"맾":2178,"먀":2179,"먁":2180,"먃":2181,"먄":2182,"먆":2183,"먈":2184,"먏":2185,"먐":2186,"먑":2187,"먓":2188,"먕":2189,"먖":2190,"먗":2191,"먘":2192,"먙":2193,"먜":2194,"먯":2195,"머":2196,"먹":2197,"먺":2198,"먻":2199,"먼":2200,"먽":2201,"먾":2202,"먿":2203,"멀":2204,"멁":2205,"멂":2206,"멇":2207,"멈":2208,"멉":2209,"멊":2210,"멋":2211,"멌":2212,"멍":2213,"멎":2214,"멏":2215,"멐":2216,"멑":2217,"멓":2218,"메":2219,"멕":2220,"멘":2221,"멛":2222,"멜":2223,"멞":2224,"멟":2225,"멠":2226,"멤":2227,"멥":2228,"멦":2229,"멧":2230,"멨":2231,"멩":2232,"멪":2233,"멫":2234,"멬":2235,"멭":2236,"멮":2237,"며":2238,"멱":2239,"면":2240,"멵":2241,"멷":2242,"멸":2243,"멺":2244,"몀":2245,"몁":2246,"몃":2247,"몄":2248,"명":2249,"몆":2250,"몇":2251,"몉":2252,"몊":2253,"몋":2254,"몌":2255,"몍":2256,"몐":2257,"몓":2258,"몔":2259,"몜":2260,"몝":2261,"몟":2262,"몡":2263,"몣":2264,"몥":2265,"몦":2266,"모":2267,"목":2268,"몪":2269,"몫":2270,"몬":2271,"몭":2272,"몯":2273,"몰":2274,"몱":2275,"몲":2276,"몴":2277,"몸":2278,"몹":2279,"못":2280,"몼":2281,"몽":2282,"몾":2283,"몿":2284,"뫀":2285,"뫁":2286,"뫂":2287,"뫃":2288,"뫄":2289,"뫅":2290,"뫈":2291,"뫋":2292,"뫌":2293,"뫔":2294,"뫕":2295,"뫗":2296,"뫘":2297,"뫙":2298,"뫚":2299,"뫞":2300,"뫟":2301,"뫠":2302,"뫤":2303,"뫨":2304,"뫱":2305,"뫴":2306,"뫼":2307,"뫽":2308,"묀":2309,"묃":2310,"묄":2311,"묌":2312,"묍":2313,"묏":2314,"묑":2315,"묗":2316,"묘":2317,"묙":2318,"묜":2319,"묟":2320,"묠":2321,"묡":2322,"묨":2323,"묩":2324,"묫":2325,"묭":2326,"묯":2327,"묳":2328,"무":2329,"묵":2330,"묶":2331,"묷":2332,"문":2333,"묺":2334,"묻":2335,"물":2336,"묽":2337,"묾":2338,"뭀":2339,"뭃":2340,"뭄":2341,"뭅":2342,"뭆":2343,"뭇":2344,"뭈":2345,"뭉":2346,"뭊":2347,"뭋":2348,"뭌":2349,"뭍":2350,"뭎":2351,"뭏":2352,"뭐":2353,"뭑":2354,"뭔":2355,"뭗":2356,"뭘":2357,"뭠":2358,"뭡":2359,"뭣":2360,"뭤":2361,"뭥":2362,"뭦":2363,"뭨":2364,"뭩":2365,"뭬":2366,"뭭":2367,"뭰":2368,"뭴":2369,"뭵":2370,"뭺":2371,"뭼":2372,"뭽":2373,"뭿":2374,"뮀":2375,"뮁":2376,"뮈":2377,"뮉":2378,"뮊":2379,"뮌":2380,"뮐":2381,"뮘":2382,"뮙":2383,"뮛":2384,"뮜":2385,"뮝":2386,"뮤":2387,"뮥":2388,"뮨":2389,"뮫":2390,"뮬":2391,"뮴":2392,"뮵":2393,"뮷":2394,"뮹":2395,"뮺":2396,"뮻":2397,"뮽":2398,"므":2399,"믁":2400,"믂":2401,"믄":2402,"믇":2403,"믈":2404,"믉":2405,"믌":2406,"믏":2407,"믐":2408,"믑":2409,"믓":2410,"믕":2411,"믖":2412,"믗":2413,"믘":2414,"믙":2415,"믛":2416,"믜":2417,"믝":2418,"믠":2419,"믤":2420,"믬":2421,"믭":2422,"믯":2423,"믱":2424,"믲":2425,"미":2426,"믹":2427,"믻":2428,"민":2429,"믽":2430,"믾":2431,"믿":2432,"밀":2433,"밁":2434,"밂":2435,"밄":2436,"밇":2437,"밈":2438,"밉":2439,"밊":2440,"밋":2441,"밌":2442,"밍":2443,"밎":2444,"및":2445,"밐":2446,"밑":2447,"밒":2448,"밓":2449,"바":2450,"박":2451,"밖":2452,"밗":2453,"반":2454,"밚":2455,"받":2456,"발":2457,"밝":2458,"밞":2459,"밟":2460,"밠":2461,"밡":2462,"밢":2463,"밣":2464,"밤":2465,"밥":2466,"밦":2467,"밧":2468,"밨":2469,"방":2470,"밪":2471,"밫":2472,"밬":2473,"밭":2474,"밮":2475,"밯":2476,"배":2477,"백":2478,"밲":2479,"밴":2480,"밷":2481,"밸":2482,"밻":2483,"뱀":2484,"뱁":2485,"뱂":2486,"뱃":2487,"뱄":2488,"뱅":2489,"뱆":2490,"뱇":2491,"뱈":2492,"뱉":2493,"뱊":2494,"뱋":2495,"뱌":2496,"뱍":2497,"뱐":2498,"뱓":2499,"뱔":2500,"뱜":2501,"뱝":2502,"뱟":2503,"뱡":2504,"뱤":2505,"뱦":2506,"뱧":2507,"뱨":2508,"뱩":2509,"뱬":2510,"뱰":2511,"뱷":2512,"뱸":2513,"뱽":2514,"버":2515,"벅":2516,"벆":2517,"번":2518,"벉":2519,"벋":2520,"벌":2521,"벍":2522,"벎":2523,"벏":2524,"벐":2525,"벓":2526,"범":2527,"법":2528,"벖":2529,"벗":2530,"벘":2531,"벙":2532,"벚":2533,"벛":2534,"벜":2535,"벝":2536,"벞":2537,"벟":2538,"베":2539,"벡":2540,"벢":2541,"벤":2542,"벧":2543,"벨":2544,"벩":2545,"벫":2546,"벯":2547,"벰":2548,"벱":2549,"벲":2550,"벳":2551,"벴":2552,"벵":2553,"벷":2554,"벸":2555,"벹":2556,"벻":2557,"벼":2558,"벽":2559,"벾":2560,"변":2561,"볃":2562,"별":2563,"볅":2564,"볆":2565,"볈":2566,"볋":2567,"볌":2568,"볍":2569,"볎":2570,"볏":2571,"볐":2572,"병":2573,"볒":2574,"볓":2575,"볔":2576,"볕":2577,"볘":2578,"볙":2579,"볜":2580,"볟":2581,"볠":2582,"볨":2583,"볩":2584,"볫":2585,"볭":2586,"볱":2587,"볳":2588,"보":2589,"복":2590,"볶":2591,"볷":2592,"본":2593,"볻":2594,"볼":2595,"볽":2596,"볾":2597,"볿":2598,"봁":2599,"봄":2600,"봅":2601,"봇":2602,"봈":2603,"봉":2604,"봊":2605,"봋":2606,"봌":2607,"봍":2608,"봎":2609,"봏":2610,"봐":2611,"봑":2612,"봒":2613,"봔":2614,"봗":2615,"봘":2616,"봙":2617,"봠":2618,"봡":2619,"봣":2620,"봤":2621,"봥":2622,"봨":2623,"봫":2624,"봬":2625,"봭":2626,"봰":2627,"봳":2628,"봴":2629,"봵":2630,"봽":2631,"뵀":2632,"뵈":2633,"뵉":2634,"뵊":2635,"뵌":2636,"뵏":2637,"뵐":2638,"뵘":2639,"뵙":2640,"뵛":2641,"뵜":2642,"뵝":2643,"뵤":2644,"뵥":2645,"뵨":2646,"뵬":2647,"뵴":2648,"뵵":2649,"뵷":2650,"뵹":2651,"뵽":2652,"부":2653,"북":2654,"붂":2655,"분":2656,"붆":2657,"붇":2658,"불":2659,"붉":2660,"붊":2661,"붋":2662,"붌":2663,"붍":2664,"붎":2665,"붏":2666,"붐":2667,"붑":2668,"붓":2669,"붔":2670,"붕":2671,"붖":2672,"붗":2673,"붘":2674,"붙":2675,"붚":2676,"붛":2677,"붜":2678,"붝":2679,"붠":2680,"붣":2681,"붤":2682,"붥":2683,"붬":2684,"붭":2685,"붯":2686,"붰":2687,"붱":2688,"붴":2689,"붵":2690,"붸":2691,"붹":2692,"붼":2693,"붿":2694,"뷀":2695,"뷁":2696,"뷃":2697,"뷇":2698,"뷈":2699,"뷉":2700,"뷋":2701,"뷌":2702,"뷍":2703,"뷓":2704,"뷔":2705,"뷕":2706,"뷘":2707,"뷛":2708,"뷜":2709,"뷤":2710,"뷥":2711,"뷧":2712,"뷩":2713,"뷫":2714,"뷭":2715,"뷮":2716,"뷰":2717,"뷱":2718,"뷴":2719,"뷷":2720,"뷸":2721,"븀":2722,"븁":2723,"븃":2724,"븅":2725,"븉":2726,"브":2727,"븍":2728,"븏":2729,"븐":2730,"븓":2731,"블":2732,"븕":2733,"븗":2734,"븘":2735,"븛":2736,"븜":2737,"븝":2738,"븞":2739,"븟":2740,"븠":2741,"븡":2742,"븣":2743,"븥":2744,"븧":2745,"븨":2746,"븩":2747,"븪":2748,"븬":2749,"븰":2750,"븸":2751,"븹":2752,"븻":2753,"븽":2754,"빂":2755,"비":2756,"빅":2757,"빆":2758,"빈":2759,"빋":2760,"빌":2761,"빍":2762,"빎":2763,"빏":2764,"빓":2765,"빔":2766,"빕":2767,"빖":2768,"빗":2769,"빘":2770,"빙":2771,"빚":2772,"빛":2773,"빜":2774,"빝":2775,"빞":2776,"빟":2777,"빠":2778,"빡":2779,"빢":2780,"빤":2781,"빧":2782,"빨":2783,"빩":2784,"빪":2785,"빫":2786,"빰":2787,"빱":2788,"빳":2789,"빴":2790,"빵":2791,"빶":2792,"빸":2793,"빹":2794,"빻":2795,"빼":2796,"빽":2797,"빾":2798,"뺀":2799,"뺃":2800,"뺄":2801,"뺅":2802,"뺌":2803,"뺍":2804,"뺏":2805,"뺐":2806,"뺑":2807,"뺒":2808,"뺓":2809,"뺔":2810,"뺕":2811,"뺘":2812,"뺙":2813,"뺚":2814,"뺛":2815,"뺜":2816,"뺠":2817,"뺡":2818,"뺣":2819,"뺧":2820,"뺨":2821,"뺩":2822,"뺫":2823,"뺬":2824,"뺭":2825,"뺳":2826,"뺴":2827,"뺵":2828,"뺶":2829,"뺸":2830,"뺹":2831,"뺼":2832,"뻄":2833,"뻇":2834,"뻈":2835,"뻉":2836,"뻐":2837,"뻑":2838,"뻒":2839,"뻔":2840,"뻗":2841,"뻘":2842,"뻙":2843,"뻠":2844,"뻡":2845,"뻣":2846,"뻤":2847,"뻥":2848,"뻦":2849,"뻨":2850,"뻩":2851,"뻫":2852,"뻬":2853,"뻭":2854,"뻰":2855,"뻳":2856,"뻴":2857,"뻼":2858,"뻽":2859,"뻿":2860,"뼁":2861,"뼇":2862,"뼈":2863,"뼉":2864,"뼌":2865,"뼏":2866,"뼐":2867,"뼘":2868,"뼙":2869,"뼛":2870,"뼜":2871,"뼝":2872,"뼟":2873,"뼡":2874,"뼤":2875,"뼥":2876,"뼦":2877,"뼬":2878,"뼷":2879,"뼸":2880,"뼹":2881,"뽀":2882,"뽁":2883,"뽂":2884,"뽄":2885,"뽇":2886,"뽈":2887,"뽐":2888,"뽑":2889,"뽓":2890,"뽕":2891,"뽘":2892,"뽙":2893,"뽛":2894,"뽜":2895,"뽝":2896,"뽞":2897,"뽟":2898,"뽠":2899,"뽣":2900,"뽤":2901,"뽥":2902,"뽧":2903,"뽬":2904,"뽭":2905,"뽱":2906,"뽴":2907,"뽷":2908,"뽸":2909,"뽿":2910,"뾂":2911,"뾃":2912,"뾄":2913,"뾅":2914,"뾆":2915,"뾇":2916,"뾔":2917,"뾘":2918,"뾤":2919,"뾥":2920,"뾬":2921,"뾰":2922,"뾱":2923,"뾲":2924,"뾴":2925,"뾸":2926,"뾼":2927,"뿀":2928,"뿁":2929,"뿅":2930,"뿉":2931,"뿌":2932,"뿍":2933,"뿎":2934,"뿐":2935,"뿓":2936,"뿔":2937,"뿕":2938,"뿗":2939,"뿛":2940,"뿜":2941,"뿝":2942,"뿟":2943,"뿠":2944,"뿡":2945,"뿥":2946,"뿦":2947,"뿧":2948,"뿨":2949,"뿮":2950,"뿯":2951,"뿰":2952,"뿷":2953,"쀄":2954,"쀍":2955,"쀎":2956,"쀏":2957,"쀐":2958,"쀑":2959,"쀒":2960,"쀓":2961,"쀜":2962,"쀠":2963,"쀡":2964,"쀨":2965,"쀫":2966,"쀬":2967,"쀲":2968,"쀳":2969,"쀵":2970,"쀼":2971,"쀽":2972,"쀾":2973,"쁀":2974,"쁃":2975,"쁄":2976,"쁅":2977,"쁋":2978,"쁌":2979,"쁍":2980,"쁎":2981,"쁏":2982,"쁐":2983,"쁑":2984,"쁘":2985,"쁙":2986,"쁚":2987,"쁜":2988,"쁟":2989,"쁠":2990,"쁢":2991,"쁣":2992,"쁥":2993,"쁨":2994,"쁩":2995,"쁫":2996,"쁭":2997,"쁴":2998,"쁵":2999,"쁶":3000,"쁼":3001,"삂":3002,"삐":3003,"삑":3004,"삒":3005,"삔":3006,"삗":3007,"삘":3008,"삚":3009,"삜":3010,"삝":3011,"삠":3012,"삡":3013,"삣":3014,"삤":3015,"삥":3016,"삦":3017,"삧":3018,"삨":3019,"삫":3020,"사":3021,"삭":3022,"삮":3023,"삯":3024,"산":3025,"삱":3026,"삲":3027,"삳":3028,"살":3029,"삵":3030,"삶":3031,"삷":3032,"삸":3033,"삺":3034,"삻":3035,"삼":3036,"삽":3037,"삾":3038,"삿":3039,"샀":3040,"상":3041,"샂":3042,"샃":3043,"샄":3044,"샅":3045,"샆":3046,"샇":3047,"새":3048,"색":3049,"샊":3050,"샋":3051,"샌":3052,"샏":3053,"샐":3054,"샑":3055,"샒":3056,"샓":3057,"샘":3058,"샙":3059,"샛":3060,"샜":3061,"생":3062,"샞":3063,"샟":3064,"샠":3065,"샢":3066,"샣":3067,"샤":3068,"샥":3069,"샨":3070,"샫":3071,"샬":3072,"샭":3073,"샴":3074,"샵":3075,"샶":3076,"샷":3077,"샸":3078,"샹":3079,"샻":3080,"샼":3081,"샾":3082,"샿":3083,"섀":3084,"섁":3085,"섂":3086,"섄":3087,"섈":3088,"섊":3089,"섐":3090,"섑":3091,"섓":3092,"섕":3093,"서":3094,"석":3095,"섞":3096,"섟":3097,"선":3098,"섡":3099,"섣":3100,"설":3101,"섥":3102,"섦":3103,"섧":3104,"섨":3105,"섪":3106,"섬":3107,"섭":3108,"섮":3109,"섯":3110,"섰":3111,"성":3112,"섴":3113,"섵":3114,"섶":3115,"섷":3116,"세":3117,"섹":3118,"섺":3119,"섻":3120,"센":3121,"섿":3122,"셀":3123,"셂":3124,"셆":3125,"셈":3126,"셉":3127,"셊":3128,"셋":3129,"셌":3130,"셍":3131,"셎":3132,"셐":3133,"셑":3134,"셒":3135,"셓":3136,"셔":3137,"셕":3138,"셖":3139,"셗":3140,"션":3141,"셛":3142,"셜":3143,"셟":3144,"셠":3145,"셡":3146,"셣":3147,"셤":3148,"셥":3149,"셦":3150,"셧":3151,"셨":3152,"셩":3153,"셭":3154,"셰":3155,"셱":3156,"셳":3157,"셴":3158,"셷":3159,"셸":3160,"솀":3161,"솁":3162,"솃":3163,"솄":3164,"솅":3165,"솈":3166,"솊":3167,"소":3168,"속":3169,"솎":3170,"솏":3171,"손":3172,"솑":3173,"솓":3174,"솔":3175,"솕":3176,"솖":3177,"솗":3178,"솘":3179,"솜":3180,"솝":3181,"솟":3182,"솠":3183,"송":3184,"솢":3185,"솣":3186,"솤":3187,"솥":3188,"솦":3189,"솧":3190,"솨":3191,"솩":3192,"솫":3193,"솬":3194,"솰":3195,"솸":3196,"솹":3197,"솻":3198,"솼":3199,"솽":3200,"쇀":3201,"쇄":3202,"쇅":3203,"쇈":3204,"쇋":3205,"쇌":3206,"쇔":3207,"쇕":3208,"쇗":3209,"쇘":3210,"쇙":3211,"쇠":3212,"쇡":3213,"쇤":3214,"쇧":3215,"쇨":3216,"쇰":3217,"쇱":3218,"쇳":3219,"쇴":3220,"쇵":3221,"쇼":3222,"쇽":3223,"숀":3224,"숃":3225,"숄":3226,"숌":3227,"숍":3228,"숎":3229,"숏":3230,"숑":3231,"숓":3232,"숔":3233,"숕":3234,"숖":3235,"수":3236,"숙":3237,"순":3238,"숝":3239,"숞":3240,"숟":3241,"술":3242,"숡":3243,"숤":3244,"숧":3245,"숨":3246,"숩":3247,"숫":3248,"숭":3249,"숮":3250,"숯":3251,"숰":3252,"숱":3253,"숲":3254,"숳":3255,"숴":3256,"숵":3257,"숸":3258,"숻":3259,"숼":3260,"쉄":3261,"쉅":3262,"쉇":3263,"쉈":3264,"쉉":3265,"쉏":3266,"쉐":3267,"쉑":3268,"쉒":3269,"쉔":3270,"쉖":3271,"쉗":3272,"쉘":3273,"쉙":3274,"쉚":3275,"쉛":3276,"쉜":3277,"쉟":3278,"쉠":3279,"쉡":3280,"쉣":3281,"쉤":3282,"쉥":3283,"쉨":3284,"쉩":3285,"쉪":3286,"쉬":3287,"쉭":3288,"쉰":3289,"쉳":3290,"쉴":3291,"쉼":3292,"쉽":3293,"쉿":3294,"슀":3295,"슁":3296,"슂":3297,"슅":3298,"슆":3299,"슈":3300,"슉":3301,"슌":3302,"슏":3303,"슐":3304,"슘":3305,"슙":3306,"슛":3307,"슝":3308,"슞":3309,"슟":3310,"슠":3311,"슡":3312,"슢":3313,"스":3314,"슥":3315,"슦":3316,"슧":3317,"슨":3318,"슫":3319,"슬":3320,"슭":3321,"슮":3322,"슯":3323,"슰":3324,"슲":3325,"슳":3326,"슴":3327,"습":3328,"슶":3329,"슷":3330,"슸":3331,"승":3332,"슺":3333,"슻":3334,"슼":3335,"슽":3336,"슾":3337,"슿":3338,"싀":3339,"싁":3340,"싄":3341,"싈":3342,"싊":3343,"싐":3344,"싑":3345,"싓":3346,"싕":3347,"시":3348,"식":3349,"싞":3350,"싟":3351,"신":3352,"싡":3353,"싢":3354,"싣":3355,"실":3356,"싥":3357,"싦":3358,"싧":3359,"싨":3360,"싩":3361,"싪":3362,"싫":3363,"심":3364,"십":3365,"싮":3366,"싯":3367,"싰":3368,"싱":3369,"싲":3370,"싳":3371,"싴":3372,"싵":3373,"싶":3374,"싷":3375,"싸":3376,"싹":3377,"싻":3378,"싼":3379,"싾":3380,"싿":3381,"쌀":3382,"쌁":3383,"쌂":3384,"쌈":3385,"쌉":3386,"쌋":3387,"쌌":3388,"쌍":3389,"쌎":3390,"쌐":3391,"쌑":3392,"쌒":3393,"쌓":3394,"쌔":3395,"쌕":3396,"쌖":3397,"쌘":3398,"쌛":3399,"쌜":3400,"쌞":3401,"쌟":3402,"쌤":3403,"쌥":3404,"쌧":3405,"쌨":3406,"쌩":3407,"쌯":3408,"쌰":3409,"쌱":3410,"쌴":3411,"쌷":3412,"쌸":3413,"쌻":3414,"썀":3415,"썁":3416,"썃":3417,"썄":3418,"썅":3419,"썊":3420,"썋":3421,"썌":3422,"썍":3423,"썎":3424,"썐":3425,"썔":3426,"썖":3427,"썜":3428,"썝":3429,"썡":3430,"써":3431,"썩":3432,"썪":3433,"썬":3434,"썯":3435,"썰":3436,"썲":3437,"썸":3438,"썹":3439,"썻":3440,"썼":3441,"썽":3442,"쎀":3443,"쎂":3444,"쎃":3445,"쎄":3446,"쎅":3447,"쎆":3448,"쎈":3449,"쎋":3450,"쎌":3451,"쎔":3452,"쎕":3453,"쎗":3454,"쎘":3455,"쎙":3456,"쎜":3457,"쎝":3458,"쎞":3459,"쎠":3460,"쎡":3461,"쎤":3462,"쎧":3463,"쎨":3464,"쎰":3465,"쎱":3466,"쎳":3467,"쎴":3468,"쎵":3469,"쎼":3470,"쎽":3471,"쎾":3472,"쎿":3473,"쏀":3474,"쏄":3475,"쏌":3476,"쏍":3477,"쏏":3478,"쏐":3479,"쏑":3480,"쏔":3481,"쏘":3482,"쏙":3483,"쏚":3484,"쏜":3485,"쏟":3486,"쏠":3487,"쏢":3488,"쏨":3489,"쏩":3490,"쏫":3491,"쏭":3492,"쏱":3493,"쏲":3494,"쏳":3495,"쏴":3496,"쏵":3497,"쏸":3498,"쏻":3499,"쏼":3500,"쏽":3501,"쐄":3502,"쐅":3503,"쐇":3504,"쐈":3505,"쐉":3506,"쐏":3507,"쐐":3508,"쐑":3509,"쐔":3510,"쐗":3511,"쐘":3512,"쐙":3513,"쐠":3514,"쐣":3515,"쐤":3516,"쐥":3517,"쐩":3518,"쐬":3519,"쐭":3520,"쐰":3521,"쐳":3522,"쐴":3523,"쐼":3524,"쐽":3525,"쐿":3526,"쑀":3527,"쑁":3528,"쑈":3529,"쑉":3530,"쑊":3531,"쑌":3532,"쑏":3533,"쑐":3534,"쑘":3535,"쑙":3536,"쑛":3537,"쑜":3538,"쑝":3539,"쑞":3540,"쑟":3541,"쑤":3542,"쑥":3543,"쑦":3544,"쑨":3545,"쑫":3546,"쑬":3547,"쑴":3548,"쑵":3549,"쑷":3550,"쑹":3551,"쑻":3552,"쑼":3553,"쑽":3554,"쑾":3555,"쒀":3556,"쒁":3557,"쒂":3558,"쒄":3559,"쒇":3560,"쒈":3561,"쒐":3562,"쒑":3563,"쒓":3564,"쒔":3565,"쒕":3566,"쒜":3567,"쒝":3568,"쒞":3569,"쒠":3570,"쒣":3571,"쒤":3572,"쒧":3573,"쒨":3574,"쒬":3575,"쒭":3576,"쒯":3577,"쒰":3578,"쒱":3579,"쒴":3580,"쒸":3581,"쒹":3582,"쒼":3583,"쒿":3584,"쓀":3585,"쓈":3586,"쓉":3587,"쓋":3588,"쓍":3589,"쓑":3590,"쓓":3591,"쓔":3592,"쓕":3593,"쓘":3594,"쓛":3595,"쓜":3596,"쓤":3597,"쓥":3598,"쓧":3599,"쓩":3600,"쓰":3601,"쓱":3602,"쓲":3603,"쓴":3604,"쓷":3605,"쓸":3606,"쓹":3607,"쓺":3608,"쓿":3609,"씀":3610,"씁":3611,"씃":3612,"씄":3613,"씅":3614,"씉":3615,"씋":3616,"씌":3617,"씍":3618,"씐":3619,"씔":3620,"씜":3621,"씝":3622,"씟":3623,"씡":3624,"씤":3625,"씥":3626,"씨":3627,"씩":3628,"씪":3629,"씬":3630,"씯":3631,"씰":3632,"씱":3633,"씸":3634,"씹":3635,"씺":3636,"씻":3637,"씼":3638,"씽":3639,"씿":3640,"앀":3641,"앃":3642,"아":3643,"악":3644,"앆":3645,"앇":3646,"안":3647,"앉":3648,"않":3649,"앋":3650,"알":3651,"앍":3652,"앎":3653,"앏":3654,"앐":3655,"앑":3656,"앒":3657,"앓":3658,"암":3659,"압":3660,"앖":3661,"앗":3662,"았":3663,"앙":3664,"앚":3665,"앛":3666,"앜":3667,"앝":3668,"앞":3669,"앟":3670,"애":3671,"액":3672,"앢":3673,"앤":3674,"앦":3675,"앧":3676,"앨":3677,"앩":3678,"앫":3679,"앰":3680,"앱":3681,"앳":3682,"앴":3683,"앵":3684,"앶":3685,"앷":3686,"앸":3687,"앹":3688,"앺":3689,"앻":3690,"야":3691,"약":3692,"앾":3693,"얀":3694,"얂":3695,"얃":3696,"얄":3697,"얅":3698,"얆":3699,"얇":3700,"얉":3701,"얊":3702,"얋":3703,"얌":3704,"얍":3705,"얎":3706,"얏":3707,"얐":3708,"양":3709,"얒":3710,"얔":3711,"얕":3712,"얖":3713,"얗":3714,"얘":3715,"얙":3716,"얜":3717,"얟":3718,"얠":3719,"얨":3720,"얩":3721,"얫":3722,"얬":3723,"얭":3724,"어":3725,"억":3726,"얶":3727,"얷":3728,"언":3729,"얹":3730,"얺":3731,"얻":3732,"얼":3733,"얽":3734,"얾":3735,"얿":3736,"엃":3737,"엄":3738,"업":3739,"없":3740,"엇":3741,"었":3742,"엉":3743,"엊":3744,"엋":3745,"엌":3746,"엍":3747,"엎":3748,"엏":3749,"에":3750,"엑":3751,"엒":3752,"엓":3753,"엔":3754,"엕":3755,"엗":3756,"엘":3757,"엙":3758,"엜":3759,"엝":3760,"엞":3761,"엠":3762,"엡":3763,"엣":3764,"엤":3765,"엥":3766,"엦":3767,"엨":3768,"엩":3769,"엪":3770,"엫":3771,"여":3772,"역":3773,"엮":3774,"엯":3775,"연":3776,"엱":3777,"엳":3778,"열":3779,"엵":3780,"엶":3781,"엷":3782,"엸":3783,"엹":3784,"엺":3785,"엻":3786,"염":3787,"엽":3788,"엾":3789,"엿":3790,"였":3791,"영":3792,"옂":3793,"옃":3794,"옄":3795,"옅":3796,"옆":3797,"옇":3798,"예":3799,"옉":3800,"옌":3801,"옏":3802,"옐":3803,"옑":3804,"옒":3805,"옓":3806,"옘":3807,"옙":3808,"옛":3809,"옜":3810,"옝":3811,"옞":3812,"옟":3813,"옠":3814,"옡":3815,"오":3816,"옥":3817,"옦":3818,"옧":3819,"온":3820,"옪":3821,"옫":3822,"올":3823,"옭":3824,"옮":3825,"옯":3826,"옰":3827,"옲":3828,"옳":3829,"옴":3830,"옵":3831,"옶":3832,"옷":3833,"옸":3834,"옹":3835,"옺":3836,"옻":3837,"옼":3838,"옽":3839,"옾":3840,"옿":3841,"와":3842,"왁":3843,"왂":3844,"완":3845,"왇":3846,"왈":3847,"왉":3848,"왐":3849,"왑":3850,"왒":3851,"왓":3852,"왔":3853,"왕":3854,"왖":3855,"왘":3856,"왙":3857,"왚":3858,"왛":3859,"왜":3860,"왝":3861,"왠":3862,"왣":3863,"왤":3864,"왧":3865,"왬":3866,"왭":3867,"왯":3868,"왰":3869,"왱":3870,"왷":3871,"외":3872,"왹":3873,"왼":3874,"왿":3875,"욀":3876,"욂":3877,"욈":3878,"욉":3879,"욋":3880,"욌":3881,"욍":3882,"욒":3883,"요":3884,"욕":3885,"욘":3886,"욛":3887,"욜":3888,"욝":3889,"욣":3890,"욤":3891,"욥":3892,"욧":3893,"욨":3894,"용":3895,"욬":3896,"욭":3897,"욯":3898,"우":3899,"욱":3900,"욲":3901,"운":3902,"욵":3903,"욷":3904,"울":3905,"욹":3906,"욺":3907,"욻":3908,"욼":3909,"욽":3910,"욾":3911,"욿":3912,"움":3913,"웁":3914,"웂":3915,"웃":3916,"웄":3917,"웅":3918,"웆":3919,"웇":3920,"웈":3921,"웉":3922,"웊":3923,"웋":3924,"워":3925,"웍":3926,"원":3927,"웑":3928,"웒":3929,"웓":3930,"월":3931,"웕":3932,"웗":3933,"웚":3934,"웛":3935,"웜":3936,"웝":3937,"웞":3938,"웟":3939,"웠":3940,"웡":3941,"웤":3942,"웥":3943,"웦":3944,"웧":3945,"웨":3946,"웩":3947,"웫":3948,"웬":3949,"웯":3950,"웰":3951,"웱":3952,"웳":3953,"웴":3954,"웸":3955,"웹":3956,"웻":3957,"웼":3958,"웽":3959,"윀":3960,"윁":3961,"윂":3962,"위":3963,"윅":3964,"윈":3965,"윋":3966,"윌":3967,"윎":3968,"윓":3969,"윔":3970,"윕":3971,"윗":3972,"윘":3973,"윙":3974,"윚":3975,"윛":3976,"윜":3977,"윝":3978,"윞":3979,"윟":3980,"유":3981,"육":3982,"윢":3983,"윤":3984,"윥":3985,"윧":3986,"율":3987,"윪":3988,"윰":3989,"윱":3990,"윲":3991,"윳":3992,"융":3993,"윶":3994,"윷":3995,"윸":3996,"윹":3997,"윺":3998,"윻":3999,"으":4000,"윽":4001,"윾":4002,"윿":4003,"은":4004,"읁":4005,"읂":4006,"읃":4007,"을":4008,"읅":4009,"읆":4010,"읇":4011,"읈":4012,"읉":4013,"읊":4014,"읋":4015,"음":4016,"읍":4017,"읎":4018,"읏":4019,"읐":4020,"응":4021,"읒":4022,"읓":4023,"읔":4024,"읕":4025,"읖":4026,"읗":4027,"의":4028,"읙":4029,"읜":4030,"읟":4031,"읠":4032,"읤":4033,"읦":4034,"읧":4035,"읨":4036,"읩":4037,"읪":4038,"읫":4039,"읭":4040,"읰":4041,"읳":4042,"이":4043,"익":4044,"읶":4045,"읷":4046,"인":4047,"읹":4048,"읺":4049,"읻":4050,"일":4051,"읽":4052,"읾":4053,"읿":4054,"잀":4055,"잂":4056,"잃":4057,"임":4058,"입":4059,"잆":4060,"잇":4061,"있":4062,"잉":4063,"잊":4064,"잋":4065,"잌":4066,"잍":4067,"잎":4068,"잏":4069,"자":4070,"작":4071,"잒":4072,"잓":4073,"잔":4074,"잕":4075,"잖":4076,"잗":4077,"잘":4078,"잙":4079,"잚":4080,"잛":4081,"잞":4082,"잟":4083,"잠":4084,"잡":4085,"잣":4086,"잤":4087,"장":4088,"잦":4089,"잧":4090,"잨":4091,"잩":4092,"잪":4093,"잫":4094,"재":4095,"잭":4096,"잰":4097,"잲":4098,"잳":4099,"잴":4100,"잶":4101,"잼":4102,"잽":4103,"잿":4104,"쟀":4105,"쟁":4106,"쟂":4107,"쟃":4108,"쟄":4109,"쟆":4110,"쟇":4111,"쟈":4112,"쟉":4113,"쟌":4114,"쟎":4115,"쟏":4116,"쟐":4117,"쟗":4118,"쟘":4119,"쟙":4120,"쟛":4121,"쟜":4122,"쟝":4123,"쟞":4124,"쟠":4125,"쟢":4126,"쟣":4127,"쟤":4128,"쟥":4129,"쟨":4130,"쟫":4131,"쟬":4132,"쟴":4133,"쟵":4134,"쟷":4135,"쟸":4136,"쟹":4137,"쟻":4138,"저":4139,"적":4140,"젂":4141,"젃":4142,"전":4143,"젅":4144,"젆":4145,"젇":4146,"절":4147,"젉":4148,"젊":4149,"젋":4150,"젏":4151,"점":4152,"접":4153,"젓":4154,"젔":4155,"정":4156,"젖":4157,"젗":4158,"젙":4159,"젚":4160,"젛":4161,"제":4162,"젝":4163,"젟":4164,"젠":4165,"젣":4166,"젤":4167,"젧":4168,"젬":4169,"젭":4170,"젮":4171,"젯":4172,"젰":4173,"젱":4174,"젲":4175,"젴":4176,"젵":4177,"젶":4178,"져":4179,"젹":4180,"젺":4181,"젼":4182,"젿":4183,"졀":4184,"졁":4185,"졂":4186,"졃":4187,"졇":4188,"졈":4189,"졉":4190,"졋":4191,"졌":4192,"졍":4193,"졎":4194,"졐":4195,"졑":4196,"졓":4197,"졔":4198,"졕":4199,"졘":4200,"졜":4201,"졤":4202,"졥":4203,"졧":4204,"졩":4205,"졬":4206,"조":4207,"족":4208,"존":4209,"졵":4210,"졶":4211,"졷":4212,"졸":4213,"졺":4214,"좀":4215,"좁":4216,"좂":4217,"좃":4218,"좄":4219,"종":4220,"좆":4221,"좇":4222,"좈":4223,"좉":4224,"좊":4225,"좋":4226,"좌":4227,"좍":4228,"좐":4229,"좒":4230,"좓":4231,"좔":4232,"좕":4233,"좜":4234,"좝":4235,"좟":4236,"좠":4237,"좡":4238,"좢":4239,"좥":4240,"좧":4241,"좨":4242,"좩":4243,"좬":4244,"좯":4245,"좰":4246,"좸":4247,"좹":4248,"좻":4249,"좼":4250,"좽":4251,"죄":4252,"죅":4253,"죈":4254,"죋":4255,"죌":4256,"죔":4257,"죕":4258,"죗":4259,"죘":4260,"죙":4261,"죠":4262,"죡":4263,"죤":4264,"죧":4265,"죨":4266,"죰":4267,"죱":4268,"죳":4269,"죵":4270,"죶":4271,"죷":4272,"죸":4273,"죹":4274,"죻":4275,"주":4276,"죽":4277,"준":4278,"줃":4279,"줄":4280,"줅":4281,"줆":4282,"줈":4283,"줊":4284,"줋":4285,"줌":4286,"줍":4287,"줎":4288,"줏":4289,"줐":4290,"중":4291,"줒":4292,"줓":4293,"줕":4294,"줗":4295,"줘":4296,"줙":4297,"줛":4298,"줜":4299,"줟":4300,"줠":4301,"줦":4302,"줨":4303,"줩":4304,"줫":4305,"줬":4306,"줭":4307,"줮":4308,"줳":4309,"줴":4310,"줵":4311,"줸":4312,"줻":4313,"줼":4314,"쥄":4315,"쥅":4316,"쥇":4317,"쥈":4318,"쥉":4319,"쥌":4320,"쥐":4321,"쥑":4322,"쥔":4323,"쥗":4324,"쥘":4325,"쥠":4326,"쥡":4327,"쥣":4328,"쥤":4329,"쥥":4330,"쥩":4331,"쥬":4332,"쥭":4333,"쥰":4334,"쥴":4335,"쥼":4336,"쥽":4337,"쥿":4338,"즁":4339,"즂":4340,"즈":4341,"즉":4342,"즊":4343,"즌":4344,"즏":4345,"즐":4346,"즑":4347,"즒":4348,"즔":4349,"즘":4350,"즙":4351,"즛":4352,"증":4353,"즞":4354,"즠":4355,"즡":4356,"즣":4357,"즤":4358,"즥":4359,"즨":4360,"즬":4361,"즴":4362,"즵":4363,"즷":4364,"즹":4365,"지":4366,"직":4367,"짂":4368,"진":4369,"짆":4370,"짇":4371,"질":4372,"짊":4373,"짋":4374,"짎":4375,"짏":4376,"짐":4377,"집":4378,"짒":4379,"짓":4380,"짔":4381,"징":4382,"짖":4383,"짗":4384,"짘":4385,"짙":4386,"짚":4387,"짛":4388,"짜":4389,"짝":4390,"짞":4391,"짠":4392,"짡":4393,"짢":4394,"짣":4395,"짤":4396,"짥":4397,"짦":4398,"짧":4399,"짨":4400,"짩":4401,"짪":4402,"짫":4403,"짬":4404,"짭":4405,"짮":4406,"짯":4407,"짰":4408,"짱":4409,"짲":4410,"짴":4411,"짷":4412,"째":4413,"짹":4414,"짼":4415,"짿":4416,"쨀":4417,"쨈":4418,"쨉":4419,"쨋":4420,"쨌":4421,"쨍":4422,"쨎":4423,"쨏":4424,"쨔":4425,"쨕":4426,"쨖":4427,"쨘":4428,"쨚":4429,"쨜":4430,"쨟":4431,"쨤":4432,"쨥":4433,"쨧":4434,"쨩":4435,"쨭":4436,"쨰":4437,"쨱":4438,"쨴":4439,"쨻":4440,"쩁":4441,"쩃":4442,"쩄":4443,"쩅":4444,"쩌":4445,"쩍":4446,"쩎":4447,"쩐":4448,"쩒":4449,"쩓":4450,"쩔":4451,"쩖":4452,"쩗":4453,"쩘":4454,"쩛":4455,"쩜":4456,"쩝":4457,"쩟":4458,"쩠":4459,"쩡":4460,"쩢":4461,"쩧":4462,"쩨":4463,"쩩":4464,"쩬":4465,"쩯":4466,"쩰":4467,"쩱":4468,"쩸":4469,"쩹":4470,"쩻":4471,"쩼":4472,"쩽":4473,"쪁":4474,"쪄":4475,"쪅":4476,"쪈":4477,"쪋":4478,"쪌":4479,"쪔":4480,"쪕":4481,"쪗":4482,"쪘":4483,"쪙":4484,"쪠":4485,"쪡":4486,"쪤":4487,"쪨":4488,"쪰":4489,"쪱":4490,"쪳":4491,"쪵":4492,"쪼":4493,"쪽":4494,"쪾":4495,"쫀":4496,"쫃":4497,"쫄":4498,"쫅":4499,"쫆":4500,"쫋":4501,"쫌":4502,"쫍":4503,"쫏":4504,"쫑":4505,"쫒":4506,"쫓":4507,"쫔":4508,"쫖":4509,"쫗":4510,"쫘":4511,"쫙":4512,"쫜":4513,"쫟":4514,"쫠":4515,"쫣":4516,"쫨":4517,"쫩":4518,"쫫":4519,"쫬":4520,"쫭":4521,"쫴":4522,"쫵":4523,"쫸":4524,"쫻":4525,"쫼":4526,"쬈":4527,"쬐":4528,"쬑":4529,"쬔":4530,"쬗":4531,"쬘":4532,"쬠":4533,"쬡":4534,"쬣":4535,"쬤":4536,"쬥":4537,"쬧":4538,"쬬":4539,"쬭":4540,"쬰":4541,"쬲":4542,"쬴":4543,"쬷":4544,"쬼":4545,"쬽":4546,"쬿":4547,"쭀":4548,"쭁":4549,"쭂":4550,"쭃":4551,"쭈":4552,"쭉":4553,"쭊":4554,"쭌":4555,"쭏":4556,"쭐":4557,"쭒":4558,"쭓":4559,"쭘":4560,"쭙":4561,"쭛":4562,"쭝":4563,"쭞":4564,"쭟":4565,"쭤":4566,"쭥":4567,"쭨":4568,"쭫":4569,"쭬":4570,"쭴":4571,"쭵":4572,"쭷":4573,"쭸":4574,"쭹":4575,"쮀":4576,"쮁":4577,"쮄":4578,"쮇":4579,"쮈":4580,"쮋":4581,"쮐":4582,"쮑":4583,"쮓":4584,"쮕":4585,"쮜":4586,"쮝":4587,"쮠":4588,"쮣":4589,"쮤":4590,"쮬":4591,"쮭":4592,"쮯":4593,"쮱":4594,"쮸":4595,"쮹":4596,"쮼":4597,"쯀":4598,"쯇":4599,"쯈":4600,"쯉":4601,"쯋":4602,"쯍":4603,"쯔":4604,"쯕":4605,"쯘":4606,"쯛":4607,"쯜":4608,"쯤":4609,"쯥":4610,"쯧":4611,"쯩":4612,"쯪":4613,"쯬":4614,"쯰":4615,"쯱":4616,"쯴":4617,"쯸":4618,"찀":4619,"찁":4620,"찃":4621,"찅":4622,"찆":4623,"찌":4624,"찍":4625,"찎":4626,"찐":4627,"찓":4628,"찔":4629,"찗":4630,"찜":4631,"찝":4632,"찟":4633,"찡":4634,"찢":4635,"찣":4636,"찥":4637,"찦":4638,"찧":4639,"차":4640,"착":4641,"찬":4642,"찭":4643,"찮":4644,"찯":4645,"찰":4646,"찱":4647,"찳":4648,"찴":4649,"찷":4650,"참":4651,"찹":4652,"찻":4653,"찼":4654,"창":4655,"찾":4656,"찿":4657,"챁":4658,"챂":4659,"챃":4660,"채":4661,"책":4662,"챈":4663,"챋":4664,"챌":4665,"챔":4666,"챕":4667,"챗":4668,"챘":4669,"챙":4670,"챚":4671,"챛":4672,"챝":4673,"챞":4674,"챠":4675,"챡":4676,"챤":4677,"챦":4678,"챨":4679,"챰":4680,"챱":4681,"챳":4682,"챵":4683,"챶":4684,"챷":4685,"챸":4686,"챺":4687,"챼":4688,"챽":4689,"첄":4690,"첌":4691,"첐":4692,"첑":4693,"처":4694,"척":4695,"천":4696,"첞":4697,"첟":4698,"철":4699,"첡":4700,"첧":4701,"첨":4702,"첩":4703,"첫":4704,"첬":4705,"청":4706,"첮":4707,"첯":4708,"첱":4709,"첲":4710,"첳":4711,"체":4712,"첵":4713,"첸":4714,"첻":4715,"첼":4716,"첿":4717,"쳃":4718,"쳄":4719,"쳅":4720,"쳇":4721,"쳈":4722,"쳉":4723,"쳌":4724,"쳐":4725,"쳑":4726,"쳒":4727,"쳔":4728,"쳗":4729,"쳘":4730,"쳠":4731,"쳡":4732,"쳣":4733,"쳤":4734,"쳥":4735,"쳬":4736,"쳭":4737,"쳰":4738,"쳴":4739,"쳼":4740,"쳽":4741,"쳿":4742,"촁":4743,"초":4744,"촉":4745,"촌":4746,"촏":4747,"촐":4748,"촒":4749,"촘":4750,"촙":4751,"촛":4752,"총":4753,"촞":4754,"촟":4755,"촠":4756,"촡":4757,"촣":4758,"촤":4759,"촥":4760,"촨":4761,"촫":4762,"촬":4763,"촰":4764,"촴":4765,"촵":4766,"촷":4767,"촹":4768,"촻":4769,"촾":4770,"쵀":4771,"쵁":4772,"쵄":4773,"쵇":4774,"쵓":4775,"쵔":4776,"최":4777,"쵝":4778,"쵠":4779,"쵣":4780,"쵤":4781,"쵬":4782,"쵭":4783,"쵮":4784,"쵯":4785,"쵰":4786,"쵱":4787,"쵷":4788,"쵸":4789,"쵹":4790,"쵼":4791,"춀":4792,"춈":4793,"춉":4794,"춋":4795,"춍":4796,"춏":4797,"추":4798,"축":4799,"춘":4800,"춛":4801,"출":4802,"춝":4803,"춟":4804,"춠":4805,"춡":4806,"춣":4807,"춤":4808,"춥":4809,"춧":4810,"충":4811,"춫":4812,"춬":4813,"춭":4814,"춯":4815,"춰":4816,"춱":4817,"춴":4818,"춷":4819,"춸":4820,"췀":4821,"췁":4822,"췃":4823,"췄":4824,"췅":4825,"췈":4826,"췌":4827,"췍":4828,"췎":4829,"췐":4830,"췔":4831,"췛":4832,"췜":4833,"췝":4834,"췟":4835,"췠":4836,"췡":4837,"췤":4838,"취":4839,"췩":4840,"췬":4841,"췯":4842,"췰":4843,"췸":4844,"췹":4845,"췻":4846,"췼":4847,"췽":4848,"츀":4849,"츄":4850,"츅":4851,"츈":4852,"츌":4853,"츔":4854,"츕":4855,"츗":4856,"츙":4857,"츞":4858,"츠":4859,"측":4860,"츤":4861,"츧":4862,"츨":4863,"츩":4864,"츬":4865,"츰":4866,"츱":4867,"츳":4868,"층":4869,"츷":4870,"츸":4871,"츹":4872,"츺":4873,"츻":4874,"츼":4875,"츽":4876,"칀":4877,"칄":4878,"칌":4879,"칍":4880,"칏":4881,"칑":4882,"치":4883,"칙":4884,"칚":4885,"친":4886,"칞":4887,"칟":4888,"칠":4889,"칡":4890,"칢":4891,"칣":4892,"침":4893,"칩":4894,"칫":4895,"칬":4896,"칭":4897,"칮":4898,"칯":4899,"칰":4900,"칱":4901,"칲":4902,"칳":4903,"카":4904,"칵":4905,"칸":4906,"칻":4907,"칼":4908,"칽":4909,"캃":4910,"캄":4911,"캅":4912,"캆":4913,"캇":4914,"캈":4915,"캉":4916,"캊":4917,"캋":4918,"캌":4919,"캍":4920,"캎":4921,"캐":4922,"캑":4923,"캔":4924,"캗":4925,"캘":4926,"캜":4927,"캟":4928,"캠":4929,"캡":4930,"캢":4931,"캣":4932,"캤":4933,"캥":4934,"캧":4935,"캩":4936,"캪":4937,"캬":4938,"캭":4939,"캰":4940,"캴":4941,"캵":4942,"캼":4943,"캽":4944,"캿":4945,"컀":4946,"컁":4947,"컄":4948,"컅":4949,"컈":4950,"컌":4951,"컘":4952,"컛":4953,"커":4954,"컥":4955,"컨":4956,"컫":4957,"컬":4958,"컭":4959,"컴":4960,"컵":4961,"컶":4962,"컷":4963,"컸":4964,"컹":4965,"컺":4966,"컻":4967,"컼":4968,"컽":4969,"컾":4970,"컿":4971,"케":4972,"켁":4973,"켄":4974,"켇":4975,"켈":4976,"켐":4977,"켑":4978,"켓":4979,"켔":4980,"켕":4981,"켘":4982,"켙":4983,"켚":4984,"켜":4985,"켝":4986,"켞":4987,"켠":4988,"켣":4989,"켤":4990,"켬":4991,"켭":4992,"켮":4993,"켯":4994,"켰":4995,"켱":4996,"켸":4997,"켹":4998,"켼":4999,"콀":5000,"콈":5001,"콉":5002,"콋":5003,"콌":5004,"콍":5005,"코":5006,"콕":5007,"콘":5008,"콙":5009,"콛":5010,"콜":5011,"콣":5012,"콤":5013,"콥":5014,"콦":5015,"콧":5016,"콩":5017,"콪":5018,"콫":5019,"콬":5020,"콭":5021,"콮":5022,"콯":5023,"콰":5024,"콱":5025,"콴":5026,"콸":5027,"콻":5028,"쾀":5029,"쾁":5030,"쾃":5031,"쾅":5032,"쾈":5033,"쾌":5034,"쾍":5035,"쾐":5036,"쾓":5037,"쾔":5038,"쾜":5039,"쾝":5040,"쾟":5041,"쾡":5042,"쾨":5043,"쾩":5044,"쾬":5045,"쾭":5046,"쾰":5047,"쾸":5048,"쾹":5049,"쾻":5050,"쾽":5051,"쿄":5052,"쿅":5053,"쿈":5054,"쿌":5055,"쿔":5056,"쿕":5057,"쿗":5058,"쿙":5059,"쿜":5060,"쿠":5061,"쿡":5062,"쿤":5063,"쿧":5064,"쿨":5065,"쿪":5066,"쿫":5067,"쿭":5068,"쿰":5069,"쿱":5070,"쿳":5071,"쿵":5072,"쿶":5073,"쿸":5074,"쿹":5075,"쿺":5076,"쿼":5077,"쿽":5078,"퀀":5079,"퀃":5080,"퀄":5081,"퀌":5082,"퀍":5083,"퀏":5084,"퀐":5085,"퀑":5086,"퀘":5087,"퀙":5088,"퀜":5089,"퀠":5090,"퀡":5091,"퀧":5092,"퀨":5093,"퀩":5094,"퀫":5095,"퀬":5096,"퀭":5097,"퀴":5098,"퀵":5099,"퀶":5100,"퀸":5101,"퀻":5102,"퀼":5103,"큄":5104,"큅":5105,"큇":5106,"큉":5107,"큌":5108,"큎":5109,"큐":5110,"큑":5111,"큔":5112,"큗":5113,"큘":5114,"큠":5115,"큡":5116,"큣":5117,"큥":5118,"큨":5119,"큩":5120,"큪":5121,"큫":5122,"크":5123,"큭":5124,"큮":5125,"큰":5126,"큲":5127,"큳":5128,"클":5129,"큶":5130,"큹":5131,"큺":5132,"큻":5133,"큼":5134,"큽":5135,"큾":5136,"큿":5137,"킁":5138,"킄":5139,"킅":5140,"킆":5141,"킇":5142,"킈":5143,"킉":5144,"킌":5145,"킐":5146,"킘":5147,"킙":5148,"킛":5149,"킝":5150,"킠":5151,"키":5152,"킥":5153,"킦":5154,"킨":5155,"킫":5156,"킬":5157,"킳":5158,"킴":5159,"킵":5160,"킷":5161,"킸":5162,"킹":5163,"킻":5164,"킼":5165,"킽":5166,"킾":5167,"타":5168,"탁":5169,"탂":5170,"탄":5171,"탇":5172,"탈":5173,"탉":5174,"탊":5175,"탍":5176,"탏":5177,"탐":5178,"탑":5179,"탒":5180,"탓":5181,"탔":5182,"탕":5183,"탖":5184,"탗":5185,"탘":5186,"탙":5187,"탚":5188,"태":5189,"택":5190,"탠":5191,"탢":5192,"탣":5193,"탤":5194,"탥":5195,"탬":5196,"탭":5197,"탯":5198,"탰":5199,"탱":5200,"탵":5201,"탶":5202,"탸":5203,"탹":5204,"탼":5205,"탿":5206,"턀":5207,"턈":5208,"턉":5209,"턋":5210,"턍":5211,"턔":5212,"턕":5213,"턘":5214,"턚":5215,"턩":5216,"터":5217,"턱":5218,"턴":5219,"턷":5220,"털":5221,"턹":5222,"턺":5223,"턻":5224,"텀":5225,"텁":5226,"텂":5227,"텃":5228,"텄":5229,"텅":5230,"텆":5231,"텇":5232,"텉":5233,"텊":5234,"텋":5235,"테":5236,"텍":5237,"텐":5238,"텓":5239,"텔":5240,"텗":5241,"텛":5242,"템":5243,"텝":5244,"텟":5245,"텠":5246,"텡":5247,"텣":5248,"텤":5249,"텥":5250,"텦":5251,"텨":5252,"텩":5253,"텬":5254,"텯":5255,"텰":5256,"텸":5257,"텹":5258,"텻":5259,"텼":5260,"텽":5261,"톄":5262,"톅":5263,"톈":5264,"톋":5265,"톌":5266,"톔":5267,"톕":5268,"톗":5269,"톙":5270,"토":5271,"톡":5272,"톢":5273,"톤":5274,"톧":5275,"톨":5276,"톩":5277,"톮":5278,"톰":5279,"톱":5280,"톲":5281,"톳":5282,"통":5283,"톶":5284,"톷":5285,"톸":5286,"톹":5287,"톺":5288,"톻":5289,"톼":5290,"톽":5291,"퇀":5292,"퇄":5293,"퇌":5294,"퇍":5295,"퇏":5296,"퇑":5297,"퇗":5298,"퇘":5299,"퇙":5300,"퇣":5301,"퇬":5302,"퇭":5303,"퇴":5304,"퇵":5305,"퇸":5306,"퇻":5307,"퇼":5308,"툄":5309,"툅":5310,"툇":5311,"툈":5312,"툉":5313,"툐":5314,"툑":5315,"툔":5316,"툘":5317,"툠":5318,"툡":5319,"툣":5320,"툥":5321,"투":5322,"툭":5323,"툰":5324,"툱":5325,"툳":5326,"툴":5327,"툵":5328,"툶":5329,"툻":5330,"툼":5331,"툽":5332,"툿":5333,"퉁":5334,"퉄":5335,"퉅":5336,"퉆":5337,"퉈":5338,"퉉":5339,"퉌":5340,"퉏":5341,"퉐":5342,"퉔":5343,"퉘":5344,"퉙":5345,"퉛":5346,"퉜":5347,"퉝":5348,"퉠":5349,"퉤":5350,"퉥":5351,"퉨":5352,"퉫":5353,"퉬":5354,"퉭":5355,"퉱":5356,"퉴":5357,"퉵":5358,"퉷":5359,"퉸":5360,"퉹":5361,"튀":5362,"튁":5363,"튄":5364,"튇":5365,"튈":5366,"튎":5367,"튐":5368,"튑":5369,"튓":5370,"튔":5371,"튕":5372,"튘":5373,"튙":5374,"튜":5375,"튝":5376,"튠":5377,"튤":5378,"튬":5379,"튭":5380,"튮":5381,"튯":5382,"튱":5383,"트":5384,"특":5385,"튺":5386,"튻":5387,"튼":5388,"튽":5389,"튿":5390,"틀":5391,"틁":5392,"틂":5393,"틄":5394,"틆":5395,"틇":5396,"틈":5397,"틉":5398,"틊":5399,"틋":5400,"틍":5401,"틐":5402,"틑":5403,"틒":5404,"틓":5405,"틔":5406,"틕":5407,"틘":5408,"틜":5409,"틠":5410,"틤":5411,"틥":5412,"틧":5413,"틩":5414,"티":5415,"틱":5416,"틴":5417,"틷":5418,"틸":5419,"팀":5420,"팁":5421,"팂":5422,"팃":5423,"팄":5424,"팅":5425,"팈":5426,"팉":5427,"팊":5428,"파":5429,"팍":5430,"팎":5431,"팏":5432,"판":5433,"팑":5434,"팒":5435,"팓":5436,"팔":5437,"팖":5438,"팛":5439,"팜":5440,"팝":5441,"팟":5442,"팠":5443,"팡":5444,"팢":5445,"팣":5446,"팤":5447,"팥":5448,"팦":5449,"팧":5450,"패":5451,"팩":5452,"팬":5453,"팯":5454,"팰":5455,"팸":5456,"팹":5457,"팻":5458,"팼":5459,"팽":5460,"퍀":5461,"퍁":5462,"퍄":5463,"퍅":5464,"퍈":5465,"퍌":5466,"퍔":5467,"퍕":5468,"퍗":5469,"퍙":5470,"퍝":5471,"퍠":5472,"퍤":5473,"퍼":5474,"퍽":5475,"펀":5476,"펃":5477,"펄":5478,"펌":5479,"펍":5480,"펎":5481,"펏":5482,"펐":5483,"펑":5484,"펔":5485,"펕":5486,"펖":5487,"페":5488,"펙":5489,"펜":5490,"펟":5491,"펠":5492,"펨":5493,"펩":5494,"펫":5495,"펬":5496,"펭":5497,"펰":5498,"펲":5499,"펴":5500,"펵":5501,"편":5502,"펹":5503,"펻":5504,"펼":5505,"폄":5506,"폅":5507,"폇":5508,"폈":5509,"평":5510,"폏":5511,"폐":5512,"폑":5513,"폔":5514,"폕":5515,"폗":5516,"폘":5517,"폠":5518,"폡":5519,"폣":5520,"폥":5521,"포":5522,"폭":5523,"폮":5524,"폯":5525,"폰":5526,"폳":5527,"폴":5528,"폵":5529,"폶":5530,"폼":5531,"폽":5532,"폿":5533,"퐁":5534,"퐃":5535,"퐄":5536,"퐅":5537,"퐆":5538,"퐈":5539,"퐉":5540,"퐌":5541,"퐐":5542,"퐑":5543,"퐘":5544,"퐙":5545,"퐛":5546,"퐝":5547,"퐞":5548,"퐟":5549,"퐠":5550,"퐤":5551,"퐳":5552,"푀":5553,"푁":5554,"푄":5555,"푈":5556,"푐":5557,"푑":5558,"푓":5559,"푕":5560,"표":5561,"푝":5562,"푠":5563,"푣":5564,"푤":5565,"푬":5566,"푭":5567,"푯":5568,"푱":5569,"푴":5570,"푷":5571,"푸":5572,"푹":5573,"푼":5574,"푿":5575,"풀":5576,"풂":5577,"풅":5578,"풇":5579,"품":5580,"풉":5581,"풋":5582,"풍":5583,"풐":5584,"풑":5585,"풒":5586,"풓":5587,"풔":5588,"풕":5589,"풘":5590,"풛":5591,"풜":5592,"풤":5593,"풥":5594,"풧":5595,"풨":5596,"풩":5597,"풬":5598,"풮":5599,"풰":5600,"풱":5601,"풴":5602,"풸":5603,"풹":5604,"풾":5605,"풿":5606,"퓀":5607,"퓁":5608,"퓃":5609,"퓅":5610,"퓌":5611,"퓍":5612,"퓐":5613,"퓔":5614,"퓙":5615,"퓜":5616,"퓝":5617,"퓟":5618,"퓡":5619,"퓨":5620,"퓩":5621,"퓬":5622,"퓯":5623,"퓰":5624,"퓸":5625,"퓹":5626,"퓻":5627,"퓽":5628,"프":5629,"픅":5630,"픈":5631,"픋":5632,"플":5633,"픎":5634,"픐":5635,"픔":5636,"픕":5637,"픖":5638,"픗":5639,"픙":5640,"픝":5641,"픞":5642,"픟":5643,"픠":5644,"픡":5645,"픤":5646,"픨":5647,"픰":5648,"픱":5649,"픳":5650,"픵":5651,"피":5652,"픽":5653,"핀":5654,"핁":5655,"핃":5656,"필":5657,"핌":5658,"핍":5659,"핎":5660,"핏":5661,"핑":5662,"핓":5663,"핔":5664,"핕":5665,"핖":5666,"핗":5667,"하":5668,"학":5669,"핚":5670,"핛":5671,"한":5672,"핝":5673,"핞":5674,"핟":5675,"할":5676,"핡":5677,"핢":5678,"핣":5679,"핤":5680,"핥":5681,"핦":5682,"핧":5683,"함":5684,"합":5685,"핪":5686,"핫":5687,"핬":5688,"항":5689,"핮":5690,"핰":5691,"핱":5692,"핲":5693,"핳":5694,"해":5695,"핵":5696,"핶":5697,"핸":5698,"핺":5699,"핻":5700,"핼":5701,"핽":5702,"핿":5703,"햄":5704,"햅":5705,"햇":5706,"했":5707,"행":5708,"햊":5709,"햋":5710,"햌":5711,"햍":5712,"햎":5713,"햏":5714,"햐":5715,"햑":5716,"햔":5717,"햗":5718,"햘":5719,"햙":5720,"햚":5721,"햛":5722,"햝":5723,"햟":5724,"햠":5725,"햡":5726,"햣":5727,"햤":5728,"향":5729,"햩":5730,"햫":5731,"햬":5732,"햭":5733,"햰":5734,"햿":5735,"헀":5736,"헁":5737,"허":5738,"헉":5739,"헌":5740,"헏":5741,"헐":5742,"헑":5743,"헒":5744,"헔":5745,"헕":5746,"헗":5747,"험":5748,"헙":5749,"헚":5750,"헛":5751,"헜":5752,"헝":5753,"헠":5754,"헡":5755,"헢":5756,"헣":5757,"헤":5758,"헥":5759,"헨":5760,"헫":5761,"헬":5762,"헭":5763,"헯":5764,"헰":5765,"헱":5766,"헲":5767,"헴":5768,"헵":5769,"헷":5770,"헸":5771,"헹":5772,"헼":5773,"헽":5774,"헾":5775,"헿":5776,"혀":5777,"혁":5778,"혂":5779,"현":5780,"혅":5781,"혇":5782,"혈":5783,"혉":5784,"혍":5785,"혐":5786,"협":5787,"혒":5788,"혓":5789,"혔":5790,"형":5791,"혙":5792,"혜":5793,"혝":5794,"혠":5795,"혤":5796,"혬":5797,"혭":5798,"혯":5799,"혰":5800,"혱":5801,"호":5802,"혹":5803,"혻":5804,"혼":5805,"혽":5806,"혾":5807,"혿":5808,"홀":5809,"홁":5810,"홂":5811,"홄":5812,"홅":5813,"홇":5814,"홈":5815,"홉":5816,"홋":5817,"홍":5818,"홐":5819,"홑":5820,"홒":5821,"홓":5822,"화":5823,"확":5824,"환":5825,"홛":5826,"활":5827,"홝":5828,"홠":5829,"홣":5830,"홤":5831,"홥":5832,"홦":5833,"홧":5834,"홨":5835,"황":5836,"홪":5837,"홭":5838,"홯":5839,"홰":5840,"홱":5841,"홳":5842,"홴":5843,"홷":5844,"홸":5845,"횀":5846,"횁":5847,"횂":5848,"횃":5849,"횄":5850,"횅":5851,"회":5852,"획":5853,"횐":5854,"횓":5855,"횔":5856,"횜":5857,"횝":5858,"횞":5859,"횟":5860,"횡":5861,"횢":5862,"횦":5863,"횧":5864,"효":5865,"횩":5866,"횬":5867,"횯":5868,"횰":5869,"횸":5870,"횹":5871,"횻":5872,"횽":5873,"훁":5874,"훃":5875,"후":5876,"훅":5877,"훇":5878,"훈":5879,"훉":5880,"훋":5881,"훌":5882,"훍":5883,"훎":5884,"훑":5885,"훒":5886,"훓":5887,"훔":5888,"훕":5889,"훗":5890,"훙":5891,"훚":5892,"훛":5893,"훜":5894,"훝":5895,"훞":5896,"훟":5897,"훠":5898,"훡":5899,"훤":5900,"훨":5901,"훩":5902,"훯":5903,"훰":5904,"훱":5905,"훳":5906,"훴":5907,"훵":5908,"훸":5909,"훼":5910,"훽":5911,"휀":5912,"휃":5913,"휄":5914,"휅":5915,"휋":5916,"휌":5917,"휍":5918,"휏":5919,"휐":5920,"휑":5921,"휔":5922,"휗":5923,"휘":5924,"휙":5925,"휜":5926,"휟":5927,"휠":5928,"휢":5929,"휨":5930,"휩":5931,"휪":5932,"휫":5933,"휬":5934,"휭":5935,"휰":5936,"휱":5937,"휳":5938,"휴":5939,"휵":5940,"휸":5941,"휺":5942,"휻":5943,"휼":5944,"휽":5945,"흃":5946,"흄":5947,"흅":5948,"흇":5949,"흉":5950,"흊":5951,"흍":5952,"흎":5953,"흐":5954,"흑":5955,"흒":5956,"흓":5957,"흔":5958,"흕":5959,"흖":5960,"흗":5961,"흘":5962,"흙":5963,"흝":5964,"흞":5965,"흟":5966,"흠":5967,"흡":5968,"흢":5969,"흣":5970,"흥":5971,"흧":5972,"흨":5973,"흩":5974,"흪":5975,"흫":5976,"희":5977,"흭":5978,"흰":5979,"흳":5980,"흴":5981,"흼":5982,"흽":5983,"흿":5984,"힁":5985,"힇":5986,"히":5987,"힉":5988,"힋":5989,"힌":5990,"힏":5991,"힐":5992,"힑":5993,"힒":5994,"힗":5995,"힘":5996,"힙":5997,"힚":5998,"힛":5999,"힜":6000,"힝":6001,"힠":6002,"힡":6003,"힣":6004,"##험":6005,"##식":6006,"##a":6007,"##q":6008,"##i":6009,"##f":6010,"##t":6011,"##e":6012,"##요":6013,"##죄":6014,"##c":6015,"##k":6016,"##s":6017,"##O":6018,"##U":6019,"##K":6020,"##I":6021,"##d":6022,"##감":6023,"##제":6024,"##D":6025,"##7":6026,"##6":6027,"##9":6028,"##적":6029,"##나":6030,"##무":6031,"##라":6032,"##고":6033,"##독":6034,"##새":6035,"##2":6036,"##8":6037,"##4":6038,"##0":6039,"##파":6040,"##이":6041,"##콜":6042,"##N":6043,"##E":6044,"##A":6045,"##R":6046,"##n":6047,"##g":6048,"##u":6049,"##r":6050,"##m":6051,"##늬":6052,"##1":6053,"##자":6054,"##빌":6055,"##모":6056,"##시":6057,"##베":6058,"##쓰":6059,"##5":6060,"##3":6061,"##b":6062,"##즈":6063,"##브":6064,"##로":6065,"##l":6066,"##h":6067,"##양":6068,"##아":6069,"##w":6070,"##y":6071,"##o":6072,"##딘":6073,"##j":6074,"##우":6075,"##람":6076,"##S":6077,"##H":6078,"##T":6079,"##가":6080,"##와":6081,"##사":6082,"##스":6083,"##케":6084,"##z":6085,"##p":6086,"##C":6087,"##소":6088,"##쯤":6089,"##청":6090,"##정":6091,"##수":6092,"##족":6093,"##인":6094,"##데":6095,"##도":6096,"##료":6097,"##살":6098,"##지":6099,"##린":6100,"##풀":6101,"##켜":6102,"##내":6103,"##는":6104,"##천":6105,"##화":6106,"##국":6107,"##G":6108,"##B":6109,"##비":6110,"##프":6111,"##트":6112,"##타":6113,"##L":6114,"##야":6115,"##v":6116,"##입":6117,"##쳐":6118,"##진":6119,"##민":6120,"##상":6121,"##렸":6122,"##ㅔ":6123,"##ㄴ":6124,"##ㅈ":6125,"##ㅣ":6126,"##ㅇ":6127,"##ㅓ":6128,"##어":6129,"##끄":6130,"##러":6131,"##워":6132,"##졌":6133,"##일":6134,"##레":6135,"##테":6136,"##류":6137,"##려":6138,"##X":6139,"##만":6140,"##키":6141,"##ㅃ":6142,"##각":6143,"##당":6144,"##삭":6145,"##셜":6146,"##M":6147,"##함":6148,"##없":6149,"##론":6150,"##작":6151,"##P":6152,"##태":6153,"##균":6154,"##춘":6155,"##다":6156,"##명":6157,"##왕":6158,"##Y":6159,"##석":6160,"##같":6161,"##미":6162,"##리":6163,"##세":6164,"##Z":6165,"##승":6166,"##효":6167,"##임":6168,"##출":6169,"##볼":6170,"##르":6171,"##깡":6172,"##팬":6173,"##치":6174,"##강":6175,"##F":6176,"##동":6177,"##J":6178,"##V":6179,"##투":6180,"##넬":6181,"##겨":6182,"##났":6183,"##더":6184,"##니":6185,"##루":6186,"##노":6187,"##커":6188,"##Q":6189,"##x":6190,"##ㅎ":6191,"##난":6192,"##드":6193,"##크":6194,"##너":6195,"##까":6196,"##운":6197,"##줄":6198,"##성":6199,"##택":6200,"##곌":6201,"##충":6202,"##법":6203,"##부":6204,"##재":6205,"##탄":6206,"##역":6207,"##달":6208,"##긴":6209,"##단":6210,"##순":6211,"##산":6212,"##해":6213,"##탈":6214,"##계":6215,"##문":6216,"##공":6217,"##유":6218,"##곤":6219,"##댔":6220,"##안":6221,"##네":6222,"##바":6223,"##체":6224,"##하":6225,"##대":6226,"##쩡":6227,"##히":6228,"##형":6229,"##학":6230,"##기":6231,"##술":6232,"##총":6233,"##연":6234,"##맹":6235,"##환":6236,"##카":6237,"##디":6238,"##원":6239,"##말":6240,"##붕":6241,"##장":6242,"##뇰":6243,"##병":6244,"##에":6245,"##팡":6246,"##토":6247,"##틀":6248,"##향":6249,"##칭":6250,"##혈":6251,"##반":6252,"##으":6253,"##면":6254,"##력":6255,"##윤":6256,"##현":6257,"##영":6258,"##변":6259,"##호":6260,"##선":6261,"##신":6262,"##격":6263,"##거":6264,"##온":6265,"##W":6266,"##덕":6267,"##서":6268,"##롼":6269,"##남":6270,"##게":6271,"##의":6272,"##표":6273,"##봉":6274,"##퍼":6275,"##펜":6276,"##존":6277,"##텐":6278,"##종":6279,"##철":6280,"##런":6281,"##발":6282,"##그":6283,"##주":6284,"##용":6285,"##능":6286,"##익":6287,"##중":6288,"##오":6289,"##멤":6290,"##버":6291,"##져":6292,"##창":6293,"##열":6294,"##길":6295,"##놈":6296,"##두":6297,"##옥":6298,"##과":6299,"##급":6300,"##콩":6301,"##피":6302,"##복":6303,"##숙":6304,"##준":6305,"##래":6306,"##염":6307,"##슈":6308,"##쿠":6309,"##간":6310,"##머":6311,"##밴":6312,"##돌":6313,"##방":6314,"##란":6315,"##코":6316,"##취":6317,"##멜":6318,"##실":6319,"##림":6320,"##밀":6321,"##티":6322,"##메":6323,"##룩":6324,"##랸":6325,"##위":6326,"##름":6327,"##응":6328,"##몬":6329,"##을":6330,"##뿌":6331,"##센":6332,"##군":6333,"##슬":6334,"##렉":6335,"##흥":6336,"##채":6337,"##곡":6338,"##냐":6339,"##날":6340,"##희":6341,"##포":6342,"##섹":6343,"##패":6344,"##망":6345,"##퉁":6346,"##경":6347,"##휴":6348,"##먼":6349,"##싱":6350,"##규":6351,"##닝":6352,"##블":6353,"##습":6354,"##설":6355,"##슴":6356,"##완":6357,"##회":6358,"##욱":6359,"##혁":6360,"##알":6361,"##항":6362,"##울":6363,"##킨":6364,"##슨":6365,"##마":6366,"##엘":6367,"##륵":6368,"##롤":6369,"##터":6370,"##보":6371,"##액":6372,"##광":6373,"##ㅌ":6374,"##톤":6375,"##집":6376,"##닛":6377,"##녀":6378,"##궁":6379,"##갑":6380,"##령":6381,"##귀":6382,"##벽":6383,"##편":6384,"##꿍":6385,"##릿":6386,"##돗":6387,"##느":6388,"##개":6389,"##걸":6390,"##닷":6391,"##속":6392,"##쥬":6393,"##쪽":6394,"##들":6395,"##절":6396,"##저":6397,"##널":6398,"##여":6399,"##례":6400,"##섬":6401,"##닐":6402,"##셰":6403,"##암":6404,"##늄":6405,"##교":6406,"##뀨":6407,"##며":6408,"##퐁":6409,"##즐":6410,"##페":6411,"##ㅂ":6412,"##ㄱ":6413,"##ㅁ":6414,"##은":6415,"##후":6416,"##락":6417,"##뱅":6418,"##조":6419,"##ㄷ":6420,"##른":6421,"##량":6422,"##맨":6423,"##뱀":6424,"##넨":6425,"##생":6426,"##전":6427,"##쮜":6428,"##뼤":6429,"##챠":6430,"##졸":6431,"##침":6432,"##얼":6433,"##굴":6434,"##한":6435,"##팥":6436,"##찬":6437,"##권":6438,"##텔":6439,"##황":6440,"##년":6441,"##물":6442,"##컬":6443,"##질":6444,"##ㅡ":6445,"##획":6446,"##렌":6447,"##ㄹ":6448,"##첼":6449,"##품":6450,"##끈":6451,"##쪄":6452,"##건":6453,"##행":6454,"##팔":6455,"##했":6456,"##셉":6457,"##션":6458,"##차":6459,"##관":6460,"##츠":6461,"##본":6462,"##링":6463,"##범":6464,"##팻":6465,"##필":6466,"##님":6467,"##헌":6468,"##몽":6469,"##맞":6470,"##덴":6471,"##든":6472,"##츄":6473,"##엔":6474,"##헤":6475,"##딜":6476,"##덱":6477,"##써":6478,"##밋":6479,"##샛":6480,"##약":6481,"##갤":6482,"##펭":6483,"##귄":6484,"##룬":6485,"##를":6486,"##퀴":6487,"##섭":6488,"##평":6489,"##엠":6490,"##구":6491,"##숫":6492,"##값":6493,"##합":6494,"##럼":6495,"##김":6496,"##예":6497,"##죽":6498,"##근":6499,"##클":6500,"##십":6501,"##둔":6502,"##롬":6503,"##ㅐ":6504,"##ㅍ":6505,"##깁":6506,"##처":6507,"##립":6508,"##앙":6509,"##델":6510,"##냥":6511,"##셸":6512,"##뿐":6513,"##송":6514,"##ㅏ":6515,"##쑥":6516,"##ㅘ":6517,"##ㅊ":6518,"##쥔":6519,"##혀":6520,"##왼":6521,"##웨":6522,"##닌":6523,"##판":6524,"##쌀":6525,"##뚜":6526,"##딪":6527,"##목":6528,"##딩":6529,"##뢰":6530,"##검":6531,"##엄":6532,"##언":6533,"##둘":6534,"##릉":6535,"##괴":6536,"##렐":6537,"##텅":6538,"##흫":6539,"##흐":6540,"##초":6541,"##외":6542,"##갓":6543,"##었":6544,"##뉼":6545,"##엥":6546,"##룽":6547,"##렴":6548,"##렬":6549,"##활":6550,"##읍":6551,"##뇨":6552,"##쿼":6553,"##따":6554,"##옹":6555,"##맥":6556,"##북":6557,"##쏘":6558,"##옵":6559,"##허":6560,"##팅":6561,"##겁":6562,"##통":6563,"##분":6564,"##휘":6565,"##잉":6566,"##샘":6567,"##견":6568,"##막":6569,"##셴":6570,"##협":6571,"##큼":6572,"##빈":6573,"##백":6574,"##등":6575,"##킬":6576,"##닫":6577,"##념":6578,"##번":6579,"##쥐":6580,"##쟈":6581,"##꺼":6582,"##음":6583,"##튼":6584,"##골":6585,"##랑":6586,"##넷":6587,"##핵":6588,"##촉":6589,"##룡":6590,"##월":6591,"##콘":6592,"##뽀":6593,"##빠":6594,"##빱":6595,"##렛":6596,"##잡":6597,"##펑":6598,"##풍":6599,"##추":6600,"##혜":6601,"##줘":6602,"##훈":6603,"##첩":6604,"##둑":6605,"##점":6606,"##좌":6607,"##넛":6608,"##칠":6609,"##꾸":6610,"##헬":6611,"##셀":6612,"##돈":6613,"##샤":6614,"##련":6615,"##툴":6616,"##렁":6617,"##큰":6618,"##훅":6619,"##참":6620,"##던":6621,"##ㅖ":6622,"##ㅋ":6623,"##핀":6624,"##답":6625,"##ㅞ":6626,"##멍":6627,"##퇴":6628,"##척":6629,"##딕":6630,"##썩":6631,"##낸":6632,"##금":6633,"##빙":6634,"##글":6635,"##놀":6636,"##젤":6637,"##맘":6638,"##ㅜ":6639,"##ㅑ":6640,"##옷":6641,"##먹":6642,"##므":6643,"##증":6644,"##촬":6645,"##삼":6646,"##손":6647,"##컨":6648,"##업":6649,"##끼":6650,"##춤":6651,"##극":6652,"##올":6653,"##닉":6654,"##폰":6655,"##ㄳ":6656,"##붓":6657,"##갔":6658,"##밈":6659,"##농":6660,"##뜩":6661,"##덮":6662,"##깃":6663,"##헨":6664,"##득":6665,"##왓":6666,"##누":6667,"##뿔":6668,"##컴":6669,"##눈":6670,"##욕":6671,"##즙":6672,"##엉":6673,"##딴":6674,"##턴":6675,"##칼":6676,"##륨":6677,"##솔":6678,"##겐":6679,"##육":6680,"##꼽":6681,"##낍":6682,"##듬":6683,"##묵":6684,"##롱":6685,"##쯔":6686,"##납":6687,"##탕":6688,"##왔":6689,"##붙":6690,"##갈":6691,"##쮸":6692,"##릇":6693,"##쳤":6694,"##슘":6695,"##엽":6696,"##쩍":6697,"##ㅠ":6698,"##ㅆ":6699,"##박":6700,"##쁩":6701,"##별":6702,"##율":6703,"##플":6704,"##ㅙ":6705,"##ㄻ":6706,"##윅":6707,"##배":6708,"##웠":6709,"##색":6710,"##벤":6711,"##낰":6712,"##릴":6713,"##츤":6714,"##매":6715,"##궐":6716,"##ㅛ":6717,"##ㄿ":6718,"##밤":6719,"##빰":6720,"##빛":6721,"##늘":6722,"##폴":6723,"##껴":6724,"##옴":6725,"##애":6726,"##친":6727,"##탁":6728,"##멸":6729,"##폐":6730,"##젓":6731,"##웰":6732,"##숭":6733,"##봇":6734,"##밸":6735,"##짐":6736,"##튬":6737,"##묘":6738,"##샷":6739,"##깅":6740,"##뎅":6741,"##럭":6742,"##셔":6743,"##몸":6744,"##밭":6745,"##불":6746,"##엇":6747,"##템":6748,"##벨":6749,"##랫":6750,"##쫀":6751,"##큐":6752,"##휠":6753,"##였":6754,"##확":6755,"##움":6756,"##솜":6757,"##담":6758,"##숑":6759,"##틴":6760,"##뷸":6761,"##놓":6762,"##률":6763,"##앤":6764,"##웃":6765,"##븐":6766,"##혼":6767,"##훼":6768,"##듀":6769,"##ㅅ":6770,"##때":6771,"##텁":6772,"##책":6773,"##짜":6774,"##펠":6775,"##쇠":6776,"##뵤":6777,"##뵹":6778,"##찰":6779,"##웅":6780,"##짓":6781,"##넥":6782,"##ㅉ":6783,"##랙":6784,"##꼴":6785,"##텍":6786,"##ㄽ":6787,"##슭":6788,"##릭":6789,"##둥":6790,"##켄":6791,"##잼":6792,"##젠":6793,"##밟":6794,"##닥":6795,"##벌":6796,"##넌":6797,"##곳":6798,"##떼":6799,"##탑":6800,"##징":6801,"##눌":6802,"##되":6803,"##직":6804,"##층":6805,"##악":6806,"##착":6807,"##륙":6808,"##뜨":6809,"##홍":6810,"##띠":6811,"##쿄":6812,"##략":6813,"##흡":6814,"##넹":6815,"##ㅗ":6816,"##ㅀ":6817,"##샨":6818,"##융":6819,"##탠":6820,"##뭇":6821,"##틸":6822,"##럴":6823,"##꽃":6824,"##심":6825,"##흘":6826,"##측":6827,"##몫":6828,"##겔":6829,"##흔":6830,"##킹":6831,"##객":6832,"##랜":6833,"##쓴":6834,"##결":6835,"##낙":6836,"##땡":6837,"##덩":6838,"##쁘":6839,"##엿":6840,"##윌":6841,"##긍":6842,"##봐":6843,"##ㅄ":6844,"##딧":6845,"##겸":6846,"##셥":6847,"##할":6848,"##짤":6849,"##특":6850,"##뜽":6851,"##뀌":6852,"##믈":6853,"##뮌":6854,"##몰":6855,"##있":6856,"##픈":6857,"##팍":6858,"##앵":6859,"##밍":6860,"##튀":6861,"##퀄":6862,"##톰":6863,"##닦":6864,"##둬":6865,"##칸":6866,"##흉":6867,"##푸":6868,"##뇸":6869,"##랄":6870,"##ㄶ":6871,"##탐":6872,"##논":6873,"##빨":6874,"##힝":6875,"##폭":6876,"##듯":6877,"##혔":6878,"##꼬":6879,"##춰":6880,"##킥":6881,"##축":6882,"##씻":6883,"##힌":6884,"##쩨":6885,"##받":6886,"##곧":6887,"##얀":6888,"##램":6889,"##헿":6890,"##픽":6891,"##퇘":6892,"##록":6893,"##곱":6894,"##늡":6895,"##톨":6896,"##첸":6897,"##띄":6898,"##봤":6899,"##벳":6900,"##쵸":6901,"##촌":6902,"##끗":6903,"##뽄":6904,"##콧":6905,"##홀":6906,"##좀":6907,"##밗":6908,"##또":6909,"##껏":6910,"##ㄲ":6911,"##첨":6912,"##싹":6913,"##뎬":6914,"##맛":6915,"##앗":6916,"##캠":6917,"##돔":6918,"##겼":6919,"##빵":6920,"##랴":6921,"##캬":6922,"##냅":6923,"##퀘":6924,"##넘":6925,"##괜":6926,"##잎":6927,"##훌":6928,"##쿤":6929,"##께":6930,"##쿨":6931,"##섰":6932,"##씨":6933,"##쾌":6934,"##씬":6935,"##잔":6936,"##쉬":6937,"##틱":6938,"##ㅟ":6939,"##ㄼ":6940,"##쨍":6941,"##롯":6942,"##셨":6943,"##힐":6944,"##샅":6945,"##즘":6946,"##곰":6947,"##핸":6948,"##삽":6949,"##꿩":6950,"##얌":6951,"##냈":6952,"##쩔":6953,"##룰":6954,"##벅":6955,"##캉":6956,"##슷":6957,"##썰":6958,"##뼈":6959,"##ㅒ":6960,"##끔":6961,"##뉘":6962,"##뮤":6963,"##삐":6964,"##띾":6965,"##녕":6966,"##쇼":6967,"##듁":6968,"##굿":6969,"##뷔":6970,"##쪘":6971,"##캄":6972,"##캔":6973,"##릅":6974,"##쎃":6975,"##렀":6976,"##굽":6977,"##숲":6978,"##ㅕ":6979,"##얏":6980,"##꼐":6981,"##낀":6982,"##짚":6983,"##얄":6984,"##놨":6985,"##튜":6986,"##뽓":6987,"##꺽":6988,"##떡":6989,"##톡":6990,"##흑":6991,"##깨":6992,"##압":6993,"##높":6994,"##츙":6995,"##떤":6996,"##턱":6997,"##ㅝ":6998,"##최":6999,"##찌":7000,"##캣":7001,"##탓":7002,"##뇽":7003,"##툰":7004,"##접":7005,"##뷰":7006,"##꽁":7007,"##럽":7008,"##뼥":7009,"##괂":7010,"##읳":7011,"##씩":7012,"##멈":7013,"##똥":7014,"##걷":7015,"##헛":7016,"##샌":7017,"##땅":7018,"##밧":7019,"##팽":7020,"##멕":7021,"##벡":7022,"##욷":7023,"##뒤":7024,"##퀵":7025,"##꽂":7026,"##벙":7027,"##ㅢ":7028,"##퉤":7029,"##뒑":7030,"##벗":7031,"##펄":7032,"##펴":7033,"##봅":7034,"##쨔":7035,"##뤼":7036,"##옌":7037,"##앞":7038,"##냘":7039,"##퀸":7040,"##갸":7041,"##홈":7042,"##뱔":7043,"##콸":7044,"##캐":7045,"##ㄺ":7046,"##햘":7047,"##및":7048,"##숀":7049,"##첵":7050,"##둣":7051,"##죌":7052,"##쟁":7053,"##ㄵ":7054,"##댈":7055,"##뚠":7056,"##롓":7057,"##쭐":7058,"##셈":7059,"##싀":7060,"##츈":7061,"##핑":7062,"##빗":7063,"##걱":7064,"##꼈":7065,"##훙":7066,"##댓":7067,"##켓":7068,"##엑":7069,"##껍":7070,"##짱":7071,"##쎄":7072,"##촨":7073,"##않":7074,"##엤":7075,"##밑":7076,"##퓨":7077,"##탤":7078,"##ㄸ":7079,"##왈":7080,"##놔":7081,"##댐":7082,"##랭":7083,"##셋":7084,"##읗":7085,"##뎃":7086,"##닭":7087,"##숄":7088,"##뇌":7089,"##뎀":7090,"##믄":7091,"##털":7092,"##촘":7093,"##긋":7094,"##쌍":7095,"##칩":7096,"##뮨":7097,"##롭":7098,"##윈":7099,"##뵈":7100,"##윷":7101,"##밥":7102,"##칵":7103,"##줬":7104,"##붉":7105,"##챙":7106,"##랏":7107,"##된":7108,"##쇄":7109,"##잭":7110,"##봄":7111,"##억":7112,"##낚":7113,"##듣":7114,"##딱":7115,"##쌈":7116,"##꿔":7117,"##읭":7118,"##힉":7119,"##쩐":7120,"##ㄾ":7121,"##옇":7122,"##칙":7123,"##앸":7124,"##쩌":7125,"##갯":7126,"##횡":7127,"##눼":7128,"##뒥":7129,"##둡":7130,"##곽":7131,"##겹":7132,"##욜":7133,"##팩":7134,"##웹":7135,"##넵":7136,"##잠":7137,"##쯋":7138,"##뻬":7139,"##쿡":7140,"##랐":7141,"##컵":7142,"##뉴":7143,"##슶":7144,"##짒":7145,"##멧":7146,"##갱":7147,"##랗":7148,"##쬲":7149,"##콤":7150,"##냉":7151,"##줌":7152,"##뤄":7153,"##깝":7154,"##촵":7155,"##꺄":7156,"##옻":7157,"##잘":7158,"##뜸":7159,"##죠":7160,"##랩":7161,"##곯":7162,"##콕":7163,"##랍":7164,"##잖":7165,"##젝":7166,"##콴":7167,"##녹":7168,"##ㅚ":7169,"##탸":7170,"##덤":7171,"##쪼":7172,"##쬬":7173,"##딸":7174,"##켈":7175,"##왜":7176,"##맵":7177,"##듐":7178,"##낭":7179,"##찮":7180,"##컷":7181,"##흙":7182,"##슐":7183,"##핰":7184,"##룹":7185,"##궈":7186,"##것":7187,"##렵":7188,"##헙":7189,"##쓸":7190,"##걀":7191,"##흰":7192,"##뤠":7193,"##뤩":7194,"##벼":7195,"##뻑":7196,"##팠":7197,"##혹":7198,"##렷":7199,"##녜":7200,"##뽕":7201,"##탱":7202,"##툐":7203,"##댜":7204,"##츹":7205,"##캥":7206,"##빡":7207,"##쑹":7208,"##뮴":7209,"##꼼":7210,"##뵐":7211,"##뱡":7212,"##몐":7213,"##꾼":7214,"##힛":7215,"##끌":7216,"##덜":7217,"##핍":7218,"##벵":7219,"##맣":7220,"##녘":7221,"##륀":7222,"##낼":7223,"##젯":7224,"##쓔":7225,"##쓩":7226,"##텝":7227,"##닏":7228,"##았":7229,"##뉜":7230,"##깥":7231,"##즉":7232,"##빅":7233,"##뻐":7234,"##쉐":7235,"##땐":7236,"##텡":7237,"##셩":7238,"##륜":7239,"##엡":7240,"##멘":7241,"##탯":7242,"##뺅":7243,"##겠":7244,"##윽":7245,"##짝":7246,"##밖":7247,"##믹":7248,"##쌰":7249,"##흠":7250,"##솟":7251,"##넣":7252,"##캡":7253,"##뒹":7254,"##꿋":7255,"##찍":7256,"##빤":7257,"##꾹":7258,"##끙":7259,"##홋":7260,"##쥽":7261,"##췩":7262,"##뮬":7263,"##꿈":7264,"##쨌":7265,"##슌":7266,"##퍄":7267,"##펫":7268,"##옾":7269,"##췃":7270,"##냄":7271,"##맡":7272,"##떨":7273,"##갠":7274,"##츌":7275,"##퓰":7276,"##좋":7277,"##펀":7278,"##싸":7279,"##뽑":7280,"##뜻":7281,"##떻":7282,"##릎":7283,"##굉":7284,"##뮈":7285,"##떠":7286,"##뚱":7287,"##갇":7288,"##킈":7289,"##뺩":7290,"##팝":7291,"##맫":7292,"##쉘":7293,"##핫":7294,"##댄":7295,"##랬":7296,"##띰":7297,"##쳇":7298,"##잆":7299,"##롮":7300,"##픖":7301,"##틊":7302,"##뛰":7303,"##곶":7304,"##텀":7305,"##빼":7306,"##솀":7307,"##묄":7308,"##몇":7309,"##몃":7310,"##핳":7311,"##댕":7312,"##췛":7313,"##뿛":7314,"##팀":7315,"##낫":7316,"##뭅":7317,"##콰":7318,"##랋":7319,"##썼":7320,"##켐":7321,"##쀼":7322,"##룸":7323,"##흣":7324,"##뀐":7325,"##섯":7326,"##찐":7327,"##퓌":7328,"##잇":7329,"##햄":7330,"##쳅":7331,"##씌":7332,"##쭈":7333,"##푼":7334,"##쟝":7335,"##째":7336,"##툼":7337,"##꼇":7338,"##슝":7339,"##짘":7340,"##숨":7341,"##샹":7342,"##뻥":7343,"##못":7344,"##칫":7345,"##깔":7346,"##쳉":7347,"##끓":7348,"##똑":7349,"##펙":7350,"##뎌":7351,"##퇀":7352,"##핏":7353,"##룻":7354,"##뚝":7355,"##킷":7356,"##찟":7357,"##깍":7358,"##꿘":7359,"##뻘":7360,"##흧":7361,"##꿏":7362,"##렙":7363,"##놉":7364,"##캇":7365,"##벰":7366,"##쉴":7367,"##텟":7368,"##춧":7369,"##툭":7370,"##콥":7371,"##핡":7372,"##궭":7373,"##앳":7374,"##랠":7375,"##괘":7376,"##앱":7377,"##껌":7378,"##뚤":7379,"##홓":7380,"##홐":7381,"##횻":7382,"##앉":7383,"##찹":7384,"##롄":7385,"##낵":7386,"##깊":7387,"##녁":7388,"##눠":7389,"##쩝":7390,"##낑":7391,"##휭":7392,"##쨩":7393,"##웁":7394,"##엌":7395,"##섴":7396,"##탒":7397,"##듮":7398,"##촐":7399,"##펌":7400,"##갚":7401,"##챰":7402,"##븍":7403,"##떄":7404,"##끽":7405,"##쁜":7406,"##똔":7407,"##쳌":7408,"##췄":7409,"##캘":7410,"##챔":7411,"##늅":7412,"##볶":7413,"##뿜":7414,"##즌":7415,"##얽":7416,"##땗":7417,"##늠":7418,"##뜐":7419,"##딨":7420,"##넡":7421,"##묭":7422,"##톱":7423,"##눔":7424,"##푹":7425,"##듦":7426,"##윗":7427,"##혐":7428,"##릘":7429,"##찡":7430,"##끝":7431,"##앨":7432,"##뙤":7433,"##휼":7434,"##왧":7435,"##뷃":7436,"##얇":7437,"##땠":7438,"##뗔":7439,"##뷘":7440,"##슛":7441,"##헼":7442,"##겟":7443,"##꿰":7444,"##솩":7445,"##쌔":7446,"##돕":7447,"##냠":7448,"##퀼":7449,"##톈":7450,"##뜬":7451,"##킳":7452,"##엣":7453,"##껄":7454,"##쭉":7455,"##녔":7456,"##띱":7457,"##뿟":7458,"##텨":7459,"##챌":7460,"##돼":7461,"##윙":7462,"##뿗":7463,"##욧":7464,"##딍":7465,"##쫓":7466,"##듭":7467,"##쿵":7468,"##뭐":7469,"##쵁":7470,"##볜":7471,"##렝":7472,"##캅":7473,"##팰":7474,"##큘":7475,"##볍":7476,"##솁":7477,"##닙":7478,"##뉨":7479,"##쯱":7480,"##깐":7481,"##깜":7482,"##럿":7483,"##쑨":7484,"##웍":7485,"##줏":7486,"##쟙":7487,"##둈":7488,"##랔":7489,"##뾘":7490,"##팟":7491,"##볘":7492,"##뾸":7493,"##팜":7494,"##뀍":7495,"##멀":7496,"##뵙":7497,"##욘":7498,"##렘":7499,"##갬":7500,"##겅":7501,"##씀":7502,"##셍":7503,"##곬":7504,"##뒀":7505,"##킁":7506,"##눕":7507,"##줴":7508,"##덥":7509,"##쥩":7510,"##싯":7511,"##숴":7512,"##겜":7513,"##홣":7514,"##꾫":7515,"##컹":7516,"##츰":7517,"##홉":7518,"##컥":7519,"##셒":7520,"##슾":7521,"##쭤":7522,"##눅":7523,"##밉":7524,"##쟌":7525,"##숍":7526,"##둠":7527,"##젭":7528,"##앓":7529,"##냑":7530,"##숏":7531,"##띵":7532,"##췌":7533,"##썹":7534,"##폕":7535,"##넓":7536,"##멱":7537,"##웬":7538,"##븨":7539,"##햇":7540,"##샐":7541,"##틈":7542,"##궤":7543,"##퇼":7544,"##굼":7545,"##뛴":7546,"##쒀":7547,"##뭬":7548,"##븀":7549,"##헣":7550,"##껑":7551,"##붐":7552,"##땀":7553,"##끆":7554,"##퇗":7555,"##죡":7556,"##킼":7557,"##멋":7558,"##쉰":7559,"##꺅":7560,"##튠":7561,"##삯":7562,"##킴":7563,"##샵":7564,"##깽":7565,"##뺴":7566,"##윳":7567,"##괵":7568,"##빧":7569,"##푀":7570,"##딤":7571,"##겊":7572,"##헝":7573,"##귤":7574,"##켰":7575,"##늉":7576,"##긔":7577,"##띤":7578,"##쑤":7579,"##놋":7580,"##뀔":7581,"##힘":7582,"##헵":7583,"##뵷":7584,"##봬":7585,"##눙":7586,"##볐":7587,"##킵":7588,"##웗":7589,"##뛃":7590,"##꽯":7591,"##쭵":7592,"##켁":7593,"##폈":7594,"##많":7595,"##폄":7596,"##헠":7597,"##컿":7598,"##뢸":7599,"##츔":7600,"##뭄":7601,"##뽁":7602,"##폼":7603,"##좆":7604,"##랣":7605,"##젼":7606,"##왁":7607,"##삥":7608,"##튿":7609,"##앜":7610,"##똠":7611,"##낄":7612,"##웈":7613,"##쉽":7614,"##꽝":7615,"##궂":7616,"##훤":7617,"##뢍":7618,"##빳":7619,"##퐝":7620,"##끎":7621,"##쌕":7622,"##좔":7623,"##홑":7624,"##넴":7625,"##퓩":7626,"##젬":7627,"##껙":7628,"##쌐":7629,"##숯":7630,"##픔":7631,"##웩":7632,"##낳":7633,"##뻗":7634,"##괄":7635,"##삿":7636,"##뒬":7637,"##쌥":7638,"##쳬":7639,"##잰":7640,"##댁":7641,"##괧":7642,"##썬":7643,"##찜":7644,"##혠":7645,"##됨":7646,"##힙":7647,"##쿰":7648,"##캌":7649,"##핌":7650,"##씽":7651,"##좹":7652,"##뭏":7653,"##붘":7654,"##꼰":7655,"##냇":7656,"##펨":7657,"##옐":7658,"##짠":7659,"##챤":7660,"##촷":7661,"##쏴":7662,"##쌋":7663,"##짢":7664,"##슥":7665,"##붝":7666,"##꿨":7667,"##젖":7668,"##껫":7669,"##뭉":7670,"##훗":7671,"##씁":7672,"##쉔":7673,"##쾅":7674,"##뻤":7675,"##늙":7676,"##돚":7677,"##퍽":7678,"##묻":7679,"##몀":7680,"##푈":7681,"##녠":7682,"##뀩":7683,"##눗":7684,"##쬴":7685,"##됼":7686,"##굑":7687,"##퓸":7688,"##왱":7689,"##렇":7690,"##뒓":7691,"##뇬":7692,"##맙":7693,"##텃":7694,"##옛":7695,"##햅":7696,"##낌":7697,"##뜀":7698,"##쨕":7699,"##빴":7700,"##튽":7701,"##윕":7702,"##먐":7703,"##듸":7704,"##퍅":7705,"##뫞":7706,"##뿷":7707,"##땞":7708,"##밪":7709,"##벞":7710,"##뒗":7711,"##렜":7712,"##됵":7713,"##롊":7714,"##쳰":7715,"##뱃":7716,"##얘":7717,"##엒":7718,"##넙":7719,"##촤":7720,"##뜫":7721,"##땃":7722,"##뫄":7723,"##먏":7724,"##믐":7725,"##륄":7726,"##믕":7727,"##츨":7728,"##썝":7729,"##뿉":7730,"##깎":7731,"##헉":7732,"##탬":7733,"##먀":7734,"##펔":7735,"##쭓":7736,"##짧":7737,"##돋":7738,"##꿉":7739,"##픕":7740,"##훔":7741,"##쌓":7742,"##훕":7743,"##붏":7744,"##붇":7745,"##겧":7746,"##솰":7747,"##볕":7748,"##꿇":7749,"##찾":7750,"##싼":7751,"##왐":7752,"##콱":7753,"##싰":7754,"##굳":7755,"##츼":7756,"##픠":7757,"##읅":7758,"##쇽":7759,"##줵":7760,"##껀":7761,"##쾃":7762,"##뽈":7763,"##닢":7764,"##쭝":7765,"##뒷":7766,"##뿝":7767,"##뻣":7768,"##뜰":7769,"##졔":7770,"##헴":7771,"##뎍":7772,"##녤":7773,"##멬":7774,"##짹":7775,"##쭨":7776,"##냔":7777,"##뻔":7778,"##귝":7779,"##쯧":7780,"##삠":7781,"##뺐":7782,"##릐":7783,"##씉":7784,"##캑":7785,"##햣":7786,"##햑":7787,"##컭":7788,"##춉":7789,"##읏":7790,"##휗":7791,"##쭙":7792,"##헥":7793,"##앰":7794,"##쏭":7795,"##젱":7796,"##껠":7797,"##쑈":7798,"##뎐":7799,"##붹":7800,"##쌉":7801,"##뇔":7802,"##꼭":7803,"##썸":7804,"##뚫":7805,"##쉟":7806,"##렣":7807,"##꿀":7808,"##깟":7809,"##롹":7810,"##솥":7811,"##옆":7812,"##듥":7813,"##솹":7814,"##뿅":7815,"##퀀":7816,"##흗":7817,"##슼":7818,"##읔":7819,"##쎔":7820,"##묺":7821,"##홥":7822,"##붛":7823,"##뷴":7824,"##쫩":7825,"##맷":7826,"##쫙":7827,"##샙":7828,"##숟":7829,"##맸":7830,"##찔":7831,"##겻":7832,"##뫅":7833,"##뤂":7834,"##뛟":7835,"##땜":7836,"##훨":7837,"##멨":7838,"##늑":7839,"##훠":7840,"##굥":7841,"##웡":7842,"##휏":7843,"##띙":7844,"##둙":7845,"##빔":7846,"##뎊":7847,"##솽":7848,"##벜":7849,"##잨":7850,"##뼉":7851,"##칣":7852,"##탭":7853,"##샬":7854,"##씹":7855,"##땁":7856,"##뎁":7857,"##뜯":7858,"##퐳":7859,"##쫄":7860,"##쁠":7861,"##멩":7862,"##댱":7863,"##솬":7864,"##즛":7865,"##쯸":7866,"##떈":7867,"##챘":7868,"##풋":7869,"##깬":7870,"##섞":7871,"##톼":7872,"##쫒":7873,"##깻":7874,"##갹":7875,"##꾁":7876,"##뤘":7877,"##숱":7878,"##쟘":7879,"##돛":7880,"##깄":7881,"##쮝":7882,"##쌩":7883,"##뢔":7884,"##솝":7885,"##댑":7886,"##욤":7887,"##컼":7888,"##닑":7889,"##펼":7890,"##믜":7891,"##뫼":7892,"##왘":7893,"##떵":7894,"##샠":7895,"##쀳":7896,"##펐":7897,"##찼":7898,"##퉈":7899,"##떅":7900,"##흇":7901,"##뽝":7902,"##쉥":7903,"##쥥":7904,"##옙":7905,"##뱌":7906,"##뺨":7907,"##뼛":7908,"##쌌":7909,"##귈":7910,"##뾰":7911,"##쳄":7912,"##읋":7913,"##쵠":7914,"##톄":7915,"##쏜":7916,"##큿":7917,"##팸":7918,"##팁":7919,"##샴":7920,"##퐈":7921,"##썽":7922,"##챳":7923,"##싣":7924,"##펩":7925,"##곀":7926,"##졷":7927,"##첬":7928,"##꽈":7929,"##랒":7930,"##햏":7931,"##섀":7932,"##얃":7933,"##즤":7934,"##춸":7935,"##빽":7936,"##퍗":7937,"##팼":7938,"##햐":7939,"##챈":7940,"##쭌":7941,"##롈":7942,"##딛":7943,"##얔":7944,"##뫙":7945,"##붑":7946,"##냏":7947,"##뎡":7948,"##굇":7949,"##빕":7950,"##챃":7951,"##넉":7952,"##퉜":7953,"##졧":7954,"##붸":7955,"##닮":7956,"##꾿":7957,"##쪙":7958,"##숩":7959,"##벚":7960,"##윔":7961,"##겆":7962,"##잣":7963,"##륭":7964,"##몹":7965,"##뮐":7966,"##윱":7967,"##딥":7968,"##걍":7969,"##폿":7970,"##갖":7971,"##듈":7972,"##뻉":7973,"##섶":7974,"##쿳":7975,"##퓔":7976,"##챦":7977,"##넝":7978,"##벱":7979,"##찻":7980,"##쾰":7981,"##톳":7982,"##헐":7983,"##큥":7984,"##뗀":7985,"##틋":7986,"##쵤":7987,"##짖":7988,"##쓱":7989,"##웉":7990,"##퉅":7991,"##뵌":7992,"##맑":7993,"##꺾":7994,"##삘":7995,"##쾨":7996,"##룟":7997,"##굘":7998,"##꾀":7999,"##덞":8000,"##롇":8001,"##춥":8002,"##쨋":8003,"##긧":8004,"##뾱":8005,"##쯕":8006,"##췰":8007,"##뤽":8008,"##쩠":8009,"##귓":8010,"##쳑":8011,"##겋":8012,"##쒕":8013,"##췅":8014,"##뽜":8015,"##푝":8016,"##낱":8017,"##롁":8018,"##칡":8019,"##쎌":8020,"##몆":8021,"##깠":8022,"##꺕":8023,"##돓":8024,"##휵":8025,"##헹":8026,"##쁙":8027,"##슙":8028,"##롸":8029,"##뀻":8030,"##혓":8031,"##뮹":8032,"##잿":8033,"##삣":8034,"##덟":8035,"##귁":8036,"##뺑":8037,"##닯":8038,"##볏":8039,"##헔":8040,"##쭁":8041,"##깤":8042,"##듶":8043,"##겉":8044,"##륑":8045,"##썄":8046,"##텬":8047,"##앚":8048,"##탇":8049,"##엎":8050,"##읽":8051,"##엙":8052,"##뀜":8053,"##큪":8054,"##핔":8055,"##뱐":8056,"##읕":8057,"##뺵":8058,"##녈":8059,"##뭭":8060,"##뫟":8061,"##윹":8062,"##읜":8063,"##틍":8064,"##셌":8065,"##홧":8066,"##뺌":8067,"##뺏":8068,"##탔":8069,"##뀽":8070,"##횟":8071,"##걔":8072,"##궜":8073,"##힠":8074,"##눟":8075,"##뷁":8076,"##쵹":8077,"##뒈":8078,"##튕":8079,"##삜":8080,"##뷜":8081,"##섦":8082,"##짬":8083,"##큠":8084,"##뉸":8085,"##읶":8086,"##샥":8087,"##핥":8088,"##됴":8089,"##튄":8090,"##쟉":8091,"##뎨":8092,"##떴":8093,"##쫑":8094,"##낮":8095,"##좇":8096,"##샇":8097,"##첫":8098,"##쯰":8099,"##셕":8100,"##륶":8101,"##냙":8102,"##퍝":8103,"##쒸":8104,"##싴":8105,"##릾":8106,"##캆":8107,"##훟":8108,"##삶":8109,"##삡":8110,"##줍":8111,"##쪠":8112,"##몌":8113,"##젴":8114,"##쫣":8115,"##똵":8116,"##뽧":8117,"##꽑":8118,"##뽭":8119,"##븅":8120,"##찢":8121,"##댠":8122,"##갗":8123,"##깏":8124,"##좨":8125,"##낏":8126,"##웽":8127,"##덧":8128,"##뺙":8129,"##벩":8130,"##꽹":8131,"##쥰":8132,"##믿":8133,"##앟":8134,"##숌":8135,"##힡":8136,"##틔":8137,"##룝":8138,"##뢴":8139,"##룀":8140,"##좍":8141,"##핤":8142,"##흨":8143,"##쑝":8144,"##훑":8145,"##픅":8146,"##귿":8147,"##궬":8148,"##쨈":8149,"##흄":8150,"##쿙":8151,"##뗑":8152,"##맄":8153,"##딺":8154,"##핚":8155,"##탵":8156,"##딈":8157,"##퀜":8158,"##긶":8159,"##듕":8160,"##윰":8161,"##얖":8162,"##뗘":8163,"##챗":8164,"##옳":8165,"##냣":8166,"##얗":8167,"##핻":8168,"##핼":8169,"##꿎":8170,"##꽊":8171,"##쉈":8172,"##냫":8173,"##뜳":8174,"##뒫":8175,"##뮺":8176,"##쎅":8177,"##낛":8178,"##풉":8179,"##렫":8180,"##횬":8181,"##씅":8182,"##곗":8183,"##큇":8184,"##횢":8185,"##썅":8186,"##뉵":8187,"##훓":8188,"##캤":8189,"##긤":8190,"##쏚":8191,"##쌤":8192,"##귐":8193,"##꽤":8194,"##쭊":8195,"##웝":8196,"##쭘":8197,"##닻":8198,"##깈":8199,"##얶":8200,"##낪":8201,"##밊":8202,"##팈":8203,"##닿":8204,"##켠":8205,"##욹":8206,"##될":8207,"##긇":8208,"##줛":8209,"##놗":8210,"##괏":8211,"##솫":8212,"##뗛":8213,"##몼":8214,"##돇":8215,"##돣":8216,"##뢐":8217,"##홳":8218,"##잓":8219,"##웫":8220,"##룫":8221,"##뺃":8222,"##뗣":8223,"##얻":8224,"##쩜":8225,"##혬":8226,"##쌘":8227,"##멓":8228,"##쉡":8229,"##좁":8230,"##솨":8231,"##쒜":8232,"##줭":8233,"##궃":8234,"##쬐":8235,"##홰":8236,"##끤":8237,"##쀏":8238,"##곁":8239,"##탙":8240,"##욣":8241,"##겡":8242,"##젮":8243,"##왒":8244,"##픳":8245,"##삗":8246,"##탉":8247,"##슁":8248,"##엃":8249,"##맬":8250,"##뺭":8251,"##굔":8252,"##좡":8253,"##굵":8254,"##읷":8255,"##덗":8256,"##셤":8257,"##갰":8258,"##쌜":8259,"##엾":8260,"##둍":8261,"##얐":8262,"##툵":8263,"##콻":8264,"##젧":8265,"##뢱":8266,"##쩅":8267,"##봡":8268,"##댸":8269,"##믓":8270,"##둴":8271,"##헷":8272,"##꺘":8273,"##쩬":8274,"##곈":8275,"##쏙":8276,"##캰":8277,"##뎠":8278,"##펍":8279,"##썻":8280,"##냌":8281,"##밣":8282,"##헑":8283,"##줆":8284,"##쁑":8285,"##똘":8286,"##픨":8287,"##뙈":8288,"##폘":8289,"##툽":8290,"##왑":8291,"##쇅":8292,"##좟":8293,"##쏠":8294,"##횽":8295,"##쫭":8296,"##늪":8297,"##쪨":8298,"##됭":8299,"##뵥":8300,"##쏨":8301,"##읫":8302,"##혻":8303,"##쁶":8304,"##떽":8305,"##훁":8306,"##윾":8307,"##뻡":8308,"##쁨":8309,"##놰":8310,"##긱":8311,"##쬔":8312,"##렡":8313,"##탹":8314,"##꽦":8315,"##뿍":8316,"##귖":8317,"##궺":8318,"##긲":8319,"##깒":8320,"##깛":8321,"##긛":8322,"##싕":8323,"##괼":8324,"##쳡":8325,"##빚":8326,"##귡":8327,"##긮":8328,"##깑":8329,"##씸":8330,"##짼":8331,"##괭":8332,"##챸":8333,"##텄":8334,"##땽":8335,"##쿸":8336,"##칰":8337,"##챱":8338,"##굣":8339,"##얹":8340,"##쥘":8341,"##챕":8342,"##돵":8343,"##켸":8344,"##즑":8345,"##긁":8346,"##븞":8347,"##봊":8348,"##잽":8349,"##뜝":8350,"##훜":8351,"##얍":8352,"##벫":8353,"##맆":8354,"##띔":8355,"##퐐":8356,"##텤":8357,"##쏼":8358,"##쥠":8359,"##몄":8360,"##볓":8361,"##롑":8362,"##뺘":8363,"##녓":8364,"##쬘":8365,"##덿":8366,"##큣":8367,"##돠":8368,"##룔":8369,"##롣":8370,"##켕":8371,"##팉":8372,"##쾡":8373,"##릏":8374,"##땨":8375,"##꽥":8376,"##덫":8377,"##밝":8378,"##풔":8379,"##풮":8380,"##켚":8381,"##둇":8382,"##젹":8383,"##닊":8384,"##쀠":8385,"##볫":8386,"##횩":8387,"##끕":8388,"##뺀":8389,"##뿮":8390,"##뱦":8391,"##솎":8392,"##륍":8393,"##꼮":8394,"##휀":8395,"##왇":8396,"##싄":8397,"##삑":8398,"##윿":8399,"##엓":8400,"##툉":8401,"##꺠":8402,"##볽":8403,"##꺢":8404,"##퇵":8405,"##뀝":8406,"##젏":8407,"##폵":8408,"##숧":8409,"##쥿":8410,"##됐":8411,"##탼":8412,"##늿":8413,"##먕":8414,"##곲":8415,"##읪":8416,"##궶":8417,"##궫":8418,"##궻":8419,"##랤":8420,"##궢":8421,"##긿":8422,"##킄":8423,"##섕":8424,"##켬":8425,"##쁴":8426,"##셧":8427,"##뤵":8428,"##옘":8429,"##픗":8430,"##촥":8431,"##뗶":8432,"##뗵":8433,"##쉼":8434,"##풱":8435,"##쎠":8436,"##삒":8437,"##얭":8438,"##먁":8439,"##떱":8440,"##컄":8441,"##눴":8442,"##봙":8443,"##휙":8444,"##꺆":8445,"##랕":8446,"##잌":8447,"##뿓":8448,"##틉":8449,"##묶":8450,"##릊":8451,"##끨":8452,"##욋":8453,"##멉":8454,"##쨉":8455,"##겍":8456,"##룐":8457,"##빎":8458,"##씰":8459,"##졍":8460,"##퉹":8461,"##꼿":8462,"##됸":8463,"##뻴":8464,"##죈":8465,"##왠":8466,"##뿀":8467,"##푯":8468,"##즹":8469,"##붱":8470,"##쥣":8471,"##콣":8472,"##땍":8473,"##귪":8474,"##궸":8475,"##궼":8476,"##컁":8477,"##뭍":8478,"##룺":8479,"##웤":8480,"##즁":8481,"##풒":8482,"##슽":8483,"##쟛":8484,"##툠":8485,"##퓻":8486,"##틷":8487,"##쑊":8488,"##딯":8489,"##쩧":8490,"##쉠":8491,"##훍":8492,"##봑":8493,"##볈":8494,"##홱":8495,"##짇":8496,"##촾":8497,"##쐐":8498,"##츩":8499,"##땄":8500,"##뗏":8501,"##끅":8502,"##킦":8503,"##끾":8504,"##겿":8505,"##흿":8506,"##켑":8507,"##룅":8508,"##캭":8509,"##멦":8510,"##퇸":8511,"##뿡":8512,"##뭔":8513,"##홁":8514,"##갷":8515,"##붚":8516,"##눞":8517,"##싟":8518,"##끠":8519,"##뫌":8520,"##엮":8521,"##맏":8522,"##륽":8523,"##낻":8524,"##뚬":8525,"##좂":8526,"##뜜":8527,"##빩":8528,"##릣":8529,"##쿜":8530,"##졀":8531,"##괸":8532,"##끊":8533,"##귶":8534,"##쌱":8535,"##뗠":8536,"##듳":8537,"##쏩":8538,"##줜":8539,"##앴":8540,"##퐄":8541,"##닾":8542,"##귬":8543,"##읖":8544,"##홝":8545,"##짰":8546,"##꽌":8547,"##픤":8548,"##맢":8549,"##띨":8550,"##퓍":8551,"##쯩":8552,"##븃":8553,"##쯉":8554,"##쨘":8555,"##앍":8556,"##싶":8557,"##횔":8558,"##윘":8559,"##눤":8560,"##걋":8561,"##졉":8562,"##꾜":8563,"##잤":8564,"##푴":8565,"##뗄":8566,"##쑴":8567,"##칞":8568,"##슆":8569,"##쯪":8570,"##뼝":8571,"##삔":8572,"##뵜":8573,"##핟":8574,"##먗":8575,"##븝":8576,"##춋":8577,"##빖":8578,"##꼳":8579,"##돫":8580,"##큾":8581,"##벖":8582,"##텂":8583,"##팃":8584,"##헗":8585,"##얫":8586,"##뀰":8587,"##샄":8588,"##랼":8589,"##뿎":8590,"##껚":8591,"##큄":8592,"##챡":8593,"##웆":8594,"##웻":8595,"##낲":8596,"##갉":8597,"##좐":8598,"##컫":8599,"##촹":8600,"##떙":8601,"##쉑":8602,"##죰":8603,"##췽":8604,"##퀌":8605,"##짙":8606,"##뚯":8607,"##찧":8608,"##칟":8609,"##풂":8610,"##엫":8611,"##똏":8612,"##횸":8613,"##칯":8614,"##굄":8615,"##늦":8616,"##뷇":8617,"##탰":8618,"##롷":8619,"##튱":8620,"##뤯":8621,"##룱":8622,"##맺":8623,"##딫":8624,"##듟":8625,"##댧":8626,"##댯":8627,"##훽":8628,"##뿁":8629,"##잏":8630,"##봫":8631,"##겴":8632,"##쏫":8633,"##짭":8634,"##툑":8635,"##왷":8636,"##툥":8637,"##걲":8638,"##넽":8639,"##켤":8640,"##맴":8641,"##밬":8642,"##푷":8643,"##삧":8644,"##잋":8645,"##쭛":8646,"##쫜":8647,"##땝":8648,"##쨥":8649,"##얒":8650,"##끜":8651,"##벐":8652,"##툇":8653,"##쟣":8654,"##뎋":8655,"##뒝":8656,"##옮":8657,"##힗":8658,"##빻":8659,"##칽":8660,"##셱":8661,"##돤":8662,"##읓":8663,"##뎜":8664,"##뼜":8665,"##읒":8666,"##탘":8667,"##웜":8668,"##뛩":8669,"##벧":8670,"##갛":8671,"##륷":8672,"##뱉":8673,"##솅":8674,"##췻":8675,"##엪":8676,"##떳":8677,"##엨":8678,"##팎":8679,"##턻":8680,"##맠":8681,"##퍙":8682,"##돩":8683,"##깩":8684,"##럐":8685,"##킅":8686,"##뎻":8687,"##쁐":8688,"##줓":8689,"##쒹":8690,"##촛":8691,"##핧":8692,"##췁":8693,"##쎈":8694,"##슉":8695,"##츺":8696,"##휩":8697,"##짞":8698,"##벍":8699,"##츳":8700,"##쟤":8701,"##뙇":8702,"##뒨":8703,"##폔":8704,"##뺚":8705,"##튝":8706,"##퀑":8707,"##흩":8708,"##핲":8709,"##듧":8710,"##뀠":8711,"##흴":8712,"##쇳":8713,"##뺄":8714,"##싈":8715,"##읠":8716,"##엏":8717,"##픋":8718,"##뛸":8719,"##뤌":8720,"##꾱":8721,"##잍":8722,"##핱":8723,"##떰":8724,"##낯":8725,"##넠":8726,"##쿶":8727,"##튐":8728,"##얺":8729,"##슢":8730,"##쑜":8731,"##윻":8732,"##샜":8733,"##꺌":8734,"##캎":8735,"##뼬":8736,"##녑":8737,"##꽉":8738,"##숎":8739,"##푠":8740,"##죳":8741,"##콬":8742,"##텽":8743,"##풹":8744,"##횞":8745,"##삾":8746,"##졋":8747,"##큅":8748,"##뷫":8749,"##셭":8750,"##놑":8751,"##룍":8752,"##넸":8753,"##쥭":8754,"##땛":8755,"##밻":8756,"##샒":8757,"##삮":8758,"##밐":8759,"##쳣":8760,"##젔":8761,"##몔":8762,"##귱":8763,"##뽱":8764,"##뤀":8765,"##긕":8766,"##뚞":8767,"##뷉":8768,"##넜":8769,"##긑":8770,"##믁":8771,"##쥴":8772,"##죤":8773,"##맻":8774,"##뮻":8775,"##뭋":8776,"##쉿":8777,"##흓":8778,"##돘":8779,"##돿":8780,"##촡":8781,"##챵":8782,"##낟":8783,"##묑":8784,"##뗻":8785,"##띧":8786,"##눝":8787,"##웳":8788,"##쉏":8789,"##큭":8790,"##튮":8791,"##섈":8792,"##죵":8793,"##뾲":8794,"##갭":8795,"##놘":8796,"##뚧":8797,"##뺼":8798,"##돨":8799,"##뜷":8800,"##뙗":8801,"##퀙":8802,"##뉠":8803,"##쵼":8804,"##헯":8805,"##엷":8806,"##냟":8807,"##똟":8808,"##횦":8809,"##춈":8810,"##괳":8811,"##욺":8812,"##캢":8813,"##쥉":8814,"##앆":8815,"##풑":8816,"##밌":8817,"##쿱":8818,"##쳔":8819,"##꼍":8820,"##몯":8821,"##뗐":8822,"##큽":8823,"##띈":8824,"##츀":8825,"##쑼":8826,"##뇻":8827,"##뇾":8828,"##긞":8829,"##긏":8830,"##귺":8831,"##돖":8832,"##싮":8833,"##밦":8834,"##푱":8835,"##랃":8836,"##곖":8837,"##쵮":8838,"##콦":8839,"##믱":8840,"##뉻":8841,"##겕":8842,"##텼":8843,"##걕":8844,"##꿱":8845,"##뚮":8846,"##쐙":8847,"##뽟":8848,"##혯":8849,"##쁌":8850,"##쎼":8851,"##큉":8852,"##꺐":8853,"##쮹":8854,"##퉱":8855,"##끍":8856,"##휽":8857,"##룳":8858,"##놏":8859,"##콫":8860,"##냬":8861,"##삵":8862,"##찎":8863,"##햟":8864,"##됬":8865,"##뚥":8866,"##왉":8867,"##닳":8868,"##쁅":8869,"##뺡":8870,"##뗡":8871,"##뷀":8872,"##뤕":8873,"##뱨":8874,"##뜵":8875,"##닼":8876,"##릯":8877,"##쬭":8878,"##뇓":8879,"##쁟":8880,"##싐":8881,"##꿝":8882,"##괆":8883,"##뼸":8884,"##븟":8885,"##옠":8886,"##뷓":8887,"##둅":8888,"##흟":8889,"##꽇":8890,"##늕":8891,"##굠":8892,"##싁":8893,"##끵":8894,"##궖":8895,"##궋":8896,"##췍":8897,"##힁":8898,"##툿":8899,"##뤨":8900,"##묜":8901,"##뒿":8902,"##껨":8903,"##얬":8904,"##녯":8905,"##싫":8906,"##뎂":8907,"##닶":8908,"##쨰":8909,"##횝":8910,"##늰":8911,"##뒁":8912,"##찷":8913,"##맓":8914,"##싧":8915,"##댋":8916,"##삷":8917,"##핿":8918,"##줊":8919,"##셟":8920,"##섧":8921,"##갊":8922,"##핣":8923,"##닚":8924,"##닧":8925,"##쏟":8926,"##옺":8927,"##븓":8928,"##욀":8929,"##랖":8930,"##샢":8931,"##죗":8932,"##꺵":8933,"##뱁":8934,"##헱":8935,"##롻":8936,"##촙":8937,"##벓":8938,"##셷":8939,"##엗":8940,"##옿":8941,"##젊":8942,"##앝":8943,"##왂":8944,"##챨":8945,"##듫":8946,"##댬":8947,"##듹":8948,"##먄":8949,"##쬰":8950,"##뇐":8951,"##읃":8952,"##췬":8953,"##랆":8954,"##뉩":8955,"##둉":8956,"##뤙":8957,"##웟":8958,"##늏":8959,"##쉭":8960,"##곂":8961,"##쬷":8962,"##홅":8963,"##욿":8964,"##쌻":8965,"##풇":8966,"##맇":8967,"##뚸":8968,"##껸":8969,"##둗":8970,"##찓":8971,"##뭘":8972,"##돜":8973,"##띡":8974,"##샻":8975,"##씃":8976,"##퉷":8977,"##젋":8978,"##릵":8979,"##씍":8980,"##훳":8981,"##챞":8982,"##깰":8983,"##곺":8984,"##뫃":8985,"##뚷":8986,"##붖":8987,"##폯":8988,"##랰":8989,"##셣":8990,"##졈":8991,"##횐":8992,"##벋":8993,"##롫":8994,"##웸":8995,"##돡":8996,"##톹":8997,"##퐆":8998,"##팂":8999,"##덦":9000,"##춱":9001,"##좸":9002,"##쬽":9003,"##섣":9004,"##꽐":9005,"##튭":9006,"##횅":9007,"##썀":9008,"##큮":9009,"##둩":9010,"##잫":9011,"##뙳":9012,"##홂":9013,"##렞":9014,"##럇":9015,"##닜":9016,"##옅":9017,"##벲":9018,"##쏀":9019,"##퀠":9020,"##졬":9021,"##숕":9022,"##몊":9023,"##땩":9024,"##뿨":9025,"##귯":9026,"##뚀":9027,"##챝":9028,"##뫀":9029,"##튺":9030,"##죨":9031,"##얅":9032,"##쭀":9033,"##껒":9034,"##큔":9035,"##씤":9036,"##듄":9037,"##믌":9038,"##휫":9039,"##쑁":9040,"##톻":9041,"##뀪":9042,"##덯":9043,"##뇩":9044,"##죔":9045,"##튤":9046,"##똬":9047,"##엊":9048,"##빋":9049,"##좊":9050,"##찝":9051,"##곻":9052,"##꺙":9053,"으로":9054,"에서":9055,"20":9056,"한다":9057,"지만":9058,"에게":9059,"201":9060,"는데":9061,"때문":9062,"19":9063,"까지":9064,"##00":9065,"된다":9066,"라고":9067,"라는":9068,"다고":9069,"면서":9070,"경우":9071,"10":9072,"사용":9073,"다는":9074,"공격":9075,"아니":9076,"이후":9077,"자신":9078,"##레이":9079,"사람":9080,"그리":9081,"정도":9082,"부터":9083,"으며":9084,"##스트":9085,"가능":9086,"다른":9087,"이나":9088,"12":9089,"200":9090,"보다":9091,"등장":9092,"는다":9093,"대한":9094,"11":9095,"아이":9096,"그리고":9097,"게임":9098,"하나":9099,"경기":9100,"위해":9101,"해서":9102,"다가":9103,"##er":9104,"사실":9105,"시간":9106,"그러":9107,"사이":9108,"시작":9109,"일본":9110,"이상":9111,"이름":9112,"모습":9113,"함께":9114,"##니다":9115,"##지만":9116,"상대":9117,"한국":9118,"문제":9119,"15":9120,"나오":9121,"거나":9122,"다시":9123,"어서":9124,"##in":9125,"하지만":9126,"프로":9127,"##스터":9128,"만들":9129,"생각":9130,"으면":9131,"또한":9132,"들어":9133,"따라":9134,"가지":9135,"가장":9136,"캐릭":9137,"당시":9138,"##대로":9139,"시즌":9140,"처럼":9141,"캐릭터":9142,"플레이":9143,"18":9144,"##on":9145,"능력":9146,"##이트":9147,"모두":9148,"상황":9149,"상태":9150,"모든":9151,"추가":9152,"결국":9153,"세계":9154,"선수":9155,"##an":9156,"16":9157,"##or":9158,"스킬":9159,"카드":9160,"##미지":9161,"현재":9162,"보여":9163,"다만":9164,"많이":9165,"보이":9166,"전투":9167,"효과":9168,"다음":9169,"30":9170,"그러나":9171,"그런":9172,"존재":9173,"지역":9174,"으나":9175,"##으며":9176,"13":9177,"미국":9178,"시리":9179,"14":9180,"그래":9181,"199":9182,"##라이":9183,"매우":9184,"##ar":9185,"##으나":9186,"라이":9187,"나온":9188,"17":9189,"대학":9190,"상당":9191,"레벨":9192,"기록":9193,"##he":9194,"시리즈":9195,"##인다":9196,"##at":9197,"스타":9198,"기술":9199,"대해":9200,"레이":9201,"다면":9202,"물론":9203,"무기":9204,"##리아":9205,"이용":9206,"시키":9207,"처음":9208,"이유":9209,"자체":9210,"해야":9211,"방송":9212,"그렇":9213,"100":9214,"이런":9215,"같이":9216,"아닌":9217,"필요":9218,"영화":9219,"실제":9220,"여러":9221,"해당":9222,"25":9223,"피해":9224,"마법":9225,"주인":9226,"통해":9227,"여기":9228,"일반":9229,"돌아":9230,"거의":9231,"##린다":9232,"역시":9233,"바로":9234,"##리스":9235,"리그":9236,"인지":9237,"학교":9238,"인데":9239,"사건":9240,"##이스":9241,"##en":9242,"이야":9243,"특히":9244,"관련":9245,"##거리":9246,"기본":9247,"2017":9248,"부분":9249,"##이지":9250,"위치":9251,"##진다":9252,"진행":9253,"##ou":9254,"아무":9255,"방어":9256,"2018":9257,"##부분":9258,"이야기":9259,"대표":9260,"떨어":9261,"국가":9262,"는지":9263,"없이":9264,"##지막":9265,"못하":9266,"제작":9267,"활동":9268,"인간":9269,"달리":9270,"에선":9271,"동안":9272,"작품":9273,"증가":9274,"대부분":9275,"아서":9276,"##al":9277,"마지막":9278,"본인":9279,"2019":9280,"일부":9281,"계속":9282,"자기":9283,"버리":9284,"##시아":9285,"21":9286,"서울":9287,"라면":9288,"내용":9289,"만큼":9290,"##es":9291,"해도":9292,"인해":9293,"주인공":9294,"2016":9295,"감독":9296,"##어나":9297,"보인다":9298,"참고":9299,"속도":9300,"관계":9301,"50":9302,"##전히":9303,"중국":9304,"대신":9305,"수준":9306,"이전":9307,"그냥":9308,"올라":9309,"비슷":9310,"어느":9311,"전쟁":9312,"지금":9313,"타이":9314,"우리":9315,"##한다":9316,"성공":9317,"22":9318,"기준":9319,"인물":9320,"습니다":9321,"도시":9322,"198":9323,"상당히":9324,"공격력":9325,"그녀":9326,"24":9327,"마다":9328,"도록":9329,"최대":9330,"기사":9331,"##민국":9332,"결과":9333,"지원":9334,"그대로":9335,"평가":9336,"시절":9337,"너무":9338,"므로":9339,"보스":9340,"제외":9341,"##it":9342,"자리":9343,"##토리":9344,"연구":9345,"##버지":9346,"의미":9347,"의해":9348,"나타":9349,"소속":9350,"이미":9351,"실제로":9352,"승리":9353,"직접":9354,"전체":9355,"새로":9356,"2015":9357,"영상":9358,"대한민국":9359,"23":9360,"유닛":9361,"원래":9362,"체력":9363,"여자":9364,"##부터":9365,"로서":9366,"언급":9367,"대로":9368,"개발":9369,"데미지":9370,"멤버":9371,"##ing":9372,"유저":9373,"알려":9374,"##st":9375,"##le":9376,"##학교":9377,"##ic":9378,"이동":9379,"마음":9380,"설정":9381,"40":9382,"정보":9383,"문서":9384,"다르":9385,"방법":9386,"선택":9387,"##다가":9388,"애니":9389,"##re":9390,"과거":9391,"이것":9392,"##운드":9393,"몬스터":9394,"으니":9395,"머리":9396,"들어가":9397,"이어":9398,"출연":9399,"성우":9400,"친구":9401,"포함":9402,"나가":9403,"차이":9404,"##랜드":9405,"##dd":9406,"위한":9407,"##이션":9408,"##라도":9409,"나온다":9410,"대상":9411,"설명":9412,"엄청":9413,"##가지":9414,"사회":9415,"바람":9416,"플레이어":9417,"장면":9418,"나왔":9419,"준다":9420,"우승":9421,"최고":9422,"여성":9423,"버전":9424,"사랑":9425,"비해":9426,"소리":9427,"프리":9428,"아버지":9429,"지나":9430,"##이드":9431,"동시":9432,"공식":9433,"유명":9434,"시대":9435,"당하":9436,"2014":9437,"만든":9438,"배우":9439,"발생":9440,"이루":9441,"영향":9442,"사망":9443,"주로":9444,"거리":9445,"대회":9446,"려고":9447,"프랑":9448,"##주의":9449,"남자":9450,"결정":9451,"조금":9452,"발매":9453,"26":9454,"주장":9455,"출신":9456,"아이템":9457,"##ff":9458,"나라":9459,"초반":9460,"000":9461,"이러":9462,"인터":9463,"학생":9464,"##어난":9465,"전부":9466,"버스":9467,"공개":9468,"사라":9469,"마이":9470,"역사":9471,"28":9472,"운영":9473,"서로":9474,"유지":9475,"파이":9476,"스토리":9477,"모드":9478,"##el":9479,"한다는":9480,"27":9481,"구성":9482,"대사":9483,"파괴":9484,"제대로":9485,"##am":9486,"했으나":9487,"정부":9488,"방식":9489,"그것":9490,"음악":9491,"강화":9492,"31":9493,"자주":9494,"중요":9495,"아직":9496,"후반":9497,"이때":9498,"또는":9499,"월드":9500,"the":9501,"과정":9502,"형태":9503,"최종":9504,"이렇":9505,"나이":9506,"정치":9507,"역할":9508,"독일":9509,"시스":9510,"최초":9511,"##벤트":9512,"노래":9513,"대전":9514,"이벤트":9515,"시켜":9516,"##om":9517,"강력":9518,"마리":9519,"모르":9520,"스테":9521,"정말":9522,"##른다":9523,"변경":9524,"회복":9525,"##머니":9526,"##이도":9527,"기존":9528,"어떤":9529,"##우스":9530,"그런데":9531,"드라":9532,"영국":9533,"보통":9534,"드래":9535,"비교":9536,"소환":9537,"라도":9538,"정신":9539,"마찬":9540,"마찬가지":9541,"##la":9542,"가진":9543,"조선":9544,"인기":9545,"당연":9546,"특성":9547,"부르":9548,"##is":9549,"성능":9550,"##프트":9551,"못했":9552,"확률":9553,"속성":9554,"마을":9555,"행동":9556,"2013":9557,"슈퍼":9558,"오히":9559,"노선":9560,"모양":9561,"오히려":9562,"##리어":9563,"아래":9564,"자유":9565,"아들":9566,"교육":9567,"197":9568,"발견":9569,"차량":9570,"바이":9571,"라인":9572,"29":9573,"수록":9574,"게다가":9575,"따르":9576,"32":9577,"부족":9578,"특수":9579,"프랑스":9580,"##et":9581,"이번":9582,"00":9583,"대학교":9584,"확인":9585,"그래서":9586,"성격":9587,"문화":9588,"유일":9589,"활약":9590,"차지":9591,"새로운":9592,"했으며":9593,"##ol":9594,"가까":9595,"2012":9596,"관리":9597,"장비":9598,"만나":9599,"##ion":9600,"버렸":9601,"영웅":9602,"모델":9603,"그래도":9604,"일단":9605,"입장":9606,"아예":9607,"찾아":9608,"생산":9609,"스트":9610,"시스템":9611,"이렇게":9612,"어려":9613,"제국":9614,"고등":9615,"다이":9616,"심지":9617,"##간다":9618,"시킨":9619,"심지어":9620,"먼저":9621,"경찰":9622,"반대":9623,"계획":9624,"주변":9625,"##레이드":9626,"넘어":9627,"운동":9628,"2010":9629,"어야":9630,"앨범":9631,"##디오":9632,"자동":9633,"거기":9634,"완전히":9635,"조건":9636,"드러":9637,"내려":9638,"우주":9639,"기간":9640,"사진":9641,"바뀌":9642,"힘들":9643,"##레스":9644,"난이도":9645,"부대":9646,"개인":9647,"적용":9648,"발동":9649,"기능":9650,"어떻":9651,"##ow":9652,"지구":9653,"건물":9654,"60":9655,"감소":9656,"위원":9657,"##nd":9658,"km":9659,"##20":9660,"축구":9661,"##통령":9662,"자세":9663,"##il":9664,"##ig":9665,"##므로":9666,"중심":9667,"한다고":9668,"##인트":9669,"##ed":9670,"실패":9671,"이제":9672,"메이":9673,"애니메":9674,"하이":9675,"세트":9676,"혹은":9677,"중앙":9678,"선거":9679,"라며":9680,"현대":9681,"35":9682,"으로서":9683,"회사":9684,"덕분":9685,"초기":9686,"전혀":9687,"얼굴":9688,"데이":9689,"작가":9690,"시기":9691,"표현":9692,"따라서":9693,"국내":9694,"원작":9695,"대통령":9696,"보내":9697,"패배":9698,"위해서":9699,"민주":9700,"처리":9701,"오브":9702,"순간":9703,"##너지":9704,"TV":9705,"동일":9706,"##버스":9707,"지속":9708,"프로그":9709,"드라마":9710,"반응":9711,"지방":9712,"합니다":9713,"도움":9714,"얼마":9715,"다니":9716,"더라도":9717,"인정":9718,"참여":9719,"기관":9720,"애니메이션":9721,"출시":9722,"##니아":9723,"명칭":9724,"##ac":9725,"판매":9726,"담당":9727,"데뷔":9728,"##as":9729,"##없이":9730,"##BS":9731,"정확":9732,"불리":9733,"요구":9734,"획득":9735,"196":9736,"##나마":9737,"##리카":9738,"굉장":9739,"스페":9740,"하루":9741,"생활":9742,"of":9743,"그렇게":9744,"시점":9745,"2011":9746,"작중":9747,"다양":9748,"발표":9749,"밖에":9750,"후보":9751,"설치":9752,"그룹":9753,"상승":9754,"진출":9755,"선발":9756,"아군":9757,"구조":9758,"기억":9759,"항목":9760,"Lv":9761,"영어":9762,"만화":9763,"가격":9764,"움직":9765,"단계":9766,"그림":9767,"##소드":9768,"특별":9769,"마스터":9770,"물리":9771,"실력":9772,"가져":9773,"##ve":9774,"그나마":9775,"드래곤":9776,"아마":9777,"에피":9778,"어도":9779,"01":9780,"조차":9781,"야구":9782,"다며":9783,"시장":9784,"The":9785,"가족":9786,"사고":9787,"범위":9788,"특징":9789,"경제":9790,"려는":9791,"시청":9792,"방향":9793,"##소리":9794,"연기":9795,"대체":9796,"패치":9797,"경험":9798,"계약":9799,"고려":9800,"수비":9801,"빠르":9802,"##ot":9803,"나와":9804,"밝혀":9805,"아르":9806,"확실":9807,"참가":9808,"국제":9809,"디자":9810,"에피소드":9811,"500":9812,"세대":9813,"발사":9814,"폭발":9815,"##로스":9816,"브라":9817,"묘사":9818,"싸우":9819,"로부터":9820,"##스크":9821,"주의":9822,"한테":9823,"프로그램":9824,"어린":9825,"고등학교":9826,"80":9827,"##비스":9828,"활용":9829,"2000":9830,"어떻게":9831,"라서":9832,"죽이":9833,"상위":9834,"결혼":9835,"어머니":9836,"무시":9837,"제한":9838,"비판":9839,"목적":9840,"더욱":9841,"준비":9842,"중간":9843,"각각":9844,"##ad":9845,"37":9846,"대해서":9847,"보호":9848,"##어지":9849,"러시아":9850,"45":9851,"아야":9852,"아주":9853,"버프":9854,"챔피":9855,"라운드":9856,"굉장히":9857,"이미지":9858,"패턴":9859,"국민":9860,"오리":9861,"어디":9862,"히로":9863,"위험":9864,"진짜":9865,"참조":9866,"세이":9867,"어렵":9868,"대미지":9869,"생명":9870,"조직":9871,"싸움":9872,"조사":9873,"단순":9874,"듯이":9875,"과학":9876,"여담":9877,"크리스":9878,"타입":9879,"세력":9880,"현실":9881,"파워":9882,"St":9883,"안타":9884,"시도":9885,"소모":9886,"제공":9887,"주요":9888,"구간":9889,"194":9890,"유리":9891,"불구":9892,"전문":9893,"지하":9894,"유럽":9895,"일으":9896,"연속":9897,"부산":9898,"세기":9899,"나머":9900,"혼자":9901,"못한":9902,"순위":9903,"논란":9904,"##러운":9905,"조합":9906,"한정":9907,"포인트":9908,"사실상":9909,"엄청난":9910,"기에":9911,"약간":9912,"으므로":9913,"나머지":9914,"동료":9915,"##id":9916,"70":9917,"나무":9918,"분위":9919,"성장":9920,"09":9921,"떨어지":9922,"버린다":9923,"##ay":9924,"무장":9925,"여전히":9926,"보였":9927,"디자인":9928,"분위기":9929,"당연히":9930,"취급":9931,"항공":9932,"출전":9933,"90":9934,"이해":9935,"올리":9936,"트리":9937,"학년":9938,"##스로":9939,"일정":9940,"지도":9941,"규모":9942,"등급":9943,"훨씬":9944,"FC":9945,"##ER":9946,"투수":9947,"소설":9948,"##나라":9949,"한편":9950,"예정":9951,"인구":9952,"운행":9953,"블랙":9954,"성적":9955,"##어났":9956,"강한":9957,"부상":9958,"자연":9959,"엔딩":9960,"기타":9961,"살아":9962,"삼성":9963,"계열":9964,"mm":9965,"02":9966,"해결":9967,"2009":9968,"03":9969,"사업":9970,"##ch":9971,"스테이지":9972,"센터":9973,"였으며":9974,"방면":9975,"연결":9976,"미션":9977,"300":9978,"기대":9979,"##이크":9980,"방영":9981,"최근":9982,"의견":9983,"였으나":9984,"연합":9985,"수정":9986,"##us":9987,"48":9988,"으면서":9989,"변화":9990,"도망":9991,"종류":9992,"자면":9993,"##ir":9994,"이탈":9995,"표기":9996,"잘못":9997,"전용":9998,"05":9999,"퀘스트":10000,"배치":10001,"195":10002,"추정":10003,"33":10004,"for":10005,"##려서":10006,"2008":10007,"발전":10008,"소녀":10009,"36":10010,"08":10011,"##난다":10012,"대화":10013,"거대":10014,"보여준":10015,"정상":10016,"직업":10017,"시켰":10018,"안정":10019,"07":10020,"##ur":10021,"도중":10022,"메인":10023,"죽음":10024,"엔진":10025,"충분":10026,"스스로":10027,"종료":10028,"나타나":10029,"##스타":10030,"작전":10031,"##티브":10032,"수상":10033,"챔피언":10034,"세상":10035,"이라":10036,"나중":10037,"오래":10038,"독립":10039,"일행":10040,"비행":10041,"쓰러":10042,"요소":10043,"오른":10044,"느낌":10045,"마저":10046,"당신":10047,"입니다":10048,"HP":10049,"보상":10050,"에너지":10051,"당했":10052,"만드":10053,"방어력":10054,"달성":10055,"수도":10056,"비롯":10057,"전설":10058,"공연":10059,"##od":10060,"미사":10061,"무리":10062,"06":10063,"동물":10064,"배틀":10065,"##러스":10066,"##BC":10067,"부활":10068,"특정":10069,"장착":10070,"훈련":10071,"스피":10072,"절대":10073,"th":10074,"스카":10075,"졸업":10076,"철도":10077,"유니":10078,"버린":10079,"##im":10080,"##자기":10081,"기업":10082,"전기":10083,"다운":10084,"포켓":10085,"위기":10086,"지휘":10087,"행정":10088,"싱글":10089,"번역":10090,"번호":10091,"근접":10092,"##란드":10093,"더불":10094,"아이돌":10095,"제목":10096,"건설":10097,"04":10098,"관심":10099,"만약":10100,"##아들":10101,"미래":10102,"황제":10103,"내부":10104,"남성":10105,"반면":10106,"요리":10107,"올림":10108,"득점":10109,"##un":10110,"충격":10111,"점수":10112,"##ut":10113,"##다는":10114,"신경":10115,"SK":10116,"시험":10117,"전차":10118,"##리오":10119,"군사":10120,"돌아가":10121,"목소리":10122,"목표":10123,"강하":10124,"홈런":10125,"지지":10126,"소재":10127,"2007":10128,"전사":10129,"##운데":10130,"##데이트":10131,"업데이트":10132,"정체":10133,"you":10134,"공간":10135,"##지션":10136,"똑같":10137,"했었":10138,"가끔":10139,"무대":10140,"##어들":10141,"스파":10142,"시설":10143,"사이트":10144,"타격":10145,"로마":10146,"오늘":10147,"34":10148,"##인물":10149,"도로":10150,"일어나":10151,"배경":10152,"링크":10153,"지정":10154,"장소":10155,"각성":10156,"전작":10157,"누구":10158,"서비스":10159,"공중":10160,"항상":10161,"날아":10162,"##ro":10163,"최소":10164,"교체":10165,"다리":10166,"그만":10167,"전국":10168,"파티":10169,"분노":10170,"쓰이":10171,"##어진":10172,"##너스":10173,"생존":10174,"작곡":10175,"북한":10176,"등장인물":10177,"정식":10178,"예상":10179,"##수록":10180,"자랑":10181,"의원":10182,"부여":10183,"클래":10184,"생긴":10185,"작업":10186,"무엇":10187,"포켓몬":10188,"사냥":10189,"##디어":10190,"분류":10191,"종족":10192,"스포":10193,"으로써":10194,"한데":10195,"인도":10196,"악마":10197,"##ag":10198,"##igh":10199,"소개":10200,"야마":10201,"38":10202,"한다면":10203,"인사":10204,"스타일":10205,"아프":10206,"비밀":10207,"##ver":10208,"엘리":10209,"단체":10210,"얘기":10211,"케이":10212,"애초":10213,"인터뷰":10214,"괜찮":10215,"가수":10216,"필드":10217,"##ec":10218,"오르":10219,"결승":10220,"##동안":10221,"cm":10222,"판정":10223,"빠른":10224,"크리":10225,"이끌":10226,"기계":10227,"클리어":10228,"75":10229,"목록":10230,"연출":10231,"각종":10232,"외국":10233,"카이":10234,"하늘":10235,"이외":10236,"타카":10237,"명령":10238,"파일":10239,"가리":10240,"##ent":10241,"제일":10242,"2006":10243,"초등":10244,"아파":10245,"기체":10246,"병력":10247,"지상":10248,"카운":10249,"로봇":10250,"개념":10251,"55":10252,"전반":10253,"확정":10254,"기동":10255,"in":10256,"교통":10257,"불러":10258,"으려":10259,"정작":10260,"193":10261,"건담":10262,"레어":10263,"비용":10264,"별로":10265,"##ak":10266,"화력":10267,"##인지":10268,"장갑":10269,"올림픽":10270,"수행":10271,"군대":10272,"니까":10273,"가르":10274,"사항":10275,"표시":10276,"크기":10277,"##다고":10278,"이게":10279,"가운데":10280,"프레":10281,"따로":10282,"인식":10283,"시티":10284,"행위":10285,"사격":10286,"수치":10287,"경쟁":10288,"라이브":10289,"##해서":10290,"떠나":10291,"2020":10292,"##라인":10293,"사거리":10294,"to":10295,"##um":10296,"알아":10297,"인가":10298,"아카":10299,"가문":10300,"기반":10301,"변신":10302,"갑자기":10303,"저항":10304,"감정":10305,"이걸":10306,"나름":10307,"포지션":10308,"##젝트":10309,"이기":10310,"마치":10311,"진화":10312,"이탈리아":10313,"달려":10314,"완전":10315,"평균":10316,"왕국":10317,"아키":10318,"단점":10319,"집중":10320,"인천":10321,"보유":10322,"교수":10323,"나올":10324,"근처":10325,"통합":10326,"지키":10327,"당한":10328,"기회":10329,"병원":10330,"vs":10331,"직전":10332,"의하":10333,"던전":10334,"노력":10335,"임무":10336,"지난":10337,"냐고":10338,"빠져":10339,"의식":10340,"아도":10341,"코스":10342,"자원":10343,"전자":10344,"특이":10345,"국회":10346,"설립":10347,"탈출":10348,"##화국":10349,"언제":10350,"정의":10351,"오버":10352,"압도":10353,"##르트":10354,"##ST":10355,"바라":10356,"이닝":10357,"베이":10358,"월드컵":10359,"부모":10360,"단어":10361,"다크":10362,"부정":10363,"환경":10364,"##em":10365,"고양":10366,"현상":10367,"##ub":10368,"정리":10369,"사례":10370,"잠시":10371,"사정":10372,"##비아":10373,"판단":10374,"효율":10375,"시전":10376,"스러운":10377,"제품":10378,"지켜":10379,"이쪽":10380,"생기":10381,"극장":10382,"치명":10383,"일러":10384,"로드":10385,"본래":10386,"달라":10387,"가까운":10388,"기다":10389,"##말로":10390,"주제":10391,"무슨":10392,"촬영":10393,"아스":10394,"파트":10395,"더니":10396,"##000":10397,"삭제":10398,"상관":10399,"##르크":10400,"의외":10401,"##라스":10402,"주문":10403,"위원회":10404,"전력":10405,"동생":10406,"고속":10407,"이건":10408,"원인":10409,"주민":10410,"대구":10411,"여행":10412,"물건":10413,"제거":10414,"지배":10415,"강제":10416,"발언":10417,"소련":10418,"연습":10419,"치료":10420,"병사":10421,"##어로":10422,"포기":10423,"스코":10424,"스럽":10425,"골드":10426,"위력":10427,"요시":10428,"도전":10429,"2005":10430,"전개":10431,"끝나":10432,"이하":10433,"노트":10434,"저지":10435,"역대":10436,"책임":10437,"해군":10438,"중학교":10439,"기념":10440,"##요일":10441,"사무":10442,"올라가":10443,"도입":10444,"정책":10445,"시킬":10446,"봐도":10447,"점프":10448,"나이트":10449,"완성":10450,"복귀":10451,"실험":10452,"##ight":10453,"화면":10454,"이르":10455,"42":10456,"루트":10457,"고정":10458,"려면":10459,"공주":10460,"도쿄":10461,"살인":10462,"유사":10463,"레드":10464,"바꾸":10465,"의사":10466,"음식":10467,"41":10468,"##학생":10469,"페이":10470,"##트리":10471,"##야마":10472,"별명":10473,"바다":10474,"던지":10475,"받아들":10476,"차원":10477,"직후":10478,"선생":10479,"이적":10480,"히어로":10481,"불가":10482,"다수":10483,"사기":10484,"밝혔":10485,"중반":10486,"구하":10487,"39":10488,"티어":10489,"전략":10490,"히트":10491,"어둠":10492,"밴드":10493,"분명":10494,"마나":10495,"공동":10496,"도착":10497,"2004":10498,"##무리":10499,"무려":10500,"미니":10501,"##모토":10502,"접근":10503,"언어":10504,"녀석":10505,"가치":10506,"제도":10507,"EX":10508,"관한":10509,"LG":10510,"에게서":10511,"정당":10512,"으로부터":10513,"은데":10514,"오프":10515,"회피":10516,"추천":10517,"타임":10518,"조종":10519,"정규":10520,"사상":10521,"시민":10522,"대기":10523,"밀리":10524,"예전":10525,"##ce":10526,"확장":10527,"아파트":10528,"신체":10529,"고자":10530,"##루스":10531,"##그레이드":10532,"업그레이드":10533,"생겼":10534,"마사":10535,"구매":10536,"##AR":10537,"##드시":10538,"연장":10539,"롯데":10540,"리더":10541,"자료":10542,"랭크":10543,"이곳":10544,"반드시":10545,"폭탄":10546,"##os":10547,"투표":10548,"탈락":10549,"타이틀":10550,"인터넷":10551,"부탁":10552,"어요":10553,"장치":10554,"단지":10555,"##다니":10556,"##시마":10557,"학원":10558,"완벽":10559,"크로":10560,"라이트":10561,"미사일":10562,"종교":10563,"44":10564,"노리":10565,"우선":10566,"##ri":10567,"일러스트":10568,"소유":10569,"형식":10570,"해외":10571,"고대":10572,"##AN":10573,"구역":10574,"장점":10575,"사령":10576,"최강":10577,"데스":10578,"심각":10579,"산업":10580,"뛰어난":10581,"아내":10582,"##ula":10583,"Ch":10584,"금지":10585,"하드":10586,"##ON":10587,"##역시":10588,"도와":10589,"추측":10590,"다루":10591,"버그":10592,"실시":10593,"올려":10594,"No":10595,"자마":10596,"위키":10597,"마무리":10598,"##ap":10599,"43":10600,"느끼":10601,"99":10602,"대장":10603,"클럽":10604,"몇몇":10605,"그린":10606,"공포":10607,"가사":10608,"##져서":10609,"노동":10610,"##and":10611,"##이치":10612,"2002":10613,"연재":10614,"가드":10615,"구분":10616,"st":10617,"검사":10618,"달러":10619,"범죄":10620,"합류":10621,"점점":10622,"시킨다":10623,"서버":10624,"로스":10625,"조정":10626,"요청":10627,"보여준다":10628,"이사":10629,"행사":10630,"##이어":10631,"차례":10632,"##트라":10633,"form":10634,"레인":10635,"옵션":10636,"맞추":10637,"재료":10638,"보병":10639,"그야":10640,"##러리":10641,"조작":10642,"선정":10643,"선언":10644,"수많":10645,"마법사":10646,"다소":10647,"걸리":10648,"전통":10649,"교회":10650,"타자":10651,"걱정":10652,"프로젝트":10653,"kg":10654,"그리스":10655,"종종":10656,"개그":10657,"47":10658,"스포츠":10659,"46":10660,"데이터":10661,"51":10662,"191":10663,"좋아":10664,"컴퓨":10665,"개월":10666,"암살":10667,"부하":10668,"광고":10669,"형제":10670,"마르":10671,"formula":10672,"열차":10673,"빨리":10674,"성향":10675,"뉴스":10676,"대중":10677,"개최":10678,"평범":10679,"##나이":10680,"이라고":10681,"내리":10682,"자마자":10683,"KBS":10684,"포스":10685,"인한":10686,"##조건":10687,"그야말로":10688,"실점":10689,"한계":10690,"스페인":10691,"구단":10692,"재미":10693,"채널":10694,"대결":10695,"##아내":10696,"설계":10697,"코드":10698,"##ter":10699,"거부":10700,"통신":10701,"언론":10702,"아무리":10703,"워낙":10704,"생물":10705,"다행":10706,"비중":10707,"보조":10708,"복수":10709,"종합":10710,"알려져":10711,"행성":10712,"컴퓨터":10713,"민족":10714,"기지":10715,"디스":10716,"and":10717,"전화":10718,"높이":10719,"한글":10720,"무한":10721,"투입":10722,"개봉":10723,"해석":10724,"무조건":10725,"본격":10726,"영혼":10727,"에이":10728,"냐는":10729,"그걸":10730,"운용":10731,"어려운":10732,"모자":10733,"굳이":10734,"##ul":10735,"MA":10736,"평소":10737,"정확히":10738,"실수":10739,"회장":10740,"원정":10741,"광주":10742,"##IN":10743,"걸로":10744,"지적":10745,"모아":10746,"소년":10747,"##타임":10748,"연주":10749,"지명":10750,"와중":10751,"##무라":10752,"인상":10753,"1000":10754,"위협":10755,"미드":10756,"박사":10757,"2003":10758,"회의":10759,"상징":10760,"충분히":10761,"##op":10762,"등록":10763,"는가":10764,"사태":10765,"집단":10766,"대형":10767,"가정":10768,"대응":10769,"카메":10770,"그럼":10771,"대비":10772,"보너스":10773,"터미":10774,"넘어가":10775,"아웃":10776,"자동차":10777,"소비":10778,"##ck":10779,"전원":10780,"보컬":10781,"체제":10782,"공사":10783,"페르":10784,"시청자":10785,"##뜨리":10786,"##로드":10787,"태양":10788,"특유":10789,"희생":10790,"150":10791,"비하":10792,"조각":10793,"플래":10794,"가면":10795,"개조":10796,"모른다":10797,"맞춰":10798,"65":10799,"##FA":10800,"군단":10801,"##자리":10802,"##ation":10803,"무사":10804,"편성":10805,"열린":10806,"봉인":10807,"해졌":10808,"거두":10809,"된다는":10810,"##리트":10811,"여름":10812,"MBC":10813,"마력":10814,"##니스":10815,"SP":10816,"##드리":10817,"일종":10818,"기자":10819,"##로그":10820,"##ra":10821,"아라":10822,"192":10823,"육군":10824,"앞서":10825,"간단":10826,"발음":10827,"네이":10828,"장군":10829,"공항":10830,"들어오":10831,"스크":10832,"생성":10833,"통과":10834,"얼마나":10835,"##일러":10836,"##의원":10837,"시나":10838,"분리":10839,"움직이":10840,"방문":10841,"64":10842,"오리지":10843,"II":10844,"##다면":10845,"장르":10846,"동맹":10847,"장기":10848,"오랜":10849,"바르":10850,"함정":10851,"반복":10852,"고양이":10853,"서술":10854,"##튜브":10855,"소식":10856,"의도":10857,"전환":10858,"사쿠":10859,"펼치":10860,"빼앗":10861,"분야":10862,"디지":10863,"로써":10864,"근데":10865,"52":10866,"불과":10867,"유튜브":10868,"세요":10869,"가깝":10870,"바닥":10871,"영입":10872,"안전":10873,"경기도":10874,"브레이":10875,"괴물":10876,"저격":10877,"마크":10878,"##텐츠":10879,"제안":10880,"거쳐":10881,"흡수":10882,"점령":10883,"You":10884,"힘든":10885,"##시스":10886,"의지":10887,"는다는":10888,"엄청나":10889,"못한다":10890,"예선":10891,"초대":10892,"필살":10893,"미리":10894,"최후":10895,"##니티":10896,"전해":10897,"400":10898,"개선":10899,"그때":10900,"공략":10901,"유도":10902,"##남도":10903,"화염":10904,"와서":10905,"빠지":10906,"숫자":10907,"독자":10908,"사라지":10909,"전술":10910,"##art":10911,"데려":10912,"코치":10913,"그저":10914,"방해":10915,"주력":10916,"액션":10917,"확보":10918,"외모":10919,"인원":10920,"매일":10921,"평화":10922,"##낸다":10923,"비트":10924,"드립":10925,"진입":10926,"터미널":10927,"이론":10928,"##런스":10929,"##니까":10930,"규정":10931,"관통":10932,"VS":10933,"클래스":10934,"피하":10935,"라디오":10936,"에스":10937,"오토":10938,"장난":10939,"뭔가":10940,"수사":10941,"49":10942,"##오스":10943,"이치":10944,"투자":10945,"승부":10946,"컨셉":10947,"눈물":10948,"체육":10949,"목숨":10950,"형성":10951,"적극":10952,"느냐":10953,"방패":10954,"AP":10955,"56":10956,"가스":10957,"패러":10958,"상자":10959,"음반":10960,"진다":10961,"끝내":10962,"모험":10963,"사과":10964,"아름":10965,"서브":10966,"리어":10967,"왼쪽":10968,"적절":10969,"인류":10970,"한국어":10971,"계기":10972,"보도":10973,"모리":10974,"살아남":10975,"2001":10976,"함대":10977,"구축":10978,"##동생":10979,"거짓":10980,"의심":10981,"간다":10982,"약점":10983,"그려":10984,"##여서":10985,"예술":10986,"공화국":10987,"역전":10988,"##스케":10989,"인형":10990,"기원":10991,"53":10992,"오리지널":10993,"54":10994,"비디오":10995,"##페이지":10996,"작성":10997,"완료":10998,"더블":10999,"##모리":11000,"당해":11001,"##온다":11002,"공부":11003,"은퇴":11004,"수리":11005,"코어":11006,"솔로":11007,"회전":11008,"스위":11009,"##라이더":11010,"지닌":11011,"단순히":11012,"대단":11013,"질문":11014,"In":11015,"PC":11016,"편집":11017,"황금":11018,"부른다":11019,"마침":11020,"뮤직":11021,"##래프트":11022,"알렉":11023,"##로우":11024,"시내":11025,"안드":11026,"##시브":11027,"홈페이지":11028,"착용":11029,"필수":11030,"트랙":11031,"누군":11032,"상대방":11033,"날려":11034,"꾸준":11035,"85":11036,"보수":11037,"해제":11038,"민주당":11039,"미스":11040,"선보":11041,"카페":11042,"이어지":11043,"을지":11044,"나쁘":11045,"엄마":11046,"아프리카":11047,"드라이":11048,"경상":11049,"##ia":11050,"사단":11051,"습격":11052,"장관":11053,"1990":11054,"현장":11055,"날개":11056,"사장":11057,"코스트":11058,"비난":11059,"포르":11060,"희망":11061,"돌려":11062,"원거리":11063,"##ill":11064,"오스":11065,"의한":11066,"수원":11067,"##ie":11068,"재판":11069,"분석":11070,"하위":11071,"##으니":11072,"##레이션":11073,"명중":11074,"아시아":11075,"지니":11076,"진정":11077,"무력":11078,"코믹":11079,"선물":11080,"##RA":11081,"성인":11082,"수호":11083,"ST":11084,"모티브":11085,"##힌다":11086,"##IA":11087,"비고":11088,"에이스":11089,"청소":11090,"확실히":11091,"심하":11092,"블루":11093,"행복":11094,"경계":11095,"저주":11096,"감안":11097,"카즈":11098,"중단":11099,"태도":11100,"가슴":11101,"190":11102,"##ik":11103,"임명":11104,"남편":11105,"공원":11106,"기획":11107,"지식":11108,"관광":11109,"##나다":11110,"표정":11111,"허용":11112,"승강":11113,"스마":11114,"쿨타임":11115,"장애":11116,"수단":11117,"오른쪽":11118,"탑재":11119,"아쉬":11120,"바탕":11121,"본선":11122,"딱히":11123,"인민":11124,"제시":11125,"소프트":11126,"상처":11127,"주도":11128,"##무원":11129,"당장":11130,"59":11131,"##연히":11132,"##북도":11133,"의문":11134,"영역":11135,"유래":11136,"기점":11137,"유우":11138,"테마":11139,"소울":11140,"테크":11141,"고통":11142,"리스":11143,"마시":11144,"보급":11145,"##ab":11146,"직원":11147,"불명":11148,"돌파":11149,"기어":11150,"일어난":11151,"베이스":11152,"위주":11153,"멀티":11154,"작용":11155,"나누":11156,"주목":11157,"제압":11158,"대답":11159,"120":11160,"58":11161,"나카":11162,"그라":11163,"잠깐":11164,"##워드":11165,"##마스":11166,"주연":11167,"카운터":11168,"여부":11169,"고유":11170,"제기":11171,"순서":11172,"미치":11173,"##워서":11174,"측면":11175,"베르":11176,"체계":11177,"도서":11178,"##est":11179,"게이":11180,"57":11181,"업무":11182,"박스":11183,"진영":11184,"부인":11185,"우수":11186,"##th":11187,"MP":11188,"멀리":11189,"문명":11190,"이스":11191,"카메라":11192,"패스":11193,"횟수":11194,"후속":11195,"멸망":11196,"통일":11197,"온라인":11198,"##all":11199,"버튼":11200,"공장":11201,"어찌":11202,"##트롤":11203,"텔레":11204,"시나리오":11205,"지내":11206,"지점":11207,"거주":11208,"케이스":11209,"귀족":11210,"놀라":11211,"##ea":11212,"66":11213,"알리":11214,"95":11215,"코너":11216,"문자":11217,"당선":11218,"에어":11219,"겨우":11220,"협력":11221,"차별":11222,"특기":11223,"계산":11224,"소수":11225,"지옥":11226,"약속":11227,"듀얼":11228,"삼국":11229,"최악":11230,"마츠":11231,"눈치":11232,"크로스":11233,"뉴욕":11234,"Sh":11235,"연계":11236,"대하":11237,"딜러":11238,"시체":11239,"은행":11240,"##머리":11241,"Lo":11242,"##ct":11243,"스펙":11244,"살해":11245,"느껴":11246,"ddd":11247,"on":11248,"바꿔":11249,"개편":11250,"을까":11251,"오후":11252,"유키":11253,"1999":11254,"스케":11255,"Re":11256,"붕괴":11257,"배신":11258,"게시":11259,"대놓":11260,"자격":11261,"혁명":11262,"어울":11263,"떨어져":11264,"버려":11265,"매치":11266,"군주":11267,"부담":11268,"110":11269,"처치":11270,"##ddd":11271,"생겨":11272,"dddddd":11273,"Sp":11274,"컨트롤":11275,"게이지":11276,"1998":11277,"벌이":11278,"##AL":11279,"해금":11280,"##스티":11281,"나아":11282,"그레이":11283,"겨울":11284,"국회의원":11285,"다름":11286,"견제":11287,"증거":11288,"에겐":11289,"레이저":11290,"스탠":11291,"미친":11292,"외부":11293,"최대한":11294,"군인":11295,"구해":11296,"장전":11297,"된다고":11298,"교사":11299,"필살기":11300,"제조":11301,"##AT":11302,"62":11303,"출발":11304,"진실":11305,"자살":11306,"핵심":11307,"##바이":11308,"##PS":11309,"정권":11310,"##피아":11311,"대원":11312,"후지":11313,"따른":11314,"여왕":11315,"전장":11316,"궁극":11317,"##라리":11318,"누군가":11319,"미군":11320,"##OR":11321,"중화":11322,"연방":11323,"용병":11324,"가졌":11325,"마왕":11326,"##니어":11327,"스프":11328,"로켓":11329,"아침":11330,"##래도":11331,"댄스":11332,"가로":11333,"##VE":11334,"거절":11335,"제로":11336,"충전":11337,"미나":11338,"누가":11339,"한화":11340,"타이밍":11341,"출생":11342,"자이":11343,"누르":11344,"유용":11345,"공산":11346,"돌아오":11347,"SS":11348,"알려진":11349,"일본어":11350,"기분":11351,"SBS":11352,"##어져":11353,"이성":11354,"##터리":11355,"커뮤":11356,"조준":11357,"만족":11358,"충돌":11359,"바뀐":11360,"날리":11361,"고급":11362,"브랜드":11363,"##어도":11364,"도구":11365,"단위":11366,"취소":11367,"는다고":11368,"트레":11369,"애매":11370,"교환":11371,"스피드":11372,"부진":11373,"거래":11374,"##ate":11375,"스킨":11376,"##로이드":11377,"터지":11378,"##사카":11379,"수학":11380,"흔히":11381,"##ess":11382,"피해자":11383,"뛰어":11384,"극장판":11385,"토스":11386,"Th":11387,"카르":11388,"##ell":11389,"61":11390,"반란":11391,"제주":11392,"##광역시":11393,"##나가":11394,"발휘":11395,"세계관":11396,"얼음":11397,"##ard":11398,"무게":11399,"끝난":11400,"76":11401,"오스트":11402,"해진":11403,"우려":11404,"장수":11405,"파악":11406,"후반부":11407,"자고":11408,"하트":11409,"건너":11410,"##ang":11411,"끼리":11412,"단독":11413,"통하":11414,"아무래도":11415,"모션":11416,"레전":11417,"홍콩":11418,"인생":11419,"패시브":11420,"공통":11421,"##IC":11422,"##하라":11423,"근무":11424,"판타":11425,"미야":11426,"##ue":11427,"신화":11428,"비록":11429,"격투":11430,"아머":11431,"한자":11432,"빌리":11433,"헤드":11434,"##ant":11435,"##ack":11436,"순수":11437,"##ers":11438,"피아":11439,"Al":11440,"NP":11441,"웨이":11442,"77":11443,"커버":11444,"구입":11445,"##아리":11446,"정령":11447,"##다운":11448,"파이터":11449,"브리":11450,"##ine":11451,"88":11452,"공군":11453,"1997":11454,"##다수":11455,"운전":11456,"72":11457,"등등":11458,"혼란":11459,"계급":11460,"자식":11461,"가입":11462,"그게":11463,"줄어들":11464,"수입":11465,"아메":11466,"스코어":11467,"닥터":11468,"##심히":11469,"트레이":11470,"회수":11471,"떨어진":11472,"권력":11473,"경력":11474,"본부":11475,"채용":11476,"지시":11477,"공작":11478,"근거":11479,"마이크":11480,"데리":11481,"속하":11482,"##피스":11483,"탄생":11484,"쉬운":11485,"생일":11486,"밸런스":11487,"해방":11488,"비율":11489,"##친다":11490,"향해":11491,"기절":11492,"건강":11493,"지하철":11494,"언니":11495,"용도":11496,"테러":11497,"꾸준히":11498,"늘어나":11499,"##가락":11500,"기다리":11501,"병기":11502,"엑스":11503,"표준":11504,"갤러리":11505,"좋아하":11506,"BG":11507,"타워":11508,"로운":11509,"실질":11510,"돌격":11511,"##메달":11512,"지대":11513,"##ok":11514,"##OS":11515,"납치":11516,"증명":11517,"협회":11518,"반영":11519,"홍보":11520,"지급":11521,"프라":11522,"남부":11523,"인지라":11524,"대공":11525,"강조":11526,"아사":11527,"입학":11528,"be":11529,"플라":11530,"오오":11531,"약한":11532,"나쁜":11533,"파라":11534,"트위":11535,"불안":11536,"업체":11537,"여겨":11538,"랜덤":11539,"373":11540,"FI":11541,"유형":11542,"그럴":11543,"외교":11544,"요원":11545,"##디션":11546,"경영":11547,"왕자":11548,"or":11549,"들어갔":11550,"##유키":11551,"밀려":11552,"아나":11553,"감염":11554,"대륙":11555,"경향":11556,"##세이":11557,"98":11558,"fff":11559,"위하":11560,"온갖":11561,"훌륭":11562,"광역":11563,"감사":11564,"CD":11565,"gt":11566,"고서":11567,"연대":11568,"마녀":11569,"실행":11570,"장식":11571,"문학":11572,"##ive":11573,"패러디":11574,"##웨이":11575,"쓴다":11576,"기독":11577,"트라":11578,"못해":11579,"페이스":11580,"메탈":11581,"물질":11582,"600":11583,"##오리":11584,"어쩔":11585,"입단":11586,"재생":11587,"가까이":11588,"태어났":11589,"##크래프트":11590,"울트라":11591,"스페셜":11592,"화살":11593,"추진":11594,"주년":11595,"어차":11596,"집안":11597,"고민":11598,"내내":11599,"설득":11600,"대다수":11601,"계승":11602,"1996":11603,"서포":11604,"조지":11605,"건지":11606,"정해":11607,"승강장":11608,"살짝":11609,"사카":11610,"선배":11611,"##트로":11612,"드리":11613,"어차피":11614,"부문":11615,"폐지":11616,"##ast":11617,"이슬":11618,"캐나다":11619,"##고기":11620,"무서":11621,"숨겨":11622,"올랐":11623,"PS":11624,"##AS":11625,"영원":11626,"정지":11627,"대놓고":11628,"봐야":11629,"신문":11630,"베트":11631,"1995":11632,"보물":11633,"적당":11634,"신뢰":11635,"이래":11636,"사전":11637,"##바로":11638,"브라질":11639,"연예":11640,"##어리":11641,"작사":11642,"즉시":11643,"기기":11644,"##uby":11645,"##어졌":11646,"전선":11647,"당황":11648,"##ED":11649,"미소":11650,"##긴다":11651,"따지":11652,"불렀":11653,"당한다":11654,"함선":11655,"##tt":11656,"##즈키":11657,"##이터":11658,"68":11659,"뒤집":11660,"페이지":11661,"##ee":11662,"폭풍":11663,"등판":11664,"은근":11665,"lt":11666,"오픈":11667,"800":11668,"소문":11669,"탑승":11670,"버티":11671,"명예":11672,"어째":11673,"열심히":11674,"스파이":11675,"상품":11676,"화장":11677,"입수":11678,"레전드":11679,"오프닝":11680,"갑옷":11681,"별도":11682,"경유":11683,"러브":11684,"심리":11685,"시행":11686,"##거나":11687,"경기장":11688,"이거":11689,"단일":11690,"파리":11691,"63":11692,"라스":11693,"둘러":11694,"의회":11695,"1980":11696,"변호":11697,"통제":11698,"마련":11699,"##카와":11700,"올렸":11701,"댓글":11702,"반격":11703,"##ong":11704,"##AM":11705,"ruby":11706,"스티":11707,"때려":11708,"운명":11709,"가면라이더":11710,"변하":11711,"오류":11712,"정류":11713,"##시오":11714,"응원":11715,"갖추":11716,"일으키":11717,"모으":11718,"레오":11719,"후쿠":11720,"한때":11721,"커뮤니티":11722,"신청":11723,"쓰레":11724,"트위터":11725,"격파":11726,"라이벌":11727,"사령관":11728,"##ort":11729,"김성":11730,"주전":11731,"고전":11732,"기독교":11733,"출판":11734,"습득":11735,"이승":11736,"##웨어":11737,"중계":11738,"돌리":11739,"공기":11740,"편의":11741,"##ith":11742,"수업":11743,"하수":11744,"심장":11745,"아리":11746,"##리티":11747,"불만":11748,"끌어":11749,"신고":11750,"오해":11751,"마인":11752,"마주":11753,"두산":11754,"울산":11755,"##아먹":11756,"##다지":11757,"71":11758,"##if":11759,"74":11760,"흔들":11761,"관객":11762,"전함":11763,"외국인":11764,"카나":11765,"정말로":11766,"랜드":11767,"보정":11768,"##나무":11769,"주위":11770,"##ly":11771,"크루":11772,"##fff":11773,"건축":11774,"출장":11775,"##아버지":11776,"스트라이":11777,"용어":11778,"MV":11779,"##ld":11780,"흘러":11781,"공유":11782,"그곳":11783,"전달":11784,"고기":11785,"73":11786,"여론":11787,"67":11788,"아트":11789,"메이저":11790,"ffffff":11791,"민간":11792,"사운드":11793,"우스":11794,"절반":11795,"짜리":11796,"조치":11797,"##티컬":11798,"내놓":11799,"지형":11800,"물러":11801,"남기":11802,"갈등":11803,"여신":11804,"##도우":11805,"붙잡":11806,"임시":11807,"무적":11808,"자치":11809,"드러나":11810,"##학자":11811,"재능":11812,"가득":11813,"아오":11814,"전공":11815,"압박":11816,"NC":11817,"카라":11818,"##ain":11819,"리버":11820,"열리":11821,"별개":11822,"지나가":11823,"엔터":11824,"붙여":11825,"초월":11826,"##ist":11827,"96":11828,"##쳐서":11829,"종점":11830,"연구소":11831,"오로":11832,"네이버":11833,"요새":11834,"스튜":11835,"1994":11836,"##ind":11837,"##오르":11838,"움직임":11839,"나서":11840,"북쪽":11841,"강해":11842,"전형":11843,"추적":11844,"메가":11845,"TH":11846,"그다지":11847,"메타":11848,"시각":11849,"전하":11850,"##타인":11851,"180":11852,"컨텐츠":11853,"남쪽":11854,"벗어나":11855,"디아":11856,"늑대":11857,"보장":11858,"약하":11859,"이란":11860,"테이":11861,"쓰인다":11862,"AC":11863,"돌진":11864,"소멸":11865,"##서트":11866,"판타지":11867,"시야":11868,"81":11869,"AT":11870,"##가와":11871,"난다":11872,"결승전":11873,"전시":11874,"클라":11875,"타점":11876,"든지":11877,"꺼내":11878,"다행히":11879,"파이어":11880,"일부러":11881,"잖아":11882,"걸려":11883,"##per":11884,"불꽃":11885,"서부":11886,"그만큼":11887,"동네":11888,"화이트":11889,"환자":11890,"##듀서":11891,"프로듀서":11892,"##ps":11893,"뿌리":11894,"강원":11895,"동기":11896,"가이":11897,"##지컬":11898,"##EN":11899,"만난":11900,"여동생":11901,"문제점":11902,"화려":11903,"##드라":11904,"##츠키":11905,"그림자":11906,"선호":11907,"왕조":11908,"동원":11909,"폭력":11910,"상향":11911,"파이널":11912,"회원":11913,"대만":11914,"본명":11915,"치명타":11916,"유로":11917,"북부":11918,"유비":11919,"신세":11920,"##EC":11921,"소드":11922,"밝히":11923,"자는":11924,"됩니다":11925,"신라":11926,"78":11927,"그런지":11928,"##식간":11929,"91":11930,"##OL":11931,"빨간":11932,"##스탄":11933,"수요":11934,"여서":11935,"순식간":11936,"연상":11937,"무난":11938,"##ew":11939,"도서관":11940,"테스트":11941,"향상":11942,"메시":11943,"전역":11944,"매력":11945,"클로":11946,"학과":11947,"##에도":11948,"아시":11949,"차트":11950,"전적":11951,"떠올":11952,"##더스":11953,"아가":11954,"변형":11955,"통한":11956,"아무런":11957,"스토":11958,"아일":11959,"최상":11960,"전방":11961,"저런":11962,"부품":11963,"##로운":11964,"뛰어나":11965,"84":11966,"CP":11967,"체포":11968,"영토":11969,"일상":11970,"수집":11971,"크리티컬":11972,"암흑":11973,"전투력":11974,"시드":11975,"게이트":11976,"##사키":11977,"코믹스":11978,"되돌":11979,"키스":11980,"영업":11981,"##LC":11982,"마술":11983,"me":11984,"인수":11985,"토모":11986,"##ry":11987,"수용":11988,"이마":11989,"조절":11990,"파견":11991,"어쨌":11992,"드디어":11993,"할지":11994,"폭격":11995,"복잡":11996,"학살":11997,"복장":11998,"유전":11999,"아우":12000,"##어스":12001,"82":12002,"대우":12003,"떡밥":12004,"##lo":12005,"벌어지":12006,"입력":12007,"그래픽":12008,"구현":12009,"밝혀졌":12010,"편지":12011,"개통":12012,"생명력":12013,"사라졌":12014,"발매되":12015,"몰아":12016,"호환":12017,"오빠":12018,"현지":12019,"97":12020,"니시":12021,"추락":12022,"신인":12023,"사자":12024,"천사":12025,"도달":12026,"따위":12027,"고향":12028,"동부":12029,"닌자":12030,"사토":12031,"##덜란드":12032,"네덜란드":12033,"청년":12034,"86":12035,"창작":12036,"경비":12037,"통해서":12038,"점차":12039,"반지":12040,"작동":12041,"맞이":12042,"콜라":12043,"콘서트":12044,"연관":12045,"프레임":12046,"교황":12047,"제이":12048,"엘프":12049,"보단":12050,"한국인":12051,"쓰레기":12052,"수송":12053,"출현":12054,"노예":12055,"##운다":12056,"스톤":12057,"기초":12058,"##레나":12059,"##거운":12060,"사쿠라":12061,"푸른":12062,"종이":12063,"모바":12064,"추격":12065,"해설":12066,"아닐":12067,"it":12068,"세워":12069,"해체":12070,"69":12071,"해진다":12072,"##퍼스":12073,"다시피":12074,"##어버":12075,"몰래":12076,"구도":12077,"조용":12078,"스러":12079,"충청":12080,"의상":12081,"##노스":12082,"심판":12083,"플레":12084,"간격":12085,"진지":12086,"공급":12087,"녹음":12088,"아티":12089,"들어간":12090,"is":12091,"주먹":12092,"##히로":12093,"식물":12094,"아무것":12095,"토리":12096,"막장":12097,"시위":12098,"조성":12099,"NPC":12100,"보냈":12101,"무너":12102,"프리미":12103,"##디아":12104,"전투기":12105,"##오프":12106,"##IT":12107,"제자":12108,"조조":12109,"잉글":12110,"연사":12111,"인하":12112,"두려":12113,"##둥이":12114,"수술":12115,"무효":12116,"스마트":12117,"연애":12118,"검색":12119,"슬롯":12120,"##와서":12121,"옮겨":12122,"실드":12123,"##시코":12124,"마스":12125,"감시":12126,"##타로":12127,"레스":12128,"버릴":12129,"스카이":12130,"US":12131,"나갔":12132,"일제":12133,"블록":12134,"꼬리":12135,"당할":12136,"일어났":12137,"법원":12138,"##스트라":12139,"동쪽":12140,"##특별":12141,"마리오":12142,"나루":12143,"경험치":12144,"구체":12145,"MS":12146,"고교":12147,"옛날":12148,"##오카":12149,"An":12150,"통상":12151,"때리":12152,"총기":12153,"김정":12154,"##티나":12155,"범인":12156,"탱크":12157,"구속":12158,"베트남":12159,"라이더":12160,"##모로":12161,"##버트":12162,"세우":12163,"##ust":12164,"신규":12165,"신분":12166,"대립":12167,"장교":12168,"성과":12169,"지나치":12170,"은하":12171,"연락":12172,"국립":12173,"예외":12174,"쿠키":12175,"##주시":12176,"##다른":12177,"250":12178,"어깨":12179,"KT":12180,"강의":12181,"인근":12182,"입구":12183,"지도자":12184,"신성":12185,"다섯":12186,"차단":12187,"규칙":12188,"##50":12189,"글자":12190,"먹이":12191,"되찾":12192,"불편":12193,"대대":12194,"메카":12195,"이랑":12196,"헤이":12197,"마도":12198,"평타":12199,"프린":12200,"요정":12201,"언제나":12202,"창조":12203,"박살":12204,"코인":12205,"안습":12206,"바보":12207,"총선":12208,"유희":12209,"모바일":12210,"만났":12211,"동작":12212,"토론":12213,"##도로":12214,"후기":12215,"전라":12216,"##비전":12217,"##일리":12218,"여러모로":12219,"환상":12220,"마리아":12221,"아크":12222,"에드":12223,"189":12224,"거짓말":12225,"노출":12226,"기여":12227,"의료":12228,"##파이어":12229,"##브리":12230,"권총":12231,"세월":12232,"소총":12233,"리아":12234,"이리":12235,"이득":12236,"농구":12237,"어택":12238,"##자키":12239,"일원":12240,"다이아":12241,"빠진":12242,"자이언":12243,"무료":12244,"##워하":12245,"신호":12246,"블레이드":12247,"202":12248,"서쪽":12249,"##영상":12250,"이날":12251,"1992":12252,"부위":12253,"출처":12254,"음성":12255,"정복":12256,"개혁":12257,"들어간다":12258,"미술":12259,"##스턴":12260,"폭주":12261,"극단":12262,"잠수":12263,"고생":12264,"92":12265,"헌터":12266,"##BO":12267,"##ore":12268,"##저히":12269,"간부":12270,"죽여":12271,"##톨릭":12272,"드러내":12273,"Ar":12274,"참전":12275,"반발":12276,"전직":12277,"이뤄":12278,"교전":12279,"편하":12280,"고용":12281,"투어":12282,"대체로":12283,"양산":12284,"일자":12285,"밀어":12286,"길이":12287,"보석":12288,"고문":12289,"폴란드":12290,"대량":12291,"키리":12292,"연도":12293,"키우":12294,"상점":12295,"83":12296,"글로":12297,"라이프":12298,"제법":12299,"호평":12300,"상상":12301,"제어":12302,"사마":12303,"동영상":12304,"수영":12305,"정류장":12306,"걸쳐":12307,"승격":12308,"전대":12309,"Te":12310,"##보드":12311,"출력":12312,"자라":12313,"누리":12314,"사양":12315,"합격":12316,"89":12317,"기습":12318,"없애":12319,"##FF":12320,"101":12321,"터치":12322,"93":12323,"1993":12324,"공학":12325,"잉글랜드":12326,"지휘관":12327,"북미":12328,"De":12329,"MAX":12330,"제작진":12331,"기병":12332,"득표":12333,"윌리":12334,"나뉘":12335,"중대":12336,"94":12337,"요괴":12338,"돌아온":12339,"마루":12340,"합성":12341,"미디어":12342,"머신":12343,"환승":12344,"인증":12345,"드물":12346,"날아가":12347,"법률":12348,"##어진다":12349,"com":12350,"치가":12351,"79":12352,"상하":12353,"보낸":12354,"적어도":12355,"파란":12356,"가시":12357,"##일드":12358,"탄약":12359,"조심":12360,"가량":12361,"박근":12362,"런던":12363,"회차":12364,"구출":12365,"널리":12366,"요즘":12367,"탱커":12368,"##FC":12369,"파일럿":12370,"의혹":12371,"원소":12372,"re":12373,"매니":12374,"리얼":12375,"활성":12376,"사이드":12377,"동방":12378,"귀여":12379,"떨어진다":12380,"유령":12381,"포탑":12382,"하수인":12383,"낸다":12384,"알파":12385,"노멀":12386,"삼진":12387,"히데":12388,"침공":12389,"87":12390,"마이클":12391,"디지털":12392,"분기":12393,"하고":12394,"이재":12395,"개정":12396,"서양":12397,"부수":12398,"가톨릭":12399,"즐기":12400,"묘지":12401,"인공":12402,"의무":12403,"어쩌":12404,"##우드":12405,"볼넷":12406,"이슬람":12407,"똑같이":12408,"네임":12409,"가속":12410,"다면서":12411,"결성":12412,"##one":12413,"예비":12414,"축제":12415,"대략":12416,"On":12417,"블러":12418,"가게":12419,"학자":12420,"패널":12421,"경고":12422,"레인저":12423,"계정":12424,"괴롭":12425,"보고":12426,"##se":12427,"올라오":12428,"타케":12429,"이자":12430,"##ip":12431,"헌법":12432,"소화":12433,"전면":12434,"이내":12435,"아일랜드":12436,"##AC":12437,"이루어지":12438,"취하":12439,"AI":12440,"부부":12441,"스키":12442,"DJ":12443,"특화":12444,"##RE":12445,"줘야":12446,"익숙":12447,"써서":12448,"용사":12449,"상호":12450,"##미야":12451,"달린":12452,"미츠":12453,"심한":12454,"갤럭":12455,"던져":12456,"##ere":12457,"캐스":12458,"##먼트":12459,"이시":12460,"스웨":12461,"그럼에도":12462,"##임스":12463,"문장":12464,"바이러스":12465,"메모리":12466,"슈트":12467,"걸어":12468,"워치":12469,"들이":12470,"근육":12471,"대항":12472,"커맨":12473,"불법":12474,"##PG":12475,"리메":12476,"BGM":12477,"MC":12478,"부리":12479,"나와서":12480,"불린다":12481,"플레이오프":12482,"핸드":12483,"베스트":12484,"플로":12485,"SN":12486,"자매":12487,"유행":12488,"한방":12489,"개체":12490,"어지":12491,"##준다":12492,"파크":12493,"##ity":12494,"도발":12495,"##ath":12496,"김영":12497,"##창기":12498,"보안":12499,"쿠로":12500,"일시":12501,"육성":12502,"예측":12503,"어린이":12504,"냐며":12505,"예고":12506,"트로":12507,"느리":12508,"소닉":12509,"넘기":12510,"이즈":12511,"자금":12512,"갤럭시":12513,"##라이언":12514,"총리":12515,"루시":12516,"##어날":12517,"살려":12518,"보일":12519,"검찰":12520,"취임":12521,"멕시코":12522,"FIFA":12523,"터키":12524,"무언":12525,"마냥":12526,"정면":12527,"결론":12528,"신기":12529,"사제":12530,"길드":12531,"##end":12532,"국방":12533,"어떠":12534,"리스트":12535,"##조리":12536,"형사":12537,"스톰":12538,"고백":12539,"1991":12540,"넘겨":12541,"루타":12542,"구멍":12543,"캐리":12544,"식사":12545,"마구":12546,"레이스":12547,"리치":12548,"세이브":12549,"호텔":12550,"곧바로":12551,"상업":12552,"감옥":12553,"이명":12554,"태어난":12555,"##펙트":12556,"저장":12557,"절망":12558,"여유":12559,"제임스":12560,"개방":12561,"부서":12562,"진심":12563,"##워크":12564,"투구":12565,"그랬":12566,"사이즈":12567,"구원":12568,"유대":12569,"노르":12570,"볼트":12571,"초창기":12572,"플랫":12573,"세르":12574,"THE":12575,"700":12576,"타마":12577,"대가":12578,"FA":12579,"피부":12580,"너무나":12581,"와이":12582,"배차":12583,"##요시":12584,"박정":12585,"##고리":12586,"청소년":12587,"오랫":12588,"팀원":12589,"웬만":12590,"흥행":12591,"으니까":12592,"강철":12593,"일지":12594,"번개":12595,"카타":12596,"고르":12597,"몰려":12598,"착각":12599,"좌우":12600,"##특별시":12601,"된다면":12602,"전철":12603,"커플":12604,"합쳐":12605,"##릭스":12606,"여지":12607,"1988":12608,"##구리":12609,"바위":12610,"파트너":12611,"발달":12612,"##레이터":12613,"세포":12614,"리메이크":12615,"MVP":12616,"펼쳐":12617,"소형":12618,"##로나":12619,"처벌":12620,"그동안":12621,"서울특별시":12622,"다스":12623,"현역":12624,"레이드":12625,"아기":12626,"신설":12627,"긍정":12628,"주식":12629,"융합":12630,"##데스":12631,"##네스":12632,"주간":12633,"원자":12634,"##지마":12635,"외계":12636,"아쉽":12637,"분량":12638,"아빠":12639,"차라리":12640,"아름다운":12641,"프라이":12642,"정착":12643,"Ro":12644,"위장":12645,"미카":12646,"##OT":12647,"인정받":12648,"돼지":12649,"반사":12650,"챕터":12651,"카스":12652,"합의":12653,"사신":12654,"##디언":12655,"식민":12656,"랭킹":12657,"찾아가":12658,"지냈":12659,"내성":12660,"##성기":12661,"목격":12662,"인연":12663,"누적":12664,"입히":12665,"협박":12666,"통치":12667,"전문가":12668,"드림":12669,"내장":12670,"장악":12671,"단장":12672,"게스트":12673,"의뢰":12674,"화학":12675,"빌드":12676,"떨어졌":12677,"CC":12678,"방지":12679,"에서부터":12680,"포스트":12681,"클리":12682,"도망치":12683,"야스":12684,"에다":12685,"브레이크":12686,"무언가":12687,"잡지":12688,"박근혜":12689,"##레인":12690,"Wh":12691,"해병":12692,"영향력":12693,"공지":12694,"스미":12695,"논리":12696,"방출":12697,"안드로이드":12698,"동의":12699,"태그":12700,"어울리":12701,"국왕":12702,"사우":12703,"방사":12704,"는다면":12705,"AK":12706,"시즈":12707,"대지":12708,"타이거":12709,"도우":12710,"조약":12711,"포트":12712,"한지":12713,"각자":12714,"내주":12715,"요코":12716,"배트":12717,"한번":12718,"관할":12719,"저녁":12720,"지능":12721,"##ect":12722,"돌아왔":12723,"DLC":12724,"살리":12725,"골든":12726,"국군":12727,"하필":12728,"htt":12729,"라면서":12730,"대폭":12731,"Se":12732,"1970":12733,"의존":12734,"##스키":12735,"최소한":12736,"양쪽":12737,"고지":12738,"손가락":12739,"토르":12740,"루이":12741,"Le":12742,"악역":12743,"마침내":12744,"호주":12745,"스턴":12746,"동화":12747,"홀로":12748,"연맹":12749,"과목":12750,"변호사":12751,"실버":12752,"공무원":12753,"유치":12754,"걸린":12755,"후속작":12756,"막차":12757,"붙이":12758,"모여":12759,"기구":12760,"으론":12761,"수련":12762,"본작":12763,"무역":12764,"수수":12765,"He":12766,"면역":12767,"소지":12768,"보관":12769,"소원":12770,"오랫동안":12771,"무덤":12772,"PD":12773,"##age":12774,"어쨌든":12775,"올린":12776,"오사카":12777,"웹툰":12778,"주말":12779,"역임":12780,"##IS":12781,"귀신":12782,"오카":12783,"나간":12784,"육체":12785,"연인":12786,"##바라":12787,"크라":12788,"기원전":12789,"al":12790,"혐의":12791,"스튜디오":12792,"해리":12793,"내구":12794,"명중률":12795,"확대":12796,"재산":12797,"카오스":12798,"접촉":12799,"호감":12800,"대리":12801,"기도":12802,"불교":12803,"적대":12804,"다룬":12805,"##티아":12806,"네트":12807,"kt":12808,"남겨":12809,"##잡이":12810,"노부":12811,"대처":12812,"##다리":12813,"명성":12814,"써먹":12815,"강남":12816,"스틸":12817,"태평":12818,"계단":12819,"나타내":12820,"전후":12821,"Go":12822,"비행기":12823,"올해":12824,"연료":12825,"예능":12826,"정비":12827,"Me":12828,"출마":12829,"가볍":12830,"테일":12831,"간혹":12832,"슈팅":12833,"끌려":12834,"##페인":12835,"오늘날":12836,"합체":12837,"트레이드":12838,"싸울":12839,"피스":12840,"로즈":12841,"권한":12842,"모모":12843,"##크스":12844,"정치인":12845,"부장":12846,"컬러":12847,"마키":12848,"흐름":12849,"정원":12850,"퀄리티":12851,"개성":12852,"맞서":12853,"소장":12854,"블리":12855,"리드":12856,"시마":12857,"체인":12858,"받아들이":12859,"안내":12860,"그로":12861,"학부":12862,"이지":12863,"오전":12864,"게시판":12865,"소스":12866,"GT":12867,"준수":12868,"휴대":12869,"접속":12870,"##다이":12871,"저그":12872,"수익":12873,"권리":12874,"##베르":12875,"1989":12876,"##라드":12877,"KIA":12878,"특집":12879,"더라":12880,"연극":12881,"하우스":12882,"##og":12883,"외형":12884,"금융":12885,"##ake":12886,"##ide":12887,"필리":12888,"박물":12889,"하얀":12890,"코미":12891,"선전":12892,"화제":12893,"김태":12894,"새벽":12895,"윌리엄":12896,"상당수":12897,"허리":12898,"##OM":12899,"다를":12900,"Be":12901,"피격":12902,"이집":12903,"My":12904,"초간":12905,"이집트":12906,"WW":12907,"무렵":12908,"공공":12909,"그대":12910,"주기":12911,"환영":12912,"편곡":12913,"페이즈":12914,"일기":12915,"130":12916,"최다":12917,"금속":12918,"포르투":12919,"나치":12920,"고구":12921,"AR":12922,"둘째":12923,"메르":12924,"원칙":12925,"##ss":12926,"이루어진":12927,"카미":12928,"결합":12929,"SC":12930,"##ark":12931,"지우":12932,"##ime":12933,"연타":12934,"##ire":12935,"알렉산":12936,"누나":12937,"SM":12938,"편입":12939,"으려고":12940,"식당":12941,"어릴":12942,"할아버지":12943,"시계":12944,"##구치":12945,"유물":12946,"개입":12947,"문재":12948,"캠퍼스":12949,"한동안":12950,"인조":12951,"어른":12952,"매직":12953,"어두":12954,"##세스":12955,"향하":12956,"지진":12957,"바라보":12958,"거인":12959,"188":12960,"전신":12961,"##밀리":12962,"그건":12963,"소중":12964,"아니면":12965,"극복":12966,"wh":12967,"116":12968,"블로그":12969,"전진":12970,"시선":12971,"까다":12972,"성립":12973,"영문":12974,"my":12975,"Su":12976,"##ES":12977,"정찰":12978,"은근히":12979,"정글":12980,"헤비":12981,"회상":12982,"아바":12983,"기사단":12984,"##프레":12985,"사도":12986,"SD":12987,"협상":12988,"캐스팅":12989,"메뉴":12990,"궤도":12991,"스웨덴":12992,"##ID":12993,"빨라":12994,"깨닫":12995,"시내버스":12996,"팬덤":12997,"##으면":12998,"Tr":12999,"음원":13000,"튀어나":13001,"는지라":13002,"대개":13003,"##닉스":13004,"작곡가":13005,"손해":13006,"##ite":13007,"주사":13008,"태어나":13009,"##던가":13010,"대충":13011,"독특":13012,"재단":13013,"수십":13014,"동굴":13015,"비해서":13016,"우위":13017,"더더":13018,"##아지":13019,"복무":13020,"##아시아":13021,"우라":13022,"고수":13023,"아닌가":13024,"안티":13025,"이길":13026,"민주주의":13027,"용기":13028,"식량":13029,"##부르크":13030,"트럭":13031,"160":13032,"교차":13033,"종목":13034,"세이버":13035,"이익":13036,"해안":13037,"##회사":13038,"미라":13039,"처형":13040,"##ound":13041,"조언":13042,"못할":13043,"일찍":13044,"멀쩡":13045,"트랜":13046,"SR":13047,"아이스":13048,"클래식":13049,"과제":13050,"리듬":13051,"이끄":13052,"위상":13053,"내려가":13054,"##iv":13055,"원본":13056,"더더욱":13057,"HD":13058,"져서":13059,"펀치":13060,"커맨드":13061,"신비":13062,"줄어":13063,"커스":13064,"##리그":13065,"김민":13066,"타인":13067,"박물관":13068,"잡혀":13069,"오가":13070,"트윈":13071,"돌아다니":13072,"빛나":13073,"##가미":13074,"애플":13075,"##iz":13076,"##OP":13077,"삼국지":13078,"훗날":13079,"##ge":13080,"들어갈":13081,"증언":13082,"해적":13083,"갈수록":13084,"멘탈":13085,"날짜":13086,"허나":13087,"절대로":13088,"천재":13089,"적군":13090,"IC":13091,"자국":13092,"일격":13093,"갈라":13094,"마비":13095,"내세":13096,"신앙":13097,"위원장":13098,"나갈":13099,"구사":13100,"신부":13101,"##큐어":13102,"##OW":13103,"나타난":13104,"별다른":13105,"노인":13106,"나눠":13107,"각본":13108,"재미있":13109,"무릎":13110,"코우":13111,"중독":13112,"나타난다":13113,"느라":13114,"기적":13115,"재정":13116,"죄다":13117,"세종":13118,"주포":13119,"바리":13120,"집행":13121,"양성":13122,"스승":13123,"철학":13124,"하락":13125,"외치":13126,"참석":13127,"놀이":13128,"구나":13129,"지위":13130,"멈추":13131,"몰랐":13132,"마이너":13133,"캠페인":13134,"과연":13135,"비례":13136,"유이":13137,"죽일":13138,"정수":13139,"개시":13140,"예산":13141,"결코":13142,"국적":13143,"적응":13144,"패션":13145,"교류":13146,"관중":13147,"호위":13148,"작화":13149,"크리스마스":13150,"한참":13151,"탄창":13152,"나간다":13153,"알려졌":13154,"매체":13155,"이브":13156,"이중":13157,"##LL":13158,"열쇠":13159,"##덩이":13160,"죽인":13161,"안경":13162,"히메":13163,"시아":13164,"상한":13165,"##ome":13166,"하야":13167,"활발":13168,"일으킨":13169,"노란":13170,"경기력":13171,"Gr":13172,"##가리":13173,"나아가":13174,"로그":13175,"선출":13176,"투명":13177,"십자":13178,"##테르":13179,"해상":13180,"흐르":13181,"with":13182,"바퀴":13183,"우연히":13184,"김종":13185,"루수":13186,"체크":13187,"##BA":13188,"희귀":13189,"명단":13190,"녹색":13191,"충성":13192,"##UN":13193,"화성":13194,"클레":13195,"##마디":13196,"진보":13197,"미안":13198,"스타크래프트":13199,"남겼":13200,"드레":13201,"이영":13202,"원주":13203,"칭찬":13204,"개수":13205,"사막":13206,"개막":13207,"첫차":13208,"주일":13209,"결말":13210,"##아웃":13211,"IS":13212,"위대":13213,"행적":13214,"적혀":13215,"##미니":13216,"갖춘":13217,"전성기":13218,"##몬드":13219,"기아":13220,"들어온":13221,"제정":13222,"당일":13223,"모래":13224,"인지도":13225,"흔적":13226,"칼리":13227,"1987":13228,"상급":13229,"기종":13230,"챌린":13231,"후방":13232,"업적":13233,"오스트리아":13234,"de":13235,"미터":13236,"강점":13237,"BE":13238,"px":13239,"임대":13240,"상성":13241,"다닌":13242,"140":13243,"어려움":13244,"농담":13245,"가져가":13246,"어지간":13247,"김동":13248,"웃음":13249,"포로":13250,"호수":13251,"계통":13252,"사유":13253,"보라":13254,"##MA":13255,"Pr":13256,"버스터":13257,"재현":13258,"대학원":13259,"취미":13260,"면적":13261,"줄이":13262,"심해":13263,"무작":13264,"매년":13265,"##ord":13266,"스프링":13267,"Love":13268,"비상":13269,"오직":13270,"체육관":13271,"클릭":13272,"토끼":13273,"거치":13274,"심사":13275,"##ud":13276,"일반인":13277,"포항":13278,"고스트":13279,"개량":13280,"앞두":13281,"##가스":13282,"##치기":13283,"사후":13284,"신장":13285,"거점":13286,"프리큐어":13287,"생존자":13288,"유적":13289,"이정":13290,"남북":13291,"강도":13292,"자책":13293,"과장":13294,"니코":13295,"ch":13296,"본체":13297,"모조리":13298,"##양함":13299,"자본":13300,"갈리":13301,"어마":13302,"으라":13303,"괴수":13304,"자극":13305,"대수":13306,"덧붙":13307,"세웠":13308,"예수":13309,"이주":13310,"시달":13311,"가을":13312,"##mp":13313,"부지":13314,"파츠":13315,"##사자":13316,"화물":13317,"##데미":13318,"##10":13319,"부작":13320,"맥스":13321,"여야":13322,"저작":13323,"전멸":13324,"##ame":13325,"기용":13326,"텐데":13327,"소위":13328,"비싸":13329,"UE":13330,"선고":13331,"##ance":13332,"아메리카":13333,"##리나":13334,"캡틴":13335,"##다란":13336,"연금":13337,"추구":13338,"가해":13339,"아쉬운":13340,"아티스트":13341,"SKT":13342,"##ax":13343,"##카드":13344,"인격":13345,"자세히":13346,"an":13347,"가짜":13348,"출입":13349,"판매량":13350,"휘두":13351,"JR":13352,"공세":13353,"채워":13354,"##ure":13355,"아카데미":13356,"유나이":13357,"유니폼":13358,"새끼":13359,"##ix":13360,"어스":13361,"흥미":13362,"900":13363,"일치":13364,"눌러":13365,"차기":13366,"GS":13367,"승점":13368,"채택":13369,"포격":13370,"##코드":13371,"공룡":13372,"일방":13373,"##이즈":13374,"단편":13375,"유나이티":13376,"취향":13377,"무지":13378,"##ick":13379,"소송":13380,"올라왔":13381,"##mer":13382,"스마트폰":13383,"도주":13384,"포드":13385,"집어":13386,"탈퇴":13387,"카트":13388,"코코":13389,"일본인":13390,"##ice":13391,"막대":13392,"사형":13393,"으러":13394,"연패":13395,"기량":13396,"색깔":13397,"타율":13398,"억지":13399,"피아노":13400,"스트리":13401,"들리":13402,"바깥":13403,"로고":13404,"몽골":13405,"귀찮":13406,"##our":13407,"로우":13408,"제작자":13409,"한마디":13410,"Bo":13411,"유통":13412,"건조":13413,"노벨":13414,"그레":13415,"코리아":13416,"상실":13417,"아즈":13418,"메리":13419,"이루어져":13420,"타선":13421,"화장실":13422,"드라이브":13423,"할머니":13424,"구경":13425,"후계":13426,"치유":13427,"마린":13428,"라이온":13429,"측정":13430,"EP":13431,"영구":13432,"식민지":13433,"지켜보":13434,"비주":13435,"무라":13436,"더러":13437,"요금":13438,"##시로":13439,"아미":13440,"자전":13441,"보존":13442,"1986":13443,"거듭":13444,"본다":13445,"채우":13446,"##공화국":13447,"선택지":13448,"어드":13449,"쌍둥이":13450,"내보":13451,"잠재":13452,"사라진":13453,"1960":13454,"아이콘":13455,"가요":13456,"##이너":13457,"OST":13458,"내렸":13459,"상인":13460,"##든가":13461,"나타났":13462,"무방":13463,"##비드":13464,"커피":13465,"강요":13466,"##랭크":13467,"레이더":13468,"메시지":13469,"##코토":13470,"인민공화국":13471,"KO":13472,"들려":13473,"Un":13474,"간신":13475,"이른":13476,"언스":13477,"이민":13478,"##고속":13479,"이슈":13480,"통산":13481,"어째서":13482,"동력":13483,"가상":13484,"고도":13485,"##러지":13486,"Ex":13487,"##랑이":13488,"포수":13489,"신사":13490,"원수":13491,"넥센":13492,"도끼":13493,"조연":13494,"색상":13495,"피터":13496,"데드":13497,"캐논":13498,"##AD":13499,"명확":13500,"오타":13501,"벌어진":13502,"몰락":13503,"연승":13504,"##qu":13505,"주택":13506,"화재":13507,"사원":13508,"여객":13509,"##멘트":13510,"루카":13511,"교장":13512,"네트워크":13513,"주소":13514,"타락":13515,"곡명":13516,"귀환":13517,"##oc":13518,"가루":13519,"냄새":13520,"브루":13521,"외전":13522,"초보":13523,"내지":13524,"몰라도":13525,"콜라보":13526,"##반도":13527,"유희왕":13528,"제갈":13529,"실망":13530,"판결":13531,"##80":13532,"소라":13533,"##시스트":13534,"칭호":13535,"떠났":13536,"모토":13537,"기울":13538,"GB":13539,"대선":13540,"경로":13541,"레알":13542,"수장":13543,"##카리":13544,"UEFA":13545,"항공기":13546,"메달":13547,"이터":13548,"스페이스":13549,"찌르":13550,"광역시":13551,"가하":13552,"남녀":13553,"위반":13554,"깔끔":13555,"매니저":13556,"잡히":13557,"비싼":13558,"거미":13559,"포르투갈":13560,"DS":13561,"고구려":13562,"타수":13563,"연합군":13564,"186":13565,"##own":13566,"sh":13567,"##ys":13568,"머물":13569,"아케":13570,"오라":13571,"약해":13572,"반동":13573,"아마도":13574,"라인업":13575,"순환":13576,"CPU":13577,"##노우":13578,"혐오":13579,"아요":13580,"##나카":13581,"교실":13582,"영주":13583,"##가시":13584,"##럼프":13585,"베네":13586,"법인":13587,"항복":13588,"백성":13589,"부른":13590,"챙겨":13591,"##라이트":13592,"글러":13593,"관찰":13594,"복지":13595,"쫓아":13596,"타운":13597,"잠수함":13598,"미스터":13599,"##ber":13600,"풀리":13601,"모를":13602,"단단":13603,"비서":13604,"주역":13605,"##라노":13606,"들여":13607,"숨겨진":13608,"주자":13609,"적합":13610,"캠프":13611,"스터":13612,"배터리":13613,"매장":13614,"수류":13615,"We":13616,"관람":13617,"익스":13618,"AM":13619,"예시":13620,"유효":13621,"강원도":13622,"불타":13623,"커리어":13624,"드래프트":13625,"줘서":13626,"싱크":13627,"##저스":13628,"히어로즈":13629,"이겨":13630,"105":13631,"공성":13632,"카츠":13633,"공업":13634,"##av":13635,"아쿠":13636,"##OC":13637,"흑인":13638,"인치":13639,"하단":13640,"유학":13641,"벌레":13642,"트라이":13643,"이스라":13644,"승객":13645,"##old":13646,"예언":13647,"용량":13648,"김재":13649,"##정부":13650,"동성":13651,"등지":13652,"고작":13653,"본사":13654,"##로디":13655,"##시타":13656,"치킨":13657,"남긴":13658,"상단":13659,"승률":13660,"##일보":13661,"싸워":13662,"국경":13663,"추억":13664,"소프트웨어":13665,"CF":13666,"면모":13667,"천만":13668,"마약":13669,"포위":13670,"나선":13671,"휴식":13672,"서구":13673,"티켓":13674,"원하":13675,"온다":13676,"관측":13677,"LI":13678,"철수":13679,"수출":13680,"일대":13681,"성남":13682,"그러니까":13683,"##orld":13684,"##리스트":13685,"도적":13686,"곤란":13687,"중립":13688,"자폭":13689,"카운트":13690,"생략":13691,"스텔":13692,"구글":13693,"흘리":13694,"개국":13695,"표지":13696,"적당히":13697,"너희":13698,"느린":13699,"수류탄":13700,"터널":13701,"상술":13702,"변환":13703,"음모":13704,"조별":13705,"클랜":13706,"마드리":13707,"기생":13708,"정하":13709,"좌석":13710,"허가":13711,"합병":13712,"다름없":13713,"봐서":13714,"추종":13715,"형상":13716,"##위대":13717,"소대":13718,"시그":13719,"사이버":13720,"실전":13721,"언젠":13722,"오크":13723,"히나":13724,"바꾼":13725,"정기":13726,"후술":13727,"아랍":13728,"였을":13729,"김대":13730,"문구":13731,"어려워":13732,"내전":13733,"마드리드":13734,"통계":13735,"1984":13736,"디스크":13737,"보험":13738,"인종":13739,"차이점":13740,"밝혀진":13741,"마디":13742,"만날":13743,"##ont":13744,"1985":13745,"글로벌":13746,"최신":13747,"근본":13748,"물려":13749,"복구":13750,"느낀":13751,"지경":13752,"입지":13753,"언더":13754,"액티브":13755,"사명":13756,"연예인":13757,"187":13758,"서포터":13759,"증오":13760,"SH":13761,"지뢰":13762,"후손":13763,"이스라엘":13764,"스트라이크":13765,"아시안":13766,"후배":13767,"용서":13768,"에르":13769,"##데이":13770,"구석":13771,"담배":13772,"3000":13773,"사정거리":13774,"위성":13775,"일족":13776,"시너지":13777,"타로":13778,"대인":13779,"크리스탈":13780,"오마":13781,"AD":13782,"##ies":13783,"허락":13784,"커다란":13785,"LC":13786,"기숙":13787,"고위":13788,"DF":13789,"급격":13790,"지르":13791,"##보이":13792,"그랜드":13793,"자막":13794,"즉위":13795,"리타":13796,"숙련":13797,"##머스":13798,"올라온":13799,"함수":13800,"논의":13801,"느낄":13802,"부각":13803,"전주":13804,"하차":13805,"구슬":13806,"텔레비전":13807,"공방":13808,"lo":13809,"KBO":13810,"행보":13811,"어뢰":13812,"몰라":13813,"미묘":13814,"경주":13815,"##팩트":13816,"토벌":13817,"시노":13818,"##하면":13819,"쓸모":13820,"감각":13821,"모니":13822,"발행":13823,"해피":13824,"새롭":13825,"아츠":13826,"말리":13827,"모노":13828,"네요":13829,"이젠":13830,"언덕":13831,"서식":13832,"It":13833,"왕위":13834,"망치":13835,"마그":13836,"##lay":13837,"연령":13838,"특전":13839,"XX":13840,"##슬러":13841,"어리":13842,"준우":13843,"넘치":13844,"살펴":13845,"금메달":13846,"중첩":13847,"이어서":13848,"에리":13849,"태평양":13850,"부딪":13851,"취약":13852,"가만":13853,"뜬금":13854,"후원":13855,"오랜만":13856,"제약":13857,"쿼터":13858,"블러드":13859,"루나":13860,"까진":13861,"노동자":13862,"무척":13863,"침략":13864,"저렴":13865,"정화":13866,"간신히":13867,"세운":13868,"##자드":13869,"총알":13870,"기관총":13871,"##OD":13872,"침입":13873,"세븐":13874,"노스":13875,"MF":13876,"드롭":13877,"간접":13878,"일본군":13879,"생년":13880,"##US":13881,"아르헨":13882,"방어구":13883,"##블린":13884,"제트":13885,"워커":13886,"흡혈":13887,"분쟁":13888,"법정":13889,"입대":13890,"##어마":13891,"헬기":13892,"든다":13893,"파르":13894,"학습":13895,"혹시":13896,"균형":13897,"드럼":13898,"맛있":13899,"가동":13900,"아테":13901,"전이":13902,"CV":13903,"진압":13904,"강자":13905,"카카":13906,"산하":13907,"##프리":13908,"모이":13909,"WWE":13910,"남아":13911,"##PM":13912,"아르헨티나":13913,"빠졌":13914,"##ann":13915,"잡아먹":13916,"곳곳":13917,"찬스":13918,"공용":13919,"텍스트":13920,"소방":13921,"평생":13922,"여우":13923,"분열":13924,"스리":13925,"NE":13926,"헤어":13927,"아이언":13928,"SE":13929,"어마어마":13930,"주차":13931,"비스":13932,"자이언츠":13933,"관점":13934,"##40":13935,"인디":13936,"중세":13937,"네오":13938,"신전":13939,"약화":13940,"악당":13941,"금방":13942,"정차":13943,"치르":13944,"고개":13945,"125":13946,"##pe":13947,"플라이":13948,"이토":13949,"거울":13950,"##30":13951,"트랜스":13952,"애정":13953,"부적":13954,"페널":13955,"결심":13956,"이수":13957,"속한다":13958,"경상북도":13959,"지리":13960,"나리":13961,"딜링":13962,"저질":13963,"반전":13964,"제작사":13965,"나폴":13966,"격추":13967,"제출":13968,"상기":13969,"##네임":13970,"성당":13971,"앨리스":13972,"##sh":13973,"연고":13974,"구리":13975,"보호막":13976,"your":13977,"니콜":13978,"이혼":13979,"따라가":13980,"양자":13981,"크림":13982,"스팀":13983,"##란다":13984,"통화":13985,"라기":13986,"토너":13987,"표면":13988,"호흡":13989,"##NA":13990,"폐쇄":13991,"##배우":13992,"사령부":13993,"금액":13994,"아저":13995,"##마크":13996,"결전":13997,"큐브":13998,"구축함":13999,"엘리트":14000,"가라":14001,"미즈":14002,"간주":14003,"코르":14004,"히토":14005,"악화":14006,"저택":14007,"보완":14008,"뮤지컬":14009,"창원":14010,"구름":14011,"이식":14012,"리온":14013,"세인트":14014,"얻어":14015,"인권":14016,"아저씨":14017,"도망가":14018,"충실":14019,"##VD":14020,"채팅":14021,"스크린":14022,"CJ":14023,"김현":14024,"선거구":14025,"분해":14026,"AS":14027,"용인":14028,"상관없":14029,"피할":14030,"늘어난":14031,"더군":14032,"참모":14033,"전파":14034,"초록":14035,"열매":14036,"주둔":14037,"지불":14038,"가리키":14039,"DE":14040,"사라진다":14041,"인용":14042,"하루카":14043,"유력":14044,"부자":14045,"##은행":14046,"암시":14047,"##키아":14048,"대왕":14049,"천안":14050,"##ng":14051,"##io":14052,"낚시":14053,"긴장":14054,"정예":14055,"도라":14056,"교과":14057,"지라":14058,"##천시":14059,"##베이":14060,"멋진":14061,"토니":14062,"프란":14063,"동양":14064,"유발":14065,"문재인":14066,"돼서":14067,"서서":14068,"보건":14069,"존재감":14070,"성별":14071,"공정":14072,"경남":14073,"체결":14074,"우에":14075,"시인":14076,"배포":14077,"학력":14078,"상세":14079,"소유자":14080,"수석":14081,"기뻐":14082,"후계자":14083,"사인":14084,"악기":14085,"답변":14086,"비아":14087,"신지":14088,"드라이버":14089,"짜증":14090,"상영":14091,"##oo":14092,"토너먼트":14093,"블라":14094,"원리":14095,"재밌":14096,"수호자":14097,"도둑":14098,"전승":14099,"엑스트라":14100,"바이오":14101,"악명":14102,"행운":14103,"##라기":14104,"로버트":14105,"우르":14106,"개설":14107,"써야":14108,"호기":14109,"170":14110,"언젠가":14111,"숨기":14112,"이듬":14113,"도박":14114,"Pro":14115,"무서운":14116,"쓰였":14117,"구미":14118,"본관":14119,"업로드":14120,"잔뜩":14121,"미쿠":14122,"일으켜":14123,"기인":14124,"이겼":14125,"선두":14126,"은신":14127,"에요":14128,"기숙사":14129,"기운":14130,"##싱턴":14131,"##월일":14132,"죽였":14133,"##ave":14134,"뱀파이어":14135,"만남":14136,"가벼":14137,"양식":14138,"실종":14139,"교도":14140,"중량":14141,"에다가":14142,"지팡":14143,"루비":14144,"##포트":14145,"릴리":14146,"요인":14147,"백인":14148,"##걸이":14149,"받아들여":14150,"보인":14151,"테라":14152,"벌어졌":14153,"로리":14154,"탐험":14155,"정황":14156,"##LE":14157,"불사":14158,"부임":14159,"임신":14160,"난입":14161,"중력":14162,"아동":14163,"처분":14164,"대책":14165,"임금":14166,"동점":14167,"LV":14168,"관리자":14169,"캐스터":14170,"디지몬":14171,"미키":14172,"심심":14173,"##번트":14174,"방송국":14175,"that":14176,"논문":14177,"야생":14178,"칼날":14179,"UP":14180,"항의":14181,"관계자":14182,"헨리":14183,"미네":14184,"생년월일":14185,"해명":14186,"백작":14187,"##나미":14188,"시카":14189,"유독":14190,"탄환":14191,"##센트":14192,"분명히":14193,"베타":14194,"호칭":14195,"##우마":14196,"복합":14197,"도루":14198,"서번트":14199,"카와":14200,"말투":14201,"윈도우":14202,"##ION":14203,"베리":14204,"동명":14205,"##슬링":14206,"생명체":14207,"문단":14208,"진주":14209,"생긴다":14210,"들어서":14211,"발렌":14212,"자녀":14213,"##ream":14214,"와일드":14215,"할인":14216,"법칙":14217,"수백":14218,"가방":14219,"다이아몬드":14220,"려던":14221,"콜로":14222,"ED":14223,"1500":14224,"어딘":14225,"단축":14226,"절차":14227,"정통":14228,"잃어버":14229,"EN":14230,"루이스":14231,"해골":14232,"분신":14233,"외계인":14234,"달하":14235,"무관":14236,"마신":14237,"영광":14238,"기상":14239,"따온":14240,"운동장":14241,"데몬":14242,"하향":14243,"이드":14244,"온도":14245,"시합":14246,"선보였":14247,"라틴":14248,"보드":14249,"이듬해":14250,"귀여운":14251,"브레":14252,"주술":14253,"분대":14254,"프로필":14255,"인력":14256,"리뷰":14257,"##ond":14258,"창고":14259,"1982":14260,"치즈":14261,"딜레이":14262,"부스터":14263,"기름":14264,"이온":14265,"니스":14266,"왠지":14267,"어라":14268,"들어왔":14269,"리오":14270,"끔찍":14271,"광장":14272,"로얄":14273,"플래시":14274,"##게임":14275,"##iss":14276,"Com":14277,"5000":14278,"사살":14279,"의학":14280,"기둥":14281,"크레":14282,"창설":14283,"뛰어넘":14284,"전동":14285,"건국":14286,"성질":14287,"울프":14288,"전북":14289,"조리":14290,"마블":14291,"한쪽":14292,"유인":14293,"막내":14294,"공허":14295,"엔젤":14296,"체험":14297,"싸웠":14298,"레딧":14299,"장인":14300,"부드":14301,"나마":14302,"##에르":14303,"잘라":14304,"퇴장":14305,"그렇지만":14306,"물고기":14307,"부사":14308,"유격":14309,"존경":14310,"민첩":14311,"집착":14312,"커녕":14313,"우정":14314,"##운서":14315,"삽입":14316,"디젤":14317,"아나운서":14318,"망가":14319,"걸맞":14320,"웨스트":14321,"걸린다":14322,"상식":14323,"참가자":14324,"아키라":14325,"승자":14326,"1950":14327,"공산당":14328,"##플레이":14329,"##IP":14330,"##11":14331,"가려":14332,"매달":14333,"창단":14334,"요약":14335,"휘말":14336,"부를":14337,"##카이":14338,"가르쳐":14339,"시상":14340,"감지":14341,"시원":14342,"작년":14343,"진학":14344,"모터":14345,"시공":14346,"그램":14347,"증상":14348,"전제":14349,"독재":14350,"아인":14351,"수면":14352,"1983":14353,"하츠":14354,"##아나":14355,"의장":14356,"불펜":14357,"##60":14358,"##다나":14359,"학기":14360,"샌드":14361,"출구":14362,"복제":14363,"##ian":14364,"by":14365,"##소녀":14366,"아틀":14367,"의해서":14368,"놓치":14369,"오디션":14370,"he":14371,"싫어":14372,"나츠":14373,"시라":14374,"유산":14375,"천하":14376,"##커스":14377,"비전":14378,"철저":14379,"선제":14380,"덩치":14381,"발굴":14382,"가공":14383,"모자라":14384,"BL":14385,"하이퍼":14386,"불렸":14387,"단원":14388,"깨달":14389,"스위스":14390,"투스":14391,"유전자":14392,"다녔":14393,"스폰":14394,"##도르":14395,"반박":14396,"어두운":14397,"##유럽":14398,"go":14399,"그럭":14400,"레지":14401,"트럼프":14402,"일으켰":14403,"여주":14404,"항구":14405,"구할":14406,"타석":14407,"리스크":14408,"코트":14409,"어렸":14410,"미만":14411,"##세대":14412,"돌입":14413,"##저럭":14414,"안녕":14415,"갑작":14416,"중형":14417,"스쿨":14418,"콘텐츠":14419,"겹치":14420,"스위치":14421,"동인":14422,"##티스":14423,"다카":14424,"비주얼":14425,"그럭저럭":14426,"사법":14427,"주니어":14428,"##쟁이":14429,"노바":14430,"##Hz":14431,"통로":14432,"준우승":14433,"배정":14434,"걸렸":14435,"##TV":14436,"수명":14437,"백제":14438,"마스크":14439,"사용자":14440,"대거":14441,"어필":14442,"알아보":14443,"출격":14444,"기재":14445,"휘하":14446,"상륙":14447,"라이플":14448,"논쟁":14449,"웨이브":14450,"쓰여":14451,"정교":14452,"열렸":14453,"이펙트":14454,"본진":14455,"단행":14456,"자전거":14457,"##투스":14458,"다녀":14459,"가죽":14460,"배트맨":14461,"보충":14462,"살아가":14463,"토마":14464,"##베스":14465,"##ory":14466,"신도":14467,"트리플":14468,"훈장":14469,"##우리":14470,"##필드":14471,"호소":14472,"##TE":14473,"시리아":14474,"식품":14475,"회담":14476,"스트레스":14477,"격차":14478,"국장":14479,"축복":14480,"인질":14481,"##ace":14482,"##rom":14483,"떠올리":14484,"케인":14485,"코미디":14486,"시트":14487,"##크라":14488,"Co":14489,"##세서":14490,"실책":14491,"##틀러":14492,"스펠":14493,"근대":14494,"완결":14495,"위안":14496,"Bl":14497,"옹호":14498,"학문":14499,"파편":14500,"##카이도":14501,"태국":14502,"평양":14503,"##누스":14504,"카를":14505,"공화":14506,"지사":14507,"유기":14508,"마우스":14509,"경전":14510,"공립":14511,"라니":14512,"갈아":14513,"루스":14514,"워싱턴":14515,"두들":14516,"팬텀":14517,"이글":14518,"부근":14519,"마케":14520,"적중":14521,"DVD":14522,"올릴":14523,"##필더":14524,"승인":14525,"쓰러뜨":14526,"미드필더":14527,"Br":14528,"원문":14529,"오키":14530,"토지":14531,"침묵":14532,"반해":14533,"돌아와":14534,"소음":14535,"빌려":14536,"메이드":14537,"디즈":14538,"시켜서":14539,"슬로":14540,"##부로":14541,"기갑":14542,"기동성":14543,"경직":14544,"소요":14545,"플래그":14546,"부실":14547,"와타":14548,"Or":14549,"##게이":14550,"중국어":14551,"세부":14552,"노려":14553,"빅토":14554,"##oth":14555,"쓰러뜨리":14556,"근거리":14557,"트롤":14558,"께서":14559,"조기":14560,"축하":14561,"해요":14562,"배출":14563,"##ows":14564,"내각":14565,"막판":14566,"결투":14567,"경상남도":14568,"무너지":14569,"보이스":14570,"복선":14571,"##산시":14572,"시신":14573,"오염":14574,"솔직":14575,"파동":14576,"방위":14577,"##MP":14578,"연습생":14579,"마감":14580,"남매":14581,"동계":14582,"리카":14583,"수능":14584,"내일":14585,"삼각":14586,"간단히":14587,"차체":14588,"과학자":14589,"후퇴":14590,"동급":14591,"테츠":14592,"기후":14593,"고객":14594,"임기":14595,"날카":14596,"##TS":14597,"옮기":14598,"철거":14599,"센스":14600,"휘두르":14601,"넘버":14602,"우세":14603,"##키지":14604,"슬라이":14605,"헝가리":14606,"##먼스":14607,"무작위":14608,"수급":14609,"왜곡":14610,"상담":14611,"학위":14612,"손상":14613,"##화점":14614,"##신교":14615,"##든지":14616,"국정":14617,"밝힌":14618,"한반도":14619,"괜히":14620,"##무시":14621,"지향":14622,"규격":14623,"무인":14624,"##IG":14625,"영지":14626,"장거리":14627,"아끼":14628,"노조":14629,"야수":14630,"##셔널":14631,"CG":14632,"약탈":14633,"마법소녀":14634,"일당":14635,"드러났":14636,"중시":14637,"기세":14638,"하마":14639,"##주교":14640,"무사히":14641,"고리":14642,"##경기":14643,"##aw":14644,"늘어났":14645,"선행":14646,"185":14647,"##하마":14648,"토크":14649,"라라":14650,"유성":14651,"쓰러지":14652,"요한":14653,"##텐도":14654,"닌텐도":14655,"패키지":14656,"스즈":14657,"##타이":14658,"최상위":14659,"했으니":14660,"장탄":14661,"멜로디":14662,"떠난":14663,"과도":14664,"##포르":14665,"미나미":14666,"야구장":14667,"간간":14668,"비치":14669,"신발":14670,"엔드":14671,"양상":14672,"록맨":14673,"대포":14674,"성전":14675,"##ale":14676,"SNS":14677,"출루":14678,"사라져":14679,"프리미엄":14680,"지칭":14681,"타쿠":14682,"그날":14683,"끝난다":14684,"즈음":14685,"변수":14686,"개발자":14687,"PV":14688,"킬러":14689,"스트리트":14690,"핑크":14691,"주류":14692,"##ike":14693,"대치":14694,"독일군":14695,"개별":14696,"페이스북":14697,"후자":14698,"해치":14699,"안개":14700,"무산":14701,"##하시":14702,"##틀랜드":14703,"특별히":14704,"더군다나":14705,"여러분":14706,"영원히":14707,"임팩트":14708,"자르":14709,"전망":14710,"사키":14711,"초인":14712,"새겨":14713,"1945":14714,"입주":14715,"어딘가":14716,"물체":14717,"Cl":14718,"챌린지":14719,"집권":14720,"##에이":14721,"업계":14722,"바디":14723,"농업":14724,"For":14725,"무시무시":14726,"데이비드":14727,"군수":14728,"리프":14729,"부착":14730,"원조":14731,"흰색":14732,"동남":14733,"##키퍼":14734,"##야수":14735,"암살자":14736,"첼시":14737,"매번":14738,"장사":14739,"RPG":14740,"브로":14741,"나미":14742,"왜냐":14743,"청주":14744,"만주":14745,"중복":14746,"##OU":14747,"브라운":14748,"이긴":14749,"##끄러":14750,"##자와":14751,"Dr":14752,"질병":14753,"커지":14754,"손실":14755,"야마토":14756,"최적":14757,"악몽":14758,"##바닥":14759,"서서히":14760,"필리핀":14761,"##ep":14762,"선조":14763,"피트":14764,"취득":14765,"##irl":14766,"벌였":14767,"##man":14768,"폭행":14769,"동아리":14770,"##ach":14771,"##ile":14772,"175":14773,"동경":14774,"수비력":14775,"1981":14776,"Sc":14777,"인방":14778,"BB":14779,"바뀐다":14780,"여인":14781,"호랑이":14782,"##여객":14783,"골키퍼":14784,"OP":14785,"서클":14786,"벨트":14787,"부동":14788,"올스타":14789,"해양":14790,"구별":14791,"102":14792,"##공항":14793,"호시":14794,"잠입":14795,"줄어든":14796,"117":14797,"지팡이":14798,"헤르":14799,"어이":14800,"고장":14801,"진격":14802,"인피":14803,"가진다":14804,"퍼지":14805,"파생":14806,"끊임":14807,"향한":14808,"##12":14809,"Team":14810,"106":14811,"배역":14812,"못지":14813,"모로":14814,"교토":14815,"골라":14816,"##VA":14817,"LA":14818,"물량":14819,"해킹":14820,"##철도":14821,"##ink":14822,"플러스":14823,"Sk":14824,"선임":14825,"일람":14826,"파울":14827,"제독":14828,"아닌데":14829,"퍼포":14830,"의외로":14831,"사회주의":14832,"Mo":14833,"체인지":14834,"퍼포먼스":14835,"페널티":14836,"신나":14837,"직장":14838,"리라":14839,"GP":14840,"합계":14841,"권위":14842,"중장":14843,"가만히":14844,"오이":14845,"국당":14846,"기호":14847,"레코드":14848,"공수":14849,"청와":14850,"늘리":14851,"DD":14852,"##데드":14853,"마물":14854,"무술":14855,"115":14856,"##아키":14857,"내려오":14858,"응용":14859,"시크":14860,"김경":14861,"세팅":14862,"라우":14863,"사립":14864,"데이트":14865,"코난":14866,"원형":14867,"이웃":14868,"평점":14869,"라그":14870,"이종":14871,"##플렉":14872,"약물":14873,"메이커":14874,"가디언":14875,"기동전":14876,"주행":14877,"귀국":14878,"언데드":14879,"신입":14880,"최우":14881,"연산":14882,"##ial":14883,"FM":14884,"##승부":14885,"청와대":14886,"고마":14887,"밀도":14888,"투쟁":14889,"##토스":14890,"개장":14891,"##런트":14892,"##메이":14893,"##ish":14894,"엘리자":14895,"국어":14896,"장로":14897,"당대":14898,"에릭":14899,"SU":14900,"파란색":14901,"1979":14902,"건가":14903,"서기":14904,"레일":14905,"후임":14906,"여전":14907,"풀려":14908,"에디":14909,"긴급":14910,"집합":14911,"UN":14912,"만만":14913,"냐면":14914,"배달":14915,"##래시":14916,"이와":14917,"커서":14918,"징역":14919,"챔피언십":14920,"억지로":14921,"스파이더":14922,"프로토":14923,"포즈":14924,"오스만":14925,"나비":14926,"트릭":14927,"선사":14928,"동해":14929,"친한":14930,"합리":14931,"쇼핑":14932,"개신교":14933,"권장":14934,"분포":14935,"오우":14936,"트루":14937,"장신":14938,"김상":14939,"기장":14940,"행방":14941,"폴리":14942,"추방":14943,"택시":14944,"##ower":14945,"저하":14946,"천연":14947,"공백":14948,"감동":14949,"회색":14950,"##네시아":14951,"갑작스":14952,"안양":14953,"이룬":14954,"전무":14955,"프레이":14956,"해산":14957,"은지":14958,"일화":14959,"며칠":14960,"궁금":14961,"프리미어":14962,"연구원":14963,"독점":14964,"증폭":14965,"신자":14966,"수동":14967,"즉사":14968,"모스크":14969,"확산":14970,"명의":14971,"##II":14972,"관여":14973,"야간":14974,"주관":14975,"Bla":14976,"면허":14977,"교단":14978,"여학생":14979,"다닌다":14980,"공인":14981,"조이":14982,"방치":14983,"스캔":14984,"재회":14985,"사귀":14986,"선보이":14987,"거친":14988,"임의":14989,"모집":14990,"폐기":14991,"##하르트":14992,"듀오":14993,"빌딩":14994,"유미":14995,"##오루":14996,"대단히":14997,"조상":14998,"혼돈":14999,"만일":15000,"명백":15001,"뱅크":15002,"김진":15003,"고인":15004,"##GE":15005,"전남":15006,"썬더":15007,"저지르":15008,"##숭이":15009,"라이너":15010,"##운동":15011,"코멘트":15012,"감상":15013,"아레나":15014,"캘리":15015,"##버그":15016,"바둑":15017,"성경":15018,"렌즈":15019,"버섯":15020,"사무소":15021,"##크로":15022,"CH":15023,"매출":15024,"##아이":15025,"분당":15026,"we":15027,"맡기":15028,"캐치":15029,"고블린":15030,"데모":15031,"피닉스":15032,"발목":15033,"돌연":15034,"BS":15035,"##IM":15036,"출간":15037,"조명":15038,"타이거즈":15039,"처참":15040,"Ne":15041,"##비치":15042,"불량":15043,"Star":15044,"장미":15045,"광산":15046,"깜짝":15047,"올라갔":15048,"오메":15049,"광선":15050,"박지":15051,"느려":15052,"로빈":15053,"##프리카":15054,"승무원":15055,"드릴":15056,"김기":15057,"##레일":15058,"자비":15059,"이어졌":15060,"전라남도":15061,"모듈":15062,"달라지":15063,"구성원":15064,"포켓몬스터":15065,"비웃":15066,"##벌레":15067,"무스":15068,"상관없이":15069,"가까워":15070,"복원":15071,"처지":15072,"PR":15073,"해머":15074,"우월":15075,"고소":15076,"실장":15077,"ID":15078,"우주선":15079,"고로":15080,"질투":15081,"히가시":15082,"목사":15083,"되게":15084,"스타디":15085,"통틀":15086,"평일":15087,"하인":15088,"계수":15089,"간호":15090,"지연":15091,"와카":15092,"##번에":15093,"배급":15094,"##히코":15095,"##킨다":15096,"##쿠라":15097,"드루":15098,"Wind":15099,"미국인":15100,"버드":15101,"수색":15102,"우드":15103,"화산":15104,"바꿀":15105,"350":15106,"라이온즈":15107,"유출":15108,"대조":15109,"난사":15110,"협정":15111,"##99":15112,"유언":15113,"파이트":15114,"수립":15115,"탐정":15116,"터져":15117,"엄격":15118,"시외":15119,"조롱":15120,"히라":15121,"up":15122,"스탠드":15123,"풍부":15124,"##전자":15125,"운수":15126,"자꾸":15127,"줄여":15128,"서포트":15129,"LP":15130,"재학":15131,"파멸":15132,"심의":15133,"DC":15134,"골렘":15135,"한두":15136,"우익":15137,"##카락":15138,"국무":15139,"메이플":15140,"산맥":15141,"War":15142,"머리카락":15143,"fe":15144,"체감":15145,"And":15146,"정발":15147,"펼쳤":15148,"스텝":15149,"우유":15150,"의자":15151,"검술":15152,"온천":15153,"##체스터":15154,"도저히":15155,"##ass":15156,"미루":15157,"바스":15158,"쿠라":15159,"당사자":15160,"##가드":15161,"청구":15162,"치열":15163,"나기":15164,"모험가":15165,"센트":15166,"합동":15167,"육상":15168,"토미":15169,"##러진":15170,"포장":15171,"국제공항":15172,"뒤늦":15173,"사이코":15174,"##ms":15175,"반부":15176,"키타":15177,"##me":15178,"올라간다":15179,"루크":15180,"젤리":15181,"##타카":15182,"360":15183,"Man":15184,"소용":15185,"실내":15186,"이라크":15187,"오로지":15188,"다운로드":15189,"에픽":15190,"본토":15191,"진이":15192,"112":15193,"마코토":15194,"축소":15195,"토시":15196,"기력":15197,"권유":15198,"제네":15199,"특급":15200,"조용히":15201,"극도":15202,"규제":15203,"디즈니":15204,"승진":15205,"키워":15206,"배수":15207,"##gh":15208,"##어놓":15209,"##블로":15210,"따뜻":15211,"비틀":15212,"우치":15213,"##CG":15214,"낙하":15215,"##릴라":15216,"##렐라":15217,"루머":15218,"비명":15219,"담긴":15220,"시사":15221,"108":15222,"##도리":15223,"All":15224,"베를":15225,"러시":15226,"려다":15227,"AKB":15228,"나노":15229,"티아":15230,"거둔":15231,"극한":15232,"##tle":15233,"니아":15234,"하계":15235,"##pp":15236,"사이클":15237,"##ble":15238,"##amp":15239,"충청남도":15240,"반감":15241,"간지":15242,"범죄자":15243,"바르셀":15244,"지인":15245,"루피":15246,"오락":15247,"출범":15248,"바르셀로나":15249,"디바":15250,"바른":15251,"비유":15252,"우즈":15253,"##ft":15254,"여섯":15255,"지목":15256,"수직":15257,"친해":15258,"시바":15259,"베이징":15260,"알라":15261,"안쪽":15262,"토큰":15263,"중지":15264,"단종":15265,"이걸로":15266,"일요일":15267,"프렌":15268,"103":15269,"메일":15270,"수월":15271,"스러워":15272,"경북":15273,"세금":15274,"탐지":15275,"폭파":15276,"스테이":15277,"##거지":15278,"황후":15279,"능력자":15280,"전당":15281,"협의":15282,"세라":15283,"리즈":15284,"어시스트":15285,"##yle":15286,"스타디움":15287,"서머":15288,"##70":15289,"그래서인지":15290,"실은":15291,"페리":15292,"이글스":15293,"신데":15294,"여파":15295,"##ous":15296,"물품":15297,"중순":15298,"직선":15299,"망했":15300,"세리":15301,"실현":15302,"배제":15303,"조우":15304,"##슬라":15305,"스태":15306,"모임":15307,"##now":15308,"##atch":15309,"베테":15310,"신학":15311,"##sp":15312,"막아내":15313,"리버풀":15314,"카구":15315,"불행":15316,"분산":15317,"돌아갔":15318,"막히":15319,"##르타":15320,"당당":15321,"조커":15322,"One":15323,"잡아내":15324,"Mar":15325,"가져오":15326,"아가씨":15327,"귀엽":15328,"##orm":15329,"수염":15330,"생전":15331,"손자":15332,"김해":15333,"평론":15334,"얻어맞":15335,"캐시":15336,"토키":15337,"살펴보":15338,"유의":15339,"신용":15340,"나스":15341,"들어올":15342,"New":15343,"To":15344,"ON":15345,"명문":15346,"모음":15347,"나섰":15348,"거북":15349,"타일":15350,"기묘":15351,"드론":15352,"추세":15353,"바론":15354,"여고":15355,"무승부":15356,"ex":15357,"막상":15358,"체중":15359,"저지른":15360,"낙선":15361,"##스티벌":15362,"나루토":15363,"나요":15364,"진상":15365,"페스티벌":15366,"수비수":15367,"IN":15368,"경악":15369,"챙기":15370,"##란히":15371,"토요일":15372,"던가":15373,"BR":15374,"##사이":15375,"로이":15376,"##민주":15377,"천문":15378,"##구나":15379,"까이":15380,"Part":15381,"맥주":15382,"스미스":15383,"수습":15384,"태풍":15385,"가난":15386,"더빙":15387,"채보":15388,"KR":15389,"지녔":15390,"기수":15391,"가질":15392,"떠오르":15393,"연봉":15394,"함락":15395,"마카":15396,"김용":15397,"Gam":15398,"강등":15399,"칭하":15400,"쳐서":15401,"비극":15402,"센서":15403,"강사":15404,"그만두":15405,"되살":15406,"SF":15407,"주최":15408,"후회":15409,"패전":15410,"힙합":15411,"##ING":15412,"주어지":15413,"##그리":15414,"대성":15415,"극히":15416,"집어넣":15417,"잠실":15418,"산탄":15419,"고속도로":15420,"CS":15421,"좌절":15422,"엄밀":15423,"국판":15424,"듀스":15425,"명목":15426,"배려":15427,"동반":15428,"자아":15429,"배드":15430,"훼손":15431,"스핀":15432,"인접":15433,"유망":15434,"대시":15435,"노가":15436,"실시간":15437,"개척":15438,"힐러":15439,"코마":15440,"철권":15441,"##ment":15442,"리가":15443,"기부":15444,"PP":15445,"##방송":15446,"에반":15447,"사무실":15448,"발리":15449,"##ae":15450,"흔들리":15451,"반짝":15452,"케이블":15453,"##64":15454,"주체":15455,"하여":15456,"##더라":15457,"128":15458,"원시":15459,"스티븐":15460,"압력":15461,"모스":15462,"상반":15463,"고증":15464,"장탄수":15465,"꼬마":15466,"쇼크":15467,"스테이션":15468,"##불명":15469,"유재":15470,"혜택":15471,"스와":15472,"투척":15473,"도장":15474,"신속":15475,"포탄":15476,"닉네임":15477,"늘려":15478,"인자":15479,"##ase":15480,"혈액":15481,"호남":15482,"중화민국":15483,"##사기":15484,"농장":15485,"십시오":15486,"마땅":15487,"아이러":15488,"각지":15489,"##ree":15490,"장성":15491,"쉬워":15492,"이타":15493,"샤이":15494,"쳐들":15495,"사나":15496,"초콜":15497,"재개":15498,"바지":15499,"조카":15500,"역습":15501,"추리":15502,"주교":15503,"걸즈":15504,"고치":15505,"음료":15506,"휴가":15507,"유니크":15508,"벤치":15509,"히틀러":15510,"##리온":15511,"반도":15512,"엑시":15513,"암호":15514,"내린":15515,"구조물":15516,"소니":15517,"버려서":15518,"고시":15519,"구르":15520,"구장":15521,"찾아보":15522,"날씨":15523,"샷건":15524,"##구장":15525,"변동":15526,"총장":15527,"En":15528,"캘리포":15529,"몰리":15530,"시로":15531,"네티":15532,"확장팩":15533,"퍼즐":15534,"도리":15535,"생길":15536,"나르":15537,"##노리":15538,"제갈량":15539,"둘러싸":15540,"그라운드":15541,"물러나":15542,"에로":15543,"시상식":15544,"짐작":15545,"하프":15546,"1978":15547,"알바":15548,"질서":15549,"1973":15550,"근원":15551,"레온":15552,"믹스":15553,"JT":15554,"함부로":15555,"느꼈":15556,"트로피":15557,"해병대":15558,"두들겨":15559,"##저리":15560,"어쩌면":15561,"야쿠":15562,"184":15563,"로맨":15564,"사퇴":15565,"##우치":15566,"거론":15567,"들어와":15568,"오브젝트":15569,"##az":15570,"두드":15571,"##bo":15572,"대행":15573,"상사":15574,"##페라":15575,"캘리포니아":15576,"그치":15577,"보라색":15578,"흔한":15579,"##혀서":15580,"슬라":15581,"시비":15582,"찬성":15583,"라즈":15584,"갈색":15585,"거든":15586,"첫째":15587,"짐승":15588,"AN":15589,"가담":15590,"깊이":15591,"나뉜":15592,"##블리":15593,"##러그":15594,"각오":15595,"인재":15596,"사로":15597,"World":15598,"##ason":15599,"양손":15600,"구동":15601,"##AY":15602,"111":15603,"그랑":15604,"##케이션":15605,"속한":15606,"쿠데":15607,"220":15608,"여럿":15609,"지워":15610,"##바르":15611,"안심":15612,"호불":15613,"##iki":15614,"호불호":15615,"퇴각":15616,"##베리":15617,"무용":15618,"백화점":15619,"##돌이":15620,"최저":15621,"혁신":15622,"공감":15623,"183":15624,"강림":15625,"키보드":15626,"정반":15627,"##사리":15628,"결제":15629,"##키스탄":15630,"베기":15631,"감수":15632,"가벼운":15633,"지수":15634,"JP":15635,"##저기":15636,"오더":15637,"포스터":15638,"사야":15639,"사리":15640,"쫓겨":15641,"동서":15642,"프린세스":15643,"말기":15644,"트레이너":15645,"진급":15646,"마계":15647,"전날":15648,"계층":15649,"베어스":15650,"고무":15651,"쏟아":15652,"네티즌":15653,"알렉스":15654,"내게":15655,"원더":15656,"동아":15657,"##ear":15658,"So":15659,"경호":15660,"중동":15661,"빨간색":15662,"대령":15663,"특별시":15664,"동행":15665,"산타":15666,"흡사":15667,"##hen":15668,"후반기":15669,"가르치":15670,"라크":15671,"장례":15672,"셔틀":15673,"노란색":15674,"여기저기":15675,"갤러":15676,"중부":15677,"장난감":15678,"마오":15679,"240":15680,"일어날":15681,"잡아":15682,"았었":15683,"사관":15684,"막강":15685,"타이탄":15686,"기리":15687,"리처":15688,"##MS":15689,"뜬금없이":15690,"신선":15691,"접하":15692,"sp":15693,"수지":15694,"맞춘":15695,"엔지":15696,"퍼져":15697,"세뇌":15698,"그거":15699,"핀란드":15700,"학생회":15701,"피로":15702,"##are":15703,"포획":15704,"드레스":15705,"견해":15706,"FW":15707,"무섭":15708,"베를린":15709,"탐색":15710,"##기에":15711,"드문":15712,"요미":15713,"클린":15714,"보좌":15715,"인과":15716,"유혹":15717,"여의":15718,"GO":15719,"매주":15720,"선수단":15721,"##붙이":15722,"양반":15723,"교복":15724,"패밀리":15725,"유입":15726,"봉쇄":15727,"모은":15728,"국도":15729,"후미":15730,"영감":15731,"우호":15732,"강렬":15733,"원곡":15734,"스코틀랜드":15735,"연쇄":15736,"뮌헨":15737,"상주":15738,"입자":15739,"##직자":15740,"페어":15741,"케이드":15742,"선진":15743,"1974":15744,"##차기":15745,"방송사":15746,"무공":15747,"발라":15748,"문화재":15749,"마일":15750,"프랑스어":15751,"생체":15752,"재건":15753,"tv":15754,"클론":15755,"먹히":15756,"우측":15757,"려다가":15758,"박쥐":15759,"끌어올":15760,"소재지":15761,"트라우마":15762,"도어":15763,"역명":15764,"해져":15765,"점유":15766,"운송":15767,"토대":15768,"즐겨":15769,"##브라":15770,"콤비":15771,"##루미":15772,"방탄":15773,"무실":15774,"경찰서":15775,"아이러니":15776,"드로우":15777,"아베":15778,"위로":15779,"왕실":15780,"결계":15781,"김준":15782,"서바이":15783,"잭슨":15784,"시달리":15785,"약자":15786,"와인":15787,"신중":15788,"공격수":15789,"결혼식":15790,"세로":15791,"데려가":15792,"비스트":15793,"http":15794,"수여":15795,"##하나":15796,"침대":15797,"지부":15798,"1972":15799,"연금술":15800,"알레":15801,"복사":15802,"##90":15803,"##ven":15804,"래퍼":15805,"트윈스":15806,"##ife":15807,"포터":15808,"관료":15809,"끼치":15810,"화폐":15811,"도덕":15812,"바이올":15813,"제물":15814,"전락":15815,"집회":15816,"통칭":15817,"찾아오":15818,"바나":15819,"윈드":15820,"https":15821,"##싸움":15822,"감싸":15823,"로이드":15824,"완공":15825,"튼튼":15826,"트랩":15827,"##ade":15828,"허무":15829,"장판":15830,"순양함":15831,"프라임":15832,"리안":15833,"##AP":15834,"Wi":15835,"취업":15836,"##베이터":15837,"프론":15838,"디시":15839,"역량":15840,"스즈키":15841,"선장":15842,"콘솔":15843,"소금":15844,"##박스":15845,"##으로":15846,"폭스":15847,"탐사":15848,"덴마크":15849,"세자":15850,"될지":15851,"영양":15852,"출혈":15853,"##렉션":15854,"강경":15855,"흔하":15856,"우회":15857,"##던지":15858,"쓸데":15859,"빈도":15860,"라마":15861,"##act":15862,"도감":15863,"MB":15864,"하스":15865,"글씨":15866,"도트":15867,"##데레":15868,"홀드":15869,"##ai":15870,"대타":15871,"일곱":15872,"##ank":15873,"아바타":15874,"##깨비":15875,"##gin":15876,"연설":15877,"할까":15878,"억제":15879,"이순":15880,"튕겨":15881,"간섭":15882,"여단":15883,"관통력":15884,"해라":15885,"상무":15886,"공대":15887,"낭비":15888,"do":15889,"단행본":15890,"졌으며":15891,"##aby":15892,"루프":15893,"히든":15894,"부작용":15895,"노무":15896,"메이지":15897,"모형":15898,"창문":15899,"104":15900,"영화제":15901,"디오":15902,"오노":15903,"청나라":15904,"승차":15905,"##out":15906,"전동차":15907,"##으므로":15908,"인도네시아":15909,"소통":15910,"법무":15911,"Fate":15912,"no":15913,"트레일러":15914,"전격":15915,"침투":15916,"성씨":15917,"술사":15918,"비추":15919,"재직":15920,"태클":15921,"워크래프트":15922,"페미니":15923,"손꼽":15924,"다가오":15925,"기다려":15926,"당초":15927,"매니아":15928,"한창":15929,"블로":15930,"다큐":15931,"돌아간다":15932,"1975":15933,"##우트":15934,"커스텀":15935,"쿠데타":15936,"마트":15937,"마피아":15938,"##lect":15939,"시카고":15940,"신데렐라":15941,"실상":15942,"타가":15943,"히로시":15944,"LIVE":15945,"간간히":15946,"부재":15947,"형편":15948,"백업":15949,"제재":15950,"파밍":15951,"123":15952,"설령":15953,"손오":15954,"출산":15955,"라가":15956,"성실":15957,"스탈":15958,"깃발":15959,"끊임없이":15960,"범용":15961,"##ET":15962,"##에른":15963,"하하":15964,"##토니":15965,"공산주의":15966,"장애물":15967,"스나이":15968,"경연":15969,"강간":15970,"김일":15971,"스트라이커":15972,"##oll":15973,"##어질":15974,"NH":15975,"벨기에":15976,"우승자":15977,"끌어들":15978,"전향":15979,"소득":15980,"고쳐":15981,"스타리그":15982,"시호":15983,"미미":15984,"검증":15985,"조종사":15986,"##UM":15987,"##모스":15988,"할리":15989,"토요":15990,"중점":15991,"Up":15992,"품질":15993,"이른바":15994,"왕비":15995,"OS":15996,"여타":15997,"카자":15998,"1976":15999,"라스트":16000,"소나":16001,"are":16002,"나나":16003,"근접전":16004,"말레이":16005,"변이":16006,"항해":16007,"외곽":16008,"III":16009,"##ork":16010,"워크":16011,"##천군":16012,"##추어":16013,"스피릿":16014,"굴러":16015,"##다보":16016,"마라":16017,"파도":16018,"강릉":16019,"성분":16020,"최선":16021,"원주민":16022,"이스트":16023,"오지":16024,"정석":16025,"마산":16026,"사악":16027,"휘둘":16028,"##버려":16029,"띄우":16030,"을수록":16031,"대접":16032,"사사":16033,"혈통":16034,"섀도우":16035,"모니터":16036,"그러므로":16037,"발명":16038,"판사":16039,"이어진":16040,"유료":16041,"##바야":16042,"Do":16043,"단기":16044,"##ary":16045,"이어받":16046,"하급":16047,"구상":16048,"타르":16049,"차리":16050,"특공":16051,"선박":16052,"리코":16053,"리모":16054,"카더라":16055,"맞붙":16056,"Oh":16057,"제왕":16058,"공통점":16059,"왜냐하면":16060,"검열":16061,"광물":16062,"나빠":16063,"하반":16064,"##way":16065,"티스":16066,"전생":16067,"왼손":16068,"넘어갔":16069,"##루션":16070,"동전":16071,"입문":16072,"119":16073,"브라이언":16074,"키라":16075,"유연":16076,"##바지":16077,"트리거":16078,"친하":16079,"천천":16080,"포도":16081,"찾아내":16082,"중상":16083,"쓰인":16084,"해질":16085,"명분":16086,"올드":16087,"탄핵":16088,"##ey":16089,"마틴":16090,"##ich":16091,"명사":16092,"공헌":16093,"변해":16094,"고종":16095,"스플":16096,"장남":16097,"화해":16098,"원장":16099,"전송":16100,"사로잡":16101,"##께끼":16102,"135":16103,"수수께끼":16104,"급행":16105,"소모량":16106,"중심지":16107,"단검":16108,"109":16109,"##슈타인":16110,"##모함":16111,"초콜릿":16112,"우루":16113,"중고":16114,"원한":16115,"박정희":16116,"바이에른":16117,"초상":16118,"우울":16119,"코스튬":16120,"미지":16121,"지선":16122,"##저우":16123,"중기":16124,"##타입":16125,"ES":16126,"중위":16127,"확신":16128,"대변":16129,"괴롭히":16130,"김수":16131,"##미터":16132,"Mk":16133,"공단":16134,"입증":16135,"베테랑":16136,"##어내":16137,"일체":16138,"한나라":16139,"모스크바":16140,"잔인":16141,"##능력":16142,"한나라당":16143,"관우":16144,"##키리":16145,"찾아온":16146,"일리":16147,"엘리베이터":16148,"검토":16149,"오페라":16150,"시모":16151,"너머":16152,"수인":16153,"Ad":16154,"잉여":16155,"예약":16156,"시온":16157,"친다":16158,"단발":16159,"조국":16160,"부패":16161,"질주":16162,"친절":16163,"찾아볼":16164,"불태":16165,"손오공":16166,"치우":16167,"대법":16168,"아이디어":16169,"lv":16170,"땅볼":16171,"부유":16172,"겹쳐":16173,"대동":16174,"처하":16175,"히스":16176,"##벤처":16177,"교리":16178,"all":16179,"##동자":16180,"Day":16181,"어드벤처":16182,"존스":16183,"진단":16184,"시게":16185,"##니시":16186,"떠난다":16187,"강호":16188,"발판":16189,"보스턴":16190,"성배":16191,"아스카":16192,"터스":16193,"유망주":16194,"천황":16195,"케빈":16196,"로보":16197,"콘스탄":16198,"AFC":16199,"시외버스":16200,"곡인":16201,"건네":16202,"이어진다":16203,"스태프":16204,"도쿠":16205,"부속":16206,"이병":16207,"천천히":16208,"nd":16209,"체코":16210,"버스트":16211,"정해진":16212,"압축":16213,"충족":16214,"학사":16215,"##pt":16216,"고는":16217,"182":16218,"##orn":16219,"과자":16220,"카카오":16221,"메리트":16222,"이현":16223,"니혼":16224,"고스":16225,"카시":16226,"굴욕":16227,"##페이":16228,"구독":16229,"준다는":16230,"무제":16231,"드러난다":16232,"도깨비":16233,"에이지":16234,"앤드":16235,"그릇":16236,"##하루":16237,"프로게이":16238,"프로게이머":16239,"분할":16240,"동정":16241,"손님":16242,"크레이":16243,"오메가":16244,"붙인":16245,"##라미":16246,"강전":16247,"화상":16248,"군부":16249,"바치":16250,"연수":16251,"자제":16252,"나폴레":16253,"루마":16254,"토마스":16255,"친분":16256,"플랜":16257,"어색":16258,"후일":16259,"대박":16260,"머무":16261,"라이언":16262,"지붕":16263,"되돌아":16264,"민중":16265,"위엄":16266,"아지":16267,"싱가":16268,"싱가포르":16269,"항공모함":16270,"디자이너":16271,"평등":16272,"##가루":16273,"121":16274,"홋카이도":16275,"치카":16276,"미궁":16277,"레이디":16278,"나폴레옹":16279,"마운":16280,"지력":16281,"##레일리아":16282,"삼성전자":16283,"눈치채":16284,"라그나":16285,"따왔":16286,"1971":16287,"일관":16288,"노르웨이":16289,"##본다":16290,"머니":16291,"Windows":16292,"고고":16293,"저자":16294,"##의자":16295,"레이블":16296,"으려는":16297,"메트로":16298,"##네마":16299,"왕복":16300,"박살내":16301,"와이번":16302,"FF":16303,"이럴":16304,"테이블":16305,"폭격기":16306,"스택":16307,"발레":16308,"이어져":16309,"동구":16310,"145":16311,"물어":16312,"사촌":16313,"107":16314,"아님":16315,"렉스":16316,"맹세":16317,"디펜":16318,"속해":16319,"에버":16320,"망명":16321,"##테이션":16322,"극대":16323,"이경":16324,"현금":16325,"RA":16326,"꼽히":16327,"열정":16328,"가져다":16329,"찰스":16330,"이틀":16331,"엑시즈":16332,"스케일":16333,"광기":16334,"합작":16335,"1977":16336,"점검":16337,"강점기":16338,"진에":16339,"##쿠스":16340,"대전차":16341,"##ah":16342,"김포":16343,"엔트리":16344,"퍼스트":16345,"##EM":16346,"비리":16347,"기르":16348,"##사스":16349,"일가":16350,"하이라이트":16351,"카리스":16352,"여포":16353,"질량":16354,"유탄":16355,"키를":16356,"창립":16357,"DP":16358,"다가가":16359,"변태":16360,"##리안":16361,"리틀":16362,"종결":16363,"할로":16364,"원숭이":16365,"촉수":16366,"후드":16367,"아까":16368,"하사":16369,"지오":16370,"작위":16371,"무거운":16372,"마타":16373,"ML":16374,"아아":16375,"이모":16376,"고집":16377,"사체":16378,"AA":16379,"묘하":16380,"##very":16381,"신동":16382,"두려워":16383,"자율":16384,"리퍼":16385,"블레이":16386,"##uck":16387,"마술사":16388,"##버리":16389,"보고서":16390,"재배":16391,"존중":16392,"조화":16393,"츠카":16394,"본질":16395,"그레이트":16396,"독일어":16397,"안타까":16398,"##리스타":16399,"표절":16400,"무지막":16401,"사족":16402,"무지막지":16403,"다닐":16404,"오렌":16405,"챔프":16406,"총합":16407,"파스":16408,"원전":16409,"ne":16410,"크라이":16411,"천장":16412,"선교":16413,"IT":16414,"공신":16415,"평행":16416,"엔지니어":16417,"본다면":16418,"보르":16419,"나뉜다":16420,"스런":16421,"br":16422,"석유":16423,"부스":16424,"그쳤":16425,"쳐들어":16426,"중거리":16427,"자존":16428,"감탄":16429,"브라더스":16430,"임진":16431,"놓여":16432,"전라북도":16433,"##ph":16434,"Sw":16435,"부숴":16436,"DPS":16437,"호크":16438,"자네":16439,"자책점":16440,"피카":16441,"BPM":16442,"게이머":16443,"JTBC":16444,"소집":16445,"정사":16446,"지분":16447,"농민":16448,"물자":16449,"210":16450,"스포일러":16451,"메카닉":16452,"카마":16453,"봉사":16454,"노무현":16455,"연간":16456,"해소":16457,"178":16458,"인칭":16459,"란스":16460,"##ero":16461,"몸통":16462,"스가":16463,"1969":16464,"다이스":16465,"움직일":16466,"과일":16467,"113":16468,"손쉽":16469,"스티브":16470,"유가":16471,"이대로":16472,"털리":16473,"관장":16474,"리처드":16475,"저기":16476,"대위":16477,"유격수":16478,"쿠스":16479,"교과서":16480,"오니":16481,"무실점":16482,"착한":16483,"교차로":16484,"##ool":16485,"로키":16486,"사수":16487,"타구":16488,"서적":16489,"동속":16490,"검정":16491,"레이어":16492,"노가다":16493,"##들이":16494,"165":16495,"##바나":16496,"오스트레일리아":16497,"광명":16498,"브레이커":16499,"마유":16500,"으라고":16501,"시뮬":16502,"어나":16503,"아닐까":16504,"김지":16505,"1968":16506,"날뛰":16507,"하치":16508,"맨체스터":16509,"동대":16510,"러스":16511,"냉정":16512,"1963":16513,"데빌":16514,"주식회사":16515,"철저히":16516,"##ical":16517,"뜬다":16518,"총독":16519,"토트":16520,"놀라운":16521,"건데":16522,"불쌍":16523,"빙판":16524,"명시":16525,"기차":16526,"아픈":16527,"출판사":16528,"시골":16529,"NBA":16530,"부원":16531,"프랜":16532,"힘입":16533,"이오":16534,"입사":16535,"필름":16536,"장타":16537,"주축":16538,"다니엘":16539,"##urn":16540,"부산광역시":16541,"가구":16542,"뜨거운":16543,"착륙":16544,"##퍼드":16545,"백만":16546,"##ype":16547,"Ph":16548,"병역":16549,"블리자드":16550,"오케":16551,"탄압":16552,"슬픔":16553,"실체":16554,"##ARD":16555,"부천":16556,"Con":16557,"말씀":16558,"에드워드":16559,"2021":16560,"윤리":16561,"모순":16562,"##구미":16563,"배웠":16564,"##anc":16565,"주사위":16566,"호의":16567,"##센스":16568,"스노우":16569,"매각":16570,"고아":16571,"광경":16572,"마당":16573,"제니":16574,"지장":16575,"깨끗":16576,"유치원":16577,"터보":16578,"미오":16579,"매드":16580,"불능":16581,"마인드":16582,"카리":16583,"스폰서":16584,"페스":16585,"훔쳐":16586,"목걸이":16587,"##뜨려":16588,"어벤":16589,"부스트":16590,"부러":16591,"##은색":16592,"김유":16593,"155":16594,"서열":16595,"배운":16596,"완화":16597,"지혜":16598,"용산":16599,"올라갈":16600,"Cr":16601,"파운드":16602,"변장":16603,"##ung":16604,"참사":16605,"평론가":16606,"엄연히":16607,"줄기":16608,"유니버스":16609,"울리":16610,"이라도":16611,"멍청":16612,"OVA":16613,"사우스":16614,"한다며":16615,"김승":16616,"수천":16617,"울트라맨":16618,"싸운":16619,"답답":16620,"아드":16621,"명명":16622,"문양":16623,"굴리":16624,"하나하나":16625,"보편":16626,"변했":16627,"개명":16628,"122":16629,"Qu":16630,"우타":16631,"서류":16632,"트윗":16633,"납득":16634,"상금":16635,"미러":16636,"초청":16637,"워프":16638,"##항공":16639,"배구":16640,"모델링":16641,"씨앗":16642,"구로":16643,"외국어":16644,"평상":16645,"##테일":16646,"미르":16647,"Station":16648,"181":16649,"까마":16650,"레인지":16651,"프로그래":16652,"제리":16653,"##업자":16654,"압권":16655,"TVA":16656,"뚜렷":16657,"이노":16658,"치안":16659,"감자":16660,"열혈":16661,"가설":16662,"144":16663,"정문":16664,"중구":16665,"난무":16666,"친척":16667,"진동":16668,"취재":16669,"엘레":16670,"집계":16671,"중원":16672,"엘리자베스":16673,"박수":16674,"##소년":16675,"본능":16676,"수위":16677,"LO":16678,"발키리":16679,"도마":16680,"향후":16681,"##ww":16682,"절친":16683,"좌익":16684,"이케":16685,"아닌지":16686,"KOF":16687,"고사":16688,"재앙":16689,"태우":16690,"철갑":16691,"마케팅":16692,"서명":16693,"자산":16694,"리나":16695,"주석":16696,"싫어하":16697,"츠바":16698,"헷갈":16699,"성명":16700,"깨지":16701,"오죽":16702,"녹화":16703,"우연":16704,"고등학생":16705,"##끼리":16706,"생김":16707,"##시피":16708,"도심":16709,"##iver":16710,"케이크":16711,"우린":16712,"카지":16713,"애칭":16714,"무늬":16715,"지낸":16716,"초능력":16717,"소생":16718,"작정":16719,"어나더":16720,"at":16721,"패자":16722,"행진":16723,"서방":16724,"강민":16725,"너스":16726,"매트":16727,"##들리":16728,"지로":16729,"국토":16730,"트래":16731,"사연":16732,"사직":16733,"시조":16734,"테스":16735,"##DD":16736,"잃어버린":16737,"곤충":16738,"베인":16739,"신하":16740,"일까":16741,"어이없":16742,"152":16743,"서울대":16744,"일렉":16745,"잊혀":16746,"아리아":16747,"드래곤볼":16748,"용암":16749,"유아":16750,"골프":16751,"가이드":16752,"love":16753,"결의":16754,"로프":16755,"타츠":16756,"아마추어":16757,"경부":16758,"실용":16759,"액체":16760,"학대":16761,"실사":16762,"##폭탄":16763,"시어":16764,"##ens":16765,"경사":16766,"국방부":16767,"정성":16768,"산소":16769,"발발":16770,"벌인":16771,"멋대로":16772,"이대":16773,"자사":16774,"쿠니":16775,"표적":16776,"##리칸":16777,"전지":16778,"as":16779,"즐거":16780,"워터":16781,"편리":16782,"벙커":16783,"트릴":16784,"좌측":16785,"유엔":16786,"일어난다":16787,"저렇":16788,"안타깝":16789,"싸이":16790,"##ost":16791,"스카우트":16792,"아스트":16793,"민간인":16794,"도색":16795,"##이동":16796,"##어트":16797,"TR":16798,"자칭":16799,"카네":16800,"다케":16801,"침몰":16802,"114":16803,"엄밀히":16804,"워즈":16805,"사투":16806,"주머니":16807,"마음대로":16808,"##워즈":16809,"##ence":16810,"1930":16811,"우마":16812,"라이즈":16813,"거지":16814,"wiki":16815,"몰살":16816,"잠들":16817,"마하":16818,"이소":16819,"##이나":16820,"끝날":16821,"박성":16822,"예쁘":16823,"만점":16824,"인성":16825,"미성":16826,"롤러":16827,"IM":16828,"변명":16829,"##nt":16830,"괴로":16831,"의정부":16832,"직책":16833,"##마루":16834,"개교":16835,"초록색":16836,"망토":16837,"##변이":16838,"돌연변이":16839,"from":16840,"기질":16841,"초점":16842,"항모":16843,"##드로":16844,"##ise":16845,"옥상":16846,"이이":16847,"각도":16848,"코토":16849,"각인":16850,"법사":16851,"##int":16852,"포크":16853,"리본":16854,"##시스코":16855,"##버렸":16856,"이진":16857,"버틸":16858,"변한":16859,"습니까":16860,"텍사스":16861,"플라스":16862,"이누":16863,"1920":16864,"개구리":16865,"원피스":16866,"맞춰서":16867,"템플":16868,"마모":16869,"아자":16870,"스컬":16871,"망하":16872,"루리":16873,"179":16874,"방학":16875,"##이치로":16876,"만능":16877,"고의":16878,"유스":16879,"이념":16880,"정밀":16881,"##하여":16882,"아냐":16883,"발급":16884,"##AK":16885,"##베트":16886,"죄책":16887,"통째":16888,"등극":16889,"학급":16890,"카레":16891,"모시":16892,"Super":16893,"기스":16894,"브래":16895,"이원":16896,"포탈":16897,"즐길":16898,"에디션":16899,"쿠마":16900,"적자":16901,"MG":16902,"Fr":16903,"격려":16904,"1940":16905,"이명박":16906,"BJ":16907,"can":16908,"##자치":16909,"##oy":16910,"로라":16911,"용자":16912,"##지능":16913,"인공지능":16914,"동성애":16915,"조항":16916,"방심":16917,"아담":16918,"포병":16919,"슈퍼맨":16920,"미인":16921,"혼인":16922,"이른다":16923,"정신력":16924,"제치":16925,"이빨":16926,"www":16927,"##ign":16928,"발탁":16929,"쳐도":16930,"적절히":16931,"CM":16932,"선동":16933,"오렌지":16934,"엉망":16935,"관직":16936,"종영":16937,"엮이":16938,"인벤":16939,"연전":16940,"협동":16941,"##ans":16942,"스타트":16943,"써도":16944,"이태":16945,"177":16946,"북아":16947,"마찰":16948,"안동":16949,"돌아갈":16950,"일컫":16951,"어설":16952,"대역":16953,"##타운":16954,"남동생":16955,"기소":16956,"죄책감":16957,"소비자":16958,"##과이":16959,"튜버":16960,"끼워":16961,"에미":16962,"추후":16963,"달라진다":16964,"네이션":16965,"리사":16966,"호러":16967,"##ug":16968,"포착":16969,"겐지":16970,"최순":16971,"Dream":16972,"헬멧":16973,"펌프":16974,"풍선":16975,"정반대":16976,"다거나":16977,"##바이트":16978,"장벽":16979,"##바야시":16980,"아케이드":16981,"공속":16982,"감당":16983,"124":16984,"이윤":16985,"밝혀진다":16986,"은폐":16987,"##전차":16988,"블럭":16989,"억울":16990,"1967":16991,"금강":16992,"##야스":16993,"선로":16994,"어려울":16995,"저서":16996,"니다":16997,"##느리":16998,"더럽":16999,"유진":17000,"갱신":17001,"고가":17002,"버텨":17003,"원로":17004,"반경":17005,"127":17006,"다시금":17007,"준다고":17008,"USB":17009,"마에":17010,"##슬리":17011,"해냈":17012,"그해":17013,"가리킨다":17014,"아무튼":17015,"오른손":17016,"교역":17017,"협조":17018,"페어리":17019,"나인":17020,"정점":17021,"오다":17022,"도약":17023,"용이":17024,"예의":17025,"익히":17026,"아사히":17027,"부동산":17028,"아울":17029,"아쿠아":17030,"신곡":17031,"해운":17032,"this":17033,"시오":17034,"##IR":17035,"인해서":17036,"내기":17037,"유카":17038,"페르시아":17039,"스틱":17040,"1200":17041,"중국인":17042,"##나베":17043,"##코트":17044,"분홍":17045,"##vel":17046,"보낼":17047,"쉴드":17048,"타치":17049,"450":17050,"잔혹":17051,"시타":17052,"고발":17053,"카운티":17054,"아이디":17055,"연동":17056,"왕족":17057,"기본기":17058,"욕설":17059,"##철수":17060,"마친":17061,"독립운동":17062,"##질랜드":17063,"컴백":17064,"ERA":17065,"##지사":17066,"##ode":17067,"군요":17068,"민감":17069,"뉴질랜드":17070,"필립":17071,"출동":17072,"교도소":17073,"초과":17074,"크래프트":17075,"누스":17076,"절벽":17077,"선원":17078,"바쿠":17079,"##uk":17080,"강했":17081,"##VER":17082,"버거":17083,"##젤레스":17084,"떨어질":17085,"수신":17086,"에도":17087,"지역구":17088,"게르":17089,"대차":17090,"비단":17091,"호드":17092,"부채":17093,"시크릿":17094,"부친":17095,"가져온":17096,"##버린":17097,"제사":17098,"수감":17099,"무도":17100,"후쿠오카":17101,"사방":17102,"프레스":17103,"베스":17104,"침착":17105,"갇혀":17106,"사무라이":17107,"Fl":17108,"발각":17109,"방침":17110,"뿌려":17111,"스토어":17112,"Pl":17113,"후유":17114,"변한다":17115,"회관":17116,"물리치":17117,"덩어리":17118,"청춘":17119,"대세":17120,"로렌":17121,"어려웠":17122,"팔라":17123,"물려받":17124,"카테":17125,"보강":17126,"Ver":17127,"스로":17128,"밀어내":17129,"##린다는":17130,"대피":17131,"바꿨":17132,"내보내":17133,"##나기":17134,"##역사":17135,"제의":17136,"CE":17137,"##생활":17138,"연이":17139,"그러면":17140,"섞여":17141,"피오":17142,"구형":17143,"급격히":17144,"저질렀":17145,"키미":17146,"아랫":17147,"잡힌":17148,"##킵니다":17149,"게끔":17150,"EC":17151,"종전":17152,"철도역":17153,"진에어":17154,"디스플레이":17155,"EXP":17156,"연소":17157,"카리스마":17158,"재즈":17159,"##공사":17160,"style":17161,"내외":17162,"애완":17163,"함장":17164,"놀랍":17165,"가마":17166,"측근":17167,"쌓이":17168,"##민주당":17169,"발전소":17170,"방사능":17171,"도르":17172,"번지":17173,"날카로운":17174,"선포":17175,"##헤이":17176,"스쿼":17177,"코스프레":17178,"애인":17179,"실존":17180,"레나":17181,"보낸다":17182,"사와":17183,"유재석":17184,"히카":17185,"##ier":17186,"신한":17187,"궁합":17188,"마야":17189,"퇴치":17190,"미쳐":17191,"반성":17192,"판도":17193,"강대":17194,"가위":17195,"현자":17196,"카쿠":17197,"리바":17198,"격렬":17199,"하이드":17200,"기법":17201,"분자":17202,"워리어":17203,"가오":17204,"Sch":17205,"예방":17206,"미아":17207,"잔류":17208,"##페이스":17209,"산다":17210,"김구":17211,"Girl":17212,"당국":17213,"Season":17214,"사물":17215,"인문":17216,"1962":17217,"##ash":17218,"징계":17219,"IP":17220,"오퍼":17221,"앞선":17222,"##려고":17223,"러쉬":17224,"박자":17225,"문신":17226,"왕가":17227,"##속기":17228,"ar":17229,"자이언트":17230,"근로":17231,"La":17232,"모빌":17233,"이놈":17234,"코노":17235,"DM":17236,"모욕":17237,"전담":17238,"약혼":17239,"화기":17240,"강타":17241,"NO":17242,"아름답":17243,"반역":17244,"일어":17245,"162":17246,"이카":17247,"흡혈귀":17248,"유동":17249,"이단":17250,"정조":17251,"흑마":17252,"tr":17253,"사치":17254,"중견":17255,"118":17256,"흥분":17257,"종로":17258,"높여":17259,"친애":17260,"올라와":17261,"화석":17262,"WC":17263,"시종":17264,"가져왔":17265,"점심":17266,"터졌":17267,"쿠바":17268,"퀴즈":17269,"고립":17270,"##끄럽":17271,"제주도":17272,"패트":17273,"노아":17274,"기동력":17275,"##믹스":17276,"그루":17277,"분배":17278,"##reat":17279,"1966":17280,"##IX":17281,"아처":17282,"##나와":17283,"유우키":17284,"브론":17285,"이용자":17286,"피자":17287,"명나라":17288,"위쪽":17289,"부가":17290,"헬리":17291,"카피":17292,"레이싱":17293,"틀린":17294,"로스트":17295,"토라":17296,"단백":17297,"타이어":17298,"황당":17299,"##ib":17300,"만난다":17301,"##시고":17302,"박진":17303,"경성":17304,"오를":17305,"계곡":17306,"실린":17307,"왕후":17308,"벌써":17309,"이행":17310,"314":17311,"달려가":17312,"##돌프":17313,"자존심":17314,"학술":17315,"달려들":17316,"##치아":17317,"생김새":17318,"제노":17319,"위해선":17320,"스나이퍼":17321,"건드리":17322,"던진":17323,"탈환":17324,"태생":17325,"##usic":17326,"월간":17327,"저글":17328,"Max":17329,"##사랑":17330,"##보기":17331,"중소":17332,"피지컬":17333,"감추":17334,"남동":17335,"##탐정":17336,"관문":17337,"날렸":17338,"우두":17339,"었었":17340,"실적":17341,"##우라":17342,"망설":17343,"한양":17344,"750":17345,"##방울":17346,"1964":17347,"덧붙여":17348,"금요일":17349,"대검":17350,"입시":17351,"그간":17352,"능가":17353,"안무":17354,"적시타":17355,"불길":17356,"##리얼":17357,"갖춰":17358,"Vol":17359,"TS":17360,"뱅가드":17361,"##수리":17362,"숙소":17363,"라미":17364,"소서":17365,"유고":17366,"휩쓸":17367,"DNA":17368,"그쪽":17369,"여태":17370,"정전":17371,"토트넘":17372,"어째서인지":17373,"내셔널":17374,"얼티":17375,"급속":17376,"스파이더맨":17377,"Ed":17378,"아오이":17379,"천상":17380,"궁전":17381,"시범":17382,"중재":17383,"요격":17384,"##ose":17385,"ld":17386,"##마리":17387,"할로윈":17388,"통솔":17389,"레아":17390,"모종":17391,"성사":17392,"코파":17393,"스피어":17394,"대학생":17395,"중도":17396,"나이프":17397,"사슬":17398,"헤라":17399,"탈취":17400,"진술":17401,"##리드":17402,"스타즈":17403,"AV":17404,"존슨":17405,"에메":17406,"직위":17407,"한꺼":17408,"한꺼번에":17409,"까마귀":17410,"소소":17411,"입원":17412,"호리":17413,"##시대":17414,"괴인":17415,"과시":17416,"나이츠":17417,"황태":17418,"amp":17419,"욕망":17420,"계절":17421,"불참":17422,"##서스":17423,"Col":17424,"쓰리":17425,"혼합":17426,"##부키":17427,"야당":17428,"##te":17429,"so":17430,"생태":17431,"넘쳐":17432,"기껏":17433,"피치":17434,"시킵니다":17435,"오만":17436,"학년도":17437,"항공사":17438,"GM":17439,"비자":17440,"저글링":17441,"점멸":17442,"HE":17443,"모인":17444,"질환":17445,"##사르":17446,"미정":17447,"극심":17448,"##ail":17449,"##msys":17450,"페르소":17451,"날린다":17452,"##ition":17453,"ldmsys":17454,"원판":17455,"간판":17456,"머스":17457,"그란":17458,"안겨":17459,"스탈린":17460,"천국":17461,"충청북도":17462,"스탭":17463,"히드라":17464,"이별":17465,"홀리":17466,"우지":17467,"도대":17468,"테르":17469,"필사":17470,"과금":17471,"시시":17472,"마기":17473,"rd":17474,"터뜨리":17475,"Night":17476,"각국":17477,"입힌다":17478,"하지":17479,"##티노":17480,"욕심":17481,"##구니":17482,"BC":17483,"차장":17484,"##와라":17485,"마르코":17486,"테리":17487,"상냥":17488,"토우":17489,"강인":17490,"나들":17491,"not":17492,"조립":17493,"레버":17494,"샘플":17495,"시안":17496,"회로":17497,"##키스":17498,"##당초":17499,"모아서":17500,"앨런":17501,"태워":17502,"미녀":17503,"나들목":17504,"날아오":17505,"리버스":17506,"##워프":17507,"군데":17508,"##IL":17509,"이사장":17510,"지루":17511,"지크":17512,"김주":17513,"알렸":17514,"단자":17515,"스매":17516,"승패":17517,"지지율":17518,"요코하마":17519,"암컷":17520,"인텔":17521,"공국":17522,"##히토":17523,"##ild":17524,"빠져나가":17525,"하여금":17526,"168":17527,"김치":17528,"올린다":17529,"일일":17530,"##아치":17531,"김광":17532,"페르소나":17533,"오토바이":17534,"Let":17535,"수소":17536,"아비":17537,"알렉산드":17538,"조르":17539,"물약":17540,"##그라":17541,"도미":17542,"스윙":17543,"제발":17544,"마쓰":17545,"병행":17546,"부시":17547,"희생자":17548,"디아블로":17549,"오사":17550,"키요":17551,"##닐라":17552,"학회":17553,"피난":17554,"단백질":17555,"상부":17556,"난민":17557,"스크롤":17558,"##ody":17559,"바텀":17560,"만렙":17561,"테니스":17562,"등재":17563,"실려":17564,"목욕":17565,"사탕":17566,"빙결":17567,"Black":17568,"어원":17569,"펑크":17570,"159":17571,"일환":17572,"##바리":17573,"여겼":17574,"코끼리":17575,"밀리언":17576,"알아내":17577,"신작":17578,"무녀":17579,"이승만":17580,"##파이":17581,"##세지":17582,"도배":17583,"퍼펙트":17584,"BD":17585,"나눈":17586,"평택":17587,"##클린":17588,"무신":17589,"칼라":17590,"말레이시아":17591,"라인하르트":17592,"부처":17593,"예요":17594,"아마존":17595,"미노":17596,"리자":17597,"인쇄":17598,"여주인":17599,"보로":17600,"해변":17601,"##진호":17602,"옮겼":17603,"쓰러진":17604,"해역":17605,"아리스":17606,"오즈":17607,"파고":17608,"신생":17609,"팔리":17610,"화신":17611,"금발":17612,"환생":17613,"둥지":17614,"마도카":17615,"대니":17616,"한가":17617,"터진":17618,"두꺼":17619,"싸운다":17620,"직행":17621,"1948":17622,"배울":17623,"mar":17624,"##ough":17625,"응답":17626,"해전":17627,"발사기":17628,"아메리칸":17629,"국기":17630,"까다로운":17631,"진흥":17632,"까다롭":17633,"AF":17634,"MM":17635,"챔스":17636,"절단":17637,"엉덩이":17638,"1944":17639,"미소녀":17640,"세례":17641,"도대체":17642,"모의":17643,"무능":17644,"1965":17645,"성벽":17646,"OG":17647,"부제":17648,"히사":17649,"##33":17650,"##모습":17651,"명장":17652,"시켜야":17653,"쿠르":17654,"유머":17655,"중공":17656,"깨어나":17657,"프롤":17658,"일조":17659,"##앤젤레스":17660,"로스앤젤레스":17661,"##레아":17662,"퓨전":17663,"스텔스":17664,"섬멸":17665,"못해서":17666,"노부나가":17667,"석사":17668,"충남":17669,"방언":17670,"##스카":17671,"프랑크":17672,"회계":17673,"불상":17674,"스쿼드":17675,"노릇":17676,"##멘터리":17677,"아카네":17678,"끝났":17679,"아포":17680,"주저":17681,"RE":17682,"섭취":17683,"아슬":17684,"울음":17685,"와이번스":17686,"수중":17687,"식스":17688,"수아":17689,"말려":17690,"모나":17691,"때로":17692,"약체":17693,"필라":17694,"4000":17695,"눈앞":17696,"모았":17697,"Op":17698,"##gr":17699,"일명":17700,"들키":17701,"대국":17702,"안토니":17703,"스네":17704,"카일":17705,"스케이":17706,"찔러":17707,"좌파":17708,"전임":17709,"빅토리아":17710,"꿈꾸":17711,"지면":17712,"사임":17713,"동상":17714,"집필":17715,"고래":17716,"객관":17717,"출석":17718,"##aster":17719,"차가":17720,"접수":17721,"##스크림":17722,"##무지":17723,"빌보드":17724,"공교":17725,"내린다":17726,"급하":17727,"외야수":17728,"##app":17729,"마을버스":17730,"그리스도":17731,"메디":17732,"##orts":17733,"##타리":17734,"끌려가":17735,"평상시":17736,"목포":17737,"확립":17738,"비평":17739,"인피니티":17740,"이나마":17741,"선회":17742,"사이토":17743,"대안":17744,"##성군":17745,"그리핀":17746,"낮추":17747,"대승":17748,"연세대":17749,"아유":17750,"유메":17751,"##uc":17752,"보살":17753,"쿄코":17754,"피우":17755,"베이비":17756,"사천":17757,"교향":17758,"두루":17759,"드워프":17760,"애용":17761,"혼혈":17762,"1946":17763,"##고속도로":17764,"십자군":17765,"아수":17766,"신관":17767,"##은이":17768,"워드":17769,"공동체":17770,"성지":17771,"이계":17772,"##시티":17773,"주공":17774,"PK":17775,"마르크":17776,"에코":17777,"다큐멘터리":17778,"주입":17779,"##렉터":17780,"루미":17781,"장본":17782,"해고":17783,"알렉산더":17784,"무자":17785,"서울시":17786,"최상급":17787,"보우":17788,"컨디션":17789,"그려져":17790,"적힌":17791,"말라":17792,"그랑프리":17793,"동북":17794,"위시":17795,"슬퍼":17796,"휴게":17797,"늘어난다":17798,"스카웃":17799,"김대중":17800,"실리":17801,"이무":17802,"##CE":17803,"주파":17804,"스기":17805,"대면":17806,"##ject":17807,"en":17808,"편의점":17809,"껍질":17810,"스타워즈":17811,"평판":17812,"교대":17813,"이니":17814,"##OO":17815,"EXT":17816,"탄소":17817,"##티니":17818,"침해":17819,"블라디":17820,"득표율":17821,"가령":17822,"아쉬움":17823,"##ari":17824,"단련":17825,"폭로":17826,"math":17827,"믿음":17828,"카게":17829,"비로":17830,"자력":17831,"컴뱃":17832,"전도":17833,"방안":17834,"줍니다":17835,"면제":17836,"수컷":17837,"사지":17838,"퍼시":17839,"민폐":17840,"집사":17841,"le":17842,"휴대폰":17843,"AL":17844,"흑막":17845,"테이프":17846,"CR":17847,"독백":17848,"크롬":17849,"##뜨렸":17850,"라비":17851,"솔저":17852,"히로시마":17853,"정서":17854,"숙청":17855,"소마":17856,"달인":17857,"섬광":17858,"아르바이트":17859,"EZ":17860,"리프트":17861,"돌아올":17862,"두려움":17863,"막부":17864,"스모":17865,"벨라":17866,"성대":17867,"##프란":17868,"리부":17869,"##각형":17870,"와타나베":17871,"구호":17872,"달콤":17873,"큐어":17874,"경제학":17875,"항성":17876,"원자력":17877,"감성":17878,"##iel":17879,"##트론":17880,"프랭크":17881,"우미":17882,"공명":17883,"대해선":17884,"단서":17885,"강동":17886,"벗겨":17887,"냉장":17888,"지각":17889,"남학생":17890,"##퍼니":17891,"관광객":17892,"##디스":17893,"홈경기":17894,"151":17895,"줄여서":17896,"찬양":17897,"보복":17898,"유즈":17899,"격퇴":17900,"138":17901,"타우":17902,"아름다":17903,"Gu":17904,"하와":17905,"신념":17906,"신조":17907,"SA":17908,"##미르":17909,"던지라":17910,"가해자":17911,"장본인":17912,"티저":17913,"광복":17914,"남양":17915,"개업":17916,"케리":17917,"320":17918,"하도":17919,"172":17920,"기하":17921,"비비":17922,"GSL":17923,"눈동자":17924,"은메달":17925,"로비":17926,"##애나":17927,"타카하시":17928,"샤를":17929,"정우":17930,"사르":17931,"휴먼":17932,"벡터":17933,"수성":17934,"##오피스":17935,"뛰어들":17936,"으신":17937,"상시":17938,"남한":17939,"그려진":17940,"가이아":17941,"무지개":17942,"##TA":17943,"막혀":17944,"조수":17945,"김병":17946,"천주교":17947,"ATK":17948,"##ats":17949,"순천":17950,"##ye":17951,"##도전":17952,"다치":17953,"의의":17954,"정답":17955,"어벤져":17956,"단역":17957,"보직":17958,"강아지":17959,"변함":17960,"EU":17961,"##eah":17962,"##바람":17963,"##올라":17964,"아폴":17965,"불화":17966,"동아시아":17967,"개막전":17968,"견디":17969,"자루":17970,"주한":17971,"315":17972,"로크":17973,"시네마":17974,"1961":17975,"##총장":17976,"컬렉션":17977,"##부인":17978,"걸까":17979,"풍경":17980,"GD":17981,"서바이벌":17982,"일각":17983,"##뜨린":17984,"천지":17985,"고맙":17986,"걸음":17987,"배후":17988,"##중간":17989,"얼티밋":17990,"투고":17991,"배리":17992,"고난":17993,"TOP":17994,"마쳤":17995,"테레":17996,"Mag":17997,"오공":17998,"158":17999,"##랍니다":18000,"거스":18001,"균열":18002,"동사":18003,"##다드":18004,"대교":18005,"바닷":18006,"내정":18007,"다간":18008,"오른다":18009,"그리하여":18010,"라이드":18011,"CL":18012,"표기법":18013,"그렸":18014,"상원":18015,"재질":18016,"탁월":18017,"깃털":18018,"도스":18019,"흑역사":18020,"카사":18021,"손잡이":18022,"가왕":18023,"악행":18024,"캡슐":18025,"무한도전":18026,"통보":18027,"스칼":18028,"마미":18029,"스톡":18030,"##이센":18031,"시련":18032,"추모":18033,"로맨스":18034,"AB":18035,"민병":18036,"NT":18037,"물리학":18038,"ver":18039,"리믹스":18040,"수확":18041,"흉내":18042,"동메달":18043,"카이저":18044,"내면":18045,"숭배":18046,"일산":18047,"비키":18048,"루마니아":18049,"UC":18050,"구울":18051,"매그":18052,"여수":18053,"##oh":18054,"이세":18055,"##eth":18056,"드러냈":18057,"바랍니다":18058,"이순신":18059,"충고":18060,"표식":18061,"위함":18062,"##ron":18063,"박스오피스":18064,"소꿉":18065,"쿠사":18066,"스파크":18067,"슬라이드":18068,"섞인":18069,"제대":18070,"독보":18071,"결과물":18072,"병살":18073,"올바":18074,"금고":18075,"##세요":18076,"##ings":18077,"아이즈":18078,"주차장":18079,"이호":18080,"김일성":18081,"마주치":18082,"유마":18083,"구제":18084,"청사":18085,"##메리카":18086,"사범":18087,"신상":18088,"제인":18089,"다투":18090,"어판":18091,"쿠리":18092,"유한":18093,"그레이드":18094,"건립":18095,"레이지":18096,"176":18097,"공로":18098,"컴퍼니":18099,"##운수":18100,"도요":18101,"방정":18102,"아무렇":18103,"크라운":18104,"떠돌":18105,"도사":18106,"다저스":18107,"##맥스":18108,"삽질":18109,"will":18110,"간파":18111,"운반":18112,"지미":18113,"Is":18114,"ME":18115,"재수":18116,"예고편":18117,"수라":18118,"보가":18119,"직무":18120,"원했":18121,"##느님":18122,"계략":18123,"저항력":18124,"멈춰":18125,"테란":18126,"병과":18127,"호응":18128,"발톱":18129,"타리":18130,"##inal":18131,"궁수":18132,"심정":18133,"126":18134,"김윤":18135,"마수":18136,"차림":18137,"신임":18138,"1949":18139,"오로치":18140,"드러난":18141,"정의당":18142,"Am":18143,"과격":18144,"대명":18145,"완벽히":18146,"하느님":18147,"자작":18148,"기온":18149,"폴아웃":18150,"승려":18151,"##성이":18152,"상어":18153,"친일":18154,"치렀":18155,"우두머리":18156,"이점":18157,"10000":18158,"리볼":18159,"마지":18160,"어그":18161,"주의자":18162,"몸매":18163,"##저래":18164,"Don":18165,"테오":18166,"문법":18167,"보루":18168,"감금":18169,"서원":18170,"타스":18171,"으려면":18172,"##ult":18173,"유라":18174,"인플":18175,"크로우":18176,"라이트닝":18177,"무선":18178,"바이킹":18179,"응급":18180,"코로나":18181,"노라":18182,"154":18183,"맡겨":18184,"사망자":18185,"like":18186,"레시피":18187,"LE":18188,"패왕":18189,"세르비아":18190,"총사":18191,"흉악":18192,"WH":18193,"방울":18194,"맷집":18195,"KB":18196,"뒤쪽":18197,"Time":18198,"132":18199,"##총리":18200,"##MAN":18201,"내려갔":18202,"주황":18203,"전법":18204,"총선거":18205,"법안":18206,"유해":18207,"드루이드":18208,"무비":18209,"자카":18210,"걸친":18211,"웨폰":18212,"거꾸":18213,"김성근":18214,"레슬링":18215,"센트럴":18216,"아테나":18217,"난리":18218,"new":18219,"##덕션":18220,"성폭":18221,"어긋":18222,"강서":18223,"성직자":18224,"멸종":18225,"##13":18226,"떨어뜨리":18227,"기뻐하":18228,"응시":18229,"##빨리":18230,"지배자":18231,"베어":18232,"이즈미":18233,"넘겼":18234,"강습":18235,"천체":18236,"벗어난":18237,"저승":18238,"이래저래":18239,"튀어나오":18240,"노린":18241,"##리언":18242,"218":18243,"완성도":18244,"니트":18245,"코프":18246,"이용객":18247,"테크닉":18248,"이리저리":18249,"르노":18250,"Mi":18251,"피드":18252,"파인":18253,"장신구":18254,"##GA":18255,"예쁜":18256,"행하":18257,"로열":18258,"코디":18259,"만지":18260,"국민당":18261,"##ov":18262,"취지":18263,"##oul":18264,"스콜":18265,"급식":18266,"충격파":18267,"트론":18268,"##18":18269,"상의":18270,"서리":18271,"라이징":18272,"손목":18273,"선봉":18274,"리츠":18275,"##조합":18276,"엠블":18277,"이영호":18278,"안젤":18279,"탐구":18280,"유신":18281,"쥬얼":18282,"키노":18283,"당나라":18284,"노비":18285,"짝사랑":18286,"더미":18287,"지터":18288,"##ob":18289,"##라이나":18290,"제너":18291,"핑계":18292,"보트":18293,"태조":18294,"였음":18295,"여긴":18296,"전염":18297,"무슬":18298,"##나르":18299,"리우스":18300,"야망":18301,"미남":18302,"과언":18303,"블랙홀":18304,"유능":18305,"후반전":18306,"어드밴":18307,"고조":18308,"담겨":18309,"##ould":18310,"돌아온다":18311,"이쿠":18312,"키로":18313,"##처럼":18314,"통틀어":18315,"156":18316,"##보우":18317,"마가":18318,"iOS":18319,"무궁":18320,"Ser":18321,"##친구":18322,"one":18323,"마마":18324,"164":18325,"##alk":18326,"리리":18327,"##tern":18328,"재벌":18329,"##yn":18330,"##레븐":18331,"카제":18332,"숙련도":18333,"139":18334,"나란히":18335,"배율":18336,"필두":18337,"##활약":18338,"유카리":18339,"##15":18340,"고우":18341,"모에":18342,"시간대":18343,"미세":18344,"이인":18345,"##up":18346,"구청":18347,"들으면":18348,"153":18349,"조던":18350,"네크로":18351,"하츠네":18352,"하우":18353,"교정":18354,"저격수":18355,"Gaming":18356,"먼지":18357,"플리":18358,"하나님":18359,"##레이크":18360,"##reak":18361,"반장":18362,"콜롬":18363,"올라간":18364,"공격기":18365,"거꾸로":18366,"커플링":18367,"무슬림":18368,"양심":18369,"합법":18370,"초등학생":18371,"빼앗기":18372,"가져갔":18373,"김두":18374,"나열":18375,"이광":18376,"##der":18377,"웃기":18378,"##able":18379,"GK":18380,"하드웨어":18381,"멋지":18382,"##고사":18383,"겁니다":18384,"접전":18385,"##제스":18386,"리터":18387,"##그마":18388,"엉뚱":18389,"전두":18390,"청장":18391,"성숙":18392,"후면":18393,"지성":18394,"상공":18395,"세미":18396,"##라이언스":18397,"##바스":18398,"최하":18399,"148":18400,"거뒀":18401,"디비전":18402,"Car":18403,"맞먹":18404,"##ions":18405,"비즈":18406,"허브":18407,"신주":18408,"인천광역시":18409,"연달":18410,"##사고":18411,"진도":18412,"탄막":18413,"실업":18414,"##엘라":18415,"스케줄":18416,"표창":18417,"동등":18418,"얼라이언스":18419,"Your":18420,"타키":18421,"셋째":18422,"오바":18423,"단의":18424,"벌금":18425,"푸르":18426,"모른다는":18427,"주유":18428,"##문화":18429,"167":18430,"##널드":18431,"볼드":18432,"김선":18433,"장시":18434,"걸릴":18435,"냉장고":18436,"스마일":18437,"대등":18438,"호스":18439,"즐겁":18440,"203":18441,"동지":18442,"북서":18443,"배열":18444,"지표":18445,"몰아넣":18446,"카렌":18447,"가히":18448,"끊기":18449,"애드":18450,"선지":18451,"로제":18452,"황혼":18453,"프로덕션":18454,"애국":18455,"데미":18456,"SSR":18457,"지킬":18458,"창작물":18459,"##백과":18460,"##주의자":18461,"##PA":18462,"무색":18463,"사료":18464,"1958":18465,"브라우":18466,"가나":18467,"1941":18468,"음향":18469,"174":18470,"스나":18471,"놀리":18472,"오역":18473,"지나친":18474,"주술사":18475,"야마모토":18476,"승급":18477,"알려준다":18478,"영화배우":18479,"##ull":18480,"누이":18481,"휴스턴":18482,"도모":18483,"치러":18484,"공모":18485,"무죄":18486,"사야카":18487,"##프란시스코":18488,"##퀘어":18489,"샌프란시스코":18490,"전례":18491,"라틴어":18492,"슬픈":18493,"종말":18494,"여주인공":18495,"se":18496,"유타":18497,"타당":18498,"아수라":18499,"##재기":18500,"동년":18501,"Min":18502,"설탕":18503,"법학":18504,"##시다":18505,"##전사":18506,"버블":18507,"번식":18508,"적이":18509,"앞세":18510,"무안":18511,"RO":18512,"##셉트":18513,"시뮬레이션":18514,"142":18515,"자키":18516,"통행":18517,"지지자":18518,"바이크":18519,"사내":18520,"처녀":18521,"##상가":18522,"LTE":18523,"광범":18524,"레이븐":18525,"영등":18526,"문헌":18527,"헤드샷":18528,"빈약":18529,"인명":18530,"##니코":18531,"염색":18532,"스페인어":18533,"카인":18534,"주가":18535,"순간이동":18536,"##무네":18537,"163":18538,"던졌":18539,"혼동":18540,"런처":18541,"원화":18542,"과감":18543,"박탈":18544,"파이프":18545,"가라앉":18546,"한층":18547,"##기업":18548,"배상":18549,"수령":18550,"차일드":18551,"덤벼":18552,"맹활약":18553,"토비":18554,"해준다":18555,"레인보우":18556,"득실":18557,"이오리":18558,"프로이센":18559,"##ube":18560,"##ECT":18561,"일련":18562,"러너":18563,"뽑아내":18564,"##해졌":18565,"마스코트":18566,"꼴찌":18567,"1954":18568,"염두":18569,"우편":18570,"BGA":18571,"레바":18572,"리볼버":18573,"##아티아":18574,"졸업식":18575,"네스":18576,"크로아티아":18577,"강수":18578,"월요일":18579,"묻혀":18580,"진로":18581,"##스레":18582,"드로":18583,"훔치":18584,"안보":18585,"제자리":18586,"##ll":18587,"전학":18588,"have":18589,"후쿠시마":18590,"사가":18591,"pr":18592,"태권":18593,"회견":18594,"맥락":18595,"제지":18596,"단식":18597,"찰나":18598,"크리스토":18599,"황실":18600,"설마":18601,"out":18602,"주어진":18603,"레슨":18604,"절정":18605,"음력":18606,"오리온":18607,"밀레":18608,"수하":18609,"기관포":18610,"페미니즘":18611,"대목":18612,"먹여":18613,"연막":18614,"능숙":18615,"발현":18616,"대외":18617,"득표수":18618,"장례식":18619,"상속":18620,"약칭":18621,"이룬다":18622,"이만":18623,"카토":18624,"##ICE":18625,"##립트":18626,"##랄드":18627,"초상화":18628,"환호":18629,"대군":18630,"날아다니":18631,"단총":18632,"연고지":18633,"라든가":18634,"사소":18635,"NM":18636,"제프":18637,"복음":18638,"토론토":18639,"따른다":18640,"미트":18641,"으리":18642,"##터스":18643,"##스티스":18644,"##보라":18645,"파우":18646,"143":18647,"137":18648,"대법원":18649,"공고":18650,"죄수":18651,"부호":18652,"앞면":18653,"향한다":18654,"##타니":18655,"당원":18656,"한강":18657,"소우":18658,"너클":18659,"시흥":18660,"릴리스":18661,"방벽":18662,"##베르트":18663,"어제":18664,"공짜":18665,"바나나":18666,"투사":18667,"창당":18668,"313":18669,"현직":18670,"맞물":18671,"노골":18672,"혹평":18673,"Sum":18674,"무단":18675,"솔직히":18676,"평창":18677,"다지만":18678,"전해진다":18679,"베일":18680,"관해":18681,"내뱉":18682,"인듯":18683,"한정판":18684,"##프라":18685,"소꿉친구":18686,"박종":18687,"사당":18688,"양국":18689,"빙의":18690,"북동":18691,"해져서":18692,"코레":18693,"차분":18694,"##바루":18695,"HS":18696,"외관":18697,"인체":18698,"ALL":18699,"플라스틱":18700,"오비":18701,"경찰청":18702,"가미":18703,"자포":18704,"테일즈":18705,"트러":18706,"두뇌":18707,"무식":18708,"CN":18709,"IV":18710,"여도":18711,"추출":18712,"랜서":18713,"이력":18714,"##소수":18715,"##타르":18716,"1943":18717,"십자가":18718,"230":18719,"이준":18720,"앵커":18721,"전반기":18722,"알아차":18723,"반란군":18724,"찾아와":18725,"오딘":18726,"넘어갈":18727,"아테네":18728,"뮤지션":18729,"태자":18730,"##대사":18731,"델타":18732,"띄워":18733,"북구":18734,"지요":18735,"순찰":18736,"맹독":18737,"키드":18738,"남미":18739,"프로스트":18740,"난투":18741,"오케스트라":18742,"기술력":18743,"플레임":18744,"개미":18745,"고질":18746,"우산":18747,"157":18748,"관계없이":18749,"해상도":18750,"잡혔":18751,"##모어":18752,"강탈":18753,"극악":18754,"오쿠":18755,"숙주":18756,"133":18757,"##FL":18758,"슬슬":18759,"공자":18760,"기이":18761,"미시":18762,"브레스":18763,"갈리아":18764,"틀리":18765,"당해서":18766,"내세우":18767,"코지":18768,"un":18769,"출제":18770,"146":18771,"팬티":18772,"129":18773,"극우":18774,"잔해":18775,"계시":18776,"떨어져서":18777,"확고":18778,"구독자":18779,"##더슨":18780,"000000":18781,"폴리스":18782,"플레이버":18783,"1942":18784,"광범위":18785,"세키":18786,"별칭":18787,"지극":18788,"렀다":18789,"죽인다":18790,"청룡":18791,"화약":18792,"##STER":18793,"비참":18794,"173":18795,"헤일":18796,"나카무라":18797,"카오루":18798,"BO":18799,"미쳤":18800,"##트랙":18801,"이루어진다":18802,"워너":18803,"##결승":18804,"종사":18805,"설비":18806,"미쓰":18807,"진구":18808,"박명":18809,"치마":18810,"힌트":18811,"관해서":18812,"키즈":18813,"경선":18814,"내버려":18815,"채찍":18816,"리셋":18817,"리뉴":18818,"여장":18819,"기쁨":18820,"##천사":18821,"클리셰":18822,"열린다":18823,"원년":18824,"폐허":18825,"margin":18826,"실바":18827,"수영복":18828,"know":18829,"서치":18830,"로그인":18831,"카테고리":18832,"오디오":18833,"연안":18834,"멘붕":18835,"전수":18836,"해태":18837,"호출":18838,"##무게":18839,"텔레포트":18840,"몸무게":18841,"바티":18842,"후대":18843,"팀장":18844,"##MAX":18845,"set":18846,"##무이":18847,"방화":18848,"##DX":18849,"나락":18850,"생물학":18851,"보였으나":18852,"##날두":18853,"쟁이":18854,"청원":18855,"칠레":18856,"OF":18857,"통증":18858,"호날두":18859,"공천":18860,"공습":18861,"기행":18862,"136":18863,"Play":18864,"편한":18865,"체스":18866,"생애":18867,"BT":18868,"사나이":18869,"팩션":18870,"합치":18871,"미하":18872,"테러리":18873,"파랑":18874,"시초":18875,"##ica":18876,"정교회":18877,"CB":18878,"메테":18879,"##che":18880,"##소총":18881,"Of":18882,"서장":18883,"해선":18884,"태종":18885,"##ock":18886,"히카루":18887,"라시":18888,"번갈":18889,"포니":18890,"바그":18891,"판다":18892,"얼터":18893,"As":18894,"la":18895,"개판":18896,"미모":18897,"##풀이":18898,"우크라":18899,"망상":18900,
[...]
