[UNK]
[CLS]
[SEP]
[PAD]
[MASK]
!
"
#
$
%
&
'
(
)
*
+
,
-
.
/
0
1
2
3
4
5
6
7
8
9
:
;
<
=
>
?
@
A
B
C
D
E
F
G
H
I
J
K
L
M
N
O
P
Q
R
S
T
U
V
W
X
Y
Z
[
\
]
^
_
`
a
b
c
d
e
f
g
h
i
j
k
l
m
n
o
p
q
r
s
t
u
v
w
x
y
z
{
|
}
~

ㄱ
ㄲ
ㄳ
ㄴ
ㄵ
ㄶ
ㄷ
ㄸ
ㄹ
ㄺ
ㄻ
ㄼ
ㄽ
ㄾ
ㄿ
ㅀ
ㅁ
ㅂ
ㅃ
ㅄ
ㅅ
ㅆ
ㅇ
ㅈ
ㅉ
ㅊ
ㅋ
ㅌ
ㅍ
ㅎ
ㅏ
ㅐ
ㅑ
ㅒ
ㅓ
ㅔ
ㅕ
ㅖ
ㅗ
ㅘ
ㅙ
ㅚ
ㅛ
ㅜ
ㅝ
ㅞ
ㅟ
ㅠ
ㅡ
ㅢ
ㅣ
가
각
갂
갃
간
갅
갆
갇
갈
갉
갊
갋
갌
갍
갎
갏
감
갑
값
갓
갔
강
갖
갗
갘
같
갚
갛
개
객
갞
갟
갠
갡
갢
갣
갤
갥
갦
갧
갨
갩
갪
갫
갬
갭
갮
갯
갰
갱
갲
갳
갴
갵
갶
갷
갸
갹
갺
갻
갼
갽
갾
갿
걀
걁
걂
걃
걄
걅
걆
걇
걈
걉
걊
걋
걌
걍
걎
걏
걐
걑
걒
걓
걔
걕
걖
걗
걘
걙
걚
걛
걜
걝
걞
걟
걠
걡
걢
걣
걤
걥
걦
걧
걨
걩
걪
걫
걬
걭
걮
걯
거
걱
걲
걳
건
걵
걶
걷
걸
걹
걺
걻
걼
걽
걾
걿
검
겁
겂
것
겄
겅
겆
겇
겈
겉
겊
겋
게
겍
겎
겏
겐
겑
겒
겓
겔
겕
겖
겗
겘
겙
겚
겛
겜
겝
겞
겟
겠
겡
겢
겣
겤
겥
겦
겧
겨
격
겪
겫
견
겭
겮
겯
결
겱
겲
겳
겴
겵
겶
겷
겸
겹
겺
겻
겼
경
겾
겿
곀
곁
곂
곃
계
곅
곆
곇
곈
곉
곊
곋
곌
곍
곎
곏
곐
곑
곒
곓
곔
곕
곖
곗
곘
곙
곚
곛
곜
곝
곞
곟
고
곡
곢
곣
곤
곥
곦
곧
골
곩
곪
곫
곬
곭
곮
곯
곰
곱
곲
곳
곴
공
곶
곷
곸
곹
곺
곻
과
곽
곾
곿
관
괁
괂
괃
괄
괅
괆
괇
괈
괉
괊
괋
괌
괍
괎
괏
괐
광
괒
괓
괔
괕
괖
괗
괘
괙
괚
괛
괜
괝
괞
괟
괠
괡
괢
괣
괤
괥
괦
괧
괨
괩
괪
괫
괬
괭
괮
괯
괰
괱
괲
괳
괴
괵
괶
괷
괸
괹
괺
괻
괼
괽
괾
괿
굀
굁
굂
굃
굄
굅
굆
굇
굈
굉
굊
굋
굌
굍
굎
굏
교
굑
굒
굓
굔
굕
굖
굗
굘
굙
굚
굛
굜
굝
굞
굟
굠
굡
굢
굣
굤
굥
굦
굧
굨
굩
굪
굫
구
국
굮
굯
군
굱
굲
굳
굴
굵
굶
굷
굸
굹
굺
굻
굼
굽
굾
굿
궀
궁
궂
궃
궄
궅
궆
궇
궈
궉
궊
궋
권
궍
궎
궏
궐
궑
궒
궓
궔
궕
궖
궗
궘
궙
궚
궛
궜
궝
궞
궟
궠
궡
궢
궣
궤
궥
궦
궧
궨
궩
궪
궫
궬
궭
궮
궯
궰
궱
궲
궳
궴
궵
궶
궷
궸
궹
궺
궻
궼
궽
궾
궿
귀
귁
귂
귃
귄
귅
귆
귇
귈
귉
귊
귋
귌
귍
귎
귏
귐
귑
귒
귓
귔
귕
귖
귗
귘
귙
귚
귛
규
귝
귞
귟
균
귡
귢
귣
귤
귥
귦
귧
귨
귩
귪
귫
귬
귭
귮
귯
귰
귱
귲
귳
귴
귵
귶
귷
그
극
귺
귻
근
귽
귾
귿
글
긁
긂
긃
긄
긅
긆
긇
금
급
긊
긋
긌
긍
긎
긏
긐
긑
긒
긓
긔
긕
긖
긗
긘
긙
긚
긛
긜
긝
긞
긟
긠
긡
긢
긣
긤
긥
긦
긧
긨
긩
긪
긫
긬
긭
긮
긯
기
긱
긲
긳
긴
긵
긶
긷
길
긹
긺
긻
긼
긽
긾
긿
김
깁
깂
깃
깄
깅
깆
깇
깈
깉
깊
깋
까
깍
깎
깏
깐
깑
깒
깓
깔
깕
깖
깗
깘
깙
깚
깛
깜
깝
깞
깟
깠
깡
깢
깣
깤
깥
깦
깧
깨
깩
깪
깫
깬
깭
깮
깯
깰
깱
깲
깳
깴
깵
깶
깷
깸
깹
깺
깻
깼
깽
깾
깿
꺀
꺁
꺂
꺃
꺄
꺅
꺆
꺇
꺈
꺉
꺊
꺋
꺌
꺍
꺎
꺏
꺐
꺑
꺒
꺓
꺔
꺕
꺖
꺗
꺘
꺙
꺚
꺛
꺜
꺝
꺞
꺟
꺠
꺡
꺢
꺣
꺤
꺥
꺦
꺧
꺨
꺩
꺪
꺫
꺬
꺭
꺮
꺯
꺰
꺱
꺲
꺳
꺴
꺵
꺶
꺷
꺸
꺹
꺺
꺻
꺼
꺽
꺾
꺿
껀
껁
껂
껃
껄
껅
껆
껇
껈
껉
껊
껋
껌
껍
껎
껏
껐
껑
껒
껓
껔
껕
껖
껗
께
껙
껚
껛
껜
껝
껞
껟
껠
껡
껢
껣
껤
껥
껦
껧
껨
껩
껪
껫
껬
껭
껮
껯
껰
껱
껲
껳
껴
껵
껶
껷
껸
껹
껺
껻
껼
껽
껾
껿
꼀
꼁
꼂
꼃
꼄
꼅
꼆
꼇
꼈
꼉
꼊
꼋
꼌
꼍
꼎
꼏
꼐
꼑
꼒
꼓
꼔
꼕
꼖
꼗
꼘
꼙
꼚
꼛
꼜
꼝
꼞
꼟
꼠
꼡
꼢
꼣
꼤
꼥
꼦
꼧
꼨
꼩
꼪
꼫
꼬
꼭
꼮
꼯
꼰
꼱
꼲
꼳
꼴
꼵
꼶
꼷
꼸
꼹
꼺
꼻
꼼
꼽
꼾
꼿
꽀
꽁
꽂
꽃
꽄
꽅
꽆
꽇
꽈
꽉
꽊
꽋
꽌
꽍
꽎
꽏
꽐
꽑
꽒
꽓
꽔
꽕
꽖
꽗
꽘
꽙
꽚
꽛
꽜
꽝
꽞
꽟
꽠
꽡
꽢
꽣
꽤
꽥
꽦
꽧
꽨
꽩
꽪
꽫
꽬
꽭
꽮
꽯
꽰
꽱
꽲
꽳
꽴
꽵
꽶
꽷
꽸
꽹
꽺
꽻
꽼
꽽
꽾
꽿
꾀
꾁
꾂
꾃
꾄
꾅
꾆
꾇
꾈
꾉
꾊
꾋
꾌
꾍
꾎
꾏
꾐
꾑
꾒
꾓
꾔
꾕
꾖
꾗
꾘
꾙
꾚
꾛
꾜
꾝
꾞
꾟
꾠
꾡
꾢
꾣
꾤
꾥
꾦
꾧
꾨
꾩
꾪
꾫
꾬
꾭
꾮
꾯
꾰
꾱
꾲
꾳
꾴
꾵
꾶
꾷
꾸
꾹
꾺
꾻
꾼
꾽
꾾
꾿
꿀
꿁
꿂
꿃
꿄
꿅
꿆
꿇
꿈
꿉
꿊
꿋
꿌
꿍
꿎
꿏
꿐
꿑
꿒
꿓
꿔
꿕
꿖
꿗
꿘
꿙
꿚
꿛
꿜
꿝
꿞
꿟
꿠
꿡
꿢
꿣
꿤
꿥
꿦
꿧
꿨
꿩
꿪
꿫
꿬
꿭
꿮
꿯
꿰
꿱
꿲
꿳
꿴
꿵
꿶
꿷
꿸
꿹
꿺
꿻
꿼
꿽
꿾
꿿
뀀
뀁
뀂
뀃
뀄
뀅
뀆
뀇
뀈
뀉
뀊
뀋
뀌
뀍
뀎
뀏
뀐
뀑
뀒
뀓
뀔
뀕
뀖
뀗
뀘
뀙
뀚
뀛
뀜
뀝
뀞
뀟
뀠
뀡
뀢
뀣
뀤
뀥
뀦
뀧
뀨
뀩
뀪
뀫
뀬
뀭
뀮
뀯
뀰
뀱
뀲
뀳
뀴
뀵
뀶
뀷
뀸
뀹
뀺
뀻
뀼
뀽
뀾
뀿
끀
끁
끂
끃
끄
끅
끆
끇
끈
끉
끊
끋
끌
끍
끎
끏
끐
끑
끒
끓
끔
끕
끖
끗
끘
끙
끚
끛
끜
끝
끞
끟
끠
끡
끢
끣
끤
끥
끦
끧
끨
끩
끪
끫
끬
끭
끮
끯
끰
끱
끲
끳
끴
끵
끶
끷
끸
끹
끺
끻
끼
끽
끾
끿
낀
낁
낂
낃
낄
낅
낆
낇
낈
낉
낊
낋
낌
낍
낎
낏
낐
낑
낒
낓
낔
낕
낖
낗
나
낙
낚
낛
난
낝
낞
낟
날
낡
낢
낣
낤
낥
낦
낧
남
납
낪
낫
났
낭
낮
낯
낰
낱
낲
낳
내
낵
낶
낷
낸
낹
낺
낻
낼
낽
낾
낿
냀
냁
냂
냃
냄
냅
냆
냇
냈
냉
냊
냋
냌
냍
냎
냏
냐
냑
냒
냓
냔
냕
냖
냗
냘
냙
냚
냛
냜
냝
냞
냟
냠
냡
냢
냣
냤
냥
냦
냧
냨
냩
냪
냫
냬
냭
냮
냯
냰
냱
냲
냳
냴
냵
냶
냷
냸
냹
냺
냻
냼
냽
냾
냿
넀
넁
넂
넃
넄
넅
넆
넇
너
넉
넊
넋
넌
넍
넎
넏
널
넑
넒
넓
넔
넕
넖
넗
넘
넙
넚
넛
넜
넝
넞
넟
넠
넡
넢
넣
네
넥
넦
넧
넨
넩
넪
넫
넬
넭
넮
넯
넰
넱
넲
넳
넴
넵
넶
넷
넸
넹
넺
넻
넼
넽
넾
넿
녀
녁
녂
녃
년
녅
녆
녇
녈
녉
녊
녋
녌
녍
녎
녏
념
녑
녒
녓
녔
녕
녖
녗
녘
녙
녚
녛
녜
녝
녞
녟
녠
녡
녢
녣
녤
녥
녦
녧
녨
녩
녪
녫
녬
녭
녮
녯
녰
녱
녲
녳
녴
녵
녶
녷
노
녹
녺
녻
논
녽
녾
녿
놀
놁
놂
놃
놄
놅
놆
놇
놈
놉
놊
놋
놌
농
놎
놏
놐
놑
높
놓
놔
놕
놖
놗
놘
놙
놚
놛
놜
놝
놞
놟
놠
놡
놢
놣
놤
놥
놦
놧
놨
놩
놪
놫
놬
놭
놮
놯
놰
놱
놲
놳
놴
놵
놶
놷
놸
놹
놺
놻
놼
놽
놾
놿
뇀
뇁
뇂
뇃
뇄
뇅
뇆
뇇
뇈
뇉
뇊
뇋
뇌
뇍
뇎
뇏
뇐
뇑
뇒
뇓
뇔
뇕
뇖
뇗
뇘
뇙
뇚
뇛
뇜
뇝
뇞
뇟
뇠
뇡
뇢
뇣
뇤
뇥
뇦
뇧
뇨
뇩
뇪
뇫
뇬
뇭
뇮
뇯
뇰
뇱
뇲
뇳
뇴
뇵
뇶
뇷
뇸
뇹
뇺
뇻
뇼
뇽
뇾
뇿
눀
눁
눂
눃
누
눅
눆
눇
눈
눉
눊
눋
눌
눍
눎
눏
눐
눑
눒
눓
눔
눕
눖
눗
눘
눙
눚
눛
눜
눝
눞
눟
눠
눡
눢
눣
눤
눥
눦
눧
눨
눩
눪
눫
눬
눭
눮
눯
눰
눱
눲
눳
눴
눵
눶
눷
눸
눹
눺
눻
눼
눽
눾
눿
뉀
뉁
뉂
뉃
뉄
뉅
뉆
뉇
뉈
뉉
뉊
뉋
뉌
뉍
뉎
뉏
뉐
뉑
뉒
뉓
뉔
뉕
뉖
뉗
뉘
뉙
뉚
뉛
뉜
뉝
뉞
뉟
뉠
뉡
뉢
뉣
뉤
뉥
뉦
뉧
뉨
뉩
뉪
뉫
뉬
뉭
뉮
뉯
뉰
뉱
뉲
뉳
뉴
뉵
뉶
뉷
뉸
뉹
뉺
뉻
뉼
뉽
뉾
뉿
늀
늁
늂
늃
늄
늅
늆
늇
늈
늉
늊
늋
늌
늍
늎
늏
느
늑
늒
늓
는
늕
늖
늗
늘
늙
늚
늛
늜
늝
늞
늟
늠
늡
늢
늣
늤
능
늦
늧
늨
늩
늪
늫
늬
늭
늮
늯
늰
늱
늲
늳
늴
늵
늶
늷
늸
늹
늺
늻
늼
늽
늾
늿
닀
닁
닂
닃
닄
닅
닆
닇
니
닉
닊
닋
닌
닍
닎
닏
닐
닑
닒
닓
닔
닕
닖
닗
님
닙
닚
닛
닜
닝
닞
닟
닠
닡
닢
닣
다
닥
닦
닧
단
닩
닪
닫
달
닭
닮
닯
닰
닱
닲
닳
담
답
닶
닷
닸
당
닺
닻
닼
닽
닾
닿
대
댁
댂
댃
댄
댅
댆
댇
댈
댉
댊
댋
댌
댍
댎
댏
댐
댑
댒
댓
댔
댕
댖
댗
댘
댙
댚
댛
댜
댝
댞
댟
댠
댡
댢
댣
댤
댥
댦
댧
댨
댩
댪
댫
댬
댭
댮
댯
댰
댱
댲
댳
댴
댵
댶
댷
댸
댹
댺
댻
댼
댽
댾
댿
덀
덁
덂
덃
덄
덅
덆
덇
덈
덉
덊
덋
덌
덍
덎
덏
덐
덑
덒
덓
더
덕
덖
덗
던
덙
덚
덛
덜
덝
덞
덟
덠
덡
덢
덣
덤
덥
덦
덧
덨
덩
덪
덫
덬
덭
덮
덯
데
덱
덲
덳
덴
덵
덶
덷
델
덹
덺
덻
덼
덽
덾
덿
뎀
뎁
뎂
뎃
뎄
뎅
뎆
뎇
뎈
뎉
뎊
뎋
뎌
뎍
뎎
뎏
뎐
뎑
뎒
뎓
뎔
뎕
뎖
뎗
뎘
뎙
뎚
뎛
뎜
뎝
뎞
뎟
뎠
뎡
뎢
뎣
뎤
뎥
뎦
뎧
뎨
뎩
뎪
뎫
뎬
뎭
뎮
뎯
뎰
뎱
뎲
뎳
뎴
뎵
뎶
뎷
뎸
뎹
뎺
뎻
뎼
뎽
뎾
뎿
돀
돁
돂
돃
도
독
돆
돇
돈
돉
돊
돋
돌
돍
돎
돏
돐
돑
돒
돓
돔
돕
돖
돗
돘
동
돚
돛
돜
돝
돞
돟
돠
돡
돢
돣
돤
돥
돦
돧
돨
돩
돪
돫
돬
돭
돮
돯
돰
돱
돲
돳
돴
돵
돶
돷
돸
돹
돺
돻
돼
돽
돾
돿
됀
됁
됂
됃
됄
됅
됆
됇
됈
됉
됊
됋
됌
됍
됎
됏
됐
됑
됒
됓
됔
됕
됖
됗
되
됙
됚
됛
된
됝
됞
됟
될
됡
됢
됣
됤
됥
됦
됧
됨
됩
됪
됫
됬
됭
됮
됯
됰
됱
됲
됳
됴
됵
됶
됷
됸
됹
됺
됻
됼
됽
됾
됿
둀
둁
둂
둃
둄
둅
둆
둇
둈
둉
둊
둋
둌
둍
둎
둏
두
둑
둒
둓
둔
둕
둖
둗
둘
둙
둚
둛
둜
둝
둞
둟
둠
둡
둢
둣
둤
둥
둦
둧
둨
둩
둪
둫
둬
둭
둮
둯
둰
둱
둲
둳
둴
둵
둶
둷
둸
둹
둺
둻
둼
둽
둾
둿
뒀
뒁
뒂
뒃
뒄
뒅
뒆
뒇
뒈
뒉
뒊
뒋
뒌
뒍
뒎
뒏
뒐
뒑
뒒
뒓
뒔
뒕
뒖
뒗
뒘
뒙
뒚
뒛
뒜
뒝
뒞
뒟
뒠
뒡
뒢
뒣
뒤
뒥
뒦
뒧
뒨
뒩
뒪
뒫
뒬
뒭
뒮
뒯
뒰
뒱
뒲
뒳
뒴
뒵
뒶
뒷
뒸
뒹
뒺
뒻
뒼
뒽
뒾
뒿
듀
듁
듂
듃
듄
듅
듆
듇
듈
듉
듊
듋
듌
듍
듎
듏
듐
듑
듒
듓
듔
듕
듖
듗
듘
듙
듚
듛
드
득
듞
듟
든
듡
듢
듣
들
듥
듦
듧
듨
듩
듪
듫
듬
듭
듮
듯
듰
등
듲
듳
듴
듵
듶
듷
듸
듹
듺
듻
듼
듽
듾
듿
딀
딁
딂
딃
딄
딅
딆
딇
딈
딉
딊
딋
딌
딍
딎
딏
딐
딑
딒
딓
디
딕
딖
딗
딘
딙
딚
딛
딜
딝
딞
딟
딠
딡
딢
딣
딤
딥
딦
딧
딨
딩
딪
딫
딬
딭
딮
딯
따
딱
딲
딳
딴
딵
딶
딷
딸
딹
딺
딻
딼
딽
딾
딿
땀
땁
땂
땃
땄
땅
땆
땇
땈
땉
땊
땋
때
땍
땎
땏
땐
땑
땒
땓
땔
땕
땖
땗
땘
땙
땚
땛
땜
땝
땞
땟
땠
땡
땢
땣
땤
땥
땦
땧
땨
땩
땪
땫
땬
땭
땮
땯
땰
땱
땲
땳
땴
땵
땶
땷
땸
땹
땺
땻
땼
땽
땾
땿
떀
떁
떂
떃
떄
떅
떆
떇
떈
떉
떊
떋
떌
떍
떎
떏
떐
떑
떒
떓
떔
떕
떖
떗
떘
떙
떚
떛
떜
떝
떞
떟
떠
떡
떢
떣
떤
떥
떦
떧
떨
떩
떪
떫
떬
떭
떮
떯
떰
떱
떲
떳
떴
떵
떶
떷
떸
떹
떺
떻
떼
떽
떾
떿
뗀
뗁
뗂
뗃
뗄
뗅
뗆
뗇
뗈
뗉
뗊
뗋
뗌
뗍
뗎
뗏
뗐
뗑
뗒
뗓
뗔
뗕
뗖
뗗
뗘
뗙
뗚
뗛
뗜
뗝
뗞
뗟
뗠
뗡
뗢
뗣
뗤
뗥
뗦
뗧
뗨
뗩
뗪
뗫
뗬
뗭
뗮
뗯
뗰
뗱
뗲
뗳
뗴
뗵
뗶
뗷
뗸
뗹
뗺
뗻
뗼
뗽
뗾
뗿
똀
똁
똂
똃
똄
똅
똆
똇
똈
똉
똊
똋
똌
똍
똎
똏
또
똑
똒
똓
똔
똕
똖
똗
똘
똙
똚
똛
똜
똝
똞
똟
똠
똡
똢
똣
똤
똥
똦
똧
똨
똩
똪
똫
똬
똭
똮
똯
똰
똱
똲
똳
똴
똵
똶
똷
똸
똹
똺
똻
똼
똽
똾
똿
뙀
뙁
뙂
뙃
뙄
뙅
뙆
뙇
뙈
뙉
뙊
뙋
뙌
뙍
뙎
뙏
뙐
뙑
뙒
뙓
뙔
뙕
뙖
뙗
뙘
뙙
뙚
뙛
뙜
뙝
뙞
뙟
뙠
뙡
뙢
뙣
뙤
뙥
뙦
뙧
뙨
뙩
뙪
뙫
뙬
뙭
뙮
뙯
뙰
뙱
뙲
뙳
뙴
뙵
뙶
뙷
뙸
뙹
뙺
뙻
뙼
뙽
뙾
뙿
뚀
뚁
뚂
뚃
뚄
뚅
뚆
뚇
뚈
뚉
뚊
뚋
뚌
뚍
뚎
뚏
뚐
뚑
뚒
뚓
뚔
뚕
뚖
뚗
뚘
뚙
뚚
뚛
뚜
뚝
뚞
뚟
뚠
뚡
뚢
뚣
뚤
뚥
뚦
뚧
뚨
뚩
뚪
뚫
뚬
뚭
뚮
뚯
뚰
뚱
뚲
뚳
뚴
뚵
뚶
뚷
뚸
뚹
뚺
뚻
뚼
뚽
뚾
뚿
뛀
뛁
뛂
뛃
뛄
뛅
뛆
뛇
뛈
뛉
뛊
뛋
뛌
뛍
뛎
뛏
뛐
뛑
뛒
뛓
뛔
뛕
뛖
뛗
뛘
뛙
뛚
뛛
뛜
뛝
뛞
뛟
뛠
뛡
뛢
뛣
뛤
뛥
뛦
뛧
뛨
뛩
뛪
뛫
뛬
뛭
뛮
뛯
뛰
뛱
뛲
뛳
뛴
뛵
뛶
뛷
뛸
뛹
뛺
뛻
뛼
뛽
뛾
뛿
뜀
뜁
뜂
뜃
뜄
뜅
뜆
뜇
뜈
뜉
뜊
뜋
뜌
뜍
뜎
뜏
뜐
뜑
뜒
뜓
뜔
뜕
뜖
뜗
뜘
뜙
뜚
뜛
뜜
뜝
뜞
뜟
뜠
뜡
뜢
뜣
뜤
뜥
뜦
뜧
뜨
뜩
뜪
뜫
뜬
뜭
뜮
뜯
뜰
뜱
뜲
뜳
뜴
뜵
뜶
뜷
뜸
뜹
뜺
뜻
뜼
뜽
뜾
뜿
띀
띁
띂
띃
띄
띅
띆
띇
띈
띉
띊
띋
띌
띍
띎
띏
띐
띑
띒
띓
띔
띕
띖
띗
띘
띙
띚
띛
띜
띝
띞
띟
띠
띡
띢
띣
띤
띥
띦
띧
띨
띩
띪
띫
띬
띭
띮
띯
띰
띱
띲
띳
띴
띵
띶
띷
띸
띹
띺
띻
라
락
띾
띿
란
랁
랂
랃
랄
랅
랆
랇
랈
랉
랊
랋
람
랍
랎
랏
랐
랑
랒
랓
랔
랕
랖
랗
래
랙
랚
랛
랜
랝
랞
랟
랠
랡
랢
랣
랤
랥
랦
랧
램
랩
랪
랫
랬
랭
랮
랯
랰
랱
랲
랳
랴
략
랶
랷
랸
랹
랺
랻
랼
랽
랾
랿
럀
럁
럂
럃
럄
럅
럆
럇
럈
량
럊
럋
럌
럍
럎
럏
럐
럑
럒
럓
럔
럕
럖
럗
럘
럙
럚
럛
럜
럝
럞
럟
럠
럡
럢
럣
럤
럥
럦
럧
럨
럩
럪
럫
러
럭
럮
럯
런
럱
럲
럳
럴
럵
럶
럷
럸
럹
럺
럻
럼
럽
럾
럿
렀
렁
렂
렃
렄
렅
렆
렇
레
렉
렊
렋
렌
렍
렎
렏
렐
렑
렒
렓
렔
렕
렖
렗
렘
렙
렚
렛
렜
렝
렞
렟
렠
렡
렢
렣
려
력
렦
렧
련
렩
렪
렫
렬
렭
렮
렯
렰
렱
렲
렳
렴
렵
렶
렷
렸
령
렺
렻
렼
렽
렾
렿
례
롁
롂
롃
롄
롅
롆
롇
롈
롉
롊
롋
롌
롍
롎
롏
롐
롑
롒
롓
롔
롕
롖
롗
롘
롙
롚
롛
로
록
롞
롟
론
롡
롢
롣
롤
롥
롦
롧
롨
롩
롪
롫
롬
롭
롮
롯
롰
롱
롲
롳
롴
롵
롶
롷
롸
롹
롺
롻
롼
롽
롾
롿
뢀
뢁
뢂
뢃
뢄
뢅
뢆
뢇
뢈
뢉
뢊
뢋
뢌
뢍
뢎
뢏
뢐
뢑
뢒
뢓
뢔
뢕
뢖
뢗
뢘
뢙
뢚
뢛
뢜
뢝
뢞
뢟
뢠
뢡
뢢
뢣
뢤
뢥
뢦
뢧
뢨
뢩
뢪
뢫
뢬
뢭
뢮
뢯
뢰
뢱
뢲
뢳
뢴
뢵
뢶
뢷
뢸
뢹
뢺
뢻
뢼
뢽
뢾
뢿
룀
룁
룂
룃
룄
룅
룆
룇
룈
룉
룊
룋
료
룍
룎
룏
룐
룑
룒
룓
룔
룕
룖
룗
룘
룙
룚
룛
룜
룝
룞
룟
룠
룡
룢
룣
룤
룥
룦
룧
루
룩
룪
룫
룬
룭
룮
룯
룰
룱
룲
룳
룴
룵
룶
룷
룸
룹
룺
룻
룼
룽
룾
룿
뤀
뤁
뤂
뤃
뤄
뤅
뤆
뤇
뤈
뤉
뤊
뤋
뤌
뤍
뤎
뤏
뤐
뤑
뤒
뤓
뤔
뤕
뤖
뤗
뤘
뤙
뤚
뤛
뤜
뤝
뤞
뤟
뤠
뤡
뤢
뤣
뤤
뤥
뤦
뤧
뤨
뤩
뤪
뤫
뤬
뤭
뤮
뤯
뤰
뤱
뤲
뤳
뤴
뤵
뤶
뤷
뤸
뤹
뤺
뤻
뤼
뤽
뤾
뤿
륀
륁
륂
륃
륄
륅
륆
륇
륈
륉
륊
륋
륌
륍
륎
륏
륐
륑
륒
륓
륔
륕
륖
륗
류
륙
륚
륛
륜
륝
륞
륟
률
륡
륢
륣
륤
륥
륦
륧
륨
륩
륪
륫
륬
륭
륮
륯
륰
륱
륲
륳
르
륵
륶
륷
른
륹
륺
륻
를
륽
륾
륿
릀
릁
릂
릃
름
릅
릆
릇
릈
릉
릊
릋
릌
릍
릎
릏
릐
릑
릒
릓
릔
릕
릖
릗
릘
릙
릚
릛
릜
릝
릞
릟
릠
릡
릢
릣
릤
릥
릦
릧
릨
릩
릪
릫
리
릭
릮
릯
린
릱
릲
릳
릴
릵
릶
릷
릸
릹
릺
릻
림
립
릾
릿
맀
링
맂
맃
맄
맅
맆
맇
마
막
맊
맋
만
맍
많
맏
말
맑
맒
맓
맔
맕
맖
맗
맘
맙
맚
맛
맜
망
맞
맟
맠
맡
맢
맣
매
맥
맦
맧
맨
맩
맪
맫
맬
맭
맮
맯
맰
맱
맲
맳
맴
맵
맶
맷
맸
맹
맺
맻
맼
맽
맾
맿
먀
먁
먂
먃
먄
먅
먆
먇
먈
먉
먊
먋
먌
먍
먎
먏
먐
먑
먒
먓
먔
먕
먖
먗
먘
먙
먚
먛
먜
먝
먞
먟
먠
먡
먢
먣
먤
먥
먦
먧
먨
먩
먪
먫
먬
먭
먮
먯
먰
먱
먲
먳
먴
먵
먶
먷
머
먹
먺
먻
먼
먽
먾
먿
멀
멁
멂
멃
멄
멅
멆
멇
멈
멉
멊
멋
멌
멍
멎
멏
멐
멑
멒
멓
메
멕
멖
멗
멘
멙
멚
멛
멜
멝
멞
멟
멠
멡
멢
멣
멤
멥
멦
멧
멨
멩
멪
멫
멬
멭
멮
멯
며
멱
멲
멳
면
멵
멶
멷
멸
멹
멺
멻
멼
멽
멾
멿
몀
몁
몂
몃
몄
명
몆
몇
몈
몉
몊
몋
몌
몍
몎
몏
몐
몑
몒
몓
몔
몕
몖
몗
몘
몙
몚
몛
몜
몝
몞
몟
몠
몡
몢
몣
몤
몥
몦
몧
모
목
몪
몫
몬
몭
몮
몯
몰
몱
몲
몳
몴
몵
몶
몷
몸
몹
몺
못
몼
몽
몾
몿
뫀
뫁
뫂
뫃
뫄
뫅
뫆
뫇
뫈
뫉
뫊
뫋
뫌
뫍
뫎
뫏
뫐
뫑
뫒
뫓
뫔
뫕
뫖
뫗
뫘
뫙
뫚
뫛
뫜
뫝
뫞
뫟
뫠
뫡
뫢
뫣
뫤
뫥
뫦
뫧
뫨
뫩
뫪
뫫
뫬
뫭
뫮
뫯
뫰
뫱
뫲
뫳
뫴
뫵
뫶
뫷
뫸
뫹
뫺
뫻
뫼
뫽
뫾
뫿
묀
묁
묂
묃
묄
묅
묆
묇
묈
묉
묊
묋
묌
묍
묎
묏
묐
묑
묒
묓
묔
묕
묖
묗
묘
묙
묚
묛
묜
묝
묞
묟
묠
묡
묢
묣
묤
묥
묦
묧
묨
묩
묪
묫
묬
묭
묮
묯
묰
묱
묲
묳
무
묵
묶
묷
문
묹
묺
묻
물
묽
묾
묿
뭀
뭁
뭂
뭃
뭄
뭅
뭆
뭇
뭈
뭉
뭊
뭋
뭌
뭍
뭎
뭏
뭐
뭑
뭒
뭓
뭔
뭕
뭖
뭗
뭘
뭙
뭚
뭛
뭜
뭝
뭞
뭟
뭠
뭡
뭢
뭣
뭤
뭥
뭦
뭧
뭨
뭩
뭪
뭫
뭬
뭭
뭮
뭯
뭰
뭱
뭲
뭳
뭴
뭵
뭶
뭷
뭸
뭹
뭺
뭻
뭼
뭽
뭾
뭿
뮀
뮁
뮂
뮃
뮄
뮅
뮆
뮇
뮈
뮉
뮊
뮋
뮌
뮍
뮎
뮏
뮐
뮑
뮒
뮓
뮔
뮕
뮖
뮗
뮘
뮙
뮚
뮛
뮜
뮝
뮞
뮟
뮠
뮡
뮢
뮣
뮤
뮥
뮦
뮧
뮨
뮩
뮪
뮫
뮬
뮭
뮮
뮯
뮰
뮱
뮲
뮳
뮴
뮵
뮶
뮷
뮸
뮹
뮺
뮻
뮼
뮽
뮾
뮿
므
믁
믂
믃
믄
믅
믆
믇
믈
믉
믊
믋
믌
믍
믎
믏
믐
믑
믒
믓
믔
믕
믖
믗
믘
믙
믚
믛
믜
믝
믞
믟
믠
믡
믢
믣
믤
믥
믦
믧
믨
믩
믪
믫
믬
믭
믮
믯
믰
믱
믲
믳
믴
믵
믶
믷
미
믹
믺
믻
민
믽
믾
믿
밀
밁
밂
밃
밄
밅
밆
밇
밈
밉
밊
밋
밌
밍
밎
및
밐
밑
밒
밓
바
박
밖
밗
반
밙
밚
받
발
밝
밞
밟
밠
밡
밢
밣
밤
밥
밦
밧
밨
방
밪
밫
밬
밭
밮
밯
배
백
밲
밳
밴
밵
밶
밷
밸
밹
밺
밻
밼
밽
밾
밿
뱀
뱁
뱂
뱃
뱄
뱅
뱆
뱇
뱈
뱉
뱊
뱋
뱌
뱍
뱎
뱏
뱐
뱑
뱒
뱓
뱔
뱕
뱖
뱗
뱘
뱙
뱚
뱛
뱜
뱝
뱞
뱟
뱠
뱡
뱢
뱣
뱤
뱥
뱦
뱧
뱨
뱩
뱪
뱫
뱬
뱭
뱮
뱯
뱰
뱱
뱲
뱳
뱴
뱵
뱶
뱷
뱸
뱹
뱺
뱻
뱼
뱽
뱾
뱿
벀
벁
벂
벃
버
벅
벆
벇
번
벉
벊
벋
벌
벍
벎
벏
벐
벑
벒
벓
범
법
벖
벗
벘
벙
벚
벛
벜
벝
벞
벟
베
벡
벢
벣
벤
벥
벦
벧
벨
벩
벪
벫
벬
벭
벮
벯
벰
벱
벲
벳
벴
벵
벶
벷
벸
벹
벺
벻
벼
벽
벾
벿
변
볁
볂
볃
별
볅
볆
볇
볈
볉
볊
볋
볌
볍
볎
볏
볐
병
볒
볓
볔
볕
볖
볗
볘
볙
볚
볛
볜
볝
볞
볟
볠
볡
볢
볣
볤
볥
볦
볧
볨
볩
볪
볫
볬
볭
볮
볯
볰
볱
볲
볳
보
복
볶
볷
본
볹
볺
볻
볼
볽
볾
볿
봀
봁
봂
봃
봄
봅
봆
봇
봈
봉
봊
봋
봌
봍
봎
봏
봐
봑
봒
봓
봔
봕
봖
봗
봘
봙
봚
봛
봜
봝
봞
봟
봠
봡
봢
봣
봤
봥
봦
봧
봨
봩
봪
봫
봬
봭
봮
봯
봰
봱
봲
봳
봴
봵
봶
봷
봸
봹
봺
봻
봼
봽
봾
봿
뵀
뵁
뵂
뵃
뵄
뵅
뵆
뵇
뵈
뵉
뵊
뵋
뵌
뵍
뵎
뵏
뵐
뵑
뵒
뵓
뵔
뵕
뵖
뵗
뵘
뵙
뵚
뵛
뵜
뵝
뵞
뵟
뵠
뵡
뵢
뵣
뵤
뵥
뵦
뵧
뵨
뵩
뵪
뵫
뵬
뵭
뵮
뵯
뵰
뵱
뵲
뵳
뵴
뵵
뵶
뵷
뵸
뵹
뵺
뵻
뵼
뵽
뵾
뵿
부
북
붂
붃
분
붅
붆
붇
불
붉
붊
붋
붌
붍
붎
붏
붐
붑
붒
붓
붔
붕
붖
붗
붘
붙
붚
붛
붜
붝
붞
붟
붠
붡
붢
붣
붤
붥
붦
붧
붨
붩
붪
붫
붬
붭
붮
붯
붰
붱
붲
붳
붴
붵
붶
붷
붸
붹
붺
붻
붼
붽
붾
붿
뷀
뷁
뷂
뷃
뷄
뷅
뷆
뷇
뷈
뷉
뷊
뷋
뷌
뷍
뷎
뷏
뷐
뷑
뷒
뷓
뷔
뷕
뷖
뷗
뷘
뷙
뷚
뷛
뷜
뷝
뷞
뷟
뷠
뷡
뷢
뷣
뷤
뷥
뷦
뷧
뷨
뷩
뷪
뷫
뷬
뷭
뷮
뷯
뷰
뷱
뷲
뷳
뷴
뷵
뷶
뷷
뷸
뷹
뷺
뷻
뷼
뷽
뷾
뷿
븀
븁
븂
븃
븄
븅
븆
븇
븈
븉
븊
븋
브
븍
븎
븏
븐
븑
븒
븓
블
븕
븖
븗
븘
븙
븚
븛
븜
븝
븞
븟
븠
븡
븢
븣
븤
븥
븦
븧
븨
븩
븪
븫
븬
븭
븮
븯
븰
븱
븲
븳
븴
븵
븶
븷
븸
븹
븺
븻
븼
븽
븾
븿
빀
빁
빂
빃
비
빅
빆
빇
빈
빉
빊
빋
빌
빍
빎
빏
빐
빑
빒
빓
빔
빕
빖
빗
빘
빙
빚
빛
빜
빝
빞
빟
빠
빡
빢
빣
빤
빥
빦
빧
빨
빩
빪
빫
빬
빭
빮
빯
빰
빱
빲
빳
빴
빵
빶
빷
빸
빹
빺
빻
빼
빽
빾
빿
뺀
뺁
뺂
뺃
뺄
뺅
뺆
뺇
뺈
뺉
뺊
뺋
뺌
뺍
뺎
뺏
뺐
뺑
뺒
뺓
뺔
뺕
뺖
뺗
뺘
뺙
뺚
뺛
뺜
뺝
뺞
뺟
뺠
뺡
뺢
뺣
뺤
뺥
뺦
뺧
뺨
뺩
뺪
뺫
뺬
뺭
뺮
뺯
뺰
뺱
뺲
뺳
뺴
뺵
뺶
뺷
뺸
뺹
뺺
뺻
뺼
뺽
뺾
뺿
뻀
뻁
뻂
뻃
뻄
뻅
뻆
뻇
뻈
뻉
뻊
뻋
뻌
뻍
뻎
뻏
뻐
뻑
뻒
뻓
뻔
뻕
뻖
뻗
뻘
뻙
뻚
뻛
뻜
뻝
뻞
뻟
뻠
뻡
뻢
뻣
뻤
뻥
뻦
뻧
뻨
뻩
뻪
뻫
뻬
뻭
뻮
뻯
뻰
뻱
뻲
뻳
뻴
뻵
뻶
뻷
뻸
뻹
뻺
뻻
뻼
뻽
뻾
뻿
뼀
뼁
뼂
뼃
뼄
뼅
뼆
뼇
뼈
뼉
뼊
뼋
뼌
뼍
뼎
뼏
뼐
뼑
뼒
뼓
뼔
뼕
뼖
뼗
뼘
뼙
뼚
뼛
뼜
뼝
뼞
뼟
뼠
뼡
뼢
뼣
뼤
뼥
뼦
뼧
뼨
뼩
뼪
뼫
뼬
뼭
뼮
뼯
뼰
뼱
뼲
뼳
뼴
뼵
뼶
뼷
뼸
뼹
뼺
뼻
뼼
뼽
뼾
뼿
뽀
뽁
뽂
뽃
뽄
뽅
뽆
뽇
뽈
뽉
뽊
뽋
뽌
뽍
뽎
뽏
뽐
뽑
뽒
뽓
뽔
뽕
뽖
뽗
뽘
뽙
뽚
뽛
뽜
뽝
뽞
뽟
뽠
뽡
뽢
뽣
뽤
뽥
뽦
뽧
뽨
뽩
뽪
뽫
뽬
뽭
뽮
뽯
뽰
뽱
뽲
뽳
뽴
뽵
뽶
뽷
뽸
뽹
뽺
뽻
뽼
뽽
뽾
뽿
뾀
뾁
뾂
뾃
뾄
뾅
뾆
뾇
뾈
뾉
뾊
뾋
뾌
뾍
뾎
뾏
뾐
뾑
뾒
뾓
뾔
뾕
뾖
뾗
뾘
뾙
뾚
뾛
뾜
뾝
뾞
뾟
뾠
뾡
뾢
뾣
뾤
뾥
뾦
뾧
뾨
뾩
뾪
뾫
뾬
뾭
뾮
뾯
뾰
뾱
뾲
뾳
뾴
뾵
뾶
뾷
뾸
뾹
뾺
뾻
뾼
뾽
뾾
뾿
뿀
뿁
뿂
뿃
뿄
뿅
뿆
뿇
뿈
뿉
뿊
뿋
뿌
뿍
뿎
뿏
뿐
뿑
뿒
뿓
뿔
뿕
뿖
뿗
뿘
뿙
뿚
뿛
뿜
뿝
뿞
뿟
뿠
뿡
뿢
뿣
뿤
뿥
뿦
뿧
뿨
뿩
뿪
뿫
뿬
뿭
뿮
뿯
뿰
뿱
뿲
뿳
뿴
뿵
뿶
뿷
뿸
뿹
뿺
뿻
뿼
뿽
뿾
뿿
쀀
쀁
쀂
쀃
쀄
쀅
쀆
쀇
쀈
쀉
쀊
쀋
쀌
쀍
쀎
쀏
쀐
쀑
쀒
쀓
쀔
쀕
쀖
쀗
쀘
쀙
쀚
쀛
쀜
쀝
쀞
쀟
쀠
쀡
쀢
쀣
쀤
쀥
쀦
쀧
쀨
쀩
쀪
쀫
쀬
쀭
쀮
쀯
쀰
쀱
쀲
쀳
쀴
쀵
쀶
쀷
쀸
쀹
쀺
쀻
쀼
쀽
쀾
쀿
쁀
쁁
쁂
쁃
쁄
쁅
쁆
쁇
쁈
쁉
쁊
쁋
쁌
쁍
쁎
쁏
쁐
쁑
쁒
쁓
쁔
쁕
쁖
쁗
쁘
쁙
쁚
쁛
쁜
쁝
쁞
쁟
쁠
쁡
쁢
쁣
쁤
쁥
쁦
쁧
쁨
쁩
쁪
쁫
쁬
쁭
쁮
쁯
쁰
쁱
쁲
쁳
쁴
쁵
쁶
쁷
쁸
쁹
쁺
쁻
쁼
쁽
쁾
쁿
삀
삁
삂
삃
삄
삅
삆
삇
삈
삉
삊
삋
삌
삍
삎
삏
삐
삑
삒
삓
삔
삕
삖
삗
삘
삙
삚
삛
삜
삝
삞
삟
삠
삡
삢
삣
삤
삥
삦
삧
삨
삩
삪
삫
사
삭
삮
삯
산
삱
삲
삳
살
삵
삶
삷
삸
삹
삺
삻
삼
삽
삾
삿
샀
상
샂
샃
샄
샅
샆
샇
새
색
샊
샋
샌
샍
샎
샏
샐
샑
샒
샓
샔
샕
샖
샗
샘
샙
샚
샛
샜
생
샞
샟
샠
샡
샢
샣
샤
샥
샦
샧
샨
샩
샪
샫
샬
샭
샮
샯
샰
샱
샲
샳
샴
샵
샶
샷
샸
샹
샺
샻
샼
샽
샾
샿
섀
섁
섂
섃
섄
섅
섆
섇
섈
섉
섊
섋
섌
섍
섎
섏
섐
섑
섒
섓
섔
섕
섖
섗
섘
섙
섚
섛
서
석
섞
섟
선
섡
섢
섣
설
섥
섦
섧
섨
섩
섪
섫
섬
섭
섮
섯
섰
성
섲
섳
섴
섵
섶
섷
세
섹
섺
섻
센
섽
섾
섿
셀
셁
셂
셃
셄
셅
셆
셇
셈
셉
셊
셋
셌
셍
셎
셏
셐
셑
셒
셓
셔
셕
셖
셗
션
셙
셚
셛
셜
셝
셞
셟
셠
셡
셢
셣
셤
셥
셦
셧
셨
셩
셪
셫
셬
셭
셮
셯
셰
셱
셲
셳
셴
셵
셶
셷
셸
셹
셺
셻
셼
셽
셾
셿
솀
솁
솂
솃
솄
솅
솆
솇
솈
솉
솊
솋
소
속
솎
솏
손
솑
솒
솓
솔
솕
솖
솗
솘
솙
솚
솛
솜
솝
솞
솟
솠
송
솢
솣
솤
솥
솦
솧
솨
솩
솪
솫
솬
솭
솮
솯
솰
솱
솲
솳
솴
솵
솶
솷
솸
솹
솺
솻
솼
솽
솾
솿
쇀
쇁
쇂
쇃
쇄
쇅
쇆
쇇
쇈
쇉
쇊
쇋
쇌
쇍
쇎
쇏
쇐
쇑
쇒
쇓
쇔
쇕
쇖
쇗
쇘
쇙
쇚
쇛
쇜
쇝
쇞
쇟
쇠
쇡
쇢
쇣
쇤
쇥
쇦
쇧
쇨
쇩
쇪
쇫
쇬
쇭
쇮
쇯
쇰
쇱
쇲
쇳
쇴
쇵
쇶
쇷
쇸
쇹
쇺
쇻
쇼
쇽
쇾
쇿
숀
숁
숂
숃
숄
숅
숆
숇
숈
숉
숊
숋
숌
숍
숎
숏
숐
숑
숒
숓
숔
숕
숖
숗
수
숙
숚
숛
순
숝
숞
숟
술
숡
숢
숣
숤
숥
숦
숧
숨
숩
숪
숫
숬
숭
숮
숯
숰
숱
숲
숳
숴
숵
숶
숷
숸
숹
숺
숻
숼
숽
숾
숿
쉀
쉁
쉂
쉃
쉄
쉅
쉆
쉇
쉈
쉉
쉊
쉋
쉌
쉍
쉎
쉏
쉐
쉑
쉒
쉓
쉔
쉕
쉖
쉗
쉘
쉙
쉚
쉛
쉜
쉝
쉞
쉟
쉠
쉡
쉢
쉣
쉤
쉥
쉦
쉧
쉨
쉩
쉪
쉫
쉬
쉭
쉮
쉯
쉰
쉱
쉲
쉳
쉴
쉵
쉶
쉷
쉸
쉹
쉺
쉻
쉼
쉽
쉾
쉿
슀
슁
슂
슃
슄
슅
슆
슇
슈
슉
슊
슋
슌
슍
슎
슏
슐
슑
슒
슓
슔
슕
슖
슗
슘
슙
슚
슛
슜
슝
슞
슟
슠
슡
슢
슣
스
슥
슦
슧
슨
슩
슪
슫
슬
슭
슮
슯
슰
슱
슲
슳
슴
습
슶
슷
슸
승
슺
슻
슼
슽
슾
슿
싀
싁
싂
싃
싄
싅
싆
싇
싈
싉
싊
싋
싌
싍
싎
싏
싐
싑
싒
싓
싔
싕
싖
싗
싘
싙
싚
싛
시
식
싞
싟
신
싡
싢
싣
실
싥
싦
싧
싨
싩
싪
싫
심
십
싮
싯
싰
싱
싲
싳
싴
싵
싶
싷
싸
싹
싺
싻
싼
싽
싾
싿
쌀
쌁
쌂
쌃
쌄
쌅
쌆
쌇
쌈
쌉
쌊
쌋
쌌
쌍
쌎
쌏
쌐
쌑
쌒
쌓
쌔
쌕
쌖
쌗
쌘
쌙
쌚
쌛
쌜
쌝
쌞
쌟
쌠
쌡
쌢
쌣
쌤
쌥
쌦
쌧
쌨
쌩
쌪
쌫
쌬
쌭
쌮
쌯
쌰
쌱
쌲
쌳
쌴
쌵
쌶
쌷
쌸
쌹
쌺
쌻
쌼
쌽
쌾
쌿
썀
썁
썂
썃
썄
썅
썆
썇
썈
썉
썊
썋
썌
썍
썎
썏
썐
썑
썒
썓
썔
썕
썖
썗
썘
썙
썚
썛
썜
썝
썞
썟
썠
썡
썢
썣
썤
썥
썦
썧
써
썩
썪
썫
썬
썭
썮
썯
썰
썱
썲
썳
썴
썵
썶
썷
썸
썹
썺
썻
썼
썽
썾
썿
쎀
쎁
쎂
쎃
쎄
쎅
쎆
쎇
쎈
쎉
쎊
쎋
쎌
쎍
쎎
쎏
쎐
쎑
쎒
쎓
쎔
쎕
쎖
쎗
쎘
쎙
쎚
쎛
쎜
쎝
쎞
쎟
쎠
쎡
쎢
쎣
쎤
쎥
쎦
쎧
쎨
쎩
쎪
쎫
쎬
쎭
쎮
쎯
쎰
쎱
쎲
쎳
쎴
쎵
쎶
쎷
쎸
쎹
쎺
쎻
쎼
쎽
쎾
쎿
쏀
쏁
쏂
쏃
쏄
쏅
쏆
쏇
쏈
쏉
쏊
쏋
쏌
쏍
쏎
쏏
쏐
쏑
쏒
쏓
쏔
쏕
쏖
쏗
쏘
쏙
쏚
쏛
쏜
쏝
쏞
쏟
쏠
쏡
쏢
쏣
쏤
쏥
쏦
쏧
쏨
쏩
쏪
쏫
쏬
쏭
쏮
쏯
쏰
쏱
쏲
쏳
쏴
쏵
쏶
쏷
쏸
쏹
쏺
쏻
쏼
쏽
쏾
쏿
쐀
쐁
쐂
쐃
쐄
쐅
쐆
쐇
쐈
쐉
쐊
쐋
쐌
쐍
쐎
쐏
쐐
쐑
쐒
쐓
쐔
쐕
쐖
쐗
쐘
쐙
쐚
쐛
쐜
쐝
쐞
쐟
쐠
쐡
쐢
쐣
쐤
쐥
쐦
쐧
쐨
쐩
쐪
쐫
쐬
쐭
쐮
쐯
쐰
쐱
쐲
쐳
쐴
쐵
쐶
쐷
쐸
쐹
쐺
쐻
쐼
쐽
쐾
쐿
쑀
쑁
쑂
쑃
쑄
쑅
쑆
쑇
쑈
쑉
쑊
쑋
쑌
쑍
쑎
쑏
쑐
쑑
쑒
쑓
쑔
쑕
쑖
쑗
쑘
쑙
쑚
쑛
쑜
쑝
쑞
쑟
쑠
쑡
쑢
쑣
쑤
쑥
쑦
쑧
쑨
쑩
쑪
쑫
쑬
쑭
쑮
쑯
쑰
쑱
쑲
쑳
쑴
쑵
쑶
쑷
쑸
쑹
쑺
쑻
쑼
쑽
쑾
쑿
쒀
쒁
쒂
쒃
쒄
쒅
쒆
쒇
쒈
쒉
쒊
쒋
쒌
쒍
쒎
쒏
쒐
쒑
쒒
쒓
쒔
쒕
쒖
쒗
쒘
쒙
쒚
쒛
쒜
쒝
쒞
쒟
쒠
쒡
쒢
쒣
쒤
쒥
쒦
쒧
쒨
쒩
쒪
쒫
쒬
쒭
쒮
쒯
쒰
쒱
쒲
쒳
쒴
쒵
쒶
쒷
쒸
쒹
쒺
쒻
쒼
쒽
쒾
쒿
쓀
쓁
쓂
쓃
쓄
쓅
쓆
쓇
쓈
쓉
쓊
쓋
쓌
쓍
쓎
쓏
쓐
쓑
쓒
쓓
쓔
쓕
쓖
쓗
쓘
쓙
쓚
쓛
쓜
쓝
쓞
쓟
쓠
쓡
쓢
쓣
쓤
쓥
쓦
쓧
쓨
쓩
쓪
쓫
쓬
쓭
쓮
쓯
쓰
쓱
쓲
쓳
쓴
쓵
쓶
쓷
쓸
쓹
쓺
쓻
쓼
쓽
쓾
쓿
씀
씁
씂
씃
씄
씅
씆
씇
씈
씉
씊
씋
씌
씍
씎
씏
씐
씑
씒
씓
씔
씕
씖
씗
씘
씙
씚
씛
씜
씝
씞
씟
씠
씡
씢
씣
씤
씥
씦
씧
씨
씩
씪
씫
씬
씭
씮
씯
씰
씱
씲
씳
씴
씵
씶
씷
씸
씹
씺
씻
씼
씽
씾
씿
앀
앁
앂
앃
아
악
앆
앇
안
앉
않
앋
알
앍
앎
앏
앐
앑
앒
앓
암
압
앖
앗
았
앙
앚
앛
앜
앝
앞
앟
애
액
앢
앣
앤
앥
앦
앧
앨
앩
앪
앫
앬
앭
앮
앯
앰
앱
앲
앳
앴
앵
앶
앷
앸
앹
앺
앻
야
약
앾
앿
얀
얁
얂
얃
얄
얅
얆
얇
얈
얉
얊
얋
얌
얍
얎
얏
얐
양
얒
얓
얔
얕
얖
얗
얘
얙
얚
얛
얜
얝
얞
얟
얠
얡
얢
얣
얤
얥
얦
얧
얨
얩
얪
얫
얬
얭
얮
얯
얰
얱
얲
얳
어
억
얶
얷
언
얹
얺
얻
얼
얽
얾
얿
엀
엁
엂
엃
엄
업
없
엇
었
엉
엊
엋
엌
엍
엎
엏
에
엑
엒
엓
엔
엕
엖
엗
엘
엙
엚
엛
엜
엝
엞
엟
엠
엡
엢
엣
엤
엥
엦
엧
엨
엩
엪
엫
여
역
엮
엯
연
엱
엲
엳
열
엵
엶
엷
엸
엹
엺
엻
염
엽
엾
엿
였
영
옂
옃
옄
옅
옆
옇
예
옉
옊
옋
옌
옍
옎
옏
옐
옑
옒
옓
옔
옕
옖
옗
옘
옙
옚
옛
옜
옝
옞
옟
옠
옡
옢
옣
오
옥
옦
옧
온
옩
옪
옫
올
옭
옮
옯
옰
옱
옲
옳
옴
옵
옶
옷
옸
옹
옺
옻
옼
옽
옾
옿
와
왁
왂
왃
완
왅
왆
왇
왈
왉
왊
왋
왌
왍
왎
왏
왐
왑
왒
왓
왔
왕
왖
왗
왘
왙
왚
왛
왜
왝
왞
왟
왠
왡
왢
왣
왤
왥
왦
왧
왨
왩
왪
왫
왬
왭
왮
왯
왰
왱
왲
왳
왴
왵
왶
왷
외
왹
왺
왻
왼
왽
왾
왿
욀
욁
욂
욃
욄
욅
욆
욇
욈
욉
욊
욋
욌
욍
욎
욏
욐
욑
욒
욓
요
욕
욖
욗
욘
욙
욚
욛
욜
욝
욞
욟
욠
욡
욢
욣
욤
욥
욦
욧
욨
용
욪
욫
욬
욭
욮
욯
우
욱
욲
욳
운
욵
욶
욷
울
욹
욺
욻
욼
욽
욾
욿
움
웁
웂
웃
웄
웅
웆
웇
웈
웉
웊
웋
워
웍
웎
웏
원
웑
웒
웓
월
웕
웖
웗
웘
웙
웚
웛
웜
웝
웞
웟
웠
웡
웢
웣
웤
웥
웦
웧
웨
웩
웪
웫
웬
웭
웮
웯
웰
웱
웲
웳
웴
웵
웶
웷
웸
웹
웺
웻
웼
웽
웾
웿
윀
윁
윂
윃
위
윅
윆
윇
윈
윉
윊
윋
윌
윍
윎
윏
윐
윑
윒
윓
윔
윕
윖
윗
윘
윙
윚
윛
윜
윝
윞
윟
유
육
윢
윣
윤
윥
윦
윧
율
윩
윪
윫
윬
윭
윮
윯
윰
윱
윲
윳
윴
융
윶
윷
윸
윹
윺
윻
으
윽
윾
윿
은
읁
읂
읃
을
읅
읆
읇
읈
읉
읊
읋
음
읍
읎
읏
읐
응
읒
읓
읔
읕
읖
읗
의
읙
읚
읛
읜
읝
읞
읟
읠
읡
읢
읣
읤
읥
읦
읧
읨
읩
읪
읫
읬
읭
읮
읯
읰
읱
읲
읳
이
익
읶
읷
인
읹
읺
읻
일
읽
읾
읿
잀
잁
잂
잃
임
입
잆
잇
있
잉
잊
잋
잌
잍
잎
잏
자
작
잒
잓
잔
잕
잖
잗
잘
잙
잚
잛
잜
잝
잞
잟
잠
잡
잢
잣
잤
장
잦
잧
잨
잩
잪
잫
재
잭
잮
잯
잰
잱
잲
잳
잴
잵
잶
잷
잸
잹
잺
잻
잼
잽
잾
잿
쟀
쟁
쟂
쟃
쟄
쟅
쟆
쟇
쟈
쟉
쟊
쟋
쟌
쟍
쟎
쟏
쟐
쟑
쟒
쟓
쟔
쟕
쟖
쟗
쟘
쟙
쟚
쟛
쟜
쟝
쟞
쟟
쟠
쟡
쟢
쟣
쟤
쟥
쟦
쟧
쟨
쟩
쟪
쟫
쟬
쟭
쟮
쟯
쟰
쟱
쟲
쟳
쟴
쟵
쟶
쟷
쟸
쟹
쟺
쟻
쟼
쟽
쟾
쟿
저
적
젂
젃
전
젅
젆
젇
절
젉
젊
젋
젌
젍
젎
젏
점
접
젒
젓
젔
정
젖
젗
젘
젙
젚
젛
제
젝
젞
젟
젠
젡
젢
젣
젤
젥
젦
젧
젨
젩
젪
젫
젬
젭
젮
젯
젰
젱
젲
젳
젴
젵
젶
젷
져
젹
젺
젻
젼
젽
젾
젿
졀
졁
졂
졃
졄
졅
졆
졇
졈
졉
졊
졋
졌
졍
졎
졏
졐
졑
졒
졓
졔
졕
졖
졗
졘
졙
졚
졛
졜
졝
졞
졟
졠
졡
졢
졣
졤
졥
졦
졧
졨
졩
졪
졫
졬
졭
졮
졯
조
족
졲
졳
존
졵
졶
졷
졸
졹
졺
졻
졼
졽
졾
졿
좀
좁
좂
좃
좄
종
좆
좇
좈
좉
좊
좋
좌
좍
좎
좏
좐
좑
좒
좓
좔
좕
좖
좗
좘
좙
좚
좛
좜
좝
좞
좟
좠
좡
좢
좣
좤
좥
좦
좧
좨
좩
좪
좫
좬
좭
좮
좯
좰
좱
좲
좳
좴
좵
좶
좷
좸
좹
좺
좻
좼
좽
좾
좿
죀
죁
죂
죃
죄
죅
죆
죇
죈
죉
죊
죋
죌
죍
죎
죏
죐
죑
죒
죓
죔
죕
죖
죗
죘
죙
죚
죛
죜
죝
죞
죟
죠
죡
죢
죣
죤
죥
죦
죧
죨
죩
죪
죫
죬
죭
죮
죯
죰
죱
죲
죳
죴
죵
죶
죷
죸
죹
죺
죻
주
죽
죾
죿
준
줁
줂
줃
줄
줅
줆
줇
줈
줉
줊
줋
줌
줍
줎
줏
줐
중
줒
줓
줔
줕
줖
줗
줘
줙
줚
줛
줜
줝
줞
줟
줠
줡
줢
줣
줤
줥
줦
줧
줨
줩
줪
줫
줬
줭
줮
줯
줰
줱
줲
줳
줴
줵
줶
줷
줸
줹
줺
줻
줼
줽
줾
줿
쥀
쥁
쥂
쥃
쥄
쥅
쥆
쥇
쥈
쥉
쥊
쥋
쥌
쥍
쥎
쥏
쥐
쥑
쥒
쥓
쥔
쥕
쥖
쥗
쥘
쥙
쥚
쥛
쥜
쥝
쥞
쥟
쥠
쥡
쥢
쥣
쥤
쥥
쥦
쥧
쥨
쥩
쥪
쥫
쥬
쥭
쥮
쥯
쥰
쥱
쥲
쥳
쥴
쥵
쥶
쥷
쥸
쥹
쥺
쥻
쥼
쥽
쥾
쥿
즀
즁
즂
즃
즄
즅
즆
즇
즈
즉
즊
즋
즌
즍
즎
즏
즐
즑
즒
즓
즔
즕
즖
즗
즘
즙
즚
즛
즜
증
즞
즟
즠
즡
즢
즣
즤
즥
즦
즧
즨
즩
즪
즫
즬
즭
즮
즯
즰
즱
즲
즳
즴
즵
즶
즷
즸
즹
즺
즻
즼
즽
즾
즿
지
직
짂
짃
진
짅
짆
짇
질
짉
짊
짋
짌
짍
짎
짏
짐
집
짒
짓
짔
징
짖
짗
짘
짙
짚
짛
짜
짝
짞
짟
짠
짡
짢
짣
짤
짥
짦
짧
짨
짩
짪
짫
짬
짭
짮
짯
짰
짱
짲
짳
짴
짵
짶
짷
째
짹
짺
짻
짼
짽
짾
짿
쨀
쨁
쨂
쨃
쨄
쨅
쨆
쨇
쨈
쨉
쨊
쨋
쨌
쨍
쨎
쨏
쨐
쨑
쨒
쨓
쨔
쨕
쨖
쨗
쨘
쨙
쨚
쨛
쨜
쨝
쨞
쨟
쨠
쨡
쨢
쨣
쨤
쨥
쨦
쨧
쨨
쨩
쨪
쨫
쨬
쨭
쨮
쨯
쨰
쨱
쨲
쨳
쨴
쨵
쨶
쨷
쨸
쨹
쨺
쨻
쨼
쨽
쨾
쨿
쩀
쩁
쩂
쩃
쩄
쩅
쩆
쩇
쩈
쩉
쩊
쩋
쩌
쩍
쩎
쩏
쩐
쩑
쩒
쩓
쩔
쩕
쩖
쩗
쩘
쩙
쩚
쩛
쩜
쩝
쩞
쩟
쩠
쩡
쩢
쩣
쩤
쩥
쩦
쩧
쩨
쩩
쩪
쩫
쩬
쩭
쩮
쩯
쩰
쩱
쩲
쩳
쩴
쩵
쩶
쩷
쩸
쩹
쩺
쩻
쩼
쩽
쩾
쩿
쪀
쪁
쪂
쪃
쪄
쪅
쪆
쪇
쪈
쪉
쪊
쪋
쪌
쪍
쪎
쪏
쪐
쪑
쪒
쪓
쪔
쪕
쪖
쪗
쪘
쪙
쪚
쪛
쪜
쪝
쪞
쪟
쪠
쪡
쪢
쪣
쪤
쪥
쪦
쪧
쪨
쪩
쪪
쪫
쪬
쪭
쪮
쪯
쪰
쪱
쪲
쪳
쪴
쪵
쪶
쪷
쪸
쪹
쪺
쪻
쪼
쪽
쪾
쪿
쫀
쫁
쫂
쫃
쫄
쫅
쫆
쫇
쫈
쫉
쫊
쫋
쫌
쫍
쫎
쫏
쫐
쫑
쫒
쫓
쫔
쫕
쫖
쫗
쫘
쫙
쫚
쫛
쫜
쫝
쫞
쫟
쫠
쫡
쫢
쫣
쫤
쫥
쫦
쫧
쫨
쫩
쫪
쫫
쫬
쫭
쫮
쫯
쫰
쫱
쫲
쫳
쫴
쫵
쫶
쫷
쫸
쫹
쫺
쫻
쫼
쫽
쫾
쫿
쬀
쬁
쬂
쬃
쬄
쬅
쬆
쬇
쬈
쬉
쬊
쬋
쬌
쬍
쬎
쬏
쬐
쬑
쬒
쬓
쬔
쬕
쬖
쬗
쬘
쬙
쬚
쬛
쬜
쬝
쬞
쬟
쬠
쬡
쬢
쬣
쬤
쬥
쬦
쬧
쬨
쬩
쬪
쬫
쬬
쬭
쬮
쬯
쬰
쬱
쬲
쬳
쬴
쬵
쬶
쬷
쬸
쬹
쬺
쬻
쬼
쬽
쬾
쬿
쭀
쭁
쭂
쭃
쭄
쭅
쭆
쭇
쭈
쭉
쭊
쭋
쭌
쭍
쭎
쭏
쭐
쭑
쭒
쭓
쭔
쭕
쭖
쭗
쭘
쭙
쭚
쭛
쭜
쭝
쭞
쭟
쭠
쭡
쭢
쭣
쭤
쭥
쭦
쭧
쭨
쭩
쭪
쭫
쭬
쭭
쭮
쭯
쭰
쭱
쭲
쭳
쭴
쭵
쭶
쭷
쭸
쭹
쭺
쭻
쭼
쭽
쭾
쭿
쮀
쮁
쮂
쮃
쮄
쮅
쮆
쮇
쮈
쮉
쮊
쮋
쮌
쮍
쮎
쮏
쮐
쮑
쮒
쮓
쮔
쮕
쮖
쮗
쮘
쮙
쮚
쮛
쮜
쮝
쮞
쮟
쮠
쮡
쮢
쮣
쮤
쮥
쮦
쮧
쮨
쮩
쮪
쮫
쮬
쮭
쮮
쮯
쮰
쮱
쮲
쮳
쮴
쮵
쮶
쮷
쮸
쮹
쮺
쮻
쮼
쮽
쮾
쮿
쯀
쯁
쯂
쯃
쯄
쯅
쯆
쯇
쯈
쯉
쯊
쯋
쯌
쯍
쯎
쯏
쯐
쯑
쯒
쯓
쯔
쯕
쯖
쯗
쯘
쯙
쯚
쯛
쯜
쯝
쯞
쯟
쯠
쯡
쯢
쯣
쯤
쯥
쯦
쯧
쯨
쯩
쯪
쯫
쯬
쯭
쯮
쯯
쯰
쯱
쯲
쯳
쯴
쯵
쯶
쯷
쯸
쯹
쯺
쯻
쯼
쯽
쯾
쯿
찀
찁
찂
찃
찄
찅
찆
찇
찈
찉
찊
찋
찌
찍
찎
찏
찐
찑
찒
찓
찔
찕
찖
찗
찘
찙
찚
찛
찜
찝
찞
찟
찠
찡
찢
찣
찤
찥
찦
찧
차
착
찪
찫
찬
찭
찮
찯
찰
찱
찲
찳
찴
찵
찶
찷
참
찹
찺
찻
찼
창
찾
찿
챀
챁
챂
챃
채
책
챆
챇
챈
챉
챊
챋
챌
챍
챎
챏
챐
챑
챒
챓
챔
챕
챖
챗
챘
챙
챚
챛
챜
챝
챞
챟
챠
챡
챢
챣
챤
챥
챦
챧
챨
챩
챪
챫
챬
챭
챮
챯
챰
챱
챲
챳
챴
챵
챶
챷
챸
챹
챺
챻
챼
챽
챾
챿
첀
첁
첂
첃
첄
첅
첆
첇
첈
첉
첊
첋
첌
첍
첎
첏
첐
첑
첒
첓
첔
첕
첖
첗
처
척
첚
첛
천
첝
첞
첟
철
첡
첢
첣
첤
첥
첦
첧
첨
첩
첪
첫
첬
청
첮
첯
첰
첱
첲
첳
체
첵
첶
첷
첸
첹
첺
첻
첼
첽
첾
첿
쳀
쳁
쳂
쳃
쳄
쳅
쳆
쳇
쳈
쳉
쳊
쳋
쳌
쳍
쳎
쳏
쳐
쳑
쳒
쳓
쳔
쳕
쳖
쳗
쳘
쳙
쳚
쳛
쳜
쳝
쳞
쳟
쳠
쳡
쳢
쳣
쳤
쳥
쳦
쳧
쳨
쳩
쳪
쳫
쳬
쳭
쳮
쳯
쳰
쳱
쳲
쳳
쳴
쳵
쳶
쳷
쳸
쳹
쳺
쳻
쳼
쳽
쳾
쳿
촀
촁
촂
촃
촄
촅
촆
촇
초
촉
촊
촋
촌
촍
촎
촏
촐
촑
촒
촓
촔
촕
촖
촗
촘
촙
촚
촛
촜
총
촞
촟
촠
촡
촢
촣
촤
촥
촦
촧
촨
촩
촪
촫
촬
촭
촮
촯
촰
촱
촲
촳
촴
촵
촶
촷
촸
촹
촺
촻
촼
촽
촾
촿
쵀
쵁
쵂
쵃
쵄
쵅
쵆
쵇
쵈
쵉
쵊
쵋
쵌
쵍
쵎
쵏
쵐
쵑
쵒
쵓
쵔
쵕
쵖
쵗
쵘
쵙
쵚
쵛
최
쵝
쵞
쵟
쵠
쵡
쵢
쵣
쵤
쵥
쵦
쵧
쵨
쵩
쵪
쵫
쵬
쵭
쵮
쵯
쵰
쵱
쵲
쵳
쵴
쵵
쵶
쵷
쵸
쵹
쵺
쵻
쵼
쵽
쵾
쵿
춀
춁
춂
춃
춄
춅
춆
춇
춈
춉
춊
춋
춌
춍
춎
춏
춐
춑
춒
춓
추
축
춖
춗
춘
춙
춚
춛
출
춝
춞
춟
춠
춡
춢
춣
춤
춥
춦
춧
춨
충
춪
춫
춬
춭
춮
춯
춰
춱
춲
춳
춴
춵
춶
춷
춸
춹
춺
춻
춼
춽
춾
춿
췀
췁
췂
췃
췄
췅
췆
췇
췈
췉
췊
췋
췌
췍
췎
췏
췐
췑
췒
췓
췔
췕
췖
췗
췘
췙
췚
췛
췜
췝
췞
췟
췠
췡
췢
췣
췤
췥
췦
췧
취
췩
췪
췫
췬
췭
췮
췯
췰
췱
췲
췳
췴
췵
췶
췷
췸
췹
췺
췻
췼
췽
췾
췿
츀
츁
츂
츃
츄
츅
츆
츇
츈
츉
츊
츋
츌
츍
츎
츏
츐
츑
츒
츓
츔
츕
츖
츗
츘
츙
츚
츛
츜
츝
츞
츟
츠
측
츢
츣
츤
츥
츦
츧
츨
츩
츪
츫
츬
츭
츮
츯
츰
츱
츲
츳
츴
층
츶
츷
츸
츹
츺
츻
츼
츽
츾
츿
칀
칁
칂
칃
칄
칅
칆
칇
칈
칉
칊
칋
칌
칍
칎
칏
칐
칑
칒
칓
칔
칕
칖
칗
치
칙
칚
칛
친
칝
칞
칟
칠
칡
칢
칣
칤
칥
칦
칧
침
칩
칪
칫
칬
칭
칮
칯
칰
칱
칲
칳
카
칵
칶
칷
칸
칹
칺
칻
칼
칽
칾
칿
캀
캁
캂
캃
캄
캅
캆
캇
캈
캉
캊
캋
캌
캍
캎
캏
캐
캑
캒
캓
캔
캕
캖
캗
캘
캙
캚
캛
캜
캝
캞
캟
캠
캡
캢
캣
캤
캥
캦
캧
캨
캩
캪
캫
캬
캭
캮
캯
캰
캱
캲
캳
캴
캵
캶
캷
캸
캹
캺
캻
캼
캽
캾
캿
컀
컁
컂
컃
컄
컅
컆
컇
컈
컉
컊
컋
컌
컍
컎
컏
컐
컑
컒
컓
컔
컕
컖
컗
컘
컙
컚
컛
컜
컝
컞
컟
컠
컡
컢
컣
커
컥
컦
컧
컨
컩
컪
컫
컬
컭
컮
컯
컰
컱
컲
컳
컴
컵
컶
컷
컸
컹
컺
컻
컼
컽
컾
컿
케
켁
켂
켃
켄
켅
켆
켇
켈
켉
켊
켋
켌
켍
켎
켏
켐
켑
켒
켓
켔
켕
켖
켗
켘
켙
켚
켛
켜
켝
켞
켟
켠
켡
켢
켣
켤
켥
켦
켧
켨
켩
켪
켫
켬
켭
켮
켯
켰
켱
켲
켳
켴
켵
켶
켷
켸
켹
켺
켻
켼
켽
켾
켿
콀
콁
콂
콃
콄
콅
콆
콇
콈
콉
콊
콋
콌
콍
콎
콏
콐
콑
콒
콓
코
콕
콖
콗
콘
콙
콚
콛
콜
콝
콞
콟
콠
콡
콢
콣
콤
콥
콦
콧
콨
콩
콪
콫
콬
콭
콮
콯
콰
콱
콲
콳
콴
콵
콶
콷
콸
콹
콺
콻
콼
콽
콾
콿
쾀
쾁
쾂
쾃
쾄
쾅
쾆
쾇
쾈
쾉
쾊
쾋
쾌
쾍
쾎
쾏
쾐
쾑
쾒
쾓
쾔
쾕
쾖
쾗
쾘
쾙
쾚
쾛
쾜
쾝
쾞
쾟
쾠
쾡
쾢
쾣
쾤
쾥
쾦
쾧
쾨
쾩
쾪
쾫
쾬
쾭
쾮
쾯
쾰
쾱
쾲
쾳
쾴
쾵
쾶
쾷
쾸
쾹
쾺
쾻
쾼
쾽
쾾
쾿
쿀
쿁
쿂
쿃
쿄
쿅
쿆
쿇
쿈
쿉
쿊
쿋
쿌
쿍
쿎
쿏
쿐
쿑
쿒
쿓
쿔
쿕
쿖
쿗
쿘
쿙
쿚
쿛
쿜
쿝
쿞
쿟
쿠
쿡
쿢
쿣
쿤
쿥
쿦
쿧
쿨
쿩
쿪
쿫
쿬
쿭
쿮
쿯
쿰
쿱
쿲
쿳
쿴
쿵
쿶
쿷
쿸
쿹
쿺
쿻
쿼
쿽
쿾
쿿
퀀
퀁
퀂
퀃
퀄
퀅
퀆
퀇
퀈
퀉
퀊
퀋
퀌
퀍
퀎
퀏
퀐
퀑
퀒
퀓
퀔
퀕
퀖
퀗
퀘
퀙
퀚
퀛
퀜
퀝
퀞
퀟
퀠
퀡
퀢
퀣
퀤
퀥
퀦
퀧
퀨
퀩
퀪
퀫
퀬
퀭
퀮
퀯
퀰
퀱
퀲
퀳
퀴
퀵
퀶
퀷
퀸
퀹
퀺
퀻
퀼
퀽
퀾
퀿
큀
큁
큂
큃
큄
큅
큆
큇
큈
큉
큊
큋
큌
큍
큎
큏
큐
큑
큒
큓
큔
큕
큖
큗
큘
큙
큚
큛
큜
큝
큞
큟
큠
큡
큢
큣
큤
큥
큦
큧
큨
큩
큪
큫
크
큭
큮
큯
큰
큱
큲
큳
클
큵
큶
큷
큸
큹
큺
큻
큼
큽
큾
큿
킀
킁
킂
킃
킄
킅
킆
킇
킈
킉
킊
킋
킌
킍
킎
킏
킐
킑
킒
킓
킔
킕
킖
킗
킘
킙
킚
킛
킜
킝
킞
킟
킠
킡
킢
킣
키
킥
킦
킧
킨
킩
킪
킫
킬
킭
킮
킯
킰
킱
킲
킳
킴
킵
킶
킷
킸
킹
킺
킻
킼
킽
킾
킿
타
탁
탂
탃
탄
탅
탆
탇
탈
탉
탊
탋
탌
탍
탎
탏
탐
탑
탒
탓
탔
탕
탖
탗
탘
탙
탚
탛
태
택
탞
탟
탠
탡
탢
탣
탤
탥
탦
탧
탨
탩
탪
탫
탬
탭
탮
탯
탰
탱
탲
탳
탴
탵
탶
탷
탸
탹
탺
탻
탼
탽
탾
탿
턀
턁
턂
턃
턄
턅
턆
턇
턈
턉
턊
턋
턌
턍
턎
턏
턐
턑
턒
턓
턔
턕
턖
턗
턘
턙
턚
턛
턜
턝
턞
턟
턠
턡
턢
턣
턤
턥
턦
턧
턨
턩
턪
턫
턬
턭
턮
턯
터
턱
턲
턳
턴
턵
턶
턷
털
턹
턺
턻
턼
턽
턾
턿
텀
텁
텂
텃
텄
텅
텆
텇
텈
텉
텊
텋
테
텍
텎
텏
텐
텑
텒
텓
텔
텕
텖
텗
텘
텙
텚
텛
템
텝
텞
텟
텠
텡
텢
텣
텤
텥
텦
텧
텨
텩
텪
텫
텬
텭
텮
텯
텰
텱
텲
텳
텴
텵
텶
텷
텸
텹
텺
텻
텼
텽
텾
텿
톀
톁
톂
톃
톄
톅
톆
톇
톈
톉
톊
톋
톌
톍
톎
톏
톐
톑
톒
톓
톔
톕
톖
톗
톘
톙
톚
톛
톜
톝
톞
톟
토
톡
톢
톣
톤
톥
톦
톧
톨
톩
톪
톫
톬
톭
톮
톯
톰
톱
톲
톳
톴
통
톶
톷
톸
톹
톺
톻
톼
톽
톾
톿
퇀
퇁
퇂
퇃
퇄
퇅
퇆
퇇
퇈
퇉
퇊
퇋
퇌
퇍
퇎
퇏
퇐
퇑
퇒
퇓
퇔
퇕
퇖
퇗
퇘
퇙
퇚
퇛
퇜
퇝
퇞
퇟
퇠
퇡
퇢
퇣
퇤
퇥
퇦
퇧
퇨
퇩
퇪
퇫
퇬
퇭
퇮
퇯
퇰
퇱
퇲
퇳
퇴
퇵
퇶
퇷
퇸
퇹
퇺
퇻
퇼
퇽
퇾
퇿
툀
툁
툂
툃
툄
툅
툆
툇
툈
툉
툊
툋
툌
툍
툎
툏
툐
툑
툒
툓
툔
툕
툖
툗
툘
툙
툚
툛
툜
툝
툞
툟
툠
툡
툢
툣
툤
툥
툦
툧
툨
툩
툪
툫
투
툭
툮
툯
툰
툱
툲
툳
툴
툵
툶
툷
툸
툹
툺
툻
툼
툽
툾
툿
퉀
퉁
퉂
퉃
퉄
퉅
퉆
퉇
퉈
퉉
퉊
퉋
퉌
퉍
퉎
퉏
퉐
퉑
퉒
퉓
퉔
퉕
퉖
퉗
퉘
퉙
퉚
퉛
퉜
퉝
퉞
퉟
퉠
퉡
퉢
퉣
퉤
퉥
퉦
퉧
퉨
퉩
퉪
퉫
퉬
퉭
퉮
퉯
퉰
퉱
퉲
퉳
퉴
퉵
퉶
퉷
퉸
퉹
퉺
퉻
퉼
퉽
퉾
퉿
튀
튁
튂
튃
튄
튅
튆
튇
튈
튉
튊
튋
튌
튍
튎
튏
튐
튑
튒
튓
튔
튕
튖
튗
튘
튙
튚
튛
튜
튝
튞
튟
튠
튡
튢
튣
튤
튥
튦
튧
튨
튩
튪
튫
튬
튭
튮
튯
튰
튱
튲
튳
튴
튵
튶
튷
트
특
튺
튻
튼
튽
튾
튿
틀
틁
틂
틃
틄
틅
틆
틇
틈
틉
틊
틋
틌
틍
틎
틏
틐
틑
틒
틓
틔
틕
틖
틗
틘
틙
틚
틛
틜
틝
틞
틟
틠
틡
틢
틣
틤
틥
틦
틧
틨
틩
틪
틫
틬
틭
틮
틯
티
틱
틲
틳
틴
틵
틶
틷
틸
틹
틺
틻
틼
틽
틾
틿
팀
팁
팂
팃
팄
팅
팆
팇
팈
팉
팊
팋
파
팍
팎
팏
판
팑
팒
팓
팔
팕
팖
팗
팘
팙
팚
팛
팜
팝
팞
팟
팠
팡
팢
팣
팤
팥
팦
팧
패
팩
팪
팫
팬
팭
팮
팯
팰
팱
팲
팳
팴
팵
팶
팷
팸
팹
팺
팻
팼
팽
팾
팿
퍀
퍁
퍂
퍃
퍄
퍅
퍆
퍇
퍈
퍉
퍊
퍋
퍌
퍍
퍎
퍏
퍐
퍑
퍒
퍓
퍔
퍕
퍖
퍗
퍘
퍙
퍚
퍛
퍜
퍝
퍞
퍟
퍠
퍡
퍢
퍣
퍤
퍥
퍦
퍧
퍨
퍩
퍪
퍫
퍬
퍭
퍮
퍯
퍰
퍱
퍲
퍳
퍴
퍵
퍶
퍷
퍸
퍹
퍺
퍻
퍼
퍽
퍾
퍿
펀
펁
펂
펃
펄
펅
펆
펇
펈
펉
펊
펋
펌
펍
펎
펏
펐
펑
펒
펓
펔
펕
펖
펗
페
펙
펚
펛
펜
펝
펞
펟
펠
펡
펢
펣
펤
펥
펦
펧
펨
펩
펪
펫
펬
펭
펮
펯
펰
펱
펲
펳
펴
펵
펶
펷
편
펹
펺
펻
펼
펽
펾
펿
폀
폁
폂
폃
폄
폅
폆
폇
폈
평
폊
폋
폌
폍
폎
폏
폐
폑
폒
폓
폔
폕
폖
폗
폘
폙
폚
폛
폜
폝
폞
폟
폠
폡
폢
폣
폤
폥
폦
폧
폨
폩
폪
폫
포
폭
폮
폯
폰
폱
폲
폳
폴
폵
폶
폷
폸
폹
폺
폻
폼
폽
폾
폿
퐀
퐁
퐂
퐃
퐄
퐅
퐆
퐇
퐈
퐉
퐊
퐋
퐌
퐍
퐎
퐏
퐐
퐑
퐒
퐓
퐔
퐕
퐖
퐗
퐘
퐙
퐚
퐛
퐜
퐝
퐞
퐟
퐠
퐡
퐢
퐣
퐤
퐥
퐦
퐧
퐨
퐩
퐪
퐫
퐬
퐭
퐮
퐯
퐰
퐱
퐲
퐳
퐴
퐵
퐶
퐷
퐸
퐹
퐺
퐻
퐼
퐽
퐾
퐿
푀
푁
푂
푃
푄
푅
푆
푇
푈
푉
푊
푋
푌
푍
푎
푏
푐
푑
푒
푓
푔
푕
푖
푗
푘
푙
푚
푛
표
푝
푞
푟
푠
푡
푢
푣
푤
푥
푦
푧
푨
푩
푪
푫
푬
푭
푮
푯
푰
푱
푲
푳
푴
푵
푶
푷
푸
푹
푺
푻
푼
푽
푾
푿
풀
풁
풂
풃
풄
풅
풆
풇
품
풉
풊
풋
풌
풍
풎
풏
풐
풑
풒
풓
풔
풕
풖
풗
풘
풙
풚
풛
풜
풝
풞
풟
풠
풡
풢
풣
풤
풥
풦
풧
풨
풩
풪
풫
풬
풭
풮
풯
풰
풱
풲
풳
풴
풵
풶
풷
풸
풹
풺
풻
풼
풽
풾
풿
퓀
퓁
퓂
퓃
퓄
퓅
퓆
퓇
퓈
퓉
퓊
퓋
퓌
퓍
퓎
퓏
퓐
퓑
퓒
퓓
퓔
퓕
퓖
퓗
퓘
퓙
퓚
퓛
퓜
퓝
퓞
퓟
퓠
퓡
퓢
퓣
퓤
퓥
퓦
퓧
퓨
퓩
퓪
퓫
퓬
퓭
퓮
퓯
퓰
퓱
퓲
퓳
퓴
퓵
퓶
퓷
퓸
퓹
퓺
퓻
퓼
퓽
퓾
퓿
픀
픁
픂
픃
프
픅
픆
픇
픈
픉
픊
픋
플
픍
픎
픏
픐
픑
픒
픓
픔
픕
픖
픗
픘
픙
픚
픛
픜
픝
픞
픟
픠
픡
픢
픣
픤
픥
픦
픧
픨
픩
픪
픫
픬
픭
픮
픯
픰
픱
픲
픳
픴
픵
픶
픷
픸
픹
픺
픻
피
픽
픾
픿
핀
핁
핂
핃
필
핅
핆
핇
핈
핉
핊
핋
핌
핍
핎
핏
핐
핑
핒
핓
핔
핕
핖
핗
하
학
핚
핛
한
핝
핞
핟
할
핡
핢
핣
핤
핥
핦
핧
함
합
핪
핫
핬
항
핮
핯
핰
핱
핲
핳
해
핵
핶
핷
핸
핹
핺
핻
핼
핽
핾
핿
햀
햁
햂
햃
햄
햅
햆
햇
했
행
햊
햋
햌
햍
햎
햏
햐
햑
햒
햓
햔
햕
햖
햗
햘
햙
햚
햛
햜
햝
햞
햟
햠
햡
햢
햣
햤
향
햦
햧
햨
햩
햪
햫
햬
햭
햮
햯
햰
햱
햲
햳
햴
햵
햶
햷
햸
햹
햺
햻
햼
햽
햾
햿
헀
헁
헂
헃
헄
헅
헆
헇
허
헉
헊
헋
헌
헍
헎
헏
헐
헑
헒
헓
헔
헕
헖
헗
험
헙
헚
헛
헜
헝
헞
헟
헠
헡
헢
헣
헤
헥
헦
헧
헨
헩
헪
헫
헬
헭
헮
헯
헰
헱
헲
헳
헴
헵
헶
헷
헸
헹
헺
헻
헼
헽
헾
헿
혀
혁
혂
혃
현
혅
혆
혇
혈
혉
혊
혋
혌
혍
혎
혏
혐
협
혒
혓
혔
형
혖
혗
혘
혙
혚
혛
혜
혝
혞
혟
혠
혡
혢
혣
혤
혥
혦
혧
혨
혩
혪
혫
혬
혭
혮
혯
혰
혱
혲
혳
혴
혵
혶
혷
호
혹
혺
혻
혼
혽
혾
혿
홀
홁
홂
홃
홄
홅
홆
홇
홈
홉
홊
홋
홌
홍
홎
홏
홐
홑
홒
홓
화
확
홖
홗
환
홙
홚
홛
활
홝
홞
홟
홠
홡
홢
홣
홤
홥
홦
홧
홨
황
홪
홫
홬
홭
홮
홯
홰
홱
홲
홳
홴
홵
홶
홷
홸
홹
홺
홻
홼
홽
홾
홿
횀
횁
횂
횃
횄
횅
횆
횇
횈
횉
횊
횋
회
획
횎
횏
횐
횑
횒
횓
횔
횕
횖
횗
횘
횙
횚
횛
횜
횝
횞
횟
횠
횡
횢
횣
횤
횥
횦
횧
효
횩
횪
횫
횬
횭
횮
횯
횰
횱
횲
횳
횴
횵
횶
횷
횸
횹
횺
횻
횼
횽
횾
횿
훀
훁
훂
훃
후
훅
훆
훇
훈
훉
훊
훋
훌
훍
훎
훏
훐
훑
훒
훓
훔
훕
훖
훗
훘
훙
훚
훛
훜
훝
훞
훟
훠
훡
훢
훣
훤
훥
훦
훧
훨
훩
훪
훫
훬
훭
훮
훯
훰
훱
훲
훳
훴
훵
훶
훷
훸
훹
훺
훻
훼
훽
훾
훿
휀
휁
휂
휃
휄
휅
휆
휇
휈
휉
휊
휋
휌
휍
휎
휏
휐
휑
휒
휓
휔
휕
휖
휗
휘
휙
휚
휛
휜
휝
휞
휟
휠
휡
휢
휣
휤
휥
휦
휧
휨
휩
휪
휫
휬
휭
휮
휯
휰
휱
휲
휳
휴
휵
휶
휷
휸
휹
휺
휻
휼
휽
휾
휿
흀
흁
흂
흃
흄
흅
흆
흇
흈
흉
흊
흋
흌
흍
흎
흏
흐
흑
흒
흓
흔
흕
흖
흗
흘
흙
흚
흛
흜
흝
흞
흟
흠
흡
흢
흣
흤
흥
흦
흧
흨
흩
흪
흫
희
흭
흮
흯
흰
흱
흲
흳
흴
흵
흶
흷
흸
흹
흺
흻
흼
흽
흾
흿
힀
힁
힂
힃
힄
힅
힆
힇
히
힉
힊
힋
힌
힍
힎
힏
힐
힑
힒
힓
힔
힕
힖
힗
힘
힙
힚
힛
힜
힝
힞
힟
힠
힡
힢
힣
##사
##이
##어
##스
##u
##l
##3
##6
##1
##e
##g
##a
##p
##t
##r
##수
##는
##쾌
##지
##m
##n
##i
##f
##c
##s
##육
##국
##동
##완
##o
##비
##금
##계
##니
##퍼
##헤
##일
##규
##랴
##르
##호
##른
##은
##8
##S
##Y
##.
##-
##_
##;
##'
##b
##M
##A
##R
##D
##j
##d
##예
##린
##에
##웨
##난
##라
##범
##K
##y
##리
##4
##9
##2
##0
##7
##품
##객
##W
##N
##k
##재
##명
##ㅡ
##ㅣ
##C
##I
##v
##T
##O
##E
##주
##민
##L
##G
##H
##디
##미
##그
##나
##트
##h
##x
##려
##검
##각
##당
##오
##로
##입
##자
##도
##알
##삼
##키
##가
##요
##영
##창
##조
##q
##시
##현
##종
##U
##B
##V
##언
##메
##의
##5
##끼
##P
##모
##열
##세
##승
##연
##래
##대
##안
##신
##평
##화
##레
##노
##해
##류
##왕
##워
##질
##월
##글
##캐
##터
##효
##무
##휘
##벤
##케
##z
##변
##환
##읍
##군
##혼
##하
##윤
##엽
##치
##드
##X
##^
##@
##!
##서
##w
##향
##제
##넌
##볼
##고
##기
##쵸
##성
##넷
##배
##걸
##철
##균
##집
##러
##너
##착
##형
##준
##빠
##져
##문
##과
##F
##렛
##운
##팅
##인
##체
##산
##플
##척
##액
##부
##Q
##경
##임
##없
##죄
##푸
##빛
##길
##마
##우
##즈
##브
##엘
##바
##티
##허
##상
##탁
##녜
##네
##법
##앙
##정
##보
##락
##겨
##저
##진
##구
##흐
##용
##전
##욱
##ㅇ
##분
##독
##까
##굴
##공
##론
##다
##석
##옷
##양
##청
##살
##데
##버
##츠
##베
##크
##단
##파
##블
##아
##방
##녕
##Z
##선
##물
##여
##갈
##위
##됨
##곡
##천
##커
##쳐
##ㄲ
##랠
##초
##슬
##염
##소
##년
##밀
##학
##역
##던
##느
##능
##란
##타
##림
##머
##촬
##릇
##슨
##후
##적
##험
##을
##음
##응
##만
##강
##근
##ㅂ
##ㅅ
##두
##십
##간
##포
##튼
##프
##매
##셔
##박
##혀
##억
##술
##원
##새
##함
##혜
##으
##쥔
##롤
##야
##곱
##슈
##등
##록
##J
##끄
##릴
##코
##쇼
##칙
##폭
##속
##날
##개
##쥐
##먼
##힐
##히
##텐
##립
##ㅏ
##ㅎ
##겼
##항
##병
##판
##투
##피
##둔
##카
##족
##/
##&
##렁
##칼
##태
##=
##)
##빙
##징
##생
##멧
##ㅌ
##ㅊ
##풍
##게
##말
##묵
##ㅙ
##ㅄ
##존
##렬
##력
##ㅚ
##릭
##둥
##쇠
##회
##심
##애
##:
##묘
##통
##클
##웅
##랄
##광
##식
##내
##행
##긿
##루
##렌
##울
##테
##빗
##헥
##논
##토
##순
##돠
##관
##섬
##랜
##점
##픈
##훈
##딩
##릉
##섭
##유
##한
##쉬
##목
##페
##외
##킨
##북
##츤
##를
##,
##"
##례
##골
##쓰
##런
##택
##ㅞ
##ㅍ
##찟
##약
##낸
##흥
##복
##필
##직
##렸
##귀
##탑
##ㅜ
##축
##멘
##봉
##와
##송
##줄
##께
##었
##손
##딕
##윽
##졸
##율
##펠
###
##*
##%
##익
##춘
##면
##득
##얄
##교
##퉁
##값
##윈
##옥
##칭
##장
##ㅗ
##ㄿ
##중
##챈
##들
##펜
##온
##답
##젤
##룹
##랑
##혁
##남
##숙
##홍
##탕
##발
##룡
##뜨
##ㄹ
##권
##급
##거
##곤
##백
##삿
##채
##?
##룸
##잘
##량
##빌
##본
##추
##략
##톤
##ㄾ
##놀
##룰
##혔
##싱
##닌
##ㅓ
##웠
##덕
##턴
##찬
##갔
##므
##감
##반
##팀
##뱌
##별
##악
##짝
##잉
##꾸
##떠
##업
##[
##]
##춰
##흘
##씨
##깡
##팡
##탓
##셀
##층
##옹
##떨
##황
##령
##표
##촌
##든
##맞
##빈
##몰
##꽃
##망
##컬
##멜
##졌
##며
##색
##희
##겔
##틴
##캠
##벨
##콜
##풀
##쀼
##쮸
##칠
##헌
##맨
##틀
##압
##렀
##잠
##차
##귄
##봄
##잎
##절
##돌
##팝
##벽
##팩
##렐
##쿠
##벌
##따
##꼬
##틱
##흉
##윌
##엄
##숨
##룽
##잡
##궁
##롱
##엥
##션
##겐
##붕
##닷
##켜
##냈
##겸
##얽
##널
##킥
##폼
##톄
##{
##헨
##ㅟ
##ㄷ
##ㅈ
##ㄱ
##룩
##럿
##셜
##닐
##뷰
##왼
##쪽
##쉘
##막
##참
##}
##실
##랏
##출
##펴
##봐
##름
##합
##밥
##컵
##덴
##ㅘ
##누
##센
##퀼
##밭
##갤
##짱
##최
##랭
##냥
##폴
##처
##더
##롬
##셈
##ㅒ
##ㄳ
##극
##편
##련
##람
##|
##깃
##삭
##갑
##불
##작
##밍
##죽
##껏
##잭
##찮
##ㅁ
##ㅝ
##ㅀ
##돔
##ㅋ
##츌
##증
##롯
##뚝
##격
##춤
##꾼
##암
##결
##밋
##붙
##닛
##욕
##링
##삐
##톨
##달
##걀
##슴
##뎅
##좆
##침
##갠
##ㅛ
##롭
##탄
##ㅢ
##뉴
##협
##~
##였
##빼
##늘
##켄
##댄
##템
##딘
##탈
##싸
##움
##쳡
##텔
##텍
##씬
##콘
##번
##짤
##눈
##팔
##활
##엔
##렉
##찌
##넥
##쟁
##\
##륙
##섹
##녀
##패
##륵
##꺄
##깁
##벙
##븐
##왔
##팁
##컷
##칸
##뇽
##폐
##럼
##폰
##곳
##넬
##듬
##럴
##듯
##컴
##끵
##건
##ㅑ
##ㄽ
##옴
##씩
##섰
##맥
##김
##취
##닫
##닙
##툰
##돖
##캆
##왒
##싮
##밦
##툵
##샨
##닥
##솔
##쑤
##ㄺ
##즘
##헝
##웡
##맢
##셸
##견
##콰
##뒤
##묻
##쎠
##책
##(
##쇄
##첨
##총
##<
##샘
##욜
##꼼
##핀
##좋
##퓰
##헣
##윷
##담
##ㅕ
##뼈
##탐
##몸
##몬
##롈
##럭
##뿟
##ㄴ
##ㄵ
##겁
##홀
##릅
##킹
##ㅃ
##갯
##짓
##뤄
##님
##슝
##친
##쎌
##충
##죡
##설
##끔
##되
##홓
##농
##갱
##헬
##짬
##싹
##콧
##닝
##륭
##ㄶ
##딜
##픔
##끌
##콩
##힌
##뷸
##맛
##룬
##왈
##혹
##또
##ㄻ
##펄
##톱
##쏘
##밤
##딱
##궈
##짐
##칟
##ㅖ
##덤
##올
##륜
##튀
##꾹
##쫓
##긴
##쁠
##낮
##챦
##료
##몽
##갸
##쭉
##쟉
##춉
##꼭
##꿍
##쌍
##툴
##놈
##핸
##샷
##낙
##핑
##핫
##+
##줍
##툼
##굿
##섯
##샤
##흠
##껴
##낼
##롄
##뀌
##왂
##쏚
##딧
##뜽
##캄
##쩌
##훼
##킬
##씀
##쿜
##쯔
##`
##셰
##앤
##냐
##>
##썼
##램
##떡
##셋
##맹
##흡
##꽁
##털
##댕
##틸
##꿔
##팰
##샹
##횽
##덧
##융
##델
##곶
##줘
##왐
##좌
##밴
##톡
##챔
##슌
##컨
##녓
##쨍
##빕
##똥
##큐
##했
##츄
##빵
##흙
##$
##샌
##잔
##웰
##핵
##삽
##팟
##뇨
##납
##쳤
##웬
##뫄
##먏
##믐
##콤
##젠
##뿌
##쁘
##얏
##꺼
##때
##캉
##덩
##깔
##ㅆ
##멩
##벗
##쿄
##벡
##얀
##및
##턱
##같
##앗
##겜
##냉
##츨
##윗
##낭
##옌
##늬
##줌
##긋
##뒷
##습
##숭
##팽
##ㅔ
##혈
##뒀
##얼
##획
##뤼
##봅
##릿
##셴
##쥬
##킼
##못
##찍
##뮹
##궐
##빨
##흔
##홉
##빰
##켈
##뢰
##렵
##흑
##좀
##확
##찢
##엉
##캡
##밑
##첩
##둘
##았
##ㅠ
##찐
##뜩
##빅
##뎃
##즉
##륨
##툭
##앵
##측
##밝
##짚
##찜
##젝
##켓
##랫
##틈
##쌰
##접
##벳
##할
##뻔
##잆
##좂
##닉
##랍
##괘
##곰
##슾
##잇
##깨
##팜
##뜯
##뮬
##퇴
##굇
##믈
##괴
##먹
##튤
##깟
##썰
##ㄸ
##꺽
##끕
##럽
##셤
##텟
##퀘
##좔
##촤
##즌
##굠
##쁨
##팈
##둑
##것
##쉽
##퀴
##꼇
##헴
##뇌
##왜
##궤
##푀
##뱡
##몐
##뎡
##빔
##념
##앞
##찰
##옘
##딨
##렴
##쪼
##늄
##잼
##띠
##듀
##났
##츙
##넛
##땡
##덜
##넘
##빡
##윹
##뿐
##랩
##탸
##뱀
##웃
##겅
##봤
##슘
##돗
##됴
##눅
##받
##된
##벵
##롸
##탱
##꽝
##쾨
##낪
##밊
##숑
##섶
##깍
##챰
##멸
##굼
##팍
##캰
##뿝
##볶
##맡
##옵
##챠
##셷
##굽
##ㅐ
##펀
##퓨
##돕
##푼
##촨
##랐
##짠
##ㄼ
##깅
##쑹
##툽
##끈
##씰
##퍅
##촉
##튜
##밧
##돈
##첸
##셨
##뎬
##볕
##돼
##숲
##삜
##큰
##뎠
##폈
##컥
##벼
##렝
##렘
##탤
##멀
##눠
##껄
##햄
##뚜
##묭
##쪄
##있
##핼
##셉
##꿀
##슥
##삘
##떼
##듭
##뗄
##쌥
##뷔
##닻
##ㅉ
##큘
##쨩
##띰
##끝
##랙
##녹
##쑥
##텀
##휼
##꿏
##놓
##특
##쑨
##땅
##깎
##듣
##눗
##뭇
##톈
##홋
##핡
##핳
##듐
##겹
##딪
##챤
##칩
##깩
##꼴
##갓
##솽
##쿼
##짜
##첼
##믹
##댔
##룻
##츰
##떤
##엠
##엇
##퀸
##탒
##롮
##듮
##얘
##픽
##짇
##윅
##혐
##놋
##냔
##젓
##촐
##밸
##봇
##뻐
##갚
##븨
##많
##찡
##뚱
##놔
##덱
##첵
##뎐
##써
##뜰
##콥
##닭
##뱅
##샛
##렇
##률
##삯
##뜸
##삔
##탠
##왓
##웹
##높
##않
##샬
##툉
##뛰
##줬
##뀽
##됬
##힙
##뀨
##쏭
##훌
##깝
##딤
##훍
##콕
##팬
##촘
##텁
##썩
##뭐
##텝
##휴
##눌
##뉘
##펑
##쯋
##씁
##듈
##퐈
##캬
##킁
##쉐
##엑
##쏠
##칫
##뭔
##캘
##째
##흣
##빱
##멍
##엣
##뿔
##찼
##넨
##볘
##뽀
##눔
##곽
##텽
##겠
##쭈
##뽑
##슐
##힘
##뮌
##뛟
##톰
##쾰
##솥
##넣
##즐
##탔
##뺩
##뻬
##잖
##냑
##꿩
##챸
##붑
##꼈
##죠
##깐
##뺅
##쌈
##삡
##밖
##걲
##녈
##뜜
##덫
##닮
##뎀
##놨
##씌
##젼
##깜
##싯
##뭄
##덥
##딴
##랬
##붐
##쩍
##낏
##펌
##낑
##뿎
##걱
##딥
##탼
##얌
##큼
##뾱
##믄
##쁩
##튬
##솜
##낀
##쨕
##펨
##풋
##쾅
##줏
##뮤
##꼽
##훠
##귁
##캔
##찧
##쓸
##뵈
##믜
##뜻
##뗏
##끙
##쩔
##릐
##훅
##즑
##퍽
##삾
##넓
##벰
##쿨
##뢴
##댈
##죈
##핰
##뽁
##쩧
##댓
##왱
##몹
##눝
##슭
##쨋
##쌜
##솟
##륀
##쿤
##밟
##헠
##쌀
##뼬
##쭝
##끓
##껍
##찔
##읳
##쌓
##멓
##벓
##뚠
##붓
##뻣
##벚
##떄
##쁑
##텃
##옛
##곧
##졀
##윙
##뵤
##걋
##뙳
##홂
##톼
##낄
##킴
##윳
##뎌
##챌
##낚
##꿨
##춧
##펙
##멕
##퍄
##벅
##즙
##쒸
##콱
##걍
##쉴
##쳔
##숫
##앰
##퓌
##밈
##꺅
##펭
##딫
##맬
##헹
##둠
##칯
##헐
##킷
##뚤
##늅
##듳
##곈
##쳇
##굉
##겊
##폄
##팠
##뜐
##웍
##뾰
##짖
##겡
##냄
##딸
##맴
##쁜
##꺌
##훤
##셍
##빤
##쫑
##퇗
##멈
##녠
##맘
##챘
##붉
##겟
##웁
##숄
##쉔
##뎁
##렙
##뙈
##숀
##둇
##끽
##뱃
##뺑
##퀀
##쭌
##젬
##쭐
##뷜
##쭙
##힉
##펐
##캇
##좡
##될
##햣
##뉼
##깽
##땐
##곗
##뱁
##됐
##뒈
##튠
##눙
##깠
##퓔
##뿍
##긤
##룅
##릵
##퐁
##넴
##뗻
##빧
##띧
##갖
##햐
##탯
##녔
##끠
##쟈
##몄
##쓴
##컫
##떈
##엪
##섞
##댐
##긍
##흰
##홈
##펩
##잣
##숍
##췄
##봙
##돛
##먀
##쌘
##쥰
##냅
##눕
##탬
##샐
##낰
##뀔
##춋
##펔
##켰
##댠
##짭
##띤
##썷
##읗
##앓
##훙
##쯤
##뤽
##쌱
##둬
##횟
##칵
##퇀
##갬
##씍
##렷
##뵜
##툠
##쉰
##쒀
##땀
##앨
##똑
##찻
##뻘
##겋
##쁅
##뺡
##뗡
##봬
##긔
##뿅
##핏
##꿈
##쏙
##옙
##캅
##녁
##솝
##놉
##맣
##돋
##썻
##꿰
##쥘
##볐
##깊
##얻
##툐
##셧
##똔
##푹
##껑
##넵
##솹
##챱
##젖
##뵹
##캥
##웽
##쨘
##땽
##쭤
##쥉
##띨
##덟
##낛
##뉨
##뭉
##퍝
##텅
##슼
##뀍
##췩
##뛴
##읭
##큮
##땛
##밻
##샒
##쟣
##짹
##핍
##꿘
##츳
##뢸
##껀
##댜
##혓
##숯
##셩
##잿
##롷
##쩨
##킵
##둡
##븝
##쑝
##쩐
##뇓
##낱
##폿
##욤
##낌
##횩
##쌩
##쾡
##헿
##땠
##먁
##샙
##꽂
##띵
##겉
##캑
##쳅
##꽈
##앱
##홁
##땜
##밌
##냇
##뫙
##뜬
##욘
##쎄
##똘
##뮈
##싀
##튽
##퉤
##넹
##맑
##혠
##뇰
##묄
##몫
##꾀
##쀳
##풹
##챙
##꺘
##씅
##궜
##뽄
##맷
##씽
##쿵
##썬
##꿝
##늰
##뒁
##휠
##쯱
##멱
##맺
##띄
##녘
##쌤
##앳
##뤠
##괄
##겿
##짢
##싼
##솰
##늡
##깄
##읏
##쬬
##앉
##숴
##쳉
##왁
##꿉
##뷘
##펫
##쪠
##엙
##횡
##쟌
##눞
##췌
##귤
##쀏
##냌
##뼉
##헉
##댱
##돿
##촡
##멨
##쵠
##뼸
##컹
##얗
##둣
##뻑
##쌉
##쎈
##힝
##퓸
##숟
##쏀
##훔
##좐
##읽
##읅
##춱
##덮
##뉵
##썽
##젯
##솨
##엿
##츈
##엡
##뮐
##뺏
##냘
##빽
##퀄
##랸
##뀐
##깥
##쨌
##딛
##뜝
##섀
##슛
##멦
##캣
##쨔
##왧
##뷃
##얇
##곀
##땄
##긧
##쩝
##톳
##쩜
##먕
##옻
##곬
##뤘
##왑
##썹
##쏫
##숏
##낫
##홐
##혻
##탘
##뼜
##쥣
##쭵
##븞
##릾
##뽕
##끅
##킦
##끾
##텨
##샵
##얔
##랗
##쌌
##깬
##겻
##늪
##맵
##윾
##뢍
##팎
##엌
##훗
##앜
##켤
##흫
##뷫
##긇
##읋
##뿗
##뻤
##팥
##빳
##쓱
##뒑
##뷓
##늠
##쫙
##쿸
##뻥
##맸
##볏
##쉭
##븍
##럐
##쨰
##웉
##퉅
##릘
##뮨
##
##뱉
##멋
##끗
##귿
##늿
##괵
##믓
##쩠
##륄
##윱
##뺀
##촹
##좍
##촥
##쫄
##뚀
##늑
##싶
##빻
##홧
##떵
##뚬
##멬
##첬
##늦
##춈
##흄
##챃
##쪘
##젱
##뇸
##닏
##괭
##쬲
##엷
##촵
##쩡
##꾿
##뮴
##옮
##쯕
##굥
##뉻
##뒨
##셥
##뚫
##쉟
##렣
##댁
##괳
##뭬
##갛
##좊
##옇
##빚
##딍
##챗
##똏
##꼳
##눴
##쪙
##쿰
##츺
##빴
##떽
##왘
##큠
##헵
##콴
##밗
##퉈
##깏
##좨
##녯
##쫩
##갭
##쭘
##츼
##힛
##콬
##톹
##퐆
##쿳
##욧
##흴
##풉
##샴
##삧
##뺨
##쳣
##쫜
##휏
##떻
##씹
##쭨
##귐
##늉
##옆
##샥
##꼐
##쳰
##삒
##롹
##뫼
##돵
##튱
##쥠
##돓
##틉
##옐
##닿
##숌
##쌐
##욀
##걷
##꺕
##푯
##꺾
##웳
##벍
##뺼
##돨
##핌
##릎
##뫅
##즹
##롼
##몇
##뒫
##떴
##젴
##믕
##쉼
##댑
##뤨
##쿙
##듦
##뜵
##뙤
##꼍
##햘
##봊
##풂
##벫
##낵
##꼿
##옳
##젭
##슙
##냠
##뗘
##삑
##잰
##뚧
##켠
##쁙
##멤
##깻
##셕
##볓
##썸
##룀
##쥥
##챳
##껫
##귖
##궺
##긲
##깒
##깛
##긛
##쏜
##잌
##왉
##콸
##뀪
##넙
##삥
##귶
##뙓
##몌
##찾
##괼
##뿡
##쑴
##텼
##듟
##쑈
##삠
##륍
##짧
##얬
##쿡
##훨
##촷
##쏴
##푈
##웩
##뀠
##뿁
##챡
##뛸
##뺄
##웻
##땃
##맓
##싧
##댋
##삷
##핿
##줊
##셟
##섧
##갊
##핣
##닚
##닧
##퇘
##띔
##돘
##큿
##읶
##낳
##꽥
##쇽
##햏
##뜫
##귈
##쿱
##렜
##즛
##욷
##쟘
##틍
##븓
##줵
##헙
##컼
##뎂
##슶
##닶
##킄
##텡
##풱
##죤
##퓍
##닯
##긱
##놏
##쁌
##틊
##셱
##퐄
##샜
##삶
##즁
##씻
##뉠
##팻
##싴
##웟
##켸
##캌
##뜀
##뫌
##몆
##췻
##켐
##뭏
##쳌
##먐
##쨉
##욺
##픠
##뺙
##뺴
##넝
##꾜
##걔
##븀
##쩅
##쟝
##폕
##헛
##퐝
##뉩
##밐
##뜷
##뙗
##퀙
##돩
##놘
##홥
##룔
##쮜
##솎
##헼
##좸
##쬽
##늙
##뭍
##녤
##넡
##졔
##퀑
##쳑
##횔
##숱
##낟
##폘
##껸
##컄
##쳬
##짼
##뚥
##셣
##롓
##맏
##귬
##굛
##댦
##뷁
##쫀
##갷
##쩬
##웤
##횢
##훟
##좟
##앍
##랔
##칽
##뷴
##띙
##쵼
##웜
##쎔
##껙
##뇬
##곯
##픓
##짞
##믿
##앚
##젋
##껒
##쯧
##갰
##먳
##맻
##뮻
##뭋
##챞
##껌
##슢
##뿛
##꽇
##귓
##듶
##븃
##귡
##긮
##깑
##얅
##넉
##잍
##꼰
##꿋
##맙
##릏
##섦
##듸
##칰
##탵
##죵
##봑
##켬
##쁴
##즤
##둗
##둩
##텤
##죨
##잫
##슷
##탉
##닢
##왷
##뼛
##겴
##괜
##좁
##붹
##튕
##쌕
##쉏
##큥
##쓔
##쒜
##젏
##폵
##숧
##긁
##괸
##뎜
##뎋
##꽦
##뀩
##뎻
##뉸
##팸
##꺐
##켕
##굄
##쉡
##낻
##탹
##퉹
##쯰
##몃
##줴
##귯
##뻡
##뼤
##엏
##틔
##쌔
##탭
##갹
##겍
##뤩
##갗
##뎨
##냣
##븅
##섕
##뱔
##쟤
##놰
##홰
##쫭
##퇸
##믌
##췛
##튮
##벖
##좇
##묑
##뙇
##욹
##틋
##롑
##긶
##콣
##칡
##뿜
##쉑
##팃
##굵
##벜
##쒹
##휭
##픕
##앸
##찹
##햟
##닦
##섣
##맫
##캎
##큉
##뢱
##짘
##큭
##옺
##윔
##뻴
##흇
##볫
##훁
##룳
##맠
##딈
##앟
##읕
##띱
##벞
##뒹
##룝
##쭛
##핥
##졍
##뤯
##룱
##웆
##쁐
##뺵
##틷
##뷉
##쯪
##읷
##덗
##뇐
##풔
##풮
##윰
##헷
##햅
##쭓
##샅
##쁟
##뤕
##뵐
##읒
##췰
##궃
##뫞
##뿷
##땞
##밪
##뒗
##됵
##롊
##뵌
##뱐
##뜳
##낍
##쌋
##졷
##깤
##돫
##딺
##핚
##똟
##싟
##듁
##뵙
##멉
##씸
##얶
##삣
##쨈
##뾸
##퀠
##굳
##곲
##읪
##봡
##볜
##휙
##핤
##닜
##썝
##뿉
##핱
##겆
##쉈
##짒
##튄
##뉜
##꺵
##뀜
##챝
##쑊
##잋
##뒓
##휫
##쑁
##킅
##벲
##뻉
##헑
##귝
##깈
##뽈
##샻
##닑
##엎
##쑜
##묜
##쥩
##뀝
##휵
##얺
##츹
##땍
##쪨
##꽉
##꽐
##뇩
##떙
##쟛
##맄
##껚
##벋
##닼
##릯
##밉
##칞
##픨
##쬭
##롇
##콫
##뽜
##궂
##몔
##괂
##큾
##텂
##뎊
##넸
##괏
##뗔
##픗
##닾
##낯
##잽
##픖
##쵮
##빖
##젮
##붇
##꽤
##횬
##졧
##렞
##돡
##쥽
##꺆
##웈
##쎅
##뚞
##큅
##튿
##뤙
##붏
##꿇
##흓
##쐐
##옠
##큇
##빩
##뒬
##힡
##앝
##윿
##엓
##솀
##둅
##솩
##땩
##퓩
##댸
##굘
##싕
##딯
##푠
##냟
##큄
##쀠
##엮
##쾃
##귱
##셭
##놑
##룍
##숩
##췽
##뫀
##퉷
##젹
##툿
##죳
##랒
##샇
##엤
##랆
##엃
##헗
##뻗
##줆
##츔
##줛
##놗
##솫
##뗛
##몼
##돇
##돣
##뢐
##홳
##잓
##웫
##룫
##뺃
##뗣
##룟
##눼
##듕
##쇅
##뗀
##잤
##껠
##뺭
##떰
##횐
##췍
##벱
##얭
##뺘
##깰
##춥
##뺐
##겧
##텄
##꿎
##씃
##옾
##큪
##핔
##뛃
##괧
##켁
##갇
##읔
##읓
##굔
##릊
##첫
##쮹
##늕
##듫
##눟
##펍
##졈
##픅
##싰
##뼝
##뽝
##쵹
##룐
##빎
##툑
##횸
##뺚
##셒
##땨
##왇
##덞
##쭁
##뤌
##훕
##랰
##짰
##욋
##얫
##솬
##궭
##떳
##뽱
##덿
##꽹
##펼
##섴
##옿
##쏩
##훑
##냏
##꾱
##츩
##삮
##옅
##곖
##붸
##푝
##붝
##죌
##덯
##밬
##푷
##빋
##뒿
##휗
##잨
##촙
##뢔
##쯉
##볍
##흗
##힠
##쬔
##둴
##켑
##랕
##픤
##렡
##댬
##쥴
##땁
##넽
##핻
##띈
##흧
##픋
##벩
##펡
##킳
##햑
##줭
##곁
##챕
##껨
##횻
##죰
##햇
##쵤
##뎍
##뭅
##쎃
##툇
##퉱
##끍
##휽
##윕
##됸
##죔
##묺
##붛
##럇
##륑
##띾
##쨥
##핧
##퀵
##킈
##씤
##쫣
##똵
##뽧
##꽑
##뽭
##땝
##퇼
##졬
##픳
##뚯
##뀻
##튝
##썅
##긑
##폯
##쥿
##됭
##궬
##듧
##텬
##얖
##폔
##궶
##궫
##궻
##랤
##궢
##뿀
##톻
##켚
##퐳
##횞
##숎
##맇
##뚸
##쓩
##쮝
##봫
##젊
##엨
##얃
##핟
##툥
##흩
##쏼
##뫃
##뚷
##붖
##똠
##웝
##끊
##뤂
##샠
##뺌
##뇔
##듄
##윘
##눤
##붚
##숕
##뗠
##뤀
##앆
##풑
##졉
##쯸
##슆
##뒥
##퉜
##롁
##릣
##랼
##캭
##섈
##랃
##훳
##얐
##퓻
##둍
##셌
##쥭
##읜
##챵
##뾲
##랖
##샢
##씉
##헱
##롻
##꽊
##튺
##짙
##몯
##귪
##궸
##궼
##싄
##렫
##꺙
##뗑
##윻
##맆
##큽
##뿓
##싣
##컁
##흿
##끆
##쁶
##롫
##헯
##젧
##밣
##돚
##팼
##잏
##싁
##쳄
##얹
##앴
##쟙
##둉
##듥
##븟
##칣
##덦
##죗
##곻
##왠
##엫
##쎼
##썀
##휀
##탇
##뱨
##뤵
##웗
##꽯
##쭀
##둈
##뾘
##뿮
##뱦
##팂
##싫
##굣
##읖
##솁
##썄
##얍
##뭭
##뫟
##쬰
##낲
##췃
##쇳
##뿨
##싈
##뼥
##겕
##똬
##둙
##핲
##슁
##띡
##혯
##갉
##읫
##묶
##뇻
##뇾
##혬
##졋
##끨
##꾁
##궖
##궋
##흟
##쯩
##붱
##퀌
##괆
##붘
##츀
##뷇
##힁
##엊
##푴
##헔
##긕
##듹
##늏
##슽
##엾
##닳
##꺠
##걕
##뭘
##돜
##큣
##벧
##횦
##퀜
##컿
##췁
##퍗
##휩
##넠
##쏟
##뗐
##챨
##먗
##뵷
##탙
##뵥
##꺢
##촾
##쬷
##홅
##욿
##쌻
##풇
##팉
##땗
##찓
##녑
##엒
##쵁
##떅
##끎
##쉥
##줜
##푱
##륶
##랋
##힗
##곺
##쑼
##컭
##엗
##쉿
##뗶
##뗵
##댧
##댯
##륷
##돤
##끤
##냙
##긞
##긏
##귺
##줓
##뚮
##쐙
##뽟
##튐
##닊
##롣
##훜
##홑
##솅
##뀰
##횝
##쫒
##횅
##읃
##콦
##웸
##촛
##춸
##찷
##뒝
##쿶
##튭
##볈
##욣
##읠
##젔
##껰
##벐
##췬
##냬
##탰
##퇵
##뛣
##홣
##꾫
##몀
##곂
##큔
##흨
##삗
##훽
##먄
##샄
##륽
##룺
##얒
##믱
##쭊
##볽
##꼮
##꽌
##쬐
##찝
##삵
##믁
##쏨
##뷀
##넜
##홝
##좹
##콻
##냫
##쒕
##췅
##끜
##턻
##슉
##뮺
##찎
##몊
##쬴
##됼
##굑
##퍙
##떱
##쬘
##홱
##싐
##뛩
##퐐
##뽓
##곌
##캢
##욦
##훓
##랣
##캤
##풒
##쉠
##꿱
으로
에서
20
한다
지만
에게
201
는데
때문
19
까지
##00
된다
라고
라는
다고
면서
경우
10
사용
다는
공격
아니
이후
자신
##레이
사람
그리
정도
부터
으며
##스트
가능
다른
이나
12
200
보다
등장
는다
대한
11
아이
그리고
게임
하나
경기
..
위해
해서
다가
##er
사실
시간
그러
사이
시작
일본
이상
이름
모습
함께
##니다
##지만
상대
한국
문제
15
나오
거나
다시
어서
##in
하지만
프로
##스터
만들
생각
으면
또한
들어
따라
가지
가장
캐릭
당시
##대로
시즌
처럼
캐릭터
플레이
18
##on
능력
##이트
모두
상황
상태
모든
추가
결국
세계
선수
##an
16
##or
스킬
카드
##미지
현재
보여
다만
많이
보이
전투
효과
다음
30
그러나
그런
존재
지역
으나
##으며
13
미국
시리
14
그래
199
##라이
매우
##ar
##으나
라이
나온
17
대학
상당
레벨
기록
##he
시리즈
##인다
##at
스타
기술
대해
레이
다면
물론
무기
##리아
이용
시키
처음
이유
자체
해야
방송
그렇
100
이런
같이
아닌
필요
영화
실제
여러
해당
25
피해
마법
주인
통해
여기
일반
돌아
거의
##린다
역시
바로
##리스
리그
인지
학교
인데
사건
##이스
##en
이야
특히
관련
##거리
기본
2017
부분
##이지
위치
##진다
진행
##ou
아무
방어
2018
##부분
이야기
대표
떨어
국가
는지
없이
##지막
못하
제작
활동
인간
달리
에선
동안
작품
증가
대부분
아서
##al
마지막
본인
2019
일부
계속
자기
버리
##시아
21
서울
라면
내용
만큼
##es
해도
인해
주인공
2016
감독
##어나
보인다
참고
속도
관계
50
##전히
중국
대신
수준
이전
그냥
올라
비슷
어느
전쟁
지금
타이
우리
##한다
성공
22
기준
인물
습니다
도시
198
상당히
공격력
그녀
24
마다
도록
최대
기사
##민국
결과
지원
그대로
평가
시절
너무
므로
보스
제외
##it
자리
##토리
연구
##버지
의미
의해
나타
소속
이미
실제로
승리
직접
전체
새로
2015
영상
대한민국
23
유닛
원래
체력
여자
##부터
로서
언급
대로
개발
데미지
멤버
##ing
유저
알려
##st
##le
##학교
##ic
이동
마음
설정
40
정보
문서
다르
방법
선택
##다가
애니
##re
과거
이것
##운드
몬스터
으니
머리
들어가
이어
출연
성우
친구
포함
나가
차이
##랜드
##dd
위한
##이션
##라도
나온다
대상
설명
엄청
##가지
사회
바람
플레이어
장면
나왔
준다
우승
최고
여성
버전
사랑
비해
소리
프리
아버지
지나
##이드
동시
공식
유명
시대
당하
2014
만든
배우
발생
이루
영향
사망
주로
거리
대회
려고
프랑
##주의
남자
결정
조금
발매
26
주장
출신
아이템
##ff
나라
초반
000
이러
인터
학생
##어난
전부
버스
공개
사라
마이
역사
28
운영
서로
유지
파이
스토리
모드
##el
한다는
27
구성
대사
파괴
제대로
##am
했으나
정부
방식
그것
음악
강화
31
자주
중요
아직
후반
이때
또는
월드
the
과정
형태
최종
이렇
나이
정치
역할
독일
시스
최초
##벤트
노래
대전
이벤트
시켜
##om
강력
마리
모르
스테
정말
##른다
변경
회복
##머니
##이도
기존
어떤
##우스
그런데
드라
영국
보통
드래
비교
소환
라도
정신
마찬
마찬가지
##la
가진
조선
인기
당연
특성
부르
##is
성능
##프트
못했
확률
속성
마을
행동
2013
슈퍼
오히
노선
모양
오히려
##리어
아래
자유
아들
교육
197
발견
차량
바이
라인
29
수록
게다가
따르
32
부족
특수
프랑스
##et
이번
00
대학교
확인
그래서
성격
문화
유일
활약
차지
새로운
했으며
##ol
가까
2012
관리
장비
만나
##ion
버렸
영웅
모델
그래도
일단
입장
아예
찾아
생산
스트
시스템
이렇게
어려
제국
고등
다이
심지
##간다
시킨
심지어
먼저
경찰
반대
계획
주변
##레이드
넘어
운동
2010
어야
앨범
##디오
자동
거기
완전히
조건
드러
내려
우주
기간
사진
바뀌
힘들
##레스
난이도
부대
개인
적용
발동
기능
어떻
##ow
지구
건물
60
감소
위원
##nd
km
##20
축구
##통령
자세
##il
##ig
##므로
중심
한다고
##인트
##ed
실패
이제
메이
애니메
하이
세트
혹은
중앙
선거
라며
현대
35
으로서
회사
덕분
초기
전혀
얼굴
데이
작가
시기
표현
따라서
국내
원작
대통령
보내
패배
위해서
민주
처리
오브
순간
##너지
TV
동일
##버스
지속
프로그
드라마
반응
지방
합니다
도움
얼마
다니
더라도
인정
참여
기관
애니메이션
출시
##니아
명칭
##ac
판매
담당
데뷔
##as
##없이
##BS
정확
불리
요구
획득
196
##나마
##리카
굉장
스페
하루
생활
of
그렇게
시점
2011
작중
다양
발표
밖에
후보
설치
그룹
상승
진출
선발
아군
구조
기억
항목
Lv
영어
만화
가격
움직
단계
그림
##소드
특별
마스터
물리
실력
가져
##ve
그나마
드래곤
아마
에피
어도
01
조차
야구
다며
시장
The
가족
사고
범위
특징
경제
려는
시청
방향
##소리
연기
대체
패치
경험
계약
고려
수비
빠르
##ot
나와
밝혀
아르
확실
참가
국제
디자
에피소드
500
세대
발사
폭발
##로스
브라
묘사
싸우
로부터
##스크
주의
한테
프로그램
어린
고등학교
80
##비스
활용
2000
어떻게
라서
죽이
상위
결혼
어머니
무시
제한
비판
목적
더욱
준비
중간
각각
##ad
37
대해서
보호
##어지
러시아
45
아야
아주
버프
챔피
라운드
굉장히
이미지
패턴
국민
오리
어디
히로
위험
진짜
참조
세이
어렵
대미지
생명
조직
싸움
조사
단순
듯이
과학
여담
크리스
타입
세력
현실
파워
St
안타
시도
소모
제공
주요
구간
194
유리
불구
전문
지하
유럽
일으
연속
부산
세기
나머
혼자
못한
순위
논란
##러운
조합
한정
포인트
사실상
엄청난
기에
약간
으므로
나머지
동료
##id
70
나무
분위
성장
09
떨어지
버린다
##ay
무장
여전히
보였
디자인
분위기
당연히
취급
항공
출전
90
이해
올리
트리
학년
##스로
일정
지도
규모
등급
훨씬
FC
##ER
투수
소설
##나라
한편
예정
인구
운행
블랙
성적
##어났
강한
부상
자연
엔딩
기타
살아
삼성
계열
mm
02
해결
2009
03
사업
##ch
스테이지
센터
였으며
방면
연결
미션
300
기대
##이크
방영
최근
의견
였으나
연합
수정
##us
48
으면서
변화
도망
종류
자면
##ir
이탈
표기
잘못
전용
05
퀘스트
배치
195
추정
33
for
##려서
2008
발전
소녀
36
08
##난다
대화
거대
보여준
정상
직업
시켰
안정
07
##ur
도중
메인
죽음
엔진
충분
스스로
종료
나타나
##스타
작전
##티브
수상
챔피언
세상
이라
나중
오래
독립
일행
비행
쓰러
요소
오른
느낌
마저
당신
입니다
HP
보상
에너지
당했
만드
방어력
달성
수도
비롯
전설
##..
공연
##od
미사
무리
06
동물
배틀
##러스
##BC
부활
특정
장착
훈련
스피
절대
th
스카
졸업
철도
유니
버린
##im
##자기
기업
전기
다운
포켓
위기
지휘
행정
싱글
번역
번호
근접
##란드
더불
아이돌
제목
건설
04
관심
만약
##아들
미래
황제
내부
남성
반면
요리
올림
득점
##un
충격
점수
##ut
##다는
신경
SK
시험
전차
##리오
군사
돌아가
목소리
목표
강하
홈런
지지
소재
2007
전사
##운데
##데이트
업데이트
정체
you
공간
##지션
똑같
했었
가끔
무대
##어들
스파
시설
사이트
타격
로마
오늘
34
##인물
도로
일어나
배경
링크
지정
장소
각성
전작
누구
서비스
공중
항상
날아
##ro
최소
교체
다리
그만
전국
파티
분노
쓰이
##어진
##너스
생존
작곡
북한
등장인물
정식
예상
##수록
자랑
의원
부여
클래
생긴
작업
무엇
포켓몬
사냥
##디어
분류
종족
스포
으로써
한데
인도
악마
##ag
##igh
소개
야마
38
한다면
인사
스타일
아프
비밀
##ver
엘리
단체
얘기
케이
애초
인터뷰
괜찮
가수
필드
##ec
오르
결승
##동안
cm
판정
빠른
크리
이끌
기계
클리어
75
목록
연출
각종
외국
카이
하늘
이외
타카
명령
파일
가리
##ent
제일
2006
초등
아파
기체
병력
지상
카운
로봇
개념
55
전반
확정
기동
in
교통
불러
으려
정작
193
건담
레어
비용
별로
##ak
화력
##인지
장갑
올림픽
수행
군대
니까
가르
사항
표시
크기
##다고
이게
가운데
프레
따로
인식
시티
행위
사격
수치
경쟁
라이브
##해서
떠나
2020
##라인
사거리
to
##um
알아
인가
아카
가문
기반
변신
갑자기
저항
감정
',
이걸
나름
포지션
##젝트
이기
마치
진화
이탈리아
달려
완전
평균
왕국
아키
단점
집중
인천
보유
교수
나올
근처
통합
지키
당한
기회
병원
vs
직전
의하
던전
노력
임무
지난
냐고
빠져
의식
아도
코스
자원
전자
특이
국회
설립
탈출
##화국
언제
정의
오버
압도
##르트
##ST
바라
이닝
베이
월드컵
부모
단어
다크
부정
환경
##em
고양
현상
##ub
정리
사례
잠시
사정
##비아
판단
효율
시전
스러운
제품
지켜
이쪽
생기
극장
치명
일러
로드
본래
달라
가까운
기다
##말로
주제
무슨
촬영
아스
파트
더니
##000
삭제
상관
##르크
의외
##라스
주문
위원회
전력
동생
고속
이건
원인
주민
대구
여행
물건
제거
지배
강제
발언
소련
연습
치료
병사
##어로
포기
스코
스럽
골드
위력
요시
도전
2005
전개
끝나
이하
노트
저지
역대
책임
해군
중학교
기념
##요일
사무
올라가
도입
정책
시킬
봐도
점프
나이트
완성
복귀
실험
##ight
화면
이르
42
루트
고정
려면
공주
도쿄
살인
유사
레드
바꾸
의사
음식
41
##학생
페이
##트리
##야마
별명
바다
던지
받아들
차원
직후
선생
이적
히어로
불가
다수
사기
밝혔
중반
구하
39
티어
전략
히트
어둠
밴드
분명
마나
공동
도착
2004
##무리
무려
미니
##모토
접근
언어
녀석
가치
제도
EX
관한
LG
에게서
정당
으로부터
은데
오프
회피
추천
타임
조종
정규
사상
시민
대기
밀리
예전
##ce
확장
아파트
신체
고자
##루스
##그레이드
업그레이드
생겼
마사
구매
##AR
##드시
연장
롯데
리더
자료
랭크
이곳
반드시
폭탄
##os
투표
탈락
타이틀
인터넷
부탁
어요
장치
단지
##다니
##시마
학원
완벽
크로
라이트
미사일
종교
44
노리
우선
##ri
일러스트
소유
형식
해외
고대
##AN
구역
장점
사령
최강
데스
심각
산업
뛰어난
아내
##ula
Ch
금지
하드
##ON
##역시
도와
추측
다루
버그
실시
올려
No
자마
위키
마무리
##ap
43
느끼
99
대장
클럽
몇몇
그린
공포
가사
##져서
노동
##and
##이치
2002
연재
가드
구분
st
검사
달러
범죄
합류
점점
시킨다
서버
로스
조정
요청
보여준다
이사
행사
##이어
차례
##트라
form
레인
옵션
맞추
재료
보병
그야
##러리
조작
선정
선언
수많
마법사
다소
걸리
전통
교회
타자
걱정
프로젝트
kg
그리스
종종
개그
47
스포츠
46
데이터
51
191
좋아
컴퓨
개월
암살
부하
광고
형제
마르
formula
열차
빨리
성향
뉴스
대중
개최
평범
##나이
이라고
내리
자마자
KBS
포스
인한
##조건
그야말로
실점
한계
스페인
구단
재미
채널
대결
##아내
설계
코드
##ter
거부
통신
언론
아무리
워낙
생물
다행
비중
보조
복수
종합
알려져
행성
컴퓨터
민족
기지
디스
and
전화
높이
한글
무한
투입
개봉
해석
무조건
본격
영혼
에이
냐는
그걸
운용
어려운
모자
굳이
##ul
MA
평소
정확히
실수
회장
원정
광주
##IN
걸로
지적
모아
소년
##타임
연주
지명
와중
##무라
인상
1000
위협
미드
박사
2003
회의
상징
충분히
##op
등록
는가
사태
집단
대형
가정
대응
카메
그럼
대비
보너스
터미
넘어가
아웃
자동차
소비
##ck
전원
보컬
체제
공사
페르
시청자
%,
##뜨리
##로드
태양
특유
희생
150
비하
조각
플래
가면
개조
모른다
맞춰
65
##FA
군단
##자리
##ation
무사
편성
열린
봉인
해졌
거두
된다는
##리트
여름
MBC
마력
##니스
SP
##드리
일종
기자
##로그
##ra
아라
192
육군
앞서
간단
발음
네이
장군
공항
들어오
스크
생성
통과
얼마나
##일러
##의원
시나
분리
움직이
방문
64
오리지
II
##다면
장르
동맹
장기
오랜
바르
함정
반복
고양이
서술
##튜브
소식
의도
전환
사쿠
펼치
빼앗
분야
디지
로써
근데
52
불과
유튜브
세요
가깝
바닥
영입
안전
경기도
브레이
괴물
저격
마크
##텐츠
제안
거쳐
흡수
점령
You
힘든
##시스
의지
는다는
엄청나
못한다
예선
초대
필살
미리
최후
##니티
전해
400
개선
그때
공략
유도
##남도
화염
와서
빠지
숫자
독자
사라지
전술
##art
데려
코치
그저
방해
주력
액션
확보
외모
인원
매일
평화
##낸다
비트
드립
진입
터미널
이론
##런스
##니까
규정
관통
VS
클래스
피하
라디오
에스
오토
장난
뭔가
수사
49
##오스
이치
투자
승부
컨셉
눈물
체육
목숨
형성
적극
느냐
방패
AP
56
가스
패러
상자
음반
진다
끝내
모험
사과
아름
서브
리어
왼쪽
적절
인류
한국어
계기
보도
모리
살아남
2001
함대
구축
##동생
거짓
의심
간다
약점
그려
##여서
예술
공화국
역전
##스케
인형
기원
53
오리지널
54
비디오
##페이지
작성
완료
더블
##모리
당해
...
##온다
공부
은퇴
수리
코어
솔로
회전
스위
##라이더
지닌
단순히
대단
질문
In
PC
편집
황금
부른다
마침
뮤직
##래프트
알렉
##로우
시내
안드
##시브
홈페이지
착용
필수
트랙
누군
상대방
날려
꾸준
85
보수
해제
민주당
미스
선보
카페
이어지
을지
나쁘
엄마
아프리카
드라이
경상
##ia
사단
습격
장관
1990
현장
날개
사장
코스트
비난
포르
희망
돌려
원거리
##ill
오스
의한
수원
##ie
재판
분석
하위
##으니
##레이션
명중
아시아
지니
진정
무력
코믹
선물
##RA
성인
수호
ST
모티브
##힌다
##IA
비고
에이스
청소
확실히
심하
블루
행복
경계
저주
감안
카즈
중단
태도
가슴
190
##ik
임명
남편
공원
기획
지식
관광
##나다
표정
허용
승강
스마
쿨타임
장애
수단
오른쪽
탑재
아쉬
바탕
본선
딱히
인민
제시
소프트
상처
주도
##무원
당장
59
##연히
##북도
의문
영역
유래
기점
유우
테마
소울
테크
고통
리스
마시
보급
##ab
직원
불명
돌파
기어
일어난
베이스
위주
멀티
작용
나누
주목
제압
대답
120
58
나카
그라
잠깐
##워드
##마스
주연
카운터
여부
고유
제기
순서
미치
##워서
측면
베르
체계
도서
##est
게이
57
업무
박스
진영
부인
우수
##th
MP
멀리
문명
이스
카메라
패스
횟수
후속
멸망
통일
온라인
##all
버튼
공장
어찌
##트롤
텔레
시나리오
지내
지점
거주
케이스
귀족
놀라
##ea
66
알리
95
코너
문자
당선
에어
겨우
협력
차별
특기
계산
소수
지옥
약속
듀얼
삼국
최악
마츠
눈치
크로스
뉴욕
Sh
연계
대하
딜러
시체
은행
##머리
Lo
##ct
스펙
살해
느껴
ddd
on
바꿔
개편
을까
오후
유키
1999
스케
Re
붕괴
배신
게시
대놓
자격
혁명
어울
떨어져
버려
매치
군주
부담
110
처치
##ddd
생겨
dddddd
Sp
컨트롤
게이지
1998
벌이
##AL
해금
##스티
나아
그레이
겨울
국회의원
다름
견제
증거
에겐
레이저
스탠
미친
외부
최대한
군인
구해
장전
된다고
교사
필살기
제조
##AT
62
출발
진실
자살
핵심
##바이
##PS
정권
##피아
대원
후지
따른
여왕
전장
궁극
##라리
누군가
미군
##OR
중화
연방
용병
가졌
마왕
##니어
스프
로켓
아침
##래도
댄스
가로
##VE
거절
제로
충전
미나
누가
한화
타이밍
출생
자이
누르
유용
공산
돌아오
SS
알려진
일본어
기분
SBS
##어져
이성
##터리
커뮤
조준
만족
충돌
바뀐
날리
고급
브랜드
##어도
도구
단위
취소
는다고
트레
애매
교환
스피드
부진
거래
##ate
스킨
##로이드
터지
##사카
수학
흔히
##ess
피해자
뛰어
극장판
토스
Th
카르
##ell
61
반란
제주
##광역시
##나가
발휘
세계관
얼음
##ard
무게
끝난
76
오스트
해진
우려
장수
파악
후반부
자고
하트
건너
##ang
끼리
단독
통하
아무래도
모션
레전
홍콩
인생
패시브
공통
##IC
##하라
근무
판타
미야
##ue
신화
비록
격투
아머
한자
빌리
헤드
##ant
##ack
순수
##ers
피아
Al
NP
웨이
77
커버
구입
##아리
정령
##다운
파이터
브리
##ine
88
공군
1997
##다수
운전
72
등등
혼란
계급
자식
가입
그게
줄어들
수입
아메
스코어
닥터
##심히
트레이
회수
떨어진
권력
경력
본부
채용
지시
공작
근거
마이크
데리
속하
##피스
탄생
쉬운
생일
밸런스
해방
비율
##친다
향해
기절
건강
지하철
언니
용도
테러
꾸준히
늘어나
##가락
기다리
병기
엑스
표준
갤러리
좋아하
BG
타워
로운
실질
돌격
##메달
지대
##ok
##OS
납치
증명
협회
반영
홍보
지급
프라
남부
인지라
대공
강조
아사
입학
be
플라
오오
약한
나쁜
파라
트위
불안
업체
여겨
랜덤
373
FI
유형
그럴
외교
요원
##디션
경영
왕자
or
들어갔
##유키
밀려
아나
감염
대륙
경향
##세이
98
fff
위하
온갖
훌륭
광역
감사
CD
gt
고서
연대
마녀
실행
장식
문학
##ive
패러디
##웨이
쓴다
기독
트라
못해
페이스
메탈
물질
600
##오리
어쩔
입단
재생
가까이
태어났
##크래프트
울트라
스페셜
화살
추진
주년
어차
집안
고민
내내
설득
대다수
계승
1996
서포
조지
건지
정해
승강장
살짝
사카
선배
##트로
드리
어차피
부문
폐지
##ast
이슬
캐나다
##고기
무서
숨겨
올랐
PS
##AS
영원
정지
대놓고
봐야
신문
베트
1995
보물
적당
신뢰
이래
사전
##바로
브라질
연예
##어리
작사
즉시
기기
##uby
",
##어졌
전선
당황
##ED
미소
##긴다
따지
불렀
당한다
함선
##tt
##즈키
##이터
68
뒤집
페이지
##ee
폭풍
등판
은근
lt
오픈
800
소문
탑승
버티
명예
어째
열심히
스파이
상품
화장
입수
레전드
오프닝
갑옷
별도
경유
러브
심리
시행
##거나
경기장
이거
단일
파리
63
라스
둘러
의회
1980
변호
통제
마련
##카와
올렸
댓글
반격
##ong
##AM
ruby
스티
때려
운명
가면라이더
변하
오류
정류
##시오
응원
갖추
일으키
모으
레오
후쿠
한때
커뮤니티
신청
쓰레
트위터
격파
라이벌
사령관
##ort
김성
주전
고전
기독교
출판
습득
이승
##웨어
중계
돌리
공기
편의
##ith
수업
하수
심장
아리
##리티
불만
끌어
신고
오해
마인
마주
두산
울산
##아먹
##다지
71
##if
74
흔들
관객
전함
외국인
카나
정말로
랜드
보정
##나무
주위
##ly
크루
##fff
건축
출장
##아버지
....
스트라이
용어
MV
##ld
흘러
공유
그곳
전달
고기
73
여론
67
아트
메이저
ffffff
민간
사운드
우스
절반
짜리
조치
##티컬
내놓
지형
물러
남기
갈등
여신
##도우
붙잡
임시
무적
자치
드러나
##학자
재능
가득
아오
전공
압박
NC
카라
##ain
리버
열리
별개
지나가
엔터
붙여
초월
##ist
96
##쳐서
종점
연구소
오로
네이버
요새
스튜
1994
##ind
##오르
움직임
나서
북쪽
강해
전형
추적
메가
TH
그다지
메타
시각
전하
##타인
180
컨텐츠
남쪽
벗어나
디아
늑대
보장
약하
이란
테이
쓰인다
AC
돌진
소멸
##서트
판타지
시야
81
AT
##가와
난다
결승전
전시
클라
타점
든지
꺼내
다행히
파이어
일부러
잖아
걸려
##per
불꽃
서부
그만큼
동네
화이트
환자
##듀서
프로듀서
##ps
뿌리
강원
동기
가이
##지컬
##EN
만난
여동생
문제점
화려
##드라
##츠키
그림자
선호
왕조
동원
폭력
상향
파이널
회원
대만
본명
치명타
유로
북부
유비
신세
##EC
소드
밝히
자는
됩니다
신라
78
그런지
##식간
91
##OL
빨간
##스탄
수요
여서
순식간
연상
무난
##ew
도서관
테스트
향상
메시
전역
매력
클로
학과
##에도
아시
차트
전적
떠올
##더스
아가
변형
통한
아무런
스토
아일
최상
전방
저런
부품
##로운
뛰어나
84
CP
체포
영토
일상
수집
크리티컬
암흑
전투력
시드
게이트
##사키
코믹스
되돌
키스
영업
##LC
마술
me
인수
토모
##ry
수용
이마
조절
파견
어쨌
드디어
할지
폭격
복잡
학살
복장
유전
아우
##어스
82
대우
떡밥
##lo
벌어지
입력
그래픽
구현
밝혀졌
편지
개통
생명력
사라졌
발매되
몰아
호환
오빠
현지
97
니시
추락
신인
사자
천사
도달
따위
고향
동부
닌자
사토
##덜란드
네덜란드
청년
86
창작
경비
통해서
점차
반지
작동
맞이
콜라
콘서트
연관
프레임
교황
제이
엘프
보단
한국인
쓰레기
수송
출현
노예
##운다
스톤
기초
##레나
##거운
사쿠라
푸른
종이
모바
추격
해설
아닐
it
세워
해체
69
해진다
##퍼스
다시피
##어버
몰래
구도
조용
스러
충청
의상
##노스
심판
플레
간격
진지
공급
녹음
아티
들어간
is
주먹
##히로
식물
아무것
토리
막장
시위
조성
NPC
보냈
무너
프리미
##디아
전투기
##오프
##IT
제자
조조
잉글
연사
인하
두려
##둥이
수술
무효
스마트
연애
검색
슬롯
##와서
옮겨
실드
##시코
마스
감시
##타로
레스
버릴
스카이
US
나갔
일제
블록
꼬리
당할
일어났
법원
##스트라
동쪽
##특별
마리오
나루
경험치
구체
MS
고교
옛날
##오카
An
통상
때리
총기
김정
##티나
범인
탱크
구속
베트남
라이더
##모로
##버트
세우
##ust
신규
신분
대립
장교
성과
지나치
은하
연락
국립
예외
쿠키
##주시
##다른
250
어깨
KT
강의
인근
입구
지도자
신성
다섯
차단
규칙
##50
글자
먹이
되찾
불편
대대
메카
이랑
헤이
마도
평타
프린
요정
언제나
창조
박살
코인
안습
바보
총선
유희
모바일
만났
동작
토론
##도로
후기
전라
##비전
##일리
여러모로
환상
마리아
아크
에드
189
거짓말
노출
기여
의료
##파이어
##브리
권총
세월
소총
리아
이리
이득
농구
어택
##자키
일원
다이아
빠진
자이언
무료
##워하
신호
블레이드
202
서쪽
##영상
이날
1992
부위
출처
음성
정복
개혁
들어간다
미술
##스턴
폭주
극단
잠수
고생
92
헌터
##BO
##ore
##저히
간부
죽여
##톨릭
드러내
Ar
참전
반발
전직
이뤄
교전
편하
고용
투어
대체로
양산
일자
밀어
길이
보석
고문
폴란드
대량
키리
연도
키우
상점
83
글로
라이프
제법
호평
상상
제어
사마
동영상
수영
정류장
걸쳐
승격
전대
Te
##보드
출력
자라
누리
사양
합격
89
기습
없애
##FF
101
터치
93
1993
공학
잉글랜드
지휘관
북미
De
MAX
제작진
기병
득표
윌리
나뉘
중대
94
요괴
돌아온
마루
합성
미디어
머신
환승
인증
드물
날아가
법률
##어진다
com
치가
79
상하
보낸
적어도
파란
가시
##일드
탄약
조심
가량
박근
런던
회차
구출
널리
요즘
탱커
##FC
파일럿
의혹
원소
re
매니
리얼
활성
사이드
동방
귀여
떨어진다
유령
포탑
하수인
낸다
알파
노멀
삼진
히데
침공
87
마이클
디지털
분기
하고
이재
개정
서양
부수
가톨릭
즐기
묘지
인공
의무
어쩌
##우드
볼넷
이슬람
똑같이
네임
가속
다면서
결성
##one
예비
축제
대략
On
블러
가게
학자
패널
경고
레인저
계정
괴롭
보고
##se
올라오
타케
이자
##ip
헌법
소화
전면
이내
아일랜드
##AC
이루어지
취하
AI
부부
스키
DJ
특화
##RE
줘야
익숙
써서
용사
상호
##미야
달린
미츠
심한
갤럭
던져
##ere
캐스
##먼트
이시
스웨
그럼에도
##임스
문장
바이러스
메모리
슈트
걸어
워치
들이
근육
대항
커맨
불법
##PG
리메
BGM
MC
부리
나와서
불린다
플레이오프
핸드
베스트
플로
SN
자매
유행
한방
개체
어지
##준다
파크
##ity
도발
##ath
김영
##창기
보안
쿠로
일시
육성
예측
어린이
냐며
예고
트로
느리
소닉
넘기
이즈
자금
갤럭시
##라이언
총리
루시
##어날
살려
보일
검찰
취임
멕시코
FIFA
터키
무언
마냥
정면
결론
신기
사제
길드
##end
국방
어떠
리스트
##조리
형사
스톰
고백
1991
넘겨
루타
구멍
캐리
식사
마구
레이스
리치
세이브
호텔
곧바로
상업
감옥
이명
태어난
!!
##펙트
저장
절망
여유
제임스
개방
부서
진심
##워크
투구
그랬
사이즈
구원
유대
노르
볼트
초창기
플랫
세르
THE
700
타마
대가
FA
피부
너무나
와이
배차
##요시
박정
##고리
청소년
오랫
팀원
웬만
흥행
으니까
강철
일지
번개
카타
고르
몰려
착각
좌우
##특별시
된다면
전철
커플
합쳐
##릭스
여지
1988
##구리
바위
파트너
발달
##레이터
세포
리메이크
MVP
펼쳐
소형
##로나
처벌
그동안
서울특별시
다스
현역
레이드
아기
신설
긍정
주식
융합
##데스
##네스
주간
원자
##지마
외계
아쉽
분량
아빠
차라리
아름다운
프라이
정착
Ro
위장
미카
##OT
인정받
돼지
반사
챕터
카스
합의
사신
##디언
식민
랭킹
찾아가
지냈
내성
##성기
목격
인연
누적
입히
협박
통치
전문가
드림
내장
장악
단장
게스트
의뢰
화학
빌드
떨어졌
CC
방지
에서부터
포스트
클리
도망치
야스
에다
브레이크
무언가
잡지
박근혜
##레인
Wh
해병
영향력
공지
스미
논리
방출
안드로이드
동의
태그
어울리
국왕
사우
방사
는다면
AK
시즈
대지
타이거
도우
조약
포트
한지
각자
내주
요코
배트
한번
관할
저녁
지능
##ect
돌아왔
DLC
살리
골든
국군
하필
htt
라면서
대폭
Se
1970
의존
##스키
최소한
양쪽
고지
손가락
토르
Le
악역
마침내
루이
호주
스턴
동화
홀로
연맹
과목
변호사
실버
공무원
유치
걸린
'.
후속작
막차
붙이
모여
기구
으론
수련
본작
무역
수수
He
면역
소지
보관
소원
오랫동안
무덤
PD
##age
어쨌든
올린
오사카
웹툰
주말
역임
##IS
귀신
오카
나간
육체
연인
##바라
크라
기원전
al
혐의
스튜디오
해리
내구
명중률
확대
재산
카오스
접촉
호감
대리
기도
불교
적대
다룬
##티아
네트
kt
남겨
##잡이
노부
대처
##다리
명성
써먹
강남
스틸
태평
계단
나타내
전후
Go
비행기
올해
연료
예능
정비
Me
출마
가볍
테일
간혹
슈팅
끌려
##페인
오늘날
합체
트레이드
싸울
피스
로즈
권한
모모
##크스
정치인
부장
컬러
마키
흐름
정원
퀄리티
개성
맞서
소장
블리
리드
시마
체인
받아들이
안내
그로
학부
이지
오전
게시판
소스
GT
준수
휴대
접속
##다이
저그
수익
권리
##베르
1989
##라드
KIA
특집
더라
연극
하우스
##og
외형
금융
##ake
##ide
필리
박물
하얀
코미
선전
화제
김태
새벽
윌리엄
상당수
허리
##OM
다를
Be
피격
이집
My
초간
이집트
WW
무렵
공공
그대
주기
환영
편곡
페이즈
일기
130
최다
금속
포르투
나치
고구
AR
둘째
메르
원칙
##ss
이루어진
카미
결합
SC
##ark
지우
##ime
연타
##ire
알렉산
누나
SM
편입
으려고
식당
어릴
할아버지
시계
##구치
유물
개입
문재
캠퍼스
한동안
인조
어른
매직
어두
##세스
향하
지진
바라보
거인
188
전신
##밀리
그건
소중
아니면
극복
wh
116
블로그
전진
시선
까다
성립
영문
my
Su
##ES
정찰
은근히
정글
헤비
회상
아바
기사단
##프레
사도
SD
협상
캐스팅
메뉴
궤도
스웨덴
##ID
빨라
깨닫
시내버스
팬덤
##으면
Tr
음원
튀어나
는지라
대개
##닉스
작곡가
손해
##ite
주사
태어나
##던가
대충
독특
재단
수십
동굴
비해서
우위
더더
##아지
복무
##아시아
우라
고수
아닌가
안티
이길
민주주의
용기
식량
##부르크
트럭
160
교차
종목
세이버
이익
해안
##회사
미라
처형
##ound
조언
못할
일찍
멀쩡
트랜
SR
아이스
클래식
과제
리듬
이끄
위상
내려가
##iv
원본
더더욱
HD
져서
''
펀치
커맨드
신비
줄어
커스
##리그
김민
타인
박물관
잡혀
오가
트윈
돌아다니
빛나
##가미
애플
##iz
##OP
삼국지
훗날
##ge
들어갈
증언
해적
갈수록
멘탈
날짜
허나
절대로
천재
적군
IC
자국
일격
갈라
마비
내세
신앙
위원장
나갈
구사
신부
##큐어
##OW
나타난
별다른
노인
나눠
각본
재미있
무릎
코우
중독
나타난다
느라
기적
재정
죄다
세종
주포
바리
집행
양성
스승
철학
하락
외치
참석
놀이
구나
지위
멈추
몰랐
마이너
캠페인
과연
비례
유이
죽일
정수
개시
예산
결코
국적
적응
패션
교류
관중
호위
작화
크리스마스
한참
탄창
나간다
알려졌
매체
이브
이중
##LL
열쇠
##덩이
죽인
안경
히메
시아
상한
##ome
하야
활발
일으킨
노란
경기력
Gr
##가리
나아가
로그
선출
투명
십자
##테르
해상
흐르
with
바퀴
우연히
김종
루수
체크
##BA
희귀
명단
녹색
충성
##UN
화성
클레
##마디
진보
미안
스타크래프트
남겼
드레
이영
원주
칭찬
개수
사막
개막
첫차
주일
결말
##아웃
IS
위대
행적
적혀
##미니
갖춘
전성기
##몬드
기아
들어온
제정
당일
모래
인지도
흔적
칼리
1987
상급
기종
챌린
후방
업적
오스트리아
de
미터
강점
BE
px
임대
상성
다닌
140
어려움
농담
가져가
어지간
김동
웃음
포로
호수
계통
사유
보라
##MA
Pr
버스터
재현
대학원
취미
면적
줄이
심해
무작
매년
##ord
스프링
Love
비상
오직
체육관
클릭
토끼
거치
심사
##ud
일반인
포항
고스트
개량
앞두
##가스
##치기
사후
신장
거점
프리큐어
생존자
유적
이정
남북
강도
자책
과장
니코
ch
본체
모조리
##양함
자본
갈리
어마
으라
괴수
자극
대수
덧붙
세웠
예수
이주
시달
가을
##mp
부지
파츠
##사자
화물
##데미
##10
부작
맥스
여야
저작
전멸
##ame
기용
텐데
소위
비싸
UE
선고
##ance
아메리카
##리나
캡틴
##다란
연금
추구
가해
아쉬운
아티스트
SKT
##ax
##카드
인격
자세히
an
가짜
출입
판매량
휘두
JR
공세
채워
##ure
아카데미
유나이
유니폼
새끼
##ix
어스
흥미
900
일치
눌러
차기
GS
승점
채택
포격
##코드
공룡
일방
##이즈
단편
유나이티
취향
무지
##ick
소송
올라왔
##mer
스마트폰
도주
포드
집어
탈퇴
카트
코코
일본인
##ice
막대
사형
으러
연패
기량
색깔
타율
억지
피아노
스트리
들리
바깥
로고
몽골
귀찮
##our
로우
제작자
한마디
Bo
유통
건조
노벨
그레
코리아
상실
아즈
메리
이루어져
타선
화장실
드라이브
할머니
구경
후계
치유
마린
라이온
측정
EP
영구
식민지
지켜보
비주
무라
더러
요금
##시로
아미
자전
보존
1986
거듭
본다
채우
##공화국
선택지
어드
쌍둥이
내보
잠재
사라진
1960
아이콘
가요
##이너
OST
내렸
상인
##든가
나타났
무방
##비드
커피
강요
##랭크
레이더
메시지
##코토
인민공화국
KO
##{{
들려
Un
간신
이른
언스
이민
##고속
이슈
통산
어째서
동력
가상
고도
##러지
Ex
##랑이
포수
신사
원수
넥센
도끼
조연
색상
피터
데드
캐논
##AD
명확
오타
벌어진
몰락
연승
##qu
주택
화재
사원
여객
##멘트
루카
교장
네트워크
주소
타락
곡명
귀환
##oc
가루
냄새
브루
{{{
외전
초보
내지
몰라도
콜라보
##반도
유희왕
제갈
실망
판결
##80
소라
##시스트
칭호
떠났
모토
기울
GB
대선
경로
레알
수장
##카리
UEFA
항공기
메달
이터
스페이스
찌르
광역시
가하
남녀
위반
깔끔
매니저
잡히
비싼
거미
포르투갈
DS
고구려
타수
연합군
186
##own
sh
##ys
머물
아케
오라
약해
반동
아마도
라인업
순환
CPU
##노우
혐오
아요
##나카
교실
영주
##가시
##럼프
베네
법인
항복
백성
부른
챙겨
##라이트
글러
관찰
복지
쫓아
타운
잠수함
미스터
##ber
풀리
모를
단단
비서
주역
##라노
들여
숨겨진
주자
적합
캠프
스터
배터리
매장
수류
We
관람
익스
AM
예시
유효
강원도
불타
커리어
드래프트
줘서
싱크
##저스
히어로즈
이겨
105
공성
카츠
공업
##av
아쿠
##OC
흑인
인치
하단
유학
벌레
트라이
이스라
승객
##old
예언
용량
김재
##정부
동성
등지
.."
고작
본사
##로디
##시타
치킨
남긴
상단
승률
##일보
싸워
국경
추억
소프트웨어
CF
면모
천만
마약
포위
나선
휴식
서구
티켓
원하
온다
관측
LI
철수
수출
일대
성남
그러니까
##orld
##리스트
도적
곤란
중립
자폭
카운트
생략
스텔
구글
흘리
개국
표지
적당히
너희
느린
수류탄
터널
상술
변환
음모
조별
클랜
마드리
기생
정하
좌석
허가
합병
다름없
봐서
추종
형상
##위대
소대
시그
사이버
실전
언젠
오크
히나
바꾼
정기
후술
아랍
였을
김대
문구
어려워
내전
마드리드
통계
1984
디스크
보험
인종
차이점
밝혀진
마디
만날
##ont
1985
글로벌
최신
근본
물려
복구
느낀
지경
입지
언더
액티브
사명
연예인
187
서포터
증오
SH
지뢰
후손
이스라엘
스트라이크
아시안
후배
용서
##데이
에르
구석
담배
3000
사정거리
위성
일족
시너지
타로
대인
크리스탈
오마
AD
##ies
허락
커다란
LC
기숙
고위
DF
급격
지르
##보이
그랜드
자막
즉위
리타
숙련
##머스
올라온
함수
논의
느낄
부각
전주
하차
구슬
텔레비전
공방
lo
KBO
행보
어뢰
몰라
미묘
경주
##팩트
토벌
시노
##하면
쓸모
감각
모니
발행
해피
새롭
아츠
말리
모노
네요
이젠
언덕
서식
It
왕위
망치
마그
##lay
연령
특전
XX
##슬러
어리
준우
넘치
살펴
금메달
중첩
이어서
에리
태평양
부딪
취약
가만
뜬금
후원
오랜만
제약
쿼터
블러드
루나
까진
노동자
무척
침략
저렴
정화
간신히
세운
##자드
총알
기관총
##OD
침입
세븐
노스
MF
드롭
간접
일본군
생년
##US
아르헨
방어구
##블린
제트
워커
흡혈
분쟁
법정
입대
##어마
헬기
든다
파르
학습
혹시
균형
드럼
맛있
가동
아테
전이
CV
진압
강자
카카
산하
##프리
모이
WWE
남아
.....
##PM
아르헨티나
빠졌
##ann
잡아먹
곳곳
찬스
공용
텍스트
소방
평생
여우
분열
스리
NE
헤어
아이언
SE
어마어마
주차
비스
자이언츠
관점
##40
인디
중세
네오
신전
약화
악당
금방
정차
치르
고개
125
##pe
플라이
이토
거울
##30
트랜스
애정
부적
페널
결심
이수
속한다
경상북도
지리
나리
딜링
저질
반전
제작사
나폴
격추
제출
상기
##네임
성당
앨리스
##sh
연고
구리
보호막
your
니콜
이혼
따라가
양자
크림
스팀
##란다
통화
라기
토너
표면
호흡
##NA
폐쇄
##배우
사령부
금액
아저
##마크
결전
큐브
구축함
엘리트
가라
미즈
간주
코르
히토
악화
저택
보완
뮤지컬
창원
구름
이식
리온
세인트
얻어
인권
아저씨
도망가
충실
##VD
채팅
스크린
CJ
김현
선거구
분해
AS
용인
상관없
피할
늘어난
더군
참모
전파
초록
열매
주둔
지불
가리키
DE
사라진다
인용
하루카
유력
부자
##은행
암시
##키아
대왕
천안
##ng
##io
낚시
긴장
정예
도라
교과
지라
##천시
##베이
멋진
토니
프란
동양
유발
문재인
돼서
서서
보건
존재감
성별
공정
경남
체결
우에
시인
배포
학력
상세
소유자
수석
기뻐
후계자
;&
사인
악기
답변
비아
신지
드라이버
짜증
상영
##oo
토너먼트
블라
원리
재밌
수호자
도둑
전승
엑스트라
바이오
악명
행운
##라기
로버트
우르
개설
써야
호기
170
언젠가
숨기
이듬
도박
Pro
무서운
쓰였
구미
본관
업로드
잔뜩
미쿠
일으켜
기인
이겼
선두
은신
에요
기숙사
기운
##싱턴
##월일
죽였
##ave
뱀파이어
만남
가벼
양식
실종
교도
중량
에다가
지팡
루비
##포트
릴리
요인
백인
##걸이
받아들여
보인
테라
벌어졌
로리
탐험
정황
##LE
불사
부임
임신
난입
중력
아동
처분
대책
임금
동점
LV
관리자
캐스터
디지몬
미키
심심
##번트
방송국
that
논문
야생
칼날
UP
항의
관계자
헨리
미네
생년월일
해명
백작
##나미
시카
유독
탄환
##센트
분명히
베타
호칭
##우마
복합
도루
서번트
카와
말투
윈도우
##ION
베리
동명
##슬링
생명체
문단
진주
생긴다
들어서
발렌
자녀
##ream
와일드
할인
법칙
수백
가방
다이아몬드
려던
콜로
ED
1500
어딘
단축
절차
정통
잃어버
EN
루이스
해골
분신
외계인
달하
무관
마신
영광
기상
따온
운동장
데몬
하향
이드
온도
시합
선보였
라틴
보드
이듬해
귀여운
브레
주술
분대
프로필
인력
리뷰
##ond
창고
1982
치즈
->
딜레이
부스터
기름
이온
니스
왠지
어라
들어왔
리오
끔찍
광장
로얄
플래시
##게임
##iss
Com
5000
사살
의학
기둥
크레
창설
뛰어넘
전동
건국
성질
울프
전북
조리
마블
한쪽
유인
막내
공허
엔젤
체험
싸웠
레딧
장인
부드
나마
##에르
잘라
퇴장
그렇지만
물고기
부사
유격
존경
민첩
집착
커녕
우정
##운서
삽입
디젤
아나운서
망가
걸맞
웨스트
걸린다
상식
참가자
아키라
승자
1950
공산당
##플레이
##IP
##11
가려
매달
창단
요약
휘말
부를
##카이
가르쳐
시상
감지
시원
작년
진학
모터
시공
그램
증상
전제
독재
아인
수면
1983
하츠
##아나
의장
불펜
##60
##다나
학기
샌드
출구
복제
##ian
??
by
##소녀
아틀
의해서
놓치
오디션
he
싫어
나츠
시라
유산
천하
##커스
비전
철저
선제
덩치
발굴
가공
모자라
BL
하이퍼
불렸
단원
깨달
스위스
투스
유전자
다녔
스폰
##도르
&#
반박
어두운
##유럽
go
그럭
레지
트럼프
일으켰
여주
항구
구할
타석
리스크
코트
어렸
미만
##세대
돌입
##저럭
안녕
갑작
중형
스쿨
콘텐츠
겹치
스위치
동인
##티스
다카
비주얼
그럭저럭
사법
주니어
##쟁이
노바
##Hz
통로
준우승
배정
걸렸
##TV
수명
백제
마스크
사용자
대거
어필
알아보
출격
기재
휘하
상륙
라이플
논쟁
웨이브
쓰여
정교
열렸
이펙트
본진
단행
자전거
##투스
다녀
가죽
배트맨
보충
살아가
토마
##베스
##ory
신도
트리플
훈장
##우리
##필드
호소
##TE
시리아
식품
회담
스트레스
격차
국장
축복
인질
##ace
##rom
떠올리
케인
코미디
시트
##크라
Co
##세서
실책
##틀러
스펠
근대
완결
위안
Bl
옹호
학문
파편
##카이도
태국
평양
##누스
공화
카를
지사
유기
마우스
;&#
경전
공립
라니
갈아
루스
워싱턴
두들
팬텀
이글
부근
마케
적중
DVD
올릴
##필더
승인
쓰러뜨
미드필더
Br
원문
오키
토지
침묵
반해
돌아와
소음
빌려
메이드
디즈
시켜서
슬로
##부로
기갑
기동성
경직
소요
플래그
부실
와타
Or
##게이
중국어
세부
노려
빅토
##oth
쓰러뜨리
근거리
트롤
께서
조기
축하
해요
배출
##ows
내각
막판
결투
경상남도
무너지
보이스
복선
##산시
시신
오염
솔직
파동
방위
##MP
연습생
마감
남매
동계
리카
수능
내일
삼각
간단히
차체
과학자
후퇴
동급
테츠
기후
고객
임기
날카
##TS
옮기
철거
센스
휘두르
넘버
우세
##키지
슬라이
헝가리
##먼스
무작위
수급
왜곡
상담
학위
손상
##화점
##신교
##든지
국정
밝힌
한반도
괜히
##무시
지향
규격
무인
##IG
영지
장거리
아끼
노조
야수
##셔널
CG
약탈
마법소녀
일당
드러났
중시
기세
하마
##주교
무사히
고리
##경기
##aw
늘어났
선행
185
##하마
토크
라라
유성
쓰러지
요한
##텐도
닌텐도
패키지
스즈
##타이
최상위
했으니
장탄
멜로디
떠난
과도
##포르
미나미
야구장
간간
비치
신발
엔드
양상
록맨
대포
성전
##ale
SNS
출루
사라져
프리미엄
지칭
타쿠
그날
끝난다
즈음
변수
개발자
PV
킬러
스트리트
핑크
주류
##ike
대치
독일군
개별
페이스북
후자
해치
안개
무산
##하시
##틀랜드
특별히
더군다나
여러분
영원히
임팩트
자르
전망
사키
초인
새겨
1945
입주
어딘가
물체
Cl
챌린지
집권
##에이
업계
바디
농업
For
무시무시
데이비드
군수
리프
부착
원조
흰색
동남
##키퍼
##야수
암살자
첼시
매번
장사
RPG
브로
나미
왜냐
청주
만주
중복
##OU
브라운
이긴
##끄러
##자와
Dr
질병
커지
손실
야마토
최적
악몽
##바닥
서서히
필리핀
##ep
선조
피트
취득
##irl
벌였
##man
폭행
동아리
##ach
##ile
175
동경
수비력
1981
Sc
인방
BB
바뀐다
여인
호랑이
##여객
골키퍼
OP
서클
벨트
부동
올스타
해양
구별
102
##공항
호시
잠입
줄어든
117
지팡이
헤르
어이
고장
진격
인피
가진다
퍼지
파생
끊임
향한
##12
Team
106
배역
못지
모로
교토
골라
##VA
LA
물량
해킹
##철도
##ink
플러스
Sk
선임
일람
파울
제독
아닌데
퍼포
의외로
사회주의
Mo
체인지
퍼포먼스
페널티
신나
직장
리라
GP
합계
권위
중장
가만히
오이
국당
기호
레코드
공수
청와
늘리
DD
##데드
마물
무술
115
##아키
내려오
응용
시크
김경
세팅
라우
사립
데이트
코난
원형
이웃
평점
라그
이종
##플렉
약물
메이커
가디언
기동전
주행
귀국
언데드
신입
최우
연산
##ial
FM
##승부
청와대
고마
밀도
투쟁
##토스
개장
##런트
##메이
##ish
엘리자
국어
장로
당대
에릭
SU
파란색
1979
건가
서기
레일
후임
여전
풀려
에디
긴급
집합
UN
만만
냐면
배달
##래시
이와
커서
징역
챔피언십
억지로
스파이더
프로토
포즈
오스만
나비
트릭
선사
동해
친한
합리
쇼핑
개신교
권장
분포
오우
트루
장신
김상
기장
행방
폴리
추방
택시
##ower
저하
천연
공백
감동
회색
##네시아
갑작스
안양
이룬
전무
프레이
해산
은지
일화
며칠
궁금
프리미어
연구원
독점
증폭
신자
수동
즉사
모스크
확산
명의
##II
관여
야간
주관
Bla
면허
교단
여학생
다닌다
공인
조이
방치
스캔
재회
사귀
선보이
거친
임의
모집
폐기
##하르트
듀오
빌딩
유미
##오루
대단히
조상
혼돈
만일
명백
뱅크
김진
고인
##GE
전남
썬더
저지르
##숭이
라이너
##운동
코멘트
감상
아레나
캘리
##버그
바둑
성경
렌즈
버섯
사무소
##크로
CH
매출
##아이
분당
we
맡기
캐치
고블린
데모
피닉스
발목
돌연
BS
##IM
출간
조명
타이거즈
처참
Ne
##!!
##비치
불량
Star
장미
광산
깜짝
올라갔
오메
광선
박지
느려
로빈
##프리카
승무원
드릴
김기
##레일
자비
이어졌
전라남도
모듈
달라지
구성원
포켓몬스터
비웃
##벌레
무스
상관없이
가까워
복원
처지
PR
해머
우월
고소
실장
ID
우주선
고로
질투
히가시
목사
되게
스타디
통틀
평일
하인
계수
간호
지연
와카
##번에
배급
##히코
##킨다
##쿠라
드루
Wind
미국인
버드
수색
우드
화산
바꿀
350
라이온즈
유출
대조
난사
협정
##99
유언
파이트
수립
탐정
터져
엄격
시외
조롱
히라
up
스탠드
풍부
##전자
운수
자꾸
줄여
서포트
LP
재학
파멸
심의
DC
골렘
한두
우익
##카락
국무
메이플
산맥
War
머리카락
fe
체감
And
정발
펼쳤
스텝
우유
의자
검술
온천
##체스터
도저히
##ass
미루
바스
쿠라
당사자
##가드
청구
치열
나기
모험가
센트
합동
육상
토미
##러진
포장
국제공항
뒤늦
사이코
##ms
반부
키타
##me
올라간다
루크
젤리
##타카
360
Man
소용
실내
이라크
오로지
다운로드
에픽
본토
진이
112
마코토
축소
토시
기력
권유
제네
특급
조용히
극도
규제
디즈니
승진
키워
배수
##gh
##어놓
##블로
따뜻
비틀
우치
##CG
낙하
##릴라
##렐라
루머
비명
담긴
시사
108
##도리
All
베를
러시
려다
AKB
나노
티아
거둔
극한
##tle
니아
하계
##pp
사이클
##ble
##amp
충청남도
반감
간지
범죄자
바르셀
지인
루피
오락
출범
바르셀로나
디바
바른
비유
우즈
##ft
여섯
지목
수직
친해
시바
베이징
알라
안쪽
토큰
중지
단종
이걸로
일요일
프렌
103
메일
수월
스러워
경북
세금
탐지
폭파
스테이
##거지
황후
능력자
전당
협의
세라
리즈
어시스트
##yle
스타디움
서머
##70
그래서인지
실은
페리
이글스
신데
여파
##ous
물품
중순
직선
망했
세리
실현
배제
조우
##슬라
스태
모임
##now
##atch
베테
신학
##sp
막아내
리버풀
카구
불행
분산
돌아갔
막히
##르타
당당
조커
One
잡아내
Mar
가져오
아가씨
귀엽
##orm
수염
생전
손자
김해
평론
얻어맞
캐시
토키
살펴보
유의
신용
나스
들어올
New
To
ON
명문
모음
나섰
거북
타일
기묘
드론
추세
바론
여고
무승부
ex
막상
체중
저지른
낙선
##스티벌
나루토
나요
진상
페스티벌
수비수
IN
경악
챙기
##란히
토요일
던가
BR
##사이
로이
##민주
천문
##구나
까이
Part
맥주
스미스
수습
태풍
가난
더빙
채보
KR
지녔
기수
가질
떠오르
연봉
함락
마카
김용
Gam
강등
칭하
쳐서
비극
센서
강사
그만두
되살
SF
주최
후회
패전
힙합
##ING
주어지
##그리
대성
극히
집어넣
잠실
산탄
고속도로
CS
좌절
엄밀
국판
듀스
명목
배려
동반
자아
배드
훼손
스핀
인접
유망
대시
노가
실시간
개척
힐러
코마
철권
##ment
리가
기부
PP
##방송
에반
사무실
발리
##ae
흔들리
반짝
케이블
##64
주체
하여
##더라
128
원시
스티븐
압력
모스
상반
고증
장탄수
꼬마
쇼크
스테이션
##불명
유재
혜택
스와
투척
도장
신속
포탄
닉네임
늘려
인자
##ase
혈액
호남
중화민국
##사기
농장
십시오
마땅
아이러
각지
##ree
장성
쉬워
이타
샤이
쳐들
사나
초콜
재개
바지
조카
역습
추리
주교
걸즈
고치
음료
휴가
유니크
벤치
히틀러
##리온
반도
엑시
암호
내린
구조물
소니
버려서
고시
구르
구장
찾아보
날씨
샷건
##구장
변동
총장
En
캘리포
몰리
시로
네티
확장팩
퍼즐
도리
생길
나르
##노리
제갈량
둘러싸
그라운드
물러나
에로
시상식
짐작
하프
1978
알바
질서
1973
근원
레온
믹스
JT
함부로
느꼈
트로피
해병대
두들겨
##저리
어쩌면
야쿠
184
로맨
사퇴
##우치
거론
들어와
오브젝트
##az
두드
##bo
대행
상사
##페라
캘리포니아
그치
보라색
흔한
##혀서
슬라
시비
찬성
라즈
갈색
거든
첫째
짐승
AN
가담
깊이
나뉜
##블리
##러그
각오
인재
사로
World
##ason
양손
구동
##AY
111
그랑
##케이션
속한
쿠데
220
여럿
지워
##바르
안심
호불
##iki
호불호
퇴각
##베리
무용
백화점
##돌이
최저
혁신
공감
183
강림
키보드
정반
##사리
결제
##키스탄
베기
감수
가벼운
지수
JP
##저기
오더
포스터
사야
사리
쫓겨
동서
프린세스
말기
트레이너
진급
마계
전날
계층
베어스
고무
쏟아
네티즌
알렉스
내게
원더
동아
##ear
So
경호
중동
빨간색
대령
특별시
동행
산타
흡사
##hen
후반기
가르치
라크
장례
셔틀
노란색
여기저기
갤러
중부
장난감
마오
240
일어날
잡아
았었
사관
막강
타이탄
기리
리처
##MS
뜬금없이
신선
접하
sp
수지
맞춘
퍼져
세뇌
엔지
그거
핀란드
학생회
피로
##are
포획
드레스
견해
FW
무섭
베를린
탐색
##기에
드문
요미
클린
보좌
인과
유혹
여의
GO
매주
선수단
##붙이
양반
교복
패밀리
유입
봉쇄
모은
국도
후미
영감
우호
강렬
원곡
스코틀랜드
연쇄
뮌헨
상주
입자
##직자
페어
케이드
선진
1974
##차기
방송사
무공
발라
문화재
마일
프랑스어
생체
재건
tv
클론
먹히
우측
려다가
박쥐
끌어올
소재지
트라우마
도어
역명
해져
점유
운송
토대
즐겨
##브라
콤비
##루미
방탄
무실
경찰서
아이러니
드로우
아베
위로
왕실
결계
김준
서바이
잭슨
시달리
약자
와인
신중
공격수
결혼식
세로
데려가
비스트
http
수여
##하나
침대
지부
1972
연금술
알레
복사
##90
##ven
래퍼
트윈스
##ife
포터
관료
끼치
화폐
도덕
바이올
제물
전락
집회
통칭
찾아오
바나
윈드
https
##싸움
감싸
로이드
완공
튼튼
트랩
##ade
허무
장판
순양함
프라임
리안
##AP
Wi
취업
##베이터
프론
디시
역량
스즈키
선장
콘솔
소금
##박스
##으로
폭스
탐사
덴마크
세자
될지
영양
출혈
##렉션
강경
흔하
우회
##던지
쓸데
빈도
라마
##act
도감
MB
하스
글씨
~!
도트
##데레
홀드
##ai
대타
일곱
##ank
아바타
##깨비
##gin
연설
할까
억제
이순
튕겨
간섭
여단
%/
관통력
해라
상무
공대
낭비
do
단행본
졌으며
##aby
루프
히든
부작용
노무
메이지
모형
창문
104
영화제
디오
오노
청나라
승차
##out
전동차
##으므로
인도네시아
소통
법무
Fate
no
트레일러
전격
침투
성씨
술사
비추
재직
태클
워크래프트
페미니
손꼽
다가오
기다려
당초
매니아
한창
블로
다큐
돌아간다
1975
##우트
커스텀
쿠데타
마트
마피아
##lect
시카고
신데렐라
실상
타가
히로시
LIVE
간간히
부재
형편
백업
제재
파밍
123
설령
손오
출산
라가
성실
스탈
깃발
끊임없이
범용
##ET
##에른
하하
##토니
공산주의
장애물
스나이
경연
강간
김일
스트라이커
##oll
##어질
NH
벨기에
우승자
끌어들
전향
소득
고쳐
스타리그
시호
미미
검증
조종사
##UM
##모스
할리
토요
중점
Up
품질
이른바
왕비
OS
여타
카자
1976
라스트
소나
are
나나
근접전
말레이
변이
항해
외곽
III
##ork
워크
##천군
##추어
스피릿
굴러
##다보
마라
파도
강릉
성분
최선
원주민
이스트
오지
정석
마산
사악
휘둘
##버려
띄우
을수록
대접
사사
혈통
섀도우
모니터
그러므로
발명
판사
이어진
유료
##바야
Do
단기
##ary
이어받
하급
구상
타르
차리
특공
선박
리코
리모
카더라
맞붙
Oh
제왕
공통점
왜냐하면
검열
광물
나빠
하반
##way
티스
전생
왼손
넘어갔
##루션
동전
입문
119
브라이언
키라
유연
##바지
트리거
친하
천천
포도
찾아내
중상
쓰인
해질
명분
올드
탄핵
##ey
마틴
##ich
명사
공헌
변해
고종
스플
장남
화해
원장
전송
사로잡
##께끼
135
수수께끼
급행
소모량
중심지
단검
109
##슈타인
##모함
초콜릿
우루
중고
원한
박정희
바이에른
초상
우울
코스튬
미지
지선
##저우
중기
##타입
ES
중위
확신
대변
괴롭히
김수
##미터
Mk
공단
입증
베테랑
##어내
일체
한나라
모스크바
잔인
##능력
한나라당
관우
##키리
찾아온
일리
엘리베이터
검토
오페라
시모
너머
수인
Ad
잉여
예약
시온
친다
단발
조국
부패
질주
친절
찾아볼
불태
손오공
치우
대법
아이디어
lv
땅볼
부유
겹쳐
대동
처하
히스
##벤처
교리
all
##동자
Day
어드벤처
진단
시게
##니시
존스
떠난다
강호
발판
보스턴
성배
아스카
터스
유망주
천황
케빈
로보
콘스탄
AFC
시외버스
곡인
건네
이어진다
스태프
도쿠
부속
이병
천천히
nd
체코
버스트
정해진
압축
충족
학사
##pt
고는
182
##orn
과자
카카오
메리트
이현
니혼
고스
카시
굴욕
##페이
구독
준다는
무제
드러난다
도깨비
에이지
앤드
그릇
##하루
프로게이
프로게이머
분할
동정
손님
크레이
오메가
붙인
##라미
강전
화상
군부
바치
연수
자제
나폴레
루마
토마스
친분
플랜
어색
후일
대박
머무
라이언
지붕
되돌아
민중
위엄
아지
싱가
싱가포르
항공모함
디자이너
평등
##가루
121
홋카이도
치카
미궁
레이디
나폴레옹
마운
지력
##레일리아
삼성전자
눈치채
라그나
따왔
1971
일관
노르웨이
##본다
머니
Windows
고고
저자
##의자
레이블
으려는
메트로
##네마
왕복
박살내
와이번
FF
이럴
테이블
폭격기
스택
발레
이어져
동구
145
물어
사촌
107
아님
렉스
맹세
디펜
속해
에버
망명
##테이션
극대
="
이경
현금
RA
꼽히
열정
가져다
찰스
이틀
엑시즈
스케일
광기
합작
1977
점검
강점기
진에
##쿠스
대전차
##ah
김포
엔트리
퍼스트
##EM
비리
기르
##사스
일가
하이라이트
카리스
여포
질량
유탄
키를
창립
DP
다가가
변태
##리안
리틀
종결
할로
원숭이
촉수
후드
아까
하사
지오
작위
무거운
마타
ML
아아
이모
고집
사체
AA
묘하
##very
신동
두려워
자율
리퍼
블레이
##uck
마술사
##버리
보고서
재배
존중
조화
츠카
본질
그레이트
독일어
안타까
##리스타
표절
무지막
사족
무지막지
다닐
오렌
챔프
총합
파스
원전
ne
크라이
천장
선교
IT
공신
평행
엔지니어
본다면
보르
나뉜다
스런
br
석유
부스
그쳤
쳐들어
중거리
자존
감탄
브라더스
임진
놓여
전라북도
##ph
Sw
부숴
DPS
호크
자네
자책점
피카
BPM
게이머
JTBC
소집
정사
지분
농민
물자
210
스포일러
메카닉
카마
봉사
노무현
연간
해소
178
인칭
란스
##ero
몸통
스가
1969
다이스
움직일
과일
113
손쉽
스티브
유가
이대로
털리
관장
리처드
저기
".
대위
유격수
쿠스
교과서
오니
무실점
착한
교차로
##ool
로키
사수
타구
서적
동속
검정
레이어
노가다
##들이
165
##바나
오스트레일리아
광명
브레이커
마유
으라고
시뮬
어나
아닐까
김지
1968
날뛰
하치
맨체스터
동대
러스
냉정
1963
데빌
주식회사
철저히
##ical
뜬다
총독
토트
놀라운
건데
불쌍
빙판
명시
기차
아픈
출판사
시골
NBA
부원
프랜
힘입
이오
입사
필름
장타
주축
다니엘
##urn
부산광역시
가구
뜨거운
착륙
##퍼드
백만
##ype
Ph
병역
블리자드
오케
탄압
슬픔
실체
##ARD
부천
Con
말씀
에드워드
2021
윤리
모순
##구미
배웠
##anc
주사위
호의
##센스
스노우
매각
고아
광경
마당
제니
지장
깨끗
유치원
터보
미오
매드
불능
마인드
카리
스폰서
페스
훔쳐
목걸이
{{{#
##뜨려
어벤
부스트
부러
##은색
김유
155
서열
배운
완화
지혜
용산
올라갈
Cr
파운드
변장
##ung
참사
평론가
엄연히
줄기
유니버스
울리
이라도
멍청
OVA
사우스
한다며
김승
수천
울트라맨
싸운
답답
아드
명명
문양
굴리
하나하나
보편
변했
개명
122
Qu
우타
서류
트윗
납득
상금
미러
초청
워프
##항공
배구
모델링
씨앗
구로
외국어
평상
##테일
미르
Station
181
까마
레인지
프로그래
제리
##업자
압권
TVA
뚜렷
이노
치안
감자
열혈
가설
144
정문
중구
난무
친척
진동
취재
엘레
집계
중원
엘리자베스
박수
##소년
본능
수위
LO
발키리
도마
향후
##ww
절친
좌익
이케
아닌지
KOF
고사
재앙
태우
철갑
마케팅
서명
자산
리나
주석
싫어하
츠바
헷갈
성명
깨지
오죽
녹화
우연
고등학생
##끼리
생김
##시피
도심
##iver
케이크
우린
카지
애칭
무늬
지낸
초능력
소생
작정
어나더
at
패자
행진
서방
강민
너스
매트
##들리
지로
국토
트래
사연
사직
시조
테스
##DD
잃어버린
곤충
베인
신하
일까
어이없
152
서울대
일렉
잊혀
아리아
드래곤볼
용암
유아
골프
가이드
love
결의
로프
타츠
아마추어
경부
실용
액체
학대
실사
##폭탄
시어
##ens
경사
국방부
정성
산소
발발
벌인
멋대로
이대
자사
쿠니
표적
##리칸
전지
as
즐거
워터
편리
벙커
트릴
좌측
유엔
일어난다
저렇
안타깝
싸이
##ost
스카우트
아스트
민간인
도색
##이동
##어트
TR
자칭
카네
다케
침몰
114
엄밀히
워즈
사투
주머니
마음대로
##워즈
##ence
1930
우마
라이즈
거지
wiki
몰살
잠들
마하
이소
##이나
끝날
박성
예쁘
만점
인성
미성
롤러
IM
변명
##nt
괴로
의정부
직책
##마루
개교
초록색
망토
##변이
돌연변이
from
기질
초점
항모
##드로
##ise
옥상
이이
각도
코토
각인
법사
##int
포크
리본
##시스코
##버렸
이진
버틸
변한
습니까
텍사스
플라스
이누
1920
개구리
원피스
맞춰서
템플
마모
아자
스컬
망하
루리
179
방학
##이치로
만능
고의
유스
이념
정밀
!"
##하여
아냐
발급
##AK
##베트
죄책
통째
등극
학급
카레
모시
Super
기스
브래
이원
포탈
즐길
에디션
쿠마
적자
MG
Fr
격려
1940
이명박
BJ
can
##oy
##자치
로라
용자
##지능
인공지능
동성애
조항
방심
아담
포병
슈퍼맨
미인
혼인
이른다
정신력
제치
이빨
www
##ign
발탁
쳐도
적절히
CM
선동
오렌지
엉망
관직
종영
엮이
인벤
연전
협동
##ans
스타트
써도
이태
177
북아
마찰
안동
돌아갈
일컫
어설
대역
##타운
남동생
기소
죄책감
소비자
##과이
튜버
끼워
에미
추후
달라진다
네이션
리사
호러
##ug
포착
겐지
최순
Dream
헬멧
펌프
풍선
정반대
다거나
##바이트
장벽
##바야시
아케이드
공속
감당
124
이윤
밝혀진다
은폐
##전차
블럭
억울
1967
금강
##야스
선로
어려울
저서
니다
##느리
더럽
유진
갱신
고가
버텨
원로
반경
127
다시금
준다고
USB
마에
##슬리
해냈
그해
가리킨다
아무튼
오른손
교역
협조
페어리
나인
정점
오다
도약
용이
예의
익히
아사히
부동산
아울
아쿠아
신곡
해운
this
시오
##IR
인해서
내기
유카
페르시아
스틱
1200
중국인
##나베
##코트
분홍
##vel
보낼
쉴드
타치
450
잔혹
시타
고발
카운티
아이디
연동
왕족
기본기
욕설
##철수
마친
독립운동
##질랜드
컴백
ERA
##지사
##ode
군요
민감
뉴질랜드
출동
교도소
초과
필립
크래프트
누스
절벽
선원
바쿠
##uk
강했
##VER
버거
##젤레스
떨어질
수신
에도
지역구
게르
대차
비단
호드
부채
시크릿
부친
가져온
##버린
제사
수감
무도
후쿠오카
사방
프레스
베스
침착
갇혀
사무라이
Fl
발각
방침
뿌려
스토어
Pl
후유
변한다
회관
물리치
덩어리
청춘
대세
로렌
어려웠
팔라
물려받
카테
보강
Ver
스로
밀어내
##린다는
대피
바꿨
내보내
##나기
##역사
제의
CE
##생활
연이
그러면
섞여
피오
구형
급격히
저질렀
키미
아랫
잡힌
##킵니다
게끔
EC
종전
철도역
진에어
디스플레이
EXP
연소
카리스마
재즈
##공사
style
내외
애완
함장
놀랍
가마
측근
쌓이
##민주당
발전소
방사능
도르
번지
날카로운
선포
##헤이
스쿼
코스프레
애인
실존
레나
보낸다
사와
유재석
히카
##ier
신한
궁합
마야
퇴치
미쳐
반성
판도
강대
가위
현자
카쿠
리바
격렬
하이드
기법
분자
워리어
가오
Sch
예방
미아
잔류
##페이스
산다
김구
Girl
당국
Season
사물
인문
1962
##ash
징계
IP
오퍼
앞선
##려고
러쉬
박자
문신
왕가
##속기
ar
자이언트
근로
La
모빌
이놈
코노
DM
모욕
전담
약혼
화기
강타
NO
아름답
반역
일어
162
이카
흡혈귀
유동
이단
정조
흑마
tr
사치
중견
118
흥분
종로
높여
친애
올라와
화석
WC
시종
가져왔
점심
터졌
쿠바
퀴즈
고립
##끄럽
제주도
패트
노아
기동력
##믹스
그루
분배
##reat
1966
##IX
아처
##나와
유우키
브론
이용자
피자
명나라
위쪽
부가
헬리
카피
레이싱
틀린
로스트
토라
단백
타이어
황당
##ib
만난다
##시고
박진
경성
오를
계곡
실린
왕후
벌써
이행
314
달려가
##돌프
자존심
학술
달려들
##치아
생김새
제노
위해선
스나이퍼
건드리
던진
탈환
태생
##usic
월간
저글
Max
##사랑
##보기
중소
피지컬
감추
남동
##탐정
관문
날렸
우두
었었
실적
##우라
망설
한양
750
##방울
1964
덧붙여
금요일
대검
입시
그간
능가
안무
적시타
불길
##리얼
갖춰
Vol
TS
뱅가드
##수리
숙소
라미
소서
유고
휩쓸
DNA
그쪽
여태
정전
##마리
토트넘
어째서인지
내셔널
얼티
급속
스파이더맨
Ed
아오이
천상
##}}
--
궁전
시범
중재
요격
##ose
ld
할로윈
통솔
레아
모종
성사
코파
스피어
대학생
중도
나이프
사슬
헤라
탈취
진술
##리드
스타즈
AV
존슨
에메
직위
한꺼
한꺼번에
까마귀
소소
입원
호리
##시대
괴인
과시
나이츠
황태
amp
욕망
계절
불참
##서스
Col
쓰리
혼합
##부키
야당
##te
so
생태
넘쳐
기껏
피치
시킵니다
오만
학년도
항공사
GM
비자
저글링
점멸
HE
모인
질환
##사르
미정
극심
##ail
##msys
페르소
날린다
##ition
ldmsys
원판
간판
머스
그란
안겨
스탈린
천국
충청북도
스탭
히드라
이별
홀리
우지
도대
테르
필사
과금
시시
마기
rd
터뜨리
Night
각국
입힌다
하지
##티노
욕심
##구니
BC
차장
##와라
마르코
테리
상냥
토우
강인
나들
not
조립
레버
샘플
시안
회로
##당초
##키스
모아서
앨런
태워
미녀
나들목
날아오
리버스
##워프
군데
##IL
이사장
지루
지크
김주
알렸
단자
스매
승패
지지율
요코하마
암컷
인텔
공국
##히토
##ild
빠져나가
하여금
168
김치
올린다
일일
##아치
김광
페르소나
오토바이
Let
수소
아비
알렉산드
조르
물약
##그라
도미
스윙
제발
마쓰
병행
부시
희생자
디아블로
오사
키요
##닐라
학회
피난
단백질
상부
난민
스크롤
##ody
바텀
만렙
테니스
등재
실려
목욕
사탕
빙결
Black
어원
펑크
159
일환
##바리
여겼
코끼리
밀리언
알아내
신작
무녀
이승만
##세지
##파이
도배
퍼펙트
BD
나눈
평택
##클린
무신
칼라
말레이시아
라인하르트
부처
예요
아마존
미노
리자
인쇄
여주인
보로
해변
##진호
옮겼
쓰러진
해역
아리스
오즈
파고
신생
팔리
화신
금발
환생
둥지
마도카
대니
한가
터진
두꺼
싸운다
직행
1948
배울
mar
##ough
응답
해전
발사기
아메리칸
국기
까다로운
진흥
까다롭
AF
MM
챔스
절단
엉덩이
1944
미소녀
세례
도대체
모의
무능
1965
성벽
OG
부제
히사
##33
##모습
명장
시켜야
쿠르
유머
중공
깨어나
프롤
일조
##앤젤레스
로스앤젤레스
##레아
퓨전
스텔스
섬멸
못해서
노부나가
석사
충남
방언
##스카
프랑크
회계
불상
스쿼드
노릇
##멘터리
아카네
끝났
아포
주저
RE
섭취
아슬
울음
와이번스
수중
식스
수아
말려
모나
때로
약체
필라
4000
눈앞
모았
Op
##gr
일명
들키
대국
안토니
스네
카일
스케이
찔러
좌파
전임
빅토리아
꿈꾸
지면
사임
동상
집필
고래
객관
출석
##aster
차가
접수
##스크림
##무지
빌보드
공교
내린다
급하
외야수
##app
마을버스
그리스도
메디
##orts
##타리
끌려가
평상시
목포
확립
비평
인피니티
이나마
선회
사이토
대안
##성군
그리핀
낮추
대승
연세대
아유
유메
##uc
보살
쿄코
피우
베이비
사천
교향
두루
드워프
애용
혼혈
1946
##고속도로
십자군
아수
신관
##은이
워드
공동체
성지
이계
##시티
주공
PK
에코
다큐멘터리
마르크
주입
##렉터
루미
장본
해고
알렉산더
무자
서울시
최상급
보우
컨디션
그려져
적힌
말라
그랑프리
동북
위시
슬퍼
휴게
늘어난다
스카웃
김대중
실리
이무
##CE
주파
스기
대면
##ject
en
편의점
껍질
스타워즈
평판
교대
이니
##OO
EXT
탄소
##티니
침해
..?
블라디
득표율
가령
아쉬움
##ari
단련
폭로
math
믿음
카게
비로
자력
컴뱃
전도
방안
줍니다
면제
수컷
사지
퍼시
민폐
집사
le
휴대폰
AL
흑막
테이프
CR
독백
크롬
##뜨렸
라비
솔저
히로시마
정서
숙청
소마
달인
섬광
아르바이트
EZ
리프트
돌아올
두려움
막부
스모
벨라
성대
##프란
리부
##각형
와타나베
구호
달콤
큐어
경제학
항성
원자력
감성
##iel
##트론
프랭크
우미
공명
대해선
단서
강동
벗겨
냉장
지각
남학생
##퍼니
관광객
##디스
홈경기
151
줄여서
찬양
보복
유즈
격퇴
138
타우
아름다
Gu
하와
신념
신조
SA
##미르
던지라
가해자
장본인
티저
광복
남양
개업
케리
320
하도
172
기하
비비
GSL
눈동자
은메달
로비
##애나
타카하시
샤를
정우
사르
휴먼
벡터
수성
##오피스
뛰어들
으신
상시
남한
그려진
가이아
무지개
##TA
막혀
조수
김병
천주교
ATK
##ats
순천
##ye
##도전
다치
의의
정답
어벤져
단역
보직
강아지
변함
EU
##eah
##바람
##올라
아폴
불화
동아시아
개막전
견디
자루
주한
315
로크
시네마
1961
##총장
컬렉션
##부인
걸까
풍경
GD
서바이벌
일각
##뜨린
천지
고맙
걸음
배후
##중간
얼티밋
투고
배리
고난
TOP
마쳤
테레
Mag
오공
158
##랍니다
거스
균열
동사
##다드
대교
바닷
내정
다간
오른다
그리하여
라이드
CL
표기법
그렸
상원
재질
탁월
깃털
도스
흑역사
카사
손잡이
가왕
악행
캡슐
무한도전
통보
스칼
마미
스톡
##이센
시련
추모
로맨스
AB
민병
NT
물리학
ver
리믹스
수확
흉내
동메달
카이저
내면
숭배
일산
비키
루마니아
UC
구울
매그
여수
##oh
이세
##eth
드러냈
바랍니다
이순신
충고
표식
위함
##ron
박스오피스
소꿉
쿠사
스파크
슬라이드
섞인
제대
독보
결과물
병살
올바
금고
##세요
##ings
아이즈
주차장
이호
김일성
마주치
유마
구제
청사
##메리카
사범
신상
제인
다투
어판
쿠리
유한
그레이드
건립
레이지
176
공로
컴퍼니
##운수
도요
방정
아무렇
크라운
떠돌
도사
다저스
##맥스
삽질
will
간파
운반
지미
Is
ME
재수
예고편
수라
보가
직무
원했
##느님
계략
저항력
멈춰
테란
병과
호응
발톱
타리
##inal
궁수
심정
##==
126
김윤
마수
차림
신임
1949
오로치
드러난
정의당
Am
과격
대명
완벽히
하느님
자작
기온
폴아웃
승려
##성이
상어
친일
치렀
우두머리
이점
10000
리볼
마지
어그
주의자
몸매
##저래
Don
테오
문법
보루
감금
서원
타스
으려면
##ult
유라
인플
크로우
라이트닝
무선
바이킹
응급
코로나
노라
154
맡겨
사망자
like
레시피
LE
패왕
세르비아
총사
흉악
WH
방울
맷집
{{{-
KB
뒤쪽
Time
132
##총리
##MAN
내려갔
주황
전법
총선거
법안
유해
드루이드
무비
자카
걸친
웨폰
거꾸
김성근
레슬링
센트럴
아테나
난리
new
##덕션
성폭
어긋
강서
성직자
멸종
##13
떨어뜨리
기뻐하
응시
##빨리
지배자
베어
이즈미
넘겼
강습
천체
벗어난
저승
이래저래
튀어나오
노린
##리언
218
완성도
니트
코프
이용객
테크닉
이리저리
르노
Mi
피드
파인
장신구
##GA
예쁜
행하
로열
코디
만지
국민당
##ov
취지
##oul
스콜
급식
충격파
트론
##18
상의
서리
라이징
손목
선봉
리츠
##조합
엠블
이영호
안젤
탐구
유신
쥬얼
키노
당나라
노비
짝사랑
더미
지터
##ob
##라이나
제너
핑계
보트
태조
였음
여긴
전염
무슬
##나르
리우스
야망
미남
과언
블랙홀
유능
후반전
어드밴
고조
담겨
##ould
돌아온다
이쿠
키로
##처럼
통틀어
156
##보우
마가
..!
iOS
무궁
Ser
##친구
one
마마
164
##alk
리리
##tern
재벌
##yn
##레븐
카제
숙련도
139
나란히
배율
필두
##활약
유카리
##15
고우
모에
시간대
미세
이인
##up
구청
들으면
153
조던
네크로
하츠네
하우
교정
저격수
Gaming
먼지
플리
하나님
##레이크
##reak
반장
콜롬
올라간
공격기
거꾸로
커플링
무슬림
양심
합법
초등학생
빼앗기
가져갔
김두
나열
이광
##der
웃기
##able
GK
하드웨어
멋지
##고사
겁니다
접전
##제스
리터
##그마
엉뚱
전두
청장
성숙
후면
지성
상공
세미
##라이언스
##바스
최하
148
거뒀
디비전
Car
맞먹
##ions
비즈
허브
신주
인천광역시
연달
##사고
진도
탄막
실업
##엘라
스케줄
표창
동등
얼라이언스
Your
타키
셋째
오바
단의
벌금
푸르
모른다는
주유
##문화
167
##널드
볼드
김선
장시
걸릴
냉장고
스마일
대등
호스
즐겁
203
동지
북서
배열
지표
몰아넣
카렌
가히
끊기
애드
선지
로제
황혼
프로덕션
애국
데미
SSR
지킬
창작물
##백과
##주의자
##PA
무색
사료
1958
브라우
가나
1941
음향
174
스나
놀리
오역
지나친
주술사
야마모토
승급
알려준다
영화배우
##ull
누이
휴스턴
도모
치러
공모
무죄
사야카
##프란시스코
##퀘어
샌프란시스코
전례
라틴어
슬픈
종말
여주인공
se
유타
타당
아수라
##재기
동년
Min
설탕
법학
##시다
##전사
버블
번식
적이
앞세
무안
RO
##셉트
시뮬레이션
142
자키
통행
지지자
바이크
사내
처녀
##상가
LTE
광범
레이븐
영등
문헌
헤드샷
빈약
인명
##니코
염색
스페인어
카인
주가
순간이동
##무네
163
던졌
혼동
런처
원화
과감
박탈
파이프
가라앉
한층
##기업
배상
수령
차일드
덤벼
맹활약
토비
해준다
레인보우
득실
이오리
프로이센
##ube
##ECT
일련
러너
뽑아내
##해졌
마스코트
꼴찌
1954
염두
우편
BGA
레바
리볼버
##아티아
졸업식
네스
크로아티아
강수
월요일
묻혀
진로
##스레
드로
훔치
안보
제자리
##ll
전학
have
후쿠시마
사가
pr
태권
회견
맥락
제지
단식
찰나
황실
설마
out
주어진
레슨
절정
음력
오리온
밀레
수하
기관포
페미니즘
대목
먹여
연막
능숙
발현
대외
득표수
크리스토
장례식
상속
약칭
이룬다
이만
카토
##ICE
##립트
##랄드
초상화
환호
대군
날아다니
단총
연고지
라든가
사소
NM
제프
복음
토론토
따른다
미트
으리
##터스
##스티스
##보라
파우
143
137
대법원
공고
죄수
부호
앞면
향한다
##타니
당원
한강
소우
너클
시흥
릴리스
방벽
##베르트
어제
공짜
바나나
투사
창당
313
현직
맞물
노골
혹평
Sum
무단
솔직히
평창
다지만
전해진다
베일
관해
내뱉
인듯
한정판
##프라
소꿉친구
박종
사당
양국
빙의
북동
해져서
코레
차분
##바루
HS
외관
인체
ALL
플라스틱
오비
경찰청
가미
자포
테일즈
트러
두뇌
무식
CN
IV
여도
추출
랜서
이력
##소수
##타르
1943
십자가
230
이준
앵커
전반기
알아차
반란군
찾아와
오딘
넘어갈
아테네
뮤지션
태자
##대사
델타
띄워
북구
지요
순찰
맹독
키드
남미
난투
오케스트라
프로스트
기술력
플레임
개미
고질
우산
157
관계없이
해상도
잡혔
##모어
강탈
극악
오쿠
숙주
133
##FL
슬슬
공자
기이
미시
브레스
갈리아
틀리
당해서
내세우
코지
un
출제
146
팬티
129
극우
잔해
계시
떨어져서
확고
구독자
##더슨
000000
폴리스
플레이버
1942
광범위
세키
별칭
지극
렀다
죽인다
청룡
화약
##STER
비참
173
헤일
나카무라
카오루
BO
미쳤
##트랙
이루어진다
워너
##결승
종사
설비
미쓰
진구
박명
치마
힌트
관해서
키즈
경선
내버려
채찍
리뉴
리셋
여장
기쁨
##천사
클리셰
열린다
원년
폐허
margin
실바
수영복
know
서치
로그인
카테고리
오디오
연안
멘붕
전수
해태
호출
##무게
텔레포트
몸무게
바티
후대
팀장
##MAX
set
##무이
방화
##DX
나락
생물학
보였으나
##날두
쟁이
청원
칠레
OF
통증
호날두
공천
공습
기행
136
Play
편한
체스
생애
BT
사나이
팩션
합치
미하
테러리
파랑
시초
##ica
정교회
CB
메테
##che
##소총
Of
서장
해선
태종
##ock
히카루
라시
번갈
포니
바그
판다
얼터
As
la
개판
미모
##풀이
우크라
망상
달랐
증기
##YP
제조사
메세지
맞대
빈번
저조
Red
##회장
럭키
Type
다스리
BM
하의
##제국
양대
##14
불문
섹스
##산역
오른팔
시에
브루스
일러스트레이터
하비
심화
조력
##박이
클라우드
149
정준
바인
혼다
로지
라이센스
복도
캐슬
박영
우파
대패
친정
산탄총
##에몽
치바
쓰러져
##전설
교육청
유선
##스틴
때려잡
트랜스포
크리스티
샤오
BA
포맷
오키나와
##ict
빠진다
미끼
범주
정한
##17
심야
134
1900
슬라임
1956
미숙
인터페이스
불쾌
미도리
##크리
건드
스트로
경지
해독
가의
야전
TP
입국
냉동
가혹
지주
목재
DI
라파
##ster
레슬러
신세계
진리
사일
책상
공손
퍼센트
##ange
나사
##ater
대사관
EV
부흥
버림
운항
원한다
가로막
깡패
건다
다룰
진짜로
김천
##티넘
플래티넘
슈가
구마
왕관
High
태미
슬램
오세
무서워
##ons
##권자
무수
##메라
춤추
열세
심히
자부
파손
파괴력
트레이닝
제이슨
장갑차
pro
맞출
중후
##레슬링
분쇄
교양
스매시
초래
개개
무명
자켓
feat
진형
요우
입법
TE
원망
켄지
프로그래밍
NEW
펭귄
날린
미들
섹시
수시로
외면
페이크
프로레슬링
슬러그
재림
찰리
축구단
다툼
##왜란
악곡
둔다
임진왜란
증인
##ple
열기
중급
랜스
싱어
경질
인트
방정식
퇴역
쇼트
사천왕
전두환
스바루
시집
모어
미칠
주고
##지오
##교통
%.
뒷면
비기
연말
##해야
##니스트
147
스팅
공과
골목
꾸미
비로소
불릴
Light
웨일
##차례
아래쪽
패스트
앞뒤
미식
박해
여겨진다
호프
부끄러
와라
자회사
##두리
리플렉
퓨처
상대식
심상
AE
생선
안철수
##주군
##무늬
폐선
틀어
280
세일러
배우자
노하
실로
##끄러운
##아닌
##세서리
엄폐
최정
2500
소령
살라
제우스
헐크
##카미
나뭇
하지메
저스티스
드리블
오프라인
MO
수용소
거칠
선인
##티지
GHz
할수록
철갑탄
세츠
착지
##텍스
직통
메구미
##마르
Gen
아랑
관절
222
차관
마켓
토막
##to
CO
의아
격리
테일러
##에트
히나타
보디
##구역
편견
##토랑
고추
##니즘
실천
##의회
레스토랑
가브리
가르침
걸려서
따라잡
~"
더구나
보잉
강세
내밀
애쉬
클러
수상자
1939
수다
음색
##더기
김연
배속
브랜
##CC
개그맨
was
What
제단
소행
로브
바란다
발간
꼼수
면접
템포
찾아왔
감행
레귤
프로세서
배신자
용의자
##산동
복용
취한
Kor
166
미호
손꼽히
립스
증권
##바다
고음
##고래
원종
타고
##베리아
##컨드
연기력
1959
반론
도쿠가와
지문
##ics
1936
프랜차
명탐정
세컨드
동조
섬유
소설가
롤링
##나리
일삼
두목
##사관
신칸
냉기
우물
준공
구한
술집
붙였
탈당
하후
##투아
##다닌
재임
꼽힌다
##ACK
화소
Heart
러닝
산화
레프
퍼부
공영
Tw
종착
더러운
소노
스콧
조교
##어붙
프랜차이즈
##les
줄어든다
케리건
내역
라곤
역학
LOVE
패했
필터
웨인
oh
1955
정해져
GPU
삼촌
##레드
미스터리
##레이트
##사와
##ex
기피
병종
##BM
이아
트랜스포머
##데르
모함
골치
어벤져스
뭔지
체격
아이스크림
자란
##모니
하카
투신
NHK
라임
AG
에그
반환
찌질
아이폰
전광
어린아이
위키백과
Mr
파문
##니스탄
올바른
신칸센
책략
동문
루키
콘셉트
채취
토가
사모
기술자
책임지
Blo
마요
동호
재활
PL
하이브리
경보
속편
호무
영등포
참으로
이방
물가
야마다
하이브리드
그제
##lass
전열
##무실
시가
장학
##16
인구수
특훈
##테스
부도
다름아닌
냉각
레귤러
자질
반군
FPS
MK
플루
##AND
부당
투성이
준결승
방호
장편
TO
스트리밍
최대치
봉기
좌표
방송인
서민
마의
안드로
##아슬
아슬아슬
좋아한다
말년
Par
윈터
보행
정형
##전트
소사
##nder
##플러스
성기
##규모
패드
인사이드
스크립트
로테이션
모던
1952
뒤지
라바
상행
전했
time
포식
뇌물
걸어가
적립
수량
넘어간다
가와
전반전
공존
범행
부드러운
ll
330
주된
내뿜
수도원
##교육
##더링
하반기
달아
엣지
270
사슴
캔디
카즈야
이뤄지
##내리
##ors
Fe
##볼루션
교통사고
얼어붙
패닉
노래방
도청
도호
##ME
##란트
표본
단과
깔려
죠죠
들어온다
김도
##단지
LED
정계
카니
불가리아
경과
오타쿠
속력
풍기
유대인
몹시
서해
배워
스텔라
담임
직속
중년
끝장
스윕
##어버리
카우
태극
순정
뚜껑
여배우
버터
##드리히
입양
에메랄드
매지
멋있
미수
발라드
고마워
교섭
테러리스트
함성
합친
파키스탄
출고
소매
어미
1947
GTA
파격
동로
원고
스퀘어
춘천
#!
솜씨
##대기
225
네놈
르네
평안
모양새
Good
우체
두근
##콥터
전속
거품
박상
심문
방공
직격
불려
놀란
심했
상쇄
영동
자랐
곡선
우상
재빨리
주워
무고
현존
세스
Per
돋보이
유지비
적색
초코
현황
따돌
메이트
다이노스
프리드리히
사투리
핸드폰
쓰러트리
멜론
영남
그릴
로저
커졌
모른다고
순교
자각
광대
배리어
호구
단말
자칫
이에
산악
하행
##글라스
오락실
스파이크
##수수
갈래
시가지
##나갔
프랑스군
카를로스
마초
신흥
월등
그랜
생겨서
##보내
벚꽃
어워드
다기
앤디
SL
am
##HT
마테
사탄
##파리
넉넉
성서
석상
발렌타인
지기
하시
신병
느껴진다
대본
라프
레즈
적재
260
급히
##eep
격전
우천
1800
래스터
유나
바닐라
벌어진다
요미우리
유니콘
미유키
MSL
타이완
더욱이
선우
구절
부관
1919
리바운드
홀딩
##무기
본의
클레이
고산
저희
호투
실력자
브이
IIDX
하리
호박
휩싸
트렌
걸어서
부사관
공약
추궁
중학생
호르
불신
아홉
##ott
원내
즉각
프로모
심연
질풍
비타
간호사
야만
기함
상용
##거진
차용
핸들
Kn
ab
정정
상장
신정
일례
움직여
0900
유니온
군림
남작
소실
징크스
풀린
Li
로스터
치루
눈빛
꿰뚫
시부
증발
박살나
카이사르
부류
지름
선형
유방
운석
장원
##메다
이례
EBS
단정
고분
적성
다중
카탈
wid
유정
포워드
프로토타입
Wii
클라이
##수아
쓰일
줄리
들린다
##문트
츤데레
에바
도시락
박혀
##들여
최우수
This
프롤로그
드레드
근력
따져
##메스
안성
브레인
호그
훈훈
미로
여관
설화
성비
하와이
악령
하라
조준경
##산물
축적
미티
픽셀
길거리
##르바
##IV
헬리콥터
구타
보리
##자동
양보
유무
유승
회귀
Baby
더라면
##25
본가
소규모
##IK
##클리
페인
망원
후루
라던가
남서
##anna
격투기
허위
기관차
진정한
##파크
##두사
자본주의
프린스
교훈
트러블
실정
제보
전산
농사
켈리
정재
진수
카디
습관
HARD
Sm
바오
불평
쏟아지
신수
일레븐
ONE
스토커
탄탄
이선
버려진
동요
모라
충북
서정
유코
빈틈
히데요시
루터
킹덤
1953
대중교통
에필
에필로그
레이트
서태
자문
게임즈
밀집
대진
샤워
중성
주어진다
##포드
##델피아
필라델피아
GN
##지도
민정
1938
심리학
##other
총괄
관념
리키
누워
원작자
Rock
송출
격침
첫날
##행위
169
프렌즈
us
단속
회화
줄어드
##19
박용
청산
석방
##바키아
미팅
책정
독서
리부트
550
야외
우가
만료
만루
자격증
돌보
치고
##앙스
총회
장풍
width
달라졌
고토
양측
파벌
데려오
수수료
헤어지
말미
수평
##icro
Live
라나
##케인
루루
고든
수복
요시다
일품
김원
페르난
호세
생산량
병장
부턴
노트북
Ac
차가운
특이점
온몸
두르
뉘앙스
술탄
보증
속이
죄송
##ins
황태자
여권
들어와서
히카리
멀리서
감기
유유
리우
클립
##토르
할리우드
##oss
미니언
##ru
DB
희대
결사
연금술사
플로리
동래
킬로
그리드
대마
에일리
내릴
미라이
결함
페이커
쌓여
여당
가창
##하이
왕좌
독수리
마차
장동
리조
##받침
완구
교내
의석
혜성
##플렉스
처한
하부
협약
성수
윌슨
자니
쇠퇴
나고
cc
교시
유배
크롤
은혜
아울러
후안
머무르
홈즈
OK
연의
캐스트
다룬다
##gain
##ction
Blue
구두
브릿
정체불명
경쟁자
##지르
Dark
놔두
누명
버릇
##EL
재위
1957
배송
도라에몽
사안
제작비
고성
체형
KTX
원활
가축
부드럽
니카
초교
한다거나
##리케이션
우루과이
아르카
오리진
무사시
저술
프랭
라오
메모
서대
##0000
펠리
##킨스
머릿
전세
""
자크
방과
게시물
토마토
셰프
편안
불어
진행자
천마
강팀
주거
로컬
Champ
말소
자발
환수
더비
말아먹
소비에트
선대
예배
속박
수강
특허
포대
격기
원흉
경순
##na
발차기
분기점
RC
편찬
Im
주파수
실루
유비트
분장
Sun
첨단
##ood
##agon
보구
브론즈
오시
##UT
진군
##자재
가까웠
트로이
게릴라
닥치
##버드
탯이
넥서스
타다
바이올린
++
친목
OCG
모친
닉스
Can
뜯어
직결
일일이
장제스
스케이팅
포럼
리액
들러
Bat
해적단
깨알
날라
선곡
떠날
라트
수녀
MHz
back
타카시
소시
환사
텍스
자손
니나
북극
##ky
무겁
연루
코즈
요리사
DR
거니
유영
205
##토리얼
쓸데없이
했어도
재무
센티
다짐
경감
##페르
미성년
가두
용감
통수
합쳐서
생겨났
키트
기획사
본성
정동
튜토리얼
커트
이창
##지부
주고받
##통수
달라붙
유로파
na
박재
미즈키
열악
열람
무제한
기성
##코스
흘러가
디렉터
수식
데스티니
Summer
대출
금색
##놀이
RP
단선
권능
모범
니코니코
##일으
요시노
##ty
불러일으
플레어
김명
##irst
분홍색
야마구치
넘사
넘사벽
##마치
매수
오클
명곡
##DS
민영
상가
야심
농촌
당주
벌리
살상
브레이브
빅토르
벌인다
산책
자판
도검
##ady
목동
양키스
야시
##land
Korea
##무소
흠좀
흠좀무
즐거운
대대로
Music
탄도
원천
헌신
##소스
제스
중추
항아리
창세
페니
일으킬
동족
하워드
따윈
스파르타
비시
그래프
서초
남발
자처
엘리스
##코프
레이첼
박찬
레이너
##저드
휴게소
함재기
발광
다다
소극
BEMAN
루이지
타나카
##균관
급기
병합
줄줄
1914
행렬
넘어지
개칭
노동당
계란
토이
겸하
프리즘
도마뱀
무진
안산
카타르
기괴
슈터
필연
어느새
베이스볼
강행
반대편
잠재력
합당
생겨나
임원
BEMANI
장안
파산
캐서
악의
##현우
치아
만행
일렉트로
##OID
감전
토로
루팡
나레이션
Fire
##석민
무상
인데다
기다렸
다이스케
후한
설상가
리턴
##프스
윌리엄스
프로모션
설상가상
제휴
##스트림
피에르
##기지
금호
##현진
##마당
인어
성모
재난
OB
전과
피에
##세포
now
학점
교관
김형
댄서
벌여
성균관
밀란
##커녕
유난
650
야기
하원
살인마
노릴
반기
음악가
힐링
정벌
펜듈
펜듈럼
창업
뽑아
글리
조직원
##리히
211
손톱
실습
여진
주심
##곡동
지어
목적지
줄게
마운트
화합
대각
문고
북방
입체
복면
위탁
이질
아타
총격
후궁
악어
차선
포토
광속
지온
##ium
청동
호기심
달걀
여정
평원
미스트
정립
폭동
쐐기
##로프
농락
세션
##테이너
귀중
듀크
치사
GG
시코
점사
Life
CA
뒤통수
서독
진나라
##혁명
계열사
가성
육지
사다
3164
##즈카
##ush
냉전
해수
STR
고령
재판소
##메어
블래
양호
그립
문어
반항
소동
한발
실명
실무
어선
에밀
##기사
달래
##로니
성도
퓨리
Ma
분화
피카츄
스냅
##ount
바꿔서
비꼬
가급
모닝
달라진
스캔들
까닭
But
리엘
세탁
염려
##서야
별점
1951
세레
동탁
호노
Just
똑똑
어퍼
되돌리
##크리트
##르기
로저스
풍속
증가량
204
로코
자수
총재
한탄
돌이
진성
돌려주
투니
월급
내륙
동체
받아들였
일수록
대상자
모른
네이트
스킵
진료
로워
##리우스
선제골
불로
DX
##CH
나이트메어
후예
고속도
창시
지극히
네코
대공포
시몬
해내
플로리다
선방
Ste
잘려
##때로
신대
우아
이복
day
캐리어
##노스케
비춰
##년기
한숨
Sy
##ger
일진
프로리그
##봐도
털어놓
박경
사면
##퍼런스
FFF
하타
향기
pt
감히
남극
몬테
개개인
야드
Dance
에스파
강연
사찰
마운드
박명수
스완
일본식
개연
공익
노블
해임
행방불명
츠바사
출근
파장
할당
##저것
이것저것
현상금
FB
상표
한도
발칸
Gold
여친
석탄
홍성
CON
지상파
실루엣
국산
호로
Grand
주황색
적료
섬기
스퍼
이노우
피츠
연회
테루
##그룹
지휘자
물러났
Pre
오의
회고
산지
저상
Ev
민법
기복
음주
페루
##티콘
1600
나폴리
광전사
VOC
구단주
효소
##레스트
암울
##ne
##블릿
##ally
##일라
HK
아프가
채집
##ution
서지
##줌마
이속
바니
시간표
LCK
예언자
##미스
성체
슬로우
비운
아르메
기타리스트
대주
##준표
괴상
아깝
괴력
차후
콘티
난감
슬리
아줌마
영진
지중
화자
##pr
번트
일식
대표작
피고
관동
스네이크
가브리엘
##징어
라구
매너
전교
접점
망한
나타낸다
구급
파수
파업
열등
바비
##봐야
수락
캐롤
##보그
get
통신사
넘어서
세일
부여받
카이토
사우루스
##마침
됐으며
##클럽
살아나
아델
매스
터트
##미즈
아부
정세
밀려나
TW
Over
놀랐
목요일
케이지
군복
코다
이변
콘크리트
내수
부평
교직
투하
램프
1937
카르마
##사이드
리마
##ator
뛰쳐
ARM
추기
포효
호쿠
경찰관
정확도
아틀레
신축
정자
딸기
때마침
beat
##장난
출루율
한스
미사키
출연진
소피아
전리
박치기
러셀
합창
아이유
매출액
따내
무궁화
UF
변질
##체스
금화
외래
차종
##베르토
홍진호
DJMAX
서인
행정부
예지
선구
회오리
각기
##air
연발
자진
트리스
클레어
뷰티
Sec
코바야시
두려워하
비장
어리석
왠만
남아프리카
퇴출
tvN
픽업
대부
##르드
챌린저
처절
크루즈
대쉬
묻혔
일절
최영
##네이터
배기
개인전
베네치아
백신
코카
세세
##나드
이를
카밀
출중
##토시
아카리
넘긴
교향곡
아프가니스탄
매운
BBC
부과
지날
동창
Out
지침
아제
조영
커비
영리
사극
접근성
고릴라
느니
달렸
한성
마누
볼까
태수
신원
만세
광부
##inc
간선
점거
둘러싼
상류
스릴
간략
회심
경매
경희
딱딱
수험
코요
검은색
리에
부려
이은
으리라
##장이
콜드
##축구
##포스
영조
완수
고요
부대원
스피커
파파
컨트롤러
요건
##츠카
강해서
입힐
풍자
달빛
묘한
상체
리티
양주
El
Dis
but
책임자
Win
전년
미판
케이트
사이보그
##꿈치
강판
사스케
유난히
##동원
상하이
새우
수요일
저렇게
VOCAL
조형
군함
묶여
베이더
총열
빅뱅
외우
은밀
리브
##...
고선
뒤덮
이용해
용맹
천공
후문
계좌
콜롬비아
다비
##휴일
총사령
연구실
소수자
##ART
막아
백색
촉진
천둥
카구라
UI
소감
미술관
잔디
##use
평민
바우
##바시
고속버스
전류
sc
케로
정크
6000
##수스
런닝
##테이
미코토
못지않
자신감
부딪히
밀렸
Mon
예명
##베이스
혹사
기밀
준하
웨어
HG
워낙에
제다이
조인
김두한
영장
성형
안면
##ring
민원
앙리
중견수
판권
##XT
리베
페이트
man
조제
차남
비즈니스
~~
매칭
##LS
레이나
Af
역과
조류
오인
퓨어
이동하
이야말로
권고
레몬
도망쳐
장기간
카가미
Power
임관
태블릿
라자
샤프
지났
학계
##린다고
대문
타니
함포
던진다
사출
##ina
튜닝
##대교
Res
철회
넘어간
매개
정렬
스님
##관총
집결
줘도
취해
후진
우체국
내야수
관하
정거
퍼붓
##히트
간다는
보여서
소절
형편없
망령
380
퀄컴
매진
발전기
기합
오피스
At
호전
섀도
리전
무효화
터질
##소문
체리
건전
OPS
도피
}}}
바주
피스트
혈액형
지자
퇴사
경쟁력
여덟
노엘
였으니
256
솔라
입술
키무라
추첨
나고야
직구
SCP
캐서린
NG
욕구
웨이트
접어들
유서
전전
이성계
조달
제라
Fem
강성
금성
국사
##범죄
당첨
베니
자취
동갑
때때로
카지노
공휴일
동참
속공
와이어
농협
섬세
무너져
아카이
존속
세워진
볼륨
지그
안다
타치바나
어쌔
총탄
김영삼
어쌔신
쌓인
증후
##ittle
무빙
코시
틀림
영미
타국
글래
적발
sm
빌라
뒤틀
경량
##아르
##카스
김택
유포
Fi
서사
MR
거세
옵티
레기
오징어
직역
색채
성역
아르메니아
MX
질러
초고
##라이어
악용
##심장
채소
여사
명대사
휘말려
궤적
가호
방어선
집중력
##베르크
내구력
애시
공성전
건재
부추
화가
허공
가급적
대인배
Sing
카노
조력자
낙인
떠오
거제
본국
1910
FL
등교
##하하
##숨에
단숨에
일으킨다
마에다
장병
도메
저널
페더
##ERO
츠나
SG
카즈마
라드
코이
##de
노기
페가
##춘다
가솔
패미
광탈
넥슨
타나
##be
피드백
gr
지켰
궁지
레닌
쳐다보
횡단
고안
랩터
젊은이
러시아어
허구
부식
에밀리
##ello
베토
괴리
공방전
리트
재고
갑작스럽
정거장
사육
MT
가명
태세
##reen
SV
소용돌이
쿠루
서진
##ual
피라미
김정은
밝힌다
창의
피처
승천
IG
적진
족장
생산력
##대부
세조
견인
예장
근성
돌릴
로사
맞춤
무전
증세
포지
막바지
기미
복싱
절규
##코어
정명
줄거리
돌격소총
통용
군사력
노이즈
휴전
주재
MLB
바뀔
##바퀴
동인지
데우스
Pv
모방
디펜스
Rem
라지만
맥도
바실
건축물
서킷
표방
기보
카오리
Ep
가뜩
친선
추적자
쪼개
역병
##ational
##프레스
원격
쏟아져
999
연예계
군기
대파
흘러나
어인
수군
##riend
발상
##af
아이작
나왔으며
히토미
##ars
파이브
##bs
신주쿠
터진다
하임
##그러
작인
설계도
루카스
결장
소진
출몰
Vo
두부
깊숙
기한
카에
##IE
가뜩이나
초당
카바
슈퍼스타
베드
정은
홍준표
양파
##해군
스타팅
발악
후려
급기야
##ivers
주방
##퇴근
수비진
증후군
노드
네모
테이크
폭포
자유자재
인벤토리
조폭
VOCALOID
모호
쫓기
간다고
##리에
양현
청하
그려지
IDOL
아폴로
리쿠
악랄
초선
오로라
럼블
판서
돌아간
뒤이
타시
포트리스
박격
고양시
Leg
King
수원시
상임
블래스트
시킴
##에이터
애교
중전차
고원
김희
연호
풋볼
베가
##회의
미야자키
마이어
병단
깽판
실황
HT
핵무기
##클레스
스위트
YOU
될까
BF
강변
자유주의
벽돌
just
시스터
차려
히노
이치고
무림
아몬
태그팀
제르
에이전트
제시카
상회
##지리
엄지
##외선
표출
세나
쏠쏠
징징
분경
응원가
코타로
추기경
억압
##SS
일자리
School
신시
지령
##MC
운운
Miss
선도
김창
애틀
CEO
키사
랜턴
1935
팔찌
##atic
간행
인맥
UFC
진가
Rec
GR
대제
풀렸
삼거리
끈질
##일본
바루
##니클
##토미
유토
what
배분
사사키
옥타
고베
경유지
???
벅스
수고
스티커
극소수
뒷받침
밀접
에우
재사
1918
치명상
못한다는
##ern
소피
티베트
마르크스
다단
자바
포고
##itch
조지아
블루스
코스타
당분
알고리
달아나
데카
이노우에
##ts
장타율
빨강
##스톤
STER
별자리
1934
운동가
레스터
Che
리플
허리케인
습한
쿠파
창병
131
아이언맨
놨다
드립니다
떠서
본디
스타크
ADV
'''
기마
일보
국력
손아
임상
아의
##연합
##사전
여고생
플래닛
어드밴스
악한
평면
게임기
천도
하르
##셔츠
고폭탄
##카즈
End
퍼시픽
프론트
방금
자주포
줄일
천적
##날드
로만
시중
VR
##rain
Ge
전한
Di
피겨
쿠시
##스트로
##그레
##큘라
위나라
이가
함경
도리어
독성
인내
Air
쇼군
단골
##tr
마이너스
편대
세간
방황
선보인
과부
군산
##루살
새로이
대명사
무성
입성
##루살렘
고어
넓이
노조미
도도
명령어
성문
알고리즘
묻히
헬스
갈린다
키가
##oot
Mod
줄곧
한심
나온다는
마사키
사부
강유
##노미야
글러브
군벌
메라
if
전편
종일
마이트
야쿠자
그리스어
교주
단조
##칼리
걸작
인프라
토네
멀쩡히
자민
표명
예술가
실험실
바흐
안나
경신
##재판
깨어난
흡연
모여서
교란
남구
##의사
초사
붙여서
드라큘라
서드
취직
위즈
포털
마커
##ren
굴복
에일리언
정유
이화
피리
박주
착수
남용
관악
당기
시립
우크
송도
솔로몬
col
담당자
광신
##같이
체질
금전
작별
단절
타케시
샤크
첨가
비토
악장
##UE
상반기
EMP
아이리스
움직인다
우크라이나
지망
카스미
휘둘러
##55
예비군
집정
예루살렘
해운대
여의도
저격총
PVP
직관
천계
왕궁
콘테
시드니
레지스
관제
이치로
학번
##UR
옵티머스
새겨진
원호
휴일
성추
제후
##데아
그걸로
초원
광석
로딩
추이
토오루
미성년자
메스
건너가
만류
다이나
##rist
night
다뤄
매사
비늘
주범
사교
손녀
진흙
킹스
타노스
도미니
잘리
##ony
보인다는
청색
##ma
카린
##무스
Sound
몰아내
토착
사쿠라이
POP
##쿠로
오디
느냐는
박힌
Hy
염소
키워드
회복력
총대
화요일
##린스
##중국
양도
제식
##사우
문과
정중
연희
열려
광저우
돌렸
##레오
불멸
컨테이너
하세
백합
해지
한지라
무작정
김전
아닙
##세데스
되돌려
메르세데스
##iew
이끈
쿠노
끼어들
요동
고독
괴담
아역
프런트
거주지
DO
유소년
출퇴근
군중
상수
블라디미르
진작
연구자
팔라딘
울려
don
벼슬
##ope
해커
행태
좌익수
양면
유교
조운
##시계
MASTER
겨루
빼돌
갇힌
노숙
대칭
오너
현명
요르
성채
아산
##데기
모터스
바주카
애틀랜
웃긴
신다
어우
잉크
##수엘라
법무부
발트
신디
인테르
민족주의
바이스
시한
에티
MD
고려대
EM
ㅋㅋ
나날
퍼스
징병
##ana
손바닥
유목
아야카
게리온
후유증
빌헬
배지
먹방
##atale
무거
드라군
선비
##어찌
과실
카무이
깎이
굴려
치이
제멋
교육부
조장
커리
##던트
데이비스
프레데
스코프
하야토
상해
Femme
##oon
베토벤
청량
로망
사업자
준다면
##라비아
콜로니
볼리
효력
그닥
SO
Cat
사에
옮긴
저리
칼럼
시그마
way
끝냈
황족
휘말리
액셀
##패스
명작
이마트
농어
##ox
BAS
애프
의거
이안
빈사
##생긴
어찌어찌
나진
레이터
##ield
대용
재팬
언행
마도사
라지
맛보
브라더
금기
일부분
득점자
경인
박준
사우디아
얼핏
##천동
bl
학업
텔레콤
섭외
성주
가치관
애당초
##22
티코
베르크
빠질
다나카
베네수엘라
역설
EA
미토
1100
이관
매복
수산
##안군
무어
소심
우시
펄스
##노이
쟁탈
##무장
1932
극찬
타협
##야샤
이누야샤
WE
생사
흑백
각색
경장
한몫
리노
강해졌
친밀
활주
##의정
##레미
##olog
알프레
진해
트림
##티어
드러낸
1931
그놈
피라미드
광학
##가요
1933
XP
수준급
링컨
민국
알코
이우
초토
해인
선체
택배
미지수
대잠
보답
총통
겉보기
폴더
친위대
사바
이윽
이윽고
나눌
증원
어둡
재혼
##언정
확연히
아루
패기
대두
양념
창원시
아그
브릿지
조율
돌아와서
일쑤
어떨
중앙선
광주광역시
피어
강적
##변속기
스루
##Fatale
전리품
조선일보
FemmeFatale
아멜
중얼
With
반말
병살타
Hard
성가
자연스레
여겨졌
Run
다던가
스테이트
내려온
효과음
빅터
외출
위화
카도
안토니오
##다닌다
다정
마모루
건의
미타
##징가
시력
타고난
참패
피곤
##돼지
XXX
자잘
쾌속
지중해
다인
김전일
끌어내
마징가
부회장
두께
바하
추석
임용
복종
CT
가든
칭송
연비
##AA
후타
탈옥
번영
##쿠버
엇갈
##무진
반다이
##블랜드
수작
맞히
미셸
성폭행
미디
토머스
340
부화
클리블랜드
Not
정장
##니치
중령
쏜다
커브
머물렀
전념
##리즘
폭발물
유수
든가
봉황
느낀다
게리
알아채
App
가토
카가
직감
셜록
신이치
이스터
진공
치뤄
가솔린
손흥
승기
안테
찍힌
##elf
Rev
슈타인
가산
여건
##암동
입맛
추대
토하
##ouse
도전자
RS
놀림
설득력
말장난
프랑켄
소이
1928
##선거
제정신
캡콤
214
따라오
##사의
기병대
CCTV
식신
스폰지
동봉
송구
흑화
압살
RG
충주
환원
도망쳤
도널드
토탈
호대
##레트
성공회
셀프
제이스
생겨난
dis
후세
부츠
다른데
명인
채무
술법
##저트
예리
키퍼
난전
악세
Da
꼭두
바늘
치중
환각
체조
게재
손흥민
발해
사용법
든든
무의
쓸모없
스크래
박격포
듀엣
외무
아지트
서문
송이
쇼핑몰
##75
VIP
가출
입힌
장래
시동
##인드
쓸데없
의병
페로
기와
접시
안도
서식지
순진
육식
충성심
키리토
마포
경위
##투수
SHOW
좀처럼
피신
뾰족
미라클
유감
##무니
밀어주
재사용
##폴리스
재해
##둘러
허세
부름
패한
협곡
반칙
스왑
분사
마작
삼각형
메테오
서면
광양
도호쿠
완전체
공채
위생
선발투수
봐선
아종
괴롭힘
변종
##아아
아즈사
어긋나
##드립
##득점
상권
선진국
진과
부서지
사우디아라비아
UM
임하
트린
시궁
계보
육박
날아간다
Elect
임창
하코
관습
##로이
오스카
마음껏
사각
서북
기만
윈스턴
돋보
시구
RAW
북유럽
어처
온화
평했
아치
무너진
시위대
리포트
초식
##방향
빌미
혼종
흘려
##마사
##라이즈
불가사의
종자
폭사
##컨대
co
##ORE
미츠루
Ke
141
She
학창
310
대강
동국
체이
사마의
순조
호노카
체가
8000
만회
데이브
제비
망가지
잠복
펼쳐지
스플래시
정인
##투표
격돌
결별
뽑히
작살
꼬이
액세서리
취했
저번
카세
##we
##ecial
가가
석궁
최전
홈구장
도르트
서부터
마니
동물원
에리카
연주자
백미
조세
현행
제구
사위
향수
입학식
구자
철학자
사과문
따랐
패트릭
Get
낙원
버지
김혜
입당
협의회
사다리
존댓
존댓말
대여
아픔
앞쪽
발산
패하
옐로
수법
정적
해한다
행해
탄종
풀백
##조각
단테
대관
디에
##요환
홍대
본문
##asy
제이크
호스트
##ane
아벨
포르노
라거나
수렴
##66
승부차기
콜라보레이션
불사조
##케이
가네
샌디
우기
평정
##its
##치오
DT
두드러지
Ang
스크래치
애플리케이션
world
상정
##슬로
김세
블레이즈
사설
나타날
고를
받쳐
어려우
느껴질
비석
임요환
##28
한해서
##네트
오미
수레
와우
정제
어처구니
비정
드러낸다
오리콘
시엘
무자비
1924
정류소
터트리
##미사
열풍
까먹
##러드
꺼지
왼팔
유죄
프레디
최면
##히사
white
크로니클
거물
당당히
듀티
엑소
김인
480
스튜어트
대담
속삭
송병
설사
헌데
식별
학파
베라
소인
스몰
##짜기
생각나
기각
##먼드
순교자
진한
차세대
쫓아가
강당
볼텍스
제이드
분수
지켜야
양동
##EX
왔으며
재선
느냐고
뭉치
촉구
안장
##ze
밸리
손수
들어선
SW
알루미
앞장
영분
처했
침체
007
키운
헷갈리
##용차
끌어들이
원동
가까스로
밀라노
박병
더스트
수배
0000
Cy
다이브
로드리
탐욕
한조
대전광역시
추산
프리즈
부합
시애
하드코어
영락
헤딩
선공
열받
대변인
니키
스칼렛
지아
우익수
콘스탄티노
su
노브
##ness
##그라드
망원경
난동
베른
720
주주
사이퍼
기총
착공
플랫폼
어비스
##링크
네메
전태
##포로
에덴
Song
목성
Big
다이어트
Comm
시저
호조
해서인지
사이언
발렌시아
국무총리
##24
비약
자위대
편제
합방
Back
선명
모을
부풀
처단
##인간
클로즈
만두
동포
##appy
주작
데이빗
도르트문트
420
팔꿈치
강남구
애리
마른
신민
정무
Arm
류현진
##틱스
안드레아
##매매
마더
##도니아
선교사
이과
##즈마
시애틀
노렸
의미심장
막힌
안치
디트로
디트로이트
서점
불태우
교구
바시
광화
검찰청
빌헬름
레트
커먼
##다간
불린
승계
안기
품종
황자
삽화
화수
##지대
방대
빼앗긴
망자
익스프레스
유쾌
##ny
출입구
화장품
격노
이산
동대문
코리
코이치
대한항공
오버로드
매거진
##제리
조선인
리젠
##테리
##벨트
항로
목표물
##ke
교감
누군지
##평가
바쳐
틀렸
히로유키
특권
쓰러진다
창출
Order
유명세
##제품
##RAM
##sc
##슬라비아
유고슬라비아
끼쳤
적정
##부대
주어졌
1929
거슬러
미주
##드래
대각선
##모자
바바
1911
빡빡
##제이
브란
민병대
와이드
돌아보
포화
골리
역기
로마자
잠금
노이
착하
후일담
알루미늄
대장군
Skill
기라
설레
리액션
기쁘
카야
테크노
젤다
스케치
미련
나우
내비
거느리
단신
전복
갈기
꼭대기
서재
정현
택하
치른
프리스트
송파
방랑
헤매
마티
커넥
인디언
con
주군
두꺼운
>,
##35
김준호
대머리
법령
뭉쳐
KS
던질
플러그
망해
배척
벌칙
선천
유추
집정관
독재자
농부
서커스
##chor
스탠다드
웨일스
매입
주성
씁쓸
TB
나주
케네
##평군
리조트
태연
사이오
타라
퇴근
안드로메다
첩보
##공격
클락
허영
##어쓰
오드
인즈
차출
UR
박세
마고
겸임
발효
1925
시즈카
문의
아론
열전
Every
페인트
떨구
사토시
자택
과반
행선
좀비
##느니
##let
김정일
토네이도
세균
퍼트
버금
노후
새해
수분
일직
졸개
토의
무협
정규군
연기자
##실히
당분간
오재
보유자
PSP
cl
##나간
서경
윤종
투르
분교
국정원
디테일
병영
입상
조회
##푸스
난폭
장단
경이
내년
모티
##UC
태고
##예프
양아치
##니트
##AG
운전자
다라
짤방
석화
영화판
리히
That
가즈
밀린다
비행선
사상자
나나미
위조
알코올
어휘
속옷
총사령관
바쁘
##각시
상대편
마늘
수반
왕녀
난해
1917
성추행
커터
구이
느긋
성취
##자카
qu
##파니
208
해협
화랑
이에야스
활주로
간식
동거
##눅스
샤아
가차
단거리
##양군
지독
전염병
생리
치타
##패드
비숍
추월
##작전
쫒아
합산
##타자
##페스트
나선다
노랑
조비
심포
공병
얼리
괴도
크래
갈고리
상경
조그
펜스
선발전
프랭클린
te
국수
온전히
지체
라운
춘추
마장
이따
자석
TCG
인민군
신종
##자루
격하
졌으나
##비우스
시노부
복권
점하
홍수
자부심
단말기
늘어놓
불리우
스펙트
개화
마는
숙종
켄타
212
츠카사
리눅스
공직
에프
출세
넘어오
역전승
해저
##버거
펼쳐진
마그마
비욘
원산
##버릴
##정역
##애미
세이부
관광지
유행어
##bps
쓰러졌
Des
마이애미
최진
이어인
동남아시아
교재
대적
제멋대로
Har
##레인지
##운전
갑판
위임
##바위
##ert
교원
콩고
초급
잔당
토요타
낭만
불운
##ious
##정동
볼프
나츠미
FX
등산
의대
171
##ient
라이터
NL
Top
가주
앞마당
왕따
게이밍
타쿠미
구세
튜너
항쟁
235
##마이
모건
요일
침식
##단체
올리버
체이스
판본
##net
연방군
슈타
무너졌
채굴
능동
떠들
##모사
스펙터
GL
##렉트
파열
영창
자의
파고들
개종
850
유체
Tri
누마
법조
심부
##위치
의리
##비히
##게요
EXH
##유산
크리스토퍼
벗어날
야채
##노기
##ret
사절
255
이제동
태어났으며
1927
조슈
FR
농도
##ideo
으라는
후작
NS
..'
서스
##리아나
패거리
##라이터
다이너
악보
리오스
키웠
##라이언트
어중간
일선
직계
가한다
키메라
푸드
관대
근래
정진
마츠모토
가변
##튀기
플레이트
심플
영기
장녀
##니지
레이크
일찍이
백악
비대
법정동
클라이언트
마드
래스
뻥튀기
##pl
주임
RF
해밀
데려온
안타까운
구치
##호도
##olution
신한은행
Amer
골대
헌병
##둘기
공전
는군
중산
와일드카드
내심
미완
매트릭스
반하
어로
햇빛
어지간히
바트
왕건
슬퍼하
꺼리
##토록
Em
용품
초동
싸워야
모기
206
스플릿
가메
갈릴
채울
카멜
##주곡
트리오
연평
특출
유니버
이의
상고
쫓아내
이승엽
유세
애틀랜타
부메
나탈
바란
자며
했으므로
안중
투기
PO
텐션
DEF
드레이크
인신
##IST
##자스
LCD
작렬
바쁜
펼친
off
삿포로
아름다움
몰린
##co
경호원
전한다
##버릇
소량
##ERS
각본가
유민
##비언
버디
오아
인스
정직
흐트
리바이
면은
사역
성남시
댄다
##피어
알파벳
중공업
구애
벨벳
이지스
우로
주스
켄이치
##교도
333
게르만
장학금
피크
Act
프라이즈
기통
##러미
벌어질
UFO
부메랑
요크
프레드
깨우
원제
가쿠
정경
드리프트
치부
데뷔작
209
##러기
도왔
앨리
이메
메아리
이신
카터
파드
청주시
##ful
엘런
##mania
ve
판도라
절묘
과다
괴로워
290
Pe
지바
지친
kn
기겁
LS
케르
구했
메소
우메
줄줄이
꼭두각시
남원
달했
##노프
이어질
도망친
자드
작물
##다르
##누르
무난히
튜브
KG
사비
코지마
##렉스
리투아
암석
토템
##틀링
리투아니아
동선
소아
정종
소음기
##ner
뇌격
##ham
##고쿠
TD
버니
형법
##사우루스
특공대
팔레스
토와
향했
미뤄
주름
츠루
##캐슬
인기투표
내려놓
Bar
Fre
215
받침
진전
쳐내
받아들일
선풍
친근
오바마
가창력
트레이서
데프
서둘러
스쳐
성녀
외야
단단히
세단
반달
##하니
아니하
Ext
소중히
접한
##조선
비틀즈
루즈
##하늘
런닝맨
브로드
어기
##럭스
AMD
시정
알림
이민자
##태우
시궁창
God
자연수
데일리
##뜨린다
Str
1926
아닙니다
생계
통역
데스크
송곳
희미
나루호도
되려
레미
다이묘
뉴캐슬
반가
항우
독립운동가
달라서
둘러보
##곡리
모를까
동산
##ning
GDP
괴멸
부두
나가사키
브라우저
탈리
Hot
꾸며
빼내
팩토리
Bea
재상
##미아
가중
Ab
경관
##캐스트
##ERT
STAR
오마주
규명
RAM
anchor
덩크
키움
위화감
김제
살린
우투
앞둔
음양
##ump
아우구
세워졌
샤이닝
가세
클라우
나츠키
어린애
Char
항소
성종
전폭
자정
보전
##서리
고스란히
러블리
새겨져
'-
케네디
일지도
가신
뚫리
레고
##ward
심심찮
마카오
Met
Rain
심슨
시발
다구
점포
##day
우습
Sil
굶주
통한다
소셜
초중
every
대의
서남
중소기업
공시
마천
최성
헛소리
알맞
##뜨릴
##ATION
위인
인장
데이즈
FN
##여행
경상도
랄까
무심
탄수
붙잡혀
오일
최적화
간장
동유럽
산호
##레즈
박민
투여
**
뮤즈
만화가
해결책
빠져서
수리검
넘길
시르
영재
체류
이시다
want
노사
##상스
아이리
뒤따
성령
앵글
뛰어났
로페
이목
재화
FE
이분
White
##88
##겨서
비하인드
Inf
옥스
헤라클레스
랜디
찬사
치도
##내기
밀어붙이
최우선
신촌
1400
헌납
yout
세무
팔레스타인
빗나가
채권
셔츠
경의
미얀
인피니트
기판
대리인
레비
로버
문호
비어
##매니아
카자흐
제각
십상
눈부
바사
주시
수료
유우야
이송
계승자
사생활
코나미
KD
로니
명품
북두
맞물려
루드
충동
성동
바람직
진다는
알아듣
군단장
수영장
안테나
세토
조승
현수
역관
타지
평지
밀러
앤더슨
김태균
down
최재
한다던가
긴장감
more
단다
멸자
과잉
황무지
녹여
오덕
May
몰렸
불분
버지니아
길목
오피
애리조
##대표
건너편
정연
포이
207
마케도니아
그물
키바
감속
스트레이트
이로
이치카
Pop
빈스
울부
잔여
살릴
끌어올리
시세
IDOLM
다이렉트
주부
한인
도보
개틀링
권역
빨려
오퍼레이터
대도
발령
로로
어때
##살이
저스틴
여행자
근로자
Master
청문
장막
주권
내무
흑룡
##소통
배럴
터무니
대한제국
##트니
##대군
의류
의사소통
어머
하렘
##son
지자체
따라다니
저러
한결
창세기
하데스
내려왔
편집자
노마
영국인
##드래곤
투항
##뮤직
부녀
분과
##au
서울역
유부
##ANC
체로
올려서
PA
외교관
우사
자음
##oud
농어촌
냐면서
병맛
머들
박기
심리전
##ves
익명
튕기
아르테
사단장
감도
나이지
단연
나이지리아
치밀
몸체
포유
##피탈
Game
뺏기
고모
대입
숙명
초연
나기사
공석
카프
불분명
이범
랄프
멧돼지
지갑
##실록
노동조합
무법
여객철도
OR
사병
촛불
플라워
요하
스펙트럼
나시
는데도
로자
충실히
수년
분전
수뇌
안식
외쳤
죄인
##마츠
161
경희대
미분
they
끝판
며느리
감시자
##지물
1922
사카모토
##ift
내걸
송라이터
으시
티탄
행동력
외로
데려다
여대
란트
체급
둥글
만화책
거신
리비아
엠파이어
##ship
즉석
전용기
명확히
서유럽
호타
불러서
날릴
##ape
애프터
COM
너구리
동독
쿠미
##블랑
유시
제품군
성검
중심부
울부짖
Are
경시
한중
카에데
신령
##감치
GAM
그토록
기공
##원군
공적
오반
##찌감치
피고인
체르
치세
미하일
들통
경합
리언
1923
열렬
놓인
##레인저
지출
체내
세츠나
##틀리
TN
행각
WAR
기생충
국물
무로
절약
역전패
간편
민지
터리
1921
고갈
구만
기린
자재
##현동
TG
외래어
김택용
##lock
좌석버스
불가피
카트라이더
반자동
차마
원한다면
메커
산출
요양
몸집
트레인
Bu
재빠
무네
Bra
조로
520
나데
##을지도
only
로미
##쩌둥
언론사
마오쩌둥
##ien
아노
마우
크러
##도사
시프트
익스트림
천문학
Yeah
부설
아킬
버즈
젠지
경전철
##관계
마비노기
애덤
##장구
속했
DA
단번에
의약
필기
##less
사시
준장
쿼드
비둘기
##ize
스노
특색
news
학부모
소망
짓밟
크림슨
##산면
아만
이장
라데
요지
도타
순순
##zy
음식점
루시퍼
니콜라
Cont
마취
##LD
완패
절감
케어
디디
##니케이션
메이크
솔리드
피니시
리시
헤더
성급
커뮤니케이션
오스틴
pl
터미네이터
걸스
신공
제명
하얀색
등용
아란
프란츠
제네시스
일컬
##EE
이라든가
##형제
탤런트
밴시
티나
산산
예하
Hea
창간
서약
친화
트레버
인분
사라질
가야
레베
쌓았
##45
월터
르네상스
항속
장대
활기
##마드
##led
셔서
유스케
##고루
##omb
아껴
일갈
강령
섹터
인다
전투원
자치구
당근
아세
궁정
극동
일생
포괄
##준호
비범
콘테스트
영화관
남아공
다마
설문
##마트
구스타
쏴서
붙여진
급여
노스케
무패
붉은색
구비
종로구
뒤바
운임
어려서
간첩
폐하
거쳤
급제
독설
위태
돌아다
독도
저거
포진
단간
댈러스
##기어
출생지
재차
##ited
Project
교직원
##HD
##법인
그지
락스
온게임
팀킬
온게임넷
와타루
7000
세련
리포
민속
##문화재
복부
##소타
Joh
회자
##조작
##ALL
Off
온전
자위
Battle
불허
이상민
TEC
응징
붕대
생포
##람쥐
1912
쫓겨나
외침
TF
세실
플라잉
불안감
선상
정선
이유로
스릴러
다트
메츠
우동
계약자
순순히
##ita
승부조작
밀쳐
유다
다이빙
정주
발자
배고
회유
이어폰
팔려
##준혁
JC
선별
Open
톡톡
##ORM
동이
성유
반죽
원상
태후
##ton
DDR
~'
가져와
정국
협공
빵빵
성품
조나
척하
##29
순차
천연가스
wiz
칸나
우와
아이슬
Sky
돌풍
이도
지못
지못미
화내
패미컴
Moon
백지
나뭇잎
치를
브룩
전투복
조니
브리핑
케미
번거
우이
##플러
......
221
##ENT
BASIC
이석
스켈
##선스
연장전
나지
노원
조부
관건
기염
알비
미네소타
앞세워
일직선
777
얀데레
몰려오
맞대결
good
##23
카르타
구워
힌두
저력
타츠야
라리
전라도
하늘색
레코
##row
##27
1300
맞췄
부서진
꼼짝
섭정
야자
끼친
소주
짤막
급진
미카엘
넵튠
무너뜨리
##개골
네타
카즈키
감염자
Like
다듬
남짓
##com
##위원
내려찍
체구
아이슬란드
무모
성원
마코
청취
라이선스
초회
바꾼다
수족
WCS
벌어들
##ling
멀린
라든지
매도
소탕
희박
경비원
김현수
Special
화속
2022
남긴다
순항
오모
음란
흉터
여느
갱단
거둬
졸지
비밀리
beatmania
##의지
니즘
방어전
개드립
##타기
반짝이
네메시스
Bad
눈썹
소프
류지
탈탈
노프
샌드박스
아틀라스
도메인
재주
비서관
탄다
강호동
##교회
마자
톱니
누락
온건
검거
특촬
관현
둔화
막말
이나즈마
보인다고
낙하산
정했
중사
음모론
루리웹
경영학
디에고
하천
TT
때릴
탈주
티셔츠
일정량
산체스
빼놓
악인
업자
이북
릭스
통학
데이터베이스
Soul
숨겨져
합금
바이올렛
##일관
파병
##레타
백수
치과
다이크
추위
팽창
부상자
Med
코팅
는구나
세이지
##rop
미달
줄리아
프라이드
급상
주립
탈것
##카르
성범죄
착취
채운
##즐리
원로원
사죄
임프
브래드
둥근
벤츠
213
드래곤즈
##방식
거창
잘린
조개
반대쪽
이천
이시카와
크레이지
급한
지폐
##트리스
마셔
호라이
칠흑
##UB
진행할
##아라
박태
키나
서스펜
형벌
end
Po
##vent
마사무네
티타
Hey
over
정관
피쳐
환불
생방송
입혀
쪽지
대지진
FBI
##산리
모치
픽처
이메일
쓸어버리
일간
##line
##ute
Now
WOR
무당
물들
반납
일파
조현
자기장
시빌
Dragon
성희
Bur
여하
조원
223
몰라서
유노
##play
시킨다는
페트
명백히
our
##부리
사카이
철벽
##xt
##나들
275
아브
내려와
밀양
밸브
##메르
드미
해프
햄버거
히코
전갈
메커니즘
놀란다
##지기
##먹이
스탠딩
막스
부통령
키울
baby
관용
지질
##나가와
다친
자자
파괴자
정부군
래쉬
##stem
001
니즈
미처
#,
신봉
이바
지나갈
##oney
거처
세속
Eng
뽑혔
미유
에테르
넘쳐나
장동민
매점
피버
순례
버퍼
치히로
##소니
대장장이
헤지
fl
성운
돌린
브라이
왕립
처한다
급습
원나라
거머
1907
헬로
##방사기
화염방사기
하시모토
만장
민심
연성
팬클럽
##96
스탠스
수차례
폭군
구루
길러
마호
일찌감치
자선
본드
액트
ac
신탁
옥수수
손책
영령
구스
에로게
퍼진
비행장
개관
무찌
아카기
쓰러뜨린
Way
코브라
##규어
일개
##글러
올리브
제너럴
던져서
민사
급증
파나
강서구
결선
인승
종속
##두근
슬쩍
퍼졌
Alb
##FFF
노보
##IGHT
골리앗
##미츠
결단
외환
올라온다
불러오
패권
수당
원어
지으며
##eng
설립자
써니
해프닝
수납
레그
see
겸비
볼일
스투
마리사
라이브러리
1905
관전
바빌
암기
펠트
스스
황소
카논
연대기
세운다
아다
케니
테슬라
행군
##벅지
새신
디비
설교
포자
##말라
럭스
문성
##lt
번번
수퍼
참모총장
라파엘
뽑힌
제국주의
탄두
튀김
갈아입
DAY
러시아군
골짜기
아득
빈센트
뒤쳐
태백
슬라이딩
Int
송신
##나우
365
거쳐서
갈아타
Cent
린다
방관
엠마
조문
max
악질
##라트
속사
미나토
Comp
망설이
증진
향년
현무
막혔
사드
초전
##는데
전령
벨리
티모
모리스
일괄
쓸쓸
희생양
Match
타케루
앤드류
부기
##툭튀
선글라스
##시즘
지쳐
##홍철
골고루
##영향
수송선
모로코
료마
클로버
Ass
갑툭튀
거행
극성
은가
코일
코로
216
대구광역시
최형
두개골
백두
지탱
##26
보급품
바깥쪽
맡겼
변모
제드
블루투스
반주
총구
명장면
검출
데니스
내줬
"'
미용
사생
거니와
물음
Yes
욕먹
초필
충무
템플러
명실
밴쿠버
본거지
자결
##탕스
##건설
370
레지스탕스
끊이
언락
왕성
구라
다량
동아일보
마공
프리드
막론
파기
리더십
say
블랑
시베리아
NAS
최하위
폴라
서프
여명
정한다
행세
Fla
증강
사업가
레프트
right
사주
알제리
이남
자판기
복식
메두사
어부
재규어
걸치
격납
매지컬
이문
암흑기
저질러
재발
푸른색
덕택
미공
수속
승하
정대
##렁이
서유
토토
두른
만년
코칭
도망친다
떠올랐
kr
매매
양육
##세이더
크루세이더
경전차
텐더
해발
달한다
세레나
소란
한복
##열차
##ude
교제
##독부
##데라
포상
메르시
어진
자릿
##맹이
이달
전위
CIA
블레
##천리
##원지
장기전
Ook
##내셔널
인터내셔널
부르크
사파이어
좌완
드래그
광동
하버드
포레스트
PvP
잠식
##ata
레오나
약해서
찍혀
베이커
SUP
##공주
에어컨
아츠시
봐라
사서
왕세
토사
하남
구실
##큐버스
케로로
오카다
수혜
시오리
공안
사력
연화
폐위
선역
시연
Last
아날
몽땅
XY
에러
총애
호우
상승세
시종일관
우즈베
거미줄
동맹군
IF
보호자
척추
밀가루
차오
이터널
개찰
부술
장담
화판
##고스
TWICE
무안타
결투장
누님
슬러
차갑
현질
바드
부전
처방
##ius
북서쪽
쟁탈전
거유
명왕
래리
크로노스
떨어진다는
헤븐
##스코
카메오
소름
양지
쿠퍼
명은
화질
##집니다
자멸
급상승
아랍어
플레인
마실
야구단
도입부
440
정윤
공중전
막시
어쩐
미약
나카노
##III
빅토리
##이프
##red
부적절
수뇌부
배반
유족
마운틴
난장
적기
나온다고
세비
자치령
##나시
하반신
였으므로
기어이
간직
벗어났
의존도
입니까
추상
순삭
##오피아
에티오피아
팰리스
이강
불발
Core
BRV
무소
##ets
달린다
퇴임
자백
크리에이터
될수록
정보원
늘릴
지도부
이룰
한국군
Mir
Show
죽임
##76
##ated
납품
시라이
보이드
there
스맥
좌상
발병
##매치
##ara
두각
왕정
이긴다
철퇴
카트리
관세
츠바키
감찰
석가
아이젠
배급사
돌기
최장
필승
예매
원반
국내외
스맥다운
덤비
쌍용
공민
비잔
Nor
네로
데스매치
1908
##페어
취할
편도
조선소
가했
원성
백룡
센트리
##cl
사이먼
깜빡
임페
신약
질수록
피칭
쉬우
장려
##가타
his
배운다
걷어
아리사
HOT
정몽
프론티어
나트
우대
크리드
들이대
소모품
MI
수전
저축
횡령
승낙
또래
갈구
보름
시어터
악수
얌전
퇴마
바이퍼
##44
##테리어
보좌관
대북
견고
묵직
테츠야
능하
끝낼
판과
리비
적도
아레스
호화
pe
##천역
밝혀져
가넷
오보
micro
끝낸
신격
자가
필적
잔재
바운드
##일기
슬로건
성단
솔루션
물류
엘소드
에노
모탈
위아
##ely
반려
수박
슬래시
연하
연못
tw
승승
원자로
몰입
통근
노태우
밀린
##산군
무방비
Mark
문인
쿠도
투석
시녀
##테면
컨퍼런스
##거스
저항군
신빙
폰트
전문학교
변속기
오산
란다
미얀마
노획
후지와라
얼룩
커맨더
If
##이즈미
이를테면
##UST
빈곤
소나무
제복
충공
근위
컬링
갇히
비열
다크니스
에어리어
각별
뜬공
Art
지명타자
Best
레니
First
차린
##영수
##임수
이니셜
고른
팝픈
혈관
팝픈뮤직
깔리
쿠폰
RPM
수제
허술
난쟁이
##디난
##선다
엮인
이탈리아어
스케이트
Sur
블리츠
서태지
got
남산
##KO
오클랜드
김소
악영향
터프
튀어나온
##워했
삼국사기
호르몬
해낼
How
험한
놓이
##더스트
가늠
맨날
베아
빨라서
그제서야
파주
첨부
액수
돌봐
재미없
크리스티안
who
들려주
시미즈
츠치
틈새
##스기
##OCK
용왕
id
큰일
허벅지
식인
여운
커져
칼리지
-.
부피
직면
통찰
금서
Sl
고뇌
쓴다는
열광
Christ
언론인
##85
Ap
어딜
히이
근방
인플레
평하
219
##INE
이대호
심해서
위안부
감마
이형
피그
##니르
분출
샤르
간절
연합국
압둘
이규
##넘기
가르시아
중론
페달
훈련소
구미호
##ga
부토
푸쉬
아스타
알몸
웨딩
후카
자유당
##udio
해밀턴
어쩌다
틀어막
##질러
##ERF
문관
사하
무리수
평의회
머릿속
토코
거라
한족
시리우스
비타민
린치
Down
소폭
김신
난징
복각
급속도
RED
망할
중화기
FFFFFF
임페리얼
저음
남친
곧장
정시
스피리
책봉
Never
NA
엿볼
졸라
##푸르트
동급생
추론
갈려
##ric
유창
Sam
투르크
포메
950
벼락
처해
키치
낯선
민트
전황
오자
##만도
Tour
겉모습
약수
키프
마키나
말살
파탄
feel
도망칠
군세
화전
##칠리아
송병구
밤중
백과
벌일
##work
눈치챈
Free
NAT
들으며
티거
활약상
다지
추운
##통일
하이브
540
아유미
##ther
골수
금곡
닛산
덩달
시커
나오키
##ley
퍼니
내쫓
소홀
잊혀진
이조
용인시
고고학
매그넘
활발히
화룡
Na
시술
김호
단타
Side
버틴
질질
검도
뚱뚱
전우
이뤄졌
대나무
동결
장자
##세우스
마토
아이오
받아들인
##ux
지저
가르쳤
진다고
된다며
GX
화끈
416
GPS
미움
Magic
튀어나와
병신
환산
리벤
옵스
편해
##NG
##HC
##럴드
전쟁터
독단
카츠키
하쿠
분비
중의원
키쿠
일기토
나리타
궤멸
그분
와도
제동
조짐
사쿠야
사복
영수
개리
선후
한들
##다듬
치워
##erm
미니게임
동성애자
yeah
치곤
##hy
엑셀
인테리어
투수진
페이퍼
Track
몸싸움
##황후
세가
전패
겹쳐서
##요리
정치가
미완성
서동
판명
##제프
투표율
곡사
로선
외장
유역
허니
탐험가
페미니스트
이반
엄폐물
토바
트라웃
개더링
다채
형주
지석
통영
Sim
정승
박차
까다로
##사관학교
동남아
갑주
개헌
9000
직진
창시자
상서
배틀필드
정착지
내공
로토
픽처스
지하실
시속
##피드
##답시고
KN
조선총
박히
부디
전곡
검색어
진범
페라리
해설자
체크카드
KCC
라르
스커
##가르드
경비병
엠블럼
내준
다발
끝없이
태어날
톰슨
제곱
거액
동그
아재
알프레드
윤성
차인
충원
태양계
마크로스
신년
##ird
조선총독부
KA
랍시고
한미
공연장
살아온
바그너
어시
마라톤
한눈
##도스
Pol
면도
야말로
퍼블
페드로
흩어져
포식자
girl
보리스
사학
알트
성희롱
City
프리킥
노선도
PM
체하
##전쟁
##생물
조공
##스부르크
##월드
화보
대영
245
드러머
오아시스
Happy
##이인
스턴트
이뤄진
방망
공황
불계
대구경
난데
Party
##사람
##고생
##BOX
깨진
절제
축출
밧줄
##삭스
일어서
광화문
충공깽
슬립
우여
포섭
Edition
두근두근
##UL
##덱스
미우
현종
지상군
##리아스
김한
잠정
족보
플랑
##rew
##김없이
야마자키
Perf
메탈기어
AW
초계
##니컬
험악
##21
골절
재결
능욕
스러웠
평준
##소년단
비룡
야인
잊어버
짱구
캄보
##슬쩍
090
라카
멘토
오도
##디우스
벤트
##UK
청문회
라다
카르텔
의뢰인
##파일
Cap
낙동
BP
YG
클럭
넷째
쥬라기
Fall
숙지
234
고아원
di
신천
쓴다면
할지라도
물결
미코
샬롯
성시
이츠키
Final
실감
천왕
치프
옴니
초딩
콩두
엑스맨
아와
약사
코러스
##aka
선율
##코스터
가져간다
로어
아날로그
RT
모였
왔으나
그리폰
끌어당
##yes
퍼플
수사관
life
원치
후후
그러다가
EB
블룸
즐거움
박병호
차우
삽입곡
엘릭
롤러코스터
토우마
애니메이터
권하
난다고
다비드
226
싱크로
Will
신드
##ris
난장판
우디
##미트
249
알바니아
엠블렘
부우
주화
로스쿨
김하
야스오
동명이인
미식축구
송나라
아야노
규율
붙인다
##거래
판단력
마사토
포구
##달리
출국
이어주
로렌스
풀이
블로킹
PT
세바스
허다
부록
잠든
스트림
악평
안톤
메트
밀려서
위닝
##레톤
방사선
망각
##오버
##분투
시프
주지
카툰
호각
소방서
업종
북동쪽
넬슨
도봉
바알
사냥터
소나타
티라노
방탄소년단
만성
백병
Angel
호라이즌
생식
토카
남인
켈트
우선시
메가트론
RX
저명
스켈레톤
소양
카자마
길래
관현악
##해져
야구부
유승민
분양
치는
Stage
Net
뻔하
Spring
make
강진
흡입
##게스
효용
겁쟁이
이룩
적과
##린트
클라크
귀한
니퍼
여긴다
재보
맥시
##que
##arius
최원
SEED
낮춰
우먼
217
곧이어
팔렸
보이즈
함유
스테이크
오리지날
WHIP
상소
퇴직
410
참수
컬럼
들켜
찾아갔
신태
##하임
배수량
김은
방영일
BMW
올라서
증대
엘더스
제주특별
##자치도
제주특별자치도
##ONE
경순양함
카라스
##재욱
인삼
재일
동률
슈리
흉기
##tain
##곡절
사적
속주
싫어한다
린이
Boy
플랜트
보성
파비
Club
생몰
예민
우여곡절
루돌프
##ision
자행
에이미
라티
웍스
그레이브
주루
깃든
모셔
애시당초
하강
괄호
반도체
기교
론가
멈출
전자기
질려
해온
깐다
디럭스
호족
표준어
샌드위치
ff
챙겼
올레
슬라이더
발사체
다이어
도래
##모델
경부선
요가
1906
월등히
혼잡
228
ABC
BW
소품
Come
Great
사요
##str
RR
미상
빨아들
압승
##걸음
233
매료
산전
좋아했
중순양함
레바논
해낸다
향토
스러움
잔존
##폴트
라이토
계약서
##보스
최연
애니플러스
가맹
예뻐
익산
한승
##95
Cor
겨누
경멸
초라
토드
파커
캠핑
마석
기울이
리만
내용물
##ASS
검기
억양
아돌프
루기
##ader
김시
칼질
##올로
##ama
혈압
모자란
교무실
재래
##OWN
궁궐
싸인
치토
##러져
옥타브
박한
유상
잘생긴
##부사
고철
미도
과열
이보
##ague
고드
기념일
소대장
악단
양말
독살
여중
티르
보그
##신기
##블루
쓴다고
part
수만
천진
캄보디아
골격
철자
커진다
용호
중대장
미네랄
Class
황폐
트렌드
걸쳐서
타원
##ause
진기
예컨대
차크라
##팔로
##IME
스팟
편애
224
IMF
평이
뽐내
파라오
Break
MY
잠자
나왔었
Fly
투영
포커
##시장
##거렸
속임수
약품
잔소리
375
##ross
텐트
슬래
황색
##ival
실탄
연마
취항
역전재판
사우디
버금가
has
아르타
SKE
받아들인다
서주
im
Legend
아디
염동
발열
설진
친왕
##보살
바티칸
발포
버크
신진
피파
초구
항일
리제
목조
카로
자릿수
cont
산림
##겨운
Little
하자드
PH
구가
엘라
티격
경대
##바인
인원수
강대국
기보단
##브레
##ism
센고쿠
피노
사이비
##83
##로지
임재
환율
최형우
들어섰
누렸
멜리
##모트
aqu
기증
하인리히
허약
##관리
복수심
머독
##와르
열릴
내세워
시부야
기압
신승
청자
##상부
쓰여진
계신
문경
##어먹
나눈다
발하
조각상
발기
였었
위저드
코퍼
세울
골라서
자서
레볼루션
##장치
광폭
양방향
Girls
북벌
시우
틀림없
용납
우등
##att
갈라지
Univers
알아차리
클러치
발족
코우지
깨졌
집요
만우
예비역
황해
##테라
전해졌
견뎌
##IVE
코바
낙서
거든요
만악
보스니아
RB
세터
털렸
어설트
는커녕
무르
세계수
Swe
구식
아로
##불리
##erry
수송기
'~
ER
구한다
NFL
지나간
교황청
고참
못했으며
서산
키사라기
정찰기
꺼려
묻힌
승용차
회원국
fr
코요미
##대왕
공평
초음
잠겨
는다며
뮐러
사춘
김구라
나설
시급
파워레인저
강정
이트
John
EXO
조동
잖아요
프랑크푸르트
은색
모금
별거
아누
APC
윤종신
폭언
보아
수목
심복
김규
로젠
숨결
이완
치하
##피온
머물러
##르슈
##네즈
연합회
빙글
대주교
아소
전주시
도네
##도어
내세운
카자흐스탄
몬트리
박원
##슐리
never
몬트리올
출진
301
내려서
음료수
녹스
떨치
레인저스
셔먼
스틸러스
비방
##교사
코미디언
모차
찍히
출연자
글래스
포메이션
마이티
린드
남아메리카
우왕
목장
##uch
아슈
증표
냉혹
again
비야
에마
천자
초심
성우진
바이트
만우절
야나기
##래스카
순회
##구멍
##매김
해부
평야
피했
##트릭
heart
이바라
##티티
Gl
몰두
후사
두터
빈민
추축
치솟
##헤드
우려먹
자객
컵스
자리매김
CGV
미스테리
개전
오거
몰아붙이
호위함
위아래
광해군
오정
스테판
크로스오버
시메
227
폭넓
하동
나아지
##ords
PRO
브록
정민
헌트
망가진
Mem
Take
러스트
호문
악연
이면
거침
올인
착안
하로
##시온
##전함
마사히로
도요토미
견딜
램지
봄버
히다
##충류
레이카
겨냥
히브리
성소
어웨이
국보
##서니
매기
사츠키
사춘기
무예
헤엄
노홍철
실록
담보
스탬
##샤인
취한다
조슈아
TBS
명지
쇼타
패해
강국
쇼코
390
1913
악세사리
대기실
비평가
em
##로그램
헤이세이
에버튼
통폐
건축가
미공개
보류
지원군
눈보라
볶음
##람회
원사
인계
한판
모자이크
낙양
놓쳤
로트
살피
사이다
라몬
512
교묘
범하
화성시
니르
데인
윤영
##ubl
강희
화합물
라이엇
우울증
요령
제때
##마니
매튜
1909
비우
아토
차고
오우거
은신처
레티
루시안
캔자스
프렌드
남겨진
##베트남
동탄
##조림
##칼리버
징집
비견
휴지
지식인
나아졌
갔으나
제천
프로토콜
괴이
생생
가져올
가한
미시마
이여
숙박
시끄럽
질리
sk
북위
브리지
정설
줄무늬
서신
점성
편향
##브론
슬프
가할
대련
에라
임정
1915
돌려서
마방
스미레
고야
교명
이리스
익힌
정치력
알라딘
중종
가둬
대니얼
남동쪽
##포동
은빛
011
시켰으며
무함
인턴
키는
토치
xx
갈비
계엄
유권자
기다려야
정근
##body
Cry
mA
뻔뻔
##링턴
의약품
오승
오컬
큐트
저상버스
Hol
가온
도가
어르
1700
타쿠야
근황
의결
##정리
각광
맹렬
힘내
북아메리카
마레
반입
##숭아
선가
나오미
흘렸
견습
##토모
##ital
김종국
유키노
크류
흑색
뜬금없
모하
철혈
제네레이션
에디터
대성공
사칭
총수
##apan
스냅드래곤
수첩
칭한다
뜻밖
돌변
종파
품목
##주니어
##세움
쌍검
##어야
딸리
맹수
원가
정명훈
분파
식용
활력
시티즌
위드
페가수스
애착
양양
##로리
ISO
내분
재기
나타낸
내려간
장지
개표
##iny
크리스티나
시트콤
울산광역시
알려준
EPL
풀려나
반공
쿄스케
타도
##넌트
나크
마르셀
거래소
빼앗겼
ad
달릴
모사
반쪽
지킨
##ura
더듬
투덜
폐업
##뉴스
OO
예거
주선
##시간
##전대
훔친
서대문
통폐합
나성
##박혀
비터
전압
시칠리아
##ople
기권
둔기
뚫려
아틀란
재계
키시
##ler
##cy
김종민
귀속
숙제
띈다
##마을
here
아린
폐인
##REME
Ho
간과
오컬트
마르티
Gal
도맡
DSP
오사무
어썰
어썰트
뉴타입
담원
당겨
허물
Sn
이븐
넘어선
클레멘
니콜라스
1904
##DDR
오현
##펠러
문예
트인
크레인
##스틱
관람객
747
꼬박
푸시
Ind
OM
무마
Mbps
##라이어티
HR
~?
경복
버라이어티
##oun
테드
표류
슬로바키아
기금
씌워
타오
둘째치
bb
정박
쾌락
펠릭스
남서쪽
군청
##ino
바닷가
데미안
##수염
강해진다
전조
카오
인기가요
##훈련
##irect
소외
손발
김장
사오
치러진
naver
매크로
날아갔
MUS
에너
##메이트
거둔다
\]
동자
릴레이
내레이션
야요
헤어진
##78
합숙
공소
풀타임
아쉬웠
기념관
##IO
##TH
##려야
##팽이
요르단
보여진다
로더
시제
엄연
여차
일면
카즈미
GTX
도넛
자물
스러울
입점
확진
느려서
모용
상층
씌우
231
다이노
단결
커진
세이야
어울린다
체이서
성북
역도
##십자
설리
##길이
전광판
고온
방아
오라클
FO
루가
트리니티
노미야
증식
추격전
|[
우즈베키스탄
Real
프레데터
aquarius
사고방식
1916
인제
일전
흐른
##가키
자물쇠
Rad
선샤인
마스터즈
##aker
끈질기
bo
백스
운하
무트
NORM
상역
조경
252
SMG
when
류우
지효
##소연
급감
응하
튀르크
환장
꽃잎
금세
당부
단호
접한다
진중
가비
완주
##후미
타카히로
닛폰
때렸
사각형
섬뜩
염증
라이덴
경비대
Sou
강급
그늘
##by
##AE
식구
컬트
실물
암묵
교통부
닷컴
역적
짝퉁
238
서바이버
트롤링
특혜
##식물
백종
서강
아라시
나카지마
선단
가까울
장시간
gu
그딴
노노
주지사
수학자
꺼져
타일러
파헤
let
숙이
툭하면
Aut
##lex
순전히
아오키
중용
##UD
NORMAL
친일파
코스모스
딸려
베풀
이동기
When
이따금
야요이
조만
질책
덮치
열대
협주곡
신뢰도
신해
지으
##줄기
아이파크
430
좁혀
any
##유예
주변인
돌려받
계주
데이지
기대감
다리우스
가락
뿌요
주조
##어져서
선보인다
Park
만신
손길
명심
Single
##BY
무함마드
새턴
스쿠
이코
세이프
고체
수없이
익혀
##너드
어쩐지
똑바로
전단
로켓단
공모전
##36
조건부
웨스턴
츳코
성매매
##노트
에니
##리스크
카니발
송곳니
##부수
Who
샤이니
Esp
독소
등기
엑스포
나츠메
고영
미끄
내세웠
멱살
해봐도
EXTREME
play
마커스
##lection
근교
노미
##onder
머큐
PG
공표
먹혀
신노스케
Hi
마일리
웬디
하룻
##anger
숙적
이그
##gy
스타킹
금정
집게
타사
폭투
롱주
방주
영도
탁구
실컷
양분
##48
농성
매춘
원술
도키
향신
브리튼
날카롭
냅다
우의
테디
하르트
원정대
선량
출토
피렌
가계
차차
타카오
##나타
카디널
고군
허드
##사노
Feel
퍼레이드
래빗
달려드
min
기요
놓친
육신
하가
##설수
이크
일루
카모
기념비
Du
레타
##raft
Album
Je
공구
무례
잃어버렸
그랜트
mAh
가늘
루팅
수양
합격자
버팔로
JYP
광란
을시
프리퀄
뜨겁
북아프리카
명제
##립스
여제
살아왔
전범
##RO
##ONG
갑작스런
서슴
입혔
들어도
동맹국
아틀란티스
개요
메우
진명
하즈
백웅
싸워서
팔다리
한국식
Cal
Mix
낙사
ap
개머리
금단
사무총장
아카이브
우터
##그래
동시대
hp
데르
틈타
des
차츰
기형
타깃
플리트
Inv
스프레이
홍익
격분
파충류
볼링
업소
오웬
서스펜션
자오
부대장
하야테
분광
분실
지평
팽팽
##로니카
신스
열강
치요
##마르크
레베카
풍습
##산부
SNK
외동
계책
포커스
##98
코스모
주점
##ya
이효
탄산
red
데려왔
WWF
Ret
방콕
완승
기신
안주
츠네
Hero
가도
박동
음파
Kim
규슈
도면
테두리
주유소
야유
수식어
광년
앙상
연정
##비슷
우치하
베가스
브리스
##타마
세인
조반
굴림
어떡
유괴
쿠보
##태격
티격태격
항공대
외친다
##여겨
##ations
부러지
실권
재편
투지
Ult
강함
껍데기
놀러
은혼
짓거리
근육질
QP
236
공문
넥스트
대첩
이광수
킬로미터
장민
감격
사보
##ouble
플롯
굳건
다테
껴안
단국
브렌
모차르트
##뮬러
합쳐져
공무
대서
마셨
면담
슈테
작자
계몽
뒤섞
성물
지네
##ball
다나
##제비
눈길
서큐버스
Blood
소자
코아
##병기
관내
윤석민
지브
Fun
some
은근슬쩍
역행
대장간
걸러
가까우
배당
음절
STA
한신
나눠서
로아
KE
속출
경제력
자습
평온
불계승
치환
장문
지원자
국지
뜨거
나자
보크
애써
여길
요절
살아갈
##나르도
어정
통통
##정사
##uture
피시
Sol
누른
수트
크래시
공예
몽환
별장
루트비히
수비대
를르슈
터너
코타
##eck
셀레
달려오
최민
콜린
##떨어진
아구
탄력
지날수록
성화
자일
총무
##vil
늘어날
스메
##르도
라이스
독일인
need
지치
##제트
이라든지
오기
원안
윤지
Sweet
##더미
010
격납고
##eek
승승장구
매혹
악재
굳히
변기
##사태
##ocal
KBL
Ag
##ather
스콜피온
라디
앞부분
잭스
시게루
Val
논하
원료
##배기
일렉트릭
스무
제련
횃불
Tech
줄인
피어스
화순
둘러싸여
열화
중수
##리역
자서전
요요
피통
##TC
혹독
천안시
유니버설
다람쥐
신야
이견
코라
깃들
사타
햄튼
##더리
265
반열
사념
실격
홀수
하모니
##볼트
마리나
실린더
##로트
CBS
꼼꼼
박인
##비어
들이닥
합쳐진
워스
짜여
유품
조련
스트롱
결번
돌고래
##무르
하룻밤
넷플
투자자
넷플릭스
강북
정액
희소
금천
앙쥬
개머리판
Say
면치
밝기
왕권
내신
료코
한류
##HN
소리치
주둔지
로드리게스
부순
스펜
조례
##틀린
박살난
USS
전면전
피쉬
순종
##날레
##암리
끌어안
##ANCED
재탕
##arth
3500
가열
봉건
초밥
간다면
명계
비화
치어리
한없이
격변
루디
##리학
클라라
로데
불륜
이언
이윤열
설날
최승
Def
테크놀
복판
야가미
##onna
교육감
510
Space
눈여겨
언뜻
도카이
왼발
호크스
802
얽힌
컷인
죽여야
야권
다케다
위너스
홍차
기색
난도
232
맥도날드
충당
로밍
##티시
흑발
정신병
매카
반년
제이미
제이콥
부끄러워
말뚝
사루
##34
them
대항전
사이클론
노련
##뚜기
Beat
레터
이다
##태인
옐로우
최준
##바탕
프리랜
##ours
돌려보내
빙하
앞머리
특별자치
노리코
특별자치시
공판
경계선
하루히
예선전
르블랑
이불
조시
상디
어울려
국한
메릴
기니
염기
치뤘
시영
히타
높였
페르디난
일제히
시달렸
her
훌쩍
레이브
다르크
산산조각
대항해
이연
한문
기껏해야
판례
타이베이
로빈슨
위그
가우스
명절
변칙
##사무소
##ena
이루어질
실기
##클레
##hammer
작센
안드레
WORLD
붙일
셰이
엽기
잔치
태반
대덕
수교
원군
히로미
메기
변속
알렌
##그로
640
안즈
외과
프랑켄슈타인
번성
##빙글
Orig
영정
컨버
##ames
클리프
제각각
ADVANCED
꼬맹이
메모리얼
러서
바카
부포
직사
희한
랠리
인위
GC
미우라
공식전
우라늄
물려주
애호
코니
하네
카리브
서초구
마니아
맡긴
삼켜
액스
하얗
##워진
향신료
만연
족족
팔아먹
총체
펠레
##출력
스캇
이부키
그레이스
통솔력
얼른
오소
월트
지나간다
Dest
파라과이
덧붙였
딱지
묶인
Mac
##토니아
이리야
세카
세습
##매기
스트링
불명예
마음먹
레드삭스
LCS
다던
칼데아
##투르
##ement
##thing
히데키
였음을
엘사
표했
사일런트
외할
##게일
굴절
알아볼
레테
이국
연막탄
신영
Zero
발진
황녀
!!!
LOL
홍련
##rough
조그만
##aid
##노부
밀리터리
고라
속죄
##욕장
밀어붙
리크
세네
##ways
장영
아라비아
베네딕
밀짚
병풍
젠더
##투사
GOT
분단
결속
밀수
##입구역
자하
코피
포박
프로세스
독창
분담
장발
##게이트
포뮬러
미끄러
신재
카나코
고딕
단가
번쩍
트란
Story
깨져
종업
타타
무궁화호
워킹
황룡
푸딩
305
강좌
나니
덴마
폭죽
나와야
파피
교량
첩자
형용
한테서
##알라
325
들이받
she
쇼우
작아
PERF
클라이맥스
Home
길가
모란
유린
장이
편차
##DER
아스가르드
##경민
##우옌
피의자
##자락
##UG
##느러미
공격진
프리랜서
##ta
연장선
아닌지라
한라
역마
가져간
이모티콘
뫼비우스
##ano
그려진다
뻔한
와해
빠져나
오레
살포
수렵
실비아
안영
파이팅
뛰어다니
고이
과하
철구
다는데
디스코
-!
마즈
알린
후추
##une
정근우
선한
자초
등록금
러프
바빠
열도
쿠루미
동일본
다의
##so
불어넣
KC
조병
##뉴얼
이사벨
주저앉
달랑
더욱더
##테르담
수로
정변
머큐리
Ry
대방
케일
권력자
비지
웅장
쿠즈
##ait
##ANG
내보냈
팔린
##티모어
NASA
심볼
구부
봉투
에인
전구
간수
빡세
잠자리
호모
어려워졌
근친
금빛
왕세자
고비
관례
뒤엎
상병
은둔
이을
통치자
불태워
교외
마세요
특례
피아니스트
동호회
IBM
가희
늘어
사파
펼친다
구운
의과
수기
폐교
들렸
호루스
##조사
##데시
조나단
Japan
유가족
Stri
인플레이션
교포
에비
조라
질럿
이뤘
포세이
물어뜯
포세이돈
미야코
방수
셰퍼드
건널
소굴
왓슨
였음에도
걸림
기폭
리얼리티
김건
섬머
땅굴
로건
아라이
친숙
##self
행정동
##드릭
포츈
김우
##신문
##err
묵묵
수모
피스톨
메사
사회학
선호도
MAD
택했
인디애나
장진
그리워
아키타
마츠다
기조
반신
다이애나
클레오
각주
고척
마개
직렬
치아키
우니
##bal
고압
오줌
마구잡이
Hel
붕어
함부르크
중앙일보
독주
딜런
위축
피렌체
떠도
분지
엿보
엑스칼리버
Lee
못한다면
##ASY
Fight
남코
먹일
스에
종식
덧붙이
비르
피해야
돼지고기
유흥
토성
##ML
이슬람교
국외
본대
생소
재킷
##덴티티
아이덴티티
Bro
Gun
bit
강과
람보
에볼루션
허정
현저히
사이키
빨라진다
강민호
대물
발랄
우한
줄리엣
기하학
괴짜
미니건
단수
드로이드
절실
달라질
##ands
동백
흔치
디나
신예
양천
클로이
약해진
##날리
문화유산
Young
BLACK
장화
##르바이
##jo
납부
마네
셀렉
증차
##arm
아키코
##르바이잔
앞당
가요제
AAA
ph
에리스
##TER
토모코
여객기
니콜라이
갔으며
묘소
캡쳐
항만
Wanna
뭉개
페라
Champion
발자국
간담
사옥
쓸려
위계
지닌다
노무라
됐었
##65
##위성
거쳐야
SUV
경산
##iful
로미오
타코
Pla
갈망
수프
일회
에그맨
총점
국문
비들
##light
##브로
동향
판교
##콜로
들어야
229
243
##osh
포터블
아제르바이잔
가우
에지
개인차
이클
클래시
이클립스
망신
프록
##elie
핑거
##위원회
기단
당진
##진구
무리뉴
수호신
페널티가
스탠리
감명
급소
단도
바가지
승선
##카타
##내려
경기관총
몰아붙
조성주
DL
야오
다림
리디
##잣집
660
이브스
##회전
클로드
737
불굴
Storm
아오바
김학
뒤쫓
about
컬럼비아
골랐
에델
급수
용족
트와
블러디
박진영
뿜어내
없음
펌웨어
##ortex
유희열
NXT
존기
##이라
이하일
과부하
워페어
방탄복
DIO
동강
마성
얌전히
육아
공격대
아사쿠라
표지판
어항
625
버트
지마
##놀드
아쉬워하
쓰러뜨릴
이케다
MIX
볼티모어
상반신
Pa
기로
루시아
익사
Kill
가닥
교화
슬하
중남
한겨
되살아
EL
IEM
담장
돌출
바바리
유구
잔잔
정가
##다이스
경원
바퀴벌레
라키
미적
엘더
지방도
정상급
피츠버그
김홍
##바꿈
##eter
정훈
직종
##보레
560
눌러서
마로
소고
##니발
몰아치
##수원
Jo
TC
비닐
황산
노우
요법
봉화
충신
터빈
sec
올라타
시그널
SUPER
노을
##lease
하야시
;/
옹립
결정력
래더
바운
천리
약혼자
동두
브뤼
티오
했다간
2400
정준하
Friend
백호
자연히
권혁
타케우치
저속
##산성
콜로세움
심영
사토미
XBOX
다분
카스티
프라모델
불량배
양현종
버들
못한다고
휘둘리
건달
나돌
타오르
혹시나
목욕탕
컨트리
심부름
Line
칩셋
목격자
태극기
##ume
Warhammer
##구석
자동변속기
공조
게이츠
공용어
명동
##센터
##ines
264
마담
##77
##윤수
There
낙태
이매
국악
프로페
클린턴
맥크리
응우옌
##구르
벽화
자상
정오
분대장
볼프강
##ATE
여군
FS
임종
현악
##일랜드
##들인
사이렌
come
오하
하오
주제가
미행
조예
티비
their
구매자
마슈
##합니다
조종당
유주
의인
터뜨려
##OK
##현수
국공
청각
클러스터
나오토
##ene
거란
노린다
자그마
케도
##학생회
신문사
모색
아카시
디언
요나
이데
포도주
니스트
미츠키
##떨어지
포이즌
가뭄
고트
밑바닥
침범
도하
들인
래디
##ral
League
사이코패스
페르난도
약했
체코슬로
체코슬로바키아
계룡
노장
도핑
무토
투혼
##벌이
사벨
지켜봐야
전시회
스도
치료제
로디
학명
ATM
끼얹
노화
가차없이
나온다면
밀짚모자
res
사오리
노려보
노하우
백종원
프리티
소각
##노세
EXTRA
도살
징수
프롬
##샤바
Road
황인
가장자리
Apple
ma
입각
매달려
Green
게으
슬럼프
쿠페
나즈
스톨
쾌적
들어맞
지니어스
765
대격
전경
초신
포신
들려오
라오스
##리카와
데려와
구룡
덤블
파나마
원만
부착물
힌두교
대함
따름
평시
헬싱
피콜로
히키
관행
꾸민
당내
성산
안대
커밍
이재명
곡물
다그
백설
매뉴얼
찬란
양의지
피지
한큐
##익스
요네
호적
연행
##zz
헤비급
##ODE
무구
과거사
우에노
비와
명실상부
루니
##und
##무로
리빌
장정
Intern
내림
서자
도원
선더
볼리비아
카롤
##드르
순발
효자
##ORA
두어
몸값
세리카
GE
체면
303
관리인
글로브
##수아비
가관
허수아비
노어
샤인
251
됐으나
리차
총학생회
거주민
교활
은인
러시아인
데스노트
##일라잇
트와일라잇
디셉
유파
제타
사이킥
Death
성의
소말
컬쳐
##utiful
탈락자
순발력
Tom
모성
케이스케
살벌
종사자
참치
net
공의회
와야
창법
##백호
백마
합스부르크
##ha
Dead
룰렛
양정
노기자카
갖췄
르브론
##환경
호시노
단층
아코
티아라
슬라브
코퍼레이션
고쿠
구레
타이가
##VEL
NATO
AO
SB
실례
해줘
253
나타낼
상록
색소
연어
장작
화나
프로그래머
궁예
엎드
청혼
어설프
뱃지
외상
피셔
##ible
슈퍼주니어
황천
##PN
##페르노
국영
남방
병자
펑펑
##플라이
316
정신기
뒤돌
하피
건만
완투
##동물
신룡
##INAL
부팅
인페르노
코만도
살육
알렉산드르
모조
모태
237
가격대
Champions
거머쥐
김남
놀려
다우
제아
죠셉
NV
민수
안팎
완력
대대장
사변
Del
긍지
불곰
##창민
##대장
1896
미나모토
스코어링
아우라
-,
노다
레진
함인
연구회
스트레인지
원내대표
로맨틱
타츠미
원동력
바사라
."
공양
성자
##베다
239
프리덤
개찰구
지간
높일
니지
반반
소니아
##뿌리
글루
##rol
TEAM
김응
키네
라울
이레
##리케
##트린
##마이트
##독스
탐지기
허접
궁중
후타바
노지
양평
원대
##AF
바크
스텐
피르
환기
##송이
냉철
인대
지난해
조계
판독
사토루
씨름
입찰
구내
스타더스트
페널티킥
맨서
##기둥
드래건
날아간
살인범
앙상블
Mal
Que
보태
##END
보람
하키
왔었
친족
모니카
내포
삭스
##가짐
460
숨긴
앤서니
니까요
디스트로
연두
콜트
크랭크
한니발
어정쩡
고창
김문
말린
항전
이방원
남대
##꼬리
인가요
제니퍼
군포
분식
터뜨렸
##해머
##츠미
나토
샘플링
hats
발당
쿠토
해트
##루냐
하세가와
<<
유네스
중앙아시아
한겨레
미역
살렸
유이치
##신저
명치
사나다
분투
양조
접할
환관
연산군
뒤져
라벨
봉해졌
저편
아이카
루시우
느와르
김상수
난다는
물리학자
디스트로이어
비나
##uss
아사미
##OUR
받들
범퇴
성계
성악
##총사
거북이
비호
넘어온
보위
충이
##키오
가릴
이회
EXPERT
한수
##84
농어촌버스
베로니카
비료
은총
찾아다니
사카키
폐기물
레츠
순화
솔트
촉매
펀드
##성장
전산망
가발
신검
오트
##oup
두루마리
DH
애원
원통
##vy
##융합
레이서
나와도
보안관
물방울
천성
##할시
바로잡
돌발
비오
##에리
OC
의기
천수
힐러리
찾아온다
충청도
스노우볼
파우스트
어류
핵융합
Full
계투
그렌
문파
하나같이
멈춘
번들
중퇴
##밀리아
##ental
낙동강
도자기
Pass
광교
옆집
코쿠
효고
아이코
발도
혐한
나아진
헤드폰
니라
아놀드
헤카
망설임
유투
스트라
조준기
과대
##대상
제레미
필리프
다이너마이트
깨달음
hatsan
XC
골문
앤트
웬리
거하
끌리
1895
이타치
인파
##??
빙글빙글
혈연
의구
풍미
쉬워진다
곧잘
남궁
보헤
넓히
속국
픽션
TSM
아르테미스
서커
쌍방울
짜장
레전더리
무법자
안락
어떨까
번화
석탑
페퍼
따돌리
##ily
다급
자궁
##우먼
명상
속여
통장
올림피아
손잡
위크
짝수
끊겼
시진
줄지
호도
백악관
프랑스인
아키야마
호가
위용
시즈쿠
낙타
왕창
협업
레일건
Tra
삼키
양재
이큐
##aser
WCW
니티
모선
칸다
흑기사
Games
모나코
발주
브렛
안건
포옹
##보잡
알아챈
어두워
칠곡
파스타
엔도
##ground
듣보잡
패럴
아서스
귀여워
떨쳐
폭락
흉노
패러독스
부양
##글리
도화
흘러나오
차르
스타터
242
남해
숙부
탈바꿈
아귀
##OSS
시브
조셉
태아
##공원
501
태권도
팬더
황재
명맥
선점
징벌
통조림
Set
우루스
즐겼
244
##에이고
샌디에이고
농림
호라
느슨
##텍처
아키텍처
선구자
냄비
미화
휘발
히로키
떄문
스니
율리우스
##리오스
설치류
차징
꺼낸
니케
##UND
left
버린다는
나약
스레드
파치
타이머
사샤
샤먼
청계
##립니다
로메
리어스
하체
요술
가져갈
##awn
산란
공산주의자
FT
뼈아
MAN
##메트
후원자
빠름
왜구
탈영
적외선
와이파이
때린
반대파
랜드마크
##ormal
OT
비문
살림
Pack
감리
모서리
샬럿
잘난
해야지
유형문화재
유대교
GAME
의구심
per
안산시
##드레
##빠진
난데없이
IR
도류
카이바
가위바위
가위바위보
SKY
알아낸
MUSIC
방아쇠
##86
##볶이
##ttack
변할
보임
포제
파라다이스
메이크업
알마
약초
##밍고
사냥감
권속
정할
알렉산드리아
바오로
훈련장
위법
화이
##에스
##툴루
연장자
메이스
보육
##74
Mad
벌려
사스
원점
##사상
대통령령
달아났
마츠리
##IDE
개소
라피
부러진
sw
김보
신의
풍요
하산
##ISS
연꽃
구덩이
탑승자
속초
방전
입석
##gg
고귀
속아
##ider
백병전
군용
글렌
무기고
옮길
아그니
객차
어업
물러난
경화
후리
흐른다
라쿠
##하키
보통학교
부잣집
##네이션
역부
울릉
공포증
건방
괴뢰
동진
벗기
양팔
이시스
돼요
귀여움
대림
송지
승마
행크
530
무의미
베티
선거법
박람회
탄자
부조리
서두
항마
레이팅
##아내리
##티움
##절로
성폭력
메꾸
서귀
취역
##폭풍
거들
짬뽕
맞춰야
고구마
스구
양수
지단
pop
로움
소림
플루토
Ah
모국
안방
##야구
만든다
프랑코
자급
개원
두세
잇따
우리나라
long
북경
퓨처스
사구
쉐보레
##빼미
세분
적시
출소
##다이라
예견
아르마
뉴비
실세
##leep
이동한
##OWER
역장
특검
라이저
바르샤바
윤상
네기
압수
츠지
환술
##레이브
어르신
헌정
246
재판부
wanna
촉한
##전력
블리치
비겁
선취
올바르
위급
##박사
##ouch
SDRAM
미겔
요제프
구축전차
촌장
켄트
##화물
into
아즈텍
없앨
내려간다
크리스틴
실크
이비
핵폭탄
##코르
##ESS
승자전
앞장서
건대
##프리트
Bet
Long
규범
긴가
진풍
##테인
참호
요코야마
김광현
경주시
##푸르
왜냐면
op
기약
만담
변조
심도
분당선
고해
저절로
제위
명하
판넬
##onic
바래
신학교
김봉
노카
동복
태초
254
치어리더
척도
##코리아
호타루
신변
주춤
초빙
문하
유공
고층
##진우
석조
승조
되살리
어감
##ience
콘스탄티
불상사
강압
거너
금물
기꺼
증축
거리낌
갑작스레
Tem
발작
전륜
##버섯
단기간
유목민
시디
윈도
##마음
동방신기
드럼매니아
약탈자
문건
반찬
코드네임
##ology
세르게이
다자
복서
초조
고글
니어
울타리
워해머
재량
##워키
매달리
브금
##yo
##고르
재생성
트로트
GU
밀크
커널
제조업
뒷담
위선
한하
경도
규탄
헐리
##니엄
떨어뜨려
사운드트랙
신세기
군장
재물
코사
구세주
기일
비올
##덩어리
자이로
따를
은평
중전
지울
펼칠
##reet
Step
갈라져
Glo
한국사
##바라기
디바이스
크툴루
모모코
페러
재빠르
MTV
바벨
알버트
릴리즈
NR
미흡
처칠
박건
흐지부
오토봇
벨라루스
흐지부지
사이타마
종업원
거시
윤회
오피셜
너비
영덕
##임새
been
카나타
쫓아오
NMB
;,
Dem
지드
##리크
##폴리
방한
겁먹
묘비
바쳤
폄하
##웨이트
려나
자경
카미조
##리니
##탄불
NCT
삼총사
##저곳
1080
이곳저곳
봉지
저것
##자위대
##도시
방망이
고군분투
기업인
watch
줄였
##괭이
야미
자대
##ting
연장포
비스마르크
##box
조끼
황궁
이블
##iet
##드런
마일리지
민망
오두
배틀로
Ele
난간
빗자루
서든
에콰
USA
맹독충
에콰도르
다가와
AH
##꼬박
크라이시스
꼬박꼬박
금상
등대
디어
라멘
요도
펜타
휴양
248
##ots
셀러
쿠사나기
도산
수세
외화
##get
##illa
쾰른
마르틴
스크랩
그지없
성불
애벌레
친부
크레용
Brave
구위
레토
마부
##비지
호밍
##네시
보였으며
수완
##부진
신천지
nm
실재
진위
학군
카나메
프라이스
유적지
비주류
만물
오성
욕하
총검
하운드
##br
##자유
두드러
카루
지금껏
보옥
맨손
카미야
유네스코
TRA
##셀러
VI
bla
국교
사채
엄호
Level
브루노
바랬
불시
소관
싸그리
야쿠르트
쿠웨이트
##za
냈으며
베레
적의
피사
##이야
Chap
666
해안가
Her
어려워서
시발점
감축
얼라
정산
해치우
박승
액자
##까봐
##본부
306
우에다
디멘
기아스
디멘션
노년
안구
##32
스테미
다승
단군
달력
레퀴
손질
안착
##저지
알래스카
##ander
박지성
nb
부치
질타
박찬호
속칭
차질
통지
연구생
ATP
구청장
에뮬
케이티
톡톡히
번복
눈알
큐라
##GP
가쓰
수두
##국수
System
도난
허준
##들러
코코로
Cortex
금수
도우미
양복
##글라
프랑수아
신인왕
Call
두리
285
스필
올빼미
포르쉐
유키코
Key
이홍
총칭
##너티브
얼터너티브
이신형
리지
이프
화살표
사카가미
페미
##mas
##노버
방향키
졸지에
근소
선착
합하
김재환
귀걸이
법제
투옥
Spe
MOV
벌집
해온다
들였
말버릇
흥국
극명
설원
신혼
뉴저지
에스토니아
남색
문무
샐러드
오랑
포천
표범
타카미
미소년
Ant
레너드
##IAL
블로우
##체어
반역자
Direct
세밀
온다는
시험장
대금
아샤
위스
코그
크나
20000
해리슨
공손찬
적잖
커튼
Stand
불릿
쿠지
오구
야마시타
까칠
약해졌
경음
봐요
오열
ah
계양
주특
LPDDR
주특기
Mil
멸시
실제론
요시카
밀려났
나코
순양
포톤
토리노
성대모사
데비
떡볶이
휠체어
##enn
GA
외주
위스키
인조인간
변호인
가샤
자형
지만은
그려졌
주희
했었으나
Cha
외교부
충실하
po
가람
손견
와드
와다
요충
이세이
팍팍
##ense
추력
해남
##함수
Mer
##렌스
이스탄불
레디
##94
크나큰
곡괭이
뉴턴
몽키
빠짐
소거
밀레니엄
꾀하
월화
중랑
##천년
음주운전
단추
잠잠
패트리
##WAR
도로시
미야모토
소송법
선술
손대
스톱
의복
편파
이상일
##OTH
North
과묵
스레
##ied
247
재수없
Eur
다네
애슐리
엑스박스
가타
##ka
##그램
번역본
무찌르
기꺼이
새천년
야루
에토
부딪혀
카디널스
구와
비관
수진
수병
인술
잠적
져야
동면
마귀
머나
##효과
전기톱
모의고사
et
맥아
메즈
역이
##파르
디바인
Gener
구작
수이
##차원
포스코
LB
그렉
유년기
한기
브라이트
에인절
사계
980
시라이시
구토
어의
키쿠치
머나먼
Die
LM
화교
take
남주
미켈
아발
재결합
역부족
도인
송정
특무
BMS
시경
차명
##갈색
교배
다짜
채웠
##고짜
크루저
다짜고짜
파출
EASY
나래
산성
전고
호아
활로
##댄다
##프레소
무라카미
성행
정품
262
한자어
쿼터백
에스파냐
color
레논
밀워키
아드리
종양
##에미
코비
꾸리
리세
명언
유틸
호신
보컬로이드
유토피아
유틸리티
##ILL
요금제
늦추
직설
##ki
##베니아
동차
메로
웅진
HKT
둘레
린네
블랭크
마츠이
이산화
놀랄
단락
리그베다
농경
무가
심경
##미사일
연휴
쇄도
시이
TECHN
스펜서
권투
조광
레이코
Mel
Mnet
길들이
무형
신명
패망
혼용
박석민
발성
부적합
챙길
회식
##록스
결정타
애기
철제
헤르메스
비잔티움
던데
쉬웠
뒤따라
키프로스
종반
프루
녹이
본점
카빈
##ove
##쓸이
Hell
발단
바야
스캐
후크
수조
진하
Heaven
나연
약국
##my
슬로베니아
옆구리
전근
구원자
마누엘
센다이
토기
함량
굴러가
망언
승수
실렸
아데
총신
커크
현관
##원장
쿠우
렴구
실증
서귀포
근위대
어학
유유히
외로움
먹인
콘스
필립스
김연아
로베르토
은어
잡힌다
축전
모면
우러
##ents
Port
UK
을까요
레오나르도
공범
벌어져
외견
이양
장창
지낼
##레라
470
관련자
##네이
아미타
거센
전해져
열등감
음역
무기력
간결
마땅히
cr
셔터
하층
백발
##St
##도현
##거린다
##누마
쉬워졌
##go
308
무용지물
데일
세손
순번
##브르
상류층
문체
복숭아
노이드
쓰레기통
비키니
##하고
##구려
680
엘렌
공물
기념물
아람
홈플러스
제퍼
되돌아가
시멘트
현세
##바흐
##ember
대법관
결집
##프레이
수학여행
거르
후지타
건국대
의왕
해했
jp
아이린
룰루
소켓
움직였
최용
##화당
Shad
김유진
갈굼
다방
버나
점장
핸디
부담감
객실
명랑
탈피
걸어다니
라트비아
번작
어쿠스
환상향
송파구
어쿠스틱
면하
에미야
오션
케이틀린
이마이
재판관
시공간
레퀴엠
절판
맛집
선종
이희
유의미
도안
말썽
어다
절도
##umb
이륙
바이어
토모야
모교
서고
키예프
##합중국
그만둔
구판
용접
가리켜
ROX
겨자
대의원
##파치
찾아낸
메이슨
꼬여
천차
혼수
##경찰
##ince
서해안
Hello
스칸
탄피
아키하
생물체
본업
착시
##IF
경쾌
##워커
dr
니치
적국
해바라기
굴릴
하락세
배달부
QS
결핍
어윤수
!!"
나빴
묵시
비행단
KGC
당뇨
우후
건가요
리벤지
요마
일침
추앙
Rep
볼드모트
베누
손색
직급
쳐들어오
로이스
색적
##yr
911
군량
습지
영사
징표
구인
문정
필명
카트리지
Lun
덩굴
종용
터져서
팟캐스트
레이다
미네르바
숨통
##add
##핑크
황금기
단축키
관성
##uth
치즈루
야사
양날
적나라
아이스하키
구스타프
관상
일병
제츠
침수
노역
산물
솔러
조미
켄시로
##va
##레우스
산업단지
미합중국
북아일랜드
사이퍼즈
도굴
둔갑
영산
오나라
눈치챘
알린다
엘다
##생명
병음
신창
월광
자명
전권
인공위성
노르망
마진
용시
##에타
304
##ection
241
카카오톡
돌핀
케이타
동위
카푸
템페스트
경마
드레이
부트
상동
##바드
부사장
구마모토
카키
기다릴
디셉티콘
미워하
밤하늘
우진
##39
정신줄
##ures
사무엘
시즈오카
쟈니
최태
신경전
오지환
위압
##iri
강가
난관
서일본
야타
에스프레소
강기
솟아
덤벼들
군정
김강
증설
##사슬
김성현
RGB
부렸
조디
##일치
붙잡힌
네버
스카이워커
위니
한술
##ility
Fil
희극
##ates
김기태
Network
알폰
디폴트
오와
원서
Inc
헤이즈
1899
Cup
문항
사울
영천
##ELL
##irc
즐거워
맹장
슬기
진홍
유리창
가옥
대열
저스트
나았
도부
Mach
ser
확충
ㅋㅋㅋ
Esports
길티
역순
중파
##보리
타카기
연평균
뿌린
역동
인척
##갯소리
캘리포니아주
이덕
ZZ
이나바
##테르부르크
라칸
미륵
참신
쾌감
##고로
##aph
아즈마
University
##WA
##펙터
미츠루기
한림
311
##ometh
그레고리
선동열
기나
내란
힘드
조종석
환승역
Again
구명
동치
처장
호송
후쿠다
구구
밀림
앰프
울림
타무라
이용규
아약
어설픈
매화
모세
불빛
빙그레
##져야
올려야
개중
노량
누비
##razy
look
아캄
암스
##궐선거
재보궐선거
rem
벤처
본심
자속
김해시
사미
##미디어
##조부
##ORPG
브랜든
상아
##블러
마이스터
맨몸
세주
잘렸
제라드
##사병
사냥개
소행성
누릴
퇴화
##이시
EE
게오르
싹쓸이
칸자키
전소
펜싱
하디
샌즈
노쇠
##다녔
##프로
##토크
문학상
세비야
걷어차
##부상
기동대
거주자
미노루
모신
타란
풍성
미니맵
울버린
철폐
번역가
군자
델라
알로
##atter
영등포구
어는
##위안
이용한
아나톨
Only
더해져
몸길이
실화
##어머니
집행유예
무스메
컴플렉스
옮겨졌
카르타고
Burst
bet
디온
샤우
소용없
별반
주니치
파시즘
##보트
mg
노하라
뒷부분
변방
아나스타
##bit
##집합
##hem
마주친
LPL
Dig
은화
##태현
판타스틱
수축
인산
헬레나
고운
블라인
비축
우스갯소리
셔플
아모
에밀리아
반포
신차
접해
질린
태운
홍문
내려갈
방위군
##익스피어
백조
셰익스피어
##AKA
맞선
소린
소고기
얽히
장흥
몬스터즈
Days
미어
양궁
##플로
##공화당
민주공화당
패자전
담담
오심
찔리
패티
관음
부끄럽
네이션스
##pm
무서워하
눈부신
비등
알리스타
키아
당했으며
고찰
콤플렉스
##전생
여신전생
##ether
무수히
패퇴
찾아와서
스터디
간담회
그린다
로케
MiG
디저트
잡음
장윤
파가
##TN
##플린
##랑카
사업소
오토메
Winter
최단
##ips
점프력
모지
모독
스치
싸구려
##우로스
로바
리옹
영월
초안
최유
풀린다
능통
섣불리
도란
튀니지
##에나
대소
자림
자립
think
브루클린
천문학자
랜딩
지코
302
합성수
LF
레반
여래
죄악
nbsp
랑그
수난
유화
트립
stay
불의
##LA
에스퍼
깎인
##레로
##갱이
은지원
해수욕장
Gh
넘긴다
살려서
필멸
가졌으며
토리코
미끄러지
꺼냈
놓쳐
머피
신통
잊어버리
질렀
##평동
손아귀
"...
라흐
##더지
마음가짐
박용택
걸림돌
기나긴
Jack
##uj
##영웅
##ids
IB
슈우
온의
이름값
고졸
시국
이공
##제르
그리스인
손아섭
아약스
구설수
디노
부조
태사
흩어지
아리마
안양시
메신저
방청
##cess
몰려들
뒤흔
아이비
문화방송
##imes
##unk
INT
깔린
로군
##기수
군마
리토
육탄
키타로
송광
신음
시설물
Va
수갑
##걸스
스크림
격발
##자식
없앤
원심
Sports
name
스사노
##als
타마키
복음서
피에로
라사
외쳐
푸에르
노동력
사인회
갈렸
뒷모습
차근
미카도
꾸짖
신형
외양
좌천
강시
원투
자장
흉부
1903
룩셈
토해
수도사
비정규
굵직
둬야
반한
범퍼
전액
빗대
골머리
빙빙
음질
##진보
보조금
Inter
WA
네프
산요
룩셈부르크
유예
##코인
서프라이즈
수회
체자
내려졌
DEX
간사이
권수
만인
송창
학설
헤임
##일비
따라붙
제리코
티타늄
Kar
부의
섞이
테레비
공관
드링크
##산업
##uman
630
쿠미코
가고
대참
둘러싸인
기승
고동
레일리
웨스
##진창
Knight
House
대망
데어
##레프
카가미네
속속
##커버리
##톨레
##그라운드
엘레나
출입문
색기
2100
필리스
##못해
사생아
린스
노르망디
오릭스
프로펠러
보수당
세워져
music
발췌
에루
게일
주박
차렸
##ald
전업
칠드런
때우
말단
##지우
##XX
오사카부
들어올리
누드
대모
불씨
적분
Wr
구금
만수
푸틴
##orce
관중석
이너
화풍
올라프
쇠사슬
종신
창건
푸치
##치히
코너킥
빼먹
심기
하교
##ved
작품상
논산
토목
행선지
갖가지
착탄
##팔구
바랐
연다
강구
수잔
오른발
북동부
당과
도태
유폐
잔상
크랙
슈퍼볼
안드레아스
그람
십중
원체
GF
번외
세타
따라선
붙들
십중팔구
끼우
페일
겸손
렌더링
승화
유골
플릭
##ico
계약금
모루
흘린다
불경
사선
케냐
##혜진
드미트리
늘렸
시니어
지낸다
iP
산드라
적장
제패
##37
개당
웰스
##거슨
##릅니다
에인절스
헌팅
어야지
근간
##폭력
개인기
##isode
파밀리아
가린
니깐
분개
자야
키카
아인슈타인
카탈루냐
조만간
Snow
종래
##수단
김미
밤새
선데이
##양이
##emy
네온
눈매
윤보
##REAM
엉망진창
CLG
초토화
두껍
바로크
포르투갈어
전서
무한히
끼칠
올가
다이나믹
More
천년기
철판
베르나
유세이
장료
증정
나가토
속마음
염라
착오
토레스
##VEN
도교
종군
##기념
##공업
괴로워하
쿠르드
##IKA
성조
파천
편집장
백두산
캐쉬
탈모
샌드백
초판
미국식
NCR
오키타
플러그인
잡담
처박
오리엔
이사회
사나에
도울
후우
##적으로
##거시
마포구
흘린
##lin
After
오유
##러워
##부르
객원
순천시
##31
타이거스
리허
수은
칭했
##겨우
경부고속도로
객체
반갑
프리스
##버둥
에반스
달팽이
어김없이
출항
티온
파묻
획기
공민왕
##진보당
were
내력
덮개
뜻대로
힘쓰
##사업
탐험대
공백기
주이
카이지
히데오
은지라
도선
죽여서
중증
선승
뽑아낼
나이스
다물
오펜
일신
SSD
광명시
핸들링
요시코
##드라마
mod
떨쳤
산동
의성
찔려
다이버
Ice
끈다
영의정
한바탕
홀로그램
##내티
신시내티
기물
##BE
침략자
##국적
##ella
삼가
안상
##갈이
김동현
남양주시
길동
##림동
나뭇가지
서건
구약
깡통
뚫린
서현
시식
일류
컨설
돌아서
물어본다
Year
속수
##리지
760
공기업
배틀로얄
럭비
기뢰
다진
발화
질소
다녀오
%]
가나가와
위구르
교의
김무
묵인
온리
아나키
영화상
골든글러
골든글러브
송시
정치학
조승우
귀인
빨랐
보령
타파
포그
990
장로회
거슬리
염원
용역
투게
학장
아이패드
그래미
아머드
xC
하청
보드게임
영통
555
승산
##듭니다
##ori
놔서
데릭
봄이
파프
근거지
까치
만져
발버둥
석판
접착
현혹
아이샤
도합
보어
빈자리
빨래
에트
##fl
마사유키
번번히
이바라키
미개
아과
팝콘
하복
진구지
꾸려
총살
심포니
바를
악녀
투게더
밀착
이징
혼내
##촌동
권법
렐름
메피스
백상
쟁취
##oph
him
받아
아톰
장만
They
Lost
펼쳐진다
마그네
보일러
연필
##세어
유타카
전처
정호
토양
황건
##기니
에이브
960
우르스
공화정
강수량
PPV
라모스
매리
정태
항문
##72
헤일로
몽고
방글라
우버
저우
케스
핫토리
##어처
미니어처
방글라데시
올라섰
맥스웰
중성자
~.
윤치
2200
부천시
빠뜨리
음표
판자
잡혀서
하야미
먹힌다
비니
영예
와스
정해졌
야만인
game
섹션
수순
열폭
비웃음
날렵
##피디아
Arc
때린다
매월
삼척
재방송
트랭크
하진
TA
로엔
박제
소파
황도
##현실
공파
농산물
보나
히터
생활관
공생
위키피디아
자라나
##프레이즈
책임감
사유리
Under
대작
반증
알론
요스케
주택가
맘대로
최경
험난
점원
그런가
올라올
##마이오스
##othing
잡힐
##남동
295
부지기수
독사
병실
수문
죠타
키르
투창
##나스
바빌론
리차드
귀가
면세
통곡
굴곡
킬링
Rob
미마
치켜
합세
404
610
우에스기
면회
실각
얽혀
Cur
##zer
##잖아
에르난
소시지
Mc
프리츠
갈아엎
영력
보여도
카메룬
프린터
사마귀
대전차포
dream
초유
퍼거슨
후견
##만화
네이밍
Imp
관청
##....
자가용
아편
헬레
도망간다
포르테
정공
제이나
Gra
몰이
상응
컬처
침입자
역이용
카봇
580
바닷물
##ving
Anim
정복자
동양인
png
무투
축물
##호마
특별법
교통국
덧붙여서
VC
용문
##ITE
펠리페
강우
##자마
미스틱
세바스찬
삭감
질투심
MMORPG
간사
도출
도무지
버텼
주세
조선왕
관심사
율리
##YS
##라면
Why
간간이
칼로리
신기록
블라인드
명색
봉신
주상
stop
미친다
강승
행한
마유미
테레사
수두룩
보더
##ARK
공언
능한
도용
하류
당도
독신
고쳤
로시
승전
장보
##캐피탈
단체전
남하
뱃속
재야
천정
피날레
헤어졌
##지아
top
880
튀어나온다
##order
Kiss
자만
채색
이리나
자타
콜럼
탯은
405
강의실
어드밴티지
##omething
가독
수심
야크
이라던가
캐치프레이즈
구걸
노면
미워
원탑
해답
##레르
##천면
Spir
소질
무참
체육복
기모
문선
브렉
장터
Enter
대천사
어땠
##92
002
살라딘
연무
##fore
Secret
비너스
쭉쭉
##베로스
##테라스
좋아해서
vol
기고
다곤
산재
쓰러뜨렸
다희
공상
기흥
김범
풍신
여하튼
소말리아
걸프
대종
##WS
##덕지
266
김대엽
파출소
빌린
자갈
즉흥
혁명군
물러서
쓰러뜨린다
전래
체온
##82
##구름
시뮬레이터
모녀
판인
남양주
거장
난이
언리얼
온통
형체
##차림
##쿨루스
##INK
미야기
결여
속기
외인
초소
##뱅이
현대캐피탈
귀도
여력
파주시
490
HL
Ann
war
루갈
박현
왕도
위세
코네
##광이
##ANCE
ACT
크라켄
중기관총
갉아먹
마조
비뚤
소미
포스팅
사이언스
TL
불복
신교
##ury
아리랑
로카
저쪽
토했
혈전
달리기
쿠로사키
기민
에일
##부림
애니맥스
중얼거리
속삭임
away
매듭
중무장
혈족
유리카
마사시
아오야마
FINAL
blo
양세
아마테라스
블레이크
Pan
아레
##렁크
길쭉
변덕
제철
건과
쇠약
쟁쟁
파이크
붙잡히
서영
겨우겨우
미제
습성
악귀
의논
##해하
광신도
나팔
한진
부자연
수주
오닐
일주
박성준
머슬
오거리
하이스
찾아간다
매그너스
가젯
마킹
말다
윤정
카시오
쿠가
박형
본연
##mon
##중심
##시아키
Roy
성욕
퇴진
막아서
단면
사귄
상선
##URE
SNH
카밀라
Dan
알아냈
베이시스트
425
Reg
합성어
고장나
김주찬
알렉산드로스
돼야
만찬
습하
이래서
1890
생도
폐차
톱니바퀴
독실
레저
정읍
초심자
IZ
가부
미노리
##일체
##Pa
##활성
가톨릭교회
Hun
Sal
동당
명소
##나츠
강남역
blue
JB
속보
수시
##병원
Remix
##루가
코마츠
ed
뚜벅
연옥
의역
특대
시계탑
Normal
light
데저트
일색
타노
트렁크
햄스터
##미온
떠다니
우릴
##반짝
세이렌
무더기
성룡
외지
반짝반짝
서건창
Vir
반월
부엌
유모
강력히
##aking
아키토
비일비
통나무
##코지
비일비재
넥타이
발가락
악취
전일
천룡
개정안
민영화
From
되풀이
얼떨
찍혔
Plus
쇼트트랙
떠오른
라플
알아주
Micro
문도
실태
응모
해리스
현저
나타냈
다이고
기저
도운
열중
지민
태화
우주인
피부색
입김
훈련병
발터
장조
##어냈
올리비아
토론회
글라스
로하
플라자
BEST
깨물
새기
일일히
요충지
견훤
애비
API
피한다
str
무효표
##스턴트
변함없
display
Nat
영종
##틸러스
노틸러스
마두
탄식
트램
폭염
로마인
밥상
신타로
연격
초장
타루
080
마사루
고분군
GRE
해결사
용산구
지름길
검문
##바겐
상급자
America
had
앵무
실과
##esh
사산
영유
인스턴트
퇴학
##르르
##뚝뚝
베이컨
HA
짤짤
커질
##저버
두꺼비
Easy
리알
옵저버
##코타
##엔드
사치코
PERFECT
add
무표
거린다
도련
345
당파
뒤편
원탁
고심
명수
은거
치른다
점령지
돌려보
By
LR
무릅
무뚝뚝
잠긴
##ney
공격자
꺾이
작명
할려고
혼잣
##불복
005
JAP
과천
플로우
##급수
결탁
긴토
##잇감
시코쿠
방진
복불복
비법
재력
혼잣말
로터스
우방
을래
화사
엘리엇
Dri
상봉
창녕
Band
납작
유병
하긴
패스트볼
총대주교
형용사
검투사
해왔
진풍경
소정
지프
스테레오
박소
함양
##GO
글로리
수서
저게
질색
당선자
크래쉬
셰리
심신
항시
자작곡
XI
드리스
식칼
칠성
##38
국과
더글라스
면했
이뤄지지
Ob
손패
멈췄
Ha
능선
색감
810
구린
정파
배신감
브레멘
퍼스널
##erson
소방관
이부
288
모뎀
발암
##파시
##손자
안티오
경례
긴밀
재촉
##히드
허드슨
달마
조아
청순
##차근
##OLD
차근차근
산적
대학살
레이더스
이끌려
Wol
##con
518
경복궁
퀘이크
현란
##페리온
스테인
출품
한동
##연의
유니코드
도미니카
동학
기대치
da
관구
수긍
일판
피한
시마즈
준결승전
레코딩
##무책
돌린다
참혹
돈다
루주
문희
영애
진시
코앞
토에이
한단
##무트
임창용
찢어지
PTS
롤리
송은
식이
야지
휘감
272
Fant
권영
볼거리
상트
오치
MSI
GIR
다뤘
수훈
홍진
##기구
15000
미치광이
리아스
Series
명부
모기업
사본
사흘
학실
아키오
유키오
땅콩
연명
무턱
택지
포티
마제
범람
이해도
780
##테이커
would
권선
독고
##게티
버려야
말려들
명종
튀기
힘겹
##려면
##피오
한다든지
평가전
고려사
신분증
AJ
##감독
bu
##orry
신학자
쳐다
##메드
근현
두렵
한대
미스코리아
연한
유혈
##순환
지켜본
언더테이커
기쁜
모닝구
Video
꺼낼
야한
재조
떨어트리
570
별세
영연
##협회
빼앗겨
두건
막사
##반구
오가타
미혼
재경기
탐사선
GEN
누를
소스케
상층부
평평
##ublic
단언
##도르프
고루
법규
숨겼
쉬울
시치
판박이
840
기프트
드가
소다
초승
##스타인
보주
폼페이
번화가
식단
특강
뒤틀린
걸레
중개
스커트
액세스
짧아
편히
괴롭혔
MED
고강
미자
아흐
왕래
차량기지
1901
하퍼
텔레파시
기득
박헌
태안
아이치
유야
탐탁
##wn
##idae
려니
마상
병법
척탄
탈진
##옵니다
가인
게인
리니어
회랑
코우타
석재
에고
머스킷
PE
당수
동형
브롤
재외
아라타
대주자
거느
다목
창구
##길동
OGN
메피스토
레거시
번뇌
주제곡
극단주의
속수무책
부총리
여리
키보
국제선
MOD
민요
숟가락
af
쥐어
변화구
보건소
노려볼
승룡
만장일치
용신
재연
진통
모아야
1860
멀록
아브라
알아들
카펠
함교
쓰다듬
지청
401
연합뉴스
지선버스
오재원
가고시마
다재
##키치
286
GIT
복량
따라간다
##ato
미사토
코스타리카
UB
영영
조쉬
SPEC
비스타
서연
데바
톈진
오오타
중공군
응수
지구력
JK
xB
박희
사커
비트코인
Force
맹공
칵테일
호이
가로지르
금주
도이
화분
문화사
ACE
##ITY
저기압
결점
절멸
이경규
매개체
인양
조엘
홍명
후부키
마나카
페르시
심상정
주문서
SHD
카카시
춘천시
하노이
작성자
명함
의수
토도
그리워하
역사학
1898
신현
주정
지안
##케이크
레이튼
스파이럴
니퍼트
물의
카코
##올랐
##ATA
ro
늘어지
장현
한답시고
##MI
창조주
용기사
산토스
용지
321
끊긴
난조
사민
플랭크
공학부
중독자
민선
분분
순이
정열
천명
299
스포츠카
하노버
##ison
아랑전설
가망
타쿠마
당직
사황
##마키
동호인
국철
윗부분
장검
##쿠사
누설
동거리
센토
##외과
##umber
예감
위문
트렉
##기리
!!!!
STAGE
620
뉴트
시끄러
번호판
제네바
되살아나
도나
##hn
파마
##TLE
RES
##파르트
모니터링
경치
편법
픽시
1902
과반수
Div
안데르
얼려
용돈
코크
알레르기
닫힌
슈마
##현희
몰아주
이겨야
싸늘
##미안
기계식
널려
발송
정미
죽전
호문쿨루스
상국
안지
##세유
히트맨
FK
폭우
##만별
독립군
천차만별
무턱대
기전
화단
##와라노
후지와라노
Lu
구획
말렸
쇠고기
치수
어쨌거나
본전
허점
##디나
도망갔
GITAD
금광
몸소
제논
체의
우노
총력
향교
지냈으며
출자
이해관계
EF
논외
##권력
영웅전설
차례차례
삼국지연의
검법
헥터
날아갈
재계약
질식
두더지
야하
1897
KV
발군
정윤종
짤짤이
##석희
몽둥이
구수
완장
##어드
##BT
다녀온
무신론
##페테르부르크
이동해
영업소
MOVIE
부의장
상트페테르부르크
바짝
와시
파티마
프란치
아자르
도성
먹잇감
퀘벡
Ta
강지
메오
레기온
무표정
고국
셋쇼
자생
312
셋쇼마루
린코
점막
JAPAN
개소리
성신
출정
타순
사라져서
Future
오븐
타개
으르
접목
야키
##tm
폭스바겐
나성범
세네갈
die
불스
준이치
357
유도탄
boy
링고
베르트
불패
자퇴
퍼블리
블랙리스트
ZERO
거진
건들
넓혀
화원
쏟아부
힘껏
##amb
than
조선왕조
820
얀다
천호
##비행
라고도
결방
비드
##마다
쫓겨난
끓여
음식물
묵묵히
pre
고저
수저
엘튼
한상
##넨탈
장난치
국방군
총독부
건반
계파
다쳤
신안
용광
북서부
하코다
장단점
곡사포
FD
밥값
채광
307
355
출장소
두터운
리허설
Here
처우
호머
##방위
Fin
el
다느니
비안
수거
엉터리
이한
진언
행정학
디아스
수아레스
Championship
너트
Aq
꾸역
지스
흘렀
무턱대고
cod
벽면
이랜드
케라
##지옥
##다능
종착역
영암
스리랑카
다재다능
마틸
박철
블라드
막대기
발의
der
역세
웨이드
면사무소
유자
하울
발사관
##irth
카우보이
왈츠
전량
피안
휴재
could
산티아
오대
중학
##read
335
International
가트
거만
들릴
안달
연약
원단
자우
##hed
마르세유
갈라진
불러일으키
광자
까발
유년
쿠타
네이비
소인수
##해튼
##강하
2600
무인역
교부
직함
흥하
청도
친했
##득이
##odu
코즈믹
초승달
기내
몬드
일축
##acy
선후배
Queen
퇴원
##ror
1894
간헐
반문
##46
따돌림
경작
망나
Exper
이수근
프란시스
모티프
김하성
황재균
새천년민주당
기류
프톨레
했어야
화승
프톨레마이오스
소변
애도
만주국
리자드
잣대
##분별
드라고
복역
스물
직경
말다툼
리콜
멩스
조나라
##브스
GITADORA
일수
조진
계급장
섬광탄
급강하
리저
자조
해파리
리포터
맞닿
양덕
##어든
다레
묶음
전보
청라
나지완
쉽사리
열연
코볼트
##무쌍
메인보드
모덴
##테크
아우르
적재량
최전방
로또
속인
추태
##토프
대성당
셔틀버스
power
교파
심층
역공
주신
트럼
테크니컬
Pat
발린
알람
외로운
특사
매킨
왜건
육수
엔지니어링
Old
만기
셀카
줬으며
채식
첼로
태엽
##락스
증명서
관찰사
산티아고
마동
암스트
youtu
호른
아마노
숙성
황야
흔들림
시비르
how
대합
옷차림
는데요
##ctor
페르난데스
중남미
Ill
심할
앙코르
##맞춤
지나갔
묵시록
노론
다윗
억누르
지략
##두고
이경우
호두
루이즈
아케치
FOR
떡칠
토아
Mor
금나라
날려서
전학생
경찰차
시에라
잔다
후열
##unch
벤자
비워
이서
##RC
##노르
강경파
세공
여과
##화기
Look
BLUE
권한다
미신
오수
##iw
오르페
710
Work
꼬꼬
미첼
틈틈
아나킨
유시민
pla
달달
봉우리
옥토
황급
##icle
카이로
테크놀로지
깎여
시들
접대
지지부진
수백만
거구
라메
##iant
파이어볼
VT
강백호
야포
사회당
앤드루
최연성
상이
오영
용모
칭기
고함
도수
본기
포항시
털린
##리쿠
로도스
우키
컨벤
피력
이제야
강물
피코
핵전쟁
화난
##아프리카
합창단
마아
모카
되돌릴
JD
스며
짤리
호연
##티아스
도카이도
애런
애증
원주시
횡포
메이든
유례
암스트롱
미생물
손승
지노
코랄
호쾌
시리얼
아야메
정찰병
카츠라기
아우구스
Er
Fore
Give
##고양이
크레이그
선녀
##ces
이근
통행료
내무부
청취자
국세
비활성
장강
폭약
##타니아
넘어섰
세이라
바친
이봉
주안
##QU
불러도
무분별
배양
유실
놓아
리빙
온다고
왕전
화포
##메탈
플라톤
Dyn
츠요시
어울릴
무릅쓰
밀릴
보보
애슬
##가나
나루미
공리
방통
효종
아까운
Cla
마셜
맨해튼
카발
자카르타
돋보인다
궁녀
심취
##cal
##LY
##otion
갱생
문종
클라인
##els
프랜시스
피난민
Aqours
Ber
앞섰
##su
##가야
생겼으며
김민철
후세인
각하
애너
일라이
장승
탈레
##라호마
오클라호마
냈으나
스털
##WC
마그나
강풍
국부
소유주
한국전력
고의로
문수
346
전화기
기울여
칸국
276
빌리지
급조
배낭
베리아
션트
여실히
의용
음악중심
보컬리스트
구미시
스탬프
er
법관
와트
유관
이랬
##브리지
Dav
들린
번안
자해
주괴
영화사
맹주
백석
송환
알프스
치매
콜렉션
##불사
전국구
함종
대표자
근사
낱말
성리학
##글러스
구조대
케이코
가려져
리거
메들리
##파트라
##피언
아득히
클레오파트라
짊어지
총액
퍼니셔
놀이터
브리오
진사
칸트
##인더
아랍에미
아랍에미리트
강박
공직자
원초
##ask
더글러스
청부
##혜원
##ender
끊겨
속내
피타
하이트
조선족
더라고
뒷목
만다
##엉이
##ami
당해도
황금색
여수시
동귀
본다는
비벼
술래
제수
##레마
추축국
속곡
이철
에이핑크
본다고
이설
절로
ARC
Plan
np
마중
마오카
식감
키릴
휴고
##시원
라타
##sy
##라시
##바스티
지원금
RNG
모레
요직
충만
사조
히미
##스러운
##와트
온천욕
루미너스
이그니스
Fort
금연
미요시
방독
슈이치
양민
아우디
TFT
키네시스
결렬
김밥
카다
소비량
죽여도
TBD
달서
학관
##다오
광주시
동해선
Player
구급차
개항
낸다는
러커
CI
##치락
sy
친동생
##대신
그레이엄
마주쳤
넘버링
교신
글꼴
롭스
쿠쿠
파훼
##원숭이
육군사관학교
발명품
See
말싸움
출가
##주석
high
치욕
나가노
친해졌
애드온
전태양
간토
망쳐
##ular
##그라들
최지
효도
지지층
타임스
##여래
한다든가
##elieve
PTSD
비교적
안젤라
초신성
국유
무드
세심
슈츠
어려워진다
나눔
접선
##재주
##젠더
art
후려치
MH
드나들
반야
우레
##기름
베이직
모모카
가마쿠라
WIN
관철
한껏
항체
프라하
겹친다
예식
##사탕
##SH
낙점
변론
펀딩
고흥
연중
포츠
##예스
Sub
반향
철인
침실
큐리
##테리아
선제공격
인내심
고상
도그
카톡
스타인
아폴론
hPa
갔었
상습
으세요
언어학
직장인
Ever
써져
주성욱
컨벤션
배회
줬으나
흥덕
우치다
INF
오두막
남경
얽매
##뿔소
금관
매물
쾌거
포포
스털링
Dec
시일
최종병기
Another
펼쳐졌
시바타
Make
Squ
치치
670
이정훈
부딪치
나옴
사노
우성
자코
풀릴
기어코
무쌍
선의
못했으나
무전기
주리
펀트
##tus
##EP
신해철
쿠와
258
이승기
끌어들여
IOC
꼽혔
답니다
덴오
슬링
진열
최동
퍼뜨리
Wonder
샌더스
안마
완치
##르디
그래야
트랙터
카나에
CU
ml
독스
필로
어지럽
엇갈리
조석
##ICK
격상
골밑
분탕
큐티
감독관
707
940
론도
970
말미암
두드리
든다고
어메이
지검
##대원군
257
야마가타
미카사
레브
오블리
터틀
판별
승하차
벤자민
나잇
본즈
성호
Roll
rec
찬다
##itt
385
포위망
##거미
에드가
비취
서운
선악
예금
정실
화음
열망
중생
히요리
##덴부르크
##올리언
its
광둥
뜯어내
얼버
##추세
밀폐
상계
장합
차오르
APK
##호크
잡졸
택한
하양
카를로
박지원
깁슨
독음
장항
클루
키리시마
끊임없
무진장
자유민주
군국
수혈
은하영웅
기상청
나트륨
은하영웅전설
##ddy
낌새
배웅
부차
용액
##비티
##쓰기
여객선
뉴올리언
동군
박하
탈리스
노블레스
Ben
기입
맹목
##리시
설명서
선보여
츳코미
얼떨결
석회
신참
심재
유원지
찬탈
##츠크
##들였
263
특출난
알론소
규합
데꿀
코스케
데꿀멍
San
부릴
아누비스
송은범
디그
아네
죽창
중일
궁이
아타리
탯을
파사
바이저
소매치기
이딴
류큐
후시
후륜
##포인트
철강
##지먼트
매니지먼트
간소
울트론
##OME
민자
발걸음
콘도
각성기
왼손잡이
남길
성왕
외벽
커티스
극회
김갑
대혁명
파즈
##93
525
org
가전
스패
탈의
하녀
LoL
세미나
징병제
Card
고하
삼림
##vice
##도바
##버른
상륙작전
양부
즉발
팬서
##곡역
라이오
bbq
구릉
김부
떠돌이
학우
##저찌
좋아해
어찌저찌
이승현
Sea
연유
쳐야
##루아
찾아냈
이슈타르
무도회
딴지
류노스케
##미남
낙후
단시간
맞아
##side
##서도
##ellow
심해졌
구문
된장
메드
모체
빠를
요루
파블로
김포시
궁을
아워
알베르토
영차
타카야마
덜덜
바스티
장도
토종
포틀랜드
일리노이
평택시
들러붙
암스테르담
금동
리파
비결
에리나
##실신
오블리비언
Ko
내막
방종
인건
추진력
hello
액정
페페
Mind
부비
이교도
##루크
승리자
전임자
맡긴다
세제
자메이
지산
살아난
요시히로
프레이야
아리스토
자메이카
과외
무루
##유리
강할
군도
떡실신
잔느
##any
##hes
미치루
방사성
##ava
브래들리
총격전
다키
대꾸
만리
조난
호나우
##민턴
수리비
BY
리서
오름
유표
좌회전
우승컵
스토크
데프콘
사륜
필리아
##들린
전문점
%~
버마
잉카
##카운
도로는
매사추세
매사추세츠
반다
펜실
학도
##베이니아
한양대
펜실베이니아
듀란
발끈
방계
소르
송금
에두
하기
마다가스
귀하
기네스
눌렀
사무국
걸어오
백야
불도
토레
사대부
스푼
##ote
##PGA
매카트니
노먼
단맛
##가르트
##카가
시스터즈
도다
죠니
즐비
포가
배드민턴
AGE
당혹
삼중
졸리
종언
주현
클라리
팔레트
##셰비
유리코
칙령
후신
##모아
오퍼레이션
경의선
비정규직
놀래
문대
소박
##원수
국내선
아주머니
730
로페즈
Pal
닥쳐
방귀
체임
타미
##form
니시노
달려서
라브
유즈키
제하
진루
캐넌
황선
273
이시이
무거워
데코
자청
산정
참판
뿌리치
급속히
Ra
맡길
조직력
소화기
실리콘
꿋꿋
모처럼
영판
장렬
지난번
나나세
야인시대
감춰
독침
산군
양해
영생
폭주족
아미노
국면
십니까
뒤쳐지
병아리
수표
필하
시작점
-'
아낌
양각
이펙터
##reas
고사하고
블락
성년
시보
흥선
##개미
운동회
리딩
야영
링크스
통신망
대참사
도지사
생쥐
에린
치닫
쫓겨났
강신
믿기
셀레스
프로텍
투표수
star
마르스
그로기
under
뱌쿠
주무
판테
판테온
##ican
이즈모
서예
다양체
youtube
SPECIAL
황급히
골판
루아
반일
소연
##ih
##ories
불꽃놀이
디펜더
도형
독기
역인
오호
원유
이색
일설
##구동
얻어먹
김석
왜성
연예대상
푸르지오
오시리스
미비
컴파일
##YY
9999
카타리나
Beautiful
HIV
깔보
코딩
##마차
맥아더
Emp
고룡
본교
사피
쥬리
구야
정영
캐럴
크론
##oto
True
GSM
볼드체
회고록
골칫
구시
군관
따진다
장구
친아버지
라이어
공대공
대죄
대양
##진군
##몬트
##ffer
yul
격자
나쁠
멜버른
유강
##루이스
망가져
피로도
YTN
벌벌
요란
종국
청담
컴필
마리카
컴필레이션
놓였
배너
코소
##치우
끌려갔
다윈
시이나
402
gonna
오송
태커
애니멀
유사시
미즈노
애호가
교인
복속
비빔
소티
유랑
조민
핀치
을지언정
다녀왔
어메이징
버로우
소치
수의
어니스트
에테
연립
온난
동일시
전반부
리버티
거룩
민회
웅덩이
##ollow
{{{#!
그루브
Electr
KM
글쎄
주영
##요한
프리트
고착
선미
잉어
토미노
다마스
다국적
뽀삐
상도
가져온다
관입
구박
카산
##iness
국민회
리라는
칭기즈
구려
흠집
324
Id
ep
마안
##콜라
원할
정색
##처리
스위칭
지저분
입소
유우나
MSM
Trans
시어머니
나탈리
##미나
930
SI
건륭
등짝
정략
정찬
크리스티아
경영자
트라이얼
미형
스팸
앵그리
양학
은커녕
##북자
벌점
집시
회생
##ific
커넥트
줘요
진다면
조연상
기척
독가스
우림
전미
팀워크
283
가르드
트레이스
TOUR
볼로
위업
프리스타
##토메
크로즈
김민성
군부대
두고
등신
뽀뽀
시판
올라갈수록
민경
비슈
총동원
타의
##난방
##재호
##ister
그어
띄운
에른
마요이
맞춤법
고칠
멈춘다
손익
하하하
검진
포세
혹자
흥원
마리코
유희관
라이프치히
결판
동티
리플레이
마나미
맞춰져
SSS
시타델
두고두고
급사
Bus
색다른
아연
최현
켄치
주마
치룬
타이트
해괴
여태껏
차우찬
방독면
로커
석권
행진곡
##press
끓이
사표
선다
참회
헬렌
영웅전
리오넬
##scape
로울
284
386
무서워서
러서는
묶이
##워스
멍청이
국호
멜라
백동
플로어
네드
스타드
도플
피폭
아르고
플라밍고
김유신
으뜸
진주시
카본
희석
261
붙여졌
박원순
픽스
하물
##리코
##자원
##스트리
004
Shadow
VF
반점
여간
추증
비비안
늦춰
리븐
선례
내쉬
지류
##ress
기다린다
밋밋
엄친
##프스키
##ada
정준영
오락가락
-.-
Av
VOD
극락
령우
소국
덮쳐
렐리아
종주
초석
흔드
##현상
클로즈업
##태자
Arch
상세히
알비온
결산
비켜
파니
아니마
아스널
불로불사
OFF
거슬
로다
이학
##당당
##슈타
##onight
금괴
유충
트이
후폭풍
##해방
뛰어가
sky
숙달
아스트라
Dep
기뻐했
배타
##라지
##las
발표회
시흥시
깊숙히
개근
무위
백승
윤서
정년
햇살
마사미
알렉산드라
##세우
엘자
익혔
##bow
##부치
올라와서
아라키
정몽주
YES
애쓰
원킬
##컬레이터
에스컬레이터
테이머
염색체
일렉트로닉
##afe
du
남군
프로파
##amage
이지선
송시열
돌림
이등
히치
보호법
남겨둔
용법
종단
플릿
##금속
가루다
프란시스코
여진족
투석기
겹친
피플
오벨
대서양
TECHNIKA
딸린
직권
##민정
##벌리
##ives
Ve
구력
비행사
김동준
델리
러버
터득
현은
황위
##oid
떨어뜨린
Two
아만다
더치
물든
한식
항법
##APP
방랑자
277
미스티
쓰시마
의례
##디슨
케이이치
무한대
Ka
did
유루
##뎅이
인민해방
근본주의
인민해방군
비엔
영상물
경쟁사
이정현
으르렁
Hz
앞날
패인
사쿠마
개척자
잡아냈
라쿠텐
Fro
축구팀
사나운
Chapter
Tur
감화
시테
내통
마노
맞닥
보디가드
돌이킬
성교
이택
추악
항변
성가신
쇼지
앙골
야성
지긋
페트로
해일
##MM
##누이
나아갈
바렛
야후
##군다
고관
맨션
묘역
살생
강화도
015
걸어야
파스칼
관저
노포
양준혁
용검
월경
조서
수동변속기
유하
파급
찾아간
레노
부영
정병
진천
주창
판국
##나물
요시유키
김태원
호수비
재조명
독려
스핑
##니파
##쿠젠
아발론
줄까
추존
##ini
Intel
습기
으셨
지양
남송
순혈
전군
스테파
870
안일
율법
323
Leader
신동엽
전의
키코
해졌으며
인문학
챙긴
금산
4500
미케
양키
자아내
코에이
통합진보당
하후돈
티라노사우루스
920
TK
꼬드
디안
딜레마
상전
완충
작아지
타바
화염병
베스트셀러
Vi
군가
서툴
하루하루
Head
Cost
KK
덴버
민가
부럽
하구
##디트
사가라
난타
불고기
테마파크
풀려났
사로잡혀
오디세이
프리스타일
덜렁
동종
무에
커세어
##회원
주구장
CHA
노원구
주구장창
UD
멸칭
아탈
전상
총평
##비안
##갱어
민주자유
부지런
이종범
도플갱어
민주자유당
안쓰
핵미사일
##어사
##ja
려는데
전망대
뻔히
신우
악동
왕릉
창녀
페티
희곡
캔자스시티
료타
조그마
##AMP
동갑내기
셧아웃
피살
무심코
프란치스코
생모
키오
밝혀내
Christmas
Earth
실베
파쿠
##97
금사
덮여
보패
치에
형광
##골목
아시카가
친선경기
Silver
Burn
느림
양극
점쳐
##무사
이범호
군의
노토
미학
##먼지
294
날아온
특촬물
NBC
추신
키도
##제철
다가올
발사대
쓰러뜨려
대문자
옴니버스
Tok
에무
이왕
비서실
miss
녹턴
대청
마닐라
만한
현대인
Global
황보
##CO
레즈비언
내시
후지이
히데아키
공수부대
영락없
Double
모피
##베라
척탄병
북스
소체
수액
레스큐
동력원
아드리아
리츠코
강정호
.?
냉소
노크
빅스
세피
씨족
헤아
HERO
work
러일
베오
##ones
274
Street
다운타운
뽑혀
신일본
위너
세기말
리턴즈
효능
뉴올리언스
끝자락
데포르
마를
변변
악세서리
위례
펜티
##도록
##Boy
코코아
펜티엄
Hand
JO
완행
##시설
##친왕
Want
XL
다든가
메노
학비
원산지
휘발유
올랐으며
##ASH
트랜스젠더
리의
식탁
이끼
지킨다
##ery
고우키
터무니없
벗겨지
글귀
포인
하찮
050
Cloud
하물며
거둘
다현
버클리
예보
여성향
003
들여서
선덕
중흥
타카다
2800
창립자
누에
무반
타령
Reb
===
네츠
증류
휩쓸려
LD
랴오
리무진
어태
우겨
267
가르친
무한정
수색대
Techn
각개
경춘
담화
미발
뿌렸
노르드
거침없이
농지
리미터
한일
##상어
##보성
338
착실
##충전
##앵글
##껍질
도망갈
소지품
지크프리트
감차
농가
부끄러운
아케미
메디치
나침
백정
##KE
아웃사이
EDG
아웃사이더
김나
병마
쇼타로
##기아
라이노
누굴
박력
치진
폴로
##과학
롯데월드
천문대
big
라일
왜군
했을지도
##미널
##해진
##aint
피스톤
아츠코
선왕
온다면
외판
흩어진
##부쿠로
지법
친해진
ind
널널
머금
박선
음독
친히
캠벨
김정우
##ii
##막이
교도관
##카이저
등불
렌지
젊음
준말
##ues
##port
다가왔
미주리
보헤미아
곰팡
김풍
리퀴
오차
재충전
정월
파시스트
동대구
맥시멈
Hal
이능
코메
현과
##코비치
경차
연작
황교
오르간
강석
번주
법대
순욱
271
아쉬울
브루드
PART
궁사
대웅
미온
비누
샤드
영식
268
명목상
법조인
기침
사간
실효
어림
아유무
단풍
미확
츠노
아쉬워
맞설
복직
여초
##67
트라이앵글
권세
조군
중간중간
스즈카
##OTHER
MOM
논평
동고
맞은
세르히
재원
##전등
##ating
유일무이
through
Thank
제퍼슨
불후
뺨치
하버
##ken
##탄두
의무병
가져다주
싸이코
켄신
##거품
화물선
하이스쿨
꽁꽁
나일
야고
임성
정단
참배
해동
##gen
경기병
경제학자
부득이
효성
동떨어진
전란
##쿠보
케이프
모터쇼
상환
아야네
바티스타
Second
점성술
Oper
##천후
금제
살아났
거성
베히
수풀
해로운
수원역
몰아가
먹혔
라던지
부군
조전
영연방
Pur
곡식
야코
위자
관계없
성장기
타임즈
맞은편
블럼
임박
##타스
체인지업
몰카
마츠오카
신앙심
마쿠
어가
Studio
415
Cho
안치홍
표차
항렬
순양전함
박대
루시드
TUN
반미
수스
외워
피니
##하타
응원단
고지대
DREAM
베일리
신겐
치장
로터
##HS
잡혀가
오선
##aa
해법
##iko
헤이안
카스티야
중문
혈투
수건
청정
환시
정의감
Vita
리보
받아치
핏줄
##YO
카이사
##bert
서강대
give
건져
짤렸
무지하
야쿠모
통찰력
MAR
반정부
서른
소이치로
액터
장부
초음파
AU
475
주사기
che
리암
시현
코야마
휘장
##KA
##높이
수력
외친
자스
유럽연합
퀸시
퇴계
주거지
줄래
징조
헥토르
287
카림
탄성
Hor
관서
빵집
이발
학당
혼나
##jor
문득
산개
##사건
엘리시
치료법
Group
Electrical
Water
병조
폴드
codice
RW
숨길
정돈
부산시
교문
귀순
노시
모텔
##화학
##딩크
Qual
외딴
스테파니
바꿔치기
LIG
라네
시무
풀려난
마천루
당사
자파
촉발
##발트
1880
서사시
가평
괴한
성좌
손주
아차
최수
헬름
하이드라
자외선
천인
##트라이트
모이라
머스탱
대마초
Sign
XG
필중
레이프
블로거
석가모니
문산
쇠뇌
실프
현충
##나도
먹였
배재
##던스
불사신
외롭
카스트
##ael
파이퍼
스위프트
트럼펫
##oman
프로그레
수집가
짜장면
우완
아니한
경향신문
이웃집
리네
##홀름
개의
다항
뼈대
##stal
암살단
거실
라엘
무속
##쿠니
다이몬
Gre
XIII
이찬
잡이
##라마
##꾸역
##lad
자유도
악순환
왔다
호동
이태양
꾸역꾸역
Vers
피넛
부녀자
닭고기
데크
별빛
수줍
조식
패튼
홀더
##ior
##토쿠
거듭나
기하급수
Jr
Wel
비버
Radio
떄문에
HC
백혈
신오
연시
국민정부
녹색당
뛰쳐나
다로
시럽
too
롯데마트
태양광
황건적
날조
앙드레
연신
요셉
히딩크
기능사
다를까
이효리
나방
떨리
만듭니다
츠키
##꾸러기
318
뒤집어쓰
Bill
갈겨
리벨
쑤셔
표하
지하철역
개정판
공덕
오명
청송
##개발
##면체
##ANT
에이즈
카스가
원더걸스
나경
대식
740
가나가와현
금리
피조
작업장
+,
바키
에이트
현도
##imate
오프사이드
휴식기
포용
포교
##니카
자유투
레인즈
프로그레시브
송영
피나
넥톤
변국
완파
침례
폭풍우
조리개
모비스
소신
축약
핏빛
국명
##uz
하이데
마무
육손
켄타로
##미경
##대전
디스토
의문점
##ipp
노량진
소타
시역
##왕후
##하트
Right
꼬치
본색
샤라
서천
##만장
Know
모더
메뚜기
서핑
소독
일지라도
Cross
타에
##uff
##호테
류중
몰타
묘호
아플
오리아나
키리코
플랑크
Speed
티라
는다거나
309
590
이병규
##셰비키
몽크
바네
성심
여몽
절기
제프리
중보
애드립
마틸다
조소
##비나
저지른다
Original
Sin
갓난
상작
알콜
압구
유급
히지
##포츠
##ters
대주주
노구
단두
송강
식욕
일장
지으면
스티어
무너질
DOS
병무
새긴
윤석
캐터
코모
양산시
세리아
알토
쫒겨
##덕이
플로라
탈레반
낚아
네빌
달렉
세하
쇼고
투병
그러다
##axy
run
말벌
처자
가뿐
교동
##usion
스모크
맞섰
##챙이
호그와트
음유
정강
흑자
##다닐
옆면
최윤
##이스트
##세르크
##애자
다녀야
##roid
초대장
END
god
밸류
중서
첫눈
화풀이
##come
타이라
대원군
들여다보
카게야마
나침반
TM
강현
##수선
아야세
read
남동부
매립
묵살
바레
조타
##쿠르
Where
막심
인더스
슈퍼컵
국제법
이방인
리베로
Episode
#==
모랄
케임
##당선
Extra
시진핑
##마켓
부르주
정우람
카탈로그
도저
바타
벨로
친형
##부아르
미치코
조지프
개역
월남
지와
포에
황성
259
뒤바뀌
유러
통할
##어가
TRPG
Ki
급부상
신랑
kW
고승
대작전
비위
안재
알렉세이
호흡기
쏟아졌
손꼽힌다
샤론
인코
입안
자폐
기념품
VOL
배꼽
현수막
라일라
연선
장권
##ative
빠짐없이
pack
끈끈
소하
수려
요트
##겹살
보상금
타케다
치토세
South
노회
늘린
머리띠
김성주
일기장
일회용
video
보훈
픽시브
아트록스
해적선
모노레일
문물
원석
저수
##live
반지름
Lab
공론
문맥
호건
##68
빨라졌
바실리
디나모
Ju
네스트
슈미트
하중
합시다
힐데
전사자
Born
유장
관리국
지구인
야마노
채무자
유러피언
공법
노도
별관
불출
삼겹살
쩔쩔
##키드
##버스터
돌아다닌다
으려다
뒤집어
끌어오
little
size
올랜
리시버
김효
야노
청록
##바오
##북면
중요도
브라보
와카야마
불시착
Mill
Us
고은
띤다
지병
혹성
Shin
잡아당
Land
기해
신계
신판
역경
축산
##UMI
최전선
더위
친딸
토록
팝업
Pres
유라시아
COL
신궁
전말
살인자
Walk
기정사
김옥
환전
282
프레시
정규직
집단군
신조어
기정사실
동태
티엘
오카야마
검단
노총
배영수
원샷
한다던지
##stic
POWER
TNA
결실
꼰대
우도
하아
##창호
가져와서
느닷
뷰어
역수
진우
##저냥
오오츠카
개사
기말
누카
니켈
무득점
어딨
직류
할로우
휴학
나카타
Rel
승상
춘향
버렸으며
정상인
로버츠
스컴
##ji
류중일
FP
대손
도매
져도
탈선
##펜하
물리친
해산물
PRE
슈투
이스타
전뇌
마사코
효고현
Some
막힌다
물병
유종
##스럽
수호천사
하후연
깨어났
도킹
발길
이마스
장어
취약점
Mid
가나다
산신
투아
확연
##ks
##벼락
문호준
htm
답장
유생
히다카
기모노
friend
발원
부심
향로
니시무라
오카베
준코
주먹밥
흉내내
그친
명회
시끄러운
인덕
Chall
노벨상
적출
펜던트
프로즌
##마타
009
스탄
외삼
피폐
그레고
강태
아키모토
장태
점퍼
제제
종장
퇴위
호퍼
파이로
버려졌
블리스
저전
조중
317
이성열
may
안목
약관
양승
##yl
중앙부
김재호
와카바
SoC
레더
론드
##티에
##룩스
마사오
바운스
홍시
후렴
그냥저냥
민병헌
청동기
Iron
겁니까
닫히
민스
이롭
혹한
##**
세인트루이스
아우구스투스
바일
가져야
KL
떠넘기
속어
##셔리
##웃음
이동국
마르쿠스
연주회
Ref
동질
럭셔리
런들
백금
식수
풀어놓
##바도르
낙오
남베트남
라던
샐리
콧수염
##ora
골자
부왕
##정보
##akes
West
car
다든지
동과
먹힌
버틀러
##고시
##유사
아오모리
승조원
강선
상심
역주
티티
포우
279
창업주
미추
승단
오야
Forever
골판지
로치
밝힐
수경
##리르
298
네덜란드어
재지
##다임
자유민주당
아라드
청소부
거사
급박
이카리
코넬
카즈토
카와이
##자치단체
나눴
운다
##날린
수혜자
근절
성토
존엄
턱없이
패러다임
##REAK
black
난방
리도
장차
##vin
따라갈
선양
이봐
일깨
##풍선
핸드볼
앞세운
기가
나위
댄싱
외신
탈북자
##here
##hel
어우러져
File
VV
계명
말린다
정희
코보
폐렴
피워
하태
##더니
가입자
##aeb
장원준
길버트
손재주
순애
이혜
츠츠
칼초
한나
하라다
매몰
명반
문지기
##공학
아프간
##aki
힘든데
저작물
이회창
하코다테
Dynam
나베
룸메이트
불순
청탁
칸타
int
에스텔
세르히오
위헌
교통카드
부다
융통
전병
폐역
##IZ
항공편
카운트다운
곤잘
발할
빨아먹
시의
##FE
##랄라
라운지
공권력
##랜더
##ese
한다면서
##raw
걸출
노자
성정
주치
아르토
협력자
가브
기급
부엉이
성찬
유달리
헤로
스기타
people
개굴
데블
변해서
헌제
##부패
##HO
부정부패
WBC
채영
##퉁이
따라갔
COST
돋보였
속담
현생
##ault
##of
##평리
##큘럼
나올지
제스처
고배
훌린
356
선인장
갈매기
해시
278
어벤저스
오승환
격한
내던
위도
호실
##유희
꼭지
신보
인편
자른
캐피탈
키라리
신대륙
빨아들이
도당
센텀
즐긴다
전근대
Ray
고열
구파
남초
제미니
지은
다이쇼
020
ha
mind
김도우
도지
드락
라로
파쇄
##셔스
comp
Circ
렉터
영하
윤희
이족
인부
전희
테트리스
틀어지
함흥
##그러진
##바바
289
##edia
올랜도
Lord
쾌활
탐방
##리치
##IVER
##버러
시켰으나
컨버터
앙헬
참작
정전식
대했
리니
##채기
단체장
커리큘럼
경시청
급작
루도
보이콧
시킨다고
극작
메키
전가
##돈나
하루나
수십만
미라쥬
이데아
협소
=,
김천시
비무장
심성
용가
저건
##주얼
Prot
사법부
동음
림프
미에
2300
신분당선
검수
다와
조규
테트라
금강산
보름달
ElectricalBoy
Award
수현
키츠
고노
칼집
폭장
지배했
크로마
소대원
아키하바라
NFC
사대
##사메
일본도
LT
체스터
패링
미군정
Collection
아킬레스
대항해시대
아나톨리아
에르난데스
다혈
악성
##연기
이와타
선지자
바케
버질
히마
##cc
남서부
옥스퍼드
Pet
sl
증서
츠구미
미하엘
박민우
미확인
OL
먹인다
요한다
타테
후마
##실험
sur
장모
게임차
매니악
사형수
미성숙
미운
반했
소풍
##와키
스토킹
원균
월계
캐주얼
910
집어삼
맞춘다
Gar
남장
방도
히비
조인성
라치오
벤제
산양
오파
위배
참새
백모
##승지
##맞이
안무가
아랑곳
경종
고명
로랑
속셈
외질
008
실패작
1889
비이
알베르
가디
냉면
##수소
##처치
269
부추기
총기류
JS
가레스
위연
입담
자란다
한성부
더운
들으
이베이
학동
##텔레스
들판
##라도나
불러들이
하카타
앵무새
##킨슨
##춧가루
룩스
병약
텃밭
황충
플레이스
그럴싸
스완지
터트려
mon
나이키
나이토
브리기
불타오르
건널목
꾸몄
나포
식초
장마
파로
##사쿠
def
망정
상명
정용
지존
책사
치비
카잔
카락스
핵탄두
작사가
TER
물거품
쓸어버
엄정
쿠소
마쓰다이라
LH
초롱
##네그로
APEX
후쿠오카현
mag
경영진
레버쿠젠
벤제마
Wild
고액
빙자
집념
핀잔
매달린
Plat
극치
돈독
시퀀
지휘부
리카르도
청량리
아리스토텔레스
Ze
링링
온실
혼령
교육학
군의관
구강
매끄럽
서성
압록
다혈질
자길
##ios
메르스
이케부쿠로
형량
##andy
스핑크스
입헌
하즈키
DRA
도재욱
보면
조총
골목길
예절
지느러미
##공신
##크림
스턴스
강병
지회
탈리아
선취점
##uh
##행성
##멜로
리호
바레인
벼랑
내리막
백과사전
홍천
마음속
가속도
궁기
권외
그나
은닉
##놀림
폭발력
토모미
아드레
##이야기
갈림
급전
휴즈
##미리
##공산
백자
##이어티
이로하
||
독약
라피스
마론
민물
순경
주나라
##개토
296
리서치
fire
노니
유두
절충
초성
치노
##LV
떠올라
히이라기
브뤼셀
간대
곡예
넘나들
도탄
명가
서너
차이나
득점력
주먹질
에른스트
간청
곤봉
덮친
루브
444
니시키
후견인
RK
둔감
##아다니
마스터스
오카자키
##메이커
부축
비행대
아드레날린
ass
급급
리튬
채태인
쓰러질
배기량
박시
##일점
##ouri
EXE
콤비네이션
음양사
망한다
자영
혹여
로한
민호
아닐지
용기병
1870
스톡홀름
슈가맨
소사이어티
구포
의태
프리깃
마이크로
순정만화
호지
화강
##적거리
돌격대
김유정
감점
다져
로베르
멜로
보시
안위
##lear
보수주의
떠오른다
미적분
양질
저마다
직각
해짐
협찬
홍지
다이어리
운전석
리벨리온
광개토
국화
물기
바움
외고
차역
##데자
##파인더
내보낸
호소다
니모
띄어쓰
방조
스펀
원해
국가원수
감염증
##데자네이
\[
닷지
도진
레우스
빽빽
약함
인회
트집
품위
##인명
Lim
지탄
보관소
##ISE
fun
쓰촨
일말
690
imp
국고
험하
##스톱
##타나
del
font
고세이
기우
때려서
펼쳐져
1884
에디슨
Ban
빌더
자료실
MCU
부러워
백운
행정관
리자몽
기엔
예우
은발
적수
정모
명과
##노동
##불교
박정현
몸담
위버
임했
전준
체벌
##물질
리우데자네이
외동딸
피조물
리우데자네이루
닉슨
현우
##달라
IL
산역
자괴
조재
코츠
하소연
##샤오
단두대
TJ
제창
384
리스본
때려눕
뭉쳐서
읍내
재치
탁자
##동사
스카프
시아파
성내
소바
시찰
초속
피디
사이좋
006
삼성그룹
버틴다
브리기테
Hall
면전
만든다고
281
충전기
측정기
토벌전
폴리곤
오현민
Mich
WD
wr
##xy
##루즈
still
지리산
Bon
광원
상큼
토고
헬륨
##가면
297
카즈오
코노미
Vf
군무
리소스
쉬운데
앙숙
온두
육전
코뿔소
밝혔으며
##istory
와이즈
루스벨트
온두라스
금치
##케이드
##다발
##심원
EG
KAC
구전
먹힐
신마
코오
스포르
부응
안다고
여호
Child
관악구
푸아
##히메
몬테네그로
CONC
Jump
구심
시네
영과
##하우스
보여줘
레이즈
토모에
미시시피
공보
옥황
임파
장경
336
포니테일
Round
몰수
옥좌
기슭
든다는
짜내
##폭스
사부로
우표
##크론
##받이
오스트리
하여튼
교우
구기
비긴
서한
손전등
용수
장고
히로아키
만신창
대권
무주
뮤지
갑작스러운
Mart
Nav
Wo
쿨러
바꿔야
카산드라
배설
산기
증산
##ba
##ising
살아간다
베르나르
기뻐한다
일으켜서
히라가나
ft
당구
듬뿍
랜더
샐러리
팩터
HAPP
바랄
스몬
윤하
전입
홍설
Guard
격화
롤스터
웨슬리
아무로
베르디
박해민
Eyes
강룡
과소
포춘
##uel
그리움
##cept
요금소
수필
해버릴
브리타니아
모래시계
굶주린
애덤스
##태평
770
레스테
약혼녀
센티넬
전년도
박건우
비보
빛깔
##TO
레드불
요오
워렌
헤비메탈
도일
북측
유현
음직
하등
Dist
군소
씨스타
조스
##츠바
##잔치
동반자
농축
온과
입금
조안
##찌개
##올리
네이마르
경춘선
Bas
이지만
적설
츠시
콜리
합전
Rh
앞바다
우타이
쿠다
헤쳐
대법원장
불러일으켰
경무
도축
수화
음차
##타리오
30000
Ball
메구
봉선
컵라면
##ever
보이저
##reme
히토시
sub
공제
데자
무왕
역린
음악실
아울렛
깨진다
##토무
하이바라
생활비
##oke
지어서
RD
독식
샌가
플렉스
불러올
where
어조
유리아
후쿠이
페르디난트
케임브리지
tell
대야
와리오
아마미
바라볼
독학
만월
요츠바
프시
안타까움
콘스탄티노폴리스
Royal
의향
적병
수족관
OH
고춧가루
전초
조윤
포경
호죠
##여왕
319
고장난
GDI
갑니다
노파
으레
창백
휴머
익스플로
서장훈
나탈리아
익스플로러
par
비탄
폭렬
유키나
골인
기선
노상
무희
합본
행패
다이얼
거상
꼬인
낙엽
뇌신
흐릿
Inst
삼국유사
떠맡
스벤
안부
종북
투데이
팔콘
품격
##호란
이겨서
에뮬레이터
흥선대원군
가논
니이
산불
예프
종시
코버
판치
##inity
권위주의
LEVEL
파우더
American
온건파
two
낚싯
노른
도큐
목판
장량
할애
홍백
화법
##ker
##푸드
물리쳤
끌어당기
깁스
밥줄
에타
제원
지나칠
##리어스
##cer
##56
아라곤
핵실험
후훗
##캐롤
부여군
마역
맴돌
반투
양력
용마
타크
휘청
파스텔
대합실
RM
불살
우현
마스미
내동
뭉친
새뮤
신월
양구
이티
집니다
티미
##비에
교육자
김사
난항
로베르트
리링
미덕
생화학
잔나
860
고환
괴로운
무브
배짱
파레
강동구
간선버스
송창식
오벨리스크
책자
합참
철조
커쇼
##교동
##쿠마
마사지
날카로
열람실
VO
김철
깨워
석양
에렌
와전
##캐롤라이나
tri
리피
오데
리그컵
결정체
326
Style
건드려
헐리우드
노로
천거
히루
김재현
Parad
sing
번즈
익룡
머릿수
건넨
산청
406
입장권
항해사
끈질긴
굽히
벤다
비친
언동
##둥절
어리둥절
박은
카파
팀플레이
##ddle
어퍼컷
벌어들이
벤쳐
쿠치
할래
##추얼
구해야
성전환
꿀리
동공
들끓
제군
카포
도미노
네즈
쉬프
외식
제니스
강해질
Luc
산다는
알베르트
야라
열거
저해
정청
호국
산단
##테우스
그래비티
내려치
##acle
박살났
보안법
마가렛
관현악단
가곡
덕아웃
평형
##비크
##산맥
마샬
안시
잡다
떠올려
수감자
고출력
도토리
오목
##역학
내려온다
##vers
요시키
호쿠토
##ugh
##BL
바이브
##akao
스테파노
Fa
산수
전할
젓가락
충렬
코고로
292
first
보노
부린다
신랄
심수
요이치
레이건
참모장
살의
숭실
카고
##ㅋㅋ
Stop
디브
요상
차녀
해보
화정
real
무브먼트
꽃미남
초이스
포부
##기병
##빌라이
알아본
비올라
욱일기
진서
타카유키
padd
게을
광휘
닛타
대당
인품
NEXT
넘나드
덕수
만무
일과
했잖아
##진다는
밀려난
피오나
사디
장년
장외
##람스
함경남도
덜하
영능
흘러갔
Bell
HO
꽂혀
등부
브로드웨이
유공자
가모
빌려서
재석
친환경
##alth
이치노세
~!!
고프
롤백
신족
약소
##대성
데니
신이치로
찬가
흑사병
2030
사우론
바네사
루츠
와선
커즈
타박
##르츠
교통수단
자책골
중재자
감싼
고물
리니지
비수
삼지
임산부
찬반
영남대
노안
##73
##악단
지상주의
휘말린
곰팡이
마돈나
벤투
보궐
육사
지겹
칼리스타
하일
##배추
크로커
시한부
OUT
니시오
돌프
미연
선라이즈
신아
이간
##나항공
아시아나항공
되살려
Cast
앞발
언저리
##레온
1885
람다
펜리르
풍족
##른베르크
##민당
##즈미
##핸드
곤잘레스
반해서
사하라
엉성
영걸
적벽
양성소
홀딩스
꼬시
더그
##ule
MSX
2023
명문가
괴로움
극비
대졸
제노스
##트르
##락부
엔드게임
Golden
망친
와일리
잡스
폭정
군비
레카
배합
쉬움
Alex
구해서
기간제
달려온
촬영장
해적판
라미아
알폰소
Our
드니
은사
##rie
exp
##trl
서유기
박헌영
소희
수포
자구
모리슨
장타력
거스르
VII
순결
암드
건너뛰
잘라서
스스무
시퀀스
공해
망전
배움
##타주
바쿠간
섬멸전
교가
니노
붉히
쉬워서
작열
##43
##라이드
어떤지
3200
STX
모우
설욕
외톨
카요
힐다
##라치
프리뷰
스파게티
네이팜
ref
성진
이씨
좁히
찬물
페스트
가로질러
글로리아
Far
금품
꽃피
남우
천억
치웠
매킨토시
느닷없이
FU
then
재판장
얄짤
얄짤없
HMS
굴하
느릿
테네시
퇴적
##림픽
스트릭
Dear
카미유
할퀴
##min
불우
요시아키
익주
해버
대표단
기관지
모리타
이주민
카세트
멍하니
문턱
베츠
서당
축조
친위
코스터
판금
##디부아르
##석탑
##유행
데려간다
김영철
코트디부아르
Flash
손승락
졸전
흐리
##이츠
1001
육탄전
갑각
식료
우시오
호성
##데우스
##눈물
##ARE
파피루스
?"
갇혔
고바야시
셰필드
애꿎
폐해
##레알
##클라
하수구
유성구
강릉시
가맹점
조반니
교지
레비아
아산시
은유
중신
페그
##걸리
##층석탑
국민학교
위기감
연대장
이지영
레비아탄
rpm
군신
약학
토호
스파르
요시타카
무인기
Mini
수나라
활짝
##애플
떠나가
Stars
키노시타
독차
세크
시망
악덕
##시험
##인구
레이버
역사가
연주가
물러난다
##ought
군체
아낀
아라카와
카시와
수성구
새뮤얼
Code
난바
분별
장서
전유
에스페
허리띠
김수현
설레발
애절
이츠카
인디아
지소
최충
세계사
일단락
트레저
성전사
고을
대란
디렉
라헬
렛츠
블링
뿌린다
선화
정판
플린
화형
흐려
GOLD
MIN
논술
영세
카슈
상점가
황교안
Attack
간디
라간
말풍선
종편
회사원
남녀공학
뮤츠
철창
함의
##파스
아름다워
트리스탄
대관식
콘스탄티노플
윤성환
컨설팅
류승
샤프트
왕왕
전등
정조준
html
고티
나영
대연
덕양
온타리오
##피카
##iter
오카모토
##ucky
엎드려
other
갈증
총상
형질
##por
##ko
##만큼
블록버스터
must
song
겸직
장충
##GN
휴게실
##ternal
디비시온
Ti
Ur
노려서
레다
배팅
불합
엔투스
영제
원당
취침
705
예종
##천하
느껴졌
간절히
염라대왕
pp
~,
집무실
헬리오스
##AV
ret
로킹
연개
예멘
증감
칼슘
343
공사장
BAT
단짝
염보성
##십리
도민
움켜
자업자
으로선
자업자득
bec
실신
위트
탄광
토니아
##amu
서양인
Rap
기주
815
사마소
구례
지운
피눈물
##orrow
미야비
생몰년
사이타마현
의형제
투시
830
Mob
background
아탈란
공터
발드
성관
양아버지
인덱스
채권자
총학
쿠르트
##문고
Ven
WOW
뉴타운
주니
##kn
##주머니
아카바
부르주아
답례
로큰
상연
야근
여분
##소디
##탈출
419
삼국전
그리스도교
Engine
padding
app
노모
노점
병동
점착
책장
출도
아키즈키
지켜볼
533
고고학자
NTR
친일인명
성북구
친일인명사전
군산시
도제
모는
벌목
##예술
야구팬
331
나나코
트래비스
이택근
act
빈유
안가
##bat
조용필
PVE
명기
쥬스
##gar
485
hellojo
가용
난국
무카이
산둥
선입
우솝
##po
끝장내
히타치
나단
매국
지른다
음악회
계산기
line
원이
타계
##under
291
송승
중의
지반
구자욱
TNT
모치즈키
Chaos
수구
이바지
##eca
검사장
평안북도
;;
Yo
마라도나
염주
행실
허스키
##Force
##패닉
모드레드
클로저
히스패닉
크리스티아누
곤살
극렬
변성
역자
떠올린다
탈리야
무소속
소홀히
break
뒷골목
마정
영자
외가
타전
퇴색
홍길동
오피스텔
뒷이야기
렌치
록키
아보
유익
터로
흔쾌
##박쥐
가역
완다
용례
미카미
여차하면
HYP
버나드
베개
본따
정평
지켜본다
불렀으며
Princ
박주영
Fair
멤피스
할게요
npc
꿈속
담론
맞받
베크
서막
양배추
철기
##ORY
국소
레모
자시
컴팩트
판문
국민은행
크리에이
실종자
##uke
크리에이티브
GUMI
성가시
차수
##도그
집안일
히메네스
두들기
하하하하
내재
되도록
부린
사철
준주
322
미라지
요격기
가운
망고
모데
쁘띠
모략
빗발
씌운
오에
의정
##오른
##프릭스
기타프릭스
always
Wave
곤경
도륙
쏘아
쏠리
잿빛
킬라
##피크
조선왕조실록
Got
료우
정순
##42
435
중추원
난립
낭독
높인
수마
아방
아칸
캣츠
##셔닝
보병대
아사노
포지셔닝
LW
노진
양주시
참견
쿠션
절박
케모
border
fall
개점
노이어
들르
매디슨
번리
천신
커드
##드라이
들으면서
몸부림
351
애완견
비대칭
CAN
DG
간만
레퍼
부랴
하비에르
Galaxy
OZ
북송
불변
성냥
표제
브리티시
가와사키
네리
노심
랩소디
러니
소포
충칭
중국식
##olding
EVER
군락
비공
혼신
##자르
도독
매터
삼보
체공
친아들
호통
##들레
성동구
##올로기
이데올로기
가부장
DN
갖은
문전
오존
좌지우
포카
##USH
좌지우지
Tell
free
게스
급유
페터
사용량
787
메다
성상
콩트
팔콤
허기
야구팀
우스꽝
MID
북해
스탑
점술
##스태
505
가로채
##ITION
즈이
히바
403
516
과감히
뒤진
상파
우발
준위
##러시
간다르바
로리콘
남도
펠로
##sung
342
후지모토
헷갈릴
Face
밀치
부셔
어렴
특명
황정
신경질
방문객
가려진
상쾌
색인
주종
찌푸
훼이크
##ota
이브라
ESC
비올레
두드러진다
영유권
히지카타
구지
도레미
수증
도로공사
방청객
Ak
루퍼
쑨원
열량
오답
특출나
파헤치
'"
무쇠
##연구
##후무
전무후무
사절단
유민상
로큰롤
live
히가
##고비나
##체고비나
412
개최지
선제후
추신수
find
거병
검객
니트로
데이드
후각
다니까
평안남도
눈덩이
매겨
모씨
목도
봉승
이요
상영관
박광
뿔뿔
연제
퇴보
ACL
lea
명군
소냐
화백
아리안
아카데미상
##aeboo
라벤
비술
샤나
성덕
음정
##영화
##전드
학살자
트래픽
갈림길
가결
골동
리시브
번뜩
본방
볼셰비키
영매
은의
적개
##sm
Dawn
띄운다
설산
성군
습도
음각
##/-
##훈장
515
가독성
Ros
등수
시문
잽싸
콜린스
##itter
곡도
교보
다리아
적반
스테로이드
에어리얼
재정부
dark
노코
박서
용해
Caeboo
mp
네라
라보
랄라
새하
시물
앞길
##cat
395
키라라
찾아올
이지훈
나치오
후루카와
골칫거리
year
ㅠㅠ
길리
삐뚤
쑥대
어버
억류
##티드
내려앉
und
갈지
나을
형평
##하장
텍스처
유영혁
은평구
ROCK
남만
Adren
project
독차지
단판
신스케
엇비슷
코린
불러야
안중근
경품
극진
렌트
로웠
항생
상상력
마르크스주의
##그래피
IX
들켰
복병
사속
자학
적폐
홍석
328
이끌어냈
show
Element
소릴
투박
##dom
##극상
##pha
제너레이션
흔쾌히
Pri
끝마
내민
버벅
비클
빅리그
##스윙
세계선
나카야마
김정민
함경북도
군국주의
포인터
WS
신구
응축
쟁점
##omet
야스히로
서라
연세
장광
카멜레온
Tig
산도
식충
역효과
##사유
##ique
블레어
리퀴드
kill
닫혀
비사
##사항
지상전
옥타비아
Crazy
암약
이직
치기
##그네
##러레이터
##enz
현대차
사우전드
액셀러레이터
도살자
은월
더니만
##ript
MBT
이코마
패럴림픽
건졌
높인다
1850
제트기
당뇨병
Lady
RNA
다빈
사만
사별
선과
장석
절개
최병
캐럿
환희
##즈컨
마리우스
블리즈컨
숙련자
아킬레우스
GV
나바
둬서
띄울
세레스
손등
이권
핍박
##의식
스트립
고성능
뜯어먹
레퍼토리
LUK
형무소
##HA
프로야구
외삼촌
옮긴다
정일
타니아
팽이
다가온다
감소량
##ima
고속철도
공주시
외할아버지
ND
지녀
이동식
스펀지
노랫
참관
재건축
경은
사아
소작
쌍방
야훼
자성
아야코
선풍기
가까우며
이매진
스파르탄
가타카
동하
민생
##abe
라쿤
성행위
##젤로
언어유희
토스카
소문난
카와사키
아낌없이
Away
과세
찬드라
안드레이
사오토메
라세
선식
신석
풍조
##라르
김종필
파인애플
시가전
슬리퍼
FTA
계진
혈청
HAPPY
##스태프
어렴풋
주얼
503
타카라
옷장
항공전
inline
나빠졌
##카운터
당함
퀘이
##파람
원정군
이스즈
공작원
무라사키
head
마일즈
지부장
케르베로스
밤낮
비겼
##터진
통계학
안타까워
##ruct
최준석
class
일거
지고
컨티
##라고
##소득
선수상
399
컨티넨탈
금새
논다
대미
대들
무츠키
식판
요기
침울
화웨이
비해선
타입문
되돌아오
Point
내몰
문답
배영
의술
이항
정봉
국인
찢어진
##GM
페이탈
기부금
서대문구
#.
모코
유학생
플립
##FS
털린다
##새끼
쿠로다
박정석
Block
덮밥
윤곽
토프
##iam
##iec
Missouri
던컨
돈벌이
요긴
재심
팔아
오리사
일차
짜릿
클링
한남
끌어올려
거제시
Armor
Train
매표
연임
하바
##급부
지리학
까스
도야마
바스트
설전
철원
허탈
##ffect
반대급부
해안선
이만수
구치소
바바라
헛스윙
이호준
괴성
인카운터
피즈
##글거리
##뿌요
생각없이
5500
과도기
Evil
신태일
뿌요뿌요
"~
부검
유림
툭툭
현기
##중력
##닥거리
아이라
소방차
다카하시
TIME
검호
낙관
난파
목회
묠니르
가라테
가이드북
뛰쳐나가
Bul
관공
뉘른베르크
밸런
외척
탯에
##제일
##만고
부담없이
돌아다닐
밸런타인
BN
call
강재
차도
청천
파타
부산대
지우개
놓칠
서랍
폭소
허망
HTML
Low
잇세
체념
따라야
낙랑
세관
송현
잠그
추노
풀어
활자
하이네
도망간
현지인
쳐들어온
응급실
Ring
밀키
범상
장호
회송
경성부
고충
소학교
숙녀
##47
##팔이
##솔리니
컨셉트
이준석
진시황
Wal
ever
개심
류세이
리미
머지
백련
조잡
터닝
플레잉
가오슝
메디컬
Hon
친모
카베
하숙
##통행
##unt
코칭스태프
Lea
레조
문부
배성
양서
종가
파올로
홍주
070
아키히토
##apon
이시하라
고위직
자아냈
호크아이
카시와기
"-
개기
라일리
밀라
이채
##mar
레이아웃
곁들여
부탄
외대
##트가르트
대한다
슈투트가르트
Count
GBA
반시
섭리
진부
349
박문
윤용
전시관
고마운
마다가스카르
청양
헨더슨
##보르
겨울철
오비완
뼈아픈
XM
hel
버추얼
이두
##지휘
##ste
##uts
신드롬
무참히
군종
금남
난처
염구
패주
서로마
기관사
배틀러
에스테
지형지물
브로커
연산자
대국민
win
마경
얼추
최인
테임
포리
##세다
바라본다
최신작
부평구
핸디캡
차태현
향해서
달성군
##IDIA
구로구
도니
백귀
졌으니
필히
브리즈
매미
소카
오동
익산시
점토
선거관리
안정환
아자젤
선거관리위원회
Vis
요아
##gu
타이푼
##comm
콜럼버스
군악
기막
낸시
리신
만석
성황
하극상
해경
환마
##oday
이와테
미세먼지
적반하장
개고생
성간
세그
존칭
##터지
##악산
341
떠안
장유
처사
회선
##earch
TI
가꾸
드려
적십자
502
신호장
거포
니카이도
터전
##NER
##케이트
##팔트
서양식
칼리파
아틀리에
가렌
성탄
예기
이쁘
정육
##버니
##페아
##랭이
should
비아냥
시원찮
정성훈
쿠니오
미란다
이스케
평신
##르겐
##난만
올랐으나
기른
뉴이스트
땅바닥
봉하
스자
슬림
조일
폭뢰
##메리
마시멜로
광역버스
##ubeat
교구장
손석희
익힐
편승
히포
스포트라이트
오버히트
경보병
맛볼
역모
오작
우메다
##바이크
특수전
미카즈키
영문학
DIS
도금
복위
음침
해충
웬만큼
Bang
북로
##토리코
이재원
사세
청렴
후송
스트로스
경전선
천진난만
노즈
떡하니
수유
잠기
아스팔트
사카타
공공연
Son
먹거리
상극
무라타
무솔리니
백기
성부
솔리
제쳐
트윙
해왕
혈기
이소룡
성시경
경산시
고성군
곤도
##트려
번역기
빠져들
재단법인
Fest
독과
뒷문
민진
박보
##87
##엑스
수도회
출입국
까다로워
빠져나온
Pf
못함
##국사
##era
판매고
돌핀스
아나스타샤
푸에르토리코
Lin
뒤떨어지
아류
완봉
태왕
할배
##무가
##갔다
353
Machine
세그먼트
도파
슈프
떨어뜨린다
강화군
사업장
신청서
보관함
야간전
영수증
뒷담화
도노
알테
유약
추스
풀어내
해준
##런드
MAG
국문학
카시오페아
mac
부고
염화
##암역
이자벨
집행자
##berg
Jun
PUB
떠밀
떠받
비츠
삼미
새미
신림
요람
임수
접종
쿠엔
태울
##mo
##분해
카이리
##aken
헤르만
왔다갔다
##89
스칸디나
스칸디나비아
네거
데브
리야
일인
티타임
인코딩
고담
리샤
지에
칼뱅
프로페서
연두색
부로
훈독
##시네마
바닥나
폼페이우스
Jin
르마
자지
재봉
천주
스타스크림
모여들
코코넛
수선
착실히
철근
키요시
##코로
##튠즈
아이튠즈
이치현
eyes
고각
반목
보검
왕징
죠지
입장료
United
쥐어짜
그을
대판
수역
아뢰
##소프트
나카가와
그로스
따낸
부교
이승환
기울였
SideM
재래식
keep
기출
다원
불거
비만
유원
찬밥
쿵푸
팔랑
##hone
##성어
아마데우스
잡아가
노비타
David
그레고리오
역주행
섀시
숄더
헤헤
명성황후
가로우
니화
악사
포물
안전장치
ZEX
무정부
방선
핫도그
아르티
030
소개팅
세실리아
둥둥
보두
오물
외도
인비
점액
패딩
헌혈
터키어
쓰여져
동두천
만신창이
벌처
1871
사로잡힌
에스페란
SAM
마창
외편
창천
코사카
이름표
293
단죄
송수
코덱
타비
극작가
Honey
view
니엘
송하
재작
이재용
휘두른다
협동조합
경미
고단
김덕
노히트
참의원
후치
##비츠
MIT
}{
음운
최규
풍운
##lish
카도카와
허영무
!'
나체
생수
신서
옥천
입회
##ole
##나잇
이명기
PASS
Please
광무
빙고
세도
인드라
키야마
프래
나오코
김명운
내키
미진
버젓
베데스
상법
우트
접합
프티
막시밀리
베데스다
강퇴
심시티
윙크
임계
##ca
##장군
SPOT
##anced
꿀벌
루치아
사발
이블린
##은성
##매장
기억력
바라본
브라우닝
SY
바토리
방비
쿠나
드래고
호스팅
Lie
고깃
구종
녹차
목마
북대
성난
실마리
완강
털려
뷰티풀
술자리
임동
택틱스
허허
신기루
스프링필드
이민호
출고가
타나토스
광동어
불합격
그르
도겸
토야마
##63
최신형
앞당겨
IW
강용
극상
서안
타타르
움직여야
관군
균등
류이치
키호
Yout
해독제
검지
고카이저
에스트
12000
판매자
고득점
꼬집
미레이
아꼈
완도
자프
찝찝
##RAS
혁명가
라라라
헤르체고비나
연수원
보르도
공경
앙심
원스
##지방
##sw
요하네스
Kh
RTS
단양
덕선
비노
비앙
에치
재가
한영
##서기
Box
HYPER
눈꽃
들렀
비할
유학자
취사
힘차
MBN
압록강
버클
성곽
와치
입부
##치산
##몽골
##ener
하이스트
에리코
시사회
도미닉
병무청
전준우
바젤
발신
복고
쇼팽
야로
접두사
##41
##idge
흔들렸
도가니
구국
대뜸
면목
빗나
소명
종과
티파니
다가온
번역자
클린업
Wall
댄디
돈키
뒷심
우군
퉁퉁
455
압박감
마스다
돈키호테
bad
비크
트윙클
브링
와세다
원예
조이스
존나
고마움
고현
라니까
레게
비준
엄중
Log
##크라테스
골프장
아미노산
창피
팔달
##콘서트
다이치
##ira
jubeat
거금
파벨
운전사
토모카즈
무등
발부
삭발
코이즈미
라이카
올려놓
1888
마신다
네크론
일렬
진경
찢겨
##기스
슈퍼카
아파치
Asia
벌크
에보
적법
회군
1111
따라온
살인죄
패스트푸드
그레이브즈
NVIDIA
사니
휘파람
타이베리
타이베리움
권익
뇌전
디오스
삼양
##투리
PSY
부서져
교향악단
고난도
스구루
Mat
백경
벵거
신단
심혈
앰버
직할시
가벼워
home
패니
한별
##금니
##OB
##체스코
커넥션
바스크
위촉
##ook
데려갔
모하메드
삼위
손짓
염체
##RS
##함대
범실
승소
연해
허경민
알리사
김민우
예수회
중장거리
느려진다
김선빈
근세
동수
모반
서빙
전기철도
아리엘
NX
경리
관도
누워서
매시
무우
프로메
루이지애나
포가튼
미후
바텐
티안
대교구
기욤
누아
대생
들먹이
미조
비티
##광석
##ident
실에
아웅
외박
인즉
털털
##gn
337
날아와
쿠로사와
응급처치
Kr
UL
##연장
##선언
대리석
빼돌리
삼위일체
Tim
수륙
##가을
##성사
##브리아
##릿사
##cho
486
jpg
랑그릿사
유강남
코소보
낸다고
외눈
하루미
인도인
발할라
Tor
Wake
낙뢰
바울
소오
연심
절도사
줄인다
##멘토
마음씨
조리법
시원시원
발명가
##태평양
사림
에세이
오베
잔기
망가졌
Sa
개경
데메
레라
루지
아말
정철
최고령
기업가
이재호
Sword
무정
완만
타잔
이대형
부채꼴
Bal
건장
사헌
##장소
넘어왔
우월주의
이병렬
용광로
block
경색
기근
삼층석탑
행인
흐를
##민호
지배인
클라우스
기품
문중
북상
일순
피노키오
fuck
료스케
문란
엠버
옹주
전능
종묘
후아
아이바
나타샤
start
붙잡혔
낙법
야르
엄한
지껄
카론
Alt
EDGE
코토미
Ham
양평군
얕보
울분
인솔
네이션스컵
바베
상비
유폭
초절
##착륙
##orean
PX
급성장
노루
비글
졌었
주어
한잔
호오
훈족
힘썼
##ACE
김광석
Youtube
모병
세베
예린
요안
##모음
##슬란
집어던지
Book
굴러다니
>>
DU
누더기
멸치
셰어
영성
제과
키친
태산
inf
CDMA
##바스티안
고학
광운
마름
소도
유착
카무
호호
##amond
true
다드
동글
비뉴
##모비스
현대모비스
요시오
이천수
SUN
Tit
봉천
빨갛
슈즈
양원
##식스
연락처
들어간다는
넘버원
경단
본판
현시
이가라시
센다
창업자
학벌
##궤도
하이에나
421
##스키스
스네이프
따스
예스
위클리
이운
탄지
##aper
건너온
아우렐
상한선
흥국생명
Deep
Five
불새
살살
애드리
우열
크랩
헤메
수용체
여전사
양천구
에페
여가
##ua
##구이
감독상
프리징
비트매니아
going
지석진
Touch
식기
윤동
죄목
팰컨
##모닉
PSG
Any
개막식
리모컨
미나모토노
Spirit
앙골라
감량
브로스
사파리
연연
연초
의령
캡처
코헤이
히라노
332
카츠미
프란체스코
낭떠
애국심
낭떠러지
롤랜드
머뭇
쌍욕
염력
훔쳤
상품권
어쨌건
SNL
잊혀졌
박종훈
Paul
Adreno
VP
반딧
범한
알카
타이치
아라라
우회전
막무가
사성
윤호
젝스키스
질감
움직여서
헤이븐
막무가내
마세
예문
육안
타블로
EXID
숨겨둔
동작구
변함없이
UAE
의제
주원
352
Stud
여름철
##iving
필하모닉
fight
kHz
견학
상현
의경
쿨라
풀럼
Stay
KING
결석
골반
드렸
분가
369
가스트
김완
다던지
메시아
봉안
연혁
##ECTION
부다페스트
사헌부
ET
드웨이
레리
아팠
유압
유우코
걸이
돼도
워록
정신없이
종교인
커트라인
GeForce
플랑드르
놀려먹
PUBG
렝가
못생
아낄
징후
켄터
쿠빌라이
연출가
에스파다
면세점
김관
르망
막걸리
사레
설과
##시카
##두스
하이엔드
하이랜더
##roy
가까워졌
ESPN
아브라함
끈적
부역
어금니
##nam
##OG
교통량
천하제일
비슈누
가타카나
turn
낮잠
미각
아성
팔뚝
현주
혼재
##티보
느냐며
Shift
냅두
라테
지파
##덜랜드
신속히
울릉도
Dom
대보
시차
썼으며
패도
##CS
그웬
답습
부락
클레멘스
SEC
대정
마지마
맛없
싸잡
저걸
아스톤
송광민
반딧불
루소
유색
태상
##로니아
비슷비슷
사상가
해줘도
내비치
으스
재소
편중
##모르
IA
기시
노현
변혁
불러온
##iano
코다마
에노시마
아드리안
SAS
모후
묘기
호빵
##스타파
Offic
마르티네스
HM
들락
향연
##소이
1887
Monster
대용량
빡센
시무라
영체
청중
##시게
##곡면
##reeca
##dden
##lash
내려진
에이프
노르만
만주족
냉방
동중
아전
참담
펌핑
##ination
알아낸다
으니까요
엄격히
스케치북
개콘
따졌
364
511
배워야
Jour
Men
남문
동천
렉서스
마빈
물린
브릭
수질
찌른다
##메즈
##복지부
공군기지
아수라장
넷마
신권
티치
##달프
그래피
언더그라운드
변절
워든
하다
롯데시네마
KOO
##르기니
레콘
로나
비프
서산시
입소문
대마도
로사리오
금기시
람보르기니
교목
타르타
황진
##ergy
요구사항
디아나
Exp
박지훈
가재
메롱
연식
올랭
장희
진법
초면
추서
저지를
토마호크
샤를로트
막아주
Perfect
Sat
이키
즐긴
허당
##도치
381
심리학자
2025
적개심
Bel
est
궁리
루블
별의
자칼
호재
##카테
프로브
전차포
바르바
소수점
Revolution
East
Name
번창
제게
창가
제작소
##orning
유한준
Samsung
펜타곤
범블
안토
옥션
큰데
##ns
Mov
##ension
SFC
굳혀
야동
어군
저놈
커져서
달려와
즐거웠
오리온스
Ghost
족쇄
차일
차였
히페리온
산다고
우화
추장
표어
모국어
화강암
SOL
겠다
군위
나찰
로타
멀미
배추
전현
##누키
별의별
Mom
rad
공력
사문
점진
하미
##군데
##경궁
##실론
##onely
우르르
신용카드
##제르맹
고슴
뷸라
윙스
접미사
콩쿠르
늑대인간
이질감
류진
암수
흉폭
##청역
아야토
에스카
##uster
고슴도치
노에
메워
생제르맹
채점
퍼트리
폭도
##를로
329
소년탐정
##르기스
흑요
##ural
대공국
미용실
##soft
더한
썰매
썸머
찔렀
##eon
##코스트
327
히로코
일대기
슬래쉬
FOX
서두르
견주
대좌
못생긴
버진
볼펜
빼어난
양용
츠토무
##보로스
##itz
절대다수
이무기
감방
갖출
대총
읽히
화공
그리피스
낙마
베컴
병문
위신
절연
출사
힉스
371
##ORTS
휘두를
범블비
검신
떼거지
자두
040
발레리
Ca
낙천
등반
물총
폭시
피임
615
김성수
겁나
궁술
당명
쇠락
충주시
##EG
##무도
타이타
스페이드
##adient
자연사
파라곤
정착민
보두앵
Keep
똘똘
윽박
자인
전출
조호
##콘신
릴리에
위스콘신
김범수
엔비
키르기스
2700
Vict
복당
북베트남
송준
진선
후편
##DMA
##백제
내려지
엘리제
가후
맹자
캄파
혜화
이상훈
파이즈
413
1882
아사히나
오로치마루
Talk
계륵
논할
불황
회력
334
편집부
975
해진다는
그로테
부원군
고조선
공차
봉급
부커
서곡
지남
햇볕
아아아아
벤피카
뺑소니
육교
인포
평탄
##지스
##rel
광산구
윤치호
가파
어투
퀴어
##GL
##유진
세워서
언쟁
유황
잇세이
##쿄우
피아트
레스너
예배당
넷마블
사돈
양석
장덕
김건모
vlive
라느니
먼로
온양
##러움
휘두른
Fn
TBC
도령
동관
배워서
연일
유복
키쿄우
포시
폴나
허수
##예산
##려는
케이온
카페인
폴나레프
곤두
남조
드나
아어
양녀
역정
직물
풍수
요시모토
추락사
노부유키
김태형
블레이블루
유부녀
송지효
불출마
네거티브
National
대일
록히드
무과
숨바
##여대
김경훈
데얀
독극
마흐
클록
킬리
통했
파운
퍼짐
바이마르
귀양
드린
브릴
쏘나타
아다치
JA
고타
곡옥
네브
새삼
수열
부산물
철조망
급락
유경
첨탑
체어
황홀
##코니
432
1886
후임자
고결
불어나
알현
다이키
데스크톱
Digital
파운더
쿠인
으려던
417
터치다운
정수빈
Eye
논스톱
닐슨
명망
미일
장장
해룡
허상
708
고질라
날라가
김갑환
BREAK
기탄
셰이드
아버
총잡이
767
놓여져
켄타우로스
우로보로스
Strike
근심
달한
마교
본받
예체
알렉시
BRT
예체능
Ax
dj
면부
측량
파국
페넌트
해주
어쩌다가
기차역
외지인
UMP
선망
슬럼
이샤
이로운
최남
특보
##포화
지도력
날아라
실망감
콘스탄틴
플라스마
TOK
기무라
나태
야부키
존대
탈세
특능
##ops
김재규
제사장
틀어박혀
Records
흑요석
데키
메루
미투
박신
운고
위즐리
천칭
톨킨
후천
타카야
로네
삼화
상설
소코
유람
이청
정숙
떠올렸
이태원
보미
오갈
지포스
진저
##촌리
408
오리올
로망스
##tainment
Tu
Van
야옹
적어지
회동
##사가
멀티미디어
웜홀
참살
##거림
프렌치
##iverse
오모이
녹아들
말린스
본과
인화
백모래
Az
브리트
화답
아무거
바이슨
유니티
적대감
가좌
김자
버락
서상
송진우
스윗
에어로
울주군
호치
화엄
올림푸스
667
Shoot
Hyper
달구
빨치산
여린
연가
코덱스
790
남다른
내한
내건
반송
발짝
에헤
원혼
팔자
##란도
치러졌
마누라
되살아난
Europe
SIG
권오
말랑
저버리
##포타
Doctor
청사진
이뤄지는
선구안
Afreeca
MISS
김국
석기
섭섭
시해
풍월
##프랑
토시유키
Hom
산장
한텐
부족수
타카토
미즈호
메릴랜드
만사
총국
친우
큼지막
활강
후니
great
추계
##주나
50000
Danc
가일
발바닥
슈틸
키린
556
트로츠키
카스텔
보건복지부
Cool
Cre
main
마젤
신일
엘시
연줄
일광
코야
테라스
##질서
프랑스령
1883
백악기
동그란
로메로
깐깐
미구
얹혀
회기
놀라울
##gram
##기념물
OD
hy
덮어
들킬
옥시
철없
초탄
타트
##모프
스칼라
대진표
항생제
라토
바구니
보카
실축
일탈
포악
##BLE
##VR
##장사
##맥상
예정자
광역철도
천상계
SOS
앨버트
중앙은행
자그마치
fly
김춘
부르고
어려운데
sch
다독
어촌
표트르
알리바바
끌어올렸
슬래셔
Return
Ultimate
수문장
구모
레시
목차
옛말
인망
일평
##페리아
890
강일
심이
우고
주경
청했
호에
##91
방문자
의료진
이재학
ZEXAL
검무
##웨이브
1892
들여다
드럼통
맨틀
슈와
야토
팰퍼
흩날리
크라이슬러
팰퍼틴
기파
일문
자임
포머
스타쉽
스파클
바그다드
Welcome
도경
독해
쇼콜라
순탄
쌍수
염장
입학생
하북
혜리
##부단
이이다
건드렸
메소포타
Beast
메소포타미아
징발
키세
한우
##르카
##돋움
1050
마나부
떨어진다고
우에하라
우유부단
리히터
team
일본국
중앙동
원더러스
래시
로튼
바예
역삼
으으
은연
초크
808
브레이킹
뛰어내리
##awa
사일러스
홍성흔
당위
데시
로터리
발돋움
산인
원기
전집
절명
##롤터
##루트
저작권
대성전
지브롤터
경공
만재
붙임
손시
워크스
장엄
졌을
짭짤
쿼크
푸념
해버려
##민수
##합성
7500
다스렸
고지식
다항식
Soc
약어
최희
추수
##vp
파이리
##스티아
전지훈련
목포시
이세돌
Fox
Gate
불매
파베
##다스
머리통
465
##ogle
두드려
##strum
모덴군
볼로냐
Ctrl
Ger
미샤
온대
은하수
가상현실
슈틸리케
배스
울라
허도
히말라
AIR
군데군데
광복군
재빠른
신태용
DIA
Dog
류성
만취
뺏긴
연민
푸이
후이
##위키
김기현
부유층
토우코
포물선
고행
답시고
신토
호령
케이시
675
이정재
##투아네트
리베라
가시마
개과
성흔
쌓였
어사
종회
창술
코펜하
키아라
할게
##상현
##히데
##amily
유사쿠
지명도
자국민
원어민
코펜하겐
불거지
저울
347
기념식
##arden
엑스페리아
내지르
고친
광안
목질
부파
비옥
서희
유턴
점할
층수
##분열
##루이
인건비
계량
봉고
전단지
짐바
효린
##머드
건너갔
AOA
Java
맥심
문민
##IUM
##oro
##lee
네이선
알리바이
여대생
골동품
꽂히
찮은
##을까
378
독립국
체육회
경매장
감회
갤리
앙투아네트
찌른
철종
취해서
는다던가
노동부
아시타
코마치
Conf
매춘부
nhn
공학자
DMB
뇌격기
띄어쓰기
Watch
결핵
섞여서
윤태
점호
풍긴다
힐스
최고위
last
빈티지
제레
포일
혼전
##에라
연습장
##ARS
용산역
.!
권정
깨부수
움짤
장준
현신
##보호
발매될
마무리지
iPhone
리저브
프로메테우스
가칭
불기둥
##린내
##xx
##레더
유니언
편해진다
그로테스크
MMA
UX
공녀
도기
병렬
사그라들
소토
테헤
그리즈
inc
조치원
정예병
페널티킥을
Turn
내치
동승
린카
오드리
장력
포사
414
그레네
니체
다신
두스
코튼
헤스티아
##주환
엄청났
##ession
Tal
동키
명도
박계
염경
찌를
토부
##zen
##ASE
적대시
이정후
도통
쏴도
알란
##자실
카즈히로
수면제
히라타
갱스터
헬라
혼노
##okie
천연기념물
히말라야
CIN
박창
베니스
폭설
407
1893
##반도프스키
식료품
동키콩
레밍
린지
무이
볼보
염료
특제
##호리
##음악
##첼로
기다린
홍명보
Qualcomm
고병
낙찰
레반도프스키
로직
판관
드라마틱
쫓아다니
바닷속
괴기
서하
어댑
킨다
495
Teaser
어댑터
\\
간통
금오
만덕
법전
심즈
주호
후버
훈계
문제아
가정부
##OSH
보행자
비속
새마을
요로
칭한
카누
한서
##뛰기
베르사유
하남시
견지
메리아
한민
##YA
##등식
##코모리
354
히키코모리
부르고뉴
식도
열흘
정력
##나귀
##당동
##까요
그리곤
확고히
테임즈
##NO
##십시오
Ready
단념
도의
신군
어수선
페스타
##yond
##임자
##카라
358
1891
이주하
고종욱
Color
##otta
계엄령
애너하임
청록색
ya
도자
장음
정운
징시
핑키
##fly
대웅전
BAD
sol
슌스케
점철
춘다
한자음
되돌린다
~!"
관사
덱스터
라빈
살모사
선산
칸토
##진영
넘어진
전문의
이종욱
sun
예조
진아
합쳐져서
유인원
필터링
뽑아냈
##ALLEN
윤보선
넘친다
요다
찍어
천민
개인주의
고위급
마요네즈
라플라스
찍어누르
깨뜨리
농후
농작
연차
장가
질리언
날아오르
배상금
Human
계모
메데
물감
프릴
한산
KTF
Blade
베아트리스
Ultra
올랭피크
even
게레로
모미지
방불
아사카
이각
장재
##떨어져
타이토
엘리미
복귀전
##ELLA
AST
따질
메구리
모일
탬버린
Island
기말고사
bea
기예
릿지
미요
수재
오뎅
점쟁이
##푸아
디아즈
돌아다녔
최하위권
best
바츠
엄하
전인
조무
포프
프릭스
해저드
호남선
SPOTV
sleep
새비지
엄니
여아
##자매
##UMP
601
GOOD
Det
꽃밭
덕지
벽안
어묵
우무
잇달
크리스천
ob
강산
난잡
매서
시편
우규
진의
짬밥
쳐냈
##부랴
지나쳐
368
알려졌으나
동정심
장원삼
포토샵
BIG
fps
가몬
순한
우왁
점보
회당
##Sp
마리안
아파서
내세울
휩쓸리
스캐너
국밥
대천
바빴
부캐
야규
유레
키메
1250
지켜봐
##나이더
Devil
소지자
하네다
고메즈
셀린
오자키
지먼
직간
조사단
떠올린
외할머니
UTC
가극
과테
모뉴
울버
이맥스
##SPA
에미넴
친화력
과테말라
모뉴먼트
Gro
갈취
마소
복어
선반
예니
정남
한시
##사와라
##갑니다
##건건
전기장
컴퓨팅
다녀서
사사건건
Disc
type
xD
교만
돼버렸
린타로
슈바르
특산
풍림
##레나이
##아보
어느덧
지켜줄
SPORTS
멕시코시티
시라카와
마카롱
수인선
자경단
김환
반파
베지
재스
접경
지랄
철교
맥라
박테리아
선주
에이드
우뚝
오가사와라
포격전
가산점
Crew
내딛
막힐
배관
일세
클로스
학산
회부
장식품
연극배우
압둘라
금천구
기안
라코
모가미
을사
판소리
항행
했으면
NPB
공대지
오재일
HQ
더리
연지
점잖
취조
토박이
고등어
451
757
Prof
신중히
BK
맥길
민재
벌교
본당
싸대
쳐라
티머니
황동
##iot
504
012
AND
견줄
명물
##ZZ
가정폭력
레닌그라드
나날이
aid
마곡
사뭇
생츄
접지
456
그라비아
정정당당
생츄어리
much
수미
암초
와쿠
육중
362
BSC
WHO
히미코
IPS
구천
기왕
농심
당나귀
레슬리
서황
실비
양초
엮여
정과
칼레
정은지
노와
부감
야치
웹진
파카
학식
##스카이
##브웨
도전장
around
함경도
부랴부랴
Cam
당고
덩이
자락
##범근
##정원
##다일
##소닉
넘어뜨리
수행원
운전병
탄수화물
506
시노비
크로커다일
Hit
dest
알약
야야
와키
지누
##Re
헌병대
Rich
경동
니노미야
산스크
오갔
용비
풍토
##초리
##포리
거쳐가
멈춰서
산스크리트
나그네
모디
무학
##VI
508
전체주의
348
카나리아
너덜
실랑이
타투
##동역
강민수
갈레
급변
설지
장한
지렁이
##천외
보인다면
양성자
기상천외
새마을호
쟁반
주동자
지참
직영
##터면
align
SET
DEST
록스
발연기
베다
보기
웨버
유닉스
조급
천부
청바지
##렌트
509
##ett
가이우스
하마터면
크래커
보육원
덕양구
DPM
길잡이
양판
응변
차감
화북
후쿠자와
Android
스케이븐
고간
권순
매머드
아난
우직
중주
##연대
1830
##방송공사
Py
봉해
브린
새장
외투
이충
##말년
##거루
##pport
CHAOS
시군
시소
앙금
이말년
타게
##아노
1112
제작법
361
575
자치주
Conc
위압감
경솔
리디아
안배
약세
연천
##촌역
갈비뼈
아나키스트
sum
우사기
켄고
타요
하대
신호기
##슬라프
갖춰져
Center
##ULT
지평선
호나우두
사룡
탄원
형국
라이코
고용주
OEC
list
미믹
본모습
슈지
치트
군주제
김민수
MOON
손수건
꺼낸다
빈부
엘도
다이너스
NCAA
유즈루
##YPE
은밀히
항소심
바빠서
드류
씨발
체첸
채워져
증오심
서기관
휩싸였
뜯어고
##ountain
KeSPA
조련사
IQ
격주
금하
마전
모닥
어장
현감
호황
한국일보
지휘봉
스키장
정예화
HSD
모닥불
KF
건수
굴레
진솔
총명
칼로스
##밴드
344
우규민
공훈
네일
예카테
팔로
폐간
헤일리
##aff
##골격
하여간
인신매매
스자쿠
각료
레크
선관
회중
##콜리
하루키
655
##quid
부순다
병자호란
타이타닉
끼친다
녹서
사쓰
욕조
종소리
페네
366
한데다가
LK
made
경구
고연
끊어진
누출
진척
항저우
##클리드
리아나
히나코
NEO
코디네이터
낚아채
발비
이고르
##희정
해서라도
Prince
NHL
부끄러움
피어싱
gl
개구
두말
쿠란
Han
격식
고공
노병
놔야
료타로
옥편
절체
하이드로
합법화
AOS
원령
##니언
##서블
##꼭질
스트롬
패스파인더
before
위안스카이
앨리슨
프로파간다
숨바꼭질
고신
딴판
슬레이브
엘비스
헌장
##ui
701
427
NOV
호프만
##prise
DirectX
Mur
hand
대호
두텁
란티스
히아
##bye
저지력
플라이트
공영버스
소림사
몽고메리
레사
암모
지쳤
김현철
after
자유민주연합
Law
대곡
영전
옥사
육류
##메시
라이히
플래툰
트루먼
해부학
각시
국자
북진
빨갱이
슈퍼마켓
수사대
재정난
파도타기
색소폰
Michael
가자
냉혈
녹아내리
복소수
영희
##호텔
##탱크
드러낼
마키노
아랍인
마르코스
궁내
꽃다발
수니파
암전
야금
은비
##치병
##결사
깨끗이
걸스데이
탄자니아
글라이더
엔더
월기
젠틀
행사장
미나세
신호탄
물어본
##ronic
그랜저
떨궈
어긴
에지오
라고요
부르짖
히로세
프레젠
후지코
Adv
김무성
Rom
링거
025
비밀결사
으려다가
396
한계점
회의감
라시드
직간접
GRA
방장
아작
온순
태진
편할
##ju
동구권
스팅어
치사토
들통나
테헤란
ROM
Tot
해미
##멩이
다섯째
창조자
남북한
잠재우
관찰자
진통제
긁어
깬다
빈정
암벽
토익
흐느
##적소
##텔링
스토리텔링
##스타일
오타니
건국훈장
##IGH
BH
과오
버린다고
소나기
맥라렌
남중
대할
설파
야차
진태
친문
테테
떨어뜨렸
뒤집히
복합체
CHALLEN
제노바
보디빌
다빈치
켄터키
룰라
실속
악부
칭해
##ature
카메론
SPI
에버랜드
무의식
크러쉬
엄친아
나발
머레이
종횡
주디
토시로
##기시
##ities
아크로
이등병
땡땡
마들
성훈
엘보
오미야
인강
저돌
##ida
Ins
하수도
탐정단
동대문구
국채
따와
인출
페코
형수
황국
##오르크
524
바리케이드
쿠라타
OCN
심형
원두
창안
사회민주당
CCC
포도당
총대장
그레인
뇌파
만끽
산학
왕신
이릉
##아비
##누엘
424
늑대개
바리에
번번이
충각
안동시
머지않
겨드
박이
순백
압수수
허우
##포이
##귀비
##램프
우주전함
오르골
데포르티보
버젓이
압수수색
Ty
공홈
단비
돌멩이
머플러
반바지
사보이
서수
수빈
원류
편해졌
선거인
사물함
요시노부
만년필
나부
노키아
말끔
불독
설인
##상제
내려다보
달려라
##INY
오스본
휘둘렀
리액터
난도질
짐바브웨
치트키
단합
어파
용덕
주법
##케스
##스크린
대수롭
AMG
AGL
인신공격
황해도
오창
오경
휘어
##UPA
노스캐롤라이나
UMTS
유부남
Well
거트
마대
술라
양위
역류
연적
피네
하순
##사촌
카자미
전륜구동
##known
경외
서임
세브
수생
시리어스
side
마한
산시
합중국
헥사
367
철도선
케이브
##OUL
일까요
사감
##플레
3600
조종수
제주시
AX
Bre
XT
고레
귀향
병우
산고
축일
운동량
신비주의
셀레우
다쳐
에브리
에닉스
##정제
요구량
State
Prim
감초
까딱
총량
##마쓰
##필리아
상업지
와이프
Microsoft
귀축
놔도
늪지대
사교육
알릴
에나
은수
크릭
후광
##절명
프로스
따라올
크루거
메타크리
여서는
뒤흔들
관공서
메타크리틱
Have
가군
베베
쇼난
영사관
우서
조범
현안
황희
##티야
##테루
##추리
블랙박스
통합민주당
뉴스룸
나간다는
마테오
규리
지른
화복
메인스트림
떨어져도
PvE
조로아
노보루
남단
만타
순응
슈나이더
유심히
why
평안도
OECD
Sand
레플
의전
차비
호소카와
ECW
레플리카
구니
르바
명주
지난다
풍차
##증권
알아낼
423
내리치
일가견
헷갈려
이만큼
커밍아웃
SIM
가다듬
났으며
냉담
도영
바칠
소어
총성
캘러
코멘
트레일
코르키
기장군
고추장
조미료
낙제
독감
문규
인스트
청두
오오시마
기갑병
WCG
루퍼스
샤샤
앤틱
앨라
주계
##가이
##대역
노리쇠
##ITH
블라스터
해치백
1848
바빌로니아
과속
뜯겨
버키
속였
존치
캥거루
피비
하만
##da
대학원생
Brand
테츠오
야전군
NLB
NK
실연
주급
히지리
시켜도
MAP
미나코
Comple
불도저
놨는데
##풍뎅이
##부인과
아멜리아
Entertainment
HSDPA
래드
발데
육도
현아
올리비에
인도자
소닉붐
암시장
뜯어보
쉬우며
베아트리
Wood
old
레가
봐줄
울먹이
조여
중엽
포비
호반
호엔
흡기
##댓값
경기고속
히로토
Next
Heavy
안두
토파
형조
리스토
이진영
노후화
겸사
광탄
디미
산파
약정
유보
쿠이
##포밍
꼼짝없이
버뮤
업과
파지
홀대
##국민당
집어던
카츠라
가나다순
버뮤다
DEC
넥스
누누
미포
윤도현
홍조
방법론
442
지대공
연령층
Quick
박경수
dec
드비
센타
판이
하멜
##루야
도망다니
Boys
단발머리
긴다
노수
지훈
찬송
투타
티무르
헤인
##재단
지배층
프린트
AIM
엑시노스
배고픔
롤린스
울렸
참극
##대포
대장인
마히
진노
표결
##gue
##가하라
##간지
세탁기
는군요
음란물
농작물
Vocal
모멘트
에단
우금
일동
일맥상
411
그레그
English
서유리
일맥상통
동적
맥거
토도로
파와
패킷
이스마
가부키
승희
애송이
엄두
##묘지
여행객
판타지아
신들린
오린
적인
죽도
콘트라
세계인
그라프
Shot
대원고속
김병만
구더기
류탄
비루스
원룸
족제비
촘촘
홍철
##내미
국립대
News
Bi
KH
ms
드와
북군
비실
실외
축구장
부활절
다방면
green
대광
말없이
셀틱스
헤어진다
##그럽
##티마
017
수증기
어렴풋이
감춘
매버
장제
청풍
쿠베라
##장성
그래요
372
어찌나
싸이클
다마스쿠스
건륭제
JJ
다용
스란
잿더미
핀다
호명
활전
##시니
경험담
HDD
자본가
헤르미온
헤엄치
헤르미온느
뒷배
브롬
사코
월하
후소
시대상
Pt
cal
결백
그려서
도바
순직
어플
##발디
기억나
매그니
Aw
Mis
간질
교미
노경
헤센
##도끼
##팅게일
##좌왕
넘어져
아르민
##ief
2024
끌려간
##ADA
블라스트
Need
우왕좌왕
face
권했
악셀
엘린
우소
정각
즐라
지영
표한다
##현역
##구스
가져서
빠져나갔
주최자
감녕
경갑
남측
코발트
쿼츠
설계자
Thr
법무법인
에듀
후두
올림포스
눌러야
PW
건진
네루
분란
파직
##막음
소리쳤
정신없
현대식
사무관
노리치
ISU
카와시마
애국가
키르히
베아트리체
긴박
독한
부령
생력
알바로
화목
##aps
청소기
오지오
남한산성
선착장
CY
블린
오하이
태워서
형세
##uty
오토모
오하이오
귀결
김어
샤리
천막
신호등
정통파
광활
다칠
마티아스
물색
신춘
세이코
도마뱀붙이
정중앙
정대현
Surv
better
김어준
과달
지쳐서
차내
챈다
##법사
근무자
key
균일
장쑤
마사야
브라이언트
속삭이
브리트니
면직
연우
토노
펩시
##청사
아마미야
##angu
PSV
어딘지
프로페셔널
덤볐
세프
순대
저예산
접했
함상
605
STAND
이승우
금메달리스트
ALB
안젤로
절체절명
다린
입막음
팡이
##사위
##쳐야
불명확
언젠간
건전지
왕징웨이
어플리케이션
머라이어
못난
휘석
##티즈
저지대
회의실
다카라
이황
진호
치코
##mb
##라니
메이즈
공중분해
에어백
파르마
떠돌아다니
GIRLS
네바다
봉수
조어
진인
쿠티
헤켄
다고요
야스다
ㅇㅇ
고평
롬바르
매끄러운
지모
통쾌
##62
##초롱
##blem
거북선
끌어올린
세키가하라
적재적소
신디케이트
Bye
pass
용두
플로이드
합천
잠실역
구심점
길렀
목도리
북면
사행
사가미
양강
치운
##fr
결정짓
014
이리하여
탄약고
유메노
토도로키
영민
파계
들어줄
찾아낼
013
좋아할
문자열
서귀포시
"/
극본
무령
불모
##나래
강해져
이현승
무궁무진
Fnatic
게오르크
완산
용성
잡기
##ware
##붕어
우라라
에스페란토
OEM
던트
렸으나
식빵
코테
허버트
험담
##펄트
마사아키
미카게
쳐들어가
캐터펄트
낚싯대
판문점
거역
기발
내버리
숱한
입출력
패소
##볼로
##고도
##폴드
가드너
괴롭힌
Lunatic
WR
라무
부마
앤젤
주워서
진양
현인
##안경
나카니시
845
Si
마군
박효
오베르
테리아
페오
포문
화생
웃음거리
세라믹
붕어빵
득세
부결
잔루
절하
칠판
토속
##차도
이러면
363
060
보살펴
해버려서
로널드
본보기
외피
줄창
##SE
##초프
유미르
물어볼
가제트
뷔페
상투
여생
케플러
##울프
메카드
크레타
웨일즈
셀룰
열외
와의
지호
척후
코하루
한솔
고등교육
##ARY
독극물
Dar
톱날
##view
부르봉
ICBM
쿠노이치
로하스
Zone
베키
조역
##시효
한데다
플루트
타르타로스
CINDER
논증
라야
부쉬
양군
인육
일라
정범
정혜
차등
##71
##온지
---
키노피오
토사구
List
버밀리
빅맨
심술
완고
창덕
##짓점
와서야
여학교
역풍
주우
페기
장애인
게을리
CINDERELLA
걸어도
껄끄러운
꼭짓점
비탈
화로
##men
##납니다
들어설
NGC
기강
망쳤
펜더
##td
EDM
신평
##좌우
##emon
조준점
미야자와
Evolution
베네딕토
길가메시
건방진
결박
까불
스다
중진
호되
##가라
339
상징물
운전수
쫓아온
청구인
고주
광택
윈체스터
피어나
##베이거스
PLAY
맞짱
머드
서창
제빵
키티
패륜
화평
##GON
##치킨
머리칼
경찰대
모자랄
라스베이거스
##OLED
1866
유미코
간이
모창민
차탄
##vo
인데다가
고속정
요시무라
크롬웰
##드라이브
Add
버밍
실생활
영위
월리
정루
질의
티파
김제동
크러시
Ga
Korean
도농
서플라이
채워서
혈육
##따로
388
클로에
글래머
Pu
게놈
물망
콜레
큼직
##폭격
##귀신
##몰이
가르친다
429
char
##101
TAG
로쿠
마쉬
집값
청아
##79
##공단
로키스
객관적으로
매리너스
강만
몽상
새틀
젠장
허저
##클로스
##틸라
뉴욕주
##하마드
ESS
크리스토프
사에키
뉴잉
말레
박멸
시큐
언변
퀀텀
특위
오버드라이브
##ards
클레임
파울로
임창정
Jul
경박
로펌
머글
에레
원광
홀릭
아니한다
아르주나
다닌다고
이토록
셜리
한옥
출연료
나이팅게일
더블린
신드바드
토사구팽
가를
반물질
변제
임영
적혈
챔버
아이드
레이피어
체인점
나빠서
Escape
IE
Pink
양희
자화
채플린
##gan
##XC
불러내
빠져나간
두령
라켓
방역
살롱
음경
패트롤
##하드
##황제
##랏빛
데이비
여의치
박태민
초음속
선입견
방업
방위대
산골
삼합
채프
학내
##글랜드
##선교
소모전
383
##UNG
뛴다
레퍼런스
시화
아이다
나가수
438
형제자매
카나미
부위원장
들려왔
혐오감
할까요
세무서
남사
당적
망루
엔리케
##wood
##튀김
장수풍뎅이
HSUPA
Sens
날로
덤불
훼방
활동가
##book
어머님
Joy
군경
극체
농수
물갈이
비씨
우우
월세
채드
##주크
이사오
떠올릴
가속기
Xen
누계
담아
병참
포천시
풀숲
힐라
##MR
타이니
타이쿤
라도스
현대전
thing
시행령
두려운
프린스턴
휩싸이
LINE
선서
폭등
##배마
Prime
앨라배마
문집
쓰임새
커싱
페이드
##SC
보여줌
그라디우스
really
BEAT
레지나
Advent
백화
법상
브롱
삐걱
주피
척살
클라스
투전
워리어스
터트렸
꽂힌
답안
신무
우바
인먼
해마
##어치
##레틱스
가르칠
에드먼드
조언자
걸린다는
애슬레틱스
다카라즈카
뉴잉글랜드
bg
강직
경강
민들레
보니
쌍두
열성
오닉스
지카
처남
합해
허들
히구치
##아졌
강해져서
##ashi
건내
떨림
소론
에즈
외세
##슈바이크
1840
폴라리스
Ast
고다이
영속
취리히
##night
##oe
##장미
359
스파키
브라운슈바이크
볶음밥
릴라
무해
소강
중역
카시마
평단
##지붕
##렐루야
사격장
Three
유비소프트
들이밀
스나이더
휩싸여
##공산당
동맥
모인다
트릭스
행시
##연맹
##교구
데이먼
진입로
나카이
키타무라
CHALLENGE
여류
여울
MAC
##가와라
Rainbow
김규식
자탄
주둥이
터뜨린
한현희
##훼손
고대인
리라고
김응용
다미
던스
렐라
삼남
에결
##레지
관동군
늘려서
도량
막간
##시키
place
Ky
mem
굳어졌
레르
오중
##uit
##크네
##게이션
##혐오
오르막
##rib
조용호
에리히
내비게이션
민지선
장민철
데몰
토다
##효진
기본법
##리오카
422
무서움
비상식
Boom
활기찬
잇따라
눈감
떡대
배부
영호
최동원
행했
##lude
명예훼손
스러우
내사
문라이트
주례
마이코
여지없이
후쿠시마현
DOWN
Hold
군웅
링어
사경
샴푸
원효
집약
##모닝
##카메라
홈런왕
휴양지
베껴
셀주크
앞다리
황하
##조노
431
장난기
아메리카노
블레이저
CNN
깎아내리
옥새
잡초
생성기
유키카
대역폭
남동구
스쿠터
try
가니
대축
순창
입교
주노
지의
총감독
통달
성적표
885
운전기사
에드윈
1876
파르티아
##동사니
something
구어
구본
배심원
쉼터
그리운
사이고
##시아드
경계심
치우쳐
마유리
이창호
청량리역
브란덴부르크
오작동
TYPE
멍멍
종친
##head
433
황금빛
베르너
옮겨서
1868
EVO
클레이모어
유니버시아드
굶주림
라디에이터
누운
야리
완주군
후백제
##hind
##노소
##노비치
stand
맞이해
EMI
리쌍
부업
아반
어치
차로
선봉대
금정구
UT
몬지
빌어먹
실추
오제
호빗
##key
##lege
로열스
own
굿모닝
다락
목수
천일
철로
풍산
##몰래
중앙역
논리학
Phil
독선
라모
얼간
초고속
크라스
파푸아
무아
바스타
백도어
테너
##언니
지원병
특별상
Stone
트레블
동년배
소프라노
open
셀레우코스
날지
부끄
영공
유쿠
이시아
##보노
작업실
428
무서울
만만찮
Tokyo
광희
물방
우라노
살상력
아로마
##stink
김경호
cry
said
광진구
등애
성현
셔야
쓰려
##정지
##erd
접착제
men
끈기
남고
몰도바
사납
썸데이
압류
오무
체증
##에로
##GS
youstink
dead
기혼
북인
움직인
445
버그스
마카베
끌어들인
General
MON
바렐
버너
불덩이
출병
피케
훔쳐서
잡아먹히
학생회관
..!"
거한
빈치
인법
임모
자를
테타
파샤
후프
##수산부
어도비
426
내팽
대범
셰인
위층
참의
##왕국
관심없
ANIM
모은다
아토믹
YS
머시
볼라
색이
심령
임현
찻집
##그림
##하리
환경부
골든벨
오라버니
쇼크웨이브
강상
동동
모항
브륀
새빨
잡동사니
지박
하주석
향유
환골
##arch
오스왈
스티스
아바돈
현악기
XIV
곰돌이
면식
베슬
산토
스틴
십수
화차
전투함
Thom
뿔뿔이
가석
경건
업보
오판
저소득
##일레븐
##annel
마쓰다
카펠라
스티어링
Fuck
두인
바투르
최국
훈련기
645
shall
ESP
BOX
다분히
쓸어버릴
난자
전매
찬미
사이온지
오버클
올려도
후쿠야마
고인돌
립스틱
루자
부들
빨개
오턴
참상
쿠레나이
##주제
분리주의
스위퍼
선덕여왕
국령
박카스
서역
의탁
특종
프랑스와
내려와서
추진기
##ector
Diamond
후타미
Cos
mov
고덕
농단
묘연
새겼
성찰
제반
키워서
테인
화톳
흩뿌
중장비
Cytus
화톳불
구면
김순
부안
입건
청진
캔버스
##uf
##탄올
##할린
마사히코
베르그
복제품
멜리사
리베리
상근
설렁
소구
요쿠
전야
조홍
헤이스
그리마
라이거
AMOLED
박성균
swe
광도
글쓰기
꿈틀
니마
량의
석고
썰렁
접견
채원
티베리
801
야마우치
에드거
Major
백동준
반강
##AUST
##상도
1350
알렉시스
##ifle
AMX
센티미터
염경엽
세차
스팬
##펄스
스카디
472
Scar
김승현
흑마술
Princess
가련
가린다
꼽힐
단칼
돈가스
카보
타히
탐내
택견
##난성
##메데스
분류군
535
미소라
부턴가
강단
문동
베나
##입니다
날아온다
392
티베리우스
그네
담백
명이
붕가
이베리아
절호
증손
EXHAUST
옥황상제
휘어잡
강주
이럼
투레
품계
회개
흐뭇
정령왕
둘러대
독방
발락
방열
수탈
알프
중합
홈스
##스텐
##49
##CK
무리없이
느껴서
1881
막시밀리안
Field
개천
발렸
앙투
트였
##하쿠
##느릿
##중근
버렸으니
에이리언
분열기
이원석
마네킹
_{
악력
공포심
합쳐도
집행관
안데르센
가뿐히
손시헌
뭔데
석패
아문
여라
잘랐
치여
통념
376
458
콘스탄티누스
즐라탄
겸용
받치
부계
생강
씨네
전치
##라이스
전환점
야스시
People
가프
그친다
끄트
남로
압송
장세
제끼
티노
후생
패스워드
뛰어내
-"
광시
금영
도표
딱정
본뜬
홍정
##재해
##로쿠
데려갈
양상문
정종현
뜨거워
Week
도복
변천
왈드
율리안
이네스
지레
##ILE
##코더
616
1864
빈번히
규현
논조
베로나
흉측
구석구석
두들겨맞
병문안
Oct
보랏빛
식객
실업자
코엑스
##레앙
##만만
정보국
모리안
그라드
JUST
folding
oid
개활
민혁
브렐
염마
조마
##테리오
결정지
##리어트
925
고마워요
##URN
기뉴
동주
리무
물씬
페트라
##iro
으려나
MAT
박지윤
지어야
니토
모진
사려
야투
정약
한입
특수부대
고속철
보수파
which
카디프
세인츠
모데카이
도상
벨레
쏴야
##겨워
맞춰도
이마가와
쿠라마
서지수
지질학
Nod
봉사자
윤형
인리
1863
다자이
끄트머리
갈바
도식
뺏겼
에비스
영해
페도
후나
##쇼프
545
파라미터
래디컬
산모
약제
창궐
히토리
##간드
805
자연재해
##emo
요시미
갖춰진
불쾌감
게오르기
남이
다득점
더스틴
윤활
임실
파노
헨드
##에즈
##데스크
##ado
궁금증
사모아
이간질
NDS
TAKA
dps
감형
닛코
라푼
앉히
연표
차륜
토스트
##월동
##ona
학생증
아키나
라푼젤
대경
막혀서
조작법
뛰어올라
Base
Drop
그윈
명량
자미
정안
정릉
컨스
건드릴
충무공
슈프림
속명
연천군
콤팩트
포레
환멸
에너지원
달라란
칠곡군
Expert
OVER
조악
##토리오
아야나
들켜서
노린다면
기틀
현판
##cle
##aze
혼노지
가래
한카
##가족
현대사
##노우치
테라포밍
조르주
이뤄지고
대디
바톤
암사
장쭤
짓궂
충정
츠다
히바리
##rap
연회비
MW
궁의
부연
소부
완비
주앙
휘날리
내리찍
몰려드
오비탈
macOS
간발
갔다
율리아
음수
주운
체액
##벌린
바이탈
연속극
때려도
Seoul
다닌다는
Sorry
구시대
도읍
##민관
##대비
불러들여
시라토리
유기체
Move
공감대
근신
담양
수개
쌍벽
텐진
##INS
세례명
클라리넷
해보인다
금과
끝낸다
난점
서광
신혜
유류
헬퍼
따라와
레이아
트레이시
ITX
Phant
뽑아낸
Classic
Mass
bar
감미
그라인
울티마
##승원
##탈태
미야케
공공연히
적중률
스매쉬
로페스
물음표
환골탈태
Bird
hard
각서
미이라
밀실
올곧
험지
##좌석
##ista
주둔군
안녕히
##토니오
서거
쌍권
을려고
작문
키엘
타군
택티컬
##멜라
오르내리
소총수
Arts
파르페
마르셀루
매표소
쌍권총
엘렉
영고
오군
차범근
총영
성장세
382
키리노
내셔널스
Tar
Yellow
맹신
신력
이구
탈라
세븐일레븐
김상현
Voice
아우구스트
Town
공증
연좌
행주
허스
##ced
##vi
comm
##azz
인텔리
달서구
Woo
램스
문교
본머스
증조부
##LR
하이패스
세이메이
전시장
이즈나
마그누스
신도림
산타클로스
이소라
광양시
강희제
양립
월영
일념
페텔
프렐
##너덜
##들어
##캠프
##isc
Start
스토브
카스카
김강민
PACK
동우
압사
최고봉
블랙번
신사동
의석수
주세페
너덜너덜
되새
박동원
복근
상주시
엔하
적룡
폐단
##dr
25000
대리점
들여오
휘말렸
LEG
CBT
호르헤
독서실
HOL
James
mix
라무네
마애
반고
벌렸
산만
콘돔
풀려서
한전
##지긋
##추럴
##ala
아래층
현대건설
스티드
소이탄
지긋지긋
스포르팅
원이삭
과로
대백
락스타
암행
영단
총질
행상
모드리치
452
훌륭히
문규현
개활지
간언
나다
보타
욕실
하안
##처분
471
주력함
##ipe
버텨야
버터플라이
틀림없이
???:
대남
분발
안종
애꾸
약력
중등
치리
피웠
##독립
사쿠라코
느릿느릿
mode
고다
고카
기오
대낮
비급
젤라
쿠온
374
따로따로
동의어
EDITION
응시자
궁도
금붕어
뒷좌석
알타이
잡일
토쿠
아카시아
Four
리커버리
버러
살균
히히
태양신
라오우
이형종
내줘
박무
봉중근
채은성
퇴짜
##나비
##oria
김정훈
고니
군번
##넬라
인터랙
세이비어
inter
김진우
돌연변이원
Active
Mas
NOT
mi
광업
권사
시엔
지현
철산
퇴식
very
고메스
모회사
사토리
잘츠
조모
차력
컴파
티니
최종회
크리스타
트릭스터
선민
시끌
아너
월북
진혼
처할
출하
돌아섰
폴란드인
##ILD
안젤리카
갈대
몬트
성국
세모
종아리
좌초
##시안
##시엄
016
이민우
중형차
지녔으며
디모
진무
호마
##BN
##군주제
##마른
아마조
418
마일스
##AKE
Design
산부인과
서가
수의사
전영
코리안
콕스
탯과
품절
##어서
##칼라
##inum
825
미들급
Control
##클레어
직사각
신다면
오행
집전
총포
최루
최북
아니메
생산품
가정교사
디아볼로
Meg
문화재청
컨버전
point
주피터
가석방
개회
난세
되묻
비브
##오빠
##출산
이나호
과소평가
바텐더
rel
논산시
마영
살점
스탁
임차
코무네
티에리
파전
585
남녀노소
##프리드
면허증
병점
석연
아더
이입
크루스
한적
##사토
##수정
##동산
##악기
1110
번역판
391
동북부
주방장
기제
리엄
수해
울루
입영
지퍼
코하쿠
해탈
##델라
스러워서
베트남어
몰라요
김연경
타게팅
Camp
관원
권희
그라스
김철수
남정
내던지
목공
애타
용궁
이예
이혁
임사
주동
페데
##누리
아프로디
요시미츠
분신술
궁금해하
박지호
맥거핀
아프로디테
강윤
곱슬
나구
내줄
대너
봉합
시나이
원역
우부
적함
축성
##어주
경기전
라이라
통일부
자괴감
ORAS
Rank
개변
공진
단상
만발
메꿔
목화
서던
소크라테스
##그릇
당연지사
당했으나
755
이오니아
스낵
정맥
주중
핑클
화친
these
스트레
내려올
아마네
디스커버리
고드름
겹쳤
규약
독촉
동심
소기
실라
오태
휘트니
##메이드
##불성
PCI
반짝임
실용음악
Destiny
Km
뒤처
록과
류자
맘루크
범타
생환
서체
속설
알랭
전분
펠라
허경
흔했
##hr
터키인
유엔군
DARK
가식
거동
단심
라만
명석
사동
철십자
청일
파오
##갈비
세이크
야마하
금형
정려
준용
픽사
##안토니오
후원금
매국노
곽정
군축
굴지
기노
녹슨
드이
모계
보초
아낙
원생
진안
지방산
389
오노데라
안겨준
신승훈
산길
안다면
크메르
포미
##찾기
##olt
넘어졌
024
작곡자
이오나
Fast
단막
이탄
칭할
행해졌
##게인
마이아
내려다
EXIT
양산박
도둑맞
김진호
결의안
HSPA
견과
내미
벵골
##볼라
##룸푸르
##ants
쿠루루
York
겐트
소추
슈뢰
좌의정
준호
콰이
파해
조합원
타카노
올렸으나
최진실
일평균
관위
밀매
베어내
빌바오
색출
에센
##bc
##라는
자동소총
##acc
그럴듯
메모리즈
릴리안
그랑블루
히사시
Record
브룩스
압구정
Jam
고와
들킨
버럭
서늘
한국방송공사
리그전
합병증
으리라는
계왕
맹인
문지
불이
031
승강기
더러워
최진행
안식처
뜻밖에
국세청
루체
샛길
양치기
일그러진
장내
진궁
콜레트
한약
호법
##통감
그린란드
거듭났
마그넷
스윙스
였음이
침체기
포에버
리필
선불
야츠
조위
허둥
##이의
##잡기
돌려놓
놀라움
심장부
카와카미
마카로프
꼼꼼히
컴파일러
sa
낮춘
대현
말러
손호
쇄신
어종
웨이크
스프린트
모노리스
퍼블릭
ALBUM
AZ
Ba
RH
란도
몰린다
별호
알터
주적
카나이
허황
유격대
이화여대
일간지
Ryu
Movie
늘상
방산
성민
송내
앙크
##우진
Command
선술집
사쓰마
엘스
조양
##백화점
##urs
SRT
초콜렛
치뤄진
미망
소현
회합
##버린다
##잔디
마이클스
Festival
아버님
que
요컨대
총각
케네스
플린트
032
WK
글라
낯설
매상
왜소
체전
쿄류
1101
단편집
쿄류저
":
SQ
굳어진
엎친
진귀
파판
##연주
##제한
##넬리
##꺼풀
사카구치
파르테
남대문
오랑캐
떠내려
없앴
유클리드
조한
토시오
문제삼
##ani
버스커
크리켓
스크램
취임식
비스킷
오케이
Birth
달기
윔블
018
논란거리
387
es
교세
뒷다리
어록
징용
커닝
편수
피라
희열
##bi
##폭발
근무지
대가리
맞물리
Ye
가평군
장각
조크
천리안
홍건
##퀘스트
지하차도
헤드셋
순환선
잘츠부르크
Link
Sav
심우
야경
약재
태동
호랑
흥했
##본기
축구공
##!!!!
가이드라인
Fact
경민
본고
소액
실형
우경
최훈
##야구장
another
고위층
SAO
디디디
탈의실
쩔쩔매
간달프
굴착
술잔
일국
파토
##호흡
수도자
Tele
구리시
포장마차
광명역
정유라
림보
석수
완제품
사이러스
아키히로
프레임워크
해양수산부
가레
기의
안창호
엔카
원영
##동네
##back
##베인
레이시
부른다고
못해도
715
Arena
제어기
대조영
장례식장
과태
굴뚝
내연
병용
최애
합주
흔해
##BR
##ette
476
클랜시
반투명
농노
막연
##bor
##디니
1861
집합체
김윤환
세일즈
드와이트
고파
늘린다
로슈
마룡
보문
부곡
안노
어게인
이업
일약
서비스업
프라우드
김성욱
1170
김경문
안토니우스
동북아
오와리
능글
반스
시어도
조도
캐내
021
뛰어드
연수구
##uki
무로마치
얽매이
Hur
ZONE
값싼
구질
뱅크스
예티
우비
작과
해맑
프랑키
마이카
작업대
Brown
조명탄
아그네스
시어도어
메밀
베릴
주살
판정승
불가침
그쳐
루벤
백범
이삭
키아나
틀기
폐막
힐드
##러맨
##첨화
불행히
금상첨화
BATTLE
경수
낭패
풍구
하나마루
고속화
인류학
대하드라마
카트린
총력전
PAR
교습
나디아
요세
자애
처맞
청화
특산물
카즈유키
약해져
미즈시마
격전지
Smile
노회찬
과태료
게츠
다프
봉래
샌안토니오
영겁
태사자
##bur
##터미널
여행지
532
플라티나
끌려간다
벌금형
딱정벌레
감청
기를
라떼
루다
무릉
별동
요의
##no
##break
393
쓸모있
받아들여졌
네게
누수
롱기
천역
##완다
##umi
도우러
카시야스
Planet
털어먹
상대론
3300
브로치
외무부
때려눕히
논밭
대흥
도조
랍니다
리쉬
발정
보원
비디아
요나라
전급
츠리
##겸사
019
과학고
##rive
499
크라우
두려워했
벗어난다
겸사겸사
Catch
Nothing
골탕
곽가
끄집
니미츠
퇴물
##호스
도봉구
Rol
XD
가둔
김이
액티
열의
윤아
저급
카서
##주현
##세키
정의윤
동남쪽
반가워
CAP
가업
첫해
망나니
야영지
rien
소가
초아
##실라
은행나무
1865
파르티
김천역
##ext
빼돌려
체르노
장쭤린
fWAR
괜한
구대
누시
모식
술수
카렐
이나리
043
확장자
ATC
이와사키
몰아붙였
Rising
당번
리다
볼래
봉작
세아
탯도
##조라
603
##iday
서기장
좌표계
급탄
사바나
에츠
진달
칠리
코브
허덕이
화계
스트릿
띄웠
령전
범고래
산조
실피
준이
775
##board
Mast
넓적
들쭉
삐삐
시루
오상
유별
킹콩
레이라
이동녕
히데유키
낙차
료가
오시마
캐딜
379
도서실
사카자키
카츠야
height
조상우
캐딜락
남아시아
도몬
트리스타
핵분열
##tty
hit
니콘
달해
레서
물정
미집
선뜻
##down
##민스터
##박질
화물차
마지노
분광기
Jung
김찬
엽서
영신
주홍
스웨인
브루어스
Too
계집
대척
동식물
링네임
샐러맨
551
시나노
보나파르트
에두아르
샐러맨더
Bomb
Fan
두둔
루키아
면장
서아시아
시제품
야단
연투
울린다
줬었
하토
티모시
미켈란
FDD
슬레이
통감
패리
흑태자
마이니치
지하수
488
저널리스트
미야기현
오버클럭
His
Ion
won
구겨
렙업
심바
쵸파
콩콩
오래가
알아챘
461
브리짓
조성호
시노미야
##는데도
권태
알케
야역
폭식
##지뉴
##inger
내려야
클라우디우스
크러셔
교칙
무쿠로
별별
송유
싸여
휘젓
602
해준다면
새틀라이트
궤변
달링
발끝
보배
온데
진산
최명
콜슨
베르타
1867
위문서
나경원
미하루
볼록
화학자
후타로
저장고
미추홀
Mobile
NIGHT
Tonight
이휘
인들
최주환
해럴드
호부
##스토
무도관
Bf
rock
노고
애자
엉클
원죄
해놨
##가슴
##죽이
모른다며
뛰어든
Science
티아마트
MLT
낭만주의
포그바
DRAGON
르완다
분구
유념
즈루
진국
컬투
탕수
화동
##쨋든
타이드
436
아베노
보살피
Liquid
퍼블리싱
구태
멸하
비류
스워드
어쨋든
입맞춤
중임
##olle
스포트
Begin
어긋난
최재훈
류성룡
Mess
끝마치
부이
빙상
숙원
아씨
하악
MAS
기어스
코너링
후지사키
예수교
브루크
잊어버린
거뜬
고품
교학
권기
이착륙
재키
조인트
##웨인
##갈기
409
임대료
Produ
보험금
Bay
셀틱
슈렉
유호
창사
친어머니
필러
찾아낸다
들여놓
##ruction
Jud
연탄
컨소
해뒀
##MIX
##장식
가졌으나
매운맛
우사미
컨소시엄
굳어지
탈로스
현가
035
의문사
미나리
들이박
홀로코스트
브랜디
휩싸인
윔블던
Lucky
Rose
도현
마스트
모구
사포
산행
소야
숭고
##도감
메이테
교섭단체
났었
석영
풍각
그런대로
공항철도
군악대
발밑
봉제
소보
숨어들
안트
엘지
오일러
요는
페레
들어간다고
보은
연나라
유에
접두
태공
##중앙
story
마루야마
OOO
Sir
다롄
울펜
터뜨릴
##ram
531
징징대
오구라
비속어
Try
네비
무임
벌린
복스
실링
예토
정당방위
SCV
1878
Prem
울펜슈타인
너리
세리스
##ni
##노미
##itor
1873
VPN
동신
베드로
퍼싱
흑표
코스믹
최상층
고생물
##ounter
talk
부에
사할린
소공
우암
퍼즈
Still
만족도
오오카
통계청
이인임
란코
료헤이
오장
축사
화인
##어즈
##저장소
버려진다
Express
들여보내
공화주의
조형물
잊어버렸
홍문관
거느린
굳혔
누벨
방범
선하
쇼기
순록
슈어
신간
아임
암투
후위
##그러지
그라나다
days
Fantasy
##민정음
CONCAC
꺼진
반원
시지
일베
##star
금지법
##ONIC
공유기
AVGN
코카인
일베저장소
YE
강공
기즈
꽃가루
따오
막료
액면
##VB
유명무실
##고속선
키요미
최북단
리쳐
발더스
봉산
운디
지웠
클롭
활개
##헤임
줄기세포
프롤레타
호쿠리쿠
슈바르츠
프롤레타리아
GH
교두
뇌진
모질
안겼
청군
탑신
##스테
##국장
##디스크
##핵화
기록물
교장실
시빌라
마젤란
OME
count
곡성
낙지
드얼
분말
정구
타조
허풍
##마킹
프리즌
접속자
Warri
DESTINY
wing
구정
명경
서투
외골격
이체
흐루
##뭉치
##ATS
1872
수신기
CNG
최면술
비잔틴
시큐리티
Bit
끄덕
모그
반나
비엘
아덴
통풍
##ray
승부수
##annon
라그랑
사각지대
스필버그
안티오키아
체르노빌
uh
디카
레메
산초
성충
위관
혼세
아카드
394
begin
공수도
싸운다는
타지키스탄
장보고
후시미
나대
로동
바뀜
버저
연모
청해
카사이
훈민정음
##디치
파라디
이자나미
비상사태
웨스트민스터
구로다
오렌지색
Flower
CONCACAF
Und
곡면
관아
관두
레딩
룬드
리엔
바투
비핵화
##네프
을지로
브루나이
잡아낼
미디엄
장년층
Gri
겐신
금은
남포
때론
몬태
미란
불미
앙주
쿠알라
홍천군
수상기
441
베르세르크
아사드
##mph
##layer
망가뜨리
유감없이
Paradise
쿠알라룸푸르
매회
미필
세수
양털
일리아
한석
##면증
타이요
박정환
코지로
김신욱
임파서블
고니시
서린
안희정
연체
탈착
혼마
전자레인지
Shield
버려도
신청자
벤치마킹
불태웠
성명서
행해진
황선홍
Ru
fin
고른다
과녁
민아
상궁
송재
오하라
왕당
요조
일사
후르츠
##덜미
미야노
법원장
어린이집
로고스
##iversary
개축
교착
몸짓
이춘
인시
페레스
현경
혼선
황가
브래디
동그라미
rest
고취
길들여
메디아
범선
여경
운휴
진평
회가
제아무리
뼈아프
Tank
cap
나한
다도
만국
모트
버시
산사
쌓인다
의안
진진
차드
##베가스
Always
라스베가스
흘러간다
미츠오
소형차
루미아
송승준
DK
류제국
엿듣
짤린
카치
피망
홍성군
화도
후토
후유키
##토마
##직원
관리법
개그콘서트
군포시
전현무
담그
됐으니
미대
새싹
스머
우간다
집적
##손가락
513
조각가
612
김동주
진료소
한중일
Fairy
Jan
걷잡
버킷
성깔
쉬르
인족
찔린
현미경
##로메
##게니
##leg
ste
메가톤
들여온
ECM
Pen
__
따끔
떠넘
몬티
우전
606
things
지켜냈
해석학
얻어터지
존경심
키워야
정사각형
서라벌
게나
명찰
브르타
사혼
택트
##riri
##bl
이성질
이쿠타
rienriri
브르타뉴
거위
변현우
쌍발
애석
우석
음대
임해
방송실
쥬얼리
복음주의
박재홍
해왔으며
spe
감응
발리스타
세입
심벌
쓰르
치아리
정신병자
쓰르라미
건즈
극좌
삼색
송은이
저공
채연
타역
포체
아르슬란
성장률
대기록
네이티브
징역형
does
Imm
HTC
care
곱셈
뇌장
소영
예사
울진
처신
혼고
홉킨스
이제껏
무라야마
미켈란젤로
가노
공갈
율곡
주당
치역
회복기
뛰어오르
법무관
선봉장
앙투안
논지
농간
니가타
믹서
병상
음지
파내
##체인
시험지
클라우디오
ABS
##계리
##버라
##슐린
모의전
고병재
인터랙티브
Dong
가려서
남파
안다는
옹진군
영구히
유아기
##정보부
UH
WM
로모
종현
치력
현석
화만
MXM
창덕궁
땃쥐
볼프스
불임
차라
타블
##토레
계기판
855
불법행위
몰랐다
카리야
플루토늄
DANCE
기치
내몽골
베넷
샤쿠
원색
##여우
유사점
ready
브로큰
도깨비불
하우젠
스트로크
바르트
잡종
탄착
타이슨
중간고사
인천시
398
마르타
마인츠
러시안
정동영
무신론자
강소
기립
리건
번스타인
야부
직항
하정
항원
평화주의
##ounds
튕겨져
올바름
크롤러
빈민가
내다보
샛별
히브
##문제
떨어트린
달라져
통신부
튀어나왔
체크포인트
SUMM
세자르
알아차렸
return
Tog
마태
복학
석호
양시
예속
재우
쫒기
거시기
Six
YB
dance
김흥
디파이
루차
맏형
전성
줄리안
쿠나이
##남면
달려간다
##rian
하우징
##ches
Portable
Es
고만고
군필
니야
사브
소염
오금
특효
파더
폐점
행신
히라이
제노사이드
고만고만
bat
다움
윤일
DDD
BU
마미야
방음
암만
오언
##지중
실력파
LPG
리시아
보탬
사창
요그
이고
이젤
종지부
척박
핵폭발
##right
##도나도
뉴스데스크
감사원
##sson
알려졌으며
ext
두드러진
이사벨라
심수창
거림
논설
마친다
명검
외진
제고
호너
호야
##장어
875
파고드
모라타
짜여진
Tak
마선
벤더
플뢰
횡사
##BER
##화음
##츠구
Theme
대장정
탑재량
주간지
교토부
비야레알
OMG
QR
서품
어트랙
영내
흩어졌
바람둥이
##cher
도망자
추격자
인질극
애국자
제각기
볼프스부르크
어트랙션
내과
만보
밀스
빗물
사중
세편
속행
호언
홍상
##좌동
##itar
##imo
마츠무라
괴롭힌다
낮출
왕년
##와리
하이힐
377
##aga
Web
블로섬
에노모토
이완용
구요
마우리
모유
아령
전언
최홍
카비
헤어져
##구비
유대감
Mega
ART
김종서
Phase
현기증
Cut
Ol
들개
등단
불기
비경
빗나갔
속일
였으면
진관
초의
##상간
이승훈
게릴라전
근친상간
헨드릭스
Dir
설거지
##oma
022
요시노리
514
김민혁
1875
우연찮
리바이벌
age
ray
개간
남남
니버
추돌
퀸스
그리즐리
보드카
신동아
덮인
동광
로테
정곡
최서
##ering
1820
자유형
하이웨이
어울린다는
버려라
괴롭혀
오이타
프록시
공각
볼튼
옷감
유태인
켈레
##루프
불가사리
725
fa
well
대산
명암
조강
증이
##세르
생산자
KNN
UHD
라리아
예편
치나츠
코렛
##치레
##전선
최고점
397
시킨다면
SSL
메탈리카
이병헌
CW
도고
맞혀
서아프리카
셀라
양치
카리나
훤히
##날쭉
##씨름
##벡스
한국은행
##ANK
무서웠
Expl
끌어올릴
들쭉날쭉
급성
눌려
두만
수연
에크
찹쌀
페잔
홍염
##업소
드러날
레이디스
내선
바클리
우인
차치
하켄
황비
치료사
참전하
우즈마키
영양분
1592
조계종
헬레니즘
담력
삼장
썩소
우렁
화근
음악상
그치만
대릴
뚝딱
성제
식자
어빙
콩나물
파이스
했는데도
##재그
크리스털
전문직
033
목격담
헤어질
한가득
지그재그
이과인
Friends
고흐
래미안
반정
지언정
찌꺼
채운다
켜져
캐나다인
Metal
Body
관목
기명
내겐
약실
화영
##craft
##맞추
635
##ists
국무부
백혈병
데즈카
로난
류트
무열
미관
줄임
호골
라는데
에이다
Unknown
Clos
캐롤라인
초계함
찌꺼기
Sleep
군내
도공
밀정
피도
해물
##장교
창작자
without
부시장
Number
ZX
백선
산발
코모리
College
이복동생
이천웅
believe
라에
밴디트
번데기
비파
사라이
상감
아틸라
우츠미
타즈
##퍼프
462
건너간
마리오네트
정통성
스즈네
거물급
LSD
하다못해
거릴
광인
글레이브
명승부
백골
셰릴
중앙정보부
파워퍼프
023
올렸으며
슬러거
Pil
대추
루르
봉준호
신파
한빛
토모히로
라우라
알레산
북극곰
Everything
박한이
Wolf
담가
모쿠
야산
왔으니
테스터
Miracle
Kan
동도
바렌
정해진다
후미카
클라우디아
Ly
겐무
노자키
대운
데타
등분
##field
##만금
그림책
미라주
루키우스
히마와리
르포
미선
법술
뺑뺑
스오
출원
텀블러
희화
##AH
##테쓰
이라던지
클리어링
이뤄질
굳건히
롤리팝
##폭격기
비녀
시성
영약
오셀
찜질
피핀
##그려
##자이
##직할시
오브라이언
기업체
나이트런
##elly
알아차린
군다
북문
사멸
신풍
아찔
으음
히피
##gun
##maker
##바니아
##얼빈
604
457
블랙베리
##RESS
FG
공비
대저
데마
반비
양다리
요스
질렸
추문
##루엔
478
기어가
##boy
코메디
Ts
far
까만
노츠
빈다
엘리아
용화
태영
프림
##강도
##덕왕
어려워하
6500
동네북
이목구비
MJ
pol
답사
모리카와
콘라트
토핑
피클
활공
##니히
565
Beyond
ASL
클린트
신생아
밀어붙였
Flo
강영
위증
정이
터커
홈피
##가르
크리스찬
042
468
롱기누스
바질
반디
삼도
열병
행차
##롤드
434
몰래카메라
요코스카
권위자
Butter
Holy
게으름
Psy
니오
사석
집속
포어
##상곡
스파이스
Thunder
웨이보
오를레앙
Volume
생리학
시즈오카현
Ok
SAT
기옥
롬멜
수르
엡실론
전횡
호걸
507
타카아키
페르세우스
Google
Myster
덕지덕지
델리아
러즈
범했
시류
역무원
초한
한해
##사화
##클랜드
536
삼합회
GOD
민우
발롱
사영
서피스
자토
챈들러
화천
흉흉
##포구
##ices
##ager
네이처
광역자치단체
시마자키
해변가
BABY
새하얀
선거인단
발롱도르
Audio
Main
Russ
Sak
gold
뒤셀
샴페인
식상
원폭
익살
크레스
Heroes
삼지창
예카테리나
뒤셀도르프
Mus
김서
농약
능감
단색
마칠
빛난다
시추
아콘
윤규
주몽
##LIGHT
##버터
중앙당
hear
뉴멕
돌개
시유
싸가지
양전
어음
임펄스
장궁
토커
할땐
##계역
##리쉬
##마스터
오프로드
돌려야
아사쿠사
Front
홀리데이
홍백가
뉴멕시코
승정원
튀긴
##지어
군사령
타카츠키
김태호
평창군
BOY
Mine
기드
니들
담수
도정
듀나
먹물
성량
용장
저출산
##치마
##ench
대구시
LIFE
HEAT
기흥구
꺼림
롤스로
말릴
미트라
버츄
석관
중식
운동부
아키바
Room
스며들
플랑크톤
롤스로이스
GUN
Xbox
고풍
낚이
드높
상일
씹히
애처
양화
전천후
츤츤
463
아쉬워했
대수학
내보낼
증폭기
김형준
프로텍트
pvp
랙스
루거
브베
성력
수몰
위츠
재채기
##VF
##부미
##경비
##프턴
552
가로등
플라스크
불안해하
731
이원화
돗토리
된지
영아
원회
일출
진품
##vis
##포터
프리마
Boost
국경선
카와구치
김경수
연수생
치러야
Sab
간택
고부
뚝배기
사공
월부
줄루
공급원
이뤄져
줄기차
영동고속도로
버밍엄
LU
가선
격수
비쌌
산본
시미
신안군
프링
443
이스턴
갤러가
Epic
STARS
근현대
가환
반출
사학자
살바
야나
육로
이교
정소
통령
##천국
나왔으니
##elt
걸려들
부딪혔
DEAD
서지훈
설리번
버밀리온
교위
바즈
슈베르트
아돌
여보
영관
이륜
칠면
탄로
톤즈
희롱
##라과
##케라
사회생활
우선권
523
522
크라임
갈라타
MaxLV
Army
뒤바뀐
콘스탄티노스
경강선
Hu
감췄
뉴기니
살수
천동
코빈
콜렉터
##volution
##PT
여성주의
루카쿠
인어공주
스커드
메트로이드
빠져나왔
틈틈이
세이크리드
LL
광천
무스타파
사크
수달
염가
키위
##orth
교통편
형제단
가스통
기독교인
해상자위대
느려터진
정우영
결사대
의왕시
주치의
마히루
량도
서준
인걸
임지
파시
할라
##디드
살아난다
아파하
1862
코르테스
갖춰야
브라이튼
염기훈
다오
씨티
전해진
김동엽
mk
기화
목과
발코니
숨졌
식성
푹신
##ming
##ij
##언트
지배력
나갔으나
Gray
칼리프
마지못해
사요코
까발려
FRE
Fish
cent
두통
명한다
변인
보로스
산사태
여시
지를
천기
킨키
오버킬
918
하야부사
레지던트
스틱스
진중권
##strumental
범유행
블레스
약할
점핑
지져
##선거구
미끄러져
도치기
속상
스고
##olver
이승철
비스듬
발리언트
제후국
속사포
미도리카와
체임벌린
Kg
광수
까맣
다산
씨알
장명
청학
##마뉴
이제서야
전자책
China
낙담
떠보
목련
웃어
음량
임찬
자운
접이
청결
킨지
##드리아
대사헌
706
환호성
동창회
근위병
Terr
공돌이
과천시
뚱보
래피드
십이지
윗사람
마음고생
고려인
517
##antic
디아루가
드레이븐
재소자
SIN
YO
메데이
발설
비바
빠뜨렸
사담
숙여
실의
올가미
족발
주익
합한
혈당
##타페
##atus
프란체
깊숙이
얼버무리
등껍질
팔레
함평
휴업
##성경
스트라스
메이코
히로부미
618
물러가
이터니티
##velop
제라르
흡연자
진흙탕
##iece
Creat
껴서
노리오
라스타
모비
스이
요망
치어
카이트
##텐셜
##싱크
비엔나
왕당파
로버스
삼존
쌀쌀
유이치로
타카나시
수치심
건축학
샤를마뉴
안락사
Lonely
김예
버겁
악하
열역학
투정
소문자
정수리
남원시
카롤루스
soul
갸루
겁탈
병들
북돋
장거
지당
초호
코무로
파루
합기
##으리
##피리
##ito
점프대
출발점
Acc
겨루기
ULT
Cle
광분
뒷산
빛났
췌장
케테
퍼텐셜
흩뿌리
##딱지
아이크
지휘권
카르멘
교황령
##ISODE
와카나
타다시
토착종
Age
Jim
kanc
네바
다툰
시환
현진
##mare
595
포병대
SOUND
갈릴레오
연개소문
오스왈드
구양
웸블리
재역
포코
##구사
##톱스
437
EPISODE
애드리브
##케라톱스
개폐
신갈
에딘
윤기
처먹
확증
##각색
하루노
출판물
니카라과
Build
기백
무영
순우리
아민
안네
엄포
원더스
허블
황의
##여름
수지구
상용차
Extreme
퀘이사
슬레이어즈
순우리말
불공
용언
키케
##기술
SPE
세븐스
카와무라
스탈린그라드
nothing
발디
응해
장국
저래
최고참
those
유우지
이재성
아미르
스티븐스
알레포
낙인찍
사시하라
FAN
KFC
에아
투과
티토
##rome
##큐브
아라크네
드릴게요
게오르그
다이너스티
남조선
슈바
임병
최치
쿠사카
털릴
토어
704
527
이승호
시트론
kancolle
구보
긴테쓰
뇌정
소제
엎치락
화술
##양동
카이오
##OND
민족주의자
1869
에스파뇰
비어드
아야노코지
고봉
빠트리
아호
워런
정역
준동
청강
타슈
푼다
헬파이어
##부기
##enge
이동은
알리샤
증거물
sports
분화구
Kids
개박
리하르트
면죄
세군다
신카이
알짜
쥬리나
초수
홍일점
##화경
##전시
453
##ORD
유전학
중고차
해지지
Yak
글록
민락
버몬트
빠듯
원론
유식
철원군
##드문
##샤르
베트콩
채워야
아랫사람
엑소시스트
KP
껄끄러
루빈
맞바
민나
방방
왕기
현현
물리칠
##ria
에디트
블라디보스
카사노
tra
과선교
광종
낭인
바브
배색
비원
우나
캐미
풍문
황량
##클로
##한자
전철역
내보낸다
동래구
페더레이션
자장가
맞힌
무츠미
배향
사츠
소견
악신
킨타로
파리스
팬다
##에이션
446
1105
Brit
불화살
어버이
Pac
Post
공도
날씬
데커
물타기
부등식
술자
우의정
인마
인선
전극
테베
##연수원
##천선
빼앗긴다
기울었
호시이
술탄국
키르기스스탄
그리즈만
CAT
NY
Rail
ZUN
namu
곤도르
나주시
동무
볼러
썼으나
의주
제부
##평면
##부절
##살바도르
다이라
055
스피너
캐리비안
김현정
박세웅
코오롱
별동대
\"
body
train
갈까
굵기
본상
수일
숨진
온수
일요
태일
함덕
시구르드
PARTY
윤용태
파르티잔
Boss
도술
방증
압기
장곡
##시도
##모치
##우병
##특급
Change
정찰대
더럽히
랴오닝
wait
김근
까놓
빌렸
음산
죽지
하얼빈
휴이
##중독
베이가
##트로피
여신상
검문소
CQ
val
닥친
명복
새만금
피운
482
915
사법연수원
동음이의
맥과
보필
술병
임나
점주
##VO
449
히메코
정전기
pres
Money
ent
단명
류소
물대포
슈고
야가
열사
영부인
이타이
힐즈
##카날
##촌면
박정진
살펴볼
하마다
무안군
워너비
그래피티
마릴
몰골
백서
안절
윌리스
음흉
제헌
카호
평촌
##iation
##루치
935
이슬람력
##endo
PRIME
스기모토
전도사
과달카날
안절부절
rain
돌궐
론다
망국
비인
시늉
어셈
제모
초특급
전자파
책임질
토모유키
사마사
비틀거리
매스컴
##슈타트
Pay
라덴
삐끗
우애
팩맨
호미
호탕
아이노
##thm
패션쇼
plus
기막힌
군상
김만
로렐
맹약
분간
시폰
코른
퇴로
휴우
한다기
여행사
최강전
Cherry
화이트데이
퍼부으
가파른
페네르바
Il
Kit
RAD
dont
랩퍼
모셨
음치
조향
턱걸이
##ZY
하이든
엘리사
고서라도
1877
로버트슨
감탄사
KSV
한결같이
간만에
GST
##금자리
##ho
##팩스
##댕이
##튜드
대체재
미스테리오
##ified
해리포터
여단장
대피소
BOF
정재헌
Joe
무반동
히비야
덮어씌
겔구
보금자리
어윈
엔트로피
영일
캐러
페카
##AB
##ille
전해들
496
아크메
집어삼키
요아힘
쿠티뉴
겔구그
각계
김좌
누른다
동민
땅거미
리퍼스
삼계
유조
푸홀
##과자
##슬기
##퓨터
담당관
가르마
448
##ries
945
프라이팬
사와코
시몬스
many
푸홀스
cle
내어주
덩샤오
덴트
신목
아단
월성
황권
살아날
플라이어
양현석
마르티네즈
하기와라
덩샤오핑
PF
궁주
승합
에이치
원해서
이곡
토메
파면
편인
흉갑
히츠
##물산
그만뒀
지켜라
카메라맨
김시진
Candy
렉싱턴
망해서
메론
백양
소류
오월
임이
초도
##셔서
미치오
카라크
스펠링
평양성
PLUS
아크메이지
Cold
뒹굴
뱅킹
약진
천궁
칸지
혈안
휘몰
##EZ
##자국
##큐슈
이름난
사고사
요시오카
메데이아
군법
노런
면소
비연
위서
지브리
커팅
클랩
행할
##웨스트
샤오미
super
연해주
내놨
렉시
먹통
약식
우류
택할
환하
##트럭
시스코
내비쳤
Better
괴팍
신녀
일섬
츄츄
##일생
##연료
##데일
마사노리
태어난다
##ISM
구사일생
똑똑히
일깨워
문맹
수각
영천시
오필리아
올지
와일
은은
척척
##노래
##체리
##슈나
클라운
최남단
li
노림
루저
문방
불치병
야탑
우문
움찔
이린
인심
천시
투라
퓨즈
하야마
행한다
헥스
##학규
466
후지사
분당구
안젤리나
끓인
노치
도립
사네
진원
화두
히야마
힐트
571
Middle
자영업
flo
moon
객석
광검
뉘우치
보국
용은
유작
캐머
향할
##극장
세계유산
Think
reg
히스토리
바실리스크
어우러진
Ltd
woo
거름
방기
병세
산투스
순사
##너리
동화책
우편국
##iction
김혜성
덜미
실토
은호
활달
##데즈
##슈티
609
##osa
남북조
회계사
Acad
김희철
뒷배경
GIG
cor
북마
삼부
성안
##for
##동맹
된다거나
이용찬
정규전
비상시
메리다
임재범
Platinum
산술
하자
##징금
이동현
제조법
각별히
SUMMER
눕히
다졌
훈육
##브로스
##복스
하이파이
지하역
키타가와
BAB
틈틈히
흐루쇼프
가학
러스티
한울
##분방
##반정
자유분방
미야타
888
SCAR
심해져
나츠코
후미히토
트렌트
sweet
대척점
NWA
기거
레몽
반죠
안과
은상
코퍼스
황우
블랙잭
샤워실
Lake
sat
덕목
멋모르
무무
봄날
월희
이숙
칼륨
##에어
역사관
은하철도
우시지마
깜빡이
노르트
미그
뽐냈
운도
에이벡스
마츠나가
이뤄냈
PDF
1024
SWAT
머뭇거리
에이프릴
서윤
카스트로
##행사
702
623
러브크래프트
블록체인
파란만장
중립국
남아도
에릭센
뱌쿠야
HIT
가오리
강약
레예스
만해
망연
애견
임경
폴스
으라며
무인도
전광석
시한폭탄
FNC
탕수육
Ir
NB
괭이
근근
박완
아목
안쥬
오그
오나
옥산
재의
치와
##vern
몰려와
next
만리장성
꽃말
남몰래
봉담
인적
조아라
##사장
##LTE
901
시달린
조광조
Opt
Something
구아
병설
성환
손학규
연변
즉결
특채
##erg
768
##aste
MLS
김화
레와
맞선다
발등
설가
퍼러
풍화
소리지르
##cha
439
마주칠
광복절
Crystal
지브릴
강북구
생가
석불
역간
접어든
##티컷
클라시코
레지스터
Model
엑소더스
친부모
Film
코네티컷
디스토피아
남진
데릴
마벨
맨발
반값
토나
황조
아이피
강수진
김옥균
심오
어본
일변
켄수
##광선
걸린다고
유치원생
미식가
타니구치
값비
권신
##To
909
스타일스
아사다
고문관
보일지
사유지
대동소이
##ootball
Anniversary
VER
꿍꿍
들일
미캉
바덴
방덕
백장미
알테라
장포
##CORE
관리직
브라흐
수정구
생물학자
보냈으며
대구경북
William
HIGH
Kw
과르디
부랑
유채
케찰
풋살
헤집
오세훈
실습실
mir
개년
박미
삼산
속구
엘리오
오슬로
지근
타자기
##cient
##PD
1650
##edom
이해찬
등록증
프라자
필사본
광개토대왕
디너
문세
양제
예원
##하르
##옹주
나이젤
세리자와
건드린
JGP
TAS
둔하
쇼헤이
울브
일편
##테아
대사전
고문서
와이셔츠
무라사메
부화장
여운형
Cause
갈린
국전
근면
딜리
묘미
박식
벨렌
소아시아
양당
지유
차크
항명
##량이
##arn
카라얀
MSV
DSLR
진흥왕
는걸
문주
버팀
슈트라
에베
육각형
익수
##제로
생각난다
공포감
해방군
##드라실
야만족
니케아
Ter
Wait
^^
hea
간염
불바다
조너
철새
##갈로
음악원
567
의자왕
드문드문
카네코
HEART
Remember
위그드라실
의용군
버링
허비
흘릴
##장수
bye
슈트라우스
가젤
로프트
상납
아선
즈치
핵연료
##CA
##올림
다다른
선덜랜드
아고
장직
캘빈
테사
흉포
##주부
##속구
유리병
부정행위
빼앗길
1011
DFB
김도훈
감바
모잠
박유
숭상
용포
일로
##자족
과학부
밝혔으나
##cean
최강희
데몬즈
쓰여졌
부러져
사와무라
떠오를
Kingdom
php
GREAT
찌푸리
스크램블
모잠비크
Non
귓속
라온
앉혀
하뉴
헤스
##댄서
그래봐야
번거롭
맥길리스
값어치
무타
발한다
엉금
추행
홍범
소리친다
##omen
045
오이카와
PMC
갑상
뒷날
레자
배럭
태원
헛소문
후도
플로트
윤규진
Dam
갑부
문리
삼청
신파치
재로
칼바람
캡터
하영
##이에
##이면
요리토모
더군요
SUB
콜롬비
GUI
선관위
가덕
맥그리
미실
박나래
신식
으름
일발
코민
##노이드
528
판결문
##aven
구한말
Map
방제
변두리
빗이
의적
조봉
퇴폐
##고라스
가로수
바스켓
들어올려
COMBO
하이데른
분통
서훈
억눌
우하
유어
유순
초나라
##ged
##바티
##개혁
##iner
##ried
인상깊
에드워즈
김민재
1879
화순군
동두천시
미망인
vo
꿰차
수공
시니컬
왁스
집대성
페시
페드
포만
히무로
박지수
신격화
Memory
중랑구
반비례
Tn
깜찍
루오
마황
미방
해자
##sen
##마담
029
034
step
위상차
아닌데다
걸까요
##UCK
Infinity
gun
가경
쇼룸
수억
짓눌
028
##ago
파일러
여겨질
인조잔디
소방대
NRG
개코
조희
청운
학칙
##착오
나이트로
시행착오
거침없
청계천
자급자족
그니
내자
매끈
섭씨
역방향
왈라
툰드라
##정변
##베이어
1750
사라다
문화원
솟아오르
갑오
수어
워리
쭈욱
트랜드
538
오카리나
더듬이
베네딕트
박효신
use
고석
렸다
애틋
장생
진남
촉박
캅카스
##바타
##테제
레이커
터무니없이
사채업자
전광석화
GI
간데
강속구
고밀
브람스
빌트
상암
예브
프로이트
행동거지
803
황태후
Pick
River
디제이
성규
옵시
위병
취주
아야지
부산진
선언문
테크니카
상품명
알렉산데르
아즈미
VoLTE
Media
프란체스카
갈퀴
당상
러키
롱소드
부성
##르륵
##러햄
##청자
시대극
처리장
1102
프레이즈
산타나
도내
산간
응석
일벌레
파운데
도요타
파운데이션
기토
노리스
버무
본회의
친필
허베이
##투합
##콘드리아
나이얼
얼굴마담
파이어폭스
김민식
이현우
입법부
후루야
미토콘드리아
프레드릭
에이브러햄
Garden
Made
damage
가느
광서
동현
매질
미심
쓰루
알력
우장
타현
퍼드
##찰청
##괄량이
데려간
##load
Bron
나기나타
학술지
아틀레틱
지그문트
김제시
pur
말괄량이
물증
카토리
리드맨
while
대검찰청
구구단
아마조네스
고금
버추어
언터
왕명
일거리
주미
팽배
헛된
홉스
##어어
##중미
경기만
아키히코
넘겨서
김태훈
히로시마현
빼돌린
투덜거리
의기투합
양석환
TU
김다
김헌
다각
신노
어질
오묘
진왕
최은
##ners
##기계
세웠으며
에도가와
article
나구모
냅니다
미쳐서
식중독
예천
윗선
이베르
##서동
027
김태우
노려야
제보자
파나소닉
봄버맨
Hong
pc
나바로
복자
새총
오펠
임은
호정
코스트코
에픽하이
희소성
교두보
내놔
더우먼
밀로
봉착
여백
황규
##개비
##헌터
스트라이더
생긴다는
토시키
허구연
어부지리
오보에
IBK
hot
교민
네무
돈나
봉헌
쇼이치
아조
일궈
젖소
창공
헛되
##Cl
##준영
##겟돈
아마겟돈
수도권
##ecs
개그우먼
727
감시탑
Dev
사리사
##중국해
나물
떠드
에레라
와사
태업
테토
할멈
##LECTION
##zh
부산역
날아올라
프레슬리
오랫만
랭킹전
하야오
자본금
보충역
공문서
박혔
순방
아게
우랄
정학
정량
제석
##중기
출신자
chan
시노하라
천도교
저수지
조너선
attack
든다면
북중미
뼈저리
장종
첨언
표고
라이베리아
학교장
036
1107
##ORN
스프리
경영난
원더랜드
MMD
단정짓
구스타브
상록수
드팀
빌레
삼황
수메르
양친
인중
장훈
제나
달려갔
금지령
카나자와
부딪힌
##ments
스파르타쿠스
페로몬
Captain
동음이의어
눈독
반올림
베레타
산속
어구
여교사
주모자
지젤
홀랜드
아사이
베이비복스
매품
붕붕
수렁
위저
치달
타릭
평전
힘써
##enix
이동과
Note
토치카
Duel
율리시스
곡조
기뻤
김채
릴리아
보츠
북단
브란트
쏠려
임직원
컬렉터
쿠에
효정
##언라이
##하치
##충제
026
장갑판
고기동
케이블카
페르디난드
저우언라이
aut
동편
반겨
서군
셧다운
참으
패잔
##지는
문학부
Sup
보험료
exe
종결자
비지니스
배성재
vers
교본
기정
꿀꺽
맹호
쿠레이
합심
잊혀져
EVOL
뇌진탕
DOC
감면
대자
리페
소이치
심비
우거
해신
해류
후타리
##메니스탄
##쳐스
도망쳐서
회의소
창조신
투르크메니스탄
help
특산품
ps
도지마
모리오카
벽지
뿌려서
진균
큘러스
팩스
##호른
##로로
##윤호
##iser
패배자
크리슈나
이사금
외관상
안기부
입항
직할
첩운
##다귀
인기상
막내딸
김기춘
Fix
air
마리스
원도
임마
픽쳐스
##동글
##LIVE
파이버
1104
카미시로
자극제
DTD
로데오
Daniel
동글동글
은연중
Fear
REM
거려
녹슬
지용
투철
핼리
##그러운
채워진
알레한
##하이머
받침대
image
클레멘타인
Empire
MU
Uh
꾀했
부티
신본기
열선
천생
카나가와
포피
문제지
##ston
아담스
사당역
와스프
Mut
섬겼
정심
지층
튀겨
한준
함안
##래기
주전자
##ized
신도비
세이프티
Kur
sign
고름
광풍
난적
뉴런
무니
박규
심산
엘윈
위패
유태
텐서
현령
##chen
##부지
##벨레
설명문
해외여행
##ACT
아지랑이
안영명
ARE
광합성
근해
뚝뚝
모릅니다
봉명
상면
정다
허재
하울링
예니체리
EY
Sold
겨눈
끼니
명륜
발로
색슨
유량
응집
터뜨린다
테살
특방
합비
효원
##뉴기니
##ros
이건희
599
665
Blast
Phys
Darkness
쉬우나
노랫소리
Hub
검심
괴링
미야마
예법
이상호
3100
이탈리아인
리버럴
억제제
급행열차
소시에
요양원
시우바
frac
진달래
met
냉대
박도
순도
신희
용아
제럴드
체스트
초저
포석
학예
보여야
불리운다
아르곤
그만둬
틀어박
ORIG
Auto
양서류
VJ
구민
처인구
최철
학제
##wa
자유의지
여행기
트레져
외무성
모하비
버나디
아나키즘
마그네슘
HB
몸놀림
백댄서
양인
일소
해줄
홍어
##KI
계약직
481
467
사마염
1815
키요타카
Demon
Version
Dual
HY
건질
고화
군무원
기현상
따귀
블링크
진조
피복
##백도
아이자와
LGD
우수수
##ibr
Goodbye
##ottom
현충원
LIT
간극
맥북
몰릴
방탕
불협
어간
의종
인석
잠옷
천우
펄럭
##ined
세이빙
아라고
사단법인
895
들려준다
시공사
산출량
게으른
마아야
걸으면
베티스
악습
용제
참백도
철광석
추풍
쿠프
환대
##니다드
아야나미
트리니다드
576
어울린다고
수익금
기울어진
혼합물
강용석
경정
곤욕
뒤죽
부선
샤흐
아하
티키
홀트
##울루
051
수입원
전라선
939
안티테제
벌어들인
대류
링클
속여서
안수
의중
제설
##웨더
##하워
454
forever
나카하라
나아간다
시흥군
아이젠하워
파비오
임찬규
밑줄
바삭
베시
빈축
살레
아련
역상
##이벤트
대한축구
프로파일
464
각본상
인디고
덤벼드
대한축구협회
가버리
고제
샤넬
세드릭
언양
자빠
치울
캐피
##섬유
스카이라인
바보짓
의무관
부지사
릴리프
MLG
Conn
엘레노
##hythm
선착순
마릴린
로르
로젤
보온
서먹
셰이크
식겁
아영
호관
##fer
공동묘지
##rab
##ization
데카르트
해운대구
앞장섰
Bec
군집
애썼
에스터
팬택
##ency
멤버십
4800
마사요시
키리야
오마이
나나오
클라이드
안성시
의병장
Drive
Ace
History
PB
교서
단초
덤프
목덜미
반자
석류
시간제한
정치국
메인이벤트
때려야
브라우니
박경완
서투른
고이즈미
무굴
벼르
춘계
콥스
크립
타냐
##명왕
##박죽
542
니시다
제갈각
싸이월드
아소카
ANIMATION
권희동
뒤죽박죽
Som
Sant
검소
주울
티아나
허름
##컴퓨터
우주복
조사원
SPD
586
포항제철
hey
##루엔자
로티
수산물
암암리
양모
양안
원경
이쁜
잠행
캐런
삼성물산
청년회
타케오
Combat
라미레즈
캐롤라
열렬히
Dim
Sen
경각
나강
낙성
닥스
심근
헬무트
##커트
아무르
자유로이
국민회의
데려올
583
919
토모요
강남스타일
와이어트
서재필
오웬스
비빔밥
HUD
격류
결재
괴벨
군견
롤플레
롱런
문병
외아들
제방
증손자
콰트로
한낱
##당역
##시개
스피노
보유량
469
장기말
공작령
사우나
코르넬
테라다
하인츠
까마득
중구난방
arm
피난처
조수석
Geor
비욘세
이근호
부지런히
롤플레잉
레니아
원희
원담
축협
타악기
##민석
##회계
##발리에
053
스트라이프
골든디스크
Blu
영양소
Songs
파비안
소시에다드
cop
강권
랍토르
박빙
뿜어
아길
아몬드
진자
플란
##가다
연합체
..."
마츠우라
토모키
대립각
히메지
얼버무
내던져
내추럴
당면
삼송
엠스
파상
풍력
한파
헌금
541
1175
정우성
WHITE
떠들썩
모레노
STANDARD
뺑뺑이
Wow
귀요
그은
난다면
락다운
망우
산천
요염
주물
테스타
플레시
##shine
검정고시
보증금
Peace
에보니
가렸
도너
도날드
예제
잉그램
칙칙
037
그레이즈
구도심
792
이브라힘
맥그리거
묘목
부쉈
채리
할려면
호민관
##렌더
##라이크
밝혀질
쳐들어와
;"
깔깔
노즐
립싱크
벌판
허전
##재윤
1812
교육대
##ages
대항마
코우키
Steam
Endless
Mot
wik
방석
보성군
세경
의천
##지종
여겨져
뒤집기
나루히토
Forest
사와다
앞선다
돌아다녀
##fferent
남김없이
링커
샤토
웰링턴
은혁
최문
홀린
##kin
시나가와
685
사와타리
사탕수수
메흐
발란
불호
피구
##공포
##막염
직업인
아도니스
어려워진
할까봐
두려워한
KEB
남해고속도로
새까
엘살바도르
우베
잇쇼
코엔
혜자
가리온
트라키아
##AME
아바스
이경민
아자미
인플루엔자
Deck
Giant
메소드
밀렵
분다
섬나라
싹싹
액상
웬일
초짜
프리실라
714
##ITA
Bob
루즈벨트
수제자
원통형
망나뇽
무에타이
저소득층
Hill
put
굿바이
세진
윤길
두들겨패
최하급
들이닥치
건방지
kiw
비천
빙산
쇼인
왕십리
유피
쿠릴
쿵쿵
탬파
특파
화명
##이상
##승민
마리온
불러와
529
심형래
게토
난생
색조
암군
음영
태웠
폐암
공략전
때려부수
우에키
##슬라브
발레리안
찌질이
알트리아
blog
찬송가
RUN
눈금
단파
마속
명화
반유
뽀로로
선적
의창
자랄
코뮌
투약
하한
훔칠
562
미야와키
튀어나와서
##ocus
소득세
으리라고
mom
공여
맹획
집편
흥얼
물러날
김현우
영동군
VCR
Frost
상비군
세베루스
Tower
리퀘스트
매설
용주
하니
##eless
484
기어다니
당한다는
오마르
장로교
CHAMP
베오울프
인디아나
과르디올라
JE
PI
고역
극소
세척
식탐
입방
잡아들
추미
테무르
미니스
447
아트홀
Soft
성실히
패잔병
소도시
승지
애지중
앨버
요헤이
인슐린
전민
채플
케노
##oL
##시위
##ended
##베르투
애지중지
most
만과
숙모
어불성
장실
주라
차저
카셀
항거
황민
##oom
뛰어내려
반가운
이성질체
GSTL
어불성설
계백
나하
수계
윤명
##가쿠
미나즈
프레이저
바우어
카라스마
Kid
권용
메트리
잉태
지세
할양
##임금
##팔계
1002
tog
우스이
직선제
리플레
커넥터
##공포증
Lil
과업
서전트
솜사탕
알선
여흥
연환
지린
트루스
하림
##지세
Alive
끌어내리
Exc
전지전
second
MEDIUM
NOVICE
빨대
서툰
오코
인현
탱고
##단심
835
솔트레이크
갑각류
바베큐
운디네
돌개바람
맥기
박노
심안
에볼라
일리아스
저팔계
##타우로스
##코이
쿠로카와
해피니스
전동기
싸웠으나
미노타우로스
보령시
저작권법
일편단심
전지전능
새드
자색
채병
태민
한비
합천군
혜원
전차전
나갔으며
김동수
데인저
Phantom
EFL
끝맺
눈뜨
막지
물으
물개
보사
위수
키토
홧김
해군력
SSC
ATS
밝혀졌으며
패트리어트
대식가
내팽개
값비싼
건우
만도
메틸
모크
산로
졸음
지롱
추한
키운다
토루
여왕벌
플레처
death
김용의
자초지종
Was
당산
아식
##SA
##date
##상대
##카시
마리야
038
721
Service
양동근
발기인
레츠고
Piano
챙긴다
다가갈
##ared
음악인
된다면서
Seven
Unit
어리광
Rocket
##IVERS
가봉
말려서
발록
벽산
북조선
안국
증조
티그
할복
행체
환공
##인격
##베즈
사무직
부드러워
경원선
아르티옴
ye
기담
놨던
메그
몸뚱
슈카
으아아
##화산
..!!
653
증거인
##ATH
아우크스
Liber
해수면
문성원
최원준
꿋꿋이
시무룩
여호와
아우크스부르크
Rac
내서
뒷전
멘션
밀랍
숨지
하달
3800
표준형
모성애
조디악
샐러리맨
적혈구
Aug
Mont
Yu
꼬였
돈지
반피
울보
평한다
헤겔
##TT
##링겐
607
Mech
경인선
스트라토스
Wing
더해
따먹
막기
뮬란
태안군
##사정
##SM
##봉사
통일민주당
Its
다케시
오세아
ahq
슈마허
따진다면
Aust
JIN
가처분
경진
목줄
액슬
유와
인단
촌락
해사
##니츠
##노운
##여지
##itree
산업체
데려와서
들어올렸
겹쳐지
김광수
임재덕
고약
모렐
법치
속전
자그레
창씨
최창
후난
##검사
나이다
473
스케어
김봉준
자그레브
Pain
구소
벨린
예일
제롬
조피
증여
퇴거
##장각
##arge
##ept
Steel
Bow
Dash
낙석
린트
마재윤
먼치킨
문현
아뇨
초강
##RI
##ems
알라바
Dreams
이계형
안성맞춤
ROT
bp
cd
늙은이
생업
써진
유은
유안
유천
참나무
크레이터
##타케
712
처참히
로보트
온리전
망연자실
Mult
리리카
세끼
제다
쥐과
회분
히에이
##문간드
##아스
##쿠레
##거리역
991
이성애자
cur
드밀
미쉘
서보
유중
준지
특선
##투기
052
남성향
588
루시우스
나눠져
오디세우스
요르문간드
일장일
암행어사
건넌
말포이
멘델
사목
생필
에든
오산시
컨베이어
타밀
팔각
표상
##face
##JECT
1005
크로포드
쫓아냈
파울리
글씨체
버거킹
Japanese
매서운
일장일단
노팅
다임
담아내
성무
속물
안광
황토
##가치
##례문
올라탄
inst
아슬란
프랭키
고해상도
계양구
데어데
문교부
생필품
move
개새끼
능히
무찔
부케
사량
언노운
장학생
##웍스
564
기원후
Into
느껴져
스탠퍼드
##프레드
UED
walk
김조
달갑
박힌다
소급
유임
생겨난다
GTO
튀어나올
김경란
티아고
Edward
방공호
눈부시
Legendary
##Sports
정약용
JUMP
닐스
대나
덤핑
델론
머그
센추리
쌓일
양기
양준
클루스
페북
하품
##론을
##여진
##학파
##참모
##ANGE
477
534
1108
도화선
에든버러
wind
들떠
베스터
양광
진갑
총책
캐니언
##데나
##꼭지
지속력
수호전
뒤집혀
711
옮겨져
##ired
Poly
QPR
뒤섞여
민경훈
블라디보스토크
Case
SJ
곤혹
공회
맥마
면상
비쳐
삼바
샤카
잇키
자모
조은
철포
한의사
##core
##천자
스크루
선보일
1874
과대평가
메다카
데어데블
Ni
Wish
개복
다연장
르미
밍크
발소리
범어
시큰
우롱
재커
타짜
투닥거리
포라
스타스
546
리드보
Drag
NTT
공고히
CNo
Operation
cons
결부
끊어졌
다구리
말수
묻혀서
별똥
아첨
연과
온기
이령
켐프
콜론
퇴행
##ania
기술원
레이먼드
##트리히
Chu
624
장악력
한가운데
HTT
control
eh
납세
느렸
단번
알칼리
조충
주원장
포방
##yu
##백산
1150
독립선언
649
563
나아갔
변형태
서대전
이코노미
Depart
삼장법사
봅니다
인왕
쫀득
합니까
##우로
##후이
문제없
인사말
리더스
Short
1109
니코틴
대피선
뮤지엄
Pict
yo
굴려서
노구치
대홍
동침
린도
뼛속
진마
하메스
##사진
메타트론
이겨도
##others
##그러들
VAR
방파
서야
스지
이튼
이판
##은사
##방스
##ulator
##프레임
갈라졌
스터링
테오도
Assault
문희준
system
불거졌
괴벨스
kiwitree
VA
jo
wish
뻥뻥
신죠
열심
임자
##eder
651
나아질
김정호
##eph
베오그라드
VfL
배아
비담
세정
소래
테리어
함축
##굴라
##몰로지
703
1106
Trick
카사네
질식사
POS
놀음
대간
몬도
부야
생방
양봉
콤바인
쿼트
헬프
##rin
##다짐
시청각
041
몰려가
안타까워하
수천만
천공기
레반트
MBA
XV
낄낄
운세
울드
재민
팬케이크
휘슬
토모카
성모병원
Ash
동제
번진
어영
요타
키스트
풋풋
힘겨운
중심가
가슴팍
장성우
##CHO
이문세
투덜대
sleeping
together
Believe
creat
mid
앞니
원미
총파
표도르
##아메리카
프로비
492
566
##ISH
폴리네시아
부러졌
정밀도
휴전선
리플리
양조장
미심쩍
Action
OBS
VG
사테
제피
크시
##ying
하루오
독립성
1103
617
적응력
카와라
더럽혀
김구현
전태규
흐트러
피타고라스
마거
법황
빙수
색칠
입버릇
합장
##분자
479
가해졌
Quest
공소시효
놓아주
아반떼
접이식
불협화음
경보기
교생
대못
도티
먹여서
보네
의붓
켄토
화망
베르니
735
재배치
대승불교
##기념일
중생대
Together
슈피
이파
폰티
푸대
전략가
581
인디펜
기라티나
이스마일
금자
부용
불식
써볼
아싸
양철
제소
친자식
코호
파혼
환청
북한산
##uma
드림캐스트
박종철
양세찬
오르페우스
TUNES
LITTLE
목축
사골
성고
여상
제닉스
제천시
지구대
553
뒤집힌
미술품
면역력
시노다
스즈란
DMC
박재범
발주자
Object
ai
도단
미카와
입적
장과
태주
파머
##반지
1440
ASMR
주교좌
DW
Tre
디트리히
송치
예복
책망
콘월
테이지
##PL
##강호
##죽순
전차선
전자전
생일날
브로콜리
공신력
plan
우후죽순
Morning
님프
로쿠로
벌거
엄숙
연단
연례
천교
팻말
활보
##호프
##테른
다크호스
레오네
쓰레기장
아비게일
노년층
록산
생원
쌍놈
절세
촉망
##포역
##isk
EXC
스톤스
937
아기자기
##ected
네모난
UBW
최지성
예브게니
FGO
내색
아즈키
원양
##inn
##uring
국회의사
에이전시
마츠바라
Edge
블랑카
가보
각류
노타
딸내미
베이트
신센
조자
클수록
황주
##이다
##cent
준다거나
끝나갈
##ANA
498
브레드
신정환
Freecs
동질감
신센구미
라니아
석학
앙고
위르겐
척수
홀연히
화체
헤드라인
납치범
Apink
도신
심창민
연골
푸조
흥부
원자핵
일방통행
Amaz
신석기
Dive
고별
따끈
말짱
몰드
바누
임태
토구
한밭
홍렬
##로라
##ika
유키에
노려라
Flow
정공법
BOSS
개나리
귀비
끓어
도림
롤랑
산문
세오
세율
원구
입가
취록
텐도
핸섬
지지대
출발지
자치통감
USD
박수호
흉악범
청부업자
고품질
Wings
hands
단사
방배
앰브로스
옹기
위약
유보트
킨조
##YU
후보자
494
Alone
좌우명
현역병
갈아치우
베낀
복희
비요
알칸
움츠
지스타
칼리아
티얼
휘저
힘러
##용준
##다람쥐
수상쩍
전국무쌍
537
녹음기
무너진다
김태완
이주한
하층민
삼국전투기
곤지
마히로
복소
순박
이이즈
황기
##NN
##시프
들어라
717
978
1010
삼각주
SLR
Masters
CHAMPION
이이즈카
결절
끼쳐
##aly
아사기
Quad
이와테현
총파업
삐딱
서글
슈슈
요사
화투
1004
배틀넷
잉글리시
그란데
지주회사
그제야
Company
단디
백치
버립니다
슈워
양가
요릭
척결
총지휘
판의
하자마
후부
039
489
로켓포
사쿠라바
Graph
Flame
로열티
정주영
김국진
Rifle
log
von
곧이
부경
빼닮
일견
##iance
##드름
##네세
##아뭉
','
신기동
1162
cho
김상훈
PPP
구르메
##키드나
Save
고초
깔아뭉
만호
만력
번져
시당
악독
에키드나
잠비아
질려서
펼쳐서
햄릿
떨어트려
##uri
레오폴트
아가리
시로코
잡아오
끌어들였
게르마
MILL
영도구
사계절
순이익
화생방
Att
도롱
야식
에히메
인세
츠유
포르투나
분쇄기
##otten
야마구치현
Cop
계장
날림
덕성
란카
무나카
빈즈
시저스
음계
작약
장쉐
##공간
##쓴다
메이헴
보호령
이슬비
플로피
상속자
무나카타
장쉐량
YF
cp
골탄
널린
라돈
버거운
사색
으냐
으깨
킨텍스
##war
이동욱
##ARA
521
김민규
유언비어
이타미
뒤섞인
KORE
게닛
반절
업주
호들
현대그룹
526
저격병
돌려준다
이카루스
사에코
프로텍터
겠다며
메구리네
꿍꿍이
게닛츠
나스티
말갈
인동
철사
체사
후스
Lock
따져도
자의식
cat
경포
다요
단박
민담
보가드
외칠
톱스타
퍼져서
##로역
##넥스
만화경
682
클레르
시달려
장성호
레온하르트
라구요
맞닥뜨리
NEC
견우
군제
달라이
데린
뒤엉
멋져
조음
##val
##타라
##튿날
##ides
##ANO
544
어울렸
늘어났으며
라즈베리
Everybody
Damage
Los
궁진
엔조
응력
정에
종인
출두
측천
쿠오
판테라
획책
##넬로
트리트
치료비
936
쏟아진다
승차감
조부모
고즈
벅차
수임
수압
실총
융단
짊어진
캠퍼
##FT
마사카즈
Very
주름잡
Ren
Syn
교각
내국
외향
인두
초합
카가와
히카와
##태수
부산진구
049
미츠코
이오시프
DOHC
의인화
퍼블리셔
HAL
글레이
벌꿀
베노
비라
습윤
장산
장황
함자
호분
##재훈
##삼국
다가갔
연합함대
올려져
루카리오
유언장
도쿠로
오리엔탈
CZ
Danger
WN
경어
달라도
먹구름
묶여서
성마
시터
총감
##문왕
##렁거리
##심부
동서양
아랫부분
최유정
}}
견장
교무
낸다면
도그마
비역
창힐
투장
평과
##kt
##슈인
##olf
NET
ONLY
지껄이
ELS
text
글쓴
금욕
나모
뒤로
범벅
쓴맛
야무
어니
왼편
이낙
이튿날
잡화점
처세
튤립
##iac
아르투
카이엔
이중인격
으라면
우편물
글쓴이
검장
교로
귀금속
나드
페를
##RY
##장담
타카사키
이선희
한일전
Eternal
Ten
same
산해
일월
차린다
##들일
전사체
Chain
636
child
김승태
NGT
서동욱
호언장담
Times
hold
개고기
구개
구덕
되갚
리베르
울먹
은주
찰지
한경
해악
공항버스
STS
마츠오
이슬라
로그라이크
박성호
영등포역
Sunny
김세현
한카리아스
칠면조
Bass
Cour
겐타
김익
나군
대이
모가
아센
어법
##반장
lost
##운동장
Pho
##vely
담겨져
\'
네거리
동춘
마튼
물으면
박남
분주
실러
언월
음소
풍년
##item
순찰대
Den
면박
순풍
친자
휴직
##COM
##조약
##안전
##데냐
레이센
대전역
사르데냐
PROJECT
OMR
강모
난수
뗏목
마관
방자
산뜻
송림
적다
정왕
켄파치
켈러
필수품
ISS
이인제
도미니크
모터스포츠
가쿠슈인
서슴없이
알렉시오스
아후
패색
부산항
절대자
554
474
Deemo
브레스트
디오니
카다피
값진
궁니르
기브
꼬투리
말콤
배시
연남
요점
윤무
일구
타력
펄기아
##타이드
##라이야
마리크
트리케라톱스
바라기
버려져
613
식물원
갑론을
반팔
벙어리
불면증
셀렌
아앙
약골
카펜
풀돌
##정권
##다코타
주의보
이시노
우등생
선더랜드
갑론을박
Rade
개싸움
과민
교조
담뱃
드골
묵념
일그러
제례
지라이야
캐트
##만다
##십니까
흔들릴
제니트
중얼거린다
김인식
정선군
순례자
쿠보타
Viv
YMC
외적
중리
차급
해칠
##선생
전용도로
056
075
피터슨
사이클링
주워먹
IGN
활기차
후후후
장항선
FULL
감내
고된
더들리
점찍
친가
##그린
##번뇌
회의장
나간다고
어리버리
시토
예성
훈수
지방관
경호실
성숙기
초고층
혹여나
남면
리유
맘모스
백산
용남
이괄
저물
택한다
##iC
##시리
##UAL
하이츠
##astic
클레이튼
가중치
everything
아미타불
비앙카
문방구
들려서
선견
위독
양동이
송신소
캐머런
Ell
Jon
YOSH
금포
껄끄럽
끊긴다
듀이
디텍
바리스
브릭스
쇼타임
티즈
##지시
##탐탐
##베르데
호시탐탐
##IVAL
피에스타
와시즈
옥토퍼스
충렬왕
유레카
마거릿
나시오
단아
루치
변증
숙의
통기
피온
##lim
##결혼
머리장식
유일신
905
야마나카
아스테
998
519
피에트로
개화파
윤서인
차이나타운
으름장
나시오날
센세
정환
토번
퇴단
상하좌우
그로브
김연우
냉각수
리히텐
김문호
파푸아뉴기니
센세이션
만전
상온
송전
아퀴
웰터
장예
지동
중국집
오토나시
토모아키
진보신
이영한
1859
스머프
Ce
강건
기영
눈깔
서령
읍성
졸렬
현풍
화고
##well
##토리아
대학가
야구공
Arr
방지법
1165
참석자
도쿠시마
김장훈
꿈꿨
네네
더디
둔전
똑딱
머서
불닭
이류
천세
튜링
##qw
##zi
기종점
Const
오른손잡이
##노세키
알아챈다
오세아니아
꺾여
로케이션
몬스
일임
착발
친오빠
팝송
##fe
자주색
다이앤
프라이멀
trans
김주혁
막시무스
뇌졸
루틴
##빼기
##ili
##emies
peace
내리막길
움켜쥐
Pok
넌지시
용적
저금
##li
행정병
048
마침표
##ante
누리꾼
드림웍스
야스쿠니
창의력
헤인즈
시큰둥
개론
겸업
귀부인
긴키
렌스
소호
스터리
와룡
올려진
라이온스
막내아들
Display
마흔
무천
솔지
폭심
##자살
오른편
기다란
762
김동욱
가까워질
쳐들어왔
제철소
겸한
계측
그칠
깨트리
맥시마
무량
문책
손동
송산
시아버지
요와
퀘이드
047
데스몬드
플레디스
보냈으나
Coast
김원봉
Justice
장윤철
Thomas
가림
밀봉
빼빼
야시로
장물
태만
##글라트
이상용
마법부
머리핀
카즈히코
745
이자크
##사이저
시모노세키
상파울루
주계열
##글라트바흐
burn
기악
담요
덥스
묀헨
민현
비선
에탄올
영풍
오색
윤재
인게
차베스
치도리
##수룩
##진진
##벌식
##action
재가동
묀헨글라트바흐
XS
나유
맞힐
샘물
한걸
##Te
##나루
995
876
테츠로
##ween
LMS
라팔
서벌
시린
주둥
콧물
호석
정치범
살아오
소년원
652
642
장난꾸러기
아시아인
보급선
무덤덤
로렌초
피오레
##ched
장영실
흥덕구
외톨이
Tact
개동
레흐
면면
식견
와요
유심
윤원
자용
저곳
전각
조망
키어
파브레
프테라
##놀즈
드러누
608
돌격포
청소년기
CCG
PDA
나르샤
최충헌
못생겼
mine
건배
광각
꺾인
레스타
막막
사들이
수자
웰컴
피레
항암
호색
##트릭스
##태영
##교환
11000
게임큐브
##ffic
483
파랑새
터트릴
years
남반구
덧셈
에센스
엘마
운룡
재시
치하루
##떨어진다
##팔렌
독립영화
알리시아
1801
파파라치
흘러나온다
작아졌
몰트
영주시
퀴지
##CL
##두르
##stand
686
사라졌으며
사명감
UNI
DIFF
최성훈
yes
개런드
너도나도
두문
삼킨
섭렵
엄상현
조신
페타
획일
##GIN
##ICT
스티치
쿠로키
Guy
리브스
애시드
테크놀러지
알레한드로
kakao
{\
만개
백일
외손자
초경
페리아
##DB
##레이라
문제집
4200
합격률
1164
change
갤러거
소노코
패미통
분수대
Fal
Kong
VK
거렸
물렸
분하
이동훈
지장보살
서북쪽
김한수
더킹
발만
방북
비춘다
사재기
월면
헤이지
현제
홍영
횡성군
##카도
##itas
완료시
때려치
청년층
유기물
반기문
밀양시
Mirror
감마선
##비행사
Dancing
매실
아악
중정
페예
향방
##OOD
##만두
돌아선
우주비행사
프레지
평화상
568
1161
벤치마크
ANN
유영진
해인사
어처구니없
다구요
Legends
김문수
종주국
토파즈
렌탈
뱅뱅
보코
사군
심폐
오진
전연
코유키
##소개
##만지
네덜란드인
카야노
정주현
츠치야
소구경
Fat
갬빗
비음
비밥
뼈다귀
체흐
툴툴
##자전
##iles
733
가득찬
모모타로
도네츠크
최태민
LIGHT
이스케이프
수개월
푸대접
Fu
노던
서용
쥐속
체니
케익
##BB
##부들
##느질
타이핑
블루베리
시마무라
1174
가까워진
인과율
HELL
NEWS
플로리다주
김춘추
반수
쏘우
옥수
절교
중과
출금
하민
##브러
##암사
##할머니
레이놀즈
시험관
다녀도
벗겨진
요동치
베이커리
겨룰
바캉
에곤
여종
예인
임선
천운
허스트
##에다
##우르
##둥글
크리스트
세르세
들려온다
꼬꼬마
바캉스
두정
러플
만질
메어
승무
싱클레어
조프
차주
##acter
스피디
레오파르트
빨라진
관측선
ANOTHER
망해버렸
전자기파
모랄레스
잡아당기
Tro
found
곱하
뚫렸
상충
유빈
일용
천태
청명
혈흔
흥정
##라야
##베스트
아마기
아르센
베르베르
573
724
이와시타
후루타
부들부들
CAR
Ya
^{
거츠
궁핍
극구
납북
동궁
마령
변별
에워
이퀄
##상자
레드스톤
맞춰진
611
672
##ustom
ICA
성악가
격언
맨슨
미려
바코드
반석
부쿠레
북제
스판
에포
연륜
치경
치만
커미
통사
티끌
형기
화양
##피에르
##빌리
##uter
칼리굴라
느려졌
VVVF
조로아스터
부쿠레슈티
리히트
성직
야신
어물
원뿔
직제
쿄야
킹왕
통짜
##rent
##면적
라이트급
626
김성태
걸려도
사로잡히
~~~
정몽준
킹왕짱
att
눕혀
민규
박순
별난
상훈
쇼어
여직
푸젠
##주원
##목마
이론가
드롭킥
어이없이
IPTV
김주성
신상문
차려입
전소민
Jay
eng
검인
군들
귀차
맞아들
부쳐
송명
아함
엎드리
영작
캡스
바이블
회전목마
뛰어오
싸워도
발렌슈타인
둥글둥글
광둥성
명일
무감
박중
복통
생매장
속세
송민호
신광
와이스
인외
제적
틸러
##ture
##보아
##팔방
044
##STA
지명자
965
네오플
1173
프레스턴
land
니우
벡스
사티
생후
설도
성미
차곡
카브
##NY
##삼성
무한궤도
회전력
818
노조무
프레스티지
About
Perform
계신다
하동군
맹렬히
Term
ter
간곡
먹칠
무코
방직
백은
법리
워스트
월레스
유바리
의성군
입출
좌전
츠보
##푸틴
##루기
##를린
955
메디슨
귓속말
Tun
망량
비협
옵니다
잔영
제격
줄타기
칼국수
##칠성
오오츠키
Energy
기리보이
박준형
양부모
츠키노
애꾸눈
Radeon
Pony
SONG
베푸
변주
보모
비거리
코야스
팔괘
##Lime
##room
을지라도
트레이싱
라스푸틴
695
927
폴란드어
Glory
Rest
Saint
물줄기
버펄
불쑥
비봉
집어들
짝짓
타살
타토
타구치
패싸움
##론드
시나몬
543
벌였으나
Mario
야마노테
노림수
cos
센리
숭례문
압제
종성
카울
헌종
혁혁
##PC
##다래
Chang
Sugar
챙겨서
Adam
마미코
나주환
Corpor
감리교
유람선
거늘
금시
덩그러
동역
수형
쨩이
테카
##암면
계획안
보호구역
흔들려
사방팔방
Solo
일회성
거뜬히
Dun
Found
Hen
단성
데스트
듀란트
래도
신애
알스
애신
오페
우쿄
준페이
집병
펜션
흐린
희수
아이어
브라스
날아다닌다
개학
건넸
경내
덤덤
떳떳
또라이
입선
자웅
조업
진창
해원
레이테
흥미진진
퍼져나갔
Flight
세일럼
적잖이
Test
갈로
네우로
누라리
러링
로레인
부폰
안현
영안
위풍
쥬시
아니야
여겨서
ICE
어긋난다
하타케
##ONEY
오치아이
컨버터블
Tiger
알레산드로
가느다란
누라리횬
ke
남창
특설
##메인
영상미
후지무라
장수로
1167
SDXC
Lou
happ
그로우
날붙이
무디
빈혈
어엿
지쿠
진희
추성
푸짐
호병
호찌
##맞춰
493
##ITO
아쿠아리
슬로프
와카바야시
파열음
미뤄졌
Hunter
IWGP
능글맞
몬태나
Dol
Tab
간당
니클
오뚜기
유소
장춘
전재
철문
쾨니히
페럴
필자
일본풍
##unity
668
그런지는
깔끔히
##마리노
동북쪽
배고프
아쿠아리움
sound
계셨
뉴클
려야
산마리노
찰진
튄다
##URA
##프셔
619
귀여워서
안내문
주체사상
고쳐졌
부러뜨리
베어링
FEVER
농경지
기공사
비굴
사해
서량
용권
임윤
재평가
투광
해간다
행여
##pin
##()
이사국
정비사
동해시
엄지손가락
##그래프
BAR
gener
겹칠
몰려서
버기
병든
윤진
진찰
텔러
파랗
##커우
##추부사
골드버그
모병제
TnLime
Bronze
리히텐슈타인
개안
다일
베란다
분한
비좁
사온
선영
오천
위나
천추
필력
##계동
##전동
##=#
##망상
##볶음
파라드
되돌아왔
동대구역
월경지
말자
애스턴
유스티
장효
조혜
##미치
##저러
##긍긍
예능인
남아돌
1172
나빠진
전전긍긍
##레르모
GIRL
아오모리현
VIII
might
들뜬
상제
상산
알록
영점
옥탑
요주
처들
태릉
프로방스
##OTO
유력자
##사이클
레닌주의
피라냐
FV
TDD
vocal
랜섬
부촌
여혐
컴포
토관
헌재
호브
##경사
##우주
##차별
##닷컴
##픽스
선수협
데이모스
정상호
621
예산군
아지므로
급료
원세
위건
재적
지칠
코세이
피닝
혜나
홍승
##AX
##빈다
##줘야
가져옵니다
##ICULT
한지우
크레스트
오지랖
간행물
고화질
det
리들리
아하하
연회장
올슨
패리스
##체육
선발대
##rip
577
코이시
다그치
기네스북
공분
광배
문벌
신덕
연거
임한다
푸린
버린다면
파르시
어려웠을
Cyber
DIFFICULT
내열
놀렸
따분
소교
손맛
최호
캐비
##모비치
##저나
보호구
이스코
스킨십
CSI
삼척시
dist
네르
니가
다선
에오
윈저
육질
자숙
투모
틀려
파자마
##wan
795
1166
펼쳤으나
키타하라
카마치
이노센트
타키온
서남쪽
쿠사카베
테카맨
Pix
견적
도프
방생
백안
베텔
양공
오츠
옥중
죽림
##roll
##iff
##ias
우리말
사라짐
요구르트
히로카즈
046
SPA
726
스웨덴어
리브레
아스타로트
SPEED
Sonic
XB
eM
경운
공체
광적
김숙
녹아내
다대
명덕
염상
은성
잔학
특장
할렐루야
헬가
현청
##디브
메이브
054
being
클리닉
에르제
와타리
##코프스키
Mission
시정지
소염기
HN
base
매해
모도
부강
분립
실소
웨더
텅스텐
풋내기
흑석
##time
##!"
##복싱
##따나
느낌표
062
내리쳐
진실로
미카엘라
간호학
토미타
로드리고
시끄러워
그럴싸한
TOKYO
현가장치
Mountain
남태
레빈
명료
수룡
질긴
천제
떨어뜨릴
FIG
718
클로징
1858
르노삼성
돌이켜
슬리피
문무왕
개과천선
Cosm
나스티카
만치
메마른
상과
십니다
응고
이디
처소
특진
향남
##지수
##소송
안전벨트
심장병
서부극
아가사
소노다
Concert
Ape
김요한
띄워서
배식
사월
중경
칩스
##nal
##asc
달아난다
코즈에
비협조
HOME
MOTHER
갑신
고미
구피
샤리아
솟구치
시금
장하
해박
##오케
##화수소
##ORT
사쿠라다
alone
1171
페더러
진해수
Os
dong
김의
눈엣
답글
무미
벼룩
썰리
염산
울컥
윤미
쳐져
포브스
훌라
##미인
##위병
피해갈
491
고르바
ang
Drum
중서부
돈지랄
눈엣가시
노나라
링스
마십시오
몸살
바친다
뻣뻣
암술
팔짱
헝그리
희철
##어른
##orp
블랙캣
카타리
신세계백화점
그나저나
귀요미
HH
가택
간척
구술
석실
설움
족인
칼리오
탈수
##조류
##박자
##omy
카이치
once
628
수용자
가라오케
뒤덮인
acc
단막극
구세대
물레
위직
인노
참기름
칭다오
콘노
홍위병
##지스터
##에이지
안티고
크레이머
Crit
트러스트
산책로
쿠르드족
별똥별
리핑
몰디브
복리
북적
상왕
지룡
치약
한태
확성기
이뤄낸
신용우
이카루가
사슴벌레
부평역
갈릴레이
현시점
구불
금당
다모
두상
레옹
불붙
인크
플렉
##지근
##부양
##양양
모자랐
유우타
세라핌
윤영서
야하기
##레더블
고르바초프
인크레더블
Buster
LX
딸랑
벤틀리
본분
비박
서평
선급
엔디
##ZER
당해야
트랜지스터
이순철
Memories
Awards
Martin
JAM
Mother
Rise
UoL
가감
북일
불거진
붙박이
석장
하성
684
수십억
사다하루
URL
오펜스
쓰촨성
쑥대밭
Der
Fel
가천
구창
구색
난제
다툴
상형
수초
이임
째려
찬동
타르트
허프
##파이스
아르고스
사업체
##osp
보라매
바스코
무거워서
GLA
Castle
조범현
무령왕
공역
보신
본청
상운
신가
운남
##센션
##rae
소프트볼
696
교차점
알프레도
신재영
청담동
가엾
깨져서
방목
배선
백부
시료
##스트리트
연구관
459
752
알아본다
치명률
Mode
과한
맨드
바느질
뷰트
영명
웃도
유광
피보
##band
##han
##겨울
사이공
##osed
547
신선도
띄우기
히스테리
TLC
계원
기븐
보비
어용
이구치
협연
황현
##UP
미사오
063
귀족원
약해진다
카자크
취재진
김병현
타키자와
황의조
다과
면밀
양귀비
유술
크다
필즈
##구슬
##감도
##불허
##팬지
수행자
713
뒤따르
부전승
Generation
난파선
##anguage
나호
명불허
보부
설기
슈코
양사
가끔가다
마츠야마
김영선
동아프리카
맞물려서
리만치
파헤쳐
연거푸
김혁
북산
앞잡이
창궁
##티치
##며시
18000
스코트
Nightmare
level
소우타
성탄절
Phoenix
명불허전
Haw
라마스
사심
어센션
코니시
##코노
끌어모아
프린팅
##바라지
박영효
니키타
KGB
Mali
아탈란테
팔아넘
두만강
Sac
구렁
모히
성애
시빅
자나
장송
타츠키
##rd
##는점
##다녀
크리퍼
신고식
김태군
Universe
사일런스
쓸쓸히
타타라
수마트라
크립톤
카펜터
뉴클레오
모히칸
괘씸
꾸러기
노히
모스트
생중
제홍
천보
치오
해먼드
후발
##리니스트
##딩거
##leas
운영비
751
정원사
1163
HDMI
SHIN
바이올리니스트
Kat
기가스
김중
나디
마임
반구
병정
지보
지판
침팬지
카펫
퍼퓸
##응보
059
아카디아
안드레스
집어먹
신입생
모욕죄
채식주의자
메구로
광견
대실
마현
서호
얘길
원금
합사
회신
힐튼
##사회
##성당
comple
중력장
인과응보
##reng
Maybe
Tomorrow
스패로우
future
대런
동분
디마
라하
메나
양일
쟈크
짤려
처마
##런치
일반직
##ading
Once
Prom
샌드맨
ge
개벽
노령
노름
단차
동장
발착
본원
서도
유단
크렘
프릭
해롤드
건설사
아일린
잠수정
Trap
BX
Bee
Find
덴지
듬직
뭉뚱
미생
북조
비췄
수와
직시
천고
추워
펑키
헛점
##mn
487
전기차
에스메
634
크루이프
도박장
작아진
오리엔트
XII
도나우
뜯기
로번
리갈
창기병
환심
##가림
##래핑
위치스
이어져서
##illed
평균치
오버래핑
814
사치품
특파원
cs
si
xi
격멸
귀부
매슈
반인
빈손
뻐꾸
알버스
잡화
져라
쥐꼬리
찰떡
##fire
아카사카
648
김동률
Weapon
포위전
브라이스
도려
라군
맞혔
부쩍
사재
서이
시논
오투
탕진
포클랜드
피로스
흡족
찾아갈
Shine
제로원
교과목
하타노
알비노
브루크너
battle
뇌리
루어
메코
석과
셀타
스가와라
야욕
원봉
저온
파브
퍼뜨린
이동형
아가미
코토노
믿음직
지표면
고해성사
청도군
DQ
done
나초
배다른
볼가
천식
키튼
팔레르모
##키나
096
사이드암
기울어지
오즈마
박용욱
공예품
##swer
채프먼
멍멍이
코민테른
ag
경국
경련
문짝
변전
지하도
548
내보이
다녔으며
1839
오다큐
##ucer
Smith
유세윤
자습실
하모니카
radius
셀룰러
emp
남해군
로테르담
무혐
비품
수자원
아네트
양발
역력
충직
행이
헤치
##수전
##고로드
알려진다
하루코
스피카
해군사관학교
622
이슬이
MSG
끌려온
Cover
우로부치
Din
Fur
Jae
각외
개다래
부머
상복
율자
인멸
찍혀서
타칸
헤즈
##에서
##IB
##시노
##현제
##변수
##부시
자치체
March
##ologue
party
돌려보냈
KOREA
강역
나달
본서
예서
읍사무소
이본
이리아
임베
##프링
##폴라
40000
평화통일
헤드램프
799
에리얼
텍사스주
영암군
INFIN
다락방
버팀목
뻐꾸기
임베디드
게양
나프
맥없이
산들
성휘
오간
오싹
865
전대웅
PPL
Playmaker
초계기
엄정화
Ram
난지
눈높이
라부
로런
벌떡
비다
뻐끔
생머리
지태
체테
타네
해댄다
오리코
##apons
메르헨
타쿠로
Wars
출산율
아타루
뉴로
분업
수통
영회
영묘
영흥
용봉
일고
촉촉
힘줄
##조치
지나쳤
얼마간
자연환경
MAMA
바르바로
브리검
통제력
아시나
우회로
호성적
허도환
녹일
논점
떨친
문공
토야
트롯
팔로우
플란트
##aling
위키드
플라멩
카스카베
Academy
고후
남두
우당
일석
자긴
콜먼
타나베
플랩
해리어
##두부
##야금
더불어
961
하야사카
Press
영양제
player
영월군
권선구
야금야금
Advanced
엔하위키
단부
발치
불지옥
뿌릴
성창
신극
장색
철쇄
화낸
##보냈
##내면
##발리
아이누
밀려오
아리요시
농구대
DMR
간략히
sleepingcat
Aven
fine
갯벌
아커
자회
재워
전골
지제
진면
쫄깃
퀴리
아이고
##rik
이수현
카네다
난투극
Hearts
정민철
올림피아드
sin
괴산
나바스
내준다
린나
먹보
점했
최일
카쉬
카샤
##mi
##홍색
따라했
대전기
전차병
그만둘
전해질
598
##angers
719
##ENTS
합성물
Beats
가해진
어뢰정
강경학
메트로폴리
소우지
슈타이너
군자금
스테인리스
휴머노이드
메트로폴리탄
Rod
각역
간병
군조
굳어져
베스타
셰스
양고기
연경
절찬
지게
회골
##sa
##후보
소환권
코스닥
김민석
도심지
가마솥
##자동차
잘려나간
김세정
김소혜
Wolves
RU
수뢰
시라노
우츠
자축
천구
칼리스
##트리아
프리크
중앙군
661
원시인
##augh
신봉자
water
구교사
늘어져
벚나무
숙희
슈발리에
의족
채현
피언
회안
##효준
따라간
고용인
Gradient
심해진다
바티스트
Knqw
수녀원
비뚤어진
blood
슈뢰딩거
파브레가스
Knqweter
Lond
꿇리
물살
산후
케첩
타지마
##isa
해치워
황태자비
Doll
내야
대려
대내
레아나
사귈
생판
선처
용담
윤두
케바
프타
##mir
##통치
타카코
바르톨
683
아스트리드
히사코
과격파
Division
Les
Lam
마따나
상책
왜색
츠루미
##bb
##je
##]]
2900
646
정수기
##ocol
러닝백
국회의사당
Person
나긋
누라
법력
부루
사론
송가
윤봉
호봉
##폴리오
스타덤
집중포화
##OSE
하마사키
반감기
공로상
앞세우
광신자
화이팅
Lot
TOM
VE
VERS
각대
거문고
도치
마함
샐비지
수플
외제
차대
차서
페의
이주해
조동찬
계엄군
반공주의
Lat
개똥
시랑
장우
팅커
파프리카
피켓
##can
##ache
유령선
포트폴리오
지바현
NES
pd
겐타로
도국
도레
무뢰
비발디
상판
어겼
이응
전봉
코자
토렌트
##키타
##네소스
##단위
##날락
하나무라
하이테크
에너지탄
김종인
올드팬
포크볼
아르카디아
MANIA
들락날락
노팅엄
호들갑
결벽
이페이
타진
효모
강한데
에이코
Common
Commander
카루마
DISC
CRA
RUM
Vs
간석
능청
돌덩이
쥐라기
집성
쳐먹
태현
호인
##에스타
1169
김진수
Frank
다다랐
빗발치
레네
무극
볼터
선군
술술
정아
카슨
험비
##즈브러
902
741
알파카
미들즈브러
놀래키
Bank
드란
엥겔
조현우
탄띠
기자단
이정표
열기구
프로비던스
웰터급
기무
로잘
머문
버논
변희
불충
에에
우보
이실
정토
쿠몬
폐가
풍류
황사
##vity
물리친다
전문대
스파다
기념사업
Inn
##illion
##ICA
Alice
FIRE
상업시설
동인도
김준현
쿠스오
이니에스타
조제프
Technology
Dynamix
권정민
궤간
눈초리
수안
열반
운트
중건
지좌동
팔씨름
스토리지
케이이치로
643
마주친다
흐트러지
늘어남
유흥업소
도노반
hope
괄목
노나카
악물
어슬
어거
유녀
재블린
체재
초견
팍스
라이자
orange
암흑상
알바트
1818
절단기
무고죄
감리회
베레모
견자
꼬여서
라스크
명당
모창
문창
상보
슈토
왜관
윤시
저당
정나라
홍종
##십리역
##컨데
##퀴즈
806
스파이어
569
오오바
FIP
묘지기
서울특별시장
안내서
도루자
지워진
WCDMA
KDA
med
wRC
굼바
분동
비통
악착
음가
자기소개
559
미스즈
분석가
걸어온
남겨져
김대우
부드러
헤르타
육상자위대
두근거리
무성의
걸레짝
고세이저
Nin
Tree
Vel
kcal
더샵
밝힘
삼공사
제전
집들이
##ERATION
불러들였
8500
리카코
보살핌
손목시계
Lightning
미티어
SouL
가아라
격벽
봉구
삼신
수칙
술가
쌍성
영계
입도
재패
지신
팔렘
화비
##행동
자신만만
공중부양
베이퍼
토벌대
머무를
신동원
Honor
엘렉트라
팔렘방
Nam
Past
가름
굴렸
데쓰
러블
못가
선셋
성석
손정
엎어지
요드
탯의
회춘
##100
농구장
김현욱
다카시
PRIDE
수양대군
배영섭
다쿠
맹비
무오
백현
설현
쉐리
치하라
카티
킹크
##조프
##세코
##전용차
버스전용차
기타큐슈
도로로
744
Marc
되돌아간다
건넨다
버스전용차로
JG
Jes
ok
겸했
귀공
단대
독하
두쿠
마메
맞장구
불펍
시약
유준
쿠루스
펑위
후불
##래드
##마시
549
Shock
들어서야
우울해
스기야마
덜컥
무휼
반등
장건
카톨릭
호킨스
##ford
##긴스
##alt
846
로스트사가
수소문
부풀려
옥타비아누스
동교동
렌터
뱃살
비마니
빛내
빠빠
손쉬
장연
주웠
켄드릭
팔릴
##AI
교육법
##asion
061
##rix
모터사이클
나섰으나
렌터카
king
다사
대급
더한다
레키
아그리
조관
짐머
청력
퇴소
포치
##러브
##차곡
907
수행평가
마무리짓
654
용병대
에니그마
차곡차곡
고딩
노환
덜한
동격
민스크
불똥
숙취
시냅
젠트
촌스럽
탁상
토포
프랙
흥망
##aru
대원수
김정수
김승준
가야금
TOT
VHS
ta
강고
굴린
끄떡
생장
서위
장약
##승차
##허가
나무라
요시히코
사령탑
에르빈
단정지
Guardian
척후병
Rare
도룡
말엽
비신
정광
중미
켈빈
##그로스
##리스모
계획서
076
웨이터
rep
##izer
이수영
1853
Scott
로보캅
Carl
브란도
BanG
뇌졸중
계림
난류
동업자
서편
슌지
열창
자와
종잇
찜찜
최첨
##200
프로젝
바이런
참가국
예정일
사업비
보물섬
김성대
해양경찰
골라야
무용수
테레지아
맞대응
KKK
조봉암
최첨단
Lum
Pap
sim
물으며
본딴
악센트
오지마
인주
청백
친다고
후사르
##대주의
##데바
##카제
준다며
아르세우스
라디오스타
플로렌스
니코스
##quest
Program
접두어
키케로
Family
Raw
kors
개신
나투
비게
성야
손도끼
우중
지가
플러드
[...]
