{"version":"1.0","truncation":null,"padding":null,"added_tokens":[{"id":0,"special":true,"content":"[UNK]","single_word":false,"lstrip":false,"rstrip":false,"normalized":false},{"id":1,"special":true,"content":"[CLS]","single_word":false,"lstrip":false,"rstrip":false,"normalized":false},{"id":2,"special":true,"content":"[SEP]","single_word":false,"lstrip":false,"rstrip":false,"normalized":false},{"id":3,"special":true,"content":"[PAD]","single_word":false,"lstrip":false,"rstrip":false,"normalized":false},{"id":4,"special":true,"content":"[MASK]","single_word":false,"lstrip":false,"rstrip":false,"normalized":false}],"normalizer":{"type":"Sequence","normalizers":[{"type":"StripAccents"}]},"pre_tokenizer":{"type":"WhitespaceSplit"},"post_processor":{"type":"TemplateProcessing","single":[{"SpecialToken":{"id":"[CLS]","type_id":0}},{"Sequence":{"id":"A","type_id":0}},{"SpecialToken":{"id":"[SEP]","type_id":0}}],"pair":[{"SpecialToken":{"id":"[CLS]","type_id":0}},{"Sequence":{"id":"A","type_id":0}},{"SpecialToken":{"id":"[SEP]","type_id":0}},{"Sequence":{"id":"B","type_id":1}},{"SpecialToken":{"id":"[SEP]","type_id":1}}],"special_tokens":{"[CLS]":{"id":"[CLS]","ids":[1],"tokens":["[CLS]"]},"[SEP]":{"id":"[SEP]","ids":[2],"tokens":["[SEP]"]}}},"decoder":null,"model":{"type":"WordPiece","unk_token":"[UNK]","continuing_subword_prefix":"##","max_input_chars_per_word":100,"vocab":{"[UNK]":0,"[CLS]":1,"[SEP]":2,"[PAD]":3,"[MASK]":4,"!":5,"\"":6,"#":7,"$":8,"%":9,"&":10,"'":11,"(":12,")":13,"*":14,"+":15,",":16,"-":17,".":18,"/":19,"0":20,"1":21,"2":22,"3":23,"4":24,"5":25,"6":26,"7":27,"8":28,"9":29,":":30,";":31,"<":32,"=":33,">":34,"?":35,"@":36,"A":37,"B":38,"C":39,"D":40,"E":41,"F":42,"G":43,"H":44,"I":45,"J":46,"K":47,"L":48,"M":49,"N":50,"O":51,"P":52,"Q":53,"R":54,"S":55,"T":56,"U":57,"V":58,"W":59,"X":60,"Y":61,"Z":62,"[":63,"\\":64,"]":65,"^":66,"_":67,"`":68,"a":69,"b":70,"c":71,"d":72,"e":73,"f":74,"g":75,"h":76,"i":77,"j":78,"k":79,"l":80,"m":81,"n":82,"o":83,"p":84,"q":85,"r":86,"s":87,"t":88,"u":89,"v":90,"w":91,"x":92,"y":93,"z":94,"{":95,"|":96,"}":97,"~":98,"":99,"ᄀ":100,"ᄁ":101,"ᄂ":102,"ᄃ":103,"ᄄ":104,"ᄅ":105,"ᄆ":106,"ᄇ":107,"ᄈ":108,"ᄉ":109,"ᄊ":110,"ᄋ":111,"ᄌ":112,"ᄍ":113,"ᄎ":114,"ᄏ":115,"ᄐ":116,"ᄑ":117,"ᄒ":118,"ᅡ":119,"ᅢ":120,"ᅣ":121,"ᅤ":122,"ᅥ":123,"ᅦ":124,"ᅧ":125,"ᅨ":126,"ᅩ":127,"ᅪ":128,"ᅬ":129,"ᅭ":130,"ᅮ":131,"ᅯ":132,"ᅰ":133,"ᅱ":134,"ᅲ":135,"ᅳ":136,"ᅴ":137,"ᅵ":138,"ᆨ":139,"ᆩ":140,"ᆫ":141,"ᆭ":142,"ᆮ":143,"ᆯ":144,"ᆷ":145,"ᆸ":146,"ᆹ":147,"ᆺ":148,"ᆻ":149,"ᆼ":150,"ᆽ":151,"ᇀ":152,"ᇂ":153,"ㄱ":154,"ㄲ":155,"ㄳ":156,"ㄴ":157,"ㄵ":158,"ㄶ":159,"ㄷ":160,"ㄸ":161,"ㄹ":162,"ㄺ":163,"ㄻ":164,"ㄼ":165,"ㄽ":166,"ㄾ":167,"ㄿ":168,"ㅀ":169,"ㅁ":170,"ㅂ":171,"ㅃ":172,"ㅄ":173,"ㅅ":174,"ㅆ":175,"ㅇ":176,"ㅈ":177,"ㅉ":178,"ㅊ":179,"ㅋ":180,"ㅌ":181,"ㅍ":182,"ㅎ":183,"ㅏ":184,"ㅐ":185,"ㅑ":186,"ㅒ":187,"ㅓ":188,"ㅔ":189,"ㅕ":190,"ㅖ":191,"ㅗ":192,"ㅘ":193,"ㅙ":194,"ㅚ":195,"ㅛ":196,"ㅜ":197,"ㅝ":198,"ㅞ":199,"ㅟ":200,"ㅠ":201,"ㅡ":202,"ㅢ":203,"ㅣ":204,"가":205,"각":206,"갂":207,"갃":208,"간":209,"갅":210,"갆":211,"갇":212,"갈":213,"갉":214,"갊":215,"갋":216,"갌":217,"갍":218,"갎":219,"갏":220,"감":221,"갑":222,"값":223,"갓":224,"갔":225,"강":226,"갖":227,"갗":228,"갘":229,"같":230,"갚":231,"갛":232,"개":233,"객":234,"갞":235,"갟":236,"갠":237,"갡":238,"갢":239,"갣":240,"갤":241,"갥":242,"갦":243,"갧":244,"갨":245,"갩":246,"갪":247,"갫":248,"갬":249,"갭":250,"갮":251,"갯":252,"갰":253,"갱":254,"갲":255,"갳":256,"갴":257,"갵":258,"갶":259,"갷":260,"갸":261,"갹":262,"갺":263,"갻":264,"갽":265,"갾":266,"갿":267,"걀":268,"걁":269,"걂":270,"걃":271,"걄":272,"걅":273,"걆":274,"걇":275,"걈":276,"걉":277,"걊":278,"걋":279,"걌":280,"걍":281,"걎":282,"걏":283,"걐":284,"걑":285,"걒":286,"걓":287,"걔":288,"걕":289,"걖":290,"걗":291,"걙":292,"걚":293,"걛":294,"걝":295,"걞":296,"걟":297,"걠":298,"걡":299,"걢":300,"걣":301,"걤":302,"걥":303,"걦":304,"걧":305,"걨":306,"걩":307,"걪":308,"걫":309,"걬":310,"걭":311,"걮":312,"걯":313,"거":314,"걱":315,"걲":316,"걳":317,"건":318,"걵":319,"걶":320,"걷":321,"걸":322,"걹":323,"걺":324,"걻":325,"걼":326,"걽":327,"걾":328,"걿":329,"검":330,"겁":331,"겂":332,"것":333,"겄":334,"겅":335,"겆":336,"겇":337,"겈":338,"겉":339,"겊":340,"겋":341,"게":342,"겍":343,"겎":344,"겏":345,"겐":346,"겑":347,"겒":348,"겓":349,"겔":350,"겕":351,"겖":352,"겗":353,"겘":354,"겙":355,"겚":356,"겛":357,"겜":358,"겞":359,"겟":360,"겠":361,"겡":362,"겢":363,"겣":364,"겤":365,"겥":366,"겦":367,"겧":368,"겨":369,"격":370,"겪":371,"겫":372,"견":373,"겭":374,"겮":375,"겯":376,"결":377,"겱":378,"겲":379,"겳":380,"겴":381,"겵":382,"겶":383,"겷":384,"겸":385,"겹":386,"겺":387,"겻":388,"겼":389,"경":390,"겾":391,"겿":392,"곀":393,"곁":394,"곂":395,"곃":396,"계":397,"곅":398,"곆":399,"곇":400,"곈":401,"곉":402,"곊":403,"곋":404,"곌":405,"곍":406,"곎":407,"곏":408,"곐":409,"곑":410,"곒":411,"곓":412,"곔":413,"곕":414,"곖":415,"곗":416,"곘":417,"곙":418,"곚":419,"곛":420,"곜":421,"곝":422,"곞":423,"곟":424,"고":425,"곡":426,"곢":427,"곣":428,"곤":429,"곥":430,"곦":431,"곧":432,"골":433,"곩":434,"곪":435,"곫":436,"곬":437,"곭":438,"곮":439,"곯":440,"곰":441,"곱":442,"곲":443,"곳":444,"곴":445,"공":446,"곶":447,"곷":448,"곸":449,"곹":450,"곺":451,"곻":452,"과":453,"곽":454,"곾":455,"곿":456,"관":457,"괁":458,"괂":459,"괃":460,"괄":461,"괅":462,"괆":463,"괇":464,"괈":465,"괉":466,"괊":467,"괋":468,"괌":469,"괍":470,"괎":471,"괏":472,"괐":473,"광":474,"괒":475,"괓":476,"괔":477,"괕":478,"괖":479,"괗":480,"괘":481,"괙":482,"괚":483,"괛":484,"괜":485,"괝":486,"괞":487,"괟":488,"괠":489,"괡":490,"괢":491,"괣":492,"괤":493,"괥":494,"괦":495,"괧":496,"괨":497,"괩":498,"괪":499,"괫":500,"괬":501,"괭":502,"괮":503,"괯":504,"괰":505,"괱":506,"괲":507,"괳":508,"괴":509,"괵":510,"괶":511,"괷":512,"괸":513,"괹":514,"괺":515,"괻":516,"괼":517,"괽":518,"괾":519,"괿":520,"굀":521,"굁":522,"굂":523,"굃":524,"굄":525,"굅":526,"굆":527,"굇":528,"굈":529,"굉":530,"굊":531,"굋":532,"굌":533,"굍":534,"굎":535,"굏":536,"교":537,"굑":538,"굒":539,"굓":540,"굔":541,"굕":542,"굖":543,"굗":544,"굘":545,"굙":546,"굚":547,"굛":548,"굜":549,"굝":550,"굞":551,"굟":552,"굠":553,"굡":554,"굢":555,"굣":556,"굤":557,"굥":558,"굦":559,"굧":560,"굨":561,"굩":562,"굪":563,"굫":564,"구":565,"국":566,"굮":567,"굯":568,"군":569,"굱":570,"굲":571,"굳":572,"굴":573,"굵":574,"굶":575,"굷":576,"굸":577,"굹":578,"굺":579,"굻":580,"굼":581,"굽":582,"굾":583,"굿":584,"궀":585,"궁":586,"궂":587,"궃":588,"궄":589,"궅":590,"궆":591,"궇":592,"궈":593,"궉":594,"궊":595,"궋":596,"권":597,"궍":598,"궎":599,"궏":600,"궐":601,"궑":602,"궒":603,"궓":604,"궔":605,"궕":606,"궖":607,"궗":608,"궘":609,"궙":610,"궚":611,"궛":612,"궜":613,"궝":614,"궞":615,"궟":616,"궠":617,"궡":618,"궢":619,"궣":620,"궤":621,"궥":622,"궦":623,"궧":624,"궨":625,"궩":626,"궪":627,"궫":628,"궬":629,"궭":630,"궮":631,"궯":632,"궰":633,"궱":634,"궲":635,"궳":636,"궴":637,"궵":638,"궶":639,"궷":640,"궸":641,"궹":642,"궺":643,"궻":644,"궼":645,"궽":646,"궾":647,"궿":648,"귀":649,"귁":650,"귂":651,"귃":652,"귄":653,"귅":654,"귆":655,"귇":656,"귈":657,"귉":658,"귊":659,"귋":660,"귌":661,"귍":662,"귎":663,"귏":664,"귐":665,"귑":666,"귒":667,"귓":668,"귔":669,"귕":670,"귖":671,"귗":672,"귘":673,"귙":674,"귚":675,"귛":676,"규":677,"귝":678,"귞":679,"귟":680,"균":681,"귡":682,"귢":683,"귣":684,"귤":685,"귥":686,"귦":687,"귧":688,"귨":689,"귩":690,"귪":691,"귫":692,"귬":693,"귭":694,"귮":695,"귯":696,"귰":697,"귱":698,"귲":699,"귳":700,"귴":701,"귵":702,"귶":703,"귷":704,"그":705,"극":706,"귺":707,"귻":708,"근":709,"귽":710,"귾":711,"귿":712,"글":713,"긁":714,"긂":715,"긃":716,"긄":717,"긅":718,"긆":719,"긇":720,"금":721,"급":722,"긊":723,"긋":724,"긌":725,"긍":726,"긎":727,"긏":728,"긐":729,"긑":730,"긒":731,"긓":732,"긔":733,"긕":734,"긖":735,"긗":736,"긘":737,"긙":738,"긚":739,"긛":740,"긜":741,"긝":742,"긞":743,"긟":744,"긠":745,"긡":746,"긢":747,"긣":748,"긤":749,"긥":750,"긦":751,"긧":752,"긨":753,"긩":754,"긪":755,"긫":756,"긬":757,"긭":758,"긮":759,"긯":760,"기":761,"긱":762,"긲":763,"긳":764,"긴":765,"긵":766,"긶":767,"긷":768,"길":769,"긹":770,"긺":771,"긻":772,"긼":773,"긽":774,"긾":775,"긿":776,"김":777,"깁":778,"깂":779,"깃":780,"깄":781,"깅":782,"깆":783,"깇":784,"깈":785,"깉":786,"깊":787,"깋":788,"까":789,"깍":790,"깎":791,"깏":792,"깐":793,"깑":794,"깒":795,"깓":796,"깔":797,"깕":798,"깖":799,"깗":800,"깘":801,"깙":802,"깚":803,"깛":804,"깜":805,"깝":806,"깞":807,"깟":808,"깡":809,"깢":810,"깣":811,"깤":812,"깥":813,"깦":814,"깧":815,"깨":816,"깩":817,"깪":818,"깫":819,"깬":820,"깭":821,"깮":822,"깯":823,"깱":824,"깲":825,"깳":826,"깴":827,"깵":828,"깶":829,"깷":830,"깸":831,"깹":832,"깺":833,"깻":834,"깽":835,"깾":836,"깿":837,"꺀":838,"꺁":839,"꺂":840,"꺃":841,"꺄":842,"꺅":843,"꺆":844,"꺇":845,"꺈":846,"꺉":847,"꺊":848,"꺋":849,"꺌":850,"꺍":851,"꺎":852,"꺏":853,"꺐":854,"꺑":855,"꺒":856,"꺓":857,"꺔":858,"꺕":859,"꺖":860,"꺗":861,"꺘":862,"꺙":863,"꺚":864,"꺛":865,"꺜":866,"꺝":867,"꺞":868,"꺟":869,"꺠":870,"꺡":871,"꺢":872,"꺣":873,"꺤":874,"꺥":875,"꺦":876,"꺧":877,"꺨":878,"꺩":879,"꺪":880,"꺫":881,"꺬":882,"꺭":883,"꺮":884,"꺯":885,"꺰":886,"꺱":887,"꺲":888,"꺳":889,"꺴":890,"꺵":891,"꺶":892,"꺷":893,"꺸":894,"꺹":895,"꺺":896,"꺻":897,"꺼":898,"꺽":899,"꺾":900,"꺿":901,"껀":902,"껁":903,"껂":904,"껃":905,"껄":906,"껅":907,"껆":908,"껇":909,"껈":910,"껉":911,"껊":912,"껋":913,"껌":914,"껍":915,"껎":916,"껏":917,"껑":918,"껒":919,"껓":920,"껔":921,"껕":922,"껖":923,"껗":924,"께":925,"껙":926,"껚":927,"껛":928,"껝":929,"껞":930,"껟":931,"껠":932,"껡":933,"껢":934,"껣":935,"껤":936,"껥":937,"껦":938,"껧":939,"껨":940,"껩":941,"껪":942,"껫":943,"껬":944,"껭":945,"껮":946,"껯":947,"껰":948,"껱":949,"껲":950,"껳":951,"껴":952,"껵":953,"껶":954,"껷":955,"껸":956,"껹":957,"껺":958,"껻":959,"껼":960,"껽":961,"껾":962,"껿":963,"꼀":964,"꼁":965,"꼂":966,"꼃":967,"꼄":968,"꼅":969,"꼆":970,"꼇":971,"꼈":972,"꼉":973,"꼊":974,"꼋":975,"꼌":976,"꼍":977,"꼎":978,"꼏":979,"꼐":980,"꼑":981,"꼒":982,"꼓":983,"꼔":984,"꼕":985,"꼖":986,"꼗":987,"꼘":988,"꼙":989,"꼚":990,"꼛":991,"꼜":992,"꼝":993,"꼞":994,"꼟":995,"꼠":996,"꼡":997,"꼢":998,"꼣":999,"꼤":1000,"꼥":1001,"꼦":1002,"꼧":1003,"꼨":1004,"꼩":1005,"꼪":1006,"꼫":1007,"꼬":1008,"꼭":1009,"꼮":1010,"꼯":1011,"꼰":1012,"꼱":1013,"꼲":1014,"꼳":1015,"꼴":1016,"꼵":1017,"꼶":1018,"꼷":1019,"꼸":1020,"꼹":1021,"꼺":1022,"꼻":1023,"꼼":1024,"꼽":1025,"꼾":1026,"꼿":1027,"꽀":1028,"꽁":1029,"꽂":1030,"꽃":1031,"꽄":1032,"꽅":1033,"꽆":1034,"꽇":1035,"꽈":1036,"꽉":1037,"꽊":1038,"꽋":1039,"꽌":1040,"꽍":1041,"꽎":1042,"꽏":1043,"꽐":1044,"꽑":1045,"꽒":1046,"꽓":1047,"꽔":1048,"꽕":1049,"꽖":1050,"꽗":1051,"꽘":1052,"꽙":1053,"꽚":1054,"꽛":1055,"꽜":1056,"꽝":1057,"꽞":1058,"꽟":1059,"꽠":1060,"꽡":1061,"꽢":1062,"꽣":1063,"꽤":1064,"꽥":1065,"꽦":1066,"꽧":1067,"꽨":1068,"꽩":1069,"꽪":1070,"꽫":1071,"꽬":1072,"꽭":1073,"꽮":1074,"꽯":1075,"꽰":1076,"꽱":1077,"꽲":1078,"꽳":1079,"꽴":1080,"꽵":1081,"꽶":1082,"꽷":1083,"꽸":1084,"꽹":1085,"꽺":1086,"꽻":1087,"꽼":1088,"꽽":1089,"꽾":1090,"꽿":1091,"꾀":1092,"꾁":1093,"꾂":1094,"꾃":1095,"꾄":1096,"꾅":1097,"꾆":1098,"꾇":1099,"꾈":1100,"꾉":1101,"꾊":1102,"꾋":1103,"꾌":1104,"꾍":1105,"꾎":1106,"꾏":1107,"꾐":1108,"꾑":1109,"꾒":1110,"꾓":1111,"꾔":1112,"꾕":1113,"꾖":1114,"꾗":1115,"꾘":1116,"꾙":1117,"꾚":1118,"꾛":1119,"꾜":1120,"꾝":1121,"꾞":1122,"꾟":1123,"꾠":1124,"꾡":1125,"꾢":1126,"꾣":1127,"꾤":1128,"꾥":1129,"꾦":1130,"꾧":1131,"꾨":1132,"꾩":1133,"꾪":1134,"꾫":1135,"꾬":1136,"꾭":1137,"꾮":1138,"꾯":1139,"꾰":1140,"꾱":1141,"꾲":1142,"꾳":1143,"꾴":1144,"꾵":1145,"꾶":1146,"꾷":1147,"꾸":1148,"꾹":1149,"꾺":1150,"꾻":1151,"꾼":1152,"꾽":1153,"꾾":1154,"꾿":1155,"꿀":1156,"꿁":1157,"꿂":1158,"꿃":1159,"꿄":1160,"꿅":1161,"꿆":1162,"꿇":1163,"꿈":1164,"꿉":1165,"꿊":1166,"꿋":1167,"꿌":1168,"꿍":1169,"꿎":1170,"꿏":1171,"꿐":1172,"꿑":1173,"꿒":1174,"꿓":1175,"꿔":1176,"꿕":1177,"꿖":1178,"꿗":1179,"꿘":1180,"꿙":1181,"꿚":1182,"꿛":1183,"꿜":1184,"꿝":1185,"꿞":1186,"꿟":1187,"꿠":1188,"꿡":1189,"꿢":1190,"꿣":1191,"꿤":1192,"꿥":1193,"꿦":1194,"꿧":1195,"꿨":1196,"꿩":1197,"꿪":1198,"꿫":1199,"꿬":1200,"꿭":1201,"꿮":1202,"꿯":1203,"꿰":1204,"꿱":1205,"꿲":1206,"꿳":1207,"꿵":1208,"꿶":1209,"꿷":1210,"꿹":1211,"꿺":1212,"꿻":1213,"꿼":1214,"꿽":1215,"꿾":1216,"꿿":1217,"뀀":1218,"뀁":1219,"뀂":1220,"뀃":1221,"뀅":1222,"뀆":1223,"뀇":1224,"뀈":1225,"뀉":1226,"뀊":1227,"뀋":1228,"뀌":1229,"뀍":1230,"뀎":1231,"뀏":1232,"뀐":1233,"뀑":1234,"뀒":1235,"뀓":1236,"뀕":1237,"뀖":1238,"뀗":1239,"뀘":1240,"뀙":1241,"뀚":1242,"뀛":1243,"뀜":1244,"뀝":1245,"뀞":1246,"뀟":1247,"뀠":1248,"뀡":1249,"뀢":1250,"뀣":1251,"뀤":1252,"뀥":1253,"뀦":1254,"뀧":1255,"뀨":1256,"뀩":1257,"뀪":1258,"뀫":1259,"뀬":1260,"뀭":1261,"뀮":1262,"뀯":1263,"뀰":1264,"뀱":1265,"뀲":1266,"뀳":1267,"뀴":1268,"뀵":1269,"뀶":1270,"뀷":1271,"뀸":1272,"뀹":1273,"뀺":1274,"뀻":1275,"뀼":1276,"뀽":1277,"뀾":1278,"뀿":1279,"끀":1280,"끁":1281,"끂":1282,"끃":1283,"끄":1284,"끅":1285,"끆":1286,"끇":1287,"끈":1288,"끉":1289,"끊":1290,"끋":1291,"끌":1292,"끍":1293,"끎":1294,"끏":1295,"끐":1296,"끑":1297,"끒":1298,"끓":1299,"끔":1300,"끕":1301,"끖":1302,"끗":1303,"끘":1304,"끙":1305,"끚":1306,"끛":1307,"끜":1308,"끝":1309,"끞":1310,"끟":1311,"끠":1312,"끡":1313,"끢":1314,"끣":1315,"끤":1316,"끥":1317,"끦":1318,"끧":1319,"끨":1320,"끩":1321,"끪":1322,"끫":1323,"끬":1324,"끭":1325,"끮":1326,"끯":1327,"끰":1328,"끱":1329,"끲":1330,"끳":1331,"끴":1332,"끵":1333,"끶":1334,"끷":1335,"끸":1336,"끹":1337,"끺":1338,"끻":1339,"끼":1340,"끽":1341,"끾":1342,"끿":1343,"낀":1344,"낁":1345,"낂":1346,"낃":1347,"낄":1348,"낅":1349,"낆":1350,"낇":1351,"낈":1352,"낉":1353,"낊":1354,"낋":1355,"낌":1356,"낍":1357,"낎":1358,"낏":1359,"낐":1360,"낑":1361,"낒":1362,"낓":1363,"낔":1364,"낕":1365,"낖":1366,"낗":1367,"나":1368,"낙":1369,"낚":1370,"낛":1371,"난":1372,"낝":1373,"낞":1374,"낟":1375,"날":1376,"낡":1377,"낢":1378,"낣":1379,"낤":1380,"낥":1381,"낦":1382,"낧":1383,"남":1384,"납":1385,"낪":1386,"낫":1387,"났":1388,"낭":1389,"낮":1390,"낯":1391,"낰":1392,"낱":1393,"낲":1394,"낳":1395,"내":1396,"낵":1397,"낶":1398,"낷":1399,"낸":1400,"낹":1401,"낺":1402,"낻":1403,"낼":1404,"낽":1405,"낾":1406,"낿":1407,"냀":1408,"냁":1409,"냂":1410,"냃":1411,"냄":1412,"냅":1413,"냆":1414,"냇":1415,"냈":1416,"냉":1417,"냊":1418,"냋":1419,"냌":1420,"냍":1421,"냎":1422,"냏":1423,"냐":1424,"냑":1425,"냒":1426,"냓":1427,"냔":1428,"냕":1429,"냖":1430,"냗":1431,"냘":1432,"냙":1433,"냚":1434,"냛":1435,"냜":1436,"냝":1437,"냞":1438,"냟":1439,"냠":1440,"냡":1441,"냢":1442,"냣":1443,"냤":1444,"냥":1445,"냦":1446,"냧":1447,"냨":1448,"냩":1449,"냪":1450,"냫":1451,"냬":1452,"냭":1453,"냮":1454,"냯":1455,"냱":1456,"냲":1457,"냳":1458,"냴":1459,"냵":1460,"냶":1461,"냷":1462,"냸":1463,"냹":1464,"냺":1465,"냻":1466,"냼":1467,"냽":1468,"냾":1469,"냿":1470,"넀":1471,"넁":1472,"넂":1473,"넃":1474,"넄":1475,"넅":1476,"넆":1477,"넇":1478,"너":1479,"넉":1480,"넊":1481,"넋":1482,"넌":1483,"넍":1484,"넎":1485,"넏":1486,"널":1487,"넑":1488,"넒":1489,"넓":1490,"넔":1491,"넕":1492,"넖":1493,"넗":1494,"넘":1495,"넙":1496,"넚":1497,"넛":1498,"넜":1499,"넝":1500,"넞":1501,"넟":1502,"넠":1503,"넡":1504,"넢":1505,"넣":1506,"네":1507,"넥":1508,"넦":1509,"넧":1510,"넨":1511,"넩":1512,"넪":1513,"넫":1514,"넬":1515,"넭":1516,"넮":1517,"넯":1518,"넰":1519,"넱":1520,"넲":1521,"넳":1522,"넴":1523,"넵":1524,"넶":1525,"넷":1526,"넸":1527,"넹":1528,"넺":1529,"넻":1530,"넼":1531,"넽":1532,"넾":1533,"넿":1534,"녀":1535,"녁":1536,"녂":1537,"녃":1538,"년":1539,"녅":1540,"녆":1541,"녇":1542,"녈":1543,"녉":1544,"녊":1545,"녋":1546,"녌":1547,"녍":1548,"녎":1549,"녏":1550,"념":1551,"녑":1552,"녒":1553,"녓":1554,"녔":1555,"녕":1556,"녖":1557,"녗":1558,"녘":1559,"녙":1560,"녚":1561,"녛":1562,"녜":1563,"녝":1564,"녞":1565,"녟":1566,"녠":1567,"녡":1568,"녢":1569,"녣":1570,"녤":1571,"녥":1572,"녦":1573,"녧":1574,"녨":1575,"녩":1576,"녪":1577,"녫":1578,"녬":1579,"녭":1580,"녮":1581,"녯":1582,"녰":1583,"녱":1584,"녲":1585,"녳":1586,"녴":1587,"녵":1588,"녶":1589,"녷":1590,"노":1591,"녹":1592,"녺":1593,"녻":1594,"논":1595,"녽":1596,"녾":1597,"녿":1598,"놀":1599,"놁":1600,"놂":1601,"놃":1602,"놄":1603,"놅":1604,"놆":1605,"놇":1606,"놈":1607,"놉":1608,"놊":1609,"놋":1610,"놌":1611,"농":1612,"놎":1613,"놏":1614,"놐":1615,"놑":1616,"높":1617,"놓":1618,"놔":1619,"놕":1620,"놖":1621,"놗":1622,"놘":1623,"놙":1624,"놚":1625,"놛":1626,"놜":1627,"놝":1628,"놞":1629,"놟":1630,"놠":1631,"놡":1632,"놢":1633,"놣":1634,"놤":1635,"놥":1636,"놦":1637,"놧":1638,"놨":1639,"놩":1640,"놪":1641,"놫":1642,"놬":1643,"놭":1644,"놮":1645,"놯":1646,"놰":1647,"놱":1648,"놲":1649,"놳":1650,"놴":1651,"놵":1652,"놶":1653,"놷":1654,"놸":1655,"놹":1656,"놺":1657,"놻":1658,"놼":1659,"놽":1660,"놾":1661,"놿":1662,"뇀":1663,"뇁":1664,"뇂":1665,"뇃":1666,"뇄":1667,"뇅":1668,"뇆":1669,"뇇":1670,"뇈":1671,"뇉":1672,"뇊":1673,"뇋":1674,"뇌":1675,"뇍":1676,"뇎":1677,"뇏":1678,"뇐":1679,"뇑":1680,"뇒":1681,"뇓":1682,"뇔":1683,"뇕":1684,"뇖":1685,"뇗":1686,"뇘":1687,"뇙":1688,"뇚":1689,"뇛":1690,"뇜":1691,"뇝":1692,"뇞":1693,"뇟":1694,"뇠":1695,"뇡":1696,"뇢":1697,"뇣":1698,"뇤":1699,"뇥":1700,"뇦":1701,"뇧":1702,"뇨":1703,"뇩":1704,"뇪":1705,"뇫":1706,"뇬":1707,"뇭":1708,"뇮":1709,"뇯":1710,"뇰":1711,"뇱":1712,"뇲":1713,"뇳":1714,"뇴":1715,"뇵":1716,"뇶":1717,"뇷":1718,"뇸":1719,"뇹":1720,"뇺":1721,"뇻":1722,"뇼":1723,"뇽":1724,"뇾":1725,"뇿":1726,"눀":1727,"눁":1728,"눂":1729,"눃":1730,"누":1731,"눅":1732,"눆":1733,"눇":1734,"눈":1735,"눉":1736,"눊":1737,"눋":1738,"눌":1739,"눍":1740,"눎":1741,"눏":1742,"눐":1743,"눑":1744,"눒":1745,"눓":1746,"눔":1747,"눕":1748,"눖":1749,"눗":1750,"눘":1751,"눙":1752,"눚":1753,"눛":1754,"눜":1755,"눝":1756,"눞":1757,"눟":1758,"눡":1759,"눢":1760,"눣":1761,"눤":1762,"눥":1763,"눦":1764,"눧":1765,"눨":1766,"눩":1767,"눪":1768,"눫":1769,"눬":1770,"눭":1771,"눮":1772,"눯":1773,"눰":1774,"눱":1775,"눲":1776,"눳":1777,"눵":1778,"눶":1779,"눷":1780,"눸":1781,"눹":1782,"눺":1783,"눻":1784,"눼":1785,"눽":1786,"눾":1787,"눿":1788,"뉀":1789,"뉁":1790,"뉂":1791,"뉃":1792,"뉄":1793,"뉅":1794,"뉆":1795,"뉇":1796,"뉈":1797,"뉉":1798,"뉊":1799,"뉋":1800,"뉌":1801,"뉍":1802,"뉎":1803,"뉏":1804,"뉐":1805,"뉑":1806,"뉒":1807,"뉓":1808,"뉔":1809,"뉕":1810,"뉖":1811,"뉗":1812,"뉘":1813,"뉙":1814,"뉚":1815,"뉛":1816,"뉜":1817,"뉝":1818,"뉞":1819,"뉟":1820,"뉡":1821,"뉢":1822,"뉣":1823,"뉤":1824,"뉥":1825,"뉦":1826,"뉧":1827,"뉨":1828,"뉩":1829,"뉪":1830,"뉫":1831,"뉬":1832,"뉭":1833,"뉮":1834,"뉯":1835,"뉰":1836,"뉱":1837,"뉲":1838,"뉳":1839,"뉴":1840,"뉵":1841,"뉶":1842,"뉷":1843,"뉸":1844,"뉹":1845,"뉺":1846,"뉻":1847,"뉼":1848,"뉽":1849,"뉾":1850,"뉿":1851,"늀":1852,"늁":1853,"늂":1854,"늃":1855,"늄":1856,"늅":1857,"늆":1858,"늇":1859,"늈":1860,"늉":1861,"늊":1862,"늋":1863,"늌":1864,"늍":1865,"늎":1866,"늏":1867,"느":1868,"늑":1869,"늒":1870,"늓":1871,"는":1872,"늕":1873,"늖":1874,"늗":1875,"늘":1876,"늙":1877,"늚":1878,"늛":1879,"늜":1880,"늝":1881,"늞":1882,"늟":1883,"늠":1884,"늡":1885,"늢":1886,"늣":1887,"늤":1888,"능":1889,"늦":1890,"늧":1891,"늨":1892,"늩":1893,"늪":1894,"늫":1895,"늬":1896,"늭":1897,"늮":1898,"늯":1899,"늰":1900,"늱":1901,"늲":1902,"늳":1903,"늴":1904,"늵":1905,"늶":1906,"늷":1907,"늸":1908,"늹":1909,"늺":1910,"늻":1911,"늼":1912,"늽":1913,"늾":1914,"늿":1915,"닀":1916,"닁":1917,"닂":1918,"닃":1919,"닄":1920,"닅":1921,"닆":1922,"닇":1923,"니":1924,"닉":1925,"닊":1926,"닋":1927,"닌":1928,"닍":1929,"닎":1930,"닏":1931,"닐":1932,"닑":1933,"닒":1934,"닓":1935,"닔":1936,"닕":1937,"닖":1938,"닗":1939,"님":1940,"닙":1941,"닚":1942,"닛":1943,"닜":1944,"닝":1945,"닞":1946,"닟":1947,"닠":1948,"닡":1949,"닢":1950,"닣":1951,"다":1952,"닥":1953,"닦":1954,"닧":1955,"단":1956,"닩":1957,"닪":1958,"닫":1959,"달":1960,"닭":1961,"닮":1962,"닯":1963,"닰":1964,"닱":1965,"닲":1966,"닳":1967,"담":1968,"답":1969,"닶":1970,"닷":1971,"닸":1972,"당":1973,"닺":1974,"닻":1975,"닼":1976,"닽":1977,"닾":1978,"닿":1979,"대":1980,"댁":1981,"댂":1982,"댃":1983,"댄":1984,"댅":1985,"댆":1986,"댇":1987,"댈":1988,"댉":1989,"댊":1990,"댋":1991,"댌":1992,"댍":1993,"댎":1994,"댏":1995,"댐":1996,"댑":1997,"댒":1998,"댓":1999,"댔":2000,"댕":2001,"댖":2002,"댗":2003,"댘":2004,"댙":2005,"댚":2006,"댛":2007,"댜":2008,"댝":2009,"댞":2010,"댟":2011,"댠":2012,"댡":2013,"댢":2014,"댣":2015,"댤":2016,"댥":2017,"댦":2018,"댧":2019,"댨":2020,"댩":2021,"댪":2022,"댫":2023,"댬":2024,"댭":2025,"댮":2026,"댯":2027,"댰":2028,"댱":2029,"댲":2030,"댳":2031,"댴":2032,"댵":2033,"댶":2034,"댷":2035,"댸":2036,"댹":2037,"댺":2038,"댻":2039,"댼":2040,"댽":2041,"댾":2042,"댿":2043,"덀":2044,"덁":2045,"덂":2046,"덃":2047,"덄":2048,"덅":2049,"덆":2050,"덇":2051,"덈":2052,"덉":2053,"덊":2054,"덋":2055,"덌":2056,"덍":2057,"덎":2058,"덏":2059,"덐":2060,"덑":2061,"덒":2062,"덓":2063,"더":2064,"덕":2065,"덖":2066,"덗":2067,"던":2068,"덙":2069,"덚":2070,"덛":2071,"덜":2072,"덝":2073,"덞":2074,"덟":2075,"덠":2076,"덡":2077,"덢":2078,"덣":2079,"덤":2080,"덥":2081,"덦":2082,"덧":2083,"덨":2084,"덩":2085,"덪":2086,"덫":2087,"덬":2088,"덭":2089,"덮":2090,"덯":2091,"데":2092,"덱":2093,"덲":2094,"덳":2095,"덴":2096,"덵":2097,"덶":2098,"덷":2099,"델":2100,"덹":2101,"덺":2102,"덻":2103,"덼":2104,"덽":2105,"덾":2106,"덿":2107,"뎀":2108,"뎁":2109,"뎂":2110,"뎃":2111,"뎄":2112,"뎅":2113,"뎆":2114,"뎇":2115,"뎈":2116,"뎉":2117,"뎊":2118,"뎋":2119,"뎌":2120,"뎍":2121,"뎎":2122,"뎏":2123,"뎐":2124,"뎑":2125,"뎒":2126,"뎓":2127,"뎔":2128,"뎕":2129,"뎖":2130,"뎗":2131,"뎘":2132,"뎙":2133,"뎚":2134,"뎛":2135,"뎜":2136,"뎝":2137,"뎞":2138,"뎟":2139,"뎠":2140,"뎡":2141,"뎢":2142,"뎣":2143,"뎤":2144,"뎥":2145,"뎦":2146,"뎧":2147,"뎨":2148,"뎩":2149,"뎪":2150,"뎫":2151,"뎬":2152,"뎭":2153,"뎮":2154,"뎯":2155,"뎰":2156,"뎱":2157,"뎲":2158,"뎳":2159,"뎴":2160,"뎵":2161,"뎶":2162,"뎷":2163,"뎸":2164,"뎹":2165,"뎺":2166,"뎻":2167,"뎼":2168,"뎽":2169,"뎾":2170,"뎿":2171,"돀":2172,"돁":2173,"돂":2174,"돃":2175,"도":2176,"독":2177,"돆":2178,"돇":2179,"돈":2180,"돉":2181,"돊":2182,"돋":2183,"돌":2184,"돍":2185,"돎":2186,"돏":2187,"돐":2188,"돑":2189,"돒":2190,"돓":2191,"돔":2192,"돕":2193,"돖":2194,"돗":2195,"돘":2196,"동":2197,"돚":2198,"돛":2199,"돜":2200,"돝":2201,"돞":2202,"돟":2203,"돠":2204,"돡":2205,"돢":2206,"돣":2207,"돤":2208,"돥":2209,"돦":2210,"돧":2211,"돨":2212,"돩":2213,"돪":2214,"돫":2215,"돬":2216,"돭":2217,"돮":2218,"돯":2219,"돰":2220,"돱":2221,"돲":2222,"돳":2223,"돴":2224,"돵":2225,"돶":2226,"돷":2227,"돸":2228,"돹":2229,"돺":2230,"돻":2231,"돼":2232,"돽":2233,"돾":2234,"돿":2235,"됀":2236,"됁":2237,"됂":2238,"됃":2239,"됄":2240,"됅":2241,"됆":2242,"됇":2243,"됈":2244,"됉":2245,"됊":2246,"됋":2247,"됌":2248,"됍":2249,"됎":2250,"됏":2251,"됐":2252,"됑":2253,"됒":2254,"됓":2255,"됔":2256,"됕":2257,"됖":2258,"됗":2259,"되":2260,"됙":2261,"됚":2262,"됛":2263,"된":2264,"됝":2265,"됞":2266,"됟":2267,"될":2268,"됡":2269,"됢":2270,"됣":2271,"됤":2272,"됥":2273,"됦":2274,"됧":2275,"됨":2276,"됩":2277,"됪":2278,"됫":2279,"됬":2280,"됭":2281,"됮":2282,"됯":2283,"됰":2284,"됱":2285,"됲":2286,"됳":2287,"됴":2288,"됵":2289,"됶":2290,"됷":2291,"됸":2292,"됹":2293,"됺":2294,"됻":2295,"됼":2296,"됽":2297,"됾":2298,"됿":2299,"둀":2300,"둁":2301,"둂":2302,"둃":2303,"둄":2304,"둅":2305,"둆":2306,"둇":2307,"둈":2308,"둉":2309,"둊":2310,"둋":2311,"둌":2312,"둍":2313,"둎":2314,"둏":2315,"두":2316,"둑":2317,"둒":2318,"둓":2319,"둔":2320,"둕":2321,"둖":2322,"둗":2323,"둘":2324,"둙":2325,"둚":2326,"둛":2327,"둜":2328,"둝":2329,"둞":2330,"둟":2331,"둠":2332,"둡":2333,"둢":2334,"둣":2335,"둤":2336,"둥":2337,"둦":2338,"둧":2339,"둨":2340,"둩":2341,"둪":2342,"둫":2343,"둬":2344,"둭":2345,"둮":2346,"둯":2347,"둰":2348,"둱":2349,"둲":2350,"둳":2351,"둴":2352,"둵":2353,"둶":2354,"둷":2355,"둸":2356,"둹":2357,"둺":2358,"둻":2359,"둼":2360,"둽":2361,"둾":2362,"둿":2363,"뒁":2364,"뒂":2365,"뒃":2366,"뒄":2367,"뒅":2368,"뒆":2369,"뒇":2370,"뒈":2371,"뒉":2372,"뒊":2373,"뒋":2374,"뒌":2375,"뒍":2376,"뒎":2377,"뒏":2378,"뒐":2379,"뒑":2380,"뒒":2381,"뒓":2382,"뒔":2383,"뒕":2384,"뒖":2385,"뒗":2386,"뒘":2387,"뒙":2388,"뒚":2389,"뒛":2390,"뒜":2391,"뒝":2392,"뒞":2393,"뒟":2394,"뒠":2395,"뒡":2396,"뒢":2397,"뒣":2398,"뒤":2399,"뒥":2400,"뒦":2401,"뒧":2402,"뒨":2403,"뒩":2404,"뒪":2405,"뒫":2406,"뒬":2407,"뒭":2408,"뒮":2409,"뒯":2410,"뒰":2411,"뒱":2412,"뒲":2413,"뒳":2414,"뒴":2415,"뒵":2416,"뒶":2417,"뒷":2418,"뒸":2419,"뒹":2420,"뒺":2421,"뒻":2422,"뒼":2423,"뒽":2424,"뒾":2425,"뒿":2426,"듀":2427,"듁":2428,"듂":2429,"듃":2430,"듄":2431,"듅":2432,"듆":2433,"듇":2434,"듈":2435,"듉":2436,"듊":2437,"듋":2438,"듌":2439,"듍":2440,"듎":2441,"듏":2442,"듐":2443,"듑":2444,"듒":2445,"듓":2446,"듔":2447,"듕":2448,"듖":2449,"듗":2450,"듘":2451,"듙":2452,"듚":2453,"듛":2454,"드":2455,"득":2456,"듞":2457,"듟":2458,"든":2459,"듡":2460,"듢":2461,"듣":2462,"들":2463,"듥":2464,"듦":2465,"듧":2466,"듨":2467,"듩":2468,"듪":2469,"듫":2470,"듬":2471,"듭":2472,"듮":2473,"듯":2474,"듰":2475,"등":2476,"듲":2477,"듳":2478,"듴":2479,"듵":2480,"듶":2481,"듷":2482,"듸":2483,"듹":2484,"듺":2485,"듻":2486,"듼":2487,"듽":2488,"듾":2489,"듿":2490,"딀":2491,"딁":2492,"딂":2493,"딃":2494,"딄":2495,"딅":2496,"딆":2497,"딇":2498,"딈":2499,"딉":2500,"딊":2501,"딋":2502,"딌":2503,"딍":2504,"딎":2505,"딏":2506,"딐":2507,"딑":2508,"딒":2509,"딓":2510,"디":2511,"딕":2512,"딖":2513,"딗":2514,"딘":2515,"딙":2516,"딚":2517,"딛":2518,"딜":2519,"딝":2520,"딞":2521,"딟":2522,"딠":2523,"딡":2524,"딢":2525,"딣":2526,"딤":2527,"딥":2528,"딦":2529,"딧":2530,"딨":2531,"딩":2532,"딪":2533,"딫":2534,"딬":2535,"딭":2536,"딮":2537,"딯":2538,"따":2539,"딱":2540,"딲":2541,"딳":2542,"딴":2543,"딵":2544,"딶":2545,"딷":2546,"딸":2547,"딹":2548,"딺":2549,"딻":2550,"딼":2551,"딽":2552,"딾":2553,"딿":2554,"땀":2555,"땁":2556,"땂":2557,"땃":2558,"땅":2559,"땆":2560,"땇":2561,"땈":2562,"땉":2563,"땊":2564,"땋":2565,"때":2566,"땍":2567,"땎":2568,"땏":2569,"땐":2570,"땑":2571,"땒":2572,"땓":2573,"땔":2574,"땕":2575,"땖":2576,"땗":2577,"땘":2578,"땙":2579,"땚":2580,"땛":2581,"땜":2582,"땝":2583,"땞":2584,"땟":2585,"땠":2586,"땡":2587,"땢":2588,"땣":2589,"땤":2590,"땥":2591,"땦":2592,"땧":2593,"땨":2594,"땩":2595,"땪":2596,"땫":2597,"땬":2598,"땭":2599,"땮":2600,"땯":2601,"땰":2602,"땱":2603,"땲":2604,"땳":2605,"땴":2606,"땵":2607,"땶":2608,"땷":2609,"땸":2610,"땹":2611,"땺":2612,"땻":2613,"땼":2614,"땽":2615,"땾":2616,"땿":2617,"떀":2618,"떁":2619,"떂":2620,"떃":2621,"떄":2622,"떅":2623,"떆":2624,"떇":2625,"떈":2626,"떉":2627,"떊":2628,"떋":2629,"떌":2630,"떍":2631,"떎":2632,"떏":2633,"떐":2634,"떑":2635,"떒":2636,"떓":2637,"떔":2638,"떕":2639,"떖":2640,"떗":2641,"떘":2642,"떙":2643,"떚":2644,"떛":2645,"떜":2646,"떝":2647,"떞":2648,"떟":2649,"떠":2650,"떡":2651,"떢":2652,"떣":2653,"떤":2654,"떥":2655,"떦":2656,"떧":2657,"떨":2658,"떩":2659,"떪":2660,"떫":2661,"떬":2662,"떭":2663,"떮":2664,"떯":2665,"떰":2666,"떱":2667,"떲":2668,"떳":2669,"떵":2670,"떶":2671,"떷":2672,"떸":2673,"떹":2674,"떺":2675,"떻":2676,"떼":2677,"떽":2678,"떾":2679,"떿":2680,"뗀":2681,"뗁":2682,"뗂":2683,"뗃":2684,"뗄":2685,"뗅":2686,"뗆":2687,"뗇":2688,"뗈":2689,"뗉":2690,"뗊":2691,"뗋":2692,"뗌":2693,"뗍":2694,"뗎":2695,"뗏":2696,"뗑":2697,"뗒":2698,"뗓":2699,"뗔":2700,"뗕":2701,"뗖":2702,"뗗":2703,"뗘":2704,"뗙":2705,"뗚":2706,"뗛":2707,"뗜":2708,"뗝":2709,"뗞":2710,"뗟":2711,"뗠":2712,"뗡":2713,"뗢":2714,"뗣":2715,"뗤":2716,"뗥":2717,"뗦":2718,"뗧":2719,"뗨":2720,"뗩":2721,"뗪":2722,"뗫":2723,"뗭":2724,"뗮":2725,"뗯":2726,"뗰":2727,"뗱":2728,"뗲":2729,"뗳":2730,"뗴":2731,"뗵":2732,"뗶":2733,"뗷":2734,"뗸":2735,"뗹":2736,"뗺":2737,"뗻":2738,"뗼":2739,"뗽":2740,"뗾":2741,"뗿":2742,"똀":2743,"똁":2744,"똂":2745,"똃":2746,"똄":2747,"똅":2748,"똆":2749,"똇":2750,"똈":2751,"똉":2752,"똊":2753,"똋":2754,"똌":2755,"똍":2756,"똎":2757,"똏":2758,"또":2759,"똑":2760,"똒":2761,"똓":2762,"똔":2763,"똕":2764,"똖":2765,"똗":2766,"똘":2767,"똙":2768,"똚":2769,"똛":2770,"똜":2771,"똝":2772,"똞":2773,"똟":2774,"똠":2775,"똡":2776,"똢":2777,"똣":2778,"똤":2779,"똥":2780,"똦":2781,"똧":2782,"똨":2783,"똩":2784,"똪":2785,"똫":2786,"똬":2787,"똭":2788,"똮":2789,"똯":2790,"똰":2791,"똱":2792,"똲":2793,"똳":2794,"똴":2795,"똵":2796,"똶":2797,"똷":2798,"똸":2799,"똹":2800,"똺":2801,"똻":2802,"똼":2803,"똽":2804,"똾":2805,"똿":2806,"뙀":2807,"뙁":2808,"뙂":2809,"뙃":2810,"뙄":2811,"뙅":2812,"뙆":2813,"뙇":2814,"뙈":2815,"뙉":2816,"뙊":2817,"뙋":2818,"뙌":2819,"뙍":2820,"뙎":2821,"뙏":2822,"뙐":2823,"뙑":2824,"뙒":2825,"뙓":2826,"뙔":2827,"뙕":2828,"뙖":2829,"뙗":2830,"뙘":2831,"뙙":2832,"뙚":2833,"뙛":2834,"뙜":2835,"뙝":2836,"뙞":2837,"뙟":2838,"뙠":2839,"뙡":2840,"뙢":2841,"뙣":2842,"뙤":2843,"뙥":2844,"뙦":2845,"뙧":2846,"뙨":2847,"뙩":2848,"뙪":2849,"뙫":2850,"뙬":2851,"뙭":2852,"뙮":2853,"뙯":2854,"뙰":2855,"뙱":2856,"뙲":2857,"뙳":2858,"뙴":2859,"뙵":2860,"뙶":2861,"뙷":2862,"뙸":2863,"뙹":2864,"뙺":2865,"뙻":2866,"뙼":2867,"뙽":2868,"뙾":2869,"뙿":2870,"뚀":2871,"뚁":2872,"뚂":2873,"뚃":2874,"뚄":2875,"뚅":2876,"뚆":2877,"뚇":2878,"뚈":2879,"뚉":2880,"뚊":2881,"뚋":2882,"뚌":2883,"뚍":2884,"뚎":2885,"뚏":2886,"뚐":2887,"뚑":2888,"뚒":2889,"뚓":2890,"뚔":2891,"뚕":2892,"뚖":2893,"뚗":2894,"뚘":2895,"뚙":2896,"뚚":2897,"뚛":2898,"뚜":2899,"뚝":2900,"뚞":2901,"뚟":2902,"뚠":2903,"뚡":2904,"뚢":2905,"뚣":2906,"뚤":2907,"뚥":2908,"뚦":2909,"뚧":2910,"뚨":2911,"뚩":2912,"뚪":2913,"뚫":2914,"뚬":2915,"뚭":2916,"뚮":2917,"뚯":2918,"뚰":2919,"뚱":2920,"뚲":2921,"뚳":2922,"뚴":2923,"뚵":2924,"뚶":2925,"뚷":2926,"뚸":2927,"뚹":2928,"뚺":2929,"뚻":2930,"뚼":2931,"뚽":2932,"뚾":2933,"뚿":2934,"뛀":2935,"뛁":2936,"뛂":2937,"뛃":2938,"뛄":2939,"뛅":2940,"뛆":2941,"뛇":2942,"뛈":2943,"뛉":2944,"뛊":2945,"뛋":2946,"뛌":2947,"뛍":2948,"뛎":2949,"뛏":2950,"뛐":2951,"뛑":2952,"뛒":2953,"뛓":2954,"뛔":2955,"뛕":2956,"뛖":2957,"뛗":2958,"뛘":2959,"뛙":2960,"뛚":2961,"뛛":2962,"뛜":2963,"뛝":2964,"뛞":2965,"뛟":2966,"뛠":2967,"뛡":2968,"뛢":2969,"뛣":2970,"뛤":2971,"뛥":2972,"뛦":2973,"뛧":2974,"뛨":2975,"뛩":2976,"뛪":2977,"뛫":2978,"뛬":2979,"뛭":2980,"뛮":2981,"뛯":2982,"뛰":2983,"뛱":2984,"뛲":2985,"뛳":2986,"뛵":2987,"뛶":2988,"뛷":2989,"뛸":2990,"뛹":2991,"뛺":2992,"뛻":2993,"뛼":2994,"뛽":2995,"뛾":2996,"뛿":2997,"뜀":2998,"뜁":2999,"뜂":3000,"뜃":3001,"뜄":3002,"뜅":3003,"뜆":3004,"뜇":3005,"뜈":3006,"뜉":3007,"뜊":3008,"뜋":3009,"뜌":3010,"뜍":3011,"뜎":3012,"뜏":3013,"뜐":3014,"뜑":3015,"뜒":3016,"뜓":3017,"뜔":3018,"뜕":3019,"뜖":3020,"뜗":3021,"뜘":3022,"뜙":3023,"뜚":3024,"뜛":3025,"뜜":3026,"뜝":3027,"뜞":3028,"뜟":3029,"뜠":3030,"뜡":3031,"뜢":3032,"뜣":3033,"뜤":3034,"뜥":3035,"뜦":3036,"뜧":3037,"뜨":3038,"뜩":3039,"뜪":3040,"뜫":3041,"뜬":3042,"뜭":3043,"뜮":3044,"뜯":3045,"뜰":3046,"뜱":3047,"뜲":3048,"뜳":3049,"뜴":3050,"뜵":3051,"뜶":3052,"뜷":3053,"뜸":3054,"뜹":3055,"뜺":3056,"뜻":3057,"뜼":3058,"뜽":3059,"뜾":3060,"뜿":3061,"띀":3062,"띁":3063,"띂":3064,"띃":3065,"띄":3066,"띅":3067,"띆":3068,"띇":3069,"띉":3070,"띊":3071,"띋":3072,"띍":3073,"띎":3074,"띏":3075,"띐":3076,"띑":3077,"띒":3078,"띓":3079,"띔":3080,"띕":3081,"띖":3082,"띗":3083,"띘":3084,"띙":3085,"띚":3086,"띛":3087,"띜":3088,"띝":3089,"띞":3090,"띟":3091,"띠":3092,"띡":3093,"띢":3094,"띣":3095,"띤":3096,"띥":3097,"띦":3098,"띧":3099,"띨":3100,"띩":3101,"띪":3102,"띫":3103,"띬":3104,"띭":3105,"띮":3106,"띯":3107,"띰":3108,"띱":3109,"띲":3110,"띳":3111,"띴":3112,"띵":3113,"띶":3114,"띷":3115,"띸":3116,"띹":3117,"띺":3118,"띻":3119,"라":3120,"락":3121,"띾":3122,"띿":3123,"란":3124,"랁":3125,"랂":3126,"랃":3127,"랄":3128,"랅":3129,"랆":3130,"랇":3131,"랈":3132,"랉":3133,"랊":3134,"랋":3135,"람":3136,"랍":3137,"랎":3138,"랏":3139,"랐":3140,"랑":3141,"랒":3142,"랓":3143,"랔":3144,"랕":3145,"랖":3146,"랗":3147,"래":3148,"랙":3149,"랚":3150,"랛":3151,"랜":3152,"랝":3153,"랞":3154,"랟":3155,"랠":3156,"랡":3157,"랢":3158,"랣":3159,"랤":3160,"랥":3161,"랦":3162,"랧":3163,"램":3164,"랩":3165,"랪":3166,"랫":3167,"랬":3168,"랭":3169,"랮":3170,"랯":3171,"랰":3172,"랱":3173,"랲":3174,"랳":3175,"랴":3176,"략":3177,"랶":3178,"랷":3179,"랸":3180,"랹":3181,"랺":3182,"랻":3183,"랼":3184,"랽":3185,"랾":3186,"랿":3187,"럀":3188,"럁":3189,"럂":3190,"럃":3191,"럄":3192,"럅":3193,"럆":3194,"럇":3195,"럈":3196,"량":3197,"럊":3198,"럋":3199,"럌":3200,"럍":3201,"럎":3202,"럏":3203,"럐":3204,"럑":3205,"럒":3206,"럓":3207,"럔":3208,"럕":3209,"럖":3210,"럗":3211,"럘":3212,"럙":3213,"럚":3214,"럛":3215,"럜":3216,"럝":3217,"럞":3218,"럟":3219,"럠":3220,"럡":3221,"럢":3222,"럣":3223,"럤":3224,"럥":3225,"럦":3226,"럧":3227,"럨":3228,"럩":3229,"럪":3230,"럫":3231,"러":3232,"럭":3233,"럮":3234,"럯":3235,"런":3236,"럱":3237,"럲":3238,"럳":3239,"럴":3240,"럵":3241,"럶":3242,"럷":3243,"럸":3244,"럹":3245,"럺":3246,"럻":3247,"럼":3248,"럽":3249,"럾":3250,"럿":3251,"렀":3252,"렁":3253,"렂":3254,"렃":3255,"렄":3256,"렅":3257,"렆":3258,"렇":3259,"레":3260,"렉":3261,"렊":3262,"렋":3263,"렌":3264,"렍":3265,"렎":3266,"렏":3267,"렐":3268,"렑":3269,"렒":3270,"렓":3271,"렔":3272,"렕":3273,"렖":3274,"렗":3275,"렘":3276,"렙":3277,"렚":3278,"렛":3279,"렜":3280,"렝":3281,"렞":3282,"렟":3283,"렠":3284,"렡":3285,"렢":3286,"렣":3287,"려":3288,"력":3289,"렦":3290,"렧":3291,"련":3292,"렩":3293,"렪":3294,"렫":3295,"렬":3296,"렭":3297,"렮":3298,"렯":3299,"렰":3300,"렱":3301,"렲":3302,"렳":3303,"렴":3304,"렵":3305,"렶":3306,"렷":3307,"렸":3308,"령":3309,"렺":3310,"렻":3311,"렼":3312,"렽":3313,"렾":3314,"렿":3315,"례":3316,"롁":3317,"롂":3318,"롃":3319,"롄":3320,"롅":3321,"롆":3322,"롇":3323,"롈":3324,"롉":3325,"롊":3326,"롋":3327,"롌":3328,"롍":3329,"롎":3330,"롏":3331,"롐":3332,"롑":3333,"롒":3334,"롓":3335,"롔":3336,"롕":3337,"롖":3338,"롗":3339,"롘":3340,"롙":3341,"롚":3342,"롛":3343,"로":3344,"록":3345,"롞":3346,"롟":3347,"론":3348,"롡":3349,"롢":3350,"롣":3351,"롤":3352,"롥":3353,"롦":3354,"롧":3355,"롨":3356,"롩":3357,"롪":3358,"롫":3359,"롬":3360,"롭":3361,"롮":3362,"롯":3363,"롰":3364,"롱":3365,"롲":3366,"롳":3367,"롴":3368,"롵":3369,"롶":3370,"롷":3371,"롸":3372,"롹":3373,"롺":3374,"롻":3375,"롼":3376,"롽":3377,"롾":3378,"롿":3379,"뢀":3380,"뢁":3381,"뢂":3382,"뢃":3383,"뢄":3384,"뢅":3385,"뢆":3386,"뢇":3387,"뢈":3388,"뢉":3389,"뢊":3390,"뢋":3391,"뢌":3392,"뢍":3393,"뢎":3394,"뢏":3395,"뢐":3396,"뢑":3397,"뢒":3398,"뢓":3399,"뢔":3400,"뢕":3401,"뢖":3402,"뢗":3403,"뢘":3404,"뢙":3405,"뢚":3406,"뢛":3407,"뢜":3408,"뢝":3409,"뢞":3410,"뢟":3411,"뢠":3412,"뢡":3413,"뢢":3414,"뢣":3415,"뢤":3416,"뢥":3417,"뢦":3418,"뢧":3419,"뢨":3420,"뢩":3421,"뢪":3422,"뢫":3423,"뢬":3424,"뢭":3425,"뢮":3426,"뢯":3427,"뢰":3428,"뢱":3429,"뢲":3430,"뢳":3431,"뢴":3432,"뢵":3433,"뢶":3434,"뢷":3435,"뢸":3436,"뢹":3437,"뢺":3438,"뢻":3439,"뢼":3440,"뢽":3441,"뢾":3442,"뢿":3443,"룀":3444,"룁":3445,"룂":3446,"룃":3447,"룄":3448,"룅":3449,"룆":3450,"룇":3451,"룈":3452,"룉":3453,"룊":3454,"룋":3455,"료":3456,"룍":3457,"룎":3458,"룏":3459,"룐":3460,"룑":3461,"룒":3462,"룓":3463,"룔":3464,"룕":3465,"룖":3466,"룗":3467,"룘":3468,"룙":3469,"룚":3470,"룛":3471,"룜":3472,"룝":3473,"룞":3474,"룟":3475,"룠":3476,"룡":3477,"룢":3478,"룣":3479,"룤":3480,"룥":3481,"룦":3482,"룧":3483,"루":3484,"룩":3485,"룪":3486,"룫":3487,"룬":3488,"룭":3489,"룮":3490,"룯":3491,"룰":3492,"룱":3493,"룲":3494,"룳":3495,"룴":3496,"룵":3497,"룶":3498,"룷":3499,"룸":3500,"룹":3501,"룺":3502,"룻":3503,"룼":3504,"룽":3505,"룾":3506,"룿":3507,"뤀":3508,"뤁":3509,"뤂":3510,"뤃":3511,"뤄":3512,"뤅":3513,"뤆":3514,"뤇":3515,"뤈":3516,"뤉":3517,"뤊":3518,"뤋":3519,"뤌":3520,"뤍":3521,"뤎":3522,"뤏":3523,"뤐":3524,"뤑":3525,"뤒":3526,"뤓":3527,"뤔":3528,"뤕":3529,"뤖":3530,"뤗":3531,"뤘":3532,"뤙":3533,"뤚":3534,"뤛":3535,"뤜":3536,"뤝":3537,"뤞":3538,"뤟":3539,"뤠":3540,"뤡":3541,"뤢":3542,"뤣":3543,"뤤":3544,"뤥":3545,"뤦":3546,"뤧":3547,"뤨":3548,"뤩":3549,"뤪":3550,"뤫":3551,"뤬":3552,"뤭":3553,"뤮":3554,"뤯":3555,"뤰":3556,"뤱":3557,"뤲":3558,"뤳":3559,"뤴":3560,"뤵":3561,"뤶":3562,"뤷":3563,"뤸":3564,"뤹":3565,"뤺":3566,"뤻":3567,"뤼":3568,"뤽":3569,"뤾":3570,"뤿":3571,"륀":3572,"륁":3573,"륂":3574,"륃":3575,"륄":3576,"륅":3577,"륆":3578,"륇":3579,"륈":3580,"륉":3581,"륊":3582,"륋":3583,"륌":3584,"륍":3585,"륎":3586,"륏":3587,"륐":3588,"륑":3589,"륒":3590,"륓":3591,"륔":3592,"륕":3593,"륖":3594,"륗":3595,"류":3596,"륙":3597,"륚":3598,"륛":3599,"륜":3600,"륝":3601,"륞":3602,"륟":3603,"률":3604,"륡":3605,"륢":3606,"륣":3607,"륤":3608,"륥":3609,"륦":3610,"륧":3611,"륨":3612,"륩":3613,"륪":3614,"륫":3615,"륬":3616,"륭":3617,"륮":3618,"륯":3619,"륰":3620,"륱":3621,"륲":3622,"륳":3623,"르":3624,"륵":3625,"륶":3626,"륷":3627,"른":3628,"륹":3629,"륺":3630,"륻":3631,"를":3632,"륽":3633,"륾":3634,"륿":3635,"릀":3636,"릁":3637,"릂":3638,"릃":3639,"름":3640,"릅":3641,"릆":3642,"릇":3643,"릈":3644,"릉":3645,"릊":3646,"릋":3647,"릌":3648,"릍":3649,"릎":3650,"릏":3651,"릐":3652,"릑":3653,"릒":3654,"릓":3655,"릔":3656,"릕":3657,"릖":3658,"릗":3659,"릘":3660,"릙":3661,"릚":3662,"릛":3663,"릜":3664,"릝":3665,"릞":3666,"릟":3667,"릠":3668,"릡":3669,"릢":3670,"릣":3671,"릤":3672,"릥":3673,"릦":3674,"릧":3675,"릨":3676,"릩":3677,"릪":3678,"릫":3679,"리":3680,"릭":3681,"릮":3682,"릯":3683,"린":3684,"릱":3685,"릲":3686,"릳":3687,"릴":3688,"릵":3689,"릶":3690,"릷":3691,"릸":3692,"릹":3693,"릺":3694,"릻":3695,"림":3696,"립":3697,"릾":3698,"릿":3699,"맀":3700,"링":3701,"맂":3702,"맃":3703,"맄":3704,"맅":3705,"맆":3706,"맇":3707,"마":3708,"막":3709,"맊":3710,"맋":3711,"만":3712,"맍":3713,"많":3714,"맏":3715,"말":3716,"맑":3717,"맒":3718,"맓":3719,"맔":3720,"맕":3721,"맖":3722,"맗":3723,"맘":3724,"맙":3725,"맚":3726,"맛":3727,"맜":3728,"망":3729,"맞":3730,"맟":3731,"맠":3732,"맡":3733,"맢":3734,"맣":3735,"매":3736,"맥":3737,"맦":3738,"맧":3739,"맨":3740,"맩":3741,"맪":3742,"맫":3743,"맬":3744,"맭":3745,"맮":3746,"맯":3747,"맰":3748,"맱":3749,"맲":3750,"맳":3751,"맴":3752,"맵":3753,"맶":3754,"맷":3755,"맹":3756,"맺":3757,"맻":3758,"맼":3759,"맽":3760,"맾":3761,"맿":3762,"먀":3763,"먁":3764,"먂":3765,"먃":3766,"먄":3767,"먅":3768,"먆":3769,"먇":3770,"먈":3771,"먉":3772,"먊":3773,"먋":3774,"먌":3775,"먍":3776,"먎":3777,"먏":3778,"먐":3779,"먑":3780,"먒":3781,"먓":3782,"먔":3783,"먕":3784,"먖":3785,"먗":3786,"먘":3787,"먙":3788,"먚":3789,"먛":3790,"먜":3791,"먝":3792,"먞":3793,"먟":3794,"먠":3795,"먡":3796,"먢":3797,"먣":3798,"먤":3799,"먥":3800,"먦":3801,"먧":3802,"먨":3803,"먩":3804,"먪":3805,"먫":3806,"먬":3807,"먭":3808,"먮":3809,"먯":3810,"먰":3811,"먱":3812,"먲":3813,"먳":3814,"먴":3815,"먵":3816,"먶":3817,"먷":3818,"머":3819,"먹":3820,"먺":3821,"먻":3822,"먼":3823,"먽":3824,"먾":3825,"먿":3826,"멀":3827,"멁":3828,"멂":3829,"멃":3830,"멄":3831,"멅":3832,"멆":3833,"멇":3834,"멈":3835,"멉":3836,"멊":3837,"멋":3838,"멌":3839,"멍":3840,"멎":3841,"멏":3842,"멐":3843,"멑":3844,"멒":3845,"멓":3846,"메":3847,"멕":3848,"멖":3849,"멗":3850,"멘":3851,"멙":3852,"멚":3853,"멛":3854,"멜":3855,"멝":3856,"멞":3857,"멟":3858,"멠":3859,"멡":3860,"멢":3861,"멣":3862,"멤":3863,"멥":3864,"멦":3865,"멧":3866,"멨":3867,"멩":3868,"멪":3869,"멫":3870,"멬":3871,"멭":3872,"멮":3873,"멯":3874,"며":3875,"멱":3876,"멲":3877,"멳":3878,"면":3879,"멵":3880,"멶":3881,"멷":3882,"멸":3883,"멹":3884,"멺":3885,"멻":3886,"멼":3887,"멽":3888,"멾":3889,"멿":3890,"몀":3891,"몁":3892,"몂":3893,"몃":3894,"몄":3895,"명":3896,"몆":3897,"몇":3898,"몈":3899,"몉":3900,"몊":3901,"몋":3902,"몌":3903,"몍":3904,"몎":3905,"몏":3906,"몐":3907,"몑":3908,"몒":3909,"몓":3910,"몔":3911,"몕":3912,"몖":3913,"몗":3914,"몘":3915,"몙":3916,"몚":3917,"몛":3918,"몜":3919,"몝":3920,"몞":3921,"몟":3922,"몠":3923,"몡":3924,"몢":3925,"몣":3926,"몤":3927,"몥":3928,"몦":3929,"몧":3930,"모":3931,"목":3932,"몪":3933,"몫":3934,"몬":3935,"몭":3936,"몮":3937,"몯":3938,"몰":3939,"몱":3940,"몲":3941,"몳":3942,"몴":3943,"몵":3944,"몶":3945,"몷":3946,"몸":3947,"몹":3948,"몺":3949,"못":3950,"몼":3951,"몽":3952,"몾":3953,"몿":3954,"뫀":3955,"뫁":3956,"뫂":3957,"뫃":3958,"뫄":3959,"뫅":3960,"뫆":3961,"뫇":3962,"뫈":3963,"뫉":3964,"뫊":3965,"뫋":3966,"뫌":3967,"뫍":3968,"뫎":3969,"뫏":3970,"뫐":3971,"뫑":3972,"뫒":3973,"뫓":3974,"뫔":3975,"뫕":3976,"뫖":3977,"뫗":3978,"뫘":3979,"뫙":3980,"뫚":3981,"뫛":3982,"뫜":3983,"뫝":3984,"뫞":3985,"뫟":3986,"뫠":3987,"뫡":3988,"뫢":3989,"뫣":3990,"뫤":3991,"뫥":3992,"뫦":3993,"뫧":3994,"뫨":3995,"뫩":3996,"뫪":3997,"뫫":3998,"뫬":3999,"뫭":4000,"뫮":4001,"뫯":4002,"뫰":4003,"뫱":4004,"뫲":4005,"뫳":4006,"뫴":4007,"뫵":4008,"뫶":4009,"뫷":4010,"뫸":4011,"뫹":4012,"뫺":4013,"뫻":4014,"뫼":4015,"뫽":4016,"뫾":4017,"뫿":4018,"묀":4019,"묁":4020,"묂":4021,"묃":4022,"묄":4023,"묅":4024,"묆":4025,"묇":4026,"묈":4027,"묉":4028,"묊":4029,"묋":4030,"묌":4031,"묍":4032,"묎":4033,"묏":4034,"묐":4035,"묑":4036,"묒":4037,"묓":4038,"묔":4039,"묕":4040,"묖":4041,"묗":4042,"묘":4043,"묙":4044,"묚":4045,"묛":4046,"묜":4047,"묝":4048,"묞":4049,"묟":4050,"묠":4051,"묡":4052,"묢":4053,"묣":4054,"묤":4055,"묥":4056,"묦":4057,"묧":4058,"묨":4059,"묩":4060,"묪":4061,"묫":4062,"묬":4063,"묭":4064,"묮":4065,"묯":4066,"묰":4067,"묱":4068,"묲":4069,"묳":4070,"무":4071,"묵":4072,"묶":4073,"묷":4074,"문":4075,"묹":4076,"묺":4077,"묻":4078,"물":4079,"묽":4080,"묾":4081,"묿":4082,"뭀":4083,"뭁":4084,"뭂":4085,"뭃":4086,"뭄":4087,"뭅":4088,"뭆":4089,"뭇":4090,"뭈":4091,"뭉":4092,"뭊":4093,"뭋":4094,"뭌":4095,"뭍":4096,"뭎":4097,"뭏":4098,"뭐":4099,"뭑":4100,"뭒":4101,"뭓":4102,"뭔":4103,"뭕":4104,"뭖":4105,"뭗":4106,"뭘":4107,"뭙":4108,"뭚":4109,"뭛":4110,"뭜":4111,"뭝":4112,"뭞":4113,"뭟":4114,"뭠":4115,"뭡":4116,"뭢":4117,"뭣":4118,"뭤":4119,"뭥":4120,"뭦":4121,"뭧":4122,"뭨":4123,"뭩":4124,"뭪":4125,"뭫":4126,"뭬":4127,"뭭":4128,"뭮":4129,"뭯":4130,"뭰":4131,"뭱":4132,"뭲":4133,"뭳":4134,"뭴":4135,"뭵":4136,"뭶":4137,"뭷":4138,"뭸":4139,"뭹":4140,"뭺":4141,"뭻":4142,"뭼":4143,"뭽":4144,"뭾":4145,"뭿":4146,"뮀":4147,"뮁":4148,"뮂":4149,"뮃":4150,"뮄":4151,"뮅":4152,"뮆":4153,"뮇":4154,"뮈":4155,"뮉":4156,"뮊":4157,"뮋":4158,"뮌":4159,"뮍":4160,"뮎":4161,"뮏":4162,"뮐":4163,"뮑":4164,"뮒":4165,"뮓":4166,"뮔":4167,"뮕":4168,"뮖":4169,"뮗":4170,"뮘":4171,"뮙":4172,"뮚":4173,"뮛":4174,"뮜":4175,"뮝":4176,"뮞":4177,"뮟":4178,"뮠":4179,"뮡":4180,"뮢":4181,"뮣":4182,"뮤":4183,"뮥":4184,"뮦":4185,"뮧":4186,"뮨":4187,"뮩":4188,"뮪":4189,"뮫":4190,"뮬":4191,"뮭":4192,"뮮":4193,"뮯":4194,"뮰":4195,"뮱":4196,"뮲":4197,"뮳":4198,"뮴":4199,"뮵":4200,"뮶":4201,"뮷":4202,"뮸":4203,"뮹":4204,"뮺":4205,"뮻":4206,"뮼":4207,"뮽":4208,"뮾":4209,"뮿":4210,"므":4211,"믁":4212,"믂":4213,"믃":4214,"믄":4215,"믅":4216,"믆":4217,"믇":4218,"믈":4219,"믉":4220,"믊":4221,"믋":4222,"믌":4223,"믍":4224,"믎":4225,"믏":4226,"믐":4227,"믑":4228,"믒":4229,"믓":4230,"믔":4231,"믕":4232,"믖":4233,"믗":4234,"믘":4235,"믙":4236,"믚":4237,"믛":4238,"믜":4239,"믝":4240,"믞":4241,"믟":4242,"믠":4243,"믡":4244,"믢":4245,"믣":4246,"믤":4247,"믥":4248,"믦":4249,"믧":4250,"믨":4251,"믩":4252,"믪":4253,"믫":4254,"믬":4255,"믭":4256,"믮":4257,"믯":4258,"믰":4259,"믱":4260,"믲":4261,"믳":4262,"믴":4263,"믵":4264,"믶":4265,"믷":4266,"미":4267,"믹":4268,"믺":4269,"믻":4270,"민":4271,"믽":4272,"믾":4273,"믿":4274,"밀":4275,"밁":4276,"밂":4277,"밃":4278,"밄":4279,"밅":4280,"밆":4281,"밇":4282,"밈":4283,"밉":4284,"밊":4285,"밋":4286,"밌":4287,"밍":4288,"밎":4289,"및":4290,"밐":4291,"밑":4292,"밒":4293,"밓":4294,"바":4295,"박":4296,"밖":4297,"밗":4298,"반":4299,"밙":4300,"밚":4301,"받":4302,"발":4303,"밝":4304,"밞":4305,"밟":4306,"밠":4307,"밡":4308,"밢":4309,"밣":4310,"밤":4311,"밥":4312,"밦":4313,"밧":4314,"밨":4315,"방":4316,"밪":4317,"밫":4318,"밬":4319,"밭":4320,"밮":4321,"밯":4322,"배":4323,"백":4324,"밲":4325,"밳":4326,"밴":4327,"밵":4328,"밶":4329,"밷":4330,"밸":4331,"밹":4332,"밺":4333,"밻":4334,"밼":4335,"밽":4336,"밾":4337,"밿":4338,"뱀":4339,"뱁":4340,"뱂":4341,"뱃":4342,"뱅":4343,"뱆":4344,"뱇":4345,"뱈":4346,"뱉":4347,"뱊":4348,"뱋":4349,"뱌":4350,"뱍":4351,"뱎":4352,"뱏":4353,"뱐":4354,"뱑":4355,"뱒":4356,"뱓":4357,"뱔":4358,"뱕":4359,"뱖":4360,"뱗":4361,"뱘":4362,"뱙":4363,"뱚":4364,"뱛":4365,"뱜":4366,"뱝":4367,"뱞":4368,"뱟":4369,"뱠":4370,"뱡":4371,"뱢":4372,"뱣":4373,"뱤":4374,"뱥":4375,"뱦":4376,"뱧":4377,"뱨":4378,"뱩":4379,"뱪":4380,"뱫":4381,"뱬":4382,"뱭":4383,"뱮":4384,"뱯":4385,"뱰":4386,"뱱":4387,"뱲":4388,"뱳":4389,"뱴":4390,"뱵":4391,"뱶":4392,"뱷":4393,"뱸":4394,"뱹":4395,"뱺":4396,"뱻":4397,"뱼":4398,"뱽":4399,"뱾":4400,"뱿":4401,"벀":4402,"벁":4403,"벂":4404,"벃":4405,"버":4406,"벅":4407,"벆":4408,"벇":4409,"번":4410,"벉":4411,"벊":4412,"벋":4413,"벌":4414,"벍":4415,"벎":4416,"벏":4417,"벐":4418,"벑":4419,"벒":4420,"벓":4421,"범":4422,"법":4423,"벖":4424,"벗":4425,"벘":4426,"벙":4427,"벚":4428,"벛":4429,"벜":4430,"벝":4431,"벞":4432,"벟":4433,"베":4434,"벡":4435,"벢":4436,"벣":4437,"벤":4438,"벥":4439,"벦":4440,"벧":4441,"벨":4442,"벩":4443,"벪":4444,"벫":4445,"벬":4446,"벭":4447,"벮":4448,"벯":4449,"벰":4450,"벱":4451,"벲":4452,"벳":4453,"벴":4454,"벵":4455,"벶":4456,"벷":4457,"벸":4458,"벹":4459,"벺":4460,"벻":4461,"벼":4462,"벽":4463,"벾":4464,"벿":4465,"변":4466,"볁":4467,"볂":4468,"볃":4469,"별":4470,"볅":4471,"볆":4472,"볇":4473,"볈":4474,"볉":4475,"볊":4476,"볋":4477,"볌":4478,"볍":4479,"볎":4480,"볏":4481,"볐":4482,"병":4483,"볒":4484,"볓":4485,"볔":4486,"볕":4487,"볖":4488,"볗":4489,"볘":4490,"볙":4491,"볚":4492,"볛":4493,"볜":4494,"볝":4495,"볞":4496,"볟":4497,"볠":4498,"볡":4499,"볢":4500,"볣":4501,"볤":4502,"볥":4503,"볦":4504,"볧":4505,"볨":4506,"볩":4507,"볪":4508,"볫":4509,"볬":4510,"볭":4511,"볮":4512,"볯":4513,"볰":4514,"볱":4515,"볲":4516,"볳":4517,"보":4518,"복":4519,"볶":4520,"볷":4521,"본":4522,"볹":4523,"볺":4524,"볻":4525,"볼":4526,"볽":4527,"볾":4528,"볿":4529,"봀":4530,"봁":4531,"봂":4532,"봃":4533,"봄":4534,"봅":4535,"봆":4536,"봇":4537,"봈":4538,"봉":4539,"봊":4540,"봋":4541,"봌":4542,"봍":4543,"봎":4544,"봏":4545,"봐":4546,"봑":4547,"봒":4548,"봓":4549,"봔":4550,"봕":4551,"봖":4552,"봗":4553,"봘":4554,"봙":4555,"봚":4556,"봛":4557,"봜":4558,"봝":4559,"봞":4560,"봟":4561,"봠":4562,"봡":4563,"봢":4564,"봣":4565,"봤":4566,"봥":4567,"봦":4568,"봧":4569,"봨":4570,"봩":4571,"봪":4572,"봫":4573,"봬":4574,"봭":4575,"봮":4576,"봯":4577,"봰":4578,"봱":4579,"봲":4580,"봳":4581,"봴":4582,"봵":4583,"봶":4584,"봷":4585,"봸":4586,"봹":4587,"봺":4588,"봻":4589,"봼":4590,"봽":4591,"봾":4592,"봿":4593,"뵁":4594,"뵂":4595,"뵃":4596,"뵄":4597,"뵅":4598,"뵆":4599,"뵇":4600,"뵈":4601,"뵉":4602,"뵊":4603,"뵋":4604,"뵍":4605,"뵎":4606,"뵏":4607,"뵐":4608,"뵑":4609,"뵒":4610,"뵓":4611,"뵔":4612,"뵕":4613,"뵖":4614,"뵗":4615,"뵘":4616,"뵙":4617,"뵚":4618,"뵛":4619,"뵝":4620,"뵞":4621,"뵟":4622,"뵠":4623,"뵡":4624,"뵢":4625,"뵣":4626,"뵤":4627,"뵥":4628,"뵦":4629,"뵧":4630,"뵨":4631,"뵩":4632,"뵪":4633,"뵫":4634,"뵬":4635,"뵭":4636,"뵮":4637,"뵯":4638,"뵰":4639,"뵱":4640,"뵲":4641,"뵳":4642,"뵴":4643,"뵵":4644,"뵶":4645,"뵷":4646,"뵸":4647,"뵹":4648,"뵺":4649,"뵻":4650,"뵼":4651,"뵽":4652,"뵾":4653,"뵿":4654,"부":4655,"북":4656,"붂":4657,"붃":4658,"분":4659,"붅":4660,"붆":4661,"붇":4662,"불":4663,"붉":4664,"붊":4665,"붋":4666,"붌":4667,"붍":4668,"붎":4669,"붏":4670,"붐":4671,"붑":4672,"붒":4673,"붓":4674,"붔":4675,"붕":4676,"붖":4677,"붗":4678,"붘":4679,"붙":4680,"붚":4681,"붛":4682,"붜":4683,"붝":4684,"붞":4685,"붟":4686,"붠":4687,"붡":4688,"붢":4689,"붣":4690,"붤":4691,"붥":4692,"붦":4693,"붧":4694,"붨":4695,"붩":4696,"붪":4697,"붫":4698,"붬":4699,"붭":4700,"붮":4701,"붯":4702,"붰":4703,"붱":4704,"붲":4705,"붳":4706,"붴":4707,"붵":4708,"붶":4709,"붷":4710,"붸":4711,"붹":4712,"붺":4713,"붻":4714,"붼":4715,"붽":4716,"붾":4717,"붿":4718,"뷀":4719,"뷁":4720,"뷂":4721,"뷃":4722,"뷄":4723,"뷅":4724,"뷆":4725,"뷇":4726,"뷈":4727,"뷉":4728,"뷊":4729,"뷋":4730,"뷌":4731,"뷍":4732,"뷎":4733,"뷏":4734,"뷐":4735,"뷑":4736,"뷒":4737,"뷓":4738,"뷔":4739,"뷕":4740,"뷖":4741,"뷗":4742,"뷘":4743,"뷙":4744,"뷚":4745,"뷛":4746,"뷜":4747,"뷝":4748,"뷞":4749,"뷟":4750,"뷠":4751,"뷡":4752,"뷢":4753,"뷣":4754,"뷤":4755,"뷥":4756,"뷦":4757,"뷧":4758,"뷨":4759,"뷩":4760,"뷪":4761,"뷫":4762,"뷬":4763,"뷭":4764,"뷮":4765,"뷯":4766,"뷰":4767,"뷱":4768,"뷲":4769,"뷳":4770,"뷴":4771,"뷵":4772,"뷶":4773,"뷷":4774,"뷸":4775,"뷹":4776,"뷺":4777,"뷻":4778,"뷼":4779,"뷽":4780,"뷾":4781,"뷿":4782,"븀":4783,"븁":4784,"븂":4785,"븃":4786,"븄":4787,"븅":4788,"븆":4789,"븇":4790,"븈":4791,"븉":4792,"븊":4793,"븋":4794,"브":4795,"븍":4796,"븎":4797,"븏":4798,"븐":4799,"븑":4800,"븒":4801,"븓":4802,"블":4803,"븕":4804,"븖":4805,"븗":4806,"븘":4807,"븙":4808,"븚":4809,"븛":4810,"븜":4811,"븝":4812,"븞":4813,"븟":4814,"븠":4815,"븡":4816,"븢":4817,"븣":4818,"븤":4819,"븥":4820,"븦":4821,"븧":4822,"븨":4823,"븩":4824,"븪":4825,"븫":4826,"븬":4827,"븭":4828,"븮":4829,"븯":4830,"븰":4831,"븱":4832,"븲":4833,"븳":4834,"븴":4835,"븵":4836,"븶":4837,"븷":4838,"븸":4839,"븹":4840,"븺":4841,"븻":4842,"븼":4843,"븽":4844,"븾":4845,"븿":4846,"빀":4847,"빁":4848,"빂":4849,"빃":4850,"비":4851,"빅":4852,"빆":4853,"빇":4854,"빈":4855,"빉":4856,"빊":4857,"빋":4858,"빌":4859,"빍":4860,"빎":4861,"빏":4862,"빐":4863,"빑":4864,"빒":4865,"빓":4866,"빔":4867,"빕":4868,"빖":4869,"빗":4870,"빘":4871,"빙":4872,"빚":4873,"빛":4874,"빜":4875,"빝":4876,"빞":4877,"빟":4878,"빠":4879,"빡":4880,"빢":4881,"빣":4882,"빤":4883,"빥":4884,"빦":4885,"빧":4886,"빨":4887,"빩":4888,"빪":4889,"빫":4890,"빬":4891,"빭":4892,"빮":4893,"빯":4894,"빰":4895,"빱":4896,"빲":4897,"빳":4898,"빴":4899,"빵":4900,"빶":4901,"빷":4902,"빸":4903,"빹":4904,"빺":4905,"빻":4906,"빼":4907,"빽":4908,"빾":4909,"빿":4910,"뺀":4911,"뺁":4912,"뺂":4913,"뺃":4914,"뺄":4915,"뺅":4916,"뺆":4917,"뺇":4918,"뺈":4919,"뺉":4920,"뺊":4921,"뺋":4922,"뺌":4923,"뺍":4924,"뺎":4925,"뺏":4926,"뺐":4927,"뺑":4928,"뺒":4929,"뺓":4930,"뺔":4931,"뺕":4932,"뺖":4933,"뺗":4934,"뺘":4935,"뺙":4936,"뺚":4937,"뺛":4938,"뺜":4939,"뺝":4940,"뺞":4941,"뺟":4942,"뺠":4943,"뺡":4944,"뺢":4945,"뺣":4946,"뺤":4947,"뺥":4948,"뺦":4949,"뺧":4950,"뺨":4951,"뺩":4952,"뺪":4953,"뺫":4954,"뺬":4955,"뺭":4956,"뺮":4957,"뺯":4958,"뺰":4959,"뺱":4960,"뺲":4961,"뺳":4962,"뺴":4963,"뺵":4964,"뺶":4965,"뺷":4966,"뺸":4967,"뺹":4968,"뺺":4969,"뺻":4970,"뺼":4971,"뺽":4972,"뺾":4973,"뺿":4974,"뻀":4975,"뻁":4976,"뻂":4977,"뻃":4978,"뻄":4979,"뻅":4980,"뻆":4981,"뻇":4982,"뻈":4983,"뻉":4984,"뻊":4985,"뻋":4986,"뻌":4987,"뻍":4988,"뻎":4989,"뻏":4990,"뻐":4991,"뻑":4992,"뻒":4993,"뻓":4994,"뻔":4995,"뻕":4996,"뻖":4997,"뻗":4998,"뻘":4999,"뻙":5000,"뻚":5001,"뻛":5002,"뻜":5003,"뻝":5004,"뻞":5005,"뻟":5006,"뻠":5007,"뻡":5008,"뻢":5009,"뻣":5010,"뻤":5011,"뻥":5012,"뻦":5013,"뻧":5014,"뻨":5015,"뻩":5016,"뻪":5017,"뻫":5018,"뻬":5019,"뻭":5020,"뻮":5021,"뻯":5022,"뻰":5023,"뻱":5024,"뻲":5025,"뻳":5026,"뻴":5027,"뻵":5028,"뻶":5029,"뻷":5030,"뻸":5031,"뻹":5032,"뻺":5033,"뻻":5034,"뻼":5035,"뻽":5036,"뻾":5037,"뻿":5038,"뼀":5039,"뼁":5040,"뼂":5041,"뼃":5042,"뼄":5043,"뼅":5044,"뼆":5045,"뼇":5046,"뼈":5047,"뼉":5048,"뼊":5049,"뼋":5050,"뼌":5051,"뼍":5052,"뼎":5053,"뼏":5054,"뼐":5055,"뼑":5056,"뼒":5057,"뼓":5058,"뼔":5059,"뼕":5060,"뼖":5061,"뼗":5062,"뼘":5063,"뼙":5064,"뼚":5065,"뼛":5066,"뼜":5067,"뼝":5068,"뼞":5069,"뼟":5070,"뼠":5071,"뼡":5072,"뼢":5073,"뼣":5074,"뼤":5075,"뼥":5076,"뼦":5077,"뼧":5078,"뼨":5079,"뼩":5080,"뼪":5081,"뼫":5082,"뼬":5083,"뼭":5084,"뼮":5085,"뼯":5086,"뼰":5087,"뼱":5088,"뼲":5089,"뼳":5090,"뼴":5091,"뼵":5092,"뼶":5093,"뼷":5094,"뼸":5095,"뼹":5096,"뼺":5097,"뼻":5098,"뼼":5099,"뼽":5100,"뼾":5101,"뼿":5102,"뽀":5103,"뽁":5104,"뽂":5105,"뽃":5106,"뽄":5107,"뽅":5108,"뽆":5109,"뽇":5110,"뽈":5111,"뽉":5112,"뽊":5113,"뽋":5114,"뽌":5115,"뽍":5116,"뽎":5117,"뽏":5118,"뽐":5119,"뽑":5120,"뽒":5121,"뽓":5122,"뽔":5123,"뽕":5124,"뽖":5125,"뽗":5126,"뽘":5127,"뽙":5128,"뽚":5129,"뽛":5130,"뽜":5131,"뽝":5132,"뽞":5133,"뽟":5134,"뽠":5135,"뽡":5136,"뽢":5137,"뽣":5138,"뽤":5139,"뽥":5140,"뽦":5141,"뽧":5142,"뽨":5143,"뽩":5144,"뽪":5145,"뽫":5146,"뽬":5147,"뽭":5148,"뽮":5149,"뽯":5150,"뽰":5151,"뽱":5152,"뽲":5153,"뽳":5154,"뽴":5155,"뽵":5156,"뽶":5157,"뽷":5158,"뽸":5159,"뽹":5160,"뽺":5161,"뽻":5162,"뽼":5163,"뽽":5164,"뽾":5165,"뽿":5166,"뾀":5167,"뾁":5168,"뾂":5169,"뾃":5170,"뾄":5171,"뾅":5172,"뾆":5173,"뾇":5174,"뾈":5175,"뾉":5176,"뾊":5177,"뾋":5178,"뾌":5179,"뾍":5180,"뾎":5181,"뾏":5182,"뾐":5183,"뾑":5184,"뾒":5185,"뾓":5186,"뾔":5187,"뾕":5188,"뾖":5189,"뾗":5190,"뾘":5191,"뾙":5192,"뾚":5193,"뾛":5194,"뾜":5195,"뾝":5196,"뾞":5197,"뾟":5198,"뾠":5199,"뾡":5200,"뾢":5201,"뾣":5202,"뾤":5203,"뾥":5204,"뾦":5205,"뾧":5206,"뾨":5207,"뾩":5208,"뾪":5209,"뾫":5210,"뾬":5211,"뾭":5212,"뾮":5213,"뾯":5214,"뾰":5215,"뾱":5216,"뾲":5217,"뾳":5218,"뾴":5219,"뾵":5220,"뾶":5221,"뾷":5222,"뾸":5223,"뾹":5224,"뾺":5225,"뾻":5226,"뾼":5227,"뾽":5228,"뾾":5229,"뾿":5230,"뿀":5231,"뿁":5232,"뿂":5233,"뿃":5234,"뿄":5235,"뿅":5236,"뿆":5237,"뿇":5238,"뿈":5239,"뿉":5240,"뿊":5241,"뿋":5242,"뿌":5243,"뿍":5244,"뿎":5245,"뿏":5246,"뿐":5247,"뿑":5248,"뿒":5249,"뿓":5250,"뿔":5251,"뿕":5252,"뿖":5253,"뿗":5254,"뿘":5255,"뿙":5256,"뿚":5257,"뿛":5258,"뿜":5259,"뿝":5260,"뿞":5261,"뿟":5262,"뿡":5263,"뿢":5264,"뿣":5265,"뿤":5266,"뿥":5267,"뿦":5268,"뿧":5269,"뿨":5270,"뿩":5271,"뿪":5272,"뿫":5273,"뿬":5274,"뿭":5275,"뿮":5276,"뿯":5277,"뿰":5278,"뿱":5279,"뿲":5280,"뿳":5281,"뿴":5282,"뿵":5283,"뿶":5284,"뿷":5285,"뿸":5286,"뿹":5287,"뿺":5288,"뿻":5289,"뿼":5290,"뿽":5291,"뿾":5292,"뿿":5293,"쀀":5294,"쀁":5295,"쀂":5296,"쀃":5297,"쀄":5298,"쀅":5299,"쀆":5300,"쀇":5301,"쀈":5302,"쀉":5303,"쀊":5304,"쀋":5305,"쀌":5306,"쀍":5307,"쀎":5308,"쀏":5309,"쀐":5310,"쀑":5311,"쀒":5312,"쀓":5313,"쀔":5314,"쀕":5315,"쀖":5316,"쀗":5317,"쀘":5318,"쀙":5319,"쀚":5320,"쀛":5321,"쀜":5322,"쀝":5323,"쀞":5324,"쀟":5325,"쀠":5326,"쀡":5327,"쀢":5328,"쀣":5329,"쀤":5330,"쀥":5331,"쀦":5332,"쀧":5333,"쀨":5334,"쀩":5335,"쀪":5336,"쀫":5337,"쀬":5338,"쀭":5339,"쀮":5340,"쀯":5341,"쀰":5342,"쀱":5343,"쀲":5344,"쀳":5345,"쀴":5346,"쀵":5347,"쀶":5348,"쀷":5349,"쀸":5350,"쀹":5351,"쀺":5352,"쀻":5353,"쀼":5354,"쀽":5355,"쀾":5356,"쀿":5357,"쁀":5358,"쁁":5359,"쁂":5360,"쁃":5361,"쁄":5362,"쁅":5363,"쁆":5364,"쁇":5365,"쁈":5366,"쁉":5367,"쁊":5368,"쁋":5369,"쁌":5370,"쁍":5371,"쁎":5372,"쁏":5373,"쁐":5374,"쁑":5375,"쁒":5376,"쁓":5377,"쁔":5378,"쁕":5379,"쁖":5380,"쁗":5381,"쁘":5382,"쁙":5383,"쁚":5384,"쁛":5385,"쁜":5386,"쁝":5387,"쁞":5388,"쁟":5389,"쁠":5390,"쁡":5391,"쁢":5392,"쁣":5393,"쁤":5394,"쁥":5395,"쁦":5396,"쁧":5397,"쁨":5398,"쁩":5399,"쁪":5400,"쁫":5401,"쁬":5402,"쁭":5403,"쁮":5404,"쁯":5405,"쁰":5406,"쁱":5407,"쁲":5408,"쁳":5409,"쁴":5410,"쁵":5411,"쁶":5412,"쁷":5413,"쁸":5414,"쁹":5415,"쁺":5416,"쁻":5417,"쁼":5418,"쁽":5419,"쁾":5420,"쁿":5421,"삀":5422,"삁":5423,"삂":5424,"삃":5425,"삄":5426,"삅":5427,"삆":5428,"삇":5429,"삈":5430,"삉":5431,"삊":5432,"삋":5433,"삌":5434,"삍":5435,"삎":5436,"삏":5437,"삐":5438,"삑":5439,"삒":5440,"삓":5441,"삔":5442,"삕":5443,"삖":5444,"삗":5445,"삘":5446,"삙":5447,"삚":5448,"삛":5449,"삜":5450,"삝":5451,"삞":5452,"삟":5453,"삠":5454,"삡":5455,"삢":5456,"삣":5457,"삤":5458,"삥":5459,"삦":5460,"삧":5461,"삨":5462,"삩":5463,"삪":5464,"삫":5465,"사":5466,"삭":5467,"삮":5468,"삯":5469,"산":5470,"삱":5471,"삲":5472,"삳":5473,"살":5474,"삵":5475,"삶":5476,"삷":5477,"삸":5478,"삹":5479,"삺":5480,"삻":5481,"삼":5482,"삽":5483,"삾":5484,"삿":5485,"상":5486,"샂":5487,"샃":5488,"샄":5489,"샅":5490,"샆":5491,"샇":5492,"새":5493,"색":5494,"샊":5495,"샋":5496,"샌":5497,"샍":5498,"샎":5499,"샏":5500,"샐":5501,"샑":5502,"샒":5503,"샓":5504,"샔":5505,"샕":5506,"샖":5507,"샗":5508,"샘":5509,"샙":5510,"샚":5511,"샛":5512,"생":5513,"샞":5514,"샟":5515,"샠":5516,"샡":5517,"샢":5518,"샣":5519,"샤":5520,"샥":5521,"샦":5522,"샧":5523,"샨":5524,"샩":5525,"샪":5526,"샫":5527,"샬":5528,"샭":5529,"샮":5530,"샯":5531,"샰":5532,"샱":5533,"샲":5534,"샳":5535,"샴":5536,"샵":5537,"샶":5538,"샷":5539,"샸":5540,"샹":5541,"샺":5542,"샻":5543,"샼":5544,"샽":5545,"샾":5546,"샿":5547,"섀":5548,"섁":5549,"섂":5550,"섃":5551,"섄":5552,"섅":5553,"섆":5554,"섇":5555,"섈":5556,"섉":5557,"섊":5558,"섋":5559,"섌":5560,"섍":5561,"섎":5562,"섏":5563,"섐":5564,"섑":5565,"섒":5566,"섓":5567,"섔":5568,"섕":5569,"섖":5570,"섗":5571,"섘":5572,"섙":5573,"섚":5574,"섛":5575,"서":5576,"석":5577,"섞":5578,"섟":5579,"선":5580,"섡":5581,"섢":5582,"섣":5583,"설":5584,"섥":5585,"섦":5586,"섧":5587,"섨":5588,"섩":5589,"섪":5590,"섫":5591,"섬":5592,"섭":5593,"섮":5594,"섯":5595,"섰":5596,"성":5597,"섲":5598,"섳":5599,"섴":5600,"섵":5601,"섶":5602,"섷":5603,"세":5604,"섹":5605,"섺":5606,"섻":5607,"센":5608,"섽":5609,"섿":5610,"셀":5611,"셁":5612,"셂":5613,"셃":5614,"셄":5615,"셅":5616,"셆":5617,"셇":5618,"셈":5619,"셉":5620,"셊":5621,"셋":5622,"셍":5623,"셎":5624,"셏":5625,"셐":5626,"셑":5627,"셒":5628,"셓":5629,"셔":5630,"셕":5631,"셖":5632,"셗":5633,"션":5634,"셙":5635,"셚":5636,"셛":5637,"셜":5638,"셝":5639,"셞":5640,"셟":5641,"셠":5642,"셡":5643,"셢":5644,"셣":5645,"셤":5646,"셥":5647,"셦":5648,"셧":5649,"셨":5650,"셩":5651,"셪":5652,"셫":5653,"셬":5654,"셭":5655,"셮":5656,"셯":5657,"셰":5658,"셱":5659,"셲":5660,"셳":5661,"셴":5662,"셵":5663,"셶":5664,"셷":5665,"셸":5666,"셹":5667,"셺":5668,"셻":5669,"셼":5670,"셽":5671,"셾":5672,"셿":5673,"솀":5674,"솁":5675,"솂":5676,"솃":5677,"솄":5678,"솅":5679,"솆":5680,"솇":5681,"솈":5682,"솉":5683,"솊":5684,"솋":5685,"소":5686,"속":5687,"솎":5688,"솏":5689,"손":5690,"솑":5691,"솒":5692,"솓":5693,"솔":5694,"솕":5695,"솖":5696,"솗":5697,"솘":5698,"솙":5699,"솚":5700,"솛":5701,"솜":5702,"솝":5703,"솞":5704,"솟":5705,"솠":5706,"송":5707,"솢":5708,"솣":5709,"솤":5710,"솥":5711,"솦":5712,"솧":5713,"솨":5714,"솩":5715,"솪":5716,"솫":5717,"솬":5718,"솭":5719,"솮":5720,"솯":5721,"솰":5722,"솱":5723,"솲":5724,"솳":5725,"솴":5726,"솵":5727,"솶":5728,"솷":5729,"솸":5730,"솹":5731,"솺":5732,"솻":5733,"솼":5734,"솽":5735,"솾":5736,"솿":5737,"쇀":5738,"쇁":5739,"쇂":5740,"쇃":5741,"쇄":5742,"쇅":5743,"쇆":5744,"쇇":5745,"쇈":5746,"쇉":5747,"쇊":5748,"쇋":5749,"쇌":5750,"쇍":5751,"쇎":5752,"쇏":5753,"쇐":5754,"쇑":5755,"쇒":5756,"쇓":5757,"쇔":5758,"쇕":5759,"쇖":5760,"쇗":5761,"쇘":5762,"쇙":5763,"쇚":5764,"쇛":5765,"쇜":5766,"쇝":5767,"쇞":5768,"쇟":5769,"쇠":5770,"쇡":5771,"쇢":5772,"쇣":5773,"쇤":5774,"쇥":5775,"쇦":5776,"쇧":5777,"쇨":5778,"쇩":5779,"쇪":5780,"쇫":5781,"쇬":5782,"쇭":5783,"쇮":5784,"쇯":5785,"쇰":5786,"쇱":5787,"쇲":5788,"쇳":5789,"쇴":5790,"쇵":5791,"쇶":5792,"쇷":5793,"쇸":5794,"쇹":5795,"쇺":5796,"쇻":5797,"쇼":5798,"쇽":5799,"쇾":5800,"쇿":5801,"숀":5802,"숁":5803,"숂":5804,"숃":5805,"숄":5806,"숅":5807,"숆":5808,"숇":5809,"숈":5810,"숉":5811,"숊":5812,"숋":5813,"숌":5814,"숍":5815,"숎":5816,"숏":5817,"숐":5818,"숑":5819,"숒":5820,"숓":5821,"숔":5822,"숕":5823,"숖":5824,"숗":5825,"수":5826,"숙":5827,"숚":5828,"숛":5829,"순":5830,"숝":5831,"숞":5832,"숟":5833,"술":5834,"숡":5835,"숢":5836,"숣":5837,"숤":5838,"숥":5839,"숦":5840,"숧":5841,"숨":5842,"숩":5843,"숪":5844,"숫":5845,"숬":5846,"숭":5847,"숮":5848,"숯":5849,"숰":5850,"숱":5851,"숲":5852,"숳":5853,"숴":5854,"숵":5855,"숶":5856,"숷":5857,"숸":5858,"숹":5859,"숺":5860,"숻":5861,"숼":5862,"숽":5863,"숾":5864,"숿":5865,"쉀":5866,"쉁":5867,"쉂":5868,"쉃":5869,"쉄":5870,"쉅":5871,"쉆":5872,"쉇":5873,"쉈":5874,"쉉":5875,"쉊":5876,"쉋":5877,"쉌":5878,"쉍":5879,"쉎":5880,"쉏":5881,"쉐":5882,"쉑":5883,"쉒":5884,"쉓":5885,"쉔":5886,"쉕":5887,"쉖":5888,"쉗":5889,"쉘":5890,"쉙":5891,"쉚":5892,"쉛":5893,"쉜":5894,"쉝":5895,"쉞":5896,"쉟":5897,"쉠":5898,"쉡":5899,"쉢":5900,"쉣":5901,"쉤":5902,"쉥":5903,"쉦":5904,"쉧":5905,"쉨":5906,"쉩":5907,"쉪":5908,"쉫":5909,"쉬":5910,"쉭":5911,"쉮":5912,"쉯":5913,"쉰":5914,"쉱":5915,"쉲":5916,"쉳":5917,"쉴":5918,"쉵":5919,"쉶":5920,"쉷":5921,"쉸":5922,"쉹":5923,"쉺":5924,"쉻":5925,"쉼":5926,"쉽":5927,"쉾":5928,"쉿":5929,"슀":5930,"슁":5931,"슂":5932,"슃":5933,"슄":5934,"슅":5935,"슆":5936,"슇":5937,"슈":5938,"슉":5939,"슊":5940,"슋":5941,"슌":5942,"슍":5943,"슎":5944,"슏":5945,"슐":5946,"슑":5947,"슒":5948,"슓":5949,"슔":5950,"슕":5951,"슖":5952,"슗":5953,"슘":5954,"슙":5955,"슚":5956,"슛":5957,"슜":5958,"슝":5959,"슞":5960,"슟":5961,"슠":5962,"슡":5963,"슢":5964,"슣":5965,"스":5966,"슥":5967,"슦":5968,"슧":5969,"슨":5970,"슩":5971,"슪":5972,"슫":5973,"슬":5974,"슭":5975,"슮":5976,"슯":5977,"슰":5978,"슱":5979,"슲":5980,"슳":5981,"슴":5982,"습":5983,"슶":5984,"슷":5985,"슸":5986,"승":5987,"슺":5988,"슻":5989,"슼":5990,"슽":5991,"슾":5992,"슿":5993,"싀":5994,"싁":5995,"싂":5996,"싃":5997,"싄":5998,"싅":5999,"싆":6000,"싇":6001,"싈":6002,"싉":6003,"싊":6004,"싋":6005,"싌":6006,"싍":6007,"싎":6008,"싏":6009,"싐":6010,"싑":6011,"싒":6012,"싓":6013,"싔":6014,"싕":6015,"싖":6016,"싗":6017,"싘":6018,"싙":6019,"싚":6020,"싛":6021,"시":6022,"식":6023,"싞":6024,"싟":6025,"신":6026,"싡":6027,"싢":6028,"싣":6029,"실":6030,"싥":6031,"싦":6032,"싧":6033,"싨":6034,"싩":6035,"싪":6036,"싫":6037,"심":6038,"십":6039,"싮":6040,"싯":6041,"싰":6042,"싱":6043,"싲":6044,"싳":6045,"싴":6046,"싵":6047,"싶":6048,"싷":6049,"싸":6050,"싹":6051,"싺":6052,"싻":6053,"싼":6054,"싽":6055,"싾":6056,"싿":6057,"쌀":6058,"쌁":6059,"쌂":6060,"쌃":6061,"쌄":6062,"쌅":6063,"쌆":6064,"쌇":6065,"쌈":6066,"쌉":6067,"쌊":6068,"쌋":6069,"쌍":6070,"쌎":6071,"쌏":6072,"쌐":6073,"쌑":6074,"쌒":6075,"쌓":6076,"쌔":6077,"쌕":6078,"쌖":6079,"쌗":6080,"쌘":6081,"쌙":6082,"쌚":6083,"쌛":6084,"쌜":6085,"쌝":6086,"쌞":6087,"쌟":6088,"쌠":6089,"쌡":6090,"쌢":6091,"쌣":6092,"쌤":6093,"쌥":6094,"쌦":6095,"쌧":6096,"쌩":6097,"쌪":6098,"쌫":6099,"쌬":6100,"쌭":6101,"쌮":6102,"쌯":6103,"쌰":6104,"쌱":6105,"쌲":6106,"쌳":6107,"쌴":6108,"쌵":6109,"쌶":6110,"쌷":6111,"쌸":6112,"쌹":6113,"쌺":6114,"쌻":6115,"쌼":6116,"쌽":6117,"쌾":6118,"쌿":6119,"썀":6120,"썁":6121,"썂":6122,"썃":6123,"썄":6124,"썅":6125,"썆":6126,"썇":6127,"썈":6128,"썉":6129,"썊":6130,"썋":6131,"썌":6132,"썍":6133,"썎":6134,"썏":6135,"썐":6136,"썑":6137,"썒":6138,"썓":6139,"썔":6140,"썕":6141,"썖":6142,"썗":6143,"썘":6144,"썙":6145,"썚":6146,"썛":6147,"썜":6148,"썝":6149,"썞":6150,"썟":6151,"썠":6152,"썡":6153,"썢":6154,"썣":6155,"썤":6156,"썥":6157,"썦":6158,"썧":6159,"써":6160,"썩":6161,"썪":6162,"썫":6163,"썬":6164,"썭":6165,"썮":6166,"썯":6167,"썰":6168,"썱":6169,"썲":6170,"썳":6171,"썴":6172,"썵":6173,"썶":6174,"썷":6175,"썸":6176,"썹":6177,"썺":6178,"썻":6179,"썼":6180,"썽":6181,"썾":6182,"썿":6183,"쎀":6184,"쎁":6185,"쎂":6186,"쎃":6187,"쎄":6188,"쎅":6189,"쎆":6190,"쎇":6191,"쎈":6192,"쎉":6193,"쎊":6194,"쎋":6195,"쎌":6196,"쎍":6197,"쎎":6198,"쎏":6199,"쎐":6200,"쎑":6201,"쎒":6202,"쎓":6203,"쎔":6204,"쎕":6205,"쎖":6206,"쎗":6207,"쎙":6208,"쎚":6209,"쎛":6210,"쎜":6211,"쎝":6212,"쎞":6213,"쎟":6214,"쎠":6215,"쎡":6216,"쎢":6217,"쎣":6218,"쎤":6219,"쎥":6220,"쎦":6221,"쎧":6222,"쎨":6223,"쎩":6224,"쎪":6225,"쎫":6226,"쎬":6227,"쎭":6228,"쎮":6229,"쎯":6230,"쎰":6231,"쎱":6232,"쎲":6233,"쎳":6234,"쎴":6235,"쎵":6236,"쎶":6237,"쎷":6238,"쎸":6239,"쎹":6240,"쎺":6241,"쎻":6242,"쎼":6243,"쎽":6244,"쎾":6245,"쎿":6246,"쏀":6247,"쏁":6248,"쏂":6249,"쏃":6250,"쏄":6251,"쏅":6252,"쏆":6253,"쏇":6254,"쏈":6255,"쏉":6256,"쏊":6257,"쏋":6258,"쏌":6259,"쏍":6260,"쏎":6261,"쏏":6262,"쏐":6263,"쏑":6264,"쏒":6265,"쏓":6266,"쏔":6267,"쏕":6268,"쏖":6269,"쏗":6270,"쏘":6271,"쏙":6272,"쏚":6273,"쏛":6274,"쏜":6275,"쏝":6276,"쏞":6277,"쏟":6278,"쏠":6279,"쏡":6280,"쏢":6281,"쏣":6282,"쏤":6283,"쏥":6284,"쏦":6285,"쏧":6286,"쏨":6287,"쏩":6288,"쏪":6289,"쏫":6290,"쏬":6291,"쏭":6292,"쏮":6293,"쏯":6294,"쏰":6295,"쏱":6296,"쏲":6297,"쏳":6298,"쏴":6299,"쏵":6300,"쏶":6301,"쏷":6302,"쏸":6303,"쏹":6304,"쏺":6305,"쏻":6306,"쏼":6307,"쏽":6308,"쏾":6309,"쏿":6310,"쐀":6311,"쐁":6312,"쐂":6313,"쐃":6314,"쐄":6315,"쐅":6316,"쐆":6317,"쐇":6318,"쐉":6319,"쐊":6320,"쐋":6321,"쐌":6322,"쐍":6323,"쐎":6324,"쐏":6325,"쐐":6326,"쐑":6327,"쐒":6328,"쐓":6329,"쐔":6330,"쐕":6331,"쐖":6332,"쐗":6333,"쐘":6334,"쐙":6335,"쐚":6336,"쐛":6337,"쐜":6338,"쐝":6339,"쐞":6340,"쐟":6341,"쐠":6342,"쐡":6343,"쐢":6344,"쐣":6345,"쐤":6346,"쐥":6347,"쐦":6348,"쐧":6349,"쐨":6350,"쐩":6351,"쐪":6352,"쐫":6353,"쐬":6354,"쐭":6355,"쐮":6356,"쐯":6357,"쐱":6358,"쐲":6359,"쐳":6360,"쐵":6361,"쐶":6362,"쐷":6363,"쐸":6364,"쐹":6365,"쐺":6366,"쐻":6367,"쐼":6368,"쐽":6369,"쐾":6370,"쐿":6371,"쑀":6372,"쑁":6373,"쑂":6374,"쑃":6375,"쑄":6376,"쑅":6377,"쑆":6378,"쑇":6379,"쑈":6380,"쑉":6381,"쑊":6382,"쑋":6383,"쑌":6384,"쑍":6385,"쑎":6386,"쑏":6387,"쑐":6388,"쑑":6389,"쑒":6390,"쑓":6391,"쑔":6392,"쑕":6393,"쑖":6394,"쑗":6395,"쑘":6396,"쑙":6397,"쑚":6398,"쑛":6399,"쑜":6400,"쑝":6401,"쑞":6402,"쑟":6403,"쑠":6404,"쑡":6405,"쑢":6406,"쑣":6407,"쑤":6408,"쑥":6409,"쑦":6410,"쑧":6411,"쑨":6412,"쑩":6413,"쑪":6414,"쑫":6415,"쑭":6416,"쑮":6417,"쑯":6418,"쑰":6419,"쑱":6420,"쑲":6421,"쑳":6422,"쑴":6423,"쑵":6424,"쑶":6425,"쑷":6426,"쑸":6427,"쑹":6428,"쑺":6429,"쑻":6430,"쑼":6431,"쑽":6432,"쑾":6433,"쑿":6434,"쒀":6435,"쒁":6436,"쒂":6437,"쒃":6438,"쒄":6439,"쒅":6440,"쒆":6441,"쒇":6442,"쒈":6443,"쒉":6444,"쒊":6445,"쒋":6446,"쒌":6447,"쒍":6448,"쒎":6449,"쒏":6450,"쒐":6451,"쒑":6452,"쒒":6453,"쒓":6454,"쒕":6455,"쒖":6456,"쒗":6457,"쒘":6458,"쒙":6459,"쒚":6460,"쒛":6461,"쒜":6462,"쒝":6463,"쒞":6464,"쒟":6465,"쒠":6466,"쒡":6467,"쒢":6468,"쒣":6469,"쒤":6470,"쒥":6471,"쒦":6472,"쒧":6473,"쒨":6474,"쒩":6475,"쒪":6476,"쒫":6477,"쒬":6478,"쒭":6479,"쒮":6480,"쒯":6481,"쒰":6482,"쒱":6483,"쒲":6484,"쒳":6485,"쒴":6486,"쒵":6487,"쒶":6488,"쒷":6489,"쒸":6490,"쒹":6491,"쒺":6492,"쒻":6493,"쒽":6494,"쒾":6495,"쒿":6496,"쓀":6497,"쓁":6498,"쓂":6499,"쓃":6500,"쓄":6501,"쓅":6502,"쓆":6503,"쓇":6504,"쓈":6505,"쓉":6506,"쓊":6507,"쓋":6508,"쓌":6509,"쓍":6510,"쓎":6511,"쓏":6512,"쓐":6513,"쓑":6514,"쓒":6515,"쓓":6516,"쓔":6517,"쓕":6518,"쓖":6519,"쓗":6520,"쓘":6521,"쓙":6522,"쓚":6523,"쓛":6524,"쓜":6525,"쓝":6526,"쓞":6527,"쓟":6528,"쓠":6529,"쓡":6530,"쓢":6531,"쓣":6532,"쓤":6533,"쓥":6534,"쓦":6535,"쓧":6536,"쓨":6537,"쓩":6538,"쓪":6539,"쓫":6540,"쓬":6541,"쓭":6542,"쓮":6543,"쓯":6544,"쓰":6545,"쓱":6546,"쓲":6547,"쓳":6548,"쓴":6549,"쓵":6550,"쓶":6551,"쓷":6552,"쓸":6553,"쓹":6554,"쓺":6555,"쓻":6556,"쓼":6557,"쓽":6558,"쓾":6559,"쓿":6560,"씀":6561,"씁":6562,"씂":6563,"씃":6564,"씄":6565,"씅":6566,"씆":6567,"씇":6568,"씈":6569,"씉":6570,"씊":6571,"씋":6572,"씌":6573,"씍":6574,"씎":6575,"씏":6576,"씑":6577,"씒":6578,"씓":6579,"씔":6580,"씕":6581,"씖":6582,"씗":6583,"씘":6584,"씙":6585,"씚":6586,"씛":6587,"씜":6588,"씝":6589,"씞":6590,"씟":6591,"씠":6592,"씡":6593,"씢":6594,"씣":6595,"씤":6596,"씥":6597,"씦":6598,"씧":6599,"씨":6600,"씩":6601,"씪":6602,"씫":6603,"씬":6604,"씭":6605,"씮":6606,"씯":6607,"씰":6608,"씱":6609,"씲":6610,"씳":6611,"씴":6612,"씵":6613,"씶":6614,"씷":6615,"씸":6616,"씹":6617,"씺":6618,"씻":6619,"씼":6620,"씽":6621,"씾":6622,"씿":6623,"앀":6624,"앁":6625,"앂":6626,"앃":6627,"아":6628,"악":6629,"앆":6630,"앇":6631,"안":6632,"앉":6633,"않":6634,"앋":6635,"알":6636,"앍":6637,"앎":6638,"앏":6639,"앐":6640,"앑":6641,"앒":6642,"앓":6643,"암":6644,"압":6645,"앖":6646,"앗":6647,"았":6648,"앙":6649,"앚":6650,"앛":6651,"앜":6652,"앝":6653,"앞":6654,"앟":6655,"애":6656,"액":6657,"앢":6658,"앣":6659,"앤":6660,"앥":6661,"앦":6662,"앧":6663,"앨":6664,"앩":6665,"앪":6666,"앫":6667,"앬":6668,"앭":6669,"앮":6670,"앯":6671,"앰":6672,"앱":6673,"앲":6674,"앳":6675,"앵":6676,"앶":6677,"앷":6678,"앸":6679,"앹":6680,"앺":6681,"앻":6682,"야":6683,"약":6684,"앾":6685,"앿":6686,"얀":6687,"얁":6688,"얂":6689,"얃":6690,"얄":6691,"얅":6692,"얆":6693,"얇":6694,"얈":6695,"얉":6696,"얊":6697,"얋":6698,"얌":6699,"얍":6700,"얎":6701,"얏":6702,"얐":6703,"양":6704,"얒":6705,"얓":6706,"얔":6707,"얕":6708,"얖":6709,"얗":6710,"얘":6711,"얙":6712,"얚":6713,"얛":6714,"얜":6715,"얝":6716,"얞":6717,"얟":6718,"얡":6719,"얢":6720,"얣":6721,"얤":6722,"얥":6723,"얦":6724,"얧":6725,"얨":6726,"얩":6727,"얪":6728,"얫":6729,"얬":6730,"얭":6731,"얮":6732,"얯":6733,"얰":6734,"얱":6735,"얲":6736,"얳":6737,"어":6738,"억":6739,"얶":6740,"얷":6741,"언":6742,"얹":6743,"얺":6744,"얻":6745,"얼":6746,"얽":6747,"얾":6748,"얿":6749,"엀":6750,"엁":6751,"엂":6752,"엃":6753,"엄":6754,"업":6755,"없":6756,"엇":6757,"었":6758,"엉":6759,"엊":6760,"엋":6761,"엌":6762,"엍":6763,"엎":6764,"엏":6765,"에":6766,"엑":6767,"엒":6768,"엓":6769,"엔":6770,"엕":6771,"엖":6772,"엗":6773,"엘":6774,"엙":6775,"엚":6776,"엛":6777,"엜":6778,"엝":6779,"엞":6780,"엟":6781,"엠":6782,"엡":6783,"엢":6784,"엣":6785,"엤":6786,"엥":6787,"엦":6788,"엧":6789,"엨":6790,"엩":6791,"엪":6792,"엫":6793,"여":6794,"역":6795,"엮":6796,"엯":6797,"연":6798,"엱":6799,"엲":6800,"엳":6801,"열":6802,"엵":6803,"엶":6804,"엷":6805,"엸":6806,"엹":6807,"엺":6808,"엻":6809,"염":6810,"엽":6811,"엾":6812,"엿":6813,"였":6814,"영":6815,"옂":6816,"옃":6817,"옄":6818,"옅":6819,"옆":6820,"옇":6821,"예":6822,"옉":6823,"옊":6824,"옋":6825,"옌":6826,"옍":6827,"옎":6828,"옏":6829,"옐":6830,"옑":6831,"옒":6832,"옓":6833,"옔":6834,"옕":6835,"옖":6836,"옗":6837,"옘":6838,"옙":6839,"옚":6840,"옛":6841,"옜":6842,"옝":6843,"옞":6844,"옟":6845,"옠":6846,"옡":6847,"옢":6848,"옣":6849,"오":6850,"옥":6851,"옦":6852,"옧":6853,"온":6854,"옩":6855,"옪":6856,"옫":6857,"올":6858,"옭":6859,"옮":6860,"옯":6861,"옰":6862,"옱":6863,"옲":6864,"옳":6865,"옴":6866,"옵":6867,"옶":6868,"옷":6869,"옸":6870,"옹":6871,"옺":6872,"옻":6873,"옼":6874,"옽":6875,"옾":6876,"옿":6877,"와":6878,"왁":6879,"왂":6880,"왃":6881,"완":6882,"왅":6883,"왆":6884,"왇":6885,"왈":6886,"왉":6887,"왊":6888,"왋":6889,"왌":6890,"왍":6891,"왎":6892,"왏":6893,"왐":6894,"왑":6895,"왒":6896,"왓":6897,"왔":6898,"왕":6899,"왖":6900,"왗":6901,"왘":6902,"왙":6903,"왚":6904,"왛":6905,"왜":6906,"왝":6907,"왞":6908,"왟":6909,"왠":6910,"왡":6911,"왢":6912,"왣":6913,"왤":6914,"왥":6915,"왦":6916,"왧":6917,"왨":6918,"왩":6919,"왪":6920,"왫":6921,"왬":6922,"왭":6923,"왮":6924,"왯":6925,"왰":6926,"왱":6927,"왲":6928,"왳":6929,"왴":6930,"왵":6931,"왶":6932,"왷":6933,"외":6934,"왹":6935,"왺":6936,"왻":6937,"왼":6938,"왽":6939,"왾":6940,"왿":6941,"욀":6942,"욁":6943,"욂":6944,"욃":6945,"욄":6946,"욅":6947,"욆":6948,"욇":6949,"욈":6950,"욉":6951,"욊":6952,"욋":6953,"욌":6954,"욍":6955,"욎":6956,"욏":6957,"욐":6958,"욑":6959,"욒":6960,"욓":6961,"요":6962,"욕":6963,"욖":6964,"욗":6965,"욘":6966,"욙":6967,"욚":6968,"욛":6969,"욜":6970,"욝":6971,"욞":6972,"욟":6973,"욠":6974,"욡":6975,"욢":6976,"욣":6977,"욤":6978,"욥":6979,"욦":6980,"욧":6981,"욨":6982,"용":6983,"욪":6984,"욫":6985,"욬":6986,"욭":6987,"욮":6988,"욯":6989,"우":6990,"욱":6991,"욲":6992,"욳":6993,"운":6994,"욵":6995,"욶":6996,"욷":6997,"울":6998,"욹":6999,"욺":7000,"욻":7001,"욼":7002,"욽":7003,"욾":7004,"욿":7005,"움":7006,"웁":7007,"웂":7008,"웃":7009,"웄":7010,"웅":7011,"웆":7012,"웇":7013,"웈":7014,"웉":7015,"웊":7016,"웋":7017,"워":7018,"웍":7019,"웎":7020,"웏":7021,"원":7022,"웑":7023,"웒":7024,"월":7025,"웕":7026,"웖":7027,"웗":7028,"웘":7029,"웙":7030,"웚":7031,"웛":7032,"웜":7033,"웝":7034,"웞":7035,"웟":7036,"웠":7037,"웡":7038,"웢":7039,"웣":7040,"웤":7041,"웥":7042,"웦":7043,"웧":7044,"웨":7045,"웩":7046,"웪":7047,"웫":7048,"웬":7049,"웭":7050,"웮":7051,"웯":7052,"웰":7053,"웱":7054,"웲":7055,"웳":7056,"웴":7057,"웵":7058,"웶":7059,"웷":7060,"웸":7061,"웹":7062,"웺":7063,"웻":7064,"웼":7065,"웽":7066,"웾":7067,"웿":7068,"윀":7069,"윁":7070,"윂":7071,"윃":7072,"위":7073,"윅":7074,"윆":7075,"윇":7076,"윈":7077,"윉":7078,"윊":7079,"윋":7080,"윌":7081,"윍":7082,"윎":7083,"윏":7084,"윐":7085,"윑":7086,"윒":7087,"윓":7088,"윔":7089,"윕":7090,"윖":7091,"윗":7092,"윘":7093,"윙":7094,"윚":7095,"윛":7096,"윜":7097,"윝":7098,"윞":7099,"윟":7100,"유":7101,"육":7102,"윢":7103,"윣":7104,"윤":7105,"윥":7106,"윦":7107,"윧":7108,"율":7109,"윩":7110,"윪":7111,"윫":7112,"윬":7113,"윭":7114,"윮":7115,"윯":7116,"윰":7117,"윱":7118,"윲":7119,"윳":7120,"윴":7121,"융":7122,"윶":7123,"윷":7124,"윸":7125,"윹":7126,"윺":7127,"윻":7128,"으":7129,"윽":7130,"윾":7131,"윿":7132,"은":7133,"읁":7134,"읂":7135,"읃":7136,"을":7137,"읅":7138,"읆":7139,"읇":7140,"읈":7141,"읉":7142,"읊":7143,"읋":7144,"음":7145,"읍":7146,"읎":7147,"읏":7148,"읐":7149,"응":7150,"읒":7151,"읓":7152,"읔":7153,"읕":7154,"읖":7155,"읗":7156,"의":7157,"읙":7158,"읚":7159,"읛":7160,"읜":7161,"읝":7162,"읞":7163,"읟":7164,"읠":7165,"읡":7166,"읢":7167,"읣":7168,"읤":7169,"읥":7170,"읦":7171,"읧":7172,"읨":7173,"읩":7174,"읪":7175,"읫":7176,"읬":7177,"읭":7178,"읮":7179,"읯":7180,"읰":7181,"읱":7182,"읲":7183,"읳":7184,"이":7185,"익":7186,"읶":7187,"읷":7188,"인":7189,"읹":7190,"읺":7191,"읻":7192,"일":7193,"읽":7194,"읾":7195,"읿":7196,"잀":7197,"잁":7198,"잂":7199,"잃":7200,"임":7201,"입":7202,"잆":7203,"잇":7204,"있":7205,"잉":7206,"잊":7207,"잋":7208,"잌":7209,"잍":7210,"잎":7211,"잏":7212,"자":7213,"작":7214,"잒":7215,"잓":7216,"잔":7217,"잕":7218,"잖":7219,"잗":7220,"잘":7221,"잙":7222,"잚":7223,"잛":7224,"잜":7225,"잝":7226,"잞":7227,"잟":7228,"잠":7229,"잡":7230,"잢":7231,"잣":7232,"장":7233,"잦":7234,"잧":7235,"잨":7236,"잩":7237,"잪":7238,"잫":7239,"재":7240,"잭":7241,"잮":7242,"잯":7243,"잰":7244,"잱":7245,"잲":7246,"잳":7247,"잴":7248,"잵":7249,"잶":7250,"잷":7251,"잸":7252,"잹":7253,"잺":7254,"잻":7255,"잼":7256,"잽":7257,"잾":7258,"잿":7259,"쟁":7260,"쟂":7261,"쟃":7262,"쟄":7263,"쟅":7264,"쟆":7265,"쟇":7266,"쟈":7267,"쟉":7268,"쟊":7269,"쟋":7270,"쟌":7271,"쟍":7272,"쟎":7273,"쟏":7274,"쟐":7275,"쟑":7276,"쟒":7277,"쟓":7278,"쟔":7279,"쟕":7280,"쟖":7281,"쟗":7282,"쟘":7283,"쟙":7284,"쟚":7285,"쟛":7286,"쟜":7287,"쟝":7288,"쟞":7289,"쟟":7290,"쟠":7291,"쟡":7292,"쟢":7293,"쟣":7294,"쟤":7295,"쟥":7296,"쟦":7297,"쟧":7298,"쟩":7299,"쟪":7300,"쟫":7301,"쟬":7302,"쟭":7303,"쟮":7304,"쟯":7305,"쟰":7306,"쟱":7307,"쟲":7308,"쟳":7309,"쟴":7310,"쟵":7311,"쟶":7312,"쟷":7313,"쟸":7314,"쟹":7315,"쟺":7316,"쟻":7317,"쟼":7318,"쟽":7319,"쟾":7320,"쟿":7321,"저":7322,"적":7323,"젂":7324,"젃":7325,"전":7326,"젅":7327,"젆":7328,"젇":7329,"절":7330,"젉":7331,"젊":7332,"젋":7333,"젌":7334,"젍":7335,"젎":7336,"젏":7337,"점":7338,"접":7339,"젒":7340,"젓":7341,"젔":7342,"정":7343,"젖":7344,"젗":7345,"젘":7346,"젙":7347,"젚":7348,"젛":7349,"제":7350,"젝":7351,"젞":7352,"젟":7353,"젠":7354,"젡":7355,"젢":7356,"젣":7357,"젤":7358,"젥":7359,"젦":7360,"젧":7361,"젨":7362,"젩":7363,"젪":7364,"젫":7365,"젬":7366,"젭":7367,"젮":7368,"젯":7369,"젰":7370,"젱":7371,"젲":7372,"젳":7373,"젴":7374,"젵":7375,"젶":7376,"젷":7377,"져":7378,"젹":7379,"젺":7380,"젻":7381,"젼":7382,"젽":7383,"젾":7384,"젿":7385,"졀":7386,"졁":7387,"졂":7388,"졃":7389,"졄":7390,"졅":7391,"졆":7392,"졇":7393,"졈":7394,"졉":7395,"졊":7396,"졋":7397,"졌":7398,"졍":7399,"졎":7400,"졏":7401,"졐":7402,"졑":7403,"졒":7404,"졓":7405,"졔":7406,"졕":7407,"졖":7408,"졗":7409,"졘":7410,"졙":7411,"졚":7412,"졛":7413,"졜":7414,"졝":7415,"졞":7416,"졟":7417,"졠":7418,"졡":7419,"졢":7420,"졣":7421,"졤":7422,"졥":7423,"졦":7424,"졧":7425,"졨":7426,"졩":7427,"졪":7428,"졫":7429,"졬":7430,"졭":7431,"졮":7432,"졯":7433,"조":7434,"족":7435,"졲":7436,"졳":7437,"존":7438,"졵":7439,"졶":7440,"졷":7441,"졸":7442,"졹":7443,"졺":7444,"졻":7445,"졼":7446,"졽":7447,"졾":7448,"졿":7449,"좀":7450,"좁":7451,"좂":7452,"좃":7453,"좄":7454,"종":7455,"좆":7456,"좇":7457,"좈":7458,"좉":7459,"좊":7460,"좋":7461,"좌":7462,"좍":7463,"좎":7464,"좏":7465,"좐":7466,"좑":7467,"좒":7468,"좓":7469,"좔":7470,"좕":7471,"좖":7472,"좗":7473,"좘":7474,"좙":7475,"좚":7476,"좛":7477,"좜":7478,"좝":7479,"좞":7480,"좟":7481,"좠":7482,"좡":7483,"좢":7484,"좣":7485,"좤":7486,"좥":7487,"좦":7488,"좧":7489,"좨":7490,"좩":7491,"좪":7492,"좫":7493,"좬":7494,"좭":7495,"좮":7496,"좯":7497,"좰":7498,"좱":7499,"좲":7500,"좳":7501,"좴":7502,"좵":7503,"좶":7504,"좷":7505,"좸":7506,"좹":7507,"좺":7508,"좻":7509,"좼":7510,"좽":7511,"좾":7512,"좿":7513,"죀":7514,"죁":7515,"죂":7516,"죃":7517,"죄":7518,"죅":7519,"죆":7520,"죇":7521,"죈":7522,"죉":7523,"죊":7524,"죋":7525,"죌":7526,"죍":7527,"죎":7528,"죏":7529,"죐":7530,"죑":7531,"죒":7532,"죓":7533,"죔":7534,"죕":7535,"죖":7536,"죗":7537,"죙":7538,"죚":7539,"죛":7540,"죜":7541,"죝":7542,"죞":7543,"죟":7544,"죠":7545,"죡":7546,"죢":7547,"죣":7548,"죤":7549,"죥":7550,"죦":7551,"죧":7552,"죨":7553,"죩":7554,"죪":7555,"죫":7556,"죬":7557,"죭":7558,"죮":7559,"죯":7560,"죰":7561,"죱":7562,"죲":7563,"죳":7564,"죴":7565,"죵":7566,"죶":7567,"죷":7568,"죸":7569,"죹":7570,"죺":7571,"죻":7572,"주":7573,"죽":7574,"죾":7575,"죿":7576,"준":7577,"줁":7578,"줂":7579,"줃":7580,"줄":7581,"줅":7582,"줆":7583,"줇":7584,"줈":7585,"줉":7586,"줊":7587,"줋":7588,"줌":7589,"줍":7590,"줎":7591,"줏":7592,"줐":7593,"중":7594,"줒":7595,"줓":7596,"줔":7597,"줕":7598,"줖":7599,"줗":7600,"줘":7601,"줙":7602,"줚":7603,"줛":7604,"줜":7605,"줝":7606,"줞":7607,"줟":7608,"줠":7609,"줡":7610,"줢":7611,"줣":7612,"줤":7613,"줥":7614,"줦":7615,"줧":7616,"줨":7617,"줩":7618,"줪":7619,"줫":7620,"줬":7621,"줭":7622,"줮":7623,"줯":7624,"줰":7625,"줱":7626,"줲":7627,"줳":7628,"줴":7629,"줵":7630,"줶":7631,"줷":7632,"줸":7633,"줹":7634,"줺":7635,"줻":7636,"줼":7637,"줽":7638,"줾":7639,"줿":7640,"쥀":7641,"쥁":7642,"쥂":7643,"쥃":7644,"쥄":7645,"쥅":7646,"쥆":7647,"쥇":7648,"쥈":7649,"쥉":7650,"쥊":7651,"쥋":7652,"쥌":7653,"쥍":7654,"쥎":7655,"쥏":7656,"쥐":7657,"쥑":7658,"쥒":7659,"쥓":7660,"쥔":7661,"쥕":7662,"쥖":7663,"쥗":7664,"쥘":7665,"쥙":7666,"쥚":7667,"쥛":7668,"쥜":7669,"쥝":7670,"쥞":7671,"쥟":7672,"쥠":7673,"쥡":7674,"쥢":7675,"쥣":7676,"쥤":7677,"쥥":7678,"쥦":7679,"쥧":7680,"쥨":7681,"쥩":7682,"쥪":7683,"쥫":7684,"쥬":7685,"쥭":7686,"쥮":7687,"쥯":7688,"쥰":7689,"쥱":7690,"쥲":7691,"쥳":7692,"쥴":7693,"쥵":7694,"쥶":7695,"쥷":7696,"쥸":7697,"쥹":7698,"쥺":7699,"쥻":7700,"쥼":7701,"쥽":7702,"쥾":7703,"쥿":7704,"즀":7705,"즁":7706,"즂":7707,"즃":7708,"즄":7709,"즅":7710,"즆":7711,"즇":7712,"즈":7713,"즉":7714,"즊":7715,"즋":7716,"즌":7717,"즍":7718,"즎":7719,"즏":7720,"즐":7721,"즑":7722,"즒":7723,"즓":7724,"즔":7725,"즕":7726,"즖":7727,"즗":7728,"즘":7729,"즙":7730,"즚":7731,"즛":7732,"즜":7733,"증":7734,"즞":7735,"즟":7736,"즠":7737,"즡":7738,"즢":7739,"즣":7740,"즤":7741,"즥":7742,"즦":7743,"즧":7744,"즨":7745,"즩":7746,"즪":7747,"즫":7748,"즬":7749,"즭":7750,"즮":7751,"즯":7752,"즰":7753,"즱":7754,"즲":7755,"즳":7756,"즴":7757,"즵":7758,"즶":7759,"즷":7760,"즸":7761,"즹":7762,"즺":7763,"즻":7764,"즼":7765,"즽":7766,"즾":7767,"즿":7768,"지":7769,"직":7770,"짂":7771,"짃":7772,"진":7773,"짅":7774,"짆":7775,"짇":7776,"질":7777,"짉":7778,"짊":7779,"짋":7780,"짌":7781,"짍":7782,"짎":7783,"짏":7784,"짐":7785,"집":7786,"짒":7787,"짓":7788,"짔":7789,"징":7790,"짖":7791,"짗":7792,"짘":7793,"짙":7794,"짚":7795,"짛":7796,"짜":7797,"짝":7798,"짞":7799,"짟":7800,"짠":7801,"짡":7802,"짢":7803,"짣":7804,"짤":7805,"짥":7806,"짦":7807,"짧":7808,"짨":7809,"짩":7810,"짪":7811,"짫":7812,"짬":7813,"짭":7814,"짮":7815,"짯":7816,"짱":7817,"짲":7818,"짳":7819,"짴":7820,"짵":7821,"짶":7822,"짷":7823,"째":7824,"짹":7825,"짺":7826,"짻":7827,"짼":7828,"짽":7829,"짾":7830,"짿":7831,"쨀":7832,"쨁":7833,"쨂":7834,"쨃":7835,"쨄":7836,"쨅":7837,"쨆":7838,"쨇":7839,"쨈":7840,"쨉":7841,"쨊":7842,"쨋":7843,"쨌":7844,"쨍":7845,"쨎":7846,"쨏":7847,"쨐":7848,"쨑":7849,"쨒":7850,"쨓":7851,"쨔":7852,"쨕":7853,"쨖":7854,"쨗":7855,"쨘":7856,"쨙":7857,"쨚":7858,"쨛":7859,"쨜":7860,"쨝":7861,"쨞":7862,"쨟":7863,"쨠":7864,"쨡":7865,"쨢":7866,"쨣":7867,"쨤":7868,"쨥":7869,"쨦":7870,"쨧":7871,"쨨":7872,"쨩":7873,"쨪":7874,"쨫":7875,"쨬":7876,"쨭":7877,"쨮":7878,"쨯":7879,"쨰":7880,"쨱":7881,"쨲":7882,"쨳":7883,"쨴":7884,"쨵":7885,"쨶":7886,"쨷":7887,"쨸":7888,"쨹":7889,"쨺":7890,"쨻":7891,"쨼":7892,"쨽":7893,"쨾":7894,"쨿":7895,"쩀":7896,"쩁":7897,"쩂":7898,"쩃":7899,"쩄":7900,"쩅":7901,"쩆":7902,"쩇":7903,"쩈":7904,"쩉":7905,"쩊":7906,"쩋":7907,"쩌":7908,"쩍":7909,"쩎":7910,"쩏":7911,"쩐":7912,"쩑":7913,"쩒":7914,"쩓":7915,"쩔":7916,"쩕":7917,"쩖":7918,"쩗":7919,"쩘":7920,"쩙":7921,"쩚":7922,"쩛":7923,"쩜":7924,"쩝":7925,"쩞":7926,"쩟":7927,"쩠":7928,"쩡":7929,"쩢":7930,"쩣":7931,"쩤":7932,"쩥":7933,"쩦":7934,"쩧":7935,"쩨":7936,"쩩":7937,"쩪":7938,"쩫":7939,"쩬":7940,"쩭":7941,"쩮":7942,"쩯":7943,"쩰":7944,"쩱":7945,"쩲":7946,"쩳":7947,"쩴":7948,"쩵":7949,"쩶":7950,"쩷":7951,"쩸":7952,"쩹":7953,"쩺":7954,"쩻":7955,"쩼":7956,"쩽":7957,"쩾":7958,"쩿":7959,"쪀":7960,"쪁":7961,"쪂":7962,"쪃":7963,"쪄":7964,"쪅":7965,"쪆":7966,"쪇":7967,"쪈":7968,"쪉":7969,"쪊":7970,"쪋":7971,"쪌":7972,"쪍":7973,"쪎":7974,"쪏":7975,"쪐":7976,"쪑":7977,"쪒":7978,"쪓":7979,"쪔":7980,"쪕":7981,"쪖":7982,"쪗":7983,"쪘":7984,"쪙":7985,"쪚":7986,"쪛":7987,"쪜":7988,"쪝":7989,"쪞":7990,"쪟":7991,"쪠":7992,"쪡":7993,"쪢":7994,"쪣":7995,"쪤":7996,"쪥":7997,"쪦":7998,"쪧":7999,"쪨":8000,"쪩":8001,"쪪":8002,"쪫":8003,"쪬":8004,"쪭":8005,"쪮":8006,"쪯":8007,"쪰":8008,"쪱":8009,"쪲":8010,"쪳":8011,"쪴":8012,"쪵":8013,"쪶":8014,"쪷":8015,"쪸":8016,"쪹":8017,"쪺":8018,"쪻":8019,"쪼":8020,"쪽":8021,"쪾":8022,"쪿":8023,"쫀":8024,"쫁":8025,"쫂":8026,"쫃":8027,"쫄":8028,"쫅":8029,"쫆":8030,"쫇":8031,"쫈":8032,"쫉":8033,"쫊":8034,"쫋":8035,"쫌":8036,"쫍":8037,"쫎":8038,"쫏":8039,"쫐":8040,"쫑":8041,"쫒":8042,"쫓":8043,"쫔":8044,"쫕":8045,"쫖":8046,"쫗":8047,"쫘":8048,"쫙":8049,"쫚":8050,"쫛":8051,"쫜":8052,"쫝":8053,"쫞":8054,"쫟":8055,"쫠":8056,"쫡":8057,"쫢":8058,"쫣":8059,"쫤":8060,"쫥":8061,"쫦":8062,"쫧":8063,"쫨":8064,"쫩":8065,"쫪":8066,"쫫":8067,"쫭":8068,"쫮":8069,"쫯":8070,"쫰":8071,"쫱":8072,"쫲":8073,"쫳":8074,"쫴":8075,"쫵":8076,"쫶":8077,"쫷":8078,"쫸":8079,"쫹":8080,"쫺":8081,"쫻":8082,"쫼":8083,"쫽":8084,"쫾":8085,"쫿":8086,"쬀":8087,"쬁":8088,"쬂":8089,"쬃":8090,"쬄":8091,"쬅":8092,"쬆":8093,"쬇":8094,"쬈":8095,"쬉":8096,"쬊":8097,"쬋":8098,"쬌":8099,"쬍":8100,"쬎":8101,"쬏":8102,"쬐":8103,"쬑":8104,"쬒":8105,"쬓":8106,"쬔":8107,"쬕":8108,"쬖":8109,"쬗":8110,"쬙":8111,"쬚":8112,"쬛":8113,"쬜":8114,"쬝":8115,"쬞":8116,"쬟":8117,"쬡":8118,"쬢":8119,"쬣":8120,"쬤":8121,"쬥":8122,"쬦":8123,"쬧":8124,"쬨":8125,"쬩":8126,"쬪":8127,"쬫":8128,"쬬":8129,"쬭":8130,"쬮":8131,"쬯":8132,"쬰":8133,"쬱":8134,"쬲":8135,"쬳":8136,"쬴":8137,"쬵":8138,"쬶":8139,"쬷":8140,"쬸":8141,"쬹":8142,"쬺":8143,"쬻":8144,"쬼":8145,"쬽":8146,"쬾":8147,"쬿":8148,"쭀":8149,"쭁":8150,"쭂":8151,"쭃":8152,"쭄":8153,"쭅":8154,"쭆":8155,"쭇":8156,"쭈":8157,"쭉":8158,"쭊":8159,"쭋":8160,"쭌":8161,"쭍":8162,"쭎":8163,"쭏":8164,"쭐":8165,"쭑":8166,"쭒":8167,"쭓":8168,"쭔":8169,"쭕":8170,"쭖":8171,"쭗":8172,"쭘":8173,"쭙":8174,"쭚":8175,"쭛":8176,"쭜":8177,"쭝":8178,"쭞":8179,"쭟":8180,"쭠":8181,"쭡":8182,"쭢":8183,"쭣":8184,"쭤":8185,"쭥":8186,"쭦":8187,"쭧":8188,"쭨":8189,"쭩":8190,"쭪":8191,"쭫":8192,"쭬":8193,"쭭":8194,"쭮":8195,"쭯":8196,"쭰":8197,"쭱":8198,"쭲":8199,"쭳":8200,"쭴":8201,"쭵":8202,"쭶":8203,"쭷":8204,"쭸":8205,"쭹":8206,"쭺":8207,"쭻":8208,"쭼":8209,"쭽":8210,"쭾":8211,"쭿":8212,"쮀":8213,"쮁":8214,"쮂":8215,"쮃":8216,"쮄":8217,"쮅":8218,"쮆":8219,"쮇":8220,"쮈":8221,"쮉":8222,"쮊":8223,"쮋":8224,"쮌":8225,"쮍":8226,"쮎":8227,"쮏":8228,"쮐":8229,"쮑":8230,"쮒":8231,"쮓":8232,"쮔":8233,"쮕":8234,"쮖":8235,"쮗":8236,"쮘":8237,"쮙":8238,"쮚":8239,"쮛":8240,"쮜":8241,"쮝":8242,"쮞":8243,"쮟":8244,"쮠":8245,"쮡":8246,"쮢":8247,"쮣":8248,"쮤":8249,"쮥":8250,"쮦":8251,"쮧":8252,"쮨":8253,"쮩":8254,"쮪":8255,"쮫":8256,"쮬":8257,"쮭":8258,"쮮":8259,"쮯":8260,"쮰":8261,"쮱":8262,"쮲":8263,"쮳":8264,"쮴":8265,"쮵":8266,"쮶":8267,"쮷":8268,"쮸":8269,"쮹":8270,"쮺":8271,"쮻":8272,"쮼":8273,"쮽":8274,"쮾":8275,"쮿":8276,"쯀":8277,"쯁":8278,"쯂":8279,"쯃":8280,"쯄":8281,"쯅":8282,"쯆":8283,"쯇":8284,"쯈":8285,"쯉":8286,"쯊":8287,"쯋":8288,"쯌":8289,"쯍":8290,"쯎":8291,"쯏":8292,"쯐":8293,"쯑":8294,"쯒":8295,"쯓":8296,"쯔":8297,"쯕":8298,"쯖":8299,"쯗":8300,"쯘":8301,"쯙":8302,"쯚":8303,"쯛":8304,"쯜":8305,"쯝":8306,"쯞":8307,"쯟":8308,"쯠":8309,"쯡":8310,"쯢":8311,"쯣":8312,"쯤":8313,"쯥":8314,"쯦":8315,"쯧":8316,"쯨":8317,"쯩":8318,"쯪":8319,"쯫":8320,"쯬":8321,"쯭":8322,"쯮":8323,"쯯":8324,"쯰":8325,"쯱":8326,"쯲":8327,"쯳":8328,"쯴":8329,"쯵":8330,"쯶":8331,"쯷":8332,"쯸":8333,"쯹":8334,"쯺":8335,"쯻":8336,"쯼":8337,"쯽":8338,"쯾":8339,"쯿":8340,"찀":8341,"찁":8342,"찂":8343,"찃":8344,"찄":8345,"찅":8346,"찆":8347,"찇":8348,"찈":8349,"찉":8350,"찊":8351,"찋":8352,"찌":8353,"찍":8354,"찎":8355,"찏":8356,"찐":8357,"찑":8358,"찒":8359,"찓":8360,"찔":8361,"찕":8362,"찖":8363,"찗":8364,"찘":8365,"찙":8366,"찚":8367,"찛":8368,"찜":8369,"찝":8370,"찞":8371,"찟":8372,"찠":8373,"찡":8374,"찢":8375,"찣":8376,"찤":8377,"찥":8378,"찦":8379,"찧":8380,"차":8381,"착":8382,"찪":8383,"찫":8384,"찬":8385,"찭":8386,"찮":8387,"찯":8388,"찰":8389,"찱":8390,"찲":8391,"찳":8392,"찴":8393,"찵":8394,"찶":8395,"찷":8396,"참":8397,"찹":8398,"찺":8399,"찻":8400,"창":8401,"찾":8402,"찿":8403,"챀":8404,"챁":8405,"챂":8406,"챃":8407,"채":8408,"책":8409,"챆":8410,"챇":8411,"챈":8412,"챉":8413,"챊":8414,"챋":8415,"챌":8416,"챍":8417,"챎":8418,"챏":8419,"챐":8420,"챑":8421,"챒":8422,"챓":8423,"챔":8424,"챕":8425,"챖":8426,"챗":8427,"챘":8428,"챙":8429,"챚":8430,"챛":8431,"챜":8432,"챝":8433,"챞":8434,"챟":8435,"챠":8436,"챡":8437,"챢":8438,"챣":8439,"챤":8440,"챥":8441,"챦":8442,"챧":8443,"챨":8444,"챩":8445,"챪":8446,"챫":8447,"챬":8448,"챭":8449,"챮":8450,"챯":8451,"챰":8452,"챱":8453,"챲":8454,"챳":8455,"챴":8456,"챵":8457,"챶":8458,"챷":8459,"챸":8460,"챹":8461,"챺":8462,"챻":8463,"챼":8464,"챽":8465,"챾":8466,"챿":8467,"첀":8468,"첁":8469,"첂":8470,"첃":8471,"첄":8472,"첅":8473,"첆":8474,"첇":8475,"첈":8476,"첉":8477,"첊":8478,"첋":8479,"첌":8480,"첍":8481,"첎":8482,"첏":8483,"첐":8484,"첑":8485,"첒":8486,"첓":8487,"첔":8488,"첕":8489,"첖":8490,"첗":8491,"처":8492,"척":8493,"첚":8494,"첛":8495,"천":8496,"첝":8497,"첞":8498,"첟":8499,"철":8500,"첡":8501,"첢":8502,"첣":8503,"첤":8504,"첥":8505,"첦":8506,"첧":8507,"첨":8508,"첩":8509,"첪":8510,"첫":8511,"첬":8512,"청":8513,"첮":8514,"첯":8515,"첰":8516,"첱":8517,"첲":8518,"첳":8519,"체":8520,"첵":8521,"첶":8522,"첷":8523,"첸":8524,"첹":8525,"첺":8526,"첻":8527,"첼":8528,"첽":8529,"첾":8530,"첿":8531,"쳀":8532,"쳁":8533,"쳂":8534,"쳃":8535,"쳄":8536,"쳅":8537,"쳆":8538,"쳇":8539,"쳈":8540,"쳉":8541,"쳊":8542,"쳋":8543,"쳌":8544,"쳍":8545,"쳎":8546,"쳏":8547,"쳐":8548,"쳑":8549,"쳒":8550,"쳓":8551,"쳔":8552,"쳕":8553,"쳖":8554,"쳗":8555,"쳘":8556,"쳙":8557,"쳚":8558,"쳛":8559,"쳜":8560,"쳝":8561,"쳞":8562,"쳟":8563,"쳠":8564,"쳡":8565,"쳢":8566,"쳣":8567,"쳤":8568,"쳥":8569,"쳦":8570,"쳧":8571,"쳨":8572,"쳩":8573,"쳪":8574,"쳫":8575,"쳬":8576,"쳭":8577,"쳮":8578,"쳯":8579,"쳰":8580,"쳱":8581,"쳲":8582,"쳳":8583,"쳴":8584,"쳵":8585,"쳶":8586,"쳷":8587,"쳸":8588,"쳹":8589,"쳺":8590,"쳻":8591,"쳼":8592,"쳽":8593,"쳾":8594,"쳿":8595,"촀":8596,"촁":8597,"촂":8598,"촃":8599,"촄":8600,"촅":8601,"촆":8602,"촇":8603,"초":8604,"촉":8605,"촊":8606,"촋":8607,"촌":8608,"촍":8609,"촎":8610,"촏":8611,"촐":8612,"촑":8613,"촒":8614,"촓":8615,"촔":8616,"촕":8617,"촖":8618,"촗":8619,"촘":8620,"촙":8621,"촚":8622,"촛":8623,"촜":8624,"총":8625,"촞":8626,"촟":8627,"촠":8628,"촡":8629,"촢":8630,"촣":8631,"촤":8632,"촥":8633,"촦":8634,"촧":8635,"촨":8636,"촩":8637,"촪":8638,"촫":8639,"촬":8640,"촭":8641,"촮":8642,"촯":8643,"촰":8644,"촱":8645,"촲":8646,"촳":8647,"촴":8648,"촵":8649,"촶":8650,"촷":8651,"촸":8652,"촹":8653,"촺":8654,"촻":8655,"촼":8656,"촽":8657,"촾":8658,"촿":8659,"쵀":8660,"쵁":8661,"쵂":8662,"쵃":8663,"쵄":8664,"쵅":8665,"쵆":8666,"쵇":8667,"쵈":8668,"쵉":8669,"쵊":8670,"쵋":8671,"쵌":8672,"쵍":8673,"쵎":8674,"쵏":8675,"쵐":8676,"쵑":8677,"쵒":8678,"쵓":8679,"쵔":8680,"쵕":8681,"쵖":8682,"쵗":8683,"쵘":8684,"쵙":8685,"쵚":8686,"쵛":8687,"최":8688,"쵝":8689,"쵞":8690,"쵟":8691,"쵠":8692,"쵡":8693,"쵢":8694,"쵣":8695,"쵤":8696,"쵥":8697,"쵦":8698,"쵧":8699,"쵨":8700,"쵩":8701,"쵪":8702,"쵫":8703,"쵬":8704,"쵭":8705,"쵮":8706,"쵯":8707,"쵰":8708,"쵱":8709,"쵲":8710,"쵳":8711,"쵴":8712,"쵵":8713,"쵶":8714,"쵷":8715,"쵸":8716,"쵹":8717,"쵺":8718,"쵻":8719,"쵼":8720,"쵽":8721,"쵾":8722,"쵿":8723,"춀":8724,"춁":8725,"춂":8726,"춃":8727,"춄":8728,"춅":8729,"춆":8730,"춇":8731,"춈":8732,"춉":8733,"춊":8734,"춋":8735,"춌":8736,"춍":8737,"춎":8738,"춏":8739,"춐":8740,"춑":8741,"춒":8742,"춓":8743,"추":8744,"축":8745,"춖":8746,"춗":8747,"춘":8748,"춙":8749,"춚":8750,"춛":8751,"출":8752,"춝":8753,"춞":8754,"춟":8755,"춠":8756,"춡":8757,"춢":8758,"춣":8759,"춤":8760,"춥":8761,"춦":8762,"춧":8763,"춨":8764,"충":8765,"춪":8766,"춫":8767,"춬":8768,"춭":8769,"춮":8770,"춯":8771,"춰":8772,"춱":8773,"춲":8774,"춳":8775,"춴":8776,"춵":8777,"춶":8778,"춷":8779,"춸":8780,"춹":8781,"춺":8782,"춻":8783,"춼":8784,"춽":8785,"춾":8786,"춿":8787,"췀":8788,"췁":8789,"췂":8790,"췃":8791,"췄":8792,"췅":8793,"췆":8794,"췇":8795,"췈":8796,"췉":8797,"췊":8798,"췋":8799,"췌":8800,"췍":8801,"췎":8802,"췏":8803,"췐":8804,"췑":8805,"췒":8806,"췓":8807,"췔":8808,"췕":8809,"췖":8810,"췗":8811,"췘":8812,"췙":8813,"췚":8814,"췛":8815,"췜":8816,"췝":8817,"췞":8818,"췟":8819,"췠":8820,"췡":8821,"췢":8822,"췣":8823,"췤":8824,"췥":8825,"췦":8826,"췧":8827,"취":8828,"췩":8829,"췪":8830,"췫":8831,"췬":8832,"췭":8833,"췮":8834,"췯":8835,"췰":8836,"췱":8837,"췲":8838,"췳":8839,"췴":8840,"췵":8841,"췶":8842,"췷":8843,"췸":8844,"췹":8845,"췺":8846,"췻":8847,"췼":8848,"췽":8849,"췾":8850,"췿":8851,"츀":8852,"츁":8853,"츂":8854,"츃":8855,"츄":8856,"츅":8857,"츆":8858,"츇":8859,"츈":8860,"츉":8861,"츊":8862,"츋":8863,"츌":8864,"츍":8865,"츎":8866,"츏":8867,"츐":8868,"츑":8869,"츒":8870,"츓":8871,"츔":8872,"츕":8873,"츖":8874,"츗":8875,"츘":8876,"츙":8877,"츚":8878,"츛":8879,"츜":8880,"츝":8881,"츞":8882,"츟":8883,"츠":8884,"측":8885,"츢":8886,"츣":8887,"츤":8888,"츥":8889,"츦":8890,"츧":8891,"츨":8892,"츩":8893,"츪":8894,"츫":8895,"츬":8896,"츭":8897,"츮":8898,"츯":8899,"츰":8900,"츱":8901,"츲":8902,"츳":8903,"츴":8904,"층":8905,"츶":8906,"츷":8907,"츸":8908,"츹":8909,"츺":8910,"츻":8911,"츼":8912,"츽":8913,"츾":8914,"츿":8915,"칀":8916,"칁":8917,"칂":8918,"칃":8919,"칄":8920,"칅":8921,"칆":8922,"칇":8923,"칈":8924,"칉":8925,"칊":8926,"칋":8927,"칌":8928,"칍":8929,"칎":8930,"칏":8931,"칐":8932,"칑":8933,"칒":8934,"칓":8935,"칔":8936,"칕":8937,"칖":8938,"칗":8939,"치":8940,"칙":8941,"칚":8942,"칛":8943,"친":8944,"칝":8945,"칞":8946,"칟":8947,"칠":8948,"칡":8949,"칢":8950,"칣":8951,"칤":8952,"칥":8953,"칦":8954,"칧":8955,"침":8956,"칩":8957,"칪":8958,"칫":8959,"칬":8960,"칭":8961,"칮":8962,"칯":8963,"칰":8964,"칱":8965,"칲":8966,"칳":8967,"카":8968,"칵":8969,"칶":8970,"칷":8971,"칸":8972,"칹":8973,"칺":8974,"칻":8975,"칼":8976,"칽":8977,"칾":8978,"칿":8979,"캀":8980,"캁":8981,"캂":8982,"캃":8983,"캄":8984,"캅":8985,"캆":8986,"캇":8987,"캈":8988,"캉":8989,"캊":8990,"캋":8991,"캌":8992,"캍":8993,"캎":8994,"캏":8995,"캐":8996,"캑":8997,"캒":8998,"캓":8999,"캔":9000,"캕":9001,"캖":9002,"캗":9003,"캘":9004,"캙":9005,"캚":9006,"캛":9007,"캜":9008,"캝":9009,"캞":9010,"캟":9011,"캠":9012,"캡":9013,"캢":9014,"캣":9015,"캥":9016,"캦":9017,"캧":9018,"캨":9019,"캩":9020,"캪":9021,"캫":9022,"캬":9023,"캭":9024,"캮":9025,"캯":9026,"캰":9027,"캱":9028,"캲":9029,"캳":9030,"캴":9031,"캵":9032,"캶":9033,"캷":9034,"캸":9035,"캹":9036,"캺":9037,"캻":9038,"캼":9039,"캽":9040,"캾":9041,"캿":9042,"컀":9043,"컁":9044,"컂":9045,"컃":9046,"컄":9047,"컅":9048,"컆":9049,"컇":9050,"컈":9051,"컉":9052,"컊":9053,"컋":9054,"컌":9055,"컍":9056,"컎":9057,"컏":9058,"컐":9059,"컑":9060,"컒":9061,"컓":9062,"컔":9063,"컕":9064,"컖":9065,"컗":9066,"컘":9067,"컙":9068,"컚":9069,"컛":9070,"컜":9071,"컝":9072,"컞":9073,"컟":9074,"컠":9075,"컡":9076,"컢":9077,"컣":9078,"커":9079,"컥":9080,"컦":9081,"컧":9082,"컨":9083,"컩":9084,"컪":9085,"컫":9086,"컬":9087,"컭":9088,"컮":9089,"컯":9090,"컰":9091,"컱":9092,"컲":9093,"컳":9094,"컴":9095,"컵":9096,"컶":9097,"컷":9098,"컹":9099,"컺":9100,"컻":9101,"컼":9102,"컽":9103,"컾":9104,"컿":9105,"케":9106,"켁":9107,"켂":9108,"켃":9109,"켄":9110,"켅":9111,"켆":9112,"켇":9113,"켈":9114,"켉":9115,"켊":9116,"켋":9117,"켌":9118,"켍":9119,"켎":9120,"켏":9121,"켐":9122,"켑":9123,"켒":9124,"켓":9125,"켔":9126,"켕":9127,"켖":9128,"켗":9129,"켘":9130,"켙":9131,"켚":9132,"켛":9133,"켜":9134,"켝":9135,"켞":9136,"켟":9137,"켠":9138,"켡":9139,"켢":9140,"켣":9141,"켤":9142,"켥":9143,"켦":9144,"켧":9145,"켨":9146,"켩":9147,"켪":9148,"켫":9149,"켬":9150,"켭":9151,"켮":9152,"켯":9153,"켰":9154,"켱":9155,"켲":9156,"켳":9157,"켴":9158,"켵":9159,"켶":9160,"켷":9161,"켸":9162,"켹":9163,"켺":9164,"켻":9165,"켼":9166,"켽":9167,"켾":9168,"켿":9169,"콀":9170,"콁":9171,"콂":9172,"콃":9173,"콄":9174,"콅":9175,"콆":9176,"콇":9177,"콈":9178,"콉":9179,"콊":9180,"콋":9181,"콌":9182,"콍":9183,"콎":9184,"콏":9185,"콐":9186,"콑":9187,"콒":9188,"콓":9189,"코":9190,"콕":9191,"콖":9192,"콗":9193,"콘":9194,"콙":9195,"콚":9196,"콛":9197,"콜":9198,"콝":9199,"콞":9200,"콟":9201,"콠":9202,"콡":9203,"콢":9204,"콣":9205,"콤":9206,"콥":9207,"콦":9208,"콧":9209,"콨":9210,"콩":9211,"콪":9212,"콫":9213,"콬":9214,"콭":9215,"콮":9216,"콯":9217,"콰":9218,"콱":9219,"콲":9220,"콳":9221,"콴":9222,"콵":9223,"콶":9224,"콷":9225,"콸":9226,"콹":9227,"콺":9228,"콻":9229,"콼":9230,"콽":9231,"콾":9232,"콿":9233,"쾀":9234,"쾁":9235,"쾂":9236,"쾃":9237,"쾄":9238,"쾅":9239,"쾆":9240,"쾇":9241,"쾈":9242,"쾉":9243,"쾊":9244,"쾋":9245,"쾌":9246,"쾍":9247,"쾎":9248,"쾏":9249,"쾐":9250,"쾑":9251,"쾒":9252,"쾓":9253,"쾔":9254,"쾕":9255,"쾖":9256,"쾗":9257,"쾘":9258,"쾙":9259,"쾚":9260,"쾛":9261,"쾜":9262,"쾝":9263,"쾞":9264,"쾟":9265,"쾠":9266,"쾡":9267,"쾢":9268,"쾣":9269,"쾤":9270,"쾥":9271,"쾦":9272,"쾧":9273,"쾨":9274,"쾩":9275,"쾪":9276,"쾫":9277,"쾬":9278,"쾭":9279,"쾮":9280,"쾯":9281,"쾰":9282,"쾱":9283,"쾲":9284,"쾳":9285,"쾴":9286,"쾵":9287,"쾶":9288,"쾷":9289,"쾸":9290,"쾹":9291,"쾺":9292,"쾻":9293,"쾼":9294,"쾽":9295,"쾾":9296,"쾿":9297,"쿀":9298,"쿁":9299,"쿂":9300,"쿃":9301,"쿄":9302,"쿅":9303,"쿆":9304,"쿇":9305,"쿈":9306,"쿉":9307,"쿊":9308,"쿋":9309,"쿌":9310,"쿍":9311,"쿎":9312,"쿏":9313,"쿐":9314,"쿑":9315,"쿒":9316,"쿓":9317,"쿔":9318,"쿕":9319,"쿖":9320,"쿗":9321,"쿘":9322,"쿙":9323,"쿚":9324,"쿛":9325,"쿜":9326,"쿝":9327,"쿞":9328,"쿟":9329,"쿠":9330,"쿡":9331,"쿢":9332,"쿣":9333,"쿤":9334,"쿥":9335,"쿦":9336,"쿧":9337,"쿨":9338,"쿩":9339,"쿪":9340,"쿫":9341,"쿬":9342,"쿭":9343,"쿮":9344,"쿯":9345,"쿰":9346,"쿱":9347,"쿲":9348,"쿳":9349,"쿴":9350,"쿵":9351,"쿶":9352,"쿷":9353,"쿸":9354,"쿹":9355,"쿺":9356,"쿻":9357,"쿼":9358,"쿽":9359,"쿾":9360,"쿿":9361,"퀀":9362,"퀁":9363,"퀂":9364,"퀃":9365,"퀄":9366,"퀅":9367,"퀆":9368,"퀇":9369,"퀈":9370,"퀉":9371,"퀊":9372,"퀋":9373,"퀌":9374,"퀍":9375,"퀎":9376,"퀏":9377,"퀐":9378,"퀑":9379,"퀒":9380,"퀓":9381,"퀔":9382,"퀕":9383,"퀖":9384,"퀗":9385,"퀘":9386,"퀙":9387,"퀚":9388,"퀛":9389,"퀜":9390,"퀝":9391,"퀞":9392,"퀟":9393,"퀠":9394,"퀡":9395,"퀢":9396,"퀣":9397,"퀤":9398,"퀥":9399,"퀦":9400,"퀧":9401,"퀨":9402,"퀩":9403,"퀪":9404,"퀫":9405,"퀬":9406,"퀭":9407,"퀮":9408,"퀯":9409,"퀰":9410,"퀱":9411,"퀲":9412,"퀳":9413,"퀴":9414,"퀵":9415,"퀶":9416,"퀷":9417,"퀸":9418,"퀹":9419,"퀺":9420,"퀻":9421,"퀼":9422,"퀽":9423,"퀾":9424,"퀿":9425,"큀":9426,"큁":9427,"큂":9428,"큃":9429,"큄":9430,"큅":9431,"큆":9432,"큇":9433,"큈":9434,"큉":9435,"큊":9436,"큋":9437,"큌":9438,"큍":9439,"큎":9440,"큏":9441,"큐":9442,"큑":9443,"큒":9444,"큓":9445,"큔":9446,"큕":9447,"큖":9448,"큗":9449,"큘":9450,"큙":9451,"큚":9452,"큛":9453,"큜":9454,"큝":9455,"큞":9456,"큟":9457,"큠":9458,"큡":9459,"큢":9460,"큣":9461,"큤":9462,"큥":9463,"큦":9464,"큧":9465,"큨":9466,"큩":9467,"큪":9468,"큫":9469,"크":9470,"큭":9471,"큮":9472,"큯":9473,"큰":9474,"큱":9475,"큲":9476,"큳":9477,"클":9478,"큵":9479,"큶":9480,"큷":9481,"큸":9482,"큹":9483,"큺":9484,"큻":9485,"큼":9486,"큽":9487,"큾":9488,"큿":9489,"킀":9490,"킁":9491,"킂":9492,"킃":9493,"킄":9494,"킅":9495,"킆":9496,"킇":9497,"킈":9498,"킉":9499,"킊":9500,"킋":9501,"킌":9502,"킍":9503,"킎":9504,"킏":9505,"킐":9506,"킑":9507,"킒":9508,"킓":9509,"킔":9510,"킕":9511,"킖":9512,"킗":9513,"킘":9514,"킙":9515,"킚":9516,"킛":9517,"킜":9518,"킝":9519,"킞":9520,"킟":9521,"킠":9522,"킡":9523,"킢":9524,"킣":9525,"키":9526,"킥":9527,"킦":9528,"킧":9529,"킨":9530,"킩":9531,"킪":9532,"킫":9533,"킬":9534,"킭":9535,"킮":9536,"킯":9537,"킰":9538,"킱":9539,"킲":9540,"킳":9541,"킴":9542,"킵":9543,"킶":9544,"킷":9545,"킸":9546,"킹":9547,"킺":9548,"킻":9549,"킼":9550,"킽":9551,"킾":9552,"킿":9553,"타":9554,"탁":9555,"탂":9556,"탃":9557,"탄":9558,"탅":9559,"탆":9560,"탇":9561,"탈":9562,"탉":9563,"탊":9564,"탋":9565,"탌":9566,"탍":9567,"탎":9568,"탏":9569,"탐":9570,"탑":9571,"탒":9572,"탓":9573,"탔":9574,"탕":9575,"탖":9576,"탗":9577,"탘":9578,"탙":9579,"탚":9580,"탛":9581,"태":9582,"택":9583,"탞":9584,"탟":9585,"탠":9586,"탡":9587,"탢":9588,"탣":9589,"탤":9590,"탥":9591,"탦":9592,"탧":9593,"탨":9594,"탩":9595,"탪":9596,"탫":9597,"탬":9598,"탭":9599,"탮":9600,"탯":9601,"탰":9602,"탱":9603,"탲":9604,"탳":9605,"탴":9606,"탵":9607,"탶":9608,"탷":9609,"탸":9610,"탹":9611,"탺":9612,"탻":9613,"탼":9614,"탽":9615,"탾":9616,"탿":9617,"턀":9618,"턁":9619,"턂":9620,"턃":9621,"턄":9622,"턅":9623,"턆":9624,"턇":9625,"턈":9626,"턉":9627,"턊":9628,"턋":9629,"턌":9630,"턍":9631,"턎":9632,"턏":9633,"턐":9634,"턑":9635,"턒":9636,"턓":9637,"턔":9638,"턕":9639,"턖":9640,"턗":9641,"턘":9642,"턙":9643,"턚":9644,"턛":9645,"턜":9646,"턝":9647,"턞":9648,"턟":9649,"턠":9650,"턡":9651,"턢":9652,"턣":9653,"턤":9654,"턥":9655,"턦":9656,"턧":9657,"턨":9658,"턩":9659,"턪":9660,"턫":9661,"턬":9662,"턭":9663,"턮":9664,"턯":9665,"터":9666,"턱":9667,"턲":9668,"턳":9669,"턴":9670,"턵":9671,"턶":9672,"턷":9673,"털":9674,"턹":9675,"턺":9676,"턻":9677,"턼":9678,"턽":9679,"턾":9680,"턿":9681,"텀":9682,"텁":9683,"텂":9684,"텃":9685,"텅":9686,"텆":9687,"텇":9688,"텈":9689,"텉":9690,"텊":9691,"텋":9692,"테":9693,"텍":9694,"텎":9695,"텏":9696,"텐":9697,"텑":9698,"텒":9699,"텓":9700,"텔":9701,"텕":9702,"텖":9703,"텗":9704,"텘":9705,"텙":9706,"텚":9707,"텛":9708,"템":9709,"텝":9710,"텞":9711,"텟":9712,"텠":9713,"텡":9714,"텢":9715,"텣":9716,"텤":9717,"텥":9718,"텦":9719,"텧":9720,"텨":9721,"텩":9722,"텪":9723,"텫":9724,"텬":9725,"텭":9726,"텮":9727,"텯":9728,"텰":9729,"텱":9730,"텲":9731,"텳":9732,"텴":9733,"텵":9734,"텶":9735,"텷":9736,"텸":9737,"텹":9738,"텺":9739,"텻":9740,"텼":9741,"텽":9742,"텾":9743,"텿":9744,"톀":9745,"톁":9746,"톂":9747,"톃":9748,"톄":9749,"톅":9750,"톆":9751,"톇":9752,"톈":9753,"톉":9754,"톊":9755,"톋":9756,"톌":9757,"톍":9758,"톎":9759,"톏":9760,"톐":9761,"톑":9762,"톒":9763,"톓":9764,"톔":9765,"톕":9766,"톖":9767,"톗":9768,"톘":9769,"톙":9770,"톚":9771,"톛":9772,"톜":9773,"톝":9774,"톞":9775,"톟":9776,"토":9777,"톡":9778,"톢":9779,"톣":9780,"톤":9781,"톥":9782,"톦":9783,"톧":9784,"톨":9785,"톩":9786,"톪":9787,"톫":9788,"톬":9789,"톭":9790,"톮":9791,"톯":9792,"톰":9793,"톱":9794,"톲":9795,"톳":9796,"톴":9797,"통":9798,"톶":9799,"톷":9800,"톸":9801,"톹":9802,"톺":9803,"톻":9804,"톼":9805,"톽":9806,"톾":9807,"톿":9808,"퇀":9809,"퇁":9810,"퇂":9811,"퇃":9812,"퇄":9813,"퇅":9814,"퇆":9815,"퇇":9816,"퇈":9817,"퇉":9818,"퇊":9819,"퇋":9820,"퇌":9821,"퇍":9822,"퇎":9823,"퇏":9824,"퇐":9825,"퇑":9826,"퇒":9827,"퇓":9828,"퇔":9829,"퇕":9830,"퇖":9831,"퇗":9832,"퇘":9833,"퇙":9834,"퇚":9835,"퇛":9836,"퇜":9837,"퇝":9838,"퇞":9839,"퇟":9840,"퇠":9841,"퇡":9842,"퇢":9843,"퇣":9844,"퇤":9845,"퇥":9846,"퇦":9847,"퇧":9848,"퇨":9849,"퇩":9850,"퇪":9851,"퇫":9852,"퇬":9853,"퇭":9854,"퇮":9855,"퇯":9856,"퇰":9857,"퇱":9858,"퇲":9859,"퇳":9860,"퇴":9861,"퇵":9862,"퇶":9863,"퇷":9864,"퇸":9865,"퇹":9866,"퇺":9867,"퇻":9868,"퇼":9869,"퇽":9870,"퇾":9871,"퇿":9872,"툀":9873,"툁":9874,"툂":9875,"툃":9876,"툄":9877,"툅":9878,"툆":9879,"툇":9880,"툈":9881,"툉":9882,"툊":9883,"툋":9884,"툌":9885,"툍":9886,"툎":9887,"툏":9888,"툐":9889,"툑":9890,"툒":9891,"툓":9892,"툔":9893,"툕":9894,"툖":9895,"툗":9896,"툘":9897,"툙":9898,"툚":9899,"툛":9900,"툜":9901,"툝":9902,"툞":9903,"툟":9904,"툠":9905,"툡":9906,"툢":9907,"툣":9908,"툤":9909,"툥":9910,"툦":9911,"툧":9912,"툨":9913,"툩":9914,"툪":9915,"툫":9916,"투":9917,"툭":9918,"툮":9919,"툯":9920,"툰":9921,"툱":9922,"툲":9923,"툳":9924,"툴":9925,"툵":9926,"툶":9927,"툷":9928,"툸":9929,"툹":9930,"툺":9931,"툻":9932,"툼":9933,"툽":9934,"툾":9935,"툿":9936,"퉀":9937,"퉁":9938,"퉂":9939,"퉃":9940,"퉄":9941,"퉅":9942,"퉆":9943,"퉇":9944,"퉈":9945,"퉉":9946,"퉊":9947,"퉋":9948,"퉌":9949,"퉍":9950,"퉎":9951,"퉏":9952,"퉐":9953,"퉑":9954,"퉒":9955,"퉓":9956,"퉔":9957,"퉕":9958,"퉖":9959,"퉗":9960,"퉘":9961,"퉙":9962,"퉚":9963,"퉛":9964,"퉜":9965,"퉝":9966,"퉞":9967,"퉟":9968,"퉠":9969,"퉡":9970,"퉢":9971,"퉣":9972,"퉤":9973,"퉥":9974,"퉦":9975,"퉧":9976,"퉨":9977,"퉩":9978,"퉪":9979,"퉫":9980,"퉬":9981,"퉭":9982,"퉮":9983,"퉯":9984,"퉰":9985,"퉱":9986,"퉲":9987,"퉳":9988,"퉴":9989,"퉵":9990,"퉶":9991,"퉷":9992,"퉸":9993,"퉹":9994,"퉺":9995,"퉻":9996,"퉼":9997,"퉽":9998,"퉾":9999,"퉿":10000,"튀":10001,"튁":10002,"튂":10003,"튃":10004,"튄":10005,"튅":10006,"튆":10007,"튇":10008,"튈":10009,"튉":10010,"튊":10011,"튋":10012,"튌":10013,"튍":10014,"튎":10015,"튏":10016,"튐":10017,"튑":10018,"튒":10019,"튓":10020,"튔":10021,"튕":10022,"튖":10023,"튗":10024,"튘":10025,"튙":10026,"튚":10027,"튛":10028,"튜":10029,"튝":10030,"튞":10031,"튟":10032,"튠":10033,"튡":10034,"튢":10035,"튣":10036,"튤":10037,"튥":10038,"튦":10039,"튧":10040,"튨":10041,"튩":10042,"튪":10043,"튫":10044,"튬":10045,"튭":10046,"튮":10047,"튯":10048,"튰":10049,"튱":10050,"튲":10051,"튳":10052,"튴":10053,"튵":10054,"튶":10055,"튷":10056,"트":10057,"특":10058,"튺":10059,"튻":10060,"튼":10061,"튽":10062,"튾":10063,"튿":10064,"틀":10065,"틁":10066,"틂":10067,"틃":10068,"틄":10069,"틅":10070,"틆":10071,"틇":10072,"틈":10073,"틉":10074,"틊":10075,"틋":10076,"틌":10077,"틍":10078,"틎":10079,"틏":10080,"틐":10081,"틑":10082,"틒":10083,"틓":10084,"틔":10085,"틕":10086,"틖":10087,"틗":10088,"틘":10089,"틙":10090,"틚":10091,"틛":10092,"틜":10093,"틝":10094,"틞":10095,"틟":10096,"틠":10097,"틡":10098,"틢":10099,"틣":10100,"틤":10101,"틥":10102,"틦":10103,"틧":10104,"틨":10105,"틩":10106,"틪":10107,"틫":10108,"틬":10109,"틭":10110,"틮":10111,"틯":10112,"티":10113,"틱":10114,"틲":10115,"틳":10116,"틴":10117,"틵":10118,"틶":10119,"틷":10120,"틸":10121,"틹":10122,"틺":10123,"틻":10124,"틼":10125,"틽":10126,"틾":10127,"틿":10128,"팀":10129,"팁":10130,"팂":10131,"팃":10132,"팄":10133,"팅":10134,"팆":10135,"팇":10136,"팈":10137,"팉":10138,"팊":10139,"팋":10140,"파":10141,"팍":10142,"팎":10143,"팏":10144,"판":10145,"팑":10146,"팒":10147,"팓":10148,"팔":10149,"팕":10150,"팖":10151,"팗":10152,"팘":10153,"팙":10154,"팚":10155,"팛":10156,"팜":10157,"팝":10158,"팞":10159,"팟":10160,"팠":10161,"팡":10162,"팢":10163,"팣":10164,"팤":10165,"팥":10166,"팦":10167,"팧":10168,"패":10169,"팩":10170,"팪":10171,"팫":10172,"팬":10173,"팭":10174,"팮":10175,"팯":10176,"팰":10177,"팱":10178,"팲":10179,"팳":10180,"팴":10181,"팵":10182,"팶":10183,"팷":10184,"팸":10185,"팹":10186,"팺":10187,"팻":10188,"팽":10189,"팾":10190,"팿":10191,"퍀":10192,"퍁":10193,"퍂":10194,"퍃":10195,"퍄":10196,"퍅":10197,"퍆":10198,"퍇":10199,"퍈":10200,"퍉":10201,"퍊":10202,"퍋":10203,"퍌":10204,"퍍":10205,"퍎":10206,"퍏":10207,"퍐":10208,"퍑":10209,"퍒":10210,"퍓":10211,"퍔":10212,"퍕":10213,"퍖":10214,"퍗":10215,"퍘":10216,"퍙":10217,"퍚":10218,"퍛":10219,"퍜":10220,"퍝":10221,"퍞":10222,"퍟":10223,"퍠":10224,"퍡":10225,"퍢":10226,"퍣":10227,"퍤":10228,"퍥":10229,"퍦":10230,"퍧":10231,"퍨":10232,"퍩":10233,"퍪":10234,"퍫":10235,"퍬":10236,"퍭":10237,"퍮":10238,"퍯":10239,"퍰":10240,"퍱":10241,"퍲":10242,"퍳":10243,"퍴":10244,"퍵":10245,"퍶":10246,"퍷":10247,"퍸":10248,"퍹":10249,"퍺":10250,"퍻":10251,"퍼":10252,"퍽":10253,"퍾":10254,"퍿":10255,"펀":10256,"펁":10257,"펂":10258,"펃":10259,"펄":10260,"펅":10261,"펆":10262,"펇":10263,"펈":10264,"펉":10265,"펊":10266,"펋":10267,"펌":10268,"펍":10269,"펎":10270,"펏":10271,"펐":10272,"펑":10273,"펒":10274,"펓":10275,"펔":10276,"펕":10277,"펖":10278,"펗":10279,"페":10280,"펙":10281,"펚":10282,"펛":10283,"펜":10284,"펝":10285,"펞":10286,"펟":10287,"펠":10288,"펡":10289,"펢":10290,"펣":10291,"펤":10292,"펥":10293,"펦":10294,"펧":10295,"펨":10296,"펩":10297,"펪":10298,"펫":10299,"펬":10300,"펭":10301,"펮":10302,"펯":10303,"펰":10304,"펱":10305,"펲":10306,"펳":10307,"펴":10308,"펵":10309,"펶":10310,"펷":10311,"편":10312,"펹":10313,"펺":10314,"펻":10315,"펼":10316,"펽":10317,"펾":10318,"펿":10319,"폀":10320,"폁":10321,"폂":10322,"폃":10323,"폄":10324,"폅":10325,"폆":10326,"폇":10327,"평":10328,"폊":10329,"폋":10330,"폌":10331,"폍":10332,"폎":10333,"폏":10334,"폐":10335,"폑":10336,"폒":10337,"폓":10338,"폔":10339,"폕":10340,"폖":10341,"폗":10342,"폘":10343,"폙":10344,"폚":10345,"폛":10346,"폜":10347,"폝":10348,"폞":10349,"폟":10350,"폠":10351,"폡":10352,"폢":10353,"폣":10354,"폤":10355,"폥":10356,"폦":10357,"폧":10358,"폨":10359,"폩":10360,"폪":10361,"폫":10362,"포":10363,"폭":10364,"폮":10365,"폯":10366,"폰":10367,"폱":10368,"폲":10369,"폳":10370,"폴":10371,"폵":10372,"폶":10373,"폷":10374,"폸":10375,"폹":10376,"폺":10377,"폻":10378,"폼":10379,"폽":10380,"폾":10381,"폿":10382,"퐀":10383,"퐁":10384,"퐂":10385,"퐃":10386,"퐄":10387,"퐅":10388,"퐆":10389,"퐇":10390,"퐈":10391,"퐉":10392,"퐊":10393,"퐋":10394,"퐌":10395,"퐍":10396,"퐎":10397,"퐏":10398,"퐐":10399,"퐑":10400,"퐒":10401,"퐓":10402,"퐔":10403,"퐕":10404,"퐖":10405,"퐗":10406,"퐘":10407,"퐙":10408,"퐚":10409,"퐛":10410,"퐜":10411,"퐝":10412,"퐞":10413,"퐟":10414,"퐠":10415,"퐡":10416,"퐢":10417,"퐣":10418,"퐤":10419,"퐥":10420,"퐦":10421,"퐧":10422,"퐨":10423,"퐩":10424,"퐪":10425,"퐫":10426,"퐬":10427,"퐭":10428,"퐮":10429,"퐯":10430,"퐰":10431,"퐱":10432,"퐲":10433,"퐳":10434,"퐴":10435,"퐵":10436,"퐶":10437,"퐷":10438,"퐸":10439,"퐹":10440,"퐺":10441,"퐻":10442,"퐼":10443,"퐽":10444,"퐾":10445,"퐿":10446,"푀":10447,"푁":10448,"푂":10449,"푃":10450,"푄":10451,"푅":10452,"푆":10453,"푇":10454,"푈":10455,"푉":10456,"푊":10457,"푋":10458,"푌":10459,"푍":10460,"푎":10461,"푏":10462,"푐":10463,"푑":10464,"푒":10465,"푓":10466,"푔":10467,"푕":10468,"푖":10469,"푗":10470,"푘":10471,"푙":10472,"푚":10473,"푛":10474,"표":10475,"푝":10476,"푞":10477,"푟":10478,"푠":10479,"푡":10480,"푢":10481,"푣":10482,"푤":10483,"푥":10484,"푦":10485,"푧":10486,"푨":10487,"푩":10488,"푪":10489,"푫":10490,"푬":10491,"푭":10492,"푮":10493,"푯":10494,"푰":10495,"푱":10496,"푲":10497,"푳":10498,"푴":10499,"푵":10500,"푶":10501,"푷":10502,"푸":10503,"푹":10504,"푺":10505,"푻":10506,"푼":10507,"푽":10508,"푾":10509,"푿":10510,"풀":10511,"풁":10512,"풂":10513,"풃":10514,"풄":10515,"풅":10516,"풆":10517,"풇":10518,"품":10519,"풉":10520,"풊":10521,"풋":10522,"풌":10523,"풍":10524,"풎":10525,"풏":10526,"풐":10527,"풑":10528,"풒":10529,"풓":10530,"풔":10531,"풕":10532,"풖":10533,"풗":10534,"풘":10535,"풙":10536,"풚":10537,"풛":10538,"풜":10539,"풝":10540,"풞":10541,"풟":10542,"풠":10543,"풡":10544,"풢":10545,"풣":10546,"풤":10547,"풥":10548,"풦":10549,"풧":10550,"풨":10551,"풩":10552,"풪":10553,"풫":10554,"풬":10555,"풭":10556,"풮":10557,"풯":10558,"풰":10559,"풱":10560,"풲":10561,"풳":10562,"풴":10563,"풵":10564,"풶":10565,"풷":10566,"풸":10567,"풹":10568,"풺":10569,"풻":10570,"풼":10571,"풽":10572,"풾":10573,"풿":10574,"퓀":10575,"퓁":10576,"퓂":10577,"퓃":10578,"퓄":10579,"퓅":10580,"퓆":10581,"퓇":10582,"퓈":10583,"퓉":10584,"퓊":10585,"퓋":10586,"퓌":10587,"퓍":10588,"퓎":10589,"퓏":10590,"퓐":10591,"퓑":10592,"퓒":10593,"퓓":10594,"퓔":10595,"퓕":10596,"퓖":10597,"퓗":10598,"퓘":10599,"퓙":10600,"퓚":10601,"퓛":10602,"퓜":10603,"퓝":10604,"퓞":10605,"퓟":10606,"퓠":10607,"퓡":10608,"퓢":10609,"퓣":10610,"퓤":10611,"퓥":10612,"퓦":10613,"퓧":10614,"퓨":10615,"퓩":10616,"퓪":10617,"퓫":10618,"퓬":10619,"퓭":10620,"퓮":10621,"퓯":10622,"퓰":10623,"퓱":10624,"퓲":10625,"퓳":10626,"퓴":10627,"퓵":10628,"퓶":10629,"퓷":10630,"퓸":10631,"퓹":10632,"퓺":10633,"퓻":10634,"퓼":10635,"퓽":10636,"퓾":10637,"퓿":10638,"픀":10639,"픁":10640,"픂":10641,"픃":10642,"프":10643,"픅":10644,"픆":10645,"픇":10646,"픈":10647,"픉":10648,"픊":10649,"픋":10650,"플":10651,"픍":10652,"픎":10653,"픏":10654,"픐":10655,"픑":10656,"픒":10657,"픓":10658,"픔":10659,"픕":10660,"픖":10661,"픗":10662,"픘":10663,"픙":10664,"픚":10665,"픛":10666,"픜":10667,"픝":10668,"픞":10669,"픟":10670,"픠":10671,"픡":10672,"픢":10673,"픣":10674,"픤":10675,"픥":10676,"픦":10677,"픧":10678,"픨":10679,"픩":10680,"픪":10681,"픫":10682,"픬":10683,"픭":10684,"픮":10685,"픯":10686,"픰":10687,"픱":10688,"픲":10689,"픳":10690,"픴":10691,"픵":10692,"픶":10693,"픷":10694,"픸":10695,"픹":10696,"픺":10697,"픻":10698,"피":10699,"픽":10700,"픾":10701,"픿":10702,"핀":10703,"핁":10704,"핂":10705,"핃":10706,"필":10707,"핅":10708,"핆":10709,"핇":10710,"핈":10711,"핉":10712,"핊":10713,"핋":10714,"핌":10715,"핍":10716,"핎":10717,"핏":10718,"핐":10719,"핑":10720,"핒":10721,"핓":10722,"핔":10723,"핕":10724,"핖":10725,"핗":10726,"하":10727,"학":10728,"핚":10729,"핛":10730,"한":10731,"핝":10732,"핞":10733,"핟":10734,"할":10735,"핡":10736,"핢":10737,"핣":10738,"핤":10739,"핥":10740,"핦":10741,"핧":10742,"함":10743,"합":10744,"핪":10745,"핫":10746,"핬":10747,"항":10748,"핮":10749,"핯":10750,"핰":10751,"핱":10752,"핲":10753,"핳":10754,"해":10755,"핵":10756,"핶":10757,"핷":10758,"핸":10759,"핹":10760,"핺":10761,"핻":10762,"핼":10763,"핽":10764,"핾":10765,"핿":10766,"햀":10767,"햁":10768,"햂":10769,"햃":10770,"햄":10771,"햅":10772,"햆":10773,"햇":10774,"했":10775,"행":10776,"햊":10777,"햋":10778,"햌":10779,"햍":10780,"햎":10781,"햏":10782,"햐":10783,"햑":10784,"햒":10785,"햓":10786,"햔":10787,"햕":10788,"햖":10789,"햗":10790,"햘":10791,"햙":10792,"햚":10793,"햛":10794,"햜":10795,"햝":10796,"햞":10797,"햟":10798,"햠":10799,"햡":10800,"햢":10801,"햣":10802,"햤":10803,"향":10804,"햦":10805,"햧":10806,"햨":10807,"햩":10808,"햪":10809,"햫":10810,"햬":10811,"햭":10812,"햮":10813,"햯":10814,"햰":10815,"햱":10816,"햲":10817,"햳":10818,"햴":10819,"햵":10820,"햶":10821,"햷":10822,"햸":10823,"햹":10824,"햺":10825,"햻":10826,"햼":10827,"햽":10828,"햾":10829,"햿":10830,"헁":10831,"헂":10832,"헃":10833,"헄":10834,"헅":10835,"헆":10836,"헇":10837,"허":10838,"헉":10839,"헊":10840,"헋":10841,"헌":10842,"헍":10843,"헎":10844,"헏":10845,"헐":10846,"헑":10847,"헒":10848,"헓":10849,"헔":10850,"헕":10851,"헖":10852,"헗":10853,"험":10854,"헙":10855,"헚":10856,"헛":10857,"헝":10858,"헞":10859,"헟":10860,"헠":10861,"헡":10862,"헢":10863,"헣":10864,"헤":10865,"헥":10866,"헦":10867,"헧":10868,"헨":10869,"헩":10870,"헪":10871,"헫":10872,"헬":10873,"헭":10874,"헮":10875,"헯":10876,"헰":10877,"헱":10878,"헲":10879,"헳":10880,"헴":10881,"헵":10882,"헶":10883,"헷":10884,"헹":10885,"헺":10886,"헻":10887,"헼":10888,"헽":10889,"헾":10890,"헿":10891,"혀":10892,"혁":10893,"혂":10894,"혃":10895,"현":10896,"혅":10897,"혆":10898,"혇":10899,"혈":10900,"혉":10901,"혊":10902,"혋":10903,"혌":10904,"혍":10905,"혎":10906,"혏":10907,"혐":10908,"협":10909,"혒":10910,"혓":10911,"혔":10912,"형":10913,"혖":10914,"혗":10915,"혘":10916,"혙":10917,"혚":10918,"혛":10919,"혜":10920,"혝":10921,"혞":10922,"혟":10923,"혠":10924,"혡":10925,"혢":10926,"혣":10927,"혤":10928,"혥":10929,"혦":10930,"혧":10931,"혨":10932,"혩":10933,"혪":10934,"혫":10935,"혬":10936,"혭":10937,"혮":10938,"혯":10939,"혰":10940,"혱":10941,"혲":10942,"혳":10943,"혴":10944,"혵":10945,"혶":10946,"혷":10947,"호":10948,"혹":10949,"혺":10950,"혻":10951,"혼":10952,"혽":10953,"혾":10954,"혿":10955,"홀":10956,"홁":10957,"홂":10958,"홃":10959,"홄":10960,"홅":10961,"홆":10962,"홇":10963,"홈":10964,"홉":10965,"홊":10966,"홋":10967,"홌":10968,"홍":10969,"홎":10970,"홏":10971,"홐":10972,"홑":10973,"홒":10974,"홓":10975,"화":10976,"확":10977,"홖":10978,"홗":10979,"환":10980,"홙":10981,"홚":10982,"홛":10983,"활":10984,"홝":10985,"홞":10986,"홟":10987,"홠":10988,"홡":10989,"홢":10990,"홣":10991,"홤":10992,"홥":10993,"홦":10994,"홧":10995,"홨":10996,"황":10997,"홪":10998,"홫":10999,"홬":11000,"홭":11001,"홮":11002,"홯":11003,"홰":11004,"홱":11005,"홲":11006,"홳":11007,"홴":11008,"홵":11009,"홶":11010,"홷":11011,"홸":11012,"홹":11013,"홺":11014,"홻":11015,"홼":11016,"홽":11017,"홾":11018,"홿":11019,"횀":11020,"횁":11021,"횂":11022,"횃":11023,"횄":11024,"횅":11025,"횆":11026,"횇":11027,"횈":11028,"횉":11029,"횊":11030,"횋":11031,"회":11032,"획":11033,"횎":11034,"횏":11035,"횐":11036,"횑":11037,"횒":11038,"횓":11039,"횔":11040,"횕":11041,"횖":11042,"횗":11043,"횘":11044,"횙":11045,"횚":11046,"횛":11047,"횜":11048,"횝":11049,"횞":11050,"횟":11051,"횠":11052,"횡":11053,"횢":11054,"횣":11055,"횤":11056,"횥":11057,"횦":11058,"횧":11059,"효":11060,"횩":11061,"횪":11062,"횫":11063,"횬":11064,"횭":11065,"횮":11066,"횯":11067,"횰":11068,"횱":11069,"횲":11070,"횳":11071,"횴":11072,"횵":11073,"횶":11074,"횷":11075,"횸":11076,"횹":11077,"횺":11078,"횻":11079,"횼":11080,"횽":11081,"횾":11082,"횿":11083,"훀":11084,"훁":11085,"훂":11086,"훃":11087,"후":11088,"훅":11089,"훆":11090,"훇":11091,"훈":11092,"훉":11093,"훊":11094,"훋":11095,"훌":11096,"훍":11097,"훎":11098,"훏":11099,"훐":11100,"훑":11101,"훒":11102,"훓":11103,"훔":11104,"훕":11105,"훖":11106,"훗":11107,"훘":11108,"훙":11109,"훚":11110,"훛":11111,"훜":11112,"훝":11113,"훞":11114,"훟":11115,"훠":11116,"훡":11117,"훢":11118,"훣":11119,"훤":11120,"훥":11121,"훦":11122,"훧":11123,"훨":11124,"훩":11125,"훪":11126,"훫":11127,"훬":11128,"훭":11129,"훮":11130,"훯":11131,"훰":11132,"훱":11133,"훲":11134,"훳":11135,"훴":11136,"훵":11137,"훶":11138,"훷":11139,"훸":11140,"훹":11141,"훺":11142,"훻":11143,"훼":11144,"훽":11145,"훾":11146,"훿":11147,"휀":11148,"휁":11149,"휂":11150,"휃":11151,"휄":11152,"휅":11153,"휆":11154,"휇":11155,"휈":11156,"휉":11157,"휊":11158,"휋":11159,"휌":11160,"휍":11161,"휎":11162,"휏":11163,"휐":11164,"휑":11165,"휒":11166,"휓":11167,"휔":11168,"휕":11169,"휖":11170,"휗":11171,"휘":11172,"휙":11173,"휚":11174,"휛":11175,"휜":11176,"휝":11177,"휞":11178,"휟":11179,"휠":11180,"휡":11181,"휢":11182,"휣":11183,"휤":11184,"휥":11185,"휦":11186,"휧":11187,"휨":11188,"휩":11189,"휪":11190,"휫":11191,"휬":11192,"휭":11193,"휮":11194,"휯":11195,"휰":11196,"휱":11197,"휲":11198,"휳":11199,"휴":11200,"휵":11201,"휶":11202,"휷":11203,"휸":11204,"휹":11205,"휺":11206,"휻":11207,"휼":11208,"휽":11209,"휾":11210,"휿":11211,"흀":11212,"흁":11213,"흂":11214,"흃":11215,"흄":11216,"흅":11217,"흆":11218,"흇":11219,"흈":11220,"흉":11221,"흊":11222,"흋":11223,"흌":11224,"흍":11225,"흎":11226,"흏":11227,"흐":11228,"흑":11229,"흒":11230,"흓":11231,"흔":11232,"흕":11233,"흖":11234,"흗":11235,"흘":11236,"흙":11237,"흚":11238,"흛":11239,"흜":11240,"흝":11241,"흞":11242,"흟":11243,"흠":11244,"흡":11245,"흢":11246,"흣":11247,"흤":11248,"흥":11249,"흦":11250,"흧":11251,"흨":11252,"흩":11253,"흪":11254,"흫":11255,"희":11256,"흭":11257,"흮":11258,"흯":11259,"흰":11260,"흱":11261,"흲":11262,"흳":11263,"흵":11264,"흶":11265,"흷":11266,"흸":11267,"흹":11268,"흺":11269,"흻":11270,"흼":11271,"흽":11272,"흾":11273,"흿":11274,"힀":11275,"힁":11276,"힂":11277,"힃":11278,"힄":11279,"힅":11280,"힆":11281,"힇":11282,"히":11283,"힉":11284,"힊":11285,"힋":11286,"힌":11287,"힍":11288,"힎":11289,"힏":11290,"힐":11291,"힑":11292,"힒":11293,"힓":11294,"힔":11295,"힕":11296,"힖":11297,"힗":11298,"힘":11299,"힙":11300,"힚":11301,"힛":11302,"힜":11303,"힝":11304,"힞":11305,"힟":11306,"힠":11307,"힡":11308,"힢":11309,"힣":11310,"##석":11311,"##주":11312,"##교":11313,"##산":11314,"##채":11315,"##왕":11316,"##시":11317,"##나":11318,"##이":11319,"##크":11320,"##넷":11321,"##양":11322,"##중":11323,"##c":11324,"##h":11325,"##l":11326,"##e":11327,"##t":11328,"##n":11329,"##판":11330,"##매":11331,"##장":11332,"##원":11333,"##근":11334,"##흥":11335,"##리":11336,"##고":11337,"##분":11338,"##철":11339,"##r":11340,"##a":11341,"##i":11342,"##p":11343,"##k":11344,"##변":11345,"##배":11346,"##지":11347,"##동":11348,"##증":11349,"##류":11350,"##버":11351,"##프":11352,"##기":11353,"##하":11354,"##카":11355,"##브":11356,"##드":11357,"##니":11358,"##어":11359,"##위":11360,"##공":11361,"##체":11362,"##도":11363,"##구":11364,"##만":11365,"##천":11366,"##신":11367,"##군":11368,"##급":11369,"##노":11370,"##티":11371,"##코":11372,"##스":11373,"##미":11374,"##과":11375,"##망":11376,"##빼":11377,"##u":11378,"##w":11379,"##d":11380,"##y":11381,"##단":11382,"##실":11383,"##학":11384,"##생":11385,"##탈":11386,"##의":11387,"##략":11388,"##집":11389,"##가":11390,"##게":11391,"##s":11392,"##o":11393,"##세":11394,"##대":11395,"##창":11396,"##요":11397,"##부":11398,"##문":11399,"##디":11400,"##안":11401,"##자":11402,"##언":11403,"##트":11404,"##포":11405,"##레":11406,"##전":11407,"##갈":11408,"##순":11409,"##환":11410,"##선":11411,"##출":11412,"##사":11413,"##회":11414,"##당":11415,"##진":11416,"##숙":11417,"##느":11418,"##갑":11419,"##등":11420,"##민":11421,"##슈":11422,"##와":11423,"##는":11424,"##쿠":11425,"##테":11426,"##타":11427,"##오":11428,"##추":11429,"##든":11430,"##라":11431,"##간":11432,"##손":11433,"##밸":11434,"##께":11435,"##균":11436,"##m":11437,"##b":11438,"##점":11439,"##령":11440,"##마":11441,"##초":11442,"##청":11443,"##톤":11444,"##틀":11445,"##릿":11446,"##츠":11447,"##우":11448,"##상":11449,"##국":11450,"##그":11451,"##소":11452,"##칭":11453,"##행":11454,"##틴":11455,"##식":11456,"##예":11457,"##호":11458,"##녀":11459,"##조":11460,"##심":11461,"##D":11462,"##V":11463,"##I":11464,"##금":11465,"##머":11466,"##항":11467,"##불":11468,"##병":11469,"##재":11470,"##보":11471,"##촉":11472,"##차":11473,"##처":11474,"##면":11475,"##6":11476,"##2":11477,"##9":11478,"##7":11479,"##1":11480,"##g":11481,"##광":11482,"##푸":11483,"##권":11484,"##최":11485,"##표":11486,"##무":11487,"##물":11488,"##4":11489,"##0":11490,"##3":11491,"##래":11492,"##합":11493,"##르":11494,"##육":11495,"##터":11496,"##같":11497,"##역":11498,"##비":11499,"##탄":11500,"##클":11501,"##럽":11502,"##E":11503,"##A":11504,"##S":11505,"##T":11506,"##R":11507,"##바":11508,"##K":11509,"##험":11510,"##끝":11511,"##임":11512,"##축":11513,"##현":11514,"##성":11515,"##설":11516,"##형":11517,"##개":11518,"##록":11519,"##승":11520,"##헬":11521,"##로":11522,"##피":11523,"##감":11524,"##담":11525,"##은":11526,"##살":11527,"##편":11528,"##곡":11529,"##견":11530,"##해":11531,"##놉":11532,"##란":11533,"##던":11534,"##족":11535,"##정":11536,"##럭":11537,"##치":11538,"##있":11539,"##f":11540,"##릴":11541,"##알":11542,"##튼":11543,"##톱":11544,"##괴":11545,"##제":11546,"##통":11547,"##화":11548,"##외":11549,"##방":11550,"##송":11551,"##없":11552,"##찐":11553,"##뇌":11554,"##격":11555,"##러":11556,"##난":11557,"##여":11558,"##옷":11559,"##건":11560,"##모":11561,"##절":11562,"##덕":11563,"##패":11564,"##백":11565,"##귀":11566,"##일":11567,"##들":11568,"##십":11569,"##수":11570,"##남":11571,"##링":11572,"##겐":11573,"##발":11574,"##충":11575,"##돌":11576,"##빙":11577,"##착":11578,"##값":11579,"##엽":11580,"##메":11581,"##즈":11582,"##ㅋ":11583,"##굳":11584,"##파":11585,"##B":11586,"##렛":11587,"##인":11588,"##막":11589,"##경":11590,"##골":11591,"##길":11592,"##독":11593,"##아":11594,"##z":11595,"##법":11596,"##평":11597,"##검":11598,"##다":11599,"##염":11600,"##쿄":11601,"##훈":11602,"##엘":11603,"##루":11604,"##때":11605,"##작":11606,"##한":11607,"##꼬":11608,"##너":11609,"##붙":11610,"##영":11611,"##강":11612,"##내":11613,"##황":11614,"##잇":11615,"##컵":11616,"##베":11617,"##퍼":11618,"##더":11619,"##각":11620,"##접":11621,"##둑":11622,"##계":11623,"##을":11624,"##떻":11625,"##Y":11626,"##뽄":11627,"##토":11628,"##갓":11629,"##센":11630,"##뒤":11631,"##눅":11632,"##콘":11633,"##솔":11634,"##v":11635,"##복":11636,"##폐":11637,"##거":11638,"##적":11639,"##운":11640,"##못":11641,"##궈":11642,"##텍":11643,"##깔":11644,"##관":11645,"##쟁":11646,"##활":11647,"##P":11648,"##챌":11649,"##린":11650,"##뎀":11651,"##속":11652,"##벤":11653,"##컬":11654,"##페":11655,"##벌":11656,"##유":11657,"##닛":11658,"##야":11659,"##월":11660,"##울":11661,"##애":11662,"##후":11663,"##연":11664,"##맹":11665,"##네":11666,"##객":11667,"##앞":11668,"##서":11669,"##윤":11670,"##력":11671,"##M":11672,"##헥":11673,"##앵":11674,"##람":11675,"##업":11676,"##핵":11677,"##필":11678,"##특":11679,"##휙":11680,"##펙":11681,"##닝":11682,"##윗":11683,"##획":11684,"##플":11685,"##랫":11686,"##폼":11687,"##약":11688,"##욱":11689,"##키":11690,"##웨":11691,"##료":11692,"##례":11693,"##림":11694,"##먼":11695,"##L":11696,"##O":11697,"##맨":11698,"##몽":11699,"##릭":11700,"##데":11701,"##옥":11702,"##용":11703,"##닉":11704,"##목":11705,"##5":11706,"##에":11707,"##움":11708,"##캇":11709,"##롱":11710,"##색":11711,"##냅":11712,"##흐":11713,"##올":11714,"##납":11715,"##j":11716,"##름":11717,"##굿":11718,"##본":11719,"##협":11720,"##넌":11721,"##잠":11722,"##뷰":11723,"##효":11724,"##측":11725,"##암":11726,"##댐":11727,"##팟":11728,"##섬":11729,"##묵":11730,"##누":11731,"##박":11732,"##춤":11733,"##입":11734,"##글":11735,"##x":11736,"##딘":11737,"##블":11738,"##젤":11739,"##존":11740,"##풍":11741,"##킴":11742,"##날":11743,"##짜":11744,"##락":11745,"##N":11746,"##폰":11747,"##젼":11748,"##엔":11749,"##명":11750,"##웃":11751,"##별":11752,"##악":11753,"##봉":11754,"##냥":11755,"##커":11756,"##척":11757,"##련":11758,"##널":11759,"##태":11760,"##종":11761,"##셔":11762,"##량":11763,"##탁":11764,"##함":11765,"##찌":11766,"##론":11767,"##삼":11768,"##팔":11769,"##뢰":11770,"##능":11771,"##및":11772,"##렐":11773,"##U":11774,"##C":11775,"##켄":11776,"##두":11777,"##찰":11778,"##북":11779,"##참":11780,"##범":11781,"##겔":11782,"##융":11783,"##책":11784,"##케":11785,"##팀":11786,"##직":11787,"##높":11788,"##핀":11789,"##텔":11790,"##곳":11791,"##취":11792,"##렌":11793,"##썸":11794,"##띵":11795,"##투":11796,"##열":11797,"##음":11798,"##}":11799,"##,":11800,"##랑":11801,"##킥":11802,"##짝":11803,"##반":11804,"##율":11805,"##떼":11806,"##둥":11807,"##징":11808,"##규":11809,"##습":11810,"##(":11811,"##)":11812,"##술":11813,"##G":11814,"##q":11815,"##낭":11816,"##렬":11817,"##닌":11818,"##륵":11819,"##년":11820,"##벨":11821,"##뫼":11822,"##벼":11823,"##씨":11824,"##립":11825,"##논":11826,"##8":11827,"##끄":11828,"##럼":11829,"##향":11830,"##런":11831,"##히":11832,"##짱":11833,"##휴":11834,"##션":11835,"##칠":11836,"##섯":11837,"##쇼":11838,"##텐":11839,"##밥":11840,"##저":11841,"##층":11842,"##.":11843,"##냐":11844,"##맥":11845,"##흡":11846,"##H":11847,"##W":11848,"##깨":11849,"##걸":11850,"##질":11851,"##쯔":11852,"##른":11853,"##쪽":11854,"##펴":11855,"##넬":11856,"##싹":11857,"##뉴":11858,"##웅":11859,"##촌":11860,"##농":11861,"##X":11862,"##달":11863,"##멜":11864,"##?":11865,"##좌":11866,"##첨":11867,"##압":11868,"##팡":11869,"##딱":11870,"##말":11871,"##온":11872,"##웩":11873,"##총":11874,"##밴":11875,"##띄":11876,"##팅":11877,"##였":11878,"##결":11879,"##를":11880,"##딩":11881,"##덜":11882,"##렁":11883,"##혼":11884,"##탕":11885,"##콜":11886,"##앗":11887,"##춘":11888,"##펫":11889,"##홍":11890,"##닥":11891,"##켓":11892,"##쇠":11893,"##폭":11894,"##숲":11895,"##혈":11896,"##씬":11897,"##새":11898,"##잘":11899,"##큐":11900,"##폴":11901,"##몇":11902,"##칙":11903,"##룡":11904,"##톰":11905,"##ㅂ":11906,"##ㅎ":11907,"##ㄱ":11908,"##뱃":11909,"##휘":11910,"##룹":11911,"##멤":11912,"##돈":11913,"##빈":11914,"##홈":11915,"##죄":11916,"##펄":11917,"##F":11918,"##으":11919,"##옵":11920,"##엠":11921,"##희":11922,"##곽":11923,"##슬":11924,"##램":11925,"##혜":11926,"##늑":11927,"##응":11928,"##혁":11929,"##김":11930,"##찬":11931,"##ㅢ":11932,"##ㅍ":11933,"##붕":11934,"##돔":11935,"##빌":11936,"##숫":11937,"##캐":11938,"##삭":11939,"##즘":11940,"##극":11941,"##따":11942,"##쥐":11943,"##엄":11944,"##륙":11945,"##번":11946,"##캠":11947,"##맘":11948,"##쪼":11949,"##랜":11950,"##짓":11951,"##몰":11952,"##뜨":11953,"##싸":11954,"##놀":11955,"##굴":11956,"##쭈":11957,"##볼":11958,"##윈":11959,"##퀴":11960,"##탯":11961,"##밑":11962,"##억":11963,"##멸":11964,"##켕":11965,"##델":11966,"##뮤":11967,"##솜":11968,"##칸":11969,"##밀":11970,"##확":11971,"##뿐":11972,"##빠":11973,"##쓰":11974,"##퉁":11975,"##밭":11976,"##헌":11977,"##읍":11978,"##셋":11979,"##것":11980,"##뵈":11981,"##픽":11982,"##궁":11983,"##률":11984,"##짐":11985,"##념":11986,"##쉬":11987,"##콤":11988,"##킷":11989,"##샤":11990,"##룩":11991,"##곤":11992,"##킬":11993,"##듣":11994,"##녕":11995,"##퇴":11996,"##슨":11997,"##앰":11998,"##]":11999,"##\\":12000,"##멍":12001,"##랍":12002,"##품":12003,"##멘":12004,"##빛":12005,"##쿨":12006,"##헤":12007,"##럴":12008,"##콕":12009,"##끼":12010,"##텝":12011,"##둠":12012,"##겜":12013,"##J":12014,"##챙":12015,"##쏘":12016,"##Q":12017,"##눈":12018,"##랙":12019,"##엉":12020,"##턴":12021,"##컴":12022,"##퓨":12023,"##웰":12024,"##숍":12025,"##뷔":12026,"##님":12027,"##곰":12028,"##묘":12029,"##셉":12030,"##잭":12031,"##ㄲ":12032,"##ᅡ":12033,"##ᄁ":12034,"##ᅩ":12035,"##긴":12036,"##쉰":12037,"##벽":12038,"##짤":12039,"##늄":12040,"##익":12041,"##즌":12042,"##홀":12043,"##죽":12044,"##욕":12045,"##콩":12046,"##완":12047,"##얼":12048,"##껌":12049,"##밍":12050,"##준":12051,"##덮":12052,"##셀":12053,"##룰":12054,"##퍽":12055,"##밉":12056,"##촬":12057,"##랠":12058,"##렉":12059,"##롯":12060,"##튜":12061,"##릉":12062,"##롬":12063,"##딜":12064,"##뇨":12065,"##ㄹ":12066,"##싱":12067,"##잔":12068,"##혹":12069,"##꿀":12070,"##캬":12071,"##겁":12072,"##틸":12073,"##ㄴ":12074,"##땃":12075,"##핍":12076,"##깟":12077,"##쉐":12078,"##허":12079,"##또":12080,"##븐":12081,"##룸":12082,"##뤽":12083,"##템":12084,"##굽":12085,"##워":12086,"##털":12087,"##셜":12088,"##샵":12089,"##ㅣ":12090,"##풋":12091,"##댕":12092,"##댓":12093,"##렘":12094,"##훼":12095,"##할":12096,"##택":12097,"##닾":12098,"##쇄":12099,"##롤":12100,"##친":12101,"##줄":12102,"##답":12103,"##덴":12104,"##왼":12105,"##깥":12106,"##젠":12107,"##롸":12108,"##쏼":12109,"##꽃":12110,"##켈":12111,"##촨":12112,"##갸":12113,"##쟝":12114,"##셰":12115,"##려":12116,"##옴":12117,"##풀":12118,"##탱":12119,"##Z":12120,"##탑":12121,"##픠":12122,"##죠":12123,"##잡":12124,"##낙":12125,"##몹":12126,"##컷":12127,"##듈":12128,"##쒸":12129,"##맛":12130,"##섭":12131,"##겸":12132,"##돼":12133,"##덱":12134,"##눌":12135,"##캡":12136,"##칵":12137,"##쥬":12138,"##떨":12139,"##'":12140,"##쿤":12141,"##몬":12142,"##툰":12143,"##되":12144,"##웍":12145,"##앤":12146,"##놈":12147,"##힌":12148,"##ㅝ":12149,"##ㄽ":12150,"##킹":12151,"##켜":12152,"##웹":12153,"##탐":12154,"##*":12155,"##앓":12156,"##횟":12157,"##칼":12158,"##덩":12159,"##펀":12160,"##붉":12161,"##ㅡ":12162,"##써":12163,"##빅":12164,"##퐁":12165,"##얌":12166,"##믿":12167,"##푼":12168,"##맵":12169,"##쳐":12170,"##옹":12171,"##짬":12172,"##뽕":12173,"##빨":12174,"##쌀":12175,"##앙":12176,"##앱":12177,"##흔":12178,"##쟈":12179,"##윌":12180,"##랭":12181,"##팬":12182,"##늘":12183,"##펭":12184,"##귄":12185,"##멈":12186,"##뚝":12187,"##갤":12188,"##턱":12189,"##섀":12190,"##녹":12191,"##윳":12192,"##굣":12193,"##옐":12194,"##퀘":12195,"##랏":12196,"##괄":12197,"##득":12198,"##팽":12199,"##침":12200,"##룬":12201,"##뚜":12202,"##ᅨ":12203,"##콥":12204,"##뻘":12205,"##핫":12206,"##멋":12207,"##깃":12208,"##듀":12209,"##ㅈ":12210,"##깡":12211,"##랄":12212,"##꿈":12213,"##큔":12214,"##픈":12215,"##늬":12216,"##둔":12217,"##츄":12218,"##댄":12219,"##닷":12220,"##캘":12221,"##액":12222,"##맡":12223,"##져":12224,"##긍":12225,"##큼":12226,"##웜":12227,"##$":12228,"##귤":12229,"##햄":12230,"##몸":12231,"##킨":12232,"##멀":12233,"##옆":12234,"##걀":12235,"##찾":12236,"##쉽":12237,"##빔":12238,"##넛":12239,"##꼴":12240,"##꿇":12241,"##삽":12242,"##맞":12243,"##톳":12244,"##쓸":12245,"##첸":12246,"##쵸":12247,"##ㅁ":12248,"##닐":12249,"##뎅":12250,"##엑":12251,"##먹":12252,"##긔":12253,"##꽥":12254,"##핑":12255,"##컁":12256,"##윕":12257,"##딕":12258,"##웬":12259,"##왑":12260,"##쉴":12261,"##샷":12262,"##받":12263,"##빡":12264,"##첩":12265,"##헨":12266,"##훌":12267,"##윙":12268,"##빕":12269,"##쿰":12270,"##끈":12271,"##탓":12272,"##겨":12273,"##녘":12274,"##며":12275,"##떡":12276,"##봄":12277,"##릎":12278,"##젯":12279,"##궤":12280,"##흣":12281,"##팩":12282,"##둘":12283,"##ᅳ":12284,"##ᄃ":12285,"##ᅥ":12286,"##ᆫ":12287,"##뭉":12288,"##톡":12289,"##ㅜ":12290,"##랩":12291,"##ᅧ":12292,"##ᄂ":12293,"##ᅣ":12294,"##벳":12295,"##캣":12296,"##켐":12297,"##롭":12298,"##펌":12299,"##칩":12300,"##벅":12301,"##힛":12302,"##땅":12303,"##왈":12304,"##긋":12305,"##잎":12306,"##륜":12307,"##봇":12308,"##벡":12309,"##좀":12310,"##탠":12311,"##넥":12312,"##듬":12313,"##렙":12314,"##엇":12315,"##눙":12316,"##까":12317,"##었":12318,"##슴":12319,"##멕":12320,"##옮":12321,"##좡":12322,"##챔":12323,"##맷":12324,"##뱀":12325,"##걱":12326,"##뚱":12327,"##믹":12328,"##컨":12329,"##흘":12330,"##녜":12331,"##죤":12332,"##쭉":12333,"##흠":12334,"##셸":12335,"##뒷":12336,"##-":12337,"##:":12338,"##틱":12339,"##샌":12340,"##쌍":12341,"##쿼":12342,"##즐":12343,"##캔":12344,"##ㅚ":12345,"##ㅆ":12346,"##딴":12347,"##ㅇ":12348,"##빵":12349,"###":12350,"##잉":12351,"##넨":12352,"##펠":12353,"##칡":12354,"##냉":12355,"##쏟":12356,"##뿔":12357,"##멧":12358,"##굉":12359,"##툴":12360,"##곷":12361,"##덤":12362,"##꿍":12363,"##탬":12364,"##된":12365,"##뮬":12366,"##뿌":12367,"##슛":12368,"##흑":12369,"##밖":12370,"##딧":12371,"##뱅":12372,"##슐":12373,"##팝":12374,"##핸":12375,"##왓":12376,"##돕":12377,"##샬":12378,"##ㅄ":12379,"##촵":12380,"##줌":12381,"##쌔":12382,"##튀":12383,"##뤼":12384,"##텀":12385,"##ᅵ":12386,"##ᅦ":12387,"##꺼":12388,"##밧":12389,"##ㄷ":12390,"##낮":12391,"##넣":12392,"##ᅮ":12393,"##ᄀ":12394,"##ᄅ":12395,"##ᅢ":12396,"##땡":12397,"##혀":12398,"##왜":12399,"##챠":12400,"##힐":12401,"##꿩":12402,"##밤":12403,"##룽":12404,"##닭":12405,"##쩨":12406,"##렇":12407,"##찢":12408,"##/":12409,"##쎄":12410,"##낸":12411,"##헹":12412,"##겅":12413,"##깐":12414,"##ㄿ":12415,"##찜":12416,"##곱":12417,"##빗":12418,"##숭":12419,"##겟":12420,"##헝":12421,"##젬":12422,"##옳":12423,"##홉":12424,"##뻥":12425,"##삿":12426,"##젝":12427,"##맴":12428,"##졸":12429,"##넓":12430,"##쉼":12431,"##톨":12432,"##ᄋ":12433,"##쑤":12434,"##캉":12435,"##갱":12436,"##숏":12437,"##샐":12438,"##캅":12439,"##뽀":12440,"##끌":12441,"##쩍":12442,"##쿡":12443,"##탭":12444,"##셴":12445,"##듭":12446,"##슘":12447,"##좋":12448,"##!":12449,"##\"":12450,"##힘":12451,"##촛":12452,"##욘":12453,"##얘":12454,"##놋":12455,"##렵":12456,"##뺑":12457,"##ㅅ":12458,"##;":12459,"##=":12460,"##뭐":12461,"##곁":12462,"##펑":12463,"##휠":12464,"##쥔":12465,"##혐":12466,"##룻":12467,"##쿈":12468,"##꼭":12469,"##똑":12470,"##팰":12471,"##%":12472,"##쯤":12473,"##ㅖ":12474,"##벗":12475,"##핌":12476,"##룀":12477,"##훤":12478,"##핏":12479,"##탤":12480,"##쨩":12481,"##딮":12482,"##걷":12483,"##얀":12484,"##훅":12485,"##퀸":12486,"##즙":12487,"##넘":12488,"##깻":12489,"##쌈":12490,"##삐":12491,"##ᄆ":12492,"##&":12493,"##낌":12494,"##똥":12495,"##붐":12496,"##ᆯ":12497,"##깽":12498,"##찍":12499,"##엣":12500,"##꾼":12501,"##잼":12502,"##솟":12503,"##뇽":12504,"##벵":12505,"##핥":12506,"##돤":12507,"##팜":12508,"##벰":12509,"##펜":12510,"##꾸":12511,"##_":12512,"##ᄍ":12513,"##땜":12514,"##뉘":12515,"##댁":12516,"##랸":12517,"##왔":12518,"##쿵":12519,"##셈":12520,"##엿":12521,"##ㅠ":12522,"##ㄻ":12523,"##앨":12524,"##숑":12525,"##ㅌ":12526,"##ㅊ":12527,"##쾨":12528,"##큰":12529,"##짧":12530,"##싯":12531,"##꼽":12532,"##췌":12533,"##씀":12534,"##뙈":12535,"##갭":12536,"##돋":12537,"##옌":12538,"##웁":12539,"##볏":12540,"##섹":12541,"##륭":12542,"##쥰":12543,"##쌤":12544,"##샘":12545,"##랴":12546,"##{":12547,"##펍":12548,"##끊":12549,"##옇":12550,"##돛":12551,"##ㅕ":12552,"##ㄳ":12553,"##퇸":12554,"##붑":12555,"##떤":12556,"##떠":12557,"##뻑":12558,"##듯":12559,"##ᄌ":12560,"##ᅭ":12561,"##콰":12562,"##ㄼ":12563,"##뼈":12564,"##므":12565,"##엮":12566,"##툼":12567,"##힙":12568,"##붓":12569,"##뭇":12570,"##튬":12571,"##~":12572,"##[":12573,"##촘":12574,"##맙":12575,"##낫":12576,"##렴":12577,"##콧":12578,"##깎":12579,"##굵":12580,"##첼":12581,"##뺏":12582,"##튕":12583,"##륨":12584,"##흩":12585,"##묻":12586,"##껍":12587,"##뻐":12588,"##끔":12589,"##눔":12590,"##캄":12591,"##숨":12592,"##ㄾ":12593,"##쳔":12594,"##갯":12595,"##깁":12596,"##햇":12597,"##텟":12598,"##젓":12599,"##놓":12600,"##좆":12601,"##볕":12602,"##넉":12603,"##녁":12604,"##슝":12605,"##츤":12606,"##랗":12607,"##늡":12608,"##흉":12609,"##횡":12610,"##겼":12611,"##썰":12612,"##퓌":12613,"##궐":12614,"##믈":12615,"##컹":12616,"##+":12617,"##늠":12618,"##릇":12619,"##쾌":12620,"##ㅐ":12621,"##ㄺ":12622,"##욤":12623,"##졍":12624,"##엌":12625,"##툇":12626,"##앉":12627,"##많":12628,"##딸":12629,"##갖":12630,"##겹":12631,"##샥":12632,"##ㅙ":12633,"##ㄵ":12634,"##낳":12635,"##괘":12636,"##큘":12637,"##썩":12638,"##꺾":12639,"##샹":12640,"##푹":12641,"##ㅓ":12642,"##ㅏ":12643,"##ㅗ":12644,"##뮐":12645,"##넝":12646,"##깊":12647,"##덟":12648,"##째":12649,"##끽":12650,"##흙":12651,"##깜":12652,"##@":12653,"##ㅑ":12654,"##퀑":12655,"##퀀":12656,"##쫑":12657,"##즉":12658,"##렸":12659,"##쩔":12660,"##샛":12661,"##찹":12662,"##ㅞ":12663,"##퀼":12664,"##삣":12665,"##꺽":12666,"##뾰":12667,"##꽝":12668,"##굼":12669,"##댑":12670,"##얄":12671,"##뛰":12672,"##뗑":12673,"##슽":12674,"##좨":12675,"##썽":12676,"##봊":12677,"##앚":12678,"##팍":12679,"##띠":12680,"##팁":12681,"##졌":12682,"##쒜":12683,"##깝":12684,"##벚":12685,"##냄":12686,"##훗":12687,"##텅":12688,"##딥":12689,"##눕":12690,"##뿅":12691,"##쭝":12692,"##젱":12693,"##깍":12694,"##쾅":12695,"##늦":12696,"##씽":12697,"##ㅛ":12698,"##찡":12699,"##뜸":12700,"##슭":12701,"##ᆺ":12702,"##뷘":12703,"##핡":12704,"##믐":12705,"##쉘":12706,"##쮸":12707,"##쨔":12708,"##젖":12709,"##뷜":12710,"##삠":12711,"##쩌":12712,"##곶":12713,"##맺":12714,"##쐐":12715,"##벙":12716,"##넴":12717,"##섞":12718,"##멩":12719,"##윷":12720,"##웡":12721,"##쟤":12722,"##꽂":12723,"##`":12724,"##윅":12725,"##쏭":12726,"##뻔":12727,"##셤":12728,"##엳":12729,"##삶":12730,"##넵":12731,"##ᄐ":12732,"##ᆷ":12733,"##뎐":12734,"##뽑":12735,"##빤":12736,"##밋":12737,"##샨":12738,"##끗":12739,"##닿":12740,"##릅":12741,"##틈":12742,"##뻗":12743,"##웻":12744,"##껑":12745,"##꼰":12746,"##뿡":12747,"##듐":12748,"##얍":12749,"##헐":12750,"##잣":12751,"##줏":12752,"##챰":12753,"##셍":12754,"##햐":12755,"##헣":12756,"##뇰":12757,"##힝":12758,"##묶":12759,"##ㅀ":12760,"##ㅟ":12761,"##ㄶ":12762,"##촐":12763,"##팻":12764,"##뮌":12765,"##럿":12766,"##꽁":12767,"##칫":12768,"##>":12769,"##<":12770,"##욥":12771,"##ㅒ":12772,"##윔":12773,"##팸":12774,"##찔":12775,"##캥":12776,"##돗":12777,"##않":12778,"##띔":12779,"##횃":12780,"##쑝":12781,"##ᄏ":12782,"##ᆻ":12783,"##닦":12784,"##숀":12785,"##헛":12786,"##낚":12787,"##큭":12788,"##훠":12789,"##앍":12790,"##톈":12791,"##낵":12792,"##옛":12793,"##픅":12794,"##솥":12795,"##멱":12796,"##뮈":12797,"##쳉":12798,"##쁘":12799,"##씌":12800,"##뽁":12801,"##뿍":12802,"##낼":12803,"##잌":12804,"##쑹":12805,"##났":12806,"##텁":12807,"##엥":12808,"##찻":12809,"##훙":12810,"##셩":12811,"##뮴":12812,"##챗":12813,"##슌":12814,"##셱":12815,"##뿜":12816,"##젭":12817,"##왁":12818,"##폿":12819,"##픖":12820,"##릾":12821,"##캆":12822,"##쑥":12823,"##콴":12824,"##뜰":12825,"##딨":12826,"##깅":12827,"##썬":12828,"##숄":12829,"##밟":12830,"##쏠":12831,"##푱":12832,"##밈":12833,"##얏":12834,"##짹":12835,"##헴":12836,"##넹":12837,"##썅":12838,"##덫":12839,"##뱉":12840,"##삥":12841,"##펼":12842,"##즛":12843,"##볶":12844,"##았":12845,"##찮":12846,"##꽉":12847,"##뽝":12848,"##봑":12849,"##햅":12850,"##닫":12851,"##쳘":12852,"##겡":12853,"##휨":12854,"##엡":12855,"##싣":12856,"##겯":12857,"##텡":12858,"##빚":12859,"##썹":12860,"##쌓":12861,"##튠":12862,"##춥":12863,"##땨":12864,"##곧":12865,"##욜":12866,"##뜯":12867,"##뇬":12868,"##뾱":12869,"##솝":12870,"##뎨":12871,"##씻":12872,"##꾿":12873,"##춰":12874,"##쭐":12875,"##맣":12876,"##춧":12877,"##츔":12878,"##떄":12879,"##켑":12880,"##쳤":12881,"##츈":12882,"##앳":12883,"##푀":12884,"##흰":12885,"##곬":12886,"##좁":12887,"##잿":12888,"##냈":12889,"##닼":12890,"##뚠":12891,"##퀵":12892,"##킵":12893,"##짠":12894,"##꼼":12895,"##챵":12896,"##튤":12897,"##웸":12898,"##탉":12899,"##뫙":12900,"##멎":12901,"##ㅃ":12902,"##쫄":12903,"##끓":12904,"##딤":12905,"##슥":12906,"##훨":12907,"##셧":12908,"##뭍":12909,"##씹":12910,"##찓":12911,"##짙":12912,"##뀌":12913,"##뉵":12914,"##폄":12915,"##콸":12916,"##꽈":12917,"##쁨":12918,"##^":12919,"##둡":12920,"##쏫":12921,"##팥":12922,"##롄":12923,"##첵":12924,"##했":12925,"##쳇":12926,"##윽":12927,"##잽":12928,"##펩":12929,"##뚫":12930,"##쉿":12931,"##봡":12932,"##괏":12933,"##뺨":12934,"##헠":12935,"##봐":12936,"##밝":12937,"##껄":12938,"##꾹":12939,"##뎬":12940,"##쎼":12941,"##뷸":12942,"##냇":12943,"##잩":12944,"##읽":12945,"##뤄":12946,"##봅":12947,"##쾰":12948,"##뢴":12949,"##꺄":12950,"##챕":12951,"##짚":12952,"##ᆼ":12953,"##얶":12954,"##귡":12955,"##긮":12956,"##깑":12957,"##짭":12958,"##헉":12959,"##줍":12960,"##잏":12961,"##떵":12962,"##꼐":12963,"##퀄":12964,"##듸":12965,"##얻":12966,"##샅":12967,"##쏨":12968,"##퇘":12969,"##긁":12970,"##눗":12971,"##쩝":12972,"##쳰":12973,"##꿉":12974,"##얗":12975,"##ㅘ":12976,"##랋":12977,"##낯":12978,"##앜":12979,"##큄":12980,"##뵤":12981,"##쫒":12982,"##뎁":12983,"##벐":12984,"##댜":12985,"##넙":12986,"##딛":12987,"##ᆭ":12988,"##옻":12989,"##ᆸ":12990,"##ᄉ":12991,"##ᅱ":12992,"##껏":12993,"##뒹":12994,"##촥":12995,"##닮":12996,"##끅":12997,"##킦":12998,"##낄":12999,"##끾":13000,"##븰":13001,"##|":13002,"##렷":13003,"##싟":13004,"##쌰":13005,"##첫":13006,"##핼":13007,"##큪":13008,"##핔":13009,"##닢":13010,"##싫":13011,"##닏":13012,"##갠":13013,"##퓽":13014,"##갔":13015,"##뱌":13016,"##뱡":13017,"##밯":13018,"##뛔":13019,"##챈":13020,"##홰":13021,"##싀":13022,"##몀":13023,"##삡":13024,"##뱁":13025,"##얹":13026,"##냠":13027,"##쟌":13028,"##앎":13029,"##홋":13030,"##묄":13031,"##뜩":13032,"##툭":13033,"##컥":13034,"##뢔":13035,"##띡":13036,"##롣":13037,"##읭":13038,"##쓔":13039,"##쓩":13040,"##챤":13041,"##혓":13042,"##툽":13043,"##릏":13044,"##큅":13045,"##옺":13046,"##푯":13047,"##ᅴ":13048,"##뜀":13049,"##렝":13050,"##맑":13051,"##윰":13052,"##덧":13053,"##픔":13054,"##걔":13055,"##캑":13056,"##쩡":13057,"##뭄":13058,"##벋":13059,"##쿱":13060,"##숯":13061,"##뜻":13062,"##쌩":13063,"##덥":13064,"##켠":13065,"##땋":13066,"##웽":13067,"##늉":13068,"##랒":13069,"##쉔":13070,"##퓬":13071,"##ㅔ":13072,"##ᅤ":13073,"##땀":13074,"##칰":13075,"##옙":13076,"##뀨":13077,"##늪":13078,"##휼":13079,"##왠":13080,"##솀":13081,"##쯋":13082,"##뺌":13083,"##갹":13084,"##텨":13085,"##뿨":13086,"##쭤":13087,"##꾁":13088,"##낏":13089,"##씰":13090,"##킁":13091,"##겠":13092,"##줜":13093,"##껴":13094,"##땩":13095,"##졬":13096,"##꾀":13097,"##겻":13098,"##쑈":13099,"##먀":13100,"##엎":13101,"##뭣":13102,"##긱":13103,"##툵":13104,"##섶":13105,"##땐":13106,"##젹":13107,"##뚬":13108,"##폽":13109,"##꺘":13110,"##츨":13111,"##솎":13112,"##핳":13113,"##숟":13114,"##숴":13115,"##빰":13116,"##볜":13117,"##큾":13118,"##벖":13119,"##슶":13120,"##텂":13121,"##궉":13122,"##갚":13123,"##곗":13124,"##딍":13125,"##씸":13126,"##췩":13127,"##꽤":13128,"##겉":13129,"##묜":13130,"##잊":13131,"##쨘":13132,"##퓰":13133,"##냔":13134,"##잃":13135,"##ᅲ":13136,"##둬":13137,"##팎":13138,"##좔":13139,"##읏":13140,"##샙":13141,"##뮨":13142,"##쟉":13143,"##힣":13144,"##똘":13145,"##꿔":13146,"##뽐":13147,"##륌":13148,"##듄":13149,"##믜":13150,"##ᆨ":13151,"##뚤":13152,"##탸":13153,"##뗏":13154,"##싶":13155,"##훍":13156,"##몐":13157,"##큥":13158,"##쐬":13159,"##얽":13160,"##궂":13161,"##쏙":13162,"##닻":13163,"##괵":13164,"##늙":13165,"##쓱":13166,"##ㄸ":13167,"##츼":13168,"##뫄":13169,"##뭭":13170,"##뫟":13171,"##닳":13172,"##걲":13173,"##흨":13174,"##욧":13175,"##짖":13176,"##쏜":13177,"##낰":13178,"##꿰":13179,"##튄":13180,"##솃":13181,"##갛":13182,"##뎃":13183,"##몫":13184,"##솅":13185,"##륀":13186,"##맬":13187,"##쾡":13188,"##퀜":13189,"##슼":13190,"##힉":13191,"##떽":13192,"##꺅":13193,"##읶":13194,"##섁":13195,"##쨍":13196,"##ㅉ":13197,"##숌":13198,"##얇":13199,"##뷴":13200,"##퉤":13201,"##뒑":13202,"##뒓":13203,"##펨":13204,"##뽈":13205,"##꼿":13206,"##촙":13207,"##찟":13208,"##쥘":13209,"##삾":13210,"##몃":13211,"##뚥":13212,"##밌":13213,"##휫":13214,"##뼉":13215,"##훔":13216,"##깸":13217,"##욺":13218,"##틔":13219,"##븟":13220,"##됨":13221,"##뀜":13222,"##멥":13223,"##믄":13224,"##좃":13225,"##싴":13226,"##댈":13227,"##볍":13228,"##홓":13229,"##껫":13230,"##삑":13231,"##괭":13232,"##휩":13233,"##뎡":13234,"##퍄":13235,"##쩅":13236,"##찧":13237,"##혔":13238,"##놔":13239,"##돓":13240,"##삵":13241,"##겪":13242,"##쎌":13243,"##얔":13244,"##쫘":13245,"##쫓":13246,"##롼":13247,"##헷":13248,"##괜":13249,"##킅":13250,"##촤":13251,"##될":13252,"##죡":13253,"##츀":13254,"##룐":13255,"##빎":13256,"##샴":13257,"##갇":13258,"##룺":13259,"##룅":13260,"##졀":13261,"##슉":13262,"##췐":13263,"##껸":13264,"##릐":13265,"##땍":13266,"##젊":13267,"##솨":13268,"##냘":13269,"##쎠":13270,"##뻣":13271,"##캭":13272,"##쁜":13273,"##쪄":13274,"##쥴":13275,"##킈":13276,"##쨌":13277,"##켰":13278,"##숩":13279,"##붇":13280,"##랖":13281,"##꽐":13282,"##썄":13283,"##옭":13284,"##룔":13285,"##뻬":13286,"##귓":13287,"##핰":13288,"##긶":13289,"##켤":13290,"##쌕":13291,"##칽":13292,"##녑":13293,"##쮜":13294,"##둉":13295,"##댔":13296,"##둣":13297,"##쬐":13298,"##솰":13299,"##쏴":13300,"##몌":13301,"##짊":13302,"##됭":13303,"##헿":13304,"##솬":13305,"##쀼":13306,"##핧":13307,"##됴":13308,"##쇤":13309,"##뜬":13310,"##듧":13311,"##낱":13312,"##떈":13313,"##뷁":13314,"##됀":13315,"##훓":13316,"##맻":13317,"##녤":13318,"##꺆":13319,"##쌉":13320,"##뜽":13321,"##낀":13322,"##싼":13323,"##볘":13324,"##콱":13325,"##팃":13326,"##낑":13327,"##쓴":13328,"##섣":13329,"##췰":13330,"##쑴":13331,"##왯":13332,"##륶":13333,"##흄":13334,"##빽":13335,"##욿":13336,"##삯":13337,"##줴":13338,"##륄":13339,"##빱":13340,"##텹":13341,"##퉈":13342,"##멓":13343,"##늅":13344,"##좇":13345,"##딪":13346,"##돘":13347,"##닙":13348,"##뇩":13349,"##맏":13350,"##즤":13351,"##낟":13352,"##왱":13353,"##훑":13354,"##벫":13355,"##삜":13356,"##뀰":13357,"##뵹":13358,"##쿳":13359,"##뙤":13360,"##쟛":13361,"##귬":13362,"##읊":13363,"##뾸":13364,"##갬":13365,"##녠":13366,"##쬽":13367,"##띤":13368,"##덞":13369,"##쌋":13370,"##몆":13371,"##쩬":13372,"##핤":13373,"##죈":13374,"##뉸":13375,"##흗":13376,"##잖":13377,"##뇸":13378,"##섴":13379,"##휀":13380,"##횔":13381,"##쉭":13382,"##ᅪ":13383,"##찿":13384,"##똬":13385,"##끙":13386,"##씁":13387,"##흫":13388,"##겊":13389,"##딺":13390,"##핚":13391,"##츙":13392,"##헑":13393,"##쯩":13394,"##춉":13395,"##죌":13396,"##춍":13397,"##돵":13398,"##뼛":13399,"##큉":13400,"##퍅":13401,"##싕":13402,"##뎌":13403,"##뼘":13404,"##귶":13405,"##뙓":13406,"##봬":13407,"##댠":13408,"##꽹":13409,"##훁":13410,"##갉":13411,"##짘":13412,"##껨":13413,"##ᄇ":13414,"##뺵":13415,"##윱":13416,"##홧":13417,"##좍":13418,"##륷":13419,"##먄":13420,"##챦":13421,"##륍":13422,"##휜":13423,"##멉":13424,"##챡":13425,"##덛":13426,"##뢸":13427,"##쩜":13428,"##귈":13429,"##옾":13430,"##눞":13431,"##뤵":13432,"##뤠":13433,"##쨉":13434,"##팉":13435,"##켁":13436,"##죳":13437,"##쫙":13438,"##돝":13439,"##쫏":13440,"##삔":13441,"##핲":13442,"##슷":13443,"##쫌":13444,"##땁":13445,"##슳":13446,"##떫":13447,"##찎":13448,"##빳":13449,"##냑":13450,"##튐":13451,"##궃":13452,"##븀":13453,"##뷀":13454,"##쭙":13455,"##깬":13456,"##틍":13457,"##얕":13458,"##슙":13459,"##믁":13460,"##엙":13461,"##섥":13462,"##잦":13463,"##텰":13464,"##큿":13465,"##읅":13466,"##ᇀ":13467,"##ᆹ":13468,"##퓸":13469,"##푈":13470,"##졉":13471,"##솁":13472,"##쩟":13473,"##쵼":13474,"##캰":13475,"##뫀":13476,"##췄":13477,"##씅":13478,"##왝":13479,"##곪":13480,"##ᄊ":13481,"##잴":13482,"##츩":13483,"##첬":13484,"##믕":13485,"##쟐":13486,"##훽":13487,"##섄":13488,"##뒈":13489,"##팠":13490,"##챳":13491,"##혠":13492,"##팈":13493,"##븨":13494,"##굄":13495,"##읓":13496,"##쉑":13497,"##겋":13498,"##뀻":13499,"##쩐":13500,"##눝":13501,"##곂":13502,"##뽱":13503,"##ᅬ":13504,"##챘":13505,"##쳅":13506,"##뭘":13507,"##싁":13508,"##쬭":13509,"##껀":13510,"##싮":13511,"##옅":13512,"##좊":13513,"##엏":13514,"##뱐":13515,"##먁":13516,"##넒":13517,"##뜳":13518,"##뉼":13519,"##빖":13520,"##읪":13521,"##읗":13522,"##랰":13523,"##햏":13524,"##롹":13525,"##짢":13526,"##잰":13527,"##엾":13528,"##엷":13529,"##섕":13530,"##쎈":13531,"##텃":13532,"##힡":13533,"##츰":13534,"##읕":13535,"##잫":13536,"##읋":13537,"##엃":13538,"##켚":13539,"##ᆽ":13540,"##즹":13541,"##셣":13542,"##촹":13543,"##랔":13544,"##쁟":13545,"##웠":13546,"##퉷":13547,"##쯥":13548,"##큠":13549,"##ᅰ":13550,"##뒝":13551,"##뉨":13552,"##삘":13553,"##펏":13554,"##퀠":13555,"##욍":13556,"##왘":13557,"##윹":13558,"##똏":13559,"##왐":13560,"##팹":13561,"##덯":13562,"##쯱":13563,"##롓":13564,"##쑨":13565,"##퓐":13566,"##듦":13567,"##쉥":13568,"##꼮":13569,"##듥":13570,"##꿝":13571,"##늰":13572,"##뒁":13573,"##칞":13574,"##읖":13575,"##웝":13576,"##쬲":13577,"##겍":13578,"##쇳":13579,"##욷":13580,"##ᅯ":13581,"##쏩":13582,"##굶":13583,"##껚":13584,"##혬":13585,"##홑":13586,"##끕":13587,"##묭":13588,"##앆":13589,"##튽":13590,"##쨋":13591,"##녓":13592,"##쁌":13593,"##쵹":13594,"##훵":13595,"##귿":13596,"##뜐":13597,"##솽":13598,"##짞":13599,"##엪":13600,"##쬬":13601,"##긞":13602,"##긏":13603,"##긤":13604,"##귺":13605,"##볌":13606,"##짇":13607,"##앟":13608,"##믯":13609,"##뿛":13610,"##싄":13611,"##솩":13612,"##ᄎ":13613,"##됸":13614,"##띨":13615,"##뵐":13616,"##뭔":13617,"##삧":13618,"##휭":13619,"##틋":13620,"##쩠":13621,"##쭨":13622,"##굇":13623,"##쒹":13624,"##곀":13625,"##쁑":13626,"##덭":13627,"##퐄":13628,"##겿":13629,"##읒":13630,"##햝":13631,"##뵷":13632,"##읃":13633,"##횬":13634,"##쥭":13635,"##땛":13636,"##밻":13637,"##샒":13638,"##꺠":13639,"##걕":13640,"##꺕":13641,"##욹":13642,"##쯧":13643,"##쭛":13644,"##켸":13645,"##쯸":13646,"##뵥":13647,"##랐":13648,"##꾜":13649,"##뱍":13650,"##줘":13651,"##솧":13652,"##렡":13653,"##띙":13654,"##섈":13655,"##냌":13656,"##뙇":13657,"##봤":13658,"##괌":13659,"##믓":13660,"##튝":13661,"##귐":13662,"##댱":13663,"##썷":13664,"##뜝":13665,"##뀽":13666,"##쳑":13667,"##벜":13668,"##잨":13669,"##줓":13670,"##뺴":13671,"##셥":13672,"##둏":13673,"##긷":13674,"##햣":13675,"##햑":13676,"##꽌":13677,"##뛣":13678,"##홣":13679,"##꾫":13680,"##췻":13681,"##짗":13682,"##꿋":13683,"##귁":13684,"##씩":13685,"##탹":13686,"##낪":13687,"##밊":13688,"##찝":13689,"##퓩":13690,"##갗":13691,"##떰":13692,"##엤":13693,"##쭘":13694,"##폕":13695,"##쁠":13696,"##뵙":13697,"##좟":13698,"##빋":13699,"##쯕":13700,"##ᄄ":13701,"##삒":13702,"##쵤":13703,"##굠":13704,"##뺙":13705,"##쪘":13706,"##뜵":13707,"##깩":13708,"##폘":13709,"##쭁":13710,"##뻉":13711,"##낛":13712,"##읷":13713,"##덗":13714,"##뺐":13715,"##쏵":13716,"##듕":13717,"##잆":13718,"##롮":13719,"##틊":13720,"##듶":13721,"##끜":13722,"##췍":13723,"##풹":13724,"##깆":13725,"##밬":13726,"##푷":13727,"##넽":13728,"##컄":13729,"##묏":13730,"##똔":13731,"##툠":13732,"##몊":13733,"##헵":13734,"##쟙":13735,"##쥠":13736,"##쌥":13737,"##굥":13738,"##좐":13739,"##쳄":13740,"##훟":13741,"##튿":13742,"##귕":13743,"##쒕":13744,"##췅":13745,"##쿙":13746,"##룟":13747,"##췛":13748,"##냬":13749,"##섧":13750,"##씍":13751,"##헼":13752,"##듫":13753,"##뽂":13754,"##ᄈ":13755,"##뿟":13756,"##먐":13757,"##븃":13758,"##뺘":13759,"##뺭":13760,"##꼳":13761,"##깄":13762,"##깈":13763,"##밣":13764,"##놰":13765,"##곯":13766,"##빻":13767,"##앛":13768,"##둅":13769,"##촡":13770,"##멨":13771,"##왉":13772,"##힠":13773,"##둇":13774,"##쫜":13775,"##쳣":13776,"##뿝":13777,"##볐":13778,"##뼝":13779,"##쀏":13780,"##긧":13781,"##궝":13782,"##뺄":13783,"##븍":13784,"##뵘":13785,"##웤":13786,"##툿":13787,"##퓻":13788,"##쥿":13789,"##츌":13790,"##옠":13791,"##퓔":13792,"##빧":13793,"##앝":13794,"##럯":13795,"##깤":13796,"##ᇂ":13797,"##탵":13798,"##횢":13799,"##돿":13800,"##꽊":13801,"##샆":13802,"##얭":13803,"##홁":13804,"##퐝":13805,"##흿":13806,"##툐":13807,"##츹":13808,"##쫀":13809,"##ᄒ":13810,"##펔":13811,"##왹":13812,"##챃":13813,"##엫":13814,"##놘":13815,"##눼":13816,"##넸":13817,"##껰":13818,"##븝":13819,"##섐":13820,"##졔":13821,"##짒":13822,"##꽦":13823,"##섰":13824,"##볫":13825,"##쳡":13826,"##킼":13827,"##끵":13828,"##곻":13829,"##웗":13830,"##뛃":13831,"##꽯":13832,"##쭵":13833,"##뿗":13834,"##쾃":13835,"##겧":13836,"##놨":13837,"##땔":13838,"##웈":13839,"##쑁":13840,"##삷":13841,"##샢":13842,"##걍":13843,"##닽":13844,"##쌱":13845,"##늣":13846,"##쇅":13847,"##즁":13848,"##쿸":13849,"##탙":13850,"##릘":13851,"##셕":13852,"##뗘":13853,"##끆":13854,"##뤀":13855,"##풑":13856,"##듳":13857,"##쎔":13858,"##먕":13859,"##롑":13860,"##큇":13861,"##늧":13862,"##뎻":13863,"##꺙":13864,"##냟":13865,"##몯":13866,"##쫍":13867,"##졷":13868,"##쀠":13869,"##뺀":13870,"##뭏":13871,"##숱":13872,"##붏":13873,"##콣":13874,"##뷓":13875,"##톄":13876,"##튈":13877,"##줛":13878,"##놗":13879,"##솫":13880,"##뗛":13881,"##몼":13882,"##돇":13883,"##돣":13884,"##뢐":13885,"##홳":13886,"##잓":13887,"##웫":13888,"##룫":13889,"##뺃":13890,"##뗣":13891,"##쒀":13892,"##쑊":13893,"##돚":13894,"##눟":13895,"##챱":13896,"##붘":13897,"##졋":13898,"##줆":13899,"##튮":13900,"##뢍":13901,"##넡":13902,"##냫":13903,"##넋":13904,"##뚯":13905,"##꼍":13906,"##퉅":13907,"##탔":13908,"##샠":13909,"##괆":13910,"##곈":13911,"##닜":13912,"##륽":13913,"##썀":13914,"##믱":13915,"##줬":13916,"##칯":13917,"##놏":13918,"##콫":13919,"##쪙":13920,"##푝":13921,"##툥":13922,"##꺌":13923,"##옘":13924,"##봙":13925,"##췃":13926,"##붹":13927,"##훕":13928,"##킳":13929,"##뛟":13930,"##휏":13931,"##듹":13932,"##횽":13933,"##엨":13934,"##콬":13935,"##쯪":13936,"##쌘":13937,"##슾":13938,"##얜":13939,"##셷":13940,"##겆":13941,"##룳":13942,"##맫":13943,"##쇽":13944,"##뛸":13945,"##뜷":13946,"##뙗":13947,"##퀙":13948,"##캌":13949,"##덦":13950,"##젮":13951,"##왒":13952,"##촷":13953,"##딯":13954,"##괼":13955,"##룝":13956,"##훛":13957,"##홐":13958,"##읔":13959,"##뎜":13960,"##샇":13961,"##줭":13962,"##볓":13963,"##픳":13964,"##쫣":13965,"##똵":13966,"##뽧":13967,"##꽑":13968,"##뽭":13969,"##ᆮ":13970,"##쫭":13971,"##됬":13972,"##읎":13973,"##뤯":13974,"##룱":13975,"##뼥":13976,"##멬":13977,"##귱":13978,"##굘":13979,"##돠":13980,"##띰":13981,"##잍":13982,"##핻":13983,"##죨":13984,"##엒":13985,"##뤌":13986,"##뒥":13987,"##픓":13988,"##핟":13989,"##뷫":13990,"##륑":13991,"##괧":13992,"##랣":13993,"##땗":13994,"##솹":13995,"##뺩":13996,"##픗":13997,"##ᄑ":13998,"##픤":13999,"##엗":14000,"##잋":14001,"##닺":14002,"##벞":14003,"##걋":14004,"##뙳":14005,"##홂":14006,"##벲":14007,"##풉":14008,"##뀫":14009,"##뤂":14010,"##녔":14011,"##맠":14012,"##뎍":14013,"##튺":14014,"##짼":14015,"##뫌":14016,"##벧":14017,"##붸":14018,"##젂":14019,"##츳":14020,"##궭":14021,"##춈":14022,"##땽":14023,"##퐐":14024,"##숳":14025,"##탒":14026,"##듮":14027,"##홝":14028,"##뫃":14029,"##뚷":14030,"##붖":14031,"##틉":14032,"##쯉":14033,"##캢":14034,"##욦":14035,"##뼜":14036,"##헱":14037,"##롻":14038,"##셨":14039,"##둗":14040,"##셭":14041,"##놑":14042,"##룍":14043,"##췽":14044,"##돖":14045,"##곖":14046,"##쵮":14047,"##곲":14048,"##뒬":14049,"##믌":14050,"##껠":14051,"##듟":14052,"##늿":14053,"##뗻":14054,"##띧":14055,"##낡":14056,"##쉟":14057,"##렣":14058,"##랕":14059,"##쁙":14060,"##븞":14061,"##겄":14062,"##왷":14063,"##딲":14064,"##삮":14065,"##밐":14066,"##랆":14067,"##녈":14068,"##햘":14069,"##풱":14070,"##큣":14071,"##듁":14072,"##젴":14073,"##벩":14074,"##펡":14075,"##꼈":14076,"##닑":14077,"##맄":14078,"##떳":14079,"##헙":14080,"##꺵":14081,"##쥽":14082,"##컼":14083,"##풔":14084,"##풮":14085,"##됫":14086,"##얒":14087,"##뻡":14088,"##뼤":14089,"##ᆩ":14090,"##묀":14091,"##닯":14092,"##뗄":14093,"##떱":14094,"##랼":14095,"##끍":14096,"##꿎":14097,"##뀪":14098,"##꿨":14099,"##풒":14100,"##죔":14101,"##뢱":14102,"##떙":14103,"##낲":14104,"##쬰":14105,"##켣":14106,"##긑":14107,"##맓":14108,"##싧":14109,"##댋":14110,"##핿":14111,"##줊":14112,"##셟":14113,"##갊":14114,"##핣":14115,"##닚":14116,"##닧":14117,"##붚":14118,"##읳":14119,"##퐅":14120,"##딫":14121,"##좹":14122,"##쵠":14123,"##싰":14124,"##맇":14125,"##뚸":14126,"##뜫":14127,"##뭅":14128,"##윾":14129,"##퐈":14130,"##벍":14131,"##껙":14132,"##뗶":14133,"##뗵":14134,"##흇":14135,"##뺅":14136,"##떅":14137,"##죗":14138,"##볽":14139,"##쫩":14140,"##묺":14141,"##홥":14142,"##붛":14143,"##굛":14144,"##댦":14145,"##뎧":14146,"##틷":14147,"##퇼":14148,"##뽜":14149,"##쪨":14150,"##컿":14151,"##갋":14152,"##쥩":14153,"##겴":14154,"##좂":14155,"##엻":14156,"##돫":14157,"##뚮":14158,"##쐙":14159,"##뽟":14160,"##휑":14161,"##":14162,"##꿏":14163,"##븅":14164,"##쑼":14165,"##칟":14166,"##롈":14167,"##쥑":14168,"##퀌":14169,"##릣":14170,"##쨕":14171,"##릯":14172,"##횞":14173,"##콦":14174,"##챨":14175,"##렀":14176,"##좸":14177,"##얐":14178,"##큽":14179,"##컭":14180,"##뚞":14181,"##뷉":14182,"##벱":14183,"##붴":14184,"##혯":14185,"##뗔":14186,"##뎋":14187,"##뺚":14188,"##쉏":14189,"##픨":14190,"##뿀":14191,"##쟣":14192,"##뎊":14193,"##릵":14194,"##뿮":14195,"##뱦":14196,"##퇗":14197,"##혻":14198,"##뀐":14199,"##샻":14200,"##뒿":14201,"##넠":14202,"##뱔":14203,"##쥉":14204,"##씃":14205,"##쉠":14206,"##흧":14207,"##돨":14208,"##쎃":14209,"##돐":14210,"##뚧":14211,"##웆":14212,"##캎":14213,"##섟":14214,"##쭌":14215,"##꼇":14216,"##봫":14217,"##즑":14218,"##뻤":14219,"##젏":14220,"##폵":14221,"##숧":14222,"##챞":14223,"##꿘":14224,"##랃":14225,"##펐":14226,"##쥣":14227,"##텬":14228,"##춱":14229,"##푠":14230,"##먗":14231,"##댧":14232,"##댯":14233,"##숡":14234,"##쨰":14235,"##썪":14236,"##먏":14237,"##쥥":14238,"##찣":14239,"##읫":14240,"##켬":14241,"##쁴":14242,"##쁅":14243,"##뺡":14244,"##뗡":14245,"##땝":14246,"##댸":14247,"##뇓":14248,"##퓍":14249,"##뿎":14250,"##퍝":14251,"##럐":14252,"##똠":14253,"##쿜":14254,"##웳":14255,"##뼬":14256,"##뜜":14257,"##훰":14258,"##퉱":14259,"##휽":14260,"##끠":14261,"##졈":14262,"##죰":14263,"##셒":14264,"##궨":14265,"##낻":14266,"##욋":14267,"##칣":14268,"##뗀":14269,"##킄":14270,"##횻":14271,"##뒨":14272,"##붝":14273,"##꺢":14274,"##옿":14275,"##챸":14276,"##쪠":14277,"##줵":14278,"##롁":14279,"##둙":14280,"##휵":14281,"##퇀":14282,"##졎":14283,"##쵁":14284,"##슆":14285,"##돡":14286,"##띱":14287,"##겕":14288,"##쩧":14289,"##휗":14290,"##엊":14291,"##끎":14292,"##횅":14293,"##괂":14294,"##큮":14295,"##헔":14296,"##뿁":14297,"##꾱":14298,"##폯":14299,"##냏":14300,"##밇":14301,"##볈":14302,"##둩":14303,"##뛩":14304,"##궬":14305,"##컫":14306,"##쳌":14307,"##훜":14308,"##릊":14309,"##쭊":14310,"##묽":14311,"##췁":14312,"##뷇":14313,"##뀍":14314,"##썻":14315,"##숕":14316,"##롇":14317,"##쐑":14318,"##턻":14319,"##얅":14320,"##쑜":14321,"##뽓":14322,"##춋":14323,"##묠":14324,"##싈":14325,"##촾":14326,"##뗠":14327,"##벓":14328,"##텽":14329,"##훳":14330,"##냙":14331,"##얃":14332,"##렞":14333,"##긿":14334,"##푴":14335,"##맆":14336,"##귖":14337,"##궺":14338,"##긲":14339,"##깒":14340,"##깛":14341,"##긛":14342,"##쭀":14343,"##탇":14344,"##윘":14345,"##눤":14346,"##묑":14347,"##뉻":14348,"##퍗":14349,"##꼉":14350,"##젧":14351,"##숎":14352,"##힁":14353,"##쎅":14354,"##렫":14355,"##쨥":14356,"##둍":14357,"##뤩":14358,"##붱":14359,"##딈":14360,"##뎔":14361,"##챝":14362,"##맗":14363,"##쮝":14364,"##썝":14365,"##뿉":14366,"##빩":14367,"##톹":14368,"##퐆":14369,"##냣":14370,"##쨈":14371,"##쉡":14372,"##녯":14373,"##퉹":14374,"##긕":14375,"##뀩":14376,"##웉":14377,"##슁":14378,"##씤":14379,"##툉":14380,"##뮺":14381,"##썼":14382,"##슻":14383,"##푄":14384,"##퍙":14385,"##횦":14386,"##껒":14387,"##샄":14388,"##뤕":14389,"##쁐":14390,"##깣":14391,"##쬴":14392,"##됼":14393,"##굑":14394,"##젋":14395,"##뫅":14396,"##왂":14397,"##홱":14398,"##뤙":14399,"##얖":14400,"##밦":14401,"##쮹":14402,"##탼":14403,"##갷":14404,"##쏚":14405,"##잙":14406,"##뻴":14407,"##뿓":14408,"##죵":14409,"##뚀":14410,"##춸":14411,"##맢":14412,"##럇":14413,"##웋":14414,"##됩":14415,"##핱":14416,"##쬷":14417,"##홅":14418,"##쌻":14419,"##풇":14420,"##됐":14421,"##쟘":14422,"##귝":14423,"##쳬":14424,"##쭓":14425,"##콻":14426,"##몄":14427,"##앸":14428,"##뺼":14429,"##폔":14430,"##꿱":14431,"##갰":14432,"##텤":14433,"##톼":14434,"##밗":14435,"##픋":14436,"##툑":14437,"##닊":14438,"##늴":14439,"##젔":14440,"##귯":14441,"##헗":14442,"##멦":14443,"##쯰":14444,"##팣":14445,"##횸":14446,"##귪":14447,"##궸":14448,"##궼":14449,"##몔":14450,"##뼸":14451,"##쿶":14452,"##뒫":14453,"##꽇":14454,"##튱":14455,"##츺":14456,"##곺":14457,"##늕":14458,"##쌜":14459,"##끤":14460,"##힗":14461,"##슢":14462,"##돜":14463,"##삗":14464,"##궖":14465,"##궫":14466,"##궋":14467,"##괳":14468,"##튭":14469,"##윻":14470,"##긇":14471,"##흟":14472,"##뾲":14473,"##윿":14474,"##엓":14475,"##씉":14476,"##궶":14477,"##궻":14478,"##랤":14479,"##궢":14480,"##쁶":14481,"##덿":14482,"##둈":14483,"##뾘":14484,"##댬":14485,"##왧":14486,"##뷃":14487,"##찷":14488,"##쀳":14489,"##왇":14490,"##롫":14491,"##뉜":14492,"##롷":14493,"##벴":14494,"##똟":14495,"##쏀":14496,"##먳":14497,"##뮻":14498,"##뭋":14499,"##퇵":14500,"##퐳":14501,"##돩":14502,"##뤨":14503,"##쀽":14504,"##웟":14505,"##톻":14506,"##햟":14507,"##괸":14508,"##뮹":14509,"##끨":14510,"##팂":14511,"##깏":14512,"##쌐":14513,"##뎂":14514,"##닶":14515,"##븓":14516,"##뱨":14517,"##욣":14518,"##늏":14519,"##뭬":14520,"##뇻":14521,"##뇾":14522,"##꺐":14523,"##얫":14524,"##횩":14525,"##헯":14526,"##졧":14527,"##싐":14528,"##탘":14529,"##췬":14530,"##흓":14531,"##얺":14532,"##땠":14533,"##띾":14534,"##뫞":14535,"##뿷":14536,"##땞":14537,"##밪":14538,"##뒗":14539,"##렜":14540,"##됵":14541,"##롊":14542,"##둴":14543,"##욀":14544,"으":14545,"이":14546,"##ᅳᆫ":14547,"에":14548,"는":14549,"다":14550,"의":14551,"을":14552,"어":14553,"아":14554,"##서":14555,"##ᅳᆯ":14556,"를":14557,"은":14558,"가":14559,"고":14560,"##다":14561,"##로":14562,"었":14563,"에서":14564,"로":14565,"으로":14566,"ᆫ다":14567,"도":14568,"았":14569,"며":14570,"지":14571,"라":14572,"기":14573,"게":14574,"##ᅡᆫ":14575,"과":14576,"면":14577,"와":14578,"20":14579,"##고":14580,"##는":14581,"##며":14582,"##만":14583,"지만":14584,"##지":14585,"더":14586,"##게":14587,"에게":14588,"##데":14589,"던":14590,"여":14591,"##나":14592,"201":14593,"으며":14594,"만":14595,"는데":14596,"19":14597,"까":14598,"까지":14599,"아서":14600,"때문":14601,"##00":14602,"아니":14603,"라고":14604,"라는":14605,"자":14606,"다고":14607,"나오":14608,"면서":14609,"보이":14610,"10":14611,"경우":14612,"어서":14613,"사용":14614,"##터":14615,"##ᅮ터":14616,"##가":14617,"다는":14618,"나":14619,"##도":14620,"##레이":14621,"이후":14622,"자신":14623,"##니":14624,"그리":14625,"##면":14626,"였":14627,"공격":14628,"사람":14629,"위하":14630,"##스트":14631,"대하":14632,"부터":14633,"##야":14634,"정도":14635,"시키":14636,"가능":14637,"다른":14638,"12":14639,"못하":14640,"으나":14641,"이나":14642,"200":14643,"등장":14644,"는다":14645,"보":14646,"11":14647,"보다":14648,"그리고":14649,"##어지":14650,"그러":14651,"버리":14652,"아이":14653,"..":14654,"서":14655,"가지":14656,"만들":14657,"경기":14658,"##er":14659,"하나":14660,"사실":14661,"게임":14662,"다가":14663,"니":14664,"거":14665,"시작":14666,"일본":14667,"모습":14668,"##니다":14669,"이름":14670,"함께":14671,"##라":14672,"한국":14673,"따르":14674,"##스터":14675,"려":14676,"사이":14677,"상대":14678,"##어나":14679,"##지만":14680,"15":14681,"이상":14682,"거나":14683,"##in":14684,"으면":14685,"하지만":14686,"문제":14687,"생각":14688,"또한":14689,"시간":14690,"겠":14691,"##러":14692,"프로":14693,"가장":14694,"##학교":14695,"들어":14696,"다시":14697,"##대로":14698,"##라이":14699,"ᆫ데":14700,"당시":14701,"아야":14702,"캐릭":14703,"##ᅥ러":14704,"처러":14705,"처럼":14706,"18":14707,"당하":14708,"##on":14709,"캐릭터":14710,"ᆫ지":14711,"모두":14712,"그렇":14713,"아도":14714,"시즌":14715,"야":14716,"플레이":14717,"상황":14718,"모든":14719,"##이트":14720,"결국":14721,"추가":14722,"##an":14723,"16":14724,"##미지":14725,"##or":14726,"현재":14727,"상태":14728,"많이":14729,"ᆫ다는":14730,"통하":14731,"30":14732,"그러나":14733,"다만":14734,"스킬":14735,"다음":14736,"##리아":14737,"존재":14738,"전투":14739,"13":14740,"미국":14741,"능력":14742,"여기":14743,"카드":14744,"14":14745,"199":14746,"##리즈":14747,"세계":14748,"매우":14749,"선수":14750,"효과":14751,"##ar":14752,"17":14753,"그런":14754,"상당":14755,"ᄇ니다":14756,"달리":14757,"##he":14758,"##거리":14759,"##리스":14760,"##at":14761,"인하":14762,"지역":14763,"##요":14764,"물론":14765,"##ᅳ로":14766,"이용":14767,"##이스":14768,"의하":14769,"처음":14770,"기록":14771,"다면":14772,"시":14773,"이유":14774,"레벨":14775,"100":14776,"마":14777,"이것":14778,"이런":14779,"필요":14780,"실제":14781,"자체":14782,"시리즈":14783,"여러":14784,"부르":14785,"25":14786,"해당":14787,"일반":14788,"들어가":14789,"ᆫ다고":14790,"어야":14791,"돌아":14792,"라이":14793,"모르":14794,"##부분":14795,"역시":14796,"주인":14797,"거의":14798,"##이지":14799,"기술":14800,"바로":14801,"##en":14802,"마법":14803,"특히":14804,"영화":14805,"2017":14806,"무기":14807,"기본":14808,"##야기":14809,"다르":14810,"관련":14811,"##록":14812,"##ou":14813,"아무":14814,"그래":14815,"2018":14816,"진행":14817,"같이":14818,"방송":14819,"##시아":14820,"는지":14821,"이야기":14822,"냐":14823,"##지막":14824,"스타":14825,"음":14826,"##까":14827,"나가":14828,"피해":14829,"위치":14830,"방어":14831,"제작":14832,"부분":14833,"사건":14834,"##가지":14835,"대부분":14836,"##al":14837,"작품":14838,"레이":14839,"알리":14840,"마지막":14841,"증가":14842,"본인":14843,"2019":14844,"일부":14845,"계속":14846,"인간":14847,"ᆫ가":14848,"자기":14849,"지나":14850,"21":14851,"떨어지":14852,"##es":14853,"서울":14854,"2016":14855,"국가":14856,"올리":14857,"50":14858,"참고":14859,"주인공":14860,"내용":14861,"활동":14862,"##전히":14863,"스":14864,"우리":14865,"그냥":14866,"중국":14867,"어도":14868,"습":14869,"이전":14870,"비슷":14871,"어느":14872,"으니":14873,"생기":14874,"지금":14875,"비하":14876,"라면":14877,"강하":14878,"대신":14879,"22":14880,"성공":14881,"##토리":14882,"만나":14883,"수준":14884,"타이":14885,"밝히":14886,"습니다":14887,"감독":14888,"이루":14889,"도록":14890,"그녀":14891,"198":14892,"상당히":14893,"24":14894,"대한":14895,"올라":14896,"##민국":14897,"최대":14898,"대표":14899,"이동":14900,"없이":14901,"기준":14902,"공격력":14903,"너무":14904,"##it":14905,"므로":14906,"배우":14907,"제외":14908,"란":14909,"##버지":14910,"빠르":14911,"인물":14912,"죽이":14913,"의미":14914,"##에":14915,"그대로":14916,"나타":14917,"리그":14918,"결과":14919,"실제로":14920,"##라지":14921,"로서":14922,"직접":14923,"2015":14924,"##랜드":14925,"23":14926,"대한민국":14927,"어렵":14928,"소속":14929,"원래":14930,"전체":14931,"이미":14932,"마다":14933,"평가":14934,"승리":14935,"보내":14936,"##부터":14937,"그것":14938,"언급":14939,"체력":14940,"동안":14941,"##ing":14942,"애니":14943,"##st":14944,"전쟁":14945,"##le":14946,"시절":14947,"##이드":14948,"자리":14949,"##ic":14950,"관계":14951,"40":14952,"싸우":14953,"마음":14954,"설정":14955,"ᆫ다면":14956,"도시":14957,"##re":14958,"멤버":14959,"과거":14960,"영상":14961,"##메이":14962,"##주의":14963,"유저":14964,"##운드":14965,"러":14966,"지원":14967,"데미지":14968,"선택":14969,"문서":14970,"유닛":14971,"발매":14972,"포함":14973,"몬스터":14974,"##dd":14975,"끝나":14976,"여자":14977,"불리":14978,"성우":14979,"개발":14980,"엄청":14981,"힘들":14982,"설명":14983,"##등학교":14984,"방법":14985,"출연":14986,"머리":14987,"바뀌":14988,"플레이어":14989,"아버지":14990,"최고":14991,"연구":14992,"보스":14993,"우승":14994,"차이":14995,"드":14996,"이러":14997,"기사":14998,"##우스":14999,"유명":15000,"든":15001,"여성":15002,"스럽":15003,"공식":15004,"2014":15005,"장면":15006,"##없이":15007,"속도":15008,"사망":15009,"영향":15010,"이렇":15011,"메이":15012,"발생":15013,"이때":15014,"려고":15015,"조금":15016,"사랑":15017,"프랑":15018,"26":15019,"##ff":15020,"000":15021,"주장":15022,"일어나":15023,"주로":15024,"남자":15025,"28":15026,"##스타":15027,"인터":15028,"전부":15029,"##el":15030,"아이템":15031,"27":15032,"초반":15033,"출신":15034,"##리어":15035,"##am":15036,"제대로":15037,"운영":15038,"동시":15039,"##머니":15040,"빠지":15041,"31":15042,"결정":15043,"아직":15044,"중요":15045,"자주":15046,"프리":15047,"나타나":15048,"오르":15049,"the":15050,"##벤트":15051,"걸리":15052,"정보":15053,"공개":15054,"만큼":15055,"서로":15056,"또는":15057,"버전":15058,"최종":15059,"새롭":15060,"강화":15061,"친구":15062,"대상":15063,"독일":15064,"학교":15065,"##이도":15066,"구성":15067,"##아가":15068,"학생":15069,"유지":15070,"최초":15071,"##om":15072,"##어":15073,"강력":15074,"소리":15075,"##프트":15076,"역할":15077,"##버스":15078,"파괴":15079,"노래":15080,"사회":15081,"이벤트":15082,"정말":15083,"다니":15084,"역사":15085,"누구":15086,"그런데":15087,"마이":15088,"기존":15089,"쓰이":15090,"스토리":15091,"영국":15092,"##다가":15093,"대":15094,"비교":15095,"마찬":15096,"마찬가지":15097,"느끼":15098,"##la":15099,"형태":15100,"어떤":15101,"라도":15102,"바람":15103,"당연":15104,"##었":15105,"소환":15106,"엄청나":15107,"##is":15108,"후반":15109,"인기":15110,"보통":15111,"회복":15112,"변경":15113,"듯":15114,"이기":15115,"대사":15116,"2013":15117,"오히":15118,"대로":15119,"바꾸":15120,"조선":15121,"특성":15122,"정신":15123,"슈퍼":15124,"오히려":15125,"##시간":15126,"거리":15127,"파이":15128,"어떻":15129,"##라도":15130,"방식":15131,"정치":15132,"가깝":15133,"197":15134,"드래":15135,"월드":15136,"음악":15137,"이번":15138,"발견":15139,"29":15140,"##너지":15141,"사라지":15142,"아래":15143,"##나라":15144,"스테":15145,"게다가":15146,"32":15147,"아들":15148,"##동안":15149,"이제":15150,"자유":15151,"##et":15152,"##라마":15153,"00":15154,"나이":15155,"성능":15156,"프랑스":15157,"행동":15158,"특수":15159,"확률":15160,"성격":15161,"유일":15162,"활약":15163,"##ol":15164,"마리":15165,"2012":15166,"일단":15167,"모양":15168,"다이":15169,"##ion":15170,"##지어":15171,"확인":15172,"아예":15173,"시스":15174,"구하":15175,"##레이드":15176,"##레스":15177,"따라":15178,"이렇게":15179,"부족":15180,"차지":15181,"정부":15182,"##디오":15183,"입장":15184,"노선":15185,"맞추":15186,"내리":15187,"스트":15188,"##소리":15189,"돌아오":15190,"심지어":15191,"주변":15192,"##로스":15193,"모드":15194,"먼저":15195,"영웅":15196,"##리카":15197,"수록":15198,"##니아":15199,"발동":15200,"2010":15201,"거기":15202,"어요":15203,"과정":15204,"어리":15205,"완전히":15206,"반대":15207,"드러":15208,"생산":15209,"##ow":15210,"들어오":15211,"구":15212,"##그램":15213,"##인트":15214,"개인":15215,"60":15216,"##통령":15217,"대회":15218,"##nd":15219,"적용":15220,"##써":15221,"km":15222,"모델":15223,"바이":15224,"##20":15225,"##il":15226,"제국":15227,"##ig":15228,"떠나":15229,"으로서":15230,"속성":15231,"##ed":15232,"시스템":15233,"대학":15234,"그래서":15235,"난이도":15236,"바":15237,"한번":15238,"라며":15239,"혹은":15240,"자세":15241,"35":15242,"##메이션":15243,"실패":15244,"어디":15245,"지키":15246,"전혀":15247,"돌아가":15248,"차량":15249,"하이":15250,"장비":15251,"감소":15252,"원작":15253,"패배":15254,"##리그":15255,"덕분":15256,"현대":15257,"국내":15258,"사진":15259,"얼굴":15260,"##스크":15261,"TV":15262,"건물":15263,"동일":15264,"대통령":15265,"##소드":15266,"얼마":15267,"열리":15268,"더라도":15269,"##나마":15270,"도움":15271,"초기":15272,"무엇":15273,"마을":15274,"중심":15275,"앨범":15276,"우주":15277,"지속":15278,"##ac":15279,"데뷔":15280,"날리":15281,"##as":15282,"오브":15283,"인정":15284,"표현":15285,"모으":15286,"애니메이션":15287,"##BS":15288,"출시":15289,"참여":15290,"##어가":15291,"버스":15292,"196":15293,"굉장":15294,"획득":15295,"물리":15296,"나라":15297,"세트":15298,"그렇게":15299,"of":15300,"루":15301,"2011":15302,"밖":15303,"밖에":15304,"작중":15305,"계획":15306,"시대":15307,"설치":15308,"다양":15309,"요구":15310,"순간":15311,"스페":15312,"반응":15313,"##아내":15314,"안되":15315,"데이":15316,"Lv":15317,"정확":15318,"기능":15319,"자동":15320,"움직":15321,"##들이":15322,"기억":15323,"발표":15324,"축구":15325,"##므로":15326,"하루":15327,"드라마":15328,"선발":15329,"올라가":15330,"시점":15331,"##ve":15332,"그나마":15333,"영어":15334,"라인":15335,"아마":15336,"에피":15337,"아군":15338,"담당":15339,"명칭":15340,"##대학교":15341,"상승":15342,"##비스":15343,"으므로":15344,"판매":15345,"##자":15346,"다며":15347,"작가":15348,"중앙":15349,"시기":15350,"진출":15351,"01":15352,"그림":15353,"경찰":15354,"세우":15355,"##이":15356,"았었":15357,"##속도":15358,"The":15359,"조건":15360,"가격":15361,"특징":15362,"려는":15363,"##뜨리":15364,"대체":15365,"상위":15366,"한":15367,"##테":15368,"##파이":15369,"대전":15370,"##ot":15371,"한테":15372,"고려":15373,"지구":15374,"조":15375,"관리":15376,"##차":15377,"조차":15378,"확실":15379,"드래곤":15380,"##위기":15381,"참가":15382,"500":15383,"##리오":15384,"수비":15385,"에피소드":15386,"로부터":15387,"이거":15388,"남기":15389,"지니":15390,"80":15391,"단계":15392,"##피언":15393,"2000":15394,"어떻게":15395,"항목":15396,"실력":15397,"라서":15398,"##으키":15399,"어머니":15400,"아르":15401,"더욱":15402,"묘사":15403,"피하":15404,"활용":15405,"던지":15406,"연기":15407,"경험":15408,"각각":15409,"##ad":15410,"미치":15411,"37":15412,"처리":15413,"러시아":15414,"패치":15415,"비판":15416,"심하":15417,"45":15418,"밀리":15419,"후보":15420,"가족":15421,"만화":15422,"폭발":15423,"회사":15424,"문화":15425,"굉장히":15426,"세대":15427,"디자":15428,"결혼":15429,"##스로":15430,"이미지":15431,"교육":15432,"이어지":15433,"구조":15434,"##라인":15435,"진짜":15436,"프로그램":15437,"아주":15438,"내려":15439,"라운드":15440,"##위원":15441,"위험":15442,"챔피언":15443,"단순":15444,"선거":15445,"약하":15446,"여담":15447,"이라":15448,"이루어지":15449,"발사":15450,"참조":15451,"무시":15452,"ᆯ지":15453,"St":15454,"다루":15455,"목적":15456,"오리":15457,"히로":15458,"현실":15459,"준비":15460,"주요":15461,"194":15462,"##아오":15463,"크리스":15464,"민주":15465,"기간":15466,"불구":15467,"##머지":15468,"사실상":15469,"나쁘":15470,"나머지":15471,"일으키":15472,"마스터":15473,"대미지":15474,"방영":15475,"제공":15476,"삼성":15477,"계약":15478,"약간":15479,"혼자":15480,"랑":15481,"시청":15482,"##id":15483,"부산":15484,"70":15485,"중간":15486,"뛰어나":15487,"##다리":15488,"시도":15489,"패턴":15490,"##ᅳᆷ":15491,"09":15492,"방향":15493,"세이":15494,"논란":15495,"일정":15496,"##ay":15497,"지하":15498,"범위":15499,"동료":15500,"유럽":15501,"여전히":15502,"연속":15503,"당연히":15504,"한정":15505,"90":15506,"으면서":15507,"한편":15508,"이해":15509,"분위기":15510,"성장":15511,"아프":15512,"소모":15513,"훨씬":15514,"FC":15515,"##ER":15516,"##러지":15517,"##보이":15518,"그룹":15519,"국민":15520,"유리":15521,"##려":15522,"세기":15523,"보호":15524,"특별":15525,"노리":15526,"파워":15527,"학년":15528,"##마":15529,"그래도":15530,"##인물":15531,"오":15532,"블랙":15533,"mm":15534,"##러스":15535,"02":15536,"2009":15537,"03":15538,"바라":15539,"##ch":15540,"##트리":15541,"가져":15542,"조합":15543,"향하":15544,"기대":15545,"운동":15546,"잘못":15547,"자연":15548,"300":15549,"경제":15550,"가리":15551,"브라":15552,"##시":15553,"출전":15554,"기타":15555,"생명":15556,"디자인":15557,"최근":15558,"기에":15559,"##드리":15560,"싸움":15561,"해결":15562,"취급":15563,"##us":15564,"48":15565,"국제":15566,"도망":15567,"##ir":15568,"자면":15569,"##티브":15570,"ᆯ까":15571,"스테이지":15572,"부상":15573,"그거":15574,"성적":15575,"부대":15576,"태어나":15577,"05":15578,"195":15579,"33":15580,"사고":15581,"나무":15582,"연결":15583,"for":15584,"지방":15585,"이르":15586,"2008":15587,"생활":15588,"##자기":15589,"의견":15590,"예정":15591,"규모":15592,"36":15593,"추정":15594,"운행":15595,"주의":15596,"이탈":15597,"08":15598,"순위":15599,"변하":15600,"수정":15601,"타입":15602,"종류":15603,"마치":15604,"07":15605,"##ur":15606,"네":15607,"인구":15608,"충분":15609,"거대":15610,"움직이":15611,"방면":15612,"스스로":15613,"##ᅮᆫ":15614,"구간":15615,"아이돌":15616,"올라오":15617,"죽음":15618,"대화":15619,"수상":15620,"펼치":15621,"##리티":15622,"넘어가":15623,"오래":15624,"나중":15625,"야구":15626,"조직":15627,"안정":15628,"##큼":15629,"속하":15630,"전용":15631,"세력":15632,"거치":15633,"표기":15634,"변화":15635,"느낌":15636,"지도":15637,"HP":15638,"##너스":15639,"터지":15640,"당신":15641,"장착":15642,"벌어지":15643,"미션":15644,"퀘스트":15645,"도중":15646,"전문":15647,"나누":15648,"비롯":15649,"등급":15650,"##..":15651,"##od":15652,"세상":15653,"##지션":15654,"절대":15655,"유니":15656,"06":15657,"항공":15658,"만큼":15659,"붙이":15660,"달성":15661,"##BC":15662,"직업":15663,"벌이":15664,"안타":15665,"특정":15666,"만드":15667,"지내":15668,"일행":15669,"관하":15670,"엔딩":15671,"th":15672,"부활":15673,"##능력":15674,"##im":15675,"##란드":15676,"##비아":15677,"독립":15678,"포인트":15679,"무장":15680,"##저":15681,"발전":15682,"종료":15683,"지지":15684,"근접":15685,"전하":15686,"더불":15687,"졸업":15688,"관심":15689,"방어력":15690,"04":15691,"##라스":15692,"만약":15693,"케이":15694,"포켓":15695,"##어들":15696,"##다니":15697,"수도":15698,"반면":15699,"미사":15700,"따라서":15701,"##un":15702,"##ut":15703,"SK":15704,"스피":15705,"번역":15706,"싱글":15707,"제목":15708,"보상":15709,"엔진":15710,"##데이트":15711,"소설":15712,"내부":15713,"이끌":15714,"거두":15715,"에너지":15716,"목소리":15717,"투수":15718,"남성":15719,"2007":15720,"배틀":15721,"you":15722,"업데이트":15723,"배경":15724,"똑같":15725,"가끔":15726,"정상":15727,"##디어":15728,"미래":15729,"어찌":15730,"저지":15731,"충격":15732,"무리":15733,"34":15734,"##정도":15735,"##카이":15736,"타격":15737,"계열":15738,"득점":15739,"전설":15740,"정체":15741,"##리트":15742,"오늘":15743,"비행":15744,"지휘":15745,"##나이":15746,"목표":15747,"황제":15748,"##게임":15749,"공중":15750,"그만":15751,"항상":15752,"느":15753,"분노":15754,"##ro":15755,"최소":15756,"각성":15757,"공연":15758,"배치":15759,"으려":15760,"예상":15761,"조사":15762,"등장인물":15763,"이어":15764,"돌리":15765,"소재":15766,"마저":15767,"북한":15768,"##공격":15769,"으로써":15770,"전국":15771,"정식":15772,"위기":15773,"넘기":15774,"생존":15775,"얘기":15776,"##대학":15777,"##조건":15778,"로마":15779,"늘어나":15780,"전작":15781,"포켓몬":15782,"군사":15783,"신경":15784,"##ag":15785,"##igh":15786,"38":15787,"##나가":15788,"높이":15789,"##ver":15790,"작곡":15791,"##림픽":15792,"애초":15793,"스포":15794,"ᆯ로":15795,"지정":15796,"괜찮":15797,"##ec":15798,"버프":15799,"가르":15800,"인터뷰":15801,"cm":15802,"##르크":15803,"시전":15804,"듯이":15805,"자랑":15806,"지상":15807,"기관":15808,"75":15809,"결승":15810,"점수":15811,"각종":15812,"리":15813,"악마":15814,"비밀":15815,"요소":15816,"전사":15817,"다리":15818,"##운데":15819,"건설":15820,"분류":15821,"##ent":15822,"2006":15823,"인도":15824,"##시스":15825,"과학":15826,"소녀":15827,"##시마":15828,"##야마":15829,"교체":15830,"##르트":15831,"55":15832,"요리":15833,"연출":15834,"정하":15835,"in":15836,"이외":15837,"무대":15838,"전기":15839,"전차":15840,"부여":15841,"전반":15842,"##학생":15843,"193":15844,"하늘":15845,"레어":15846,"정작":15847,"수치":15848,"클래":15849,"##ak":15850,"클리어":15851,"확정":15852,"##로드":15853,"별로":15854,"뿐":15855,"니까":15856,"작전":15857,"드러나":15858,"홈런":15859,"갖추":15860,"개념":15861,"행정":15862,"##회의":15863,"훈련":15864,"소개":15865,"건담":15866,"링크":15867,"야마":15868,"제일":15869,"따로":15870,"2020":15871,"to":15872,"##um":15873,"타카":15874,"종족":15875,"외국":15876,"이적":15877,"아키":15878,"##자리":15879,"군대":15880,"갑자기":15881,"##젝트":15882,"##무리":15883,"변신":15884,"',":15885,"##루스":15886,"카이":15887,"나름":15888,"언제":15889,"이탈리아":15890,"제한":15891,"단점":15892,"##스티":15893,"기업":15894,"##화국":15895,"바르":15896,"완전":15897,"##파트":15898,"vs":15899,"장소":15900,"크기":15901,"누르":15902,"인천":15903,"기계":15904,"##이즈":15905,"명령":15906,"냐고":15907,"##타임":15908,"서비스":15909,"##아들이":15910,"평균":15911,"##시대":15912,"기체":15913,"노력":15914,"근처":15915,"##어로":15916,"동물":15917,"가수":15918,"수행":15919,"포지션":15920,"사냥":15921,"파티":15922,"아카":15923,"작업":15924,"보유":15925,"트리":15926,"압도":15927,"표시":15928,"다크":15929,"##ST":15930,"##모토":15931,"기동":15932,"집중":15933,"연합":15934,"특이":15935,"오른":15936,"화력":15937,"##em":15938,"##ub":15939,"살리":15940,"시장":15941,"끝내":15942,"병력":15943,"##니스":15944,"이하":15945,"어쩌":15946,"사업":15947,"설립":15948,"이쪽":15949,"잠시":15950,"기회":15951,"베이":15952,"부모":15953,"부정":15954,"기반":15955,"공간":15956,"더니":15957,"##레인":15958,"본래":15959,"필드":15960,"파일":15961,"경쟁":15962,"치명":15963,"판단":15964,"느리":15965,"카운":15966,"##이치":15967,"무슨":15968,"감정":15969,"가운데":15970,"직전":15971,"##000":15972,"목록":15973,"##카드":15974,"이닝":15975,"물건":15976,"나서":15977,"의외":15978,"ㅏㅆ":15979,"인식":15980,"단어":15981,"고양":15982,"상관":15983,"탈출":15984,"월드컵":15985,"판정":15986,"사례":15987,"옮기":15988,"##ᅥᆫ":15989,"기다리":15990,"소련":15991,"주문":15992,"##요일":15993,"던전":15994,"2005":15995,"주제":15996,"효율":15997,"차원":15998,"포기":15999,"제거":16000,"강제":16001,"정리":16002,"가문":16003,"키우":16004,"앞서":16005,"##역시":16006,"임무":16007,"##ight":16008,"진화":16009,"42":16010,"려면":16011,"마르":16012,"다수":16013,"대구":16014,"새로":16015,"위력":16016,"도전":16017,"41":16018,"##고등학교":16019,"##냐":16020,"도입":16021,"프레":16022,"때리":16023,"라이브":16024,"##세계":16025,"도쿄":16026,"별명":16027,"##러스트":16028,"원인":16029,"중반":16030,"호선":16031,"정의":16032,"레드":16033,"완성":16034,"제품":16035,"##그레이드":16036,"발언":16037,"고정":16038,"스타일":16039,"39":16040,"지배":16041,"##이션":16042,"##기사":16043,"받아들이":16044,"유사":16045,"촬영":16046,"에게서":16047,"##드시":16048,"숨기":16049,"2004":16050,"골드":16051,"무려":16052,"복귀":16053,"사이트":16054,"동생":16055,"어둠":16056,"시험":16057,"##대표":16058,"연습":16059,"직후":16060,"분명":16061,"도착":16062,"EX":16063,"LG":16064,"역대":16065,"아스":16066,"버티":16067,"전개":16068,"은데":16069,"삭제":16070,"으로부터":16071,"접근":16072,"모이":16073,"ㅓㅆ":16074,"바다":16075,"인사":16076,"요시":16077,"사정":16078,"해군":16079,"랭크":16080,"현상":16081,"추천":16082,"마시":16083,"##ce":16084,"예전":16085,"왕국":16086,"정규":16087,"살아":16088,"##로우":16089,"음식":16090,"확장":16091,"교수":16092,"회피":16093,"마나":16094,"해외":16095,"##AR":16096,"안전":16097,"코스":16098,"빨리":16099,"업그레이드":16100,"책임":16101,"오버":16102,"병사":16103,"이곳":16104,"반드시":16105,"##os":16106,"##바이":16107,"줄이":16108,"일러스트":16109,"조종":16110,"유튜":16111,"완벽":16112,"자원":16113,"부탁":16114,"점프":16115,"저항":16116,"44":16117,"타이틀":16118,"올림픽":16119,"##방송":16120,"롯데":16121,"##ri":16122,"도로":16123,"극장":16124,"고대":16125,"##AN":16126,"장점":16127,"파트":16128,"심각":16129,"잡히":16130,"비용":16131,"탈락":16132,"차전":16133,"##던":16134,"우선":16135,"##ula":16136,"Ch":16137,"인터넷":16138,"신체":16139,"아내":16140,"죠":16141,"##ON":16142,"의사":16143,"##무라":16144,"통합":16145,"##하나":16146,"언어":16147,"리더":16148,"추측":16149,"공동":16150,"##대전":16151,"전력":16152,"의원":16153,"##아하":16154,"No":16155,"전략":16156,"##ap":16157,"43":16158,"주민":16159,"치료":16160,"이라고":16161,"99":16162,"곤":16163,"실험":16164,"환경":16165,"##트라":16166,"미니":16167,"몇몇":16168,"의식":16169,"연장":16170,"히어로":16171,"마무리":16172,"합류":16173,"연재":16174,"##and":16175,"구매":16176,"2002":16177,"소유":16178,"st":16179,"점점":16180,"스코":16181,"즐기":16182,"##버리":16183,"살인":16184,"장갑":16185,"##러리":16186,"사격":16187,"##ᅮ록":16188,"최강":16189,"form":16190,"철도":16191,"대기":16192,"종교":16193,"사기":16194,"##광역시":16195,"전자":16196,"그야":16197,"화면":16198,"취하":16199,"수많":16200,"다소":16201,"마법사":16202,"기념":16203,"구분":16204,"좋아하":16205,"공포":16206,"티어":16207,"kg":16208,"에이":16209,"종종":16210,"엘리":16211,"47":16212,"자마":16213,"46":16214,"개최":16215,"51":16216,"191":16217,"사거리":16218,"마사":16219,"암살":16220,"걱정":16221,"오프":16222,"formula":16223,"평범":16224,"가치":16225,"##말로":16226,"##퓨터":16227,"전통":16228,"가사":16229,"스크":16230,"자마자":16231,"형식":16232,"KBS":16233,"개봉":16234,"아쉽":16235,"##무기":16236,"부하":16237,"그야말로":16238,"##아지":16239,"그리스":16240,"개월":16241,"선정":16242,"녀석":16243,"사상":16244,"채우":16245,"스페인":16246,"여행":16247,"##ter":16248,"재미":16249,"##위원회":16250,"워낙":16251,"아무리":16252,"##선수":16253,"다행":16254,"미드":16255,"고자":16256,"복수":16257,"입히":16258,"루트":16259,"##오르":16260,"##아보":16261,"##메라":16262,"and":16263,"##스케":16264,"요청":16265,"미사일":16266,"한계":16267,"프로젝트":16268,"무조건":16269,"본격":16270,"정당":16271,"정확히":16272,"대중":16273,"냐는":16274,"한글":16275,"##ul":16276,"개그":16277,"MA":16278,"평소":16279,"사무":16280,"영혼":16281,"실점":16282,"시청자":16283,"##시장":16284,"밴드":16285,"거부":16286,"비중":16287,"굳이":16288,"##IN":16289,"##운동":16290,"지적":16291,"무한":16292,"공주":16293,"옵션":16294,"1000":16295,"##수록":16296,"로봇":16297,"2003":16298,"데이터":16299,"줄어들":16300,"하드":16301,"##모리":16302,"컴퓨터":16303,"충분히":16304,"고르":16305,"##op":16306,"위협":16307,"투입":16308,"상징":16309,"버그":16310,"는가":16311,"##니티":16312,"##관계":16313,"시설":16314,"히트":16315,"달러":16316,"연주":16317,"행위":16318,"범죄":16319,"##ck":16320,"도망치":16321,"선언":16322,"대형":16323,"##쿠라":16324,"불가":16325,"%,":16326,"명중":16327,"실수":16328,"모자":16329,"설계":16330,"폭탄":16331,"150":16332,"콤보":16333,"드리":16334,"네이":16335,"형제":16336,"65":16337,"특유":16338,"##FA":16339,"대결":16340,"언론":16341,"##ation":16342,"원정":16343,"트위":16344,"해석":16345,"선생":16346,"성향":16347,"##로그":16348,"조작":16349,"운용":16350,"희생":16351,"시민":16352,"##오스":16353,"##정부":16354,"##일러":16355,"MBC":16356,"광주":16357,"스포츠":16358,"SP":16359,"행사":16360,"##려가":16361,"전원":16362,"일종":16363,"##아이":16364,"인상":16365,"대응":16366,"##ra":16367,"192":16368,"보병":16369,"태양":16370,"보조":16371,"##이상":16372,"봉인":16373,"##남도":16374,"이사":16375,"광고":16376,"행성":16377,"##다르":16378,"나이트":16379,"##페이지":16380,"얼마나":16381,"가면":16382,"벗어나":16383,"##든":16384,"개조":16385,"플래":16386,"##이크":16387,"오리지":16388,"단지":16389,"64":16390,"II":16391,"##시브":16392,"그때":16393,"로써":16394,"마력":16395,"드러내":16396,"##기관":16397,"차례":16398,"대로":16399,"##동생":16400,"##미널":16401,"##경기":16402,"와중":16403,"##특별":16404,"##머리":16405,"구단":16406,"보너스":16407,"단체":16408,"화염":16409,"빼앗":16410,"노트":16411,"간단":16412,"점령":16413,"을지":16414,"시나":16415,"통과":16416,"프로듀":16417,"소비":16418,"경기도":16419,"##려오":16420,"ㅏ서":16421,"치르":16422,"오랜":16423,"육군":16424,"발음":16425,"생성":16426,"서술":16427,"뿌리":16428,"##올리":16429,"가하":16430,"근데":16431,"52":16432,"방문":16433,"##라이더":16434,"클럽":16435,"합치":16436,"서버":16437,"유튜브":16438,"조정":16439,"장르":16440,"##텐츠":16441,"불과":16442,"의도":16443,"재료":16444,"투표":16445,"소년":16446,"금지":16447,"반복":16448,"가정":16449,"You":16450,"의지":16451,"정책":16452,"함정":16453,"지명":16454,"한국어":16455,"는다는":16456,"년대":16457,"저격":16458,"영입":16459,"디지":16460,"400":16461,"최후":16462,"##레이션":16463,"에어":16464,"보컬":16465,"분리":16466,"초대":16467,"제안":16468,"보다":16469,"따지":16470,"##드로":16471,"##웨이":16472,"채널":16473,"##세이":16474,"##art":16475,"##래프트":16476,"원하":16477,"박사":16478,"##마스":16479,"##교육":16480,"무사":16481,"그저":16482,"대비":16483,"##런스":16484,"사태":16485,"편성":16486,"##지역":16487,"여름":16488,"외모":16489,"가져오":16490,"놀라":16491,"VS":16492,"음반":16493,"일차":16494,"장기":16495,"후속":16496,"센터":16497,"찾아오":16498,"소식":16499,"##학자":16500,"##도우":16501,"##부대":16502,"49":16503,"두번":16504,"숫자":16505,"고양이":16506,"##사이":16507,"흡수":16508,"느냐":16509,"적극":16510,"목숨":16511,"뉴스":16512,"지나가":16513,"AP":16514,"독자":16515,"56":16516,"눈물":16517,"공략":16518,"진입":16519,"데스":16520,"장난":16521,"스위":16522,"모험":16523,"바닥":16524,"디스":16525,"##센터":16526,"패러":16527,"은퇴":16528,"적절":16529,"##사카":16530,"생물":16531,"왼쪽":16532,"크로":16533,"괴물":16534,"군단":16535,"주력":16536,"오토":16537,"2001":16538,"고등학교":16539,"오오":16540,"대학교":16541,"컨셉":16542,"거짓":16543,"아름":16544,"##마트":16545,"##이터":16546,"저지르":16547,"살아남":16548,"기자":16549,"ᆫ지라":16550,"흐르":16551,"의심":16552,"확보":16553,"자료":16554,"서브":16555,"전화":16556,"미리":16557,"53":16558,"약점":16559,"노동":16560,"원거리":16561,"54":16562,"개선":16563,"코드":16564,"필살":16565,"더블":16566,"오리지널":16567,"제도":16568,"...":16569,"사과":16570,"형성":16571,"대단":16572,"쓰러지":16573,"##달리":16574,"관통":16575,"단순히":16576,"In":16577,"PC":16578,"걸치":16579,"교통":16580,"대장":16581,"##어내":16582,"다운":16583,"수호":16584,"저주":16585,"전술":16586,"황금":16587,"##피아":16588,"페르":16589,"계기":16590,"만원":16591,"마침":16592,"들이":16593,"잘하":16594,"질문":16595,"부수":16596,"조각":16597,"브레이":16598,"구축":16599,"알렉":16600,"##피스":16601,"착용":16602,"꾸준":16603,"85":16604,"상대방":16605,"작성":16606,"유도":16607,"시티":16608,"솔로":16609,"풀리":16610,"##나다":16611,"##ia":16612,"타임":16613,"1990":16614,"방해":16615,"기원":16616,"집단":16617,"##문화":16618,"##즈키":16619,"비난":16620,"##믹스":16621,"삼국":16622,"역전":16623,"인류":16624,"먹이":16625,"##ill":16626,"##무원":16627,"전환":16628,"편하":16629,"아프리카":16630,"습격":16631,"##워드":16632,"필수":16633,"경상":16634,"열차":16635,"##ie":16636,"##전자":16637,"선보이":16638,"승부":16639,"##소년":16640,"라디오":16641,"규정":16642,"##북도":16643,"홈페이지":16644,"##RA":16645,"진정":16646,"ST":16647,"실시":16648,"라이트":16649,"##회사":16650,"클래스":16651,"##IA":16652,"아나":16653,"공부":16654,"확실히":16655,"회전":16656,"유우":16657,"모티브":16658,"아름답":16659,"무력":16660,"감안":16661,"들리":16662,"190":16663,"요":16664,"##ik":16665,"엄마":16666,"경계":16667,"수원":16668,"등록":16669,"블루":16670,"병원":16671,"##영상":16672,"##스테":16673,"완료":16674,"편집":16675,"어느정도":16676,"##전사":16677,"남편":16678,"비고":16679,"승강":16680,"스카":16681,"번호":16682,"표정":16683,"무섭":16684,"쿨타임":16685,"##플레이":16686,"임명":16687,"지나치":16688,"기지":16689,"오른쪽":16690,"비트":16691,"딱히":16692,"행복":16693,"##술사":16694,"멈추":16695,"허용":16696,"본선":16697,"친하":16698,"희망":16699,"사장":16700,"##붙이":16701,"59":16702,"방패":16703,"상처":16704,"##연히":16705,"바탕":16706,"코스트":16707,"포스":16708,"당장":16709,"##울리":16710,"의문":16711,"데리":16712,"태도":16713,"고통":16714,"탑재":16715,"유래":16716,"이스":16717,"장군":16718,"에이스":16719,"##트롤":16720,"유키":16721,"##ab":16722,"아시아":16723,"인지":16724,"##라이트":16725,"날아가":16726,"기점":16727,"평화":16728,"국회의":16729,"가까":16730,"비싸":16731,"아요":16732,"분야":16733,"120":16734,"선물":16735,"제압":16736,"고유":16737,"58":16738,"민주당":16739,"##아리":16740,"트랙":16741,"대답":16742,"성인":16743,"을까":16744,"제시":16745,"멸망":16746,"그레이":16747,"하위":16748,"레인":16749,"로드":16750,"##est":16751,"챙기":16752,"가슴":16753,"##크래프트":16754,"##대회":16755,"주목":16756,"빌리":16757,"57":16758,"꺼내":16759,"수리":16760,"잠깐":16761,"자라":16762,"아웃":16763,"후지":16764,"##th":16765,"MP":16766,"##나미":16767,"중단":16768,"##라리":16769,"마크":16770,"##all":16771,"날개":16772,"이론":16773,"어라":16774,"멀티":16775,"나뉘":16776,"##ea":16777,"거주":16778,"사령":16779,"66":16780,"한화":16781,"95":16782,"##니어":16783,"측면":16784,"사항":16785,"##터리":16786,"회장":16787,"당선":16788,"검사":16789,"시나리오":16790,"주도":16791,"멀리":16792,"겨우":16793,"포르":16794,"##디아":16795,"뮤직":16796,"내려가":16797,"액션":16798,"다가":16799,"##소녀":16800,"스파이":16801,"##전쟁":16802,"투자":16803,"년간":16804,"주연":16805,"공화국":16806,"뉴욕":16807,"눈치":16808,"동맹":16809,"에다":16810,"보급":16811,"일본어":16812,"##철도":16813,"달라지":16814,"약속":16815,"Sh":16816,"듀얼":16817,"학원":16818,"ᆯ수록":16819,"건":16820,"우수":16821,"교회":16822,"테마":16823,"드라이":16824,"보수":16825,"궁극":16826,"Lo":16827,"텔레":16828,"온라인":16829,"##ct":16830,"##나무":16831,"가볍":16832,"최악":16833,"ddd":16834,"on":16835,"##보스":16836,"시체":16837,"##토스":16838,"나타내":16839,"카운터":16840,"늘리":16841,"크리":16842,"1999":16843,"망하":16844,"Re":16845,"##하라":16846,"가져가":16847,"순서":16848,"위주":16849,"배신":16850,"좀비":16851,"##스키":16852,"종합":16853,"소울":16854,"대놓":16855,"##초등학교":16856,"가드":16857,"해제":16858,"견제":16859,"퍼지":16860,"110":16861,"함대":16862,"##ddd":16863,"dddddd":16864,"Sp":16865,"##바로":16866,"1998":16867,"현장":16868,"오후":16869,"보도":16870,"##두르":16871,"카메라":16872,"##AL":16873,"##타로":16874,"산업":16875,"##라우":16876,"지식":16877,"코너":16878,"처치":16879,"계산":16880,"연계":16881,"핵심":16882,"베이스":16883,"##오리":16884,"##지원":16885,"최대한":16886,"살해":16887,"##어리":16888,"ㅓ서":16889,"##AT":16890,"62":16891,"##다이":16892,"##PS":16893,"예선":16894,"귀족":16895,"##워하":16896,"나카":16897,"자이":16898,"해금":16899,"국회의원":16900,"직원":16901,"인원":16902,"필살기":16903,"중화":16904,"##OR":16905,"에스":16906,"전장":16907,"진실":16908,"##VE":16909,"귀엽":16910,"외부":16911,"분석":16912,"거절":16913,"컨트롤":16914,"##어스":16915,"##트로":16916,"국가대표":16917,"드물":16918,"##유키":16919,"건너":16920,"쓰러":16921,"특기":16922,"이성":16923,"이치":16924,"스케":16925,"##고기":16926,"##주시":16927,"유용":16928,"출생":16929,"SS":16930,"용병":16931,"제조":16932,"SBS":16933,"가르치":16934,"어울리":16935,"소프트":16936,"출발":16937,"통일":16938,"상하":16939,"수사":16940,"증거":16941,"개편":16942,"부리":16943,"인형":16944,"애매":16945,"는다고":16946,"##들리":16947,"기분":16948,"부담":16949,"##시즌":16950,"고서":16951,"스탠":16952,"##ate":16953,"쿠":16954,"지옥":16955,"광역":16956,"##선거":16957,"레이저":16958,"극장판":16959,"흔히":16960,"##ess":16961,"한자":16962,"커뮤":16963,"겨울":16964,"안하":16965,"Th":16966,"##ell":16967,"##번호":16968,"##래도":16969,"61":16970,"세계관":16971,"불명":16972,"어린":16973,"민족":16974,"##ard":16975,"76":16976,"아라":16977,"진영":16978,"타자":16979,"##사키":16980,"끼리":16981,"단독":16982,"버튼":16983,"자살":16984,"영역":16985,"타이밍":16986,"##ang":16987,"얼음":16988,"피해자":16989,"발휘":16990,"아무래도":16991,"서울특별":16992,"겹치":16993,"##IC":16994,"카즈":16995,"자동차":16996,"##민주":16997,"크로스":16998,"레전":16999,"##바람":17000,"##다수":17001,"##연구":17002,"아침":17003,"오스트":17004,"홍콩":17005,"##ue":17006,"조준":17007,"무게":17008,"고급":17009,"순수":17010,"##기술":17011,"##ant":17012,"##ack":17013,"제로":17014,"비록":17015,"##대장":17016,"공통":17017,"##츠키":17018,"##ers":17019,"스펙":17020,"부진":17021,"패시브":17022,"Al":17023,"NP":17024,"코치":17025,"77":17026,"장전":17027,"시내":17028,"##ine":17029,"로켓":17030,"소수":17031,"88":17032,"케이스":17033,"두산":17034,"1997":17035,"구입":17036,"72":17037,"반란":17038,"##아나":17039,"##서관":17040,"##생활":17041,"##심히":17042,"레":17043,"브랜드":17044,"여왕":17045,"자고":17046,"##아":17047,"##나오":17048,"##가락":17049,"카페":17050,"게이":17051,"탑승":17052,"충돌":17053,"한명":17054,"혼란":17055,"스피드":17056,"몰리":17057,"후반부":17058,"상자":17059,"통신":17060,"##오프":17061,"장치":17062,"##시티":17063,"기획":17064,"기절":17065,"만족":17066,"서울특별시":17067,"문자":17068,"내주":17069,"협력":17070,"외치":17071,"인생":17072,"파악":17073,"군인":17074,"테크":17075,"탄생":17076,"끌어":17077,"막히":17078,"꾸준히":17079,"조지":17080,"게이지":17081,"생일":17082,"판타":17083,"BG":17084,"ㅕ서":17085,"왕자":17086,"우려":17087,"##디션":17088,"근거":17089,"##웨어":17090,"##ok":17091,"코어":17092,"##OS":17093,"아오":17094,"부인":17095,"안습":17096,"업무":17097,"닥터":17098,"무너지":17099,"실질":17100,"##카와":17101,"관광":17102,"be":17103,"납치":17104,"강조":17105,"##포트":17106,"등등":17107,"373":17108,"FI":17109,"채용":17110,"반영":17111,"붕괴":17112,"공산":17113,"더하":17114,"스프":17115,"게시":17116,"or":17117,"##자키":17118,"자르":17119,"위키":17120,"돌격":17121,"아라":17122,"미군":17123,"##노스":17124,"98":17125,"fff":17126,"##거":17127,"훌륭":17128,"온갖":17129,"CD":17130,"gt":17131,"장수":17132,"브라질":17133,"마이크":17134,"대공":17135,"점차":17136,"마왕":17137,"갈리":17138,"스킨":17139,"맡기":17140,"밸런스":17141,"##ive":17142,"수단":17143,"랜덤":17144,"##파이어":17145,"없애":17146,"600":17147,"반격":17148,"자격":17149,"패러디":17150,"##상태":17151,"주어지":17152,"##메달":17153,"##사건":17154,"용도":17155,"경향":17156,"댄스":17157,"홍보":17158,"구역":17159,"지하철":17160,"아메":17161,"공군":17162,"##도시":17163,"대다수":17164,"##리안":17165,"##스카":17166,"찾아가":17167,"내놓":17168,"##정보":17169,"공항":17170,"1996":17171,"설득":17172,"위원":17173,"권력":17174,"어차":17175,"살짝":17176,"##스코":17177,"제주":17178,"아사":17179,"입학":17180,"##시코":17181,"고민":17182,"어차피":17183,"주년":17184,"##ast":17185,"언니":17186,"승강장":17187,"체제":17188,"지시":17189,"PS":17190,"돌파":17191,"표준":17192,"##세우":17193,"##AS":17194,"가까이":17195,"대놓고":17196,"가로":17197,"1995":17198,"지급":17199,"커버":17200,"화살":17201,"영원":17202,"감염":17203,"실행":17204,"가입":17205,"또다":17206,"적당":17207,"엑스":17208,"가스":17209,"대륙":17210,"입수":17211,"충전":17212,"##중학교":17213,"응원":17214,"그다":17215,"작사":17216,"ㅓ야":17217,"제기":17218,"##uby":17219,"\",":17220,"베르":17221,"##오카":17222,"캐나다":17223,"집안":17224,"우":17225,"##가능":17226,"##ED":17227,"##은행":17228,"##tt":17229,"당황":17230,"울트라":17231,"갤러리":17232,"아야":17233,"68":17234,"즉시":17235,"##ee":17236,"내려오":17237,"자식":17238,"은근":17239,"lt":17240,"800":17241,"불안":17242,"신화":17243,"열심히":17244,"연방":17245,"##교통":17246,"체인":17247,"스페셜":17248,"군":17249,"뒤집":17250,"리어":17251,"별도":17252,"여러가지":17253,"여부":17254,"오프닝":17255,"##시지":17256,"신뢰":17257,"폐지":17258,"북미":17259,"63":17260,"매치":17261,"증명":17262,"1980":17263,"명예":17264,"유형":17265,"경력":17266,"##아먹":17267,"돌진":17268,"정령":17269,"한때":17270,"##친구":17271,"##ong":17272,"보물":17273,"##호사":17274,"##AM":17275,"ruby":17276,"괴롭":17277,"단일":17278,"##독교":17279,"도구":17280,"운명":17281,"##돌리":17282,"이승":17283,"찌르":17284,"가면라이더":17285,"후쿠":17286,"이슬":17287,"모션":17288,"마련":17289,"##ort":17290,"김성":17291,"선배":17292,"군주":17293,"##레기":17294,"라이벌":17295,"교환":17296,"비율":17297,"##데스":17298,"플라":17299,"카르":17300,"계승":17301,"흘리":17302,"마녀":17303,"##트남":17304,"댓글":17305,"##효과":17306,"##관리":17307,"##ith":17308,"##미야":17309,"근무":17310,"횟수":17311,"재생":17312,"##스트라":17313,"오해":17314,"##드라":17315,"경유":17316,"중계":17317,"71":17318,"##if":17319,"##아버지":17320,"74":17321,"트레이":17322,"습득":17323,"드랍":17324,"수입":17325,"주전":17326,"함선":17327,"불만":17328,"정말로":17329,"내내":17330,"##ly":17331,"트위터":17332,"커뮤니티":17333,"##스탄":17334,"##비전":17335,"##브리":17336,"시행":17337,"##fff":17338,"오픈":17339,"조조":17340,"....":17341,"MV":17342,"##ld":17343,"하수":17344,"전라":17345,"재판":17346,"장식":17347,"마츠":17348,"##히로":17349,"그곳":17350,"73":17351,"67":17352,"고속":17353,"ffffff":17354,"혁명":17355,"고전":17356,"레전드":17357,"박살":17358,"절반":17359,"가리키":17360,"추진":17361,"격투":17362,"딜러":17363,"짜리":17364,"메이저":17365,"남부":17366,"주위":17367,"지우":17368,"아우":17369,"붙잡":17370,"테러":17371,"울산":17372,"로스":17373,"##보내":17374,"외국인":17375,"심장":17376,"단위":17377,"별개":17378,"계급":17379,"취소":17380,"NC":17381,"처하":17382,"##ain":17383,"메탈":17384,"일대":17385,"그라":17386,"##ist":17387,"96":17388,"##겨나":17389,"민간":17390,"##공사":17391,"파이터":17392,"회의":17393,"등판":17394,"암흑":17395,"##버트":17396,"1994":17397,"##ind":17398,"소문":17399,"##시안":17400,"가득":17401,"재능":17402,"##보드":17403,"TH":17404,"정권":17405,"북쪽":17406,"그다지":17407,"연예":17408,"쌓이":17409,"안드로":17410,"##퍼스":17411,"예술":17412,"감사":17413,"##서트":17414,"마주":17415,"180":17416,"고치":17417,"공유":17418,"해방":17419,"피해량":17420,"격파":17421,"##기간":17422,"지켜":17423,"지점":17424,"남쪽":17425,"AC":17426,"건강":17427,"##지컬":17428,"문명":17429,"##스턴":17430,"그동안":17431,"외교":17432,"스코어":17433,"스트라이":17434,"##레나":17435,"하":17436,"81":17437,"AT":17438,"##베르":17439,"네이버":17440,"초월":17441,"장애":17442,"강원":17443,"사운드":17444,"든지":17445,"아리":17446,"파리":17447,"발매되":17448,"공작":17449,"일부러":17450,"그만큼":17451,"결승전":17452,"##타이":17453,"다행히":17454,"차별":17455,"크리티":17456,"전방":17457,"##per":17458,"##티나":17459,"##바르":17460,"압박":17461,"임시":17462,"소멸":17463,"널리":17464,"전달":17465,"##아웃":17466,"하트":17467,"##ps":17468,"##구역":17469,"기독교":17470,"화장":17471,"공장":17472,"##EN":17473,"##가리":17474,"레오":17475,"##워크":17476,"입단":17477,"문제점":17478,"흔하":17479,"쓰러뜨리":17480,"그림자":17481,"##가와":17482,"적히":17483,"지켜보":17484,"피아":17485,"카나":17486,"판타지":17487,"타점":17488,"##식간":17489,"공사":17490,"페이":17491,"무적":17492,"따위":17493,"맞서":17494,"화려":17495,"##EC":17496,"물러":17497,"갑옷":17498,"헤드":17499,"자는":17500,"치명타":17501,"78":17502,"91":17503,"스튜":17504,"##거나":17505,"프로듀서":17506,"##OL":17507,"갈등":17508,"거래":17509,"##마을":17510,"순식간":17511,"말리":17512,"본명":17513,"지형":17514,"여동생":17515,"따오":17516,"무난":17517,"##ew":17518,"오로":17519,"건축":17520,"여론":17521,"선호":17522,"##때문":17523,"일상":17524,"유비":17525,"트레":17526,"공기":17527,"연사":17528,"컨텐츠":17529,"폭풍":17530,"여신":17531,"드립":17532,"러브":17533,"시야":17534,"패스":17535,"##투스":17536,"##모드":17537,"84":17538,"CP":17539,"체육":17540,"##일랜드":17541,"최상":17542,"체포":17543,"사단":17544,"##LC":17545,"관객":17546,"me":17547,"##ry":17548,"크리티컬":17549,"스파":17550,"용어":17551,"첫번":17552,"드디어":17553,"유로":17554,"전투력":17555,"아케":17556,"##려움":17557,"수있":17558,"체계":17559,"##레이터":17560,"82":17561,"불꽃":17562,"바라보":17563,"삼진":17564,"##lo":17565,"페이스":17566,"전역":17567,"추적":17568,"복잡":17569,"##타인":17570,"##영화":17571,"매력":17572,"늑대":17573,"97":17574,"파이널":17575,"대만":17576,"한국인":17577,"아무런":17578,"##사항":17579,"제이":17580,"경영":17581,"##덜란드":17582,"전함":17583,"86":17584,"도달":17585,"고향":17586,"화이트":17587,"영토":17588,"맞이":17589,"상향":17590,"사쿠라":17591,"대원":17592,"파견":17593,"##공항":17594,"폭주":17595,"해설":17596,"크루":17597,"##병대":17598,"##프로":17599,"떡밥":17600,"작동":17601,"##둥이":17602,"동원":17603,"사전":17604,"네덜란드":17605,"단":17606,"테이":17607,"##모로":17608,"it":17609,"변형":17610,"푸르":17611,"현지":17612,"69":17613,"##피":17614,"다시":17615,"다시피":17616,"##어버리":17617,"한방":17618,"##프레":17619,"추락":17620,"메가":17621,"인수":17622,"수용":17623,"조용":17624,"그치":17625,"요새":17626,"몰래":17627,"연관":17628,"페이지":17629,"아무것":17630,"쿠로":17631,"수학":17632,"참전":17633,"개통":17634,"is":17635,"추격":17636,"아티":17637,"NPC":17638,"출판":17639,"막장":17640,"달하":17641,"프라":17642,"생명력":17643,"께":17644,"##어오":17645,"출현":17646,"##IT":17647,"상품":17648,"##더스":17649,"충청":17650,"교황":17651,"일제":17652,"고기":17653,"##동차":17654,"작용":17655,"##릭스":17656,"둘러":17657,"##바일":17658,"돌아다니":17659,"해체":17660,"잖":17661,"매일":17662,"잉글":17663,"만든":17664,"US":17665,"프리미":17666,"##과학":17667,"미스":17668,"##아파트":17669,"##디언":17670,"향상":17671,"통제":17672,"박스":17673,"경험치":17674,"스카이":17675,"MS":17676,"중학교":17677,"복장":17678,"신인":17679,"놓치":17680,"##티드":17681,"리버":17682,"An":17683,"옛날":17684,"구현":17685,"왕조":17686,"녹음":17687,"동쪽":17688,"##가스":17689,"아파트":17690,"입력":17691,"김정":17692,"미야":17693,"##어도":17694,"북부":17695,"알아":17696,"##먼트":17697,"조성":17698,"##ust":17699,"오빠":17700,"서부":17701,"환상":17702,"교사":17703,"오류":17704,"스마트":17705,"와이":17706,"베트남":17707,"##교회":17708,"크레":17709,"오스":17710,"##고리":17711,"신규":17712,"##일리":17713,"수업":17714,"예외":17715,"언제나":17716,"보정":17717,"환자":17718,"노출":17719,"##크스":17720,"##국가":17721,"범인":17722,"250":17723,"기초":17724,"종점":17725,"총기":17726,"KT":17727,"출장":17728,"연애":17729,"이시":17730,"구체":17731,"##연합":17732,"##50":17733,"나루":17734,"##니까":17735,"되찾":17736,"메타":17737,"##단체":17738,"일원":17739,"##수록":17740,"회원":17741,"에드":17742,"토모":17743,"인근":17744,"##구리":17745,"심리":17746,"타워":17747,"시각":17748,"편지":17749,"##병원":17750,"##라드":17751,"영문":17752,"##티아":17753,"##라크":17754,"##리스트":17755,"여러모로":17756,"기어":17757,"##시타":17758,"신고":17759,"##류장":17760,"189":17761,"대립":17762,"쓰레기":17763,"거짓말":17764,"수요":17765,"가이":17766,"제자":17767,"한마":17768,"쿠키":17769,"##과정":17770,"보장":17771,"신라":17772,"마인":17773,"##요시":17774,"사토":17775,"의상":17776,"불편":17777,"불과하":17778,"신청":17779,"전형":17780,"연락":17781,"수집":17782,"202":17783,"그래픽":17784,"접하":17785,"편의":17786,"신분":17787,"1992":17788,"##전차":17789,"어깨":17790,"##야구":17791,"평타":17792,"##일드":17793,"전면":17794,"유희":17795,"양산":17796,"무료":17797,"##사기":17798,"##조리":17799,"창작":17800,"천사":17801,"차단":17802,"서쪽":17803,"##버프":17804,"신성":17805,"기여":17806,"92":17807,"##BO":17808,"검색":17809,"##ore":17810,"##톨릭":17811,"##저히":17812,"모바일":17813,"부품":17814,"영업":17815,"이중":17816,"Ar":17817,"##펙트":17818,"띄우":17819,"반지":17820,"대체로":17821,"노예":17822,"세월":17823,"동부":17824,"전직":17825,"진지":17826,"반발":17827,"학살":17828,"자이언":17829,"83":17830,"감시":17831,"##코드":17832,"고생":17833,"이날":17834,"주먹":17835,"마리오":17836,"심판":17837,"랄":17838,"폴란드":17839,"마리아":17840,"대량":17841,"Te":17842,"##베이":17843,"구속":17844,"호평":17845,"##조사":17846,"상상":17847,"제하":17848,"89":17849,"대우":17850,"제작진":17851,"잖아":17852,"하고":17853,"블록":17854,"클로":17855,"내구":17856,"##FF":17857,"101":17858,"휘두르":17859,"93":17860,"반하":17861,"정지":17862,"기기":17863,"1993":17864,"다섯":17865,"제법":17866,"브리":17867,"출처":17868,"무효":17869,"승격":17870,"##사고":17871,"프린":17872,"De":17873,"MAX":17874,"테스트":17875,"콘서트":17876,"침공":17877,"식물":17878,"기습":17879,"닌자":17880,"동영상":17881,"이득":17882,"94":17883,"스폰":17884,"한타":17885,"이랑":17886,"잉글랜드":17887,"##시설":17888,"더빙":17889,"이래":17890,"##스팅":17891,"보석":17892,"창조":17893,"링":17894,"##성기":17895,"어그":17896,"잠수":17897,"경기장":17898,"코믹스":17899,"com":17900,"79":17901,"적어도":17902,"알파":17903,"마도":17904,"파라":17905,"연상":17906,"지도자":17907,"은하":17908,"요즘":17909,"폭력":17910,"조심":17911,"##FC":17912,"저장":17913,"실드":17914,"re":17915,"동방":17916,"합격":17917,"꼬리":17918,"##구치":17919,"다이아":17920,"비디오":17921,"다면서":17922,"87":17923,"엔터":17924,"##란색":17925,"이리":17926,"메카":17927,"극단":17928,"##사업":17929,"볼넷":17930,"헌터":17931,"뛰어":17932,"멋지":17933,"##로나":17934,"마이클":17935,"하수인":17936,"공급":17937,"통상":17938,"##가미":17939,"노멀":17940,"박근":17941,"##라이언":17942,"글로":17943,"음성":17944,"똑같이":17945,"##사자":17946,"구출":17947,"##one":17948,"##데이":17949,"대략":17950,"훔치":17951,"On":17952,"시위":17953,"파일럿":17954,"이재":17955,"교전":17956,"니시":17957,"회차":17958,"##공원":17959,"동작":17960,"##se":17961,"##그룹":17962,"전투기":17963,"런던":17964,"결성":17965,"경비":17966,"##ip":17967,"##활동":17968,"합성":17969,"길이":17970,"토론":17971,"상점":17972,"지휘관":17973,"후기":17974,"사령관":17975,"##AC":17976,"유령":17977,"국립":17978,"도망가":17979,"AI":17980,"DJ":17981,"물질":17982,"고용":17983,"어드":17984,"아크":17985,"##RE":17986,"익숙":17987,"운전":17988,"아머":17989,"이슬람":17990,"어지":17991,"##임스":17992,"##ᇀ이":17993,"같이":17994,"바보":17995,"었었":17996,"서양":17997,"수영":17998,"##ere":17999,"##창기":18000,"나아가":18001,"탄약":18002,"득표":18003,"모리":18004,"윌리":18005,"동네":18006,"##PG":18007,"폭격":18008,"갤럭":18009,"소화":18010,"##널티":18011,"프레임":18012,"BGM":18013,"MC":18014,"회수":18015,"인공":18016,"신경쓰":18017,"장관":18018,"사마":18019,"##오":18020,"어둡":18021,"SN":18022,"경고":18023,"이내":18024,"활성":18025,"##의원":18026,"의혹":18027,"법률":18028,"묻히":18029,"##ity":18030,"권총":18031,"불법":18032,"냐며":18033,"##ath":18034,"조절":18035,"태우":18036,"규칙":18037,"##지마":18038,"##가드":18039,"조치":18040,"콜라":18041,"플레이오프":18042,"디지털":18043,"##미스":18044,"성과":18045,"##바라":18046,"전적":18047,"스웨":18048,"타케":18049,"라이더":18050,"동기":18051,"유행":18052,"수송":18053,"김영":18054,"들어서":18055,"엘프":18056,"으니까":18057,"호감":18058,"부문":18059,"간부":18060,"투구":18061,"##공화국":18062,"문장":18063,"FIFA":18064,"요괴":18065,"지르":18066,"##사회":18067,"##인민":18068,"려다":18069,"웬만":18070,"##스킬":18071,"##부장":18072,"##스토":18073,"##end":18074,"##부르크":18075,"결론":18076,"##끄럽":18077,"1991":18078,"종이":18079,"##마법":18080,"이명":18081,"취임":18082,"불러":18083,"빛나":18084,"움직임":18085,"터키":18086,"스티":18087,"원소":18088,"자매":18089,"##마이":18090,"다하":18091,"앞두":18092,"##리온":18093,"글자":18094,"멕시코":18095,"가톨릭":18096,"곧바로":18097,"저그":18098,"매니":18099,"제어":18100,"!!":18101,"##메이크":18102,"탱커":18103,"정면":18104,"찾아보":18105,"일시":18106,"키스":18107,"포탑":18108,"특화":18109,"진심":18110,"키리":18111,"##장치":18112,"##기":18113,"##대사":18114,"여유":18115,"너무나":18116,"THE":18117,"700":18118,"FA":18119,"소닉":18120,"예측":18121,"문학":18122,"메인":18123,"##프리":18124,"##배우":18125,"오랫":18126,"박정":18127,"절망":18128,"소드":18129,"신문":18130,"흥행":18131,"수술":18132,"가시":18133,"ㅕㅆ":18134,"도발":18135,"전공":18136,"구원":18137,"근육":18138,"신호":18139,"착각":18140,"시드":18141,"정복":18142,"커맨":18143,"사자":18144,"총리":18145,"끼치":18146,"1988":18147,"의무":18148,"유대":18149,"어떠":18150,"제임스":18151,"개체":18152,"개정":18153,"MVP":18154,"외계":18155,"듯이":18156,"리메이크":18157,"국방":18158,"홀로":18159,"요정":18160,"연대":18161,"##마루":18162,"##지방":18163,"아끼":18164,"떠오르":18165,"육성":18166,"##라노":18167,"넘치":18168,"##타자":18169,"그대":18170,"초창기":18171,"좌우":18172,"고백":18173,"출력":18174,"소형":18175,"강철":18176,"여지":18177,"##커스":18178,"팀원":18179,"##네스":18180,"차라리":18181,"##페인":18182,"실리":18183,"Ro":18184,"물러나":18185,"긍정":18186,"##OT":18187,"인정받":18188,"베스트":18189,"아기":18190,"스토":18191,"피부":18192,"초등학교":18193,"인연":18194,"목격":18195,"파트너":18196,"예비":18197,"##러드":18198,"정착":18199,"##팩트":18200,"##행위":18201,"##아시아":18202,"번개":18203,"챕터":18204,"탱크":18205,"연도":18206,"아일랜드":18207,"요코":18208,"CC":18209,"에서부터":18210,"계정":18211,"상호":18212,"플랫":18213,"바치":18214,"##속도로":18215,"Wh":18216,"타이거":18217,"플레":18218,"어린이":18219,"발달":18220,"전시":18221,"위장":18222,"헤이":18223,"안드로이드":18224,"파이어":18225,"##작용":18226,"영향력":18227,"길드":18228,"이주":18229,"는다면":18230,"AK":18231,"예고":18232,"묘지":18233,"식민":18234,"신설":18235,"슬롯":18236,"세이브":18237,"내장":18238,"대항":18239,"헌법":18240,"##세스":18241,"떠올리":18242,"##자드":18243,"몰아":18244,"미츠":18245,"##마크":18246,"박근혜":18247,"##ect":18248,"차트":18249,"각자":18250,"DLC":18251,"오사카":18252,"하필":18253,"깨지":18254,"대폭":18255,"명중률":18256,"htt":18257,"라면서":18258,"고문":18259,"Se":18260,"##포터":18261,"1970":18262,"##카리":18263,"코인":18264,"##평가":18265,"청년":18266,"사양":18267,"예능":18268,"농구":18269,"갤럭시":18270,"양쪽":18271,"##잡이":18272,"후속작":18273,"으려고":18274,"히데":18275,"최소한":18276,"Le":18277,"##저스":18278,"마침내":18279,"##지로":18280,"##티스":18281,"호주":18282,"수록곡":18283,"분기":18284,"의뢰":18285,"아바":18286,"어다":18287,"'.":18288,"본작":18289,"강의":18290,"게스트":18291,"악역":18292,"관할":18293,"##대상":18294,"주간":18295,"전후":18296,"##시리즈":18297,"##위키":18298,"협박":18299,"##도르":18300,"현역":18301,"##닉스":18302,"누적":18303,"##브라":18304,"국왕":18305,"공지":18306,"용사":18307,"저녁":18308,"He":18309,"인증":18310,"##무장":18311,"오랫동안":18312,"세르":18313,"그럼":18314,"PD":18315,"막차":18316,"골든":18317,"루타":18318,"##시오":18319,"안내":18320,"##age":18321,"##의회":18322,"##IS":18323,"##그리":18324,"아빠":18325,"미카":18326,"##미니":18327,"우리나라":18328,"신기":18329,"기원전":18330,"주말":18331,"부서":18332,"al":18333,"트로":18334,"역임":18335,"일자":18336,"방출":18337,"육체":18338,"의존":18339,"구멍":18340,"가속":18341,"괴롭히":18342,"##필드":18343,"전선":18344,"메모리":18345,"카오스":18346,"분량":18347,"적대":18348,"웨이":18349,"어쨌":18350,"세종":18351,"##나카":18352,"kt":18353,"감옥":18354,"##지대":18355,"부부":18356,"망치":18357,"##어나오":18358,"커플":18359,"연인":18360,"장교":18361,"올해":18362,"Go":18363,"다가오":18364,"터치":18365,"해리":18366,"Me":18367,"간혹":18368,"이지":18369,"비행기":18370,"장악":18371,"오늘날":18372,"이끄":18373,"요원":18374,"##밀리":18375,"실버":18376,"명성":18377,"년만":18378,"강남":18379,"##무르":18380,"코미":18381,"##크로":18382,"##박스":18383,"빌드":18384,"개방":18385,"일본군":18386,"융합":18387,"##물관":18388,"정글":18389,"노부":18390,"원자":18391,"ᆫ다며":18392,"예쁘":18393,"틀리":18394,"정치인":18395,"놀랍":18396,"노르":18397,"##워치":18398,"GT":18399,"처벌":18400,"가량":18401,"더라":18402,"대처":18403,"출마":18404,"오가":18405,"김태":18406,"1989":18407,"형사":18408,"KIA":18409,"떨어":18410,"투어":18411,"마구":18412,"써먹":18413,"놓이":18414,"은행":18415,"지능":18416,"##og":18417,"포스트":18418,"##ake":18419,"##몬드":18420,"##ide":18421,"배트":18422,"상당수":18423,"한동안":18424,"트레이드":18425,"개성":18426,"이집":18427,"희귀":18428,"스튜디오":18429,"외형":18430,"재미있":18431,"자치":18432,"오전":18433,"전문가":18434,"먹히":18435,"##OM":18436,"Be":18437,"십자":18438,"##구":18439,"My":18440,"무덤":18441,"피격":18442,"##경찰":18443,"WW":18444,"커지":18445,"패하":18446,"사제":18447,"호텔":18448,"준수":18449,"이즈":18450,"접촉":18451,"##타입":18452,"환승":18453,"섞이":18454,"##가시":18455,"부위":18456,"의료":18457,"130":18458,"##제국":18459,"환영":18460,"갇히":18461,"고교":18462,"가게":18463,"윌리엄":18464,"##려주":18465,"꼽히":18466,"소원":18467,"대지":18468,"담기":18469,"포르투":18470,"대표팀":18471,"바위":18472,"AR":18473,"##ss":18474,"둘째":18475,"허리":18476,"SC":18477,"이집트":18478,"최다":18479,"##ark":18480,"합의":18481,"소총":18482,"오스트리아":18483,"초간":18484,"플로":18485,"##ime":18486,"인조":18487,"필리":18488,"깨닫":18489,"##ire":18490,"따라가":18491,"안티":18492,"SM":18493,"편곡":18494,"선전":18495,"##천시":18496,"##문제":18497,"화제":18498,"정류장":18499,"국회":18500,"##우드":18501,"##치기":18502,"수련":18503,"188":18504,"논리":18505,"웹툰":18506,"으러":18507,"wh":18508,"아니면":18509,"116":18510,"손가락":18511,"확대":18512,"알렉산":18513,"까다":18514,"구도":18515,"전진":18516,"my":18517,"Su":18518,"문재":18519,"##랭크":18520,"##네임":18521,"##ES":18522,"핸드":18523,"은근히":18524,"전신":18525,"삼국지":18526,"##누스":18527,"스톰":18528,"SD":18529,"어른":18530,"귀신":18531,"ㅓ도":18532,"알아보":18533,"상업":18534,"##노우":18535,"흐름":18536,"##산업":18537,"##ID":18538,"입구":18539,"극복":18540,"고등":18541,"성립":18542,"태그":18543,"소지":18544,"##안타":18545,"소중":18546,"더더":18547,"권리":18548,"대개":18549,"치우":18550,"연타":18551,"Tr":18552,"미디어":18553,"는지라":18554,"스웨덴":18555,"국가대표팀":18556,"청소년":18557,"##ite":18558,"아가":18559,"축제":18560,"새벽":18561,"접속":18562,"##던가":18563,"독특":18564,"별다르":18565,"고구":18566,"튀어나오":18567,"##다랗":18568,"변호사":18569,"무렵":18570,"할아버지":18571,"수수":18572,"익히":18573,"##덩이":18574,"무겁":18575,"모모":18576,"일격":18577,"태평":18578,"라이프":18579,"굴리":18580,"조언":18581,"수십":18582,"160":18583,"##ound":18584,"블레이드":18585,"작곡가":18586,"편입":18587,"리치":18588,"연극":18589,"멀쩡":18590,"SR":18591,"페이즈":18592,"칭하":18593,"##iv":18594,"동의":18595,"일찍":18596,"바이러스":18597,"더더욱":18598,"HD":18599,"''":18600,"팬덤":18601,"퀄리티":18602,"평가받":18603,"사카":18604,"카라":18605,"차리":18606,"##쳐지":18607,"빼앗기":18608,"병기":18609,"까다롭":18610,"원수":18611,"음원":18612,"보안":18613,"팔리":18614,"혐의":18615,"원본":18616,"블로그":18617,"##협회":18618,"##큐어":18619,"시즈":18620,"##iz":18621,"##OP":18622,"카타":18623,"##ge":18624,"한마디":18625,"훗날":18626,"권한":18627,"위상":18628,"기사단":18629,"트윈":18630,"허나":18631,"랭킹":18632,"검찰":18633,"첫차":18634,"적군":18635,"절대로":18636,"IC":18637,"돼지":18638,"##항공":18639,"##속성":18640,"클래식":18641,"손해":18642,"살아가":18643,"##리얼":18644,"챔피언스":18645,"브레이크":18646,"주식":18647,"대가":18648,"##지구":18649,"클리":18650,"식사":18651,"##OW":18652,"대충":18653,"구나":18654,"보관":18655,"##시로":18656,"##스톤":18657,"합체":18658,"면역":18659,"##주인":18660,"느라":18661,"일일":18662,"증언":18663,"##사관":18664,"애플":18665,"주포":18666,"처형":18667,"갈수록":18668,"죄다":18669,"##감독":18670,"각본":18671,"시선":18672,"적응":18673,"하얗":18674,"계단":18675,"한쪽":18676,"무릎":18677,"미술":18678,"참석":18679,"금속":18680,"##아프":18681,"아트":18682,"리듬":18683,"공공":18684,"매직":18685,"##리나":18686,"과연":18687,"##키아":18688,"신세":18689,"결코":18690,"모자라":18691,"개시":18692,"네임":18693,"우위":18694,"##사령":18695,"마이너":18696,"한참":18697,"내성":18698,"카미":18699,"개입":18700,"결합":18701,"##무시":18702,"누나":18703,"전철":18704,"스승":18705,"##코토":18706,"후방":18707,"기적":18708,"##법원":18709,"##LL":18710,"유이":18711,"해안":18712,"토르":18713,"##ome":18714,"활발":18715,"동화":18716,"지진":18717,"미소":18718,"헤비":18719,"사도":18720,"수익":18721,"슈팅":18722,"다음날":18723,"천재":18724,"정수":18725,"Gr":18726,"불교":18727,"##공학":18728,"연구소":18729,"해상":18730,"##고속":18731,"경기력":18732,"내세우":18733,"##머스":18734,"크리스마스":18735,"치유":18736,"with":18737,"김민":18738,"우연히":18739,"##전대":18740,"사이즈":18741,"원칙":18742,"루시":18743,"스태":18744,"##BA":18745,"최종보스":18746,"유물":18747,"디버프":18748,"##지사":18749,"이영":18750,"##그마":18751,"털리":18752,"##UN":18753,"시계":18754,"루수":18755,"캐스팅":18756,"자금":18757,"유치":18758,"보고":18759,"캠페인":18760,"개막":18761,"트랜":18762,"통치":18763,"커맨드":18764,"연료":18765,"김종":18766,"오래되":18767,"스타크래프트":18768,"사막":18769,"데려오":18770,"이민":18771,"세포":18772,"이글":18773,"비추":18774,"디아":18775,"##범위":18776,"컬러":18777,"##싸움":18778,"##비드":18779,"선출":18780,"위대":18781,"IS":18782,"지위":18783,"투명":18784,"칭찬":18785,"의회":18786,"으라":18787,"인지도":18788,"게이트":18789,"결말":18790,"##일보":18791,"회상":18792,"메뉴":18793,"충성":18794,"하야":18795,"전성기":18796,"이자":18797,"해적":18798,"##양함":18799,"1987":18800,"플랫폼":18801,"업체":18802,"##리우스":18803,"추가바람":18804,"de":18805,"##데미":18806,"녹색":18807,"전멸":18808,"##비치":18809,"BE":18810,"##우리":18811,"흔들리":18812,"##방식":18813,"px":18814,"정찰":18815,"어지간":18816,"140":18817,"열쇠":18818,"김동":18819,"오카":18820,"나치":18821,"정비":18822,"겟":18823,"이정":18824,"눈치채":18825,"##MA":18826,"구사":18827,"Pr":18828,"도서관":18829,"미나":18830,"흔적":18831,"##말리":18832,"##테르":18833,"거인":18834,"이식":18835,"상태이상":18836,"신비":18837,"##ord":18838,"무작":18839,"Love":18840,"방사":18841,"##어서":18842,"상급":18843,"어쨌든":18844,"자국":18845,"오직":18846,"일반인":18847,"새기":18848,"호위":18849,"웃음":18850,"##ud":18851,"주기":18852,"어마":18853,"취미":18854,"##타카":18855,"작화":18856,"구경":18857,"##주의자":18858,"지속시간":18859,"포트":18860,"제정":18861,"고수":18862,"네오":18863,"농담":18864,"후계":18865,"대대":18866,"프리큐어":18867,"안경":18868,"어려움":18869,"레이드":18870,"##마리":18871,"사이드":18872,"ch":18873,"날짜":18874,"화성":18875,"으시":18876,"도주":18877,"##멘트":18878,"챌린":18879,"행적":18880,"본체":18881,"패션":18882,"회말":18883,"개량":18884,"불타":18885,"##mp":18886,"##주민":18887,"고스트":18888,"모조리":18889,"매년":18890,"##사람":18891,"스틸":18892,"거점":18893,"하락":18894,"대리":18895,"##10":18896,"사후":18897,"당일":18898,"생존자":18899,"모래":18900,"##ame":18901,"UE":18902,"##반도":18903,"##ance":18904,"개수":18905,"의대":18906,"니코":18907,"SKT":18908,"##ax":18909,"남북":18910,"네트":18911,"로그":18912,"상성":18913,"진보":18914,"코우":18915,"동굴":18916,"자세히":18917,"an":18918,"##려나":18919,"코코":18920,"스마트폰":18921,"아이스":18922,"JR":18923,"가짜":18924,"##ure":18925,"기울":18926,"일본인":18927,"흥미":18928,"##ix":18929,"900":18930,"##회장":18931,"GS":18932,"관중":18933,"시달리":18934,"##시스트":18935,"기르":18936,"##문학":18937,"메르":18938,"##기업":18939,"##ick":18940,"누리":18941,"##mer":18942,"비례":18943,"브루":18944,"채택":18945,"캡틴":18946,"일방":18947,"덧붙이":18948,"국적":18949,"개혁":18950,"식량":18951,"몽골":18952,"##ice":18953,"포격":18954,"아티스트":18955,"가을":18956,"예시":18957,"임대":18958,"아미":18959,"스프링":18960,"##게이":18961,"업적":18962,"재현":18963,"##our":18964,"화학":18965,"##음악":18966,"Bo":18967,"행하":18968,"레이스":18969,"유나이":18970,"유니폼":18971,"##월드":18972,"궤도":18973,"귀찮":18974,"방지":18975,"기용":18976,"런":18977,"영구":18978,"바깥":18979,"잘못되":18980,"울리":18981,"루이":18982,"집어":18983,"생겨나":18984,"피아노":18985,"승점":18986,"##버스터":18987,"연패":18988,"스톤":18989,"##아다니":18990,"EP":18991,"노인":18992,"식민지":18993,"소속사":18994,"1986":18995,"추구":18996,"##지르":18997,"협상":18998,"거듭":18999,"##위대":19000,"날아오":19001,"리드":19002,"볼트":19003,"##로디":19004,"미안":19005,"자리잡":19006,"##인민공화국":19007,"##랑이":19008,"잠재":19009,"자극":19010,"##투수":19011,"사형":19012,"선택지":19013,"1960":19014,"다름":19015,"단편":19016,"특집":19017,"##역사":19018,"OST":19019,"양성":19020,"신부":19021,"무방":19022,"신앙":19023,"##류탄":19024,"데모":19025,"저작":19026,"잡지":19027,"이익":19028,"엔터테":19029,"빨갛":19030,"KO":19031,"야스":19032,"##{{":19033,"Un":19034,"제갈":19035,"예수":19036,"취향":19037,"공원":19038,"할머니":19039,"종목":19040,"##차량":19041,"쌍둥이":19042,"간신":19043,"중장":19044,"##버그":19045,"스턴":19046,"라이온":19047,"Ex":19048,"보라":19049,"아즈":19050,"##시험":19051,"비주":19052,"출입":19053,"제작자":19054,"일치":19055,"프라이":19056,"기병":19057,"소장":19058,"스트리":19059,"넥센":19060,"##개발":19061,"소위":19062,"명확":19063,"##AD":19064,"정원":19065,"##그라":19066,"##qu":19067,"타인":19068,"전주":19069,"무역":19070,"캐리":19071,"강요":19072,"ᆫᄃ":19073,"어택":19074,"몰락":19075,"포항":19076,"##럼프":19077,"예산":19078,"그러니":19079,"##oc":19080,"다치":19081,"총선":19082,"사신":19083,"{{{":19084,"콜라보":19085,"안타깝":19086,"잘리":19087,"판매량":19088,"유희왕":19089,"즐겁":19090,"그만두":19091,"사우":19092,"##처리":19093,"막대":19094,"포로":19095,"##80":19096,"타락":19097,"조약":19098,"##우승":19099,"가상":19100,"실망":19101,"터뜨리":19102,"GB":19103,"##학원":19104,"재산":19105,"색깔":19106,"곡명":19107,"찾아내":19108,"##라엘":19109,"크라":19110,"UEFA":19111,"##자치":19112,"##센트":19113,"연승":19114,"단단":19115,"화물":19116,"세이버":19117,"##레벨":19118,"슈":19119,"깔끔":19120,"기도":19121,"즉위":19122,"##병기":19123,"휴대":19124,"유나이티드":19125,"DS":19126,"##버전":19127,"귀환":19128,"비상":19129,"186":19130,"##own":19131,"##도로":19132,"칼리":19133,"초보":19134,"sh":19135,"##거지":19136,"##ys":19137,"##블린":19138,"##작전":19139,"포르투갈":19140,"백성":19141,"너희":19142,"신장":19143,"챔피언십":19144,"아마도":19145,"CPU":19146,"중독":19147,"미루":19148,"색상":19149,"##터스":19150,"클레":19151,"게시판":19152,"블리":19153,"드라":19154,"##테일":19155,"ᄇ시":19156,"명단":19157,"래":19158,"아카데미":19159,"항복":19160,"##든가":19161,"##수사":19162,"공성":19163,"##ber":19164,"식당":19165,"고구려":19166,"외전":19167,"미스터":19168,"##레일":19169,"김재":19170,"강원도":19171,"통산":19172,"인격":19173,"등지":19174,"베네":19175,"##레드":19176,"유적":19177,"칭호":19178,"항공기":19179,"조별":19180,"##이너":19181,"적합":19182,"We":19183,"AM":19184,"구석":19185,"##슬러":19186,"커다랗":19187,"##교사":19188,"아쿠":19189,"로고":19190,"교장":19191,"사라":19192,"중대":19193,"타율":19194,"대선":19195,"김대":19196,"105":19197,"하단":19198,"새끼":19199,"건조":19200,"##av":19201,"##OC":19202,"둘러싸":19203,"일명":19204,"수장":19205,"오타":19206,"유효":19207,"탈퇴":19208,"교류":19209,"카트":19210,"끊기":19211,"레알":19212,"##old":19213,"커리어":19214,"포위":19215,"탄창":19216,"커피":19217,"무지":19218,"시내버스":19219,"..\"":19220,"타수":19221,"로즈":19222,"인치":19223,"체크":19224,"호수":19225,"고작":19226,"개국":19227,"CF":19228,"흑인":19229,"면모":19230,"공무원":19231,"반사":19232,"마키":19233,"LI":19234,"추억":19235,"측정":19236,"그러니까":19237,"##orld":19238,"예언":19239,"##인간":19240,"나무위키":19241,"##로봇":19242,"박히":19243,"구글":19244,"포수":19245,"라인업":19246,"기종":19247,"주사":19248,"후술":19249,"자폭":19250,"기생":19251,"라스":19252,"트라이":19253,"히어로즈":19254,"휴식":19255,"지대":19256,"상술":19257,"아저":19258,"##드리드":19259,"적당히":19260,"다름없":19261,"용기":19262,"##학과":19263,"##시절":19264,"흘러":19265,"저런":19266,"배터리":19267,"화장실":19268,"마약":19269,"고맙":19270,"사유":19271,"메시지":19272,"과목":19273,"실전":19274,"일기":19275,"##여자":19276,"면적":19277,"데드":19278,"승객":19279,"다스":19280,"성남":19281,"1984":19282,"##같이":19283,"##고지":19284,"아메리카":19285,"형상":19286,"차이점":19287,"선고":19288,"주소":19289,"##ont":19290,"1985":19291,"마비":19292,"더럽":19293,"반동":19294,"리얼":19295,"최신":19296,"어이":19297,"국경":19298,"철수":19299,"##려들":19300,"남녀":19301,"아랍":19302,"매니저":19303,"근본":19304,"##포르":19305,"187":19306,"도적":19307,"보존":19308,"##번트":19309,"SH":19310,"추종":19311,"##유럽":19312,"##어마":19313,"증오":19314,"피터":19315,"3000":19316,"승률":19317,"용서":19318,"강도":19319,"매장":19320,"한글판":19321,"소프트웨어":19322,"##축구":19323,"하차":19324,"##폭탄":19325,"AD":19326,"##ies":19327,"떨어뜨리":19328,"LC":19329,"사정거리":19330,"DF":19331,"급격":19332,"입지":19333,"메리":19334,"서포터":19335,"아서":19336,"유통":19337,"크리스탈":19338,"만명":19339,"후원":19340,"또다시":19341,"##에르":19342,"이슈":19343,"마드리드":19344,"lo":19345,"치루":19346,"KBO":19347,"본사":19348,"##베스":19349,"관람":19350,"미라":19351,"부각":19352,"도끼":19353,"서구":19354,"미묘":19355,"영주":19356,"연예인":19357,"시너지":19358,"##동물":19359,"아르헨":19360,"후배":19361,"토끼":19362,"생략":19363,"쓸모":19364,"아이콘":19365,"아테":19366,"집행":19367,"##통신":19368,"루카":19369,"잠수함":19370,"데려가":19371,"후손":19372,"액티브":19373,"It":19374,"부지":19375,"##lay":19376,"주역":19377,"네요":19378,"자전":19379,"XX":19380,"중첩":19381,"이스라엘":19382,"##경제":19383,"꾸미":19384,"왕위":19385,"허락":19386,"##여객":19387,"언더":19388,"그랜드":19389,"천만":19390,"저렴":19391,"마린":19392,"##기지":19393,"##비디오":19394,"중립":19395,"##본부":19396,"기아":19397,"##사무":19398,"동성":19399,"뜬금":19400,"오랜만":19401,"네트워크":19402,"공세":19403,"상단":19404,"클랜":19405,"기량":19406,"들키":19407,"튕기":19408,"총알":19409,"##하면":19410,"이수":19411,"아케이드":19412,"간신히":19413,"##페이":19414,"음모":19415,"##OD":19416,"신사":19417,"무척":19418,"MF":19419,"##걸이":19420,"##니시":19421,"숙련":19422,"수류탄":19423,"##포스":19424,"방어구":19425,"발행":19426,"마술":19427,"##US":19428,"서식":19429,"##슬링":19430,"글로벌":19431,"부딪":19432,"거미":19433,"배차":19434,"생년":19435,"취약":19436,"##모스":19437,"관측":19438,"구르":19439,"##산시":19440,"터미널":19441,"상인":19442,"텔레비전":19443,"알아내":19444,"해피":19445,"물리치":19446,"혹시":19447,"마주치":19448,"흡혈":19449,"CV":19450,"가만":19451,"회초":19452,"블러드":19453,"##카오":19454,"자막":19455,"맛있":19456,"상실":19457,"##라기":19458,"##크라":19459,"아이언":19460,"WWE":19461,"창원":19462,"행보":19463,"곤란":19464,"일족":19465,"##디스":19466,"##다운":19467,".....":19468,"학자":19469,"##PM":19470,"법정":19471,"##ann":19472,"관찰":19473,"아틀":19474,"공룡":19475,"논의":19476,"지경":19477,"금융":19478,"바퀴":19479,"머무르":19480,"##사이드":19481,"스페이스":19482,"NE":19483,"사귀":19484,"수출":19485,"애정":19486,"아르헨티나":19487,"재정":19488,"어마어마":19489,"SE":19490,"나폴":19491,"자본":19492,"강등":19493,"아시안":19494,"소라":19495,"이란":19496,"곳곳":19497,"##40":19498,"##타운":19499,"오버워치":19500,"타마":19501,
[...]
