[PAD]	0
[UNK]	0
[BOS]	0
[EOS]	0
[CLS]	0
[SEP]	0
[MASK]	0
▁▃	-0
▁ㅇ	-1
▁ㄱ	-2
▁ㄷ	-3
▁ㅎ	-4
▁ㅇㅣ	-5
▁ㅈ	-6
▁ㅅ	-7
▁ㄴ	-8
ㅡㄴ	-9
ㅡㄹ	-10
ㅏㄴ	-11
▁.	-12
▁ㅂ	-13
▁ㄷㅏ	-14
▁ㅇㅔ	-15
▁ㅁ	-16
▁ㄹ	-17
▁ㅇㅢ	-18
▁ㄴㅡㄴ	-19
▁ㅎㅏ	-20
ㅕㄴ	-21
ㅓㄴ	-22
ㅏㅇ	-23
▁,	-24
ㅗㅇ	-25
▁ㅇㅡㄹ	-26
ㅅㅓ	-27
ㅣㄴ	-28
▁ㅊ	-29
ㅕㅇ	-30
ㄹㅗ	-31
▁ㄱㅏ	-32
ㅜㄴ	-33
▁ㅇㅡㄴ	-34
ㅇㅣ	-35
▁ㅇㅓ	-36
ㄹㅣ	-37
▁ㅍ	-38
▁ㄱㅗ	-39
▁1	-40
▁ㅇㅡ	-41
▁ㅇㅕ	-42
ㅓㅇ	-43
▁ㄷㅚ	-44
▁ㅎㅏㄴ	-45
▁ㄹㅡㄹ	-46
ㅜㄱ	-47
ㅅㅡ	-48
▁ㅇㅏ	-49
▁ㅈㅣ	-50
▁ㅌ	-51
ㅏㄱ	-52
ㅈㅣ	-53
▁ㄴㅕㄴ	-54
ㅗㄱ	-55
▁ㄹㅗ	-56
ㅅㅣ	-57
▁ㅎㅐ	-58
ㅏㄹ	-59
▁ㄱㅣ	-60
▁ㅅㅣ	-61
▁ㄱㅘ	-62
▁2	-63
ㅜㄹ	-64
▁ㄷㅐ	-65
▁ㅇㅣㅆ	-66
ㄷㅏ	-67
▁ㅅㅏ	-68
▁ㄱㅡ	-69
▁ㅋ	-70
▁ㅈㅜ	-71
▁ㅇㅣㄴ	-72
▁ㄷㅗ	-73
ㅡㅇ	-74
ㅓㄱ	-75
▁ㅇㅓㅆ	-76
ㅗㄴ	-77
ㅝㄴ	-78
▁ㅇㅣㄹ	-79
ㄴㅏ	-80
ㄹㅏ	-81
▁ㅇㅘ	-82
ㅇㅓ	-83
ㄱㅣ	-84
ㅎㅐ	-85
▁ㄸ	-86
ㅅㅏ	-87
ㄱㅜㄱ	-88
ㅕㄱ	-89
▁ㄱㅓ	-90
▁ㅅㅜ	-91
▁ㄷㅡㄹ	-92
▁ㄴㅏ	-93
ㄷㅗ	-94
▁ㅈㅏ	-95
▁ㅎㅐㅆ	-96
▁ㅈㅓㄴ	-97
ㅈㅏ	-98
ㄱㅏ	-99
ㄹㅡ	-100
▁20	-101
▁ㅇㅕㅆ	-102
▁ㅈㅓㄱ	-103
ㅓㄹ	-104
ㅝㄹ	-105
ㄱㅗ	-106
▁ㅂㅜ	-107
ㅎㅘ	-108
ㄷㅡ	-109
ㅇㅏ	-110
ㅎㅏ	-111
ㅌㅡ	-112
ㅇㅛ	-113
ㅎㅏㄴ	-114
▁ㅇㅝㄹ	-115
ㅂㅜ	-116
ㅈㅏㅇ	-117
▁ㅈㅔ	-118
▁ㅁㅏ	-119
ㅈㅜ	-120
▁19	-121
ㅐㅇ	-122
ㅊㅣ	-123
▁ㅁㅣ	-124
ㅈㅓㅇ	-125
ㅑㅇ	-126
ㅓㅁ	-127
▁ㄹㅏ	-128
ㅇㅣㄴ	-129
▁ㅈㅓㅇ	-130
ㄷㅐ	-131
▁ㅇㅟ	-132
ㅅㅜ	-133
▁ㅇㅠ	-134
▁ㅎㅘ	-135
▁ㅂㅗ	-136
▁ㅈㅜㅇ	-137
ㄱㅜ	-138
ㅕㄹ	-139
▁ㅅㅔ	-140
ㅇㅝㄴ	-141
▁ㅇㅗ	-142
▁ㅂㅏ	-143
ㅇㅡ	-144
▁ㄱㅐ	-145
▁ㄱㅗㅇ	-146
▁ㅈㅗ	-147
▁ㄷㅚㄴ	-148
ㅅㅓㅇ	-149
▁ㄱㅕㅇ	-150
ㄹㅓ	-151
▁ㄱㅔ	-152
ㅈㅓㄴ	-153
ㅇㅜ	-154
ㅅㅏㅇ	-155
ㅈㅔ	-156
ㅐㄱ	-157
ㄱㅘ	-158
▁ㅁㅗ	-159
ㅌㅓ	-160
ㄷㅗㅇ	-161
▁3	-162
ㄱㅡ	-163
ㅎㅏㄱ	-164
▁ㄱㅓㅅ	-165
▁ㅅㅡ	-166
ㄴㅣ	-167
▁"	-168
▁ㅎㅏㄴㄷㅏ	-169
▁ㅅㅓㄴ	-170
ㅎㅚ	-171
ㅇㅛㅇ	-172
▁ㅂㅣ	-173
ㅓㅂ	-174
▁ㄷㅡㅇ	-175
▁ㄱㅜ	-176
▁ㅅㅓㅇ	-177
▁ㄲ	-178
ㄱㅛ	-179
▁ㅊㅏ	-180
▁ㅅㅗ	-181
▁ㅇㅕㄴ	-182
▁ㅁㅏㄴ	-183
▁ㄷㅗㅇ	-184
▁ㅅㅓ	-185
ㄹㅔ	-186
ㄹㅐ	-187
▁ㅅㅏㅇ	-188
ㄴㅡㄴ	-189
▁ㅁㅕ	-190
▁ㅇㅕㅇ	-191
ㅁㅕ	-192
▁ㄱㅜㄱ	-193
ㅁㅏ	-194
ㅅㅓㄴ	-195
▁ㅂㅏㄹ	-196
ㄱㅖ	-197
ㅇㅣㄹ	-198
ㅁㅜㄴ	-199
▁ㅁㅕㄴ	-200
▁201	-201
ㅇㅢ	-202
▁ㄴㅗ	-203
ㅅㅏㄴ	-204
ㅁㅣㄴ	-205
ㅂㅣ	-206
ㅁㅣ	-207
ㅇㅕㄱ	-208
ㅇㅠ	-209
ㅡㄱ	-210
▁4	-211
ㅅㅣㄴ	-212
ㅇㅑ	-213
ㅌㅏ	-214
ㄷㅔ	-215
▁'	-216
▁ㅎㅜ	-217
▁ㄱㅘㄴ	-218
ㅕㅆ	-219
▁ㅁㅕㅇ	-220
ㅈㅣㄴ	-221
▁ㅅㅣㄴ	-222
ㅁㅏㄴ	-223
▁ㄹㅣ	-224
ㅅㅗ	-225
▁ㅍㅡ	-226
▁ㅇㅕㄱ	-227
▁5	-228
ㅅㅣㄱ	-229
ㅇㅡㅁ	-230
▁200	-231
▁-	-232
ㅋㅡ	-233
ㅊㅔ	-234
▁ㄸㅐ	-235
ㄹㄹㅣ	-236
ㅈㅐ	-237
▁ㅈㅏㅇ	-238
▁ㅂㅏㅇ	-239
▁ㅍㅗ	-240
ㅇㅗ	-241
ㅁㅕㅇ	-242
▁ㅇㅜ	-243
▁ㅎㅏㄹ	-244
ㄱㅏㄴ	-245
ㄱㅔ	-246
ㅇㅟ	-247
▁ㅇㅛ	-248
ㅈㅗ	-249
▁ㄱㅛ	-250
▁ㄷㅓㄴ	-251
▁ㅁㅜㄴ	-252
ㄱㅜㄴ	-253
ㄹㅕ	-254
ㄷㅏㄴ	-255
▁ㄴㅐ	-256
▁ㅁㅜ	-257
ㅋㅏ	-258
ㅈㅏㄱ	-259
ㅎㅜ	-260
ㄱㅘㄴ	-261
ㅋㅣ	-262
▁ㅅㅐㅇ	-263
▁ㅆ	-264
ㄹㅜ	-265
ㅎㅐㅇ	-266
ㄹㅕㄱ	-267
▁ㅎㅗ	-268
▁ㅇㅝㄴ	-269
▁ㅎㅕㄴ	-270
▁ㄷㅏㅇ	-271
ㄱㅗㅇ	-272
ㄱㅓ	-273
ㅍㅡ	-274
▁ㅌㅗㅇ	-275
▁ㅈㅣㄴ	-276
ㅁㅜㄹ	-277
▁ㄱㅖ	-278
▁ㅂㅜㄴ	-279
ㅂㅗ	-280
▁ㄴㅏㅁ	-281
ㅁㅜ	-282
▁ㄱㅜㄴ	-283
ㄹㅗㄱ	-284
▁ㅍㅣ	-285
ㅂㅗㄴ	-286
▁ㅂㅐ	-287
▁6	-288
▁ㅇㅑ	-289
▁ㅎㅏㄱ	-290
▁ㄲㅏ	-291
ㅌㅗ	-292
ㄷㅏㅇ	-293
ㅇㅓㅂ	-294
▁ㅍㅏ	-295
ㅇㅜㄴ	-296
▁ㄸㅗ	-297
ㅌㅣ	-298
▁ㅈㅏㄱ	-299
▁ㄷㅔ	-300
▁ㅌㅏ	-301
▁ㅊㅜㄹ	-302
▁ㅇㅏㄶ	-303
▁ㄱㅏㅌ	-304
▁ㅊㅜ	-305
ㅇㅏㄴ	-306
ㄹㅡㄴ	-307
▁ㄱㅏㅇ	-308
▁ㄱㅕㄹ	-309
ㅇㅕ	-310
▁ㅇㅏㅆ	-311
ㅎㅣ	-312
▁ㅎㅚ	-313
ㅂㅏㄴ	-314
ㄴㅐ	-315
▁ㅂㅜㄹ	-316
ㅁㅕㄴ	-317
▁ㅊㅓ	-318
▁ㅎㅏㅁ	-319
ㄹㅠ	-320
ㅇㅘ	-321
▁ㅂㅓㄴ	-322
▁ㄷㅏㄴ	-323
ㅇㅑㅇ	-324
▁ㅇㅖ	-325
ㅅㅔ	-326
▁ㅂㅏㄷ	-327
▁7	-328
ㅅㅗㄱ	-329
ㅇㅣㅁ	-330
▁ㅊㅚ	-331
▁10	-332
ㄷㅣ	-333
▁8	-334
▁ㅂㅏㄴ	-335
ㅍㅣ	-336
▁ㄷㅚㄴㄷㅏ	-337
ㄹㅣㅂ	-338
ㅎㅗ	-339
▁ㅋㅏ	-340
ㅍㅗ	-341
ㅂㅏㅇ	-342
▁ㅊㅗ	-343
▁ㅂㅔ	-344
▁ㅋㅗ	-345
ㅣㅁ	-346
▁ㄷㅜ	-347
ㄱㅕㅇ	-348
▁ㅇㅏㄹ	-349
▁ㅇㅏㄴ	-350
ㅍㅛ	-351
▁ㅎㅕㅇ	-352
ㅁㅗ	-353
ㅅㅐㅇ	-354
▁ㅈㅐ	-355
▁ㅅㅣㄹ	-356
▁ㄸㅏ	-357
ㅌㅗㅇ	-358
ㅈㅡ	-359
▁ㅁㅏㄹ	-360
ㅋㅗ	-361
ㄹㅣㄴ	-362
ㅂㅜㄴ	-363
▁ㄹㅔ	-364
ㄷㅡㄹ	-365
▁ㅁㅐ	-366
ㅂㅏ	-367
ㅇㅕㅇ	-368
ㅈㅗㅇ	-369
▁ㅈㅗㅇ	-370
▁9	-371
ㄱㅕㄱ	-372
▁ㅇㅓㅄ	-373
ㅇㅕㄴ	-374
▁ㅌㅡㄱ	-375
▁ㅇㅡㅁ	-376
▁ㅅㅓㄹ	-377
ㅌㅔ	-378
ㅂㅓㅂ	-379
ㄱㅏㄱ	-380
ㅈㅓㄱ	-381
▁ㅁㅔ	-382
ㅂㅓ	-383
▁ㅅㅏㄴ	-384
ㅎㅏㅂ	-385
ㄹㅏㄴ	-386
▁ㅇㅣㄹㅂㅗㄴ	-387
ㅊㅏ	-388
▁ㅉ	-389
▁ㅇㅜㄴ	-390
ㄹㅡㅁ	-391
▁ㄷㅓ	-392
ㅂㅏㄹ	-393
ㅜㅁ	-394
ㅍㅏ	-395
▁ㅁㅕㄴㅅㅓ	-396
ㅁㅣㄴㄱㅜㄱ	-397
ㄴㅗ	-398
ㄷㅜ	-399
▁ㅎㅐㅇ	-400
▁ㄷㅡ	-401
▁ㅎㅘㄹ	-402
ㅇㅔ	-403
▁ㄱㅝㄴ	-404
ㄹㅕㅇ	-405
▁ㄱㅏㅁ	-406
▁ㅌㅐ	-407
▁ㄷㅗㄱ	-408
▁ㄴㅡㄴㄷㅔ	-409
▁ㅇㅐ	-410
ㅈㅣㄱ	-411
ㅎㅏㄴㅁㅣㄴㄱㅜㄱ	-412
ㄹㅏㅇ	-413
▁ㅇㅘㅇ	-414
ㄹㅏㅁ	-415
▁ㄱㅓㄴ	-416
ㅅㅓㄹ	-417
▁ㄱㅣㅁ	-418
▁ㅊㅣ	-419
ㅅㅡㅇ	-420
▁199	-421
ㅌㅐ	-422
▁ㅌㅔ	-423
▁ㅇㅣㅂ	-424
▁ㅋㅡ	-425
▁ㅇㅑㅇ	-426
▁ㅍㅕㅇ	-427
▁ㅁㅣㄴ	-428
▁ㄱㅏㄴ	-429
▁ㅁㅣㅊ	-430
ㄹㅛ	-431
▁12	-432
▁ㅊㅏㅁ	-433
ㅈㅓㅁ	-434
ㅅㅣㄹ	-435
▁18	-436
ㅈㅗㄱ	-437
▁ㅁㅏㄶ	-438
▁ㅁㅗㄱ	-439
ㅁㅔ	-440
▁ㄱㅕㅇㄱㅣ	-441
▁ㅂㅗㄴ	-442
▁ㅌㅗ	-443
▁ㅅㅡㅇ	-444
ㅈㅜㅇ	-445
ㄴㅕ	-446
ㅅㅜㄹ	-447
▁ㅇㅣㅁ	-448
▁ㅇㅚ	-449
ㄴㅔ	-450
ㅂㅔ	-451
ㅎㅏㄱㄱㅛ	-452
00	-453
▁;	-454
▁ㅅㅗㄱ	-455
▁ㅊㅔ	-456
ㅎㅕㅇ	-457
ㅊㅜㄹ	-458
or	-459
▁ㅊㅗㅇ	-460
ㅉㅗㄱ	-461
ㄱㅓㄴ	-462
▁S	-463
▁ㅂㅜㄱ	-464
ㄹㅗㄴ	-465
ㄴㅏㅁ	-466
ㅇㅑㄱ	-467
ㅅㅣㅁ	-468
ㄷㅗㄱ	-469
▁ㅌㅡ	-470
ㅎㅕㄴ	-471
ㅂㅡ	-472
▁ㅇㅕㄹ	-473
ㅅㅓㄱ	-474
▁ㅈㅣㅂ	-475
▁11	-476
▁ㅂㅓㅂ	-477
▁ㅃ	-478
ㅎㅑㅇ	-479
ㄷㅡㅇ	-480
▁ㅈㅓ	-481
▁ㄱㅏㄱ	-482
▁ㅂㅕㄴ	-483
▁ㅊㅓㄴ	-484
ㄴㅡㅇ	-485
ㅁㅐ	-486
▁ㅍㅛ	-487
▁ㅅㅐ	-488
ㄴㅏㄴ	-489
ㄹㄹㅏ	-490
ㅊㅓㄴ	-491
ㅍㅜㅁ	-492
▁ㅁㅜㄹ	-493
ㅇㅣㅂ	-494
ㅈㅣㄹ	-495
ㅇㅜㄹ	-496
ㄱㅡㅁ	-497
▁ㄴㅔ	-498
▁ㅈㅣㄱ	-499
▁ㅂㅓ	-500
▁ㅍㅔ	-501
▁A	-502
▁ㅅㅓㄴㅅㅜ	-503
▁ㄷㅣ	-504
ㄴㄷㅡ	-505
▁&	-506
ㅅㅗㅇ	-507
ㄲㅔ	-508
▁ㅌㅣㅁ	-509
▁)	-510
ㅍㅏㄴ	-511
▁ㅎㅏㄴㄱㅜㄱ	-512
▁ㅂㅏㄱ	-513
▁ㅎㅏㅁㄲㅔ	-514
▁ㅌㅜ	-515
▁ㅎㅏㅇ	-516
ㅇㅝ	-517
la	-518
▁ㅊㅓㅇ	-519
▁ㅇㅕㅇㅎㅘ	-520
▁ㅂㅡ	-521
▁ㅈㅓㅁ	-522
ㄹㅑㅇ	-523
ㅈㅕ	-524
ㅈㅐㅇ	-525
ㅈㅜㄴ	-526
▁ㄱㅘㅇ	-527
▁C	-528
▁f	-529
ㄹㅕㄴ	-530
▁ㅇㅑㄱ	-531
ㄱㅐ	-532
▁M	-533
ㅌㅜ	-534
▁ㅇㅛㅇ	-535
ㄱㅡㅂ	-536
ㄷㅡㄴ	-537
▁ㄹㅜ	-538
▁ㅍㅏㄴ	-539
ㅇㅓㄴ	-540
ㅎㅏㅁ	-541
ㅊㅓㅇ	-542
▁T	-543
▁ㅊㅜㄱ	-544
▁ㄱㅜㄱㄱㅏ	-545
▁ㅎㅕㄴㅈㅐ	-546
▁F	-547
▁ㄱㅕㅇㅇㅜ	-548
▁ㅂㅗㄱ	-549
ㅁㅏㅇ	-550
ㅍㅔ	-551
▁ㄴㅣ	-552
▁_	-553
▁198	-554
ㅕㅂ	-555
▁ㄷㅟ	-556
▁ㅍㅕㄴ	-557
▁ㅎㅘㄹㄷㅗㅇ	-558
▁ㅈㅗㄴ	-559
▁ㅅㅏㅁ	-560
ㅊㅗ	-561
▁ㅋㅐ	-562
ㅎㅏㅇ	-563
▁(	-564
ㅇㅏㄱ	-565
▁ㅋㅣ	-566
▁ㅎㅏㄱㄱㅛ	-567
▁ㅎㅘㄱ	-568
▁for	-569
▁ㅊㅐ	-570
ㄴㅕㄴ	-571
▁ㅍㅐ	-572
▁ㅊㅓㄹ	-573
▁ㄷㅏㅇㅅㅣ	-574
ㅋㅔ	-575
ㄱㅕㄹ	-576
mu	-577
ㅈㅓㄹ	-578
▁ㅎㅏㅂ	-579
▁ㄱㅠ	-580
▁15	-581
ㄱㅏㅇ	-582
▁ㅍㅡㄹ	-583
ㅅㅕㄴ	-584
ㅂㅕㅇ	-585
mula	-586
▁ㅎㅣ	-587
▁formula	-588
ㅂㅐ	-589
▁ㅇㅕㅆㅇㅡ	-590
▁ㄱㅡㅁ	-591
ㄴㅓ	-592
▁ㅅㅏㄹ	-593
ㅜㅇ	-594
▁ㄷㅏㄹ	-595
▁ㅇㅓㄴ	-596
▁ㅈㅡㅇ	-597
▁ㅉㅐ	-598
▁ㅇㅕㄱㅅㅏ	-599
▁ㅂㅐㄱ	-600
ㅈㅕㅆ	-601
▁ㅊㅏㅇ	-602
ㅇㅐ	-603
ㄹㅓㅂ	-604
ㄱㅕㄴ	-605
▁ㅅㅣㅁ	-606
ㅁㅗㄱ	-607
ㅍㅕㄴ	-608
ㄹㄹㅔ	-609
▁ㅅㅣㄱ	-610
ㅈㅓ	-611
▁16	-612
▁/	-613
▁ㅇㅕㄴㄱㅜ	-614
ㅂㅕㄹ	-615
ㅅㅐㄱ	-616
▁ㅆㅡ	-617
▁ㄱㅡㄴ	-618
ㅂㅗㄱ	-619
▁ㅂㅕㅇ	-620
ㅊㅡ	-621
ㅈㅡㄴ	-622
▁ㅋㅡㄹ	-623
ㅇㅠㄱ	-624
▁ㄹㅓ	-625
▁D	-626
▁m	-627
ㄱㅡㄴ	-628
▁ㅌㅗㅇㅎㅐ	-629
ㅎㅘㄴ	-630
ㅋㅜ	-631
▁ㅎㅘㅇ	-632
▁0	-633
ㄷㅏㄹ	-634
▁ㅁㅗㅅ	-635
ㅎㅘㅇ	-636
▁ㅅㅜㄴ	-637
▁ㅎㅔ	-638
▁17	-639
ㅎㅓㅁ	-640
▁ㅊㅜㅇ	-641
▁ㄸㅡ	-642
ㅂㅜㄱ	-643
▁B	-644
▁ㅎㅐㅆㅇㅡ	-645
▁197	-646
ㄱㅝㄴ	-647
ㅁㅓ	-648
▁ㅋㅔ	-649
▁ㅊㅓㅅ	-650
▁ㅆㅣ	-651
ㅇㅚ	-652
ㅇㅗㄴ	-653
▁ㄷㅗㄹ	-654
▁ㅈㅜㅇㄱㅜㄱ	-655
▁ㅇㅘㄴ	-656
▁:	-657
▁K	-658
ㅎㅏㄹ	-659
ㄴㅏㅆ	-660
ㄱㅠ	-661
▁I	-662
▁]	-663
▁[	-664
ㅇㅘㅇ	-665
ㅁㅍㅣ	-666
▁ㅎㅕㅂ	-667
▁ㄴㅗㅍ	-668
▁ㅁㅏㄴㄷㅡㄹ	-669
ㄹㅏㅇㅅㅡ	-670
▁ㅍㅣㄹ	-671
ㄱㅡㄹ	-672
ㅌㅏㄹ	-673
▁ㅇㅕㅇㄱㅜㄱ	-674
▁ㄸㅡㅅ	-675
▁ㅈㅓㅇㅂㅜ	-676
▁k	-677
ㄷㅓ	-678
ㄱㅗㄱ	-679
ㄹㅓㄴ	-680
ㄹㅐㄴㄷㅡ	-681
▁ㄴㅡㄴㄷㅏ	-682
▁ㅁㅜㄴㅎㅘ	-683
ㅂㅓㅁ	-684
▁ㅈㅓㄴㅈㅐㅇ	-685
ㅊㅏㄹ	-686
▁196	-687
ㄱㅘㅇ	-688
▁14	-689
▁ㄲㅡ	-690
▁~	-691
ㅈㅣㅂ	-692
▁ㅊㅜㄱㄱㅜ	-693
er	-694
ㄹㅖ	-695
ㅍㅓ	-696
▁ㅂㅕㄹ	-697
ㅊㅕ	-698
▁ㄷㅗㄱㅇㅣㄹ	-699
▁ㅊㅣㄴ	-700
▁ㅌㅣ	-701
▁P	-702
▁ㄴㅠ	-703
▁13	-704
▁ㅈㅜㄱ	-705
▁g	-706
in	-707
ㄹㅣㅁ	-708
▁ㅋㅡㄴ	-709
▁ㅊㅟ	-710
▁ㄱㅣㄹ	-711
▁ㅈㅓㅇㅊㅣ	-712
ㅎㅐㅆ	-713
ㄱㅕ	-714
▁ㅂㅏㅇㅅㅗㅇ	-715
▁ㅇㅗㄴ	-716
ㅌㅏㄴ	-717
▁ㄴㅓ	-718
▁ㅇㅗㄹㄹㅣ	-719
▁ㄱㅗㄱ	-720
ㄹㅕㅆ	-721
ㅇㅏㅇ	-722
▁ㅈㅜㄴ	-723
▁ㅎㅘㄴ	-724
ㄹㅏㄱ	-725
▁ㅇㅔㄴ	-726
ㄱㅓㅅ	-727
▁ㄱㅏㅁㄷㅗㄱ	-728
ㅇㅕㄹ	-729
▁194	-730
ㄱㅡㄱ	-731
▁ㅎㅓ	-732
▁ㅅㅗㄴ	-733
▁ㄴㅗㄴ	-734
▁ㄷㅗㅇㅇㅏㄴ	-735
▁L	-736
▁ㅅㅓㄱ	-737
▁ㅇㅣㄹㅂㅜ	-738
▁l	-739
ㅈㅗㄴ	-740
▁ㅇㅏㄹㄹㅕ	-741
ㅊㅜㄱ	-742
ㄹㄹㅗ	-743
▁ㅁㅜㄴㅈㅔ	-744
▁ㄱㅜㄱㅈㅔ	-745
ㅇㅡㄴ	-746
ㅅㅡㅂ	-747
ㅊㅣㅇ	-748
ㅇㅖ	-749
ㄴㅓㄹ	-750
ㄹㅓㅁ	-751
▁ㄱㅓㅁ	-752
▁ㄴㅗㅇ	-753
ㅍㅕㅇ	-754
▁ㅈㅏㄱㅍㅜㅁ	-755
▁ㅇㅣㄹㅂㅏㄴ	-756
ㅊㅓㄹ	-757
▁G	-758
▁%	-759
▁ㅇㅣㄴㄱㅜ	-760
ㄴㅕㅁ	-761
ㄱㅏㅁ	-762
ㅇㅞ	-763
▁ㅅㅠ	-764
▁ㄱㅘㄴㄱㅖ	-765
ㅈㅣㅇ	-766
ㅊㅜ	-767
▁ㄷㅚㄹ	-768
▁N	-769
▁ㄴㅏㄹ	-770
▁ㅈㅗㄴㅈㅐ	-771
▁ㅇㅜㄴㄷㅗㅇ	-772
ㅊㅓ	-773
▁ㅈㅜㄹ	-774
▁ㅋㅜ	-775
▁ㅎㅑㅇ	-776
▁ㅅㅓㅁ	-777
▁ㄱㅗㄹ	-778
▁ㄲㅡㅌ	-779
ㅎㅚㄱ	-780
on	-781
▁ㄱㅡㅂ	-782
ㅅㅏㄹ	-783
▁km	-784
▁gt	-785
ㅅㅡㄹ	-786
▁195	-787
▁ㅍㅗㄱ	-788
▁ㄷㅙ	-789
▁ㅎㅛ	-790
▁ㄱㅗㅅ	-791
▁ㅈㅓㅇㄷㅗ	-792
▁ㅇㅠㄱ	-793
▁U	-794
▁ㅇㅡㅁㅇㅏㄱ	-795
▁ㄱㅕ	-796
▁ㅈㅡㄱ	-797
▁ㅈㅓㅂ	-798
ㅌㅐㄱ	-799
▁R	-800
▁ㄱㅟ	-801
ㅌㅡㄹ	-802
▁ㅌㅓ	-803
▁ㅇㅞ	-804
▁lt	-805
▁ㅇㅏㅍ	-806
▁ㄱㅕㅇㅈㅔ	-807
▁ㅁㅏㅌ	-808
ㅂㅗㅇ	-809
ㅅㅡㄴ	-810
▁ㅅㅓㄴㄱㅓ	-811
ㅂㅕㄴ	-812
▁ㅋㅓ	-813
ㅎㅘㄹ	-814
▁ㅈㅜㅇㅅㅣㅁ	-815
▁H	-816
▁30	-817
▁ㅈㅓㄴㅌㅜ	-818
▁ㅂㅡㄹ	-819
ㅊㅏㅇ	-820
▁E	-821
▁ㄱㅡㄱ	-822
ㄴㅏㄹ	-823
ㅋㅣㄴ	-824
ㅁㅏㄱ	-825
ㅌㅓㄴ	-826
▁ㅂㅏㄹㄱㅕㄴ	-827
ㅊㅐㄱ	-828
▁ㄹㅕ	-829
ㄱㅅㅡ	-830
▁ㄱㅡㄹ	-831
▁ㅂㅗㅇ	-832
▁ㅈㅓㄹ	-833
▁ㅎㅗㅇ	-834
ㅁㅍㅣㄱ	-835
ㅈㅡㅇ	-836
▁ㄷㅏㅁ	-837
ㅌㅗㅇㄹㅕㅇ	-838
▁ㅂㅏㄹㅍㅛ	-839
▁ㅇㅏㅁ	-840
▁ㅁㅏㅈ	-841
▁2010	-842
▁ㄱㅓㄹ	-843
▁ㄱㅏㅈ	-844
▁ㄴㅜ	-845
▁ㅁㅣㄴㅈㅜ	-846
▁ㅊㅡㄱ	-847
▁ㅇㅗㄹㄹㅣㅁㅍㅣㄱ	-848
ㅊㅏㄱ	-849
▁ㅈㅣㄹ	-850
▁ㅂㅗㄹ	-851
ㄹㅐㅁ	-852
ㅋㅓ	-853
▁ㅁㅏㄱ	-854
▁ㅊㅐㄱ	-855
an	-856
▁ㅈㅏㄹ	-857
▁ㅇㅕㅇㅎㅑㅇ	-858
▁ㄱㅕㄹㄱㅘ	-859
ㅇㅜㅁ	-860
▁ㅅㅗㅇ	-861
▁ㅁㅓ	-862
▁ㄱㅘㄴㄹㅕㄴ	-863
000	-864
▁ㄷㅡㄹㅇㅓ	-865
ㅈㅓㅂ	-866
▁ㄱㅗㅇㄱㅕㄱ	-867
▁ㅅㅔㄴ	-868
▁193	-869
▁ㅌㅏㄴ	-870
▁ㅇㅓㅂ	-871
▁ㅊㅏㅁㅇㅕ	-872
ㅅㅜㄴ	-873
▁c	-874
▁ㄹㅠ	-875
▁ㅎㅐㅇㅈㅓㅇ	-876
20	-877
▁ㅈㅜㅇㅇㅏㅇ	-878
ㅎㅗㄴ	-879
▁ㅇㅗㄹ	-880
▁ㅁㅣㄹ	-881
▁ㅂㅏㄺ	-882
ㅇㅡㄹ	-883
▁ㅈㅣㄴㅎㅐㅇ	-884
ㅆㅓ	-885
▁ㅈㅏㅂ	-886
▁ㅂㅏㄹㅅㅐㅇ	-887
▁ㅂㅓㅁ	-888
ㄹㅏㄴㄷㅡ	-889
ㅇㄱㅡㄹ	-890
ㅆㅡ	-891
▁ㅅㅓㄹㄹㅣㅂ	-892
▁25	-893
▁ㄷㅗㄱㄹㅣㅂ	-894
▁ㅂㅏㄹㅁㅐ	-895
ㅇㅡㅇ	-896
▁ㅎㅕㅇㅌㅐ	-897
▁ㅅㅓㄹㅊㅣ	-898
▁ㄴㅏㄴ	-899
ㄷㅡㄱ	-900
▁2008	-901
▁ㅍㅖ	-902
▁W	-903
▁ㅇㅓㄷ	-904
ㅂㅐㄱ	-905
▁ㅇㅐㄹ	-906
ㅍㅐ	-907
▁ㅈㅘ	-908
▁ㅌㅡㄱㅎㅣ	-909
▁ㄹㅡ	-910
▁ㄱㅕㄹㅈㅓㅇ	-911
▁ㅎㅡ	-912
▁ㄷㅙㅆ	-913
ㄷㅏㅁ	-914
▁21	-915
ㅓㄹㅇㅓ	-916
▁ㅇㅏㄱ	-917
▁ㅌㅏㄹ	-918
ㅂㅜㄹ	-919
ㅂㅓㄹ	-920
▁ㅅㅏㅇㅌㅐ	-921
ㅇㅝㄴㅎㅚ	-922
▁ㄱㅏㅌㅇㅣ	-923
▁ㅊㅏㅁㄱㅏ	-924
ㅇㅝㄹ	-925
▁ㅇㅣㄹㅇㅓ	-926
▁2012	-927
▁ㅇㅣㄴㅁㅣㄴ	-928
▁2011	-929
ㅍㅡㄹ	-930
▁ㅊㅣㅁ	-931
▁ㅈㅓㅇㅂㅗ	-932
ㄷㅗㄹ	-933
▁ㄲㅗ	-934
▁ㅇㅜㄴㅇㅕㅇ	-935
▁ㄷㅡㅇㅈㅏㅇ	-936
▁ㅊㅜㄹㅅㅣㄴ	-937
▁ㅍㅏㄹ	-938
en	-939
▁ㄱㅘㄴㄹㅣ	-940
▁2007	-941
ㄴㅣㄴ	-942
▁2014	-943
▁2009	-944
▁ㅈㅗㅎ	-945
ㅋㅡㄹ	-946
▁ㅇㅣㄴㅎㅐ	-947
ㅂㅏㄱ	-948
ㅅㅗㄴ	-949
▁ㅎㅗㄴ	-950
▁t	-951
ㅊㅣㄴ	-952
ㅂㅡㄹ	-953
▁100	-954
▁ㅇㅠㄴ	-955
ㅇㅕㅆ	-956
ㅂㅟ	-957
ㅌㅚ	-958
▁ㅇㅡㅁㅂㅏㄴ	-959
ㄴㅐㅆ	-960
▁a	-961
▁ㅍㅣㄹㅇㅛ	-962
▁ㅅㅐㅇㅅㅏㄴ	-963
▁ㄹㅏㄴ	-964
▁ㅅㅛ	-965
ㄷㅓㄱ	-966
▁ㅊㅓㄹㄷㅗ	-967
ㅌㅏㄹㄹㅣ	-968
ㅎㅢ	-969
▁O	-970
▁2013	-971
▁ㅈㅜㅇㅇㅛ	-972
ㅅㅠ	-973
▁ㅅㅐㅇㅇㅐ	-974
▁ㅋㅗㄴ	-975
▁ㅅㅐㅇㄱㅏㄱ	-976
▁ㅎㅓㄴ	-977
he	-978
▁ㅎㅢ	-979
▁ㅅㅏㅇㄷㅐ	-980
ㅊㅏㄴ	-981
▁ㄴㅡ	-982
ㅁㅐㅇ	-983
ㄱㅐㄱ	-984
ㄹㅜㅂ	-985
ㄲㅏ	-986
ㅋㅕㅆ	-987
▁ㅁㅛ	-988
ㄴㅏㅁㄷㅗ	-989
ㅌㅔㅁ	-990
▁2015	-991
▁ㅅㅓㅇㄱㅗㅇ	-992
▁ㄱㅜㄱㅁㅣㄴ	-993
▁ㅅㅐㅇㅎㅘㄹ	-994
▁ㅋㅏㄹ	-995
▁2018	-996
ㄱㅠㄴ	-997
▁23	-998
▁ㅅㅑ	-999
ar	-1000
▁191	-1001
▁2016	-1002
ㄸㅐ	-1003
▁ㅂㅏㅇㅂㅓㅂ	-1004
▁24	-1005
▁ㅂㅏㄹㅈㅓㄴ	-1006
▁ㄴㅓㅁ	-1007
ㄷㅔㄹ	-1008
▁ㅊㅜㄹㅇㅕㄴ	-1009
ㅊㅡㄱ	-1010
ㄹㅡㄹ	-1011
▁000	-1012
▁ㅇㅝㄹㄷㅡ	-1013
ㅈㅣㄴㄷㅏ	-1014
▁ㅁㅕㅊ	-1015
ㅎㅕ	-1016
▁J	-1017
▁ㅇㅣㄴㄷㅗ	-1018
ㄷㅡㅇㅎㅏㄱㄱㅛ	-1019
▁ㅃㅜㄴ	-1020
▁ㅇㅐㄹㅂㅓㅁ	-1021
ㄴㅜ	-1022
▁ㅇㅓㄱ	-1023
▁ㅇㅝ	-1024
es	-1025
ㅇㅠㄹ	-1026
▁ㄴㅡㅇ	-1027
▁ㅊㅏㅈ	-1028
▁2006	-1029
▁ㅍㅜ	-1030
▁22	-1031
▁ㄱㅏㄹ	-1032
▁ㅂㅜㄴㄹㅠ	-1033
ㄴㅡㄹ	-1034
FA	-1035
ㄹㅑ	-1036
ㅊㅣㅁ	-1037
▁ㄱㅗㅇㅎㅘ	-1038
ㅇㅣㄱ	-1039
▁ㅆㅏ	-1040
ㅇㅏㅁ	-1041
▁ㅍㅡㄹㄹㅔ	-1042
▁2017	-1043
▁ㅂㅏㅇㅅㅣㄱ	-1044
▁ㅍㅕㅇㄱㅏ	-1045
▁192	-1046
ㄱㅏㄹ	-1047
▁ㅈㅓㄴㅊㅔ	-1048
▁ㅊㅡㅇ	-1049
▁ㅍㅓ	-1050
ㅊㅚ	-1051
▁ㄹㅐ	-1052
▁ㅈㅓㅇㅇㅢ	-1053
▁ㄷㅜㄹ	-1054
▁ㄷㅗㄹㅇㅏ	-1055
▁ㅎㅏㅇㄱㅗㅇ	-1056
▁ㅋㅓㅁ	-1057
▁ㅇㅣㄴㅌㅓ	-1058
▁ㄱㅗㅇㅅㅣㄱ	-1059
▁ㅈㅕㅆ	-1060
ㅇㅜㄴㄷㅔ	-1061
▁ㅇㅗㄹㄹㅏ	-1062
▁ㅇㅕㄴㅎㅏㅂ	-1063
▁ㅁㅗㄱㄹㅗㄱ	-1064
ㄱㅟ	-1065
ㅁㅏㄹ	-1066
▁ㅊㅜㄹㅈㅓㄴ	-1067
▁ㄱㅕㄱ	-1068
▁ㅍㅜㅇ	-1069
ㄹㅑㄱ	-1070
▁ㅁㅏㄶㅇㅣ	-1071
▁s	-1072
▁ㅎㅠ	-1073
ㅎㅏㄴㄷㅏ	-1074
▁ㅎㅏㄴㅍㅕㄴ	-1075
▁ㅇㅕㄱㅎㅏㄹ	-1076
▁ㅁㅗㅁ	-1077
▁ㅇㅓㄴㅇㅓ	-1078
ㅎㅏㄱㅈㅏ	-1079
▁ㄱㅜㄴㅅㅏ	-1080
▁ㅁㅣㄴㅈㅗㄱ	-1081
ㄴㅡ	-1082
▁ㅃㅏ	-1083
ㅎㅓㄴ	-1084
▁ㄱㅕㄹㄱㅜㄱ	-1085
▁ㄸㅓ	-1086
▁ㅅㅐㄱ	-1087
▁ㅈㅏㅁ	-1088
▁ㅇㅣㄴㄱㅏㄴ	-1089
▁ㅎㅣㅁ	-1090
ㄹㅔㄴ	-1091
ㅊㅣㄱ	-1092
▁!	-1093
▁ㅎㅕㄴㄷㅐ	-1094
▁ㅇㅡㅇ	-1095
at	-1096
▁ㅁㅗㅅㅎㅏ	-1097
ㅇㅘㅆ	-1098
▁ㅁㅓㄴ	-1099
▁ㅂㅏㄴㄷㅐ	-1100
▁ㅇㅜㄹ	-1101
▁2019	-1102
▁ㅇㅓㄹ	-1103
▁26	-1104
▁ㅌㅡㄱㅂㅕㄹ	-1105
▁ㄴㅗㄱ	-1106
ㅇㅕㅁ	-1107
ㅇㅣㄴㄷㅏ	-1108
▁ㅇㅕㄴㄱㅕㄹ	-1109
▁ㅌㅡㄱㅈㅣㅇ	-1110
ㅎㅔ	-1111
▁28	-1112
ㅂㅜㄱㄷㅗ	-1113
▁ㄸㅓㄹㅇㅓ	-1114
▁ㅋㅏㄴ	-1115
▁ㄱㅗㅇㄱㅐ	-1116
▁27	-1117
ㅁㅣㄹ	-1118
ㅎㅕㄱ	-1119
ㅁㅓㄴ	-1120
▁ㅎㅗㅁ	-1121
▁2005	-1122
▁V	-1123
ㅋㅕ	-1124
ㅇㅏㅂ	-1125
▁ㅇㅕㄹㄹㅣㄴ	-1126
▁ㄱㅏㄱㄱㅏㄱ	-1127
ㅎㅟ	-1128
▁ㄷㅏㄴㅊㅔ	-1129
▁2000	-1130
▁ㄱㅕㅇㅅㅏㅇ	-1131
ㄹㅣㄱ	-1132
▁ㄷㅗㅇㅅㅣ	-1133
▁ㅈㅗㄹ	-1134
▁ㄸㅟ	-1135
▁ㅎㅐㄱ	-1136
ㅍㅜㅇ	-1137
▁ㅇㅣㄴㅁㅜㄹ	-1138
▁ㅂㅜㅌ	-1139
▁ㅅㅟ	-1140
▁ㅈㅣㄴㅊㅜㄹ	-1141
▁ㅅㅏㄴㅇㅓㅂ	-1142
ic	-1143
ㄹㅐㄴ	-1144
▁ㅈㅗㄱ	-1145
▁ㅂㅣㄹ	-1146
▁ㅁㅗㄱㅈㅓㄱ	-1147
ㅍㅣㄹ	-1148
ㅂㅓㄴ	-1149
▁ㅇㅣㅁㅁㅕㅇ	-1150
ㅊㅗㅇ	-1151
ㄱㅗㄹ	-1152
al	-1153
▁ㄴㅗㅎ	-1154
ㅅㅔㄴ	-1155
▁ㅈㅓㄴㅁㅜㄴ	-1156
ㅋㅓㅂ	-1157
▁ㅂㅜㄹㄹㅣ	-1158
ㅇㅛㄱ	-1159
▁ㄱㅣㄴ	-1160
▁ㅈㅓㅇㅊㅐㄱ	-1161
ㅎㅡㅇ	-1162
ㅌㅣㄴ	-1163
▁ㅇㅣㄴㅈㅓㅇ	-1164
▁ㅍㅗㄹ	-1165
▁ㅂㅏㄲ	-1166
BS	-1167
▁FC	-1168
▁ㅁㅓㄱ	-1169
▁2004	-1170
▁ㅅㅡㅇㄹㅣ	-1171
▁ㄱㅗㅇㄱㅏㄴ	-1172
ㅊㅕㅆ	-1173
▁ㅅㅡㄹ	-1174
ㄴㅐㄴ	-1175
ㄹㅓㅎ	-1176
ㄱㅚ	-1177
ㄹㅣㅇ	-1178
▁ㅂㅣㄴ	-1179
▁ㅎㅕㄱ	-1180
▁ㄱㅓㄴㅅㅓㄹ	-1181
▁ㄱㅓㄴㅁㅜㄹ	-1182
▁ㄴㅜㄴ	-1183
▁TV	-1184
▁ㅇㅘㅆ	-1185
▁ㅂㅓㄹ	-1186
ㄱㅏㅆ	-1187
▁ㅅㅡㅂ	-1188
▁ㅌㅔㄹㄹㅔ	-1189
▁ㅈㅣㄱㅈㅓㅂ	-1190
ㅊㅜㅇ	-1191
▁ㅁㅏㅇ	-1192
▁b	-1193
▁ㄱㅗㅇㄷㅗㅇ	-1194
ㄱㅗㅇㅎㅘ	-1195
▁ㅅㅏㅇㅎㅘㅇ	-1196
▁ㅇㅏㅂ	-1197
▁ㄱㅕㅇㄹㅕㄱ	-1198
▁31	-1199
ㅋㅣㄴㄷㅏ	-1200
ㄱㅕㅆ	-1201
▁50	-1202
ㄹㅠㄹ	-1203
▁ㅎㅘㄹㅇㅑㄱ	-1204
▁ㄱㅕㄹㅎㅗㄴ	-1205
ㄹㅗㅅ	-1206
ㄹㅠㄱ	-1207
▁ㄱㅕㅇㅊㅏㄹ	-1208
is	-1209
▁ㅎㅕㅇㅅㅓㅇ	-1210
▁ㅈㅗㄹㅇㅓㅂ	-1211
it	-1212
▁ㅎㅜㄴ	-1213
▁ㄱㅜㄱㅎㅚ	-1214
▁29	-1215
re	-1216
▁ㅂㅕㄴㄱㅕㅇ	-1217
ㅊㅡㅇ	-1218
ㄷㅓㄴ	-1219
ㅇㅝㅆ	-1220
ㄹㄹㅓ	-1221
▁2020	-1222
ㄱㅗㅅ	-1223
▁ㅇㅣㄴㅁㅣㄴㄱㅗㅇㅎㅘ	-1224
▁ㅋㅡㄹㄹㅓㅂ	-1225
▁ㄱㅘㄴㅎㅏㄴ	-1226
ㅇㅓㅁ	-1227
▁ㅂㅕㄴㅎㅘ	-1228
ㅎㅡ	-1229
▁ㅈㅜㅇㅎㅏㄱㄱㅛ	-1230
ㅇㅔㄹ	-1231
▁190	-1232
▁ㄱㅜㅇ	-1233
ou	-1234
ㄱㅣㄴ	-1235
ㅎㅕㅆ	-1236
▁ㅅㅗㄱㅎㅏ	-1237
▁ㅇㅘㄴㅈㅓㄴ	-1238
▁ㅁㅐㄱ	-1239
▁ㅌㅏㅂ	-1240
ㅋㅛ	-1241
▁ㄸㅏㄹ	-1242
▁ㄴㅏㅈ	-1243
ㅇㅕㄱㅅㅣ	-1244
▁ㅈㅜㅇㅎㅘ	-1245
▁ㅎㅏㄱㅅㅐㅇ	-1246
▁ㄹㅗㄴ	-1247
ㄹㅔㄱ	-1248
ㅓㄹㄹㅣ	-1249
ㅇㅜㄴㄷㅡ	-1250
ㄱㅜㄹ	-1251
ㅌㅣㅇ	-1252
▁ㅈㅓㄴㄱㅜㄱ	-1253
ㄹㅡㄴㄷㅏ	-1254
ㅂㅣㄴ	-1255
▁ㄱㅕㄴ	-1256
▁ㅁㅗㄹ	-1257
▁ㅅㅣㄹㅈㅔ	-1258
▁ㄱㅕㅁ	-1259
▁ㅇㅕㄱㅅㅣ	-1260
▁ㅇㅜㄴㅎㅐㅇ	-1261
▁ㄷㅏㄹㄹㅣ	-1262
▁ㅅㅣㄹㅅㅣ	-1263
ㅌㅏㅇ	-1264
▁ㅅㅣㅇㄱㅡㄹ	-1265
▁ㅇㅗㄱ	-1266
▁ㅈㅗㅇㄱㅛ	-1267
▁ㅅㅡㅇㄱㅏㅇ	-1268
▁ㅁㅕㅇㅊㅣㅇ	-1269
▁2002	-1270
▁ㅂㅐㄴㄷㅡ	-1271
▁ㅇㅝㄴㄹㅐ	-1272
ㄱㅜㅇ	-1273
▁ㅇㅣㄹㅇㅡ	-1274
▁ㅌㅏㅁ	-1275
▁ㅎㅗㄱ	-1276
▁ㅍㅏㄴㅁㅐ	-1277
▁ㅈㅓㄴㅌㅗㅇ	-1278
▁ㅌㅚ	-1279
ㅎㅘㄱ	-1280
▁ㅁㅏㄴㄷㅡㄴ	-1281
▁ㅅㅔㄴㅌㅓ	-1282
▁ㅎㅘㅇㅈㅔ	-1283
▁2003	-1284
▁ㅁㅠ	-1285
▁ㅎㅘㄴㄱㅕㅇ	-1286
▁40	-1287
▁ㅈㅓㄴㄱㅣ	-1288
▁ㅇㅓㅄㅇㅣ	-1289
▁ㅇㅓㅁ	-1290
ㅅㅐ	-1291
ㅈㅚ	-1292
▁ㅋㅓㅂ	-1293
ㄸㅓㄴ	-1294
ㅊㅗㄴ	-1295
▁=	-1296
ㅟㄴ	-1297
▁ㅁㅡ	-1298
le	-1299
mp	-1300
▁ㅈㅓㄴㅈㅏ	-1301
ㄱㅣㄹ	-1302
ㄹㅐㄱ	-1303
ㅇㅗㄱ	-1304
▁ㅂㅜㄴㅇㅑ	-1305
ㅆㅣ	-1306
ㅍㅠ	-1307
▁ㅅㅓㄹㅁㅕㅇ	-1308
▁ㅈㅓㄴㄹㅏ	-1309
▁ㄴㅏㅁㅈㅏ	-1310
▁ㅅㅡㅇㄱㅏㅇㅈㅏㅇ	-1311
ㅇㅜㄱ	-1312
▁ㄱㅔㅆ	-1313
▁ㄱㅗㅇㅇㅕㄴ	-1314
ㅌㅡㄱ	-1315
▁ㄷㅗㅇㅁㅜㄹ	-1316
▁ㅇㅕㅁ	-1317
▁ㅇㅕㄴㅂㅏㅇ	-1318
▁ㅈㅡ	-1319
▁ㅎㅟ	-1320
▁ㅅㅓㄴㅈㅓㅇ	-1321
ㅇㅘㄴ	-1322
▁ㅅㅣㅂ	-1323
▁ㅁㅗㅅㅎㅐㅆ	-1324
ㄹㅕㄹ	-1325
▁ㅍㅜㄹ	-1326
ㅅㅜㄱ	-1327
▁ㅈㅏㄱㅇㅛㅇ	-1328
▁ㅊㅜㄹㅅㅣ	-1329
▁ㅅㅜㄱ	-1330
ㄷㅗㅇㅊㅏ	-1331
▁ㅈㅏㄱㅇㅓㅂ	-1332
▁ㅂㅜㄱㅉㅗㄱ	-1333
▁ㄴㅏㅁㅉㅗㄱ	-1334
▁ㅁㅜㄴㅎㅏㄱ	-1335
▁ㅌㅗㅇㅎㅏㅂ	-1336
ㅌㅏㄱ	-1337
ㄴㅠ	-1338
ㅊㅜㄴ	-1339
ㄹㅣㄴㄷㅏ	-1340
ㅇㅔㄴ	-1341
▁ㄴㅓㄼ	-1342
ㅎㅜㄴ	-1343
ㅎㅛ	-1344
▁ㅎㅕㅇㅅㅣㄱ	-1345
▁ㅇㅕㄱㅇㅣㅁ	-1346
▁ㅇㅕㄹㅊㅏ	-1347
ㅈㅟ	-1348
▁ㅂㅏㅇㅎㅑㅇ	-1349
▁ㅎㅐㅇㄷㅗㅇ	-1350
ㅂㅔㄹ	-1351
ㄱㅌㅡ	-1352
ㅈㅏㅂ	-1353
ㄷㅗㄱㄱㅛ	-1354
▁FI	-1355
▁ㅋㅓㅁㅍㅠ	-1356
▁ㅉㅏ	-1357
▁ㄴㅡㅇㄹㅕㄱ	-1358
▁ㅈㅏㄱㄱㅏ	-1359
▁ㄱㅜㄱㄴㅐ	-1360
▁ㅊㅏㄱ	-1361
▁ㅈㅏㄱㄱㅗㄱ	-1362
ㅅㅡㅅ	-1363
▁ㅈㅡㅇㄱㅏ	-1364
▁ㄹㅓㄴ	-1365
ㅎㅕㅂ	-1366
▁ㅇㅗㄻ	-1367
▁ㅎㅕㄱㅁㅕㅇ	-1368
▁ㅈㅗㅇㄹㅠ	-1369
▁ㅎㅐㅇㅇㅟ	-1370
▁ㅎㅘㄱㅇㅣㄴ	-1371
ㅁㅗㄴ	-1372
▁ㅁㅗㅇ	-1373
ㄹㅓㅆ	-1374
▁ㄷㅡㄱ	-1375
ㄲㅡㄹ	-1376
BC	-1377
▁ㄱㅜㄴㄷㅐ	-1378
ㄴㅔㅅ	-1379
ㄷㅔㄴ	-1380
ㅁㅂㅓ	-1381
▁ㄴㅏㄱ	-1382
▁ㅇㅘㅇㄱㅜㄱ	-1383
▁ㅎㅕㅂㅎㅚ	-1384
▁ㄴㅗㅍㅇㅣ	-1385
ㄲㅡ	-1386
ㄲㅣ	-1387
ㄷㅡㅁ	-1388
ㅅㅣㅇ	-1389
▁ㄹㅣㅇ	-1390
ㅂㅕㄱ	-1391
▁ㄴㅏㅁㅂㅜ	-1392
▁X	-1393
ㅌㅓㄹ	-1394
▁ㅎㅡㅇ	-1395
▁ㅎㅗㄱㅇㅡㄴ	-1396
▁ㄱㅓㄴㅊㅜㄱ	-1397
▁2001	-1398
▁ㅇㅠㄱㄱㅜㄴ	-1399
▁p	-1400
▁1990	-1401
▁ㄷㅏㅁㄷㅏㅇ	-1402
▁ㄷㅗㅇㅇㅣㄹ	-1403
▁ㄷㅗㅇㅉㅗㄱ	-1404
ㅌㅠ	-1405
▁ㄱㅏㅂ	-1406
▁ㅎㅡㄴ	-1407
▁ㅂㅏㄴㅇㅡㅇ	-1408
ㅋㅔㅅ	-1409
▁ㅈㅏㄴ	-1410
▁ㅈㅏㅇㄱㅘㄴ	-1411
▁ㄷㅔㄴ	-1412
▁ㅊㅜㅇㅊㅓㅇ	-1413
▁ㄱㅗㅇㅅㅏ	-1414
▁ㅅㅓㅇㅈㅏㅇ	-1415
▁ㅈㅓㅇㄷㅏㅇ	-1416
▁ㅎㅚㄱ	-1417
ㅊㅐ	-1418
▁ㄱㅗㅇㅅㅏㄴ	-1419
▁ㅊㅐㅁㅍㅣ	-1420
▁ㅇㅣㄴㄱㅣ	-1421
▁189	-1422
▁ㅁㅐㄴ	-1423
ㅋㅏㄴ	-1424
▁ㅁㅜㄹㄹㅣ	-1425
ㅁㅐㄱ	-1426
ㅌㅔㄴ	-1427
▁ㅍㅜㅁ	-1428
▁ㄹㅗㄱ	-1429
ㅋㅓㄹ	-1430
▁ㅂㅏㅇㅇㅕㅇ	-1431
▁ㄷㅗㄴ	-1432
▁ㅇㅟㄴ	-1433
▁ㅈㅓㄱㅇㅛㅇ	-1434
▁FIFA	-1435
▁d	-1436
ㄷㅜㅇ	-1437
▁ㅇㅐㄱ	-1438
ㅈㅘ	-1439
▁ㄱㅚ	-1440
▁ㅈㅣㅇ	-1441
ㅂㅏㄷ	-1442
▁ㅂㅔㄹ	-1443
▁ㅎㅡㄱ	-1444
ㅇㅣㄹㄹㅣ	-1445
▁ㄱㅗㅇㅎㅏㅇ	-1446
▁ㅉㅗㄱ	-1447
ㅅㅕ	-1448
▁ㅋㅓㄴ	-1449
▁ㄱㅜㄱㄹㅣㅂ	-1450
▁ㅊㅣㅇ	-1451
▁ㅈㅏㄱㅈㅓㄴ	-1452
▁ㅆㅏㅇ	-1453
ㅇㅐㄱ	-1454
▁ㅈㅟ	-1455
el	-1456
et	-1457
▁ㅇㅜㅁ	-1458
ㅁㅡ	-1459
▁ㅌㅡㄱㅈㅓㅇ	-1460
ㅊㅟ	-1461
▁ㄷㅓㄱ	-1462
▁ㅍㅣㄹㄹㅣ	-1463
▁ㄴㅓㅎ	-1464
▁ㅅㅏㅇㄷㅏㅇ	-1465
▁ㄸㅏㅇ	-1466
ㅈㅡㅁ	-1467
ㄴㅣㅇ	-1468
▁ㄱㅗㄷ	-1469
ㅍㅣㄴ	-1470
▁ㅇㅣㅂㄷㅏㄴ	-1471
▁ㅁㅔㅁㅂㅓ	-1472
ion	-1473
▁ㄱㅘㄴㅎㅏㄹ	-1474
ㄴㅑ	-1475
▁ㅅㅓㄴㅊㅜㄹ	-1476
▁ㄱㅕㄹㅅㅡㅇ	-1477
▁ㅁㅗㄴ	-1478
▁ㅇㅕㄴㄱㅣ	-1479
ㄹㅣㄹ	-1480
▁ㅅㅓㄴㅇㅓㄴ	-1481
ㅇㅝㄴㅈㅓㄴ	-1482
▁ㅂㅜㄱㅂㅜ	-1483
▁ㅅㅣㄹㅍㅐ	-1484
▁ㅇㅕㅇㅇㅓ	-1485
▁ㅇㅕㄴㅈㅜ	-1486
ㄷㅣㅇ	-1487
▁ㅅㅗㄱㄷㅗ	-1488
▁ㅇㅕㄴㅅㅗㄱ	-1489
ㅂㅗㄹ	-1490
▁ㅎㅓㄴㅂㅓㅂ	-1491
ㄴㅅㅡ	-1492
▁ㅇㅔㄹ	-1493
▁ㄴㅡㄹ	-1494
▁ㅅㅓㄴㅌㅐㄱ	-1495
ㅇㄱㅡㄹㄹㅐㄴㄷㅡ	-1496
▁ㅅㅓㄹㄱㅖ	-1497
▁ㅇㅣㄴㅊㅓㄴ	-1498
▁ㄱㅗㄴ	-1499
▁ㅎㅏㅁㅅㅜ	-1500
▁ㅇㅖㅅ	-1501
▁ㅇㅕㄴㄷㅐ	-1502
ing	-1503
21	-1504
▁ㄷㅏㄴㄱㅖ	-1505
▁ㅂㅔㄴ	-1506
ㄹㅕㅂ	-1507
ol	-1508
▁ㅍㅣㄴ	-1509
▁ㄱㅓㄹㅊㅕ	-1510
▁ㅁㅜㄹㅈㅣㄹ	-1511
ㄹㅜㄴ	-1512
▁ㅊㅜㄹㅍㅏㄴ	-1513
▁1999	-1514
▁ㅇㅙ	-1515
ㅌㅔㄹ	-1516
▁ㅂㅜㄴㅅㅓㄱ	-1517
ㅇㅓㄹ	-1518
▁ㅁㅕㅇㄹㅕㅇ	-1519
▁ㄱㅗㅇㅇㅝㄴ	-1520
▁1998	-1521
▁ㄷㅏㄹㄹㅓ	-1522
▁ㅊㅓㄱ	-1523
▁ㅈㅓㅇㅅㅣㄴ	-1524
▁ㅇㅐㄴ	-1525
▁ㅍㅕㅇㄱㅠㄴ	-1526
ㄹㅡㅇ	-1527
▁cm	-1528
▁ㄱㅗㅇㄹㅣㅂ	-1529
▁Y	-1530
▁ㅂㅏㅁ	-1531
▁o	-1532
ㄹㅛㅇ	-1533
▁ㅊㅏㄴ	-1534
▁ㄴㅗㄴㄹㅏㄴ	-1535
ㄷㅓㄹ	-1536
ㅍㅖ	-1537
▁ㅇㅣㅇㄱㅡㄹㄹㅐㄴㄷㅡ	-1538
▁ㅇㅣㄴㅈㅣ	-1539
ㅇㅗㄹ	-1540
▁ㅁㅜㄴㅈㅏ	-1541
▁ㅊㅣㄴㄱㅜ	-1542
ㅌㅗㄴ	-1543
▁ㅅㅜㄹ	-1544
▁ㅍㅐㄴ	-1545
▁ㄴㅡㄴㅈㅣ	-1546
▁1980	-1547
▁ㅅㅣㅇ	-1548
ㅉㅐ	-1549
ㄹㅚ	-1550
▁ㄱㅏㅇㅎㅘ	-1551
ㅊㅓㄱ	-1552
▁ㅂㅏㄺㅎㅕㅆ	-1553
ㄴㅏㄴㄷㅏ	-1554
▁ㅎㅘㄱㅈㅏㅇ	-1555
ㅌㅡㄴ	-1556
▁ㅂㅜㄴㄹㅣ	-1557
▁ㅂㅜㄱㅎㅏㄴ	-1558
▁ㅎㅚㄱㄷㅡㄱ	-1559
▁ㅆㅣㄱ	-1560
▁60	-1561
ㄲㅜ	-1562
▁ㅆㅓ	-1563
▁ㄲㅗㅊ	-1564
▁35	-1565
▁mm	-1566
▁ㅈㅣㅂㄷㅏㄴ	-1567
ㅅㅙ	-1568
ㅍㅗㄴ	-1569
▁ㅂㅓㅂㅇㅝㄴ	-1570
▁n	-1571
▁ㅍㅕㄴㅅㅓㅇ	-1572
▁ㅇㅝㄴㅈㅏ	-1573
ㄱㅘㅇㅇㅕㄱㅅㅣ	-1574
▁ㅅㅣㄹㅎㅓㅁ	-1575
▁ㅎㅕㄴㅅㅏㅇ	-1576
ㄹㅐㅅ	-1577
▁ㅈㅓㅇㄱㅠ	-1578
▁ㅇㅞㅂ	-1579
▁ㅂㅗㄴㅅㅓㄴ	-1580
▁ㅇㅓㄴㄱㅡㅂ	-1581
▁ㅇㅔㄴㅈㅣㄴ	-1582
▁ㅅㅓㄴㅂㅏㄹ	-1583
▁ㅁㅗㄱㅍㅛ	-1584
ㅅㅑ	-1585
▁ㅌㅗㅇㅇㅣㄹ	-1586
▁ㅇㅣㄹㅈㅗㅇ	-1587
ㅇㅠㄴ	-1588
▁ㅂㅜㄹㄱㅛ	-1589
ㅅㅓㅅ	-1590
▁ㄱㅘㄴㅅㅣㅁ	-1591
▁ㅇㅡㄴㅌㅚ	-1592
▁ㅌㅗㅇㅅㅣㄴ	-1593
▁ㅇㅏㅇ	-1594
▁ㅁㅐㅈ	-1595
ㅎㅖ	-1596
om	-1597
▁ㄱㅣㄹㅇㅣ	-1598
▁ㅇㅛㅇㅇㅓ	-1599
ㅇㅡㅂ	-1600
ㄷㅓㄹㄹㅏㄴㄷㅡ	-1601
▁ㅈㅏㅇㄱㅜㄴ	-1602
ㅈㅔㄱㅌㅡ	-1603
▁ㅎㅐㅇㅅㅏ	-1604
▁ㅈㅏㅇㅊㅣ	-1605
▁ㅋㅐㅁ	-1606
▁1997	-1607
▁ㄷㅏㅇㅎㅏ	-1608
ㅍㅜ	-1609
▁ㄱㅕㄹㅎㅏㅂ	-1610
▁ㅁㅜㄴㅅㅓ	-1611
ㅇㅣㄹㄹㅐㄴㄷㅡ	-1612
▁ㅎㅏㄱㅈㅏ	-1613
ㄷㅚ	-1614
▁ㄱㅘㅇㅈㅜ	-1615
▁ㅈㅓㅁㄹㅕㅇ	-1616
ㄲㅗ	-1617
ㅁㅛ	-1618
st	-1619
▁ㅇㅝㄴㅇㅣㄴ	-1620
ㅂㅔㄴ	-1621
▁ㅈㅓㅇㄹㅣ	-1622
▁ㅂㅜㄴㅍㅗ	-1623
▁ㅇㅓㄴㄹㅗㄴ	-1624
▁ㅅㅖ	-1625
▁ㅎㅕㄹ	-1626
▁ㅇㅠㄹ	-1627
▁ㄷㅗㅇㅁㅐㅇ	-1628
▁ㅇㅏㄴㅈㅓㅇ	-1629
▁amp	-1630
▁1995	-1631
▁1996	-1632
ㅌㅡㄱㅂㅕㄹ	-1633
▁ㅇㅣㄴㄷㅔ	-1634
▁32	-1635
▁ㅇㅣㄹㅈㅔ	-1636
ㅌㅗㄹㄹㅣ	-1637
▁The	-1638
▁ㅊㅗㄱ	-1639
▁ㅅㅓㅇㅈㅓㄱ	-1640
▁ㅇㅣㅀ	-1641
▁ㅌㅗㅇㅊㅣ	-1642
ㄹㅓㅎㄱㅔ	-1643
▁ㅅㅣㄴㅁㅜㄴ	-1644
▁ㄱㅏㅄ	-1645
▁ㅈㅜㄴㅂㅣ	-1646
▁ㅊㅐㄱㅇㅣㅁ	-1647
▁ㄱㅣㅍ	-1648
▁ㅁㅕㄴㅈㅓㄱ	-1649
▁70	-1650
▁ㅂㅏㅇㅁㅜㄴ	-1651
ㅎㅓ	-1652
▁ㅂㅣㅊ	-1653
▁ㅇㅘㅇㅈㅗ	-1654
▁ㅁㅏㄴㅎㅘ	-1655
▁ㅍㅗㄹㄹㅏㄴㄷㅡ	-1656
▁ㅌㅗㅇㄱㅘ	-1657
▁ㅁㅕㄹ	-1658
▁ㅈㅗㅇㅎㅏㅂ	-1659
ㅎㅣㄴ	-1660
ㅇㅣㄴㅌㅡ	-1661
▁ㅈㅓㅇㄱㅝㄴ	-1662
▁ㅈㅓㅇㅎㅘㄱ	-1663
▁ㄹㅓㄴㄷㅓㄴ	-1664
ㄴㅡㄹㄴㅏㄹ	-1665
▁ㅇㅗㄹㄹㅏㅆ	-1666
▁ㅁㅏㄴㄴㅏ	-1667
ㄱㅅㅣ	-1668
am	-1669
ㅋㅠ	-1670
▁ㅂㅕㅇㅇㅝㄴ	-1671
▁ㅍㅕㅇㅎㅘ	-1672
ㅅㅣㅂ	-1673
▁ㅂㅓㄴㅎㅗ	-1674
▁500	-1675
ㅇㅓㅆ	-1676
▁the	-1677
▁ㄴㅓㄹㄹㅣ	-1678
▁ㅅㅣㄴㄹㅏ	-1679
▁ㅆㅡㄴ	-1680
ㄸㅓ	-1681
▁ㄱㅏㅆ	-1682
▁ㄱㅕㅇㅎㅓㅁ	-1683
▁ㅅㅏㅁㅅㅓㅇ	-1684
▁ㅊㅗㅇㄹㅣ	-1685
▁ㄷㅡㅅ	-1686
▁ㅊㅡ	-1687
ㅣㄱ	-1688
▁ㄱㅞ	-1689
ㄱㅏㅂ	-1690
▁+	-1691
▁80	-1692
▁ㅅㅐㅇㅁㅜㄹ	-1693
▁UE	-1694
▁ㅎㅜㄴㄹㅕㄴ	-1695
▁ㅅㅟㅂ	-1696
▁ㅇㅕㅇㅇㅕㄱ	-1697
ㄴㅣㅁ	-1698
▁ㅇㅕㄴㅁㅐㅇ	-1699
▁ㄱㅕㅇㅇㅕㅇ	-1700
▁ㄱㅕㅇㅈㅐㅇ	-1701
▁ㅂㅜㄹㄱㅜ	-1702
il	-1703
▁ㅎㅗㄹ	-1704
▁188	-1705
▁ㅎㅐㅇㅅㅓㅇ	-1706
▁ㅇㅔㄹㄹㅣ	-1707
▁ㅂㅏㅇㅇㅓ	-1708
▁1994	-1709
▁UEFA	-1710
▁ㄹㅣㄴ	-1711
▁ㄲㅐ	-1712
▁ㅂㅏㄹㅅㅏ	-1713
▁ㄷㅗㅇㅂㅜ	-1714
▁ㅁㅣㄷ	-1715
▁ㅂㅏㄱㅁㅜㄹ	-1716
ㅋㅗㅇ	-1717
▁ㄱㅕㅇㄱㅖ	-1718
▁ㄷㅡㅇㄹㅗㄱ	-1719
▁ㄲㅡㄹ	-1720
▁ㅂㅓㅂㄹㅠㄹ	-1721
ac	-1722
▁ㅇㅏㄹㄹㅔㄱ	-1723
▁ㅍㅗㄴ	-1724
▁ㄱㅏㅇㅇㅝㄴ	-1725
▁1970	-1726
ㄷㅡㅁㅎㅐ	-1727
▁ㅂㅗㄱㄱㅟ	-1728
▁KBS	-1729
▁ㅇㅣㅅ	-1730
ㅎㅔㄴ	-1731
▁ㅅㅣㄱㅁㅣㄴ	-1732
▁ㄴㅏㅁㅅㅓㅇ	-1733
▁ㅇㅣㄱ	-1734
▁ㅂㅏㄹㄷㅏㄹ	-1735
ㅁㅣㅇ	-1736
ㅇㅣㅁㅅㅡ	-1737
▁ㅈㅓㅇㅅㅏㅇ	-1738
▁ㄱㅕㄹㅅㅓㅇ	-1739
ㄲㅟ	-1740
▁ㅈㅓㄴㅎㅐ	-1741
▁ㅋㅡㄹㄹㅏ	-1742
▁ㄴㅚ	-1743
ro	-1744
▁ㅇㅣㅂㅈㅏㅇ	-1745
▁ㅂㅣㄱ	-1746
ㅌㅗㄹㄹㅣㄱ	-1747
▁ㅇㅓㅂㅁㅜ	-1748
▁ㄱㅡㅁㅈㅣ	-1749
▁1992	-1750
▁ㄲㅣ	-1751
▁ㅊㅓㄹㅎㅏㄱ	-1752
▁ㅇㅘㄴㅈㅓㄴㅎㅣ	-1753
▁ㅈㅓㅇㅅㅣㄱ	-1754
▁ㅂㅏㄱㅁㅜㄹㄱㅘㄴ	-1755
▁ㅈㅣㅂㅎㅏㅂ	-1756
ed	-1757
▁ㅈㅓㅂㄱㅡㄴ	-1758
▁ㅇㅟㄹㄹㅣ	-1759
▁ㅇㅣㄴㅅㅣㄱ	-1760
▁45	-1761
ㅅㅏㅁ	-1762
▁ㅂㅕㄱ	-1763
▁ㅍㅕㄹ	-1764
ㅋㅡㅁ	-1765
▁ㅇㅡㄴㅎㅐㅇ	-1766
▁ㅇㅣㅁㅅㅣ	-1767
ㅁㅔㄴ	-1768
▁ㅇㅕㅇㅌㅗ	-1769
ㅁㅕㄹ	-1770
▁ㅈㅏㅇㅇㅐ	-1771
▁36	-1772
▁of	-1773
▁ㅇㅜㅁㅈㅣㄱ	-1774
ㅋㅣㅇ	-1775
ㅊㅏㄴㄱㅏ	-1776
▁ㅉㅏㄼ	-1777
▁ㄱㅗㅇㅈㅏㄱ	-1778
▁ㅅㅓㅇㄱㅕㄱ	-1779
▁ㅂㅏㄱㅅㅏ	-1780
ㄷㅠ	-1781
▁ㅅㅏㅇㅎㅗ	-1782
ㅌㅏㅂ	-1783
▁ㅅㅜㄴㅇㅟ	-1784
ig	-1785
ㅇㅠㅇ	-1786
▁ㅂㅏㄴㅁㅕㄴ	-1787
ㅎㅗㄱ	-1788
▁ㅈㅏㅇㅅㅗ	-1789
▁ㅎㅕ	-1790
▁ㄱㅘㄴㅊㅡㄱ	-1791
▁ㄱㅘㄴㄱㅘㅇ	-1792
▁ㄱㅓㅁㅅㅏ	-1793
ㅇㅜㅇ	-1794
▁ㅅㅣㄱㅁㅜㄹ	-1795
▁1991	-1796
ㄷㅜㄴ	-1797
▁ㅇㅕㄴㄱㅡㄱ	-1798
▁ㅂㅏㄷㅇㅏ	-1799
▁1960	-1800
ㅁㅠ	-1801
▁ㄷㅜㄴ	-1802
▁ㅎㅘㄹㅇㅛㅇ	-1803
▁ㄷㅏㅇㅎㅐㅆ	-1804
▁ㅍㅔㄴ	-1805
ㄹㅣㄱㅌㅓ	-1806
▁ㅋㅗㄹ	-1807
▁ㅈㅜㄱㅇㅡㅁ	-1808
▁ㄷㅡㄴ	-1809
▁ㅊㅏㅈㅇㅏ	-1810
▁ㅍㅡㄹㄹㅏ	-1811
▁1993	-1812
▁ㄷㅡㄱㅈㅓㅁ	-1813
▁ㅅㅡㅂㄴㅣ	-1814
ㅍㅗㄱ	-1815
ㅌㅡㄱㅂㅕㄹㅅㅣ	-1816
ㅁㅕㄴㅅㅓ	-1817
ㅈㅏㄴ	-1818
ㅇㅜㄹㅌㅡㄱㅂㅕㄹㅅㅣ	-1819
od	-1820
▁ㅇㅏㄴㅈㅓㄴ	-1821
▁33	-1822
▁ㅂㅏㄹㅎㅐㅇ	-1823
▁ㅂㅏㄺㅎㅕ	-1824
ㅋㅣㄹ	-1825
▁ㅇㅟㄴㄷㅗ	-1826
▁ㅇㅣㄹㅈㅓㅇ	-1827
▁ㅂㅜㅇ	-1828
ㄱㅜㄱㅇㅣㄴ	-1829
▁ㄱㅕㅇㅅㅏㅇㄴㅏㅁㄷㅗ	-1830
▁ㄲㅜ	-1831
ㅎㅗㅇ	-1832
▁ㄷㅏㄴㅅㅜㄴ	-1833
ㄸㅡ	-1834
▁ㄱㅡㄴㅊㅓ	-1835
▁ㅇㅣㄴㅅㅏ	-1836
▁ㄹㅑㅇ	-1837
▁ㅈㅜㅇㄱㅏㄴ	-1838
▁ㅈㅓㄴㅅㅣ	-1839
▁ㅂㅓㄴㅇㅕㄱ	-1840
▁ㅎㅕㅇㅈㅔ	-1841
as	-1842
▁ㄷㅏㄴㅇㅓ	-1843
▁ㅎㅡㅂ	-1844
ve	-1845
ㅅㅗㄱㄷㅗ	-1846
▁ㄱㅕㅇㅅㅏㅇㅂㅜㄱㄷㅗ	-1847
ㅈㅔㄴ	-1848
ㄱㅌㅓ	-1849
ㅋㅗㄴ	-1850
▁186	-1851
▁ㄱㅡㄴㄱㅓ	-1852
ㅅㅓㅂ	-1853
ㄷㅓㅁ	-1854
▁ㄱㅜㄹ	-1855
▁ㅂㅏㄴㄹㅏㄴ	-1856
▁ㄱㅏㅇㄹㅕㄱ	-1857
▁ㅊㅗㅇㅅㅓㄴ	-1858
▁ㅈㅜㅇㄷㅏㄴ	-1859
▁ㅅㅐㅇㅅㅓㅇ	-1860
▁ㄱㅝㄴㄹㅕㄱ	-1861
▁ㅅㅏㄻ	-1862
▁ㅎㅖ	-1863
ㄱㅗㄴ	-1864
▁ㅎㅕㅂㄹㅕㄱ	-1865
▁ㅂㅗㄴㅂㅜ	-1866
ㅇㅏㄹ	-1867
▁ㅅㅏㅇㅈㅣㅇ	-1868
ㅇㅝㄴㅈㅏㅇ	-1869
ㅈㅓㄴㅈㅏ	-1870
▁ㅅㅓㅇㄹㅣㅂ	-1871
▁ㅇㅝㄴㅅㅗ	-1872
▁ㅊㅜㄹㅅㅐㅇ	-1873
▁ㅁㅔㄱㅅㅣ	-1874
▁ㄱㅡㄱㅈㅏㅇ	-1875
▁ㅇㅕㄴㅈㅏㅇ	-1876
ㅘㄹ	-1877
▁",	-1878
▁ㅊㅗㄴ	-1879
▁ㅈㅗㅇㅁㅗㄱ	-1880
▁ㅊㅣㄹ	-1881
▁ㅇㅑㅇㅅㅣㄱ	-1882
▁1988	-1883
▁ㄱㅗㅇㅈㅏㅇ	-1884
▁ㄹㅔㄴ	-1885
▁ㅁㅓㄴㅈㅓ	-1886
▁ㅊㅜㄴ	-1887
▁ㅇㅗㅇ	-1888
ㅁㅏㄶ	-1889
▁ㅅㅏㅇㅇㅓㅂ	-1890
▁2021	-1891
▁ㄷㅗㅇㅅㅐㅇ	-1892
▁187	-1893
▁ㅁㅏㄴㅋㅡㅁ	-1894
▁ㄷㅏㄴㅇㅟ	-1895
▁ㅎㅏㄱㅇㅟ	-1896
▁ㅂㅗㄴㄱㅘㄴ	-1897
ㅇㅓㅄ	-1898
▁ㅇㅕㅇㅅㅏㅇ	-1899
▁ㅈㅚ	-1900
ㅇㅓㄱ	-1901
▁ㅊㅘㄹ	-1902
▁ㄱㅡㄴㅁㅜ	-1903
▁ㅌㅗㅇㅎㅏ	-1904
▁ㄱㅏㅁㅅㅗ	-1905
▁ㅌㅡㄱㅅㅜ	-1906
▁ㅌㅡㄱㅅㅓㅇ	-1907
▁ㄱㅠㄴ	-1908
id	-1909
▁ㅎㅘㄱㄷㅐ	-1910
▁ㄷㅠ	-1911
▁ㅅㅡㅇㄱㅕㄱ	-1912
ㄱㅏㄴㄷㅏ	-1913
ㅇㅣㄴㄱㅗㅇ	-1914
▁ㅎㅕㅁ	-1915
▁34	-1916
ㅆㅏ	-1917
ㅁㅗㅇ	-1918
ec	-1919
▁38	-1920
ㅇㅜㅅ	-1921
▁ㅈㅓㄴㄹㅑㄱ	-1922
▁ㄱㅕㄲ	-1923
▁ㅂㅓㄹㅇㅓ	-1924
▁ㅇㅕㅍ	-1925
▁ㅊㅘㄹㅇㅕㅇ	-1926
▁ㄷㅗㅇㄱㅖ	-1927
▁48	-1928
ㅎㅕㄹ	-1929
▁ㄹㅠㄹ	-1930
▁ㄷㅏㄹㅅㅓㅇ	-1931
▁1989	-1932
▁ㅅㅜㅁ	-1933
▁ㅎㅗㅇㅋㅗㅇ	-1934
▁ㅇㅘㄴㅅㅓㅇ	-1935
▁90	-1936
ㅍㅕㅇㅇㅑㅇ	-1937
▁ㅌㅗㄴ	-1938
▁?	-1939
ㅈㅣㅂㅌㅡ	-1940
▁ㅇㅏㄹㄹㅔㄱㅅㅏㄴ	-1941
▁ㅅㅣㄱㅁㅣㄴㅈㅣ	-1942
us	-1943
▁ㄱㅜㄱㅇㅘㅇ	-1944
▁e	-1945
▁ㅅㅓㄹㅈㅓㅇ	-1946
and	-1947
▁1950	-1948
▁ㅊㅡㄱㅈㅓㅇ	-1949
▁ㅈㅓㄻ	-1950
▁h	-1951
▁ㄴㅣㅁ	-1952
▁ㄱㅕㄹㅅㅡㅇㅈㅓㄴ	-1953
▁ㅈㅣㄱㅎㅜ	-1954
▁ㅊㅓㅇㄴㅕㄴ	-1955
▁ㄷㅏㅇㅅㅓㄴ	-1956
ㄷㅗㅇㅈㅏ	-1957
▁ㅃㅐ	-1958
▁ㅈㅓㄴㄷㅏㄹ	-1959
▁ㅅㅐㅇㅁㅕㅇ	-1960
▁ㄱㅝㄴㄹㅣ	-1961
ㅁㅕㅊ	-1962
▁ㅁㅕㅊㅁㅕㅊ	-1963
▁ㅅㅓㅇㅇㅜ	-1964
ㅐㅇㅋㅡ	-1965
▁ㅅㅣㄴㄱㅕㅇ	-1966
▁ㅇㅡㅁㅅㅣㄱ	-1967
▁ㅈㅡㄹ	-1968
▁ㅁㅕㅇㄷㅏㄴ	-1969
▁ㅈㅡㄱㅇㅟ	-1970
NA	-1971
ad	-1972
▁ㅁㅐㅇ	-1973
ㅊㅣㄹ	-1974
▁MBC	-1975
▁ㅇㅡㄴㅎㅏ	-1976
▁ㅈㅗㅇㄹㅛ	-1977
▁ㅁㅣㅌ	-1978
ent	-1979
ㄹㅗㅇ	-1980
▁ㅈㅓㄴㅎㅘㄴ	-1981
▁|	-1982
ㄹㅓㄹ	-1983
▁ㄴㅏㅂ	-1984
▁ㄷㅔㄹ	-1985
▁300	-1986
ㅍㅜㄹ	-1987
▁ㄴㅗㄱㅇㅡㅁ	-1988
▁ㅂㅓㅁㅈㅚ	-1989
▁ㄴㅏㅎ	-1990
▁ㅋㅓㄹ	-1991
▁ㅂㅡㄹㄹㅜ	-1992
▁ㄱㅘㄴㅊㅏㄹ	-1993
▁ㅈㅓㄴㅊㅏ	-1994
▁ㅊㅏㄹ	-1995
ㄹㅗㅂ	-1996
ㄱㅔㄴ	-1997
▁1945	-1998
▁ㅆㅏㅎ	-1999
▁',	-2000
ㅁㅐㄴ	-2001
▁ㄴㅏㅁㅂㅜㄱ	-2002
▁ㅍㅏㄴㄷㅏㄴ	-2003
ㅂㅠ	-2004
ㅎㅐㄱ	-2005
▁ㅈㅕ	-2006
▁ㅁㅏㄴㄷㅡ	-2007
▁ㅃㅏㄹ	-2008
ㅇㅣㄹㄹㅓ	-2009
▁ㅎㅓㅇ	-2010
▁ㅊㅜㅇㄷㅗㄹ	-2011
▁ㄱㅓㄴㄱㅏㅇ	-2012
▁ㅊㅓㅇㅅㅗ	-2013
50	-2014
▁ㅁㅕㅇㅇㅖ	-2015
▁ㄱㅏㅁㅇㅕㅁ	-2016
▁ㄱㅗㅇㄱㅡㅂ	-2017
▁ㄱㅕㅇㅈㅜ	-2018
▁ㅇㅣㄴㄱㅡㄴ	-2019
▁ㅈㅏㅇㄱㅣ	-2020
▁ㄱㅗㅇㄱㅜㄴ	-2021
▁ㅊㅓㄴㅁㅜㄴ	-2022
▁ㅍㅗㄹㄹㅣ	-2023
▁x	-2024
▁ㄱㅗㅇㅂㅜ	-2025
ㅊㅓㄹㄷㅗ	-2026
▁ㅇㅣㄴㄷㅣ	-2027
▁ㅅㅣㄴㅎㅏㄱ	-2028
ㅂㅡㄴ	-2029
▁ㅂㅗㄴㄹㅐ	-2030
▁ㄱㅗㅇㅈㅜ	-2031
▁ㄴㅗㅇㅇㅓㅂ	-2032
▁ㅅㅚ	-2033
ㅇㅗㅇ	-2034
▁ㅇㅗㄻㄱㅕ	-2035
▁ㅇㅜㄹㅅㅏㄴ	-2036
▁ㅅㅣㅍ	-2037
▁ㅇㅓㄹㅁㅏ	-2038
▁ㅊㅓㄴㅎㅘㅇ	-2039
▁ㅎㅏㅂㄹㅠ	-2040
▁ㅎㅔㄹ	-2041
ㄹㅓㄱ	-2042
▁ㅈㅏㄱㅅㅓㅇ	-2043
▁ㄴㅏㅁㅇㅏ	-2044
▁ㄱㅜㄴㅇㅣㄴ	-2045
▁ㅇㅣㅂㅎㅏㄱ	-2046
▁ㅈㅣㄹㄹㅑㅇ	-2047
▁St	-2048
▁ㅇㅏㄹㄹㅣ	-2049
▁ㅅㅣㄴㅎㅗ	-2050
▁ㅇㅚㄴ	-2051
▁ㅈㅡㅇㅁㅕㅇ	-2052
▁ㅇㅣㄴㅅㅜ	-2053
ot	-2054
▁ㅇㅝㄴㅈㅓㅇ	-2055
▁ㄱㅏㅇㅇㅝㄴㄷㅗ	-2056
ㅅㅡㄹㄹㅏㅁ	-2057
▁ㅎㅔㄴ	-2058
▁ㅅㅣㅁㄹㅣ	-2059
▁ㄱㅜㄱㄱㅕㅇ	-2060
▁ㅋㅗㅇ	-2061
▁ㄱㅐㄱ	-2062
▁ㅈㅓㄴㅅㅏ	-2063
▁ㄱㅏㄱㅈㅗㅇ	-2064
▁ㅂㅡㄹㄹㅐㄱ	-2065
▁ㄱㅏㅇㅎㅏㄴ	-2066
ㅂㅜㅇ	-2067
▁ㅇㅣㅍ	-2068
▁ㅍㅡㄹㄹㅗ	-2069
▁ㅎㅏㄱㅁㅜㄴ	-2070
▁in	-2071
▁ㅇㅣㄺ	-2072
un	-2073
ㅊㅏㅁ	-2074
▁ㄴㅐㄴ	-2075
ㅍㅡㄴ	-2076
▁ㄹㅏㅇ	-2077
ㄹㅏㅂ	-2078
▁ㅁㅗㅅㅎㅏㄴ	-2079
▁ㅅㅣㄹㅎㅐㅇ	-2080
ㅋㅐ	-2081
ㄷㅏㄱ	-2082
ㄷㅏㅂ	-2083
ow	-2084
▁ㅁㅣㄹㄷㅗ	-2085
▁ㅂㅓㅅ	-2086
ㅌㅣㄱ	-2087
▁ㅋㅐㄹㄹㅣ	-2088
▁ㅈㅣㅂㅈㅜㅇ	-2089
▁ㅍㅕㄴㅈㅣㅂ	-2090
▁37	-2091
ㅈㅓㄴㅎㅣ	-2092
▁ㅈㅓㅇㅊㅏㄱ	-2093
▁ㅇㅏㄴㄷㅡ	-2094
▁ㅊㅜㅇㅊㅓㅇㄴㅏㅁㄷㅗ	-2095
▁ㅊㅡㄱㅁㅕㄴ	-2096
ㅎㅏㄱㅇㅝㄴ	-2097
▁ㅆㅓㅆ	-2098
▁ㄱㅜㄱㅂㅏㅇ	-2099
▁ㅈㅜㄴㄷㅏ	-2100
▁ㄱㅘㅇㄱㅗ	-2101
▁ㅁㅏㄴㅇㅑㄱ	-2102
▁w	-2103
▁ㅇㅑㅇㅈㅏ	-2104
ㅅㅛ	-2105
▁ㅁㅗㅇㄱㅗㄹ	-2106
ㅇㅕㅂ	-2107
▁ㅂㅕㄴㅎㅗ	-2108
ra	-2109
▁ㅇㅑㄱㄱㅏㄴ	-2110
▁ㅎㅏㅂㅂㅕㅇ	-2111
▁ㄱㅡㅁㅇㅠㅇ	-2112
▁1987	-2113
▁ㅌㅗㅇㅈㅔ	-2114
▁ㄴㅐㅇ	-2115
▁ㄷㅡㅇㄱㅡㅂ	-2116
ㄴㅏㅆㅇㅡ	-2117
▁ㅅㅓㅇㄱㅘ	-2118
ㅂㅣㄹ	-2119
▁ㅁㅜㄹㄹㅗㄴ	-2120
ㅅㅟ	-2121
▁ㄱㅓㄴㄴㅓ	-2122
▁ㅂㅕㅇㄹㅕㄱ	-2123
ㅝㅆ	-2124
▁ㅋㅣㅇ	-2125
▁ㅎㅗㅁㄹㅓㄴ	-2126
▁ㄷㅡㄷ	-2127
▁ㄷㅜㄹㄹㅓ	-2128
▁ㅅㅜㅍ	-2129
▁ㅎㅏㄱㄴㅕㄴ	-2130
▁ㅂㅜㄹㄹㅣㄴㄷㅏ	-2131
▁1984	-2132
ㅋㅓㅅ	-2133
▁ㅈㅣㅅ	-2134
▁ㅇㅑㅇㅅㅓㅇ	-2135
▁1986	-2136
▁ㄱㅔㄴ	-2137
▁ㅈㅓㄴㄹㅕㄱ	-2138
▁41	-2139
ㅂㅜㅌ	-2140
ㅅㅕㄹ	-2141
▁ㅅㅓㅇㅈㅣㄹ	-2142
▁ㅎㅢㄴ	-2143
▁ㅅㅗㄹ	-2144
▁ㅌㅡㄹ	-2145
▁ㅌㅓㄹ	-2146
▁51	-2147
ㄷㅗㅇㅇㅏㄴ	-2148
▁ㅇㅔㄴㅌㅓ	-2149
▁ㅎㅘㄴㅈㅏ	-2150
▁ㅂㅜㅇㄱㅚ	-2151
▁ㅈㅓㄴㄱㅐ	-2152
▁ㄹㅕㅇ	-2153
▁ㄱㅏㅇㅈㅗ	-2154
ㅁㅗㅅ	-2155
▁ㄱㅏㅈㅊㅜ	-2156
▁ㅂㅕㅇㅅㅏ	-2157
▁ㄱㅗㅇㄱㅗㅇ	-2158
▁ㄷㅗㅇㅇㅏ	-2159
▁ㅇㅣㄴㅎㅏㄴ	-2160
▁ㅂㅗㅁ	-2161
▁ㅁㅣㄴㄱㅏㄴ	-2162
ㅋㅏㄹ	-2163
▁ㄱㅡㄴㄷㅐ	-2164
▁ㅈㅓㄴㅇㅕㄱ	-2165
▁ㅁㅓㄹ	-2166
ㄴㅣㄱ	-2167
▁ㅇㅓㅂㅊㅔ	-2168
▁ㅅㅏㅇㅎㅏ	-2169
▁ㅍㅣㄴㄹㅏㄴㄷㅡ	-2170
ㅍㅔㄴ	-2171
ㅅㅔㄹ	-2172
▁ㅎㅕㅁㅇㅢ	-2173
ㅍㅣㄱ	-2174
ㅊㅗㄱ	-2175
▁ㄷㅟㅅ	-2176
▁ㅇㅣㅁㅁㅜ	-2177
▁ㄱㅜㄴㅈㅜ	-2178
▁ㅎㅓㅇㄱㅏ	-2179
▁ㅂㅓㅁㅇㅟ	-2180
ur	-2181
ㅅㅓㅁ	-2182
ㄴㅑㅇ	-2183
ch	-2184
▁ㅌㅟ	-2185
ㄴㅚ	-2186
▁ㅇㅗㄴㄷㅗ	-2187
▁ㅈㅣㅁ	-2188
ㄹㅣㅅ	-2189
▁ㄱㅏㅇㅈㅓㅁ	-2190
▁ㅈㅏㅇㅂㅣ	-2191
▁ㅋㅡㄹㄹㅐ	-2192
▁ㅅㅓㅇㅇㅣㄴ	-2193
▁II	-2194
ㅍㅣㅇ	-2195
▁ㅈㅏㅂㅈㅣ	-2196
▁ㅈㅓㄴㅂㅏㄴ	-2197
▁ㅊㅓㅁ	-2198
▁ㄱㅏㅇㅈㅔ	-2199
▁ㅅㅡㅇㅇㅣㄴ	-2200
▁ㅈㅓㄴㅎㅏ	-2201
▁64	-2202
▁39	-2203
▁ㅌㅗㅇㄱㅖ	-2204
▁ㅊㅜㅇㅂㅜㄴ	-2205
▁ㅇㅝㄴㅊㅣㄱ	-2206
▁1985	-2207
▁ㄱㅏㅇㅇㅢ	-2208
▁ㅈㅓㄴㅅㅓㄴ	-2209
▁ㅅㅓㅂ	-2210
▁ㅇㅕㄱㄷㅐ	-2211
▁ㅅㅓㄴㅅㅐㅇ	-2212
▁ㄲㅓ	-2213
▁400	-2214
▁ㄸㅣ	-2215
▁i	-2216
▁ㅈㅗㅇㅇㅣ	-2217
▁ㅅㅣㄴㅎㅘ	-2218
▁ㅈㅓㄱㄱㅡㄱ	-2219
▁ㄱㅗㅇㅁㅜ	-2220
ut	-2221
▁ㅎㅏㅇㅅㅓㅇ	-2222
▁ㄲㅜㅁ	-2223
▁ㄱㅗㅇㅇㅓㅂ	-2224
ㅉㅏ	-2225
▁ㅎㅏㅇㅅㅏㅇ	-2226
▁ㄴㅗㄴㅁㅜㄴ	-2227
▁ㅇㅣㄴㅎㅏ	-2228
▁ㅎㅕㄴㅅㅣㄹ	-2229
ㅈㅣㅅ	-2230
▁ㄱㅗㅇㅅㅏㄴㄷㅏㅇ	-2231
▁ㅊㅜㄹㅂㅏㄹ	-2232
▁ㅇㅣㄹㅇㅝㄴ	-2233
▁ㄷㅗㅇㄹㅛ	-2234
▁ㅁㅏㄴㅈㅗㄱ	-2235
ㄹㅕㅇㄱㅘㄴ	-2236
▁ㄴㅏㅁㅍㅕㄴ	-2237
um	-2238
▁ㅂㅜㄺ	-2239
▁ㅈㅜㄹㄱㅓ	-2240
ㅇㅜㄴㅌㅣ	-2241
▁ㅂㅏㄱㅈㅟ	-2242
ㄴㅐㄴㄷㅏ	-2243
▁ㅈㅣㄴㅎㅘ	-2244
ㅈㅓㅇㅂㅜ	-2245
▁ㄴㅗㄹ	-2246
▁ㅍㅗㄱㅂㅏㄹ	-2247
ㅅㅏㅇㅈㅏ	-2248
▁ㅂㅜㄹㄱㅏ	-2249
ㅇㅐㄴ	-2250
▁br	-2251
▁ㅂㅜㄹㄹㅓ	-2252
▁ㅁㅏㅅ	-2253
▁ㅈㅐㄱ	-2254
▁ㅅㅏㅁㄱㅜㄱ	-2255
▁ㅇㅕㄹㄹㅕㅆ	-2256
▁ㄱㅏㄴㅈㅜ	-2257
▁ㄷㅏㅂ	-2258
ㄴㅟ	-2259
▁ㅇㅓㄹㄱㅜㄹ	-2260
▁ㅈㅗㅇㅈㅗㅇ	-2261
▁ㅌㅏㅂㅈㅐ	-2262
▁ㅎㅡㄹ	-2263
▁ㅈㅡㅇㄱㅓ	-2264
▁43	-2265
▁ㅅㅐㄴ	-2266
▁ㅂㅜㄴㅈㅏ	-2267
▁ㄷㅚㅁ	-2268
ㅂㅐㄱㅈㅣㄹ	-2269
ㄹㅗㄹ	-2270
▁ㅎㅘㄱㅂㅗ	-2271
ㅇㅝㄴㄱㅜㄴ	-2272
ㄴㅗㄴ	-2273
ㅂㅅㅡ	-2274
▁ㅇㅛㄱ	-2275
ㄷㅣㄴ	-2276
▁LG	-2277
▁v	-2278
▁ㄴㅏㅇ	-2279
▁ㄴㅏㅁㄷㅗㅇ	-2280
ㅋㅗㄹ	-2281
▁ㅍㅕㅇㅇㅑㅇ	-2282
▁ㅋㅏㅁ	-2283
▁42	-2284
▁ㅈㅓㅁㅊㅏ	-2285
▁ㄱㅜㄴㄷㅏㄴ	-2286
▁ㅇㅝㄴㅈㅜ	-2287
▁ㅂㅜㄹㄹㅓㅆ	-2288
▁ㅎㅏㅂㅇㅢ	-2289
▁ㄱㅘㅇㅇㅕㄱㅅㅣ	-2290
▁1982	-2291
▁ㅍㅗㅁ	-2292
ㅅㅡㅁ	-2293
ㅇㅜㄴㄷㅗㅇ	-2294
FC	-2295
▁ㅇㅠㅇ	-2296
im	-2297
▁ㅅㅣㄴㅅㅓㄹ	-2298
ㄴㅠㅁ	-2299
▁ㄱㅏㅇㅈㅓㅁㄱㅣ	-2300
▁ㄱㅏㅈㅊㅜㄴ	-2301
▁ㄲㅡㄶ	-2302
ir	-2303
▁ㄸㅜ	-2304
▁55	-2305
▁ㄴㅐㅆ	-2306
▁ㅈㅓㄴㅅㅓㄹ	-2307
▁ㅈㅏㅇㅁㅕㄴ	-2308
▁ㄱㅕㅇㅎㅑㅇ	-2309
▁ㅎㅑㅇㅅㅏㅇ	-2310
▁ㄷㅔㄴㅁㅏ	-2311
▁ㅇㅗㄴㄹㅏ	-2312
▁ㅈㅏㅇㅅㅣㄱ	-2313
▁ㅊㅓㅇㄴㅏ	-2314
ㅌㅡㄹㄹㅐㄴㄷㅡ	-2315
ㄷㅜㄱ	-2316
▁ㅍㅕㄴㅇㅣㅂ	-2317
▁ㄷㅏㄴㅂㅐㄱㅈㅣㄹ	-2318
▁ㅅㅜㅇ	-2319
ㅍㅗㄹㄹㅣ	-2320
▁ㅇㅕㄹㄹㅣ	-2321
▁ㅊㅣㅁㄱㅗㅇ	-2322
▁1983	-2323
▁ㅅㅔㄹ	-2324
▁ㅊㅏㅇㅅㅓㄹ	-2325
▁ㅋㅏㄹㄹㅣ	-2326
▁ㅁㅏㄴㅈㅜ	-2327
ㅂㅣㅇ	-2328
▁ㄹㅗㅂ	-2329
ㄱㅓㅁ	-2330
ㅋㅓㄴ	-2331
ㄹㅜㄴㄷㅏ	-2332
▁ㅂㅓㅂㅇㅣㄴ	-2333
▁ㄴㅑ	-2334
▁ㅇㅠㄱㅅㅏㅇ	-2335
▁ㅎㅘㄱㅅㅣㄹ	-2336
▁44	-2337
▁ㅋㅔㄴ	-2338
ㅁㅜㄴㅎㅘ	-2339
▁Z	-2340
▁ㄷㅏㄴㅈㅣ	-2341
▁ㅈㅗㅁ	-2342
▁ㅃㅗ	-2343
▁ㅇㅘㅇㅇㅟ	-2344
▁ㅅㅏㄹㅎㅐ	-2345
▁ㅋㅗㄹㄹㅗ	-2346
▁ㅅㅣㄴㅇㅏㅇ	-2347
▁47	-2348
▁ㅅㅏㄱ	-2349
▁ㅌㅏㄴㅅㅐㅇ	-2350
▁ㄱㅗㅇㅇㅠ	-2351
CA	-2352
▁ㅅㅗㄹㄹㅗ	-2353
▁ㅅㅜㄴㅅㅓ	-2354
▁ㄷㅗㄱㅈㅏ	-2355
ㅎㅏㄱㅅㅐㅇ	-2356
ㅅㅜㅇ	-2357
▁ㅅㅓㄴㄱㅗ	-2358
▁ㅎㅣㄹ	-2359
▁ㅈㅏㅁㅅㅣ	-2360
▁ㅅㅓㅇㄷㅏㅇ	-2361
▁ㅈㅓㄴㅎㅘ	-2362
ay	-2363
▁ㅎㅏㅁㄷㅐ	-2364
ㄴㅢ	-2365
ㅅㅖ	-2366
▁ㅂㅗㄱㅈㅏㅂ	-2367
▁75	-2368
ㅎㅠ	-2369
ㅅㅣㅇㅌㅓㄴ	-2370
▁ㅌㅔㄴ	-2371
▁CD	-2372
▁ㅎㅘㄱㅈㅓㅇ	-2373
▁ㅂㅏㄴㄷㅗ	-2374
▁ㅂㅓㅂㅊㅣㄱ	-2375
ㄱㅏㄱㅎㅕㅇ	-2376
▁ㅇㅏㅁㅅㅏㄹ	-2377
ㅇㅑㄴ	-2378
▁ㄱㅘㄴㄹㅛ	-2379
▁ㅅㅏㄴㅁㅐㄱ	-2380
ver	-2381
▁ㄹㅗㅅ	-2382
▁ㄴㅡㄹㅇㅓ	-2383
▁ㅍㅡㄹㄹㅐㅅ	-2384
▁ㄱㅗㅇㅎㅏㄱ	-2385
▁ㅈㅓㄴㅇㅛㅇ	-2386
▁ㅍㅏㄴㄱㅕㄹ	-2387
ㄹㅏㅇㅋㅡ	-2388
ㅅㅈㅏ	-2389
▁ㅈㅓㄴㅎㅜ	-2390
ㄱㅗㅂ	-2391
▁1972	-2392
▁ㅇㅕㄴㄱㅗ	-2393
▁184	-2394
ㄹㅣㄴㅇㅣ	-2395
▁ㅌㅗㅇㅎㅏㄴ	-2396
▁ㅁㅏㄹㄱㅣ	-2397
▁ㅃㅜ	-2398
▁ㄱㅏㅁㅈㅓㅇ	-2399
▁180	-2400
▁ㅎㅐㄱㅅㅣㅁ	-2401
▁ㅈㅓㄹㄷㅐ	-2402
▁ㅂㅜㄹㄱㅘ	-2403
▁46	-2404
ㅇㅗㄴㄷㅏ	-2405
ㅈㅔㄹ	-2406
ㄸㅓㅎ	-2407
▁ㄴㅓㅁㅇㅓ	-2408
▁ㅈㅜㅇㅂㅏㄴ	-2409
▁ㄷㅗㅇㅇㅢ	-2410
▁ㄱㅡㄹㄹㅗ	-2411
▁ㅊㅏㅁㅅㅓㄱ	-2412
ㅎㅔㄴㅌㅣ	-2413
▁ㄴㅗㄴㄹㅣ	-2414
▁ㅈㅜㅇㅅㅣㅁㅈㅣ	-2415
▁ㅎㅐㅆㅇㅓㅆ	-2416
▁ㅇㅏㅍㄷㅜ	-2417
ㄷㅗㄴ	-2418
▁1979	-2419
ㄹㅏㄹ	-2420
▁ㅈㅣㅂㅎㅐㅇ	-2421
ㅂㅏㄴㄷㅗ	-2422
ㄹㅡㄹㄹㅣㄴ	-2423
▁ㄷㅏㄹㄹㅏ	-2424
▁1920	-2425
ㅅㅓㅆ	-2426
▁ㅇㅗㄹㄹㅕㅆ	-2427
▁ㅂㅕㄹㄷㅗ	-2428
ㄲㅗㅊ	-2429
▁ㄱㅓㅁㅊㅏㄹ	-2430
▁ㄷㅏㄴㅇㅣㄹ	-2431
ㅇㅓㅅ	-2432
▁kg	-2433
ㄹㅕㅇㅂㅜ	-2434
▁ㅎㅡㄴㅎㅣ	-2435
▁ㅅㅏㅇㅍㅜㅁ	-2436
▁ㅅㅏㄹㅇㅏ	-2437
▁ㄱㅝㄴㅎㅏㄴ	-2438
▁ㅂㅗㄴㄱㅕㄱ	-2439
▁In	-2440
▁ㅎㅕㅂㅅㅏㅇ	-2441
▁ㄱㅗㅇㄱㅣ	-2442
▁ㅈㅜㅇㅅㅔ	-2443
10	-2444
▁ㅇㅕㄴㅅㅏㄴ	-2445
▁ㅁㅔㄹ	-2446
ㄱㅘㄹ	-2447
▁1981	-2448
▁ㅂㅏㅇㅁㅕㄴ	-2449
▁ㄱㅡㅁㅁㅔ	-2450
ㄹㄹㅣㅇ	-2451
▁ㄱㅗㅇㅍㅗ	-2452
ㄹㅜㄱ	-2453
ㄹㅝ	-2454
▁1973	-2455
ㅁㅗㄹ	-2456
▁ㄱㅓㄴㄱㅜㄱ	-2457
▁ㄷㅓㅍ	-2458
▁1930	-2459
ㅎㅗㄹ	-2460
BO	-2461
▁ㅈㅣㄱㅇㅝㄴ	-2462
▁ㅎㅕㅂㅈㅓㅇ	-2463
▁ㅊㅏㅇㄹㅣㅂ	-2464
▁ㄷㅜㅇ	-2465
▁ㅇㅝㄴㅈㅏㄱ	-2466
▁ㅅㅏㄴㅎㅏ	-2467
▁ㅇㅝㄴㄹㅣ	-2468
os	-2469
▁ㅈㅏㄱㄱㅗㄱㄱㅏ	-2470
▁ㅇㅣㄴㄱㅝㄴ	-2471
▁ㅉㅗ	-2472
ㅅㅏㄴㅅㅣ	-2473
em	-2474
▁150	-2475
ㅇㅓㅄㅇㅣ	-2476
ㄹㅠㅁ	-2477
▁ㄱㅓㄴㅈㅗ	-2478
▁ㅈㅓㄴㅊㅓㄹ	-2479
▁ㅈㅓㅇㄱㅛ	-2480
▁ㅇㅜㄴㅇㅛㅇ	-2481
▁ㅈㅜㅇㅂㅜ	-2482
ㅆㅣㄴ	-2483
▁ㅅㅐㅇㄱㅣ	-2484
▁ㄱㅣㅁㅈㅓㅇ	-2485
ㄹㅕㅁ	-2486
ter	-2487
▁ㅇㅣㄴㅅㅏㅇ	-2488
▁ㅇㅗㅅ	-2489
▁ㅎㅏㅂㅅㅓㅇ	-2490
▁ㅁㅜㄷ	-2491
▁ㅈㅓㄴㅈㅜ	-2492
▁ㅌㅔㄱ	-2493
▁ㅅㅔㅅ	-2494
▁ㅌㅐㄱ	-2495
▁ㅂㅗㄱㅎㅏㅂ	-2496
ㅈㅜㄹ	-2497
▁ㅇㅡㅂ	-2498
ㅈㅔㄹㄹㅔ	-2499
30	-2500
▁1974	-2501
▁ㅂㅣㅇ	-2502
▁ㅎㅕㄴㅈㅏㅇ	-2503
▁ㅊㅏㅇㅈㅗ	-2504
ㄹㅡㄴㅉㅗㄱ	-2505
ㄴㅕㅇ	-2506
▁ㄱㅜㄴㅅㅜ	-2507
▁ㄱㅡㅁㅅㅗㄱ	-2508
▁ㅈㅓㅇㅂㅗㄱ	-2509
▁ㅋㅡㄹㄹㅔ	-2510
▁ㄹㅐㅇ	-2511
▁1940	-2512
▁ㄱㅏㄹㄷㅡㅇ	-2513
▁ㅎㅔㄴㄹㅣ	-2514
▁ㅈㅏㅇㅊㅏㄱ	-2515
▁ㄱㅏㄱㅂㅗㄴ	-2516
▁ㅇㅚㄴㅉㅗㄱ	-2517
▁ㅈㅏㄹㅁㅗㅅ	-2518
▁ㅅㅓㅇㄱㅕㅇ	-2519
▁ㅂㅜㄱㅅㅓ	-2520
▁ㅇㅔㅁ	-2521
▁ㅁㅜㄹㄹㅓ	-2522
ㅉㅣㄱ	-2523
▁ㅎㅕㅇㅅㅏ	-2524
▁185	-2525
ㅇㅏㅅ	-2526
▁ㅇㅣㅇ	-2527
▁ㄴㅗㄴㅈㅐㅇ	-2528
▁ㅎㅏㄴㄸㅐ	-2529
▁ㅇㅣㄴㅈㅗ	-2530
▁ㅌㅏㄱ	-2531
▁SBS	-2532
▁ㅇㅣㄴㄱㅗㅇ	-2533
▁ㅎㅏㅇㅂㅗㄱ	-2534
▁ㅇㅣㄴㄹㅠ	-2535
▁ㅁㅕㄹㅁㅏㅇ	-2536
▁ㄱㅜㄱㄷㅗ	-2537
▁ㅈㅓㄴㅎㅕ	-2538
▁ㅂㅏㅇㅊㅜㄹ	-2539
▁ㄱㅏㅇㅎㅏ	-2540
▁ㅁㅔㄴ	-2541
ㅇㅣㅇ	-2542
▁ㅎㅏㄴㄱㅜㄱㅇㅓ	-2543
▁1968	-2544
▁1948	-2545
▁ㅊㅜㄱㅈㅔ	-2546
▁ㅆㅗ	-2547
▁54	-2548
▁ㅇㅣㄴㅈㅓㅇㅂㅏㄷ	-2549
▁1976	-2550
▁ㅅㅜㅅㅈㅏ	-2551
▁ㅂㅜㄹㄹㅕㅆ	-2552
▁ㅈㅓㅇㅂㅣ	-2553
ㄱㅐㄱㅊㅓㄹㄷㅗ	-2554
ㄲㅐ	-2555
▁ㄱㅓㄴㄹㅣㅂ	-2556
▁ㅊㅜㄹㅇㅣㅂ	-2557
▁ㅊㅜㄹㅈㅏㅇ	-2558
ㅇㅣㄹㅂㅗ	-2559
ㅍㅏㄹ	-2560
▁ㄱㅗㅇㅅㅏㄴㅈㅜ	-2561
▁ㅅㅡㄹㄹㅗ	-2562
ㄱㅓㄹ	-2563
▁ㅅㅓㄴㄱㅛ	-2564
▁ㅇㅡㅇㅇㅛㅇ	-2565
▁ㄱㅕㅇㅅㅓㅇ	-2566
▁ㅇㅣㅂㅈㅏ	-2567
▁ㅇㅔㄱㅅㅡ	-2568
▁ㅇㅡㅁㄹㅕㄱ	-2569
ㅍㅡㄹㄹㅔ	-2570
▁ㅎㅝㄹ	-2571
op	-2572
▁ㅇㅣㄴㅈㅗㅇ	-2573
▁ㅅㅣㅁㄱㅏㄱ	-2574
▁ㅈㅣㄴㅈㅜ	-2575
▁1975	-2576
▁ㅂㅜㄱㄷㅗㅇ	-2577
▁ㅎㅏㄴㅈㅏ	-2578
▁ㅈㅓㄴㄱㅗㅇ	-2579
▁ㅂㅜㅌㅇㅕ	-2580
▁ㄴㅗㄴㅇㅢ	-2581
ㄹㅡㅁㄷㅏ	-2582
▁ㅈㅣㅂㅇㅏㄴ	-2583
ag	-2584
▁ㅅㅣㄴㅊㅔ	-2585
ㄷㅡㄹㅇㅕ	-2586
▁ㅂㅗㄴㅇㅣㄴ	-2587
▁ㅇㅕㄴㅎㅏㅂㄱㅜㄴ	-2588
▁ㅎㅝㄹㅆㅣㄴ	-2589
▁Q	-2590
▁ㅈㅣㄴㄷㅏ	-2591
▁ㅎㅡㅂㅅㅜ	-2592
▁ㅇㅕㄴㄱㅘㄴ	-2593
▁ㅉㅣㄱ	-2594
ㅊㅓㅂ	-2595
▁ㅇㅣㄴㄱㅏ	-2596
▁ㅅㅗㄱㅎㅏㄴㄷㅏ	-2597
▁ㅂㅜㄱㅇㅏ	-2598
▁ㅂㅏㄴㅂㅗㄱ	-2599
▁1978	-2600
▁ㅁㅕㅇㅁㅕㅇ	-2601
▁ㅁㅗㄱㅅㅏ	-2602
▁ㅋㅐㅁㅍㅓ	-2603
ㅅㅓㅇㅇㅝㄴ	-2604
▁56	-2605
▁ㅅㅕ	-2606
▁ㅂㅜㄴㅈㅐㅇ	-2607
▁ㅎㅏㄱㅅㅡㅂ	-2608
▁ㅊㅓㅇㅈㅜ	-2609
▁ㅁㅕㅇㅅㅓㅇ	-2610
▁ㄱㅜㄱㅈㅏㅇ	-2611
▁1963	-2612
▁ㅊㅓㄴㅊㅔ	-2613
▁ㅎㅘㄹㅅㅓㅇ	-2614
▁1971	-2615
▁52	-2616
▁ㅅㅓㅇㄴㅡㅇ	-2617
▁ㅂㅗㄴㅅㅏ	-2618
ㅇㅐㄴㅈㅔㄹㄹㅔ	-2619
▁ㅃㅗㅂ	-2620
▁ㄱㅜㄱㅁㅜ	-2621
▁ㅇㅏㅍㅅㅓ	-2622
▁ㅇㅟㄹ	-2623
▁00	-2624
ㅁㅍㅡ	-2625
▁ㅊㅗㅇㄷㅗㄱ	-2626
▁65	-2627
▁ㅊㅜㄹㅁㅏ	-2628
▁ㄴㅣㄴ	-2629
▁ㅂㅕ	-2630
▁ㄱㅘㄴㅈㅣㄱ	-2631
OS	-2632
ㅅㅓㅇㄱㅜㄴ	-2633
ce	-2634
▁ㅈㅜㅇㄷㅐ	-2635
▁ㅅㅐㅇㄱㅕ	-2636
▁ㅇㅕㄴㄹㅛ	-2637
▁ㅎㅘㄹㅂㅏㄹ	-2638
▁ㅁㅜㄴㅎㅓㄴ	-2639
ㄸㅓㅎㄱㅔ	-2640
ㅈㅓㅇㅅㅣㄱ	-2641
▁49	-2642
▁ㄹㅛ	-2643
▁ㅂㅓㅅㅇㅓ	-2644
▁ㅇㅕㄴㅈㅐ	-2645
ㄱㅗㅇㅎㅏㅇ	-2646
▁ㅁㅏㄹㄹㅔ	-2647
▁ㅋㅠ	-2648
ㅅㅣㄱㅈㅣ	-2649
▁ㄴㅔㅅ	-2650
▁ㅋㅗㄴㅅㅡ	-2651
▁ㅈㅡㅇㅅㅏㅇ	-2652
▁ㅊㅜㅇㅊㅓㅇㅂㅜㄱㄷㅗ	-2653
ㅂㅕㅇㄷㅐ	-2654
▁ㄱㅕㄴㅎㅐ	-2655
▁ㅎㅏㄱㅅㅜㄹ	-2656
▁ㅇㅕㅇㅇㅓㅂ	-2657
▁1969	-2658
▁ㄱㅘㄴㅈㅓㅁ	-2659
▁ㅂㅜㄹㅅㅏㅇ	-2660
▁179	-2661
▁ㄴㅗㅇㅁㅣㄴ	-2662
ㅅㅡㄹㄹㅏ	-2663
▁ㅇㅣㄹㄷㅐ	-2664
▁ㅎㅏㅇㄱㅗㅇㄱㅣ	-2665
ㅅㅣㄱㅎㅚ	-2666
▁ㅎㅏㄱㅂㅜ	-2667
▁ㅈㅣㄴㅂㅗ	-2668
▁ㅈㅣㄱㅇㅓㅂ	-2669
▁ㅈㅓㅇㅇㅝㄴ	-2670
▁ㅈㅏㅇㅇㅏㄱ	-2671
▁ㅇㅣㄹㅊㅣ	-2672
▁ㅂㅜㄹㅂㅓㅂ	-2673
▁ㅂㅏㅇㅅㅏ	-2674
▁ㅎㅏㅇㄱㅜ	-2675
▁ㅈㅓㅂㅎㅏ	-2676
▁53	-2677
▁ㄷㅗㅇㅇㅝㄴ	-2678
▁ㄹㅗㅅㄷㅔ	-2679
▁ㅈㅓㅇㅊㅔ	-2680
▁ㅈㅓㄴㅂㅜ	-2681
oc	-2682
▁ㅇㅜㄴㅈㅓㄴ	-2683
▁ㅈㅣㄱㅈㅓㄴ	-2684
▁1946	-2685
▁ㅂㅕㄴㅎㅘㄴ	-2686
ri	-2687
▁ㄱㅏㄹㄹㅏ	-2688
▁ㅅㅣㄴㅅㅓㅇ	-2689
▁US	-2690
ㄴㅗㅎ	-2691
▁SK	-2692
▁ㅍㅗㄱㄹㅕㄱ	-2693
▁1964	-2694
▁ㅈㅓㄴㅍㅏ	-2695
▁ㅈㅏㅇㄱㅛ	-2696
▁ㅍㅣㅇ	-2697
▁PC	-2698
ㄴㅗㅇ	-2699
▁ㅂㅏㄱㅈㅓㅇ	-2700
▁ㅂㅐㄱㅈㅏㄱ	-2701
▁ㅂㅐㄱㅈㅔ	-2702
▁ㅋㅗㄴㅅㅓ	-2703
▁and	-2704
▁ㅇㅏㄴㅌㅏ	-2705
▁ㅂㅔㄹㄱㅣ	-2706
▁ㅎㅏㄱㅇㅝㄴ	-2707
ㅃㅏ	-2708
ㄷㅡㄹㅇㅣ	-2709
▁ㅇㅣㅁㄱㅡㅁ	-2710
▁ㅅㅣㄱㅍㅜㅁ	-2711
▁ㄱㅏㄴㄷㅏㄴ	-2712
▁ㅎㅏㄱㅎㅚ	-2713
ㅅㅗㄹ	-2714
▁ㅁㅏㅇㅁㅕㅇ	-2715
▁ㄹㅏㄱ	-2716
ㅊㅓㄴㄱㅜㄴ	-2717
▁ㅊㅏㅇㄷㅏㄴ	-2718
▁58	-2719
▁ㅈㅓㅇㅈㅣ	-2720
▁ㅈㅜㄱㅇㅣ	-2721
▁ㅊㅓㄹㅅㅜ	-2722
▁ㅁㅣㄴㅂㅓㅂ	-2723
▁ㅎㅗㄴㄹㅏㄴ	-2724
▁ㅈㅣㄹㅂㅕㅇ	-2725
ㅁㅂㅣ	-2726
▁ㅈㅗㅂ	-2727
▁ㅂㅏㄴㅇㅕㅇ	-2728
▁ㅂㅏㅇㅅㅗㅇㄱㅜㄱ	-2729
▁ㅅㅐㅇㅌㅐ	-2730
▁ㅁㅜㄴㅈㅏㅇ	-2731
▁ㅇㅏㄹㄹㅔ	-2732
▁ㅈㅏㄱㅅㅏ	-2733
ㄹㅠㄴ	-2734
▁ㅅㅏㅇㄷㅏㅇㅎㅣ	-2735
▁ㅇㅣㅁㅇㅢ	-2736
▁ㅊㅣㄴㅇㅣㄹ	-2737
▁ㅅㅏㄹㅇㅣㄴ	-2738
▁ㄱㅗㅇㅌㅗㅇ	-2739
▁ㅇㅣㅁㄷㅐ	-2740
▁1977	-2741
▁ㅂㅕㄴㅎㅕㅇ	-2742
▁ㅂㅗㄱㅁㅜ	-2743
▁ㅎㅚㅇ	-2744
▁ㅋㅟ	-2745
▁ㅈㅓㄴㅁㅜㄴㄱㅏ	-2746
igh	-2747
▁ㅍㅕㄴㅈㅣ	-2748
▁ㅎㅕㅂㅇㅢ	-2749
▁ㅌㅗㅇㅅㅏㅇ	-2750
▁ㅊㅏㅁㅈㅓㄴ	-2751
▁ㅇㅏㄹㄹㅔㄱㅅㅏㄴㄷㅡ	-2752
▁ㅅㅡㅇㅈㅣㄴ	-2753
▁ㄱㅣㅁㅇㅕㅇ	-2754
▁88	-2755
ㅈㅜㄴㄷㅏ	-2756
ation	-2757
▁99	-2758
▁ㅎㅏㄱㄱㅘ	-2759
▁1000	-2760
▁ㅂㅏㄲㅇㅔ	-2761
ㅋㅗㄹㄹㅏ	-2762
▁ㄲㅗㄱ	-2763
▁ㅅㅣㄴㅂㅜㄴ	-2764
▁ㅌㅡㄱㅇㅣ	-2765
▁ㄷㅗㅇㄴㅏㅁ	-2766
ㅁㅣㄹㄹㅣ	-2767
▁ㄷㅗㄱㄹㅣㅂㅇㅜㄴㄷㅗㅇ	-2768
▁ㅍㅏㅂ	-2769
▁..	-2770
▁ㅂㅏㅇㅈㅓㅇㅅㅣㄱ	-2771
▁ㅇㅑㄱㅅㅗㄱ	-2772
▁ㅇㅏㄹㅇㅏ	-2773
▁ㅈㅏㅇㅅㅜ	-2774
▁ㅎㅏㅂㄱㅕㄱ	-2775
▁ㅅㅣㅂㅈㅏ	-2776
▁ㅈㅣㄴㅇㅣㅂ	-2777
▁ㅅㅓㄴㅈㅗ	-2778
▁ㄹㅐㄴ	-2779
▁ㄷㅗㅇㅈㅏㄱ	-2780
▁ㅈㅣㄴㅇㅏㅂ	-2781
ㅊㅓㄴㅅㅣ	-2782
▁1949	-2783
▁ㅇㅕㅇㅎㅑㅇㄹㅕㄱ	-2784
▁ㅊㅏㅁㄱㅗ	-2785
▁62	-2786
▁ㄱㅗㅇㄷㅗㅇㅊㅔ	-2787
▁FA	-2788
▁ㄴㅗㅇㄱㅜ	-2789
▁ㅌㅏㄴㅅㅗ	-2790
ㄴㅏㅂ	-2791
▁ㅈㅓㅇㄱㅣ	-2792
▁ㄹㅓㅆ	-2793
▁ㅇㅣㅁㅈㅣㄴ	-2794
▁1962	-2795
▁ㅎㅕㄴㅇㅕㄱ	-2796
ㅈㅕㅆㅇㅡ	-2797
ㅈㅜㄱ	-2798
▁ㅂㅏㄴㅂㅏㄹ	-2799
▁57	-2800
▁ㅅㅏㅇㄹㅠㄱ	-2801
▁1967	-2802
ㄴㅐㄹ	-2803
▁ㅊㅓㄴㅇㅕㄴ	-2804
▁ㅎㅏㄴㅂㅏㄴㄷㅗ	-2805
▁ㅇㅕㄴㅊㅜㄹ	-2806
▁ㅅㅏㅇㅇㅝㄴ	-2807
▁ㄴㅏㅁㅅㅓ	-2808
▁ㅅㅏㅇㅅㅡㅇ	-2809
▁ㅁㅓㄱㅇㅣ	-2810
▁ㅊㅕ	-2811
▁ㅈㅓㄹㅊㅏ	-2812
▁ㅊㅜㄹㄱㅏㄴ	-2813
▁ㅇㅕㄴㅇㅏㄴ	-2814
▁ㄷㅏㅇㅎㅏㄴ	-2815
▁Ch	-2816
▁ㄹㅗㅇ	-2817
▁ㅅㅣㄹㅅㅜ	-2818
▁ㄱㅘㅇㅈㅏㅇ	-2819
▁r	-2820
▁ㅊㅏㄹㅅㅡ	-2821
▁ㅂㅡㄹㄹㅏ	-2822
▁ㅇㅕㅇㅇㅣㅂ	-2823
▁ㅇㅐㅇ	-2824
▁ㅎㅘㅇㄱㅡㅁ	-2825
▁ㅌㅗㅁ	-2826
nd	-2827
ㅋㅟ	-2828
▁ㅈㅔㄴ	-2829
▁ㄱㅕㅇㄹㅗ	-2830
ㅂㅏㅇㅅㅗㅇ	-2831
▁KBO	-2832
ㅊㅝ	-2833
▁ㅈㅏㅇㄹㅡ	-2834
▁ㅌㅏㄹㅊㅜㄹ	-2835
▁ㅎㅠㅇ	-2836
ㅇㅣㄴㅁㅜㄹ	-2837
ㅟㄴㄷㅏ	-2838
▁ㄸㅢ	-2839
▁You	-2840
ㄹㅏㅆ	-2841
▁ㅂㅏㄹㅇㅓㄴ	-2842
▁ㅂㅜㄴㅇㅕㄹ	-2843
▁ㅂㅓㅁㅈㅜ	-2844
▁ㅇㅣㄹㅅㅣㄱ	-2845
ㅌㅣㄹ	-2846
▁ㅈㅕㅆㅇㅡ	-2847
▁ㅊㅓㅇㄱㅜ	-2848
▁ㅅㅐㅇㄱㅣㄴ	-2849
▁ㅅㅣㄴㅊㅓㅇ	-2850
ST	-2851
▁ㅇㅘㅇㅈㅏ	-2852
ㅁㅓㄴㅌㅡ	-2853
▁ㄷㅗㅇㅅㅓㅇ	-2854
ㅅㅡㅇㅁㅏㄴ	-2855
▁ㄱㅡㄹㅈㅏ	-2856
▁ㅌㅏㄹㄹㅏㄱ	-2857
▁ㅅㅣㄴㅇㅣㄴ	-2858
▁ㅅㅐㅁ	-2859
▁66	-2860
▁ㄱㅏㅁㅅㅏ	-2861
▁ㄷㅡㅇㅈㅣ	-2862
▁ㅂㅔㄱㅌㅓ	-2863
▁ㅍㅣㄱ	-2864
▁ㅎㅗㅅ	-2865
▁ㅂㅏㄴㄷㅡ	-2866
▁ㅂㅏㅇㅈㅣ	-2867
ON	-2868
▁ㅎㅕㄴㅈㅣ	-2869
▁181	-2870
▁68	-2871
ㄹㅓㄴㄷㅔ	-2872
▁ㄹㅗㄹ	-2873
ㄷㅡㄹㅁㅗㄱ	-2874
▁ㅊㅓㄴㅈㅜ	-2875
▁ㅉㅗㅊ	-2876
▁ㅁㅏㄱㅂㅜ	-2877
ER	-2878
▁ㅋㅟㄴ	-2879
▁ㅌㅠ	-2880
▁ㅅㅏㅂ	-2881
▁ㅅㅐㅇㅈㅗㄴ	-2882
▁ㄱㅏㄴㅎㅐㅇ	-2883
▁ㄱㅗㅇㅈㅓㅇ	-2884
▁ㅍㅡㄹㄹㅐ	-2885
▁1966	-2886
▁ㅇㅣㄹㅂㅗㄴㄱㅜㄴ	-2887
▁ㅉㅣ	-2888
ice	-2889
▁1965	-2890
▁ㅂㅓㅂㅈㅓㅇ	-2891
▁ㄴㅗㄱㅅㅐㄱ	-2892
▁ㄴㅏㅁㄱㅕㅆ	-2893
▁ㅅㅓㄴㅈㅓㄴ	-2894
▁61	-2895
▁ㅂㅕㄹㅁㅕㅇ	-2896
▁ㄷㅏㄹㅎㅏ	-2897
▁ㄹㅏㅁ	-2898
▁ㄷㅜㄹㅉㅐ	-2899
▁ㅍㅏㄴㅅㅓ	-2900
▁ㅂㅜㄴㅎㅐ	-2901
▁ㅇㅣㅂㄴㅣ	-2902
▁ㅈㅓㅇㅎㅐ	-2903
▁ㅈㅜㅇㄱㅣ	-2904
art	-2905
▁IS	-2906
▁ㄱㅏㄹㅅㅐㄱ	-2907
▁ㅅㅗㄴㅈㅏ	-2908
ㅈㅣㄹㄹㅐㄴㄷㅡ	-2909
▁ㅎㅡㄱㅇㅣㄴ	-2910
▁%,	-2911
▁ㅈㅓㄴㅎㅕㅇ	-2912
▁ㅂㅗㄱㅈㅣ	-2913
▁ㅈㅓㄴㅁㅕㄴ	-2914
▁183	-2915
▁ㅅㅜㄴㅎㅘㄴ	-2916
▁ㅂㅣㄱㅌㅗ	-2917
▁ㅂㅏㅂ	-2918
ㄷㅡㅂ	-2919
▁ㅂㅜㄴㅎㅏㄹ	-2920
▁ㄹㅟ	-2921
▁ㅅㅓㄴㅂㅗ	-2922
ㅌㅔㄴㅊㅡ	-2923
▁ㄱㅘㅇㅂㅗㄱ	-2924
▁ㅂㅜㄴㄱㅣ	-2925
▁ㅁㅜㄹㅊㅔ	-2926
▁ㄹㅣㅇㅋㅡ	-2927
▁ㅇㅏㄹㅍㅏ	-2928
▁ㅋㅐㄴ	-2929
▁ㄷㅗㄱㅌㅡㄱ	-2930
ㅇㅟㄴ	-2931
▁ㄴㅓㄼㅇㅣ	-2932
▁1961	-2933
▁ㅇㅏㅂㄹㅕㄱ	-2934
▁ㅇㅘㄴㄱㅗㅇ	-2935
ㅎㅕㅇㅁㅜㄴㅎㅘ	-2936
▁re	-2937
▁ㅅㅕㄴ	-2938
▁ㅇㅘㄴㄹㅛ	-2939
▁ㄷㅓㅅ	-2940
▁ㅁㅜㄱ	-2941
▁ㅋㅡㄹㄹㅗ	-2942
est	-2943
ap	-2944
▁86	-2945
▁ㅁㅜㄲ	-2946
▁ㅇㅜㅇ	-2947
▁ㅇㅣㄹㅉㅣㄱ	-2948
ㄴㅣㄹ	-2949
▁ㅌㅗㅂ	-2950
▁800	-2951
▁ㄷㅗㅇㄱㅣ	-2952
▁ㄱㅣㅁㅇㅣㄹ	-2953
▁ㅅㅣㄴㄹㅚ	-2954
ia	-2955
▁ㅌㅏㅁㅅㅏ	-2956
▁600	-2957
▁ㄴㅡㅈ	-2958
▁ㅊㅏㅇㅇㅝㄴ	-2959
▁ㅇㅣㄴㅈㅓㅂ	-2960
▁ㄴㅣㅅ	-2961
ㄹㅐㅇ	-2962
ㅅㅣㄴㄱㅛ	-2963
▁ㅎㅏㄴㅈㅓㅇ	-2964
AR	-2965
▁ㅋㅡㄹㄹㅣ	-2966
▁ㅅㅓㅇㅎㅑㅇ	-2967
▁120	-2968
ㅌㅡㄹㄹㅓ	-2969
▁ㅈㅣㅂㄱㅝㄴ	-2970
▁ㅇㅣㄴㅈㅡㅇ	-2971
▁ㅍㅕㄴㅊㅏㄴ	-2972
▁ㄴㅏㄹㄱㅐ	-2973
▁ㅍㅜㅇㅂㅜ	-2974
▁ㅎㅏㄴㄱㅖ	-2975
▁ㅎㅘㄱㅅㅏㄴ	-2976
▁ㄴㅡㄴㄱㅏ	-2977
▁ㅇㅐㄴㄷㅡ	-2978
▁ㅅㅓㅇㅂㅜㄴ	-2979
⊸⊸	-2980
▁ㅂㅏㄺㅎㅣ	-2981
▁ㅎㅐㅇㄹㅕㄹ	-2982
ㅂㅣㅊ	-2983
ak	-2984
ㅇㅡㄴㅎㅐㅇ	-2985
▁ㅊㅜㄹㅂㅓㅁ	-2986
▁ㅁㅗㄱㅅㅗ	-2987
▁ㅍㅕㅇㄷㅡㅇ	-2988
▁ㄷㅡㅇㅈㅏㅇㅇㅣㄴㅁㅜㄹ	-2989
▁ㅇㅗㄹㄹㅕ	-2990
▁ㄲㅡㅌㄴㅏ	-2991
ㅋㅜㄹ	-2992
▁ㅈㅜㄹㅇㅓ	-2993
▁ㅇㅣㄹㅂㅗㄴㅇㅣㄴ	-2994
▁98	-2995
▁ㅂㅏㄹㄱㅜㄹ	-2996
▁ㅅㅣㄹㅈㅣㄹ	-2997
ㅉㅣ	-2998
▁ㅂㅕㄴㅅㅜ	-2999
ㅇㅙ	-3000
▁ㅈㅓㄴㅇㅝㄴ	-3001
▁ㅁㅏㅈㅇㅣ	-3002
▁ㅇㅕㄴㄱㅏㄴ	-3003
▁ㄲㅓㄲ	-3004
ㅁㅣㄴㅈㅜ	-3005
ct	-3006
▁ㅂㅗㅇㅎㅐ	-3007
ㅅㅣㄹㅅㅏㅇ	-3008
TV	-3009
▁IC	-3010
▁63	-3011
▁ㄱㅘㄱ	-3012
▁ㅌㅗㅇㅅㅏㄴ	-3013
▁ㅅㅏㅇㅇㅟ	-3014
▁ㅂㅜㄴㅁㅕㅇ	-3015
▁ㄲㅡㅌㄴㅏㄴ	-3016
ㄹㅠㅇ	-3017
▁1944	-3018
▁ㄱㅕㅇㅈㅓㄴ	-3019
ㄲㅡㅁ	-3020
▁ㅁㅕㅇㄴㅏ	-3021
▁1919	-3022
▁ㅂㅏㅇㅎㅐ	-3023
▁ㅎㅗㅇㅂㅗ	-3024
▁ㄷㅗㅇㅅㅓ	-3025
▁ㅆㅡㄹ	-3026
▁ㄴㅕ	-3027
▁95	-3028
▁ㅍㅏㄴㅅㅏ	-3029
ㅇㅕㄴㅎㅣ	-3030
ㅋㅓㅁ	-3031
ㅅㅜㅇㅇㅣ	-3032
▁ㄱㅏㄹㄹㅣ	-3033
▁ㅇㅕㅇㅇㅜㅇ	-3034
▁ㅇㅓㅁㅊㅓㅇ	-3035
ㅍㅗㄹㄹㅔ	-3036
▁ㄱㅗㅇㄹㅗ	-3037
▁ㅁㅕㅇㅎㅘㄱ	-3038
▁ㄱㅡㄴㅂㅗㄴ	-3039
▁ㅌㅡㄱㅂㅕㄹㅅㅣ	-3040
▁ㅎㅘㄱㄹㅠㄹ	-3041
▁ㅇㅜㅁㅈㅣㄱㅇㅣㅁ	-3042
og	-3043
▁1941	-3044
▁;/	-3045
ㅍㅡㄹㄹㅣ	-3046
▁59	-3047
ㄹㅏㄴㅅㅣ	-3048
▁ㄹㅐㄴㄷㅡ	-3049
▁ㅁㅏㅈㅊㅜ	-3050
▁ㄱㅗㄹㄷㅡㄴ	-3051
▁ㅇㅏㄱㄱㅣ	-3052
▁74	-3053
▁ㅇㅣㅁㄱㅣ	-3054
▁ㅌㅔㄱㅅㅏ	-3055
▁ㅁㅜㄴㅁㅕㅇ	-3056
▁82	-3057
▁ㄷㅏㄴㄷㅗㄱ	-3058
ㄴㅕㄱ	-3059
▁ㅎㅜㅅ	-3060
ㅂㅗㅅ	-3061
ㄹㅗㅁ	-3062
▁ㅎㅑㅇㅎㅏ	-3063
▁ㅂㅘ	-3064
ul	-3065
ㄴㅛ	-3066
▁SS	-3067
▁ㄷㅏㅇㅊㅗ	-3068
▁ㄱㅏㄱㅈㅣ	-3069
▁ㅈㅜㄹㄱㅣ	-3070
▁ㅉㅡ	-3071
▁ㅊㅜㄹㄹㅕㄱ	-3072
ㄴㅓㅁ	-3073
▁ㅇㅣㅂㄹㅕㄱ	-3074
▁ㅎㅏㄱㅅㅏㄹ	-3075
▁ㄷㅗㅇㅎㅐ	-3076
▁ㅎㅗㄴㅎㅏㅂ	-3077
▁ㅊㅜㅇㄱㅕㄱ	-3078
▁ㄱㅡㅂㅈㅔ	-3079
▁178	-3080
▁to	-3081
▁1958	-3082
ㅋㅡㄹㄹㅔ	-3083
▁ㄱㅗㅇㅎㅓㄴ	-3084
▁AFC	-3085
▁DNA	-3086
▁ㅇㅏㄴㄷㅗㅇ	-3087
▁76	-3088
▁ㅎㅡㄹㄹㅓ	-3089
▁ㅈㅓㄱㅈㅓㄹ	-3090
▁ㅎㅏㄴㄱㅜㄱㅇㅣㄴ	-3091
▁ㅅㅣㅁㅅㅏ	-3092
▁ㅇㅗㄹㅎㅐ	-3093
▁ㅇㅣㅂㅂㅓㅂ	-3094
▁ㅈㅓㅇㅅㅜ	-3095
▁72	-3096
▁1947	-3097
▁ㅇㅏㄱㅎㅘ	-3098
▁ㄷㅗㅇㅁㅕㅇ	-3099
▁ㅂㅠ	-3100
ㅅㅔㅁ	-3101
ㅅㅔㅂ	-3102
▁ㅅㅜㄴㅅㅜ	-3103
▁ㅎㅏㄴㄱㅡㄹ	-3104
▁ㄱㅗㅂ	-3105
▁ㅈㅏㄱㅇㅟ	-3106
▁ㅈㅓㅁㅈㅓㅁ	-3107
▁1956	-3108
▁ㅇㅝㄴㅎㅕㅇ	-3109
▁77	-3110
▁ㅅㅗㄱㅎㅏㄴ	-3111
▁ㄲㅗㅂ	-3112
▁ㅂㅏㅇㅇㅟ	-3113
▁ㅎㅑㅇㅎㅐ	-3114
▁ㄱㅕㅇㄴㅏㅁ	-3115
▁ㅈㅓㅂㅊㅗㄱ	-3116
ㅇㅑㅇㅇㅣ	-3117
▁ㅂㅣㄹㄹㅣ	-3118
▁ㄷㅏㄴㅍㅕㄴ	-3119
▁ㅅㅡㅇㄱㅐㄱ	-3120
ud	-3121
ie	-3122
▁ㅈㅓㅇㅎㅏ	-3123
ㄹㅣㄴㅅㅡ	-3124
▁ㅎㅏㅂㅊㅕ	-3125
ㅋㅗㅁ	-3126
▁ㅂㅗㄱㅇㅝㄴ	-3127
▁ㅎㅏㅁㄹㅏㄱ	-3128
ㅊㅣㅁㄴㅐ	-3129
▁ㅍㅐㅇ	-3130
ㅇㅣㄹㅅㅡ	-3131
▁ㅇㅑㅇㅉㅗㄱ	-3132
▁ㅋㅗㅁ	-3133
▁ㅈㅣㅇㅇㅕㄱ	-3134
▁ㅎㅜㄹ	-3135
▁ㅇㅣㅁㅈㅣㄴㅇㅙ	-3136
▁ㅅㅔㄴㅌㅡ	-3137
▁67	-3138
▁ㄴㅏㅆ	-3139
▁ㄱㅏㅁㅅㅣ	-3140
▁ㅈㅏㅁㅅㅜ	-3141
th	-3142
ly	-3143
▁ㄱㅜㄱㄱㅣ	-3144
▁ㅇㅏㅁㅎㅗ	-3145
▁ㄷㅏㅇㄴㅏ	-3146
▁160	-3147
ㄴㅕㅆ	-3148
▁ㅂㅜㄴㅇㅟ	-3149
▁ㅈㅣㄴㄷㅏㄴ	-3150
▁ㅂㅏㄹㅇㅡㅁ	-3151
ㄴㅣㅅ	-3152
▁ㅅㅣㄹㅎㅕㄴ	-3153
▁Th	-3154
▁ㅎㅜㄴㅈㅏㅇ	-3155
▁ㅇㅘㅇㅅㅣㄹ	-3156
▁ㅊㅜㅁ	-3157
ㅎㅡㅂ	-3158
▁DV	-3159
▁1939	-3160
▁ㅂㅕㅇㅎㅏㅂ	-3161
▁Lo	-3162
IA	-3163
▁ㅂㅏㄹㅂㅏㄹ	-3164
▁ㅂㅐㄱㅅㅓㅇ	-3165
ㄹㅐㅅㄷㅗㅇㅇㅏㄴ	-3166
▁85	-3167
▁ㅈㅓㅁㅅㅜ	-3168
ist	-3169
▁ㅆㅏㄹ	-3170
ight	-3171
▁ㅎㅘㄴㅅㅡㅇ	-3172
▁ㅎㅜㅅㄴㅏㄹ	-3173
▁ㅈㅣㄴㅈㅓㅇ	-3174
▁*	-3175
▁ㅇㅕㄴㅇㅖ	-3176
ㄴㅗㄹ	-3177
▁ㅇㅓㅂㅈㅓㄱ	-3178
▁ㄷㅗㄱㅇㅣㄹㄱㅜㄴ	-3179
▁ㅇㅣㄴㅅㅙ	-3180
▁ㄷㅡㅇㅍㅏㄴ	-3181
▁ㄷㅗㅇㅇㅑㅇ	-3182
▁ㅇㅓㄴㅈㅔ	-3183
AS	-3184
▁ㄱㅠㄴㅎㅕㅇ	-3185
▁ㅅㅣㄴㅂㅜ	-3186
▁ㅍㅗㄱㅌㅏㄴ	-3187
▁ㅅㅏㅇㅈㅜ	-3188
▁1954	-3189
▁ㅅㅓㄱㅇㅠ	-3190
ㄴㅕㅁㅁㅜㄹ	-3191
ㄲㅏㅌ	-3192
▁ㅍㅕㅇㅇㅏㄴ	-3193
▁ㅅㅏㄴㅎㅘ	-3194
ㅁㅓㄱ	-3195
▁ㅇㅕㅇㅈㅣ	-3196
▁73	-3197
▁ㅌㅓㄴ	-3198
▁ㅅㅓㄲ	-3199
▁ㅇㅏㄴㅌㅗ	-3200
▁ㅁㅓㄹㄹㅣ	-3201
▁ㅅㅜㄴㄱㅏㄴ	-3202
▁ㅂㅗㄱㅅㅜ	-3203
▁ㅇㅣㄹㅅㅏㅇ	-3204
ㄱㅝㄹ	-3205
▁ㅎㅣㄴ	-3206
ㄴㅟㄴㄷㅏ	-3207
▁ㅂㅗㄱㅇㅡㅁ	-3208
▁ㅊㅣㅁㅇㅣㅂ	-3209
AT	-3210
▁ㅊㅏㅇㅈㅏㄱ	-3211
▁ㅇㅣㄹㅈㅏ	-3212
▁ㅍㅕㄹㅊㅕ	-3213
▁ㄱㅣㅅ	-3214
▁ㄱㅡㅇ	-3215
▁ㅎㅘㄱㄹㅣㅂ	-3216
▁ㅅㅏㅇㅇㅕㄱ	-3217
▁ㅊㅣㅁㄹㅑㄱ	-3218
▁ㅇㅣㄹㅅㅣ	-3219
▁202	-3220
ㄸㅏ	-3221
▁1952	-3222
ㄹㅡㄹㄹㅗ	-3223
▁ㅂㅣㄹㅂㅗ	-3224
▁ㅊㅏㅁㅁㅗ	-3225
ㄹㄹㅓㄴ	-3226
▁96	-3227
▁ㄱㅗㅇㅈㅜㅇ	-3228
▁ㅎㅕㄱㅅㅣㄴ	-3229
ㅋㅡㄹㄹㅣ	-3230
▁ㅁㅣㄴㅈㅜㅇ	-3231
▁ㄱㅕㅂ	-3232
▁ㅁㅜㄴㅅㅣㄴ	-3233
ㄷㅜㄹ	-3234
▁78	-3235
▁ㄱㅝㄴㅇㅟ	-3236
▁Al	-3237
▁ㅅㅐㅇㅁㅜㄹㅎㅏㄱ	-3238
▁81	-3239
ㅁㅓㅇ	-3240
▁ㅂㅏㄱㅈㅓㅇㅎㅢ	-3241
ess	-3242
▁ㅈㅗㅇㅅㅏ	-3243
▁ㅈㅓㄴㅅㅣㄴ	-3244
▁ㅅㅡㅇㅂㅜ	-3245
▁ㅈㅏㅇㄴㅏㅁ	-3246
▁ㄷㅗㅇㅂㅏㅇ	-3247
BA	-3248
▁ㅇㅏㄵ	-3249
▁ㄹㅕㄱ	-3250
▁ㅂㅐㄴ	-3251
▁ㅂㅣㄹㄷㅣㅇ	-3252
ㅍㅣㄹㄷㅓ	-3253
▁ㅍㅕㅇㄹㅗㄴ	-3254
▁ㅅㅣㄴㅈㅏ	-3255
▁ㅊㅗㅇㅎㅚ	-3256
▁ㄷㅏㅇㄱㅜㄱ	-3257
▁ㅇㅏㄹㅂㅏ	-3258
▁ㅇㅕㄱㅎㅏㄱ	-3259
▁ㅁㅟㄴ	-3260
▁71	-3261
▁ㅈㅜㅇㄹㅕㄱ	-3262
▁ㅎㅘㅇㅎㅜ	-3263
▁ㅊㅓㄴㅇㅏㄴ	-3264
▁NH	-3265
▁ㅅㅣㄴㄱㅗ	-3266
▁AT	-3267
ㄹㄹㅣㄴ	-3268
▁ㅂㅗㄴㅈㅣㄹ	-3269
▁ㅈㅓㄴㅈㅣㄱ	-3270
▁Li	-3271
▁ㅎㅗㅅㅋㅏ	-3272
ㅎㅐㅇㄱㅣ	-3273
▁ㅇㅏㄹㄱㅗ	-3274
▁\	-3275
▁ㅈㅏㄱㄷㅗㅇ	-3276
▁91	-3277
▁ㅇㅜㅁㅈㅣㄱㅇㅣ	-3278
▁AP	-3279
▁1959	-3280
▁ㅈㅓㄴㄴㅏㅁ	-3281
▁ㅈㅣㄹㅎㅘㄴ	-3282
▁ㄱㅗㄹㄷㅡ	-3283
▁ㅌㅏㄹㅌㅚ	-3284
ㅅㅏㄴㅁㅜㄹ	-3285
▁ㅇㅐㄱㅅㅕㄴ	-3286
▁st	-3287
▁ㅇㅑㄱㅁㅜㄹ	-3288
▁ㅇㅣㄴㅇㅛㅇ	-3289
▁ㅎㅐㅇㅂㅗㄱ	-3290
ㅅㅏㄴㄱㅘㅇㅇㅕㄱㅅㅣ	-3291
ㅇㅛㅇㅈㅏ	-3292
▁ㅎㅗㄴㅇㅣㄴ	-3293
ㅖㄴ	-3294
▁ㅅㅡㅇㄹㅕ	-3295
▁177	-3296
▁ㅈㅗㅎㅇㅏ	-3297
ub	-3298
▁ㅇㅟㅅ	-3299
▁ㅂㅓㄹㅇㅕㅆ	-3300
ㅅㅔㄹㄹㅗ	-3301
▁ㅇㅣㄴㅅㅐㅇ	-3302
▁ㅅㅣㄴㅅㅏ	-3303
▁ㄷㅗㅂ	-3304
ㄹㅗㄴㅌㅗ	-3305
▁ㅇㅗㄻㄱㅕㅆ	-3306
ㅅㅏㄱ	-3307
ㄹㅔㅁ	-3308
▁ㄱㅜㄱㄱㅜㄴ	-3309
▁ㅅㅣㄹㄹㅕㄱ	-3310
▁ㅇㅣㄴㅇㅝㄴ	-3311
▁ㅈㅓㄹㅂㅏㄴ	-3312
▁ㅅㅣㅇㄱㅏ	-3313
▁ㅇㅘㅇㅂㅣ	-3314
▁ㅇㅣㄹㅋㅓ	-3315
▁ㅅㅣㅁㅈㅏㅇ	-3316
▁87	-3317
▁ㅅㅗㄴㅅㅏㅇ	-3318
▁ㅇㅣㄹㅋㅓㄷ	-3319
▁ㅇㅣㄹㅂㅗㄴㅇㅓ	-3320
▁ㅇㅘㅇㅎㅜ	-3321
▁1942	-3322
▁ㅈㅓㅇㅊㅏ	-3323
ㅌㅐㄴ	-3324
▁ㅍㅠ	-3325
▁ㅅㅏㄴㅅㅗ	-3326
▁ㅅㅏㅇㄱㅘㄴ	-3327
▁ㅇㅕㅇㅈㅜ	-3328
ㅅㅜㄹㄱㅘㄴ	-3329
▁ㅂㅐㄱㅁㅏㄴ	-3330
▁ㅈㅓㄴㄷㅏㅇ	-3331
ㅇㅓㅂㅈㅏ	-3332
▁ㄷㅓㄹ	-3333
ㄲㅏㅂ	-3334
IV	-3335
▁ㅅㅓㄴㅂㅏㄱ	-3336
▁ㅊㅏㅇㄷㅏㅇ	-3337
▁159	-3338
▁84	-3339
ab	-3340
▁ㄱㅣㅁㅅㅓㅇ	-3341
▁ㅌㅗㅇㅎㅘ	-3342
▁ㅈㅓㄴㄷㅗㅇㅊㅏ	-3343
▁1955	-3344
▁1953	-3345
▁ㄱㅘㄴㅇㅕ	-3346
▁ㅅㅣㅁㅈㅣ	-3347
▁1943	-3348
▁ㅅㅣㅁㅍㅏㄴ	-3349
▁DVD	-3350
▁ㅍㅣㄹㄷㅡ	-3351
▁ㅇㅝㄴㄴㅕㄴ	-3352
▁1900	-3353
▁ㅂㅓㅂㅁㅜ	-3354
▁1936	-3355
ew	-3356
▁ㄱㅜㄱㅈㅓㅇ	-3357
▁ㅊㅗㅇㅈㅏㅇ	-3358
▁ㄱㅏㅇㄹㅡㅇ	-3359
▁ㅇㅡㅁㅅㅓㅇ	-3360
ine	-3361
▁ㄱㅣㅁㄷㅐ	-3362
▁ㅅㅓㄴㅇㅣㅁ	-3363
▁ㅇㅡㅁㅇㅏㄱㄱㅏ	-3364
▁700	-3365
▁ㅇㅣㄹㅊㅔ	-3366
▁ㄷㅡㅅㅇㅣ	-3367
▁ㅎㅣㅂ	-3368
▁ㅂㅗㄴㅁㅕㅇ	-3369
ㅈㅣㄱㅈㅏ	-3370
ㄲㅓ	-3371
ㄲㅣㅁ	-3372
ㅅㄱㅏ	-3373
▁Re	-3374
▁ㅈㅓㄴㅂㅜㄱ	-3375
▁ㄱㅕㄹㅇㅢ	-3376
ㅅㅡㄹㄹㅓ	-3377
▁ㄷㅏㄷ	-3378
ㄷㅗㄱㅂㅜ	-3379
ㅇㅖㄴ	-3380
▁ㅎㅏㄱㅅㅏ	-3381
ㅌㅏㄴㅌㅣ	-3382
▁ㄱㅣㅁㅇㅣㄹㅅㅓㅇ	-3383
▁ㄱㅕㄹㄹㅗㄴ	-3384
▁ㅈㅓㄱㅎㅏㅂ	-3385
▁ㅂㅏㄹㅌㅏㄱ	-3386
▁ㅋㅗㄴㅌㅔㄴㅊㅡ	-3387
▁="	-3388
▁1910	-3389
▁ㅇㅛㅇㄷㅗ	-3390
▁ㅇㅣㄹㄱㅣ	-3391
ㅇㅓㄴㅅㅣㅂ	-3392
▁ㅋㅙ	-3393
▁ㅇㅕㄴㅅㅡㅂ	-3394
▁ㄱㅣㅁㅈㅗㅇ	-3395
ㄹㅏㄴㅅㅐㄱ	-3396
▁ㄷㅡㄱㅍㅛ	-3397
ㅋㅔㅅㅁㅗㄴ	-3398
ㅇㅞㄹ	-3399
▁ㄷㅣㄴ	-3400
▁ㅅㅗㄱㅎㅐ	-3401
▁ㅅㅏㅇㅅㅣㄹ	-3402
▁ㄱㅓㅁㅅㅐㄱ	-3403
▁ㅅㅓㄴㅎㅕㅇ	-3404
▁ㄱㅓㅁㅌㅗ	-3405
ㅈㅣㅁ	-3406
▁ㅇㅕㅇㅇㅑㅇ	-3407
▁1957	-3408
▁ㅂㅓㄹㅇㅣ	-3409
▁ㅈㅓㄴㅅㅗㅇ	-3410
EC	-3411
▁1914	-3412
▁ㅇㅓㄱㅈㅔ	-3413
ue	-3414
▁69	-3415
▁ㄱㅡㅇㅈㅓㅇ	-3416
▁97	-3417
▁HD	-3418
ㅅㅜㄹㄱㅏ	-3419
▁ㅇㅣㄱㅅㅡ	-3420
ㅇㅝㄴㄱㅕㅇ	-3421
▁ㅂㅏㄹㅁㅕㅇ	-3422
▁ㄲㅔ	-3423
ㄹㅌㅡ	-3424
▁ㅅㅏㅇㅅㅗㄱ	-3425
▁ㅂㅗㄴㄷㅏ	-3426
▁ㅂㅜㄹㅁㅏㄴ	-3427
ㅊㅣㄴㄷㅏ	-3428
▁01	-3429
▁ㄱㅜㅇㅈㅓㄴ	-3430
ㅌㅣㅁ	-3431
▁ㅅㅏㅇㅅㅜ	-3432
▁ㅈㅗㄴㅅㅡ	-3433
▁ㅅㅣㄴㄷㅗ	-3434
▁92	-3435
▁ㄷㅗㅇㅂㅜㄱ	-3436
▁{	-3437
▁ㅅㅓㄱㅅㅏ	-3438
▁ㅂㅏㅇㅇㅓㄴ	-3439
▁101	-3440
ㅅㅓㄴㅊㅗㅇ	-3441
ㅆㅏㄴ	-3442
ㅈㅡㄹ	-3443
▁ㅍㅗㄱㄱㅕㄱ	-3444
▁ㅇㅕㄴㅍㅕㅇ	-3445
BM	-3446
ㅍㅗㅁ	-3447
▁ㅍㅜㅅ	-3448
▁;,	-3449
▁ㅈㅐㄱㅅㅡㄴ	-3450
▁ㅅㅣㄴㅈㅏㅇ	-3451
ㅅㅓㄴㅊㅗㅇㄷㅗㄱㅂㅜ	-3452
▁ㄷㅓㅇ	-3453
▁ㄱㅣㅍㅇㅣ	-3454
▁ㄹㅏㄹ	-3455
▁ㅇㅕㅆㅇㅡㄹ	-3456
▁1938	-3457
▁ㅃㅓ	-3458
▁ㄱㅏㄱㄱㅜㄱ	-3459
▁ㅋㅞ	-3460
▁ㅁㅏㅈㅅㅓ	-3461
▁ㅈㅓㅂㅎㅏㄴㄷㅏ	-3462
▁ㄲㅡㅌㄴㅐ	-3463
▁ㅂㅜㄴㄱㅛ	-3464
▁ㅇㅜㅅ	-3465
▁ㅍㅓㅇ	-3466
ㅍㅐㄱ	-3467
▁ㅇㅟㅇ	-3468
▁ㅍㅣㄹㅅㅜ	-3469
ect	-3470
▁ㅂㅜㄴㄴㅗ	-3471
▁ㅅㅓㄹㄷㅡㄱ	-3472
ㅊㅗㅇㄹㅣ	-3473
▁ㅈㅣㄴㅇㅕㅇ	-3474
▁ㅁㅣㄹㄹㅣ	-3475
▁ㅋㅓㄴㅌㅡ	-3476
▁on	-3477
ㅂㅐㅁ	-3478
▁ㅎㅏㅅ	-3479
▁ㅅㅣㅇㅇㅓ	-3480
ㄲㅏㄹ	-3481
ㄱㅣㅁ	-3482
▁ㅇㅓㅁㅊㅓㅇㄴㅏㄴ	-3483
▁ㄷㅗㄱㅈㅐ	-3484
▁ㅇㅜㄴㅎㅏㅇ	-3485
▁ㅎㅐㅇㅎㅐ	-3486
▁ㅂㅡㄹㄹㅗㄱ	-3487
▁ㅇㅗㄹㅅㅡ	-3488
▁ㅈㅡㄱㅅㅣ	-3489
▁ㄱㅏㅂㅈㅏ	-3490
▁ㅁㅏㄱㄷㅐ	-3491
▁ㄱㅘㅇㅂㅓㅁ	-3492
▁ㅊㅓㄴㅁㅏㄴ	-3493
▁ㅇㅓㄴㄷㅓㄱ	-3494
▁ㅂㅏㄴㅅㅏ	-3495
▁ㅇㅝㄴㅅㅜ	-3496
▁1932	-3497
▁1951	-3498
ㅌㅣㄴㅇㅓ	-3499
▁ㅅㅓㅇㄴㅏㅁ	-3500
▁ㄱㅜㄱㅈㅓㄱ	-3501
▁ㅂㅜㄹㅇㅏㄴ	-3502
▁1918	-3503
ㅍㅔㄱㅌㅡ	-3504
▁ㅇㅕㄴㅅㅓㄹ	-3505
▁ㄱㅜㄷ	-3506
▁89	-3507
▁ㅇㅓㄴㅅㅡ	-3508
ㅅㅏㄴㅎㅘ	-3509
▁ㅂㅏㄹㄱㅏㄴ	-3510
▁ㅇㅛㅇㅇㅣㄴ	-3511
▁ㅇㅕㄴㄹㅏㄱ	-3512
▁ㄴㅣㄱ	-3513
▁ㅇㅠㄴㄹㅣ	-3514
▁OS	-3515
▁ㅈㅜㅇㅊㅜ	-3516
▁ㅋㅣㄹㄹㅗ	-3517
▁ㄹㅓㅆㄷㅏ	-3518
▁ㅋㅝ	-3519
ers	-3520
ㄱㅘㄱ	-3521
ㅂㅗㄴㅈㅜ	-3522
IN	-3523
▁1935	-3524
▁ㅇㅏㅁㅋㅓㅅ	-3525
▁ㄱㅗㅇㅅㅣㄴ	-3526
▁ㄱㅐㄹ	-3527
▁ㄴㅗㄹㄹㅏ	-3528
▁1937	-3529
ㅌㅜㄴ	-3530
▁ㅂㅜㄴㅎㅘ	-3531
▁ㅎㅢㄴㅅㅐㄱ	-3532
▁ㅉㅏㄱ	-3533
▁ㅁㅟㄴㅎㅔㄴ	-3534
ㄱㅗㅇㅅㅏ	-3535
▁ㅊㅓㅂ	-3536
▁ㅁㅜㄹㄱㅗ	-3537
▁ㅍㅏㄹㄹㅔ	-3538
▁ㅁㅕㄴㅇㅕㄱ	-3539
▁ㄷㅏㅇㅎㅐ	-3540
▁FM	-3541
▁ㄱㅗㄱㅅㅓㄴ	-3542
ㅂㅔㄴㅌㅡ	-3543
▁93	-3544
▁ㅈㅓㄴㅅㅜㄹ	-3545
▁ㅈㅣㄴㄱㅕㄱ	-3546
▁ㄱㅕㅇㅂㅣ	-3547
ore	-3548
▁ㅅㅏㄴㅈㅣ	-3549
▁Be	-3550
▁ㅊㅣㅇㅎㅗ	-3551
ㄴㅜㄴ	-3552
▁ㅅㅣㄹㅊㅓㄴ	-3553
▁ㅈㅓㅇㄹㅠ	-3554
▁ㅅㅏㅇㅇㅣㄴ	-3555
▁182	-3556
▁ㅂㅣㅈ	-3557
▁ㅅㅗㄴㅅㅣㄹ	-3558
▁ㄷㅏㄹㄹㅕ	-3559
▁ㅇㅣㄹㄹㅕㄴ	-3560
▁ㅂㅓㅂㅎㅏㄱ	-3561
▁ㄱㅡㅂㄱㅕㄱ	-3562
▁ㅌㅏㅇ	-3563
ㅁㅏㅇㅈㅏ	-3564
▁ㅁㅣㄹㄹㅕ	-3565
▁ㅁㅗㄱㅅㅓㅇ	-3566
▁ㄱㅓㅌ	-3567
ㅅㅔㄴㅌㅡ	-3568
▁ㅇㅑㅇㅅㅏㄴ	-3569
▁ㅍㅐㄱ	-3570
▁ㅂㅏㄹㄹㅔ	-3571
▁ㅅㅐㅇㄱㅕㅆ	-3572
▁ㅈㅣㄴㅎㅏㄱ	-3573
▁ㅇㅘㄴㅂㅕㄱ	-3574
▁ㅎㅏㅇㄱㅗㅇㅅㅏ	-3575
▁ㄸㅗㄱ	-3576
▁ㅂㅐㄱㅇㅣㄴ	-3577
▁ㅂㅏㄴㅈㅣ	-3578
ㄴㅣㄱㅅㅡ	-3579
▁94	-3580
▁ㅋㅜㄹ	-3581
▁ㄴㅏㅁㄴㅕ	-3582
▁1928	-3583
ㄷㅗㅇㅅㅐㅇ	-3584
▁CP	-3585
▁ㄱㅘㄴㅎㅐ	-3586
end	-3587
ell	-3588
our	-3589
▁ㄲㅡㄹㅇㅓ	-3590
▁ㅁㅓㄹㅌㅣ	-3591
ㅅㅡㄹㄹㅣㅇ	-3592
▁ㅌㅏㄴㅇㅏㅂ	-3593
ㅍㅏㄴㅅㅗ	-3594
▁ㅇㅣㄹㄹㅣ	-3595
▁ㄱㅘㅇㅂㅓㅁㅇㅟ	-3596
ID	-3597
▁ㄷㅗㅇㅎㅘ	-3598
▁ㅌㅣㄴ	-3599
▁ㅌㅜㄹ	-3600
ㅅㅜㅁ	-3601
▁ㄱㅏㅇㄴㅏㅁ	-3602
▁ㅁㅜㄹㄱㅓㄴ	-3603
▁ㅊㅏㄴㅅㅓㅇ	-3604
▁ㄷㅗㅇㄱㅕㅇ	-3605
ㅌㅗㅂ	-3606
▁1933	-3607
ㄴㅓㄴ	-3608
ㄷㅗㅇㅈㅗ	-3609
▁ㄷㅏㅇㅇㅝㄴ	-3610
▁ㄱㅕㅇㅅㅏ	-3611
▁ㅈㅓㄴㅁㅏㅇ	-3612
▁ㅇㅕㄹㅁㅐ	-3613
▁ㅊㅣㄹㄹㅔ	-3614
▁ㅇㅕㅇㄱㅜ	-3615
▁ㅈㅣㄹㅁㅜㄴ	-3616
▁09	-3617
ㅋㅣㅁ	-3618
▁ㅈㅣㅂㅎㅚ	-3619
▁04	-3620
▁79	-3621
▁ㅃㅕ	-3622
▁ㅎㅐㅇㅈㅓㄱ	-3623
▁ㄹㅐㅂ	-3624
▁1924	-3625
ㅍㅣㄹㄷㅡ	-3626
▁ㅅㅓㄴㅍㅗ	-3627
▁ㅂㅕㄴㅎㅏ	-3628
ㄴㅔㄹ	-3629
▁ㅈㅓㄴㅈㅓㄱ	-3630
▁ㅂㅗㅇㅅㅏ	-3631
▁ㅅㅡㄹㄹㅏ	-3632
▁ㅍㅕㅇㅁㅕㄴ	-3633
▁ㄱㅕㄱㅍㅏ	-3634
▁ㄷㅗㄹㄹㅕ	-3635
▁110	-3636
▁ㄱㅓㄹㄹㅣ	-3637
▁ㄷㅗㅇㄱㅜㄹ	-3638
▁ㅇㅝㄴㅅㅣ	-3639
▁ㅊㅗㄱㅈㅣㄴ	-3640
ㅇㅏㅆ	-3641
▁ㄱㅏㄴㄷㅏ	-3642
ain	-3643
ㄹㄹㅔㄴ	-3644
ㄴㅐㅆㅇㅡ	-3645
▁08	-3646
▁ㅁㅏㄴㄴㅏㅆ	-3647
▁ㅇㅜㄴㅅㅗㅇ	-3648
ㅇㅣㅍ	-3649
▁ㄱㅏㅁㄱㅏㄱ	-3650
AN	-3651
▁ㅈㅜㄹㅇㅣ	-3652
ㄱㅔㄹ	-3653
ㅌㅗㄹㄹㅣㄱㄱㅛ	-3654
▁ㄷㅐㄴㅅㅡ	-3655
ㅁㅕㅇㅅㅏ	-3656
▁ㅅㅣㄹㄴㅐ	-3657
▁ㄲㅡㄴ	-3658
ill	-3659
▁ㅎㅏㅇㅇㅢ	-3660
▁MS	-3661
▁ㅇㅗㅂ	-3662
▁ㅈㅐㅇ	-3663
▁ㄴㅏㅁㄱㅣ	-3664
▁ㅍㅓㄴ	-3665
▁ㅇㅏㄴㅌㅣ	-3666
▁ㅌㅏㄴㅎㅐㄱ	-3667
▁ㄹㅣㅂ	-3668
▁ㅇㅣㅂㄷㅐ	-3669
▁ㄱㅣㅁㅎㅐ	-3670
▁ㄷㅗㅇㅈㅣ	-3671
▁ㅍㅏㄴㅌㅏ	-3672
ㅇㅓㄴㅊㅡ	-3673
ㅜㄱㅅㅡ	-3674
▁ㅇㅕㅇㅇㅝㄴ	-3675
▁ㄷㅓㅅㅂㅜㅌ	-3676
▁83	-3677
▁ㄱㅡㄱㄷㅏㄴ	-3678
▁ㄴㅗㄹㅇㅣ	-3679
▁Co	-3680
▁ㄱㅜㄴㅂㅜ	-3681
▁ㅊㅜㄱㅅㅗ	-3682
▁ㅎㅏㅂㄴㅣ	-3683
▁ㄷㅗㅇㅇㅣㄴ	-3684
▁ㄸㅔ	-3685
▁ㄴㅡㄱ	-3686
ard	-3687
▁ㄱㅜㄱㅌㅗ	-3688
ㅇㅑㅇㅅㅣ	-3689
▁ㅅㅓㄴㄹㅗ	-3690
▁ㅅㅡㅂㄱㅕㄱ	-3691
ㄷㅗㅇㄷㅏㅇ	-3692
▁ㄴㅏㅁㄱㅡㄱ	-3693
▁ㄷㅐㄴ	-3694
▁ㄱㅏㄴㅂㅜ	-3695
▁ㅈㅡㅇㅇㅓㄴ	-3696
▁ㅈㅣㄹㅅㅓ	-3697
▁ㄹㅜㅁ	-3698
▁ㅎㅣㅂㅎㅏㅂ	-3699
▁ㅎㅏㅁㄱㅕㅇ	-3700
ㅎㅏㅂㅁㅜㄹ	-3701
▁170	-3702
▁ㅅㅓㄴㅎㅗ	-3703
▁ㅈㅓㅇㅁㅕㄴ	-3704
▁ㅃㅏㅇ	-3705
▁ㅎㅏㄹㅇㅏ	-3706
▁De	-3707
▁ㅋㅣㄴ	-3708
▁ㄷㅗㅇㅁㅔ	-3709
▁ㅊㅗㅇㅈㅐ	-3710
▁ㅁㅣㄹㄹㅏ	-3711
▁ㅍㅕㄴㅇㅢ	-3712
▁ㅃㅓㄷ	-3713
▁ㅈㅓㅂㅅㅗㄱ	-3714
▁ㄱㅏㅇㅈㅓㄴ	-3715
▁ㅎㅕㅇㅅㅏㅇ	-3716
▁ㄱㅕㅇㅊㅏㄹㅅㅓ	-3717
▁ㅂㅔㄹㄹㅏ	-3718
▁ㅇㅡㄴㅁㅔ	-3719
ㄹㅐㄴㅅㅡ	-3720
ㅍㅕㅇㄱㅏ	-3721
▁ㄷㅏㄱㅌㅓ	-3722
▁ㅈㅏㅇㅈㅓㅁ	-3723
▁1934	-3724
▁ㅈㅜㅇㄷㅗㅇ	-3725
▁ㅂㅏㄹㅈㅓㄴㅅㅗ	-3726
OR	-3727
▁ㅊㅓㄹㄱㅓ	-3728
▁ㄱㅕㅇㅂㅜㄱ	-3729
ㅇㅏㄴㄱㅜㄴ	-3730
▁ㄱㅗㄴㅊㅜㅇ	-3731
▁th	-3732
▁ㅈㅜㅇㄱㅖ	-3733
▁ㄱㅓㄹㅊㅣㄴ	-3734
▁130	-3735
▁ㅇㅓㅇ	-3736
▁ㅅㅓㅇㅅㅓ	-3737
ㄹㅜㄹ	-3738
AM	-3739
▁ㅈㅏㅇㄹㅗ	-3740
▁ㄱㅜㄱㅂㅏㅇㅂㅜ	-3741
▁cod	-3742
▁ㄴㅗㅎㅇㅕ	-3743
▁ㄷㅗㅇㄱㅜ	-3744
▁ㅎㅡㄴㅈㅓㄱ	-3745
▁ㅈㅏㅇㄹㅖ	-3746
▁ㅈㅣㄱㅁㅜ	-3747
▁ㅎㅗㄴㅈㅏ	-3748
ㅇㅑㅇㄱㅜㄴ	-3749
▁ㅇㅐㄱㅊㅔ	-3750
▁140	-3751
▁ㅈㅓㅇㅌㅗㅇ	-3752
▁ㅌㅔㄹ	-3753
ne	-3754
▁ST	-3755
ㄱㅗㅇㅇㅓㅂ	-3756
▁ㅍㅏㄴㅈㅓㅇ	-3757
▁Sh	-3758
ㅋㅗㅅ	-3759
▁ㄱㅘㅇㅅㅏㄴ	-3760
▁ㅇㅏㄴㅉㅗㄱ	-3761
▁ㄱㅡㄹㄹㅣ	-3762
▁ㅂㅗㄱㅅㅏ	-3763
▁ㅂㅗㅇㄱㅣ	-3764
▁ㅎㅏㅂㄷㅗㅇ	-3765
ㅍㅗㄹ	-3766
▁ㅇㅕㄴㅎㅗ	-3767
▁ㅇㅣㅂㄱㅜ	-3768
▁ㄱㅡㄴㅇㅠㄱ	-3769
▁ㅈㅓㅇㅈㅗ	-3770
ㅁㅜㄱ	-3771
▁ㅈㅜㅇㅅㅓㅇ	-3772
▁ㅇㅏㄹㄹㅔㄱㅅㅏㄴㄷㅓ	-3773
▁ㄷㅏㅇㄷㅐ	-3774
▁ㅇㅏㄴㄴㅐ	-3775
▁ㅎㅕㄴㅈㅗㄴ	-3776
▁ㄱㅏㅇㄷㅗ	-3777
ㅇㅠㄱㄱㅘㄴ	-3778
ㅎㅔㄹ	-3779
▁ㅂㅐㅁ	-3780
▁ㅁㅕㄹㅈㅗㅇ	-3781
▁Me	-3782
▁ㅅㅣㄹㅇㅓㅂ	-3783
▁ㅎㅣㅁㄷㅡㄹ	-3784
▁ㄴㅗㅇㅈㅏㅇ	-3785
▁ㄱㅡㅁㄱㅏㅇ	-3786
▁ㅂㅓㅂㅇㅏㄴ	-3787
▁ㅈㅓㄴㅎㅏㄴ	-3788
▁ㅁㅓㅁ	-3789
ㅇㅑㅇㅊㅔ	-3790
▁ㅎㅏㄴㅅㅓㅇ	-3791
▁ㅂㅜㄱㅁㅣ	-3792
▁ㅎㅕㄹㅇㅐㄱ	-3793
▁ㄷㅏㄴㅅㅜㄴㅎㅣ	-3794
▁ㅈㅜㄹㄹㅣ	-3795
▁ㅊㅜㅇㅂㅜㄴㅎㅣ	-3796
▁ㅈㅠ	-3797
▁ㅁㅗㅅㅎㅏㄴㄷㅏ	-3798
▁ㄱㅣㅁㄱㅜ	-3799
ㅎㅏㄴㅈㅔ	-3800
▁ㄷㅏㅇㅅㅣㄴ	-3801
▁ㅌㅡㅁ	-3802
▁ㅈㅡㅇㄱㅝㄴ	-3803
▁ㅈㅜㅇㅈㅣ	-3804
▁ㅁㅜㄴㅂㅓㅂ	-3805
▁1931	-3806
ㅋㅣㅅ	-3807
▁ㄴㅣㄹ	-3808
▁ㅂㅗㄴㅌㅗ	-3809
▁ㅈㅣㄴㅅㅣㄹ	-3810
▁ㅂㅡㄹㄹㅗ	-3811
▁ㅌㅡㄱㅎㅓ	-3812
▁ㅎㅐㅇㅎㅏ	-3813
ㅂㅐㅇ	-3814
▁ㅇㅓㅁㄱㅕㄱ	-3815
all	-3816
▁ㅈㅓㅇㅎㅘㄱㅎㅣ	-3817
▁ㅁㅐㄴㅊㅔ	-3818
▁ㅍㅔㄹㄹㅣ	-3819
▁ㅈㅗㅇㅈㅓㄴ	-3820
▁ㄱㅐㄹㄹㅓㄱ	-3821
▁ㄹㅑ	-3822
▁ㄱㅗㄹㅋㅣ	-3823
ㄷㅣㄱ	-3824
▁ㅍㅓㄹ	-3825
▁ㅍㅣㄹㄹㅏ	-3826
▁ㄲㅜㄴ	-3827
ㅌㅗㄱ	-3828
▁y	-3829
▁ㅁㅗㄹㅇㅏ	-3830
▁ㅇㅣㅂㅅㅏ	-3831
▁ㄱㅏㅇㄷㅡㅇ	-3832
▁ㅅㅓㄴㅁㅜㄹ	-3833
▁05	-3834
▁An	-3835
▁ㅅㅏㅁㄱㅏㄱ	-3836
▁ㅊㅓㄹㅎㅏㄱㅈㅏ	-3837
ㄱㅜㄱㅇㅓ	-3838
▁ㅎㅐㅁ	-3839
ㄹㅟ	-3840
ㅘㄴ	-3841
▁ㅂㅏㄱㅅㅡ	-3842
▁SC	-3843
ㅋㅔㄹ	-3844
▁ㅈㅓㄴㅈㅔ	-3845
▁ㅇㅕㄴㅍㅕㅇㄱㅠㄴ	-3846
ㄹㅡㄴㅂㅏ	-3847
ㄱㅏㅌ	-3848
▁ㄷㅗㅁ	-3849
▁ㄱㅐㄹㄹㅓㄱㅅㅣ	-3850
ㅎㅣㄴㄷㅏ	-3851
▁ㅅㅓㅇㅆㅣ	-3852
▁ㄷㅙㅆㅇㅡ	-3853
▁ㅇㅑㄴ	-3854
▁ㅎㅏㄹㄹㅣ	-3855
▁ㄱㅏㄴㄱㅕㄱ	-3856
▁ㅁㅗㄱㅍㅗ	-3857
ang	-3858
ㄷㅗㄹㅍㅡ	-3859
▁ㅌㅗㄹ	-3860
▁ㄷㅏㄴㅅㅓㄴ	-3861
▁ㅅㅜㄱㅈㅗㅇ	-3862
▁ㅎㅏㅇㅎㅐ	-3863
ㅅㅡㅇㅈㅏ	-3864
ss	-3865
▁ㅇㅜㄴㄷㅗㅇㄱㅏ	-3866
▁ㅇㅣㄴㅁㅣㄴㄱㅜㄴ	-3867
▁07	-3868
▁ㅅㅓㄱㅂㅏㅇ	-3869
▁ㅇㅣㄹㄱㅗㅂ	-3870
▁1929	-3871
ㅅㅚ	-3872
ㅅㅏㄴㄱㅜㄴ	-3873
▁176	-3874
ㅉㅏㄱ	-3875
▁ㅇㅑㅇㄱㅜㄱ	-3876
ity	-3877
▁ㅌㅔㄱㅅㅡ	-3878
▁ㅎㅞ	-3879
▁codice	-3880
▁250	-3881
ㄴㅓㄹㄷㅡ	-3882
ㄹㅕㅅ	-3883
▁ㅁㅗㅁㅁㅜ	-3884
▁ㄴㅗㅇㅊㅗㄴ	-3885
▁ㅌㅏㅅ	-3886
▁ㅇㅑㅇㅈㅜ	-3887
▁ㅂㅜㄴㅅㅏㄴ	-3888
ㄷㅜㅇㅇㅣ	-3889
▁ㅂㅡㄹㄹㅔ	-3890
▁ㅅㅗㄴㅎㅐ	-3891
▁1921	-3892
▁ㅈㅗㄴㅅㅡㄴ	-3893
▁ㅌㅡㄱㅂㅕㄹㅎㅣ	-3894
▁ㄷㅏㄻ	-3895
ㅅㅏㅇㅅㅣㄱ	-3896
▁ㄱㅗㅇㄹㅛㅇ	-3897
▁ㅇㅏㄹㅍㅡ	-3898
▁ㄱㅕㅇㄱㅗ	-3899
▁ㅁㅕㅇㅅㅣ	-3900
ㅋㅡㄹㄹㅣㄴ	-3901
▁ㅁㅣㄴㅅㅗㄱ	-3902
ㅇㅓㄴㅅㅡ	-3903
▁ㅁㅕㅇㅅㅏ	-3904
▁ㅇㅏㅂㅊㅜㄱ	-3905
▁ㅋㅐㅁㅍㅡ	-3906
ㅇㅣㄹㅂㅗㄴ	-3907
▁1925	-3908
▁ㅈㅣㅂㅍㅣㄹ	-3909
▁ㅅㅣㄱㄹㅑㅇ	-3910
▁ㅈㅣㄴㅎㅡㅇ	-3911
ㄱㅘㄴㅊㅏ	-3912
▁ㄱㅕㅇㅇㅠ	-3913
ㅅㅓㄹㄱㅏ	-3914
ㅅㅓㅇㄱㅣ	-3915
▁ㅎㅑㅇㅌㅗ	-3916
▁ㅇㅣㄹㄷㅏㄴ	-3917
▁AC	-3918
▁1923	-3919
▁ㅂㅓㄴㅈㅣ	-3920
▁ㄷㅏㅇㅅㅏ	-3921
ㅈㅏㅇㄱㅜㄴ	-3922
▁ㅎㅕㅂㅇㅑㄱ	-3923
▁ㅌㅣㄱ	-3924
▁ㅈㅓㄱㅇㅓ	-3925
▁ㅎㅗㄹㄹㅗ	-3926
▁ㅇㅕㄴㄱㅖ	-3927
ㄷㅡㄹㅇㅕㅆ	-3928
▁ㄷㅗㅇㅇㅣㄹㅂㅗㄴ	-3929
▁ㄱㅗㅁ	-3930
ㅎㅐㅇㅅㅓㅇ	-3931
▁ㄱㅓㄴㄷㅏㅁ	-3932
▁ㅋㅗㄹㄹㅗㅁㅂㅣ	-3933
ㄴㅜㄱㅅㅡ	-3934
▁ㅂㅏㄹㄹㅔㄴ	-3935
▁ㅅㅏㅁㄱㅏㄱㅎㅕㅇ	-3936
ff	-3937
ㅌㅏㄹㄹㅣㄴ	-3938
▁ㅊㅏㄱㅇㅛㅇ	-3939
▁ㄷㅗㄱㅈㅓㅁ	-3940
▁ㅂㅜㄹㅎㅘ	-3941
▁ㅊㅣㅇㅎㅏ	-3942
ㅂㅏㄴㄱㅣ	-3943
▁ㅇㅝㄴㅈㅗ	-3944
ㅅㅐㅇㅎㅘㄹ	-3945
▁ㅂㅜㄱㄱㅡㄱ	-3946
▁ㄹㅗㅁ	-3947
▁ㅅㅏㅇㅁㅜ	-3948
▁ㅍㅣㄹㄹㅡㅁ	-3949
▁ㅍㅡㄹㄹㅓ	-3950
▁ㅅㅗㅇㄹㅏ	-3951
▁ㅅㅓㅇㅁㅕㅇ	-3952
▁ㄱㅗㅇㄱㅜㄱ	-3953
▁ㅇㅝㄴㅈㅏㅇ	-3954
▁ㅇㅣㄹㅎㅘㄴ	-3955
▁ㄱㅏㅇㅇㅛ	-3956
▁ㅇㅠㄴㅊㅣ	-3957
▁ㄷㅗㅇㅂㅏㄴ	-3958
▁ㅊㅓㅇㄷㅗㅇ	-3959
▁ㅊㅣㄱ	-3960
▁EP	-3961
▁ㅇㅑㄱㅎㅘ	-3962
▁ㄷㅏㄴㅈㅏㅇ	-3963
ㅋㅔㄴ	-3964
▁ㅅㅓㅁㅇㅠ	-3965
▁ㅈㅗㅇㄹㅗ	-3966
▁ㄱㅓㄴㅊㅜㄱㅁㅜㄹ	-3967
▁ㄱㅏㅁㅇㅗㄱ	-3968
▁ㅇㅣㄴㅊㅓㄴㄱㅘㅇㅇㅕㄱㅅㅣ	-3969
ㅁㅔㄴㅌㅡ	-3970
▁ㄴㅡㄱㄷㅐ	-3971
▁ㅇㅣㄹㅇㅛ	-3972
▁ㅈㅜㅇㄱㅜ	-3973
▁ㅅㅞ	-3974
ㄹㅔㅅ	-3975
▁ㅎㅏㄴㄴㅏ	-3976
ㅎㅑㅇㄱㅗㄱ	-3977
ㅈㅓㄴㄱㅓ	-3978
▁de	-3979
▁ㅁㅜㄹㄹㅕ	-3980
▁ㅅㅓㄹㅂㅣ	-3981
ㄹㅓㄴㅅㅡ	-3982
▁ㄹㅐㅇㅋㅣㅇ	-3983
IS	-3984
▁JR	-3985
▁ㅈㅏㅇㄱㅏㅂ	-3986
▁ㄱㅡㄹㅆㅣ	-3987
▁ㅁㅜㄴㅇㅣㄴ	-3988
▁ㅇㅣㅁㅅㅣㄴ	-3989
up	-3990
▁161	-3991
▁ㅈㅜㄹㅇㅕ	-3992
▁ㅁㅗㄱㅈㅗ	-3993
▁ㅇㅕㄱㅈㅓㄴ	-3994
▁ㅁㅏㅇㅇㅝㄴㄱㅕㅇ	-3995
▁ㅊㅔㄴ	-3996
▁ㅊㅓㅅㅉㅐ	-3997
▁My	-3998
▁ㅃㅏㄹㄱㅏㄴ	-3999
▁ㅈㅏㅁㅈㅐ	-4000
▁ㅂㅗㄱㄱㅜ	-4001
▁ㄱㅐㅇ	-4002
▁ㄷㅗㅇㅅㅓㅇㅇㅐ	-4003
▁1922	-4004
▁ㅍㅕㅇㄹㅗㄴㄱㅏ	-4005
OM	-4006
▁ㅇㅞㄹ	-4007
▁ㄱㅘㄴㄱㅐㄱ	-4008
▁ㄸㅏㄱ	-4009
▁175	-4010
▁ㅍㅕㄹㅊㅕㅆ	-4011
▁ㅋㅐㅂ	-4012
▁ㅂㅕㄴㅅㅣㄴ	-4013
▁06	-4014
▁ㅇㅕㅂ	-4015
▁1912	-4016
▁ㅇㅕㄴㅅㅏㅇ	-4017
▁ㅎㅘㅇㅌㅐ	-4018
▁ㅈㅜㄴㅇㅜ	-4019
▁03	-4020
▁Go	-4021
▁ㄱㅏㅇㅅㅜ	-4022
▁ㅈㅣㄱㅅㅓㄴ	-4023
▁ㅅㅏㄴㅌㅏ	-4024
▁ㅎㅓㅁ	-4025
ip	-4026
▁ㄷㅗㅇㅅㅏ	-4027
▁ㅁㅗㄱㅅㅜㅁ	-4028
▁""	-4029
▁SM	-4030
ㅅㅡㄹㄹㅣ	-4031
ong	-4032
ㅊㅓㅁ	-4033
ㅅㅐㅇㅁㅜㄹ	-4034
▁ㅈㅜㅇㄹㅣㅂ	-4035
ㄴㅜㄹ	-4036
ㅁㅔㄴㅌㅓ	-4037
ㅌㅗㅇㅎㅏㄱㄱㅛ	-4038
▁ㅊㅏㅁㅈㅗ	-4039
▁ㅈㅣㄴㄷㅗㅇ	-4040
ㄷㅗㅇㅅㅏㄴ	-4041
ㄹㅣㄱㅅㅡ	-4042
▁ㅎㅏㅂㄹㅣ	-4043
▁ㄱㅗㅇㅅㅔ	-4044
▁ㅅㅓㄱㅈㅗ	-4045
▁ㅅㅏㄱㅈㅔ	-4046
▁ㄱㅡㄴㄹㅗ	-4047
ld	-4048
▁ㅍㅗㄱㅍㅜㅇ	-4049
▁ㅁㅗㄴㅌㅔ	-4050
▁ㅈㅓㅇㅈㅏ	-4051
▁ㅌㅏㅁㅎㅓㅁ	-4052
▁KT	-4053
▁ㅇㅕㅇㄱㅘㅇ	-4054
▁ㅍㅕㅇㅅㅐㅇ	-4055
▁ㅇㅕㄴㄹㅕㅇ	-4056
▁1906	-4057
▁ㅊㅜㅇㅈㅜ	-4058
▁ㅎㅜㄹㄹㅠㅇ	-4059
ㄹㅡㅅ	-4060
▁164	-4061
▁ㅇㅕㅇㄱㅏㅁ	-4062
▁ㅇㅑㄱㅌㅏㄹ	-4063
▁ㅅㅓㅇㅈㅣㄱㅈㅏ	-4064
▁ㅎㅏㅇㅁㅗㄱ	-4065
▁ㄱㅡㄱㅂㅗㄱ	-4066
ㄹㅔㄱㅌㅡ	-4067
▁ㅈㅜㅇㅇㅏㅇㅇㅏ	-4068
▁1908	-4069
▁ㅇㅕㄴㅅㅗ	-4070
ㅁㅏㅈ	-4071
▁ㄹㅓㄱ	-4072
▁ㄴㅏㅁㄷㅗㅇㅉㅗㄱ	-4073
ㄹㅏㄴㄷㅏ	-4074
▁ㅉㅡㅁ	-4075
▁ㅇㅏㄱㅈㅏㅇ	-4076
▁ㄸㅣㄴ	-4077
▁ㅇㅕㅇㅈㅗ	-4078
ED	-4079
▁ㅇㅘㅇㄱㅏ	-4080
▁||	-4081
▁Love	-4082
ㅁㅣㄱㅅㅡ	-4083
▁ㅂㅏㄹㄹㅏ	-4084
▁ㅂㅏㄱㄱㅡㄴ	-4085
ㅅㅓㄴㅇㅣㄴ	-4086
▁ㅂㅣㅅ	-4087
▁ㅈㅏㅇㅅㅏ	-4088
AC	-4089
▁ㅈㅛ	-4090
▁ㅅㅏㅂㅇㅣㅂ	-4091
ㄴㅏㄱ	-4092
▁ㅇㅣㄴㅈㅏ	-4093
ㅇㅕㅇㅅㅏㅇ	-4094
▁ㅅㅐㄱㅅㅏㅇ	-4095
ㅈㅜㅇㅎㅐ	-4096
▁ㅂㅕㄴㄷㅗㅇ	-4097
ㄱㅣㄴㄷㅏ	-4098
▁ㅊㅏㅇㄱㅏㄴ	-4099
▁ㄱㅗㅇㄱㅕㄱㅅㅜ	-4100
av	-4101
ant	-4102
▁ㅂㅜㄱㄷㅗㅇㅉㅗㄱ	-4103
▁ㄱㅜㅅ	-4104
▁ㅈㅜㅇㅅㅣ	-4105
▁ㅅㅏㄴㅇㅏㄱ	-4106
▁ㄷㅏㄴㅎㅐㅇ	-4107
▁ㅂㅐㅇㅋㅡ	-4108
▁ㄴㅏㅂㅊㅣ	-4109
▁ㅁㅜㄴㅎㅏ	-4110
▁ㅇㅕㅇㅎㅗㄴ	-4111
▁ㄷㅓㄱㅂㅜㄴ	-4112
▁ㅇㅣㅂㅁㅜㄴ	-4113
▁1927	-4114
▁ㅎㅕㄴㅎㅘㅇ	-4115
▁ㄷㅡㄹㅇㅕ	-4116
▁ㄱㅜㅂ	-4117
ㅇㅝㄴㄱㅜㄱ	-4118
▁ㄴㅔㄱ	-4119
ㅇㅗㄹㄹㅣ	-4120
▁ㅌㅗㅇㄹㅗ	-4121
▁1907	-4122
▁BBC	-4123
▁ㅌㅡㄱㄱㅡㅂ	-4124
▁ㅇㅡㅁㅁㅗ	-4125
▁ㅇㅕㄱㄱㅘ	-4126
ame	-4127
▁ㅂㅏㄹㅎㅟ	-4128
▁ㅎㅏㅂㄱㅖ	-4129
▁1917	-4130
ㅌㅔㄴㄷㅗ	-4131
▁ㄷㅗㅇㄴㅏㅁㅇㅏ	-4132
▁ㄷㅗㄹㅍㅏ	-4133
ㅂㅕ	-4134
▁NHK	-4135
▁ㄴㅣㄴㅌㅔㄴㄷㅗ	-4136
ㄹㅡㅍ	-4137
▁SN	-4138
▁ㄸㅗㄱㄱㅏㅌ	-4139
▁ㅁㅕㅇㅁㅜㄴ	-4140
▁ㅈㅓㄴㅅㅡㅇ	-4141
se	-4142
ㅌㅔㄱ	-4143
▁ㅈㅣㄴㄷㅗ	-4144
ㅂㅔㅅ	-4145
▁1926	-4146
▁ㅈㅓㄴㅎㅑㅇ	-4147
▁ㅈㅣㄴㅅㅜㄹ	-4148
▁ㅈㅗㅇㅈㅗㄱ	-4149
▁ㅊㅣㅁㅎㅐ	-4150
▁ㅎㅡㄺ	-4151
ㅅㅡㄹㄹㅗ	-4152
▁ㅇㅣㄴㄹㅕㄱ	-4153
▁ㅈㅓㄴㅈㅏㄱ	-4154
▁He	-4155
ㅃㅡㄴ	-4156
▁ㅈㅣㄱㅇㅟ	-4157
▁MV	-4158
▁ㅅㅏㅇㅇㅕㅇ	-4159
▁ㅋㅗㅇㄱㅗ	-4160
ㅁㅐㅅ	-4161
ㅁㅗㄴㄷㅡ	-4162
▁ㅇㅗㄻㄱㅣ	-4163
▁ㅇㅗㄹㄹㅣㄴ	-4164
▁ㅆㅡㄴㄷㅏ	-4165
▁ㄷㅗㅇㅊㅣ	-4166
ort	-4167
▁PD	-4168
▁ㄴㅓㅁㄱㅕ	-4169
▁ㅈㅓㅇㅅㅏ	-4170
ㅇㅔㄹㄹㅏ	-4171
▁ㅍㅡㄹㄹㅜ	-4172
▁ㅇㅠㄱㅅㅓㅇ	-4173
▁ㄷㅗㄱㅇㅣㄹㅇㅓ	-4174
ind	-4175
▁ㅇㅘㅆㅇㅡ	-4176
▁ㄱㅜㄱㅁㅣㄴㄷㅏㅇ	-4177
ㄴㅏㅇ	-4178
ES	-4179
ㅇㅕㄴㅅㅜ	-4180
▁ㅇㅐㅂ	-4181
▁ㅇㅘㅇㄹㅣㅂ	-4182
▁02	-4183
▁Sp	-4184
▁ㄱㅏㄱㅈㅏ	-4185
▁ㄱㅕㄹㅅㅣㅁ	-4186
▁ㅇㅐㄹㄹㅣ	-4187
ㅂㅓㅂㅇㅝㄴ	-4188
ith	-4189
ㄹㅐㅇㅋㅡ	-4190
▁ㅈㅓㄱㅇㅡㅇ	-4191
▁ㄱㅘㅇㅇㅕㄱ	-4192
▁ㅇㅝㄴㅅㅏㄴ	-4193
ry	-4194
▁ㅁㅗㄴㅌㅡ	-4195
▁ㄷㅏㄴㅊㅡㅇ	-4196
▁ㄸㅏㄴ	-4197
ㅇㅓㄴㅌㅡ	-4198
▁ㅇㅏㄹㄹㅏ	-4199
▁ㅂㅟ	-4200
▁ㄱㅡㅂㅎㅐㅇ	-4201
▁ㄴㅐㄴㄷㅏ	-4202
▁ㄷㅗㅇㅈㅓㄴ	-4203
▁151	-4204
▁ㅈㅓㅇㅅㅓ	-4205
▁ㄱㅏㄴㅅㅓㅂ	-4206
ok	-4207
▁168	-4208
ㅇㅕㄱㄱㅜ	-4209
▁ㅅㅓㄱㅌㅏㅂ	-4210
▁ㅊㅔㄹ	-4211
▁ㅁㅜㄴㅈㅐ	-4212
▁ㅇㅐㄹㄹㅓㄴ	-4213
▁ㄹㅔㄴㅈㅡ	-4214
▁ㅇㅕㄱㅁㅕㅇ	-4215
ㅊㅗㅇㅈㅏㅇ	-4216
▁162	-4217
ㄱㅡㄹㄹㅏ	-4218
▁ㅎㅗㅁㅍㅔ	-4219
▁166	-4220
ㅂㅏㄹㅈㅏ	-4221
▁ㅎㅑㅇㄴㅕㄴ	-4222
▁1905	-4223
▁ㅊㅜㄹㅎㅕㄴ	-4224
▁ㅍㅜㅁㅈㅣㄹ	-4225
▁ㅂㅕㄹㄹㅗ	-4226
▁ㅈㅡㅇㄱㅣ	-4227
▁ㅅㅐㄴㅍㅡ	-4228
▁ㅇㅏㅂㄷㅗ	-4229
▁ㅅㅏㅇㅅㅔ	-4230
▁158	-4231
▁ㅂㅏㄱㄱㅡㄴㅎㅖ	-4232
▁ㄹㅣㅁ	-4233
▁ㅊㅣㅂ	-4234
▁ㅎㅏㄴㅎㅘ	-4235
▁ㅇㅗㅇㅎㅗ	-4236
▁ㅇㅓㅁㅁㅏ	-4237
▁ㅁㅏㅈㅊㅝ	-4238
▁ㄷㅗㅇㅇㅕㅇㅅㅏㅇ	-4239
ㄹㅗㄹㄹㅏ	-4240
▁ㅂㅏㄴㅎㅘㄴ	-4241
▁ㅅㅐㄱㄲㅏㄹ	-4242
▁ㄹㅕㄴ	-4243
▁ㅁㅜㄴㄱㅘ	-4244
ㅇㅜㄴㅌㅡ	-4245
▁ㅅㅏㅇㅅㅗ	-4246
▁ㅈㅓㅁㅅㅓㅇ	-4247
▁ㅂㅓㄴㅈㅜ	-4248
▁ㄹㅣㄱ	-4249
▁ㅅㅓㄴㅅㅏ	-4250
▁ㅊㅜㄹㅅㅏㄴ	-4251
▁Un	-4252
▁ㅅㅣㅀ	-4253
▁ㄱㅙ	-4254
▁ㅅㅏㅇㅊㅓ	-4255
▁ㅇㅕㄴㄱㅡㅁ	-4256
▁IP	-4257
▁ㄴㅏㅁㄱㅕ	-4258
ㅍㅕ	-4259
▁1904	-4260
ord	-4261
ㅇㅣㄴㄹㅣ	-4262
▁ㅈㅣㄴㅈㅣ	-4263
▁ㅈㅣㅂㄱㅖ	-4264
ate	-4265
▁ㄱㅘㄴㅈㅜㅇ	-4266
▁ㄱㅘㄴㅈㅏㅇ	-4267
qu	-4268
ㄱㅕㄹㅅㅡㅇ	-4269
▁ㅂㅏㄷㅊㅣㅁ	-4270
▁ㅈㅓㅇㄱㅖ	-4271
▁ㅂㅗㄱㅈㅔ	-4272
ㅁㅣㄱ	-4273
▁ㅅㅔㅅㅉㅐ	-4274
▁ㅅㅣㄴㅂㅣ	-4275
▁ㅊㅓㄹㅈㅓ	-4276
▁ㅁㅣㄴㅈㅗㄱㅈㅜ	-4277
▁ㄴㅐㄹ	-4278
ㅊㅏㅈ	-4279
▁ㅇㅏㄴㅂㅗ	-4280
▁ㅇㅣㅁㅅㅏㅇ	-4281
▁Se	-4282
ob	-4283
▁ㅅㅓㅇㅈㅜ	-4284
▁ㅇㅛㅇㅅㅏㄴ	-4285
▁SF	-4286
▁ㅈㅓㄱㅅㅐㄱ	-4287
IC	-4288
▁ㅅㅡㅇㅁㅜ	-4289
▁ㅇㅖㅅㄴㅏㄹ	-4290
▁ㅇㅕㄴㅇㅐ	-4291
▁ㅊㅜㄹㅍㅏㄴㅅㅏ	-4292
▁Wh	-4293
▁ㄹㅚ	-4294
▁165	-4295
▁ㅅㅓㄴㅈㅣㄴ	-4296
ㅈㅜㄴㅎㅣ	-4297
ㄷㅏㄹㄹㅣ	-4298
▁ㅍㅗㄱㅅㅡ	-4299
ㅇㅗㄹㄹㅣㄴ	-4300
▁ㅍㅜㅇㅅㅗㄱ	-4301
ㅇㅜㄴㅅㅓ	-4302
▁ㅇㅘㅇㅈㅗㄱ	-4303
ㅌㅐㅇ	-4304
▁ㄱㅘㄴㅎㅏ	-4305
▁ㄱㅓㄷ	-4306
▁154	-4307
ㄱㅣㄹㅇㅣ	-4308
ㅃㅡ	-4309
▁ㄹㅜㄱ	-4310
ㅇㅈㅏㅇ	-4311
ㅁㅜㄴㅎㅏㄱ	-4312
▁AM	-4313
▁AS	-4314
▁ㅁㅏㄹㄹㅏ	-4315
▁ㅎㅏㅂㅈㅏㄱ	-4316
▁ㅈㅣㄱㅈㅏㅇ	-4317
ㅍㅡㄹㄹㅓ	-4318
▁ㅂㅜㄴㅈㅣ	-4319
▁ㅎㅏㄴㅇㅑㅇ	-4320
ㄹㅓㅁㅂㅣ	-4321
▁ㅎㅏㅇㅇㅣㄹ	-4322
▁ㅍㅕㄹㅊㅣ	-4323
▁ㅇㅝㄴㄹㅗ	-4324
ㄹㅔㄹ	-4325
▁156	-4326
▁ㅂㅜㄴㅂㅐ	-4327
ㄹㅓㅁㅍㅡ	-4328
▁ㅇㅜㄴㅁㅕㅇ	-4329
▁ㅇㅜㄴㅂㅏㄴ	-4330
▁ㅇㅓㅄㅇㅐ	-4331
▁ㅅㅣㅁㅎㅏ	-4332
ㅎㅣㄹ	-4333
▁ㅎㅡㅇㅁㅣ	-4334
▁ㅊㅐㄹㄹㅣㄴ	-4335
ET	-4336
▁DJ	-4337
▁163	-4338
▁ㅌㅣㅇ	-4339
▁ㅂㅏㄹㅎㅛ	-4340
▁ㅁㅗㄱㄱㅕㄱ	-4341
▁ㅊㅜㅇㄴㅏㅁ	-4342
▁ㅅㅓㅇㄱㅗㅇㅎㅚ	-4343
▁900	-4344
▁ㄱㅣㄴㄱㅡㅂ	-4345
▁ㅈㅏㅇㅍㅕㄴ	-4346
ㅇㅣㄴㅈㅣ	-4347
▁ㅊㅏㄱㄹㅠㄱ	-4348
ㅈㅗㄹ	-4349
▁167	-4350
▁ㅇㅣㄴㅊㅣ	-4351
▁ㅂㅏㅇㅇㅏㄴ	-4352
ㄹㅏㅇㅇㅣ	-4353
▁ㅂㅓㄴㅅㅣㄱ	-4354
▁ㄴㅏㅌ	-4355
▁ㅁㅗㅁㄱㅣㄹㅇㅣ	-4356
ast	-4357
▁DS	-4358
▁ㅂㅗㄱㅅㅗ	-4359
▁ㅇㅛㅇㄹㅑㅇ	-4360
▁ㅌㅔㅁ	-4361
▁ㅅㅏㅇㅇㅣㅁ	-4362
ㅋㅕㅆㅇㅡ	-4363
ㅓㅂㅈㅣㄹ	-4364
▁ㅈㅣㄴㄴㅏ	-4365
▁ㅅㅣㄴㅇㅛㅇ	-4366
▁ㅅㅣㄴㅎㅏ	-4367
ㅅㅏㄹㄹㅔㅁ	-4368
▁ㅇㅡㅇㅇㅜ	-4369
▁ㄸㅜㅀ	-4370
ㅅㅣㄱㅁㅜㄹ	-4371
▁ㅈㅓㄴㅇㅕㅁ	-4372
ㅅㅏㄴㄹㅣ	-4373
▁ㅍㅕㅇㅅㅗ	-4374
▁139	-4375
ㄱㅕㅇㄱㅣ	-4376
▁ㅈㅣㄴㅅㅏㅇ	-4377
PS	-4378
▁ㅇㅓㅂㄷㅔ	-4379
ㅅㅗㅇㅂㅓㅂ	-4380
ㅋㅣㄴㅅㅡ	-4381
▁ㄸㅓㄹ	-4382
▁ㅅㅑㅇ	-4383
▁ㄱㅗㅇㅇㅛㅇ	-4384
▁ㄱㅘㄴㄱㅘㅇㄱㅐㄱ	-4385
ㅈㅏㅂㅇㅣ	-4386
▁ㄷㅏㄴㅈㅗㅇ	-4387
▁UN	-4388
if	-4389
ㅋㅙ	-4390
▁ㅈㅜㅇㄱㅜㄱㅇㅓ	-4391
ㅇㅜㄹㄹㅓ	-4392
▁ㄱㅓㄹㄹㅕ	-4393
▁ㅅㅓㅇㅈㅗㅇ	-4394
▁ㄱㅝㄴㄱㅗ	-4395
▁ㅍㅕㅇㅇㅢ	-4396
▁ㅊㅜㄹㄱㅜ	-4397
▁ㅂㅐㄱㅅㅣㄴ	-4398
▁145	-4399
▁ㅂㅏㄹㅈㅗㄱ	-4400
▁ㅇㅛㅇㄱㅣ	-4401
▁ㅅㅓㄴㅈㅔ	-4402
AD	-4403
▁ㅈㅓㅇㅂㅓㄹ	-4404
▁ㅇㅝㄹㄱㅏㄴ	-4405
ㄹㅏㄴㅌㅡ	-4406
▁ㄱㅗㄷㅂㅏ	-4407
ㅅㅡㄹㄹㅣㅁ	-4408
▁ㅍㅕ	-4409
ure	-4410
ㅇㅓㅂㄱㅏ	-4411
▁ㅇㅣㄹㅎㅐㅇ	-4412
ㅍㅐㅇ	-4413
IT	-4414
ㄹㅔㄴㅊㅔ	-4415
▁ㄱㅗㅇㄱㅘ	-4416
▁ㅈㅓㄴㅇㅣ	-4417
▁ㅎㅕㅇㅂㅓㅂ	-4418
ㅇㅣㄹㄷㅡ	-4419
▁ㅈㅓㄴㅈㅣ	-4420
▁ㄴㅗㅇㄷㅗ	-4421
▁ㅎㅐㅇㅈㅓㅇㅂㅜ	-4422
▁1896	-4423
ㅁㅜㄴㄱㅘㄴ	-4424
▁ㅅㅣㄱㅅㅏ	-4425
▁ㄱㅗㅇㅈㅓㄴ	-4426
▁ㅊㅣㄴㅈㅓㅇ	-4427
ㅃㅕ	-4428
ㅅㅏㄴㅁㅕㄴ	-4429
▁ㅅㅣㄴㅇㅣㅁ	-4430
▁ㄱㅏㅇㅇㅕㄴ	-4431
▁ㄱㅣㅁㄷㅗㅇ	-4432
ack	-4433
▁ㅅㅏㄹㅍㅕ	-4434
▁ㅇㅣㅂㅈㅡㅇ	-4435
▁ㅋㅚ	-4436
ㄸㅡㅅ	-4437
ㅇㅜㄹㅅㅣ	-4438
▁ㅊㅏㅁㅇㅢ	-4439
ㅁㅜㄹㄹㅓㅆ	-4440
▁ㅅㅣㄴㅋㅏㄴ	-4441
ㅅㅠㅁ	-4442
▁ㅊㅣㄴㅅㅓㄴ	-4443
ive	-4444
ㅇㅗㄹㄹㅏ	-4445
ㄱㅝㄴㅈㅏ	-4446
▁ㅂㅜㅌㅈㅏㅂ	-4447
▁ㅂㅓㄴㄴㅚ	-4448
▁ㅈㅓㄴㄷㅗ	-4449
▁ㅊㅐㄱㅂㅗㅇ	-4450
▁ㅈㅜㅇㄷㅗ	-4451
iv	-4452
▁j	-4453
ㄲㅗㄹ	-4454
ock	-4455
▁ㅂㅜㅅ	-4456
▁ㄷㅗㄱㄹㅣㅂㅇㅜㄴㄷㅗㅇㄱㅏ	-4457
▁ㅍㅜㄴ	-4458
ㄷㅓㄼ	-4459
▁ㄷㅐㅁ	-4460
▁ㅋㅔㄹ	-4461
▁ㅈㅓㄴㄹㅠ	-4462
ㄲㅡㄴ	-4463
▁ㅌㅏㅂㅅㅡㅇ	-4464
ㅇㅗㅅ	-4465
12	-4466
▁ㅇㅓㄹㅇㅡㅁ	-4467
▁ㅁㅏㄴㄴㅏㄴ	-4468
▁ㄷㅗㅇㅇㅟ	-4469
▁ㅇㅕㄴㅅㅜ	-4470
▁ㅇㅠㅇㅎㅏㅂ	-4471
▁ㄹㅜㄴ	-4472
▁ㅇㅠㄹㄹㅣ	-4473
ㅂㅏㅂ	-4474
▁ㅌㅗㅇㅎㅐㅇ	-4475
▁ㅎㅏㄱㅍㅏ	-4476
▁ㅈㅜㄴㄱㅕㄹㅅㅡㅇ	-4477
ck	-4478
▁ㅇㅖㄴ	-4479
▁ㅁㅐㄱㅅㅡ	-4480
▁ㅁㅣㄹㅈㅓㅂ	-4481
▁Ar	-4482
▁ㄱㅏㄴㅈㅓㅂ	-4483
ㅇㅝㄴㅅㅜㅇㅇㅣ	-4484
▁ㅈㅜㅇㄷㅗㄱ	-4485
▁ㅈㅓㅁㅇㅠ	-4486
▁ㅈㅜㄴㄱㅗㅇ	-4487
▁ㅅㅣㄴㅋㅏㄴㅅㅔㄴ	-4488
▁HIV	-4489
▁ㅎㅏㄴㄱㅏㅇ	-4490
▁174	-4491
ML	-4492
▁ㅈㅝㅆ	-4493
ㄱㅠㄴㄱㅘㄴ	-4494
▁ㄱㅕㅇㅅㅓㄴ	-4495
ㄴㅔㄴ	-4496
▁5000	-4497
▁WW	-4498
▁ㅁㅗㄹㄹㅏㄱ	-4499
ㅍㅐㄱㅌㅡ	-4500
▁ㄹㅣㄹㄹㅣ	-4501
ㅅㅏㅇㅎㅘ	-4502
▁ㄱㅡㅁㅅㅓㅇ	-4503
▁ㄲㅗㄹ	-4504
▁157	-4505
ㅇㅏㄱㄱㅣ	-4506
▁MP	-4507
▁ㅊㅡㄱㄱㅡㄴ	-4508
ㅁㅔㄹ	-4509
ㄷㅡㄹㄹㅣ	-4510
ㅇㅑㄴㅁㅏ	-4511
▁ㅈㅓㅇㅊㅏㄹ	-4512
▁ISO	-4513
▁152	-4514
ㄹㅓㅁㅇㅔ	-4515
▁ㅈㅓㄴㅁㅜㄴㅎㅏㄱㄱㅛ	-4516
▁ㄱㅜㄱㅇㅓ	-4517
▁ㅈㅏㅇㅅㅓㅇ	-4518
▁ㅈㅓㄴㅇㅣㅁ	-4519
▁ㅅㅡㅇㅊㅏ	-4520
▁ㅇㅣㄴㅌㅔㄹ	-4521
▁ㅇㅏㄹㄹㅕㅆ	-4522
ㄱㅡㄹㅅㅡ	-4523
▁ㄴㅏㅁㅇㅑㅇ	-4524
▁ㅅㅣㅁㅎㅏㄴ	-4525
▁MVP	-4526
▁ㅈㅓㅈ	-4527
▁ㅈㅣㅌ	-4528
ㅊㅓㅇㅈㅏ	-4529
AP	-4530
▁ㅇㅕㅁㅅㅐㄱ	-4531
ime	-4532
▁ㅎㅏㄹㄷㅏㅇ	-4533
▁ㅊㅜㄹㅇㅣㅂㄱㅜ	-4534
▁ㅊㅓㄴㅁㅜㄴㅎㅏㄱ	-4535
▁146	-4536
▁ㄲㅏㄹ	-4537
▁ㅅㅣㄹㅈㅓㅁ	-4538
ㅓㅇㅇㅣ	-4539
▁ㄱㅘㄴㅅㅡㅂ	-4540
▁ㅇㅘㄴㅎㅘ	-4541
▁ㅂㅏㄱㅇㅕㅇ	-4542
▁ㅅㅣㄱㄷㅏㅇ	-4543
▁PS	-4544
▁Pro	-4545
▁ㅈㅡㅇㅎㅜ	-4546
ㅊㅏㅇㄱㅣ	-4547
▁ㄷㅏㅁㅂㅐ	-4548
▁ㅊㅓㅇㅅㅏ	-4549
▁ㅅㅓㅇㄱㅠㄴㄱㅘㄴ	-4550
▁ㅊㅏㄱㅅㅜ	-4551
▁ㅂㅜㅌㅇㅣ	-4552
▁ㅅㅓㄱㅌㅏㄴ	-4553
ㅇㅣㄴㅈㅓ	-4554
ㅋㅗㄱ	-4555
▁ㅊㅏㄱㄱㅗㅇ	-4556
▁ㄱㅏㄱㅂㅗㄴㄱㅏ	-4557
ㅎㅕㄱㅁㅕㅇ	-4558
▁Le	-4559
▁ㅅㅓㅇㅂㅕㄱ	-4560
▁105	-4561
▁ㅇㅣㄹㅎㅘ	-4562
▁ㅅㅜㄴㅊㅓㄴ	-4563
▁ㅁㅗㅅㅎㅐ	-4564
▁ㅎㅏㅇㄱㅗㅇㅁㅗ	-4565
▁125	-4566
▁ㅇㅔㄱ	-4567
ㅁㅕㅇㅂㅏㄱ	-4568
one	-4569
▁ㅇㅣㅈ	-4570
ㅅㅕㄴㅅㅡ	-4571
▁ㅎㅡㅇㅎㅐㅇ	-4572
▁ㄴㅏㅁㅇㅣㄴ	-4573
▁ㅇㅏㅂㅂㅏㄱ	-4574
ㅈㅏㄴㅌㅣ	-4575
▁ㅇㅝㄴㄴㅏ	-4576
▁ㄱㅏㅇㅅㅏ	-4577
▁ㄱㅓㅁㅈㅡㅇ	-4578
▁ㄱㅣㅁㅇㅛㅇ	-4579
▁ㅅㅓㄴㄷㅜ	-4580
▁ㅅㅣㄹㅇㅛㅇ	-4581
▁ㅃㅏㄹㄹㅣ	-4582
▁ㄱㅘㄴㅊㅏㄹㅅㅏ	-4583
▁ㅋㅣㄹ	-4584
▁ㅇㅕㄴㅎㅕㄱ	-4585
▁ㄱㅕㅌ	-4586
▁ㅁㅏㄹㄹㅣ	-4587
ㄹㅔㄴㅈㅣ	-4588
▁ㅊㅏㅁㅍㅏㄴ	-4589
▁ㄷㅗㄹㄹㅣ	-4590
▁ㅈㅏㅂㅇㅏ	-4591
▁ㅅㅓㄱㄱㅏ	-4592
▁ㅇㅣㄴㄱㅘ	-4593
▁ㅈㅏㅇㅇㅣㄴ	-4594
ㄹㅐㄴㅅㅣ	-4595
▁ㅅㅣㄴㅈㅓㄴ	-4596
ㄷㅔㄹㅍㅣ	-4597
▁1500	-4598
ㄷㅠㄹ	-4599
▁1911	-4600
ㅇㅏㄱㄷㅏㄴ	-4601
▁ㅇㅟㄹㅅㅡㄴ	-4602
▁ㅊㅜㅇㅅㅓㅇ	-4603
▁ㅇㅏㅍㅁㅕㄴ	-4604
▁3000	-4605
▁#	-4606
▁ㄱㅝㄴㅇㅠ	-4607
te	-4608
▁ㄷㅏㄺ	-4609
▁ㅅㅏㅇㄹㅠ	-4610
▁MC	-4611
OC	-4612
ㅊㅏㄹㄱㅜ	-4613
▁ㄱㅡㅂㅈㅣㄴ	-4614
▁ㅎㅐㅇㅈㅣㄴ	-4615
▁ㅂㅕㄹㅈㅏ	-4616
▁ㅈㅓㄴㅈㅏㅇ	-4617
▁ㅈㅜㅇㅈㅗㅇ	-4618
▁ㄱㅘㄴㅎㅕㄴ	-4619
▁ㅃㅜㄹ	-4620
▁ㅈㅜㅇㅈㅓㅁ	-4621
▁ㅎㅘㄴㅇㅝㄴ	-4622
▁153	-4623
▁ㅊㅓㄴㅅㅏ	-4624
▁ㅂㅣㄹㅎㅔㄹ	-4625
ㄹㅔㄴㅅㅡ	-4626
▁ㅅㅣㅁㅇㅢ	-4627
ㅅㅓㅇㅈㅓㄴ	-4628
▁ㄱㅗㅇㅈㅏ	-4629
▁ㄷㅏㄴㅇㅝㄴ	-4630
▁ㅈㅓㄴㅈㅣㄴ	-4631
ㅈㅣㅂㅎㅏㅂ	-4632
▁ㅇㅑㄼ	-4633
▁ㄱㅜㄺ	-4634
▁ㅎㅣㄴㄷㅜ	-4635
▁ㅇㅣㄹㄹㅔㄱㅌㅡ	-4636
ㅇㅝㅆㅇㅡ	-4637
▁ㄷㅏㄴㅈㅓㅁ	-4638
pe	-4639
▁ㅇㅕㄴㄹㅜ	-4640
▁ㄱㅕㅁㅇㅣㅁ	-4641
▁ㅈㅗㄴㄱㅕㅇ	-4642
io	-4643
▁ㅍㅕㄴㄱㅗㄱ	-4644
▁ㅁㅣㄴㄱㅜㄱ	-4645
▁ㅇㅣㄴㅌㅔ	-4646
▁Con	-4647
ㄷㅗㅇㅁㅜㄹ	-4648
▁ㅅㅓㅇㅈㅓㄴ	-4649
▁103	-4650
▁ㅅㅜㄹㅌㅏㄴ	-4651
▁ㅂㅜㄱㄷㅗㅇㅂㅜ	-4652
▁ㄷㅓㄴㅈㅣ	-4653
ㅈㅏㄱㅈㅏ	-4654
▁ㅇㅕㄴㅇㅣㄴ	-4655
▁IT	-4656
▁ㅇㅕㄴㄷㅗ	-4657
▁ㅎㅑㅇㄱㅛ	-4658
▁ㅅㅙ	-4659
ㅈㅏㅇㅈㅏ	-4660
▁ㅇㅏㄱㅁㅏ	-4661
▁ㅈㅓㅁㅍㅡ	-4662
▁ㅇㅣㄴㅎㅕㅇ	-4663
▁ㅇㅡㅇㄷㅏㅂ	-4664
ㄹㅡㄱ	-4665
▁ㅅㅣㄹㄹㅣ	-4666
▁ㅁㅣㄴㅅㅏ	-4667
▁ㅇㅕㅇㄷㅗㅇ	-4668
▁ㅊㅣㄴㅊㅓㄱ	-4669
▁ㅋㅗㄹㄹㅏ	-4670
▁ㅂㅏㅌ	-4671
▁155	-4672
ㅂㅐㄱㄱㅘ	-4673
▁ㅍㅕㅇㅎㅐㅇ	-4674
▁Bo	-4675
ㅌㅡㄹㅈㅡ	-4676
▁ㅅㅓㅇㅁㅗ	-4677
▁ㅊㅜㅇㅈㅗㄱ	-4678
ㄷㅚㄴ	-4679
▁108	-4680
▁ㄱㅗㅇㅇㅣㄴ	-4681
▁ㅅㅐㅇㅇㅣㄹ	-4682
▁ㄴㅏㄹㅇㅏ	-4683
▁ㄷㅏㄹㅇㅏ	-4684
▁ㄱㅡㄴㅈㅓㅂ	-4685
▁ㅌㅐㅇ	-4686
ㅅㅏㅇㅅㅡ	-4687
▁ㅈㅜㅇㅈㅏㅇ	-4688
▁ㅁㅣㄴㅇㅕㅇ	-4689
▁128	-4690
▁ㅂㅗㄱㅈㅏㅇ	-4691
▁ㅎㅡㅌ	-4692
▁ㅋㅓㅁㅍㅓ	-4693
ber	-4694
▁ㄱㅏㅅ	-4695
ㅇㅛㅇㅅㅗ	-4696
ㅈㅓㄴㄷㅡ	-4697
ㅋㅡㄹㄹㅏ	-4698
▁ㅈㅓㄴㄷㅜ	-4699
▁ㅇㅏㄴㅈㅏㅇ	-4700
▁ㅂㅏㄹㅇㅝㄴ	-4701
▁ㅈㅓㄱㄷㅐ	-4702
▁ㅅㅏㄴㄷㅏ	-4703
ㅍㅐㄴ	-4704
ㅇㅝㄴㅅㅣ	-4705
ㅊㅐㄱㅈㅓㅁ	-4706
▁ㅂㅓㅂㄹㅕㅇ	-4707
▁ㅎㅘㄴㅅㅏㅇ	-4708
▁ㅌㅖㄴ	-4709
▁ㅎㅗㅇㅅㅜ	-4710
iz	-4711
ㅍㅏㅇ	-4712
▁ㄹㅜㄹ	-4713
▁ㅊㅓㅇㅇㅘ	-4714
▁ㅂㅣㄹㅎㅔㄹㄹㅡㅁ	-4715
▁$	-4716
▁ㅇㅗㅁ	-4717
▁ㅈㅓㄴㄹㅖ	-4718
▁ㅁㅣㄷㅇㅡㅁ	-4719
▁ㅅㅏㅇㅅㅏㅇ	-4720
▁ㅋㅘ	-4721
▁ㅅㅏㅇㅈㅏ	-4722
ㅉㅓ	-4723
▁ㄱㅗㅅㄱㅗㅅ	-4724
ㅊㅜㅁ	-4725
ge	-4726
▁ㅈㅣㄴㄹㅣ	-4727
▁ㅎㅏㄴㄷㅔ	-4728
age	-4729
▁1909	-4730
ㅅㅡㄹㄹㅏㅁㄱㅛ	-4731
▁ㄹㅜㅇ	-4732
ㄹㅏㅁㅎㅚ	-4733
▁ㅋㅐㅁㅍㅔ	-4734
▁102	-4735
▁149	-4736
▁ㅂㅕㄹㄱㅐ	-4737
▁ㅇㅕㄴㅅㅔ	-4738
▁Bl	-4739
▁ㅈㅡㄹㄱㅣ	-4740
ㄱㅜㄱㅈㅜ	-4741
▁ㅌㅡㄱㅇㅠ	-4742
▁ㄱㅘㄴㄴㅕㅁ	-4743
▁GT	-4744
▁ㄴㅓㄹ	-4745
▁ㅇㅣㄹㅅㅐㅇ	-4746
▁ㄱㅏㅁㅈㅣ	-4747
▁ㄱㅓㄴㅇㅢ	-4748
▁ㅅㅏㅇㅂㅜ	-4749
ㄹㅏㅇㅍㅡ	-4750
▁ㅇㅜㄴㄷㅗㅇㅈㅏㅇ	-4751
DP	-4752
▁ㄴㅜㄴㅁㅜㄹ	-4753
ㅁㅅㅐ	-4754
▁ㅇㅣㄴㄱㅕㄱ	-4755
ㅌㅜㅁ	-4756
▁ㄷㅗㅇㄷㅡㅇ	-4757
▁ㅂㅜㄴㄱㅘㅇ	-4758
ㅈㅗㅇㅅㅏ	-4759
▁ㅇㅏㅇㄹㅣ	-4760
▁ㄱㅓㄴㅊㅜㄱㄱㅏ	-4761
▁ㄱㅏㄱㄱㅣ	-4762
ㅂㅏㄷㅊㅣㅁ	-4763
▁ㅌㅡㄴ	-4764
ㄴㄷㅡㄹ	-4765
▁ㄱㅕㄹㅅㅓㄴ	-4766
ㅁㅐㄴㅅㅡ	-4767
sp	-4768
orld	-4769
▁CPU	-4770
▁ㅆㅗㄷ	-4771
▁ㅇㅣㄹㅉㅣㄱㅇㅣ	-4772
▁ㅅㅐㅇㅁㅕㅇㅊㅔ	-4773
ㅂㅜㄴㄱㅜㄴ	-4774
ㅁㅓㄴㄷㅡ	-4775
▁ㅇㅑㄱㅎㅏㄴ	-4776
ㅌㅡㄱㅂㅕㄹㅈㅏ	-4777
▁ㄷㅗㅇㄷㅏㅇ	-4778
▁ㄴㅔㄹ	-4779
▁ㄱㅗㅇㄹㅑㄱ	-4780
▁ㄱㅕㅇㅂㅜ	-4781
▁ㅇㅣㄹㅈㅗㄱ	-4782
▁ㅅㅓㄴㅇㅝㄴ	-4783
ㅇㅘㅆㅇㅡ	-4784
▁ㅂㅏㄱㅌㅏㄹ	-4785
▁ㅈㅓㄴㄷㅐ	-4786
▁ㅇㅣㅂㅅㅏㅇ	-4787
▁ㅂㅏㄹㅎㅕㄴ	-4788
▁ㅋㅗㄹㄹㅔ	-4789
▁ㄱㅗㄹㅍㅡ	-4790
ㅁㅠㄹㄹㅔ	-4791
▁ㅂㅗㄹㄹㅣ	-4792
▁ㅎㅑㅇㅎㅜ	-4793
▁ㄴㅏㄴㄷㅏ	-4794
▁ㅁㅕㅇㅇㅢ	-4795
▁ㄷㅜㅇㄱㅡㄴ	-4796
▁ㄷㅜㄹㄹㅔ	-4797
▁ㅎㅘㅇㅎㅐ	-4798
ㄴㅕㄴㄱㅣ	-4799
▁ㅅㅔㄴㅅㅓ	-4800
ㅊㅏㅇㄱㅜㄴ	-4801
▁ㅅㅗㄱㅅㅓㅇ	-4802
ㅂㅡㄹㄹㅗ	-4803
▁ㄴㅟ	-4804
ㅂㅏㄱㅈㅟ	-4805
▁ㅁㅜㄴㅇㅑㅇ	-4806
▁ㅊㅏㅇㄱㅓㄴ	-4807
EN	-4808
▁SP	-4809
▁ㅎㅟㅂ	-4810
▁ㅋㅏㄹㄹㅏ	-4811
▁ㅇㅑㅇㅅㅏㅇ	-4812
ㅎㅣㅁ	-4813
▁ㅌㅏㅁㅈㅣ	-4814
▁ㅅㅏㅅ	-4815
▁ㄱㅘㅇㄴㅕㄴ	-4816
▁ㅋㅏㅁㅂㅗ	-4817
▁ㅊㅓㅇㅈㅏㅇ	-4818
▁ㅇㅓㄴㄹㅗㄴㅇㅣㄴ	-4819
ㅌㅡㄹㄹㅔ	-4820
▁ㅈㅓㅇㅁㅜ	-4821
▁ㅇㅗㄴㅊㅓㄴ	-4822
▁ㅇㅣㄹㄱㅘㄴ	-4823
▁ㅁㅜㄴㅎㅏㄱㅅㅏㅇ	-4824
▁147	-4825
▁ㅅㅔㅁ	-4826
▁ㅂㅜㄱㄱㅜ	-4827
▁ㅇㅒ	-4828
▁ㅈㅣㄱㅊㅐㄱ	-4829
ㅊㅣㄹㄹㅣ	-4830
▁al	-4831
ㅇㅓㅁㅅㅡ	-4832
▁ㄴㅏㅁㅎㅏㄴ	-4833
▁ㄹㅣㄹ	-4834
▁ㅈㅓㄱㅈㅏ	-4835
ㅎㅏㅇㄱㅗㅇ	-4836
▁ㅌㅗㅇㅊㅣㅇ	-4837
▁127	-4838
▁ㅂㅘㅆ	-4839
▁1915	-4840
▁ㄱㅏㅇㄱㅘ	-4841
ㅂㅜㅌㅇㅣ	-4842
▁ㅎㅏㅂㅂㅓㅂ	-4843
ㄲㅜㄴ	-4844
ㅇㅟㄴㅅㅡ	-4845
▁ㅇㅏㄹㅋㅗ	-4846
ㅍㅕㅇㄱㅜㄴ	-4847
ㅍㅔㄹ	-4848
▁171	-4849
▁ㄷㅗㅇㄹㅐ	-4850
▁ㅅㅣㄹㅈㅗㅇ	-4851
▁ㄱㅘㅇㅂㅜ	-4852
▁ㅈㅓㄴㅎㅏㅁ	-4853
▁ㅈㅜㅇㄱㅜㄱㅇㅣㄴ	-4854
ik	-4855
ㅂㅓㄹㄹㅔ	-4856
▁ㅈㅏㅇㅁㅣ	-4857
ㄱㅗㅇㅅㅣㄴ	-4858
▁ㅇㅣㅂㅊㅔ	-4859
ㄱㅓㅂ	-4860
GC	-4861
IM	-4862
▁ㅍㅜㅅㅂㅗㄹ	-4863
▁ㄱㅕㅇㄱㅘ	-4864
▁ㅂㅕㅇㅇㅕㄱ	-4865
▁ㄲㅚ	-4866
▁1913	-4867
ㅅㅓㄱㄱㅣ	-4868
ㅇㅜㄴㄷㅏ	-4869
▁ㅇㅔㄴㅈㅣ	-4870
int	-4871
▁ㅈㅓㅇㅁㅣㄹ	-4872
▁ㅋㅓㄹㄹㅓ	-4873
▁Tr	-4874
▁ㅅㅓㅂㅊㅟ	-4875
▁ㅋㅓㅆ	-4876
▁ㅇㅝㄴㅂㅏㄴ	-4877
ㅇㅜㄴㄹㅗ	-4878
▁ㅂㅓㅂㅈㅔ	-4879
▁ㅊㅜㄹㅌㅗ	-4880
▁ㅂㅕㄹㅊㅣㅇ	-4881
▁ㅈㅓㄴㅎㅏㄴㄷㅏ	-4882
▁ㄱㅡㅁㅇㅐㄱ	-4883
ㅂㅣㅅ	-4884
ㄷㅏㄷ	-4885
ㅅㅖㄹ	-4886
▁ㄴㅔㄴ	-4887
▁ㅅㅣㄴㅅㅔ	-4888
▁ㅅㅣㄴㅎㅡㅇ	-4889
ㅎㅐㅇㅇㅟ	-4890
▁ㄱㅣㅁㅅㅜ	-4891
▁ㄷㅏㄴㄱㅣ	-4892
▁141	-4893
▁1895	-4894
▁ㅁㅣㄴㅎㅚ	-4895
▁ㅂㅜㄱㅂㅏㅇ	-4896
ㅂㅏㅌ	-4897
▁ㄱㅣㅁㅈㅐ	-4898
▁ㅅㅗㄴㄱㅏ	-4899
ㅈㅏㅁ	-4900
ㅅㅓㄴㄷㅐ	-4901
▁ㄴㅏㅁㄱㅣㄴ	-4902
▁ㅍㅣㄹㄹㅣㅂ	-4903
▁ㄷㅣㅇ	-4904
ㅅㅓㄴㅅㅡ	-4905
▁ㅇㅗㄱㅅㅡ	-4906
▁ㄷㅏㄹㄹㅣㄴ	-4907
ust	-4908
▁ㅇㅏㄹㅂㅔ	-4909
▁ㄱㅜㄱㅅㅏ	-4910
▁ㅁㅏㄴㅅㅔ	-4911
▁ㄱㅜㅇㅈㅓㅇ	-4912
▁ㅂㅏㄴㄱㅕㄱ	-4913
ㄲㅝ	-4914
▁CO	-4915
▁ㅈㅜㅇㅈㅐ	-4916
▁ㅊㅏㅇㅅㅣ	-4917
▁ㅍㅐㅇㅊㅏㅇ	-4918
ㅋㅘ	-4919
▁ㅂㅜㄱㅇㅟ	-4920
▁ㅂㅏㄹㅎㅐ	-4921
▁ㅂㅐㄱㅎㅘ	-4922
▁ㅍㅏㅁ	-4923
▁ㅅㅗㅇㄴㅏ	-4924
▁ㅇㅏㄴㅇㅑㅇ	-4925
ㅇㅣㄴㅁㅕㅇㅅㅏ	-4926
▁ㅊㅣㄴㅇㅣㄹㅇㅣㄴㅁㅕㅇㅅㅏ	-4927
ㄴㅣㄴㄷㅏ	-4928
▁ㄱㅗㅇㅇㅢ	-4929
ㅇㅐㅇ	-4930
▁144	-4931
▁ㄱㅣㅁㅍㅗ	-4932
▁ㄱㅏㅇㄱㅕㅇ	-4933
▁NC	-4934
▁ㄷㅗㅇㄷㅗㄱ	-4935
ㄹㅏㅇㅅㅜ	-4936
ㅂㅌㅓ	-4937
▁135	-4938
▁ㅅㅐㅇㄹㅣ	-4939
▁ㅊㅓㄴㅁㅜㄴㅎㅏㄱㅈㅏ	-4940
ㅅㅅㅜ	-4941
▁ㅇㅑㅇㅋㅣ	-4942
▁111	-4943
▁119	-4944
▁ㅌㅓㄱ	-4945
▁ㄱㅏㄴㅅㅏ	-4946
▁ㄱㅣㅁㅈㅣㄴ	-4947
▁ㄴㅏㄴㅁㅣㄴ	-4948
▁ㅁㅕㅇㅁㅗㄱ	-4949
▁TH	-4950
▁169	-4951
ㅅㅓㄴㄱㅓ	-4952
▁ㄱㅗㅇㅊㅐ	-4953
▁ㅊㅓㄴㄷㅗ	-4954
▁ㄱㅕㄱㄹㅕㄹ	-4955
▁ㅅㅣㄱㅂㅕㄹ	-4956
▁ㅍㅕㅇㅇㅣㄹ	-4957
▁ㄱㅣㅁㅇㅕㅇㅅㅏㅁ	-4958
▁TO	-4959
ude	-4960
▁ㄱㅐㄹㄹㅓ	-4961
▁ㄷㅓㅅㅂㅜㅌㅇㅕ	-4962
ep	-4963
ㅁㅏㄹㄹㅏ	-4964
▁ㅅㅜㅇㅂㅐ	-4965
▁ㅈㅓㅇㄹㅕㄹ	-4966
▁ㅊㅗㅇㅅㅓㄴㄱㅓ	-4967
▁ㄱㅣㅁㅌㅐ	-4968
▁ㅍㅔㄹ	-4969
▁ㄱㅣㄴㅈㅏㅇ	-4970
ib	-4971
ㅁㅣㄴㅈㅏ	-4972
▁ㅅㅓㅂㅈㅓㅇ	-4973
ㄹㅣㄹㄹㅓ	-4974
▁ㅂㅏㄹㅌㅡ	-4975
▁ㅇㅕㅇㄹㅣ	-4976
▁ㅊㅣㅁㅁㅗㄹ	-4977
▁ㅎㅑㅇㅎㅏㄴ	-4978
▁ㅋㅓㄹㄹㅓㅁㅂㅣ	-4979
▁ㄷㅗㅇㄴㅕㄴ	-4980
▁ㅇㅣㄴㅈㅐ	-4981
ㅓㄱㅈㅓㅇ	-4982
▁ㄱㅘㄴㄱㅜ	-4983
▁ㅋㅏㅇ	-4984
▁ㅅㅣㄹㅈㅓㄴ	-4985
ㅃㅏㄹ	-4986
▁ㅊㅓㅁㄱㅏ	-4987
ㅅㅏㄴㄷㅗㅇ	-4988
▁ㅍㅜㅇㄱㅕㅇ	-4989
▁HT	-4990
▁ㄷㅗㅇㄷㅐ	-4991
▁ㅊㅗㅇㄱㅘㄹ	-4992
▁ㅈㅜㄱㅇㅕㅆ	-4993
ㅇㅜㄹㄷㅐ	-4994
▁ㅁㅜㄹㅈㅏ	-4995
▁ㄱㅗㅇㅈㅣㄱ	-4996
▁ㄹㅛㅇ	-4997
ㄱㅡㄹㄹㅓ	-4998
▁ㄱㅘㄴㄹㅏㅁ	-4999
ㅂㄴㅣ	-5000
ㅅㅡㄹㄹㅏㄴㄷㅡ	-5001
▁ㄷㅓㅁ	-5002
▁ㅈㅓㅇㅈㅓㄴ	-5003
▁ㅍㅕㅇㅇㅑ	-5004
▁We	-5005
▁ㅈㅏㅇㅎㅏㄱ	-5006
▁172	-5007
▁ㅇㅡㅁㅇㅝㄴ	-5008
▁ㅋㅗㄴㅋㅡ	-5009
ㅊㅔㄴ	-5010
▁ㅈㅗㄴㅈㅜㅇ	-5011
▁ㅈㅓㄴㅅㅓㅇㄱㅣ	-5012
ㅇㅣㄴㅇㅓ	-5013
▁ㄷㅏㅎ	-5014
ㅅㅣㄹㄹㅣ	-5015
▁ㄴㅏㅌㅁㅏㄹ	-5016
▁ㅈㅓㄴㅇㅏㅂ	-5017
ome	-5018
▁106	-5019
▁ㅅㅣㄴㅎㅏㄱㄱㅛ	-5020
▁ㄷㅡㅇㅈㅐ	-5021
MS	-5022
▁ㅎㅔㄹㄹㅣ	-5023
ㅈㅓㄴㄱㅘㅇㅇㅕㄱㅅㅣ	-5024
▁ㅂㅏㅇㅊㅣㅁ	-5025
▁ㄴㅏㄹㅉㅏ	-5026
ㅅㅓㄱㅌㅏㅂ	-5027
▁ㅊㅜㅇㅂㅜㄱ	-5028
ment	-5029
▁ㄷㅗㅇㄹㅕㄱ	-5030
ㅊㅡㅇㅅㅓㄱㅌㅏㅂ	-5031
▁ㅌㅗㅇㄱㅡㄴ	-5032
▁ㅍㅏㄹㄹㅏ	-5033
▁ㅎㅏㅁㅂㅜ	-5034
▁ㅈㅗㅇㄱㅕㄹ	-5035
▁ㅇㅓㄴㄷㅓ	-5036
▁ㅈㅜㅇㄹㅑㅇ	-5037
▁ㅎㅕㅂㅈㅗ	-5038
ㅇㅜㄹㄹㅣ	-5039
▁ㅈㅜㅇㅅㅗ	-5040
▁ㄲㅓㅂㅈㅣㄹ	-5041
▁ㅋㅡㄹㄹㅣㄴ	-5042
ire	-5043
▁CE	-5044
▁ㄱㅏㅂㅈㅏㄱ	-5045
▁ㅍㅜㄹㄹㅕ	-5046
▁ㅊㅓㅇㅇㅝㄴ	-5047
▁ㅍㅕㅇㅌㅐㄱ	-5048
▁ㄷㅏㄴㅅㅣㄱ	-5049
▁ㅅㅏㅇㄷㅏㅇㅅㅜ	-5050
▁It	-5051
▁ㅍㅕㄴㄹㅣ	-5052
▁ㅅㅓㄴㅈㅗㅇ	-5053
▁ㅁㅔㄹㄹㅗ	-5054
▁ㅅㅏㅇㅅㅓ	-5055
▁ㄱㅗㅇㄷㅏㄴ	-5056
▁ㅈㅏㅇㅇㅏㄴ	-5057
▁ㅇㅝㄴㅎㅏ	-5058
▁ㄲㅙ	-5059
▁ㅅㅣㄴㅈㅜㅇ	-5060
ian	-5061
▁ㄱㅗㅇㅁㅗ	-5062
▁ㅅㅓㄴㄱㅜ	-5063
▁ㅂㅏㅇㅍㅐ	-5064
ㅁㅕㄴㅊㅔ	-5065
▁ㄱㅏㄴㅎㅗ	-5066
▁ㄹㅣㅇㅋㅓㄴ	-5067
▁ㅎㅏㄴㄷㅗㅇㅇㅏㄴ	-5068
▁ㅎㅕㅂㅈㅜ	-5069
▁ㄱㅚㅇㅈㅏㅇ	-5070
ide	-5071
ㅁㅏㄹㄹㅣ	-5072
▁ㅊㅜㄹㅊㅓ	-5073
▁ㅇㅣㄴㅅㅏㄴ	-5074
ㄲㅣㄴ	-5075
ㅎㅐㅇㅈㅏ	-5076
▁ㅇㅘㄹ	-5077
ace	-5078
ㅅㅣㄹㄹㅗㄱ	-5079
ere	-5080
ㄴㅓㄹㄹㅣ	-5081
▁ㅅㅣㄴㄱㅣ	-5082
ㅈㅜㅇㄱㅜㄱ	-5083
▁ㄷㅗㅇㅁㅜㄴ	-5084
ㅂㅓㄴㅅㅡ	-5085
▁ㅎㅏㅁㅇㅠ	-5086
▁ㅎㅡㅌㅇㅓ	-5087
▁ㄷㅏㅅ	-5088
▁ㄲㅡㄶㅇㅣㅁ	-5089
▁ㅂㅓㄴㅇㅕㅇ	-5090
ㅅㅡㅇㅈㅣ	-5091
▁ㅈㅡㅇㅈㅣㄴ	-5092
▁ㅇㅣㄴㅇㅕㄴ	-5093
▁ㅅㅏㅁㄱㅜㄱㅈㅣ	-5094
▁ㄴㅏㄱㅅㅓㄴ	-5095
▁ㅇㅑㄱㅊㅣㅇ	-5096
ㄹㅏㅁㅈㅟ	-5097
▁ㅅㅣㄴㅎㅏㄱㅈㅏ	-5098
▁ㅊㅗㄱㄱㅜ	-5099
▁ㅌㅏㄹㅎㅘㄴ	-5100
▁ㅌㅡㄱㅈㅣㅂ	-5101
cl	-5102
▁ㄴㅣㅇ	-5103
ㅇㅗㄴㅈㅡ	-5104
▁ㅅㅏㅇㅈㅏㅇ	-5105
ㄱㅡㅅ	-5106
▁ㅊㅗㅇㅅㅏ	-5107
▁ㄱㅕㅇㅂㅗ	-5108
▁ㅁㅗㄹㄹㅣ	-5109
▁".	-5110
▁NBA	-5111
▁ㅇㅝㄴㄱㅗ	-5112
▁ㅇㅘㅅ	-5113
▁ㄱㅕㄱㅌㅜ	-5114
▁ㄱㅡㅂㅅㅗㄱ	-5115
▁ㅂㅜㄹㅍㅕㄴ	-5116
▁ㅈㅓㄱㅂㅜㄴ	-5117
▁ㄴㅣㅅㅍㅗㄴ	-5118
▁ㅇㅏㅁㅅㅓㄱ	-5119
▁ㅅㅣㄹㄹㅣㄴ	-5120
▁IBM	-5121
▁ㅇㅕㄱㅅㅓㄹ	-5122
ㄱㅏㄴㅈㅣ	-5123
▁ㅅㅐㅇㅈㅓㄴ	-5124
▁ㄱㅘㄴㅌㅗㅇ	-5125
▁ㅅㅓㅇㅇㅜㄴ	-5126
ㄱㅞ	-5127
▁ㅁㅕㅇㅈㅔ	-5128
▁ㅊㅔㄹㅅㅣ	-5129
ㄲㅕ	-5130
▁ㅅㅓㅇㄹㅣ	-5131
▁ㅊㅗㅇㄷㅐ	-5132
ㄷㅗㄹㅇㅏ	-5133
▁ㄱㅐㄱㄱㅘㄴ	-5134
▁ㅇㅏㄴㅅㅓㅇ	-5135
▁ㄱㅣㅁㅅㅏㅇ	-5136
▁ㄱㅐㄱㅊㅔ	-5137
▁ㅇㅕㅇㅇㅢ	-5138
▁ㅈㅣㄴㄱㅜㄴ	-5139
▁ㅈㅜㅇㅇㅢ	-5140
▁ㅈㅜㅇㅅㅜㄴ	-5141
▁ㅋㅜㄴ	-5142
▁CON	-5143
ㄱㅗㄱㄹㅣ	-5144
▁ㅁㅓㅁㅊㅜ	-5145
▁ㅈㅔㄹ	-5146
▁ㄷㅗㅇㅅㅏㅇ	-5147
▁ㅊㅐㄱㅇㅣㅁㅈㅏ	-5148
▁ㅅㅏㄹㄹㅣ	-5149
ㅌㅡㄹㄹㅐㄴ	-5150
▁ㅊㅓㅇㅎㅏ	-5151
▁ㄷㅗㄹㅇㅕㄴ	-5152
▁148	-5153
▁ㄲㅡㅀ	-5154
▁ㅅㅡㅇㅈㅓㅁ	-5155
▁ㅁㅣㄹㅇㅑㅇ	-5156
▁136	-5157
▁ㄱㅕㅇㅇㅕㄴ	-5158
▁ㅅㅜㄴㅎㅚ	-5159
▁ㅁㅕㅇㄹㅕㅇㅇㅓ	-5160
▁ㅂㅜㄴㄷㅏㅇ	-5161
▁la	-5162
▁ㄹㅡㅇ	-5163
▁ㅅㅏㄴㄹㅣㅁ	-5164
▁ㅈㅜㅇㅅㅣㅁㅂㅜ	-5165
▁ㅈㅏㅇㄴㅏㄴ	-5166
▁ㅆㅏㅇㄷㅜㅇㅇㅣ	-5167
▁ㅇㅝㄴㄴㅐ	-5168
▁ㅇㅠㄱㅈㅣ	-5169
▁ㅎㅏㄴㅅㅡ	-5170
▁DC	-5171
▁ㅇㅓㅂㄱㅖ	-5172
▁ㅅㅐㅇㅅㅣㄱ	-5173
▁ㅂㅜㄹㅁㅕㅇ	-5174
▁138	-5175
ㅇㅕㅆㅇㅡ	-5176
▁ㅎㅏㄴㅅㅓㅇㅂㅜ	-5177
ㄱㅕㅁ	-5178
▁1916	-5179
▁ㅌㅐㅇㅋㅡ	-5180
ㅅㅡㄺ	-5181
▁ㅇㅕㄹㄷㅐ	-5182
▁ㅂㅏㄴㅂㅏㄱ	-5183
▁ㅎㅕㄴㄱㅡㅁ	-5184
▁ㅅㅣㄴㅅㅐㅇ	-5185
ㅈㅓㅇㅈㅏ	-5186
▁ㅊㅜㅇㅅㅣㄹ	-5187
▁ㅍㅕㅇㅂㅓㅁ	-5188
▁ㅂㅕㅇㅈㅗ	-5189
▁En	-5190
ㄹㅏㅇㅋㅏ	-5191
ㄹㅣㄹㄹㅏ	-5192
▁ㅈㅏㅇㄹㅕ	-5193
▁ㅁㅗㄱㅍㅏㄴ	-5194
▁CS	-5195
▁ㅅㅏㅇㄷㅏㅁ	-5196
▁ㅈㅜㅇㅅㅓㅇㅈㅏ	-5197
▁ㄷㅡㄴㅈㅣ	-5198
▁AK	-5199
ㅅㅏㅇㅇㅟ	-5200
ㅇㅜㅇㅈㅓㄴ	-5201
▁ㅇㅣㅂㄷㅏㅇ	-5202
▁ㅍㅡㄹㄹㅣ	-5203
ㅇㅇㅣ	-5204
▁ㅁㅓㅅ	-5205
▁ㅇㅕㅇㄴㅏㅁ	-5206
▁ㅇㅣㄹㅈㅗ	-5207
▁ㅌㅐㄱㅅㅣ	-5208
▁360	-5209
▁ㅈㅜㅇㅇㅟ	-5210
▁ㅊㅜㄴㅊㅜ	-5211
▁ㅂㅗㄱㅅㅓㄴ	-5212
▁ㅇㅝㄴㅅㅜㅇㅇㅣ	-5213
ㅅㅏㄹㅇㅣ	-5214
▁ㄱㅏㅁㄹㅣ	-5215
▁ㅍㅕㅇㅇㅝㄴ	-5216
▁ㅇㅑㅇㄷㅗ	-5217
▁⊸	-5218
▁AR	-5219
▁ㅁㅐㅂ	-5220
▁ㅁㅏㄱㄴㅐ	-5221
▁ㅊㅜㄴㅊㅓㄴ	-5222
▁ㅈㅏㅈ	-5223
▁ㄴㅏㅁㅎㅐ	-5224
▁ㅇㅕㄴㅍㅐ	-5225
▁ㅈㅏㄱㅅㅔㄴ	-5226
▁ㅇㅕㅇㅈㅏㅇ	-5227
▁ㅎㅏㅂㅊㅏㅇ	-5228
▁ㅅㅣㄴㅅㅣ	-5229
▁ㅎㅕㄴㅈㅗㅇ	-5230
▁ㅍㅓㅁ	-5231
ㅅㅗㄱㄱㅣ	-5232
▁ㅅㅏㄴㄹㅏㄴ	-5233
▁ㅇㅣㅂㅈㅣ	-5234
▁ㅋㅓㅁㅍㅏ	-5235
▁ㅇㅕㄴㅎㅏㅂㅎㅚ	-5236
▁ㅎㅜㅁ	-5237
ㅂㅡㄹㄹㅣ	-5238
▁ㅂㅏㄴㄱㅏㅁ	-5239
ㅋㅡㄹㄹㅐㄴㄷㅡ	-5240
ㅊㅘㄴ	-5241
▁104	-5242
▁ㅅㅣㅁㅎㅐ	-5243
▁ㄱㅡㄱㄷㅗㅇ	-5244
▁ㄷㅏㅇㅇㅣㄹ	-5245
▁ㅇㅣㄹㄹㅓ	-5246
▁ㅅㅗㅅ	-5247
▁ㅊㅏㅇㄱㅗ	-5248
▁ㅁㅗㄹㄹㅕ	-5249
▁ㅅㅗㅁ	-5250
AL	-5251
▁ㅍㅏㅇ	-5252
▁ㄱㅓㄱㅈㅓㅇ	-5253
ark	-5254
▁ㅈㅓㄴㄴㅕㅁ	-5255
▁WWE	-5256
▁ㅂㅐㄱㅅㅐㄱ	-5257
▁ㅁㅕㄴㅎㅓ	-5258
▁ㄴㅐㅇㄱㅏㄱ	-5259
ㅌㅏㅁ	-5260
▁ㅉㅗㅊㄱㅕ	-5261
▁109	-5262
ㅇㅣㅁㅈㅡ	-5263
▁ㅇㅏㅁㅅㅡ	-5264
▁143	-5265
▁col	-5266
ㄱㅘㄴㅊㅗㅇ	-5267
▁CC	-5268
▁ㅌㅣㄹ	-5269
▁ㄱㅜㄱㅅㅗ	-5270
ㅍㅡㅁ	-5271
▁ㅅㅜㄴㄱㅛ	-5272
▁ㅅㅣㄹㄹㅕ	-5273
▁ㅅㅏㅇㄱㅗㅇ	-5274
▁ㅅㅣㄴㅈㅜ	-5275
ㅅㅔㅅ	-5276
▁123	-5277
▁ㄱㅕㅇㄱㅘㄴ	-5278
ile	-5279
▁ㅇㅔㄴㅌㅡ	-5280
▁ㄱㅣㅁㄱㅣ	-5281
▁ㅎㅐㅅ	-5282
▁ㅂㅕㅇㅎㅐㅇ	-5283
▁Op	-5284
▁ㅂㅏㅇㅅㅗㅇㅅㅏ	-5285
▁ㅅㅗㅇㅅㅣ	-5286
▁ㅂㅏㄱㅎㅐ	-5287
▁ㅇㅔㄹㄹㅔ	-5288
ㅌㅓㅁ	-5289
▁ㅁㅜㅇ	-5290
▁ㅂㅓㅂㅈㅗ	-5291
▁ㅅㅜㅁㄱㅕ	-5292
ㄹㅏㅂㅇㅓ	-5293
▁ㄱㅕㅁㅎㅏ	-5294
▁ㅎㅚㅅㅅㅜ	-5295
▁ㄴㅏㅇㅁㅏㄴ	-5296
ㅇㅡㄴㅅㅐㄱ	-5297
▁ㄱㅕㄹㅎㅗㄴㅅㅣㄱ	-5298
▁ㅅㅣㄴㅅㅗㄱ	-5299
▁ㅁㅗㄴㅅㅡ	-5300
▁ㅈㅏㅇㄱㅓ	-5301
ㅂㅓㅂㅇㅣㄴ	-5302
▁ㅇㅡㅇㅇㅝㄴ	-5303
ㅅㅣㄹㅂㅔ	-5304
▁ㅊㅓㅇㅊㅜㄴ	-5305
▁ㅂㅗㅇㅅㅙ	-5306
▁ㄱㅗㅇㄱㅘㄴ	-5307
▁LP	-5308
▁ㅍㅔㄴㅅㅣㄹㅂㅔ	-5309
xt	-5310
ㄹㅜㅁ	-5311
▁ㅇㅏㄹㅈㅔ	-5312
▁ㅅㅣㄹㅈㅏㅇ	-5313
▁ㅇㅣㅁㅇㅛㅇ	-5314
▁ㅇㅏㅀ	-5315
▁ㅂㅜㄴㅂㅣ	-5316
▁ㅇㅡㅁㄹㅛ	-5317
▁ㅈㅣㄴㅉㅏ	-5318
▁ㅅㅏㅁㅈㅣㄴ	-5319
ㅇㅑㅇㄱㅖ	-5320
▁ㅂㅏㄼ	-5321
▁ㄱㅡㅁㅇㅛ	-5322
ㅇㅝㄴㅅㅜ	-5323
▁ㅇㅗㄹㅂㅏ	-5324
ㅁㅏㄴㄷㅜ	-5325
▁ㅎㅕㄹㅌㅗㅇ	-5326
▁ㅅㅏㅁㅊㅡㅇㅅㅓㄱㅌㅏㅂ	-5327
ㅇㅣㄴㅈㅓㄴ	-5328
▁ㅅㅣㄴㄱㅠ	-5329
▁ㅊㅣㄴㅇㅘㅇ	-5330
▁ㅎㅏㄴㅉㅗㄱ	-5331
▁ㅅㅣㄴㅈㅗ	-5332
▁ㅌㅏㄹㄷㅏㅇ	-5333
▁ㅌㅗㅇㅇㅕㅇ	-5334
▁ㅈㅓㅇㅈㅜ	-5335
▁ㅍㅏㄹㄹㅣ	-5336
▁is	-5337
ㅎㅗㅂ	-5338
ㅇㅑㅇㅎㅏㅁ	-5339
▁ㅅㅣㄴㅌㅏㄱ	-5340
▁ㅇㅕㅍㅁㅕㄴ	-5341
▁ㅁㅕㅇㅂㅐㄱ	-5342
ㅎㅓㄴㅂㅜ	-5343
▁ㄱㅗㅇㅅㅜ	-5344
ㅈㅏㅇㅅㅣㄹ	-5345
▁ㅅㅓㅇㄷㅏㄴ	-5346
▁ㅅㅏㅇㅇㅛㅇ	-5347
▁ㅅㅏㅇㅈㅓㅁ	-5348
▁ㅊㅜㅇㅈㅓㄴ	-5349
▁ㄴㅏㅁㄷㅗㅇㅂㅜ	-5350
ft	-5351
ㅈㅓㅇㄹㅣ	-5352
▁ㅇㅑㄱㄹㅕㄱ	-5353
ite	-5354
▁ㅈㅓㅇㅁㅏㄹ	-5355
ㅑㄹ	-5356
▁SE	-5357
▁ㅈㅏㄴㄹㅠ	-5358
▁ㄱㅘㅇㅁㅜㄹ	-5359
▁ㅍㅜㅁㅈㅗㅇ	-5360
ㄹㅐㄴㅌㅡ	-5361
▁ㅅㅣㄴㅎㅏㄴ	-5362
▁ㅂㅏㄱㄹㅏㅁㅎㅚ	-5363
▁ㅎㅏㅇㅅㅗ	-5364
▁ㄱㅘㅇㅎㅏㄱ	-5365
ㅅㅏㅇㄷㅗ	-5366
▁ㅈㅓㅇㅎㅏㄴ	-5367
▁ㅊㅣㄴㅇㅣㄹㅍㅏ	-5368
▁ㅇㅏㄹㄹㅜ	-5369
▁ㅇㅕㅁㄱㅣ	-5370
▁ㅁㅏㄴㄴㅏㅁ	-5371
▁ㅅㅏㅇㄷㅏㄴ	-5372
▁ㅇㅗㄹㄹㅏㅆㅇㅡ	-5373
▁ㅌㅗㅇㅈㅡㅇ	-5374
▁ㅁㅗㄱㅈㅐ	-5375
▁ㅁㅐㄱㅈㅜ	-5376
ㄴㅓㄼ	-5377
ㅇㅓㅂㅇㅣㄴ	-5378
ㅎㅘㅇㅊㅓㅇ	-5379
ㅎㅡㄹ	-5380
▁ㅍㅓㅇㅋㅡ	-5381
▁ㅍㅣㄹㅌㅓ	-5382
ㅅㅐㅇㅈㅏ	-5383
▁ㅁㅣㄱㅅㅡ	-5384
▁ㄱㅕㄱㅌㅚ	-5385
▁ㄸㅣㄴㄷㅏ	-5386
ㅇㅝㄴㅈㅏ	-5387
▁ㅎㅏㄴㅈㅣ	-5388
▁ㅅㅣㄴㄴㅕㅁ	-5389
ㅍㅣㅂ	-5390
ㅍㅗㄹㄹㅗ	-5391
▁ㄹㅗㄹㄹㅣㅇ	-5392
▁ㅅㅓㄹㅌㅏㅇ	-5393
▁ㄱㅡㄱㅈㅏㅇㅍㅏㄴ	-5394
OL	-5395
▁ㄴㅜㄹ	-5396
▁ㅍㅗㄱㄷㅗㅇ	-5397
▁ㄱㅕㅇㅅㅏㅇㄷㅗ	-5398
▁ㄹㅣㅅ	-5399
▁ㅌㅏㅁㄱㅜ	-5400
▁ㅊㅜㄱㅎㅏ	-5401
ㅅㅓㄴㅇㅣㄹㅂㅗ	-5402
ies	-5403
▁ㅅㅣㄴㅇㅑㄱ	-5404
▁107	-5405
▁112	-5406
▁ㄱㅡㄴㄱㅛ	-5407
▁ㄱㅗㅇㅇㅣㄱ	-5408
ㅍㅓㄹ	-5409
▁ㅅㅓㅇㅅㅜㄱ	-5410
▁ㄸㅏㅅ	-5411
▁ㅇㅜㄴㅎㅏ	-5412
ㅈㅏㄱㅇㅛㅇ	-5413
▁ㅈㅓㅇㅈㅓㅁ	-5414
▁ㅁㅚ	-5415
ㅂㅏㅇㅅㅓ	-5416
▁ㄷㅏㅇㅈㅜ	-5417
▁ㅈㅓㄱㄷㅏㅇ	-5418
▁ㅂㅣㄹㄹㅏ	-5419
▁ㅇㅕㄴㅅㅙ	-5420
▁ㄴㅏㄹㅆㅣ	-5421
ㄷㅗㅇㄹㅕㄱ	-5422
▁Te	-5423
ound	-5424
▁126	-5425
▁com	-5426
▁ㅂㅓㅁㅇㅠ	-5427
▁ㅅㅓㅇㅊㅔ	-5428
ㄱㅏㄹㅅㅐㄱ	-5429
ㅇㅡㄴㅇㅣ	-5430
▁ㅇㅣㄴㅊㅔ	-5431
▁ㅅㅣㄴㅁㅣㄴ	-5432
ㅍㅡㄹㄹㅏ	-5433
▁ㅈㅜㄹㅁㅜ	-5434
▁ㄱㅕㅇㅊㅏㄹㅊㅓㅇ	-5435
ㅊㅜㄱㅎㅏㅁ	-5436
▁ㅅㅐㅇㅅㅏㄴㄹㅑㅇ	-5437
ㅅㅜㄴㅅㅣㄴ	-5438
▁117	-5439
▁ㄱㅡㅂㄱㅕㄱㅎㅣ	-5440
▁ㄷㅗㅇㄱㅜㄱ	-5441
▁113	-5442
▁ㅋㅣㅁ	-5443
▁ㅈㅗㄴㅅㅗㄱ	-5444
▁ㅇㅓㅂㄱㅡ	-5445
▁CF	-5446
▁ㅅㅓㅇㅊㅟ	-5447
▁Pr	-5448
▁ㅅㅗㄱㅎㅐㅆ	-5449
▁ㅎㅐㄱㅁㅜ	-5450
ㅂㅔㄱ	-5451
▁ㄱㅡㄱㅎㅣ	-5452
ㄲㅗㅂ	-5453
▁KIA	-5454
▁ㄱㅣㅁㄱㅕㅇ	-5455
▁ㅎㅏㄴㅇㅣㄴ	-5456
▁ㅃㅏㄹㄱㅏㄴㅅㅐㄱ	-5457
ath	-5458
ㄴㅗㅁ	-5459
▁ㄷㅗㄷ	-5460
▁ㅎㅐㄴㄷㅡ	-5461
ㅋㅞ	-5462
ㅊㅔㄹ	-5463
▁ㅇㅘㅇㅂㅗㄱ	-5464
▁ㅌㅏㅁㅅㅐㄱ	-5465
ov	-5466
▁ㅊㅜㄱㅈㅓㄱ	-5467
▁z	-5468
▁RNA	-5469
▁ㅍㅗㅇ	-5470
ㄹㅏㄴㅎㅣ	-5471
▁ㄱㅘㅇㅎㅐ	-5472
▁ㅇㅜㄹㄹㅣ	-5473
ond	-5474
▁137	-5475
▁ㅁㅏㄹㄴㅕㄴ	-5476
▁ㄱㅏㅂㅈㅏㄱㅅㅡ	-5477
▁ㄲㅡㄹㄹㅕ	-5478
ㅅㅓㅇㄷㅏㅇ	-5479
▁ㄴㅗㅇㄹㅣㅁ	-5480
▁ㅎㅡㅁ	-5481
▁ㅊㅏㅇㅇㅓㅂ	-5482
ory	-5483
▁CR	-5484
ㅇㅔㅅ	-5485
▁1894	-5486
▁ㅂㅕㄹㄷㅏ	-5487
▁ㅅㅏㅁㅅㅓㅇㅈㅓㄴㅈㅏ	-5488
ㅋㅡㄴ	-5489
▁ㅂㅓㄹㄱㅡㅁ	-5490
▁ㅇㅣㄴㅁㅕㅇ	-5491
▁ㅌㅐㄹㄹㅓㄴ	-5492
ㄷㅏㄴㅊㅔ	-5493
▁ㅎㅘㄴㅇㅕㅇ	-5494
▁ㅂㅏㅇㅎㅘ	-5495
ㅂㅐㅁㅂㅜㅌㅇㅣ	-5496
▁be	-5497
▁ㅇㅓㄴㄴㅣ	-5498
▁ㅅㅐㅁㅍㅡㄹ	-5499
▁ㄱㅔㄹ	-5500
ㅇㅛㅇㅊㅔ	-5501
▁ㅍㅗㄱㅎㅐㅇ	-5502
▁ㅎㅘㅇㅅㅣㄹ	-5503
▁ㅊㅏㅇㅇㅝㄴㅅㅣ	-5504
▁ㅌㅐㄹㄹㅓㄴㅌㅡ	-5505
▁173	-5506
▁ㄸㅏㅅㅈㅟ	-5507
▁ㅍㅏㄴㅂㅗㄴ	-5508
▁ㄱㅘㄴㅇㅡㅁ	-5509
▁121	-5510
▁ㅂㅏㄹㄹㅣ	-5511
▁ㅇㅓㄱㅇㅏㅂ	-5512
▁ㅂㅜㅌㅇㅕㅆ	-5513
▁ㄱㅏㅇㅅㅓ	-5514
▁ㅅㅏㅇㅅㅏ	-5515
ㅇㅕㄴㅎㅏㅂ	-5516
MA	-5517
▁ㅋㅣㄱ	-5518
▁ㅈㅓㄱㄷㅗ	-5519
ㅌㅠㅁ	-5520
▁ㄷㅟㅅㅁㅕㄴ	-5521
▁ㅅㅓㅇㅅㅏ	-5522
▁ㅅㅓㅇㅂㅕㄹ	-5523
▁ㅈㅣㄴㄱㅡㅂ	-5524
▁350	-5525
ㄹㅕㅆㅇㅡ	-5526
▁ㅈㅓㄴㅎㅐㅆ	-5527
▁ㅊㅗㅇㄷㅗㄱㅂㅜ	-5528
ㄷㅗㄹㄹㅣ	-5529
▁ㅂㅔㄹㄹㅣ	-5530
▁ㅇㅕㅇㅅㅏㄴ	-5531
▁ㅅㅡㅇㄱㅖ	-5532
▁ㅇㅕㄹㅈㅓㅇ	-5533
▁ㅂㅓㅁㅇㅣㄴ	-5534
▁ㅇㅣㄹㅂㅏㄴㅇㅣㄴ	-5535
▁ㄸㅏㅆ	-5536
▁ㄹㅠㄱ	-5537
ㅇㅕㄹㅅㅏ	-5538
▁ㅎㅏㄹㅈㅣ	-5539
▁ㄷㅏㄴㄷㅏㄴ	-5540
▁ㅊㅓㄴㅈㅏㅇ	-5541
▁ㅈㅑ	-5542
iver	-5543
ㅂㅏㄱㅅㅡ	-5544
▁Am	-5545
▁World	-5546
▁ㅇㅣㄴㅁㅜㄴ	-5547
▁ㅎㅕㄴㅈㅓ	-5548
▁ㄱㅕㄴㅈㅔ	-5549
▁ㄴㅐㅇㅈㅓㄴ	-5550
ㅎㅏㅁㅅㅜ	-5551
▁ㄱㅗㅇㅅㅡㅂ	-5552
▁ㄱㅡㄴㅇㅝㄴ	-5553
▁ㅇㅕㅅ	-5554
▁ㅎㅚㅇㄷㅏㄴ	-5555
▁ㅈㅣㄴㄱㅗㅇ	-5556
ㅈㅜㄹㄱㅣ	-5557
▁ㅅㅏㅇㅍㅛ	-5558
▁ㄷㅏㄹㅎㅐㅆ	-5559
▁ㄱㅗㅇㅁㅣㄴ	-5560
▁ㅅㅣㄴㅅㅓㄴ	-5561
▁ㅁㅐㄱㄹㅏㄱ	-5562
▁ㅈㅡㅇㅅㅗㄴ	-5563
▁New	-5564
▁ㅅㅏㅇㅎㅐ	-5565
▁ㅇㅣㅂㅇㅝㄴ	-5566
▁ㅊㅐㄹㄹㅣㄴㅈㅣ	-5567
ign	-5568
▁ㅎㅏㄱㅁㅕㅇ	-5569
ial	-5570
▁SD	-5571
ㅌㅗㄹ	-5572
▁GP	-5573
▁ㅎㅟㄹ	-5574
▁ㅇㅠㄱㅊㅔ	-5575
▁ㅇㅣㄹㄱㅏ	-5576
man	-5577
▁114	-5578
▁ㄷㅣㄱ	-5579
▁ㄱㅏㅁㅈㅏ	-5580
ㅎㅏㅇㅅㅣㄱ	-5581
▁On	-5582
▁ㅁㅟ	-5583
▁ㅁㅜㄴㅇㅖ	-5584
ㄸㅜㄱ	-5585
▁ㅁㅏㅁ	-5586
▁ㅅㅖㄹ	-5587
▁ㅁㅓㄴㅈㅣ	-5588
▁ㅎㅣㅁㅇㅣㅂ	-5589
ㅋㅝ	-5590
▁EC	-5591
ㄱㅜㄴㄱㅏ	-5592
▁ㅅㅓㅇㄷㅗ	-5593
▁ㅇㅑㅇㅎㅗ	-5594
▁124	-5595
▁ㄷㅏㅁㄱㅣㄴ	-5596
▁ㅇㅏㅁㅅㅣ	-5597
ich	-5598
▁ㄷㅏㅁㄱㅕ	-5599
▁ㅎㅏㄹㅁㅓ	-5600
▁ㄱㅜㄴㅈㅓㅇ	-5601
▁Sc	-5602
ㅎㅘㅇㅎㅜ	-5603
ㅇㅑㄱㅍㅜㅁ	-5604
▁ㅁㅗㅅㅎㅏㄹ	-5605
ㅅㅂㅜㄹ	-5606
ㄷㅓㄱㅅㅕㄴ	-5607
▁ㄱㅣㅁㅈㅓㅇㅇㅣㄹ	-5608
ㅊㅜㄱㄱㅜ	-5609
▁ㄷㅜㅇㅈㅣ	-5610
▁ㄱㅗㄱㅇㅣㄴ	-5611
▁ㅅㅣㄹㅊㅔ	-5612
▁SU	-5613
ㄷㅜㅁ	-5614
▁ㅅㅡㄴ	-5615
▁ㅇㅝㄹㅇㅛ	-5616
▁118	-5617
ㅅㅜㄹㅈㅏ	-5618
▁ㅅㅏㄹㄹㅏ	-5619
▁ㅈㅡㅇㄷㅐ	-5620
▁ㅂㅜㅌㅇㅣㄴ	-5621
ㄹㅣㅂㅌㅡ	-5622
▁ㅇㅣㄹㅋㅓㄹ	-5623
IP	-5624
ㄱㅏㅄ	-5625
▁ㄹㅐㅁ	-5626
▁ㅈㅗㅇㅊㅏㄱ	-5627
▁ㅅㅓㅇㅁㅜㄴ	-5628
ㅆㅜ	-5629
▁ㅇㅏㄱㄷㅏㄴ	-5630
▁ㅁㅜㄴㄱㅜ	-5631
▁ㅅㅓㄴㅂㅣ	-5632
▁III	-5633
▁ㅎㅏㄱㄱㅖ	-5634
▁ㄱㅣㅁㅎㅕㄴ	-5635
▁ㅌㅗㅇㅌㅡㄹ	-5636
▁GS	-5637
ㅌㅗㄹㄹㅔ	-5638
▁ㅇㅝㄴㄷㅓ	-5639
▁ㅇㅝㄴㅈㅓㄴ	-5640
ㄴㅝ	-5641
ㄲㅜㅁ	-5642
▁ㅋㅐㄴㅈㅏ	-5643
▁ㅎㅏㅇㅈㅐㅇ	-5644
ㅆㅏㅇ	-5645
▁1890	-5646
ㄱㅗㅇㅈㅜ	-5647
▁ㄱㅗㅇㅂㅏㅇ	-5648
▁ㄴㅏㅁㅇㅝㄴ	-5649
▁ㅈㅓㅇㅂㅕㄴ	-5650
ㄷㅏㄺ	-5651
ㅇㅣㅁㅂㅡ	-5652
▁ㅎㅕㄹㄱㅘㄴ	-5653
ㅃㅜㄹ	-5654
ㅅㅓㅇㄱㅖ	-5655
▁ㅋㅛ	-5656
▁ㄱㅣㅁㄱㅠ	-5657
▁ㅍㅜㅇㅈㅏ	-5658
▁ㅂㅣㄹㄹㅕ	-5659
hn	-5660
ㅌㅗㅁ	-5661
▁ㅇㅜㄴㅅㅜ	-5662
▁ㅇㅕㄴㅅㅏㄴㅈㅏ	-5663
▁ㅅㅓㄹㅎㅘ	-5664
▁ㅈㅣㄴㅅㅏ	-5665
▁ㅇㅛㅇㅂㅕㅇ	-5666
▁ㅇㅕㄴㅎㅏㅂㄱㅜㄱ	-5667
▁ㄷㅜㄴㄷㅏ	-5668
▁ㄱㅗㅇㅂㅐㄱ	-5669
▁ㅎㅕㅂㅂㅏㄱ	-5670
▁ㅂㅗㄹㅍㅡ	-5671
▁ㅇㅞㅂㅌㅜㄴ	-5672
▁ㄷㅗㄱㅇㅣㄹㅇㅣㄴ	-5673
▁ㄲㅜㄹ	-5674
▁ㅊㅕㅆ	-5675
ㅊㅓㄴㄹㅣ	-5676
ㅂㅕㄴㅇㅣㄴ	-5677
▁ㅁㅏㄺ	-5678
ㅅㄱㅏㅄ	-5679
▁ㄴㅏㅁㄱㅜ	-5680
▁ㅎㅔㄹㄱㅣ	-5681
▁ㅂㅏㄴㅎㅐ	-5682
▁ㅇㅗㅂㅅㅕㄴ	-5683
▁ㅇㅝㄴㅎㅐㅆ	-5684
ㅂㅏㅇㅅㅗㅇㄱㅗㅇㅅㅏ	-5685
▁115	-5686
TS	-5687
▁ㅅㅒ	-5688
ㅎㅐㅇㅅㅏ	-5689
▁129	-5690
▁ㄱㅏㄷ	-5691
ㅋㅏㄹㄹㅏ	-5692
▁ㅎㅡㄴㅎㅏ	-5693
ㄹㅏㄴㅊㅡ	-5694
▁ㄷㅗㅇㅈㅓㅁ	-5695
▁ㅂㅣㄴㄱㅗㄴ	-5696
▁ㄱㅚㅇㅈㅏㅇㅎㅣ	-5697
▁ㅂㅗㅇㅇㅏㄴ	-5698
▁ㅎㅘㄱㅅㅣㄴ	-5699
ㅇㅠㄱㅂㅜ	-5700
▁ㅍㅗㄱㅍㅗ	-5701
ㅈㅏㅇㅍㅜㅁ	-5702
▁ㄱㅕㄹㅎㅏㅁ	-5703
ㄷㅣㅈ	-5704
▁LC	-5705
▁ㅍㅕㅇㅈㅓㅇ	-5706
▁ㅇㅗㄴㅌㅏ	-5707
Pa	-5708
▁1898	-5709
ㄹㅓㄹㄷㅡ	-5710
ㅎㅏㅁㅁㅏ	-5711
▁ㅇㅕㅇㅅㅏ	-5712
ㅌㅗㅇㄱㅜㄱ	-5713
ㄴㅣㄹㄹㅏ	-5714
▁ㅇㅘㅇㅅㅔ	-5715
▁ㅊㅓㄹㅎㅚ	-5716
▁ㅅㅜㄱㅊㅓㅇ	-5717
ㅂㅡㄹㄹㅣㄴ	-5718
ction	-5719
▁ㄴㅏㅁㅁㅣ	-5720
▁ㄱㅓㅁㅊㅏㄹㅊㅓㅇ	-5721
rom	-5722
▁ㅎㅓㄹ	-5723
urn	-5724
▁ㄱㅘㄴㅈㅔ	-5725
▁ㅅㅔㄴㅌㅣ	-5726
▁1899	-5727
ㅇㅣㄴㅅㅡ	-5728
▁ㅋㅔㄹㄹㅣ	-5729
▁ㄱㅡㄱㅈㅏㄱ	-5730
▁ㅁㅏㄷ	-5731
▁ㅂㅡㄹㄹㅐㄱㅎㅗㄹ	-5732
▁ㅅㅓㄴㄷㅗ	-5733
▁ㅇㅣㄴㅅㅡ	-5734
▁ㅈㅓㅇㄹㅕ	-5735
▁ㅊㅓㄴㅁㅜㄴㄷㅐ	-5736
▁vs	-5737
▁ㄱㅡㄱㅅㅣㅁ	-5738
▁ㅇㅑㅇㅊㅡㄱ	-5739
ㅇㅣㅆ	-5740
▁ㄷㅏㄹㅎㅏㄴㄷㅏ	-5741
ㅈㅓㄴㅊㅏ	-5742
pp	-5743
ㅈㅣㄴㄱㅜㄴ	-5744
TC	-5745
▁ch	-5746
▁ㅌㅜㅇ	-5747
▁ㅅㅐㅇㅊㅔ	-5748
▁ㅅㅔㄹㄹㅔ	-5749
▁ㅇㅣㄹㅂㅏㅇ	-5750
▁ID	-5751
ㄹㅓㅇ	-5752
▁142	-5753
▁ㄱㅘㅇㅈㅓ	-5754
▁ㅅㅔㄴㄷㅏ	-5755
ph	-5756
▁ㅁㅗㄹㄹㅐ	-5757
▁ㅂㅏㄺㄱㅣ	-5758
▁ㅊㅜㄱㅊㅜㄹ	-5759
▁ㄱㅣㅁㅈㅣ	-5760
▁ㅁㅏㄴㄹㅛ	-5761
▁ㅅㅡㅇㅈㅏ	-5762
ㅎㅐㅇㅈㅏㅇ	-5763
▁ㄱㅡㄱㅎㅏㄴ	-5764
▁ㅎㅏㄱㅇㅓㅂ	-5765
ㄹㅣㅁㅈㅏ	-5766
▁ㅊㅗㅇㅊㅣㅇ	-5767
ㅇㅣㄴㅅㅠ	-5768
▁ㅁㅗㄹㄹㅏ	-5769
▁ㅂㅏㄴㄱㅕㅇ	-5770
▁ㅂㅔㅇ	-5771
▁ㄱㅘㄴㅅㅔ	-5772
▁ㅇㅡㄹㅈㅣ	-5773
▁ㅂㅏㄹㅂㅕㅇ	-5774
ert	-5775
▁ㅊㅣㄴㅇㅟ	-5776
▁BS	-5777
▁ㅍㅣㅇㅋㅡ	-5778
▁ㅎㅔㄹㄹㅔ	-5779
▁ㅊㅓㄱㅊㅜ	-5780
▁Ne	-5781
▁ㅂㅕㄴㅇㅣ	-5782
ㅆㅡㅁ	-5783
▁ㅆㅓㄴ	-5784
▁ㅂㅡㄹㄹㅣ	-5785
▁ㄱㅕㅇㅅㅣㄴ	-5786
ㅊㅏㄱㅈㅗㅇ	-5787
▁ㅎㅘㅇㅈㅗㄱ	-5788
▁ㅈㅓㅇㅅㅔ	-5789
ㅁㅣㄹㅌㅓㄴ	-5790
▁ㅊㅓㅁㄷㅏㄴ	-5791
▁ㅎㅣㅁㄷㅡㄴ	-5792
▁ㅊㅜㄱㅁㅜㄹ	-5793
lic	-5794
▁CJ	-5795
▁ㅇㅛㄱㄱㅜ	-5796
▁ㅇㅐㅇㄱㅡㄹ	-5797
▁ㅎㅡㄴㅎㅏㄴ	-5798
ㄲㅜㄹ	-5799
▁ㅅㅜㄴㅈㅗ	-5800
▁ㅊㅣㅁㅌㅜ	-5801
▁ㅁㅕㅇㅈㅗㅇ	-5802
▁ㄲㅏㄲ	-5803
▁ㄹㅓㅁ	-5804
ㅅㅡㅇㅂㅜ	-5805
▁ㅂㅏㄹㄱㅣ	-5806
▁ㄱㅜㅇㄱㅡㄱ	-5807
▁ㄱㅗㄴㄹㅏㄴ	-5808
TA	-5809
ㅈㅓㄱㅈㅣ	-5810
▁ㅇㅛㅇㅇㅣ	-5811
ㅈㅐㅇㅇㅣ	-5812
▁ㅅㅣㄹㅂㅓ	-5813
▁ㅎㅗㄴㄷㅗㅇ	-5814
▁ㄹㅔㄱ	-5815
▁ㅋㅗㄱ	-5816
ㅂㅏㄴㄴㅣ	-5817
ㅁㅜㄴㅌㅡ	-5818
ㅌㅣㄱㅅㅡ	-5819
▁ㄷㅗㄱㅅㅓ	-5820
▁ㅇㅣㅁㅇㅝㄴ	-5821
▁ㅈㅡㄱㄱㅏㄱ	-5822
▁ㄱㅘㄴㄱㅘㅇㅈㅣ	-5823
▁ㅇㅡㄴㄷㅔ	-5824
▁ㄷㅗㅇㅎㅏㄱ	-5825
lan	-5826
ㅇㅑㄹ	-5827
▁ㅁㅐㄱㄷㅗ	-5828
▁ㅂㅐㅇ	-5829
▁ㄱㅗㅇㄹㅣ	-5830
▁ㄱㅡㄹㄹㅜ	-5831
▁Man	-5832
▁ㅇㅗㄴㄷㅏ	-5833
▁ㅁㅏㄴㅅㅓㅇ	-5834
▁ㅋㅓㄴㅅㅔㅂ	-5835
ens	-5836
ㅁㅗㄹㄹㅗ	-5837
ㅌㅔㄱㅊㅓ	-5838
▁`	-5839
ㅁㅓㄴㅅㅡ	-5840
▁ㄱㅕㅇㅊㅏㄹㄱㅘㄴ	-5841
ary	-5842
▁ㅂㅣㅁ	-5843
ㄱㅜㄱㅅㅏ	-5844
▁ㅍㅣㄹㅅㅏ	-5845
▁ㄷㅗㄱㅅㅓㅇ	-5846
▁ㅂㅕㄱㄷㅗㄹ	-5847
ㅂㅅㅣ	-5848
▁ㅁㅣㅇ	-5849
▁ㅇㅡㅇㅅㅣ	-5850
▁ㄱㅘㅇㄷㅜㅇ	-5851
▁ㅂㅗㄴㅁㅜㄴ	-5852
▁ㅈㅜㅇㅅㅏㄴ	-5853
▁IM	-5854
▁1902	-5855
▁ㄱㅏㅁㅁㅏ	-5856
▁ㅇㅏㄴㅌㅔ	-5857
▁ㅁㅏㄴㅇㅣㄹ	-5858
▁ㅍㅡㄹㄹㅐㅅㅍㅗㅁ	-5859
▁ㅇㅕㄴㄲㅗㅊ	-5860
ㅇㅛㄱㅈㅜ	-5861
▁ㄱㅏㄱㄷㅗ	-5862
▁ㅈㅡㄹㄱㅓ	-5863
▁ㄴㅏㄴㅈㅣㅇ	-5864
▁ㅌㅏㄴㄷㅗ	-5865
ㅎㅡㅇㄱㅜㄴ	-5866
▁ㄱㅏㅇㄷㅗㅇ	-5867
▁ㅍㅗㄱㄴㅓㄼ	-5868
ㅅㅏㅇㄱㅏ	-5869
▁ㄷㅗㄹㄱㅕㄱ	-5870
ㅋㅔㅅㅁㅗㄴㅅㅡ	-5871
▁ㅋㅓㅅ	-5872
ㄷㅗㅇㄱㅏㅇ	-5873
▁ㅈㅗㅇㅅㅗㄱ	-5874
▁ㅁㅣㄹㅈㅣㅂ	-5875
▁ㅇㅑㅇㅂㅏㄴ	-5876
▁ㅈㅣㅇㄱㅖ	-5877
▁ㅇㅗㅇㄹㅣㅂ	-5878
ype	-5879
ㅍㅔㄴㅎㅏ	-5880
▁ㄷㅓㄴㅈㅕ	-5881
▁ㅎㅣㅁㅆㅓ	-5882
▁ㅈㅓㄻㅇㅡㄴㅇㅣ	-5883
LE	-5884
▁ㅍㅏㄴㄹㅖ	-5885
▁ㅇㅝㄴㅈㅗㅇ	-5886
▁ㅈㅜㅇㅂㅗㄱ	-5887
ㄹㅏㄴㅊㅔ	-5888
ㅂㅔㄹㄹㅏ	-5889
ㅅㅔㅁㅂㅜ	-5890
ㅈㅣㅅㅈㅓㅁ	-5891
▁ㄱㅏㄴㅅㅓㄴ	-5892
▁ㅅㅏㅇㄱㅡㅁ	-5893
▁ㄹㅜㄱㅅㅔㅁㅂㅜ	-5894
▁ㅇㅜㄹㅅㅏㄴㄱㅘㅇㅇㅕㄱㅅㅣ	-5895
▁ㄷㅗㅇㅈㅓㅇ	-5896
▁ㅈㅓㄴㄴㅕㄴ	-5897
▁ㄲㅗㄱㅈㅣㅅㅈㅓㅁ	-5898
▁ㄷㅏㄲ	-5899
▁ㅋㅐㄹ	-5900
▁ㅈㅓㄱㅎㅕ	-5901
▁ㄱㅗㅇㅈㅓㄱ	-5902
▁ㅂㅏㄹㄱㅡㅂ	-5903
▁ㅂㅗㄴㄱㅜㄱ	-5904
▁ㄱㅕㅇㅅㅓㅇㅂㅜ	-5905
▁''	-5906
▁ㅁㅣㄱ	-5907
▁ㅇㅕㅇㅁㅜㄴ	-5908
▁ㅈㅓㄴㅅㅗㄱ	-5909
▁ㅊㅣㅇㅊㅏㄴ	-5910
▁ㅁㅏㄹㅆㅡㅁ	-5911
▁ㅅㅓㅇㅍㅗㄱ	-5912
▁ㅎㅔㄱ	-5913
▁ㅎㅏㄱㄱㅣ	-5914
▁ㅎㅕㄴㅇㅡㄴ	-5915
▁ㅇㅕㅇㄷㅡㅇ	-5916
LS	-5917
▁No	-5918
▁ㄹㅖ	-5919
▁ㅂㅕㅇㄱㅣ	-5920
ㅅㅁㅜㄹ	-5921
▁ㅅㅡㅂㅈㅣ	-5922
▁ㅅㅣㄴㅇㅝㄴ	-5923
ach	-5924
▁ㅇㅓㄵ	-5925
▁ㄱㅜㄱㅇㅕㅇ	-5926
▁JT	-5927
ㅂㅔㄹㅌㅡ	-5928
▁ㅂㅔㄹㅌㅡ	-5929
IG	-5930
▁}	-5931
▁ㅁㅏㄹㅁㅣ	-5932
▁ㅊㅗㄱㅁㅐ	-5933
▁ㄱㅗㅇㅈㅗ	-5934
▁ㅇㅑㄱㅈㅏ	-5935
▁ㄱㅏㅇㅂㅕㄴ	-5936
▁ㅇㅔㄴㄷㅣㅇ	-5937
▁1901	-5938
▁ㄷㅏㄹㄱ	-5939
▁ㅇㅕㄹㄷㅗ	-5940
▁ㅌㅗㅇㅂㅗ	-5941
▁ㅇㅚㄴㅅㅗㄴ	-5942
▁ㅈㅜㄴㄱㅕㄹㅅㅡㅇㅈㅓㄴ	-5943
▁MB	-5944
▁ㄱㅣㅅㅂㅏㄹ	-5945
ug	-5946
ㅂㅓㄴㄴㅚ	-5947
▁ㅊㅜㄱㅈㅗ	-5948
ㅁㅏㄱㅈㅓㄴ	-5949
▁ㅇㅞㄴ	-5950
▁ㅅㅏㅅㅍㅗ	-5951
▁ㅅㅐㄴㄷㅡ	-5952
▁ㅅㅐㅇㄹㅑㄱ	-5953
▁ㅅㅐㅇㅅㅐㅇ	-5954
▁ㅈㅓㅇㅈㅓㄱ	-5955
▁AN	-5956
▁ㄷㅏㄱ	-5957
▁ㄷㅏㄴㅊㅜㄱ	-5958
ㄲㅕㅆ	-5959
▁ㅇㅕㅁㅈㅡㅇ	-5960
▁ㅂㅏㅇㅅㅗㅇㅇㅣㄴ	-5961
ys	-5962
▁ㅋㅗㅁㅍㅐㄱㅌㅡ	-5963
▁ㅈㅓㅁㅅㅓㅇㅅㅜㄹ	-5964
ㅆㅡㄹ	-5965
▁ㅇㅐㄹㅂㅓ	-5966
out	-5967
▁kt	-5968
ㅋㅣㄱ	-5969
▁ㅇㅝㄴㅊㅓㄴ	-5970
ㄷㅣㄹ	-5971
ㄷㅓㅇㅇㅣ	-5972
▁ㄱㅗㅇㄱㅏㅁ	-5973
▁ㅈㅜㅇㅎㅕㅇ	-5974
11	-5975
▁ㅂㅜㄴㅅㅜ	-5976
▁ㅇㅜㄹㅍㅡ	-5977
▁ㅈㅓㅇㅁㅜㄴ	-5978
▁ㄷㅗㅇㄴㅔ	-5979
▁ㄷㅜㅇㄱㅡㄹ	-5980
▁THE	-5981
▁ㅂㅗㅇㄱㅓㄴ	-5982
▁ㅇㅕㄴㅅㅡㅇ	-5983
▁134	-5984
ㄲㅏㅌㅉㅗㄱ	-5985
▁ㅈㅣㄱㄱㅕㄹ	-5986
▁ㅇㅗㄱㅅㅜ	-5987
▁ㅊㅏㅇㅊㅜㄹ	-5988
▁ㄱㅗㅇㅇㅖ	-5989
▁EX	-5990
▁ㅂㅜㄹㅌㅏ	-5991
ase	-5992
▁ㅈㅓㅇㅅㅓㅇ	-5993
▁ㅂㅏㄹㄹㅔㄴㅅㅣ	-5994
▁GO	-5995
ㅂㅣㄹㄹㅏ	-5996
▁ㄱㅕㄹㅋㅗ	-5997
▁ㅊㅓㄴㅈㅐ	-5998
ㅂㅜㄹㄱㅛ	-5999
▁ㄴㅏㅁㅈㅗ	-6000
▁ㅂㅗㄱㅇㅛㅇ	-6001
▁ㄷㅏㄴㅇㅢ	-6002
▁ㄷㅗㅇㅇㅣ	-6003
▁ㅇㅕㅆㅇㅡㅁ	-6004
▁ㄷㅏㅂㅂㅕㄴ	-6005
▁ㅈㅓㅇㅅㅓㄴ	-6006
▁ㅎㅡㄴㄷㅡㄹ	-6007
▁ㅁㅗㄳ	-6008
▁ㅎㅏㄴㅈㅗㄱ	-6009
▁ㅎㅏㅁㅈㅓㅇ	-6010
▁ㅈㅓㄴㅇㅟ	-6011
▁ㄱㅣㅁㅈㅔ	-6012
▁ㅂㅜㄹㄲㅗㅊ	-6013
▁IN	-6014
▁ㅅㅔㄱㅅㅡ	-6015
▁ㅇㅕㄴㅇㅣ	-6016
▁ㅎㅗㅁㄱㅜ	-6017
ㄴㅕㅁㄱㅘㄴ	-6018
▁ㄷㅔㄹㄹㅏ	-6019
ㄸㅏㄹ	-6020
▁ㅇㅣㅀㅇㅓ	-6021
▁ㄱㅘㅇㅁㅕㅇ	-6022
ㄷㅗㅇㄱㅣ	-6023
▁ㅊㅗㅇㅁㅜ	-6024
▁ㅈㅜㅇㄱㅗㅇ	-6025
▁ㅅㅓㅇㅈㅣ	-6026
▁ㄱㅗㅇㅁㅕㅇ	-6027
▁ㅇㅏㅂㄷㅜㄹ	-6028
▁ㅂㅜㄴㅁㅕㅇㅎㅣ	-6029
▁1903	-6030
▁ㅇㅕㅁㅅㅐㄱㅊㅔ	-6031
▁ㄴㅏㅁㅈㅏㄱ	-6032
▁ㅇㅣㅂㄱㅜㄱ	-6033
▁ㅈㅓㅇㅇㅠ	-6034
ree	-6035
▁ㄱㅡㅂㅅㅜ	-6036
▁ㅂㅗㄱㅎㅏㅂㅊㅔ	-6037
▁ㅈㅜㅇㅅㅜ	-6038
▁ㅇㅗㄹㄹㅣㅁ	-6039
▁ㅇㅣㅁㄱㅘㄴ	-6040
▁hPa	-6041
ㄴㅏㄴㄷㅗ	-6042
▁ㅅㅗㄴㄲㅗㅂ	-6043
ㅎㅡㄱ	-6044
▁ㅈㅓㄹㄷㅗ	-6045
ㅇㅕㄱㅎㅏㄱ	-6046
ke	-6047
pt	-6048
▁ㅉㅣㄴ	-6049
▁1884	-6050
▁ㄱㅓㅁㅇㅕㄹ	-6051
▁ㄱㅓㅁㅊㅜㄹ	-6052
▁ㄱㅣㅁㅊㅏㅇ	-6053
▁ㅆㅏㅎㅇㅏㅆ	-6054
▁ㄱㅏㄴㄷㅏㄴㅎㅣ	-6055
▁ㅂㅜㄱㅈㅗ	-6056
▁ㄷㅏㄹㄱㅑㄹ	-6057
▁ㅈㅣㄱㅁㅕㄴ	-6058
▁ㄱㅝㄴㅊㅗㅇ	-6059
▁ㅅㅣㄹㅈㅓㄱ	-6060
▁ㄴㅡㄹㄹㅣ	-6061
▁ㅅㅓㄴㅎㅐㅇ	-6062
▁One	-6063
▁ㅅㅐㄴㄷㅣ	-6064
▁Ad	-6065
▁ㅂㅏㄱㅈㅣ	-6066
ㅋㅏㄹㄹㅣ	-6067
▁ㄱㅏㄴㅌㅗ	-6068
▁ㄱㅡㄱㄷㅐ	-6069
▁ㅆㅜ	-6070
ㄴㅓㅎ	-6071
▁ㅇㅕㄱㄹㅑㅇ	-6072
ㅋㅗㄹㄹㅣ	-6073
▁ㅈㅡㄹㄱㅕ	-6074
ㅅㅣㄱㅇㅣㄴ	-6075
▁LA	-6076
▁All	-6077
▁ㅁㅕㄴㅈㅔ	-6078
▁ㄹㅔㅁ	-6079
▁ㅂㅜㅁ	-6080
▁with	-6081
▁ㅅㅓㄴㅇㅜ	-6082
▁ㄱㅏㅇㅎㅐ	-6083
▁ㅈㅣㄱㄱㅕㅇ	-6084
▁ㅍㅗㄱㄱㅕㄱㄱㅣ	-6085
▁Cl	-6086
▁ㅇㅓㄺ	-6087
▁ㅈㅜㄴㅈㅜ	-6088
▁ㄷㅏㄴㅁㅕㄴ	-6089
▁ㅁㅜㄹㅍㅜㅁ	-6090
▁ㅇㅗㅀ	-6091
ㄴㅕㅁㅂㅣ	-6092
ㅊㅓㄴㅅㅏ	-6093
▁ㄷㅗㅇㅎㅕㅇ	-6094
▁ㅅㅏㅇㅇㅡㅇ	-6095
▁Gr	-6096
▁ㅍㅏㅅ	-6097
▁ㅂㅡㄹㄹㅓ	-6098
▁ㅂㅏㅇㄱㅡㄹㄹㅏ	-6099
ㅁㅏㅅ	-6100
▁ㄱㅘㅇㄷㅐ	-6101
▁1800	-6102
▁ㄴㅏㅁㅁㅐ	-6103
▁ㅅㅓㄴㅂㅐ	-6104
▁ㄱㅕㅇㅇㅣㄴ	-6105
▁ㄱㅏㄱㅅㅐㄱ	-6106
▁ㄱㅘㄴㅈㅓㄹ	-6107
▁ㅅㅕㅆ	-6108
ㄱㅗㄱㄷㅗㅇ	-6109
▁ㄱㅐㅇㅅㅣㄴ	-6110
▁ㄷㅏㄴㅈㅓㄹ	-6111
▁ㅊㅏㅇㄴㅕㅇ	-6112
▁ㄷㅟㅅㅂㅏㄷㅊㅣㅁ	-6113
act	-6114
▁ㅇㅕㅁㅅㅗ	-6115
▁ㄱㅜㄴㅅㅏㄴ	-6116
▁ㅅㅏㄴㅊㅜㄹ	-6117
▁ㄷㅔㄹㅌㅏ	-6118
▁ㅇㅝㄴㅂㅗㄴ	-6119
▁ㅅㅏㅇㅌㅡ	-6120
▁ㄷㅏㄴㅎㅐㅇㅂㅗㄴ	-6121
▁ㅇㅝㄴㄹㅛ	-6122
▁ㅂㅜㄴㅊㅜㄹ	-6123
▁ㅋㅓㅁㅂㅐㄱ	-6124
▁ㄴㅏㅅ	-6125
ㄱㅕㄱㅅㅜ	-6126
ㅈㅓㅇㄷㅗㅇ	-6127
▁ㅅㅓㄱㅂㅜㄹ	-6128
▁ㅇㅣㅂㅅㅓㅇ	-6129
▁ㅈㅣㄴㅎㅐㅇㅈㅏ	-6130
▁ㅎㅘㄱㅅㅣㄹㅎㅣ	-6131
CAF	-6132
ㅈㅏㄱㅈㅣ	-6133
▁ㄱㅜㄴㅈㅜㅇ	-6134
ㄹㅔㄱㅌㅓ	-6135
▁ㄱㅏㄹㄹㅐ	-6136
▁ㅊㅓㄴㅎㅏ	-6137
▁ㄱㅣㅁㅎㅗㅇ	-6138
▁ㅁㅣㄴㄱㅏㅁ	-6139
▁ㅊㅓㄴㅇㅕㄴㄱㅣ	-6140
ㅊㅕㅆㅇㅡ	-6141
▁ㄱㅏㄹㅅㅜ	-6142
ㅅㅏㄴㅁㅐㄱ	-6143
▁CN	-6144
▁ㄱㅝㄴㅈㅏㅇ	-6145
▁116	-6146
ㅂㅔㄴㅊㅓ	-6147
▁ㅇㅣㄹㅅㅏㄴ	-6148
▁ㅊㅜㅇㅊㅓㅇㄷㅗ	-6149
▁ㄲㅗㄱㄷㅐ	-6150
▁++	-6151
▁NGC	-6152
ㅅㅓㅇㅈㅜ	-6153
▁ㅈㅏㄹㄹㅏ	-6154
▁ㅈㅓㄴㄱㅜ	-6155
ㅅㅏㄴㅅㅓㅇ	-6156
ㄲㅡㅅ	-6157
▁ㅈㅣㄹㅅㅗ	-6158
▁ㅉㅗㅊㅇㅏ	-6159
▁ㄱㅜㄴㅎㅏㅁ	-6160
▁ㅎㅕㄴㄱㅏㅁ	-6161
▁ㄷㅏㅇㅅㅜ	-6162
ㅇㅠㄱㅊㅓㅇ	-6163
ㄷㅡㅇㅎㅏㄱㅅㅐㅇ	-6164
▁ㅈㅓㄴㅇㅕㅁㅂㅕㅇ	-6165
ㄷㅝㅆ	-6166
▁ㅅㅏㅇㄱㅏ	-6167
▁ㅅㅐㄱㅊㅐ	-6168
▁ㅈㅗㅇㄹㅐ	-6169
▁ㅊㅓㅇㅅㅏㄴ	-6170
▁ㅇㅕㅇㄱㅜㄱㅇㅣㄴ	-6171
▁ㅇㅕㄹㄹㅣㄴㄷㅏ	-6172
ass	-6173
▁ㅎㅘㄹㅈㅜ	-6174
▁2022	-6175
▁ㅊㅓㄹㅍㅖ	-6176
▁ㄱㅜㅇㅈㅜㅇ	-6177
▁ㅈㅓㅇㄷㅗㅇ	-6178
▁ㅈㅓㅇㄹㅣㅂ	-6179
▁ㅂㅓㅂㅈㅓㅇㄷㅗㅇ	-6180
▁ㄴㅏㅁㄷㅗㅇㅅㅐㅇ	-6181
▁ㄷㅡㄹㅇㅣ	-6182
▁ㅇㅗㄹㄷㅡ	-6183
▁ㄱㅗㄱㅁㅜㄹ	-6184
▁Ex	-6185
▁con	-6186
▁ㅋㅗㄴㅌㅔ	-6187
▁ㄱㅏㅇㄱㅏㄴ	-6188
ream	-6189
▁ㄴㅗㅇㅂㅜ	-6190
▁1860	-6191
▁ㅅㅣㄹㅁㅜ	-6192
▁ㅅㅏㅁㅊㅗㄴ	-6193
▁ㅅㅗㄹㄹㅜ	-6194
▁ㅈㅜㅇㄹㅕㅇ	-6195
▁ㅍㅕㅇㅊㅏㅇ	-6196
▁ㅎㅘㄱㅈㅣㄴ	-6197
▁Br	-6198
ㅂㅏㄴㄱㅜ	-6199
▁ㄷㅡㅇㄱㅣ	-6200
ㅅㅓㄴㅇㅘㅇ	-6201
▁ㄷㅗㅇㅈㅗ	-6202
ㅁㅜㄴㅅㅓ	-6203
▁ㅈㅣㄴㄹㅛ	-6204
▁ㄱㅏㅁㅎㅐㅇ	-6205
▁ㅎㅓㄴㅈㅓㅇ	-6206
▁ㄸㅓㄱ	-6207
ㅌㅣㄹㄹㅣ	-6208
▁ㅅㅓㄹㄱㅛ	-6209
▁ㅇㅐㄴㄷㅓ	-6210
▁ㅇㅕㄴㅂㅗㅇ	-6211
▁ㅌㅡㄱㄱㅝㄴ	-6212
▁ㅍㅔㄴㅅㅣㅇ	-6213
▁ㅎㅕㅁㅇㅗ	-6214
▁ㅂㅜㄴㄹㅑㅇ	-6215
▁ㅅㅣㄹㅁㅏㅇ	-6216
▁ㅈㅏㅇㅂㅕㄱ	-6217
▁ㄱㅏㅇㄴㅏㅁㄱㅜ	-6218
▁ㄱㅗㅇㅇㅛㅇㅇㅓ	-6219
▁ㅇㅓㅅ	-6220
▁ㅈㅏㅂㅎㅕ	-6221
▁ㅅㅏㅇㅂㅓㅂ	-6222
▁122	-6223
▁ㅅㅣㄴㅊㅜㄱ	-6224
▁1897	-6225
ㅌㅔㄹㄹㅔ	-6226
ㅂㅏㅇㅅㅏㄴ	-6227
ㅂㅏㅇㅇㅜㄹ	-6228
▁ㅇㅣㅂㄱㅏㄱ	-6229
ㅇㅏㄵ	-6230
▁ㄹㅠㄴ	-6231
▁ㅂㅏㄹㄹㅕㅇ	-6232
▁ㅈㅗㅇㅈㅓㅁ	-6233
▁ㅌㅡㄱㅂㅕㄹㅈㅏ	-6234
▁ㄱㅗㅇㄱㅗ	-6235
▁ㄴㅏㄹㅋㅏ	-6236
▁ㄷㅏㅇㅎㅏㄴㄷㅏ	-6237
▁DM	-6238
▁ㄴㅛ	-6239
▁ㄱㅡㄹㄹㅐ	-6240
▁ㅁㅕㅇㅎㅏ	-6241
▁ㄱㅜㄴㅊㅓㅇ	-6242
▁ㅇㅏㄴㄱㅕㅇ	-6243
ㅌㅡㄹㄹㅐㄴㅌㅏ	-6244
ii	-6245
▁220	-6246
▁;&	-6247
▁Is	-6248
ㄷㅠㅁ	-6249
clude	-6250
▁ㅅㅏㅇㄱㅕㅇ	-6251
▁ㅈㅓㄴㅅㅏㄴ	-6252
▁ㅇㅣㅂㅈㅜ	-6253
▁ㅇㅛㅇㅇㅏㅁ	-6254
▁ㅈㅓㄴㅂㅗㄱ	-6255
ㅌㅡㄹㄹㅣ	-6256
▁ㄷㅗㄹㅂㅗ	-6257
▁ㅂㅜㄹㄹㅣㄴ	-6258
ㅈㅏㄱㅅㅏ	-6259
▁ㅈㅗㅇㅍㅏ	-6260
▁ㄱㅗㅇㅎㅘㅇ	-6261
▁ㅂㅏㄹㅋㅏㄴ	-6262
▁ㅅㅏㅇㄱㅗ	-6263
▁ㅈㅣㄴㅎㅐ	-6264
ㅇㅛㅇㄱㅐㄱ	-6265
▁ㅇㅣㄹㅍㅏ	-6266
▁ㅎㅓㄴㅅㅣㄴ	-6267
ㄹㅓㄹㄹㅣ	-6268
▁ㄷㅡㅇㅇㅛㅇ	-6269
▁ㅌㅡㄱㅅㅐㄱ	-6270
▁ㅈㅜㅇㄱㅗㅇㅇㅓㅂ	-6271
▁ㅁㅏㄱㅅㅡ	-6272
▁ㅎㅏㄱㄷㅐ	-6273
▁ㅎㅕㅇㅈㅗ	-6274
▁ㅎㅏㅁㅇㅑㅇ	-6275
▁133	-6276
▁ㅈㅓㄹㄷㅏㄴ	-6277
▁ㅎㅏㅁㅅㅓㄴ	-6278
▁ㄱㅕㄱㅈㅏ	-6279
▁ㅈㅏㅇㅈㅏ	-6280
▁ㄱㅕㄴㅇㅣㄴ	-6281
▁ㅇㅕㅇㄷㅡㅇㅍㅗ	-6282
HO	-6283
▁BM	-6284
ㅇㅗㄹㄹㅗ	-6285
▁ㅂㅜㄹㅅㅣㄴ	-6286
▁ㅂㅣㄴㄷㅗ	-6287
▁ㅇㅠㄴㅂㅗ	-6288
▁ㅂㅏㄴㅈㅓㄴ	-6289
▁ㅇㅏㄴㅅㅏㄴ	-6290
▁ㅇㅣㄹㄱㅘㄹ	-6291
▁ㅈㅓㄴㅂㅏㅇ	-6292
ㅇㅣㄹㅇㅡ	-6293
ㅋㅗㅂㅌㅓ	-6294
▁ㅁㅜㄴㄱㅕㅇ	-6295
▁ㅇㅣㄴㅈㅣㄹ	-6296
GA	-6297
iss	-6298
▁ㅂㅗㄱㄱㅝㄴ	-6299
▁ㅇㅡㅁㅎㅑㅇ	-6300
▁ㄴㅐㅁㅅㅐ	-6301
▁ㄹㅏㅂ	-6302
ake	-6303
▁ㄱㅏㅇㄷㅐ	-6304
▁ㅂㅕㄱㅎㅘ	-6305
▁ㅅㅜㄱㅂㅜ	-6306
▁ㄱㅗㅇㅅㅗㄴ	-6307
▁ㄲㅡㄶㅇㅣㅁㅇㅓㅄㅇㅣ	-6308
▁ㄱㅓㅌㅂㅗ	-6309
▁ㅇㅑㄱㅅㅏ	-6310
▁1880	-6311
▁ㅅㅓㄱㅎㅚ	-6312
▁ㅇㅏㄴㅊㅣ	-6313
UR	-6314
▁ㅁㅜㄹㄱㅏ	-6315
▁ㅈㅓㅇㅎㅘ	-6316
▁ㅅㅓㄹㄹㅣㅂㅈㅏ	-6317
▁ㅅㅕㄹ	-6318
▁ㅅㅓㄴㄷㅐ	-6319
▁ㅅㅣㄴㄷㅗㅇ	-6320
own	-6321
▁ㄱㅏㅆㅇㅡ	-6322
▁ㅎㅔㄹㄹㅠㅁ	-6323
▁ㄴㅏㅁㅇㅑㅇㅈㅜ	-6324
ㄹㅓㅅ	-6325
ㅂㅓㅂㅅㅏ	-6326
▁ㅂㅏㄴㄱㅜㄴ	-6327
▁CBS	-6328
▁ㄷㅣㄹ	-6329
▁ㄴㅗㅇㅇㅓ	-6330
▁ㅎㅡㅇㅅㅓㄴㄷㅐ	-6331
▁ㅈㅏㅇㅈㅔ	-6332
▁ㅊㅓㅇㅅㅐㄱ	-6333
▁ㅈㅣㄴㅅㅜ	-6334
ㅇㅟㅇ	-6335
▁ㄷㅗㄹㄱㅣ	-6336
▁ㄱㅏㅇㅊㅓㄹ	-6337
▁ㅂㅓㄹㅇㅣㄴ	-6338
▁ㄴㅗㅇㅅㅏ	-6339
▁ㅂㅗㄹㅅㅖ	-6340
▁ㅅㅓㄴㄷㅗㅇ	-6341
▁ES	-6342
▁ㅁㅣㄹㄹㅓ	-6343
ㅅㅗㄱㅈㅏㄱ	-6344
▁ㄱㅡㄱㄹㅏㄱ	-6345
▁ㄱㅡㄱㅈㅏㄱㄱㅏ	-6346
ㅘㅇ	-6347
ㅈㅓㅇㅇㅝㄴ	-6348
▁ㅅㅗㄱㅍㅕㄴ	-6349
ㄱㅘㄴㅎㅏㄱㄱㅛ	-6350
▁ㅇㅕㄲ	-6351
ㅍㅡㄹㄹㅗ	-6352
▁ㅁㅗㄱㅇㅛ	-6353
▁ㅂㅜㄹㅇㅓ	-6354
▁ㅅㅣㄹㅈㅐ	-6355
▁ㄱㅜㄱㅁㅣㄴㅎㅚ	-6356
ork	-6357
▁PR	-6358
▁ㄱㅔㄴㅈㅣ	-6359
▁ㅎㅏㄴㅌㅔ	-6360
ㄱㅜㅇㅎㅘ	-6361
▁ㄱㅕㅇㅇㅟ	-6362
▁ㅇㅝㄴㄱㅕㄱ	-6363
▁ㅁㅣㄴㄱㅏㄴㅇㅣㄴ	-6364
Hz	-6365
lo	-6366
▁ㅇㅗㄹㄹㅣㅁㅍㅣ	-6367
▁or	-6368
ㅅㅓㄴㅈㅓㄴ	-6369
▁ㅁㅣㄴㅈㅓㅇ	-6370
▁ㅂㅜㄱㄱㅕㅇ	-6371
▁ㅇㅕㄴㄷㅗㅇ	-6372
▁ㅎㅕㅂㄷㅗㅇ	-6373
ㅅㅡㄹㄹㅔ	-6374
▁ㅅㅣㅁㅇㅑ	-6375
▁ㅇㅣㅂㅇㅑㅇ	-6376
▁ㄱㅕㄹㅈㅔ	-6377
old	-6378
▁ㅈㅓㅂㅅㅜ	-6379
▁ㅊㅓㅇㅈㅏ	-6380
▁ㅇㅘㅇㅈㅓㅇ	-6381
▁ㄷㅏㄷㅎㅣㄴ	-6382
ㄹㅓㄹㄹㅣㅁㅍㅣㄱ	-6383
▁pro	-6384
ㅈㅣㄱㅇㅝㄴ	-6385
▁ㅈㅗㅇㅁㅏㄹ	-6386
▁ㅁㅏㄱㅅㅣ	-6387
ㄷㅗㅇㄱㅜㄴ	-6388
▁Ro	-6389
ㅌㅔㅂ	-6390
ㄷㅡㅇㅅㅣㄱ	-6391
▁ㅈㅏㅇㄷㅏㄴ	-6392
▁ㅈㅓㅇㄱㅕㅇ	-6393
()	-6394
ㅇㅣㅂㅈㅏ	-6395
▁ㅎㅘㅇㄷㅗ	-6396
ㄱㅗㅁ	-6397
▁ㅉㅏㅇ	-6398
▁ㅎㅏㅁㅈㅏ	-6399
ㅎㅗㄹㄹㅡㅁ	-6400
▁ㅈㅜㅇㅇㅝㄴ	-6401
▁ㅈㅣㄴㅈㅓㄴ	-6402
▁ㄴㅏㄲ	-6403
▁ㄱㅜㄱㅅㅜ	-6404
▁ㅂㅜㄴㅍㅏ	-6405
▁ㄱㅕㄹㅍㅣㅂ	-6406
▁ㅂㅐㄹ	-6407
▁ㅊㅣㅁㅊㅔ	-6408
▁ㅇㅕㄴㅁㅗㅅ	-6409
ㄷㅗㅇㅎㅏ	-6410
ㄱㅗㅇㅅㅏㄴ	-6411
▁ㅎㅏㄱㄹㅕㄱ	-6412
▁ㅆㅢ	-6413
▁Mus	-6414
▁ㅌㅜㄴ	-6415
▁GDP	-6416
▁ㄱㅏㅁㅇㅏㄴ	-6417
▁ㅁㅏㅈㅂㅜㅌ	-6418
▁ㅂㅕㅇㅁㅏ	-6419
ㅈㅓㄴㄱㅣ	-6420
ㄷㅗㅁ	-6421
ection	-6422
▁ㄷㅓㅍㅇㅕ	-6423
▁ㅁㅏㄴㄴㅕㄴ	-6424
▁NE	-6425
▁ㅅㅑㄹ	-6426
ㄹㅡㅁㄷㅏㅂ	-6427
▁ㄱㅣㅁㅇㅗㄱ	-6428
ㄷㅏㄴㅈㅏㅇ	-6429
ㅅㅣㄴㅅㅓㅇ	-6430
▁ㅃㅛ	-6431
▁ㅁㅗㅇㄱㅗ	-6432
▁ㄱㅗㅇㅇㅑㄱ	-6433
ㅎㅏㄹㅅㅣ	-6434
▁ㅇㅏㄴㄷㅔ	-6435
▁ㅇㅑㄱㅎㅐ	-6436
ㅎㅡㄴ	-6437
▁only	-6438
▁ㅁㅐㄴㅎㅐ	-6439
▁ㅊㅏㄹㄹㅣ	-6440
▁ㅊㅏㅇㅇㅢ	-6441
ㅊㅓㄴㅁㅕㄴ	-6442
▁ㅂㅓㄴㅅㅓㅇ	-6443
ick	-6444
▁132	-6445
▁ㅂㅔㄱ	-6446
▁ㅅㅜㄱㅈㅜ	-6447
▁ㄱㅣㅁㅁㅣㄴ	-6448
ix	-6449
▁ㅊㅗㅇㄱㅣ	-6450
▁ㅁㅣㄹㄹㅏㄴ	-6451
▁ㅂㅗㄱㅅㅣㄱ	-6452
▁ㅈㅏㅇㅇㅝㄴ	-6453
▁ㅊㅓㅇㄷㅗㅇㄱㅣ	-6454
▁ㅈㅝ	-6455
ㅇㅓㅂㅅㅗ	-6456
▁ㄱㅜㄱㅇㅏㄱ	-6457
ㅁㅔㄴㅅㅡ	-6458
▁ㅅㅏㄴㅌㅣ	-6459
▁ㅇㅕㄱㄷㅗ	-6460
ㄷㅡㄹㅇㅣㄴ	-6461
▁ㅈㅓㄴㄱㅕㄱ	-6462
▁ㅍㅕㅇㅇㅏㄴㅂㅜㄱㄷㅗ	-6463
▁SL	-6464
▁ㄱㅓㄹㄹㅕㅆ	-6465
ㄸㅏㅇ	-6466
▁ㄱㅓㄴㄹㅠㅇ	-6467
▁Ph	-6468
▁USS	-6469
▁GN	-6470
ㅅㅟㅂ	-6471
ㅇㅣㄹㅈㅡ	-6472
▁ㅇㅣㄴㅍㅡ	-6473
▁ㅅㅏㅁㄱㅜㄱㅅㅏ	-6474
▁ㅍㅗㄱㄹㅗ	-6475
▁ㄴㅓㄴ	-6476
▁ㅈㅣㅁㅈㅏㄱ	-6477
lass	-6478
▁ㅂㅗㅇㅅㅜ	-6479
ild	-6480
ㅅㅜㄹㅅㅏ	-6481
▁ㅇㅗㄴㄱㅏ	-6482
▁ㅂㅏㄺㅎㅣㄴ	-6483
▁ㅎㅏㅂㄷㅏㅇ	-6484
▁ㅂㅣㅊㄴㅏ	-6485
▁ㅇㅑㄱㅎㅏ	-6486
▁AD	-6487
ence	-6488
ㄹㅡㄹㅌㅔ	-6489
ㅈㅣㅅㅁㅏㄹ	-6490
▁ㅍㅕㅇㅇㅏㄴㄴㅏㅁㄷㅗ	-6491
▁La	-6492
ㅅㅣㅂㅈㅏ	-6493
▁ㅈㅓㅇㄱㅜㄱ	-6494
▁ㅅㅔㄴㄱㅗ	-6495
ㄱㅘㄴㄹㅣ	-6496
▁ㅇㅏㅇㄱㅗ	-6497
▁ㅅㅣㄴㅅㅏㅇ	-6498
▁ㄱㅕㅇㅈㅐㅇㄹㅕㄱ	-6499
ear	-6500
▁ㄷㅏㄴㄱㅘ	-6501
ㄹㅗㄱㅅㅐㄱ	-6502
▁ㅇㅑㅇㅅㅓㅇㅈㅏ	-6503
▁ㄴㅗㅇㅅㅏㄴㅁㅜㄹ	-6504
ㅇㅟㅅ	-6505
▁un	-6506
▁EBS	-6507
▁ㄷㅐㅅ	-6508
▁ㅅㅣㅁㅎㅘ	-6509
▁ㅈㅏㅇㄷㅐ	-6510
ㄱㅜㄱㅁㅣㄴ	-6511
▁ㄱㅏㅁㅆㅏ	-6512
▁ㄱㅗㅇㅍㅏ	-6513
ance	-6514
ㄹㅡㄴㅅㅗㄴ	-6515
ㅎㅓㄴㅇㅕㅇ	-6516
▁1885	-6517
▁CONCA	-6518
▁ㄷㅗㅇㅎㅐㅇ	-6519
▁ㅈㅜㅇㅅㅐㅇ	-6520
▁ㅎㅕㄴㅈㅣㄱ	-6521
▁ㅇㅛㅇㅅㅓ	-6522
▁ㄱㅏㅂㅇㅗㅅ	-6523
▁ㅌㅏㄱㅇㅝㄹ	-6524
▁ex	-6525
▁ㄹㅡㄴ	-6526
ㅅㅏㅇㅅㅣ	-6527
▁ㅂㅏㄴㅇㅕㄱ	-6528
ㄹㅐㅇㅋㅡㄹㄹㅣㄴ	-6529
OV	-6530
▁To	-6531
▁NAS	-6532
ㄴㅕㅁㅇㅣㄹ	-6533
▁CONCACAF	-6534
ㅇㅜㄱㅇㅣ	-6535
▁ㅌㅏㅂㅅㅣㄴ	-6536
▁ㅎㅕㄴㅎㅐㅇ	-6537
ㅍㅗㄴㅅㅓ	-6538
▁ㅎㅏㄴㅊㅡㅇ	-6539
EM	-6540
▁ㄴㅓㅁㄱㅣ	-6541
▁ㄷㅗㅇㅇㅛ	-6542
▁ㅇㅗㄴㄷㅐ	-6543
ㅎㅏㅂㅅㅣㄹ	-6544
include	-6545
▁ㅈㅣㅂㄱㅕㄹ	-6546
▁ㅎㅗㅇㅁㅜㄴㄱㅘㄴ	-6547
▁450	-6548
▁ㅅㅐㅇㅅㅓㄴ	-6549
▁ㅈㅜㅇㅇㅏㅇㅂㅜ	-6550
▁@	-6551
▁Sy	-6552
▁ㄱㅜㄱㅂㅗ	-6553
ㄸㅟ	-6554
▁ㅁㅜㄴㄱㅗ	-6555
▁ㅈㅜㅇㅅㅓ	-6556
TP	-6557
▁240	-6558
ㅇㅣㄴㅅㅏ	-6559
▁ㅊㅜㄹㅅㅓㄱ	-6560
▁ㅇㅏㅁㅎㅡㄱ	-6561
▁ㅈㅓㄴㄷㅏㄴ	-6562
▁ㄱㅏㄹㄹㅣㄹㄹㅔ	-6563
▁ㅁㅐㅅ	-6564
▁1871	-6565
ㅂㅕㄴㅇㅣ	-6566
▁ㅊㅓㅇㄹㅛㅇ	-6567
▁ㄷㅗㄹㅇㅕㄴㅂㅕㄴㅇㅣ	-6568
GM	-6569
▁":	-6570
▁CEO	-6571
▁ㅅㅐㅇㄱㅣㄴㄷㅏ	-6572
▁Mar	-6573
▁ㅎㅗㄹㄹㅣ	-6574
▁ㄲㅗㅂㅎㅣㄴㄷㅏ	-6575
▁ㅇㅏㄹㄹㅐ	-6576
▁ㄴㅏㅁㅅㅏㄴ	-6577
▁ㄷㅏㅇㅇㅕㄴㅎㅣ	-6578
▁ㅂㅗㄱㅇㅡㅁㅅㅓ	-6579
▁ㄱㅜㄱㅇㅠ	-6580
ㅌㅓㄱ	-6581
▁ㅁㅕㅇㅅㅗ	-6582
▁ㅍㅕㅇㅁㅣㄴ	-6583
▁CM	-6584
▁ㅅㅛㄴ	-6585
▁ㅅㅏㅇㄱㅣ	-6586
▁ㅋㅣㅇㅅㅡ	-6587
▁ㅅㅏㅇㅇㅕㄴ	-6588
▁ㅅㅣㄴㅈㅗㅇ	-6589
▁1200	-6590
▁1870	-6591
ㅇㅣㄴㄷㅡ	-6592
▁ㅈㅓㄱㄱㅜㄴ	-6593
▁1600	-6594
▁ㄱㅏㅇㅎㅢ	-6595
▁ㄴㅏㄱㅎㅏ	-6596
▁ㅅㅏㄹㄹㅕ	-6597
▁ㄷㅡㅇㄱㅡㄱ	-6598
OD	-6599
ans	-6600
▁ㅈㅡㅁ	-6601
ㄷㅡㄹㅇㅓ	-6602
ㅈㅏㄱㅁㅜㄹ	-6603
EG	-6604
RA	-6605
ㅅㅏㄱㅅㅡ	-6606
▁ㄴㅏㄴㅇㅣ	-6607
ㄱㅅㅕㄴ	-6608
ivers	-6609
ㅇㅓㄴㅈㅏ	-6610
▁ㅂㅏㄹㄱㅏㄱ	-6611
▁sc	-6612
▁ㄱㅘㄹ	-6613
▁ㅅㅗㅇㄷㅗ	-6614
▁ㅋㅜㄱ	-6615
▁ㅎㅏㅂㅅㅡ	-6616
▁ㅇㅏㅍㅉㅗㄱ	-6617
▁ㄷㅗㅇㅁㅜㄹㅇㅝㄴ	-6618
▁ㅎㅐㄴ	-6619
▁ㅊㅜㄹㄱㅏ	-6620
▁ㄱㅣㅁㅂㅕㅇ	-6621
▁ㅅㅣㄴㅈㅓㅇ	-6622
▁ㄱㅗㅇㅍㅛ	-6623
▁ㄷㅗㅇㅇㅠ	-6624
▁ㅈㅓㅇㅈㅔ	-6625
▁ㅍㅡㄹㄹㅐㄴ	-6626
▁ㅅㅓㅇㄴㅏㅁㅅㅣ	-6627
ㄹㅓㅎㅈㅣ	-6628
ㅁㅜㄴㅈㅏ	-6629
▁ㄷㅗㄹㅇㅣㅂ	-6630
▁ㅅㅓㅇㄹㅕㅇ	-6631
▁ㄱㅗㅇㅊㅓㄴ	-6632
▁ㄱㅘㄴㅁㅜㄴ	-6633
▁ㅇㅏㅍㅈㅏㅇ	-6634
▁ㅈㅓㅇㄱㅘㄴ	-6635
ㅌㅗㄱㅎㅗㄹㄹㅡㅁ	-6636
ish	-6637
ㄲㅝㅆ	-6638
▁ㅂㅐㄴㅋㅜ	-6639
▁ㅍㅕㄴㅈㅣㅂㅈㅏ	-6640
▁ㅍㅕㄴㅈㅔ	-6641
▁ㄱㅜㅇㄱㅝㄹ	-6642
▁ㅇㅏㅅ	-6643
ㅅㅗㄱㅂㅓ	-6644
▁ㄱㅡㄱㄷㅗ	-6645
▁ㅅㅗㄱㅈㅜ	-6646
▁ㅂㅣㄴㅂㅓㄴ	-6647
▁ㅃㅓㄴ	-6648
ㄷㅏㄴㅂㅓㅂㅇㅣㄴ	-6649
▁ㅅㅓㄴㅈㅏㅇ	-6650
▁ㄱㅣㅁㅈㅓㅇㅇㅡㄴ	-6651
ㅇㅔㅁ	-6652
▁ㅎㅠㅇㄴㅗ	-6653
ㅈㅏㄹ	-6654
▁ㄱㅡㄴㅅㅏ	-6655
▁ㄹㅓㄱㅂㅣ	-6656
▁ㄱㅏㄴㅅㅣㄴ	-6657
▁ㄷㅡㄹㄹㅕ	-6658
▁ㄱㅓㅁㅈㅓㅇ	-6659
▁ㄴㅡㅇㅅㅓㄴ	-6660
▁ㄷㅗㄹㅊㅜㄹ	-6661
▁CH	-6662
ㄱㅏㅇㅇㅏㅁ	-6663
▁ㅇㅕㄹㅅㅣㅁ	-6664
▁ㅎㅏㅁㄱㅕㅇㄴㅏㅁㄷㅗ	-6665
ㅂㅕㅂ	-6666
ㅇㅣㅅ	-6667
▁ㄱㅕㅇㅎㅢ	-6668
▁ㅌㅡㄱㅈㅓㄴ	-6669
▁ㅌㅗㅇㅌㅡㄹㅇㅓ	-6670
▁ㄱㅗㅇㅁㅣㄴㅇㅘㅇ	-6671
▁ㅅㅣㄹㅎㅓㅁㅅㅣㄹ	-6672
oun	-6673
▁ㄱㅘㅇㄷㅗ	-6674
▁ㅅㅏㄴㅎㅗ	-6675
▁ㅍㅕㅇㅎㅕㅇ	-6676
▁ㅂㅏㄱㅎㅓㄴㅇㅕㅇ	-6677
▁ㅁㅣㄴㅇㅛ	-6678
▁ㅇㅣㅂㅅㅜ	-6679
ㅊㅓㄴㄷㅗㅇ	-6680
▁ㅁㅕㅇㅂㅜㄴ	-6681
▁DD	-6682
ㅈㅓㅇㅅㅏ	-6683
▁ㅇㅡㄹㄲㅏ	-6684
▁ㄱㅡㄹㄹㅓ	-6685
▁ㅂㅜㄴㄱㅘ	-6686
▁ㄱㅏㅇㄹㅕㅇ	-6687
ㅅㅡㅇㅂㅜㄹㄱㅛ	-6688
are	-6689
▁NT	-6690
▁ㅁㅗㅁㅌㅗㅇ	-6691
ㅇㅠㄱㅈㅏ	-6692
▁ㅊㅏㅁㅅㅏ	-6693
ㄱㅜㄴㅈㅓㅇ	-6694
▁ㅁㅓㅇ	-6695
▁ㄱㅏㅁㄱㅡㅁ	-6696
▁ㅎㅏㄱㅅㅓㄹ	-6697
▁ㄱㅕㅇㅅㅣ	-6698
▁ㄷㅗㅇㅊㅏㅁ	-6699
▁ㅇㅏㄹㄹㅔㄱㅅㅡ	-6700
▁ㅇㅑㅌ	-6701
▁ㅇㅕㄴㄱㅡㄱㅂㅐ	-6702
▁AV	-6703
▁ㄴㅏㅈㅊㅜ	-6704
ㅎㅐㅇㅅㅓㄴ	-6705
ㅎㅘㄴㄱㅕㅇ	-6706
▁ㅈㅣㅇㅂㅕㅇ	-6707
ㅅㅓㅇㅅㅣ	-6708
▁ㄱㅏㅁㄷㅗㅇ	-6709
▁ㅇㅗㄴㄱㅏㅈ	-6710
▁ㅌㅗㅇㅇㅕㄱ	-6711
EL	-6712
fe	-6713
lat	-6714
▁ㅅㅏㅇㄱㅡㅂ	-6715
▁ㅅㅣㄴㅁㅜㄴㅅㅏ	-6716
ㅈㅜㅇㅊㅜ	-6717
ㅅㅏㄴㅇㅓㅂ	-6718
ㅊㅏㅇㅎㅗ	-6719
▁ㅇㅕㅇㅇㅖ	-6720
▁ㅅㅏㅁㅈㅗㄴ	-6721
▁ㅇㅏㄴㄴㅕㅇ	-6722
irl	-6723
▁ㅂㅜㄹㅎㅐㅇ	-6724
ㅁㅜㄴㄱㅜ	-6725
▁ㅇㅕㄴㅎㅏㄴ	-6726
ㅃㅓ	-6727
ical	-6728
▁210	-6729
▁ㄱㅣㅁㅇㅝㄴ	-6730
▁ㅋㅏㄹㄹㅓㅁ	-6731
FL	-6732
▁ㅅㅐㅇㄱㅖ	-6733
ㄹㄹㅡㄴ	-6734
ㅊㅓㄴㄹㅜ	-6735
▁ㄱㅘㄴㅊㅓㅇ	-6736
ㄴㅗㄹㅇㅣ	-6737
ㄹㅏㅇㅋㅗ	-6738
ㅁㅗㅇㅈㅜ	-6739
▁ㄱㅣㄴㅌㅔ	-6740
▁ㄷㅗㄱㄷㅗ	-6741
▁ㅌㅗㅇㅇㅛㅇ	-6742
ㅂㅡㄹㄹㅐㄴㄷㅡ	-6743
ㅂㅏㅁ	-6744
ㅊㅏㄶ	-6745
▁ㅎㅘㄱㄱㅗ	-6746
▁ㅋㅏㄹㅂㅐㅇ	-6747
▁ㅇㅛㅇㅇㅣㄴㅅㅣ	-6748
ㅇㅜㄴㄷㅐ	-6749
ㅇㅏㅁㄷㅗㅇ	-6750
▁ㅎㅘㄹㅂㅏㄹㅎㅣ	-6751
▁ㅂㅔㄴㅊㅣ	-6752
ㅌㅗㅇㅇㅣㄹ	-6753
▁ㅅㅓㅇㅎㅘ	-6754
▁ㅊㅣㄴㅂㅜㄴ	-6755
▁ㅇㅐㄱㅅㅔ	-6756
60	-6757
▁ㅈㅡㅇㅈㅗ	-6758
▁ㅎㅔㄹㅅㅣㅇ	-6759
▁ㅂㅔㄴㅊㅓ	-6760
▁ㄴㅗㅇㄱㅕㅇ	-6761
▁ㅂㅜㄹㅂㅕㄴ	-6762
▁Jo	-6763
▁ㅁㅐㅇㅅㅔ	-6764
▁ㅈㅓㄴㄹㅐ	-6765
▁ㅈㅓㄴㄴㅏㄹ	-6766
▁ㅎㅘㅇㅅㅗ	-6767
▁ㅅㅓㅁㅅㅔ	-6768
ㅁㅐㄱㅅㅡ	-6769
▁ㅂㅗㅇㅎㅘ	-6770
▁ㄱㅘㄴㅎㅐㅇ	-6771
▁pr	-6772
▁ㅊㅗㅇㅌㅗㅇ	-6773
▁ㄱㅕㅇㅈㅓㄴㅊㅓㄹ	-6774
▁he	-6775
▁ㄱㅏㅁㅅㅜ	-6776
▁ㅈㅓㅇㄱㅓ	-6777
▁ㅇㅡㅁㅇㅜㄴ	-6778
▁ㄱㅏㄱㅅㅓㅇ	-6779
▁ㅂㅏㅇㅋㅗㄱ	-6780
▁ㅁㅔㅅ	-6781
ㄹㅏㄴㅌㅗ	-6782
▁ㄱㅗㅇㅎㅠ	-6783
ㄴㅏㄴㅅㅓㅇ	-6784
▁ㅂㅏㄴㅅㅓㅇ	-6785
▁ㅅㅣㄹㅈㅗㄴ	-6786
▁Ma	-6787
▁ㅂㅚ	-6788
ㄱㅜㄴㄷㅏ	-6789
▁ㄷㅡㄴㄷㅏ	-6790
▁ㅁㅏㅈㄷㅐ	-6791
▁ㄴㅏㅁㅇㅛㅇ	-6792
▁ㅅㅗㅇㅅㅣㄴ	-6793
▁ㅈㅡㅇㅇㅣㄴ	-6794
ㅌㅏㄹㄹㅜ	-6795
▁ㅂㅐㄱㄷㅜ	-6796
▁ㅂㅕㄹㅅㅔ	-6797
ㅈㅓㅇㅇㅏㄴ	-6798
▁ㅇㅝㄴㅅㅣㅁ	-6799
▁ㅇㅝㄴㅌㅗㅇ	-6800
▁ㅊㅏㅇㅁㅜㄴ	-6801
ㅎㅕㄴㄷㅗㅇ	-6802
▁ㅅㅣㄴㅂㅏㄹ	-6803
▁ㅇㅣㄹㄷㅏㅇ	-6804
▁ㅊㅗㅇㅇㅐ	-6805
▁ㅂㅐㄹㄹㅣ	-6806
▁ㅈㅓㅂㅇㅓ	-6807
▁ㅇㅕㅇㅈㅓㅇ	-6808
AF	-6809
EE	-6810
▁ㅂㅗㄹㄹㅗ	-6811
▁ㅎㅏㅂㅊㅣㄴ	-6812
▁ㅋㅡㄹㄹㅣㄴㅌㅓㄴ	-6813
▁ㅂㅓㄱ	-6814
▁ㅇㅔㅇ	-6815
▁ㅎㅓㅅ	-6816
▁ㄷㅏㅇㄴㅐ	-6817
▁ㅊㅓㄴㄱㅓ	-6818
▁ㄱㅜㄱㄱㅗㅇ	-6819
▁ㅂㅏㄱㅈㅗㅇ	-6820
▁ㅊㅓㄴㅇㅘㅇ	-6821
▁ㅂㅏㄴㄹㅏㄴㄱㅜㄴ	-6822
▁ㅂㅗㅅ	-6823
▁ㄱㅜㄱㄱㅛ	-6824
▁ㄴㅔㅅㅉㅐ	-6825
▁ㅇㅑㄱㅎㅗㄴ	-6826
▁ㅂㅗㄴㅈㅏㄱ	-6827
▁ㅋㅏㄴㄱㅜㄱ	-6828
▁ㄹㅔㄹ	-6829
▁ㅍㅔㄹㄹㅗ	-6830
▁ㅅㅓㄴㅊㅓㄴ	-6831
▁ㅌㅖㄴㅈㅣㄴ	-6832
ㅅㅕㅆ	-6833
▁ABC	-6834
▁AKB	-6835
ㅅㅏㅇㅍㅏ	-6836
▁ㅈㅓㅇㅇㅡㅂ	-6837
▁ㄱㅣㅁㅇㅠ	-6838
▁ㅅㅐㄱㅅㅗ	-6839
▁ㅇㅜㄴㅇㅣㅁ	-6840
▁ㅊㅣㄱㄹㅕㅇ	-6841
ㄱㅘㄴㅈㅣ	-6842
ㅇㅓㄹㄹㅣ	-6843
▁ㅈㅏㅇㅅㅣ	-6844
▁ㅈㅓㅇㅈㅗㅇ	-6845
▁ㅅㅡㅂㅇㅠㄴ	-6846
▁ㅊㅠ	-6847
ㄴㅓㄹㅌㅣ	-6848
ica	-6849
▁ㅇㅏㄴㄴㅏ	-6850
▁ㅅㅗㅇㅊㅜㄹ	-6851
▁ㅇㅕㄴㅅㅏㄴㄱㅜㄴ	-6852
ey	-6853
▁ㅂㅜㄹㅅㅏ	-6854
▁ㅅㅓㅇㅅㅣㄹ	-6855
▁int	-6856
▁ㅋㅓㄴㅌㅔ	-6857
▁ㄱㅕㅇㅈㅣㄹ	-6858
▁ㄱㅣㅁㅎㅕㅇ	-6859
▁Fr	-6860
▁Live	-6861
▁ㅈㅓㄱㅇㅚ	-6862
ㅅㅣㄴㅁㅜㄴ	-6863
▁ㅈㅣㄱㅌㅗㅇ	-6864
▁ㄱㅕㄱㅊㅏ	-6865
▁ㅂㅏㄴㅎㅏ	-6866
▁ㅇㅡㄴㄱㅓ	-6867
▁ㅈㅜㅇㅎㅏㅂ	-6868
▁ㅌㅏㄹㄹㅣ	-6869
▁ㅋㅚㄹㄹㅡㄴ	-6870
▁ㅅㅣㄷ	-6871
▁ㅂㅐㄱㄱㅘ	-6872
IL	-6873
ㅍㅓㅇ	-6874
ㅂㅜㄱㄱㅜ	-6875
▁ㅆㅏㅇㄷㅐ	-6876
ㄹㅔㄱㅅㅕㄴ	-6877
ㅅㅣㄴㄹㅗㄴ	-6878
▁ㅇㅓㅁㅁㅣㄹ	-6879
▁ㅈㅜㅇㅅㅏㅇ	-6880
▁ㅁㅗㅅㅎㅐㅆㅇㅡ	-6881
bo	-6882
▁1889	-6883
ㅊㅜㅇㄹㅠ	-6884
▁So	-6885
ㄹㅗㄹㄹㅓ	-6886
▁ㅈㅜㅇㅌㅚ	-6887
▁ㅍㅣㄱㅊㅓ	-6888
▁ㄷㅗㅇㅎㅑㅇ	-6889
▁ㅈㅓㄴㄷㅏㅁ	-6890
span	-6891
tern	-6892
▁JTBC	-6893
▁ㄱㅕㅇㅎㅗ	-6894
▁ㄱㅕㄹㅂㅕㄹ	-6895
▁ㅅㅏㄴㅅㅓㅇ	-6896
▁ㅅㅏㅁㄹㅣㅁ	-6897
ost	-6898
ㅐㅇㅇㅣ	-6899
▁onlyinclude	-6900
▁API	-6901
▁ㅂㅜㄹㅌㅐ	-6902
▁ㅅㅡㄹㅎㅏ	-6903
▁ㅎㅏㅇㅁㅏㄴ	-6904
ㄱㅗㅇㅅㅏㄴㄷㅏㅇ	-6905
▁ㅇㅔㅅ	-6906
▁ㅅㅣㄴㅈㅣ	-6907
▁ㅁㅏㄴㅈㅏㅇ	-6908
▁Com	-6909
ㅅㅓㅇㄱㅜ	-6910
▁ㅇㅣㄹㅂㅗㄴㄱㅜㄱ	-6911
▁ㄷㅣㅂ	-6912
ㄹㅣㄴㅌㅡ	-6913
▁ㅇㅡㅁㅈㅓㄹ	-6914
ㄹㅜㅇ	-6915
▁ㅂㅏㄴㅍㅗ	-6916
▁ㅁㅜㄴㅈㅣㅂ	-6917
▁ㄱㅡㄹㄹㅏ	-6918
▁ㅈㅓㄴㅁㅜ	-6919
ows	-6920
▁GB	-6921
▁For	-6922
▁Part	-6923
ㅂㅣㄹㄹㅣ	-6924
▁ㅅㅏㅂㅎㅘ	-6925
▁ㄱㅓㄹㄹㅣㄴ	-6926
▁ㅅㅣㄹㄹㅗㄱ	-6927
▁ㅈㅡㄹㄱㅣㄹ	-6928
▁ㅊㅓㄴㄱㅜㄱ	-6929
▁ㅂㅕㅇㅈㅏ	-6930
▁ㅂㅗㄹㅌㅡ	-6931
▁ㅍㅓㅁㅍㅡ	-6932
▁ㅎㅏㄴㅁㅣ	-6933
▁MTV	-6934
ㅅㅜㄱㅅㅏ	-6935
▁ㅇㅝㄹㅌㅓ	-6936
▁ㅈㅗㅇㅈㅏ	-6937
▁ㄷㅗㄱㅊㅏㅇ	-6938
ous	-6939
▁ㅋㅔㄹㅌㅡ	-6940
▁ㄱㅡㄹㄲㅗㄹ	-6941
▁ㄱㅡㅁㅅㅏㄴ	-6942
▁ㅊㅣㄴㅈㅗㄱ	-6943
ㄱㅣㅅ	-6944
▁OST	-6945
ㄱㅡㄹㄹㅣ	-6946
▁ㅈㅜㄴㅅㅜ	-6947
ㅂㅏㅇㄱㅜㄴ	-6948
▁ATP	-6949
▁Col	-6950
▁ㅇㅗㄹㄹㅔ	-6951
ㄷㅔㄴㅂㅜ	-6952
▁ㅂㅏㄱㅌㅔ	-6953
ㅎㅏㅂㅅㅓㅇ	-6954
▁ㅅㅣㄹㄱㅝㄴ	-6955
▁ㅈㅓㅇㅎㅕㅇ	-6956
ㅇㅣㄴㄷㅗㄹ	-6957
▁ㅎㅏㄴㄹㅣㅁ	-6958
▁ㄱㅏㄹㅇㅏ	-6959
ㅈㅓㅇㄱㅘㄴ	-6960
▁ㅇㅣㄴㅊㅣㅇ	-6961
▁ㅅㅏㅁㅈㅜㅇ	-6962
▁ㅅㅓㅇㄱㅘㄱ	-6963
▁u	-6964
ㅌㅓㄴㅌㅡ	-6965
▁ㄱㅣㅁㅈㅜㄴ	-6966
▁Time	-6967
ㄹㅡㄴㅅㅡ	-6968
▁ㅅㅣㄹㅈㅓㅇ	-6969
▁ㅇㅣㅁㅈㅓㅇ	-6970
▁ㄱㅕㄱㄹㅣ	-6971
▁ㅇㅕㅇㅇㅠ	-6972
▁ㅈㅗㅇㅅㅣㄱ	-6973
ㄲㅏㄴ	-6974
▁ㄷㅐㄴㅅㅓ	-6975
ㄴㅏㄹㄹㅗ	-6976
▁ㄱㅗㅇㄷㅐ	-6977
▁ㅎㅏㄴㅈㅜㅇ	-6978
lay	-6979
row	-6980
▁ㄱㅓㅂ	-6981
▁ㅅㅠㄹㄹㅔ	-6982
▁ㅈㅓㄴㅅㅔ	-6983
▁ㄱㅏㅁㅊㅏㄹ	-6984
▁ㅈㅏㄱㅁㅜㄹ	-6985
▁ㅊㅣㅁㅁㅜㄱ	-6986
ㄹㅝㅆ	-6987
▁ㅁㅗㄱㅎㅚ	-6988
▁ㄱㅗㅇㅈㅗㄴ	-6989
ood	-6990
▁ㅂㅜㄹㄹㅑㅇ	-6991
▁ㅇㅛㄱㅁㅏㅇ	-6992
▁Sou	-6993
CC	-6994
sh	-6995
▁ㅂㅏㅇㅊㅣ	-6996
▁ㅇㅕㄴㅎㅚ	-6997
▁ㅊㅏㄴㅅㅏ	-6998
▁ㅇㅡㅇㄱㅡㅂ	-6999
ㅇㅣㄹㄹㅗ	-7000
ㅈㅓㄴㅊㅔ	-7001
▁ㅎㅣㅁㅆㅓㅆ	-7002
OP	-7003
ㄲㅟㄴ	-7004
▁ㅆㅏㄴ	-7005
▁ㅎㅏㄴㅅㅣㄴ	-7006
▁ㄱㅕㅇㅇㅕㅇㅈㅏ	-7007
ㅅㅏㄴㄷㅡ	-7008
▁ㅇㅘㄴㅈㅜ	-7009
▁ㄱㅣㅁㅁㅕㅇ	-7010
▁ㅂㅜㄹㅊㅏㅁ	-7011
▁ㅈㅓㄹㅁㅏㅇ	-7012
▁ㄱㅓㅁㅇㅡㄴㅅㅐㄱ	-7013
▁ㄱㅗㅈ	-7014
ㅅㅔㄴㅅㅡ	-7015
▁ㅂㅓㄹㅇㅕ	-7016
▁ㄱㅕㅇㅂㅗㄱ	-7017
▁ㄱㅗㅇㅇㅕㅇ	-7018
uc	-7019
▁ㄱㅘㅇㅂㅗㄱㄱㅜㄴ	-7020
▁at	-7021
ㄹㅏㅂㅇㅔ	-7022
▁ㄴㅕㅇ	-7023
▁ㅅㅠㅅ	-7024
▁ㅌㅡㄱㅎㅘ	-7025
▁ㅍㅗㄱㅍㅏ	-7026
ㅂㅔㄹㅅㅏㅇ	-7027
az	-7028
▁ㄴㅓㅁㅊㅣ	-7029
▁ㅇㅘㅇㄱㅝㄴ	-7030
▁ㅇㅝㄴㄱㅜㄴ	-7031
▁"&	-7032
▁131	-7033
▁ㅈㅓㄴㅈㅓㄴ	-7034
▁EM	-7035
▁ㄱㅜㄹㅈㅓㄹ	-7036
▁ㅇㅕㄴㅁㅏㄹ	-7037
▁ㅊㅏㄴㅇㅑㅇ	-7038
▁EU	-7039
▁ㅈㅗㅇㄱㅜㄴ	-7040
▁ㅍㅕㅇㅍㅕㅇ	-7041
▁ㅎㅕㅇㅈㅣㄹ	-7042
ㅌㅗㅇㅂㅜ	-7043
▁ㅅㅜㄴㅈㅗㅇ	-7044
▁ㅇㅣㄴㄱㅗㅇㅈㅣ	-7045
▁ㄱㅕㅂㅊㅕ	-7046
▁ㄹㅣㄹㄹㅔ	-7047
ㅁㅣㅅ	-7048
▁ㄱㅜㄱㄷㅏㅇ	-7049
▁ㅅㅏㅆ	-7050
ㅈㅓㄴㅌㅡ	-7051
▁ㅈㅣㅇㅅㅜ	-7052
ㅈㅓㄴㅎㅏㄱ	-7053
▁ㄱㅏㄴㅊㅓㅂ	-7054
▁ㅅㅡㄹㅍㅡㅁ	-7055
ㅋㅓㄴㄷㅐ	-7056
ㄷㅗㅇㅅㅓㅇ	-7057
ㅅㅏㅇㅊㅓㅇ	-7058
▁ㅈㅏㅇㅎㅏㄱㄱㅡㅁ	-7059
olog	-7060
ㅇㅜㄹㄹㅜ	-7061
▁ㅍㅕㅇㅈㅣ	-7062
ern	-7063
▁ㅇㅜㄱ	-7064
▁ㅁㅔㄹㅂㅓ	-7065
▁ㅋㅡㄹㄹㅓ	-7066
▁BC	-7067
▁ㄱㅡㄱㅇㅜ	-7068
▁ㅅㅏㄴㅅㅣ	-7069
▁ㅇㅛㅇㅇㅢ	-7070
▁ㄱㅏㄴㄹㅑㄱ	-7071
▁ㄱㅓㄴㅈㅓㄴ	-7072
▁ㅈㅏㅁㅈㅓㅇ	-7073
▁ㅎㅜㅇ	-7074
ㄱㅡㅅㄴㅏ	-7075
▁ㅌㅏㄴㅈㅏ	-7076
▁ㅎㅏㅇㅊㅔ	-7077
▁ㅈㅓㅇㅇㅣㄴ	-7078
▁FK	-7079
▁ㅎㅓㄴㅌㅓ	-7080
ㅁㅏㄱㅅㅣㄱ	-7081
▁ㅁㅣㄹㄹㅔ	-7082
ㅂㅓㅂㄱㅘㄴ	-7083
▁ㅇㅕㄴㅈㅓㅇ	-7084
RT	-7085
▁ㄱㅣㅁㄱㅘㅇ	-7086
▁ㅅㅐㅇㅈㅗㄴㅈㅏ	-7087
▁ㅇㅝㄴㅅㅏㄴㅈㅣ	-7088
ann	-7089
▁RS	-7090
▁Bla	-7091
▁Wind	-7092
▁ㄴㅏㅁㅂㅏㅇ	-7093
80	-7094
▁ㅂㅗㄴㅅㅓㅇ	-7095
▁1848	-7096
▁ㅇㅔㄴㄷㅡ	-7097
▁ㅍㅏㄴㅅㅗ	-7098
▁ㅅㅏㄴㄷㅜㅇ	-7099
▁ㅎㅘㅇㅅㅐㄱ	-7100
ㅍㅓㄴ	-7101
▁ㅈㅣㄴㄹㅗ	-7102
▁ㄷㅗㅇㅈㅣㄴ	-7103
▁ㅇㅛㅇㅇㅐㄱ	-7104
▁RP	-7105
▁Sch	-7106
ㅉㅓㄹ	-7107
ㅂㅏㅇㄱㅘㄴ	-7108
▁ㄱㅏㅁㅅㅏㅇ	-7109
▁ㅈㅓㅇㅇㅡㄴ	-7110
40	-7111
▁ㅎㅗㅂ	-7112
▁ㄱㅏㅁㅅㅓㅇ	-7113
ㅁㅏㅇㄷㅣ	-7114
▁ㅅㅏㄴㅅㅡ	-7115
▁ㅈㅓㅇㅂㅏㄴ	-7116
▁ㄴㅡㄺ	-7117
ㅈㅣㄹㄹㅓ	-7118
▁ㄱㅓㄹㅇㅓ	-7119
▁ㄷㅗㅇㄹㅗ	-7120
▁ㅇㅏㄱㅂㅗ	-7121
▁ㅇㅕㄴㅎㅢ	-7122
▁ㅇㅣㅅㄸㅏ	-7123
▁ㄱㅝㄴㅇㅕㄱ	-7124
▁ㄱㅣㅁㅇㅣㄴ	-7125
▁ㄷㅏㄴㄱㅜㄴ	-7126
▁ㄷㅏㅇㅇㅕㄴ	-7127
▁ㅁㅏㅈㅊㅜㅁ	-7128
▁ㅅㅓㅇㄷㅗㅇ	-7129
▁ㅈㅜㄱㅇㅣㄴ	-7130
▁tv	-7131
▁ㅇㅑㅇㅅㅜ	-7132
ㄱㅗㅇㄱㅏㄴ	-7133
▁ㅅㅏㅇㄹㅗㄱ	-7134
▁ㅈㅓㄱㄹㅛ	-7135
▁ㅎㅗㄴㄷㅏ	-7136
▁ㅇㅗㄴㄴㅏㄴ	-7137
ink	-7138
▁ㄷㅓㅍㄱㅐ	-7139
orn	-7140
ㅎㅐㅁ	-7141
▁ㄷㅗㅇㅅㅏㄴ	-7142
▁ㅎㅑㅇㅎㅐㅆ	-7143
▁new	-7144
▁ㅋㅏㅂ	-7145
▁NASA	-7146
▁ㄴㅏㄲㅅㅣ	-7147
▁ㅈㅓㄹㅈㅓㅇ	-7148
▁ㄱㅘㄴㅎㅕㄴㅇㅏㄱㄷㅏㄴ	-7149
ㅁㅣㄴㅅㅡ	-7150
▁ㄱㅕㄱㅊㅜ	-7151
▁ㄱㅗㅇㅅㅗ	-7152
▁ㅅㅏㄴㅇㅛ	-7153
▁ㅁㅜㄴㄷㅏㄴ	-7154
II	-7155
▁Ge	-7156
▁1883	-7157
▁ㄱㅜㄱㅇㅚ	-7158
ㄱㅏㄹㄹㅑㅇ	-7159
▁ㅍㅕㅇㅍㅏㄴ	-7160
▁ㄱㅡㅂㅇㅕ	-7161
▁ㄲㅗㅂㅎㅣ	-7162
ㅂㅜㅇㄷㅗㄹ	-7163
▁ㄱㅏㅇㄹㅕㄹ	-7164
▁ㅂㅏㄴㄱㅣ	-7165
▁ㅈㅓㅁㅍㅗ	-7166
▁ㅈㅓㄹㅂㅕㄱ	-7167
▁ㄴㅏㄱㄷㅗㅇㄱㅏㅇ	-7168
▁ㅉㅓㄴ	-7169
▁Your	-7170
ㄷㅏㄴㅎㅣ	-7171
▁ㄴㅏㅁㄱㅜㄴ	-7172
▁ㅁㅏㅈㅊㅜㄴ	-7173
▁ㅈㅓㅂㅎㅏㄴ	-7174
▁ref	-7175
▁ㅅㅓㄴㅁㅕㅇ	-7176
▁ㅌㅏㄴㅇㅑㄱ	-7177
OT	-7178
ㄷㅟ	-7179
▁ㄴㅗㄱㅎㅘ	-7180
▁ㅅㅣㄱㅅㅡ	-7181
▁ㅇㅏㄴㄱㅐ	-7182
▁ㄱㅘㄴㅁㅗㄱ	-7183
▁ㅇㅑㅇㅅㅣㅁ	-7184
▁ㅅㅣㄱㅇㅛㅇ	-7185
▁ㅇㅘㅇㄱㅓㄴ	-7186
▁ㅁㅗㄹㅌㅏ	-7187
ㅇㅣㄹㄹㅓㅅ	-7188
▁ㅇㅏㄴㅂㅏㅇ	-7189
▁SNS	-7190
▁ㄲㅏㅁ	-7191
▁ㄷㅗㄱㅅㅜ	-7192
▁ㅎㅏㄹㅇㅣㄴ	-7193
▁ㄱㅓㅁㄱㅓ	-7194
▁ㅇㅑㅇㅇㅠㄱ	-7195
ㄷㅗㄹㅇㅣ	-7196
ㅁㅐㄴㅌㅣㄱ	-7197
▁ㅊㅗㅇㄱㅕㄱ	-7198
▁end	-7199
▁ㄱㅡㅁㅎㅗ	-7200
▁ㄷㅗㅇㅈㅓㄱ	-7201
▁ㅅㅓㄹㅁㅜㄴ	-7202
▁OB	-7203
▁SA	-7204
ㄲㅣㄹ	-7205
ㄷㅏㄴㅇㅟ	-7206
ㅊㅜㅇㅈㅣ	-7207
ㅈㅓㄴㅅㅓㄴ	-7208
▁ㅋㅗㄴㅅㅗㄹ	-7209
▁colspan	-7210
ㄴㄷㅏ	-7211
▁ㅎㅕㅇㅂㅓㄹ	-7212
▁ㅎㅏㅁㄹㅑㅇ	-7213
▁1882	-7214
▁ㅂㅏㅇㄷㅐ	-7215
▁ㅊㅓㅇㄷㅗ	-7216
▁ㅎㅏㅂㅊㅣ	-7217
ㅁㅏㄴㅋㅡㅁ	-7218
▁ㄸㅗㄱㄱㅏㅌㅇㅣ	-7219
ㅍㅜㄹㅇㅣ	-7220
ㅇㅏㄴㅅㅓㄴ	-7221
ㅌㅏㄴㅂㅜㄹ	-7222
▁ㄱㅘㄴㅇㅏㄱ	-7223
▁ㅂㅓㄴㅊㅏㅇ	-7224
▁ㅅㅗㄱㄹㅕㄱ	-7225
▁ㅎㅕㅂㅇㅓㅂ	-7226
ㅎㅑㅇㅇㅏㄱㄷㅏㄴ	-7227
▁ㅂㅓㅂㅇㅝㄴㅈㅏㅇ	-7228
▁ㅅㅑㄴ	-7229
ㄹㅐㄴㅊㅏ	-7230
ㅋㅐㄴㄷㅡㄹ	-7231
▁ㄱㅗㄹㄱㅕㄱ	-7232
▁ㅁㅜㄷㅎㅕㅆ	-7233
▁ㅇㅕㅇㄷㅓㄱ	-7234
▁ㅈㅗㅇㅇㅕㅇ	-7235
▁ㄱㅏㅇㄷㅏㅇ	-7236
▁ㅇㅕㄴㄹㅣㅂ	-7237
▁ㅈㅓㅂㅈㅗㅇ	-7238
▁ㅈㅗㅇㅇㅑㅇ	-7239
▁TR	-7240
ㅇㅠㅇㅎㅏㅂ	-7241
▁ㄷㅏㄴㄱㅕㄹ	-7242
▁ㅋㅗㄹㄹㅓㅁ	-7243
ㄱㅏㅆㅇㅡ	-7244
▁ㅊㅓㄴㅅㅜ	-7245
US	-7246
ㄹㅐㅂ	-7247
▁ㅅㅗㅇㅍㅏ	-7248
▁ㅇㅓㅂㅈㅏ	-7249
▁Day	-7250
▁ㅇㅏㅇㄱㅗㄹㄹㅏ	-7251
▁ㅇㅕㄹㅅㅣㅁㅎㅣ	-7252
▁Or	-7253
▁ㅎㅐㄱㅇㅠㅇㅎㅏㅂ	-7254
▁ㅂㅜㄴㅅㅏ	-7255
▁ㅇㅕㄹㄱㅏㅇ	-7256
▁ㅇㅕㅇㅇㅝㄹ	-7257
▁ㅁㅕㅇㅎㅘㄱㅎㅣ	-7258
ㄹㅓㄴㅌㅡ	-7259
ㅇㅞㄴ	-7260
▁ㅇㅔㄴㄹㅣ	-7261
▁ㅇㅕㅇㅇㅏㅁ	-7262
ㅂㅣㄴㅅㅡㄴ	-7263
amp	-7264
ㅂㅗㄴㅂㅜ	-7265
ㅈㅔㄹㄹㅗ	-7266
▁ㄴㅔㄹㅅㅡㄴ	-7267
▁ㄷㅏㄴㅅㅗㄱ	-7268
▁ㅇㅕㄹㅈㅓㄴ	-7269
▁ㅈㅣㄴㅎㅏㄴ	-7270
▁ㅈㅣㄱㅅㅗㄱ	-7271
▁ㅎㅏㅇㄹㅗ	-7272
▁ㅈㅓㄹㄱㅏㅁ	-7273
▁ㅍㅣㄹㄹㅣㅂㅅㅡ	-7274
ㄷㅡㅇㄱㅛ	-7275
▁ㄱㅘㄴㄹㅖ	-7276
▁ㅇㅕㄴㅎㅘ	-7277
▁ㅅㅓㄴㅂㅗㅇ	-7278
▁ㅊㅜㅇㄹㅕㄹ	-7279
▁ㅎㅏㅇㅇㅝㄴ	-7280
▁ㅌㅗㅇㅅㅣㄴㅅㅏ	-7281
gin	-7282
ㄹㅔㄹㄹㅣ	-7283
▁ㅂㅜㄹㄱㅖ	-7284
▁ㅅㅏㅇㅇㅓ	-7285
▁ㅈㅓㄴㅂㅗ	-7286
gr	-7287
ㄸㅜ	-7288
▁DF	-7289
▁ㅊㅐㅇ	-7290
ㅇㅏㄴㅂㅜ	-7291
ㅇㅛㅇㅅㅜ	-7292
▁ㅈㅗㄱㅂㅗ	-7293
▁ㄱㅜㄱㅎㅏㄴ	-7294
▁ㄱㅜㄴㄷㅔ	-7295
▁ㅊㅓㄴㅁㅏ	-7296
▁ㅈㅓㅇㅇㅝㄹ	-7297
19	-7298
ㄹㅐㅆ	-7299
▁4000	-7300
▁ㅂㅜㄱㅇㅠ	-7301
▁ㅎㅏㅇㅇㅜ	-7302
▁ㅎㅟㅂㅆㅡㄹ	-7303
▁330	-7304
OW	-7305
ㅋㅗㄴㄷㅡ	-7306
ㅇㅜㄹㅈㅡㅇ	-7307
▁ㄱㅣㅁㅇㅗㄱㄱㅠㄴ	-7308
▁by	-7309
▁ㄱㅏㅇㅍㅜㅇ	-7310
▁ㅂㅏㄹㅅㅏㅇ	-7311
▁ㅈㅜㅇㅇㅕㅂ	-7312
ㄹㅣㄹㄹㅐㄴㄷㅡ	-7313
▁GM	-7314
▁ㅈㅓㅇㄹㅕㅇ	-7315
▁ㅋㅓㄴㅅㅓㄹ	-7316
▁320	-7317
ㄱㅘㄴㄱㅖ	-7318
▁ㄲㅜㅁㄲㅜ	-7319
▁ㄱㅘㄴㅅㅏㅇ	-7320
▁ㅅㅣㄹㅈㅡㅇ	-7321
ㅇㅣㄴㅇㅓㅂ	-7322
▁ㄱㅜㄴㅂㅓㄹ	-7323
▁ㅇㅕㅇㅊㅓㄴ	-7324
▁ㅇㅘㅇㄱㅜㅇ	-7325
ㅅㅏㅇㄱㅡㅁ	-7326
▁ㅁㅜㄴㅈㅗㅇ	-7327
▁ㅅㅓㅆ	-7328
▁ㅂㅣㅇㅎㅏ	-7329
▁ㄷㅏㄴㅁㅏㄹ	-7330
▁ㅂㅏㄷㄷㅡㄹ	-7331
▁ㅅㅓㅇㅅㅏㄴ	-7332
oll	-7333
ㄴㅔㄹㄹㅣ	-7334
▁ㅂㅗㅇㅇㅣㄴ	-7335
▁ㅇㅣㄱㅅㅜㄱ	-7336
ㄴㅓㅅ	-7337
▁1868	-7338
ㅊㅓㄴㅇㅘㅇ	-7339
▁ㄷㅣㄹㄹㅓㄴ	-7340
▁ㅈㅓㅇㅈㅏㄱ	-7341
▁ㅈㅗㅇㅅㅣㄴ	-7342
▁ㅅㅣㄴㄱㅗㄱ	-7343
ㅈㅏㄱㅇㅟ	-7344
▁ㅊㅓㄴㅇㅏㄴㅅㅣ	-7345
ㅍㅏㅇㅇㅣ	-7346
▁ㄱㅡㅁㄷㅗㅇ	-7347
▁ㅂㅏㄹㅈㅓㄴㄱㅣ	-7348
ㅇㅟㄱ	-7349
▁ㅅㅟㄹ	-7350
▁ㄹㅐㅇㅋㅡ	-7351
▁203	-7352
ㅁㅗㄴㅌㅡ	-7353
▁ㄱㅐㄱㅊㅏ	-7354
▁NP	-7355
ㅉㅜㄱ	-7356
ㅈㅣㄴㅇㅜ	-7357
ㅍㅕㅇㄹㅣ	-7358
ㄱㅏㄴㄷㅐ	-7359
▁ㄱㅘㄴㅇㅜ	-7360
▁ㅇㅡㄴㅎㅖ	-7361
▁ㅊㅡㄱㄹㅑㅇ	-7362
ung	-7363
▁Fe	-7364
▁GNU	-7365
▁ㅂㅗㄱㅇㅡㅁㅈㅜ	-7366
▁ㄷㅏㄴㅈㅓㅇ	-7367
▁ㅂㅓㅁㅎㅐㅇ	-7368
▁ㅂㅓㅂㄱㅘㄴ	-7369
ㅇㅛㅇㅊㅏ	-7370
▁ㄱㅣㅁㅇㅠㄴ	-7371
▁ㅎㅏㅁㅎㅡㅇ	-7372
▁ㅈㅓㄴㅂㅏㄴㄱㅣ	-7373
▁le	-7374
ㄹㅏㄴㅊㅣ	-7375
ㅎㅕㅂㅎㅚ	-7376
▁ㄴㅗㅍㅇㅕ	-7377
▁ㅈㅓㅇㅈㅓㅇ	-7378
▁ㅈㅡㅇㅍㅗㄱ	-7379
▁ㅍㅕㄴㄱㅕㄴ	-7380
LA	-7381
▁ㄱㅕㄹㅎㅐㄱ	-7382
▁ㅂㅜㄴㄷㅏㄴ	-7383
▁ㅇㅠㄱㄱㅜㄴㅅㅏ	-7384
▁AB	-7385
ㄸㅏㄱ	-7386
▁ㄴㅏㅁㅎㅏ	-7387
▁ㅊㅜㅇㅁㅜ	-7388
ㄷㅓㅁㅅㅡ	-7389
ㅇㅕㄴㅇㅢ	-7390
▁ㄱㅣㅁㅊㅣ	-7391
ㅍㅗㄱㅌㅏㄴ	-7392
▁ㅈㅣㄱㅎㅐㅇ	-7393
▁ㄱㅕㄹㅅㅏ	-7394
▁ㄴㅗㅇㅈㅣ	-7395
▁ㅊㅓㅇㄱㅖ	-7396
▁ㅂㅜㄱㄱㅜㄴ	-7397
▁ㅅㅓㅇㅇㅝㄴ	-7398
▁ㅇㅗㄻㄱㅣㄴ	-7399
▁ㄹㅔㅅ	-7400
▁ㅌㅗㄱ	-7401
▁ㄱㅣㅁㅅㅓㄴ	-7402
▁ㅎㅓㄴㅈㅏㅇ	-7403
▁1893	-7404
ublic	-7405
▁ㄱㅏㄱㄹㅛ	-7406
▁ㅈㅓㄴㅁㅣ	-7407
ㄷㅗㅇㅁㅕㄴ	-7408
▁ㄱㅡㅂㅈㅡㅇ	-7409
▁ㅅㅣㄴㅇㅣㅂ	-7410
▁ㅎㅏㅁㄱㅕㅇㅂㅜㄱㄷㅗ	-7411
▁IV	-7412
▁Mo	-7413
▁TBS	-7414
ㅇㅣㄱㅅㅡ	-7415
▁Rec	-7416
▁ㅂㅜㄹㄱㅕㅇ	-7417
▁Girl	-7418
ㅂㅣㄹㄹㅗ	-7419
▁ㅎㅏㄴㅋㅠ	-7420
▁ㄴㅡㅇㄷㅗㅇ	-7421
▁ㅇㅡㄴㅅㅣㄴ	-7422
IR	-7423
▁LED	-7424
▁Comp	-7425
▁ㅊㅓㄱㄷㅗ	-7426
▁ㄴㅗㅎㅇㅣㄴ	-7427
▁ㅁㅏㄴㄴㅏㄴㄷㅏ	-7428
▁ㅍㅔㄹㄹㅣㄱㅅㅡ	-7429
▁ㅅㅏㄴㅅㅜ	-7430
▁Rock	-7431
ㄱㅓㄹㅇㅣ	-7432
▁ㅌㅏㄹㄹㅔ	-7433
▁Univers	-7434
ㅁㅕㄴㄹㅏ	-7435
ㅈㅜㅇㄱㅛ	-7436
▁ㄱㅣㅁㅊㅓㄴ	-7437
▁ㅅㅓㄴㅈㅣㄴㄱㅜㄱ	-7438
ㅎㅏㄱㅂㅜ	-7439
▁ㅎㅕㄴㅍㅏㄴ	-7440
▁ㅇㅣㄴㄱㅗㅇㅇㅟ	-7441
ㅇㅣㅁㅇㅝ	-7442
▁ㅂㅏㄱㅅㅏㅇ	-7443
▁ㅍㅡㄹㄹㅏㅇㅋㅡ	-7444
les	-7445
▁ㄷㅏㅇㄴㅛ	-7446
▁ㅅㅜㄴㅊㅏ	-7447
▁ㅈㅏㅇㄴㅕ	-7448
▁ㅊㅜㄹㅈㅏ	-7449
▁ㄱㅜㄱㅊㅓㄹ	-7450
▁ㄴㅑㅇ	-7451
▁ㅈㅜㄴㅈㅏㅇ	-7452
▁ㅋㅓㄹㄹㅔㄱㅅㅕㄴ	-7453
eth	-7454
▁Su	-7455
▁Sup	-7456
ㅁㅏㄹㄹㅗ	-7457
▁ㅊㅓㅇㅅㅗㅇ	-7458
▁ㄱㅏㄴㅅㅣㄴㅎㅣ	-7459
▁ㄷㅗㅇㅍㅗ	-7460
▁ㅅㅏㄴㅌㅗ	-7461
ㄹㅕㅇㄱㅜㄴ	-7462
▁ㅅㅏㅇㄱㅜㄱ	-7463
oth	-7464
ㅋㅏㄴㄷㅣ	-7465
▁ㅂㅐㄱㅈㅏ	-7466
ㅋㅗㄹㄹㅣㅅ	-7467
▁ㅅㅓㄴㅇㅣㄴ	-7468
▁ㅎㅏㄱㅈㅏㅇ	-7469
▁ㄴㅗㄱㅅㅐㄱㄷㅏㅇ	-7470
▁IOC	-7471
▁ㅈㅓㄴㄱㅛ	-7472
ㅅㅏㄹㅅㅏㅇ	-7473
▁ㄱㅏㅇㅈㅣㄴ	-7474
▁ㅈㅓㄴㅅㅜ	-7475
ㅅㅣㄹㅈㅓㅁ	-7476
▁ㅈㅏㅇㄷㅓㄱ	-7477
▁ㅈㅏㅇㅂㅕㅇ	-7478
▁ㄷㅏㅁㅂㅗ	-7479
▁ㅇㅣㄴㅋㅗ	-7480
▁ㅈㅏㅁㄲㅏㄴ	-7481
▁ㄱㅘㅁ	-7482
▁from	-7483
▁ㅂㅏㄱㅅㅓㅇ	-7484
▁ㅂㅐㄱㅇㅏㄱ	-7485
▁ㅈㅓㄴㅎㅏㄱ	-7486
▁ㅊㅓㅇㄹㅑㅇ	-7487
▁ㅊㅜㄹㄷㅗㅇ	-7488
▁ㅅㅣㅁㅍㅗ	-7489
▁ㅇㅗㄴㅎㅘ	-7490
▁ㄱㅣㅁㅅㅡㅇ	-7491
▁ㄴㅔㄱㅅㅔㄴ	-7492
▁ㄱㅗㅇㄱㅜㄴㄱㅣ	-7493
▁ㅇㅜㄹㅈㅜ	-7494
▁ㅇㅝㄹㅌㅡ	-7495
▁ㅇㅣㄹㄱㅏㄱ	-7496
▁ㅅㅓㅇㅇㅏㄱ	-7497
▁ㅇㅏㅂㄹㅗㄱ	-7498
▁ㅋㅏㄹㅅㅠㅁ	-7499
▁ㅇㅕㅇㅇㅝㄴㅎㅣ	-7500
▁ㅈㅜㅇㅇㅏㅇㅇㅡㄴㅎㅐㅇ	-7501
ㅃㅏㅇ	-7502
▁230	-7503
▁ㅇㅘㄴㄷㅗ	-7504
▁ㅈㅏㅇㅎㅡㅇ	-7505
▁ㅎㅘㅇㅅㅏㄴ	-7506
▁ar	-7507
ㄹㅜㄱㅅㅡ	-7508
ㅌㅣㄹㄹㅓ	-7509
▁ㅇㅑㅇㄷㅐ	-7510
▁ㄱㅗㅇㅇㅑㅇ	-7511
▁ㄷㅏㄹㄹㅏㅆ	-7512
▁ㄷㅗㅇㅈㅗㅇ	-7513
▁ㅇㅛㅇㅍㅜㅁ	-7514
ㄱㅡㅁㅅㅗ	-7515
ㄴㅓㄹㅅㅡ	-7516
ㅅㅔㄹㄹㅓ	-7517
▁ㅇㅟㅅㅂㅜ	-7518
▁ㅅㅏㄴㅊㅓㅇ	-7519
▁ㅅㅠㄹ	-7520
▁ㅌㅡㄱㄱㅣ	-7521
AI	-7522
ㅂㅔㄹㄹㅣ	-7523
▁ㄱㅡㄴㅇㅟ	-7524
▁ㅁㅜㄴㅁㅜ	-7525
▁ㅍㅗㄹㄹㅏ	-7526
▁ㅂㅗㄱㅅㅣㅇ	-7527
▁ㅇㅏㅆㅇㅓㅆ	-7528
▁ㅇㅜㄹㄹㅡㅇ	-7529
▁ㅇㅣㄴㅍㅡㄹㄹㅔ	-7530
▁ㅆㅗㄷㅇㅏ	-7531
▁ㅌㅗㅁㅅㅡㄴ	-7532
▁ㅎㅕㅇㅇㅛㅇ	-7533
▁Sw	-7534
▁ㅈㅓㅁㄱㅓ	-7535
▁ㅈㅓㅇㅈㅐ	-7536
▁ㅇㅣㅂㅎㅓㄴ	-7537
▁ㅊㅣㅇㅅㅗㅇ	-7538
▁ㅈㅜㅇㄱㅗㅇㄱㅜㄴ	-7539
ㅅㅓㄴㄷㅗ	-7540
ㅌㅐㄴㄹㅣ	-7541
ㅌㅗㅇㅅㅏ	-7542
▁ㄱㅡㅂㅅㅗㄱㅎㅣ	-7543
▁280	-7544
▁ㅍㅔㅅ	-7545
▁1892	-7546
▁ㅋㅏㅁㅍㅏ	-7547
ㄱㅘㅇㅅㅓㅇ	-7548
▁ㅅㅡㅂㄱㅘㄴ	-7549
▁wh	-7550
ㅇㅏㄴㄱㅏ	-7551
▁ㄱㅕㅂㅊㅣ	-7552
▁ㅅㅓㄲㅇㅕ	-7553
ㅈㅣㄱㄱㅕㅇ	-7554
▁ㅂㅕㄴㅈㅗㅇ	-7555
ron	-7556
▁co	-7557
▁ㄴㅡㅍ	-7558
▁1888	-7559
▁ㄱㅡㅁㄴㅏ	-7560
▁ㅁㅕㅇㅂㅜ	-7561
▁ㅁㅣㄹㅇㅓ	-7562
▁ㅈㅓㅂㅎㅐ	-7563
▁ㅈㅜㅇㄱㅗ	-7564
▁ㅋㅔㄴㅌㅡ	-7565
▁ㅎㅡㅂㅅㅏ	-7566
ㄱㅜㄱㅈㅓㄱ	-7567
ㅅㅓㄱㅎㅏㄱ	-7568
▁ㄱㅡㅁㅈㅓㄴ	-7569
ㅇㅡㄹㅂㅓ	-7570
ㅈㅏㅇㅅㅏ	-7571
▁ㄱㅣㄴㅋㅣ	-7572
▁ㅂㅗㄹㅌㅣ	-7573
▁ㅈㅓㄹㅈㅔ	-7574
▁ㅎㅑㅇㄱㅣ	-7575
EST	-7576
▁CG	-7577
ㅃㅡㅁ	-7578
▁ㅇㅕㅁㄹㅕ	-7579
ㄷㅗㄱㄹㅣㅂ	-7580
▁ㄱㅗㅇㅂㅓㅂ	-7581
▁ㅎㅏㄴㅁㅜㄴ	-7582
▁ㅇㅕㄴㅈㅏㅇㅈㅓㄴ	-7583
aw	-7584
▁ㅉㅣㅈ	-7585
▁ㅇㅣㅁㄱㅖ	-7586
▁ㅎㅏㅂㅎㅏ	-7587
▁ㅈㅓㅇㅎㅐㅆ	-7588
ㅇㅏㅁㄹㅣ	-7589
ㅋㅡㄹㄹㅗ	-7590
▁SV	-7591
ㅊㅝㅆ	-7592
▁ㄹㅣㅁㅍㅡ	-7593
▁ㅇㅐㄴㅅㅓ	-7594
▁ㄱㅗㅇㅇㅏㄴ	-7595
▁ㅇㅓㅆㅇㅓㅆ	-7596
ㅎㅡㄺ	-7597
▁ㅇㅖㄹ	-7598
▁ㄴㅗㅇㅊㅜㄱ	-7599
▁ㅎㅏㅂㅊㅓㄴ	-7600
▁ㅅㅣㅁㅂㅜ	-7601
▁ㅅㅓㄴㅇㅑㅇ	-7602
▁ㅈㅏㄴㅇㅣㄴ	-7603
▁SH	-7604
▁ㅅㅓㅇㅁㅐ	-7605
▁ㅋㅗㄹㄹㅣ	-7606
ㄱㅡㅁㅂㅜ	-7607
▁ㅇㅏㄴㅁㅜ	-7608
▁ㅍㅔㄹㅌㅡ	-7609
▁Do	-7610
ㄲㅓㅅ	-7611
▁ㅈㅣㄱㄱㅖ	-7612
ㄱㅗㅇㄱㅜㄱ	-7613
ㄷㅗㅇㅈㅓㄴ	-7614
▁ㅍㅕㄴㅎㅑㅇ	-7615
ㄸㅣ	-7616
ㄹㅡㄹㄹㅔ	-7617
▁ㄱㅕㅇㅁㅜ	-7618
▁ㅁㅏㅌㄱㅣ	-7619
▁ㅇㅔㄹㄹㅏ	-7620
ㅎㅗㅇㅅㅐㄱ	-7621
▁ㄱㅏㄴㅈㅣㄱ	-7622
▁ㅅㅜㄴㅇㅑㅇㅎㅏㅁ	-7623
▁ㄴㅗㅁ	-7624
▁ㄱㅗㅇㅅㅣ	-7625
▁USB	-7626
▁ㅍㅔㅇ	-7627
▁ㅂㅏㄹㅈㅏ	-7628
▁ㅅㅏㅁㄱㅏㄱㅈㅜ	-7629
AE	-7630
▁KB	-7631
ㅍㅗㅇ	-7632
▁ㄱㅐㅅ	-7633
▁Car	-7634
▁ㅊㅔㄹㄹㅗ	-7635
▁ㅅㅡㅇㄷㅏㄴ	-7636
mer	-7637
ㅁㅓㄹ	-7638
▁ㅌㅗㅂㄴㅣ	-7639
▁ㅂㅏㄹㄷㅗㅇ	-7640
▁ㅇㅏㄱㄱㅗㄱ	-7641
▁ㄱㅕㅇㅇㅕㅇㅎㅏㄱ	-7642
ㄷㅏㄹㅁㅏ	-7643
ㄷㅗㅇㄹㅣ	-7644
▁ㄱㅗㄹㄹㅏ	-7645
▁ㅎㅕㅇㅍㅕㄴ	-7646
ㅇㅣㄴㅊㅡ	-7647
ㅌㅐㄴㄷㅡ	-7648
▁ㅈㅣㅁㅂㅏ	-7649
▁ㅌㅏㄹㅊㅟ	-7650
ㅂㅜㄴㅇㅕㄹ	-7651
▁ㅇㅏㅍㅅㅓㄴ	-7652
▁ㅍㅜㅇㅅㅡㅂ	-7653
ble	-7654
ㄴㅛㅇ	-7655
▁270	-7656
▁Gre	-7657
▁ㅇㅐㄴㄷㅣ	-7658
▁ㅌㅗㅇㅍㅖ	-7659
▁ㅍㅓㄴㄷㅡ	-7660
▁ㄱㅗㅇㅂㅏㅇㅈㅓㄴ	-7661
land	-7662
▁ㅇㅣㄴㅈㅔ	-7663
▁ㅈㅡㅇㅇㅗ	-7664
▁ㅈㅣㅂㅊㅏㄱ	-7665
▁ㄹㅔㅂ	-7666
▁ㅇㅑㅇㅂㅗ	-7667
▁ㄲㅡㅌㄴㅏㅆ	-7668
ㅅㅞ	-7669
ition	-7670
▁Open	-7671
▁ㅅㅗㄴㄴㅕ	-7672
▁ㅈㅣㄱㅅㅏ	-7673
▁ㅊㅜㄱㅅㅓㅇ	-7674
▁ㅊㅣㅁㄹㅖ	-7675
▁1876	-7676
ㄱㅘㅇㅅㅜ	-7677
ㅇㅘㅇㅎㅜ	-7678
▁ㄷㅗㅇㅊㅏ	-7679
▁ㄴㅏㄱㅇㅑㅇ	-7680
▁ML	-7681
▁ㅂㅏㄴㄷㅗㅇ	-7682
▁ㅍㅏㄹㄹㅕㅆ	-7683
▁ㅋㅓㄴㅌㅔㄴㅊㅡ	-7684
DA	-7685
ah	-7686
▁ㅇㅑㅇㅈㅗ	-7687
▁ㄱㅏㄴㅎㅗㄱ	-7688
▁ㅇㅝㄴㅎㅘㄹ	-7689
ㅍㅔㅅ	-7690
▁260	-7691
▁Wii	-7692
ㄴㅏㄴㄷㅔ	-7693
▁ㄷㅏㄴㄱㅓ	-7694
▁RT	-7695
▁ㅅㅣㄴㅈㅣㄴ	-7696
▁ㅊㅓㄴㅊㅓㄴ	-7697
ㅇㅝㄴㅅㅏ	-7698
▁ㅅㅐㅇㅁㅗ	-7699
▁ㅎㅕㄴㄱㅘ	-7700
▁ㅊㅜㄹㅎㅕㄹ	-7701
▁AG	-7702
ㅇㅕㄹㅊㅏ	-7703
ㅇㅗㄴㅅㅡ	-7704
ㅈㅡㄹㄹㅣ	-7705
▁ㅇㅝㄴㅇㅠ	-7706
▁ㅋㅗㄴㄹㅏ	-7707
▁ㅂㅗㄱㅈㅗㅇ	-7708
▁ㅅㅏㅇㅂㅏㄴ	-7709
▁ㅇㅏㄹㅍㅗㄴ	-7710
▁ㅈㅣㅁㅅㅡㅇ	-7711
▁ㅎㅐㅇㅈㅓㅇㄷㅗㅇ	-7712
▁if	-7713
▁ㅂㅓㄹㄹㅔ	-7714
▁ㄱㅜㄴㄱㅘㄴ	-7715
▁ㄷㅗㅇㅁㅐㅇㄱㅜㄱ	-7716
ㄷㅣㅇㅅㅡ	-7717
▁ㅈㅓㅁㄱㅓㅁ	-7718
▁ㅁㅣㄴㅂㅕㅇㄷㅐ	-7719
▁ㅊㅓㄴㅊㅓㄴㅎㅣ	-7720
▁1886	-7721
▁ㄹㅗㅁㅂㅏ	-7722
▁ㅇㅣㄹㅈㅣㄴ	-7723
ㅍㅣㄹㄹㅔ	-7724
▁ㅆㅓㅆㅇㅡ	-7725
▁it	-7726
▁ㄱㅔㅅ	-7727
▁ㅈㅓㄴㄱㅝㄴ	-7728
▁ㅎㅗㅇㅅㅓㅇ	-7729
▁ㅂㅐㄱㅇㅏㄱㄱㅣ	-7730
▁TC	-7731
▁Up	-7732
ject	-7733
▁Dream	-7734
▁ㅂㅏㄹㄱㅏ	-7735
▁ㄱㅗㅂㅅㅔㅁ	-7736
▁ㅇㅘㄴㄱㅕㄹ	-7737
▁ㅎㅏㄴㅂㅓㄴ	-7738
▁ㅎㅘㄹㄷㅗㅇㄱㅏ	-7739
▁ㄱㅜㄱㅈㅓㅇㅇㅝㄴ	-7740
▁ㅅㅏㅇㄱㅘㄴㅇㅓㅄㅇㅣ	-7741
TE	-7742
▁ㅊㅛ	-7743
ㅁㅜㅅ	-7744
▁ㄲㅡㅌㄴㅏㄹ	-7745
▁ㅍㅕㅇㅌㅏㄴ	-7746
▁ㅍㅕㅇㅇㅏㄴㄷㅗ	-7747
ㄸㅓㄱ	-7748
▁1866	-7749
▁ㅂㅗㄴㅊㅔ	-7750
▁ㅅㅜㄴㄹㅖ	-7751
ㅍㅏㄴㄱㅘㄴ	-7752
▁ㅇㅓㄹㄹㅜㄱ	-7753
ㅂㅘ	-7754
ult	-7755
▁1864	-7756
▁1887	-7757
▁ㄱㅕㄴㄱㅗ	-7758
▁ㄱㅘㅇㅇㅑㅇ	-7759
ION	-7760
▁Life	-7761
ㅇㅣㄴㄱㅜ	-7762
▁ㄷㅓㅇㅇㅓ	-7763
▁ㄷㅗㅇㅊㅏㅇ	-7764
▁ㅆㅣㅅ	-7765
▁HTML	-7766
▁ㄷㅐㅅㄱㅡㄹ	-7767
▁ㅅㅣㄹㄱㅏㄱ	-7768
▁Ed	-7769
▁ㄴㅏㅁㅂㅔ	-7770
▁ㅂㅓㄴㄱㅏㄹ	-7771
ㅉㅡ	-7772
ㄱㅟㄴ	-7773
ㅊㅡㅁ	-7774
▁ㄹㅐㅁㅍㅡ	-7775
▁ㄱㅗㅇㅇㅕㄴㅈㅏㅇ	-7776
▁ㅁㅜㄹㄱㅕㄹ	-7777
orm	-7778
ㅁㅟㄴ	-7779
▁ㄱㅏㅇㅎㅐㅇ	-7780
▁ㄱㅕㄴㄷㅣ	-7781
▁ㅂㅜㅇㅇㅓ	-7782
▁ㅅㅏㅁㅊㅓㄱ	-7783
▁ㄷㅗㄱㄹㅣㅂㄱㅜㄴ	-7784
▁BL	-7785
▁ㅈㅜㅁ	-7786
▁ㅋㅐㅅ	-7787
▁ㅅㅗㄹㄹㅏ	-7788
▁ㄱㅗㄱㅁㅕㄴ	-7789
▁ㄷㅏㅇㅎㅏㄹ	-7790
▁ㅁㅣㄴㅁㅜㄹ	-7791
▁ㅅㅏㅇㅈㅓㅇ	-7792
▁ㅅㅣㅁㅁㅜㄴ	-7793
▁ㅇㅗㄴㄱㅓㄴ	-7794
▁te	-7795
ㄹㅣㅁㅅㅏ	-7796
▁ㅊㅏㅁㅅㅜ	-7797
▁ㅌㅡㄱㅅㅏ	-7798
ational	-7799
▁ㅂㅏㅇㄱㅗㅇ	-7800
▁ㅅㅣㅁㅅㅏㅇ	-7801
▁ㅇㅣㄱㅅㅏㄴ	-7802
▁ㅈㅏㄱㅈㅜㅇ	-7803
▁1861	-7804
▁ㅅㅡㅇㅎㅏ	-7805
▁ㅈㅏㄴㄷㅣ	-7806
▁ㅈㅜㅇㄱㅐ	-7807
ㅅㅗㄹㄹㅣㄴ	-7808
▁ㄱㅏㅇㅅㅓㅇ	-7809
▁ㄱㅣㄴㅁㅣㄹ	-7810
▁ㅅㅐㅇㅅㅓㅇㅁㅜㄹ	-7811
QL	-7812
▁ㅋㅣㅅ	-7813
▁ㅅㅓㅇㄱㅣ	-7814
ㅍㅡㄹㄹㅣㄴ	-7815
▁ㅎㅡㅇㅂㅜㄴ	-7816
▁an	-7817
▁ㅁㅜㄹㄹㅠ	-7818
▁ㅇㅏㅁㅁㅗ	-7819
▁ㅁㅗㅁㄷㅗㄹ	-7820
▁ㅁㅣㄴㅇㅕㅇㅎㅘ	-7821
▁ㅈㅏㅇㄹㅐ	-7822
▁ㅇㅣㄱㅁㅕㅇ	-7823
▁ㅈㅓㄴㄹㅏㄱ	-7824
▁Tour	-7825
▁ㅂㅏㄹㅌㅗㅂ	-7826
▁iOS	-7827
ㄷㅜㄹㄱㅣ	-7828
ㅅㅏㅇㅅㅏ	-7829
ㅇㅣㄴㅂㅗ	-7830
▁ㅅㅜㅁㄱㅣ	-7831
▁ㅇㅏㅂㅅㅜ	-7832
▁ㄱㅣㅅㅌㅓㄹ	-7833
▁ㄷㅗㄷㅂㅗ	-7834
▁ㄴㅣㄱㅅㅡㄴ	-7835
▁ㄷㅏㅇㅈㅣㄴ	-7836
▁ㄱㅘㄴㅎㅕㄴㅇㅏㄱ	-7837
ics	-7838
▁XP	-7839
▁ㄱㅏㅍ	-7840
ㅍㅓㄹㄹㅗ	-7841
▁ㄱㅏㅈㅊㅝ	-7842
▁ㅇㅝㄴㅅㅏㅇ	-7843
▁1850	-7844
▁ㅈㅡㅇㅅㅔ	-7845
ton	-7846
▁en	-7847
ㅍㅜㄴ	-7848
▁ㅍㅣㅅ	-7849
ㄷㅣㄱㅌㅗ	-7850
▁ㄱㅏㅇㅅㅔ	-7851
▁ㄱㅘㄴㄴㅐ	-7852
▁ㅂㅗㄱㅇㅟ	-7853
▁ㅈㅏㅇㅈㅓㄴ	-7854
▁ㄱㅕㄱㄹㅕ	-7855
ㄱㅡㅂㅅㅣ	-7856
ㅅㅏㄴㄷㅐ	-7857
▁ㄴㅏㅂㅂㅜ	-7858
▁ㅁㅕㄴㅁㅗ	-7859
▁ㅊㅓㄴㅈㅣ	-7860
ode	-7861
▁ㅂㅗㅇㅇㅜ	-7862
ㄱㅏㄴㅇㅝㄴ	-7863
ㅋㅗㄴㅅㅣㄴ	-7864
▁ㅅㅡㅇㅅㅏㅇ	-7865
▁ㅇㅜㅅㅇㅡㅁ	-7866
ave	-7867
▁1881	-7868
▁ㅁㅗㄹㄷㅗ	-7869
▁ㅇㅛㅇㅅㅏ	-7870
▁ㅂㅐㅅ	-7871
▁ㅂㅏㄱㅈㅏ	-7872
▁ㅂㅐㄱㅇㅓㅂ	-7873
▁ㅇㅑㅇㄱㅜㅇ	-7874
▁ㅇㅘㅇㄱㅘㄴ	-7875
ㅅㅣㄴㄹㅛ	-7876
▁ㅁㅣㄹㄱㅏ	-7877
ㅅㅓㅇㄱㅕㅇ	-7878
▁ㅂㅏㄹㅁㅗㄱ	-7879
▁Music	-7880
▁ㅂㅏㄱㅅㅜ	-7881
▁ㄱㅐㄱㅇㅝㄴ	-7882
▁ㅅㅗㅇㅎㅘㄴ	-7883
▁ㅎㅐㅇㅂㅏㅇ	-7884
▁ㅊㅓㅇㄴㅕㄴㅎㅚ	-7885
ru	-7886
▁ret	-7887
▁ㅍㅜㄱ	-7888
ㄴㅗㄹㄹㅗ	-7889
▁ㅁㅔㄹㄹㅏ	-7890
▁ㅎㅕㄴㅁㅣ	-7891
▁ㅂㅜㄹㅂㅜㄴ	-7892
EP	-7893
▁ㅅㅏㄴㅁㅏ	-7894
▁ㅇㅗㅇㅈㅜ	-7895
▁ㅇㅘㄴㅂㅣ	-7896
ㅇㅑㄴㅅㅐㄱ	-7897
▁"-	-7898
▁ㄱㅜㄻ	-7899
▁ㄱㅣㅁㅎㅢ	-7900
▁ㅇㅡㅁㅈㅜ	-7901
▁ㄴㅏㅁㅅㅗㅇ	-7902
▁ㅂㅜㄱㅂㅓㄹ	-7903
▁ㅅㅡㄹㄹㅐㅁ	-7904
▁ㅈㅏㅁㅅㅣㄹ	-7905
▁ㅇㅖㄹㄹㅗ	-7906
ㄷㅓㄱㅇㅘㅇ	-7907
ㅈㅓㄹㄷㅏㄴ	-7908
▁ㅅㅏㄴㅁㅜㄹ	-7909
▁ㅇㅑㅇㅎㅕㄴ	-7910
▁ㅈㅏㅇㄴㅏㄴㄱㅏㅁ	-7911
ㅁㅗㅁ	-7912
stem	-7913
▁ㄲㅗㅈ	-7914
▁ㅎㅕㄴㅁㅜ	-7915
▁ㅅㅜㄴㅎㅏㅇ	-7916
▁ㅈㅜㅇㄹㅏㅇ	-7917
ㄲㅜㅁㅊㅣ	-7918
ㅅㅗㄹㄹㅣ	-7919
▁ㅇㅐㅇㅋㅓ	-7920
ㄱㅕㄹㅊㅐㄱ	-7921
▁ㄱㅘㅇㅅㅓㄴ	-7922
▁ㅍㅏㄴㄱㅘㄴ	-7923
▁ㅍㅣㄱㅅㅔㄹ	-7924
▁ㅎㅘㄴㄱㅘㄴ	-7925
▁ㄱㅕㅇㅁㅏ	-7926
UC	-7927
ㅇㅣㅁㅈㅏ	-7928
▁ㅇㅕㄹㄹㅕ	-7929
▁ㄷㅏㄴㄱㅜㄱ	-7930
▁ㅂㅏㄹㅅㅏㄴ	-7931
▁ㅅㅡㅂㄷㅡㄱ	-7932
▁ㅂㅏㄷㅊㅣㅁㄷㅗㄹ	-7933
▁MA	-7934
▁750	-7935
▁ㅋㅔㄴㅌㅓ	-7936
ㅎㅜㄴㅈㅏㅇ	-7937
▁ㅁㅏㄱㅍㅏㄴ	-7938
▁NS	-7939
▁1872	-7940
▁ㄱㅕㅇㄷㅗ	-7941
▁ㄴㅣㄴㅈㅏ	-7942
▁ㅈㅓㄴㄹㅣ	-7943
▁ㅌㅏㅁㅈㅓㅇ	-7944
▁ㅅㅣㅇㅋㅡ	-7945
▁ㅎㅏㅇㅇㅏ	-7946
▁ㅁㅏㄹㄷㅏㄴ	-7947
▁ㅊㅓㄹㄱㅏㅇ	-7948
▁ㅊㅓㄹㅈㅗㅇ	-7949
▁ㄹㅏㄴㅅㅡ	-7950
▁ㅂㅏㄴㅈㅜ	-7951
▁ㅂㅏㄹㅇㅢ	-7952
▁ㄱㅘㅇㅇㅓㅂ	-7953
▁ㅌㅏㅁㅎㅓㅁㄱㅏ	-7954
ㅈㅣㄴㄱㅜ	-7955
▁ㅅㅏㅇㅍㅏ	-7956
▁ㅂㅏㄴㅈㅜㄱ	-7957
▁ㅎㅡㄱㅂㅐㄱ	-7958
▁ㅎㅗㅁㄱㅕㅇㄱㅣ	-7959
▁ㅆㅜㄴ	-7960
ㅋㅓㄹㄹㅣ	-7961
▁ㅍㅣㄹㅎㅏ	-7962
ㅋㅡㄹㄹㅓㅂ	-7963
▁ㅂㅏㄱㅇㅕㅇㅎㅛ	-7964
▁ㄴㅣㅅㅅㅏㄴ	-7965
▁ㄱㅕㅇㅂㅗㄱㄱㅜㅇ	-7966
▁Sm	-7967
▁Night	-7968
▁ㄷㅏㄴㅈㅗ	-7969
▁ㄱㅕㅇㄹㅑㅇ	-7970
▁ㄱㅗㅇㅍㅏㄴ	-7971
▁ㄲㅡㅌㄴㅐㅆ	-7972
ier	-7973
▁--	-7974
▁1830	-7975
▁1863	-7976
▁ㄱㅡㄴㄹㅐ	-7977
▁ㅋㅗㄴㅌㅣ	-7978
ㅈㅣㄴㅈㅗㄱ	-7979
▁ㅇㅑㄱㅈㅓㅁ	-7980
▁section	-7981
▁ㅍㅏㄹㅈㅏㄱㅈㅣ	-7982
▁ㄷㅗㅇㅁㅐㅇㄱㅜㄴ	-7983
ㅈㅓㅇㄱㅜ	-7984
▁ㅅㅏㄱㅅㅡ	-7985
▁ㅈㅏㅇㅆㅜ	-7986
▁ㅈㅓㄴㄱㅘ	-7987
▁ㄷㅡㅇㄷㅏㄴ	-7988
▁ㅂㅗㅇㅎㅘㅇ	-7989
▁MM	-7990
ㅅㅓㄴㅅㅗ	-7991
ㅇㅠㄱㅎㅚ	-7992
▁ㅅㅏㄴㄱㅣ	-7993
▁ㄱㅘㅇㅈㅏ	-7994
▁ㄷㅗㄹㄱㅗ	-7995
▁ㅅㅐㅇㅎㅘ	-7996
▁ㅈㅜㄱㅇㅣㅁ	-7997
▁ㅌㅏㄴㅅㅏㄴ	-7998
▁ㅍㅕㄴㅇㅏㄴ	-7999
ㅍㅡㄹㄹㅔㄱㅅㅡ	-8000
▁ㅇㅡㅁㅇㅏㄱㅇㅝㄴ	-8001
70	-8002
ool	-8003
▁ㅈㅗㅇㅁㅛ	-8004
▁ㄱㅘㄴㅇㅛㅇ	-8005
▁ㅂㅗㄱㅇㅕㄱ	-8006
▁Ab	-8007
ㄴㅡㅈ	-8008
▁ㅋㅗㅂ	-8009
ㅎㅏㅇㅅㅣ	-8010
▁ㅅㅏㅇㅎㅏㄴ	-8011
▁ㅋㅡㄹㄹㅣㄱ	-8012
NG	-8013
▁1865	-8014
▁ㅂㅏㄴㄷㅏ	-8015
▁ㅈㅓㅂㅎㅏㅂ	-8016
▁ㄱㅘㄴㄹㅕㄴㅈㅏ	-8017
▁AL	-8018
ㅁㅠㄹㄹㅓ	-8019
ㅈㅓㄹㄷㅗ	-8020
▁ㅇㅏㅂㄹㅗㄱㄱㅏㅇ	-8021
ise	-8022
▁ㄷㅏㄴㅈㅏ	-8023
▁ㅇㅔㄹㅂㅣ	-8024
▁ㅇㅡㄹㅅㅏ	-8025
▁ㅊㅣㅁㄷㅐ	-8026
▁ㅂㅗㄱㅈㅣㄱ	-8027
▁ㅊㅗㅅㅂㅜㄹ	-8028
▁ㅈㅏㄱㅍㅜㅁㅅㅏㅇ	-8029
▁705	-8030
▁ㅈㅜㄱㅇㅕ	-8031
DS	-8032
ㄴㅗㄱ	-8033
▁ㅁㅐㄹ	-8034
▁ㄱㅘㅇㅂㅐ	-8035
▁ㅅㅣㅁㅅㅗ	-8036
▁ㅈㅣㄱㄱㅛ	-8037
▁ㄱㅕㅇㄱㅓㄴ	-8038
▁ㅁㅗㄱㅇㅛㄱ	-8039
▁-&	-8040
▁AI	-8041
▁Don	-8042
ㅇㅝㄴㅈㅣ	-8043
▁ㅁㅜㄷㅎㅕ	-8044
▁ㅂㅏㄴㅈㅓㅁ	-8045
▁ㅇㅏㄴㅅㅏㄴㅅㅣ	-8046
ㅅㅣㄴㄱㅣ	-8047
▁ㅂㅓㅁㅇㅓ	-8048
ㄱㅗㄱㅁㅕㄴ	-8049
▁ㅇㅕㄹㄹㅣㄹ	-8050
ㄹㅏㅇㄷㅡ	-8051
▁ㄷㅔㄴㅅㅛ	-8052
▁ㅅㅐㅇㄷㅗ	-8053
ㄱㅘㄴㅅㅣㄱ	-8054
▁ㅎㅗㄴㅎㅕㄹ	-8055
▁ㅂㅜㄹㅂㅜㄴㅁㅕㅇ	-8056
▁q	-8057
▁qu	-8058
ower	-8059
ㄴㅏㄴㅌㅡ	-8060
▁ㅂㅓㅂㅈㅓㄴ	-8061
▁ㅂㅕㄹㅈㅏㅇ	-8062
▁ㅇㅑㅇㅁㅕㄴ	-8063
▁ㅈㅓㅇㅈㅣㄴ	-8064
▁ㅎㅏㅂㅊㅏㅇㄷㅏㄴ	-8065
ㅎㅞ	-8066
▁ㅁㅡㄹ	-8067
▁1891	-8068
ㅎㅚㄱㅅㅏ	-8069
▁ㄷㅔㄹㄹㅣ	-8070
▁ㄷㅗㅇㅈㅏ	-8071
ㅅㅓㅇㅈㅣㄹ	-8072
▁ㅅㅠㄴ	-8073
ㄹㅡㄴㅂㅔ	-8074
▁ㅁㅏㅇㄱㅏ	-8075
▁ㅁㅐㄱㅇㅏ	-8076
▁ㅅㅣㄴㄷㅐ	-8077
▁ㅁㅏㄴㄴㅏㄹ	-8078
▁ㅎㅐㅅㅂㅣㅊ	-8079
▁ㅈㅓㅇㅇㅖ	-8080
▁ㅎㅕㄴㄷㅗ	-8081
▁ㅅㅏㄴㅊㅐㄱ	-8082
ai	-8083
▁ㄱㅜㄱㅎㅗ	-8084
▁ㅁㅝ	-8085
▁ㄴㅗㅎㅇㅣ	-8086
▁ㅎㅘㄹㅈㅏ	-8087
▁Good	-8088
ㅅㅏㅇㅇㅓ	-8089
ㅅㅔㄴㅌㅓ	-8090
▁ㅁㅜㄴㅈㅓㅇ	-8091
▁ㄷㅏㅇㅎㅐㅆㅇㅡ	-8092
▁ㅅㅑㅂ	-8093
▁ㄴㅏㅂㅈㅏㄱ	-8094
▁ㅇㅘㅇㅅㅓㅇ	-8095
▁802	-8096
▁ㄷㅗㅅ	-8097
▁1873	-8098
▁Black	-8099
▁ㄱㅘㄹㅎㅗ	-8100
▁ㅅㅓㅇㄱㅏ	-8101
▁ㅊㅓㅇㅁㅜㄴ	-8102
▁Qu	-8103
ㄷㅏㄴㅈㅣ	-8104
ㅋㅣㄴㅌㅗ	-8105
▁ㅇㅣㅂㅅㅣ	-8106
ㅊㅣㄴㅇㅘㅇ	-8107
ㅉㅗ	-8108
▁ㅂㅕㄴㄱㅘㅇㅅㅓㅇ	-8109
▁ㄱㅓㄹㅍㅡ	-8110
▁ㅎㅗㅁㅈㅡ	-8111
▁ㅃㅗㅂㅎㅕㅆ	-8112
▁ㅅㅏㅇㅎㅐㅇ	-8113
▁ㄱㅓㄹㄹㅣㄴㄷㅏ	-8114
▁ㅎㅕㅂㄷㅗㅇㅈㅗ	-8115
che	-8116
▁ㄱㅡㅁㄱㅗ	-8117
▁ㅇㅏㄹㅁㅏㅈ	-8118
▁ㅅㅡㅇㅈㅓㅇㅇㅝㄴ	-8119
▁ㄲㅞ	-8120
▁ㅃㅣ	-8121
▁ㄱㅜㄱㅎㅘ	-8122
ㅋㅣㄴㅅㅡㄴ	-8123
ㅍㅏㄴㅂㅜ	-8124
▁ㄱㅜㄴㅈㅏ	-8125
▁ㅇㅗㄱㅅㅣ	-8126
▁ㄲㅡㅌㄴㅏㄴㄷㅏ	-8127
▁ㄴㅏㅇㅁㅏㄴㅈㅜ	-8128
▁ㄷㅏㅇㅅㅓㄴㅈㅏ	-8129
ㅌㅜㅇ	-8130
ㅎㅡㅁ	-8131
▁550	-8132
▁Can	-8133
▁ㅎㅡㄹㄹㅣ	-8134
▁ㅎㅣㄹㅂㅔ	-8135
▁ㄱㅘㄴㅅㅓㅇ	-8136
▁ㅅㅑㅁ	-8137
▁ㅅㅗㄹㄹㅣ	-8138
▁ㅇㅔㄹㄹㅓㄴ	-8139
▁ㅎㅡㅂㅇㅕㄴ	-8140
ank	-8141
▁AU	-8142
ings	-8143
▁ㅎㅕㄹㅇㅏㅂ	-8144
ㅅㅓㄴㅇㅘㅇㅈㅗ	-8145
ㅇㅕㅇㅅㅏ	-8146
▁ㄱㅏㅁㅇㅕㅁㅈㅡㅇ	-8147
ㅈㅏㅇㅈㅗ	-8148
▁ㅂㅜㄱㄷㅐ	-8149
▁ㅇㅗㄴㄷㅜ	-8150
▁ㅅㅏㄴㅅㅣㄴ	-8151
▁ㅇㅕㄴㅊㅜㄹㄱㅏ	-8152
▁El	-8153
▁650	-8154
▁ㅆㅏㄱ	-8155
▁ㅂㅕㅇㄱㅘ	-8156
▁ㅅㅓㅇㅅㅜ	-8157
▁ㅅㅣㄴㅂㅗㅇ	-8158
▁ㅈㅣㅂㅈㅓㅇㄱㅘㄴ	-8159
ㅅㅐㅁ	-8160
▁NAD	-8161
▁ㅇㅕㅁㅎㅘ	-8162
ㄷㅗㅇㅁㅐㅇ	-8163
ㅇㅕㅇㅈㅏㅇ	-8164
▁ㅇㅛㅇㅅㅏㄴㄱㅜ	-8165
▁ㄱㅏㄱㅈㅜ	-8166
▁ㄱㅣㅁㅅㅓㅇㅅㅜ	-8167
ta	-8168
▁Ser	-8169
ㅈㅓㅇㄱㅣ	-8170
▁ㅌㅗㅇㄷㅗ	-8171
▁ㅈㅗㅇㅇㅓㅂ	-8172
ㅎㅏㅂㅈㅜㅇㄱㅜㄱ	-8173
▁PM	-8174
▁ㄴㅔㄱㅅㅡ	-8175
▁ㅅㅏㅁㄱㅜㄱㅇㅠ	-8176
▁Let	-8177
▁ㄱㅕㅇㅁㅐ	-8178
▁ㄱㅡㅂㅎㅣ	-8179
▁ㄷㅗㄱㅈㅜ	-8180
▁ㅇㅣㄹㅈㅣ	-8181
▁ㅈㅣㄴㅇㅣ	-8182
ㅂㅜㄱㅁㅕㄴ	-8183
lar	-8184
▁ㄴㅡㄹㄹㅕ	-8185
▁ㅇㅡㅇㅎㅏ	-8186
▁ㅁㅏㄴㅈㅓㅁ	-8187
▁1867	-8188
▁ㅂㅜㄴㅂㅕㄹ	-8189
▁ㅎㅏㅂㄱㅡㅁ	-8190
ky	-8191
▁UC	-8192
ㅍㅣㄱㅅㅡ	-8193
ㅎㅡㅂㄱㅣ	-8194
▁ㄱㅕㅇㅈㅣ	-8195
▁ㅁㅗㄹㄷㅜ	-8196
▁ㅎㅗㄹㄷㅣㅇㅅㅡ	-8197
tr	-8198
▁Ac	-8199
▁And	-8200
▁ㅅㅣㄴㅇㅢ	-8201
▁ㅈㅣㅂㅎㅐㅇㅇㅠ	-8202
▁ㅇㅣㄹㅂㅗㄴㅅㅣㄱ	-8203
▁LS	-8204
ㅅㅏㄴㅂㅜ	-8205
ㅇㅏㄴㅂㅓㅂ	-8206
▁ㄲㅗㅊㅇㅣㅍ	-8207
▁ㄷㅗㅇㅌㅏㄱ	-8208
▁ㅂㅐㄱㅇㅏㄱㄱㅘㄴ	-8209
▁ㄱㅜㄱㅁㅣㄴㅎㅏㄱㄱㅛ	-8210
ㄷㅓㄴㅈㅣ	-8211
▁ㅁㅣㄴㅅㅡ	-8212
▁ㅁㅏㅌㄱㅕㅆ	-8213
▁ㅇㅑㅇㅇㅑㅇ	-8214
▁ㅈㅓㅇㅎㅘㅇ	-8215
ㄹㅣㅅㅅㅜ	-8216
▁ㅈㅓㄱㅂㅏㄹ	-8217
▁ㅅㅗㄴㅈㅏㅂㅇㅣ	-8218
▁ㄱㅗㅇㅌㅗㅇㅈㅓㅁ	-8219
▁RC	-8220
▁ㅆㅣㄴ	-8221
▁1862	-8222
▁6000	-8223
ㄷㅡㄹㄹㅔ	-8224
ㄹㅔㄹㄹㅏ	-8225
ㅂㅔㄴㅅㅕㄴ	-8226
▁ㅇㅗㄱㅊㅓㄴ	-8227
▁ㅈㅣㄴㅇㅓㄴ	-8228
▁ㅇㅏㄴㄷㅗㅇㅅㅣ	-8229
▁ㅊㅐㄹㄹㅣㄴㅈㅓ	-8230
ㅌㅏㄴㄷㅜ	-8231
▁ㅅㅜㄹㄹㅏ	-8232
▁ㅅㅡㅇㅈㅣ	-8233
▁ㅌㅏㄱㄱㅜ	-8234
▁ㅌㅡㄴㅌㅡㄴ	-8235
▁ㅇㅐㅁ	-8236
▁ㅅㅓㅁㄱㅣ	-8237
▁ㅇㅑㅇㅈㅣ	-8238
▁ㅊㅜㄹㅇㅣㅂㅁㅜㄴ	-8239
ee	-8240
▁ㄱㅜㄱㅂㅜ	-8241
▁ㅇㅛㅇㅎㅐ	-8242
▁ㄷㅡㅇㄷㅡㅇ	-8243
▁ㅁㅗㄹㄹㅏㅆ	-8244
▁ㅇㅣㅂㅂㅓㅂㅂㅜ	-8245
ㅂㅓㄴㅇㅔ	-8246
ㅇㅝㄴㅎㅜ	-8247
▁ㅂㅏㄹㅍㅗ	-8248
▁ㅌㅔㄴㅅㅓ	-8249
ㅅㅓㄹㅁㅜㄹ	-8250
▁ㄱㅓㄴㄴㅓㄹ	-8251
▁ㅈㅣㄴㅎㅡㄺ	-8252
▁ㅊㅜㅇㅅㅣㄴ	-8253
▁ㅎㅓㄴㄴㅏㅂ	-8254
▁ㅇㅏㄹㅍㅗㄴㅅㅗ	-8255
▁ㅁㅕㅇㅅㅓㅇㅎㅘㅇㅎㅜ	-8256
rist	-8257
ㅈㅓㅇㅂㅗ	-8258
▁ㄴㅐㅆㅇㅡ	-8259
▁ㅂㅏㄴㅈㅓㅇㅂㅜ	-8260
▁ㅇㅕㅆㅇㅡㅁㅇㅡㄹ	-8261
▁ㅍㅕㄴㅈㅣㅂㅈㅏㅇ	-8262
▁Ag	-8263
ㄴㅗㅍ	-8264
ㅁㅜㅁ	-8265
▁ㄴㅜㄴㅊㅣ	-8266
▁ㅊㅣㅇㄱㅣ	-8267
▁ㅂㅣㄱㅂㅐㅇ	-8268
ㄹㅗㄹㄹㅔ	-8269
ㅂㅡㄹㄹㅣㅅ	-8270
▁ㄷㅏㅇㅎㅘㅇ	-8271
▁ㅇㅣㅂㅊㅜㄹ	-8272
▁ㅈㅏㄱㄴㅕㄴ	-8273
▁ㅊㅜㅇㅊㅣㅇ	-8274
ㅎㅏㄴㅎㅏㅇㄱㅗㅇ	-8275
▁ㅍㅐㅅ	-8276
▁1878	-8277
▁ㅎㅕㅇㅈㅜ	-8278
ㄹㅏㅁㅈㅣㄱ	-8279
ㅋㅡㄹㄹㅗㄴ	-8280
▁ㄱㅡㄹㄹㅔㄴ	-8281
▁ㅈㅡㅇㅅㅣㄱ	-8282
▁ㅊㅜㄱㅅㅏㄴ	-8283
▁KN	-8284
▁HMS	-8285
▁ㅈㅏㅂㅎㅣ	-8286
▁ㄱㅡㅂㅅㅓㅇ	-8287
▁ㅅㅓㅇㅍㅜㅁ	-8288
▁ㅇㅣㅂㅅㅜㄹ	-8289
▁ㅈㅓㄹㅇㅑㄱ	-8290
▁ㄱㅡㄴㅂㅗㄴㅂㅓㄴㄴㅚ	-8291
▁AA	-8292
▁DR	-8293
ㅇㅓㅁㄱㅕㅇ	-8294
▁return	-8295
▁ㅈㅏㅇㅅㅣㄴ	-8296
ㅌㅟ	-8297
▁ㅍㅏㄱ	-8298
ㅅㅣㄴㅈㅏ	-8299
ㅍㅔㄹㄹㅓ	-8300
▁ㄱㅏㄴㅍㅏㄴ	-8301
▁ㄱㅐㄱㅅㅣㄹ	-8302
▁ㅅㅡㅂㅅㅓㅇ	-8303
▁ㅊㅓㅇㄱㅏㄱ	-8304
▁ㅎㅐㄱㅂㅜㄴㅇㅕㄹ	-8305
▁ㅍㅣㄹㄷㅜ	-8306
▁ㅍㅣㄹㅁㅕㅇ	-8307
hem	-8308
▁me	-8309
▁tr	-8310
ㅇㅏㅁㅅㅏ	-8311
ㅌㅜㅇㅇㅣ	-8312
▁ㅂㅔㄹㄹㅔ	-8313
▁ㅈㅜㄴㄷㅗㅇ	-8314
▁ㄷㅓㅅㅂㅜㅌㅇㅕㅆ	-8315
pr	-8316
▁SO	-8317
▁ㄱㅝㄹ	-8318
▁ㄴㅓㅁㅂㅓ	-8319
▁ㅅㅏㅇㅇㅢ	-8320
▁ㅊㅣㄴㅁㅣㄹ	-8321
▁ㅎㅏㄴㅊㅏㅇ	-8322
ㅁㅏㅇㅊㅣ	-8323
ㅇㅓㄴㄱㅏ	-8324
ㅌㅔㄹㄹㅏ	-8325
▁ㄱㅣㄹㄹㅓ	-8326
▁ㄴㅣㄱㅅㅡ	-8327
▁ㅅㅏㄹㅉㅏㄱ	-8328
▁ㅇㅘㅅㅅㅡㄴ	-8329
▁ㅊㅜㅇㄷㅏㅇ	-8330
▁1869	-8331
▁ㅇㅣㅇㅋㅡ	-8332
▁ㅇㅣㄹㅅㅓㄹ	-8333
▁ㅈㅓㅇㅁㅕㅇ	-8334
▁ㅇㅜㄴㄷㅗㅇㄹㅑㅇ	-8335
90	-8336
IF	-8337
ade	-8338
▁ㅂㅗㄲ	-8339
▁ㄷㅏㅇㄱㅘ	-8340
▁ㄱㅕㅇㅇㅡㄴ	-8341
▁ㅇㅑㅇㄱㅜㄴ	-8342
▁ㅈㅡㅇㅂㅏㄹ	-8343
▁ㅈㅣㄱㄱㅘㄴ	-8344
ㅉㅗㅊ	-8345
▁ㄷㅐㄹㄹㅓ	-8346
▁ㅋㅗㄹㄷㅡ	-8347
▁ㅌㅗㅇㅈㅣ	-8348
▁ㄱㅓㄹㅈㅏㄱ	-8349
▁DB	-8350
▁ㅎㅘㅇㅈㅏ	-8351
ㅁㅕㄴㅈㅓㄱ	-8352
▁ㄴㅗㄴㅅㅏㄴ	-8353
▁ㅇㅝㄴㅎㅏㄴ	-8354
▁ㅈㅡㅇㄱㅏㅇ	-8355
▁ㅇㅏㄴㄷㅗ	-8356
ㅇㅣㄹㅅㅣㄴ	-8357
ㅎㅘㄴㅎㅘㄴ	-8358
▁ㅇㅘㄴㅁㅏㄴ	-8359
▁ㅎㅏㅇㅅㅐㅇ	-8360
▁ㄹㅐㄱ	-8361
▁ㄴㅏㅁㄷㅐ	-8362
▁ㅇㅏㅇㅌㅜ	-8363
▁ㅇㅓㅂㄹㅗ	-8364
▁ㅇㅛㅇㅅㅜ	-8365
▁ㅇㅜㄹㅌㅡ	-8366
▁ㅇㅣㅁㅎㅏ	-8367
ㅈㅣㄹㅎㅏㄱ	-8368
▁ㄱㅕㅇㅈㅏㄱ	-8369
▁ㅇㅛㅇㄱㅏㅁ	-8370
▁VS	-8371
▁MSL	-8372
▁Mon	-8373
▁1592	-8374
▁ㄱㅏㅁㅊㅜ	-8375
▁ㅇㅕㅇㅁㅣ	-8376
▁ㅇㅗㄱㅅㅏ	-8377
▁ㄱㅏㄴㄱㅕㄹ	-8378
IX	-8379
ae	-8380
ount	-8381
ㅈㅏㅇㅂㅗ	-8382
ㅌㅡㄹㄹㅏ	-8383
▁ㄱㅜㄴㅅㅔ	-8384
▁ㅂㅏㄴㄹㅗㄴ	-8385
▁ㅊㅣㄴㅅㅓㄴㄱㅕㅇㄱㅣ	-8386
▁ab	-8387
ㄲㅓㅇ	-8388
ㅍㅕㅇㄱㅜ	-8389
▁ㄱㅘㅇㅁㅜ	-8390
▁ㅊㅓㄹㅈㅏ	-8391
▁ㅍㅜㄹㄹㅣ	-8392
▁ㄷㅏㅇㄷㅏㅇ	-8393
▁ㅇㅠㄱㅅㅣㄱ	-8394
▁ㅍㅣㄹㅇㅕㄴ	-8395
▁ㅇㅓㄴㄹㅗㄴㅅㅏ	-8396
▁ㄱㅡㅁㄱㅏㅇㅅㅏㄴ	-8397
ㅌㅜㄹ	-8398
▁ㅂㅓㄴㄱㅐ	-8399
ㅇㅛㄱㅈㅏㅇ	-8400
▁ㄱㅜㄱㅇㅣㄴ	-8401
▁ㅈㅓㄱㅈㅓㅇ	-8402
▁ㅈㅓㅇㅊㅣㄱ	-8403
▁ㅎㅓㄴㅂㅕㅇ	-8404
▁ㅋㅓㅁㅍㅣㄹㄹㅔ	-8405
▁ㅈㅗㅇㅇㅓㅂㅇㅝㄴ	-8406
▁ㅈㅗㅇㅊㅏㄱㅇㅕㄱ	-8407
ㅈㅜㅁ	-8408
▁ㅇㅝㄱㅅㅡ	-8409
▁516	-8410
per	-8411
ㅂㅕㅇㅈㅏㅇ	-8412
ㅇㅣㄴㅅㅏㄴ	-8413
▁ㅂㅕㅇㅍㅜㅇ	-8414
▁ㅆㅏㅇㅅㅓㅇ	-8415
▁Windows	-8416
▁ㄱㅏㅇㅎㅗ	-8417
▁ㅊㅏㄱㅊㅟ	-8418
▁ㅇㅕㄹㄹㅕㄹ	-8419
▁ㅊㅜㄱㅇㅣㄹ	-8420
ㄹㅣㄴㄹㅏㄴㄷㅡ	-8421
▁ㅎㅕㅇㅇㅛㅇㅅㅏ	-8422
ㄹㅡㄹㄹㅣ	-8423
ㅇㅣㄹㄹㅏ	-8424
▁ㅅㅏㅇㄱㅘ	-8425
ㄹㅔㄴㅌㅡ	-8426
ㅈㅓㅇㅈㅣ	-8427
▁ㄹㅔㄱㅅㅡ	-8428
▁ㄹㅣㄴㄷㅏ	-8429
▁ㅂㅣㄱㅌㅓ	-8430
▁ㅈㅔㄹㄹㅣ	-8431
ㅈㅏㅇㄱㅕㅇ	-8432
ata	-8433
ㅍㅔㄱ	-8434
▁AMD	-8435
▁IMF	-8436
▁ㅇㅘㄴㅅㅜ	-8437
▁ㄴㅗㅍㅇㅕㅆ	-8438
▁ㄷㅏㄴㅇㅕㄱ	-8439
▁ㅂㅜㄴㄱㅕㅇ	-8440
▁ㅎㅚㅇㄹㅕㅇ	-8441
▁ㅊㅏㅇㄹㅣㅂㅈㅏ	-8442
▁ㄱㅙㄴ	-8443
ㅊㅗㄴㄹㅣ	-8444
▁ㅂㅜㄹㄹㅗ	-8445
▁ㅇㅏㅍㅅㅔ	-8446
▁ㅇㅣㄴㅇㅟ	-8447
▁ㅂㅏㄱㅈㅣㄴ	-8448
▁ㅇㅏㅍㄷㅜㄴ	-8449
▁ㅈㅜㄹㅇㅣㄹ	-8450
▁ㅊㅗㄱㅂㅏㄹ	-8451
▁ㅅㅣㄴㅎㅏㄴㅇㅡㄴㅎㅐㅇ	-8452
ium	-8453
▁sh	-8454
▁ㄱㅗㄹㅉㅏ	-8455
▁ㄷㅏㅇㅍㅏ	-8456
▁ㅁㅕㄴㅈㅣㄱ	-8457
▁ㅈㅣㄱㅁㅜㄹ	-8458
▁As	-8459
▁Pe	-8460
▁ㅁㅣㅅ	-8461
ㅎㅏㄱㅅㅏ	-8462
▁ㅂㅗㅇㅎㅏ	-8463
▁ㅇㅕㄹㅅㅚ	-8464
ㄱㅏㄹㅇㅓ	-8465
▁ㄱㅡㄴㅂㅏㅇ	-8466
▁ㅇㅕㄴㅈㅜㅇ	-8467
▁ㅈㅜㅇㅇㅛㅇ	-8468
▁ㅂㅏㅅ	-8469
▁ㄱㅘㅇㅎㅘ	-8470
▁ㅁㅗㅁㅊㅔ	-8471
▁ㅊㅜㄹㅅㅔ	-8472
▁ㅂㅏㄹㅊㅏㄱ	-8473
ㄷㅏㄴㅈㅜ	-8474
▁ㅂㅜㄱㅁㅏ	-8475
▁ㅇㅏㅍㅂㅏ	-8476
ㅈㅏㄱㅈㅣㄴ	-8477
▁ㄱㅜㄹㅂㅗㄱ	-8478
▁ㅂㅏㄱㅇㅝㄴ	-8479
▁ㄷㅗㅇㄱㅓ	-8480
▁ㅊㅓㅇㅊㅟ	-8481
▁ㅍㅗㅁㅍㅔ	-8482
▁ㅂㅔㅇㄱㅗㄹ	-8483
▁ㅈㅏㄴㅈㅗㄴ	-8484
▁Aw	-8485
ㄱㅐㄱㄱㅣ	-8486
ㄱㅘㅇㅈㅗ	-8487
ㄴㅏㄹㄹㅔ	-8488
▁ㅇㅕㄴㅎㅐㅇ	-8489
▁ㅂㅜㄱㄱㅡㄱㅈㅓㅁ	-8490
▁ㅌㅡㄱㅂㅕㄹㅂㅓㅂ	-8491
ale	-8492
▁ㄱㅏㅇㅇㅜ	-8493
▁ㅅㅣㄴㅎㅐ	-8494
▁ㅇㅐㄱㅌㅣ	-8495
▁ㅋㅓㅂㅅㅡ	-8496
▁ㄱㅡㅁㅅㅐㄱ	-8497
▁ㅇㅗㄴㅅㅣㄹ	-8498
▁ㅎㅡㅇㅇㅝㄴ	-8499
▁Out	-8500
ㅍㅡㄹㄹㅜ	-8501
▁Heart	-8502
▁ㅂㅏㄴㅎㅏㅇ	-8503
▁Song	-8504
▁ㄷㅡㄹㄹㅣ	-8505
▁ㅊㅜㄹㄱㅜㄱ	-8506
▁ㅍㅏㄹㄹㅣㄴ	-8507
▁ㅅㅣㄴㅅㅓㄱㄱㅣ	-8508
▁ㅋㅓㄴㅂㅔㄴㅅㅕㄴ	-8509
▁ㅍㅐㄹ	-8510
▁ㄱㅣㄹㄷㅡ	-8511
▁ㅂㅕㅇㄹㅣ	-8512
▁ㅅㅡㄹㄹㅣ	-8513
▁ㅇㅗㄱㅌㅏ	-8514
ㅈㅏㄱㅈㅓㄴ	-8515
▁ㅅㅡㅇㅇㅛㅇㅊㅏ	-8516
▁ㄱㅗㅇㅅㅣㄱㅈㅓㄴ	-8517
▁ㅇㅜㅁㅈㅣㄱㅇㅣㄹ	-8518
▁Gl	-8519
ㅂㅌㅏ	-8520
ㄹㅔㄴㅈㅡ	-8521
ㅎㅐㅇㅍㅏ	-8522
▁ㅇㅝㄴㅎㅛ	-8523
ㅇㅠㄱㅎㅏㄱ	-8524
▁ㅈㅓㄴㅁㅕㄹ	-8525
▁ㅈㅓㅇㅂㅏㄱ	-8526
▁ㅊㅣㅇㅎㅐㅆ	-8527
▁ㅇㅣㄴㅁㅣㄴㅎㅐ	-8528
▁ㅈㅓㄱㅅㅣㅂㅈㅏ	-8529
UN	-8530
▁PL	-8531
able	-8532
▁ㅅㅓㅇㄱㅛ	-8533
▁ㅇㅝㄹㅎㅘ	-8534
▁ㄱㅡㄱㅊㅏㄴ	-8535
▁ㅍㅕㅇㅎㅐㅆ	-8536
▁ㄱㅕㅇㅈㅐㅇㅈㅏ	-8537
▁ㅇㅏㄴㅊㅏㅇㅎㅗ	-8538
▁1840	-8539
▁8000	-8540
ㄷㅓㄴㅌㅡ	-8541
▁ㄲㅗㅊㅊㅏ	-8542
▁ㅈㅏㄴㅎㅐ	-8543
▁ㅎㅏㄹㄹㅗ	-8544
ㄷㅏㄴㅌㅓㄹ	-8545
▁ㅁㅜㄴㅈㅜㅇ	-8546
▁ㅇㅓㅅㄱㅏㄹ	-8547
ㅂㅏㄱㅅㅏ	-8548
ㅇㅣㅁㅅㅐ	-8549
▁ㄷㅗㅇㅎㅗ	-8550
▁ㅇㅣㅇㅇㅕ	-8551
▁ㅎㅘㅇㅍㅖ	-8552
ㄷㅏㄴㅌㅓㄹㅈㅟ	-8553
▁ㅈㅓㅁㅈㅣㄴ	-8554
VA	-8555
ㄴㅣㄴㄱㅏ	-8556
ㄹㅗㄴㄱㅏ	-8557
▁ㄱㅣㅁㄷㅜ	-8558
▁ㅅㅗㄴㄴㅣㅁ	-8559
▁ㅂㅏㄴㄱㅏㅁㄱㅣ	-8560
▁ㅎㅏㅂㅅㅓㅇㅇㅓ	-8561
▁ㅅㅓㅇㅍㅗㄱㅎㅐㅇ	-8562
▁708	-8563
▁ㅅㅓㅇㄷㅐ	-8564
▁ㄷㅏㄴㅇㅑㅇ	-8565
▁ㅇㅕㄴㄷㅏㄹ	-8566
▁ㅎㅏㅇㄱㅗㅇㄷㅐ	-8567
ㅇㅔㄴㅈㅏ	-8568
ㅇㅕㄴㅅㅏ	-8569
ㅇㅣㄹㅊㅣ	-8570
▁ㅇㅠㄴㅎㅠ	-8571
▁ㅈㅣㅂㅇㅓ	-8572
itt	-8573
▁IR	-8574
▁DOS	-8575
▁ㅅㅓㄹㄹㅣ	-8576
▁ㅇㅏㅁㅅㅜ	-8577
▁ㅎㅟㅂㅆㅏ	-8578
ㄴㅕㅁㅈㅏㅇ	-8579
▁ㄷㅗㄱㅅㅏㄹ	-8580
▁ㅈㅓㄹㅊㅣㄴ	-8581
▁ㅁㅗㄱㅈㅓㄱㅈㅣ	-8582
▁ㅊㅑ	-8583
ㅇㅣㄴㅈㅜ	-8584
▁ㅂㅕㄴㅁㅗ	-8585
ㅂㅏㅇㅎㅑㅇ	-8586
ㅇㅗㄹㄹㅏㅆ	-8587
▁ㄷㅡㅇㅅㅏㄴ	-8588
▁JC	-8589
▁Vol	-8590
ㅁㅜㄴㅅㅏ	-8591
ㅇㅣㅁㄱㅣ	-8592
ㅊㅓㄹㅅㅜ	-8593
▁ㄴㅗㄴㅎㅏ	-8594
▁ㄴㅗㅇㄱㅏ	-8595
▁ㅂㅏㅇㅇㅜㄹ	-8596
ng	-8597
son	-8598
▁"()	-8599
ㅌㅔㄴㅅㅕㄹ	-8600
▁ㅂㅗㄹㄴㅔㅅ	-8601
▁ㅂㅣㄴㅁㅣㄴ	-8602
▁ㅅㅏㅇㅅㅓㄴ	-8603
▁ㅅㅐㅇㄱㅣㄹ	-8604
▁ㅋㅗㄹㄹㅣㄴ	-8605
▁ㅎㅘㄴㅇㅠㄹ	-8606
BI	-8607
▁235	-8608
ㅇㅏㄹㄹㅏ	-8609
▁ㅅㅣㄹㅅㅏ	-8610
ㄹㅣㅇㄱㅔㄴ	-8611
ㅊㅓㄹㅇㅕㄱ	-8612
ㅍㅣㅇㅁㅗㄹ	-8613
▁ㅂㅗㄹㄹㅗㄱ	-8614
▁ㅇㅝㄴㅁㅜㄴ	-8615
▁KTX	-8616
ㅇㅣㄹㄱㅣ	-8617
▁ㅇㅑㅇㅍㅏ	-8618
▁ㅈㅓㅇㅇㅔ	-8619
▁ㄱㅡㅁㅎㅘㄴ	-8620
▁ㅅㅓㄴㅅㅏㅇ	-8621
▁ㅂㅕㄴㅎㅏㄴㄷㅏ	-8622
▁ㅊㅣㄴㅎㅘㄴㄱㅕㅇ	-8623
ㄷㅣㅅ	-8624
▁380	-8625
▁1875	-8626
ㅊㅓㅇㅅㅏ	-8627
▁ㅇㅕㅇㅅㅜ	-8628
▁ㅇㅔㄴㅈㅔㄹ	-8629
▁TS	-8630
ㅅㅑㄴ	-8631
ㅅㅑㅇ	-8632
▁Gen	-8633
▁Par	-8634
ㅎㅘㄹㅇㅑㄱ	-8635
▁ㅇㅣㅁㅈㅗㅇ	-8636
▁ㅎㅕㄴㅇㅏㄱ	-8637
▁ㄴㅏㄺ	-8638
ㄴㅓㄴㅌㅡ	-8639
ㅍㅕㅇㅁㅕㄴ	-8640
▁ㅎㅗㄴㅈㅏㅂ	-8641
▁ㅇㅕㄴㅅㅗㄱㄱㅡㄱ	-8642
▁ㄹㅏㄴㅌㅡ	-8643
▁ㅅㅐㅇㅈㅟ	-8644
ㄷㅏㅅㅁㅜㄹ	-8645
▁ㅁㅐㅇㅎㅘㄹㅇㅑㄱ	-8646
▁WC	-8647
ㅂㅓㄹㄹㅣ	-8648
▁ㅂㅜㄹㄹㅕ	-8649
▁ㅇㅕㄹㄱㅣ	-8650
▁ㄱㅗㅇㅅㅏㅇ	-8651
▁ㅇㅏㄴㅈㅜㅇ	-8652
▁ㄷㅏㄹㄹㅣㄴㄷㅏ	-8653
▁ㄱㅘㅇㄷㅜㅇㅅㅓㅇ	-8654
▁ㅆㅓㄱ	-8655
ㄹㅗㄱㄷㅐ	-8656
▁ㄷㅚㅂㄴㅣ	-8657
▁ㄱㅝㄴㅇㅣㄱ	-8658
▁ㅍㅏㄹㄲㅜㅁㅊㅣ	-8659
▁ㄴㅏㅁㄱㅡㄱㅈㅓㅁ	-8660
ㅂㅏㄴㅅㅜ	-8661
ㅂㅕㄴㅅㅜ	-8662
ㅇㅡㄴㅅㅏ	-8663
▁ㅈㅓㄴㅈㅗ	-8664
ㄷㅏㄹㄹㅕㅆ	-8665
▁ㄱㅕㅁㅈㅣㄱ	-8666
▁ㅁㅗㄱㅈㅏㅇ	-8667
▁ㅇㅣㄹㅅㅓㄴ	-8668
18	-8669
▁At	-8670
ㄷㅓㅍ	-8671
▁ㅂㅔㅅ	-8672
ㅇㅕㅂㅅㅜ	-8673
ㅊㅏㄴㅅㅓㅇ	-8674
▁ㄱㅘㄴㅇㅡㅁㅂㅗ	-8675
▁ATC	-8676
▁ㄱㅜㄱㅅㅔ	-8677
ㅇㅛㅇㄹㅑㅇ	-8678
▁ㅈㅜㅇㅇㅣㄹ	-8679
▁ㅇㅕㄹㅇㅕㄱㅎㅏㄱ	-8680
so	-8681
ㄴㅏㄹㄷㅡ	-8682
ㄹㅗㄴㅌㅡ	-8683
▁ㅂㅔㄴㅊㅡ	-8684
▁ㅅㅏㅇㄱㅖ	-8685
ㅎㅏㄹㄹㅣㄴ	-8686
ㅎㅏㅇㅈㅓㄴ	-8687
▁ㄷㅏㄹㅋㅗㅁ	-8688
▁ㅇㅝㄴㄷㅏㄴ	-8689
▁ㅎㅏㅁㄱㅕㅇㄷㅗ	-8690
ㄱㅗㄷ	-8691
ㄹㅔㄴㄷㅡ	-8692
▁ㅁㅜㄴㅅㅜ	-8693
▁ㅁㅜㄴㅊㅔ	-8694
▁ㅂㅏㅇㅎㅗ	-8695
▁ㅇㅏㄹㄹㅗ	-8696
▁ㅂㅕㅇㄹㅕㄹ	-8697
▁ㄷㅜㅁ	-8698
ㅎㅕㄴㅈㅜ	-8699
▁ㄱㅡㄱㅅㅗ	-8700
▁ㄱㅏㅇㅅㅡㅂ	-8701
▁ㅌㅗㅇㅅㅣㄴㅁㅏㅇ	-8702
ㅁㅠㅁ	-8703
ㅇㅑㅇㄱㅜ	-8704
▁ㅇㅛㅇㅈㅣ	-8705
ㄱㅕㄱㅈㅡㅇ	-8706
ㅅㅓㄴㅇㅓㄴ	-8707
ㅅㅣㄴㅈㅓㅇ	-8708
▁ㅁㅓㅅㅈㅣㄴ	-8709
▁ㅇㅑㅇㅍㅕㅇ	-8710
▁ㅈㅏㅇㄱㅏㅂㅊㅏ	-8711
▁University	-8712
▁205	-8713
▁NBC	-8714
ㅌㅔㄹㅅㅡ	-8715
▁ㅈㅗㅇㄱㅏ	-8716
▁ㄱㅏㅇㅇㅣㄴ	-8717
▁ㄱㅕㅇㅅㅜㄴ	-8718
▁ㅅㅑㅅ	-8719
ㅈㅓㄴㄷㅗ	-8720
▁ㅁㅏㄹㄹㅕ	-8721
▁ㅂㅐㄱㅈㅗ	-8722
▁ㅇㅣㅂㅎㅣ	-8723
▁ㄱㅜㄱㄹㅕㄱ	-8724
▁ㅅㅓㄴㅇㅠㄹ	-8725
▁ㅇㅏㄹㄹㅔㄱㅅㅔ	-8726
▁ㅈㅜㅇㅇㅏㅇㅅㅓㄴ	-8727
yn	-8728
▁ㅋㅗㄴㅍㅓ	-8729
▁ㅎㅐㄱㅌㅏㄴㄷㅜ	-8730
13	-8731
ala	-8732
ㅁㅕㅇㅅㅔ	-8733
▁ㅅㅓㄱㄱㅣ	-8734
▁ㄷㅗㅇㅂㅐㄱ	-8735
ㄴㅜㅁ	-8736
▁Hell	-8737
ㄱㅓㄴㅅㅓㄹ	-8738
▁ㅊㅜㄹㅍㅜㅁ	-8739
▁ㅎㅐㅇㄱㅜㄴ	-8740
ㅈㅣㅇㅇㅓ	-8741
▁ㅎㅐㅇㅂㅗ	-8742
ㅅㅏㅇㅎㅏㄱ	-8743
▁ㅈㅣㅂㅈㅓㄴ	-8744
IVE	-8745
▁ㅌㅓㅇ	-8746
▁ㄱㅕㄱㅎㅏ	-8747
▁ㅇㅕㄴㅎㅐ	-8748
▁ㅌㅏㄴㄷㅜ	-8749
▁ㄴㅗㅇㅅㅓㅇ	-8750
▁ㅇㅝㄹㄴㅏㅁ	-8751
oid	-8752
ㄷㅔㄹㄹㅣ	-8753
ㅇㅜㄴㅅㅜ	-8754
ㅋㅓㄹㄹㅔ	-8755
▁ㅊㅣㄴㅎㅘ	-8756
▁ㅋㅟㄴㅅㅡ	-8757
▁ㅇㅗㄹㄹㅕㅆㅇㅡ	-8758
14	-8759
15	-8760
▁ㅁㅕㄱ	-8761
▁name	-8762
▁ㅊㅏㅇㄱㅜ	-8763
▁ㅊㅜㄹㅅㅏ	-8764
▁ㄱㅘㄴㄷㅗㅇ	-8765
▁ㅈㅓㅇㄱㅡㄹ	-8766
ㅍㅡㄹㄹㅣㄱㅅㅡ	-8767
▁ㅎㅏㄱㅅㅜㄹㅈㅣ	-8768
▁ㄴㅔㅅㅍㅡㄹㄹㅣㄱㅅㅡ	-8769
ax	-8770
▁sp	-8771
▁ㅇㅝㄹㄹㅣ	-8772
▁ㅊㅓㅂㅂㅗ	-8773
▁ㅇㅣㄴㅍㅡㄹㄹㅜ	-8774
ㄷㅗㅇㅇㅝㄴ	-8775
▁ㅁㅣㄴㅅㅣㅁ	-8776
▁ㅊㅣㅁㅅㅣㄱ	-8777
ㄹㅏㄴㄷㅔㄴㅂㅜ	-8778
PA	-8779
ㄸㅜㅇ	-8780
▁APG	-8781
▁Dra	-8782
▁ㅂㅓㅇ	-8783
ㄲㅟㄴㄷㅏ	-8784
ㄱㅏㄱㅅㅏㅇ	-8785
ㅁㅗㅇㄱㅗㄹ	-8786
▁ㄴㅓㅁㄱㅕㅆ	-8787
▁ㅇㅣㄹㅁㅕㅇ	-8788
▁ㅎㅏㄴㅁㅣㄴ	-8789
▁ㄱㅗㅇㅎㅏㄱㅈㅏ	-8790
22	-8791
▁ㄹㅝ	-8792
▁tvN	-8793
▁ㅁㅜㄲㅇㅕ	-8794
▁ㅂㅕㄴㅎㅐ	-8795
▁ㅇㅏㄴㅅㅣㄱ	-8796
▁ㅇㅕㅇㄹㅏㄱ	-8797
co	-8798
▁ㄷㅏㄴㅅㅓ	-8799
ㄴㅏㅁㅁㅕㄴ	-8800
ㅈㅣㄹㄹㅓㅆ	-8801
ㅎㅏㄱㅅㅏㅇ	-8802
▁ㅅㅏㅇㅅㅣㄱ	-8803
▁ㄴㅏㅊ	-8804
ㅇㅕㄴㄱㅜ	-8805
▁ㄱㅕㅇㅎㅘ	-8806
▁ㄹㅗㄹㄹㅓ	-8807
▁ㅅㅜㄱㅅㅗ	-8808
▁ㅂㅕㄴㅈㅡㅇ	-8809
▁ㅇㅡㄴㅁㅣㄹ	-8810
▁ㅇㅡㅂㅅㅓㅇ	-8811
ㅅㅓㄴㄱㅗㅇㅅㅏㄴㄷㅏㅇ	-8812
▁ㅂㅓㅈ	-8813
▁ㅂㅣㄹㄷㅡ	-8814
▁ㄱㅙㄴㅊㅏㄶ	-8815
▁ㅁㅕㅇㅅㅏㅇ	-8816
▁ㅅㅣㄹㅁㅕㅇ	-8817
▁ㅇㅣㄴㅁㅓㄴ	-8818
▁ㅂㅜㄹㄹㅓㅆㅇㅡ	-8819
ㅁㅜㄹㄹㅓ	-8820
ㅇㅕㄴㅈㅜ	-8821
▁ㅇㅣㄹㄹㅔ	-8822
▁ㅊㅏㅁㅍㅐ	-8823
▁ㄴㅏㅁㄷㅏㄴ	-8824
▁ㅈㅓㅇㅅㅡㅇ	-8825
▁ㅋㅗㄹㄹㅓㅁㅂㅓ	-8826
▁ㄷㅗㅇㄴㅏㅁㅉㅗㄱ	-8827
▁ㄱㅡㄴㅅㅔ	-8828
▁ㅂㅣㄹㅂㅏ	-8829
▁ㅌㅏㄹㅅㅜ	-8830
ㅇㅠㄱㄱㅏㅁ	-8831
▁ㄱㅕㅇㅈㅗㅇ	-8832
▁ㅈㅣㄱㄹㅕㄹ	-8833
▁ㅊㅣㄹㅅㅓㅇ	-8834
▁ㅍㅕㄹㅊㅣㄴ	-8835
▁ㄷㅏㅁㄷㅏㅇㅈㅏ	-8836
▁KS	-8837
▁ㅅㅖㄴ	-8838
▁ㅌㅐㅂ	-8839
▁ㅈㅓㅂㄷㅜ	-8840
▁ㅊㅓㄴㄹㅣ	-8841
ㄱㅝㄴㅂㅓㅂ	-8842
▁ㅁㅜㄴㄱㅘㄴ	-8843
▁ㅅㅏㅇㅂㅏㄴㄱㅣ	-8844
ㄴㅖ	-8845
ATO	-8846
▁ㄱㅣㅂ	-8847
ㅁㅏㅇㅊㅕㅆ	-8848
▁ㅁㅕㅇㅇㅣㄴ	-8849
▁ㅈㅜㅇㄴㅏㅁ	-8850
▁ㅇㅜㄴㅈㅓㄴㅈㅏ	-8851
▁ㄹㅐㄴㄷㅓ	-8852
ㅋㅡㄴㄹㅗㄹ	-8853
▁ㅈㅜㅇㄱㅕㄴ	-8854
ㅎㅚㅇ	-8855
▁ㅅㅣㅀㅇㅓ	-8856
▁ㅇㅣㄹㅈㅜ	-8857
ㄷㅡㄹㅇㅣㄹ	-8858
ㅇㅏㄱㅅㅏㄴ	-8859
▁ㅅㅜㄱㄹㅕㄴ	-8860
▁ㅇㅏㄱㅁㅕㅇ	-8861
▁ㅎㅗㅇㅇㅣㄱ	-8862
▁ㅇㅏㄴㅇㅑㅇㅅㅣ	-8863
▁KO	-8864
▁ㄴㅏㄹㄹㅕ	-8865
▁ㅇㅘㅇㄹㅐ	-8866
▁ㅈㅏㅁㅂㅣ	-8867
▁ㅌㅏㄴㅅㅜ	-8868
ㅈㅓㄱㅈㅓㄹ	-8869
▁ㅂㅕㄴㅊㅓㄴ	-8870
▁ㅈㅓㄹㅊㅜㅇ	-8871
▁ㅍㅜㅁㅁㅗㄱ	-8872
▁ㅎㅏㄱㄷㅏㅇ	-8873
▁ㄱㅘㄴㅅㅣㅁㅅㅏ	-8874
▁ㅈㅣㅂㄷㅏㄴㄱㅜㄴ	-8875
EEE	-8876
ㅈㅣㅈ	-8877
▁ㅅㅗㅇㅇㅣ	-8878
▁ㅅㅏㄱㄱㅏㅁ	-8879
▁ㅅㅜㄱㅂㅏㄱ	-8880
▁ㅇㅣㄴㅅㅡㅇ	-8881
▁ㅊㅣㄴㅎㅏㄴ	-8882
▁us	-8883
▁1874	-8884
▁ㄴㅡㅇㄱㅏ	-8885
▁ㅅㅓㄴㅊㅔ	-8886
▁ㅇㅏㄴㅈㅜ	-8887
ㅎㅘㅇㅅㅐㄱ	-8888
▁ㅍㅜㄹㅂㅐㄱ	-8889
▁GR	-8890
ㅇㅕㄹㄷㅐ	-8891
▁ㅇㅣㄹㅊㅏ	-8892
▁ㅈㅓㅇㅇㅗ	-8893
▁ㅈㅔㄴㄷㅓ	-8894
▁ㄷㅏㄴㅂㅏㄹ	-8895
▁ㅈㅣㅇㅈㅣㅂ	-8896
▁ㅊㅏㄱㄱㅏㄱ	-8897
▁ㅋㅏㄹㄹㅠㅁ	-8898
GB	-8899
ash	-8900
▁ㅆㅓㄹ	-8901
ㅎㅕㅇㅈㅔ	-8902
ㅇㅜㄹㄹㅗ	-8903
ㅈㅣㄴㅂㅗ	-8904
▁ㅈㅜㅇㄱㅓ	-8905
▁ㅅㅣㄹㄹㅕㅆ	-8906
▁ㄱㅏㅇㄹㅕㄱㅎㅣ	-8907
▁ㅊㅜㄹㅍㅏㄴㅁㅜㄹ	-8908
▁ㅋㅓㄴㅅㅓㄹㅌㅣㅇ	-8909
ㅅㅓㄴㄷㅏ	-8910
▁ㄱㅓㄹㅇㅡㅁ	-8911
▁et	-8912
ㅇㅓㅋ	-8913
▁204	-8914
▁ㄴㅏㄹㄹㅣ	-8915
▁ㅅㅏㄴㅈㅗ	-8916
▁ㅇㅑㅇㅅㅓ	-8917
▁ㅇㅣㅇㅋㅏ	-8918
HL	-8919
▁This	-8920
ㄱㅏㄱㄱㅏ	-8921
▁ㅋㅓㄴㅍㅓ	-8922
ㅍㅕㅇㅅㅓㄴ	-8923
▁ㅈㅓㅇㅇㅕㄱ	-8924
▁ㅎㅏㅇㄱㅗㅇㅍㅕㄴ	-8925
au	-8926
▁ㅈㅓㅂㅁㅣ	-8927
▁ㅈㅣㅂㅅㅏ	-8928
▁ㄷㅓㄴㅈㅕㅆ	-8929
▁ㅅㅏㄴㅅㅜㄹ	-8930
▁ㅋㅐㅁㅂㅔㄹ	-8931
▁IEEE	-8932
▁ㄱㅜㄴㅂㅗㄱ	-8933
▁ㅌㅡㄱㄱㅗㅇ	-8934
▁ㅅㅗㄴㄲㅗㅂㅎㅣ	-8935
▁ㄱㅝ	-8936
▁ㅍㅣㄹㄹㅗ	-8937
ㅁㅜㄹㅅㅓㄴ	-8938
▁ㅅㅏㄴㄴㅏㅁ	-8939
ps	-8940
ㅅㅣㄴㅈㅓ	-8941
▁ㄱㅕㅇㄴㅐ	-8942
▁ㅇㅝㄴㅅㅏ	-8943
▁ㄱㅕㄹㅁㅏㄹ	-8944
▁ㄱㅗㄴㅅㅏㄹ	-8945
▁ㄱㅗㄹㅈㅓㄹ	-8946
▁ㅅㅓㅇㅎㅐㅇ	-8947
▁^	-8948
▁Mi	-8949
▁ㅂㅏㄱㅈㅐ	-8950
▁ㅂㅏㄷㅊㅣ	-8951
▁ㅅㅓㄴㄱㅘ	-8952
ㅇㅝㄴㄱㅡㅁ	-8953
▁ㅂㅗㄴㅈㅗㄴ	-8954
▁ㅇㅗㄹㄹㅣㄹ	-8955
▁Best	-8956
ㅅㅏㅇㅈㅜ	-8957
▁ㅈㅓㅂㅈㅓㄴ	-8958
▁ㅌㅔㅁㅍㅡㄹ	-8959
▁ad	-8960
▁ㅅㅣㅅ	-8961
▁ㅋㅏㄹㄷㅔ	-8962
ㄴㅡㄴㅈㅓㅁ	-8963
▁ㅁㅕㅇㅇㅘㅇ	-8964
▁ㅇㅣㄹㄱㅏㄴ	-8965
▁AF	-8966
ㅇㅡㄱ	-8967
▁Bab	-8968
▁ㅁㅐㅁ	-8969
ㄹㄹㅣㅁ	-8970
ㄷㅗㄹㄹㅕ	-8971
▁ㄱㅕㅇㅇㅢ	-8972
▁ㅇㅏㄴㅍㅏ	-8973
▁ㄱㅕㄹㅈㅓㄴ	-8974
▁ㅁㅜㄴㅁㅐㄱ	-8975
▁ㅇㅑㅇㅊㅓㄴ	-8976
▁ㅈㅏㅁㅇㅣㅂ	-8977
▁ㅈㅗㄱㅈㅏㅇ	-8978
ict	-8979
ㅇㅛㄴ	-8980
ㅁㅔㄱㅅㅣ	-8981
▁ㅂㅏㄴㄱㅗㅇ	-8982
▁ㅈㅜㅇㄱㅓㄴ	-8983
▁ㅎㅕㅂㄱㅗㄱ	-8984
TF	-8985
▁ㅁㅣㄴㅇㅢ	-8986
▁ㅈㅣㄴㅇㅟ	-8987
ㅇㅘㄴㅇㅛㅇ	-8988
▁ㅅㅏㅇㄱㅏㅁ	-8989
ㅋㅐㄴ	-8990
▁ㅇㅝㅁ	-8991
▁ㅋㅝㄹ	-8992
ㅇㅔㄴㄱㅜㄴ	-8993
▁ㅎㅐㅇㅅㅓㄴ	-8994
▁ㅎㅑㅇㅅㅣㄴㄹㅛ	-8995
▁ㅎㅘㄴㅅㅡㅇㅇㅕㄱ	-8996
▁AE	-8997
▁ㅅㅣㄹㅎㅛ	-8998
▁ㅇㅡㄴㅍㅖ	-8999
▁ㅁㅏㄱㄱㅏㅇ	-9000
▁ㅇㅏㄴㅌㅗㄴ	-9001
me	-9002
anc	-9003
ose	-9004
▁se	-9005
ㄹㅖㄴ	-9006
▁7000	-9007
▁ㄱㅘㄴㅇㅏ	-9008
▁ㅅㅏㄴㅊㅔ	-9009
▁ㅈㅣㄹㅌㅜ	-9010
▁ㅍㅏㄴㄷㅗ	-9011
ㅅㅏㅁㅁㅜㄴ	-9012
▁ㅂㅕㅇㄷㅏㄴ	-9013
▁ㅊㅜㄱㅂㅗㄱ	-9014
▁ㅊㅏㅁㅈㅓㄴㅎㅏ	-9015
▁SR	-9016
▁ㄱㅏㄹㄹㅔ	-9017
▁ㅂㅓㅂㄱㅠ	-9018
▁ㅅㅏㅁㄱㅓ	-9019
ㅊㅘㄴㅅㅓㅇ	-9020
▁ㄱㅠㄴㅇㅣㄹ	-9021
▁ㄷㅏㅁㅇㅑㅇ	-9022
▁ㅂㅏㄹㅈㅏㄱ	-9023
▁ㅅㅣㄹㅇㅡㄴ	-9024
▁ㅇㅠㄹㅂㅓㅂ	-9025
▁ㅅㅜㄴㅊㅓㄴㅅㅣ	-9026
▁ㅊㅜㄹㅈㅏㅇㅅㅗ	-9027
▁ㅋㅗㄹㄹㅣㄴㅅㅡ	-9028
ㅅㅠㄹ	-9029
very	-9030
▁ㅈㅐㅁ	-9031
ㅈㅓㅇㄷㅐ	-9032
▁ㅂㅗㄱㅂㅜ	-9033
▁ㅅㅓㅇㅈㅗ	-9034
▁ㅅㅡㄹㄹㅓ	-9035
ㅃㅜ	-9036
▁ㅌㅜㅁ	-9037
ㄱㅕㄱㄷㅐ	-9038
ㅇㅓㅂㅊㅔ	-9039
▁ㅇㅏㅇㄷㅡ	-9040
▁ㅎㅏㄴㄱㅕ	-9041
▁ㅇㅏㄱㄷㅏㅇ	-9042
▁ㅋㅕ	-9043
▁1877	-9044
ㅅㅣㄱㅅㅡ	-9045
▁ㄱㅏㅇㅈㅘ	-9046
▁ㅅㅗㅁㅆㅣ	-9047
▁ㅇㅕㅁㄷㅜ	-9048
▁ㅍㅗㄹㄹㅗ	-9049
▁ㅎㅏㄴㅂㅗㄱ	-9050
ody	-9051
▁ㄸㅡㄹ	-9052
ㄹㅗㄹㄹㅣ	-9053
ㅅㅓㄱㅁㅛ	-9054
▁ㅁㅏㅇㅊㅣ	-9055
▁ㅂㅕㄴㅎㅕㄱ	-9056
▁ㅅㅣㄴㅂㅕㅇ	-9057
▁ㅌㅗㅇㅅㅗㄹ	-9058
▁ㄱㅓㄴㄹㅠㅇㅈㅔ	-9059
ㄱㅗㅇㅈㅏ	-9060
▁ㄴㅗㄴㅈㅡㅇ	-9061
▁ㅂㅏㄱㅇㅛㅇ	-9062
▁ㅅㅜㄱㅁㅕㅇ	-9063
▁FF	-9064
ㅂㅐㄱㅁㅏㄴ	-9065
▁ㅇㅑㅇㄱㅡㄱ	-9066
▁ㅈㅣㄴㅊㅓㄴ	-9067
uck	-9068
▁ㄹㅏㅅ	-9069
ㄱㅘㄴㅅㅏ	-9070
ㅋㅗㅂㅅㅡ	-9071
▁ㅁㅜㄴㅁㅜㄹ	-9072
▁ㅇㅏㄴㅅㅣㅁ	-9073
59	-9074
de	-9075
ail	-9076
▁ㄲㅡㅁ	-9077
ㅅㅏㄴㄱㅣ	-9078
ㅅㅣㄱㅈㅏ	-9079
ㅇㅘㄴㄷㅏ	-9080
▁ㅃㅏㄹㄹㅏ	-9081
▁ㅇㅏㄴㄱㅣ	-9082
▁ㅈㅏㄴㅇㅕ	-9083
▁ㄱㅣㅁㅇㅕㄴ	-9084
▁ㅈㅓㄴㅂㅓㅁ	-9085
▁ㄴㅏㄴㅈㅐㅇㅇㅣ	-9086
▁ㅊㅐㄱㅇㅣㅁㅈㅣ	-9087
▁CIA	-9088
ㄴㅣㄴㄱㅡ	-9089
▁ㅅㅏㄴㅈㅐ	-9090
net	-9091
reak	-9092
▁ㅁㅏㄱㅇㅏ	-9093
▁ㅂㅜㄹㅋㅙ	-9094
▁ㅇㅏㄴㅍㅏㄲ	-9095
▁ㅈㅏㄴㅎㅗㄱ	-9096
▁ㅌㅡㄱㅁㅕㅇ	-9097
▁ㅂㅣㄴㅅㅔㄴㅌㅡ	-9098
oo	-9099
ㄷㅜㅂ	-9100
▁ㅋㅜㅁ	-9101
ㅋㅣㄹㄹㅔ	-9102
ㅎㅕㄹㄱㅜ	-9103
▁ㅇㅏㅍㄷㅟ	-9104
ㅈㅓㅇㄴㅏㄴ	-9105
▁ㅇㅣㄴㅅㅓㅇ	-9106
OK	-9107
▁209	-9108
▁App	-9109
▁ICBM	-9110
ㅂㅓㅁㅈㅚ	-9111
▁ㅁㅗㅂㅅㅣ	-9112
▁ㅎㅚㄱㄱㅣ	-9113
▁ㅂㅐㄱㅇㅜㄴ	-9114
▁ㅇㅘㅇㅁㅕㅇ	-9115
▁as	-9116
▁Super	-9117
▁ㅎㅏㄴㅎㅐ	-9118
ㅅㅐㅇㅅㅏㄴ	-9119
▁ㅁㅕㅇㄹㅠㄴ	-9120
▁ㅂㅏㄱㅊㅏㄴ	-9121
▁ㅇㅕㄹㅇㅏㄱ	-9122
▁ㅇㅘㄴㅈㅏㅇ	-9123
▁ㅍㅔㅇㄱㅟㄴ	-9124
▁ㅎㅏㅂㅂㅕㅇㅈㅡㅇ	-9125
▁ㅌㅐㅁ	-9126
▁ㅇㅓㄹㄹㅏ	-9127
▁ㅁㅕㄴㄷㅏㅁ	-9128
▁ㅂㅏㅇㅎㅏㄱ	-9129
▁ㅈㅏㅇㄱㅕㅇ	-9130
▁ㅊㅓㅇㅁㅜㄴㅎㅚ	-9131
ㅍㅏㄱ	-9132
▁ㅆㅜㅇ	-9133
ㅂㅣㄴㅅㅡ	-9134
ㅇㅏㅅㄱㅣ	-9135
▁ㅁㅏㅈㅂㅐ	-9136
▁ㅎㅗㄹㅅㅜ	-9137
▁ㅂㅗㄱㅅㅗㄱ	-9138
▁ㅊㅜㄹㄱㅕㄱ	-9139
▁ㅊㅣㅁㅂㅓㅁ	-9140
ㄷㅡㄹㄹㅐㄴㄷㅡ	-9141
▁1859	-9142
ㄹㅣㄴㅌㅓ	-9143
▁ㅅㅏㄴㅌㅜ	-9144
▁ㅎㅘㄹㄱㅣ	-9145
▁ㅅㅡㅇㄹㅠㄹ	-9146
▁Her	-9147
▁ㄱㅣㅁㅈㅜ	-9148
▁ㅈㅏㅇㅈㅣ	-9149
▁ㅂㅏㄹㄱㅘㅇ	-9150
▁ㅂㅕㄴㅅㅓㅇ	-9151
▁ㅅㅓㄴㄷㅏㄴ	-9152
ㅅㅣㄴㅈㅓㅇㅂㅕㄴ	-9153
vel	-9154
▁ㄱㅑ	-9155
▁310	-9156
▁ㄱㅗㄷㅇㅣ	-9157
▁ㅂㅔㄹㄹㅗ	-9158
ㅂㅣㄹㄹㅗㄴ	-9159
▁ㅊㅓㄴㅅㅏㅇ	-9160
▁ㅂㅏㄺㅎㅕㅆㅇㅡ	-9161
▁1700	-9162
▁ㅁㅗㄹㅅㅜ	-9163
▁ㅂㅐㄹㅂㅡ	-9164
▁ㅈㅓㄴㅂㅗㅇ	-9165
▁ㅎㅏㅁㅈㅏㅇ	-9166
▁ㅇㅏㄹㄹㅔㄱㅅㅏㄴㄷㅔ	-9167
▁ㅈㅟㄹ	-9168
ㅅㅣㄹㅈㅜ	-9169
▁ㄱㅣㅁㄷㅗ	-9170
▁ㅇㅐㄹㄹㅏ	-9171
▁ㅇㅣㄴㄱㅖ	-9172
▁ㅉㅏㄱㅅㅜ	-9173
▁ㅅㅏㅇㅅㅓㄹ	-9174
▁ㅅㅜㄴㅅㅣㄱ	-9175
▁206	-9176
▁ㅅㅔㄴㅌㅏ	-9177
▁ㅎㅑㅇㅅㅜ	-9178
▁ㄱㅏㅁㅊㅜㄱ	-9179
▁ㄷㅗㅇㄱㅜㄴ	-9180
▁ㅍㅏㄴㅁㅕㅇ	-9181
16	-9182
EA	-9183
▁cc	-9184
▁Sun	-9185
▁ㄹㅔㄴㄷㅓ	-9186
▁ㅂㅐㄱㅈㅣ	-9187
▁ㅎㅏㄹㄱㅜ	-9188
▁ㅂㅜㄱㅇㅣㄴ	-9189
▁ㅅㅏㄴㅁㅜㄴ	-9190
▁ㅅㅏㄴㅈㅓㅇ	-9191
▁ㅅㅔㄱㅅㅕㄴ	-9192
17	-9193
▁IF	-9194
ㄹㅣㅅㅈㅣ	-9195
ㅇㅜㄹㅇㅓ	-9196
ㅈㅓㅇㅈㅔ	-9197
ㅋㅗㄹㄹㅗ	-9198
▁ㅂㅗㄴㅎㅚ	-9199
▁ㅎㅔㄹㅅㅡ	-9200
▁ㅃㅏㄹㄱㅏㅇ	-9201
▁ㅈㅓㅇㅊㅓㅇ	-9202
▁ㅈㅜㄹㄱㅗㄷ	-9203
▁ㅎㅏㄱㅊㅏㅇ	-9204
▁ㄱㅓㄴㄱㅜㄱㅎㅜㄴㅈㅏㅇ	-9205
ray	-9206
▁Kn	-9207
▁my	-9208
ㅍㅏㅂ	-9209
▁518	-9210
ㅂㅏㅇㅅㅡ	-9211
▁ㅇㅓㅁㅈㅣ	-9212
▁ㅈㅓㄴㅅㅓ	-9213
▁ㅊㅓㄹㄱㅣ	-9214
ㄱㅕㄹㅎㅏㅂ	-9215
ㅁㅣㄴㅈㅓㅇ	-9216
▁ㅅㅏㄴㅇㅣㄴ	-9217
▁ㅈㅏㅇㅈㅓㅇ	-9218
ㄹㅡㅂ	-9219
▁ㅅㅏㄴㄹㅣ	-9220
▁ㄱㅗㄱㅅㅣㄱ	-9221
▁ㅋㅗㄹㄹㅗㄴ	-9222
▁ON	-9223
ㄸㅡㅁ	-9224
▁340	-9225
ㅂㅜㄴㅈㅏ	-9226
ㅅㅓㄴㄱㅛ	-9227
▁ㅅㅗㄱㅊㅗ	-9228
ㅅㅓㅇㄴㅕㄴ	-9229
ㅇㅜㄴㅎㅕㅇ	-9230
▁ㅂㅏㄴㅈㅓㅇ	-9231
▁ㅅㅗㄴㅁㅗㄱ	-9232
▁ㅇㅘㅇㄷㅏㅇ	-9233
▁ㅇㅣㅂㅊㅏㄹ	-9234
ㅅㄷㅐ	-9235
▁Star	-9236
ㅇㅝㄴㄱㅜ	-9237
▁ㅇㅕㄹㅅㅔ	-9238
▁ㅍㅣㄹㄱㅣ	-9239
ㅈㅏㄴㅌㅣㄴ	-9240
ㅊㅏㅁㅊㅏㄴ	-9241
▁ㅁㅣㄴㅇㅝㄴ	-9242
▁ㅈㅓㄱㅂㅓㅂ	-9243
▁ㅋㅓㄹㄹㅣㅇ	-9244
ㅂㅣㄱ	-9245
▁625	-9246
▁ㄱㅕㅇㅇㅝㄴ	-9247
▁ㅈㅓㅇㅇㅓㄴ	-9248
▁ㅎㅘㄱㅊㅜㅇ	-9249
▁you	-9250
▁ㅂㅗㄹㄷㅡ	-9251
▁ㅂㅏㄴㅇㅣㅂ	-9252
▁ㅂㅜㄹㄹㅣㄹ	-9253
▁ㅇㅣㄹㅅㅏㅁ	-9254
▁ㅍㅕㅇㅂㅏㅇ	-9255
▁ㅅㅗㅇㅈㅣㄴㅇㅜ	-9256
▁ㅎㅗㄴㅎㅏㅂㅁㅜㄹ	-9257
▁ㅌㅏㅆ	-9258
▁Soul	-9259
▁ㅋㅏㄴㅌㅡ	-9260
▁HP	-9261
ㅍㅓㅁ	-9262
ㄱㅘㅇㅅㅏ	-9263
▁ㅇㅜㄹㄹㅜ	-9264
▁ㅎㅣㄹㅅㅡ	-9265
▁ㄱㅗㅇㅂㅕㅇ	-9266
▁ㅂㅏㄹㅈㅣㄴ	-9267
▁ㅅㅗㄱㄱㅜㄱ	-9268
▁ㅅㅜㄴㅊㅏㄹ	-9269
▁ㅈㅓㅇㅅㅣㄹ	-9270
ㅅㅗㄱㅊㅓㄹㄷㅗ	-9271
▁ㅊㅗㅇㅇㅕㅇㅅㅏ	-9272
HC	-9273
▁PA	-9274
▁des	-9275
ㄱㅓㄴㅂㅜ	-9276
ㄹㅗㅂㅅㅡ	-9277
▁ㄱㅘㄴㄱㅜㄴ	-9278
▁ㅇㅡㅁㅅㅣㄱㅈㅓㅁ	-9279
▁ㅁㅏㄴㅈㅏㅇㅇㅣㄹㅊㅣ	-9280
▁ㄲㅘㅇ	-9281
▁ㄸㅏㅁ	-9282
▁ㅊㅗㅇㄱㅏㅁ	-9283
▁ㅅㅓㅇㅍㅗㄱㄹㅕㄱ	-9284
▁"|	-9285
▁print	-9286
▁ㄴㅏㅇㅂㅣ	-9287
▁ㅇㅟㄴㅌㅓ	-9288
▁ㄱㅕㄱㅈㅓㄴ	-9289
▁ㅂㅕㄴㅈㅣㄹ	-9290
▁ㅊㅜㄱㅈㅓㄴ	-9291
▁ㅍㅔㄱ	-9292
ㅂㅜㄴㅌㅜ	-9293
ㅅㅠㄹㄹㅣ	-9294
ㅂㅏㄴㅈㅓㅇ	-9295
ㅂㅗㅇㅇㅏㅁ	-9296
▁public	-9297
▁ㅅㅣㄹㄹㅣㄴㄷㅓ	-9298
▁ㅈㅓㅇㅊㅏㄱㅈㅣ	-9299
gh	-9300
▁ㄱㅣㄹㄱㅓ	-9301
▁ㅇㅕㅇㄷㅗ	-9302
ㅅㅓㅇㅁㅕㄴ	-9303
ㅇㄱㅡㄹㄹㅣ	-9304
▁ㄷㅏㄴㅁㅏㄹㄱㅣ	-9305
▁ㅇㅏㄹㄹㅔㄱㅅㅣ	-9306
▁ㅅㅜㄴㅅㅣㄱㄱㅏㄴ	-9307
ute	-9308
ㄹㅔㄴㅊㅡ	-9309
▁ㄱㅗㅇㄱㅛ	-9310
▁ㅇㅏㄹㅈㅏ	-9311
ㄴㅡㅇㄹㅕㄱ	-9312
▁ㄱㅡㅁㅊㅓㄴ	-9313
▁ㄱㅣㅁㄷㅓㄱ	-9314
▁ㅇㅝㄴㅈㅓㅁ	-9315
▁ㅇㅣㅁㅅㅣㄹ	-9316
▁ㅎㅡㄴㄷㅡㄹㄹㅣ	-9317
ㅃㅐ	-9318
▁po	-9319
▁1812	-9320
ㅊㅓㄱㅈㅏ	-9321
▁ㄱㅝㄴㅌㅜ	-9322
▁ㅇㅏㄹㅁㅏ	-9323
ㅅㅐㅇㅊㅜㅇ	-9324
ㅇㅗㄹㄹㅕㅆ	-9325
▁Christ	-9326
▁ㄷㅏㄹㄹㅕㄱ	-9327
▁Tw	-9328
ㅇㅣㄴㅌㅓ	-9329
▁ㅂㅓㅂㅅㅏㅇ	-9330
▁ㅂㅜㄱㅊㅡㄱ	-9331
▁ㅎㅏㄴㄱㅜㄱㄱㅜㄴ	-9332
ual	-9333
▁1879	-9334
ㅂㅡㄴㅅㅡ	-9335
▁ㄱㅘㄴㅇㅟ	-9336
▁ㅁㅏㅌㄱㅕ	-9337
▁ㅂㅏㄹㅌㅓ	-9338
▁ㅈㅣㅂㅈㅓㄱ	-9339
▁ㄴㅏㅁㅂㅜㄱㅈㅗ	-9340
▁ㅇㅕㄴㅂㅏㅇㄱㅜㄴ	-9341
ㅇㅣㄱㅅㅜ	-9342
▁ㄱㅜㅇㅈㅜ	-9343
▁ㅈㅓㅁㅌㅗ	-9344
▁Record	-9345
▁ㄱㅡㄴㄱㅏㄴ	-9346
▁ㅇㅕㅇㅈㅗㅇ	-9347
▁ㅋㅡㄹㄹㅓㄱ	-9348
▁YG	-9349
▁ㄸㅡㄴ	-9350
ㅇㅡㄱㄱㅗ	-9351
▁ㅅㅣㄹㅂㅣ	-9352
ㅅㅣㅁㅇㅝㄴ	-9353
ㅍㅡㄹㄹㅔㄱ	-9354
▁ㄱㅏㅇㄱㅜㄱ	-9355
▁ㄱㅣㅁㅎㅏㄱ	-9356
▁ㅂㅏㄹㅍㅏㄴ	-9357
▁ㅅㅓㄱㄱㅝㄴ	-9358
▁ㅇㅝㄴㅈㅗㅇㄱㅗㅇㅅㅣㄴ	-9359
▁ㅋㅜㅇ	-9360
ㅈㅜㅇㅈㅜ	-9361
▁ㄹㅗㄱㅎㅣ	-9362
▁ㅅㅣㄹㅂㅔ	-9363
▁ㄷㅏㅅㅋㅓㅁ	-9364
▁ㅊㅓㄴㅈㅓㄱ	-9365
▁ㅇㅝㄴㅈㅓㅇㄷㅐ	-9366
▁ㄱㅘㄴㄱㅐ	-9367
▁ㄱㅜㄴㅍㅗ	-9368
▁ㅋㅣㄹㄹㅓ	-9369
ㅌㅏㄴㅇㅗㄹ	-9370
▁ㅈㅏㅇㄱㅏㅇ	-9371
ull	-9372
▁KD	-9373
ogle	-9374
▁420	-9375
▁Per	-9376
ㄹㅣㅇㅋㅡ	-9377
▁ㅅㅣㄱㅇㅣ	-9378
▁ㅇㅏㄴㅁㅕㄴ	-9379
▁ㅇㅣㄴㅊㅓㄱ	-9380
▁ㅎㅘㄴㅅㅏㄴ	-9381
▁DO	-9382
▁NM	-9383
ㅎㅝㄴ	-9384
ㄹㅣㄴㅅㅔ	-9385
ㅎㅏㄹㅇㅏ	-9386
▁ㄱㅡㅁㄱㅣ	-9387
▁ㄱㅣㅁㅅㅣ	-9388
▁ㅅㅣㄴㅇㅣㄱ	-9389
▁Gu	-9390
ㅇㅓㅇ	-9391
▁Win	-9392
▁ㄱㅜㄴㄱㅣ	-9393
▁ㅎㅕㄴㅅㅜ	-9394
▁ㄸㅓㄹㅊㅕㅆ	-9395
▁ㄹㅡㅁ	-9396
▁ㄱㅜㄴㅁㅏ	-9397
▁ㅅㅗㄴㅅㅜ	-9398
▁ㅌㅜㄹㄹㅜ	-9399
▁ㅎㅘㄴㅊㅗ	-9400
▁ㅅㅓㄴㅂㅕㄹ	-9401
iel	-9402
ㄹㅜㅅ	-9403
▁John	-9404
ㅎㅏㄱㅍㅏ	-9405
▁ㅇㅏㄴㄱㅕ	-9406
▁ㅎㅔㄹㄹㅗ	-9407
ㅂㅡㄹㄹㅣㄱ	-9408
ㅇㅕㄴㅁㅐㅇ	-9409
VID	-9410
ㅁㅕㅆ	-9411
ㅇㅕㅇㅎㅗ	-9412
▁ㄱㅣㅁㅇㅜ	-9413
▁ㅇㅏㄴㄷㅏ	-9414
▁ㅇㅣㄱㅎㅣ	-9415
ㄷㅗㅇㅂㅕㄴ	-9416
▁ㅅㅣㅁㅈㅓㅇ	-9417
▁ㅇㅣㄹㅁㅕㄴ	-9418
ㅁㅏㅇㄱㅏ	-9419
▁ㄱㅘㅇㅅㅣ	-9420
▁ㅁㅏㄴㄹㅠ	-9421
▁ㅈㅏㅇㅇㅣ	-9422
▁ㄱㅕㄹㅈㅏㅇ	-9423
▁ㅁㅗㄱㄷㅗㅇ	-9424
▁ㅅㅏㅇㅎㅘㄴ	-9425
▁ㅇㅓㄱㅇㅜㄹ	-9426
ㄷㅏㅅㄱㅏ	-9427
ㄹㅡㄹㄹㅜ	-9428
▁ㅅㅏㄴㅅㅏ	-9429
▁ㅊㅓㅇㄱㅛ	-9430
ㅅㅏㄴㅇㅕㄱ	-9431
▁ㅇㅑㅇㅇㅝㄴ	-9432
▁ㅇㅝㄴㅁㅏㄴ	-9433
▁ㅊㅓㄴㅁㅜㄴㄷㅏㄴㅇㅟ	-9434
25	-9435
YP	-9436
▁ㅁㅟㄹㄹㅓ	-9437
▁ㅇㅑㅇㄱㅜ	-9438
▁ㅍㅜㄹㅇㅣ	-9439
▁ㅅㅓㅇㅎㅕㄴ	-9440
▁ㅊㅓㅇㅇㅣㄹ	-9441
RI	-9442
ㄱㅝ	-9443
▁Mr	-9444
ㄱㅜㅅ	-9445
ㅅㅛㅂ	-9446
▁ㅈㅣㅍ	-9447
▁ㅇㅡㄴㅈㅣ	-9448
▁256	-9449
▁ㅆㅓㅁ	-9450
▁ㅂㅏㄱㄱㅕㅇ	-9451
▁ㅌㅗㅇㄱㅏㅁ	-9452
▁HS	-9453
▁MD	-9454
ㅅㅓㅅㅉㅐ	-9455
ㄷㅗㅇㅅㅣㄱ	-9456
▁ㅅㅏㅇㄷㅗㅇ	-9457
▁ㅈㅜㅇㅇㅏㅇㅇㅣㄹㅂㅗ	-9458
ㅁㅂㅏ	-9459
▁ㅇㅐㅅ	-9460
ㅇㅣㄴㅈㅡ	-9461
▁ㅈㅏㅁㅈㅏ	-9462
▁ㅊㅓㄴㅈㅏ	-9463
ㄱㅡㄱㅈㅏㅇ	-9464
ㅍㅕㅇㄷㅗㅇ	-9465
▁ㄷㅗㅇㅁㅐㄱ	-9466
▁ㅁㅜㄴㄱㅓㄴ	-9467
▁ㅂㅓㅁㄹㅏㅁ	-9468
▁ㅂㅕㄴㄹㅗㄴ	-9469
▁ㅅㅓㅇㅎㅕㅇ	-9470
ll	-9471
▁208	-9472
ㅂㅏㄹㄹㅣ	-9473
ㅂㅕㅇㅇㅗㄱ	-9474
▁ㄱㅗㅇㄱㅕㅇ	-9475
▁ㄴㅏㅁㄱㅕㅇ	-9476
▁ㅁㅏㅈㅁㅜㄹ	-9477
▁ㄱㅓㄹㅅㅡ	-9478
▁ㄱㅗㅇㅅㅓㄱ	-9479
▁ㅂㅏㅇㅌㅏㄴ	-9480
▁ㅁㅑ	-9481
▁ㄷㅏㅁㅅㅜ	-9482
▁ㅇㅣㄹㅂㅗ	-9483
▁ㅍㅕㅇㅎㅏ	-9484
ㄴㅕㄴㄷㅏㄴ	-9485
▁ㄱㅗㅇㅅㅓㅇㅈㅓㄴ	-9486
▁'.	-9487
ㄷㅏㅅ	-9488
ㄴㅜㄴㄷㅏ	-9489
ㄷㅔㄹㄹㅏ	-9490
▁ㄱㅓㄴㄴㅔ	-9491
▁ㅁㅜㄴㅇㅓ	-9492
▁ㅅㅏㄹㄹㅔ	-9493
ㅅㅓㅇㅈㅣㄹㅊㅔ	-9494
▁ㅇㅑㅇㅅㅏㄴㅅㅣ	-9495
▁mu	-9496
▁Str	-9497
ㅇㅕㄴㅎㅘ	-9498
▁ㄱㅡㄱㅎㅚ	-9499
ㅍㅜㅁㄱㅜㄴ	-9500
ㅇㅣㅇㄱㅡㄹㄹㅐㄴㄷㅡ	-9501
▁CoA	-9502
ㄴㅣㄴㅈㅜ	-9503
ㅂㅓㅂㅂㅜ	-9504
▁ㅅㅔㄹㅈㅜ	-9505
▁ㅇㅣㄴㄷㅓ	-9506
▁ㅈㅏㅂㅎㅣㄴ	-9507
▁ㅈㅓㅇㅁㅐㄱ	-9508
▁ㅎㅏㅇㅅㅐㅇㅈㅔ	-9509
▁ㅈㅓㅂㄱㅡㄴㅅㅓㅇ	-9510
ㅇㅣㄹㅊㅔ	-9511
▁ㄱㅜㄴㄷㅗ	-9512
▁ㄴㅓㄼㅎㅣ	-9513
ㄷㅓㄱㄱㅜㅇ	-9514
ㅁㅏㅇㄹㅠㄹ	-9515
ㅎㅘㅇㄹㅕㅇ	-9516
▁ㄱㅕㅇㅎㅏㅂ	-9517
▁ㄴㅗㅇㅎㅕㅂ	-9518
▁ㄷㅗㅇㄱㅡㅂ	-9519
▁ㅇㅑㅇㅈㅓㅇ	-9520
▁ㅇㅛㅇㅁㅐㅇ	-9521
▁ㅊㅗㅇㄱㅜㄱ	-9522
▁ㅌㅗㅇㅊㅏㄹ	-9523
▁ㄱㅜㄱㅂㅏㅇㄱㅜㄴ	-9524
ㄷㅗㅇㅅㅏ	-9525
▁ㄱㅏㄴㅈㅣ	-9526
▁ㄱㅣㄹㅂㅓ	-9527
▁ㅋㅏㄹㄹㅔ	-9528
ㅊㅜㄱㄱㅜㄱ	-9529
▁ㅉㅏㄴ	-9530
▁ㄴㅗㅎㅊㅣ	-9531
▁ㅎㅏㄴㅎㅏ	-9532
▁Intern	-9533
▁ㄱㅠㄴㄷㅡㅇ	-9534
▁ㅇㅣㄴㅅㅏㅁ	-9535
▁ㅊㅜㄴㅊㅓㄴㅅㅣ	-9536
▁ㄱㅘㅇㅎㅏㅂㅅㅓㅇ	-9537
▁ㅇㅕㅇㅁㅜㄴㅎㅏㄱ	-9538
▁nm	-9539
▁Kore	-9540
ㅇㅜㄹㅇㅣ	-9541
▁ㄷㅏㄴㅅㅜ	-9542
▁ㄷㅗㅇㄷㅜ	-9543
▁ㅁㅔㄹㄹㅣ	-9544
ㄱㅣㄹㅈㅜㄴ	-9545
ㅂㅗㄴㅂㅓㅂ	-9546
▁ㅂㅏㄴㄴㅏㅂ	-9547
▁ㅂㅜㄹㅁㅜㄴ	-9548
▁ㅊㅜㅇㄷㅗㅇ	-9549
▁ㅎㅏㅇㅁㅜㄴ	-9550
ㄷㅗㅇㅂㅕㄴㅅㅗㄱㄱㅣ	-9551
▁ㅍㅟ	-9552
lect	-9553
▁ㅅㅐㄹㄹㅓ	-9554
▁ㅇㅏㄴㅅㅣ	-9555
▁ㅊㅜㄴㄱㅖ	-9556
▁ㅇㅡㅇㄹㅕㄱ	-9557
▁ㅍㅜㅅㅅㅏㄹ	-9558
▁ㅇㅘㅇㄴㅕ	-9559
ㅇㅜㄴㅌㅣㄴ	-9560
▁ㄷㅏㅇㅅㅏㅇ	-9561
▁ㅈㅗㅇㅅㅣㄹ	-9562
▁DA	-9563
ames	-9564
ㄴㅗㅍㅇㅣ	-9565
▁ㅅㅓㅇㄴㅐ	-9566
▁ㅇㅕㄹㄱㅓ	-9567
▁ㅂㅏㄴㄷㅏㄹ	-9568
▁ㅇㅑㅇㅍㅕㅇㄱㅜㄴ	-9569
▁ㄱㅏㅇㄱㅏ	-9570
▁ㅅㅡㅇㅁㅏ	-9571
▁ㅈㅓㄱㅅㅣ	-9572
▁ㅈㅓㅂㅅㅣ	-9573
ㄴㅏㅁㄷㅗㅇ	-9574
▁ㅂㅜㄹㅂㅗㄱ	-9575
▁ㅅㅏㅇㅊㅡㅇ	-9576
▁ㅇㅏㅇㅅㅏㅇ	-9577
▁ㅇㅑㅇㄴㅕㅁ	-9578
ove	-9579
▁BO	-9580
ㅂㅓㄱ	-9581
▁225	-9582
▁370	-9583
▁ㅆㅗㄴ	-9584
▁ㄱㅕㄹㅇㅕ	-9585
▁ㅅㅏㅇㅇㅣ	-9586
▁ㅋㅏㅂㅋㅏ	-9587
ㅈㅓㄴㄹㅕㄱ	-9588
▁ㄸㅏㄱㄸㅏㄱ	-9589
▁ㅂㅣㅊㄲㅏㄹ	-9590
▁ㅈㅏㅇㅅㅡㅇ	-9591
▁ㅈㅣㄴㅇㅝㄴ	-9592
▁Fl	-9593
ㄸㅓㄹㅇㅓ	-9594
▁ㅍㅔㄹㄹㅔ	-9595
▁ㅎㅑㅇㄹㅗ	-9596
ㅅㅜㄹㅍㅜㅁ	-9597
▁ㅂㅗㅇㅂㅜㄴ	-9598
▁ㅊㅣㄹㄱㅗㄱ	-9599
ㅅㅣㄱㅊㅜㄱㄱㅜ	-9600
▁ㅎㅏㅇㄱㅗㅇㅇㅜ	-9601
▁ㅊㅗㅇㅅㅐㅇㅅㅏㄴ	-9602
ox	-9603
ㄱㅗㄴㅈㅡ	-9604
ㅂㅏㅇㄷㅗ	-9605
ㅌㅗㅇㅅㅜ	-9606
▁ㄴㅜㄹㄹㅓ	-9607
▁ㅁㅏㄴㅅㅜ	-9608
▁ㅂㅏㄹㄹㅜ	-9609
ㅂㅓㅁㅅㅓㄱ	-9610
ㅅㅡㅇㅎㅜㄴ	-9611
ㅇㅕㄴㅅㅏㅇ	-9612
ㅇㅣㄴㄷㅏㄴ	-9613
▁ㅁㅣㄴㅅㅓㄴ	-9614
▁ㅇㅕㅇㅅㅓㅇ	-9615
▁SG	-9616
▁ㄹㅕㄹ	-9617
ㄴㅕㅁㅅㅏ	-9618
ㅂㅏㄹㅌㅡ	-9619
ㅎㅘㅇㅈㅔ	-9620
▁ㅇㅣㄹㅅㅜ	-9621
▁ㅇㅘㅇㄹㅡㅇ	-9622
▁ㅈㅏㅇㄹㅗㄴ	-9623
ty	-9624
▁440	-9625
▁ㅋㅐㅇ	-9626
▁2500	-9627
▁NATO	-9628
▁ㅅㅓㅇㅈㅏ	-9629
▁ㅇㅕㄴㅎㅏ	-9630
▁ㅇㅗㅁㄴㅣ	-9631
▁ㅋㅗㅁㅂㅣ	-9632
▁ㅈㅡㅇㅊㅜㄱ	-9633
▁ㅂㅜㅌㅈㅏㅂㅎㅕ	-9634
▁ㅇㅓㅁㅊㅓㅇㄴㅏ	-9635
ors	-9636
▁ㄴㅓㄼㅎㅕ	-9637
▁ㄷㅗㅇㅊㅔ	-9638
▁ㄹㅗㄹㄹㅣ	-9639
▁ㅁㅓㄴㄹㅗ	-9640
▁ㅇㅕㄴㅇㅓ	-9641
ㄴㅏㅁㅅㅓㄴ	-9642
ㅊㅓㅇㅈㅏㅇ	-9643
▁ㄴㅗㅇㄷㅏㅁ	-9644
▁ㅊㅓㄹㄱㅡㄴ	-9645
▁ㅇㅘㅇㄷㅏㅇㅍㅏ	-9646
ㅇㅛㅁ	-9647
ature	-9648
▁ㄱㅘㄴㅈㅓ	-9649
ㄱㅡㄱㄷㅏㄴ	-9650
▁ㄱㅡㅁㄱㅘㄴ	-9651
▁ㅂㅏㄴㅎㅑㅇ	-9652
▁ㅇㅏㄹㅋㅏㄹㄹㅣ	-9653
UM	-9654
ㄷㅏㅎ	-9655
▁ㄱㅏㅇㅇㅠ	-9656
▁ㅊㅓㄴㅌㅐ	-9657
ㄹㅐㄴㅅㅣㅅ	-9658
ㅎㅏㅂㅇㅝㄴ	-9659
▁ㅇㅕㄹㄹㅏㅁ	-9660
24	-9661
▁747	-9662
▁Get	-9663
▁Mag	-9664
▁1400	-9665
▁System	-9666
▁ㄱㅜㄱㅁㅜㄴ	-9667
▁ㅇㅑㄱㅍㅜㅁ	-9668
▁ㅊㅓㅇㅈㅓㅇ	-9669
ㄷㅙ	-9670
▁ㄷㅔㄱ	-9671
▁Back	-9672
ㅍㅐㄱㅅㅡ	-9673
▁ㅂㅗㄴㄱㅓ	-9674
▁ㅎㅔㄴㄷㅡ	-9675
▁ㅂㅏㄹㅇㅕㄹ	-9676
▁ㅇㅝㄴㄱㅗㄱ	-9677
▁SW	-9678
▁ㄱㅜㄴㅇㅟ	-9679
▁ㅍㅜㅇㅇㅛ	-9680
ㅇㅑㅇㄱㅘㅇ	-9681
▁ㅅㅣㄴㅊㅓㄴ	-9682
▁ㅇㅜㄴㅅㅓㄱ	-9683
▁ㄱㅏㅇㄹㅡㅇㅅㅣ	-9684
▁ㅈㅓㄴㅁㅏㅇㄷㅐ	-9685
▁Dis	-9686
ㄷㅜㄴㅈㅣ	-9687
▁ㅁㅔㄴㅌㅗ	-9688
▁ㅈㅓㄴㄷㅗㅇ	-9689
▁ㅈㅣㄴㅅㅓㅇ	-9690
▁ㅅㅣㄴㅇㅏㄴㄱㅜㄴ	-9691
let	-9692
▁PH	-9693
▁GPS	-9694
▁Hot	-9695
▁ㅋㅣㅂ	-9696
ㅍㅔㄴㅅㅓ	-9697
▁ㅂㅓㄱㅅㅡ	-9698
▁ㅇㅡㄹㅅㅜ	-9699
▁ㅈㅏㅂㅎㅕㅆ	-9700
inal	-9701
▁ㅇㅔㅂ	-9702
ㅂㅗㄴㄱㅏ	-9703
ㅅㅡㄹㄹㅗㄴ	-9704
▁ㄱㅘㄴㅇㅝㄴ	-9705
▁ㅇㅝㄹㄱㅕㅇ	-9706
▁ㅈㅓㄴㄱㅗㄱ	-9707
▁ㅎㅕㄴㄱㅘㄴ	-9708
▁ㅎㅏㄴㅈㅓㅇㅍㅏㄴ	-9709
BN	-9710
▁ㄴㅖ	-9711
▁365	-9712
▁MIT	-9713
▁1801	-9714
▁ㅅㅓㄱㅈㅐ	-9715
▁ㅎㅘㅇㅇㅟ	-9716
▁ㅅㅣㄴㄱㅜㅇ	-9717
▁ㅇㅏㄴㄹㅏㄱ	-9718
▁ㅎㅏㅇㅈㅓㄴ	-9719
GO	-9720
za	-9721
app	-9722
▁911	-9723
ㄹㅗㄱㅅㅣ	-9724
▁ㅂㅕㄴㅈㅗ	-9725
▁ㅇㅑㄱㅅㅜ	-9726
▁ㅍㅜㅇㄱㅣ	-9727
▁ㄱㅣㅁㅈㅗㅇㅈㅣㄱ	-9728
▁ㅎㅕㄹㅇㅐㄱㅎㅕㅇ	-9729
▁CA	-9730
▁Res	-9731
▁Baby	-9732
▁ㄱㅜㅇㅅㅜ	-9733
▁ㅈㅓㄴㅇㅕㄹ	-9734
▁ㅋㅐㅂㅌㅣㄴ	-9735
▁ㅌㅏㄴㅅㅓㅇ	-9736
▁ㅅㅐㅇㅁㅜㄹㅎㅏㄱㅈㅏ	-9737
ology	-9738
▁1789	-9739
ㄴㅗㄹㄷㅡ	-9740
ㄷㅡㄴㅂㅓ	-9741
ㅅㅓㄴㅅㅏ	-9742
▁ㅅㅐㅇㄱㅏ	-9743
▁ㅇㅘㅇㅈㅘ	-9744
▁ㅁㅕㅇㄷㅗㅇ	-9745
▁ㅇㅕㄱㄷㅗㅇ	-9746
▁ㅇㅘㄴㅅㅏㄴ	-9747
▁ㅇㅛㅇㅇㅕㄱ	-9748
▁ㅈㅓㄱㅎㅣㄴ	-9749
▁ㅇㅏㅂㄷㅜㄹㄹㅏ	-9750
▁ㅇㅕㅇㅈㅏㅇㄹㅠ	-9751
▁ㅇㅣㄴㅅㅏㄴㅎㅘ	-9752
▁ㄴㅏㅁㅎㅏㄴㅅㅏㄴㅅㅓㅇ	-9753
ART	-9754
▁207	-9755
▁class	-9756
▁ㄱㅏㄷㅎㅕ	-9757
▁ㅊㅏㅇㅆㅣ	-9758
▁ㅎㅏㅁㅇㅢ	-9759
ㅌㅣㄹㄹㅔㄴ	-9760
▁ㅁㅐㅇㄹㅕㄹ	-9761
▁ㅇㅗㄴㅈㅓㄴ	-9762
▁ㅈㅓㄴㄷㅗㅇㄱㅣ	-9763
▁ㅂㅏㅇㅁㅜㄴㄱㅐㄱ	-9764
▁ㅇㅏㅇㅅㅏㅇㅂㅡㄹ	-9765
FS	-9766
ㅊㅞ	-9767
RNA	-9768
▁Type	-9769
▁ㅇㅏㄱㅇㅓ	-9770
ㅎㅜㄴㄹㅕㄴ	-9771
▁ㅈㅓㄴㄱㅡㄱ	-9772
▁ㅈㅓㅂㅁㅗㄱ	-9773
▁ㅌㅏㄴㄱㅘㅇ	-9774
▁ㄷㅗㅇㅂㅜㄱㅂㅜ	-9775
ery	-9776
▁'-	-9777
▁IEC	-9778
ㄹㅏㄱㅂㅜ	-9779
▁ㅂㅣㄹㄹㅔ	-9780
ㅍㅕㅇㅊㅓㄴ	-9781
▁ㅂㅜㄱㅅㅗㅇ	-9782
▁FS	-9783
▁type	-9784
ㄲㅣㄴㄷㅏ	-9785
▁ㅂㅏㄱㅌㅐ	-9786
▁ㅈㅓㅇㅇㅜ	-9787
ㄹㅣㅁㄷㅗㅇ	-9788
ㅅㅏㄴㅇㅡㅂ	-9789
▁ㄱㅣㅁㅈㅏㅇ	-9790
▁ㅎㅏㅂㅈㅏㅇ	-9791
▁ㅎㅡㅂㅇㅣㅂ	-9792
▁OK	-9793
▁War	-9794
▁Cent	-9795
▁ㄷㅗㅇㅍㅡ	-9796
▁ㅈㅏㅇㅅㅓ	-9797
▁MT	-9798
ㄷㅏㅇㄹㅠ	-9799
ㅁㅏㅇㅊㅕ	-9800
▁ㅇㅗㅂㅌㅣ	-9801
▁ㅊㅏㄴㄷㅡ	-9802
▁ㅋㅐㄴㅌㅓ	-9803
▁ㅋㅡㄹㄹㅜ	-9804
▁ㄴㅗㄱㅁㅏㄹ	-9805
▁ㄴㅡㅇㅅㅜㄱ	-9806
▁ㄷㅓㄴㅈㅓㄴ	-9807
▁ㅆㅏㅇㅇㅛㅇ	-9808
▁ㅈㅣㄴㅅㅣㅁ	-9809
▁ㅅㅣㄴㅇㅣㄱㅎㅢ	-9810
ㅂㅏㄱㅇㅣ	-9811
ㅊㅜㄹㅅㅗ	-9812
▁ㅇㅏㄹㅂㅣ	-9813
ㄹㅣㅇㅌㅓㄴ	-9814
ㅂㅐㄱㅅㅐㄱ	-9815
▁ㄴㅗㄴㅍㅕㅇ	-9816
▁ㅈㅡㄹㄱㅕㅆ	-9817
▁ㅂㅜㄺㅇㅡㄴㅅㅐㄱ	-9818
enn	-9819
▁Ke	-9820
▁ㅆㅙ	-9821
▁ㅋㅐㄴㄷㅣ	-9822
▁ㄱㅏㅁㄷㅏㅇ	-9823
▁ㄱㅜㄱㅅㅏㄴ	-9824
▁ㄱㅣㅁㅇㅡㄴ	-9825
▁ㅂㅜㄹㄴㅡㅇ	-9826
ㅂㅓㅂㅇㅝㄴㅈㅏㅇ	-9827
▁ㅂㅜㄹㅂㅓㅂㅎㅐㅇㅇㅟ	-9828
▁Dr	-9829
ㄴㅛㄹ	-9830
ㄹㅑㅇㄱㅣ	-9831
▁ㅂㅏㄴㅈㅏ	-9832
▁ㅅㅓㅇㅈㅔ	-9833
▁ㅎㅠㅇㄴㅐ	-9834
ㄱㅕㅇㅊㅏㄹ	-9835
▁ㄱㅗㅇㅎㅜㄴ	-9836
ons	-9837
ㅇㅑㄱㅅㅓ	-9838
ㅇㅝㄹㄷㅡ	-9839
ㅌㅓㄴㅅㅡ	-9840
▁ㄷㅓㄱㅅㅜ	-9841
ㅊㅗㄴㄷㅗㅇ	-9842
▁ㅈㅜㄱㅇㅣㄹ	-9843
▁ㅈㅓㄴㅊㅓㄹㅇㅕㄱ	-9844
ㅇㅏㅍ	-9845
▁TOP	-9846
ㄷㅓㄱㄱㅜ	-9847
ㄷㅓㄴㅅㅡ	-9848
ㅋㅓㄴㄷㅡ	-9849
▁ㅅㅡㅂㄷㅗ	-9850
▁ㅇㅑㅇㅇㅟ	-9851
▁ㅈㅏㄴㅊㅣ	-9852
▁Google	-9853
▁ㄷㅏㅁㅇㅣㅁ	-9854
▁ㄷㅗㄹㄹㅕㅆ	-9855
▁ㅅㅓㄲㅇㅣㄴ	-9856
▁ㅈㅜㅇㅅㅣㄴ	-9857
▁ㅂㅏㅇㅂㅓㅂㄹㅗㄴ	-9858
▁Tra	-9859
▁Amer	-9860
ㄹㅣㅇㅅㅡ	-9861
▁ㅂㅓㅂㅎㅘ	-9862
▁ㅅㅏㅇㅎㅚ	-9863
▁ㅅㅓㄱㄷㅡㅇ	-9864
▁ㅅㅡㅇㄴㅏㄱ	-9865
▁ㅇㅑㅇㄷㅗㅇ	-9866
▁ㅇㅛㅇㅈㅓㅂ	-9867
ux	-9868
ina	-9869
▁Cr	-9870
▁Mac	-9871
▁1815	-9872
ㅈㅏㅁㅂㅣ	-9873
ㅈㅓㄴㄹㅣ	-9874
▁ㄴㅏㅁㅍㅗ	-9875
▁ㅈㅏㄱㅈㅏ	-9876
▁ㅈㅣㄱㄹㅠ	-9877
▁ㅁㅏㅈㄷㅏㅎ	-9878
▁ㅅㅣㄴㅇㅏㄴ	-9879
▁ㅅㅐㅇㅅㅏㄴㅈㅏ	-9880
▁ㅈㅣㄱㅎㅏㄹㅅㅣ	-9881
▁ㄷㅗㄱㄹㅣㅂㅅㅓㄴㅇㅓㄴ	-9882
ange	-9883
▁WHO	-9884
ㅈㅡㅇㄱㅣ	-9885
▁ㄱㅗㄴㄷㅗ	-9886
▁ㅇㅟㄴㅅㅡ	-9887
▁ㅎㅏㄴㄹㅏ	-9888
ㅅㅣㄹㅎㅓㅁ	-9889
▁ㅂㅕㄴㅎㅏㅁ	-9890
▁ㅈㅓㅇㅈㅜㅇ	-9891
▁ㅎㅐㅇㅇㅜㄴ	-9892
▁ㄷㅗㅇㅇㅣㄹㅅㅣ	-9893
▁ㄸㅡㄷ	-9894
▁ㅁㅕㅇㅈㅜ	-9895
▁ㅇㅔㅁㅁㅏ	-9896
▁ㅊㅣㅁㅅㅜ	-9897
ㅂㅜㄹㅁㅕㅇ	-9898
▁ㅊㅜㄹㅈㅓㅇ	-9899
▁ㅎㅡㄱㅅㅐㄱ	-9900
▁ㄱㅜㄴㅅㅏㄴㅅㅣ	-9901
ㅁㅔㅅ	-9902
ater	-9903
▁ㅂㅕㄴㅈㅜ	-9904
▁ㅈㅣㅇㅎㅜ	-9905
▁ㅊㅏㅇㅅㅔ	-9906
▁ㅍㅐㄴㅇㅏ	-9907
ㄷㅔㄹㄹㅣㅇ	-9908
ㅈㅓㄱㅂㅜㄴ	-9909
▁ㄴㅗㅎㅇㅕㅆ	-9910
▁ㅈㅡㅇㅈㅣㄱ	-9911
▁ㅈㅣㄱㄱㅏㄱ	-9912
▁ㅌㅗㅇㅋㅣㅇ	-9913
▁ㅂㅑ	-9914
ㄷㅜㄹㄹㅓ	-9915
▁ㅎㅏㄱㄷㅗ	-9916
▁ㄷㅏㅁㅈㅏㅇ	-9917
▁ㅇㅏㄴㄱㅓㄴ	-9918
▁ㅇㅕㅅㅂㅗㄹ	-9919
▁Int	-9920
ㄱㅡㄱㅎㅣ	-9921
ㅈㅔㄹㄹㅣ	-9922
▁ㅅㅓㄹㄱㅘ	-9923
▁ㅈㅡㅇㄹㅠ	-9924
▁ㅈㅣㄴㄱㅜ	-9925
▁ㅁㅕㅇㅈㅏㅇ	-9926
▁ㅇㅠㄴㄱㅘㄱ	-9927
▁ㅈㅓㅇㅈㅣㄱ	-9928
▁ㅈㅡㄱㅎㅡㅇ	-9929
▁ㅍㅡㄹㄹㅏㅇㄷㅡ	-9930
▁ㅎㅕㄱㅁㅕㅇㄱㅏ	-9931
▁ㄱㅓㄴㄴㅓㄹㅁㅗㄱ	-9932
yle	-9933
ㄲㅓㅂ	-9934
ㄹㅏㄹㄷㅡ	-9935
ㅇㅜㄴㅌㅓ	-9936
ㅈㅓㅇㄱㅠ	-9937
▁ㄱㅏㄹㅂㅣ	-9938
▁ㄱㅏㅇㅌㅏ	-9939
▁ㅅㅔㄹㄹㅓ	-9940
▁ㅋㅏㅁㅍㅗ	-9941
ㅇㅑㄱㅈㅓㅁ	-9942
ㅈㅣㄹㄹㅑㅇ	-9943
▁ㅂㅐㄹㄹㅓㄴ	-9944
▁ㅅㅡㅇㅅㅓㄴ	-9945
▁ㅅㅣㄹㅅㅏㅇ	-9946
▁ㅊㅜㄴㅎㅑㅇ	-9947
▁ㅅㅐㅇㄱㅣㅁㅅㅐ	-9948
▁ㅅㅓㅇㅂㅜㄱㄱㅜ	-9949
▁ㅌㅏㄹㅍㅣ	-9950
ㄱㅡㅁㅅㅗㄱ	-9951
ㅅㅠㅇ	-9952
▁USA	-9953
▁1858	-9954
▁MPEG	-9955
▁ㄱㅏㅇㅈㅏ	-9956
▁ㄱㅡㅁㄹㅣ	-9957
▁ㅂㅗㄴㅊㅗ	-9958
▁ㄱㅕㅇㅅㅏㄴ	-9959
▁ㅎㅕㅇㄱㅘㅇ	-9960
▁ㄴㅗㅇㅁㅣㄴㄱㅜㄴ	-9961
▁238	-9962
▁Not	-9963
ㅅㅏㄹㅂㅏ	-9964
▁ㄱㅏㅇㄱㅜ	-9965
▁ㅅㅓㄴㅅㅓ	-9966
▁ㅇㅏㄴㅈㅐ	-9967
▁ㅇㅕㅇㅈㅐ	-9968
▁ㅇㅣㅁㅎㅐ	-9969
▁ㅎㅐㄹㄹㅣ	-9970
▁ㅈㅗㅇㄷㅏㄴ	-9971
▁ㅊㅜㄹㅂㅕㅇ	-9972
▁ㅎㅏㄱㅅㅐㅇㅎㅚ	-9973
UI	-9974
ions	-9975
ㄱㅐㅇㅇㅣ	-9976
ㅌㅏㄹㄹㅗ	-9977
▁ㄱㅏㅂㅇㅗ	-9978
▁ㅂㅏㄹㅊㅞ	-9979
▁ㅎㅘㅇㅎㅏ	-9980
▁ㄱㅠㄴㅇㅕㄹ	-9981
▁ㅅㅐㅇㅈㅏㅇ	-9982
▁ㅇㅣㅂㅎㅕㅆ	-9983
▁ㅌㅏㄴㄹㅕㄱ	-9984
▁ㅈㅓㅇㅁㅗㅇㅈㅜ	-9985
▁ㅁㅕㄴㅎㅏ	-9986
▁ㅇㅏㅁㅊㅗ	-9987
▁ㅈㅓㅇㄱㅘ	-9988
▁ㅈㅓㅇㅇㅕ	-9989
▁ㅊㅣㄴㅎㅣ	-9990
▁ㄴㅏㅁㄱㅜㅇ	-9991
▁ㅂㅔㄹㅂㅔㅅ	-9992
▁ㅂㅗㅇㅎㅓㄴ	-9993
▁ㅈㅓㄴㅈㅣㅂ	-9994
▁ㅈㅓㅇㅇㅣㄹ	-9995
▁ㅈㅓㅇㅎㅕㄴ	-9996
▁ㅊㅓㅅㄴㅏㄹ	-9997
▁ㅂㅜㄴㅎㅗㅇㅅㅐㄱ	-9998
▁ㅇㅛㄴ	-9999
▁High	-10000
ㅂㅏㄴㅂㅜ	-10001
▁ㅁㅗㄱㅎㅘ	-10002
ㄱㅏㄱㅅㅓㄴ	-10003
▁ㄱㅕㄱㅊㅣㅁ	-10004
▁ㅇㅡㅁㅇㅕㄱ	-10005
▁BB	-10006
▁EN	-10007
ㅋㅗㅂ	-10008
▁ㅇㅑㅇㅊㅣ	-10009
▁ㄱㅘㅇㄷㅗㅇ	-10010
▁ㅈㅏㅇㅈㅜㄴ	-10011
▁ㅇㅣㄴㅁㅜㄴㅎㅏㄱ	-10012
23	-10013
ret	-10014
▁Way	-10015
ㅈㅓㄴㅈㅜ	-10016
▁ㅈㅏㄱㅇㅏ	-10017
▁ㅍㅐㄹㄹㅣ	-10018
ㅇㅡㅁㅅㅗㄱ	-10019
ㅎㅏㄱㅅㅏㄹ	-10020
▁ㅂㅕㄴㅎㅐㅆ	-10021
▁ㅇㅟㅅㅁㅕㄴ	-10022
▁ㅋㅗㄴㅅㅔㅂ	-10023
26	-10024
▁MHz	-10025
▁ㅋㅔㅅ	-10026
ㄱㅡㄱㄱㅣ	-10027
▁ㄱㅕㅇㄱㅜ	-10028
▁ㄱㅜㅇㄴㅐ	-10029
▁ㄱㅣㅁㅅㅔ	-10030
ㄱㅗㅇㅇㅝㄴ	-10031
▁ㄱㅣㅁㅅㅓㄱ	-10032
▁ㅇㅣㄹㄹㅏㅁ	-10033
▁ㅇㅣㄱㅅㅏㄴㅅㅣ	-10034
▁ㄱㅏㅂㅅㅣㄴㅈㅓㅇㅂㅕㄴ	-10035
ㄷㅝ	-10036
ㅊㅠ	-10037
att	-10038
▁NL	-10039
▁TBC	-10040
ㄹㅔㄴㅊㅗ	-10041
▁ㄱㅗㅇㅂㅗ	-10042
▁ㄴㅡㅇㅎㅏ	-10043
▁ㅌㅐㄱㅎㅏ	-10044
▁ㅌㅡㄱㅇㅟ	-10045
▁ㅍㅜㅇㅅㅜ	-10046
▁ㅇㅝㄴㅅㅐㅇ	-10047
▁ㅇㅝㄴㅅㅜㄹ	-10048
▁ㅊㅐㄱㅈㅓㅇ	-10049
ㅂㅓㅂㅇㅕㄴㅎㅘ	-10050
▁ㅇㅣㄹㅈㅣㄴㅎㅚ	-10051
▁Vf	-10052
▁kW	-10053
▁1300	-10054
▁ㄱㅗㅇㅈㅣ	-10055
ㄷㅡㄱㅈㅓㅁ	-10056
ㄹㅓㅁㅍㅔㅅ	-10057
ㅂㅏㄴㅈㅓㄴ	-10058
▁ㄱㅜㄴㄹㅣㅁ	-10059
▁ㄱㅣㅍㅅㅜㄱ	-10060
▁ㅂㅏㄹㄹㅔㄴㅌㅣ	-10061
▁COM	-10062
▁ㄷㅜㄱ	-10063
▁ㅅㅓㄴㄷㅔ	-10064
▁ㅇㅓㄹㅅㅡ	-10065
▁ㅍㅗㄱㅈㅜ	-10066
▁ㅎㅘㄴㄱㅣ	-10067
ㅅㅓㅇㄷㅗㅇ	-10068
▁ㄱㅣㅂㅅㅡㄴ	-10069
▁ㄲㅡㅁㅉㅣㄱ	-10070
▁ㅂㅏㄱㄷㅗㅇ	-10071
▁ㅈㅓㅇㄱㅗㅇ	-10072
▁ㅎㅔㄹㅅㅣㅇㅋㅣ	-10073
▁Of	-10074
▁What	-10075
ㄱㅏㄴㅈㅜ	-10076
ㅎㅏㅇㅎㅐ	-10077
ㅎㅐㅇㅎㅣ	-10078
▁ㄷㅗㅇㅌㅣ	-10079
▁ㅂㅏㄴㅇㅑ	-10080
▁ㅅㅏㅇㅌㅜ	-10081
▁ㅇㅣㄹㄹㅏ	-10082
▁ㅂㅕㅇㅇㅣㄴ	-10083
▁ㅍㅕㅇㅅㅏㅇㅅㅣ	-10084
▁ㅍㅕㅇㅌㅐㄱㅅㅣ	-10085
▁ㅅㅏㄴㅇㅓㅂㄷㅏㄴㅈㅣ	-10086
▁ED	-10087
▁1820	-10088
▁time	-10089
▁COVID	-10090
▁ㅂㅏㄹㄷㅔ	-10091
▁ㅅㅐㅇㅍㅗ	-10092
▁ㄷㅗㅇㄹㅠㄹ	-10093
▁ㅁㅕㄴㅇㅡㄴ	-10094
▁ㅊㅜㄹㅎㅏㅇ	-10095
ye	-10096
▁With	-10097
ㅁㅜㄴㄱㅗ	-10098
ㅎㅐㅇㅇㅓ	-10099
▁ㄷㅏㄹㅁㅏ	-10100
▁ㅍㅏㄴㄷㅏ	-10101
▁ㄱㅘㅇㅌㅐㄱ	-10102
▁ㅂㅜㄹㄱㅣㄹ	-10103
▁ㅎㅗㅇㅊㅓㄴ	-10104
IO	-10105
ING	-10106
ley	-10107
▁RA	-10108
ㅆㅏㄹ	-10109
ㅋㅜㄴ	-10110
▁MLB	-10111
ㄷㅏㄹㄹㅕ	-10112
▁ㄴㅏㅁㅌㅐ	-10113
▁ㄷㅓㅇㄱㅜㄹ	-10114
▁ㄴㅏㅁㅂㅏㄴㄱㅜ	-10115
▁ㅇㅣㅂㅊㅜㄹㄹㅕㄱ	-10116
▁ㅎㅏㅂㅊㅓㄴㄱㅜㄴ	-10117
enc	-10118
ㄹㅏㅅ	-10119
▁290	-10120
ㄹㅐㄴㅈㅣ	-10121
ㅇㅛㅇㅎㅣ	-10122
▁ㄱㅗㄹㅅㅜ	-10123
▁ㅁㅣㄴㄱㅏ	-10124
▁ㅇㅕㄱㅁㅜ	-10125
▁ㅎㅏㄴㄱㅏ	-10126
▁ㄱㅜㄴㄹㅑㅇ	-10127
▁ㅎㅐㅇㅎㅏㄴ	-10128
28	-10129
▁Blue	-10130
ㄹㅗㄴㅎㅚ	-10131
ㅇㅑㄱㅅㅡ	-10132
▁ㄱㅗㅇㅎㅐ	-10133
▁ㅇㅠㅇㄱㅣ	-10134
▁ㄱㅕㄱㅅㅏㅇ	-10135
▁ㄱㅕㄹㄹㅕㄹ	-10136
▁ㄷㅏㅇㅈㅏㅇ	-10137
▁ㅋㅔㄹㅂㅣㄴ	-10138
▁223	-10139
▁ㅋㅗㅅ	-10140
▁ㅅㅣㄴㅇㅣ	-10141
▁ㅇㅏㄱㅇㅢ	-10142
▁ㅇㅞㄹㅅㅡ	-10143
▁ㄱㅜㄴㄹㅏㄱ	-10144
▁ㅁㅕㅇㅈㅜㅇ	-10145
▁ㅊㅓㅇㅈㅜㅇ	-10146
▁ㅎㅗㅂㅋㅣㄴㅅㅡ	-10147
▁480	-10148
ㅅㅣㄴㄷㅗ	-10149
▁ㄷㅏㄴㅅㅏ	-10150
ㄷㅏㄹㅇㅡㅁ	-10151
▁ㅁㅏㄴㅁㅜㄹ	-10152
▁ㅈㅏㅇㅌㅐㄱ	-10153
▁ㅈㅐㅇㅈㅓㅁ	-10154
▁ㅊㅏㅇㅇㅓㅂㅈㅏ	-10155
▁ㅊㅓㄴㅇㅕㄴㄱㅏ	-10156
▁ㅃㅜㅁ	-10157
▁1814	-10158
ㄹㅗㄹㄹㅜ	-10159
ㅇㅛㅇㄱㅣ	-10160
▁ㅅㅓㅇㅂㅜ	-10161
▁ㅇㅣㄴㄴㅗ	-10162
▁ㅎㅣㅁㅆㅡ	-10163
▁ㅂㅜㄱㅂㅏㄴㄱㅜ	-10164
▁ㄱㅜㄱㅁㅜㄴㅎㅏㄱ	-10165
ㅇㅑㅇㅈㅣ	-10166
ㅅㅏㅁㅊㅗㄴ	-10167
▁ㄹㅐㄴㄷㅓㅁ	-10168
▁ㅅㅜㄹㅈㅣㅂ	-10169
▁ㅈㅓㅇㅎㅘㄱㄷㅗ	-10170
▁737	-10171
▁Art	-10172
ㅂㅏㄴㅌㅡ	-10173
▁ㅊㅗㅇㅅㅜ	-10174
ㄱㅓㄴㅈㅓㄱ	-10175
▁ㄱㅏㅇㅎㅐㅆ	-10176
▁ㅂㅕㄴㅎㅏㄴ	-10177
▁ㅈㅓㄴㄹㅏㄴ	-10178
▁ㄱㅡㅂㅅㅗㄱㄷㅗ	-10179
▁ㅅㅓㄴㅇㅓㄴㅁㅜㄴ	-10180
OVE	-10181
der	-10182
▁Di	-10183
▁1795	-10184
ㅂㅗㄹㄹㅏ	-10185
▁ㅁㅗㄴㅌㅐ	-10186
▁ㅂㅜㄹㄱㅓ	-10187
ㅌㅏㅁㅈㅓㅇ	-10188
▁ㄷㅏㅇㅁㅕㅇ	-10189
▁ㄷㅡㄱㅅㅣㄹ	-10190
▁ㅅㅣㄴㄱㅘㄴ	-10191
▁ㅎㅏㅂㅅㅏㄴ	-10192
▁ㄹㅗㄹㅍㅡㄹㄹㅔ	-10193
ㄹㅓㅂㅇㅕㄴㅎㅏㅂ	-10194
▁ㅅㅏㄴㄷㅜㅇㅅㅓㅇ	-10195
ough	-10196
▁850	-10197
ㄷㅗㄱㅈㅏ	-10198
ㅇㅔㄹㄹㅔ	-10199
▁ㅅㅣㄹㅋㅡ	-10200
▁ㅎㅏㄴㄲㅓ	-10201
▁ㅂㅗㄴㄷㅏㅇ	-10202
▁ㅅㅏㅇㅈㅏㄱ	-10203
▁ㅅㅓㅁㄱㅕㅆ	-10204
▁ㅎㅔㄹㄹㅔㄴ	-10205
▁ㅇㅕㄴㅅㅡㅂㅅㅐㅇ	-10206
▁ㅎㅕㄱㅁㅕㅇㄱㅜㄴ	-10207
▁KC	-10208
▁1846	-10209
ㄹㅐㅇㅍㅣ	-10210
▁ㅇㅟㄴㄷㅡ	-10211
ㅇㅜㄹㅊㅓㄹ	-10212
ㅊㅜㄹㅇㅐㄱ	-10213
▁ㄱㅏㄴㅇㅕㅁ	-10214
▁ㅂㅏㄱㅇㅣㄴ	-10215
▁ㅇㅣㄴㅅㅣㄴ	-10216
▁ㅇㅗㄹㄹㅐㅇㅍㅣ	-10217
▁ㅌㅗㅇㅅㅣㄴㅂㅜ	-10218
HD	-10219
▁214	-10220
▁ㄱㅡㅂㅅㅏ	-10221
▁ㄷㅗㅅㅌㅗ	-10222
▁ㅅㅡㄹㅍㅓ	-10223
▁ㅍㅐㄱㅌㅗ	-10224
▁ㅅㅜㅇㅅㅣㄹ	-10225
▁ㅈㅣㄱㅎㅏㅁ	-10226
ump	-10227
▁ME	-10228
▁ㅅㅣㄴㄱㅜ	-10229
▁ㄱㅗㅇㄷㅓㄱ	-10230
▁ㅇㅑㄱㅎㅏㄱ	-10231
▁ㅈㅗㄴㅅㅏㅇ	-10232
alk	-10233
ㄴㅏㅈ	-10234
▁ㅇㅓㄹㅌㅓ	-10235
▁ㅈㅏㅇㅊㅏ	-10236
ㅁㅜㄹㄹㅗㄴ	-10237
▁ㅊㅏㅇㄷㅓㄱㄱㅜㅇ	-10238
▁ㄱㅜㄴㅂㅣ	-10239
▁ㅁㅣㄹㅅㅡ	-10240
▁ㅇㅣㄴㄷㅐ	-10241
ㄱㅐㄱㅅㅓㄴ	-10242
▁ㅅㅗㄴㅊㅐㄱ	-10243
▁ㅅㅜㄴㅈㅓㅇ	-10244
TN	-10245
ㅌㅠㄴ	-10246
▁Min	-10247
▁Rev	-10248
ㅎㅐㅇㄷㅐ	-10249
▁ㄱㅕㄹㅌㅜ	-10250
▁ㅇㅕㅇㅇㅟ	-10251
▁ㅌㅡㄱㅎㅖ	-10252
▁ㅍㅗㄴㅌㅡ	-10253
▁ㅊㅗㄴㅇㅡㄴ	-10254
▁ㅊㅗㅇㅅㅏㄹ	-10255
ㄱㅏㄱㅊㅗㅇㄹㅣ	-10256
▁ㅎㅐㄱㅍㅗㄱㅌㅏㄴ	-10257
▁Mic	-10258
ㅃㅏㄹㄹㅣ	-10259
ㅅㅓㅆㅇㅡ	-10260
ㅇㅣㄴㅈㅏ	-10261
ㅋㅏㄴㅅㅗ	-10262
ㅍㅐㅇㅇㅣ	-10263
▁ㄷㅡㅇㄷㅐ	-10264
▁ㅂㅓㅅㄱㅕ	-10265
▁ㅂㅔㄴㅍㅣ	-10266
ㅅㅡㅇㅋㅓㅂ	-10267
▁ㅁㅔㄹㄹㅗㄴ	-10268
▁ㅇㅏㄹㄹㅔㄴ	-10269
▁ㅇㅝㄹㅂㅜㄱ	-10270
▁ㅈㅜㅇㅅㅣㅁㅎㅐㄱ	-10271
▁ㅊㅜㅇㄹㅕㄹㅇㅘㅇ	-10272
▁"'	-10273
▁ㅇㅑㄹ	-10274
ㅂㅐㄴㅅㅡ	-10275
▁ㄹㅐㄴㄷㅣ	-10276
▁ㅂㅜㄴㄷㅐ	-10277
▁ㅅㅗㄹㅌㅡ	-10278
▁ㅆㅏㅎㅇㅕ	-10279
▁ㅇㅣㅁㅂㅔ	-10280
▁ㅈㅏㅇㅈㅗ	-10281
▁ㅋㅣㄹㄹㅣ	-10282
▁ㅎㅗㄴㅁㅏ	-10283
ㅇㅜㄴㅈㅓㄴ	-10284
▁ㅂㅜㄴㄷㅏㅁ	-10285
▁ㅅㅗㄹㅈㅣㄱ	-10286
ㅈㅣㄱㅎㅏㄹㅅㅣ	-10287
atch	-10288
ㅎㅓㅁㅈㅏ	-10289
▁ㄱㅏㅁㄱㅣ	-10290
▁ㄱㅕㄱㅎㅘ	-10291
▁ㄱㅜㄱㄱㅘ	-10292
▁ㄷㅗㄱㅅㅗ	-10293
▁ㅇㅕㄱㅁㅗ	-10294
▁ㅎㅏㄴㅅㅓ	-10295
ㅈㅓㄴㅈㅐㅇ	-10296
ㅈㅣㄴㅅㅣㄹ	-10297
▁ㅂㅗㄹㄹㅠㅁ	-10298
▁ㄱㅘㄴㅊㅏㄹㅈㅏ	-10299
29	-10300
ㄸㅏㄴ	-10301
▁ㄱㅠㄹ	-10302
ㅅㅓㄹㅈㅏ	-10303
ㅋㅓㄴㅌㅡ	-10304
▁ㄱㅏㄴㄷㅣ	-10305
▁ㅊㅓㅁㅂㅜ	-10306
▁ㅍㅔㄴㅅㅡ	-10307
ㅇㅜㄹㅇㅕㅆ	-10308
▁ㄴㅏㅂㅍㅜㅁ	-10309
▁ㅅㅓㅇㅊㅏㄴ	-10310
▁ㅈㅏㅇㅎㅏㅇ	-10311
▁ㅎㅕㄴㅊㅜㅇ	-10312
▁ㄱㅓㄴㄱㅜㄱㄷㅐ	-10313
▁IA	-10314
▁TG	-10315
▁ㄱㅘㅇㅅㅓ	-10316
▁ㅅㅏㄹㅍㅣ	-10317
▁ㄷㅓㅅㅅㅔㅁ	-10318
▁ㅇㅠㄹㄹㅕㅇ	-10319
▁ㅇㅝㄴㅈㅓㅇㄱㅜㄴ	-10320
▁301	-10321
ㅌㅏㅇㅅㅜ	-10322
▁ㅂㅏㅇㅈㅗ	-10323
▁ㅂㅓㅁㅇㅛㅇ	-10324
▁ㅅㅏㄴㄷㅗㅇ	-10325
▁ㅈㅗㅇㅊㅣㄴ	-10326
▁ㅊㅓㄴㅈㅓㅇ	-10327
ㅎㅏㄱㅅㅐㅇㅎㅚ	-10328
▁ㅅㅣㄱㅁㅜㄹㅇㅝㄴ	-10329
ger	-10330
ㄹㅓㅆㅇㅡ	-10331
▁ㅂㅏㄱㄱㅣ	-10332
ㅇㅝㄴㅎㅕㅇ	-10333
▁ㄱㅏㄴㅈㅏㅇ	-10334
▁ㅇㅡㅁㄱㅕㅇ	-10335
▁ㅈㅓㅇㄱㅏㅇ	-10336
▁ㅎㅏㄱㄱㅡㅂ	-10337
▁211	-10338
▁Free	-10339
ㅈㅏㅇㄱㅗ	-10340
▁ㅅㅣㄹㅌㅐ	-10341
▁ㄱㅕㄹㄷㅏㄴ	-10342
▁ㄱㅕㄹㅅㅣㄹ	-10343
▁ㅁㅏㅅㅇㅣㅆ	-10344
▁ㅂㅏㄱㅅㅡㅇ	-10345
▁ㅇㅑㅇㅂㅜㄴ	-10346
▁ㅁㅕㅇㅁㅕㅇㅂㅓㅂ	-10347
86	-10348
que	-10349
cess	-10350
▁ㅈㅘㅇ	-10351
ㅂㅗㄱㅈㅣ	-10352
ㅇㅠㄱㅅㅣㄴ	-10353
▁ㄷㅗㄱㅅㅣㄹ	-10354
▁ㅁㅏㄹㄹㅣㄴ	-10355
▁ㅂㅗㄴㅈㅣㄴ	-10356
▁ㅅㅓㅇㄱㅏㄴ	-10357
▁ㅊㅓㅇㅎㅐㅆ	-10358
▁ㅊㅗㅇㅇㅐㄱ	-10359
▁ㅂㅜㄱㄱㅡㄱㅎㅐ	-10360
▁ㅈㅓㄱㅈㅓㄹㅎㅣ	-10361
27	-10362
OU	-10363
▁ㅊㅗㅁ	-10364
ㄷㅏㄹㄹㅜ	-10365
ㄹㅔㄴㅊㅣ	-10366
ㅂㅗㅇㅅㅏ	-10367
▁ㄱㅜㄷㅇㅣ	-10368
▁ㅇㅕㄴㅇㅠ	-10369
▁ㅂㅡㄹㄹㅏㅇ	-10370
▁ㅈㅓㅇㅂㅕㅇ	-10371
▁ㅎㅐㄴㄷㅡㄹ	-10372
oup	-10373
▁CL	-10374
▁DL	-10375
▁LCD	-10376
▁Top	-10377
▁XML	-10378
▁ㄱㅜㄱㅈㅣ	-10379
▁ㄴㅏㄱㅌㅐ	-10380
▁ㅅㅣㄹㄹㅏ	-10381
▁ㅊㅓㄴㄱㅜ	-10382
ㅇㅑㄱㄱㅡㅁ	-10383
▁ㅇㅡㅁㅇㅑㅇ	-10384
▁1851	-10385
▁ㅁㅏㅇㄹㅜ	-10386
▁ㅁㅕㅇㅈㅣ	-10387
▁ㅇㅕㅇㅎㅐ	-10388
▁ㅇㅠㄱㅇㅏ	-10389
▁ㅇㅣㄴㅍㅣ	-10390
▁ㅈㅓㅇㅅㅣ	-10391
▁ㅌㅡㄱㄹㅖ	-10392
▁ㄱㅏㅂㄱㅏㄱ	-10393
▁ㅂㅗㄴㄴㅡㅇ	-10394
▁ㅂㅗㅇㅈㅏㄱ	-10395
▁ㅅㅣㅁㄱㅡㄴ	-10396
▁ㅎㅕㄴㄹㅕㅇ	-10397
▁ㅎㅗㄴㄷㅗㄴ	-10398
▁HK	-10399
▁ㄴㅏㄱㅇㅕㅂ	-10400
▁ㄷㅗㄹㅍㅣㄴ	-10401
▁ㅁㅣㄴㄱㅝㄴ	-10402
▁ㅇㅕㄹㅂㅏㄴ	-10403
▁ㅇㅠㄱㅂㅏㄱ	-10404
▁ㅅㅓㅇㅁㅕㅇㅅㅓ	-10405
ㅁㅏㅌ	-10406
ㅅㅓㅇㄹㅣ	-10407
▁ㄱㅏㄱㄱㅘㅇ	-10408
▁ㄴㅗㄴㅅㅓㄹ	-10409
▁ㅊㅓㄹㅇㅝㄴ	-10410
▁ㅎㅙ	-10411
▁1856	-10412
▁ㅂㅜㄱㅎㅐ	-10413
▁ㅅㅓㄴㅈㅣ	-10414
▁ㅇㅐㄹㅍㅡ	-10415
▁ㅍㅏㄹㅈㅏ	-10416
ㅇㅣㄴㅇㅕㄱ	-10417
▁ㅂㅏㄱㅈㅜㄴ	-10418
▁ㅇㅏㄴㅈㅜㅇㄱㅡㄴ	-10419
▁ne	-10420
▁1793	-10421
▁1854	-10422
ㄹㅕㄱㅈㅏ	-10423
▁ㅊㅜㅇㄱㅗ	-10424
▁ㅍㅓㄴㅊㅣ	-10425
ㄴㅕㅁㅅㅣㄱ	-10426
▁ㅈㅜㅇㅇㅏㅇㅈㅓㅇㅂㅗ	-10427
▁430	-10428
ㄹㅓㅇㅇㅣ	-10429
ㅎㅡㅇㅅㅏ	-10430
▁ㄷㅏㅁㅎㅘ	-10431
▁ㅂㅏㄴㄹㅕ	-10432
▁ㄷㅓㄴㅈㅣㄴ	-10433
▁ㅅㅣㄴㅈㅏㄱ	-10434
▁ㅇㅜㅇㅈㅣㄴ	-10435
ㅅㅓㅇㄴㅕㄴㅈㅏ	-10436
▁ㅆㅏㅇㅂㅏㅇㅇㅜㄹ	-10437
ont	-10438
▁1849	-10439
ㄷㅡㄹㄹㅓ	-10440
▁ㄱㅘㄴㄷㅐ	-10441
▁ㄱㅜㄴㅁㅜ	-10442
▁ㅍㅣㅇㄱㅖ	-10443
▁ㄱㅗㅇㅍㅕㅇ	-10444
▁ㄱㅜㄴㅈㅣㅂ	-10445
▁ㅁㅏㄴㄱㅜㄱ	-10446
▁ㅇㅠㄴㅇㅕㅇ	-10447
▁ㅇㅕㅇㅅㅏㄴㅎㅚ	-10448
▁ㅎㅐㄱㅅㅣㄹㅎㅓㅁ	-10449
ma	-10450
▁419	-10451
▁ㄲㅣㄴ	-10452
▁ㅁㅝㄴ	-10453
▁ㅇㅟㅁ	-10454
▁ㅌㅡㄹㄹㅣ	-10455
▁ㅌㅡㅁㅌㅏ	-10456
▁ㄱㅕㄹㅈㅣㅂ	-10457
▁ㅂㅓㅈㄲㅗㅊ	-10458
ㅇㅛㅇㄷㅗㄹㅇㅣ	-10459
▁ㅂㅕㅇㅇㅝㄴㅊㅔ	-10460
▁ㅇㅓㅇㄷㅓㅇㅇㅣ	-10461
▁ㅇㅕㄹㄹㅕㅆㅇㅡ	-10462
▁ㄴㅗㅇㅈㅏㄱㅁㅜㄹ	-10463
▁ER	-10464
▁1839	-10465
▁Beat	-10466
▁ㅇㅓㄱㅈㅣ	-10467
▁ㅇㅝㄴㅈㅔ	-10468
▁ㅈㅡㅇㅇㅝㄴ	-10469
▁ㅎㅐㄱㅅㅏㄴ	-10470
ㄱㅗㅈ	-10471
▁Med	-10472
▁set	-10473
ㅇㅕㄴㄹㅛ	-10474
ㅈㅜㄴㅇㅓ	-10475
▁ㅅㅓㄹㅅㅏ	-10476
▁ㅅㅔㄴㅅㅡ	-10477
▁ㅇㅡㅁㅅㅗ	-10478
ㅇㅕㄹㅅㅓㅇ	-10479
▁ㅇㅓㄴㅈㅔㄴ	-10480
▁ㅇㅕㄴㅇㅣㅁ	-10481
▁ㅊㅏㄴㅌㅏㄹ	-10482
▁ㅎㅕㄴㅊㅓㅇ	-10483
BT	-10484
▁ㄷㅗㅊ	-10485
▁ㄹㅔㅇ	-10486
ㅅㅗㄴㅈㅏ	-10487
▁ㄷㅗㅇㄱㅗ	-10488
▁ㅈㅣㄹㄹㅔ	-10489
▁ㅌㅐㄱㅈㅣ	-10490
ㅈㅏㅇㄱㅏㄱ	-10491
▁ㄱㅣㅁㅁㅜㄴ	-10492
▁ㅅㅡㅇㅈㅓㄴ	-10493
▁ㅅㅣㄹㅊㅐㄱ	-10494
▁ㅇㅔㅁㅂㅡㄹ	-10495
▁ㅍㅣㄱㅅㅕㄴ	-10496
ㅁㅟ	-10497
▁1855	-10498
ㄱㅝㄴㄷㅗ	-10499
▁ㄴㅏㅁㄹㅗ	-10500
▁ㄷㅡㄹㄹㅓ	-10501
▁ㅋㅐㅇㄱㅓ	-10502
ㅅㅏㅇㅎㅕㄴ	-10503
▁ㄴㅏㄱㄹㅏㅇ	-10504
▁ㅇㅗㄱㅅㅏㅇ	-10505
▁ㅇㅣㄴㅊㅜㄹ	-10506
ㅍㅕㅇㅊㅓㄴㄱㅜㄱ	-10507
▁CT	-10508
ㅂㅓㅅ	-10509
▁ㄹㅓㄹ	-10510
▁ㅅㅏㅇㅊㅔ	-10511
▁ㅊㅜㄹㄹㅜ	-10512
▁ㅁㅗㅁㅈㅣㅂ	-10513
▁ㅅㅗㄴㅅㅟㅂ	-10514
▁ㅅㅣㅁㅅㅡㄴ	-10515
▁ㅊㅏㄱㅎㅏㄴ	-10516
▁BR	-10517
ㄴㅐㅇ	-10518
▁233	-10519
▁10000	-10520
▁ㅅㅓㄴㅎㅚ	-10521
▁ㅅㅗㄴㅂㅏ	-10522
▁ㅅㅣㄴㄴㅏ	-10523
▁ㅇㅑㄱㅈㅔ	-10524
▁ㅈㅣㄴㅇㅏㄴ	-10525
▁ㅊㅓㅇㄱㅜㄴ	-10526
▁ㅌㅣㅁㅈㅏㅇ	-10527
▁ㅎㅏㄹㅇㅑㅇ	-10528
▁JP	-10529
▁ㅇㅓㅍ	-10530
ㅅㅓㅇㅇㅐ	-10531
ㅇㅑㅇㅅㅜ	-10532
ㅎㅡㅇㅅㅣ	-10533
▁ㄴㅏㄱㅌㅏ	-10534
▁ㅈㅓㅇㄱㅜ	-10535
▁ㅈㅗㅇㅈㅜ	-10536
▁ㅈㅜㄴㅎㅏ	-10537
▁ㅂㅕㄴㅂㅏㅇ	-10538
▁ㅇㅛㄱㅅㅓㄹ	-10539
▁ㅇㅠㄹㄱㅗㄱ	-10540
▁ㅇㅜㅁㅈㅣㄱㅇㅕ	-10541
▁ㅈㅣㄴㅈㅓㅇㅎㅏㄴ	-10542
▁MW	-10543
▁ㄲㅏㅇ	-10544
ㄹㅏㄴㄷㅔ	-10545
ㄹㅏㄹㄹㅏ	-10546
ㅎㅏㄴㄷㅗ	-10547
▁begin	-10548
▁ㄱㅕㄴㅈㅣ	-10549
▁ㅂㅏㄹㄷㅏㄴ	-10550
▁Po	-10551
ㅇㅕㅇㅅㅜ	-10552
▁ㄱㅓㄹㅊㅣ	-10553
▁ㅁㅏㄴㄱㅣ	-10554
▁ㅁㅏㄴㄹㅣ	-10555
▁ㅂㅗㄴㄱㅣ	-10556
▁ㅂㅗㄴㄷㅣ	-10557
▁ㅅㅏㄴㅂㅜ	-10558
▁ㅇㅓㄱㄹㅠ	-10559
▁ㅈㅓㄱㅈㅐ	-10560
ㅅㅣㄴㄱㅏㅁ	-10561
▁ㅁㅏㄴㅇㅕㄴ	-10562
▁ㅅㅏㄴㅂㅜㄹ	-10563
▁ㅈㅏㅁㅂㅗㄱ	-10564
▁FX	-10565
▁NX	-10566
ㅅㅗㅁ	-10567
▁Bro	-10568
▁End	-10569
▁void	-10570
ㅇㅣㄴㅅㅜ	-10571
ㅌㅐㄴㅍㅓ	-10572
▁ㅅㅣㄴㄱㅛ	-10573
▁ㅊㅏㅁㅂㅐ	-10574
ㅂㅜㄱㅉㅗㄱ	-10575
ㅇㅏㅅㄱㅕㅆ	-10576
ㅈㅏㅇㅅㅓㅇ	-10577
ㅈㅣㄴㅂㅓㅂ	-10578
▁ㅂㅏㄱㄱㅕㄱ	-10579
▁ㅂㅜㄱㅅㅏㅇ	-10580
▁ㅇㅕㄹㅍㅜㅇ	-10581
▁ㅊㅜㄹㅅㅐㅇㅈㅣ	-10582
▁ㄴㅓㄱ	-10583
ㄲㅜㄴㄷㅏ	-10584
ㅅㅏㄹㄹㅣ	-10585
ㅅㅓㅁㅇㅠ	-10586
▁ㅇㅔㄹㅍㅡ	-10587
▁ㅎㅕㅇㅁㅜ	-10588
▁ㅎㅟㄹㅊㅔ	-10589
▁ㅈㅓㄴㅇㅐㄱ	-10590
▁ㄱㅏㅁㅇㅕㅁㅈㅏ	-10591
▁ㄱㅜㄱㅁㅣㄴㅈㅜ	-10592
day	-10593
▁1857	-10594
ㄷㅗㅇㄷㅐ	-10595
▁ㄱㅕㅇㅅㅜ	-10596
▁ㄱㅕㅇㅊㅣ	-10597
▁ㅅㅓㅇㅊㅜ	-10598
▁ㄷㅏㅇㅂㅜㄴ	-10599
▁ㅁㅜㄴㅅㅓㅇ	-10600
▁ㅂㅜㄴㅇㅑㅇ	-10601
▁ㅅㅏㄹㄹㅣㅁ	-10602
▁ㅅㅓㄱㅅㅏㅇ	-10603
▁ㅇㅓㄴㅇㅑㄱ	-10604
▁ㅇㅕㄴㅊㅓㄴ	-10605
▁ㅈㅗㅇㅌㅐㄱ	-10606
▁ㅌㅗㄹㅋㅣㄴ	-10607
irst	-10608
ㄹㅏㅁㅅㅡ	-10609
ㅅㅗㅇㄱㅣ	-10610
▁ㄱㅗㅇㄴㅕ	-10611
▁ㄹㅣㄴㄷㅡ	-10612
▁ㅁㅏㄹㅅㅗ	-10613
▁ㅂㅜㄴㅅㅙ	-10614
▁ㅋㅐㄴㅂㅓ	-10615
ㅇㅘㅇㄱㅜㄱ	-10616
▁ㄱㅕㄴㅅㅡㅂ	-10617
▁ㄷㅗㄱㄱㅏㅁ	-10618
▁ㅂㅕㄱㅁㅕㄴ	-10619
▁ㅊㅣㄴㅁㅗㄱ	-10620
▁ㅈㅏㅇㅌㅐㄱㅅㅏㅇ	-10621
▁PP	-10622
ㅂㅡㄹㄹㅔ	-10623
▁ㅁㅗㄱㄷㅗ	-10624
▁ㅅㅐㅇㅅㅏ	-10625
▁ㄸㅏㅇㅋㅗㅇ	-10626
▁ㅇㅕㄹㅁㅏㅇ	-10627
▁ㅈㅏㅇㄹㅕㅇ	-10628
▁ㅈㅜㅇㅊㅓㅂ	-10629
ㄷㅗㄱㄹㅣㅂㄷㅏㅇ	-10630
▁ㅎㅏㄴㄱㅜㄱㄷㅗㄱㄹㅣㅂㄷㅏㅇ	-10631
BL	-10632
▁SI	-10633
▁239	-10634
▁ㄸㅜㅇ	-10635
▁ㅁㅣㅁ	-10636
ㄱㅘㅇㅅㅓㄴ	-10637
▁ㅈㅣㄱㄱㅝㄴ	-10638
▁ㅍㅕㅇㄴㅕㄴ	-10639
ㅇㅣㄹㅅㅣㄴㅂㅗ	-10640
▁ㄱㅗㅇㅈㅣㄱㅈㅏ	-10641
▁ㅊㅗㅇㅎㅏㄱㅅㅐㅇㅎㅚ	-10642
EX	-10643
▁YM	-10644
ㄸㅡㄴ	-10645
▁FBI	-10646
ㅇㅕㄴㄷㅐ	-10647
ㅈㅏㄱㅅㅗ	-10648
▁ㅇㅝㄴㄱㅏ	-10649
▁ㅇㅣㄴㅌㅡ	-10650
▁ㅊㅓㅇㅎㅘ	-10651
▁ㅎㅓㄹㄹㅣ	-10652
▁ㅇㅕㄱㅎㅐㅇ	-10653
aff	-10654
aut	-10655
▁TN	-10656
▁ㅈㅟㄴ	-10657
▁ㅅㅐㅇㅈㅔ	-10658
▁ㅈㅏㅇㄱㅜ	-10659
▁ㅎㅘㅇㅂㅗ	-10660
ㅊㅓㄴㄴㅕㄴ	-10661
▁ㄱㅜㄹㅇㅛㄱ	-10662
▁ㄷㅓㅁㅂㅜㄹ	-10663
▁ㅈㅡㅇㅁㅕㅇㅅㅓ	-10664
HS	-10665
▁RD	-10666
ㅂㅗㄹㅌㅡ	-10667
▁ㄱㅓㄹㄹㅗ	-10668
▁ㄱㅜㄻㅈㅜ	-10669
▁ㅅㅑㄹㄹㅓ	-10670
▁ㅅㅣㄹㄹㅗ	-10671
▁ㅇㅕㄴㅈㅘ	-10672
▁ㅋㅗㄴㅌㅡ	-10673
▁ㄱㅕㅇㅅㅐㄱ	-10674
▁ㄱㅣㅁㅎㅏㄴ	-10675
▁ㅇㅝㄴㅅㅓㅇ	-10676
▁ㅎㅏㅁㅇㅏㄴ	-10677
▁ㅅㅏㅇㅅㅗㄱㅇㅣㄴ	-10678
ㄷㅗㄷ	-10679
ㅈㅐㄱ	-10680
ement	-10681
▁Rain	-10682
ㅇㅔㄴㄴㅏ	-10683
ㅊㅏㄹㄱㅣ	-10684
▁ㅂㅏㄹㅎㅘ	-10685
▁ㅂㅔㄴㅈㅓ	-10686
▁ㅋㅓㄴㄷㅣ	-10687
▁ㅍㅜㄹㅇㅓ	-10688
▁ㄱㅕㅇㅁㅕㄹ	-10689
▁ㅂㅏㅇㅎㅏㄴ	-10690
▁ㅊㅏㄱㅇㅏㄴ	-10691
▁ㄴㅗㄴㅅㅏㄴㅅㅣ	-10692
▁ㅅㅐㅁㅍㅡㄹㄹㅣㅇ	-10693
▁FN	-10694
▁215	-10695
▁510	-10696
▁Big	-10697
▁LIVE	-10698
▁Will	-10699
ㅅㅏㄹㄹㅏ	-10700
ㅎㅏㅇㅈㅔ	-10701
▁ㄱㅕㅇㅇㅣ	-10702
ㅇㅣㄴㅈㅓㄹ	-10703
▁ㄱㅏㅁㅌㅏㄴ	-10704
▁ㄷㅗㅇㅂㅜㄱㅉㅗㄱ	-10705
ㅎㅠㅇ	-10706
▁ㅅㅜㅅ	-10707
ㅅㅐㅇㅇㅏ	-10708
▁Hello	-10709
▁ㄱㅝㄴㅎㅏ	-10710
▁ㅇㅛㅇㅈㅏ	-10711
▁ㅇㅣㅈㅎㅕ	-10712
▁ㅊㅗㅇㅊㅔ	-10713
▁ㅋㅏㄹㄹㅗ	-10714
ㄴㅏㅁㄱㅜㄴ	-10715
▁ㄱㅓㄹㅁㅏㅈ	-10716
▁ㄱㅕㄹㅌㅏㄱ	-10717
▁ㅁㅣㅌㅁㅕㄴ	-10718
ㅈㅓㄴㅅㅣ	-10719
ㅍㅗㄴㄴㅔ	-10720
▁ㅇㅘㄹㄹㅏ	-10721
▁ㅈㅜㄴㅇㅟ	-10722
▁ㄴㅡㄹㄹㅕㅆ	-10723
▁ㅅㅏㄴㅌㅏㄴ	-10724
▁ㅇㅏㄴㅊㅓㄹㅅㅜ	-10725
▁ㅇㅓㄴㅈㅔㄴㄱㅏ	-10726
▁ㄱㅣㅁㅈㅗㅇㅍㅣㄹ	-10727
▁ㄲㅗㅊㅂㅏㄷㅊㅣㅁ	-10728
vis	-10729
▁do	-10730
ㅈㅣㄴㄱㅣ	-10731
▁ㅊㅗㄹㄹㅏ	-10732
▁ㅋㅏㄴㅌㅏ	-10733
▁ㅎㅜㅁㅊㅕ	-10734
▁ㅁㅕㅇㅈㅓㄹ	-10735
▁ㅂㅏㅂㅅㅏㅇ	-10736
▁ㅈㅓㅇㅊㅓㄹ	-10737
ㅈㅡㄹㄹㅐㄴㄷㅡ	-10738
▁ㅁㅣㄴㅅㅗㄱㅁㅜㄴㅎㅘ	-10739
br	-10740
its	-10741
ㅆㅓㄴ	-10742
▁ㅋㅔㅁ	-10743
ㅈㅣㄴㅎㅗ	-10744
▁ㅅㅏㅇㅅㅣ	-10745
▁ㅅㅏㅇㅍㅣ	-10746
ㅂㅗㅇㅅㅏㄴ	-10747
▁ㅇㅏㅂㅅㅗㅇ	-10748
▁ㅈㅗㄴㅇㅓㅁ	-10749
▁ㄷㅗㅇㅁㅕㅇㅇㅣ	-10750
▁ㅋㅟㄴㅈㅡㄹㄹㅐㄴㄷㅡ	-10751
▁ㄱㅜㄱㅊㅐ	-10752
▁ㅅㅗㄱㅆㅣ	-10753
▁ㅎㅏㅇㅁㅗ	-10754
ㅁㅣㅇㅇㅓㅁ	-10755
▁ㄱㅗㄹㅁㅗㄱ	-10756
▁ㅅㅣㄴㅁㅕㅇ	-10757
▁ㅇㅞㄹㄹㅣㅇ	-10758
▁ㅊㅣㄴㅈㅓㄹ	-10759
ㅎㅐㄱㅅㅐㅇㅁㅜㄹ	-10760
▁Des	-10761
▁ㄱㅝㄴㅅㅔ	-10762
▁ㄱㅡㅁㅎㅘ	-10763
▁ㅅㅓㄴㄷㅓ	-10764
▁ㅅㅣㄴㅈㅐ	-10765
ㄱㅕㅇㄱㅜㅇ	-10766
ㄴㅏㅁㅉㅗㄱ	-10767
ㅅㅠㄹㄹㅣㄴ	-10768
▁ㄷㅏㅁㄹㅗㄴ	-10769
▁ㅇㅣㅂㅈㅓㄱ	-10770
▁ㅈㅓㅇㅇㅑㄱ	-10771
▁ㅋㅡㄹㄹㅗㄴ	-10772
▁ㅇㅣㄹㄱㅏㄴㅈㅣ	-10773
HT	-10774
ㄱㅜㅂ	-10775
▁BMW	-10776
▁ㅋㅡㅁ	-10777
▁1776	-10778
▁Road	-10779
▁ㅁㅜㄴㅈㅣ	-10780
▁ㅍㅣㄴㄷㅏ	-10781
ㅈㅡㅇㄱㅝㄴ	-10782
▁ㄱㅕㄴㅎㅝㄴ	-10783
▁ㅂㅕㄴㅈㅏㅇ	-10784
▁ㅇㅏㄱㅇㅕㄱ	-10785
▁ㅇㅔㄹㅅㅏㄹㅂㅏ	-10786
▁ㄷㅗㄱㄹㅣㅂㄱㅜㄱ	-10787
▁ㅌㅗㅇㅎㅏㅂㅈㅣㄴㅂㅗ	-10788
oss	-10789
▁NK	-10790
▁es	-10791
ㅇㅜㄴㅌㅏ	-10792
▁ㄱㅏㄴㅅㅗ	-10793
▁ㅂㅏㄹㅈㅜ	-10794
ㅇㅝㄴㅂㅕㅇ	-10795
▁ㄸㅏㄹㄹㅣㄴ	-10796
▁ㅂㅜㄴㅈㅏㅇ	-10797
▁ㅅㅣㄹㅅㅡㅂ	-10798
▁ㅇㅡㅁㄹㅏㄴ	-10799
▁ㅂㅏㄴㄱㅗㅇㅈㅜ	-10800
WS	-10801
ㄴㅏㄴㅎㅐ	-10802
▁ㅍㅡㄹㄹㅚ	-10803
ㅇㅓㄹㅂㅣㄴ	-10804
ㅇㅝㄴㄷㅗㅇ	-10805
▁ㅅㅓㅇㄷㅗㅇㄱㅜ	-10806
▁ㅎㅐㄱㅇㅕㄴㄹㅛ	-10807
be	-10808
▁OC	-10809
▁ㅍㅚ	-10810
ㄷㅓㅇ	-10811
ㅎㅓㄹ	-10812
▁LTE	-10813
▁Pop	-10814
ㄷㅡㄴㅈㅣ	-10815
▁ㅁㅜㄴㄱㅛ	-10816
▁ㅂㅏㅇㅅㅜ	-10817
▁ㅇㅣㅍㅈㅏ	-10818
▁ㅈㅗㄴㅎㅗ	-10819
▁ㄱㅡㅁㄱㅘㅇ	-10820
▁ㅂㅏㄴㅇㅣㄹ	-10821
▁ㅂㅜㄹㅍㅕㅇ	-10822
▁ㅅㅣㅁㅅㅣㄴ	-10823
▁ㅈㅓㅇㄴㅕㄴ	-10824
▁ㅌㅏㄴㅎㅘㄴ	-10825
ㄷㅡㄹㅇㅣㄴㄷㅏ	-10826
▁ㅎㅐㅇㅈㅓㅇㄱㅘㄴ	-10827
▁ㅎㅘㅇㄱㅏㄹㅅㅐㄱ	-10828
▁MX	-10829
ㅁㅏㄱㅇㅕㅁ	-10830
ㅅㅏㅇㅎㅜㄴ	-10831
ㅎㅘㄹㅅㅓㅇ	-10832
ech	-10833
▁WH	-10834
▁ㅂㅜㄱㅈㅔ	-10835
▁ㅈㅏㅇㅂㅗ	-10836
ㅂㅏㅇㅅㅣㄱ	-10837
▁ㅎㅗㅇㅂㅐㄱ	-10838
▁ㅁㅗㄱㄱㅓㄹㅇㅣ	-10839
▁ㅈㅜㅇㅅㅐㅇㄷㅐ	-10840
ouse	-10841
▁LOVE	-10842
▁ㄸㅢㄴㄷㅏ	-10843
▁ㅂㅏㅇㄱㅘ	-10844
▁ㅈㅓㅇㅍㅏ	-10845
▁ㅌㅏㄴㅎㅘ	-10846
ㄱㅗㄱㅅㅓㄴ	-10847
ㅅㅣㄱㅅㅓㅇ	-10848
ㅈㅓㅇㄱㅝㄴ	-10849
▁ㅂㅏㄹㅅㅗㅇ	-10850
▁ㅅㅐㄱㅇㅣㄴ	-10851
▁ㅎㅏㄴㅂㅏㅇ	-10852
▁ㄷㅡㅇㄹㅗㄱㄱㅡㅁ	-10853
▁EF	-10854
▁Net	-10855
▁del	-10856
▁ㄲㅗㅁ	-10857
▁1792	-10858
▁ㄱㅡㅂㄱㅣ	-10859
▁ㅎㅏㅂㅊㅔ	-10860
ㅈㅜㄴㅇㅛㅇ	-10861
▁ㄱㅏㄱㅂㅕㄹ	-10862
▁ㄷㅗㅇㅂㅗㄱ	-10863
▁ㅇㅑㅇㄹㅕㄱ	-10864
▁ㅇㅕㅇㅇㅕㄴ	-10865
▁ㅇㅜㅇㅈㅏㅇ	-10866
ㄷㅓㄹㄹㅐㄴㄷㅡ	-10867
▁ㄷㅗㅇㅂㅜㄱㅇㅏ	-10868
▁ㅇㅡㄴㅎㅐㅇㄴㅏ	-10869
ㅉㅐㅆ	-10870
▁ㅂㅏㄴㄱㅏ	-10871
▁ㅅㅏㄹㅂㅏ	-10872
▁ㅍㅏㄹㄹㅕ	-10873
▁ㅎㅏㄴㅁㅏ	-10874
▁ㄴㅏㄴㄱㅏㄴ	-10875
▁ㅋㅗㄴㅇㅝㄹ	-10876
▁ㅎㅑㅇㅎㅏㄴㄷㅏ	-10877
▁ㅎㅕㄴㄱㅡㅂㅅㅣ	-10878
▁ㅊㅜㄹㅇㅕㄴㅈㅣㄴ	-10879
ㄷㅔㄱ	-10880
▁Red	-10881
▁1791	-10882
▁ㄱㅘㄴㅅㅏ	-10883
▁ㄷㅏㅇㄱㅣ	-10884
▁ㅇㅗㄹㅃㅐ	-10885
▁ㅉㅣㄹㄹㅓ	-10886
▁ㄱㅡㄴㅇㅕㄴ	-10887
▁ㅈㅓㄹㅁㅕㄹ	-10888
▁ㅎㅕㄴㅅㅐㅇ	-10889
▁fun	-10890
ㅇㅡㅁㄷㅐ	-10891
▁ㅅㅣㄹㅂㅏ	-10892
▁ㅇㅏㄴㄱㅜ	-10893
▁ㅇㅓㄹㄹㅣ	-10894
▁ㅇㅡㄴㅅㅏ	-10895
▁ㅋㅗㄴㄷㅗ	-10896
▁ㅌㅏㄹㄹㅏ	-10897
▁ㅍㅜㅁㄱㅖ	-10898
▁ㅅㅣㄴㅅㅜㄱ	-10899
▁ㅇㅡㄴㄷㅜㄴ	-10900
▁ㅈㅓㄴㄱㅏㄹ	-10901
▁ㅎㅕㄴㅁㅕㅇ	-10902
▁ㄱㅏㄴㅎㅐㅇㅁㅜㄹ	-10903
▁1852	-10904
▁Show	-10905
ㄷㅏㅁㅎㅚ	-10906
ㅍㅗㄹㅌㅡ	-10907
▁ㄱㅏㅈㄱㅏ	-10908
▁ㅁㅏㅅㅂㅗ	-10909
▁ㅁㅣㄹㅇㅝ	-10910
▁ㅂㅓㄴㅅㅡ	-10911
▁ㅅㅣㄹㄷㅡ	-10912
ㄷㅗㅇㅁㅐㄱ	-10913
ㅇㅛㅇㅅㅓㅇ	-10914
ㅈㅓㅇㅅㅜㄱ	-10915
ㅍㅏㄴㅈㅏㅇ	-10916
ㅍㅏㄹㄹㅔㄴ	-10917
▁ㅂㅏㄴㅇㅕㄹ	-10918
▁ㅅㅡㄹㅍㅡㄴ	-10919
▁ㅇㅠㄴㅅㅓㄱ	-10920
▁JS	-10921
▁DFB	-10922
▁ㄸㅗㅇ	-10923
▁ㄱㅓㄹㅈㅡ	-10924
▁ㅁㅏㄴㄷㅜ	-10925
▁ㅅㅣㄹㅎㅘ	-10926
▁ㅈㅗㄱㅈㅔ	-10927
▁ㅈㅣㄱㅈㅔ	-10928
▁ㅈㅣㄴㅎㅏ	-10929
▁ㄱㅜㄱㅁㅜㄹ	-10930
▁212	-10931
▁ㄷㅓㅂ	-10932
▁Over	-10933
▁ㄴㅏㅊㅅㅓㄴ	-10934
▁ㅇㅑㄱㄱㅜㄱ	-10935
▁ㅇㅣㅁㅇㅓㅂ	-10936
▁ㅎㅏㅂㅂㅏㅇ	-10937
▁mg	-10938
▁ㅈㅡㅂ	-10939
ㅌㅗㄴㅅㅡ	-10940
▁ㄱㅏㄴㅍㅏ	-10941
▁ㄱㅏㄹㄹㅜ	-10942
▁ㄱㅘㄴㅅㅓ	-10943
▁ㅁㅏㄴㄷㅏ	-10944
▁ㅇㅏㄴㅎㅜ	-10945
▁ㅇㅕㅇㅇㅏ	-10946
▁ㅎㅗㄹㄷㅡ	-10947
ㅊㅏㄹㅇㅡㅁ	-10948
▁ㅂㅗㅇㅅㅏㄴ	-10949
▁ㅅㅔㄹㄹㅜㄹ	-10950
▁ㅊㅏㅇㅇㅏㄴ	-10951
ㅅㅓㅂㄷㅏㄴㅊㅔ	-10952
ㅁㅣㄴㅈㅓㅇㅇㅡㅁ	-10953
▁ㄲㅘ	-10954
ㅇㅏㄶ	-10955
▁228	-10956
▁Eng	-10957
▁1847	-10958
ㄷㅡㄴㄱㅏ	-10959
▁ㅅㅏㅁㅂㅜ	-10960
▁ㅅㅣㄱㄹㅛ	-10961
ㅂㅜㄱㄷㅏㄴ	-10962
ㅍㅔㄴㅅㅕㄴ	-10963
▁ㅅㅜㄱㅅㅓㅇ	-10964
▁ㄷㅗㅇㅅㅣㄱㅁㅜㄹ	-10965
▁TA	-10966
▁ㄸㅜㄱ	-10967
▁ㅃㅐㄱ	-10968
▁1853	-10969
ㅂㅐㄱㅈㅔ	-10970
ㅈㅓㄱㅎㅘ	-10971
▁ㄷㅡㄹㅇㅡ	-10972
▁ㅂㅗㄹㄹㅏ	-10973
▁ㅅㅏㄴㄷㅡ	-10974
▁ㅇㅑㅇㅂㅜ	-10975
▁ㅈㅏㅇㅌㅓ	-10976
▁ㅋㅗㄱㅅㅡ	-10977
▁ㄱㅗㄴㅅㅏㄹㄹㅔ	-10978
IDS	-10979
▁UK	-10980
▁231	-10981
▁Bar	-10982
ㅈㅓㄴㅎㅏ	-10983
▁ㅂㅏㄱㅈㅜㅇ	-10984
▁ㅅㅓㄴㅅㅡㅇ	-10985
▁ㅇㅕㄴㅈㅏㄱ	-10986
▁ㅁㅗㄱㄱㅕㄱㅈㅏ	-10987
▁ㅂㅕㄴㅅㅗㄱㄱㅣ	-10988
▁ㅈㅣㅂㅎㅏㅂㄹㅗㄴ	-10989
07	-10990
▁221	-10991
ㄷㅏㄹㄹㅔ	-10992
ㅌㅐㄱㅈㅣ	-10993
▁Light	-10994
▁ㅅㅓㅇㅊㅐ	-10995
▁ㅇㅏㄴㅅㅔ	-10996
▁ㅍㅕㄴㅎㅏ	-10997
ㅅㅜㄴㄱㅜㄴ	-10998
▁ㄱㅘㅇㄱㅕㅇ	-10999
▁ㄲㅏㅁㅉㅏㄱ	-11000
▁ㅇㅣㅅㄷㅏㄹ	-11001
▁ㅎㅜㄴㅁㅣㄴㅈㅓㅇㅇㅡㅁ	-11002
aj	-11003
▁ro	-11004
ㄹㅐㄴㅅㅓ	-11005
▁ㄷㅔㄴㅂㅓ	-11006
▁ㅂㅜㄴㄱㅐ	-11007
▁ㅇㅝㄴㅎㅘ	-11008
▁ㅇㅣㄱㅈㅜ	-11009
ㅈㅓㄴㄱㅜㄴ	-11010
▁ㄱㅡㅂㅅㅡㅂ	-11011
▁ㅅㅏㅇㄱㅝㄴ	-11012
▁ㅅㅣㄹㅎㅘㅇ	-11013
▁ㅁㅕㅇㄹㅠㄴㄷㅏㅇ	-11014
▁ㅇㅗㅇㅈㅣㄴㄱㅜㄴ	-11015
99	-11016
echn	-11017
▁Har	-11018
▁ㅇㅕㅌ	-11019
ㄱㅏㅁㅈㅏ	-11020
ㅇㅗㅇㅈㅜ	-11021
ㄴㅏㅁㄷㅏㄴ	-11022
▁ㅇㅐㅇㄱㅡㄹㄹㅗ	-11023
▁ㅈㅓㅇㅊㅏㄹㄱㅣ	-11024
▁SQL	-11025
▁1100	-11026
ㄹㅏㅇㅈㅜ	-11027
▁Sound	-11028
▁ㄱㅏㅇㅇㅏ	-11029
▁ㄱㅜㄷㅇㅓ	-11030
▁ㅂㅜㄱㄹㅗ	-11031
▁ㅋㅏㄹㅊㅗ	-11032
ㄴㅔㄴㅌㅓㄹ	-11033
ㅂㅐㄱㅅㅏㄴ	-11034
ㅎㅘㄹㅈㅓㄹ	-11035
▁ㄴㅡㅇㅌㅗㅇ	-11036
▁ㅁㅕㅇㅍㅜㅁ	-11037
▁ㅂㅜㄱㄷㅏㄴ	-11038
▁ㅈㅏㅇㅇㅕㅇ	-11039
▁ㅊㅗㄴㄹㅏㄱ	-11040
▁ㅊㅗㅇㅇㅏㄹ	-11041
08	-11042
▁FR	-11043
ㅈㅡㅂ	-11044
ason	-11045
ㅂㅗㄹㄹㅜ	-11046
▁ㅁㅣㄹㄹㅗ	-11047
▁ㅇㅝㄴㄱㅣ	-11048
▁ㅈㅏㅇㅌㅏ	-11049
▁ㄱㅝㄴㄹㅕㄱㅈㅏ	-11050
▁ㅇㅣㄴㅅㅠㄹㄹㅣㄴ	-11051
red	-11052
▁ac	-11053
ㅌㅔㄴㅅㅠ	-11054
▁ㄲㅡㄶㅇㅓ	-11055
▁ㅅㅓㅇㅎㅗ	-11056
▁ㅌㅔㅁㅍㅗ	-11057
▁ㄱㅘㄴㅇㅏㄱㄱㅜ	-11058
▁CV	-11059
▁1844	-11060
▁ㅇㅕㄴㅅㅏ	-11061
ㅁㅗㄱㅁㅣㄴ	-11062
ㅅㅣㄹㄹㅗㄴ	-11063
▁ㄱㅏㅂㅅㅏㅇ	-11064
▁ㅁㅏㄴㄱㅕㅇ	-11065
▁ㅁㅣㄹㅌㅓㄴ	-11066
▁ㅅㅏㄹㅅㅏㅇ	-11067
▁ㅅㅡㄹㄹㅗㅅ	-11068
▁ㅅㅣㄱㄴㅕㄴ	-11069
▁ㅍㅣㄱㅇㅓㅂ	-11070
▁ㅎㅕㄹㅊㅓㅇ	-11071
▁ㅁㅗㄱㅍㅏㄴㅂㅗㄴ	-11072
iet	-11073
way	-11074
▁ㅃㅐㅅ	-11075
▁ㄱㅣㅁㅎㅗ	-11076
▁ㅎㅕㄴㄴㅐ	-11077
ㄲㅓㅂㅈㅣㄹ	-11078
ㅌㅗㅇㄹㅑㅇ	-11079
▁ㄴㅏㅇㄷㅗㄱ	-11080
▁ㅂㅏㄱㄱㅕㄱㅍㅗ	-11081
▁Sec	-11082
ㄹㅣㄹㄹㅣ	-11083
ㅂㅗㄴㄷㅏ	-11084
▁ㄱㅠㄴㄹㅠ	-11085
▁ㄲㅡㄶㅇㅣ	-11086
▁ㅂㅏㄴㄷㅣ	-11087
▁ㅇㅐㄱㅅㅜ	-11088
▁ㅌㅡㅁㅅㅐ	-11089
▁ㅎㅏㄴㄷㅗ	-11090
ㅈㅗㄹㅈㅜㅇ	-11091
▁ㄱㅜㄱㅁㅕㅇ	-11092
▁ㅍㅏㄴㅂㅕㄹ	-11093
▁ㅇㅡㅁㅇㅏㄱㅎㅚ	-11094
▁ㅍㅡㄹㄹㅐㄴㅌㅡ	-11095
ㄱㅡㅇ	-11096
▁757	-11097
▁ㅌㅣㅂ	-11098
ㅇㅔㄴㅌㅡ	-11099
▁ㅂㅣㄹㅁㅣ	-11100
▁ㅇㅏㅇㅋㅏ	-11101
▁ㅇㅠㄴㅎㅚ	-11102
ㅁㅏㅇㅇㅣㄴ	-11103
▁ㅂㅏㄴㅁㅣㄴ	-11104
▁ㅅㅣㄴㅇㅕㅇ	-11105
▁ㅈㅓㅇㄹㅑㅇ	-11106
▁ㅎㅏㄱㅈㅓㅁ	-11107
▁ㄱㅏㅂㄱㅏㄱㄹㅠ	-11108
▁el	-11109
ㅌㅡㅁ	-11110
ator	-11111
ㅇㅣㄴㅎㅚ	-11112
▁ㅂㅓㅇㅋㅓ	-11113
▁ㅅㅏㅇㄷㅗ	-11114
▁ㅇㅏㄹㅋㅏ	-11115
ㅇㅣㅁㅅㅣㄱ	-11116
ㅈㅏㅇㅅㅣㄱ	-11117
▁ㅂㅜㄱㅁㅕㄴ	-11118
▁ㅆㅜㄴㅇㅝㄴ	-11119
▁ㅇㅏㄹㄹㅗㄴ	-11120
▁ㅇㅓㅁㅈㅓㅇ	-11121
▁ㅇㅕㄴㅇㅣㄹ	-11122
▁ㅇㅣㅂㅇㅏㄴ	-11123
▁ㅈㅓㅂㅊㅏㄱ	-11124
▁ㅌㅏㄴㅇㅝㄴ	-11125
▁ㅎㅜㄴㅈㅗㄱ	-11126
▁ㅎㅡㅂㅎㅕㄹ	-11127
▁ㅈㅓㄴㄴㅕㄴㄷㅗ	-11128
▁ㅈㅜㅇㅎㅏㄱㅅㅐㅇ	-11129
▁ㅍㅕㅇㅊㅏㅇㄱㅜㄴ	-11130
▁RO	-11131
ㅈㅓㅇㅈㅜ	-11132
▁ㅂㅜㄱㅂㅔ	-11133
▁ㅊㅓㄱㅅㅜ	-11134
▁ㅎㅗㅇㄷㅐ	-11135
ㅇㅘㄴㅅㅓㅇ	-11136
▁ㄱㅏㄴㅍㅕㄴ	-11137
▁ㄴㅏㄱㄴㅗㅇ	-11138
▁ㄷㅏㄹㄹㅕㅆ	-11139
▁ㅍㅏㄹㄱㅏㄱ	-11140
▁ㅂㅏㄹㅁㅕㅇㄱㅏ	-11141
▁ㅂㅗㄱㅈㅏㅂㄷㅗ	-11142
▁ㅈㅡㅇㅅㅗㄴㅈㅏ	-11143
▁Pa	-11144
▁ㅊㅜㅁㅊㅜ	-11145
▁ㅎㅣㄹㄹㅓ	-11146
ㅈㅣㄴㅇㅕㅇ	-11147
▁ㄱㅜㄱㅁㅕㄴ	-11148
▁ㅁㅏㅇㅅㅏㅇ	-11149
▁ㅂㅏㅇㅈㅓㄴ	-11150
▁ㅊㅓㄴㅁㅕㅇ	-11151
▁ㅎㅏㄴㅇㅗㄱ	-11152
▁ㅇㅕㄴㅊㅓㄴㄱㅜㄴ	-11153
ner	-11154
▁RE	-11155
ㅋㅐㅅ	-11156
▁Sum	-11157
ㅅㅈㅣㅂ	-11158
ㅌㅗㅇㅈㅔ	-11159
▁ㅁㅔㅁㅍㅣ	-11160
▁ㅂㅐㅁㅍㅏ	-11161
▁ㅅㅐㄱㅈㅗ	-11162
▁ㅇㅕㅇㅅㅔ	-11163
▁ㅈㅓㄴㅊㅓ	-11164
▁ㅈㅣㄴㄱㅘ	-11165
▁ㅎㅏㅇㅈㅓ	-11166
ㄷㅏㅇㄷㅗㅇ	-11167
ㄹㅡㅁㅊㅓㄹ	-11168
ㅁㅜㄴㅈㅓㅁ	-11169
ㅅㅐㄱㅅㅡㄴ	-11170
▁ㅅㅓㅇㄴㅕㄴ	-11171
▁ㅈㅜㄹㅇㅕㅆ	-11172
▁ㅎㅏㅂㅈㅓㄴ	-11173
ㅈㅜㅇㄱㅜㄱㅎㅐ	-11174
▁ㅋㅗㄴㅅㅔㅂㅌㅡ	-11175
▁UR	-11176
port	-11177
vent	-11178
▁226	-11179
▁min	-11180
▁Like	-11181
ㅈㅔㄴㅎㅏ	-11182
▁ㅅㅗㅇㄱㅡㅁ	-11183
▁ㅅㅣㄴㅎㅕㄴ	-11184
ㄱㅝㄹㅅㅓㄴㄱㅓ	-11185
ric	-11186
ital	-11187
▁217	-11188
▁LCK	-11189
▁ㅅㅣㄴㅇㅖ	-11190
▁ㅇㅣㄱㅅㅏ	-11191
▁ㅊㅣㄴㅎㅏ	-11192
ㄱㅕㄴㅇㅣㄴ	-11193
ㅈㅗㄱㅇㅝㄴ	-11194
▁ㄱㅓㄴㅇㅏㄴ	-11195
▁ㅅㅓㄹㅂㅓㅂ	-11196
▁ㅈㅡㄹㄱㅓㅂ	-11197
▁ㅎㅏㄴㅊㅏㅁ	-11198
04	-11199
ㅉㅏㅇ	-11200
▁RPG	-11201
▁1837	-11202
ㅂㅏㄹㄱㅗ	-11203
▁ㄹㅗㄹㅅㅡ	-11204
▁ㅆㅓㄴㄷㅓ	-11205
▁ㅇㅕㅅㅂㅗ	-11206
▁ㅊㅏㄱㅇㅗ	-11207
▁ㅊㅜㄹㅅㅗ	-11208
▁ㅍㅏㄹㄹㅗ	-11209
ㅅㅡㅇㄹㅏㅁ	-11210
ㅈㅓㅇㅅㅣㄴ	-11211
▁ㅅㅜㄴㅊㅏㅇ	-11212
▁ㅁㅣㄹㅇㅑㅇㅅㅣ	-11213
IE	-11214
ven	-11215
▁Af	-11216
▁EV	-11217
▁OF	-11218
ㄷㅏㄹㄹㅏ	-11219
▁ㅇㅛㄱㄱㅖ	-11220
▁ㅎㅑㅇㄹㅣ	-11221
ㅎㅐㅇㄷㅏㄴ	-11222
▁ㅁㅏㅇㅁㅏㄱ	-11223
▁ㅇㅠㄴㅂㅗㅇ	-11224
▁ㅈㅓㄱㅅㅓㅇ	-11225
▁ㅊㅐㄱㅍㅏㄴ	-11226
▁ㅈㅓㅁㅅㅓㅇㄱㅏ	-11227
yl	-11228
ana	-11229
▁007	-11230
▁ㅈㅔㅁ	-11231
▁1794	-11232
ㅇㅑㅇㄷㅐ	-11233
▁ㄷㅏㄴㅎㅗ	-11234
▁ㅂㅏㄱㅈㅔ	-11235
ㅇㅑㅇㅅㅓㅇ	-11236
▁ㅁㅗㄹㅇㅣㅂ	-11237
▁ㅇㅐㄱㅈㅓㅇ	-11238
▁ㅇㅜㄹㄹㅡㅇㄷㅗ	-11239
▁ㅌㅡㄱㄱㅗㅇㄷㅐ	-11240
ㄱㅜㄱㅁㅣㄴㄷㅏㅇ	-11241
▁315	-11242
▁ㅈㅡㄴ	-11243
ㄴㅕㅆㅇㅡ	-11244
ㅈㅔㄴㄷㅓ	-11245
▁ㅁㅜㄴㅂㅜ	-11246
▁ㅇㅓㅂㅅㅗ	-11247
▁ㅈㅓㄹㅌㅓ	-11248
▁ㄱㅏㅇㅁㅜㄹ	-11249
▁ㅅㅏㅇㅅㅓㄱ	-11250
▁ㅅㅐㅇㅇㅝㄴ	-11251
ㅑㅁ	-11252
▁IB	-11253
orce	-11254
▁wid	-11255
ution	-11256
ㅊㅓㄱㅊㅜ	-11257
▁ㄱㅗㅇㅎㅚ	-11258
▁ㄴㅏㄴㅅㅏ	-11259
▁ㅇㅏㄹㅌㅏ	-11260
▁ㅊㅏㄴㄱㅏ	-11261
ㅅㅜㄹㅇㅝㄴ	-11262
▁ㅅㅗㅇㅂㅕㅇ	-11263
▁ㅅㅣㄴㄱㅏㄴ	-11264
▁ㅈㅣㅂㅎㅕㄴ	-11265
ㅅㅖㄴ	-11266
▁520	-11267
▁ㅈㅜㅇㅈㅜ	-11268
▁ㅎㅏㄴㄹㅠ	-11269
▁ㅇㅝㄴㅍㅏㄴ	-11270
▁ㅊㅓㄱㅌㅏㄴ	-11271
ㄹㅔㅇ	-11272
▁ㅋㅟㄹ	-11273
▁CCTV	-11274
▁Mnet	-11275
▁ㅅㅜㄱㅇㅢ	-11276
▁ㅍㅕㄴㅁㅗ	-11277
ㅅㅐㅇㅁㅕㅇ	-11278
▁ㄱㅜㄴㅎㅕㄴ	-11279
▁ㄱㅣㅁㅇㅡㅇ	-11280
▁ㅂㅏㄴㅈㅡㅇ	-11281
▁ㅅㅗㅇㅈㅓㅇ	-11282
▁ㅎㅏㅁㅍㅕㅇ	-11283
ism	-11284
▁Stud	-11285
ㅍㅔㄴㅅㅡ	-11286
▁ㅃㅗㅂㅇㅏ	-11287
▁ㅅㅡㄹㄹㅔ	-11288
▁ㅇㅑㅇㅈㅐ	-11289
ㅌㅏㄴㅌㅣㄴ	-11290
▁ㄱㅏㅂㅍㅏㄴ	-11291
▁ㄱㅘㄴㄱㅗㅇ	-11292
▁ㄱㅘㅇㅈㅗㅇ	-11293
▁ㄱㅣㅁㅁㅏㄴ	-11294
▁ㅁㅏㄴㅊㅏㄴ	-11295
▁ㅊㅓㅇㅌㅏㄱ	-11296
▁ㅊㅣㄴㅅㅜㄱ	-11297
▁ㅊㅣㄴㅎㅕㅇ	-11298
▁ㅎㅗㄱㄷㅗㄱ	-11299
▁ㅇㅝㄴㅎㅏㄴㄷㅏ	-11300
▁ㅇㅣㅁㅍㅐㄱㅌㅡ	-11301
▁ㅎㅘㄴㄱㅕㅇㅂㅜ	-11302
▁ㄱㅜㄴㄷㅏㄴㅈㅏㅇ	-11303
09	-11304
▁OVA	-11305
▁Sci	-11306
▁ㅇㅜㅂ	-11307
ㄹㅐㄱㅌㅣ	-11308
ㄹㅕㅇㅅㅣ	-11309
▁ㄹㅏㅁㅂㅗ	-11310
▁ㅂㅏㄴㄱㅜ	-11311
▁ㅅㅓㅂㅆㅣ	-11312
▁ㅎㅓㄴㅈㅔ	-11313
ㄹㅣㄴㅅㅓㅇ	-11314
▁ㅁㅔㄴㄷㅔㄹ	-11315
▁ㅂㅏㅇㄹㅏㅇ	-11316
▁ㅂㅜㄹㅎㅘㅇ	-11317
▁ㅅㅡㅇㅌㅏㅂ	-11318
▁ㅇㅡㅁㅅㅐㄱ	-11319
▁ㅇㅣㄹㅈㅣㄱ	-11320
▁ㅊㅓㅇㄹㅕㅁ	-11321
▁ㄷㅗㅇㅇㅣㄴㄷㅗ	-11322
ㅈㅗㅇㅅㅣㄹㄹㅗㄱ	-11323
▁ㅈㅓㅇㅊㅏㄱㅁㅣㄴ	-11324
▁ㅇㅣㄹㅂㅗㄴㄱㅜㄱㅇㅠ	-11325
▁ㅅㅔㄱ	-11326
▁ㅋㅓㄴㅅㅗ	-11327
ㅈㅔㄹㄹㅏㄴ	-11328
▁ㄷㅏㄴㅍㅏㄴ	-11329
▁ㄷㅗㅇㅈㅗㄱ	-11330
▁ㅇㅝㄹㄱㅡㅂ	-11331
▁ㅈㅓㅁㅅㅣㅁ	-11332
▁ㅈㅣㅇㅂㅕㅇㅈㅔ	-11333
MP	-11334
uk	-11335
▁720	-11336
ㄷㅗㅇㅅㅗ	-11337
ㄹㅏㄴㄷㅗ	-11338
ㄹㅏㄴㅅㅡ	-11339
▁ㅁㅜㄴㅁㅛ	-11340
▁ㅇㅏㅇㅈㅜ	-11341
▁ㅅㅑㄹㄹㅓㅅ	-11342
▁ㅇㅏㅁㅂㅕㄱ	-11343
▁ㅈㅓㄴㄱㅘㅇ	-11344
▁ㅈㅓㅇㅅㅜㄴ	-11345
▁ㅇㅜㅁㅈㅣㄱㅇㅣㄴㄷㅏ	-11346
▁ㄱㅕㅇㅎㅑㅇㅅㅣㄴㅁㅜㄴ	-11347
▁OP	-11348
▁XX	-11349
▁ㅃㅡ	-11350
ㅊㅡㄹ	-11351
▁ㅇㅡㄿ	-11352
▁1836	-11353
ㅍㅣㄹㄱㅏ	-11354
▁ㅅㅓㄴㅁㅜ	-11355
▁ㅇㅕㅁㄹㅛ	-11356
▁ㅈㅜㅇㅅㅏ	-11357
▁ㅋㅜㄹㄹㅣ	-11358
ㄹㅜㅇㅈㅏㅇ	-11359
ㅌㅣㅇㄱㅔㄴ	-11360
▁ㄴㅏㄱㅎㅑㅇ	-11361
▁ㅅㅓㅇㅊㅜㅇ	-11362
▁ㅂㅓㄹㅇㅕㅆㅇㅡ	-11363
▁ㅎㅕㄴㅇㅏㄱㄱㅣ	-11364
bum	-11365
▁ROM	-11366
ㄱㅏㄱㅎㅘ	-11367
ㄱㅏㅇㄷㅐ	-11368
ㄱㅜㄱㄱㅏ	-11369
ㄱㅡㅂㅅㅜ	-11370
▁ㅅㅔㄹㅍㅡ	-11371
▁ㅇㅛㅇㅁㅐ	-11372
▁ㅁㅏㄴㄴㅡㅇ	-11373
▁ㅅㅓㄴㄷㅓㄱ	-11374
▁ㅅㅣㅁㅊㅡㅇ	-11375
▁ㅊㅗㄱㅎㅏㄴ	-11376
▁ㅍㅣㄹㅅㅏㄹ	-11377
▁ㅇㅝㄴㅌㅗㅇㅎㅕㅇ	-11378
▁ㅇㅟㄴㄴㅏㄴㅅㅓㅇ	-11379
ㄸㅔ	-11380
▁610	-11381
▁ㅋㅏㄱ	-11382
ㅇㅕㅇㅎㅘ	-11383
▁ㄹㅓㄱㅋㅣ	-11384
▁ㅂㅏㄱㅅㅔ	-11385
▁ㅅㅓㅇㄴㅕ	-11386
▁ㅊㅓㄹㅈㅔ	-11387
▁ㄱㅣㄹㅁㅗㄱ	-11388
▁ㅅㅏㄴㄱㅏㄴ	-11389
▁ㅇㅜㄹㅇㅡㅁ	-11390
▁ㅎㅏㄴㅅㅏㄴ	-11391
▁ㅁㅕㅇㅌㅏㅁㅈㅓㅇ	-11392
YS	-11393
oney	-11394
▁ㄲㅗㅇ	-11395
▁ㅈㅔㅅ	-11396
▁ㄷㅗㄱㄹㅕ	-11397
▁ㅈㅓㅁㅎㅏ	-11398
▁ㅍㅕㄴㅅㅜ	-11399
▁ㅈㅓㅂㄱㅕㅇ	-11400
▁ㅁㅏㄴㄷㅡㄴㄷㅏ	-11401
▁ㅇㅣㅇㄱㅡㄹㄹㅣ	-11402
ony	-11403
ㅉㅓㄱ	-11404
▁Sing	-11405
▁ㅊㅗㅇㅈㅣ	-11406
▁ㅋㅔㄹㄹㅓ	-11407
ㅈㅜㅇㅅㅓㅇ	-11408
▁ㄱㅗㅇㅅㅐㅇ	-11409
▁ㄴㅏㄱㅇㅣㄴ	-11410
▁ㅅㅓㅁㅁㅕㄹ	-11411
▁ㅅㅓㅇㅂㅓㅁㅈㅚ	-11412
▁ㄱㅏㄱㅇㅜㄴㄷㅗㅇ	-11413
▁ㅇㅕㄴㅈㅏㅇㅅㅓㄴ	-11414
▁ㅎㅜㄱ	-11415
ㄱㅜㄱㅅㅜ	-11416
ㅈㅏㄱㅂㅣ	-11417
▁ㄴㅏㅁㅅㅜ	-11418
▁ㅆㅏㅇㄱㅖ	-11419
▁ㅇㅕㄴㅁㅏ	-11420
▁ㅇㅗㄱㄱㅐ	-11421
▁ㅎㅗㅅㅅㅡ	-11422
ㅂㅕㅇㅇㅝㄴ	-11423
▁ㄱㅡㅁㅅㅏㅇ	-11424
▁ㅂㅐㄱㄱㅜㄱ	-11425
▁ㅇㅏㅁㅅㅜㄹ	-11426
▁Play	-11427
ㅁㅏㅇㅅㅡ	-11428
ㅅㅓㄴㅈㅗ	-11429
ㅍㅗㄱㅅㅡ	-11430
▁ㄴㅐㄴㅅㅣ	-11431
▁ㄸㅏㄹㄱㅣ	-11432
▁ㅁㅣㄹㄱㅛ	-11433
▁ㅇㅡㅂㄴㅐ	-11434
▁ㄱㅜㅇㄱㅡㅁ	-11435
▁ㅁㅏㄴㅅㅓㄱ	-11436
▁ㅂㅕㅇㅇㅕㅇ	-11437
▁ㄴㅗㅇㄱㅕㅇㅈㅣ	-11438
▁ㅇㅏㅍㅈㅏㅇㅅㅓ	-11439
▁no	-11440
▁222	-11441
ㅂㅡㄹㄹㅓ	-11442
▁ㅇㅣㄹㄹㅠ	-11443
▁ㅈㅓㅇㅌㅐ	-11444
▁ㅈㅓㅇㅎㅢ	-11445
▁ㅍㅕㄴㄷㅗ	-11446
▁ㅎㅏㄱㅈㅔ	-11447
ㄹㅗㄹㄹㅣㅇ	-11448
▁PK	-11449
▁232	-11450
▁ㄷㅣㅁ	-11451
ㄷㅏㄴㅈㅗ	-11452
ㅈㅣㅂㄱㅏ	-11453
▁ㄱㅜㄱㄱㅗ	-11454
▁ㅇㅔㅁㅍㅏ	-11455
▁ㅌㅗㅇㅅㅏ	-11456
ㅁㅣㄹㅇㅝㄴ	-11457
ㅅㅏㅇㄱㅜㄴ	-11458
▁ㄱㅓㄹㄹㅣㄹ	-11459
▁ㄱㅘㄴㅂㅏㅇ	-11460
▁ㅇㅕㄹㄱㅘㅇ	-11461
▁ㅇㅝㄴㅁㅏㅇ	-11462
▁ㅊㅓㅇㅈㅣㄴ	-11463
▁ㄱㅕㅇㅈㅏㄱㅈㅣ	-11464
▁ㄱㅘㄴㄱㅘㅇㅇㅓㅂ	-11465
▁ㅇㅞㄹㄹㅣㅇㅌㅓㄴ	-11466
05	-11467
▁HE	-11468
▁2030	-11469
▁ㄴㅗㄱㅅㅡ	-11470
▁ㄹㅐㅇㅋㅓ	-11471
▁ㅁㅏㄹㄹㅓ	-11472
▁ㅁㅜㅇㅊㅕ	-11473
▁ㅇㅣㄴㅎㅚ	-11474
▁ㅈㅗㅇㄱㅘ	-11475
▁ㅍㅓㄹㅅㅡ	-11476
▁ㅍㅕㄴㅊㅏ	-11477
▁ㅎㅏㄹㅅㅜ	-11478
ㅇㅕㅇㅂㅗㄱ	-11479
▁ㄱㅏㅁㅁㅕㅇ	-11480
▁ㄱㅏㅇㅇㅏㅂ	-11481
▁ㄴㅏㅁㅈㅣㅅ	-11482
▁ㅇㅛㄱㅅㅣㅁ	-11483
▁ㅊㅏㅁㅂㅗㅇ	-11484
▁ㅋㅐㅂㅅㅠㄹ	-11485
▁ㅁㅜㄴㅎㅏㄱㄱㅏ	-11486
▁234	-11487
▁390	-11488
ㄹㅛㅇㅅㅏ	-11489
ㅂㅏㄹㄹㅏ	-11490
▁ㄴㅏㄴㅈㅏ	-11491
▁ㅁㅣㄴㅈㅏ	-11492
▁ㅇㅏㄴㅌㅡ	-11493
▁ㅇㅣㅁㅅㅏ	-11494
ㅌㅓㄹㄹㅣㅇ	-11495
▁ㄷㅗㄱㅅㅣㄴ	-11496
▁ㅌㅏㄹㅅㅓㄴ	-11497
▁ㅂㅕㄴㅈㅡㅇㅂㅓㅂ	-11498
UT	-11499
ㅋㅝㄴ	-11500
ㅅㅓㅇㅅㅏ	-11501
▁ㄱㅡㄱㅈㅘ	-11502
▁ㄱㅣㅁㄴㅏ	-11503
▁ㄷㅏㄺㄱㅗ	-11504
▁ㅅㅐㄱㄱㅖ	-11505
ㅁㅣㄴㅌㅓㄴ	-11506
▁ㄱㅜㄱㅍㅏㄴ	-11507
▁ㅊㅜㄹㄱㅡㄴ	-11508
▁ㅇㅏㄴㅅㅓㅇㅅㅣ	-11509
ㅅㅐㅇㅁㅜㄹㅎㅏㄱ	-11510
▁ㄱㅏㄱㅇㅜㄴㄷㅗㅇㄹㅑㅇ	-11511
▁Boy	-11512
▁not	-11513
▁1806	-11514
ㅇㅣㅁㅅㅜ	-11515
ㅊㅗㄴㅂㅓ	-11516
▁width	-11517
▁ㄷㅏㄹㅅㅓ	-11518
▁ㅅㅜㄱㄱㅗ	-11519
ㅁㅜㅅㅇㅣㅍ	-11520
▁ㅁㅕㅇㅇㅡㄴ	-11521
▁ㅈㅓㄹㅇㅕㄴ	-11522
▁ㅈㅣㄴㅇㅑㅇ	-11523
▁ㄱㅘㄴㄷㅗㅇㄱㅜㄴ	-11524
ush	-11525
form	-11526
ㅈㅜㄴㅎㅗ	-11527
ㅌㅔㅁㅈㅡ	-11528
▁align	-11529
▁ㄱㅣㅁㅎㅖ	-11530
▁ㅈㅓㅇㅌㅗ	-11531
▁ㅋㅗㅇㅋㅜ	-11532
▁ㄴㅏㄹㄹㅕㅆ	-11533
▁ㅇㅕㄱㅅㅡㅂ	-11534
▁ㅈㅓㅇㅅㅓㄹ	-11535
▁ㅊㅣㅁㅈㅓㄴ	-11536
▁ㅁㅜㄴㅎㅏㄱㅅㅏ	-11537
KA	-11538
ㅅㅑㄹ	-11539
ㅎㅐㅁㅍㅡ	-11540
▁ㄱㅏㅁㅎㅣ	-11541
▁ㅇㅟㄴㅈㅓ	-11542
▁ㄴㅐㅇㅂㅏㅇ	-11543
▁ㄷㅗㄴㄴㅕㅇ	-11544
▁ㅅㅓㅇㅈㅣㄱ	-11545
▁ㄱㅡㄴㅂㅗㄴㅈㅜ	-11546
▁ㅅㅐㅇㅅㅏㄴㅈㅣ	-11547
▁UI	-11548
▁ㄸㅟㄴ	-11549
▁that	-11550
ㄹㅣㅁㅍㅏ	-11551
ㅇㅛㅇㅈㅜ	-11552
▁ㄱㅣㅁㅂㅗ	-11553
▁ㅇㅑㅇㅇㅏ	-11554
▁ㅋㅏㄹㅂㅣㄴ	-11555
▁ㄱㅕㅇㅇㅕㅇㅈㅣㄴ	-11556
sc	-11557
raph	-11558
ript	-11559
▁1842	-11560
▁King	-11561
▁Colle	-11562
▁ㄷㅗㅇㄱㅘ	-11563
▁ㄹㅣㄴㅊㅣ	-11564
▁ㅅㅐㄴㅌㅏ	-11565
▁ㅇㅘㄴㅌㅜ	-11566
▁ㅍㅜㅇㅌㅗ	-11567
▁ㅎㅗㅇㅈㅜ	-11568
ㅍㅡㄹㄹㅣㅇ	-11569
af	-11570
▁950	-11571
▁ㅋㅟㄱ	-11572
▁this	-11573
▁ㄱㅏㄹㅁㅐ	-11574
▁ㄱㅜㄱㅈㅏ	-11575
▁ㅅㅏㄴㄷㅗ	-11576
▁ㅇㅏㄹㅌㅗ	-11577
▁ㅇㅏㅍㄷㅏㅇ	-11578
▁ㅇㅕㄴㅅㅓㄴ	-11579
▁ㅇㅕㄴㅅㅓㅇ	-11580
▁ㅂㅓㅂㅎㅏㄱㅈㅏ	-11581
▁ㅅㅜㄹㅌㅏㄴㄱㅜㄱ	-11582
WA	-11583
▁GD	-11584
ㄴㅐㅂ	-11585
ㅁㅡㄹ	-11586
▁...	-11587
▁216	-11588
▁Rem	-11589
▁ㅁㅗㅅㅈㅣ	-11590
▁ㅂㅏㅇㄱㅖ	-11591
▁ㅇㅕㅍㄱㅜ	-11592
▁ㅈㅐㅇㅊㅟ	-11593
▁ㅁㅜㄹㅂㅕㅇ	-11594
▁ㅅㅓㄴㅍㅜㅇ	-11595
▁ㅅㅣㅁㅂㅗㄹ	-11596
ㅋㅓㄹㄹㅓㅁㅂㅣ	-11597
ㅌㅡㄹㄹㅐㄴㅌㅣㄱ	-11598
▁ㄷㅏㄹㅅㅓㅇㄱㅜㄴ	-11599
▁ㅊㅓㄹㅇㅝㄴㄱㅜㄴ	-11600
SI	-11601
▁we	-11602
▁That	-11603
ㄴㅔㄹㄹㅏ	-11604
▁ㄱㅣㅁㅅㅗ	-11605
▁ㄹㅓㅆㅇㅡ	-11606
▁ㅂㅏㄱㅈㅜ	-11607
▁ㅂㅔㄴㅈㅏ	-11608
▁ㅅㅗㄱㅈㅚ	-11609
▁ㅅㅣㄴㄷㅣ	-11610
▁ㅇㅑㅇㅅㅣ	-11611
▁ㅈㅓㄴㅅㅗ	-11612
▁ㅈㅓㅇㅎㅚ	-11613
▁ㅊㅓㄹㄹㅗ	-11614
▁ㅁㅕㄴㅈㅓㅂ	-11615
▁ㅅㅏㄹㄱㅠㄴ	-11616
▁ㅇㅣㄴㅈㅏㅇ	-11617
▁ㅈㅓㄴㅎㅘㅇ	-11618
▁ㅉㅏㄱㅈㅣㅅ	-11619
ㅅㅣㅇㅌㅓㄴㅈㅜ	-11620
ㄱㅙ	-11621
ㄱㅠㄹ	-11622
ㄹㅡㄴㅎㅏ	-11623
ㅅㅓㅇㅇㅣ	-11624
ㅈㅏㅇㅅㅜ	-11625
▁ㄹㅣㄴㅅㅡ	-11626
▁ㅁㅜㄹㅇㅢ	-11627
▁ㅅㅓㄹㄱㅏ	-11628
▁ㅅㅗㄱㅇㅣ	-11629
▁ㅅㅡㅂㄱㅣ	-11630
▁ㅇㅠㄴㅈㅣ	-11631
ㅇㅑㅇㅅㅣㄱ	-11632
ㅇㅕㄴㅈㅏㅇ	-11633
▁ㅁㅕㅇㅊㅏㅇ	-11634
▁ㅈㅓㄴㄱㅕㅇ	-11635
▁Project	-11636
▁ㅍㅕㄴㅈㅣㅂㄱㅣ	-11637
▁660	-11638
ㄹㅓㄱㅅㅡ	-11639
ㅌㅔㄱㅅㅡ	-11640
lement	-11641
▁ㅇㅔㅅㅈㅣ	-11642
▁ㅈㅡㅇㅅㅓ	-11643
▁ㅊㅓㅇㄷㅜ	-11644
▁ㅊㅣㄴㄷㅏ	-11645
▁ㅍㅔㄴㅌㅣ	-11646
▁ㅍㅗㄱㅇㅜ	-11647
▁ㅎㅏㄱㅂㅣ	-11648
ㅂㅜㄹㅌㅐㅇ	-11649
▁ㄴㅏㅁㅁㅜㄴ	-11650
▁ㄹㅣㄴㅌㅓㄴ	-11651
▁ㅇㅕㄹㄷㅡㅇ	-11652
▁ㅈㅡㅇㅅㅏㄴ	-11653
iew	-11654
▁pH	-11655
▁Web	-11656
▁ㅋㅏㅅ	-11657
▁1796	-11658
ㅇㅣㄴㄷㅓ	-11659
ㅌㅗㄹㄹㅗ	-11660
▁Great	-11661
▁ㄱㅗㄹㅈㅏ	-11662
▁ㅁㅜㄱㅅㅣ	-11663
▁ㅂㅜㄹㄷㅗ	-11664
▁ㅅㅓㅇㅊㅡㅇ	-11665
▁ㅇㅣㄴㅎㅕㄴ	-11666
▁GL	-11667
▁UF	-11668
▁460	-11669
▁815	-11670
▁GPU	-11671
▁1790	-11672
ㄹㅓㄴㅊㅡ	-11673
▁ㅂㅏㄴㅇㅠ	-11674
▁ㅅㅓㅇㅎㅢ	-11675
▁ㅈㅏㅇㅁㅏ	-11676
ㅊㅗㅇㄱㅘㄴ	-11677
▁ㄷㅏㄴㄹㅕㄴ	-11678
▁ㄷㅗㅇㅇㅡㅁ	-11679
▁ㅅㅣㄴㄴㅕㄴ	-11680
▁ㅅㅣㄴㅂㅣㅇ	-11681
▁ㅌㅡㄹㄹㅣㅁ	-11682
▁ㄱㅏㅁㄷㅗㄱㅅㅏㅇ	-11683
lex	-11684
▁EL	-11685
▁Run	-11686
ㅁㅣㄴㅌㅔ	-11687
▁ㄹㅣㄱㅅㅡ	-11688
▁ㅂㅐㄱㅅㅡ	-11689
▁ㅈㅗㄹㄹㅏ	-11690
▁ㅊㅜㄹㅈㅔ	-11691
▁ㅎㅔㄹㄹㅏ	-11692
ㄹㅏㅂㅇㅣㄴ	-11693
ㅇㅑㅇㄷㅗㅇ	-11694
▁ㄱㅏㄴㅌㅗㅇ	-11695
▁ㄱㅗㅇㅁㅜㄹ	-11696
▁ㄴㅓㄼㅎㅕㅆ	-11697
▁ㅅㅏㅁㄴㅏㅁ	-11698
▁ㅅㅓㄴㅂㅓㅂ	-11699
▁ㅈㅓㄴㅍㅗㄱ	-11700
▁ㅇㅓㅁㅁㅣㄹㅎㅣ	-11701
▁ㅊㅣㅇㅎㅏㄴㄷㅏ	-11702
▁FL	-11703
ㄴㅟㄴ	-11704
▁1798	-11705
ㅋㅓㄹㄹㅓ	-11706
▁ㅅㅓㄱㅎㅗ	-11707
▁ㅅㅣㄴㅍㅏ	-11708
▁ㅇㅝㄴㅇㅖ	-11709
▁ㄱㅕㅇㄱㅏㅁ	-11710
▁ㅅㅓㅇㄱㅡㅂ	-11711
▁ㅅㅓㅇㅇㅘㅇ	-11712
▁ㅈㅏㅇㅇㅓㅁ	-11713
▁ㅍㅏㄴㄱㅏㄱ	-11714
▁ㅈㅣㅂㅎㅕㄴㅈㅓㄴ	-11715
▁ㅊㅏㅁㅈㅓㅇㄱㅝㄴ	-11716
▁ㅊㅓㄱㅌㅏㄴㅂㅕㅇ	-11717
elf	-11718
ㅍㅓㄱ	-11719
▁key	-11720
▁ㄹㅕㅆ	-11721
▁1810	-11722
▁1832	-11723
▁Inst	-11724
ㄱㅜㄱㄷㅐ	-11725
ㅇㅣㄴㄱㅘ	-11726
ㅎㅕㄱㅈㅜ	-11727
▁score	-11728
▁ㅌㅡㄹㅇㅓ	-11729
▁ㅍㅠㄹㄹㅣ	-11730
▁ㄴㅔㄱㅅㅡㄴ	-11731
▁ㅁㅐㄴㅌㅡㄹ	-11732
▁ㅂㅣㄴㅇㅑㄱ	-11733
▁ㅈㅏㄴㄷㅏㅇ	-11734
▁ㅈㅓㄴㄹㅑㅇ	-11735
▁ㅈㅜㅇㅎㅡㅇ	-11736
▁ㅊㅓㅇㅍㅜㅇ	-11737
▁ㄱㅏㅇㅈㅣㄴㄱㅜㄴ	-11738
ady	-11739
ane	-11740
ize	-11741
rop	-11742
tain	-11743
▁264	-11744
▁EOS	-11745
▁ㅎㅔㄱㅌㅏ	-11746
ㅈㅓㄴㄷㅗㅇ	-11747
▁ㅁㅕㅇㅁㅐㄱ	-11748
▁ㅇㅑㅇㅅㅗㄴ	-11749
▁ㅊㅣㄴㅍㅣㄹ	-11750
▁ㅎㅓㄴㅈㅗㅇ	-11751
▁-.	-11752
ㄹㅗㅇㅋㅡ	-11753
▁20120	-11754
▁ㄱㅏㅁㄹㅗ	-11755
▁ㅅㅣㄴㄷㅔ	-11756
▁ㅇㅏㅍㅂㅜ	-11757
▁ㅈㅓㅇㄴㅏ	-11758
▁ㅊㅓㄹㄱㅛ	-11759
▁ㅎㅐㅁㅍㅡ	-11760
ㅇㅣㅂㅅㅏㅇ	-11761
▁ㅅㅗㄱㅎㅕㄴ	-11762
▁ㅇㅏㄹㅎㅕㄴ	-11763
▁ㅊㅜㄹㅈㅣㄴ	-11764
▁ㄷㅡㄱㅈㅓㅁㅈㅏ	-11765
ney	-11766
▁up	-11767
ㅈㅔㅅ	-11768
▁410	-11769
▁640	-11770
▁Cor	-11771
▁ㅂㅗㄱㄱㅗ	-11772
▁ㅂㅗㄴㄸㅏ	-11773
▁ㅇㅕㄴㄴㅏ	-11774
▁ㅈㅡㅇㅇㅕ	-11775
ㄹㅣㄱㅅㅡㄴ	-11776
▁ㅅㅜㅁㅈㅕㅆ	-11777
▁ㅊㅜㄱㅇㅑㄱ	-11778
▁ㅊㅜㅇㅅㅣㄹㅎㅣ	-11779
▁ㅅㅣㄴㅇㅣㄴㅇㅘㅇ	-11780
IST	-11781
▁ㅆㅔ	-11782
ㄱㅓㄱ	-11783
ㄱㅚㅇ	-11784
▁Met	-11785
▁Mod	-11786
▁ㄱㅡㄴㅎㅐ	-11787
▁ㄷㅏㄹㄹㅐ	-11788
▁ㄹㅣㄴㄴㅔ	-11789
▁ㅇㅕㅇㅎㅏ	-11790
▁ㅇㅝㄴㅊㅜ	-11791
ㅇㅏㅁㅁㅕㄴ	-11792
▁ㄷㅗㅇㅁㅕㄴ	-11793
▁ㅂㅜㄹㅅㅜㄴ	-11794
▁ㅂㅜㄹㅍㅔㄴ	-11795
▁ㅅㅏㅇㅇㅗㄴ	-11796
▁ㅇㅣㄴㅌㅓㄴ	-11797
▁ㅈㅏㄱㅇㅣㄴ	-11798
▁ㅊㅗㅇㅎㅏㅂ	-11799
▁ㅋㅡㄹㄹㅣㅂ	-11800
▁ㅈㅏㄱㅇㅛㅇㅅㅗ	-11801
▁ㅎㅏㄱㄴㅕㄴㄷㅗ	-11802
▁ㅅㅓㄴㅂㅏㄹㅈㅓㄴ	-11803
ㅃㅐㄱ	-11804
▁Are	-11805
ㅁㅣㄹㄹㅏ	-11806
ㅋㅏㄹㄹㅔ	-11807
▁ㅅㅓㅇㅅㅣ	-11808
▁ㅈㅏㅇㅂㅜ	-11809
▁ㅅㅏㄴㅎㅏㄱ	-11810
▁ㅅㅣㄴㅊㅏㅇ	-11811
▁ㅌㅏㅁㅇㅛㄱ	-11812
▁ㅍㅏㄴㄱㅝㄴ	-11813
▁ㅍㅣㄹㅈㅓㄱ	-11814
▁ㄱㅣㅁㅊㅓㄴㅅㅣ	-11815
▁ㄴㅏㅁㅇㅝㄴㅅㅣ	-11816
▁ㄱㅏㅁㅇㅕㅁㅂㅕㅇ	-11817
▁ㅇㅔㅂㅅㅣㄹㄹㅗㄴ	-11818
ene	-11819
▁Mk	-11820
▁am	-11821
▁nt	-11822
atic	-11823
▁NHL	-11824
▁Rad	-11825
▁Sub	-11826
▁val	-11827
ㅍㅔㄹㅌㅡ	-11828
▁Every	-11829
▁ㅇㅣㅁㅈㅣ	-11830
ㅈㅓㄱㄷㅏㄴ	-11831
▁ㄱㅘㅇㅅㅓㄱ	-11832
▁ㄱㅣㅁㅂㅗㅇ	-11833
▁ㅃㅐㄱㅃㅐㄱ	-11834
▁ㅇㅕㅇㅇㅣㄹ	-11835
▁ㅈㅣㄹㅅㅏㄴ	-11836
▁ㄷㅏㅁㅇㅑㅇㄱㅜㄴ	-11837
▁ㅂㅏㄹㅎㅐㅇㅇㅣㄴ	-11838
▁ㅂㅓㄴㅇㅕㄱㅂㅗㄴ	-11839
pm	-11840
ㅍㅟ	-11841
ott	-11842
ㅆㅓㅂ	-11843
▁213	-11844
▁EMI	-11845
▁ㅃㅑㅁ	-11846
▁ㅇㅕㄼ	-11847
ㄷㅗㅇㅂㅜ	-11848
ㅇㅛㅇㄱㅏ	-11849
ㅈㅜㅇㅁㅣ	-11850
▁ㄷㅏㄴㅂㅏ	-11851
▁ㅂㅡㄹㄹㅜㅁ	-11852
▁ㅇㅏㄴㅅㅏㅇ	-11853
▁ㅇㅜㄹㅈㅣㄴ	-11854
▁ㅂㅜㄱㅈㅜㅇㅁㅣ	-11855
▁ㅌㅗㅇㅇㅕㅇㅅㅣ	-11856
▁DP	-11857
▁UP	-11858
ㅂㅜㅅ	-11859
▁219	-11860
▁Bad	-11861
▁1831	-11862
ㅈㅏㅇㅇㅓ	-11863
▁ㄱㅡㅂㅇㅠ	-11864
▁ㅁㅏㄴㄱㅘ	-11865
▁ㅁㅕㅇㅎㅚ	-11866
▁ㅇㅏㅇㅋㅗ	-11867
▁School	-11868
▁ㄷㅡㄹㅇㅕㅆ	-11869
▁ㅂㅓㅂㄷㅏㅇ	-11870
▁ㅂㅜㄱㅈㅣㄴ	-11871
▁ㅇㅑㄱㅈㅓㅇ	-11872
▁ㅈㅗㅇㅇㅣㄹ	-11873
▁ㅎㅗㄱㅍㅕㅇ	-11874
▁ㄱㅏㅇㄷㅗㅇㄱㅜ	-11875
▁ㄷㅏㄹㅍㅐㅇㅇㅣ	-11876
uth	-11877
▁255	-11878
▁ARM	-11879
▁ㄱㅏㄱㄱㅖ	-11880
▁ㄱㅣㅁㅂㅜ	-11881
▁ㅁㅏㄱㅎㅕ	-11882
▁ㅁㅗㅇㅋㅔ	-11883
▁ㅇㅣㅂㄱㅛ	-11884
▁ㅋㅓㅁㅍㅗ	-11885
▁ㄱㅏㄴㄱㅏㄴ	-11886
▁ㄱㅡㄱㅅㅓㅇ	-11887
▁ㄴㅏㄴㅂㅏㅇ	-11888
▁ㅂㅏㅇㅎㅕㅇ	-11889
▁ㅇㅔㄹㅌㅡㄴ	-11890
▁ㅎㅗㄴㅇㅛㅇ	-11891
▁ㅈㅓㅇㅁㅏㄹㄹㅗ	-11892
▁ㅎㅏㅂㅂㅓㅂㅎㅘ	-11893
ins	-11894
ㄱㅕㅂ	-11895
▁UAE	-11896
ㅎㅏㅁㄷㅐ	-11897
▁ㄴㅜㄴㅂㅜ	-11898
▁ㅇㅏㄹㅂㅡ	-11899
▁ㅈㅓㅂㄷㅐ	-11900
▁ㄱㅕㄹㅂㅓㄴ	-11901
▁ㄴㅐㅇㄷㅗㅇ	-11902
▁ㄷㅗㅇㄱㅘㄴ	-11903
▁ㅂㅜㄹㅁㅕㄹ	-11904
▁ㅅㅏㅇㅎㅑㅇ	-11905
▁ㅅㅓㄴㅇㅘㅇ	-11906
▁ㅈㅓㅇㅈㅏㅇ	-11907
▁ㅇㅗㄴㅈㅓㄴㅎㅣ	-11908
▁ㄷㅗㄱㄹㅣㅂㄷㅏㅇ	-11909
▁ㅅㅏㅇㄹㅠㄱㅈㅏㄱㅈㅓㄴ	-11910
▁DMB	-11911
▁RCA	-11912
▁ㅇㅑㅁ	-11913
ㄹㅡㄹㅁㅏ	-11914
ㅍㅏㄹㄹㅗ	-11915
▁ㄷㅣㄹㄹㅔ	-11916
▁ㄹㅐㅇㅅㅡ	-11917
▁ㅂㅏㅇㅂㅣ	-11918
▁ㅅㅓㄴㅎㅘ	-11919
▁ㅇㅕㄴㅊㅔ	-11920
ㅇㅏㅅㄱㅣㄴ	-11921
▁ㄴㅐㅇㅈㅓㅇ	-11922
▁ㅅㅓㄱㅁㅜㄹ	-11923
▁ㅅㅣㄹㄱㅕㄱ	-11924
▁ㅈㅏㅇㅎㅕㄴ	-11925
▁ㅈㅣㄴㅂㅗㅇ	-11926
▁ㅈㅣㅂㅇㅑㄱ	-11927
▁ㅋㅡㄹㄹㅏㄱ	-11928
▁ㅈㅣㄴㅎㅡㅇㅇㅘㅇ	-11929
ama	-11930
eng	-11931
▁MR	-11932
ㅅㅓㄱㅅㅜ	-11933
▁ㄱㅡㅁㅇㅗ	-11934
▁ㅂㅏㅁㅎㅏ	-11935
▁ㅇㅣㄹㄱㅐ	-11936
▁ㅊㅏㅁㅅㅐ	-11937
▁ㅊㅣㅇㄷㅏ	-11938
▁ㄱㅘㅇㅇㅝㄴ	-11939
▁ㄱㅡㄴㅊㅣㄴ	-11940
▁ㄷㅗㄹㅂㅏㅇ	-11941
▁ㅅㅓㄱㅎㅏㄱ	-11942
▁ㅅㅡㅇㅊㅓㄴ	-11943
▁ㅅㅣㄹㅁㅜㄹ	-11944
▁ㅇㅕㄴㄱㅗㄹ	-11945
▁ㅇㅠㄴㅈㅗㅇ	-11946
▁ㅇㅣㄴㅅㅗㄹ	-11947
▁ㅈㅓㄴㅎㅚㅇ	-11948
▁ㅂㅜㄹㅁㅕㅇㅇㅖ	-11949
▁ㅇㅏㄹㄹㅗㄴㅅㅗ	-11950
ㄲㅟㄹ	-11951
▁HTTP	-11952
ㄴㅗㅇㅅㅏ	-11953
▁ㅂㅓㄴㅅㅏ	-11954
▁ㅅㅣㄴㄷㅡ	-11955
▁ㅇㅝㄴㅈㅣ	-11956
▁ㅎㅏㄴㄴㅣ	-11957
ㅇㅣㄴㅇㅣㄴ	-11958
▁ㄱㅏㄱㅇㅣㄴ	-11959
▁ㅁㅣㄹㅊㅏㄱ	-11960
▁ㅇㅛㅇㅂㅓㅂ	-11961
▁ㅈㅐㅇㅌㅏㄹ	-11962
▁ㄷㅗㄱㄹㅣㅂㅅㅓㅇ	-11963
▁VV	-11964
ㄴㅣㄴㅈㅣ	-11965
▁20100	-11966
▁ㅂㅐㄱㅁㅏ	-11967
▁ㅂㅣㅈㅇㅓ	-11968
▁ㅇㅜㄹㅌㅏ	-11969
▁ㅊㅡㄱㄷㅗ	-11970
ㅊㅏㄱㅁㅣㄴ	-11971
▁ㅅㅏㄴㄱㅜㄴ	-11972
▁ㅅㅏㄹㄹㅗㅇ	-11973
▁MY	-11974
ㅂㅠㅁ	-11975
ㄷㅜㄴㄷㅏ	-11976
ㅂㅏㅇㅇㅟ	-11977
▁ㄷㅗㅇㅌㅐ	-11978
▁ㅂㅗㄴㄷㅡ	-11979
▁ㅌㅔㄴㅌㅡ	-11980
▁ㄱㅡㄴㅎㅕㄴ	-11981
▁ㅂㅏㅇㅎㅘㅇ	-11982
▁ㅊㅓㄹㄱㅝㄴ	-11983
▁ㅅㅣㄴㅅㅜㄱㅈㅜ	-11984
06	-11985
UL	-11986
erm	-11987
ㅋㅏㅇ	-11988
▁ㅅㅐㅅ	-11989
ㄹㅐㄴㄷㅗ	-11990
ㅅㅏㄹㄹㅗ	-11991
ㅅㅏㄹㅍㅣ	-11992
ㅅㅜㅇㅇㅏ	-11993
▁ㄷㅏㄴㄱㅏ	-11994
▁ㅇㅏㄹㄷㅔ	-11995
▁ㅇㅑㅇㅈㅔ	-11996
▁ㅇㅝㄴㅂㅜ	-11997
▁ㅈㅓㅇㄷㅐ	-11998
▁ㅈㅗㅁㅊㅓ	-11999
▁ㅈㅣㄹㄹㅣ	-12000
▁ㅍㅏㄴㄱㅛ	-12001
▁ㅎㅓㅁㅍㅡ	-12002
ㅁㅜㄹㅈㅣㄹ	-12003
▁ㄱㅕㄹㅅㅗㄱ	-12004
▁ㅇㅕㅆㅇㅓㅆ	-12005
▁ㅇㅛㅇㅁㅜㄴ	-12006
▁ㅇㅝㄴㄱㅠㄴ	-12007
▁ㅌㅏㄱㅂㅏㄹ	-12008
▁ㅎㅘㅇㄱㅜㅇ	-12009
▁ㅂㅓㄴㅇㅕㄱㄱㅏ	-12010
▁ㅅㅗㅇㄱㅘㅇㅅㅏ	-12011
▁ㄲㅡㄶㅇㅣㅁㅇㅓㅄ	-12012
ava	-12013
▁ㅅㅟㅁ	-12014
▁1841	-12015
ㅈㅜㄴㅅㅣ	-12016
▁ㅁㅕㅇㄱㅣ	-12017
▁ㅅㅔㄹㄹㅏ	-12018
ㄱㅘㅇㅅㅓㄱ	-12019
ㅂㅜㄱㄷㅗㅇ	-12020
▁ㅇㅏㅁㅂㅏㄴ	-12021
▁ㅈㅓㅇㅅㅏㄴ	-12022
▁ㅎㅘㄴㅅㅐㅇ	-12023
▁ㅇㅕㅇㄷㅗㅇㄱㅜㄴ	-12024
▁ㅅㅣㄴㅇㅑㄱㅅㅓㅇㄱㅕㅇ	-12025
▁Je	-12026
▁KR	-12027
▁YTN	-12028
▁1809	-12029
ㄱㅗㄱㅅㅏ	-12030
ㄹㅗㄹㅌㅓ	-12031
ㅇㅕㄹㅅㅡ	-12032
ㅎㅏㄹㅁㅓ	-12033
▁ㅁㅝㄴㄱㅏ	-12034
▁ㅂㅏㄴㅈㅏㅇ	-12035
▁ㅅㅣㄴㅊㅗㄴ	-12036
▁ㅁㅕㅇㅂㅐㄱㅎㅣ	-12037
▁ㅅㅗㄴㄲㅗㅂㅎㅣㄴㄷㅏ	-12038
▁ㅍㅕㅇㅇㅑㅇㅈㅣㄱㅎㅏㄹㅅㅣ	-12039
ams	-12040
▁Inc	-12041
▁Rob	-12042
▁ㄱㅟㄴ	-12043
▁ㄱㅣㅇ	-12044
▁1843	-12045
ㄱㅔㄴㅅㅠ	-12046
ㄲㅡㄹㅇㅓ	-12047
▁ㄱㅜㅇㅈㅣ	-12048
▁ㅇㅏㄹㅂㅓ	-12049
▁ㅇㅑㅇㅅㅏ	-12050
▁ㅇㅝㄴㅊㅣ	-12051
▁ㅇㅓㅂㅈㅗㅇ	-12052
▁ㅂㅏㅇㅁㅜㄴㅈㅏ	-12053
▁Im	-12054
▁227	-12055
▁BSD	-12056
▁ㅇㅣㄹㄹㅖ	-12057
▁ㅈㅏㄹㅊㅡ	-12058
▁ㅈㅓㅇㅁㅣ	-12059
▁ㅊㅓㅇㅈㅗ	-12060
▁ㅌㅐㅇㅎㅘ	-12061
ㄷㅓㄱㅁㅕㄴ	-12062
ㅅㅣㄴㄱㅕㅇ	-12063
▁ㄷㅏㄹㅇㅣㄴ	-12064
▁ㅆㅏㅇㅂㅏㅇ	-12065
▁ㅇㅝㄴㅃㅜㄹ	-12066
▁ㅇㅝㄴㅅㅜㄴ	-12067
▁ㅈㅏㅇㅈㅣㄱ	-12068
▁ㅊㅜㅇㅈㅓㄹ	-12069
▁ㅎㅏㅁㅇㅑㅇㄱㅜㄴ	-12070
▁ㅎㅕㄱㅁㅕㅇㄷㅏㅇ	-12071
NS	-12072
▁WK	-12073
ㅊㅜㄴㄱㅣ	-12074
▁ㄸㅓㄹㅊㅣ	-12075
▁ㅁㅣㄹㅋㅡ	-12076
▁ㅅㅐㅇㅂㅜ	-12077
▁ㅈㅗㄹㄹㅣ	-12078
▁ㅎㅕㅇㅇㅣ	-12079
▁ㄱㅏㄴㅎㅓㄹ	-12080
▁ㅂㅓㄴㅂㅓㄴ	-12081
▁ㅅㅏㄴㅇㅑㅇ	-12082
▁ㅈㅏㅇㄹㅕㄱ	-12083
▁ㅎㅗㅇㅁㅕㅇ	-12084
ㅂㅓㅂㅇㅕㄴㅅㅜ	-12085
▁ㅇㅡㄴㅍㅕㅇㄱㅜ	-12086
▁ㅊㅗㅇㄷㅗㅇㅇㅝㄴ	-12087
TR	-12088
▁Off	-12089
▁ㄸㅟㄹ	-12090
▁ㅍㅏㅌ	-12091
ㄴㅏㄴㄷㅡ	-12092
ㄷㅡㄴㄷㅏ	-12093
ㅇㅜㄹㅇㅕ	-12094
ations	-12095
▁ㅊㅏㅁㅎㅗ	-12096
▁ㅎㅗㄴㅅㅠ	-12097
▁ㅎㅘㅇㅎㅘ	-12098
ㅊㅓㅇㅈㅓㅇ	-12099
▁ㄷㅗㅇㄱㅕㄹ	-12100
▁ㅁㅐㄹㅋㅓㅁ	-12101
▁ㅂㅗㄴㅈㅓㅁ	-12102
▁ㅂㅜㄴㅅㅣㄹ	-12103
▁ㅅㅓㄴㅅㅏㄴ	-12104
▁ㅇㅣㄹㄱㅘㅇ	-12105
▁ㅊㅓㅇㅊㅓㄴ	-12106
▁ㅎㅘㅇㅅㅓㅇ	-12107
▁ㅈㅓㅇㅇㅡㅂㅅㅣ	-12108
▁ㅇㅏㅍㅈㅏㅇㅅㅓㅆ	-12109
▁ㅇㅡㅁㅅㅣㄱㅁㅜㄹ	-12110
03	-12111
na	-12112
xy	-12113
▁ㄱㅣㅁㅎㅛ	-12114
ㅂㅗㄱㅇㅡㅁ	-12115
ㅇㅕㅇㅎㅑㅇ	-12116
▁ㄲㅏㄹㄲㅡㅁ	-12117
▁ㄴㅗㅎㅊㅕㅆ	-12118
▁ㅂㅏㅁㅈㅜㅇ	-12119
▁ㅊㅗㅇㅅㅏㅇ	-12120
▁ㅈㅡㅇㄱㅝㄴㄱㅓ	-12121
▁ㅇㅡㅁㅅㅓㅇㄱㅜㄴ	-12122
du	-12123
oph	-12124
▁EA	-12125
▁GE	-12126
▁Blu	-12127
▁1821	-12128
ㅂㅡㄹㄹㅏ	-12129
▁ㅅㅜㄴㅅㅏ	-12130
▁ㅊㅜㄹㅌㅚ	-12131
▁ㅎㅘㅇㅈㅜ	-12132
ㄱㅝㄴㄹㅕㄱ	-12133
ㄴㅏㄴㅁㅣㄴ	-12134
▁ㅈㅓㅇㄹㅏㅇ	-12135
▁ㅈㅜㅇㅎㅏㅂㅎㅛ	-12136
▁ㅇㅑㅇㅂㅏㅇㅎㅑㅇ	-12137
▁ㅊㅏㅇㄴㅕㅇㄱㅜㄴ	-12138
ㅈㅛ	-12139
▁Mc	-12140
▁ㅁㅔㅇ	-12141
ㄷㄴㅏㄹ	-12142
▁1783	-12143
▁Game	-12144
ㅋㅔㄹㄹㅔ	-12145
▁Micro	-12146
▁ㅇㅝㄴㄷㅐ	-12147
ㄹㅜㄴㄱㅜㅇ	-12148
▁ㄱㅡㅁㅅㅏㄴㄱㅜㄴ	-12149
▁International	-12150
▁RF	-12151
▁ㅇㅝㅇ	-12152
ㄹㅐㄴㅈㅡ	-12153
ㅁㅣㅇㄱㅗ	-12154
ㅃㅜㄹㅅㅗ	-12155
ㅇㅣㄴㄱㅣ	-12156
▁ㄱㅡㅂㅂㅜ	-12157
▁ㅁㅣㅌㅂㅜ	-12158
▁ㅅㅏㅁㄱㅏ	-12159
▁ㅅㅏㅇㄴㅏ	-12160
▁ㅇㅕㄴㄹㅖ	-12161
▁ㅋㅏㄴㅌㅗ	-12162
▁ㅎㅢㄴㄱㅐ	-12163
ㄱㅜㄱㅈㅏㅇ	-12164
ㅇㅛㅇㅂㅓㅂ	-12165
ㅈㅓㅇㅍㅏㄴ	-12166
▁ㅂㅓㄴㅂㅗㄱ	-12167
▁ㅅㅓㄴㅂㅏㅇ	-12168
▁ㅇㅘㅇㅈㅓㄴ	-12169
▁ㅈㅓㅇㅂㅏㄴㄷㅐ	-12170
air	-12171
▁ㅆㅘ	-12172
▁1623	-12173
▁1799	-12174
▁ㄱㅡㅁㅈㅜ	-12175
▁ㄷㅏㅇㄷㅗ	-12176
▁ㅆㅡㄹㅁㅗ	-12177
▁ㅇㅗㄹㄱㅏ	-12178
▁ㅎㅐㄱㅁㅣ	-12179
ㅇㅏㄴㅁㅕㄴ	-12180
▁ㄱㅘㄴㅊㅓㄹ	-12181
▁ㄱㅜㄴㅇㅘㅇ	-12182
▁ㄱㅣㄹㅉㅜㄱ	-12183
▁ㄴㅗㅇㅇㅏㄱ	-12184
▁ㅁㅣㄴㅈㅣㄴ	-12185
▁ㅊㅏㄴㅂㅏㄴ	-12186
▁ㅊㅗㅇㄱㅘㄴ	-12187
ㅇㅣㄴㅈㅓㄹㅅㅡ	-12188
▁DX	-12189
▁Sk	-12190
ㄹㅚㅁ	-12191
▁275	-12192
▁ㅇㅞㅁ	-12193
▁Down	-12194
▁ㄱㅕㄴㄱㅘ	-12195
▁ㄷㅓㄴㅅㅡ	-12196
▁ㅅㅡㅇㅅㅗ	-12197
▁ㄱㅕㄴㄷㅣㄹ	-12198
▁ㅇㅔㄹㄹㅔㄴ	-12199
▁ㅇㅡㄴㅅㅏㅇ	-12200
▁ㅇㅓㅁㄱㅕㄱㅎㅣ	-12201
▁ㄱㅕㅇㅅㅜㄴㅇㅘㅇ	-12202
▁1803	-12203
▁1813	-12204
▁1835	-12205
ㅁㅏㅇㅈㅜ	-12206
▁ㄱㅏㄱㅇㅗ	-12207
▁ㄱㅜㅇㄴㅕ	-12208
▁ㅁㅔㅅㄷㅙ	-12209
▁ㅈㅣㅂㄷㅐ	-12210
▁ㅇㅕㄴㅍㅣㄹ	-12211
▁OR	-12212
▁par	-12213
▁1819	-12214
▁1845	-12215
ㅌㅏㄴㅌㅡ	-12216
ㅎㅐㄱㅎㅘ	-12217
▁ㄴㅏㅁㅋㅗ	-12218
▁ㅁㅜㅇㅊㅣ	-12219
▁ㅅㅣㄴㅂㅗ	-12220
▁ㅈㅏㅇㅇㅠ	-12221
▁ㅈㅓㅇㄷㅏ	-12222
▁ㅊㅗㅇㅅㅓ	-12223
▁ㅎㅏㄴㅅㅜ	-12224
▁ㅁㅏㅈㅅㅓㅆ	-12225
▁ㅁㅗㄹㅅㅏㄹ	-12226
▁ㅅㅓㅇㅅㅏㅇ	-12227
▁ㅇㅘㄴㅊㅜㅇ	-12228
▁316	-12229
▁POS	-12230
▁comp	-12231
ㄷㅓㄱㄹㅣ	-12232
▁ㄱㅜㄴㅅㅗ	-12233
▁ㅂㅔㄴㅌㅜ	-12234
▁ㅇㅟㅇㅅㅡ	-12235
▁ㅎㅏㅇㄱㅓ	-12236
▁ㅎㅡㄱㅅㅏ	-12237
ㅍㅡㄹㄹㅣㅅ	-12238
▁ㄴㅏㅁㅁㅕㅇ	-12239
▁ㅅㅐㄱㅅㅡㄴ	-12240
▁ㅈㅓㅇㅇㅠㄱ	-12241
▁ㅊㅗㅇㄹㅕㄱ	-12242
▁ㅇㅕㅇㅇㅏㅁㄱㅜㄴ	-12243
irect	-12244
ㄱㅜㄴㄱㅣ	-12245
ㄴㅜㄹㅍㅡ	-12246
▁Award	-12247
▁Korea	-12248
▁ㄱㅓㅌㅁㅗ	-12249
▁ㅁㅏㅈㅇㅏ	-12250
▁ㅅㅏㅇㄱㅓ	-12251
▁ㅅㅓㅇㅇㅠ	-12252
▁ㅅㅔㄱㅌㅓ	-12253
▁ㅌㅏㅂㅂㅣ	-12254
▁ㅌㅗㅇㄱㅏ	-12255
▁ㅎㅓㄴㅌㅡ	-12256
▁ㄱㅝㄴㅅㅓㄴ	-12257
▁ㄴㅏㅁㅊㅡㄱ	-12258
▁ㅁㅣㄹㅈㅓㅇ	-12259
▁ㅂㅏㄴㅌㅏㄱ	-12260
▁ㅅㅓㄴㅂㅜㄴ	-12261
▁ㅅㅣㄴㅂㅕㄴ	-12262
▁ㅇㅣㄴㅁㅐㄱ	-12263
▁ㅈㅜㅇㅁㅜㄴ	-12264
▁ㅌㅡㄱㅅㅏㄴ	-12265
▁ㅎㅐㅇㅂㅓㅂ	-12266
▁ㅎㅙㅅㅂㅜㄹ	-12267
▁ㅊㅣㄴㄷㅗㅇㅅㅐㅇ	-12268
we	-12269
▁ㅊㅞ	-12270
▁She	-12271
▁1804	-12272
ㄹㅜㄹㄹㅜ	-12273
▁ㅅㅐㅇㅎㅜ	-12274
ㄱㅡㄱㅇㅣㄴ	-12275
ㅅㅡㄹㄹㅏㄴ	-12276
ㅈㅜㄴㄱㅕㅇ	-12277
▁ㅅㅜㄴㄱㅜㄱ	-12278
▁ㅇㅕㄱㅂㅓㅂ	-12279
▁ㅇㅜㄹㄹㅣㅁ	-12280
ㄴㅗㄹㄹㅜㄹㄹㅜ	-12281
▁ㄱㅘㅇㅁㅕㅇㅅㅣ	-12282
▁ㅈㅣㄴㄷㅗㅇㅅㅜ	-12283
45	-12284
▁FTA	-12285
▁Ste	-12286
ㅎㅓㄴㄷㅐ	-12287
▁ㅇㅡㅇㄱㅗ	-12288
ㅎㅏㄱㅅㅣㄱ	-12289
▁ㄱㅏㅁㅇㅕㅇ	-12290
▁ㅁㅜㄴㄷㅏㅂ	-12291
▁ㅎㅏㄴㅈㅣㄴ	-12292
▁ㄱㅕㅌㄷㅡㄹㅇㅕ	-12293
▁ㅎㅜㄴㄹㅕㄴㅅㅗ	-12294
▁ㅊㅓㅇㄴㅕㄴㄷㅏㄴ	-12295
▁ㅌㅡㄱㅅㅏㄴㅁㅜㄹ	-12296
MI	-12297
riv	-12298
▁Act	-12299
aster	-12300
▁2023	-12301
▁ㄱㅐㄱㅅㅏ	-12302
▁ㄱㅡㅁㅎㅏ	-12303
▁ㅁㅣㄹㅅㅜ	-12304
▁ㅇㅠㄱㄹㅠ	-12305
▁ㅊㅏㄴㅅㅡ	-12306
▁ㅌㅡㄱㅍㅏ	-12307
▁ㅎㅐㅇㅈㅜ	-12308
▁ㅇㅗㄴㅇㅑㅇ	-12309
▁ㅇㅠㄴㅅㅏㅇ	-12310
▁ㅊㅣㅁㅊㅏㄱ	-12311
▁ㅎㅏㅁㅇㅣㄴ	-12312
▁ㄷㅗㅇㅂㅏㄴㅈㅏ	-12313
ㄱㅐㅇ	-12314
▁are	-12315
▁ㅆㅗㄹ	-12316
▁1802	-12317
ㄷㅣㄴㄱㅏ	-12318
▁Power	-12319
▁ㄱㅓㄴㅈㅣ	-12320
▁ㅃㅗㅂㅎㅣ	-12321
▁ㅊㅏㅇㅅㅏ	-12322
ㄱㅕㄱㅈㅓㄴ	-12323
ㅊㅗㄴㅁㅕㄴ	-12324
▁ㄱㅏㄴㅊㅓㄱ	-12325
▁ㄷㅗㄱㄷㅏㄴ	-12326
▁ㅇㅗㄱㅈㅜㅇ	-12327
▁ㅎㅕㄴㅇㅏㄴ	-12328
▁ㄷㅓㄱㅇㅑㅇㄱㅜ	-12329
▁VR	-12330
ates	-12331
▁Bel	-12332
▁ㄲㅗㄱㄷㅜ	-12333
▁ㅅㅓㄴㅈㅜ	-12334
▁ㅅㅡㅇㅍㅐ	-12335
▁ㅅㅣㄴㅌㅗ	-12336
ㄷㅗㅇㄱㅜㄱ	-12337
ㅅㅓㅇㄹㅛㅇ	-12338
ㅅㅜㄹㄹㅕㄱ	-12339
ㅈㅓㅇㅊㅐㄱ	-12340
ㅎㅕㄹㅂㅕㅇ	-12341
▁ㄱㅏㄴㅊㅓㅇ	-12342
▁ㅅㅏㄴㅎㅕㄴ	-12343
▁ㅈㅣㄴㅍㅗㄱ	-12344
▁ㅇㅝㄴㄷㅗㅇㄹㅕㄱ	-12345
▁TF	-12346
▁OEC	-12347
ㅅㅐㅁㅍㅡ	-12348
▁ㅂㅓㅂㅈㅜ	-12349
▁ㅎㅏㅁㅍㅗ	-12350
ㅁㅏㄴㄱㅡㅁ	-12351
▁ㄱㅡㅁㄷㅏㅇ	-12352
▁ㅅㅣㄱㅅㅐㅇ	-12353
▁ㅇㅑㅇㄱㅗㅇ	-12354
▁ㅇㅔㅇㄱㅔㄹ	-12355
▁ㅈㅓㄴㄱㅜㄴ	-12356
▁ㅈㅓㅇㅇㅜㄴ	-12357
▁ㅊㅓㅇㅇㅑㅇ	-12358
▁218	-12359
▁Che	-12360
▁ㅋㅘㄴ	-12361
ittle	-12362
▁1805	-12363
▁1824	-12364
ㄷㅡㅂㅈㅔ	-12365
▁ㅁㅏㄴㅎㅗ	-12366
▁ㅇㅠㄱㅈㅗ	-12367
▁ㅇㅣㅂㅅㅗ	-12368
▁ㅎㅗㄴㅈㅐ	-12369
▁ㅎㅗㅇㅁㅜ	-12370
ㅁㅜㄴㅇㅘㅇ	-12371
ㅈㅗㄱㄱㅘㄴ	-12372
▁ㄱㅕㅁㅅㅗㄴ	-12373
▁ㄱㅡㄴㅅㅣㅁ	-12374
▁ㄷㅏㅇㄱㅏㄴㅈㅣ	-12375
▁ㅅㅐㅇㅁㅜㄹㅊㅔ	-12376
▁ㅈㅓㅇㅎㅏㄴㄷㅏ	-12377
▁ㅋㅗㅁㅍㅡㄹㄹㅔㄱㅅㅡ	-12378
▁ha	-12379
▁325	-12380
▁512	-12381
▁777	-12382
▁ㄷㅐㄱ	-12383
▁ㅃㅐㄴ	-12384
ㅇㅡㅁㅍㅏ	-12385
▁ㄱㅗㅇㄱㅜ	-12386
▁ㅂㅕㄴㅇㅢ	-12387
ㄹㅡㄴㅅㅐㄱ	-12388
ㅊㅓㄴㅇㅡㅂ	-12389
ㅎㅐㅇㅇㅝㄴ	-12390
▁ㄱㅏㅁㅅㅗㄱ	-12391
▁ㄷㅗㄹㅍㅜㅇ	-12392
▁ㅅㅐㅇㄴㅕㄴ	-12393
▁ㅅㅣㄴㄱㅔㄴ	-12394
▁ㅅㅣㅁㅎㅕㄹ	-12395
▁ㅇㅘㅇㅁㅏㅇ	-12396
▁ㅇㅡㅁㄱㅡㄱ	-12397
▁ㅇㅣㅂㅅㅓㄴ	-12398
▁ㅈㅓㄴㅈㅐㅇㅌㅓ	-12399
▁ㅎㅗㅇㅅㅓㅇㄱㅜㄴ	-12400
ARD	-12401
ㅂㅕㅌ	-12402
▁501	-12403
ㄱㅕㅇㅈㅔ	-12404
ㅇㅏㄴㅅㅡ	-12405
ㅍㅕㅇㄷㅐ	-12406
▁ㄱㅏㄱㅅㅓ	-12407
▁ㅇㅡㅁㅅㅜ	-12408
▁ㅈㅏㄱㅎㅘ	-12409
▁ㅌㅏㄹㅂㅏ	-12410
ㄹㅗㅁㅇㅞㄹ	-12411
▁ㄹㅗㄱㅁㅐㄴ	-12412
▁ㅂㅐㄱㄱㅡㅁ	-12413
▁ㅇㅓㄺㅎㅣㄴ	-12414
▁ㅇㅡㄴㅅㅐㄱ	-12415
▁ㅈㅡㅇㅅㅓㄹ	-12416
▁ㅎㅕㄹㅇㅕㄴ	-12417
ㅂㅗㅁ	-12418
▁Ang	-12419
▁all	-12420
▁Just	-12421
▁YMCA	-12422
▁ㄱㅏㄴㅆㅜ	-12423
▁ㅁㅏㄴㄴㅔ	-12424
ㄷㅗㅇㅈㅣㄴ	-12425
▁ㄷㅏㄴㄴㅕㅁ	-12426
▁ㅈㅓㄴㅅㅏㄴㅁㅏㅇ	-12427
TO	-12428
▁TP	-12429
▁305	-12430
▁CNN	-12431
▁ㅎㅔㅁ	-12432
▁ㄴㅓㅁㄴㅏ	-12433
▁ㄷㅏㅇㅂㅜ	-12434
▁ㄷㅗㅇㅇㅜ	-12435
▁ㄹㅏㄹㅍㅡ	-12436
▁ㅂㅗㄴㄱㅏ	-12437
▁ㅇㅜㄹㄹㅏ	-12438
▁ㅇㅣㄴㅇㅓ	-12439
▁ㅈㅜㅇㄹㅠ	-12440
▁ㄱㅡㅁㅍㅜㅁ	-12441
▁ㄷㅗㄹㅈㅣㄴ	-12442
▁ㅈㅓㄴㄹㅠㄴ	-12443
ㅇㅔㄴㄴㅏㄹㄹㅔ	-12444
▁ㅁㅏㅈㅁㅜㄹㄹㅕ	-12445
▁ㅇㅗㄹㄹㅐㄴㄷㅗ	-12446
▁ㅇㅗㄹㄹㅣㄴㄷㅏ	-12447
▁ㅁㅜㄴㅇㅣㄴㅅㅓㄱ	-12448
▁LD	-12449
▁ㄲㅓㅂ	-12450
▁ㄷㅏㄴㅌㅔ	-12451
▁ㅂㅏㄱㅊㅏ	-12452
▁ㅅㅏㅇㅇㅏ	-12453
▁ㅅㅓㄴㄷㅏ	-12454
▁ㅅㅜㄴㅊㅣ	-12455
▁ㅅㅣㄴㄷㅏ	-12456
▁ㅇㅕㅇㅈㅔ	-12457
▁ㅈㅏㅇㅁㅗ	-12458
▁ㄱㅣㅁㅌㅐㄱ	-12459
▁ㄴㅓㄼㅈㅓㄱ	-12460
▁ㅁㅣㄴㅅㅐㅇ	-12461
▁ㅂㅏㄱㅊㅓㄹ	-12462
▁ㅂㅜㄴㄹㅣㅂ	-12463
▁ㅇㅖㄹㅊㅣㄴ	-12464
▁ㅈㅏㅇㅊㅜㅇ	-12465
▁ㅊㅗㅇㅅㅣㄴ	-12466
▁ㄷㅗㅇㅈㅏㄱㄱㅜ	-12467
▁ㅅㅣㄴㅅㅐㅇㅇㅏ	-12468
▁ㅇㅕㅇㅇㅕㄴㅂㅏㅇ	-12469
ape	-12470
▁Em	-12471
▁237	-12472
▁401	-12473
▁Ind	-12474
▁1775	-12475
ㄴㅏㄹㄷㅜ	-12476
ㄹㅣㄴㅌㅗ	-12477
▁ㄱㅣㅁㅈㅘ	-12478
▁ㄹㅗㄱㅅㅡ	-12479
▁ㅁㅏㄱㅂㅏ	-12480
▁ㅂㅓㄹㄹㅣ	-12481
▁ㅂㅗㄹㄱㅏ	-12482
▁ㅂㅜㄹㅇㅢ	-12483
▁ㅈㅓㄹㄱㅐ	-12484
▁ㄱㅣㅁㅇㅣㄱ	-12485
▁ㅇㅕㅇㅊㅏㅇ	-12486
▁ㅇㅣㄴㅂㅏㅇ	-12487
▁ㅈㅏㅂㅇㅡㅁ	-12488
▁ㅈㅜㅇㅊㅏㅇ	-12489
▁ㅍㅗㄱㅂㅏㄹㅁㅜㄹ	-12490
▁ㅎㅏㅁㅇㅏㄴㄱㅜㄴ	-12491
CO	-12492
ㄹㅍㅡ	-12493
▁303	-12494
▁ㅁㅔㄱ	-12495
ㄹㅐㅅㅂㅜ	-12496
ㄹㅜㄴㄷㅣ	-12497
ㅅㅡㅇㅎㅢ	-12498
▁ㄱㅗㅇㅈㅔ	-12499
▁ㅇㅡㅇㅁㅗ	-12500
▁ㅈㅓㄴㅌㅐ	-12501
▁ㅁㅜㄴㄱㅗㅇ	-12502
▁ㅅㅓㅇㄱㅕㄹ	-12503
▁ㅅㅗㅇㅈㅜㄴ	-12504
▁ㅇㅏㄹㄹㅣㄴ	-12505
▁ㅈㅓㄴㅂㅓㅂ	-12506
▁ㅈㅣㄴㅂㅓㅂ	-12507
▁ㅇㅞㅁㅂㅡㄹㄹㅣ	-12508
▁Pre	-12509
▁ㅍㅣㅂ	-12510
▁9000	-12511
▁OECD	-12512
▁ㄱㅕㅁㅂㅣ	-12513
▁ㄱㅣㄴㄲㅗ	-12514
▁ㄷㅗㅇㅈㅜ	-12515
▁ㅂㅓㅁㅎㅏ	-12516
ㄱㅓㄴㅊㅜㄱ	-12517
▁ㄱㅜㄹㄱㅗㄱ	-12518
▁ㄷㅗㅇㅊㅓㄴ	-12519
▁ㅂㅗㄱㄱㅓㄴ	-12520
▁ㅇㅗㄻㄱㅣㄹ	-12521
▁ㅈㅏㅇㅂㅏㅇ	-12522
▁ㅎㅏㄴㄴㅜㄴ	-12523
▁ㅈㅓㄴㅇㅛㅇㄷㅗ	-12524
▁ㅍㅐㄴㅋㅡㄹㄹㅓㅂ	-12525
ster	-12526
▁244	-12527
ㄴㅏㅁㅅㅣ	-12528
ㅅㅔㄹㄷㅗ	-12529
▁ㅁㅣㄴㄷㅏ	-12530
▁ㅅㅏㄴㄴㅗ	-12531
▁ㅈㅓㄴㅊㅣ	-12532
▁ㄱㅕㅇㅈㅣㄱ	-12533
▁ㅈㅏㅇㅂㅗㄴ	-12534
▁ㅎㅏㅂㅈㅜㅇㄱㅜㄱ	-12535
GE	-12536
▁Bu	-12537
▁di	-12538
▁Tim	-12539
▁Und	-12540
▁Who	-12541
▁ㅂㅗㅂ	-12542
▁ㅋㅕㄹ	-12543
▁ㄹㅐㄴㅅㅡ	-12544
▁ㅂㅏㄱㅎㅢ	-12545
▁ㅎㅘㅇㅁㅜ	-12546
ㄹㅡㅁㅇㅓㅄ	-12547
▁ㄱㅏㅇㅍㅏㄴ	-12548
▁ㅂㅕㅇㅈㅏㅇ	-12549
▁ㅅㅓㅇㅊㅏㄹ	-12550
▁ㅇㅕㅇㅎㅡㅇ	-12551
▁ㅈㅓㄴㄱㅏㄱ	-12552
▁ㅈㅓㅇㅅㅓㄱ	-12553
▁Records	-12554
ㅋㅟㄴ	-12555
▁RFC	-12556
▁ㅅㅛㄹ	-12557
▁1392	-12558
▁1808	-12559
ㅇㅜㄹㄱㅣ	-12560
▁ㄱㅜㅇㅇㅖ	-12561
▁ㄲㅡㅌㅁㅏ	-12562
▁ㄷㅏㅁㅇㅏ	-12563
▁ㅅㅏㅁㅁㅐ	-12564
▁ㅅㅏㅇㅂㅗ	-12565
▁ㅅㅗㄴㅇㅗ	-12566
▁ㅇㅐㅇㅁㅜ	-12567
▁ㅇㅛㅇㄷㅜ	-12568
▁ㅇㅡㄹㅁㅣ	-12569
▁ㅇㅣㄴㅂㅓ	-12570
▁ㅌㅣㄹㄹㅣ	-12571
ㅁㅏㄴㄱㅏㅇ	-12572
▁ㄱㅏㅇㅁㅣㄴ	-12573
▁ㄱㅕㄹㅈㅓㅁ	-12574
▁ㄱㅣㅁㅅㅜㄴ	-12575
▁ㄴㅏㄴㅇㅣㅂ	-12576
▁ㄷㅏㄴㅍㅜㅇ	-12577
▁ㅁㅏㄴㄹㅕㄱ	-12578
▁ㅁㅕㅇㄱㅗㄱ	-12579
▁ㅇㅑㅇㄷㅏㅇ	-12580
▁ㅅㅣㄹㅈㅗㅇㅈㅏ	-12581
▁ㅈㅜㅇㅇㅏㅇㄷㅏㅇ	-12582
ME	-12583
ari	-12584
▁Dav	-12585
▁Tri	-12586
▁ㄸㅐㄴ	-12587
ㅅㅂㅣㅊ	-12588
▁1807	-12589
▁AIDS	-12590
ㄹㅗㅂㅎㅣ	-12591
ㅋㅗㄴㅌㅣ	-12592
▁ㄱㅜㄴㄴㅐ	-12593
▁ㅁㅏㄴㅈㅣ	-12594
▁ㅁㅏㄹㅂㅓ	-12595
▁ㅂㅏㄴㅅㅣ	-12596
▁ㅂㅗㅁㅂㅏ	-12597
▁ㅇㅝㄴㄱㅓ	-12598
▁ㅊㅔㄹㄹㅣ	-12599
▁ㅍㅏㄴㅁㅜ	-12600
ㅈㅓㄱㅁㅜㄹ	-12601
▁ㅁㅕㅇㅅㅡㅇ	-12602
▁ㅁㅗㄱㅊㅜㄱ	-12603
▁ㅁㅣㄴㅂㅕㅇ	-12604
▁ㅂㅏㄴㅇㅝㄹ	-12605
▁ㅇㅡㅁㄱㅏㄱ	-12606
▁ㅈㅏㅂㅈㅗㅇ	-12607
▁ㅇㅠㄴㅅㅓㄴㄷㅗ	-12608
▁ㄱㅘㄴㄹㅏㅁㄱㅐㄱ	-12609
▁ㅈㅣㅇㅇㅕㄱㅎㅕㅇ	-12610
▁ㅎㅏㅇㄷㅡㅇㅅㅣㄱ	-12611
ATA	-12612
▁DE	-12613
ther	-12614
▁999	-12615
▁AEK	-12616
▁Ass	-12617
▁How	-12618
ㄷㅓㄱㅅㅏ	-12619
▁ㅂㅗㄹㄱㅓ	-12620
▁ㅅㅏㄴㅅㅔ	-12621
▁ㅇㅣㄴㅎㅘ	-12622
▁ㅈㅗㅇㅈㅗ	-12623
▁ㅈㅗㅇㅈㅣ	-12624
▁ㅉㅏㄱㅅㅏ	-12625
▁ㅂㅗㅇㅅㅡㅇ	-12626
▁ㅅㅓㄱㅊㅜㄱ	-12627
▁ㅈㅜㅇㄴㅕㄴ	-12628
▁ㅊㅜㅇㅈㅓㅇ	-12629
▁ㅎㅘㄹㄹㅕㄱ	-12630
oud	-12631
▁253	-12632
▁net	-12633
▁Fire	-12634
▁Mark	-12635
ㅎㅕㄴㄹㅣ	-12636
▁ㅂㅜㄴㅌㅜ	-12637
▁ㅊㅗㅇㅍㅏ	-12638
▁ㅊㅣㄴㄱㅛ	-12639
▁ㅍㅔㄹㄹㅏ	-12640
ㄱㅗㅂㄱㅡㄴ	-12641
▁ㅁㅜㄴㄹㅏㄴ	-12642
▁ㅂㅐㄱㅂㅓㅁ	-12643
▁ㅅㅓㄱㄱㅜㄹ	-12644
▁ㅌㅏㄴㅌㅏㄴ	-12645
▁ㅁㅗㅇㄱㅗㄹㅈㅗㄱ	-12646
▁ㅈㅜㅇㄹㅏㅇㅈㅏㅇ	-12647
▁KF	-12648
ㅊㅣㅅ	-12649
▁224	-12650
▁321	-12651
▁KAI	-12652
▁Real	-12653
ㄴㅏㄴㅎㅣ	-12654
ㅂㅏㄹㅇㅠ	-12655
ㅂㅗㅇㄱㅜ	-12656
ㅅㅔㄹㄹㅏ	-12657
ㅌㅠㄴㅈㅡ	-12658
▁ㄱㅕㄹㅂㅜ	-12659
▁ㅅㅏㅁㅇㅟ	-12660
▁ㅅㅐㄴㄷㅓ	-12661
▁ㅍㅗㄴㅌㅣ	-12662
▁ㅎㅘㅇㅈㅗ	-12663
ㄴㄷㅡㄹㄹㅓ	-12664
ㅂㅓㄹㄹㅣㄴ	-12665
ㅇㅣㅁㄱㅘㄴ	-12666
▁ㄱㅜㄴㅇㅕㄱ	-12667
▁ㄴㅏㅂㅂㅜㄱ	-12668
▁ㄷㅗㄹㄱㅝㄹ	-12669
▁ㅂㅏㅇㅁㅗㄱ	-12670
ㄹㅗㄹㄹㅣㅇㄱㅓ	-12671
▁ㅂㅏㄹㅅㅏㅇㅈㅣ	-12672
▁ㅈㅜㅇㄱㅜㄱㅅㅣㄱ	-12673
DR	-12674
ㄷㅕ	-12675
ㅅㅗㅅ	-12676
ited	-12677
▁ㄱㅐㄴ	-12678
▁ㅅㅞㄹ	-12679
ㄱㅓㄴㅈㅜ	-12680
ㄹㅣㄴㅇㅏ	-12681
ㅍㅔㄹㄹㅣ	-12682
▁Dance	-12683
▁ㄲㅓㅂㄷㅔ	-12684
▁ㅅㅗㄱㄱㅣ	-12685
▁ㅈㅣㅂㅅㅣ	-12686
ㄹㅜㅅㅂㅏㅁ	-12687
▁ㄱㅘㄴㅇㅣㅂ	-12688
▁ㄷㅟㅅㄴㅏㄹ	-12689
▁ㅂㅏㄱㅁㅕㅇ	-12690
▁ㅈㅓㄴㅇㅣㅁㅈㅏ	-12691
▁ㅅㅐㅇㅅㅏㄴㄹㅕㄱ	-12692
▁Fre	-12693
▁ㄲㅗㄴ	-12694
▁1834	-12695
▁ㄱㅣㄹㄱㅏ	-12696
▁ㄴㅏㄴㅂㅜ	-12697
▁ㅆㅏㅎㅇㅣ	-12698
▁ㅈㅏㅇㄷㅗ	-12699
▁ㅈㅣㄴㅇㅔ	-12700
ㅂㅜㄴㅂㅕㄹ	-12701
▁ㄱㅏㅇㅂㅏㄱ	-12702
▁ㄱㅕㅁㅎㅐㅆ	-12703
▁ㄱㅝㄴㅇㅕㅇ	-12704
▁ㄴㅏㅁㅁㅏㄴ	-12705
▁ㄴㅗㅍㅇㅣㄹ	-12706
▁ㅇㅕㄹㅈㅜㅇ	-12707
▁ㅊㅏㄴㅅㅗㅇ	-12708
▁ㅎㅐㅇㅈㅣㄴㄱㅗㄱ	-12709
▁ㅎㅗㅇㅊㅓㄴㄱㅜㄴ	-12710
▁IL	-12711
▁MK	-12712
ring	-12713
▁Air	-12714
▁Hol	-12715
ㄱㅏㄱㅅㅏ	-12716
ㅌㅔㄹㄹㅣ	-12717
▁ㄴㅏㄴㅂㅏ	-12718
▁ㄹㅏㄱㅅㅡ	-12719
▁ㅎㅐㅇㅊㅏ	-12720
ㄷㅐㅅㄱㅏㅄ	-12721
ㅅㅓㄴㅈㅗㄱ	-12722
▁ㅅㅗㄱㅂㅏㄱ	-12723
▁ㅅㅗㅇㅇㅕㅇ	-12724
▁ㅇㅕㄱㄱㅏㄴ	-12725
▁ㅈㅓㅇㅇㅕㄴ	-12726
▁ㅈㅣㄴㅇㅘㅇ	-12727
ㄱㅓㄴㅂㅗㄱㅈㅣ	-12728
▁ㅅㅏㅇㄹㅗㄱㅅㅜ	-12729
▁ㅅㅣㄴㅇㅏㅇㄱㅗ	-12730
▁ㅇㅘㄴㅅㅓㅇㄷㅗ	-12731
ㅇㅑㄱㅅㅓㅇㄱㅕㅇ	-12732
▁ㄱㅜㄱㄱㅕㅇㅅㅓㄴ	-12733
ㄴㅐㅁ	-12734
ning	-12735
▁263	-12736
▁940	-12737
▁Cal	-12738
▁ㄲㅜㅀ	-12739
Force	-12740
▁20200	-12741
▁ㄴㅗㅇㄴㅗ	-12742
▁ㅎㅗㅇㅈㅗ	-12743
ㄹㅏㅇㅋㅔㄴ	-12744
▁ㅅㅜㄴㅈㅓㄹ	-12745
▁ㅇㅡㅇㅊㅜㄱ	-12746
▁ㅈㅓㄴㄹㅕㅇ	-12747
▁ㅌㅡㄱㅈㅣㄴ	-12748
▁ㅍㅐㄴㄷㅓㅁ	-12749
▁ㅈㅓㅁㄹㅕㅇㅈㅣ	-12750
zy	-12751
▁ㄴㅘ	-12752
atur	-12753
▁ㅆㅣㅂ	-12754
▁ㅎㅣㅇ	-12755
other	-12756
▁Draw	-12757
ㅈㅏㅇㅇㅣ	-12758
ㅎㅐㅆㅇㅡ	-12759
▁ㄷㅏㅇㄱㅜ	-12760
▁ㅅㅑㄹㄹㅗ	-12761
▁ㅅㅣㄴㅅㅜ	-12762
ㅇㅡㅁㄱㅗㄱ	-12763
▁ㄱㅕㄱㄷㅗㄹ	-12764
▁ㅁㅜㄲㅇㅡㅁ	-12765
▁ㅁㅣㄴㅊㅓㅂ	-12766
▁ㅂㅗㄹㄹㅣㅇ	-12767
▁ㅇㅕㅆㅇㅡㅁㅇㅔ	-12768
bs	-12769
ook	-12770
▁KM	-12771
▁Si	-12772
▁245	-12773
▁1597	-12774
ㄷㅠㄹㄹㅓ	-12775
ㅈㅓㅇㅎㅢ	-12776
▁ㅅㅏㄴㅎㅜ	-12777
▁ㅇㅗㄴㄱㅔ	-12778
▁ㅇㅝㄴㅎㅗ	-12779
▁ㅇㅣㅂㅎㅚ	-12780
▁ㅈㅓㅇㅎㅖ	-12781
▁ㅋㅓㄴㅂㅓ	-12782
ㅇㅣㅁㄴㅔㅅ	-12783
ㅈㅗㄴㅅㅣㅁ	-12784
▁ㄴㅏㅁㅈㅣㄴ	-12785
▁ㄷㅡㄹㅍㅏㄴ	-12786
▁ㅈㅣㄴㅍㅕㅇ	-12787
▁ㅊㅣㅂㅅㅔㅅ	-12788
▁ㅍㅕㄴㅍㅕㅇ	-12789
▁ㅍㅜㅇㅅㅏㄴ	-12790
▁OG	-12791
ㄴㅔㅁ	-12792
▁265	-12793
▁UTC	-12794
▁imp	-12795
▁org	-12796
ㄹㅜㅁㅍㅜ	-12797
ㅈㅣㄴㄱㅏ	-12798
▁ㅂㅗㄹㄹㅔ	-12799
▁ㅈㅏㅇㅎㅘ	-12800
ㅁㅜㄴㅇㅝㄴ	-12801
▁ㅁㅜㄴㅎㅏㅇ	-12802
▁ㅈㅜㅇㄱㅜㄴ	-12803
▁ㅍㅏㄴㄷㅗㄱ	-12804
▁ㄴㅜㄴㄷㅗㅇㅈㅏ	-12805
▁ㄱㅗㅇㄱㅕㄱㄹㅕㄱ	-12806
OCA	-12807
ated	-12808
▁540	-12809
▁Pol	-12810
▁ㅉㅣㅁ	-12811
ㅌㅔㅁㅂㅔ	-12812
▁ㅁㅜㄴㄹㅣ	-12813
▁ㅂㅜㄹㅎㅓ	-12814
▁ㅍㅜㅁㄹㅠ	-12815
ㅉㅐㅆㄷㅡㄴ	-12816
▁ㄱㅗㅇㅇㅑㅇㅇㅘㅇ	-12817
ㅌㅖㄴ	-12818
▁530	-12819
▁Vis	-12820
ㄴㅐㅂㅅㅡ	-12821
ㅁㅔㄹㄹㅗ	-12822
▁ㄱㅘㅇㄱㅛ	-12823
▁ㅅㅔㄱㅅㅣ	-12824
▁ㅇㅐㄴㅌㅡ	-12825
▁ㅂㅏㄹㅁㅜㄴ	-12826
▁ㅅㅓㅇㅇㅕㄱ	-12827
▁ㅍㅐㄴㅌㅓㅁ	-12828
▁ㅍㅜㄹㄹㅓㅁ	-12829
▁ㅍㅜㄹㅂㅏㅌ	-12830
▁ㅇㅡㅁㅇㅏㄱㅅㅏㅇ	-12831
▁Ig	-12832
ㅂㅏㄲ	-12833
▁ㅌㅓㅁ	-12834
ㅌㅐㄴㄷㅓ	-12835
▁ㅁㅏㅇㅎㅏ	-12836
▁ㅁㅕㄴㅎㅘ	-12837
▁ㅈㅏㅇㅈㅜ	-12838
▁ㅎㅡㄱㅈㅏ	-12839
ㅅㅏㄴㅎㅏㅇ	-12840
ㅈㅏㅇㄹㅑㅇ	-12841
▁ㅅㅣㄱㅇㅡㅂ	-12842
▁ㅇㅟㅁㅂㅡㄹ	-12843
▁ㅈㅜㅇㄱㅕㅇ	-12844
▁ㅈㅣㄴㄴㅏㅁ	-12845
▁ㅎㅐㅅㅂㅕㅌ	-12846
▁ㅎㅗㅇㅂㅐㄱㄱㅏ	-12847
▁ㄷㅗㅇㅇㅕㄱㅎㅏㄱ	-12848
▁ㅂㅏㄱㅇㅝㄴㅅㅜㄴ	-12849
mas	-12850
▁;"	-12851
▁PV	-12852
ㄴㅣㅇㄱㅜ	-12853
ㄹㅔㄴㅌㅣ	-12854
ㅁㅗㄱㄱㅜ	-12855
▁ㄱㅘㄴㅂㅜ	-12856
▁ㅈㅣㄹㅇㅢ	-12857
▁ㅋㅓㄹㄹㅣ	-12858
▁ㅍㅜㅇㅎㅘ	-12859
ㅅㅓㄱㅂㅏㅇ	-12860
▁ㅅㅣㄱㄷㅏㄴ	-12861
▁ㅇㅑㅇㅌㅓㄹ	-12862
▁ㅇㅡㅇㅈㅣㅂ	-12863
▁ㅇㅣㅂㅅㅓㄱ	-12864
▁ㅈㅜㅇㅎㅏㄱ	-12865
▁ㅎㅔㄹㅁㅔㅅ	-12866
▁ㄱㅘㄴㄱㅗㅇㅅㅓ	-12867
▁ㄷㅏㄴㅇㅑㅇㄱㅜㄴ	-12868
▁ㅅㅓㄹㄷㅡㄱㄹㅕㄱ	-12869
▁ㅎㅐㅇㅂㅏㅇㅂㅜㄹㅁㅕㅇ	-12870
lt	-12871
▁BJ	-12872
▁ㄲㅐㅆ	-12873
▁ㅅㅖㅇ	-12874
▁Jour	-12875
ㄱㅗㅇㅍㅗ	-12876
▁ㄱㅣㅁㅎㅘ	-12877
▁ㄷㅓㅇㅊㅣ	-12878
▁ㄷㅗㅇㄹㅣ	-12879
▁ㅇㅏㄴㅅㅗ	-12880
▁ㅈㅣㄴㅈㅓ	-12881
▁ㅊㅓㅇㅎㅐ	-12882
▁ㅋㅣㅂㅊㅏ	-12883
▁ㅌㅡㄱㅂㅗ	-12884
▁ㅈㅓㄴㅇㅕㅇ	-12885
▁ㅎㅏㄱㄱㅘㄴ	-12886
▁ㅂㅗㄱㅅㅜㅇㅇㅏ	-12887
▁ㅇㅟㅁㅂㅡㄹㄷㅓㄴ	-12888
▁ㅊㅜㄹㅂㅏㄹㅈㅓㅁ	-12889
ㄷㅐㅇ	-12890
ield	-12891
▁Mer	-12892
▁def	-12893
▁ㅍㅕㅆ	-12894
▁City	-12895
ㄹㅓㅂㅌㅡ	-12896
ㅁㅔㄴㅌㅗ	-12897
ㅋㅓㅁㅍㅠ	-12898
▁Again	-12899
▁ㅂㅕㅇㅂㅜ	-12900
▁ㅅㅡㄹㄹㅐ	-12901
▁ㅇㅑㄱㅇㅓ	-12902
▁ㅇㅗㄱㄱㅗ	-12903
▁ㅇㅠㄱㅅㅏ	-12904
▁ㅈㅣㄱㄱㅜ	-12905
▁ㅊㅓㄹㅅㅐ	-12906
ㅌㅡㄷㄴㅏㄹ	-12907
▁ㄴㅗㄹㄹㅏㅂ	-12908
▁ㄸㅏㄱㅈㅓㅇ	-12909
▁ㅇㅑㅇㅇㅘㅇ	-12910
▁ㅂㅐㄹㄹㅓㄴㅅㅡ	-12911
▁311	-12912
▁ㅅㅔㅂ	-12913
ㅇㅝㄹㅈㅜ	-12914
ㅌㅐㄴㄷㅏ	-12915
▁ㅂㅏㄴㅌㅜ	-12916
▁ㅂㅏㄹㅂㅜ	-12917
▁ㅂㅕㄴㅌㅐ	-12918
▁ㅂㅣㅅㄷㅐ	-12919
▁ㅅㅜㄴㅎㅘ	-12920
▁ㅇㅔㄴㅅㅣ	-12921
▁ㅇㅝㄹㄱㅖ	-12922
▁ㅊㅣㄴㅎㅐ	-12923
▁ㅎㅐㅇㅋㅡ	-12924
ㅂㅕㅇㅊㅓㄹ	-12925
ㅌㅗㅇㄱㅏㅁ	-12926
▁ㄱㅏㅇㅌㅏㄹ	-12927
▁ㄱㅜㄹㄸㅜㄱ	-12928
▁ㅅㅏㄹㄹㅣㄴ	-12929
▁ㅇㅑㅇㄱㅏㄱ	-12930
▁ㅇㅡㄴㅊㅗㅇ	-12931
▁ㅎㅓㄴㅌㅣㅇ	-12932
▁ㅈㅓㅇㅇㅑㄱㅇㅛㅇ	-12933
▁ㅇㅕㄹㄹㅣㄴㅈㅣㅂㅎㅏㅂ	-12934
ㄴㅓㄱ	-12935
▁386	-12936
▁Now	-12937
▁mod	-12938
▁left	-12939
ㅅㅓㅇㅂㅜ	-12940
ㅈㅓㄱㅇㅡ	-12941
ㅍㅔㄹㄹㅏ	-12942
▁ㄱㅏㄹㄱㅗ	-12943
▁ㄱㅣㅁㅁㅣ	-12944
▁ㄲㅗㅊㄱㅏ	-12945
▁ㄴㅣㅅㅋㅗ	-12946
▁ㅅㅏㅇㅅㅙ	-12947
▁ㅅㅡㅇㅎㅘ	-12948
▁ㅎㅐㅇㅌㅐ	-12949
▁ㅅㅗㄱㅁㅕㅇ	-12950
▁ㅅㅣㄹㄹㅣㅇ	-12951
▁ㅈㅏㅁㄷㅡㄹ	-12952
▁ㅈㅓㄴㅇㅓㅂ	-12953
▁ㅈㅓㅇㅇㅕㄹ	-12954
▁ㅈㅗㅇㅇㅛㅇ	-12955
▁ㅌㅗㅇㅎㅐㅇㄹㅛ	-12956
▁ㅈㅓㅇㅅㅓㄴㄱㅜㄴ	-12957
any	-12958
ㄸㅗㅇ	-12959
▁Home	-12960
ㅇㅜㄴㅈㅣ	-12961
▁ㄱㅏㄱㅎㅏ	-12962
▁ㄱㅡㅂㅎㅏ	-12963
▁ㄹㅏㄹㄹㅣ	-12964
▁ㅅㅏㄴㅊㅗ	-12965
▁ㅇㅏㄴㅅㅏ	-12966
▁ㅇㅣㅇㅇㅓ	-12967
▁ㅍㅓㄴㅈㅏ	-12968
▁ㅍㅜㅇㅁㅣ	-12969
▁ㄴㅜㄴㅇㅏㅍ	-12970
▁ㅂㅗㅇㅊㅓㄴ	-12971
▁ㅇㅔㄹㄹㅏㅁ	-12972
▁ㅊㅗㅇㅁㅕㅇ	-12973
▁ㅌㅏㄹㅇㅗㄱ	-12974
▁ㅇㅕㄴㄲㅗㅊㅁㅜ	-12975
▁ㅊㅣㄹㄱㅗㄱㄱㅜㄴ	-12976
gy	-12977
▁OH	-12978
▁out	-12979
▁ㅈㅏㅅ	-12980
▁2600	-12981
ㄱㅏㄴㅍㅛ	-12982
ㄷㅔㄴㅇㅓ	-12983
▁ㄱㅏㄹㄷㅐ	-12984
▁ㄷㅓㅇㅅㅑ	-12985
▁ㄹㅓㄴㅌㅏ	-12986
▁ㅇㅣㅁㅊㅏ	-12987
▁ㅈㅣㄴㅁㅜ	-12988
▁ㅎㅣㄱㅅㅡ	-12989
ㄷㅗㅇㅎㅏㄴ	-12990
ㅇㅓㅁㄹㅕㅇ	-12991
ㅎㅚㄱㅇㅏㄴ	-12992
▁ㄱㅏㅁㅎㅕㅇ	-12993
▁ㄴㅗㄹㄹㅏㄴ	-12994
▁ㄷㅏㄴㄹㅏㄱ	-12995
▁ㄷㅏㄴㅅㅓㅇ	-12996
▁ㅂㅏㄱㅇㅡㄴ	-12997
▁ㅅㅓㅇㅅㅣㅁ	-12998
▁ㅇㅣㄹㅅㅣㄴ	-12999
▁ㅊㅐㄱㅅㅏㅇ	-13000
▁ㅎㅏㄱㅅㅣㄱ	-13001
▁ㄱㅗㅇㅎㅏㄱㅂㅜ	-13002
▁ㄷㅗㅇㅇㅣㄴㅈㅣ	-13003
▁ㅅㅓㅇㅎㅐㅇㅇㅟ	-13004
▁ㅅㅏㄴㅊㅓㅇㄱㅜㄴ	-13005
▁UD	-13006
▁gr	-13007
▁Ber	-13008
▁ㅂㅓㅂㄷㅐ	-13009
▁ㅂㅜㄴㄱㅜ	-13010
▁ㅇㅏㄴㅈㅣ	-13011
▁ㅈㅣㄴㅈㅏ	-13012
▁ㅉㅣㅈㅇㅓ	-13013
▁ㅊㅐㄱㅈㅏ	-13014
▁ㅍㅣㄹㅈㅡ	-13015
▁ㄱㅏㄴㅌㅐㄱ	-13016
▁ㅅㅓㅇㅎㅗㄴ	-13017
▁ㅎㅏㄴㅇㅣㄹ	-13018
▁ㄸㅏㄱㅈㅓㅇㅂㅓㄹㄹㅔ	-13019
▁NO	-13020
▁ㅉㅓ	-13021
▁Ver	-13022
▁ㄴㅜㅁ	-13023
▁ㅃㅗㅇ	-13024
▁ㅊㅐㄴ	-13025
▁1816	-13026
▁1833	-13027
ㄱㅗㅁㅈㅏ	-13028
ㅅㅔㄴㅌㅣ	-13029
ㅇㅣㄴㅎㅏ	-13030
▁ㅇㅝㄴㅍㅣ	-13031
▁ㅈㅣㅂㄱㅔ	-13032
▁ㅋㅏㄴㄴㅏ	-13033
ㅅㅓㅇㅇㅣㄴ	-13034
▁ㅂㅏㄱㅎㅕㄴ	-13035
▁ㅇㅣㅁㅂㅏㄱ	-13036
▁ㅋㅐㅂㅋㅗㅁ	-13037
▁ㅍㅕㅇㅅㅏㄴ	-13038
▁ㅎㅏㄴㅅㅏㅇ	-13039
▁ㅎㅐㅇㅎㅐㅆ	-13040
▁ㅇㅝㄴㅈㅏㄱㅈㅏ	-13041
▁ㅁㅕㅇㅁㅗㄱㅅㅏㅇ	-13042
▁ㅂㅏㄱㅈㅜㅇㅇㅑㅇ	-13043
ㅍㅣㅅ	-13044
work	-13045
▁Fri	-13046
▁1787	-13047
ㄱㅏㄴㄷㅡ	-13048
▁ㅂㅕㄴㅈㅔ	-13049
▁ㅈㅓㄴㅊㅗ	-13050
▁ㅎㅏㅂㅎㅐ	-13051
ㅈㅣㄴㄷㅗㅇ	-13052
ㅈㅣㄴㄹㅕㄱ	-13053
▁ㄷㅏㅇㅅㅏㄴ	-13054
▁ㅁㅏㄹㄱㅏㄹ	-13055
▁ㅂㅜㄹㅂㅏㄹ	-13056
▁ㅂㅣㅇㅍㅏㄴ	-13057
▁ㅎㅏㅇㅂㅓㅂ	-13058
▁ㅂㅜㅌㅇㅣㄴㄷㅏ	-13059
▁ㅇㅕㅇㅊㅓㄴㅅㅣ	-13060
ek	-13061
▁AW	-13062
▁Sn	-13063
▁Wr	-13064
ㅆㅡㄴ	-13065
▁680	-13066
▁Fun	-13067
▁1818	-13068
ㄱㅕㄹㅅㅏ	-13069
▁ㅂㅏㅇㅍㅏ	-13070
▁ㅍㅏㄴㅎㅘ	-13071
ㅍㅗㄹㄹㅗㄴ	-13072
▁ㄱㅡㅂㅅㅣㄱ	-13073
▁ㅁㅕㅇㅈㅏㄱ	-13074
▁ㅍㅜㅇㄹㅕㄱ	-13075
▁ㅍㅜㅇㅅㅓㄴ	-13076
▁ㅈㅓㄱㄱㅏㄹㅅㅐㄱ	-13077
▁ㅈㅓㄴㅎㅘㄴㅈㅓㅁ	-13078
▁ㅈㅣㄴㅇㅏㄴㄱㅜㄴ	-13079
lin	-13080
▁Hz	-13081
ling	-13082
▁262	-13083
▁Die	-13084
ㄷㅗㄴㄴㅏ	-13085
ㅈㅓㄹㅈㅔ	-13086
ㅌㅣㄹㄷㅏ	-13087
▁Techn	-13088
▁ㅁㅗㅇㅋㅣ	-13089
▁ㅈㅣㅂㅁㅜ	-13090
ㅇㅕㄴㅅㅓㄱ	-13091
ㅇㅘㅇㅅㅓㅇ	-13092
ㅈㅓㄴㅊㅜㄱ	-13093
▁ㄷㅏㄹㅂㅣㅊ	-13094
▁ㅂㅕㅇㅊㅏㅁ	-13095
▁ㅅㅓㅇㅇㅏㄴ	-13096
▁ㅈㅜㅇㅇㅏㅇㅇㅠ	-13097
▁ㅊㅓㅇㄹㅑㅇㄹㅣ	-13098
▁ㄱㅣㅁㅇㅝㄴㅂㅗㅇ	-13099
▁ㅍㅕㅇㅇㅑㅇㅅㅓㅇ	-13100
yp	-13101
inc	-13102
vil	-13103
▁560	-13104
ㄱㅏㅇㄷㅗ	-13105
▁ㄱㅏㅇㅌㅐ	-13106
▁ㅇㅝㄴㄹㅠ	-13107
▁ㅎㅜㅁㅊㅣ	-13108
ㄱㅘㄴㅊㅏㄹ	-13109
▁ㄴㅜㄴㄱㅣㄹ	-13110
▁ㅅㅣㅁㅂㅗㄱ	-13111
▁ㅇㅝㄴㄱㅘㅇ	-13112
▁ㅇㅣㄴㅇㅘㅇ	-13113
▁ㅊㅣㄴㄱㅡㄴ	-13114
▁ㅍㅕㅇㅇㅗㄴ	-13115
▁ㅎㅏㄴㅎㅏㄱ	-13116
ㅋㅏㅁ	-13117
itch	-13118
▁ㅅㅚㄴ	-13119
ouble	-13120
ㅂㅏㄴㅅㅡ	-13121
▁ㅎㅘㄴㅎㅗ	-13122
ㄱㅗㅇㄱㅕㄱ	-13123
ㄷㅗㄱㅅㅓㅇ	-13124
▁ㄴㅏㄱㅇㅝㄴ	-13125
▁ㅁㅏㄱㅁㅏㄹ	-13126
▁ㅂㅐㄱㅎㅏㅂ	-13127
▁ㅇㅑㅇㅁㅕㅇ	-13128
▁ㅈㅓㅇㅎㅏㄹ	-13129
▁ㅋㅡㄹㄹㅐㄴ	-13130
▁ㄱㅕㄹㄹㅗㄴㅈㅣ	-13131
▁ㅈㅜㅇㄱㅕㄴㅅㅜ	-13132
ㅌㅗㅇㄹㅕㅇㄹㅕㅇ	-13133
▁ㅅㅣㄴㄱㅕㅇㅁㅏㅇ	-13134
▁ㅇㅡㅁㅇㅜㄴㄹㅗㄴ	-13135
MC	-13136
apan	-13137
▁333	-13138
▁MLS	-13139
ㅁㅐㄴㄷㅡ	-13140
ㅇㅏㄴㄷㅔ	-13141
▁ㄱㅡㄹㅆㅡ	-13142
▁ㅂㅏㄹㅊㅏ	-13143
▁ㅇㅓㅁㅎㅗ	-13144
▁ㅇㅛㅇㅁㅗ	-13145
▁ㅎㅏㅂㅅㅔ	-13146
▁ㅎㅡㄹㄹㅕ	-13147
ㅎㅐㅇㄹㅕㅇ	-13148
▁ㄱㅣㅁㄴㅏㅁ	-13149
▁ㅂㅏㄴㄴㅕㄴ	-13150
▁ㅂㅏㅇㅈㅣㄱ	-13151
▁ㅂㅏㅇㅈㅣㄴ	-13152
▁ㅂㅣㄹㄹㅓㅁ	-13153
▁ㅊㅓㄹㄱㅏㅂ	-13154
▁ㅍㅕㅇㄷㅏㄴ	-13155
▁ㄱㅏㄴㄷㅏㅁㅎㅚ	-13156
▁ㅅㅐㅇㄱㅕㅆㅇㅡ	-13157
▁ㅅㅓㅇㅈㅏㅇㄹㅠㄹ	-13158
ㅌㅐㅂ	-13159
ress	-13160
▁Swe	-13161
▁ㅃㅓㄹ	-13162
ㅊㅜㅇㅅㅏ	-13163
▁ㄴㅣㄹㅅㅡ	-13164
▁ㄷㅏㄴㄷㅏ	-13165
▁ㅁㅕㄴㅊㅣ	-13166
▁ㅅㅏㄴㄱㅐ	-13167
▁ㅅㅣㅁㄷㅗ	-13168
ㅂㅜㄴㅂㅓㅂ	-13169
▁ㄱㅏㄴㄱㅡㄱ	-13170
▁ㄴㅜㄴㅆㅓㅂ	-13171
▁ㅅㅡㅂㅈㅏㄱ	-13172
▁ㅇㅏㄹㄹㅣㅁ	-13173
▁ㅇㅣㅂㅂㅏㅇ	-13174
▁ㅈㅏㅇㄷㅗㅇ	-13175
▁ㅎㅘㄴㄱㅏㄱ	-13176
▁ㅈㅣㄱㅅㅓㄴㅈㅔ	-13177
▁ㅎㅘㅇㄱㅡㅁㄱㅣ	-13178
▁ㄱㅡㄱㄹㅏㄱㅈㅓㄴ	-13179
▁ㅂㅜㄹㅁㅕㅇㅎㅘㄱ	-13180
ㅂㅌㅣ	-13181
ㄷㅔㄹㅂㅔ	-13182
ㅅㅏㅇㅂㅜ	-13183
▁ㅁㅐㄱㄹㅏ	-13184
▁ㅇㅝㄴㅊㅗ	-13185
▁ㅈㅓㅁㅈㅏ	-13186
▁ㅍㅕㄴㄷㅐ	-13187
ㅇㅜㄹㄹㅣㅁ	-13188
ㅈㅏㄱㅈㅓㅁ	-13189
▁ㄱㅕㄱㅂㅜㄴ	-13190
▁ㅁㅏㄹㅇㅕㅂ	-13191
▁ㅅㅕㄹㄹㅗㄱ	-13192
▁ㅍㅐㄹㅋㅓㄴ	-13193
▁ㄱㅘㅇㅅㅏㄴㄱㅜ	-13194
▁ㄱㅜㄱㅁㅣㄴㄷㅐ	-13195
▁ㅁㅜㄴㅎㅏㄱㅂㅜ	-13196
▁ㄱㅕㅇㄷㅓㄱㅇㅘㅇ	-13197
▁ㅎㅏㄱㅅㅜㄹㅇㅝㄴ	-13198
▁ㅎㅏㄴㄱㅜㄱㅈㅓㄴㄹㅕㄱ	-13199
▁HR	-13200
▁Nt	-13201
▁Moon	-13202
ㄸㅏㅇㅎㅣ	-13203
ㅇㅜㄴㅅㅏ	-13204
▁Group	-13205
▁ㄱㅕㅇㅋㅙ	-13206
▁ㄷㅗㅇㄱㅡ	-13207
▁ㅁㅜㄴㅇㅢ	-13208
▁ㅂㅓㅂㅅㅏ	-13209
▁ㅋㅗㅂㅌㅡ	-13210
▁ㅍㅗㄹㄷㅡ	-13211
▁ㅎㅏㄱㅁㅜ	-13212
▁ㄱㅕㅇㅇㅘㅇ	-13213
▁ㅂㅐㄱㄹㅕㄴ	-13214
▁ㅂㅣㅇㅅㅏㅇ	-13215
▁ㅇㅕㄱㅇㅣㄴ	-13216
▁ㅈㅏㅇㄱㅗㅇ	-13217
▁ㅁㅗㅇㄱㅗㄹㅇㅓ	-13218
▁ㅇㅘㄴㅂㅕㄱㅎㅣ	-13219
▁ㄷㅏㅇㅂㅜㄴㄱㅏㄴ	-13220
▁ㅂㅜㄹㅇㅏㄴㄱㅏㅁ	-13221
▁ㅇㅕㅇㄱㅘㅇㄱㅜㄴ	-13222
reet	-13223
▁313	-13224
▁Cre	-13225
▁Soc	-13226
▁ㄴㅔㅂ	-13227
▁ㅉㅜㄱ	-13228
▁Enter	-13229
▁ㅁㅣㅌㅂㅏ	-13230
▁ㅅㅣㄹㅁㅏ	-13231
▁ㅇㅕㅇㄱㅏ	-13232
▁ㅎㅗㄴㅅㅜ	-13233
ㄹㅗㄱㅁㅜㄹ	-13234
ㅌㅡㄹㄹㅣㄴ	-13235
▁ㅅㅏㅇㅈㅓㄴ	-13236
▁ㅅㅣㄴㅅㅣㄱ	-13237
▁ㅇㅠㄱㅇㅏㄴ	-13238
▁ㅈㅓㅇㅇㅐㄱ	-13239
▁ㅊㅓㄴㅅㅓㅇ	-13240
▁ㅎㅐㅇㄱㅏㄱ	-13241
▁ㅎㅗㅇㅈㅜㄴ	-13242
▁fe	-13243
ㄲㅘㅇ	-13244
ival	-13245
▁ㄱㅡㄺ	-13246
ㅂㅏㄹㄷㅣ	-13247
ㅅㅣㄴㄷㅏ	-13248
▁ㅁㅐㅇㅈㅏ	-13249
▁ㅁㅣㄴㅋㅗ	-13250
▁ㅂㅗㄹㅅㅡ	-13251
▁ㅅㅣㄱㅅㅜ	-13252
▁ㅇㅝㄴㅇㅓ	-13253
▁ㅎㅏㄴㅇㅜ	-13254
ㄹㅠㄱㄱㅜㄴ	-13255
▁ㄱㅡㅁㅈㅓㅇ	-13256
▁ㄷㅗㄱㅎㅏㄱ	-13257
▁ㅂㅗㄴㅈㅓㄱ	-13258
▁ㅂㅣㄴㅎㅕㄹ	-13259
▁ㅅㅣㄴㅊㅜㄴ	-13260
▁ㅇㅣㅁㅇㅕㅇ	-13261
▁ㅋㅏㄹㄴㅏㄹ	-13262
▁ㄱㅘㅇㅇㅑㅇㅅㅣ	-13263
▁VL	-13264
ㄸㅗㄱ	-13265
▁PSP	-13266
▁1780	-13267
▁SEED	-13268
▁Team	-13269
ㅌㅓㄹㄹㅜ	-13270
▁First	-13271
▁ㄱㅣㅁㅅㅏ	-13272
▁ㄴㅏㄴㅎㅐ	-13273
▁ㄴㅏㅆㅇㅡ	-13274
▁ㅂㅓㄴㄱㅏ	-13275
▁ㅇㅑㅇㅌㅐ	-13276
▁ㅇㅕㄴㅈㅔ	-13277
▁ㅎㅚㅇㅍㅗ	-13278
ㅇㅛㅇㄱㅜㄴ	-13279
ㅈㅏㄱㄴㅗㅇ	-13280
ㅈㅜㅇㅇㅏㅇ	-13281
▁ㄱㅐㅅㅂㅓㄹ	-13282
▁ㄴㅜㄴㄱㅡㅁ	-13283
▁ㅅㅗㄱㄱㅗㄱ	-13284
▁ㅇㅛㅇㄷㅏㅁ	-13285
▁ㅇㅣㄱㅎㅕㅆ	-13286
▁ㅈㅓㄴㄱㅡㄴ	-13287
▁ㅈㅓㅇㅁㅗㅇ	-13288
▁ㅈㅣㄴㅅㅏㄴ	-13289
▁ㅌㅗㅇㅎㅏㄱ	-13290
▁ㅎㅡㅇㄱㅜㄱ	-13291
▁ㅂㅓㅂㅅㅏㅇㅈㅗㅇ	-13292
▁ㅇㅔㅁㅂㅡㄹㄹㅓㅁ	-13293
ECT	-13294
ㄴㅜㅅ	-13295
ㅇㅗㅁ	-13296
▁SAR	-13297
▁Sil	-13298
▁1453	-13299
▁1778	-13300
ㄱㅏㄴㄱㅗ	-13301
ㅂㅕㄴㅅㅏ	-13302
ㅈㅓㄴㅅㅓ	-13303
▁Stage	-13304
▁ㅇㅑㅇㄱㅣ	-13305
▁ㅈㅗㅇㅇㅟ	-13306
▁ㅂㅏㄴㅉㅏㄱ	-13307
▁ㅇㅕㅂㄹㅗㄱ	-13308
▁ㅇㅜㄴㅁㅜㄴ	-13309
▁ㅇㅝㄴㄱㅕㅇ	-13310
▁ㅈㅗㅇㅂㅕㄹ	-13311
▁ㅎㅡㄱㅇㅕㄴ	-13312
▁ㅅㅗㄱㅇㅣㅁㅅㅜ	-13313
▁ㅎㅜㄴㄹㅕㄴㅈㅏㅇ	-13314
ino	-13315
▁ㄲㅘㄱ	-13316
▁1763	-13317
▁Happ	-13318
▁poem	-13319
ㄴㅑㅇㄱㅐ	-13320
ㄹㅣㅁㄹㅣ	-13321
▁ㄱㅗㄱㅅㅏ	-13322
▁ㅁㅗㅇㄱㅜ	-13323
▁ㅇㅝㄴㄱㅜ	-13324
ㅅㅣㄴㅎㅕㅇ	-13325
ㅈㅏㅇㅇㅏㅁ	-13326
ㅊㅣㅁㅂㅏㄴ	-13327
▁ㄱㅓㅁㅇㅕㄱ	-13328
▁ㅂㅏㄴㅅㅗㅇ	-13329
▁ㅇㅏㄱㅎㅏㄴ	-13330
▁ㅈㅓㄴㅍㅕㄴ	-13331
▁ㅊㅓㄴㅇㅓㄱ	-13332
▁ㅋㅡㄹㄹㅐㅂ	-13333
▁ㄱㅏㅇㄱㅕㅇㅍㅏ	-13334
▁ㅇㅡㅇㅇㅝㄴㄱㅏ	-13335
PG	-13336
▁ㅌㅜㄱ	-13337
▁1817	-13338
▁1825	-13339
ㅉㅣㄹㄹㅓ	-13340
ㅊㅏㄹㅅㅏ	-13341
ㅊㅔㄹㄹㅣ	-13342
ㅊㅗㅇㅈㅐ	-13343
▁ㄱㅜㄴㅇㅢ	-13344
▁ㄱㅣㄹㄹㅣ	-13345
▁ㄲㅏㄹㄹㅕ	-13346
▁ㄹㅏㅁㄷㅏ	-13347
▁ㅎㅏㄹㄹㅔ	-13348
ㄱㅗㄱㅈㅓㄹ	-13349
ㄹㅛㅇㅅㅏㄴ	-13350
ㅂㅏㅇㄱㅘㅇ	-13351
ㅅㅓㅇㅈㅏㅇ	-13352
ㅇㅣㄹㅈㅓㅁ	-13353
▁Little	-13354
▁ㄷㅗㅇㄱㅜㅇ	-13355
▁ㅂㅓㅁㅈㅗㅇ	-13356
▁ㅅㅣㅁㄱㅕㅇ	-13357
▁ㅇㅘㄴㄱㅏㅇ	-13358
▁ㅇㅣㄴㅁㅗㄱ	-13359
▁ㅈㅘㅇㅈㅗㄱ	-13360
▁ㅎㅏㅇㄷㅡㅇ	-13361
▁ㄱㅏㅇㅇㅕㄴㅎㅚ	-13362
▁ㄱㅣㅁㅎㅗㅇㅈㅣㅂ	-13363
▁ㅅㅐㅇㅅㅏㄴㅁㅜㄹ	-13364
▁ㅅㅓㄴㅇㅣㄴㅈㅏㅇ	-13365
▁ㅎㅡㄴㄷㅡㄹㄹㅣㅁ	-13366
ze	-13367
err	-13368
ope	-13369
ves	-13370
ㄹㅏㅎ	-13371
▁Dig	-13372
▁Pet	-13373
▁ㅎㅗㅌ	-13374
ㄱㅏㄱㄱㅣ	-13375
ㄱㅓㄴㅅㅡ	-13376
ㅂㅕㄹㅊㅗ	-13377
▁Album	-13378
▁ㅁㅐㄱㄱㅡ	-13379
▁ㅅㅓㅁㄴㅔ	-13380
▁ㅇㅕㄹㄴㅕ	-13381
ㅅㅏㅇㄱㅡㅂ	-13382
▁ㄱㅜㄱㄱㅝㄴ	-13383
▁ㄲㅡㅌㄴㅐㄴ	-13384
▁ㅁㅏㄴㅎㅐㅇ	-13385
▁ㅅㅏㅇㅎㅏㄱ	-13386
▁ㅅㅓㅇㄱㅜㄴ	-13387
▁ㅅㅣㄴㄱㅕㄱ	-13388
▁ㅇㅜㄹㅊㅏㅇ	-13389
▁ㅈㅡㄱㅅㅓㄱ	-13390
ㅇㅕㅁㅂㅏㄱㅈㅟ	-13391
▁ㄱㅘㄴㅂㅏㄱㅈㅟ	-13392
▁ㄱㅘㄴㅊㅡㄱㅅㅗ	-13393
▁ㄱㅘㄴㅊㅡㄱㅈㅏ	-13394
▁ㄱㅡㅁㅈㅓㅇㄱㅜ	-13395
▁ㅈㅓㄱㅎㅕㄹㄱㅜ	-13396
▁ㅂㅐㄱㅎㅕㄹㅂㅕㅇ	-13397
ha	-13398
oom	-13399
▁ed	-13400
ican	-13401
ㄹㅔㄴㅂㅜ	-13402
▁ㄱㅗㅇㅇㅟ	-13403
▁ㅅㅣㅁㅊㅟ	-13404
▁ㅇㅑㅇㅎㅘ	-13405
▁ㅌㅓㅇㅅㅡ	-13406
▁ㅍㅓㅁㅇㅞ	-13407
▁ㄱㅣㅁㅊㅓㄹ	-13408
▁ㅅㅓㄴㅈㅓㄱ	-13409
▁ㅈㅓㅇㅈㅜㄴ	-13410
▁ㅈㅣㄴㄷㅏㄹ	-13411
▁ㅊㅏㅁㄱㅘㄴ	-13412
▁ㅍㅕㄴㄱㅘㅇ	-13413
▁ㅂㅏㅇㅌㅏㄴㅅㅗ	-13414
▁ㅇㅑㅇㅅㅓㅇㅅㅗ	-13415
▁ㅋㅗㄴㅋㅡㄹㄹㅏ	-13416
▁ㅅㅏㅇㅅㅏㅇㄹㅕㄱ	-13417
ely	-13418
ike	-13419
▁MI	-13420
▁323	-13421
▁part	-13422
ㄹㅓㄴㄷㅡ	-13423
ㄹㅡㅂㅆㅡ	-13424
ㅇㅏㄴㅌㅏ	-13425
ㅎㅏㄱㅎㅚ	-13426
▁ㄴㅏㅂㅅㅔ	-13427
▁ㅂㅗㅇㅌㅗ	-13428
▁ㅅㅗㅇㅅㅜ	-13429
▁ㅅㅣㄹㄹㅔ	-13430
▁ㅌㅗㅇㅅㅜ	-13431
ㅅㅓㅇㅂㅜㄴ	-13432
▁ㄷㅗㅇㅅㅓㄴ	-13433
▁ㅂㅏㄴㅊㅣㄱ	-13434
▁ㅈㅓㄴㄷㅡㅇ	-13435
▁ㅁㅜㄹㅂㅕㅇㅈㅏ	-13436
▁ㅅㅓㅇㅈㅏㅇㄱㅣ	-13437
▁ㅅㅣㄴㄱㅏㄴㅎㅚ	-13438
▁ㅈㅣㅂㅈㅓㄱㅎㅚ	-13439
yc	-13440
ㅃㅣ	-13441
get	-13442
ler	-13443
ㄴㅡㅁ	-13444
▁1593	-13445
▁2024	-13446
▁ㅁㅜㄴㅎㅗ	-13447
▁ㅈㅜㄴㅇㅣ	-13448
▁ㄱㅗㄱㅅㅓㅇ	-13449
▁ㄱㅘㄴㄹㅣㅂ	-13450
▁ㄴㅗㄱㅎㅜㄴ	-13451
▁ㅅㅓㅇㅅㅣㄴ	-13452
▁ㅅㅜㄴㅇㅡㅇ	-13453
▁ㅇㅕㄹㅎㅕㄹ	-13454
▁ㅇㅕㅇㄱㅗㅇ	-13455
▁ㄱㅣㅁㅈㅓㅇㅎㅢ	-13456
yr	-13457
ESA	-13458
ird	-13459
▁229	-13460
▁var	-13461
ㄱㅜㄴㅈㅜ	-13462
ㅋㅝㄴㅅㅡ	-13463
▁ㄱㅓㄴㄷㅡ	-13464
▁ㄴㅏㅁㄷㅗ	-13465
▁ㅂㅕㅇㅅㅔ	-13466
ㅇㅜㄹㅇㅕㄱ	-13467
ㅌㅡㄹㄹㅏㄴ	-13468
▁ㄱㅗㅇㄹㅗㄴ	-13469
▁ㄴㅏㄱㄱㅘㄴ	-13470
▁ㅂㅏㄱㅅㅜㄴ	-13471
▁ㅇㅑㅇㅈㅣㄹ	-13472
▁ㅇㅣㅁㅅㅓㅇ	-13473
▁ㅌㅣㅁㅇㅝㄴ	-13474
▁ㅈㅓㅇㅅㅏㅇㅂㅜ	-13475
▁ㅂㅏㄴㅎㅕㄱㅁㅕㅇ	-13476
ts	-13477
▁TE	-13478
▁TCP	-13479
ㅇㅑㄱㅈㅏ	-13480
▁ㄱㅏㅇㄱㅣ	-13481
▁ㄱㅜㄹㄹㅣ	-13482
▁ㅂㅣㅇㄱㅡ	-13483
▁ㅇㅡㅁㄱㅖ	-13484
ㄹㅗㅂㅎㅣㅁ	-13485
ㅈㅓㄴㅅㅓㄹ	-13486
▁ㅇㅏㄱㅇㅛㅇ	-13487
▁ㅇㅑㅇㄱㅘㅇ	-13488
▁ㅇㅕㄱㅈㅓㄱ	-13489
▁ㅇㅕㄴㄱㅕㅇ	-13490
▁ㅇㅣㅂㅎㅣㄴ	-13491
▁ㅊㅗㅇㅌㅏㄴ	-13492
▁function	-13493
▁ㅎㅗㅇㅈㅜㄴㅍㅛ	-13494
▁ㄴㅏㅁㅂㅜㄱㅎㅏㄴ	-13495
▁ㅅㅗㅇㅈㅜㄴㄱㅣㄹ	-13496
AND	-13497
▁If	-13498
▁1788	-13499
ㅁㅜㅅㄱㅏ	-13500
▁Never	-13501
▁ㄱㅘㅇㄱㅐ	-13502
▁ㄴㅗㄱㅈㅗ	-13503
▁ㅁㅏㄱㅅㅏ	-13504
▁ㅁㅏㅇㄹㅏ	-13505
▁ㅂㅜㄱㅈㅜ	-13506
▁ㅅㅔㄹㄹㅣ	-13507
▁ㅇㅟㅅㅅㅜ	-13508
▁ㅊㅏㅁㅇㅡ	-13509
▁ㅎㅘㅇㅌㅗ	-13510
▁Summer	-13511
▁ㄷㅗㅇㄱㅏㅇ	-13512
▁ㅈㅓㅂㄱㅕㄴ	-13513
▁ㅈㅓㄴㅂㅗㅇㅈㅜㄴ	-13514
uman	-13515
▁OFC	-13516
▁RAM	-13517
ㅅㅓㄴㅇㅓ	-13518
ㅇㅓㅂㅂㅣ	-13519
▁ㅂㅏㄴㅈㅔ	-13520
▁ㅇㅑㄱㅊㅗ	-13521
▁ㅇㅘㄴㅍㅐ	-13522
▁ㅇㅛㅇㅎㅗ	-13523
▁ㅇㅞㅂㅅㅡ	-13524
▁ㅇㅣㅁㅇㅗ	-13525
▁ㅈㅡㅇㅂㅗ	-13526
▁ㅋㅕㄹㄹㅔ	-13527
▁ㅎㅜㄴㄱㅜ	-13528
ㅅㅐㄱㅂㅣㅊ	-13529
▁ㄲㅡㄴㅈㅣㄹ	-13530
▁ㅁㅏㄴㅇㅣㄴ	-13531
▁ㅇㅕㄱㄱㅘㄴ	-13532
▁ㅈㅏㅇㅁㅏㄱ	-13533
▁ㅈㅣㅇㅂㅏㄹ	-13534
▁ㅍㅕㄴㄴㅕㄴ	-13535
▁ㄱㅕㅇㅅㅏㄴㅅㅣ	-13536
▁ㅈㅣㅂㅎㅏㅂㅊㅔ	-13537
▁ㅇㅏㄱㅇㅕㅇㅎㅑㅇ	-13538
▁ㅇㅕㅇㅇㅑㅇㅂㅜㄴ	-13539
▁MG	-13540
▁MO	-13541
▁OL	-13542
▁RX	-13543
ㅂㅣㅁ	-13544
▁860	-13545
▁960	-13546
▁MBN	-13547
▁Tom	-13548
▁Plan	-13549
▁main	-13550
ㄷㅣㅈㅎㅕ	-13551
ㅎㅏㄴㄴㅏ	-13552
ㅎㅘㄴㅈㅏ	-13553
▁ㄴㅓㅁㅊㅕ	-13554
▁ㄷㅏㄴㅂㅜ	-13555
▁ㅍㅏㄴㅇㅢ	-13556
▁ㅎㅘㄹㅎㅘ	-13557
▁ㅎㅘㅇㄱㅣ	-13558
ㅇㅕㄹㅇㅡㅁ	-13559
▁ㄱㅜㄹㅊㅏㄱ	-13560
▁ㄱㅡㅁㅂㅏㄹ	-13561
▁ㅅㅓㅂㄷㅗㅇ	-13562
▁ㅊㅜㄹㅁㅗㄹ	-13563
▁ㅍㅡㄹㄹㅗㅅ	-13564
▁ㅎㅏㄱㅅㅏㅇ	-13565
▁ㅅㅡㄹㄹㅓㅁㅍㅡ	-13566
▁ㅎㅏㅂㄱㅕㄱㅈㅏ	-13567
▁ㅅㅏㅇㅈㅣㅇㅁㅜㄹ	-13568
▁ㄱㅜㄱㅁㅣㄴㅈㅓㅇㅂㅜ	-13569
ris	-13570
umb	-13571
▁353	-13572
▁POP	-13573
▁SUV	-13574
ㅋㅔㄴㅈㅣ	-13575
▁ㅂㅓㅂㅊㅣ	-13576
▁ㅂㅜㅅㄷㅏ	-13577
▁ㅇㅑㄱㅊㅔ	-13578
▁ㅊㅣㄴㅇㅏ	-13579
ㅁㅏㄴㅈㅗㄱ	-13580
▁ㄱㅜㅇㅍㅣㅂ	-13581
▁ㅁㅏㄹㄸㅜㄱ	-13582
▁ㅁㅏㅈㅁㅓㄱ	-13583
▁ㅅㅣㄴㅈㅡㅇ	-13584
▁ㅇㅓㅁㅈㅜㅇ	-13585
▁ㄴㅏㅁㄷㅗㅇㄱㅜ	-13586
▁ㅅㅜㄴㅎㅘㄴㅅㅓㄴ	-13587
▁ㅈㅣㄴㅊㅓㄴㄱㅜㄴ	-13588
▁ㅅㅓㄴㄷㅓㄹㄹㅐㄴㄷㅡ	-13589
ACK	-13590
ars	-13591
ㅈㅓㅅ	-13592
▁Sky	-13593
▁Hist	-13594
ㅅㅏㅇㄱㅜ	-13595
ㅇㅏㄴㄷㅐ	-13596
ㅊㅜㄴㅊㅜ	-13597
▁right	-13598
▁ㄷㅏㄴㅊㅜ	-13599
▁ㅂㅓㅂㅇㅢ	-13600
▁ㅅㅏㄹㅍㅗ	-13601
ㅂㅏㅇㅇㅝㄴ	-13602
ㅇㅑㅇㅇㅣㄴ	-13603
▁ㄱㅕㅇㄷㅏㅇ	-13604
▁ㄴㅏㅁㅁㅕㄴ	-13605
▁ㅇㅏㄱㅁㅗㅇ	-13606
▁ㅍㅕㅇㅇㅕㅇ	-13607
▁ㅈㅏㅇㄷㅓㄱㅅㅜ	-13608
▁ㅈㅜㅇㅇㅏㅇㄷㅗㅇ	-13609
▁ㅎㅏㄴㄱㅜㄱㅇㅡㄴㅎㅐㅇ	-13610
uro	-13611
▁Pla	-13612
▁1828	-13613
▁1838	-13614
ㅅㅏㅇㄱㅣ	-13615
ㅅㅡㅇㅎㅗ	-13616
ㅇㅜㄴㅅㅠ	-13617
ㅌㅗㅂㅅㅡ	-13618
▁ㄷㅗㄹㅇㅣ	-13619
▁ㅁㅏㅇㅌㅗ	-13620
▁ㅊㅏㅁㄴㅏ	-13621
ㄱㅘㄴㄱㅘㅇ	-13622
ㄱㅣㄹㄷㅗㅇ	-13623
ㅁㅣㅇㅌㅓㄴ	-13624
▁ㄱㅕㅇㅎㅏㄱ	-13625
▁ㅂㅐㄱㅅㅓㄱ	-13626
▁ㅂㅜㄹㅇㅕㄴ	-13627
▁ㅇㅕㄱㄱㅕㅇ	-13628
▁ㅇㅕㄴㅈㅓㅂ	-13629
▁ㅇㅘㅇㅅㅏㅇ	-13630
▁ㅈㅏㅇㅅㅣㄴㄱㅜ	-13631
▁ㅌㅏㅁㅎㅓㅁㄷㅐ	-13632
▁ㅈㅣㄴㅎㅐㅇㅎㅏㄹ	-13633
ero	-13634
▁Da	-13635
▁Sa	-13636
▁257	-13637
▁810	-13638
▁1797	-13639
ㅅㅓㅇㅊㅔ	-13640
ㅇㅔㄴㄷㅡ	-13641
ㅈㅓㅇㅅㅓ	-13642
▁ㄴㅏㄴㅅㅗ	-13643
▁ㅂㅜㄴㄱㅏ	-13644
▁ㅇㅣㄴㄴㅐ	-13645
ㅊㅏㄱㄹㅠㄱ	-13646
▁ㅁㅏㅇㅅㅓㄹ	-13647
▁ㅁㅜㄱㅅㅏㄹ	-13648
▁ㅇㅏㄱㅎㅐㅇ	-13649
▁ㅇㅏㄹㄹㅏㄴ	-13650
▁ㅇㅕㅁㅈㅓㄴ	-13651
▁ㅋㅡㅁㅈㅣㄱ	-13652
▁ㅅㅏㅁㅅㅓㅇㄱㅡ	-13653
▁ㄱㅏㅂㅅㅏㅇㅅㅓㄴ	-13654
▁ㅈㅓㅇㅅㅣㄴㅂㅕㅇ	-13655
▁so	-13656
▁273	-13657
▁ㅌㅓㅅ	-13658
▁1636	-13659
▁Gold	-13660
▁ㄹㅣㅂㅅㅡ	-13661
▁ㅈㅏㄴㅈㅐ	-13662
▁ㅍㅕㅇㅅㅣ	-13663
▁ㅍㅣㄴㅊㅣ	-13664
ㄱㅡㅂㅍㅜㅁ	-13665
▁ㅁㅜㄹㄹㅑㅇ	-13666
▁ㅂㅕㄴㅁㅕㅇ	-13667
▁ㅅㅓㄱㅅㅣㄹ	-13668
▁ㅇㅏㄴㄱㅜㄱ	-13669
▁ㅇㅝㄴㄷㅏㅇ	-13670
▁ㅈㅓㅂㅎㅏㄹ	-13671
▁ㅈㅣㄴㅈㅜㅇ	-13672
▁ㄹㅗㄱㅍㅔㄹㄹㅓ	-13673
ㅂㅐㄱㅅㅏㄴㅁㅐㄱ	-13674
▁ㅈㅏㅇㅎㅡㅇㄱㅜㄴ	-13675
▁ㅎㅏㄴㄱㅜㄱㅇㅣㄹㅂㅗ	-13676
era	-13677
▁Ap	-13678
▁Pi	-13679
▁Vo	-13680
ific	-13681
▁266	-13682
▁306	-13683
▁980	-13684
▁ㄹㅓㅂ	-13685
ㅇㅏㄹㄷㅔ	-13686
▁ㄴㅔㄹㄹㅣ	-13687
▁ㄹㅜㄴㄷㅡ	-13688
▁ㅂㅣㄴㅅㅡ	-13689
▁ㅇㅏㅁㅅㅏ	-13690
▁ㅌㅏㅁㄹㅏ	-13691
▁ㅎㅏㅁㅈㅐ	-13692
ㅂㅏㅇㅇㅣㄴ	-13693
ㅎㅏㅇㅅㅓㅇ	-13694
▁ㄱㅓㅁㄷㅏㄴ	-13695
▁ㄱㅘㄴㅇㅣㄴ	-13696
▁ㄱㅘㅇㄹㅡㅇ	-13697
▁ㅇㅣㅂㄱㅜㅇ	-13698
▁ㅈㅏㅇㅁㅕㅇ	-13699
▁ㅇㅣㄴㄷㅔㄱㅅㅡ	-13700
▁ㄱㅡㄴㅇㅕㄴㅈㅗㅇ	-13701
ISC	-13702
▁DT	-13703
▁ph	-13704
ross	-13705
▁249	-13706
▁May	-13707
▁app	-13708
▁ㅆㅣㅇ	-13709
▁Conc	-13710
ㄱㅏㄹㄹㅗ	-13711
ㄷㅡㅇㄱㅣ	-13712
▁ㄱㅘㅇㅇㅜ	-13713
▁ㅂㅕㄴㅇㅟ	-13714
▁ㅅㅣㅂㅅㅣ	-13715
▁ㅈㅓㄴㅇㅜ	-13716
ㄱㅕㅇㅅㅓㄱ	-13717
▁ㄱㅗㅇㅂㅓㅁ	-13718
▁ㄴㅗㅇㅅㅣㅁ	-13719
▁ㅁㅗㄹㄹㅕㅆ	-13720
▁ㅅㅣㅁㅎㅐㅆ	-13721
▁ㅈㅓㅇㄹㅡㅇ	-13722
▁ㅈㅣㄱㅇㅕㄱ	-13723
▁ㅈㅣㄹㄱㅏㅁ	-13724
▁ㄱㅗㅇㅈㅏㄱㅇㅝㄴ	-13725
AV	-13726
▁KP	-13727
▁GHz	-13728
ㄹㅗㄱㅅㅡ	-13729
ㅇㅘㅇㄷㅗ	-13730
ㅎㅏㄴㄷㅐ	-13731
▁ㄴㅏㅁㅅㅏ	-13732
▁ㅂㅗㄴㄷㅐ	-13733
▁ㅉㅗㅊㄱㅣ	-13734
▁ㅍㅗㄹㄷㅓ	-13735
ㅅㅓㄴㅁㅜㄴ	-13736
▁ㄴㅏㄱㅈㅓㅁ	-13737
▁ㅅㅓㄱㅈㅏㅇ	-13738
▁ㅅㅗㄱㅇㅗㅅ	-13739
▁ㅈㅓㄴㄹㅏㅁㅎㅚ	-13740
▁ㅈㅓㄴㅂㅏㄴㅈㅓㄴ	-13741
▁ㅊㅜㅇㅅㅓㄴㅇㅘㅇ	-13742
▁Fi	-13743
▁OM	-13744
▁Tu	-13745
▁ㅋㅑ	-13746
▁Bra	-13747
▁der	-13748
▁ㅊㅏㅅ	-13749
ㅇㅛㄴㅅㅔ	-13750
ㅊㅜㄴㄷㅏ	-13751
▁ㅁㅏㅁㄹㅜ	-13752
▁ㅂㅏㅇㅇㅏ	-13753
▁ㅅㅏㅁㄷㅗ	-13754
▁ㅇㅏㄴㅁㅏ	-13755
▁ㅇㅑㄱㅈㅐ	-13756
▁ㅈㅓㄹㄱㅣ	-13757
▁ㅍㅐㄱㅌㅓ	-13758
ㅋㅔㄹㄹㅏㄴ	-13759
▁ㅁㅕㅇㄹㅏㅇ	-13760
▁ㅂㅓㄴㅈㅣㄴ	-13761
▁ㅅㅏㅇㅅㅏㄴ	-13762
▁ㅇㅗㄱㅅㅏㄴ	-13763
▁ㅇㅝㄹㄷㅡㅇ	-13764
▁ㅈㅜㄴㅇㅛㅇ	-13765
▁ㅎㅏㄴㅌㅏㄴ	-13766
ㅎㅏㄴㅊㅜㄱㄱㅜ	-13767
▁ㅂㅓㄹㅇㅣㄴㄷㅏ	-13768
▁ㅂㅡㄹㄹㅗㄱㅊㅔ	-13769
▁KL	-13770
▁__	-13771
ㅇㅘㄹ	-13772
▁.."	-13773
▁236	-13774
▁STX	-13775
▁bes	-13776
ㄹㄹㅔㅅ	-13777
▁1777	-13778
▁8859	-13779
ㄱㅏㄱㅅㅣ	-13780
ㄷㅡㄱㅅㅔ	-13781
ㅂㅏㄹㄹㅔ	-13782
▁ㄷㅚㄹㅈㅣ	-13783
ㅅㅜㄹㅇㅣㄴ	-13784
olution	-13785
▁ㅂㅜㄱㅁㅜㄴ	-13786
▁ㅋㅐㄹㅂㅣㄴ	-13787
ㅎㅕㄱㅁㅕㅇㄷㅏㅇ	-13788
▁px	-13789
ㄷㅔㅁ	-13790
ㅅㅣㅅ	-13791
▁Aut	-13792
▁ESP	-13793
▁ㅁㅕㄴㄷㅗ	-13794
▁ㅁㅗㄴㅌㅣ	-13795
▁ㅂㅗㄹㅊㅡ	-13796
▁ㅅㅏㅁㅂㅗ	-13797
▁ㅇㅏㄴㄹㅛ	-13798
▁ㅋㅗㄹㅌㅡ	-13799
ㅂㅗㄴㄱㅡㅁ	-13800
ㅇㅕㄱㅍㅗㄱ	-13801
▁ㅅㅗㄴㅈㅏㅂ	-13802
▁ㅇㅏㅂㅅㅡㅇ	-13803
▁ㅇㅗㄴㅁㅗㅁ	-13804
▁ㅈㅓㅇㄱㅘㅇ	-13805
▁ㅇㅕㄴㅂㅏㅇㅈㅜ	-13806
▁BP	-13807
▁404	-13808
▁res	-13809
▁ㄹㅕㅁ	-13810
umber	-13811
ㅇㅐㅇㅋㅏ	-13812
ㅌㅔㄴㄷㅣ	-13813
ㅎㅕㄴㅇㅜ	-13814
▁Class	-13815
▁ㄷㅟㅅㅂㅜ	-13816
▁ㅍㅔㅂㅌㅏ	-13817
▁ㅎㅕㄴㅈㅏ	-13818
ㅇㅝㄴㄹㅗㄴ	-13819
▁ㄱㅗㅇㅅㅓㅇ	-13820
▁ㅂㅜㄹㅅㅓㄴ	-13821
▁ㅈㅓㅇㅊㅗㄴ	-13822
▁ㅎㅘㄴㄱㅗㅇ	-13823
▁ㅈㅜㅇㄴㅏㅁㅂㅜ	-13824
ㅊㅓㄴㄴㅕㄴㅁㅣㄴㅈㅜ	-13825
▁ㄱㅜㄱㅁㅣㄴㅇㅡㄴㅎㅐㅇ	-13826
GS	-13827
ren	-13828
▁CI	-13829
▁CW	-13830
▁ㄲㅝ	-13831
▁570	-13832
▁880	-13833
▁Nor	-13834
▁ㄴㅜㅂ	-13835
itude	-13836
ㄹㅡㅇㅈㅣ	-13837
ㅅㅏㄴㅈㅗ	-13838
ㅅㅔㄹㄹㅣ	-13839
▁ㅂㅏㄴㅁㅣ	-13840
▁ㅂㅓㄹㅆㅓ	-13841
▁ㅈㅏㅂㅅㅡ	-13842
▁ㅅㅜㄴㅇㅕㄹ	-13843
▁ㅆㅏㅎㅇㅣㄴ	-13844
▁ㅇㅕㄴㅇㅝㄴ	-13845
▁ㅂㅏㄹㅇㅝㄴㅁㅜㄴ	-13846
▁ㅎㅘㄱㅈㅏㅇㅍㅐㄱ	-13847
ㅍㅓㄴㄷㅡㄹㄹㅐㄴㄷㅡ	-13848
▁ㅅㅓㄱㅂㅜㄹㅇㅣㅂㅅㅏㅇ	-13849
to	-13850
ㅅㅔㄱ	-13851
▁But	-13852
▁Fla	-13853
▁SHO	-13854
▁SNK	-13855
ㄷㅐㅂㅌㅓ	-13856
▁ㄱㅜㅇㄷㅗ	-13857
▁ㅊㅓㄴㅎㅗ	-13858
▁ㄱㅡㄴㅈㅓㄹ	-13859
▁ㄱㅣㅁㅅㅣㄴ	-13860
▁ㄷㅡㅇㅅㅣㄱ	-13861
▁ㅂㅏㅇㅅㅏㄴ	-13862
▁ㅅㅜㅁㅈㅣㄴ	-13863
▁ㅅㅣㄴㄹㅕㅇ	-13864
▁ㅇㅓㄴㅇㅑㅇ	-13865
ㅋㅗㄴㅅㅣㄴㅈㅜ	-13866
▁ㅅㅔㄹㅌㅣㄱㅅㅡ	-13867
▁ㅍㅣㄹㅅㅏㄹㄱㅣ	-13868
▁ㅇㅑㅇㅇㅑㅇㄱㅜㄴ	-13869
▁ㅇㅕㄴㅁㅕㄴㅈㅓㄱ	-13870
▁ㅇㅠㄴㅇㅝㄴㅎㅕㅇ	-13871
▁ㅊㅗㅇㄱㅏㅁㄷㅗㄱ	-13872
▁Rh	-13873
ㅁㅐㅂ	-13874
▁GUI	-13875
▁Ret	-13876
▁1784	-13877
▁ㄱㅐㄹㄹㅣ	-13878
▁ㄱㅓㄴㄱㅣ	-13879
▁ㄱㅗㅇㅂㅣ	-13880
▁ㅁㅣㄴㅌㅡ	-13881
▁ㅇㅣㄴㅍㅗ	-13882
▁ㅇㅣㅁㅈㅐ	-13883
▁ㅈㅓㅇㅎㅗ	-13884
▁ㅍㅔㄴㅌㅏ	-13885
ㄷㅓㄱㄷㅗㅇ	-13886
ㄹㅕㅇㅌㅏㅂ	-13887
ㅇㅜㄹㅈㅏㅁ	-13888
ㅈㅓㄴㅈㅡㅇ	-13889
▁ㅇㅡㄴㄴㅣㄱ	-13890
▁ㅅㅔㄹㄹㅜㄹㄹㅗ	-13891
els	-13892
▁620	-13893
▁710	-13894
▁Vir	-13895
▁ㅆㅜㄱ	-13896
ㄹㅣㄴㅎㅘ	-13897
ㅇㅜㄴㅅㅡ	-13898
▁Gener	-13899
▁Japan	-13900
▁ㄱㅡㄴㅅㅗ	-13901
▁ㄴㅏㅁㅇㅣ	-13902
▁ㄴㅔㄱㅅㅓ	-13903
▁ㅁㅕㅇㄹㅛ	-13904
▁ㅈㅣㄴㅅㅣ	-13905
▁ㅋㅗㅇㅋㅗ	-13906
ㄱㅗㄴㅂㅗㄹ	-13907
ㄷㅜㄴㄱㅜㄴ	-13908
ㅂㅏㅇㅈㅓㅇ	-13909
ㅇㅣㄴㅇㅝㄴ	-13910
ㅈㅓㄴㅇㅕㄱ	-13911
ㅈㅓㅇㅎㅏㄱ	-13912
▁ㄴㅏㅁㄱㅏㅇ	-13913
▁ㅂㅜㄱㅊㅓㅇ	-13914
▁ㅇㅝㄴㅇㅏㄴ	-13915
▁ㅈㅏㅇㅇㅕㄴ	-13916
▁ㅊㅓㄴㅈㅣㄴ	-13917
▁ㅎㅣㄹㅌㅡㄴ	-13918
ㅂㅏㅇㅂㅗㄴㅂㅜ	-13919
▁ㅂㅗㅂㅅㅡㄹㄹㅔ	-13920
▁ㄱㅗㅇㄱㅡㅂㅇㅝㄴ	-13921
▁ㅈㅣㄴㅎㅐㄱㅅㅐㅇㅁㅜㄹ	-13922
BSD	-13923
ㅍㅏㅅ	-13924
less	-13925
ative	-13926
▁ISIL	-13927
▁Long	-13928
▁More	-13929
▁TOUR	-13930
ㅈㅏㅂㅎㅕ	-13931
▁ㄱㅔㄴㅌㅏ	-13932
▁ㄴㅗㄱㅈㅣ	-13933
▁ㅂㅜㄹㅇㅜ	-13934
▁ㅅㅏㄴㄷㅐ	-13935
▁ㅅㅏㅁㅈㅣ	-13936
▁ㅇㅛㅇㅈㅜ	-13937
ㅈㅏㅇㄱㅘㄴ	-13938
▁ㄱㅗㄱㄹㅠㄹ	-13939
▁ㄱㅡㅁㅂㅏㅇ	-13940
▁ㅂㅏㄱㅂㅕㅇ	-13941
▁ㅂㅜㄴㅂㅜㄴ	-13942
▁ㅇㅣㄴㄷㅗㅇ	-13943
▁ㄱㅗㅇㄱㅕㄱㅈㅏ	-13944
▁ㅇㅗㄴㄱㅓㄴㅍㅏ	-13945
▁ㅈㅏㅇㅂㅗㄴㅇㅣㄴ	-13946
ㄲㅇㅣ	-13947
ㅁㅜㅇ	-13948
ople	-13949
▁UFO	-13950
▁Year	-13951
ㄱㅡㅂㅅㅏ	-13952
ㄴㅗㄹㅈㅡ	-13953
ㅈㅏㅇㄱㅣ	-13954
▁ㄱㅓㅁㄱㅛ	-13955
▁ㄱㅡㅁㄱㅘ	-13956
▁ㅅㅓㄱㅈㅘ	-13957
▁ㅅㅓㅇㅎㅏ	-13958
▁ㅅㅗㅇㅅㅏ	-13959
▁ㅇㅑㅇㅎㅐ	-13960
▁ㅇㅡㄴㅎㅘ	-13961
ㅅㅣㅁㄹㅠㄹ	-13962
▁Direct	-13963
▁ㄱㅕㅇㅈㅏㅇ	-13964
▁ㅂㅏㄱㅁㅜㄴ	-13965
▁ㅊㅓㄴㄱㅗㅇ	-13966
▁ㅎㅏㅇㅇㅏㅁ	-13967
▁ㄴㅏㅁㄱㅕㅆㅇㅡ	-13968
▁ㅅㅏㅁㅊㅓㄱㅅㅣ	-13969
▁ㅈㅜㅇㅅㅣㅁㅈㅜ	-13970
ㅋㅔㄹㄹㅏㄴㅈㅔㄹㄹㅗ	-13971
ius	-13972
▁nd	-13973
▁243	-13974
▁630	-13975
▁ㅇㅟㄱ	-13976
ㅁㅜㄴㅇㅖ	-13977
▁ㄴㅏㅁㅊㅗ	-13978
▁ㄴㅗㅇㅅㅜ	-13979
▁ㅂㅜㄱㅋㅣ	-13980
▁ㅈㅣㄹㅈㅜ	-13981
ㄱㅓㅁㅊㅏㄹ	-13982
ㄴㅜㅅㅅㅔㅁ	-13983
ㅅㅗㄱㅊㅓㄹ	-13984
▁ㄱㅏㄷㅎㅣㄴ	-13985
▁ㄱㅜㄴㄱㅗㅇ	-13986
▁ㄴㅏㄴㅍㅗㄱ	-13987
▁ㅂㅗㅇㅅㅣㄴ	-13988
▁ㅅㅓㅇㅌㅏㄴ	-13989
▁ㅇㅕㄱㅂㅕㅇ	-13990
▁ㅇㅛㅇㄱㅗㄹ	-13991
▁ㅈㅓㅇㅊㅏㅇ	-13992
▁ㄱㅗㅇㅁㅜㄴㅅㅓ	-13993
▁ㄱㅘㄴㅅㅡㅂㅂㅓㅂ	-13994
ful	-13995
▁Km	-13996
ㄱㅣㅇ	-13997
ㄲㅗㄱ	-13998
line	-13999
▁Bus	-14000
▁God	-14001
ㅁㅜㄴㅈㅔ	-14002
ㅎㅘㄴㄱㅣ	-14003
▁ㄱㅕㅇㅅㅓ	-14004
▁ㄴㅏㄹㄹㅗ	-14005
▁ㄹㅐㄹㄹㅣ	-14006
▁ㅇㅏㅂㄹㅠ	-14007
▁ㅇㅕㄴㅇㅢ	-14008
▁ㅇㅝㄴㅅㅔ	-14009
ㄱㅏㅇㅇㅝㄴ	-14010
ㅅㅏㄴㅇㅕㅁ	-14011
ㅈㅓㅇㅎㅕㄴ	-14012
ㅊㅜㄹㅇㅣㅂ	-14013
▁ㄷㅏㅇㅁㅕㄴ	-14014
▁ㅅㅏㄴㅂㅏㄹ	-14015
▁ㅊㅣㅁㅅㅣㄹ	-14016
▁GeForce	-14017
▁ㅇㅕㄴㅎㅏㅂㅊㅔ	-14018
▁ㅈㅓㄴㅌㅗㅇㅁㅜㄴㅎㅘ	-14019
ㄸㅗ	-14020
▁Sl	-14021
ㅂㅐㅅ	-14022
▁PHP	-14023
▁Char	-14024
ㅇㅏㄴㅌㅗ	-14025
ㅇㅘㅇㅅㅣ	-14026
ㅊㅓㄴㅎㅜ	-14027
ㅎㅏㄴㅎㅣ	-14028
▁White	-14029
▁ㅇㅏㄱㅅㅏ	-14030
▁ㅇㅏㄴㅅㅜ	-14031
▁ㅇㅐㄱㅈㅏ	-14032
▁ㅇㅣㄴㄷㅜ	-14033
▁ㅇㅣㅁㅍㅔ	-14034
ㅁㅜㄴㅈㅏㅇ	-14035
ㅅㅣㅂㅁㅏㄴ	-14036
▁ㄱㅏㄱㅁㅏㄱ	-14037
▁ㄷㅡㅇㄱㅏㄱ	-14038
▁ㅅㅗㄱㅊㅜㄹ	-14039
▁ㅇㅏㄹㅋㅗㄹ	-14040
ㅅㅔㅁㅂㅡㄹㄹㅣ	-14041
▁ㅇㅕㅇㄴㅏㅁㄷㅐ	-14042
▁ㅇㅣㄹㅂㅏㄴㅈㅣㄱ	-14043
CE	-14044
ㄲㅡㅌ	-14045
▁304	-14046
▁mac	-14047
iness	-14048
ㄴㅣㄹㄲㅏ	-14049
ㅂㅜㄱㅇㅣ	-14050
▁Beaut	-14051
▁ㄱㅕㅇㄹㅣ	-14052
▁ㅁㅐㄱㅅㅣ	-14053
▁ㅂㅔㄴㅌㅡ	-14054
▁ㅇㅣㅇㅌㅐ	-14055
▁ㅈㅏㅂㅇㅣ	-14056
▁ㅍㅏㄴㅅㅣ	-14057
ㄸㅓㄱㅇㅣㅍ	-14058
ㅇㅓㄴㄱㅜㄴ	-14059
ㅎㅡㅇㄷㅗㅇ	-14060
▁ㅂㅗㄴㅂㅏㄷ	-14061
▁ㅅㅓㄹㄴㅏㄹ	-14062
▁ㅇㅣㄹㅇㅑㄱ	-14063
▁ㅊㅓㅇㅂㅐㄱ	-14064
▁ㅌㅐㄱㅎㅐㅆ	-14065
▁ㅎㅏㅇㅂㅕㄴ	-14066
▁ㅇㅗㅇㅈㅓㅇㅈㅔ	-14067
ㅇㅕㄴㅎㅘㄴㄱㅕㅇ	-14068
▁ㄲㅡㅀㅇㅕ	-14069
▁ㄴㅏㄴㅅㅣ	-14070
▁ㅂㅏㅇㅈㅐ	-14071
▁ㅊㅏㄴㅁㅣ	-14072
▁ㅊㅏㄹㄴㅏ	-14073
▁ㅊㅓㅇㄷㅐ	-14074
▁ㅎㅜㄹㄹㅣ	-14075
ㅁㅏㄴㅅㅣㄱ	-14076
ㅅㅗㅇㅅㅓㄴ	-14077
ㅇㅡㄴㄱㅜㄴ	-14078
ㅍㅗㄱㄹㅕㄱ	-14079
▁ㄱㅏㄴㅈㅓㄹ	-14080
▁ㅅㅏㅇㄱㅜㄴ	-14081
▁ㅈㅏㅇㅅㅓㄱ	-14082
▁ㅎㅏㅁㅊㅜㄱ	-14083
▁ㅎㅕㅂㅇㅕㄴ	-14084
▁ㅅㅣㄴㅈㅜㅇㄷㅗ	-14085
▁ㅇㅑㅇㅊㅓㄴㄱㅜ	-14086
▁ㅈㅜㅇㅅㅣㅁㄱㅏ	-14087
▁ㅊㅜㅇㅅㅓㅇㅅㅣㅁ	-14088
▁AH	-14089
▁470	-14090
▁Sweet	-14091
▁ㄱㅣㅁㅇㅣ	-14092
▁ㅁㅕㄹㅊㅣ	-14093
▁ㅅㅓㅇㅌㅗ	-14094
▁ㅋㅝㄹㄹㅣ	-14095
▁ㅎㅔㄱㅅㅏ	-14096
▁ㅎㅔㄹㅁㅜ	-14097
ㅂㅏㅇㅁㅕㄴ	-14098
ㅂㅡㄴㅅㅡㄴ	-14099
ㅅㅡㅇㅎㅘㄴ	-14100
ㅇㅣㄴㅅㅓㄱ	-14101
ㅇㅣㄴㅅㅓㅇ	-14102
ㅈㅓㅇㅎㅘㄴ	-14103
ㅈㅣㅇㄱㅡㅁ	-14104
▁ㅅㅓㄴㄱㅜㄴ	-14105
▁ㅅㅓㄴㅊㅏㄱ	-14106
▁ㅇㅠㅇㅅㅓㅇ	-14107
▁ㅍㅜㅇㅅㅓㅇ	-14108
▁ㄴㅏㅁㅎㅏㄱㅅㅐㅇ	-14109
▁ㅎㅕㄴㅊㅜㅇㅇㅝㄴ	-14110
▁ㅎㅗㅇㄱㅓㄴㅈㅓㄱ	-14111
erv	-14112
▁LL	-14113
▁415	-14114
ㅂㅆㅏㄹ	-14115
▁Miss	-14116
ㅁㅔㄹㄹㅣ	-14117
ㅂㅏㄴㅌㅔ	-14118
ㅈㅗㅇㄱㅛ	-14119
ㅊㅔㄹㄹㅗ	-14120
▁Elect	-14121
▁ㄱㅏㄴㅇㅣ	-14122
▁ㄹㅣㅇㄱㅗ	-14123
▁ㄹㅣㅇㅅㅡ	-14124
▁ㅂㅜㄴㅁㅛ	-14125
▁ㅇㅛㅇㅎㅘ	-14126
▁ㅎㅡㄱㄱㅣ	-14127
▁ㄴㅓㅁㄱㅣㄴ	-14128
▁ㄷㅓㄱㅎㅡㅇ	-14129
▁ㅁㅕㅇㅁㅏㅇ	-14130
▁ㅂㅕㅇㅅㅓㄹ	-14131
▁ㅅㅐㅇㄱㅏㅇ	-14132
▁ㅇㅝㄴㅎㅘㄴ	-14133
▁ㅈㅓㅂㅇㅕㅇ	-14134
▁ㅊㅓㄴㅇㅣㄴ	-14135
▁ㅌㅡㄱㄱㅓㅁ	-14136
▁ㅎㅔㄹㄹㅡㅁ	-14137
▁ㄷㅗㅇㅇㅡㅁㅇㅣ	-14138
▁ㅅㅓㄱㅂㅜㄹㅈㅘ	-14139
ㅂㅗㄱㄷㅗㅇㅅㅐㅇ	-14140
gg	-14141
ㅋㅏㅂ	-14142
▁NGO	-14143
▁ㄸㅓㅆ	-14144
▁ㅇㅛㄹ	-14145
▁ㅉㅏㄹ	-14146
ㅁㄷㅗㄹ	-14147
▁Dark	-14148
ㅁㅕㅇㅌㅏ	-14149
▁ㄴㅏㄹㅈㅗ	-14150
▁ㅁㅏㄹㅌㅜ	-14151
▁ㅂㅓㅂㅊㅔ	-14152
▁ㅅㅜㄴㅁㅜ	-14153
▁ㅅㅜㅁㅈㅣ	-14154
▁ㅇㅝㄴㅇㅚ	-14155
▁ㅊㅜㄹㅎㅏ	-14156
▁ㄱㅏㄴㅇㅓㄴ	-14157
▁ㄱㅜㄱㅎㅏㄱ	-14158
▁ㄱㅡㅂㄱㅏㅁ	-14159
▁ㄷㅗㅇㅈㅣㄹ	-14160
▁ㅂㅣㅅㅁㅜㄹ	-14161
▁ㅅㅣㄴㄹㅏㅇ	-14162
▁ㅈㅏㅁㄱㅡㅁ	-14163
▁ㅈㅗㅇㅂㅏㄴ	-14164
▁ㅊㅡㄱㅅㅣㄹ	-14165
▁ㅇㅜㄴㅈㅓㄴㅅㅏ	-14166
▁ㅋㅓㄴㅅㅔㅂㅌㅡ	-14167
▁ㅍㅡㄹㄹㅔㄱㅅㅡ	-14168
▁ㅇㅡㄴㅇㅓㄴㄱㅜㄴ	-14169
▁345	-14170
▁MGM	-14171
▁1826	-14172
ㅁㅗㄹㄹㅔ	-14173
▁Stand	-14174
▁ㅇㅔㄱㅅㅗ	-14175
▁ㅊㅣㄱㅅㅓ	-14176
ㄹㅐㄴㅈㅐㄱ	-14177
ㅈㅗㅇㅎㅏㅂ	-14178
▁ㄱㅗㅇㅇㅕㄱ	-14179
▁ㅂㅐㄱㄴㅏㅁ	-14180
▁ㅈㅜㅇㅈㅣㄴ	-14181
▁ㅊㅜㄱㅈㅓㄴㄱㅣ	-14182
ㄹㅐㄴㅈㅐㄱㅅㅕㄴ	-14183
▁ㅅㅡㅇㅁㅜㄴㅇㅝㄴ	-14184
▁Comm	-14185
▁IDOL	-14186
ㅂㅏㅇㄱㅏ	-14187
▁ㄹㅏㄴㄷㅏ	-14188
▁ㅂㅗㄱㄷㅗ	-14189
▁ㅂㅜㄱㄷㅜ	-14190
▁ㅈㅣㄴㅂㅜ	-14191
▁ㅋㅐㄹㄹㅓ	-14192
ㅅㅗㄱㄹㅕㄱ	-14193
ㅈㅣㄴㅎㅡㅇ	-14194
ㅊㅓㄴㅇㅕㄱ	-14195
ㅎㅘㄴㄱㅜㄱ	-14196
▁ㄱㅏㅁㄱㅠㄹ	-14197
▁ㅂㅏㅇㄱㅘㅇ	-14198
▁ㅂㅏㅇㅇㅕㄱ	-14199
▁ㅇㅕㄹㅂㅕㅇ	-14200
▁ㅊㅗㅇㄱㅕㅇ	-14201
▁ㅎㅐㅇㅅㅏㅇ	-14202
▁ㅎㅘㄱㅈㅏㅇㅈㅏ	-14203
▁ㅊㅜㄹㅇㅣㅂㄱㅜㄱ	-14204
bc	-14205
fr	-14206
ml	-14207
fin	-14208
▁HM	-14209
▁Cry	-14210
▁UFC	-14211
▁Roll	-14212
▁ㄱㅜㄹㄷㅡ	-14213
▁ㄴㅣㄱㄴㅔ	-14214
▁ㅁㅕㄴㅅㅔ	-14215
▁ㅂㅏㄱㅎㅕ	-14216
▁ㅈㅐㅇㅇㅣ	-14217
▁ㅊㅣㅇㅎㅐ	-14218
ㄱㅜㄱㅅㅣㄱ	-14219
ㄷㅗㅇㅂㅓㅂ	-14220
ㅇㅡㅁㅇㅏㄱ	-14221
▁ㅅㅓㄴㄹㅑㅇ	-14222
▁ㅇㅛㅇㄴㅏㅂ	-14223
▁ㅈㅏㄱㅇㅡㄴ	-14224
▁ㅈㅓㅂㅎㅐㅆ	-14225
▁ㅈㅓㅇㄱㅏㄱ	-14226
▁ㅈㅣㅇㅇㅛㅇ	-14227
ㅎㅐㅇㅅㅓㅇㄷㅐ	-14228
▁ㄱㅗㅁㅍㅏㅇㅇㅣ	-14229
▁ㄱㅘㅇㅈㅣㄴㄱㅜ	-14230
▁ㅅㅣㄹㄹㅕㄱㅈㅏ	-14231
▁ㅁㅜㄹㅂㅏㅇㅇㅜㄹ	-14232
▁ㅂㅜㄹㅅㅣㄴㅇㅣㅁ	-14233
▁ㅎㅏㄴㄹㅣㅁㅇㅝㄴ	-14234
89	-14235
▁ㅎㅑ	-14236
▁STER	-14237
ㅈㅓㄴㅍㅏ	-14238
▁ㅅㅏㄴㅈㅏ	-14239
▁ㅈㅣㄴㅈㅗㅇ	-14240
▁ㅋㅣㅇㄷㅓㅁ	-14241
▁ㅇㅕㅇㅇㅝㄹㄱㅜㄴ	-14242
▁ㅈㅗㄹㅇㅓㅂㅅㅣㄱ	-14243
▁ㅋㅡㄹㄹㅐㅂㅌㅡㄴ	-14244
▁JO	-14245
ㅆㅏㄱ	-14246
ㅋㅏㅅ	-14247
▁NCA	-14248
▁ㅅㅗㅌ	-14249
▁1811	-14250
▁Fall	-14251
ㄹㅏㅆㅇㅡ	-14252
▁Girls	-14253
▁Staff	-14254
▁ㄱㅘㅇㄱㅣ	-14255
▁ㅇㅘㄴㄱㅜ	-14256
▁ㅇㅞㄴㄷㅣ	-14257
▁ㅈㅏㄴㄱㅣ	-14258
▁ㅁㅜㄹㅅㅏㄴ	-14259
▁ㅂㅏㄱㅊㅏㅇ	-14260
▁ㅂㅜㄴㅁㅏㄹ	-14261
▁ㅅㅗㄱㅇㅣㄴ	-14262
▁ㅅㅗㄴㄱㅕㄴ	-14263
▁ㅅㅜㄴㅂㅏㅇ	-14264
▁ㅇㅑㅇㅇㅏㄴ	-14265
▁ㅈㅗㅇㅅㅓㅇ	-14266
▁ㄱㅗㅇㄱㅕㄱㄱㅣ	-14267
▁ㅂㅏㄺㅎㅣㄴㄷㅏ	-14268
▁ㅇㅕㅇㅇㅑㅇㅅㅗ	-14269
▁ㅎㅗㄹㄹㅐㄴㄷㅡ	-14270
ㅅㅜㄴㅇㅑㅇㅎㅏㅁ	-14271
▁ㄱㅏㅁㄷㅗㄱㄱㅘㄴ	-14272
▁ㅂㅕㄴㄱㅕㅇㅂㅐㄱ	-14273
▁ㅇㅜㄹㅈㅣㄴㄱㅜㄴ	-14274
▁ㅇㅡㅁㅇㅏㄱㅇㅣㄴ	-14275
▁ㅊㅓㅇㅅㅗㅇㄱㅜㄴ	-14276
ㄸㅓㄱㅇㅣㅍㅅㅣㄱㅁㅜㄹ	-14277
83	-14278
mb	-14279
led	-14280
▁UH	-14281
▁247	-14282
ㅂㅏㄱㅎㅐ	-14283
ㅅㅏㅇㅈㅐ	-14284
ㅇㅣㄹㅇㅣ	-14285
ㅈㅓㄴㅅㅏ	-14286
▁ㄱㅏㅂㄱㅘ	-14287
▁ㄱㅕㄱㄴㅗ	-14288
▁ㅁㅗㄹㄷㅣ	-14289
▁ㅂㅓㄴㅎㅘ	-14290
▁ㅇㅕㅇㄴㅐ	-14291
ㄴㅔㄴㅌㅏㄹ	-14292
▁ㄷㅏㄴㅊㅗㅇ	-14293
▁ㅅㅗㅇㄱㅏㅇ	-14294
▁ㅇㅛㅇㅇㅠㅇ	-14295
▁ㅇㅡㄴㅁㅣㄹㅎㅣ	-14296
▁ㄱㅘㄴㅈㅜㅇㅅㅓㄱ	-14297
▁ㅇㅣㅁㅅㅣㄹㄱㅜㄴ	-14298
ki	-14299
nal	-14300
ㅁㅏㅁ	-14301
▁286	-14302
▁Mat	-14303
▁ㅅㅛㅂ	-14304
ㅂㅐㅇㅋㅡ	-14305
ㅂㅔㄴㄴㅏ	-14306
ㅅㅓㅇㅇㅜ	-14307
ㅇㅜㄱㄷㅓ	-14308
▁ㄱㅜㄱㅈㅗ	-14309
▁ㄷㅏㄴㅍㅏ	-14310
▁ㄷㅗㄴㄷㅏ	-14311
▁ㅁㅜㄹㅇㅓ	-14312
▁ㅂㅗㄴㄱㅘ	-14313
▁ㅅㅏㅇㅂㅣ	-14314
▁ㅅㅣㄹㅇㅚ	-14315
▁ㅇㅑㅇㅁㅗ	-14316
▁ㅍㅐㄴㅌㅓ	-14317
ㅅㅡㅇㅁㅣㄴ	-14318
ㅋㅗㅇㄱㅏㅇ	-14319
▁ㄱㅓㅁㅈㅣㄴ	-14320
▁ㅂㅜㄹㅇㅜㄴ	-14321
▁ㅅㅏㅁㅅㅐㄱ	-14322
▁ㅅㅓㅇㅎㅘㅇ	-14323
▁ㅇㅕㄱㅇㅝㄴ	-14324
▁ㅊㅓㅁㅌㅏㅂ	-14325
▁ㅍㅏㄹㄷㅏㄹ	-14326
▁ㅈㅣㄴㄷㅏㄹㄹㅐ	-14327
▁ㅊㅏㅁㅅㅓㄱㅈㅏ	-14328
▁ㅈㅏㅇㅅㅓㅇㄱㅜㄴ	-14329
ka	-14330
▁Er	-14331
▁QS	-14332
▁Us	-14333
▁DDR	-14334
▁1620	-14335
ㄱㅜㄴㅌㅡ	-14336
ㄹㅡㄴㅈㅜ	-14337
ㅅㅏㄴㅅㅗ	-14338
ㅈㅔㄹㄹㅏ	-14339
▁Under	-14340
▁ㄷㅟㅅㄷㅏ	-14341
▁ㅂㅕㄹㅅㅣ	-14342
▁ㅂㅗㄴㅇㅟ	-14343
▁ㅅㅣㄴㅇㅑ	-14344
▁ㅇㅓㄺㅁㅐ	-14345
▁ㅇㅝㄹㅅㅡ	-14346
▁ㅇㅣㄴㅂㅜ	-14347
▁ㅈㅏㅇㅎㅗ	-14348
▁ㅈㅣㅇㅅㅣ	-14349
▁ㅌㅓㄹㅇㅓ	-14350
▁ㅎㅘㄴㅅㅜ	-14351
ㅇㅏㄴㄱㅜㄱ	-14352
▁ㅈㅓㄱㄹㅣㅂ	-14353
▁ㅈㅓㅇㅁㅣㄴ	-14354
▁ㅊㅏㅇㅂㅓㅂ	-14355
▁ㅌㅏㄴㅊㅏㅇ	-14356
▁ㅈㅓㅇㅂㅗㄱㅈㅏ	-14357
▁ㅌㅗㅇㅇㅣㄹㅂㅜ	-14358
▁ㅂㅜㅌㅈㅏㅂㅎㅕㅆ	-14359
▁ㅌㅡㄱㅂㅕㄹㅅㅏㅇ	-14360
85	-14361
DC	-14362
bit	-14363
▁Ca	-14364
aven	-14365
ible	-14366
illa	-14367
▁Mem	-14368
▁TNA	-14369
▁1680	-14370
▁LGBT	-14371
▁char	-14372
ㅁㅏㄹㄹㅕ	-14373
ㅁㅣㄹㄹㅗ	-14374
ㅂㅜㄴㄹㅣ	-14375
ㅇㅔㄹㄹㅣ	-14376
▁ㄷㅗㅇㅈㅔ	-14377
▁ㅂㅜㄹㄱㅣ	-14378
▁ㅅㅣㄴㅊㅐ	-14379
▁ㄱㅏㄹㅁㅏㅇ	-14380
▁ㄴㅡㅇㄹㅠㄹ	-14381
▁ㅂㅐㄱㅇㅑㅇ	-14382
▁ㅂㅓㄹㅁㅗㄱ	-14383
▁ㅇㅐㄱㅁㅕㄴ	-14384
▁ㅇㅑㅇㅂㅗㅇ	-14385
▁ㅎㅡㅇㅇㅓㅂ	-14386
▁ㅂㅜㄴㅊㅓㅇㅅㅏ	-14387
▁Christmas	-14388
▁ㅅㅣㄱㅁㅜㄹㅎㅏㄱ	-14389
asy	-14390
▁ㅅㅟㄴ	-14391
▁mark	-14392
ㅁㅕㅇㄷㅗ	-14393
ㅌㅐㄴㅍㅗ	-14394
▁ㄱㅡㄹㄹㅔ	-14395
▁ㅇㅕㄴㅂㅗ	-14396
▁ㅇㅘㅇㅅㅏ	-14397
▁ㅇㅡㅁㅍㅏ	-14398
▁ㅈㅓㄹㅈㅣ	-14399
▁ㅁㅗㄱㄹㅕㄴ	-14400
▁ㅂㅏㄴㅅㅡㅇ	-14401
▁ㅅㅏㄴㄱㅜㄱ	-14402
▁ㅅㅡㅂㅎㅏㄴ	-14403
▁ㅅㅣㄴㅅㅣㅁ	-14404
▁ㅇㅏㄴㅎㅕㄴ	-14405
▁ㅇㅓㄴㅎㅐㅇ	-14406
▁ㅇㅕㄴㅂㅕㄴ	-14407
▁ㅍㅡㄹㄹㅣㄴ	-14408
▁ㄴㅡㅇㄹㅕㄱㅈㅏ	-14409
▁ㅇㅗㄹㄹㅣㅁㅍㅜ	-14410
▁ㅈㅜㄱㅇㅣㄴㄷㅏ	-14411
▁ㅍㅕㄹㅊㅕㅆㅇㅡ	-14412
ㅇㅣㅁㅂㅓㄹㄹㅣㄴ	-14413
▁ㄱㅕㅇㅇㅕㅇㄴㅏㄴ	-14414
▁ㄱㅗㅇㅅㅗㄴㅊㅏㄴ	-14415
soft	-14416
▁302	-14417
▁map	-14418
▁pop	-14419
lease	-14420
ㄴㅏㅁㅇㅓ	-14421
ㄷㅣㅈㅎㅣ	-14422
▁ㅇㅏㄱㅌㅣ	-14423
▁ㅇㅏㄹㅋㅔ	-14424
▁ㅈㅓㅇㅁㅛ	-14425
▁ㅎㅑㅇㅇㅠ	-14426
▁ㅎㅣㅁㄹㅓ	-14427
ㄱㅜㄱㅅㅣㅁ	-14428
▁ㄷㅏㄴㅎㅕㅇ	-14429
▁ㅇㅐㄴㅈㅔㄹ	-14430
▁ㅈㅣㄱㅎㅏㄹ	-14431
▁ㅎㅕㅂㅊㅏㄴ	-14432
▁ㅍㅕㅇㅅㅣㄴㄷㅗ	-14433
ㄱㅓㅁㅊㅏㄹㅊㅓㅇ	-14434
▁ㅇㅣㅁㅈㅣㄴㄱㅏㅇ	-14435
uss	-14436
▁jp	-14437
▁Lee	-14438
▁PCI	-14439
▁ㄲㅏㄱ	-14440
ㄹㅓㅇㅋㅡ	-14441
ㅂㅐㄴㄷㅡ	-14442
▁style	-14443
▁ㅅㅓㅇㅂㅣ	-14444
▁ㅌㅗㄹㄹㅔ	-14445
▁ㅇㅕㄴㅁㅕㅇ	-14446
▁ㅈㅓㅇㅍㅕㅇ	-14447
▁ㅍㅗㄱㅅㅓㄹ	-14448
▁ㅈㅜㅇㄴㅏㅁㅁㅣ	-14449
▁ㄱㅣㄴㅈㅏㅇㄱㅏㅁ	-14450
gram	-14451
▁GSL	-14452
▁URL	-14453
▁dis	-14454
▁ㅈㅓㅅ	-14455
▁ㅊㅡㄹ	-14456
ㄱㅕㅇㅅㅏ	-14457
ㅂㅜㄴㅂㅣ	-14458
ㅂㅡㄹㅋㅏ	-14459
ㅈㅣㄴㅅㅜ	-14460
ㅌㅏㅇㅅㅡ	-14461
ㅎㅏㄱㄱㅣ	-14462
▁Young	-14463
▁ㅁㅏㄴㄹㅜ	-14464
▁ㅁㅗㄱㅊㅗ	-14465
▁ㅅㅏㅇㅈㅘ	-14466
▁ㅊㅣㄹㄹㅣ	-14467
▁ㅋㅔㄴㅌㅏ	-14468
▁ㅎㅏㄹㄲㅏ	-14469
▁ㄱㅏㅇㄹㅗㄴ	-14470
▁ㄷㅔㄴㅂㅜㄴ	-14471
▁ㅁㅓㄹㄹㅣㄴ	-14472
▁ㅂㅗㄹㅌㅓㄴ	-14473
▁ㅆㅏㅇㄱㅡㄱ	-14474
▁ㅇㅑㄱㄱㅘㄴ	-14475
▁ㅇㅗㅅㄱㅏㅁ	-14476
▁ㅇㅣㄹㅊㅜㄱ	-14477
▁ㅊㅗㅇㅇㅣㄴㄱㅜ	-14478
▁ㅂㅜㄴㄷㅏㅇㅅㅓㄴ	-14479
▁ㅅㅐㅇㅂㅏㅇㅅㅗㅇ	-14480
▁ㅇㅕㄴㄱㅡㅁㅅㅜㄹ	-14481
▁ㅇㅗㄱㅊㅓㄴㄱㅜㄴ	-14482
▁ㅇㅠㄴㅂㅗㅇㄱㅣㄹ	-14483
▁Na	-14484
ents	-14485
▁246	-14486
▁LNG	-14487
ㅇㅌㅓㄴ	-14488
▁1660	-14489
ㄷㅔㅇㅇㅣ	-14490
ㅅㅓㅇㄷㅐ	-14491
ㅅㅣㄹㅎㅣ	-14492
ㅇㅣㄴㅎㅗ	-14493
ㅎㅕㄱㄱㅏ	-14494
▁Inter	-14495
▁ㅇㅣㅍㄱㅕ	-14496
▁ㅍㅣㅇㄱㅓ	-14497
ㅁㅜㄹㄱㅘㄴ	-14498
ㅅㅗㄱㅅㅓㄴ	-14499
ㅇㅝㄹㄷㅗㅇ	-14500
▁ㄱㅜㄷㄱㅓㄴ	-14501
▁ㅅㅏㅇㅂㅗㅇ	-14502
▁ㅈㅏㅇㅍㅏㄴ	-14503
▁ㅌㅏㄹㅇㅕㅇ	-14504
▁ㅎㅕㄹㄷㅏㅇ	-14505
▁ㅎㅗㅇㅇㅕㅇ	-14506
▁ㄱㅣㅁㅈㅗㅇㅅㅓ	-14507
▁ㅅㅓㅇㅇㅏㄱㄱㅏ	-14508
▁ㅇㅣㄴㅌㅔㄹㄹㅣ	-14509
▁ㅇㅘㄴㅈㅓㄴㅇㅕㄹ	-14510
gon	-14511
und	-14512
ㅅㅜㅍ	-14513
▁Sur	-14514
▁TTC	-14515
▁1018	-14516
▁1822	-14517
ㄹㅡㄱㅅㅏ	-14518
ㅎㅡㅇㄱㅜ	-14519
▁Story	-14520
▁ㄱㅔㄴㄹㅗ	-14521
▁ㄲㅡㄶㄱㅣ	-14522
▁ㅂㅏㄷㅊㅕ	-14523
▁ㅅㅣㅁㅈㅐ	-14524
▁ㅋㅗㅁㅍㅡ	-14525
ㄱㅕㅇㅇㅝㄴ	-14526
▁ㅁㅏㄱㄹㅗㄴ	-14527
▁ㅂㅕㅇㅇㅑㄱ	-14528
▁ㅅㅏㅇㄹㅑㅇ	-14529
▁ㅇㅛㅇㄱㅏㅇ	-14530
▁ㅇㅣㄹㅇㅣㄴ	-14531
▁ㅎㅏㄴㄱㅕㄹ	-14532
▁ㅊㅓㅇㄴㅕㄴㄱㅣ	-14533
▁ㅌㅗㅇㅈㅓㅇㄷㅐ	-14534
▁ㅂㅡㄹㄹㅐㄱㅂㅓㄴ	-14535
li	-14536
▁251	-14537
▁403	-14538
▁PSV	-14539
▁ㄷㅔㅁ	-14540
▁1770	-14541
▁Spec	-14542
ㄱㅣㄴㅅㅡ	-14543
ㅅㅏㅇㄷㅡ	-14544
ㅊㅜㄹㅁㅏ	-14545
▁ㄱㅗㅂㅎㅏ	-14546
▁ㄱㅘㅇㅇㅢ	-14547
▁ㄹㅐㅁㅈㅣ	-14548
▁ㅇㅏㄹㅅㅡ	-14549
▁ㅇㅣㅂㅎㅕ	-14550
▁ㅍㅏㅅㅋㅐ	-14551
▁ㅎㅏㄴㅅㅣ	-14552
ㅁㅣㄴㄱㅘㄴ	-14553
ㅇㅣㄹㄹㅣㅇ	-14554
▁Season	-14555
▁ㄱㅜㄴㅇㅏㄱ	-14556
▁ㄷㅏㄴㅇㅓㄴ	-14557
▁ㅅㅓㄴㅎㅏㄴ	-14558
▁ㅇㅓㅇㄸㅜㅇ	-14559
▁ㅇㅕㅁㅇㅝㄴ	-14560
▁ㅈㅜㅇㅇㅣㅁ	-14561
▁ㅈㅜㅇㅈㅓㅇ	-14562
▁ㅈㅣㄴㄱㅘㄴ	-14563
▁ㅊㅏㅇㄱㅡㄱ	-14564
▁ㅋㅣㄹㄹㅣㅇ	-14565
▁ㅇㅣㄴㅊㅓㄴㅅㅣ	-14566
▁ㅋㅡㄴㄱㅗㅁㅈㅏ	-14567
▁ㄴㅏㅁㅂㅜㄱㄱㅜㄱ	-14568
▁ㅈㅓㄴㅇㅛㅇㅅㅓㄴ	-14569
ms	-14570
ㅆㅗ	-14571
SQL	-14572
mun	-14573
ㅅㅗㅌ	-14574
oman	-14575
▁285	-14576
▁307	-14577
▁Son	-14578
▁add	-14579
▁1610	-14580
▁BEST	-14581
ㄱㅕㄴㄷㅐ	-14582
ㅅㅏㅇㅎㅏ	-14583
ㅎㅕㅇㅅㅜ	-14584
▁ㅁㅐㄱㅂㅔ	-14585
▁ㅁㅕㅇㄷㅐ	-14586
▁ㅁㅜㅁㅂㅏ	-14587
▁ㅅㅗㅅㅇㅏ	-14588
▁ㅅㅣㄹㄱㅣ	-14589
ㅊㅜㄱㅇㅣㄹ	-14590
ㅎㅕㅇㅁㅜㄹ	-14591
▁ㄱㅏㅇㅈㅓㅇ	-14592
▁ㄱㅗㅇㅈㅣㄴ	-14593
▁ㄴㅗㅇㅅㅏㅇ	-14594
▁ㅁㅕㅇㅅㅣㄴ	-14595
▁ㅁㅜㄴㅁㅐㅇ	-14596
▁ㅇㅕㅇㅇㅏㄴ	-14597
▁ㅇㅣㅂㄱㅓㄴ	-14598
▁ㅎㅏㅂㅎㅏㄴ	-14599
▁ㅅㅓㅇㅈㅓㄴㅎㅘㄴ	-14600
▁ㅎㅚㅇㅅㅓㅇㄱㅜㄴ	-14601
by	-14602
ald	-14603
▁CB	-14604
▁274	-14605
▁ㄴㅓㅅ	-14606
▁color	-14607
▁ㄴㅏㅇㅌㅡ	-14608
▁ㄹㅗㄴㄷㅗ	-14609
▁ㄹㅜㄹㄹㅏ	-14610
▁ㅂㅏㄴㅂㅜ	-14611
▁ㅅㅓㄱㅈㅜ	-14612
▁ㅌㅐㅇㄱㅗ	-14613
ㄱㅘㄴㅈㅏㅇ	-14614
ㅅㅏㅁㄱㅜㄱ	-14615
ㅈㅏㄱㄱㅗㄱ	-14616
▁ㄱㅓㅁㅅㅜㄹ	-14617
▁ㅁㅜㄱㅇㅣㄴ	-14618
▁ㅈㅏㅇㅎㅏㄴ	-14619
▁ㅈㅗㅇㅇㅣㄴ	-14620
▁ㅊㅓㅇㄷㅏㅁ	-14621
▁ㅎㅏㄴㅇㅕㅇ	-14622
▁ㄷㅏㅇㅈㅣㄴㅅㅣ	-14623
▁ㅂㅏㄴㅇㅕㄱㅈㅏ	-14624
▁ㅂㅐㄱㅎㅕㄹㄱㅜ	-14625
▁ㅂㅜㄴㄷㅏㅇㄱㅜ	-14626
▁ㅁㅏㅈㅊㅜㅁㅂㅓㅂ	-14627
UB	-14628
UE	-14629
VF	-14630
▁RB	-14631
▁per	-14632
▁ㅈㅔㅇ	-14633
▁ㅍㅕㅁ	-14634
▁1519	-14635
▁1604	-14636
▁chem	-14637
ㅇㅝㄴㄹㅣ	-14638
ㅍㅗㄹㄷㅡ	-14639
▁ㄱㅓㅁㅅㅗ	-14640
▁ㄴㅗㅇㄱㅣ	-14641
▁ㅂㅜㄹㅍㅗ	-14642
▁ㅂㅣㄱㅅㅡ	-14643
▁ㅅㅏㅇㄹㅣ	-14644
ㅂㅏㄹㅈㅓㅁ	-14645
ㅅㅡㅇㄷㅏㄹ	-14646
ㅇㅠㄱㅈㅏㅇ	-14647
ㅇㅣㄱㅎㅕㄴ	-14648
ㅇㅣㄴㅅㅓㄴ	-14649
▁ㄲㅗㅂㅎㅕㅆ	-14650
▁ㄴㅏㅁㅇㅕㄴ	-14651
▁ㄷㅏㅇㄱㅡㄴ	-14652
▁ㅂㅓㄴㅇㅏㄴ	-14653
▁ㅅㅣㄴㄱㅘㅇ	-14654
▁ㅈㅓㅇㅇㅠㄴ	-14655
▁ㅊㅏㅁㄷㅚㄴ	-14656
▁ㄱㅗㅇㅂㅐㄱㄱㅣ	-14657
▁ㄷㅗㄹㅍㅣㄴㅅㅡ	-14658
▁ㅂㅜㄹㄱㅜㄱㅅㅏ	-14659
▁ㅌㅗㅇㄱㅏㅁㅂㅜ	-14660
▁ㄲㅡㅀㄴㅡㄴㅈㅓㅁ	-14661
▁ㅁㅜㄴㅎㅏㄱㄱㅘㄴ	-14662
▁ㅅㅏㅂㅇㅣㅂㄱㅗㄱ	-14663
oon	-14664
ㅇㅘㄱ	-14665
▁ㅅㅜㅊ	-14666
▁ㅍㅔㅁ	-14667
▁1829	-14668
ㄱㅓㄹㅅㅡ	-14669
ㅁㅏㄴㄷㅏ	-14670
ㅂㅔㄱㅈㅜ	-14671
ㅅㅏㄴㅅㅏ	-14672
ㅅㅏㄴㅈㅣ	-14673
ㅅㅡㅁㄷㅗ	-14674
ㅍㅓㄹㅅㅡ	-14675
▁ㅂㅗㅇㅌㅜ	-14676
▁ㅅㅏㄴㄹㅗ	-14677
▁ㅇㅡㄴㅇㅠ	-14678
▁ㅈㅣㄹㅌㅏ	-14679
▁ㅊㅜㅇㅎㅛ	-14680
▁ㅌㅗㅇㅉㅐ	-14681
▁ㅎㅐㅁㅂㅓ	-14682
ㅂㅏㄴㅇㅡㅇ	-14683
ㅈㅡㅇㅇㅣㄴ	-14684
ㅊㅐㄱㄱㅏㅁ	-14685
ㅋㅣㄱㅇㅡㄹ	-14686
ㅎㅏㄴㅅㅏㅇ	-14687
▁ㅁㅜㄹㅇㅡㅁ	-14688
▁ㅂㅓㄹㅈㅣㅂ	-14689
▁ㅅㅓㄴㄱㅜㄱ	-14690
▁ㅅㅜㄴㅈㅣㄴ	-14691
▁ㅅㅡㄹㄹㅣㅂ	-14692
▁ㅇㅝㄹㅅㅓㅇ	-14693
▁ㅇㅣㄹㅈㅓㄹ	-14694
▁ㅂㅏㄹㅇㅝㄴㅈㅣ	-14695
▁ㅂㅜㄴㅅㅓㄱㄱㅏ	-14696
▁ㅇㅡㄴㅅㅣㄴㅊㅓ	-14697
ㅍㅡㄹㄹㅔㄱㅌㅣㄱ	-14698
ㅎㅏㄱㅇㅝㄴㅅㅐㅇ	-14699
▁ㅅㅣㅁㅍㅡㄹㄹㅔㄱㅌㅣㄱ	-14700
▁JK	-14701
▁242	-14702
▁252	-14703
▁288	-14704
▁580	-14705
▁ㄲㅏㄴ	-14706
▁Last	-14707
ㅇㅜㄹㄹㅕ	-14708
ㅌㅐㄱㄱㅏ	-14709
▁ㄱㅡㅁㅅㅜ	-14710
▁ㅂㅏㄴㅅㅡ	-14711
▁ㅂㅔㄴㄷㅓ	-14712
▁ㅈㅓㄴㄱㅏ	-14713
ㄷㅣㅇㅌㅓㄴ	-14714
ㅇㅓㅂㅈㅏㅇ	-14715
ㅇㅠㅅㄱㅏㅄ	-14716
ㅌㅗㅇㅅㅣㄴ	-14717
▁ㄱㅓㄴㅇㅝㄴ	-14718
▁ㄷㅓㅍㅇㅣㄴ	-14719
▁ㄸㅗㄱㄸㅗㄱ	-14720
▁ㅂㅜㄴㅅㅣㄴ	-14721
▁ㅅㅏㅇㅅㅜㄹ	-14722
▁ㅇㅕㅇㅇㅣㄴ	-14723
▁ㅎㅘㄱㅈㅡㅇ	-14724
▁American	-14725
▁ㅈㅏㄱㅇㅛㅇㄱㅣ	-14726
WC	-14727
100	-14728
▁HC	-14729
▁ㅈㅕㄴ	-14730
▁Kiss	-14731
ㄹㅣㄹㄹㅗ	-14732
ㅅㅐㄱㄱㅖ	-14733
ㅇㅞㄹㅅㅡ	-14734
▁ㄴㅏㄴㄹㅠ	-14735
▁ㄴㅡㅇㅎㅣ	-14736
▁ㅁㅏㄹㅊㅗ	-14737
▁ㅂㅏㄱㄴㅗ	-14738
▁ㅅㅣㄴㅇㅗ	-14739
▁ㅇㅘㄴㅊㅣ	-14740
▁ㅊㅓㄴㅂㅜ	-14741
ㄱㅏㅇㅈㅓㄴ	-14742
▁ㄱㅓㄴㅂㅏㄴ	-14743
▁ㅂㅗㅇㅎㅐㅇ	-14744
▁ㅅㅖㅇㄱㅔㄴ	-14745
▁ㅈㅓㄴㅅㅐㅇ	-14746
▁ㅈㅜㅇㅌㅓㄱ	-14747
▁ㅈㅜㅇㅅㅓㄴㄱㅓ	-14748
▁ㅎㅏㄴㄱㅜㄱㅅㅏ	-14749
▁ㅎㅏㄴㄱㅜㄱㅇㅖ	-14750
ㅅㅏㅁㄱㅏㄱㅎㅕㅇ	-14751
ㅅㅜㄹㅈㅗㅇㅎㅏㅂ	-14752
▁ㅇㅏㄹㄹㅔㄱㅅㅏㅇㄷㅡ	-14753
ㅅㅜㄹㅈㅗㅇㅎㅏㅂㅎㅏㄱㄱㅛ	-14754
96	-14755
ex	-14756
pl	-14757
yo	-14758
ENT	-14759
▁*/	-14760
ends	-14761
izza	-14762
▁1827	-14763
▁3500	-14764
ㅁㅗㄴㅌㅔ	-14765
ㅇㅔㄱㅅㅡ	-14766
ㅊㅗㅇㅂㅜ	-14767
ㅋㅓㅅㅈㅜ	-14768
▁Party	-14769
▁ㄱㅕㅇㅈㅗ	-14770
▁ㅁㅔㄴㄷㅔ	-14771
▁ㅂㅔㄹㄹㅓ	-14772
▁ㅇㅔㄴㄷㅗ	-14773
▁ㅈㅓㄱㅇㅟ	-14774
▁ㅊㅐㅁㅂㅓ	-14775
▁ㅌㅐㄱㅂㅐ	-14776
▁ㅎㅏㄴㄱㅣ	-14777
▁ㅎㅏㄴㄷㅜ	-14778
▁ㅎㅗㅇㄱㅏ	-14779
ㅈㅓㄱㅎㅏㅂ	-14780
ㅊㅜㅇㅎㅓㄴ	-14781
▁ㄱㅕㄱㄴㅏㅂ	-14782
▁ㄱㅕㄹㅂㅏㅇ	-14783
▁ㄷㅗㅇㅈㅜㅇ	-14784
▁ㅂㅗㅇㄱㅡㅂ	-14785
▁ㅇㅑㅇㄹㅣㅂ	-14786
▁ㅌㅏㅁㅈㅣㄴ	-14787
▁ㅂㅓㅂㄹㅠㄹㄱㅏ	-14788
▁ㅇㅏㅁㅅㅏㄹㅈㅏ	-14789
▁ㅎㅘㄹㅇㅕㅂㅅㅜ	-14790
▁ㅊㅓㅇㅇㅑㅇㄱㅜㄴ	-14791
▁gl	-14792
iter	-14793
▁930	-14794
▁ㅋㅝㄴ	-14795
ㅂㅏㅇㄷㅐ	-14796
ㅂㅔㄴㅌㅗ	-14797
ㅅㅣㄹㅂㅏ	-14798
ㅇㅡㄴㅎㅏ	-14799
ㅍㅔㄱㅌㅓ	-14800
▁Child	-14801
▁ㄱㅗㅇㅎㅓ	-14802
▁ㅁㅕㅇㄱㅘ	-14803
▁ㅅㅐㄹㄹㅣ	-14804
▁ㅇㅡㅁㅍㅛ	-14805
▁ㅍㅏㄴㅈㅏ	-14806
▁ㄱㅏㄱㅊㅣㄱ	-14807
▁ㄱㅗㅇㅁㅜㄴ	-14808
▁ㅋㅗㄹㄹㅗㅁ	-14809
▁ㅌㅗㅇㄷㅏㄹ	-14810
▁ㅌㅗㅇㅅㅓㄹ	-14811
▁ㅍㅕㅇㅈㅓㅁ	-14812
▁ㅁㅗㄱㅈㅓㄱㅇㅓ	-14813
▁ㅈㅜㅇㅎㅏㅂㅊㅔ	-14814
▁ㅎㅡㅇㄷㅓㄱㄱㅜ	-14815
▁ㅎㅐㅇㄹㅕㄹㅅㅣㄱ	-14816
▁ㄴㅏㅁㅈㅜㅇㄱㅜㄱㅎㅐ	-14817
▁-"	-14818
▁GA	-14819
▁346	-14820
▁EXO	-14821
▁2025	-14822
ㅁㅏㄴㄷㅗ	-14823
ㅁㅏㄴㅎㅣ	-14824
▁ㄱㅘㅇㄱㅜ	-14825
▁ㄷㅗㄱㅂㅗ	-14826
▁ㄹㅗㄱㄱㅘ	-14827
▁ㅂㅔㄴㅈㅗ	-14828
▁ㅇㅕㄱㅅㅜ	-14829
▁ㅇㅕㄴㄱㅐ	-14830
▁ㅇㅣㅁㅆㅣ	-14831
▁ㅊㅓㅇㅅㅓ	-14832
▁ㅍㅜㅇㅈㅗ	-14833
ㅇㅑㅇㅍㅜㅇ	-14834
ㅈㅕㅆㅇㅓㅆ	-14835
ㅊㅏㅇㄷㅗㅇ	-14836
▁ㄱㅏㅇㅅㅓㄴ	-14837
▁ㄱㅕㅇㄱㅗㅇ	-14838
▁ㄱㅜㄴㅈㅏㅇ	-14839
▁ㅅㅣㅂㅇㅠㄱ	-14840
▁ㅇㅕㅇㅂㅕㄴ	-14841
▁ㅋㅓㄹㄹㅓㅁ	-14842
▁ㅇㅣㄹㅇㅣㄹㅇㅣ	-14843
oul	-14844
ㅁㅜㄷ	-14845
▁312	-14846
▁615	-14847
▁Val	-14848
▁1598	-14849
▁1823	-14850
▁ㄷㅏㄴㅅㅣ	-14851
▁ㅁㅓㅁㅊㅝ	-14852
▁ㅁㅗㄱㄱㅘ	-14853
▁ㅇㅝㄴㅎㅚ	-14854
▁ㅊㅏㅁㅈㅣ	-14855
▁ㅍㅜㄹㅌㅏ	-14856
ㅇㅑㅇㅁㅕㄴ	-14857
ㅎㅏㄴㅁㅏㄹ	-14858
▁ㄱㅏㅇㅅㅏㄴ	-14859
▁ㅁㅕㄴㅊㅐㄱ	-14860
▁ㅇㅏㄱㅅㅓㅇ	-14861
▁ㅈㅣㄹㅊㅐㄱ	-14862
▁ㅊㅓㄴㄷㅜㅇ	-14863
▁ㅇㅏㄴㄷㅏㄹㄹㅜ	-14864
▁ㅇㅜㅁㅈㅣㄱㅇㅕㅆ	-14865
ㄴㅡㄱ	-14866
ㄷㅚㄹ	-14867
iano	-14868
ould	-14869
▁Cap	-14870
▁Core	-14871
▁long	-14872
▁temp	-14873
ㄱㅡㅂㅈㅏ	-14874
ㄹㅐㄱㅅㅡ	-14875
▁ㄱㅏㅁㅂㅣ	-14876
▁ㅁㅗㄴㅌㅏ	-14877
▁ㅇㅔㄹㅂㅔ	-14878
▁ㅇㅗㅇㄱㅣ	-14879
▁ㅈㅓㅇㅇㅟ	-14880
▁ㅊㅓㅁㅈㅣ	-14881
▁ㅌㅡㄱㅁㅜ	-14882
▁ㅎㅔㄴㄷㅓ	-14883
▁ㄷㅏㅂㅅㅡㅂ	-14884
▁ㅁㅜㄷㅎㅣㄴ	-14885
▁ㅂㅏㅅㅈㅜㄹ	-14886
▁ㅂㅏㅇㅂㅕㄱ	-14887
▁ㅅㅗㄴㅌㅗㅂ	-14888
▁ㅇㅏㄹㄹㅐㅇ	-14889
▁ㅇㅑㅇㅈㅜㄴ	-14890
▁ㅈㅏㄱㅍㅜㅇ	-14891
▁ㅈㅓㄱㄱㅜㄱ	-14892
▁ㅈㅓㅁㅁㅏㄱ	-14893
▁ㅊㅓㄴㄷㅗㅇ	-14894
▁ㅊㅓㄴㅇㅣㄹ	-14895
▁ㅌㅏㄹㅂㅜㄱ	-14896
▁ㅎㅕㅇㅍㅕㅇ	-14897
▁ㄱㅏㅇㅂㅜㄱㄱㅜ	-14898
▁ㅅㅏㅇㄷㅏㅇㄱㅜ	-14899
▁ㅅㅣㄹㅈㅡㅇㅈㅜ	-14900
▁ㅎㅜㄴㄹㅕㄴㄱㅣ	-14901
▁ㅍㅏㄴㅁㅜㄴㅈㅓㅁ	-14902
ada	-14903
ube	-14904
▁FP	-14905
▁IG	-14906
ㅃㅜㅁ	-14907
ㅊㅗㅁ	-14908
rown	-14909
▁324	-14910
ATION	-14911
ㄴㅏㅁㄱㅗ	-14912
▁ㄹㅣㅇㄴㅔ	-14913
▁ㅂㅏㄱㄷㅐ	-14914
▁ㅅㅓㅇㅁㅜ	-14915
▁ㅅㅣㄱㅊㅗ	-14916
▁ㅎㅜㄹㄹㅏ	-14917
ㄹㅐㄴㅁㅏㄴ	-14918
ㄹㅠㄱㅅㅓㅇ	-14919
ㅈㅗㅇㅅㅓㄱ	-14920
▁ㄱㅏㅇㅈㅣㄱ	-14921
▁ㄱㅗㄷㅈㅏㅇ	-14922
▁ㄱㅡㅂㅎㅏㄴ	-14923
▁ㄲㅜㄹㅂㅓㄹ	-14924
▁ㅅㅣㄱㅇㅛㄱ	-14925
ㄹㅣㅇㅍㅣㄹㄷㅡ	-14926
▁ㄱㅏㄴㅅㅓㄴㄷㅗ	-14927
▁ㅁㅜㄴㄱㅕㅇㅅㅣ	-14928
▁ㅅㅏㅁㅂㅕㄹㅊㅗ	-14929
▁ㅇㅕㅇㄹㅏㄱㅈㅔ	-14930
▁ㅋㅏㄹㅂㅐㅇㅈㅜ	-14931
▁ㄱㅗㄱㅅㅓㅇㄱㅜㄴ	-14932
▁ㅈㅏㅇㅂㅏㅇㅎㅕㅇ	-14933
▁ㅈㅜㅇㄹㅣㅂㄱㅜㄱ	-14934
46	-14935
lad	-14936
▁Som	-14937
▁ㅁㅠㄹ	-14938
▁ㅊㅜㅂ	-14939
erson	-14940
▁1689	-14941
ㄱㅡㄹㄹㅗ	-14942
ㄷㅡㅁㅇㅣ	-14943
▁ㄱㅏㅁㅂㅏ	-14944
▁ㄷㅔㄱㅅㅡ	-14945
▁ㅁㅏㄴㅎㅏ	-14946
▁ㅁㅣㄹㅍㅖ	-14947
▁ㅇㅑㅇㄱㅗ	-14948
▁ㅈㅗㅇㅅㅗ	-14949
▁ㅋㅏㅁㅊㅏ	-14950
ㅅㅏㄴㅂㅓㅂ	-14951
ㅇㅣㄹㄷㅗㅇ	-14952
ㅇㅣㅂㄱㅜㄱ	-14953
▁ㄱㅏㅈㅊㅝㅆ	-14954
▁ㄱㅡㄴㅅㅣㄴ	-14955
▁ㅁㅗㄱㄱㅗㅇ	-14956
▁ㅁㅜㄴㅅㅓㄴ	-14957
▁ㅂㅕㄴㅎㅏㄹ	-14958
▁ㅇㅑㅇㅂㅗㄱ	-14959
▁ㅈㅏㅇㅅㅗㄴ	-14960
▁ㅅㅏㅇㅎㅐㅇㅅㅓㄴ	-14961
31	-14962
rib	-14963
arth	-14964
▁670	-14965
▁OBS	-14966
▁ㄹㅓㅅ	-14967
▁1080	-14968
▁PROD	-14969
ㅅㅏㄴㅈㅐ	-14970
▁Radio	-14971
▁ㅂㅐㄱㄱㅣ	-14972
▁ㅇㅑㄱㅅㅗ	-14973
▁ㅎㅏㄴㅇㅢ	-14974
ㅇㅛㅇㅁㅜㄹ	-14975
ㅇㅛㅇㅇㅐㄱ	-14976
ㅎㅐㅇㅈㅓㅇ	-14977
▁ㄱㅓㅁㅁㅜㄴ	-14978
▁ㄱㅣㅁㅊㅐㄱ	-14979
▁ㅅㅣㄱㅁㅣㄴㅈㅜ	-14980
▁ㅎㅕㅂㄹㅕㄱㅈㅏ	-14981
▁ㄱㅕㅇㅈㅓㄴㅅㅓㄴ	-14982
▁Oh	-14983
▁248	-14984
▁910	-14985
▁1617	-14986
▁1774	-14987
ㄱㅡㅁㅈㅏ	-14988
ㅅㅡㄴㅅㅡ	-14989
ㅇㅣㄹㄹㅔ	-14990
▁ㅁㅏㅇㄱㅗ	-14991
▁ㅁㅏㅇㅈㅜ	-14992
▁ㅇㅓㄹㅌㅣ	-14993
▁ㅇㅣㄹㄲㅐ	-14994
▁ㅍㅗㄹㅅㅡ	-14995
▁ㅎㅡㄱㅎㅐ	-14996
ㅎㅕㄴㅅㅏㅇ	-14997
▁ㅁㅏㄹㅅㅏㄹ	-14998
▁ㅃㅗㅂㅎㅣㄴ	-14999
▁ㅅㅏㄴㄱㅗㄹ	-15000
▁ㅅㅓㄱㄱㅘㄴ	-15001
▁ㅅㅓㅇㄱㅡㅁ	-15002
▁ㅅㅣㄴㅎㅗㄴ	-15003
▁ㅊㅗㅁㅊㅗㅁ	-15004
▁ㅋㅓㅁㅍㅐㄱㅌㅡ	-15005
▁ㅎㅏㄴㅇㅑㅇㄷㅐ	-15006
▁ㅎㅏㅁㅍㅕㅇㄱㅜㄴ	-15007
GL	-15008
▁Hi	-15009
▁Kh	-15010
▁ㅂㅛ	-15011
ㅂㅏㄼ	-15012
ㅍㅏㅁ	-15013
▁276	-15014
▁CSS	-15015
▁GTX	-15016
▁ㄸㅓㄴ	-15017
▁ㅁㅔㅁ	-15018
▁NCAA	-15019
▁will	-15020
▁Trans	-15021
▁ㄷㅏㄷㅎㅕ	-15022
▁ㅁㅏㄴㅌㅗ	-15023
▁ㅁㅗㅁㅅㅗ	-15024
▁ㅂㅗㄴㄸㅓ	-15025
▁ㅇㅏㄹㅌㅡ	-15026
▁ㅇㅕㄴㅍㅛ	-15027
▁ㅊㅓㄹㅈㅗ	-15028
▁ㅎㅐㅇㅇㅢ	-15029
ㅈㅣㅂㄷㅏㄴ	-15030
ㅎㅗㅇㅈㅏㅇ	-15031
▁ㄴㅏㅁㅈㅜㅇ	-15032
▁ㄴㅏㅂㄷㅡㄱ	-15033
▁ㅂㅕㄴㅈㅓㄹ	-15034
▁ㅅㅣㄱㅅㅓㅇ	-15035
▁ㅅㅣㅁㅊㅓㅇ	-15036
▁ㅇㅕㅁㅂㅜㄴ	-15037
▁ㅈㅏㅇㅁㅜㄴ	-15038
▁ㅎㅐㅇㅈㅏㅇ	-15039
▁ㅎㅜㄹㄹㅣㄴ	-15040
▁ㄱㅕㅇㅈㅓㄴㅊㅏ	-15041
▁ㅅㅣㄱㅂㅕㄹㅈㅏ	-15042
▁ㅌㅏㄹㅂㅜㄱㅈㅏ	-15043
▁ㅁㅗㄱㅇㅛㄱㅌㅏㅇ	-15044
KO	-15045
▁GC	-15046
▁254	-15047
▁cle	-15048
▁1624	-15049
▁1758	-15050
ㅅㅗㄱㅎㅘ	-15051
ㅎㅏㄴㅊㅔ	-15052
▁ㄱㅏㄱㄹㅠ	-15053
▁ㄱㅏㅇㄱㅖ	-15054
▁ㅁㅕㄴㅅㅏ	-15055
▁ㅅㅣㄹㄹㅜ	-15056
▁ㅊㅏㅁㅎㅚ	-15057
▁ㅎㅏㄹㄹㅏ	-15058
ㅂㅏㅇㅅㅓㄴ	-15059
ㅇㅏㄴㄱㅕㅇ	-15060
ㅇㅠㄱㅂㅓㅂ	-15061
ㅈㅏㅇㄱㅜㄱ	-15062
▁ㄷㅏㄴㅁㅏㅅ	-15063
▁ㅂㅏㄴㅊㅜㄹ	-15064
▁ㅂㅓㅂㅁㅕㅇ	-15065
▁ㅂㅜㄴㄷㅗㅇ	-15066
▁ㅈㅏㄱㅂㅕㄹ	-15067
▁ㅈㅡㅇㄷㅡㄱ	-15068
▁National	-15069
ㅂㅏㅇㅈㅓㄴㅅㅓㄴ	-15070
▁ㅇㅕㄱㅈㅓㄴㅅㅡㅇ	-15071
LD	-15072
fer	-15073
raw	-15074
▁==	-15075
▁LE	-15076
▁Pl	-15077
ㅍㅜㅅ	-15078
obal	-15079
▁295	-15080
▁KNN	-15081
▁Que	-15082
▁1413	-15083
▁1750	-15084
▁Come	-15085
ㄱㅜㄱㅈㅏ	-15086
ㄷㅗㅇㅎㅐ	-15087
ㅁㅏㄱㅇㅣ	-15088
ㅅㅣㄱㅈㅜ	-15089
ㅅㅣㅂㄹㅣ	-15090
ㅋㅏㄹㄹㅗ	-15091
▁David	-15092
▁ㄱㅏㅇㅈㅜ	-15093
▁ㄱㅘㄴㅂㅗ	-15094
▁ㄱㅣㅁㅁㅜ	-15095
▁ㅎㅘㅇㅇㅜ	-15096
ㄱㅗㅇㅇㅕㄴ	-15097
ㅍㅜㅁㅈㅣㄹ	-15098
▁ㄱㅘㅇㅊㅓㄴ	-15099
▁ㄱㅣㅁㅈㅜㅇ	-15100
▁ㅇㅘㄴㅂㅗㅇ	-15101
▁ㅇㅚㄴㅂㅏㄹ	-15102
▁ㅊㅓㅇㅎㅗㄴ	-15103
▁ㅎㅏㄱㅅㅏㄴ	-15104
▁ㅎㅕㄹㅈㅡㅇ	-15105
▁ㅇㅣㅂㅎㅓㄴㄱㅜㄴㅈㅜ	-15106
ERT	-15107
con	-15108
▁Hy	-15109
ㅈㅣㅍ	-15110
ㅎㅔㅁ	-15111
iful	-15112
▁279	-15113
▁308	-15114
▁MiG	-15115
▁VfL	-15116
▁ㄹㅠㅇ	-15117
▁Mach	-15118
▁News	-15119
▁Park	-15120
ㄱㅗㅂㅁㅣ	-15121
ㄴㅣㅇㅅㅡ	-15122
ㄷㅗㅇㅎㅘ	-15123
▁ㅅㅏㄴㅁㅗ	-15124
▁ㅅㅓㅇㅌㅓ	-15125
▁ㅇㅓㄺㅎㅕ	-15126
▁ㄱㅜㄴㅊㅜㄱ	-15127
▁ㄱㅝㄴㅅㅣㄴ	-15128
▁ㅁㅏㅈㅅㅓㄴ	-15129
▁ㅂㅏㄴㅇㅝㄴ	-15130
▁ㅂㅐㄱㅅㅏㅇ	-15131
▁ㅇㅏㅇㅎㅔㄹ	-15132
▁ㅈㅓㄴㄹㅣㅂ	-15133
▁ㅊㅜㄹㅇㅝㄴ	-15134
▁ㅍㅜㅇㅁㅜㄹ	-15135
▁ㅎㅗㄹㄹㅡㅁ	-15136
ㅁㅏㅇㅇㅝㄴㄱㅕㅇ	-15137
FF	-15138
SS	-15139
▁JA	-15140
▁TW	-15141
ters	-15142
▁581	-15143
▁BGM	-15144
▁JYP	-15145
cript	-15146
press	-15147
▁0000	-15148
ㄱㅡㄹㄹㅔ	-15149
▁There	-15150
▁ㄴㅏㄱㅎㅜ	-15151
▁ㄷㅗㅇㅊㅗ	-15152
▁ㅃㅗㅂㅎㅕ	-15153
▁ㅌㅗㅁㅍㅡ	-15154
ㅇㅣㄹㄱㅏㅇ	-15155
ㅋㅣㅇㅇㅓㅁ	-15156
ㅎㅏㄱㄷㅗㅇ	-15157
▁ㅁㅜㄴㅇㅣㄱ	-15158
▁ㅁㅜㄹㅁㅏㅇ	-15159
▁ㅂㅐㄱㅅㅓㄴ	-15160
▁ㅂㅕㅇㅅㅏㅇ	-15161
▁ㅈㅣㄹㅅㅣㄱ	-15162
▁ㅍㅓㄴㄷㅣㅇ	-15163
▁ㅍㅗㄱㄹㅏㄱ	-15164
▁ㅁㅏㄹㄹㅣㄴㅅㅡ	-15165
▁ㅂㅣㄴㅂㅓㄴㅎㅣ	-15166
▁ㅇㅝㄹㄱㅏㄴㅈㅣ	-15167
▁ㅅㅓㅇㅅㅏㅁㅁㅜㄴ	-15168
▁ㅊㅗㅇㅁㅕㄴㅈㅓㄱ	-15169
▁ㅅㅣㄴㅊㅜㄴㅁㅜㄴㅇㅖ	-15170
ift	-15171
ㅍㅐㅁ	-15172
ache	-15173
▁241	-15174
▁269	-15175
▁299	-15176
▁Del	-15177
earch	-15178
ember	-15179
ㄷㅣㅇㄱㅓ	-15180
ㅍㅐㄴㅈㅣ	-15181
ㅎㅏㄴㄴㅔ	-15182
ㅎㅏㄴㄷㅡ	-15183
▁ㄱㅜㅂㅎㅣ	-15184
▁ㄴㅗㄱㅊㅏ	-15185
▁ㅁㅗㄱㅊㅏ	-15186
▁ㅅㅐㄱㄷㅏ	-15187
▁ㅇㅕㄱㅅㅔ	-15188
▁ㅇㅘㅇㄷㅐ	-15189
▁ㅇㅝㄴㅈㅚ	-15190
▁ㅈㅓㄴㅍㅐ	-15191
▁ㅎㅕㄴㅅㅔ	-15192
▁ㅎㅣㄹㄷㅔ	-15193
ㅈㅜㅇㄹㅕㄱ	-15194
▁ㅇㅑㅇㄱㅗㄴ	-15195
▁ㅍㅜㅇㄴㅕㄴ	-15196
▁ㅅㅏㅇㅊㅡㅇㅂㅜ	-15197
▁ㅅㅣㄹㅇㅓㅂㅈㅏ	-15198
▁ㅈㅣㅂㅎㅐㅇㅂㅜ	-15199
LO	-15200
sy	-15201
mus	-15202
▁;-	-15203
ider	-15204
ruct	-15205
▁318	-15206
▁Ext	-15207
▁SSG	-15208
▁maj	-15209
▁und	-15210
▁ㄹㅜㅂ	-15211
▁cent	-15212
▁text	-15213
ㄷㅏㅇㅅㅓ	-15214
ㅂㅓㄴㅌㅡ	-15215
ㅇㅕㅇㅎㅢ	-15216
▁ㄱㅏㄴㄷㅐ	-15217
▁ㄴㅗㄱㅇㅏ	-15218
▁ㅃㅏㄹㅊㅣ	-15219
▁ㅇㅕㄱㄴㅐ	-15220
▁ㅇㅕㄴㅈㅣ	-15221
▁ㅌㅔㄹㅇㅏ	-15222
ㄱㅗㅇㅈㅓㅇ	-15223
ㄴㅐㄴㅅㅕㄹ	-15224
ㅅㅣㄴㄷㅗㅇ	-15225
ㅇㅓㄴㅈㅏㅇ	-15226
▁PRODUC	-15227
▁ㄱㅕㅇㄹㅕㄴ	-15228
▁ㄸㅡㅅㅂㅏㄲ	-15229
▁ㅁㅏㄱㅅㅣㅁ	-15230
▁ㅂㅗㅇㅅㅓㄴ	-15231
▁ㅅㅔㄹㅌㅣㄱ	-15232
▁ㅈㅓㅁㄱㅡㄴ	-15233
ㄹㅏㄴㅅㅣㄹㅂㅏ	-15234
ㅍㅕㅇㅈㅏㅇㅅㅏ	-15235
▁ㅅㅣㄴㅊㅓㄴㅈㅣ	-15236
▁ㅊㅣㅁㅍㅐㄴㅈㅣ	-15237
▁ㅎㅐㅆㅇㅓㅆㅇㅡ	-15238
▁ㅅㅏㄹㅇㅣㄴㅂㅓㅁ	-15239
VB	-15240
▁NR	-15241
▁293	-15242
▁ㄸㅡㅁ	-15243
▁Take	-15244
ㄱㅡㅁㄱㅏ	-15245
▁IDOLM	-15246
▁ㅁㅡㄹㄹㅏ	-15247
▁ㅅㅣㄴㅅㅡ	-15248
▁ㅅㅣㄴㅌㅐ	-15249
▁ㅇㅜㄴㅈㅜ	-15250
▁ㅈㅏㅇㅇㅓ	-15251
ㄹㅡㄴㅍㅏㄹ	-15252
▁ㄱㅕㅁㅎㅏㄴ	-15253
▁ㅇㅏㄹㅅㅓㄴ	-15254
▁ㅇㅘㄴㅅㅡㅇ	-15255
▁ㅇㅜㅇㅂㅕㄴ	-15256
▁ㅈㅓㄴㅇㅕㄴ	-15257
▁ㅌㅗㅇㅍㅜㅇ	-15258
110	-15259
INE	-15260
▁LM	-15261
▁525	-15262
▁GPL	-15263
▁ITV	-15264
▁over	-15265
ㄷㅣㄱㅌㅡ	-15266
ㅂㅏㄹㄹㅜ	-15267
ㅂㅓㄱㅈㅣ	-15268
ㅂㅔㄱㅅㅡ	-15269
ㅅㅏㄴㅎㅐ	-15270
▁ㅅㅏㄹㄹㅗ	-15271
▁ㅅㅕㄹㄹㅣ	-15272
▁ㅍㅐㄱㅅㅡ	-15273
▁ㅍㅐㄴㄷㅓ	-15274
ㅅㅣㄹㄹㅣㄴ	-15275
▁ㅅㅑㄹㄹㅗㅅ	-15276
▁ㅇㅕㅇㄹㅡㅇ	-15277
▁ㅈㅜㄹㅇㅣㄴ	-15278
▁ㅎㅏㄴㅅㅣㄱ	-15279
ㅁㅓㄴㅇㅞㄹㅅㅡ	-15280
▁ㅅㅐㅇㅎㅘㄹㅂㅣ	-15281
▁ㅅㅓㄴㅈㅓㄴㄱㅘㄴ	-15282
▁ㅇㅕㅇㅅㅏㅇㅁㅜㄹ	-15283
HA	-15284
ㄸㅡㄱ	-15285
ㅁㅔㅇ	-15286
▁Mot	-15287
▁TBN	-15288
▁ㄷㅐㅇ	-15289
▁ㅆㅏㅁ	-15290
bject	-15291
▁1506	-15292
▁1603	-15293
▁Work	-15294
ㅂㅜㄴㅅㅜ	-15295
ㅊㅜㄱㅈㅔ	-15296
▁Songs	-15297
▁ㅂㅓㅁㅍㅓ	-15298
▁ㅉㅣㄱㅎㅕ	-15299
ㅈㅓㅇㅁㅣㄴ	-15300
▁ㄷㅗㅇㄷㅏㄴ	-15301
▁ㄷㅟㅅㅅㅏㄴ	-15302
▁ㅂㅏㅇㅁㅏㅇ	-15303
▁ㅂㅕㄴㅊㅣㄱ	-15304
▁ㅇㅏㅁㅁㅜㄱ	-15305
▁ㅇㅝㄴㄷㅏㅁ	-15306
▁ㅊㅜㅇㅁㅏㄴ	-15307
ㅂㅓㄹㄹㅐㄴㄷㅡ	-15308
▁ㅊㅗㅇㅇㅕㄴㅈㅏㅇ	-15309
ets	-15310
▁405	-15311
▁ㅁㅚㄴ	-15312
▁1618	-15313
▁ㄴㅏㅁㅇㅜ	-15314
▁ㅅㅏㄱㄱㅘ	-15315
▁ㅅㅣㄹㄹㅓ	-15316
▁ㅅㅣㄹㅅㅔ	-15317
▁ㅈㅏㅇㄴㅐ	-15318
▁ㅌㅏㄱㅈㅏ	-15319
ㅅㅡㅇㅇㅕㅂ	-15320
ㅇㅕㄴㅂㅓㅂ	-15321
ㅎㅐㅇㄱㅐㄱ	-15322
▁ㅁㅗㄹㄹㅣㄴ	-15323
▁ㅁㅣㄴㅂㅏㅇ	-15324
▁ㅅㅏㄴㅊㅓㄴ	-15325
▁ㅅㅐㅇㄷㅗㅇ	-15326
▁ㅅㅓㄱㅇㅕㅇ	-15327
▁ㅅㅓㄴㅁㅏㅇ	-15328
▁ㅅㅓㅇㄱㅘㄴ	-15329
▁ㅇㅠㄱㅅㅣㄴ	-15330
▁ㅌㅏㄹㄹㅣㄴ	-15331
▁ㅅㅣㄴㅈㅓㅇㅂㅜ	-15332
▁ㅎㅓㄴㅂㅕㅇㄷㅐ	-15333
▁ㅎㅡㅂㅎㅕㄹㄱㅟ	-15334
ㅂㅜㄴㅈㅣㅂㅎㅏㅂ	-15335
▁ㄱㅣㅁㅈㅏㅇㅅㅐㅇ	-15336
▁ㄷㅗㅇㄱㅡㅂㅅㅐㅇ	-15337
▁ㅊㅜㄹㅅㅏㄴㅇㅠㄹ	-15338
ga	-15339
▁BA	-15340
▁BN	-15341
ㄲㅜㅂ	-15342
▁272	-15343
▁335	-15344
▁490	-15345
▁JAP	-15346
▁Lin	-15347
▁TNT	-15348
▁1614	-15349
▁1786	-15350
▁Club	-15351
ㄹㅏㅇㅅㅣ	-15352
ㅂㅓㅂㅅㅗ	-15353
ㅂㅣㄴㅊㅣ	-15354
ㅈㅏㅇㄱㅛ	-15355
ㅍㅏㄹㅌㅡ	-15356
▁ㅂㅐㄱㅎㅗ	-15357
▁ㅅㅣㄴㅅㅓ	-15358
▁ㅇㅠㄱㄹㅗ	-15359
▁ㅊㅣㄴㅂㅜ	-15360
▁ㅋㅓㄹㅌㅡ	-15361
▁ㅋㅔㄴㅈㅣ	-15362
▁ㅍㅏㄴㄱㅘ	-15363
ㅈㅜㅇㅅㅣㅁ	-15364
ㅎㅕㄴㅅㅣㄱ	-15365
▁ㄱㅕㄹㅈㅓㄹ	-15366
▁ㄱㅜㄱㅇㅡㄹ	-15367
▁ㄱㅝㄴㅅㅗㄱ	-15368
▁ㄴㅏㅁㅈㅓㅇ	-15369
▁ㅅㅏㅇㅇㅘㅇ	-15370
▁ㅅㅜㄴㄱㅕㅇ	-15371
▁ㅌㅡㄱㅈㅣㄹ	-15372
▁ㄱㅣㅁㅅㅓㅇㄱㅡㄴ	-15373
▁ㅍㅗㄱㅂㅏㄹㄹㅕㄱ	-15374
▁ㄷㅗㄱㄹㅣㅂㅅㅣㄴㅁㅜㄴ	-15375
ㅌㅐㅁ	-15376
▁351	-15377
▁USD	-15378
▁1718	-15379
ㄱㅕㅆㅇㅡ	-15380
▁ㄱㅝㄴㅈㅔ	-15381
▁ㄹㅣㄴㅈㅣ	-15382
▁ㅅㅓㄹㅍㅏ	-15383
▁ㅇㅜㄴㅌㅡ	-15384
▁ㅇㅣㄹㄹㅜ	-15385
▁ㅈㅏㅇㅈㅐ	-15386
▁ㅈㅓㅇㅇㅣ	-15387
▁ㅎㅕㅂㅅㅣ	-15388
▁ㅎㅗㄴㄹㅖ	-15389
ㅇㅓㅂㄷㅏㄴ	-15390
▁ㄱㅡㅁㅇㅕㄴ	-15391
▁ㅁㅜㄴㄷㅗㅇ	-15392
▁ㅂㅐㄱㄱㅜㄴ	-15393
▁ㅂㅗㄲㅇㅡㅁ	-15394
▁ㄱㅓㄴㅊㅜㄱㅎㅏㄱ	-15395
▁ㅌㅗㅇㄱㅡㄴㅇㅕㄹㅊㅏ	-15396
▁TT	-15397
▁UM	-15398
ious	-15399
▁421	-15400
▁HBO	-15401
▁Boys	-15402
▁cont	-15403
ㅇㅡㅁㄱㅣ	-15404
ㅊㅗㅇㅅㅏ	-15405
▁ㄱㅏㅁㄷㅗ	-15406
▁ㄴㅗㄴㅇㅓ	-15407
▁ㄷㅔㄹㄹㅗ	-15408
▁ㄹㅏㅂㅂㅣ	-15409
▁ㄹㅐㄹㅍㅡ	-15410
▁ㅁㅏㄴㅎㅚ	-15411
▁ㅂㅏㄱㄱㅠ	-15412
▁ㅇㅏㅍㄷㅏ	-15413
▁ㅇㅕㄴㄱㅏ	-15414
▁ㅈㅓㅇㄱㅏ	-15415
▁ㅍㅕㄴㅇㅣ	-15416
ㅅㅜㄱㅇㅘㅇ	-15417
▁ㄱㅘㄴㅈㅏㄱ	-15418
▁ㄱㅜㄴㄱㅜㄱ	-15419
▁ㅂㅏㅇㅍㅕㄴ	-15420
▁ㅅㅏㅇㅎㅕㅇ	-15421
▁ㅅㅜㄱㅈㅓㄱ	-15422
▁ㅇㅣㄱㄹㅛㅇ	-15423
▁ㅇㅣㅁㅊㅓㄴ	-15424
▁ㅈㅣㄴㅊㅓㄱ	-15425
▁ㄱㅡㄴㅎㅕㄴㄷㅐ	-15426
▁ㅅㅐㄴㅇㅏㄴㅌㅗ	-15427
▁ㅌㅗㅇㅎㅏㄴㄷㅏ	-15428
▁Microsoft	-15429
▁ㅈㅏㅇㅎㅏㄱㅅㅐㅇ	-15430
▁ㅊㅜㅇㅅㅜㄱㅇㅘㅇ	-15431
▁ㅌㅗㅇㅊㅏㄹㄹㅕㄱ	-15432
▁ㅇㅚㄴㅅㅗㄴㅈㅏㅂㅇㅣ	-15433
35	-15434
ㅅㅓㄲ	-15435
▁rem	-15436
▁ㄱㅚㅇ	-15437
▁ㄹㅖㄴ	-15438
▁ㅅㅗㅂ	-15439
▁1050	-15440
▁1785	-15441
ㄱㅕㄱㄱㅣ	-15442
ㄱㅜㄴㅅㅏ	-15443
ㅂㅡㄹㅇㅠ	-15444
▁ㄷㅏㅂㅅㅏ	-15445
▁ㅂㅜㄱㅅㅡ	-15446
▁ㅂㅜㄹㄱㅡ	-15447
▁ㅅㅣㄴㅇㅏ	-15448
▁ㅇㅏㄱㅅㅜ	-15449
▁ㅇㅕㅇㅁㅛ	-15450
▁ㅇㅣㅁㅈㅏ	-15451
▁ㅈㅓㅇㅆㅣ	-15452
▁ㅋㅜㄹㄹㅏ	-15453
▁ㅍㅏㄹㅁㅏ	-15454
▁ㄱㅗㅇㄴㅏㅂ	-15455
▁ㅁㅏㅈㅇㅡㄴ	-15456
▁ㅅㅜㄴㄱㅕㄹ	-15457
▁ㅈㅜㅇㅈㅡㅇ	-15458
▁ㅍㅐㄴㅌㅐㄱ	-15459
▁ㄱㅗㅇㄷㅗㅇㅁㅛ	-15460
▁ㅈㅓㄱㄷㅏㅇㅎㅣ	-15461
121	-15462
▁XL	-15463
▁go	-15464
▁WOR	-15465
▁1650	-15466
▁Band	-15467
ㄴㅡㄴㄷㅔ	-15468
ㅇㅗㄹㄹㅕ	-15469
ㅇㅛㅇㅎㅐ	-15470
ㅈㅏㅇㅊㅣ	-15471
▁ㄴㅡㅈㅊㅜ	-15472
▁ㄹㅗㄹㄹㅏ	-15473
▁ㅁㅕㄹㅅㅣ	-15474
▁ㅅㅠㄹㅊㅡ	-15475
▁ㅇㅣㄹㄹㅗ	-15476
▁ㅍㅔㅂㅅㅣ	-15477
▁ㅎㅐㅁㅅㅡ	-15478
▁ㅎㅕㅂㅅㅗ	-15479
▁ㅎㅗㄹㅌㅡ	-15480
▁ㅎㅣㄴㄷㅣ	-15481
ㅁㅏㅇㅊㅣㄴ	-15482
▁ㄱㅗㅇㅇㅓㄴ	-15483
▁ㄱㅜㄱㅊㅐㄱ	-15484
▁ㅁㅏㄴㅇㅡㄹ	-15485
▁ㅂㅕㅇㅇㅛㅇ	-15486
▁ㅅㅣㄴㅇㅣㄹ	-15487
▁ㅅㅣㄹㅎㅕㅇ	-15488
▁ㅇㅕㅇㅌㅗㅇ	-15489
▁ㅈㅓㅂㅈㅓㅁ	-15490
▁ㅈㅣㄴㄱㅕㅇ	-15491
▁ㅊㅓㄴㄱㅜㅇ	-15492
▁ㅇㅣㅁㅅㅏㄴㅂㅜ	-15493
▁ㄴㅗㄱㄴㅡㄴㅈㅓㅁ	-15494
▁ㅈㅗㅇㅁㅗㄱㅂㅕㄹ	-15495
▁ㅊㅓㄹㄱㅘㅇㅅㅓㄱ	-15496
▁BD	-15497
ving	-15498
▁730	-15499
ㄹㅔㄱㅅㅡ	-15500
ㅁㅜㅇㅊㅣ	-15501
ㅇㅑㅇㄹㅣ	-15502
ㅈㅏㅇㅈㅣ	-15503
ㅈㅓㄴㅈㅔ	-15504
ㅌㅣㄹㄹㅏ	-15505
▁ㄱㅕㅇㅁㅣ	-15506
▁ㄱㅡㅁㅅㅔ	-15507
▁ㄴㅗㄱㅇㅕ	-15508
▁ㅊㅓㅁㅅㅏ	-15509
ㄱㅕㄹㄱㅝㄴ	-15510
ㅅㅡㄹㄹㅣㄴ	-15511
ㅇㅣㄹㄹㅓㄴ	-15512
ㅇㅣㅁㄷㅏㅇ	-15513
▁ㅂㅓㄹㅇㅣㄹ	-15514
▁ㅅㅏㄴㅈㅓㄴ	-15515
▁ㅅㅐㅇㅇㅠㄱ	-15516
[...]
