[PAD]	0
[UNK]	0
[BOS]	0
[EOS]	0
[CLS]	0
[SEP]	0
[MASK]	0
▁▃	-0
▁이	-1
▁하	-2
▁.	-3
▁에	-4
▁다	-5
▁의	-6
▁는	-7
▁ᆫ	-8
▁,	-9
▁을	-10
▁은	-11
▁가	-12
▁1	-13
▁으	-14
▁고	-15
▁되	-16
▁아	-17
▁를	-18
▁었	-19
▁지	-20
▁년	-21
▁로	-22
▁으로	-23
▁에서	-24
▁2	-25
▁있	-26
▁대	-27
▁어	-28
▁았	-29
▁기	-30
▁사	-31
▁그	-32
▁시	-33
▁도	-34
▁일	-35
▁과	-36
▁ᆫ다	-37
▁들	-38
▁수	-39
▁전	-40
▁적	-41
▁자	-42
▁여	-43
▁와	-44
▁20	-45
▁부	-46
▁월	-47
▁주	-48
▁제	-49
▁19	-50
▁라	-51
▁정	-52
▁ᆯ	-53
▁보	-54
▁중	-55
▁위	-56
▁인	-57
▁였	-58
▁공	-59
▁나	-60
▁경	-61
▁개	-62
▁세	-63
▁게	-64
▁것	-65
▁오	-66
▁유	-67
▁3	-68
▁"	-69
▁조	-70
▁선	-71
▁스	-72
▁등	-73
▁성	-74
▁마	-75
▁만	-76
▁미	-77
▁연	-78
▁동	-79
▁상	-80
▁소	-81
▁서	-82
▁구	-83
▁한	-84
▁모	-85
▁비	-86
▁V	-87
▁영	-88
▁국	-89
▁발	-90
▁면	-91
▁며	-92
▁으며	-93
▁201	-94
▁'	-95
▁4	-96
▁관	-97
▁후	-98
▁명	-99
▁신	-100
▁프	-101
▁5	-102
▁역	-103
▁때	-104
▁200	-105
▁장	-106
▁-	-107
▁던	-108
▁방	-109
▁거	-110
▁교	-111
▁바	-112
▁리	-113
▁문	-114
▁해	-115
▁차	-116
▁내	-117
▁생	-118
▁우	-119
▁당	-120
▁무	-121
▁원	-122
▁통	-123
▁계	-124
▁현	-125
▁노	-126
▁분	-127
▁남	-128
▁군	-129
▁포	-130
▁화	-131
▁6	-132
▁또	-133
▁않	-134
▁까	-135
▁학	-136
▁작	-137
▁결	-138
▁까지	-139
▁같	-140
▁강	-141
▁출	-142
▁파	-143
▁에게	-144
▁진	-145
▁대하	-146
▁크	-147
▁받	-148
▁단	-149
▁최	-150
▁번	-151
▁7	-152
▁반	-153
▁불	-154
▁10	-155
▁8	-156
▁데	-157
▁알	-158
▁위하	-159
▁배	-160
▁호	-161
▁두	-162
▁회	-163
▁안	-164
▁초	-165
▁실	-166
▁카	-167
▁형	-168
▁지만	-169
▁예	-170
▁말	-171
▁재	-172
▁따	-173
▁없	-174
▁부터	-175
▁타	-176
▁사용	-177
▁종	-178
▁9	-179
▁음	-180
▁미국	-181
▁라고	-182
▁특	-183
▁요	-184
▁이후	-185
▁라는	-186
▁설	-187
▁함	-188
▁면서	-189
▁일본	-190
▁코	-191
▁운	-192
▁레	-193
▁산	-194
▁는데	-195
▁행	-196
▁권	-197
▁감	-198
▁활	-199
▁독	-200
민국	-201
▁더	-202
▁대한	-203
▁추	-204
▁베	-205
▁다음	-206
▁왕	-207
▁처	-208
▁피	-209
▁태	-210
▁김	-211
▁지역	-212
▁평	-213
▁대한민국	-214
▁양	-215
▁매	-216
▁민	-217
▁199	-218
▁그리	-219
▁으나	-220
▁및	-221
▁입	-222
▁건	-223
▁많	-224
▁참	-225
▁12	-226
▁따르	-227
▁경기	-228
▁간	-229
▁18	-230
▁목	-231
▁승	-232
▁드	-233
▁가지	-234
▁열	-235
▁다고	-236
▁프로	-237
▁대학	-238
▁다른	-239
리아	-240
▁;	-241
▁속	-242
▁M	-243
▁의하	-244
00	-245
▁총	-246
스트	-247
▁야	-248
▁북	-249
▁S	-250
▁집	-251
▁외	-252
▁)	-253
or	-254
▁법	-255
▁트	-256
▁변	-257
▁체	-258
▁11	-259
▁때문	-260
▁물	-261
▁각	-262
▁메	-263
▁시작	-264
▁천	-265
▁표	-266
▁직	-267
▁시키	-268
▁임	-269
▁달	-270
▁올	-271
▁본	-272
▁ᄆ	-273
▁토	-274
어나	-275
▁그러	-276
▁저	-277
▁점	-278
▁사람	-279
▁쓰	-280
▁&	-281
▁A	-282
▁(	-283
▁팀	-284
▁선수	-285
▁함께	-286
▁아서	-287
▁또한	-288
▁박	-289
▁한국	-290
▁치	-291
어지	-292
▁투	-293
▁청	-294
▁항	-295
▁브	-296
▁세계	-297
▁영화	-298
▁약	-299
▁버	-300
▁사이	-301
▁광	-302
▁새	-303
▁자신	-304
▁C	-305
▁디	-306
la	-307
▁용	-308
▁판	-309
▁국가	-310
▁네	-311
▁경우	-312
▁통하	-313
▁루	-314
▁기록	-315
▁T	-316
▁복	-317
▁f	-318
▁F	-319
▁축	-320
▁현재	-321
▁하나	-322
시아	-323
▁I	-324
▁아니	-325
▁이름	-326
▁존	-327
▁편	-328
▁활동	-329
▁198	-330
▁다는	-331
▁확	-332
▁삼	-333
▁당시	-334
▁위치	-335
▁가장	-336
▁철	-337
주의	-338
▁_	-339
▁보이	-340
▁조선	-341
▁학교	-342
▁이나	-343
▁리그	-344
▁만들	-345
▁뒤	-346
▁필	-347
▁그러나	-348
▁15	-349
▁증	-350
▁플	-351
▁금	-352
▁살	-353
▁페	-354
▁합	-355
▁째	-356
▁for	-357
▁테	-358
▁언	-359
▁대표	-360
▁심	-361
▁백	-362
▁애	-363
▁창	-364
mu	-365
레이	-366
▁역사	-367
▁식	-368
mula	-369
▁연구	-370
▁formula	-371
▁16	-372
▁근	-373
▁병	-374
▁못	-375
▁프랑	-376
▁또는	-377
부터	-378
▁니	-379
▁그리고	-380
▁/	-381
▁사회	-382
▁황	-383
▁규	-384
▁돌	-385
▁D	-386
▁시즌	-387
▁0	-388
▁m	-389
▁충	-390
▁순	-391
▁17	-392
▁패	-393
▁어서	-394
▁클	-395
▁[	-396
▁첫	-397
▁]	-398
▁B	-399
▁197	-400
▁러	-401
▁보다	-402
▁히	-403
랜드	-404
▁완	-405
▁이루	-406
▁중국	-407
▁다시	-408
▁못하	-409
▁협	-410
▁높	-411
▁시대	-412
▁알리	-413
▁길	-414
▁정부	-415
▁프랑스	-416
▁:	-417
▁서울	-418
▁K	-419
▁채	-420
▁영국	-421
학교	-422
▁도시	-423
▁키	-424
▁는다	-425
▁k	-426
▁전쟁	-427
▁배우	-428
▁뜻	-429
▁여러	-430
▁포함	-431
▁문화	-432
▁196	-433
▁독일	-434
▁아이	-435
▁14	-436
▁로서	-437
▁죽	-438
▁~	-439
▁대회	-440
er	-441
▁다가	-442
▁별	-443
▁취	-444
▁축구	-445
▁g	-446
▁13	-447
▁P	-448
▁뉴	-449
▁정치	-450
▁허	-451
▁가능	-452
▁위원	-453
▁곡	-454
▁모두	-455
in	-456
▁환	-457
▁친	-458
▁모든	-459
▁동안	-460
▁손	-461
▁감독	-462
▁문제	-463
▁이상	-464
▁방송	-465
▁구성	-466
▁논	-467
▁194	-468
▁개발	-469
▁L	-470
▁l	-471
▁석	-472
▁일부	-473
▁지방	-474
▁사건	-475
▁처음	-476
▁제작	-477
▁대학교	-478
▁캐	-479
▁검	-480
▁%	-481
▁국제	-482
▁인하	-483
▁작품	-484
▁농	-485
▁관계	-486
라이	-487
▁터	-488
▁이용	-489
▁골	-490
▁세기	-491
▁시간	-492
▁게임	-493
▁끝	-494
▁씨	-495
▁일반	-496
▁교육	-497
▁G	-498
▁N	-499
▁부르	-500
▁존재	-501
▁인구	-502
▁운동	-503
▁향	-504
▁날	-505
▁밀	-506
▁폭	-507
▁급	-508
▁티	-509
▁쿠	-510
▁정도	-511
▁주장	-512
▁음악	-513
▁나오	-514
▁즉	-515
▁gt	-516
▁곳	-517
▁효	-518
▁앞	-519
니아	-520
▁섬	-521
▁려	-522
on	-523
▁km	-524
▁경제	-525
▁195	-526
▁접	-527
▁중심	-528
▁육	-529
▁나타	-530
▁이러	-531
리스	-532
▁거나	-533
▁lt	-534
▁극	-535
▁R	-536
▁맡	-537
▁U	-538
▁선거	-539
▁절	-540
▁전투	-541
▁귀	-542
▁맞	-543
▁30	-544
▁블	-545
▁민주	-546
▁발견	-547
통령	-548
▁기술	-549
▁H	-550
화국	-551
▁담	-552
부분	-553
▁누	-554
▁E	-555
▁슈	-556
▁측	-557
▁봉	-558
▁도록	-559
▁홍	-560
▁막	-561
▁발표	-562
▁글	-563
▁갖	-564
▁결과	-565
▁암	-566
▁구조	-567
▁올림	-568
이스	-569
▁영향	-570
▁태어나	-571
▁케	-572
▁책	-573
▁아들	-574
▁엔	-575
▁사망	-576
▁의미	-577
▁2010	-578
▁우승	-579
▁공격	-580
▁로부터	-581
▁ㄴ	-582
▁대통령	-583
▁들어	-584
▁과정	-585
▁줄	-586
▁잘	-587
▁대부분	-588
an	-589
▁라이	-590
▁질	-591
▁걸	-592
▁헤	-593
▁올림픽	-594
▁관련	-595
▁송	-596
▁밝	-597
▁불리	-598
▁새롭	-599
▁여기	-600
000	-601
▁지원	-602
▁프로그	-603
▁앨	-604
▁열리	-605
리카	-606
▁업	-607
▁발생	-608
▁잡	-609
▁참여	-610
▁193	-611
▁머	-612
▁유럽	-613
▁진행	-614
▁준	-615
▁중앙	-616
▁범	-617
지만	-618
▁행정	-619
▁최초	-620
란드	-621
▁독립	-622
20	-623
▁c	-624
▁얻	-625
▁자유	-626
▁25	-627
▁W	-628
▁부분	-629
▁결정	-630
▁설립	-631
▁특히	-632
▁제국	-633
▁형태	-634
▁고등	-635
▁악	-636
▁발매	-637
▁다양	-638
▁폐	-639
▁세우	-640
▁탄	-641
▁당하	-642
▁상태	-643
▁하지만	-644
▁팔	-645
나라	-646
▁ᆫ다는	-647
▁탈	-648
▁속하	-649
▁설치	-650
▁이전	-651
버지	-652
▁온	-653
▁같이	-654
▁러시아	-655
▁벌	-656
▁스타	-657
▁2008	-658
▁소속	-659
▁좌	-660
▁사실	-661
▁아야	-662
▁초등	-663
▁침	-664
▁센	-665
▁좋	-666
디오	-667
▁21	-668
우스	-669
▁커	-670
▁르	-671
▁그녀	-672
▁일어나	-673
▁로마	-674
▁타이	-675
▁으로서	-676
▁조직	-677
▁프로그램	-678
▁나라	-679
▁인민	-680
▁이것	-681
▁참가	-682
▁생각	-683
▁여성	-684
▁폴	-685
▁등장	-686
▁정보	-687
▁주로	-688
▁2011	-689
▁갈	-690
▁2012	-691
▁필요	-692
▁싱	-693
▁혼	-694
▁이탈	-695
▁주요	-696
▁관리	-697
▁운영	-698
▁출신	-699
▁기준	-700
▁생산	-701
▁계획	-702
en	-703
▁2009	-704
▁100	-705
▁기관	-706
▁윤	-707
▁중요	-708
▁위원회	-709
▁2014	-710
▁란	-711
▁보내	-712
▁지정	-713
▁2007	-714
▁여자	-715
▁오르	-716
므로	-717
▁상대	-718
▁음반	-719
▁t	-720
▁성공	-721
▁바이	-722
▁이르	-723
▁계속	-724
▁시절	-725
▁데이	-726
▁국민	-727
▁콘	-728
▁a	-729
▁지나	-730
▁O	-731
▁데뷔	-732
▁매우	-733
▁2013	-734
▁철도	-735
▁넘	-736
▁레이	-737
▁밝히	-738
▁과학	-739
▁대전	-740
리즈	-741
▁사업	-742
▁시스	-743
▁해당	-744
▁발전	-745
he	-746
▁생활	-747
▁이탈리아	-748
▁뿐	-749
▁방법	-750
프트	-751
▁칼	-752
▁고려	-753
스터	-754
▁아버지	-755
▁몇	-756
▁자리	-757
▁묘	-758
▁찾	-759
▁191	-760
▁생애	-761
▁초기	-762
▁2015	-763
라마	-764
▁23	-765
▁2018	-766
▁24	-767
ar	-768
▁억	-769
▁월드	-770
▁내용	-771
이션	-772
▁쇼	-773
레스	-774
▁처럼	-775
▁능	-776
▁헌	-777
▁앨범	-778
▁000	-779
▁얼	-780
▁차지	-781
▁출연	-782
▁2016	-783
▁지내	-784
▁최고	-785
▁인도	-786
▁후보	-787
▁그룹	-788
남도	-789
▁빌	-790
▁시리즈	-791
▁돌아	-792
▁결국	-793
▁마이	-794
▁평가	-795
▁관하	-796
르크	-797
▁J	-798
es	-799
▁엘	-800
▁아래	-801
▁22	-802
▁우리	-803
▁전체	-804
▁회사	-805
▁그리스	-806
▁빠	-807
▁이유	-808
▁방식	-809
▁떨	-810
이트	-811
▁2006	-812
FA	-813
▁이루어지	-814
▁격	-815
▁한편	-816
▁고등학교	-817
▁인간	-818
▁나가	-819
▁ᆫ다고	-820
비아	-821
▁수상	-822
▁풍	-823
▁스페	-824
▁192	-825
▁거치	-826
▁2017	-827
▁분류	-828
▁힘	-829
▁인터	-830
▁연합	-831
▁시기	-832
▁공식	-833
▁층	-834
▁개요	-835
▁항공	-836
▁제공	-837
▁드라마	-838
▁역할	-839
▁의원	-840
▁시스템	-841
▁컴	-842
운데	-843
▁정의	-844
▁많이	-845
▁기업	-846
▁군사	-847
▁제도	-848
▁조사	-849
▁희	-850
▁잠	-851
▁가운데	-852
▁류	-853
▁워	-854
▁몸	-855
▁출전	-856
▁유명	-857
▁민족	-858
▁기능	-859
▁교회	-860
▁반대	-861
▁거의	-862
▁퍼	-863
▁나타나	-864
▁s	-865
▁으로써	-866
▁놓	-867
▁지구	-868
▁색	-869
비스	-870
▁텔	-871
▁둘	-872
▁쓰이	-873
▁울	-874
▁푸	-875
▁현대	-876
▁언어	-877
▁표현	-878
▁떠	-879
▁응	-880
▁대신	-881
▁유지	-882
▁목록	-883
▁몰	-884
▁느	-885
▁개인	-886
▁달리	-887
▁녹	-888
▁대상	-889
▁으로부터	-890
▁홈	-891
▁특별	-892
▁이론	-893
▁동시	-894
▁웨	-895
▁26	-896
at	-897
▁자연	-898
▁규모	-899
▁!	-900
▁모습	-901
야기	-902
▁올리	-903
▁프리	-904
▁공개	-905
▁노동	-906
▁이미	-907
▁야구	-908
▁마지	-909
▁지도	-910
▁연결	-911
▁승리	-912
▁28	-913
▁어야	-914
▁2019	-915
▁진출	-916
▁들어가	-917
▁27	-918
▁졸	-919
▁단체	-920
▁각각	-921
▁밖	-922
▁정책	-923
▁전하	-924
▁브라	-925
▁인정	-926
▁목적	-927
▁특징	-928
▁상황	-929
▁붙	-930
▁산업	-931
▁인물	-932
▁뛰	-933
▁핵	-934
▁시장	-935
▁2000	-936
▁2005	-937
▁마지막	-938
▁기원	-939
▁플레이	-940
▁수도	-941
▁난	-942
▁아르	-943
▁임명	-944
▁족	-945
▁메이	-946
▁전문	-947
▁이야기	-948
▁떨어지	-949
▁너	-950
▁습	-951
▁기간	-952
북도	-953
▁샤	-954
▁눈	-955
▁먹	-956
▁멀	-957
머니	-958
▁직접	-959
▁구역	-960
▁혁	-961
al	-962
ic	-963
니다	-964
▁모델	-965
스크	-966
▁경상	-967
▁압	-968
▁서로	-969
▁계약	-970
▁슬	-971
▁오스트	-972
▁밴	-973
▁추가	-974
▁건설	-975
▁으면	-976
▁공동	-977
▁개최	-978
▁콜	-979
▁FC	-980
▁2004	-981
BS	-982
▁망	-983
▁경찰	-984
▁형성	-985
▁공간	-986
▁사상	-987
▁결혼	-988
▁건물	-989
▁자동	-990
▁노선	-991
▁변화	-992
▁그것	-993
▁기타	-994
▁50	-995
▁활약	-996
▁스페인	-997
▁훈	-998
▁거리	-999
▁TV	-1000
▁31	-1001
▁노래	-1002
▁변경	-1003
▁부산	-1004
학자	-1005
▁국회	-1006
▁가리	-1007
▁29	-1008
▁교수	-1009
▁칸	-1010
▁나이	-1011
is	-1012
▁졸업	-1013
으키	-1014
▁공화국	-1015
it	-1016
▁완전	-1017
▁텔레	-1018
▁b	-1019
▁벨	-1020
re	-1021
▁마을	-1022
▁궁	-1023
▁다르	-1024
▁인민공	-1025
▁경력	-1026
▁인민공화국	-1027
▁클럽	-1028
▁사랑	-1029
비전	-1030
▁휴	-1031
▁비롯	-1032
▁흐	-1033
▁역시	-1034
이드	-1035
▁2020	-1036
▁190	-1037
▁낮	-1038
▁비판	-1039
▁서비스	-1040
▁ㅏ	-1041
▁학생	-1042
▁맥	-1043
ou	-1044
▁실제	-1045
▁볼	-1046
▁지지	-1047
▁최대	-1048
거리	-1049
운드	-1050
▁소설	-1051
▁요구	-1052
▁보통	-1053
▁견	-1054
▁만나	-1055
▁겠	-1056
▁보호	-1057
▁잉	-1058
▁따라	-1059
▁지금	-1060
▁가수	-1061
▁중학교	-1062
프리카	-1063
대로	-1064
▁우주	-1065
▁론	-1066
▁기본	-1067
▁중화	-1068
▁싸	-1069
▁의회	-1070
▁탑	-1071
▁종교	-1072
▁전국	-1073
▁다이	-1074
▁일으키	-1075
▁X	-1076
▁자기	-1077
▁차이	-1078
▁지하	-1079
▁판매	-1080
▁없이	-1081
▁딸	-1082
▁싱글	-1083
▁겸	-1084
▁실시	-1085
▁전통	-1086
르트	-1087
▁혹	-1088
▁시설	-1089
▁황제	-1090
▁옥	-1091
역시	-1092
▁퇴	-1093
▁밴드	-1094
▁엄	-1095
▁높이	-1096
▁기반	-1097
너지	-1098
▁원래	-1099
▁떠나	-1100
▁탐	-1101
▁2002	-1102
▁어떤	-1103
▁세력	-1104
▁버리	-1105
▁운행	-1106
로스	-1107
▁명칭	-1108
▁환경	-1109
▁교통	-1110
▁내리	-1111
▁가족	-1112
▁자료	-1113
▁설명	-1114
▁40	-1115
▁경기도	-1116
▁소련	-1117
▁뮤	-1118
스탄	-1119
▁월드컵	-1120
▁전기	-1121
▁센터	-1122
▁이끌	-1123
▁공연	-1124
▁2003	-1125
▁수행	-1126
▁회의	-1127
▁그래	-1128
▁풀	-1129
▁애니	-1130
▁전자	-1131
▁승강	-1132
러스	-1133
▁모양	-1134
▁부대	-1135
▁도쿄	-1136
▁컵	-1137
▁분야	-1138
▁기독	-1139
▁예술	-1140
▁기념	-1141
▁이동	-1142
▁통합	-1143
▁교황	-1144
▁득	-1145
▁나타내	-1146
나다	-1147
▁사고	-1148
▁걸치	-1149
mp	-1150
▁도입	-1151
▁텔레비전	-1152
le	-1153
▁작업	-1154
▁행동	-1155
▁남자	-1156
▁동물	-1157
▁연방	-1158
▁염	-1159
▁선정	-1160
▁차량	-1161
▁능력	-1162
▁따라서	-1163
▁소프트	-1164
▁작용	-1165
▁출시	-1166
▁바로	-1167
▁문학	-1168
▁숙	-1169
▁=	-1170
▁할	-1171
스타	-1172
▁군대	-1173
의원	-1174
들이	-1175
▁증가	-1176
▁기독교	-1177
▁행위	-1178
▁형식	-1179
▁전라	-1180
▁방향	-1181
▁기존	-1182
▁도로	-1183
▁확인	-1184
▁지휘	-1185
▁넓	-1186
▁작가	-1187
▁남쪽	-1188
▁효과	-1189
▁혁명	-1190
▁국내	-1191
▁십	-1192
▁과거	-1193
▁북쪽	-1194
▁작곡	-1195
▁이때	-1196
▁착	-1197
▁제외	-1198
▁그렇	-1199
▁비슷	-1200
▁승강장	-1201
▁옮	-1202
▁빈	-1203
▁강하	-1204
▁FI	-1205
▁므로	-1206
▁런	-1207
▁지배	-1208
▁챔	-1209
▁컴퓨	-1210
▁주변	-1211
▁윌	-1212
▁어머니	-1213
▁낙	-1214
▁마르	-1215
▁왕국	-1216
▁캐나다	-1217
▁몽	-1218
▁종류	-1219
▁거두	-1220
▁태양	-1221
▁열차	-1222
▁마다	-1223
▁사무	-1224
▁유일	-1225
▁비교	-1226
▁갑	-1227
▁정당	-1228
▁역임	-1229
▁뉴욕	-1230
▁옮기	-1231
▁이적	-1232
▁남부	-1233
리오	-1234
BC	-1235
▁흥	-1236
▁링	-1237
▁솔	-1238
▁협회	-1239
▁적용	-1240
▁혹은	-1241
▁스포	-1242
▁공산	-1243
▁베이	-1244
▁생기	-1245
▁물리	-1246
▁반응	-1247
▁성장	-1248
▁흔	-1249
자리	-1250
▁추정	-1251
▁담당	-1252
▁챔피	-1253
▁시민	-1254
▁건축	-1255
▁동일	-1256
▁개념	-1257
▁이사	-1258
▁즈	-1259
▁1990	-1260
▁육군	-1261
▁대사	-1262
▁장관	-1263
▁이어지	-1264
▁홀	-1265
▁어리	-1266
▁늘	-1267
▁갖추	-1268
▁2001	-1269
▁인기	-1270
▁획	-1271
▁스트	-1272
▁세포	-1273
▁버스	-1274
▁넣	-1275
▁징	-1276
▁맨	-1277
▁윈	-1278
▁컴퓨터	-1279
▁동쪽	-1280
메이션	-1281
▁공사	-1282
▁데이터	-1283
드리	-1284
▁오늘	-1285
▁멤	-1286
▁구간	-1287
▁p	-1288
▁쪽	-1289
▁품	-1290
▁ᆫ데	-1291
▁디자	-1292
▁에너지	-1293
▁곧	-1294
▁마음	-1295
▁사단	-1296
▁상당	-1297
▁연기	-1298
▁예정	-1299
▁크기	-1300
▁움	-1301
▁액	-1302
▁조지	-1303
▁돈	-1304
▁작전	-1305
▁흑	-1306
▁조건	-1307
▁민주주의	-1308
이지	-1309
▁바르	-1310
▁비하	-1311
▁189	-1312
▁차례	-1313
▁실패	-1314
▁잔	-1315
▁록	-1316
▁바꾸	-1317
▁서쪽	-1318
▁이라	-1319
▁버전	-1320
▁자체	-1321
▁칭	-1322
▁FIFA	-1323
▁애니메이션	-1324
▁율	-1325
▁어느	-1326
▁땅	-1327
▁수록	-1328
▁d	-1329
▁충청	-1330
▁치르	-1331
▁컨	-1332
▁특정	-1333
▁선언	-1334
▁이런	-1335
▁고대	-1336
▁돌아오	-1337
▁덕	-1338
▁연주	-1339
▁체제	-1340
카이	-1341
▁부족	-1342
▁연속	-1343
▁쌍	-1344
▁쉽	-1345
▁방영	-1346
버스	-1347
▁피해	-1348
▁선택	-1349
▁페르	-1350
▁익	-1351
▁결승	-1352
▁가리키	-1353
▁내부	-1354
▁멤버	-1355
▁국립	-1356
el	-1357
▁규정	-1358
▁해군	-1359
▁공항	-1360
▁개혁	-1361
가지	-1362
▁대체	-1363
et	-1364
루스	-1365
▁아시아	-1366
▁정신	-1367
▁속도	-1368
▁다루	-1369
▁조약	-1370
웨어	-1371
▁단계	-1372
▁대구	-1373
라지	-1374
▁북부	-1375
▁헌법	-1376
▁최종	-1377
▁왜	-1378
▁명령	-1379
ion	-1380
▁연대	-1381
글랜드	-1382
▁ㅓ	-1383
▁기원전	-1384
▁포르	-1385
▁선출	-1386
▁영어	-1387
▁분석	-1388
▁는지	-1389
▁가치	-1390
▁지명	-1391
▁자치	-1392
▁크리스	-1393
▁설계	-1394
▁옛	-1395
▁휘	-1396
▁인천	-1397
트남	-1398
▁물질	-1399
▁치료	-1400
▁로스	-1401
▁출판	-1402
▁입단	-1403
▁최근	-1404
▁먼	-1405
▁친구	-1406
▁쥐	-1407
▁체계	-1408
ing	-1409
▁의사	-1410
▁논란	-1411
▁소비	-1412
▁관할	-1413
▁달러	-1414
▁나누	-1415
▁강화	-1416
▁비행	-1417
▁척	-1418
시마	-1419
▁ᆫ지	-1420
▁밤	-1421
▁더욱	-1422
아가	-1423
▁집단	-1424
▁평균	-1425
▁롭	-1426
▁가깝	-1427
▁팬	-1428
▁북한	-1429
▁대중	-1430
▁1999	-1431
ol	-1432
메리카	-1433
▁스포츠	-1434
▁표준	-1435
▁후반	-1436
라스	-1437
▁술	-1438
▁배치	-1439
21	-1440
▁엔진	-1441
▁법원	-1442
▁잉글랜드	-1443
▁제품	-1444
▁곤	-1445
▁언급	-1446
▁부문	-1447
▁하이	-1448
널리	-1449
▁관심	-1450
▁현상	-1451
▁1998	-1452
▁Y	-1453
▁실험	-1454
▁파이	-1455
▁머리	-1456
▁헬	-1457
▁챔피언	-1458
▁함수	-1459
▁남기	-1460
▁조정	-1461
▁o	-1462
▁벤	-1463
▁개월	-1464
▁예선	-1465
▁확장	-1466
스코	-1467
▁스테	-1468
▁씩	-1469
▁겨	-1470
▁획득	-1471
▁공원	-1472
▁1980	-1473
▁유사	-1474
▁선발	-1475
▁요소	-1476
▁분리	-1477
▁처리	-1478
▁주도	-1479
▁부상	-1480
▁지속	-1481
▁목표	-1482
▁배경	-1483
디어	-1484
▁재판	-1485
▁cm	-1486
▁지니	-1487
▁통일	-1488
▁60	-1489
▁하계	-1490
▁자동차	-1491
▁베르	-1492
▁문자	-1493
▁고자	-1494
▁주민	-1495
▁맺	-1496
▁소유	-1497
▁35	-1498
▁편성	-1499
▁유래	-1500
▁시도	-1501
▁이해	-1502
리지	-1503
▁정규	-1504
▁마리	-1505
▁구단	-1506
▁외국	-1507
▁어렵	-1508
▁장군	-1509
▁도움	-1510
▁빠르	-1511
▁에스	-1512
▁파리	-1513
▁향하	-1514
▁이어	-1515
▁주인	-1516
▁거주	-1517
▁시험	-1518
▁점령	-1519
▁나무	-1520
▁꽃	-1521
▁미치	-1522
▁공립	-1523
▁행사	-1524
▁기사	-1525
▁디자인	-1526
▁요시	-1527
▁원자	-1528
▁려고	-1529
▁앙	-1530
▁통신	-1531
▁mm	-1532
▁원인	-1533
▁네덜	-1534
▁네덜란드	-1535
▁언론	-1536
▁괴	-1537
▁책임	-1538
▁안정	-1539
▁다면	-1540
▁바뀌	-1541
▁가르	-1542
▁학자	-1543
▁스럽	-1544
▁캠	-1545
▁잃	-1546
▁결합	-1547
▁동맹	-1548
▁투표	-1549
▁n	-1550
▁웹	-1551
▁준비	-1552
▁수준	-1553
▁사령	-1554
▁본선	-1555
▁혈	-1556
▁베트남	-1557
▁개봉	-1558
▁장치	-1559
▁불교	-1560
▁고속	-1561
▁ᄇ	-1562
▁일종	-1563
▁앤	-1564
▁끌	-1565
▁아프리카	-1566
▁용어	-1567
광역시	-1568
om	-1569
▁모르	-1570
▁듯	-1571
젝트	-1572
▁알렉	-1573
▁은퇴	-1574
▁깊	-1575
▁불구	-1576
야마	-1577
▁잇	-1578
▁성적	-1579
▁끝나	-1580
▁덴	-1581
▁1997	-1582
▁다니	-1583
▁촉	-1584
▁구분	-1585
나무	-1586
일랜드	-1587
▁비디오	-1588
▁길이	-1589
▁제조	-1590
▁빛	-1591
▁아마	-1592
▁방문	-1593
▁문서	-1594
▁칠	-1595
▁정하	-1596
▁사진	-1597
▁정권	-1598
▁유전	-1599
▁요리	-1600
▁가정	-1601
▁광주	-1602
▁신문	-1603
▁몬	-1604
▁가문	-1605
▁대로	-1606
st	-1607
▁해석	-1608
▁믿	-1609
▁경험	-1610
▁폴란드	-1611
▁정리	-1612
▁드러	-1613
▁amp	-1614
▁평화	-1615
▁정확	-1616
▁그림	-1617
▁일제	-1618
▁핀	-1619
▁The	-1620
▁1996	-1621
▁왕조	-1622
▁1995	-1623
▁오늘날	-1624
▁서식	-1625
▁32	-1626
메달	-1627
▁분포	-1628
▁찬	-1629
▁추진	-1630
▁면적	-1631
▁통과	-1632
▁프로젝트	-1633
▁입장	-1634
▁방어	-1635
▁경영	-1636
▁부인	-1637
▁슈퍼	-1638
▁런던	-1639
▁려는	-1640
▁멸	-1641
▁종합	-1642
스턴	-1643
▁70	-1644
▁아직	-1645
▁ㄹ	-1646
▁민주당	-1647
▁값	-1648
▁부여	-1649
▁만화	-1650
▁경쟁	-1651
▁통치	-1652
▁깨	-1653
스로	-1654
인트	-1655
▁병원	-1656
▁인터넷	-1657
▁신라	-1658
▁발달	-1659
▁경기장	-1660
▁영역	-1661
▁프레	-1662
▁올라	-1663
▁주제	-1664
특별	-1665
▁이곳	-1666
▁폐지	-1667
▁노력	-1668
▁널리	-1669
▁끼	-1670
▁훈련	-1671
▁츠	-1672
▁부정	-1673
▁500	-1674
▁으므로	-1675
▁보도	-1676
웨이	-1677
▁그런	-1678
▁미사	-1679
▁파괴	-1680
▁이듬	-1681
▁놀	-1682
▁총리	-1683
레일	-1684
▁생물	-1685
am	-1686
아들이	-1687
▁미술	-1688
▁죽이	-1689
▁제주	-1690
▁제안	-1691
▁서부	-1692
▁꼬	-1693
▁국회의원	-1694
▁도서	-1695
▁the	-1696
▁80	-1697
▁회장	-1698
▁지키	-1699
▁복귀	-1700
▁철학	-1701
▁식민	-1702
리트	-1703
▁번호	-1704
라인	-1705
▁모으	-1706
▁법률	-1707
▁빅	-1708
▁외교	-1709
▁기여	-1710
▁야마	-1711
▁정상	-1712
▁삼성	-1713
▁완전히	-1714
▁세대	-1715
▁궤	-1716
▁요청	-1717
▁188	-1718
▁접하	-1719
▁주연	-1720
▁행성	-1721
▁남성	-1722
▁무기	-1723
▁동부	-1724
▁라디오	-1725
▁이듬해	-1726
▁소재	-1727
▁경계	-1728
▁UE	-1729
▁인식	-1730
▁1970	-1731
▁자주	-1732
▁연맹	-1733
il	-1734
▁+	-1735
▁무대	-1736
▁투수	-1737
▁ᄇ니다	-1738
▁수용	-1739
▁금지	-1740
▁등록	-1741
▁폰	-1742
▁1994	-1743
▁움직	-1744
▁제한	-1745
▁벌이	-1746
▁린	-1747
▁UEFA	-1748
▁돕	-1749
▁아시	-1750
톨릭	-1751
▁나뉘	-1752
▁지진	-1753
▁업무	-1754
▁표기	-1755
ac	-1756
▁접근	-1757
▁연구소	-1758
▁발사	-1759
▁영토	-1760
▁더불	-1761
▁뇌	-1762
▁노르	-1763
▁펼	-1764
▁박물	-1765
▁지도자	-1766
▁바탕	-1767
▁빠지	-1768
▁다리	-1769
▁결성	-1770
▁성격	-1771
머지	-1772
▁득점	-1773
▁나머지	-1774
▁스스로	-1775
▁거부	-1776
▁KBS	-1777
▁조각	-1778
▁상호	-1779
▁지대	-1780
▁반면	-1781
▁뉴스	-1782
▁아일랜드	-1783
▁수학	-1784
▁ㅕ	-1785
▁강원	-1786
▁정식	-1787
▁오래	-1788
▁트리	-1789
▁돌아가	-1790
▁오스	-1791
▁의식	-1792
▁받아들이	-1793
▁보수	-1794
▁은행	-1795
▁주의	-1796
▁펜	-1797
▁기초	-1798
▁벽	-1799
▁이기	-1800
▁필리	-1801
▁소리	-1802
▁마찬	-1803
▁마찬가지	-1804
ro	-1805
▁이렇	-1806
▁1992	-1807
▁붙이	-1808
▁캐릭	-1809
▁가톨릭	-1810
▁공작	-1811
토리	-1812
▁굴	-1813
▁임시	-1814
시코	-1815
▁다수	-1816
▁아카	-1817
▁스웨	-1818
▁45	-1819
▁바다	-1820
▁짧	-1821
▁박사	-1822
▁화학	-1823
▁아도	-1824
요일	-1825
▁장애	-1826
▁패배	-1827
임스	-1828
▁검사	-1829
▁해결	-1830
▁죽음	-1831
▁장소	-1832
▁차트	-1833
ed	-1834
▁36	-1835
▁브라질	-1836
워드	-1837
▁차원	-1838
▁실제로	-1839
▁로써	-1840
트리	-1841
모토	-1842
▁에이	-1843
▁그대로	-1844
▁of	-1845
▁이스	-1846
▁초대	-1847
▁박물관	-1848
▁긴	-1849
▁습니다	-1850
▁활용	-1851
▁마이크	-1852
▁느끼	-1853
▁유니	-1854
▁총선	-1855
▁스위	-1856
▁카드	-1857
▁유로	-1858
▁캐릭터	-1859
▁관측	-1860
▁윌리	-1861
▁기구	-1862
▁계열	-1863
▁여행	-1864
▁순위	-1865
▁식물	-1866
▁안전	-1867
▁묘사	-1868
▁인사	-1869
▁오브	-1870
▁강력	-1871
▁표시	-1872
▁지리	-1873
▁제시	-1874
▁단순	-1875
▁집합	-1876
▁1960	-1877
▁소프트웨어	-1878
▁일정	-1879
ig	-1880
▁무역	-1881
▁이외	-1882
로나	-1883
▁권력	-1884
▁여름	-1885
▁파일	-1886
▁멕	-1887
▁연극	-1888
▁스웨덴	-1889
▁회원	-1890
▁1991	-1891
▁기계	-1892
▁디지	-1893
▁지적	-1894
부르크	-1895
▁위험	-1896
▁뛰어나	-1897
▁삶	-1898
▁오스트리아	-1899
▁꾸	-1900
▁반란	-1901
▁싸우	-1902
▁히로	-1903
레일리아	-1904
▁먼저	-1905
▁붕	-1906
▁1993	-1907
▁조성	-1908
▁33	-1909
▁발행	-1910
▁취하	-1911
▁형제	-1912
▁중간	-1913
▁관광	-1914
▁기자	-1915
▁개국	-1916
▁자라	-1917
▁만큼	-1918
▁근처	-1919
▁중단	-1920
▁흡	-1921
▁협력	-1922
▁시행	-1923
▁스코	-1924
▁뮤직	-1925
▁기획	-1926
▁여객	-1927
베이	-1928
트로	-1929
▁지하철	-1930
소년	-1931
▁도착	-1932
▁량	-1933
▁외부	-1934
▁스튜	-1935
▁투자	-1936
▁사이트	-1937
사카	-1938
▁다만	-1939
▁ᆫ가	-1940
▁소개	-1941
od	-1942
배우	-1943
▁윈도	-1944
▁렌	-1945
▁번역	-1946
워크	-1947
나이	-1948
▁코드	-1949
▁단어	-1950
▁띠	-1951
▁전시	-1952
▁",	-1953
▁죄	-1954
버트	-1955
▁연장	-1956
▁유형	-1957
▁태평	-1958
니스	-1959
▁186	-1960
ve	-1961
▁해안	-1962
▁하루	-1963
특별시	-1964
▁카이	-1965
▁후기	-1966
▁들어오	-1967
▁성립	-1968
as	-1969
▁확대	-1970
▁세상	-1971
▁혜	-1972
▁근거	-1973
▁이라고	-1974
▁서울특별시	-1975
▁상징	-1976
▁혐	-1977
▁파견	-1978
▁오스트레일리아	-1979
▁공장	-1980
▁본부	-1981
▁위기	-1982
▁보유	-1983
▁내각	-1984
무원	-1985
▁수많	-1986
▁기후	-1987
▁제기	-1988
▁겪	-1989
▁생성	-1990
주시	-1991
▁케이	-1992
▁양식	-1993
▁감소	-1994
▁네트	-1995
▁다카	-1996
▁내려	-1997
▁지식	-1998
▁옹	-1999
▁보존	-2000
▁?	-2001
▁극장	-2002
▁수사	-2003
지션	-2004
▁지상	-2005
▁균	-2006
▁전략	-2007
▁멜	-2008
▁촬	-2009
▁듣	-2010
▁귀족	-2011
▁윌리엄	-2012
▁유대	-2013
▁특수	-2014
▁경상남도	-2015
▁래	-2016
▁구하	-2017
▁상업	-2018
▁멕시코	-2019
▁달성	-2020
▁특성	-2021
▁경상북도	-2022
▁h	-2023
▁대응	-2024
▁1988	-2025
▁숨	-2026
▁출생	-2027
▁187	-2028
▁영상	-2029
▁원소	-2030
▁완성	-2031
▁유리	-2032
▁캘	-2033
▁동생	-2034
▁디지털	-2035
▁단위	-2036
▁미래	-2037
▁촬영	-2038
▁님	-2039
▁당선	-2040
▁이렇게	-2041
▁이슬	-2042
▁촌	-2043
▁계승	-2044
▁학위	-2045
아시아	-2046
▁시티	-2047
▁체포	-2048
▁싶	-2049
▁34	-2050
티아	-2051
▁짓	-2052
▁근무	-2053
▁식민지	-2054
▁타이틀	-2055
가리	-2056
▁젊	-2057
▁이란	-2058
▁종목	-2059
회사	-2060
▁률	-2061
▁전달	-2062
▁권리	-2063
▁자본	-2064
▁생명	-2065
▁38	-2066
▁수비	-2067
▁마치	-2068
id	-2069
▁흐르	-2070
아내	-2071
▁이집	-2072
▁코치	-2073
▁이집트	-2074
▁체결	-2075
▁시청	-2076
▁듀	-2077
▁옆	-2078
▁측정	-2079
▁설정	-2080
▁판단	-2081
▁나중	-2082
▁직후	-2083
▁90	-2084
▁승격	-2085
▁소수	-2086
▁마사	-2087
▁몇몇	-2088
▁정치인	-2089
가와	-2090
▁2021	-2091
▁맹	-2092
▁문화재	-2093
▁크로	-2094
▁알렉산	-2095
▁대륙	-2096
▁48	-2097
▁벌어지	-2098
▁라인	-2099
▁주식	-2100
▁걸리	-2101
▁국왕	-2102
모리	-2103
▁전환	-2104
▁1989	-2105
▁채널	-2106
▁틀	-2107
▁낳	-2108
▁아내	-2109
▁1950	-2110
▁개정	-2111
▁스키	-2112
▁도서관	-2113
▁이주	-2114
▁헨	-2115
▁관찰	-2116
▁미군	-2117
▁발매되	-2118
▁즐	-2119
NA	-2120
▁본관	-2121
us	-2122
▁펼치	-2123
▁맞추	-2124
▁톤	-2125
▁의견	-2126
ec	-2127
▁신경	-2128
▁개통	-2129
▁세르	-2130
▁포르투	-2131
▁청년	-2132
▁녹음	-2133
▁지위	-2134
▁답	-2135
▁엘리	-2136
▁시위	-2137
▁납	-2138
▁밑	-2139
▁홍콩	-2140
▁제정	-2141
▁주어지	-2142
▁결승전	-2143
▁텍	-2144
▁해외	-2145
▁얼마	-2146
▁',	-2147
▁은하	-2148
▁종료	-2149
▁취임	-2150
▁헝	-2151
▁셰	-2152
and	-2153
▁새로	-2154
▁동계	-2155
▁미사일	-2156
▁범죄	-2157
▁즉위	-2158
▁주인공	-2159
▁쌓	-2160
▁계산	-2161
디아	-2162
▁사회주의	-2163
▁교체	-2164
▁상하	-2165
▁음식	-2166
▁예수	-2167
스티	-2168
▁충돌	-2169
▁후쿠	-2170
▁아키	-2171
▁신학	-2172
▁300	-2173
코드	-2174
ad	-2175
▁남북	-2176
▁천황	-2177
▁셀	-2178
▁달하	-2179
▁장기	-2180
▁e	-2181
교회	-2182
▁전차	-2183
▁아라	-2184
▁으면서	-2185
▁개선	-2186
▁주목	-2187
▁빼	-2188
▁비용	-2189
▁MBC	-2190
▁자격	-2191
▁수정	-2192
▁사후	-2193
▁춘	-2194
▁제임스	-2195
▁바이러스	-2196
▁벗	-2197
▁원정	-2198
▁|	-2199
▁건강	-2200
▁았었	-2201
▁공급	-2202
▁스티	-2203
▁계기	-2204
▁1945	-2205
▁본래	-2206
▁비밀	-2207
▁소장	-2208
▁모이	-2209
ent	-2210
전히	-2211
▁가격	-2212
▁네트워크	-2213
스카	-2214
▁궤도	-2215
▁명단	-2216
▁공부	-2217
▁전라남도	-2218
▁심리	-2219
▁컬	-2220
▁펠	-2221
▁누구	-2222
▁부모	-2223
▁합류	-2224
▁라운드	-2225
▁제거	-2226
▁자원	-2227
▁이래	-2228
▁카운	-2229
▁농업	-2230
▁홈런	-2231
▁랑	-2232
▁명예	-2233
▁건너	-2234
▁객	-2235
▁체육	-2236
▁성우	-2237
▁집중	-2238
▁거대	-2239
▁각종	-2240
▁시내	-2241
50	-2242
보이	-2243
▁감염	-2244
▁롤	-2245
▁입학	-2246
▁에드	-2247
▁증명	-2248
▁털	-2249
▁오후	-2250
▁작성	-2251
▁가입	-2252
▁인근	-2253
▁천문	-2254
▁군인	-2255
▁읽	-2256
▁전사	-2257
▁소송	-2258
▁국경	-2259
▁이슬람	-2260
▁저항	-2261
▁ㅏㅆ	-2262
▁베네	-2263
▁피하	-2264
▁학문	-2265
▁공군	-2266
▁측면	-2267
피아	-2268
티나	-2269
▁미디어	-2270
▁통제	-2271
베르	-2272
▁강조	-2273
▁왼	-2274
▁피아	-2275
▁병력	-2276
라도	-2277
▁터미	-2278
▁인수	-2279
▁신호	-2280
동안	-2281
▁아우	-2282
▁세이	-2283
▁울산	-2284
▁블랙	-2285
▁이번	-2286
▁찰	-2287
▁줄이	-2288
▁터키	-2289
▁광고	-2290
▁플로	-2291
▁실행	-2292
▁태평양	-2293
▁St	-2294
리포	-2295
▁너무	-2296
▁질량	-2297
▁해방	-2298
▁만약	-2299
ot	-2300
▁콩	-2301
▁변호	-2302
▁포지션	-2303
▁엑	-2304
▁기회	-2305
▁아무	-2306
▁정착	-2307
▁병사	-2308
▁나서	-2309
▁쇠	-2310
니어	-2311
▁무장	-2312
도로	-2313
▁냉	-2314
▁겨울	-2315
▁오른	-2316
▁최소	-2317
▁터미널	-2318
▁노동자	-2319
▁전반	-2320
▁제목	-2321
철도	-2322
▁금융	-2323
▁쉬	-2324
▁x	-2325
un	-2326
드로	-2327
▁약간	-2328
▁몽골	-2329
▁강원도	-2330
▁유도	-2331
▁편집	-2332
▁마리아	-2333
▁바람	-2334
▁37	-2335
ow	-2336
▁국방	-2337
▁마쓰	-2338
▁in	-2339
▁잎	-2340
▁고전	-2341
▁사례	-2342
▁전개	-2343
▁환자	-2344
▁사라지	-2345
▁바라	-2346
▁혐의	-2347
스키	-2348
▁ᆫ다면	-2349
▁지점	-2350
▁재산	-2351
▁도중	-2352
▁허용	-2353
▁표면	-2354
▁마련	-2355
▁근대	-2356
소리	-2357
▁카르	-2358
오카	-2359
▁재정	-2360
▁합병	-2361
▁충분	-2362
▁인디	-2363
▁밀도	-2364
▁무렵	-2365
▁가스	-2366
▁이하	-2367
▁힐	-2368
▁학년	-2369
▁헝가리	-2370
▁ㅕ서	-2371
▁전력	-2372
▁1987	-2373
▁오리	-2374
▁비트	-2375
▁오사카	-2376
▁민간	-2377
▁윈도우	-2378
▁빨	-2379
▁선수단	-2380
▁현실	-2381
▁라이브	-2382
▁여전히	-2383
▁포르투갈	-2384
▁유엔	-2385
▁보고	-2386
▁붕괴	-2387
ra	-2388
▁등급	-2389
▁계급	-2390
▁전역	-2391
▁뒷	-2392
▁킹	-2393
▁샌	-2394
▁가져	-2395
▁그해	-2396
▁루이	-2397
▁양성	-2398
▁범위	-2399
▁w	-2400
▁대수	-2401
▁41	-2402
▁령	-2403
▁숲	-2404
▁원칙	-2405
▁재직	-2406
마크	-2407
▁51	-2408
▁강제	-2409
▁조치	-2410
▁공공	-2411
▁후지	-2412
▁엔터	-2413
▁적극	-2414
▁꼬리	-2415
▁성질	-2416
▁위협	-2417
▁수입	-2418
▁행하	-2419
▁충청남도	-2420
▁동료	-2421
▁1986	-2422
▁공주	-2423
▁군주	-2424
▁임무	-2425
▁온도	-2426
▁이미지	-2427
▁전선	-2428
▁업체	-2429
▁논문	-2430
▁영화배우	-2431
▁스튜디오	-2432
▁토론	-2433
▁1984	-2434
▁대대	-2435
▁캘리포	-2436
▁위원장	-2437
▁이제	-2438
▁승인	-2439
▁공업	-2440
▁클라	-2441
▁대학원	-2442
▁봄	-2443
▁양자	-2444
▁구축	-2445
▁거래	-2446
▁위성	-2447
▁꿈	-2448
▁고구	-2449
▁수립	-2450
▁교사	-2451
▁출발	-2452
▁회복	-2453
▁잭	-2454
▁점차	-2455
▁수단	-2456
▁확보	-2457
▁섭	-2458
▁성인	-2459
▁항상	-2460
테르	-2461
▁다섯	-2462
▁신화	-2463
▁앞서	-2464
▁핀란드	-2465
▁역대	-2466
▁필리핀	-2467
▁둥	-2468
▁캘리포니아	-2469
▁공산당	-2470
▁드래	-2471
▁아시안	-2472
▁증거	-2473
러지	-2474
▁채택	-2475
▁스타일	-2476
ch	-2477
▁장비	-2478
▁규칙	-2479
마스	-2480
▁의료	-2481
▁든	-2482
▁강의	-2483
▁기대	-2484
▁잡지	-2485
바이	-2486
▁올라가	-2487
ur	-2488
▁그래서	-2489
▁시인	-2490
▁어떻	-2491
▁첨	-2492
주교	-2493
▁합의	-2494
고리	-2495
▁남아	-2496
▁39	-2497
▁폭발	-2498
▁라며	-2499
▁스파	-2500
▁나카	-2501
▁에피	-2502
▁만족	-2503
▁부근	-2504
▁이스라	-2505
▁얼굴	-2506
▁모스크	-2507
▁개편	-2508
▁욕	-2509
▁스위스	-2510
▁선생	-2511
▁남편	-2512
▁진화	-2513
▁400	-2514
▁일원	-2515
▁매년	-2516
▁이승	-2517
▁불가	-2518
▁장면	-2519
▁튀	-2520
▁기지	-2521
▁경향	-2522
▁대기	-2523
로드	-2524
▁1985	-2525
▁이스라엘	-2526
▁64	-2527
▁군단	-2528
▁대형	-2529
▁II	-2530
▁토지	-2531
▁가사	-2532
▁앞두	-2533
▁해체	-2534
▁통계	-2535
▁분자	-2536
▁끊	-2537
▁스리	-2538
▁강점	-2539
▁뜨	-2540
▁종이	-2541
▁태풍	-2542
▁붉	-2543
▁아메리카	-2544
▁게이	-2545
▁간주	-2546
다리	-2547
▁둘러	-2548
▁아주	-2549
데미	-2550
▁움직이	-2551
ut	-2552
▁종종	-2553
▁경주	-2554
▁캄	-2555
▁어린	-2556
▁기억	-2557
▁귀국	-2558
백질	-2559
▁서양	-2560
우드	-2561
▁조합	-2562
▁낭	-2563
▁항성	-2564
▁ㅏ서	-2565
키아	-2566
레이드	-2567
▁아랍	-2568
▁라면	-2569
▁수원	-2570
▁성과	-2571
▁의학	-2572
▁아름	-2573
고기	-2574
▁청소년	-2575
▁감정	-2576
▁확실	-2577
▁i	-2578
▁폼	-2579
▁스피	-2580
▁에게서	-2581
▁저지	-2582
▁클래	-2583
▁좀	-2584
▁사항	-2585
▁초반	-2586
▁맛	-2587
▁보장	-2588
▁레코드	-2589
▁아나	-2590
▁향상	-2591
▁대장	-2592
▁43	-2593
▁삼국	-2594
um	-2595
▁심하	-2596
▁투어	-2597
▁그곳	-2598
▁탑재	-2599
▁침공	-2600
▁장식	-2601
▁고양	-2602
▁아카데미	-2603
▁짐	-2604
▁소년	-2605
▁융	-2606
▁LG	-2607
▁카메	-2608
어들	-2609
▁변하	-2610
▁자금	-2611
오프	-2612
▁메이저	-2613
▁랭	-2614
▁나폴	-2615
오스	-2616
▁청나라	-2617
▁아름답	-2618
▁평양	-2619
▁켄	-2620
▁불과	-2621
▁고구려	-2622
▁선고	-2623
보드	-2624
요시	-2625
▁42	-2626
▁나치	-2627
▁남동	-2628
▁중화민국	-2629
▁신앙	-2630
▁가로	-2631
▁대립	-2632
▁보병	-2633
▁단백질	-2634
▁줄거리	-2635
ir	-2636
ver	-2637
▁전설	-2638
▁라틴	-2639
▁우선	-2640
▁독자	-2641
▁잠시	-2642
▁확정	-2643
네스	-2644
▁숭	-2645
타인	-2646
▁고문	-2647
▁br	-2648
라노	-2649
▁새기	-2650
▁만주	-2651
틀랜드	-2652
▁박쥐	-2653
▁55	-2654
▁선거구	-2655
▁단지	-2656
▁1982	-2657
▁스케	-2658
▁신설	-2659
▁살해	-2660
운동	-2661
▁카운티	-2662
소드	-2663
▁차별	-2664
네시아	-2665
▁지시	-2666
▁스카	-2667
▁우수	-2668
▁복잡	-2669
▁구체	-2670
▁판결	-2671
▁철도역	-2672
▁의장	-2673
▁전화	-2674
▁탄생	-2675
▁삭	-2676
무르	-2677
▁육상	-2678
에르	-2679
▁냐	-2680
▁비율	-2681
▁검찰	-2682
▁예상	-2683
▁창설	-2684
▁성당	-2685
▁함대	-2686
▁합치	-2687
im	-2688
▁광역시	-2689
다이	-2690
▁온라인	-2691
FC	-2692
▁편입	-2693
▁브랜드	-2694
일러	-2695
▁법인	-2696
▁왕위	-2697
▁재단	-2698
▁44	-2699
▁마크	-2700
▁솔로	-2701
▁덴마크	-2702
트라	-2703
누스	-2704
▁수출	-2705
▁저서	-2706
▁1983	-2707
▁브리	-2708
▁공유	-2709
뜨리	-2710
▁동의	-2711
▁짜	-2712
이크	-2713
▁고향	-2714
▁유학	-2715
▁킬	-2716
▁세종	-2717
▁강점기	-2718
▁보급	-2719
의회	-2720
▁반도	-2721
▁가하	-2722
▁47	-2723
▁묻	-2724
싱턴	-2725
▁참석	-2726
▁노예	-2727
▁핵심	-2728
▁전후	-2729
▁집행	-2730
▁Z	-2731
▁하늘	-2732
▁마드리	-2733
CA	-2734
▁암살	-2735
▁애플	-2736
▁헤이	-2737
▁둘러싸	-2738
▁고정	-2739
▁협상	-2740
뿌리	-2741
ay	-2742
반도	-2743
없이	-2744
▁무엇	-2745
▁마드리드	-2746
▁사전	-2747
▁보안	-2748
▁본격	-2749
▁법칙	-2750
▁어도	-2751
▁후손	-2752
▁저장	-2753
하라	-2754
▁회전	-2755
▁롯	-2756
▁이성	-2757
비드	-2758
▁중반	-2759
▁사우	-2760
▁의무	-2761
▁오픈	-2762
▁아르헨	-2763
▁플랫	-2764
▁논리	-2765
▁주교	-2766
▁대비	-2767
▁관료	-2768
▁권한	-2769
▁자세	-2770
▁카를	-2771
퍼스	-2772
▁184	-2773
▁75	-2774
각형	-2775
▁전용	-2776
▁산맥	-2777
▁대항	-2778
레이션	-2779
▁숫	-2780
▁순서	-2781
▁연고	-2782
▁180	-2783
▁이익	-2784
▁전혀	-2785
▁상품	-2786
▁옷	-2787
셔널	-2788
▁하위	-2789
▁v	-2790
▁베를	-2791
▁공학	-2792
▁중세	-2793
▁유적	-2794
▁베이스	-2795
▁1972	-2796
▁아르헨티나	-2797
▁플레이오프	-2798
문화	-2799
▁단일	-2800
▁시각	-2801
▁어린이	-2802
원군	-2803
▁갈등	-2804
▁공기	-2805
▁직원	-2806
리스트	-2807
▁인상	-2808
▁로버트	-2809
▁에피소드	-2810
▁말기	-2811
▁1920	-2812
▁아스	-2813
▁켈	-2814
터리	-2815
▁46	-2816
▁프란	-2817
▁의도	-2818
▁CD	-2819
▁조금	-2820
바르	-2821
▁모리	-2822
▁보조	-2823
▁기하	-2824
▁스크	-2825
▁중심지	-2826
▁운전	-2827
▁창조	-2828
▁아파	-2829
▁공포	-2830
▁잘못	-2831
▁협정	-2832
어스	-2833
▁아미	-2834
▁흔히	-2835
▁변호사	-2836
▁인권	-2837
▁가르치	-2838
▁공무원	-2839
▁요한	-2840
▁원리	-2841
▁워싱턴	-2842
▁효소	-2843
▁원주	-2844
▁비난	-2845
▁수여	-2846
▁성경	-2847
▁글로	-2848
▁1979	-2849
▁하드	-2850
▁별도	-2851
▁마시	-2852
▁레드	-2853
▁밀리	-2854
▁셋	-2855
▁정복	-2856
▁덮	-2857
▁In	-2858
퍼드	-2859
▁전라북도	-2860
▁작곡가	-2861
▁투입	-2862
▁1930	-2863
▁엠	-2864
정부	-2865
▁교류	-2866
▁파크	-2867
▁오히	-2868
▁우크	-2869
▁장착	-2870
▁소식	-2871
▁벡	-2872
▁논쟁	-2873
▁플라	-2874
▁방면	-2875
▁kg	-2876
무라	-2877
▁넘어	-2878
▁본인	-2879
사키	-2880
▁현장	-2881
▁빙	-2882
▁건국	-2883
▁공화	-2884
▁논의	-2885
▁심각	-2886
▁어떻게	-2887
▁원작	-2888
▁호텔	-2889
▁항복	-2890
▁1981	-2891
▁1973	-2892
▁150	-2893
▁공산주의	-2894
10	-2895
▁아침	-2896
▁훨	-2897
▁택	-2898
▁중부	-2899
▁교토	-2900
os	-2901
▁출마	-2902
▁놓이	-2903
▁건조	-2904
▁마이클	-2905
▁헨리	-2906
▁인류	-2907
▁금메달	-2908
▁무리	-2909
▁노스	-2910
▁유전자	-2911
▁운용	-2912
▁요새	-2913
▁사태	-2914
▁투쟁	-2915
▁세인트	-2916
▁물러	-2917
▁훨씬	-2918
▁코미	-2919
▁오토	-2920
▁창립	-2921
다가	-2922
▁니콜	-2923
▁연합군	-2924
▁합성	-2925
▁연산	-2926
▁오랜	-2927
▁코스	-2928
▁뿌리	-2929
▁라도	-2930
겨나	-2931
▁로드	-2932
▁오른쪽	-2933
▁김정	-2934
▁멸망	-2935
▁예산	-2936
▁에어	-2937
▁추측	-2938
▁형사	-2939
▁ㄴ다	-2940
▁절대	-2941
▁플레이어	-2942
▁산하	-2943
▁금속	-2944
▁방출	-2945
▁태국	-2946
▁드러나	-2947
▁1940	-2948
▁패하	-2949
▁릴	-2950
▁한때	-2951
▁인정받	-2952
30	-2953
▁인공	-2954
ter	-2955
▁서기	-2956
▁왼쪽	-2957
em	-2958
▁메시	-2959
▁노르웨이	-2960
▁모스크바	-2961
▁구별	-2962
▁찍	-2963
▁복합	-2964
▁던지	-2965
▁북서	-2966
▁베이징	-2967
▁벗어나	-2968
▁1974	-2969
BO	-2970
일보	-2971
▁아프	-2972
▁주위	-2973
▁미니	-2974
▁트랙	-2975
▁사령관	-2976
▁스코틀랜드	-2977
▁효율	-2978
▁해양	-2979
▁탁	-2980
▁각본	-2981
▁제자	-2982
▁오히려	-2983
▁반복	-2984
▁185	-2985
▁인종	-2986
카와	-2987
▁오전	-2988
▁전철	-2989
▁블루	-2990
▁연관	-2991
▁정비	-2992
▁사법	-2993
▁입자	-2994
▁제출	-2995
시스	-2996
▁해상	-2997
젤레스	-2998
▁가져오	-2999
▁출장	-3000
▁뽑	-3001
▁노부	-3002
▁주기	-3003
▁댄	-3004
▁읍	-3005
▁숫자	-3006
▁집안	-3007
▁델	-3008
▁신체	-3009
▁베를린	-3010
▁군수	-3011
▁보험	-3012
▁SBS	-3013
▁웨스트	-3014
▁슬로	-3015
▁마침	-3016
▁분쟁	-3017
▁54	-3018
▁인터뷰	-3019
▁하나님	-3020
▁중대	-3021
머스	-3022
▁목사	-3023
▁포위	-3024
▁인조	-3025
나이티	-3026
▁흡수	-3027
▁빌리	-3028
듀서	-3029
▁프로듀서	-3030
붙이	-3031
▁축제	-3032
▁유나이티	-3033
▁디스	-3034
▁1948	-3035
아오	-3036
▁거절	-3037
▁이민	-3038
▁수송	-3039
▁포기	-3040
▁소방	-3041
▁시점	-3042
▁구속	-3043
▁취급	-3044
▁소녀	-3045
▁자이	-3046
▁1968	-3047
▁관점	-3048
▁활발	-3049
▁1976	-3050
▁북동	-3051
▁퍼지	-3052
▁개시	-3053
▁명성	-3054
▁건립	-3055
▁우스	-3056
▁보스	-3057
▁밖에	-3058
▁전공	-3059
▁출입	-3060
▁고용	-3061
▁갤	-3062
▁견해	-3063
▁텐	-3064
op	-3065
▁직업	-3066
▁사령부	-3067
▁진보	-3068
▁1975	-3069
▁넘기	-3070
▁경성	-3071
▁즐기	-3072
▁한국어	-3073
데스	-3074
▁응용	-3075
▁활성	-3076
▁히데	-3077
▁부활	-3078
서트	-3079
▁국도	-3080
▁안타	-3081
▁주택	-3082
▁학습	-3083
▁성능	-3084
도르	-3085
▁프라	-3086
▁신성	-3087
▁불법	-3088
▁실리	-3089
▁동원	-3090
▁장악	-3091
▁주전	-3092
▁농민	-3093
▁소스	-3094
▁영화제	-3095
▁여부	-3096
▁취득	-3097
▁정체	-3098
▁음력	-3099
리어	-3100
▁비록	-3101
▁일치	-3102
▁명명	-3103
▁56	-3104
▁직전	-3105
▁총독	-3106
ag	-3107
▁고유	-3108
▁먹이	-3109
▁보컬	-3110
▁유물	-3111
▁후원	-3112
▁전부	-3113
▁폭력	-3114
▁1978	-3115
▁대리	-3116
▁1971	-3117
▁52	-3118
▁파라	-3119
▁포도	-3120
▁Q	-3121
▁국장	-3122
▁1963	-3123
▁미드	-3124
▁한자	-3125
▁더라도	-3126
▁여객철도	-3127
▁늘어나	-3128
▁봉하	-3129
▁연료	-3130
▁혼란	-3131
에트	-3132
리케	-3133
키스탄	-3134
▁천체	-3135
▁항공기	-3136
▁문헌	-3137
▁선교	-3138
▁코미디	-3139
▁65	-3140
▁약속	-3141
▁편지	-3142
▁시리아	-3143
▁타이완	-3144
세이	-3145
▁49	-3146
▁그리스도	-3147
▁누리	-3148
▁닌	-3149
▁교차	-3150
▁브레	-3151
▁상당히	-3152
▁임금	-3153
산시	-3154
▁수술	-3155
▁랜	-3156
메리	-3157
비치	-3158
▁주관	-3159
ce	-3160
자기	-3161
▁팝	-3162
▁도달	-3163
쿠라	-3164
▁관직	-3165
▁북아	-3166
▁로스앤	-3167
▁로스앤젤레스	-3168
▁백제	-3169
▁제어	-3170
▁본사	-3171
릭스	-3172
기에	-3173
▁일대	-3174
▁미나	-3175
▁철수	-3176
▁반영	-3177
▁스미	-3178
▁아테	-3179
▁화물	-3180
▁대화	-3181
▁수집	-3182
▁상륙	-3183
▁넷	-3184
▁테러	-3185
▁1969	-3186
▁다며	-3187
▁도구	-3188
▁주간	-3189
▁스마	-3190
▁의존	-3191
노스	-3192
▁영업	-3193
▁고종	-3194
▁교환	-3195
▁179	-3196
▁학술	-3197
▁캠퍼스	-3198
▁콘서트	-3199
▁00	-3200
▁물러나	-3201
▁십자	-3202
▁계통	-3203
▁아사	-3204
OS	-3205
라비아	-3206
▁장교	-3207
▁전파	-3208
▁프로세	-3209
▁항구	-3210
▁그런데	-3211
▁증상	-3212
▁정지	-3213
▁해산	-3214
▁보관	-3215
▁데이비드	-3216
▁재료	-3217
▁학부	-3218
▁롯데	-3219
▁정원	-3220
▁사운드	-3221
▁구성원	-3222
▁자살	-3223
▁53	-3224
▁..	-3225
▁전문가	-3226
▁모드	-3227
▁프리미	-3228
▁톰	-3229
▁상승	-3230
▁연재	-3231
▁하우스	-3232
▁개체	-3233
▁주식회사	-3234
▁코로나	-3235
▁모시	-3236
▁나아가	-3237
▁1946	-3238
▁영향력	-3239
▁방사	-3240
▁백작	-3241
▁SK	-3242
▁부임	-3243
▁판서	-3244
▁좁	-3245
▁김영	-3246
▁박정	-3247
▁핑	-3248
공항	-3249
▁거기	-3250
▁살인	-3251
▁반발	-3252
▁허가	-3253
oc	-3254
▁발언	-3255
▁영입	-3256
▁간단	-3257
▁고리	-3258
▁그레	-3259
▁공통	-3260
▁겐	-3261
▁진입	-3262
▁리스	-3263
▁헤르	-3264
▁에도	-3265
▁질병	-3266
▁불상	-3267
▁망명	-3268
▁제일	-3269
▁위반	-3270
▁사유	-3271
▁파트	-3272
▁1964	-3273
▁신분	-3274
병대	-3275
▁외국인	-3276
▁원하	-3277
▁99	-3278
▁니시	-3279
▁브루	-3280
▁페이	-3281
▁기도	-3282
미터	-3283
▁절차	-3284
▁화성	-3285
▁베스트	-3286
▁드리	-3287
▁보건	-3288
▁한반도	-3289
▁리더	-3290
▁US	-3291
▁시호	-3292
▁자녀	-3293
▁참전	-3294
▁감사	-3295
▁인도네시아	-3296
▁사장	-3297
▁저작	-3298
▁학원	-3299
▁벨기에	-3300
ri	-3301
▁미터	-3302
▁대략	-3303
▁서버	-3304
▁포트	-3305
▁변형	-3306
▁스프	-3307
▁소비에트	-3308
▁약하	-3309
▁탈락	-3310
▁고도	-3311
▁변환	-3312
▁창단	-3313
▁꼭	-3314
▁시카	-3315
▁충청북도	-3316
▁횡	-3317
▁조작	-3318
▁진압	-3319
▁트랜	-3320
▁58	-3321
▁폴리	-3322
▁피아노	-3323
▁스토	-3324
▁승진	-3325
▁탈출	-3326
이어	-3327
▁마케	-3328
▁통상	-3329
▁가을	-3330
▁1000	-3331
▁락	-3332
▁부장	-3333
하마	-3334
정식	-3335
▁픽	-3336
▁PC	-3337
▁학회	-3338
▁and	-3339
오르	-3340
▁채용	-3341
▁도망	-3342
▁루이스	-3343
▁국제공항	-3344
▁복무	-3345
▁식품	-3346
▁임대	-3347
▁청구	-3348
▁요인	-3349
▁주년	-3350
▁현역	-3351
▁닥	-3352
▁신청	-3353
▁말레이	-3354
▁콤	-3355
▁공동체	-3356
▁다스	-3357
▁그치	-3358
▁문장	-3359
▁누르	-3360
▁쫓	-3361
▁지붕	-3362
▁분열	-3363
▁요코	-3364
▁작사	-3365
▁이중	-3366
▁라이트	-3367
▁머무르	-3368
▁동남	-3369
▁방송국	-3370
▁생태	-3371
▁장수	-3372
▁트라	-3373
▁벼	-3374
저우	-3375
ation	-3376
▁합격	-3377
▁기호	-3378
▁1977	-3379
▁큐	-3380
▁연출	-3381
▁조절	-3382
▁트로	-3383
프리	-3384
▁예측	-3385
▁탄소	-3386
▁FA	-3387
▁화면	-3388
▁민법	-3389
▁수영	-3390
▁포로	-3391
▁학과	-3392
아버지	-3393
▁1949	-3394
천군	-3395
▁임의	-3396
▁띄	-3397
▁신인	-3398
igh	-3399
▁지급	-3400
로그	-3401
▁엑스	-3402
▁친일	-3403
▁막부	-3404
▁국무	-3405
▁특이	-3406
크스	-3407
▁부부	-3408
카이도	-3409
▁기법	-3410
▁위상	-3411
▁이치	-3412
▁장르	-3413
▁취소	-3414
▁카메라	-3415
▁88	-3416
려움	-3417
▁오페	-3418
▁동작	-3419
▁상원	-3420
▁메모리	-3421
▁앵	-3422
▁62	-3423
성군	-3424
▁레스	-3425
▁선보이	-3426
▁참고	-3427
▁1962	-3428
▁전동	-3429
▁서식지	-3430
▁수소	-3431
▁출간	-3432
▁실수	-3433
▁정기	-3434
▁황금	-3435
▁선전	-3436
▁광장	-3437
▁배출	-3438
▁수리	-3439
▁스토리	-3440
▁독립운동	-3441
드시	-3442
▁흉	-3443
▁칭하	-3444
▁코파	-3445
문화재	-3446
▁레오	-3447
▁화재	-3448
타르	-3449
▁개조	-3450
▁생존	-3451
▁선조	-3452
▁처형	-3453
▁방지	-3454
▁예비	-3455
▁1967	-3456
브리	-3457
▁남서	-3458
▁흑인	-3459
▁Ch	-3460
▁주둔	-3461
▁기체	-3462
▁이승만	-3463
▁는가	-3464
▁힘들	-3465
▁57	-3466
▁도전	-3467
▁왕자	-3468
▁연안	-3469
▁현지	-3470
▁어떠	-3471
▁호수	-3472
▁로켓	-3473
▁이시	-3474
▁롱	-3475
▁등지	-3476
▁서구	-3477
▁일본군	-3478
▁임진	-3479
▁공정	-3480
▁오스만	-3481
▁그라	-3482
▁콘스탄	-3483
에이	-3484
포르	-3485
▁경로	-3486
▁동성	-3487
▁서원	-3488
▁농구	-3489
▁루트	-3490
▁희망	-3491
천시	-3492
▁크리	-3493
▁고지	-3494
▁You	-3495
▁히트	-3496
▁방정식	-3497
수록	-3498
▁천연	-3499
▁제대로	-3500
▁반드시	-3501
아나	-3502
▁의혹	-3503
▁싸움	-3504
▁여단	-3505
▁동기	-3506
▁성향	-3507
▁좌우	-3508
▁늦	-3509
인물	-3510
▁분명	-3511
먼트	-3512
▁동아	-3513
▁무덤	-3514
▁진주	-3515
▁전주	-3516
▁노리	-3517
nd	-3518
▁맞서	-3519
▁맞이	-3520
▁고치	-3521
▁노벨	-3522
▁터널	-3523
▁톱	-3524
▁그레이	-3525
▁181	-3526
▁타임	-3527
▁스탠	-3528
▁미국인	-3529
▁인지	-3530
▁압력	-3531
▁우려	-3532
더스	-3533
▁전면	-3534
▁파악	-3535
▁둘째	-3536
▁이온	-3537
▁한계	-3538
바라	-3539
▁목소리	-3540
▁으려	-3541
▁내전	-3542
▁묵	-3543
▁법정	-3544
▁전형	-3545
▁신뢰	-3546
▁엄청	-3547
▁코르	-3548
▁멘	-3549
베스	-3550
▁유기	-3551
▁66	-3552
▁흘	-3553
▁1966	-3554
▁꺾	-3555
라이언	-3556
▁독특	-3557
▁돌리	-3558
티브	-3559
▁녹색	-3560
▁r	-3561
▁에르	-3562
ST	-3563
▁개신	-3564
▁해리	-3565
▁처벌	-3566
▁삽	-3567
▁범주	-3568
▁글자	-3569
▁비평	-3570
▁덧	-3571
▁물체	-3572
▁%,	-3573
▁유행	-3574
▁체코	-3575
▁홋	-3576
ON	-3577
▁68	-3578
▁아동	-3579
▁별명	-3580
▁아파트	-3581
▁람	-3582
▁복지	-3583
이치	-3584
▁1965	-3585
▁순환	-3586
▁어디	-3587
▁아리	-3588
▁매일	-3589
▁리처	-3590
▁61	-3591
▁부사	-3592
▁분할	-3593
▁오프	-3594
방송	-3595
▁추구	-3596
▁방해	-3597
▁KBO	-3598
▁드물	-3599
▁모형	-3600
▁밥	-3601
▁퀸	-3602
▁평등	-3603
▁분해	-3604
▁183	-3605
▁타격	-3606
▁가시	-3607
▁실질	-3608
▁집권	-3609
▁클레	-3610
▁바둑	-3611
▁간행	-3612
▁구현	-3613
▁알렉산드	-3614
질랜드	-3615
치아	-3616
▁화산	-3617
▁묶	-3618
▁뉴질랜드	-3619
▁곱	-3620
▁김일	-3621
▁마르크	-3622
▁광복	-3623
▁한정	-3624
▁웅	-3625
ER	-3626
▁희생	-3627
르타	-3628
▁부진	-3629
▁일찍	-3630
▁찌	-3631
▁찰스	-3632
▁빼앗	-3633
피스	-3634
▁풍부	-3635
▁뮤지	-3636
▁최다	-3637
▁첼	-3638
art	-3639
유럽	-3640
▁사립	-3641
▁플래	-3642
▁완료	-3643
▁가상	-3644
▁시조	-3645
텐츠	-3646
▁일식	-3647
▁1961	-3648
▁벡터	-3649
디션	-3650
▁800	-3651
▁86	-3652
▁파르	-3653
▁마침내	-3654
▁사원	-3655
▁엄청나	-3656
▁테이	-3657
▁마법	-3658
▁물리학	-3659
▁대개	-3660
▁으니	-3661
▁대법	-3662
▁션	-3663
▁손자	-3664
▁통산	-3665
▁사냥	-3666
▁근본	-3667
▁악기	-3668
▁분위	-3669
▁의지	-3670
▁레인	-3671
▁전원	-3672
▁중기	-3673
▁점점	-3674
라드	-3675
▁호주	-3676
▁확산	-3677
▁오페라	-3678
▁캔	-3679
▁일본인	-3680
▁분기	-3681
▁600	-3682
▁120	-3683
투스	-3684
▁나들	-3685
믹스	-3686
▁사형	-3687
▁출범	-3688
▁나들목	-3689
▁부하	-3690
ice	-3691
▁웨이	-3692
▁판사	-3693
▁갈색	-3694
▁흰	-3695
▁알파	-3696
▁프린	-3697
사자	-3698
est	-3699
다르	-3700
▁회담	-3701
▁창원	-3702
▁영웅	-3703
▁유치	-3704
▁충격	-3705
▁IS	-3706
▁여론	-3707
▁완공	-3708
▁시카고	-3709
▁리가	-3710
▁기둥	-3711
▁명확	-3712
▁드러내	-3713
▁개입	-3714
▁샘	-3715
은행	-3716
▁교향	-3717
▁날개	-3718
▁저술	-3719
ia	-3720
▁훗	-3721
▁단독	-3722
▁바치	-3723
▁제이	-3724
▁대공	-3725
▁무게	-3726
▁가나	-3727
▁사임	-3728
▁포인트	-3729
▁모토	-3730
▁인접	-3731
▁발굴	-3732
▁훌	-3733
▁가까	-3734
▁메리	-3735
▁악화	-3736
▁이자	-3737
▁적절	-3738
▁인증	-3739
▁편찬	-3740
▁98	-3741
▁들어서	-3742
▁순간	-3743
▁조별	-3744
▁닛	-3745
▁사마	-3746
▁1919	-3747
▁홍보	-3748
틀러	-3749
▁문명	-3750
사스	-3751
▁상위	-3752
▁쏘	-3753
TV	-3754
▁무시	-3755
▁의심	-3756
▁뚜	-3757
▁조종	-3758
세우	-3759
ap	-3760
▁re	-3761
▁키우	-3762
▁굽	-3763
▁명나라	-3764
▁카라	-3765
▁함락	-3766
▁시드	-3767
▁탐사	-3768
AR	-3769
▁기기	-3770
▁렀	-3771
▁그때	-3772
▁등장인물	-3773
▁성분	-3774
▁당초	-3775
▁연간	-3776
▁도쿠	-3777
▁자극	-3778
▁징역	-3779
▁서명	-3780
▁순수	-3781
▁곽	-3782
▁접촉	-3783
▁득표	-3784
▁연구원	-3785
▁각지	-3786
ak	-3787
▁1944	-3788
▁추천	-3789
▁임기	-3790
▁모임	-3791
▁사정	-3792
우리	-3793
▁이닝	-3794
▁진정	-3795
▁드라이	-3796
▁구원	-3797
민주	-3798
▁입법	-3799
▁넓이	-3800
▁학살	-3801
버그	-3802
▁스마트	-3803
▁독일군	-3804
▁생겨나	-3805
▁태도	-3806
▁올해	-3807
아보	-3808
▁63	-3809
▁행렬	-3810
일리	-3811
라이나	-3812
▁95	-3813
▁포항	-3814
▁DNA	-3815
▁팽	-3816
연히	-3817
▁고속도로	-3818
▁링크	-3819
▁세르비아	-3820
▁변수	-3821
▁사실상	-3822
나가	-3823
▁골든	-3824
▁1941	-3825
▁뱅	-3826
▁동서	-3827
▁개막	-3828
▁프리미어	-3829
▁네이	-3830
▁심사	-3831
▁아티	-3832
▁루스	-3833
▁실현	-3834
▁여야	-3835
메이	-3836
▁74	-3837
▁언제	-3838
▁59	-3839
▁기리	-3840
시오	-3841
▁예전	-3842
▁등판	-3843
학생	-3844
▁자전	-3845
러리	-3846
▁경전	-3847
▁꼽	-3848
▁재배	-3849
▁한국인	-3850
▁균형	-3851
▁공헌	-3852
ct	-3853
▁프로그래	-3854
▁혼합	-3855
▁바위	-3856
▁춤	-3857
▁시사	-3858
▁기온	-3859
▁보고서	-3860
▁확률	-3861
▁백성	-3862
▁Lo	-3863
무부	-3864
▁페르시아	-3865
▁수석	-3866
▁공로	-3867
▁오랫	-3868
▁감시	-3869
▁튜	-3870
▁커뮤	-3871
▁닉	-3872
▁178	-3873
▁매장	-3874
▁방위	-3875
▁침략	-3876
▁개신교	-3877
ul	-3878
▁앤드	-3879
▁대선	-3880
▁긍	-3881
숭이	-3882
▁출력	-3883
▁분위기	-3884
리히	-3885
▁영지	-3886
▁훗날	-3887
▁IC	-3888
▁줄어들	-3889
▁양쪽	-3890
▁급제	-3891
▁흐름	-3892
▁점수	-3893
대부	-3894
▁오랫동안	-3895
코스	-3896
▁왕실	-3897
▁프라이	-3898
▁72	-3899
▁단편	-3900
▁무사	-3901
▁이라크	-3902
▁미쓰	-3903
▁안드로	-3904
▁승부	-3905
▁대량	-3906
▁커뮤니	-3907
▁지형	-3908
▁특별시	-3909
▁추산	-3910
▁재건	-3911
▁텍사스	-3912
▁82	-3913
▁160	-3914
▁1947	-3915
▁랜드	-3916
이너	-3917
▁SS	-3918
▁1958	-3919
▁76	-3920
▁원형	-3921
▁그래픽	-3922
▁에드워드	-3923
▁줄기	-3924
▁권위	-3925
▁다케	-3926
▁뮤지컬	-3927
▁피터	-3928
▁미야	-3929
▁리처드	-3930
▁신부	-3931
▁안토	-3932
▁확립	-3933
▁복원	-3934
▁1956	-3935
▁to	-3936
▁여왕	-3937
▁동명	-3938
▁발발	-3939
▁아이돌	-3940
▁저녁	-3941
▁프랑크	-3942
▁고르	-3943
▁시상	-3944
ie	-3945
▁석유	-3946
▁타자	-3947
▁가와	-3948
▁멀리	-3949
▁우라	-3950
▁에서부터	-3951
▁일상	-3952
▁경남	-3953
▁제사	-3954
▁기울	-3955
▁팔리	-3956
▁승객	-3957
▁AFC	-3958
▁77	-3959
무리	-3960
▁비상	-3961
▁파워	-3962
▁테스트	-3963
▁복수	-3964
▁입력	-3965
▁침입	-3966
▁브라운	-3967
리노	-3968
▁리버	-3969
▁도요	-3970
▁;/	-3971
▁보물	-3972
▁복음	-3973
▁작위	-3974
▁앉	-3975
▁데스	-3976
▁교구	-3977
▁포켓	-3978
▁수익	-3979
▁비치	-3980
▁업적	-3981
▁과학자	-3982
▁개설	-3983
▁연예	-3984
▁원수	-3985
▁1939	-3986
▁가설	-3987
메리칸	-3988
▁타워	-3989
▁Th	-3990
▁바깥	-3991
▁기소	-3992
▁안동	-3993
▁창작	-3994
▁혁신	-3995
▁더블	-3996
▁잠수	-3997
▁민중	-3998
▁정수	-3999
▁한글	-4000
▁젠	-4001
▁가공	-4002
▁67	-4003
▁섞	-4004
▁암호	-4005
레옹	-4006
▁본질	-4007
레나	-4008
ud	-4009
일스	-4010
▁계층	-4011
▁겹	-4012
▁힌	-4013
▁사자	-4014
▁일시	-4015
▁나폴레옹	-4016
▁당국	-4017
▁와이	-4018
og	-4019
마르	-4020
▁어깨	-4021
▁폭탄	-4022
▁그렇게	-4023
▁자식	-4024
▁소득	-4025
▁신고	-4026
에른	-4027
▁시마	-4028
▁끼치	-4029
▁동양	-4030
IA	-4031
▁심지	-4032
왜란	-4033
▁덜	-4034
▁임진왜란	-4035
▁평론	-4036
이센	-4037
▁85	-4038
▁병합	-4039
▁축구단	-4040
ist	-4041
▁사제	-4042
▁다운	-4043
▁대왕	-4044
▁공중	-4045
▁신자	-4046
▁빌보드	-4047
▁발음	-4048
▁듯이	-4049
▁부지	-4050
▁주최	-4051
▁거듭	-4052
ly	-4053
▁빅토	-4054
▁후계	-4055
th	-4056
▁후속	-4057
마니아	-4058
▁력	-4059
레인	-4060
▁인쇄	-4061
▁폐쇄	-4062
▁훈장	-4063
▁도모	-4064
▁움직임	-4065
▁깃	-4066
▁진단	-4067
▁고통	-4068
▁자이언	-4069
▁가량	-4070
▁1954	-4071
▁가담	-4072
▁보상	-4073
▁내셔널	-4074
▁고기	-4075
▁노출	-4076
▁국기	-4077
체스터	-4078
▁구글	-4079
아티아	-4080
▁크로아티아	-4081
▁산화	-4082
▁동방	-4083
▁쌀	-4084
▁총회	-4085
▁국정	-4086
▁평안	-4087
▁실력	-4088
ight	-4089
▁대지	-4090
▁참모	-4091
BA	-4092
▁96	-4093
▁생물학	-4094
▁73	-4095
▁라스	-4096
▁매체	-4097
아지	-4098
▁1952	-4099
▁Al	-4100
▁박정희	-4101
▁탱	-4102
▁비서	-4103
▁인용	-4104
▁채우	-4105
▁전신	-4106
조합	-4107
▁아트	-4108
▁가이	-4109
▁세리	-4110
▁DV	-4111
타이	-4112
▁뷰	-4113
▁오카	-4114
▁행복	-4115
▁도덕	-4116
▁포스트	-4117
▁다소	-4118
▁상관	-4119
▁께	-4120
▁무한	-4121
▁레알	-4122
▁아테네	-4123
▁교리	-4124
▁오가	-4125
▁김대	-4126
▁로봇	-4127
▁타운	-4128
▁들이	-4129
▁이혼	-4130
▁탈퇴	-4131
▁부담	-4132
▁역학	-4133
▁셔	-4134
▁작동	-4135
▁조조	-4136
▁81	-4137
▁그만	-4138
▁예방	-4139
▁피해자	-4140
▁알바	-4141
▁수도원	-4142
아하	-4143
▁바닥	-4144
▁지나가	-4145
▁화이트	-4146
▁비례	-4147
▁*	-4148
▁따로	-4149
▁심장	-4150
느리	-4151
▁인생	-4152
▁뤼	-4153
▁78	-4154
▁대성	-4155
▁보살	-4156
▁뮌	-4157
▁최후	-4158
▁중력	-4159
▁수요	-4160
▁환승	-4161
▁절반	-4162
너스	-4163
▁스타디	-4164
▁바이에른	-4165
하여	-4166
▁화합	-4167
▁지향	-4168
▁살리	-4169
AS	-4170
▁ᆯ지	-4171
▁타이거	-4172
▁좋아하	-4173
▁기상	-4174
▁재학	-4175
AT	-4176
▁규제	-4177
▁불만	-4178
▁화장	-4179
▁장남	-4180
▁김성	-4181
▁포스	-4182
▁센트	-4183
▁손상	-4184
터스	-4185
▁가까이	-4186
필더	-4187
▁질환	-4188
▁총장	-4189
토스	-4190
▁심판	-4191
▁미드필더	-4192
▁전투기	-4193
▁개방	-4194
▁유통	-4195
▁블라	-4196
▁녀	-4197
▁지사	-4198
ess	-4199
▁메달	-4200
▁전남	-4201
▁천안	-4202
세포	-4203
▁액션	-4204
▁청주	-4205
▁하인	-4206
클리	-4207
▁아웃	-4208
▁국군	-4209
▁여섯	-4210
▁처하	-4211
▁마무리	-4212
▁사무소	-4213
▁그린	-4214
▁91	-4215
▁약물	-4216
▁메시지	-4217
▁주력	-4218
▁피부	-4219
의정	-4220
▁는다는	-4221
▁패션	-4222
▁검토	-4223
▁골드	-4224
▁일컫	-4225
▁붓	-4226
▁71	-4227
▁연습	-4228
▁콘스탄티	-4229
▁긍정	-4230
▁보르	-4231
▁전직	-4232
▁1959	-4233
▁산소	-4234
▁모바	-4235
▁빌딩	-4236
▁선박	-4237
▁202	-4238
▁AT	-4239
▁이명	-4240
▁가마	-4241
▁황후	-4242
▁처분	-4243
▁햄	-4244
▁Li	-4245
▁상실	-4246
스트라	-4247
▁NH	-4248
▁백만	-4249
▁유산	-4250
▁혼인	-4251
▁결의	-4252
직자	-4253
▁통화	-4254
자치	-4255
▁당나라	-4256
▁사우스	-4257
▁신사	-4258
▁관여	-4259
▁호소	-4260
▁;,	-4261
▁글로벌	-4262
쿠스	-4263
▁세부	-4264
▁프로이센	-4265
▁인원	-4266
▁177	-4267
▁심지어	-4268
▁분노	-4269
▁가요	-4270
▁대책	-4271
▁소멸	-4272
▁말레이시아	-4273
▁윗	-4274
▁설득	-4275
▁의대	-4276
IV	-4277
가락	-4278
▁문신	-4279
▁오직	-4280
▁디스크	-4281
▁가슴	-4282
▁하원	-4283
▁승려	-4284
▁위대	-4285
▁동해	-4286
▁요금	-4287
▁1942	-4288
▁홋카이도	-4289
▁넘어가	-4290
▁시나	-4291
▁쿠데	-4292
▁창당	-4293
▁위키	-4294
▁구매	-4295
▁왕비	-4296
▁퀴	-4297
▁잭슨	-4298
▁김일성	-4299
▁상역	-4300
▁적합	-4301
ub	-4302
▁페이지	-4303
▁크루	-4304
드리히	-4305
▁내려오	-4306
리학	-4307
▁87	-4308
▁개성	-4309
▁선임	-4310
▁억제	-4311
▁모바일	-4312
▁쾌	-4313
▁조지아	-4314
▁AP	-4315
▁음악가	-4316
▁1943	-4317
미야	-4318
▁사격	-4319
▁일기	-4320
▁st	-4321
▁테크	-4322
▁불안	-4323
▁사도	-4324
▁야스	-4325
▁조카	-4326
▁일본어	-4327
▁싱가	-4328
▁주석	-4329
▁크로스	-4330
▁1955	-4331
▁싱가포르	-4332
▁쿠데타	-4333
▁톨	-4334
▁진영	-4335
▁필드	-4336
▁좌상	-4337
▁프리드리히	-4338
▁전당	-4339
▁159	-4340
▁드래프트	-4341
▁프랭	-4342
▁일체	-4343
▁700	-4344
▁어려움	-4345
▁조차	-4346
▁타인	-4347
▁알고리	-4348
가니	-4349
▁무료	-4350
▁84	-4351
▁카스	-4352
▁나쁘	-4353
▁1953	-4354
▁굳	-4355
ab	-4356
▁원년	-4357
▁스타디움	-4358
▁발탁	-4359
▁상속	-4360
▁닫	-4361
▁챔피언십	-4362
▁사라	-4363
미르	-4364
▁루마니아	-4365
▁힙	-4366
▁1936	-4367
▁부산광역시	-4368
▁세자	-4369
▁유고	-4370
▁본명	-4371
▁천주교	-4372
▁테마	-4373
▁이와	-4374
버리	-4375
▁티베	-4376
히로	-4377
▁김종	-4378
데이	-4379
▁Re	-4380
▁기동	-4381
▁디아	-4382
▁몰리	-4383
올리	-4384
▁폭격	-4385
▁즉시	-4386
▁왕후	-4387
▁토론토	-4388
▁알고리즘	-4389
▁후쿠오카	-4390
유산	-4391
▁궁전	-4392
▁독재	-4393
▁여우	-4394
▁콘텐츠	-4395
▁막대	-4396
▁1910	-4397
▁깊이	-4398
▁사무실	-4399
▁발명	-4400
▁연설	-4401
▁\	-4402
▁리드	-4403
▁용도	-4404
▁메이지	-4405
ine	-4406
▁딘	-4407
▁각국	-4408
▁전동차	-4409
▁부동	-4410
▁태조	-4411
▁대체로	-4412
▁97	-4413
▁딜	-4414
▁사양	-4415
▁정차	-4416
우치	-4417
▁오이	-4418
▁검색	-4419
▁구입	-4420
▁전북	-4421
▁1900	-4422
▁음성	-4423
▁스티븐	-4424
▁학사	-4425
구리	-4426
▁유형문화재	-4427
▁원주민	-4428
▁히틀러	-4429
▁진격	-4430
원경	-4431
주군	-4432
▁휴대	-4433
▁느낌	-4434
▁추방	-4435
시스코	-4436
▁수호	-4437
▁주소	-4438
▁대우	-4439
▁사기	-4440
구치	-4441
▁남아프리카	-4442
바로	-4443
▁1957	-4444
▁영양	-4445
▁아메리칸	-4446
▁이즈	-4447
▁자국	-4448
▁전술	-4449
▁조상	-4450
ew	-4451
▁DVD	-4452
▁개칭	-4453
▁세트	-4454
▁초점	-4455
▁포켓몬	-4456
달리	-4457
▁신장	-4458
래프트	-4459
▁강릉	-4460
제국	-4461
▁필수	-4462
베르트	-4463
▁동북	-4464
▁사과	-4465
▁최우	-4466
란색	-4467
▁수업	-4468
머리	-4469
▁늘리	-4470
▁불가리아	-4471
▁전송	-4472
▁광범	-4473
▁코리아	-4474
▁스미스	-4475
▁이마	-4476
▁인디언	-4477
▁덩	-4478
ue	-4479
▁핫	-4480
▁69	-4481
▁급격	-4482
▁완벽	-4483
▁1914	-4484
▁92	-4485
미니	-4486
▁기다리	-4487
다랗	-4488
▁게르	-4489
▁섹	-4490
▁흔하	-4491
▁클로	-4492
▁넥	-4493
독부	-4494
▁노트	-4495
▁게다가	-4496
▁개량	-4497
▁담기	-4498
EC	-4499
▁렀다	-4500
▁유효	-4501
▁잡히	-4502
▁끝내	-4503
▁바르셀	-4504
▁오키	-4505
▁바르셀로나	-4506
▁서술	-4507
▁질문	-4508
▁똑	-4509
▁빚	-4510
▁펑	-4511
▁결론	-4512
▁도마	-4513
▁자는	-4514
▁천만	-4515
로지	-4516
지사	-4517
▁WW	-4518
▁라이프	-4519
▁연락	-4520
▁늑	-4521
▁선형	-4522
▁미술관	-4523
▁고급	-4524
▁끌어	-4525
▁재즈	-4526
▁림	-4527
▁신도	-4528
▁만든	-4529
▁커버	-4530
▁101	-4531
▁라틴어	-4532
▁스탈	-4533
▁마르크스	-4534
▁랄	-4535
▁후임	-4536
총리	-4537
▁상인	-4538
▁소비자	-4539
▁1938	-4540
▁립	-4541
▁스프링	-4542
▁부위	-4543
▁이내	-4544
▁주니어	-4545
▁="	-4546
▁배포	-4547
▁물건	-4548
▁랩	-4549
▁화려	-4550
▁다스리	-4551
▁고시	-4552
▁닥터	-4553
▁손실	-4554
▁저자	-4555
▁01	-4556
▁운항	-4557
▁실천	-4558
▁주체	-4559
▁려면	-4560
▁부친	-4561
산화	-4562
▁HD	-4563
▁료	-4564
다니	-4565
▁숨기	-4566
▁언덕	-4567
▁윙	-4568
자키	-4569
▁느냐	-4570
▁1918	-4571
▁석사	-4572
리그	-4573
▁블록	-4574
▁알레	-4575
▁마스터	-4576
▁사퇴	-4577
▁상주	-4578
▁소형	-4579
▁안드	-4580
▁시내버스	-4581
▁백인	-4582
▁언스	-4583
▁화석	-4584
▁의문	-4585
▁내놓	-4586
▁연평	-4587
▁고위	-4588
▁갑자기	-4589
▁이념	-4590
▁일련	-4591
▁국적	-4592
▁암컷	-4593
▁웰	-4594
비히	-4595
▁추기	-4596
▁상수	-4597
▁자본주의	-4598
여금	-4599
▁방언	-4600
▁어요	-4601
▁집회	-4602
▁대만	-4603
▁라우	-4604
▁개별	-4605
▁정교회	-4606
▁감각	-4607
▁반사	-4608
▁미스	-4609
BM	-4610
▁해발	-4611
민주당	-4612
펙트	-4613
▁풋	-4614
▁경비	-4615
▁올스타	-4616
▁고객	-4617
▁차단	-4618
▁매치	-4619
▁1951	-4620
▁짝	-4621
▁영주	-4622
▁계곡	-4623
▁분화	-4624
▁탄압	-4625
▁경제학	-4626
▁화폐	-4627
총독부	-4628
▁조선총독부	-4629
▁선포	-4630
▁실업	-4631
필드	-4632
▁미시	-4633
▁거짓	-4634
▁on	-4635
▁89	-4636
▁1937	-4637
▁1932	-4638
가시	-4639
▁용인	-4640
▁프랑스군	-4641
▁뮌헨	-4642
▁우크라	-4643
▁격파	-4644
바키아	-4645
▁구상	-4646
▁당원	-4647
▁화제	-4648
▁재개	-4649
▁크라	-4650
▁마틴	-4651
▁엘리자	-4652
▁이웃	-4653
▁항공사	-4654
▁후계자	-4655
▁93	-4656
▁퀘	-4657
▁칭호	-4658
▁182	-4659
▁기부	-4660
▁클리	-4661
▁이스트	-4662
▁진학	-4663
▁찬성	-4664
▁체험	-4665
▁말리	-4666
▁고양이	-4667
▁시트	-4668
무늬	-4669
▁싱어	-4670
▁회로	-4671
▁추기경	-4672
▁번지	-4673
▁첩	-4674
저스	-4675
▁면역	-4676
▁1935	-4677
▁질서	-4678
▁수치	-4679
▁비행기	-4680
ect	-4681
▁베리	-4682
▁곡선	-4683
▁비스	-4684
▁광범위	-4685
▁파티	-4686
▁흰색	-4687
▁옵	-4688
▁사찰	-4689
▁항의	-4690
▁트레이드	-4691
▁공신	-4692
▁자산	-4693
▁Be	-4694
▁되돌	-4695
▁발간	-4696
어로	-4697
▁아티스트	-4698
▁겉	-4699
▁증언	-4700
▁웃	-4701
▁둥글	-4702
▁촉진	-4703
▁세월	-4704
▁클래식	-4705
▁데리	-4706
▁꾸준	-4707
▁설치류	-4708
▁마루	-4709
사전	-4710
▁구멍	-4711
동생	-4712
▁타율	-4713
▁로렌	-4714
▁소화	-4715
▁극단	-4716
▁개척	-4717
▁중추	-4718
▁가속	-4719
▁법학	-4720
▁운송	-4721
▁히어로	-4722
▁반지	-4723
▁유배	-4724
▁습격	-4725
▁지수	-4726
▁보편	-4727
▁영원	-4728
▁쿨	-4729
▁쿼	-4730
▁남녀	-4731
▁OS	-4732
▁전망	-4733
▁허락	-4734
▁분교	-4735
▁전적	-4736
런스	-4737
▁성남	-4738
▁시모	-4739
ore	-4740
▁수백	-4741
▁소문	-4742
▁양산	-4743
▁소위	-4744
▁94	-4745
▁덧붙이	-4746
슈타인	-4747
▁축소	-4748
벤트	-4749
▁탕	-4750
▁마주	-4751
▁탄핵	-4752
▁내세우	-4753
▁직무	-4754
▁대법원	-4755
다수	-4756
▁카리	-4757
our	-4758
▁목성	-4759
추어	-4760
▁물고기	-4761
▁아오	-4762
▁팩	-4763
센트	-4764
▁푸르	-4765
▁기에	-4766
IN	-4767
▁툴	-4768
▁쟁	-4769
ell	-4770
▁동화	-4771
▁잠수함	-4772
▁강남	-4773
▁원시	-4774
▁약화	-4775
▁티베트	-4776
▁뼈	-4777
▁핸	-4778
▁프랑스어	-4779
▁1933	-4780
▁소집	-4781
▁CP	-4782
▁영구	-4783
른바	-4784
▁FM	-4785
▁대칭	-4786
▁충분히	-4787
▁조항	-4788
▁그리하여	-4789
도사	-4790
▁프로그래밍	-4791
슬링	-4792
▁무용	-4793
▁수십	-4794
▁이른바	-4795
▁하여금	-4796
▁멀티	-4797
▁선호	-4798
▁익스	-4799
▁혼자	-4800
돼지	-4801
려가	-4802
▁군부	-4803
▁콜로	-4804
▁주일	-4805
▁고교	-4806
▁정통	-4807
▁1928	-4808
프레	-4809
▁누스	-4810
닉스	-4811
▁정류	-4812
ers	-4813
▁어둡	-4814
▁칠레	-4815
사이	-4816
▁간부	-4817
▁걷	-4818
▁당신	-4819
▁이행	-4820
▁무너지	-4821
▁지나치	-4822
공사	-4823
들리	-4824
▁개명	-4825
▁댄스	-4826
▁시신	-4827
리우스	-4828
▁국토	-4829
ID	-4830
▁형상	-4831
▁경사	-4832
▁실내	-4833
▁오버	-4834
▁펴	-4835
▁동경	-4836
▁발레	-4837
▁판정	-4838
▁재능	-4839
▁틈	-4840
▁펀	-4841
▁09	-4842
▁콜롬	-4843
▁자매	-4844
▁해제	-4845
▁손해	-4846
▁메트로	-4847
▁79	-4848
▁진실	-4849
▁브로	-4850
▁사이드	-4851
▁1924	-4852
▁부속	-4853
▁액체	-4854
▁지불	-4855
▁태종	-4856
▁04	-4857
▁토마스	-4858
▁사막	-4859
▁자이언츠	-4860
▁조기	-4861
▁토대	-4862
▁개장	-4863
▁멈	-4864
▁이재	-4865
▁110	-4866
▁단순히	-4867
▁반하	-4868
과이	-4869
▁입대	-4870
▁지중	-4871
▁따오	-4872
▁종사	-4873
end	-4874
▁토너	-4875
▁강전	-4876
▁합동	-4877
▁원자력	-4878
▁이벤트	-4879
코프	-4880
▁열매	-4881
▁파키스탄	-4882
▁전제	-4883
▁플로리	-4884
▁정면	-4885
▁오류	-4886
▁08	-4887
브라	-4888
ill	-4889
▁늑대	-4890
페이스	-4891
▁구름	-4892
▁170	-4893
▁아마추어	-4894
▁김해	-4895
▁주문	-4896
▁지표	-4897
▁프로토	-4898
▁대승	-4899
▁분산	-4900
▁경고	-4901
▁코너	-4902
▁퓨	-4903
▁양국	-4904
▁유아	-4905
▁스카이	-4906
▁안티	-4907
▁러브	-4908
▁상대식	-4909
▁ㅓㅆ	-4910
▁서방	-4911
▁무력	-4912
▁비잔	-4913
▁하와	-4914
▁가난	-4915
▁의정부	-4916
▁Co	-4917
▁놀이	-4918
▁동굴	-4919
▁토착	-4920
▁안토니	-4921
▁룸	-4922
▁틴	-4923
▁성서	-4924
▁엄격	-4925
▁재생	-4926
▁회색	-4927
▁MS	-4928
▁장점	-4929
▁투스	-4930
▁베네치아	-4931
▁존스	-4932
▁로즈	-4933
▁총재	-4934
▁당대	-4935
▁보스턴	-4936
어도	-4937
▁수컷	-4938
▁법안	-4939
베리아	-4940
▁자르	-4941
ain	-4942
▁자랑	-4943
▁스크린	-4944
▁배열	-4945
▁호흡	-4946
성기	-4947
▁초상	-4948
테스	-4949
▁강도	-4950
▁중동	-4951
▁뻗	-4952
▁오케	-4953
▁부리	-4954
▁부서	-4955
▁우에	-4956
사르	-4957
티스	-4958
▁행적	-4959
▁흔적	-4960
▁세로	-4961
▁일단	-4962
▁편의	-4963
AN	-4964
▁{	-4965
ard	-4966
▁봉기	-4967
▁스톤	-4968
▁평면	-4969
▁맨체스터	-4970
▁젤	-4971
▁불러	-4972
공업	-4973
▁다큐	-4974
▁북미	-4975
▁인민군	-4976
▁83	-4977
야스	-4978
▁힙합	-4979
▁엉	-4980
레오	-4981
조선	-4982
▁De	-4983
▁토너먼트	-4984
▁동지	-4985
▁마저	-4986
▁대가	-4987
▁요코하마	-4988
▁메탈	-4989
▁주재	-4990
▁중계	-4991
▁판타	-4992
▁메르	-4993
▁장로	-4994
▁빵	-4995
▁레닌	-4996
▁재임	-4997
▁야당	-4998
▁강요	-4999
▁스케이	-5000
데르	-5001
▁경북	-5002
▁맡기	-5003
▁페리	-5004
▁찾아가	-5005
▁쌓이	-5006
리나	-5007
▁추적	-5008
▁대원	-5009
▁쿠바	-5010
▁밸	-5011
▁선로	-5012
▁대사관	-5013
▁혈액	-5014
▁철거	-5015
▁1934	-5016
▁나이트	-5017
▁개찰	-5018
▁마감	-5019
▁국방부	-5020
▁포드	-5021
▁한성	-5022
즈니	-5023
▁근육	-5024
▁안쪽	-5025
▁벼슬	-5026
▁주자	-5027
제르	-5028
▁중지	-5029
▁풍속	-5030
▁구사	-5031
▁탓	-5032
▁농장	-5033
▁장례	-5034
▁발전소	-5035
▁입구	-5036
▁코어	-5037
▁르네	-5038
▁해설	-5039
▁관계자	-5040
▁할아버지	-5041
세대	-5042
키퍼	-5043
▁뱀	-5044
워하	-5045
▁글리	-5046
▁페이스	-5047
▁동구	-5048
▁본토	-5049
▁함경	-5050
▁경찰서	-5051
▁골키퍼	-5052
아르	-5053
▁스탈린	-5054
베르크	-5055
▁안내	-5056
▁화합물	-5057
위대	-5058
▁접속	-5059
▁떼	-5060
▁거스	-5061
▁농촌	-5062
▁도쿠가와	-5063
▁가볍	-5064
▁현존	-5065
▁노동당	-5066
▁아프가니	-5067
▁느리	-5068
▁닐	-5069
드라	-5070
유키	-5071
▁관객	-5072
▁철학자	-5073
▁시계	-5074
▁심리학	-5075
▁광산	-5076
▁역전	-5077
고속	-5078
크래프트	-5079
▁멈추	-5080
▁리스트	-5081
▁구로	-5082
▁증권	-5083
▁사망자	-5084
▁오염	-5085
▁거점	-5086
▁곤충	-5087
▁거느리	-5088
▁얀	-5089
▁선물	-5090
▁130	-5091
ne	-5092
▁Me	-5093
▁항해	-5094
▁모노	-5095
▁식량	-5096
▁복사	-5097
▁대동	-5098
▁레지	-5099
▁정확히	-5100
▁정조	-5101
▁모자	-5102
▁부작	-5103
▁토머스	-5104
▁사카	-5105
▁유키	-5106
▁조문	-5107
▁남극	-5108
▁계수	-5109
▁부호	-5110
▁재판소	-5111
▁동메달	-5112
▁부처	-5113
▁폭풍	-5114
▁독점	-5115
▁Sh	-5116
▁종전	-5117
▁필립	-5118
▁합리	-5119
▁140	-5120
▁그러므로	-5121
▁훼	-5122
▁그리스어	-5123
▁이정	-5124
▁내려가	-5125
▁문재	-5126
▁중성	-5127
▁테르	-5128
▁알렉산더	-5129
▁비중	-5130
▁대다수	-5131
하이	-5132
▁대결	-5133
▁초청	-5134
▁돔	-5135
▁세금	-5136
▁아프가니스탄	-5137
▁김구	-5138
레이크	-5139
▁휘하	-5140
▁은메달	-5141
▁히로시마	-5142
레아	-5143
▁특별히	-5144
▁클래스	-5145
▁윤리	-5146
보내	-5147
▁WWE	-5148
▁펄	-5149
OR	-5150
▁유대인	-5151
▁칼리지	-5152
▁아비	-5153
▁아과	-5154
▁석방	-5155
▁교향곡	-5156
▁필라	-5157
▁새끼	-5158
▁자유주의	-5159
돌프	-5160
▁로맨	-5161
▁멸종	-5162
▁박근	-5163
▁원조	-5164
▁커다랗	-5165
▁매주	-5166
▁겸하	-5167
▁파울	-5168
▁체육관	-5169
▁리아	-5170
▁새벽	-5171
▁대한제국	-5172
밀리	-5173
▁ST	-5174
▁부품	-5175
▁건너가	-5176
AM	-5177
▁진동	-5178
▁th	-5179
▁타카	-5180
▁성명	-5181
▁훌륭	-5182
▁구리	-5183
▁위안	-5184
▁유력	-5185
▁그래프	-5186
▁달라지	-5187
베리	-5188
안군	-5189
▁미카	-5190
all	-5191
▁1931	-5192
▁마그	-5193
▁물리치	-5194
▁고서	-5195
▁아이스	-5196
▁간격	-5197
▁아틀	-5198
▁캠프	-5199
▁일곱	-5200
클린	-5201
▁금강	-5202
▁캡	-5203
사관	-5204
▁트랜스	-5205
▁꾼	-5206
느님	-5207
▁감옥	-5208
나르	-5209
▁타점	-5210
▁기생	-5211
▁타원	-5212
▁존슨	-5213
▁하느님	-5214
▁강등	-5215
▁문법	-5216
▁코트	-5217
▁기병	-5218
▁뚜렷	-5219
ang	-5220
▁스트라이	-5221
▁An	-5222
▁기르	-5223
▁연호	-5224
▁찾아오	-5225
▁명시	-5226
▁첫째	-5227
▁특허	-5228
▁대변	-5229
▁공세	-5230
▁후퇴	-5231
▁인터페이스	-5232
▁지칭	-5233
▁좌파	-5234
▁해협	-5235
▁250	-5236
▁도메	-5237
▁네이션	-5238
▁지휘관	-5239
▁버지	-5240
▁비즈	-5241
▁교도	-5242
▁단장	-5243
▁평론가	-5244
▁집필	-5245
▁도망치	-5246
▁공룡	-5247
▁1921	-5248
▁극복	-5249
▁목포	-5250
▁유발	-5251
▁고고	-5252
▁스테이션	-5253
▁가구	-5254
▁부드	-5255
▁사관	-5256
게이	-5257
▁cod	-5258
▁무늬	-5259
▁소요	-5260
▁킬로	-5261
▁176	-5262
▁비틀	-5263
▁올라오	-5264
▁갤럭	-5265
▁덕분	-5266
▁동반	-5267
▁수반	-5268
▁닮	-5269
생활	-5270
▁키스	-5271
▁목숨	-5272
▁박스	-5273
▁김대중	-5274
▁매니	-5275
시스트	-5276
▁동성애	-5277
▁협약	-5278
▁빗	-5279
▁칙	-5280
▁조화	-5281
▁05	-5282
▁1929	-5283
ss	-5284
산물	-5285
▁숙종	-5286
▁타입	-5287
▁하버	-5288
▁삼각	-5289
▁약탈	-5290
둥이	-5291
▁부드럽	-5292
▁일환	-5293
마이	-5294
▁살아	-5295
▁틱	-5296
▁건담	-5297
▁착용	-5298
▁수비수	-5299
널드	-5300
▁미분	-5301
▁잠재	-5302
▁원장	-5303
▁입사	-5304
▁성씨	-5305
▁라트	-5306
▁지부	-5307
▁샤를	-5308
▁갤럭시	-5309
▁de	-5310
▁연계	-5311
▁무겁	-5312
▁의석	-5313
▁y	-5314
▁영혼	-5315
▁곰	-5316
미아	-5317
▁AC	-5318
▁연상	-5319
▁운동가	-5320
▁롬	-5321
▁발렌	-5322
▁근로	-5323
▁설비	-5324
▁중립	-5325
수량	-5326
▁발휘	-5327
베이스	-5328
▁1923	-5329
▁램	-5330
▁쯤	-5331
▁기갑	-5332
▁섬유	-5333
▁이수	-5334
▁는다고	-5335
▁경유	-5336
▁공국	-5337
▁플로리다	-5338
슬리	-5339
▁07	-5340
▁1925	-5341
▁임신	-5342
▁망원경	-5343
페인	-5344
ity	-5345
▁서적	-5346
▁도호	-5347
▁압축	-5348
▁다다	-5349
▁불화	-5350
투아	-5351
키스	-5352
▁과일	-5353
▁추락	-5354
▁웨일스	-5355
▁성직자	-5356
▁안드로이드	-5357
▁모험	-5358
▁영감	-5359
타카	-5360
▁첸	-5361
▁다이묘	-5362
▁SC	-5363
▁레벨	-5364
▁딱	-5365
▁진흥	-5366
▁박근혜	-5367
▁모로	-5368
▁요원	-5369
▁트레이	-5370
▁남아메리카	-5371
▁변신	-5372
▁유가	-5373
니즘	-5374
▁동인	-5375
▁라이온	-5376
▁선교사	-5377
▁캘리포니아주	-5378
▁연평균	-5379
▁살아남	-5380
▁고분	-5381
▁삭제	-5382
▁우드	-5383
▁채권	-5384
▁갱	-5385
▁장갑	-5386
▁관리자	-5387
▁지역구	-5388
▁디오	-5389
▁모음	-5390
일본	-5391
▁가끔	-5392
▁제약	-5393
▁영광	-5394
▁민속	-5395
▁악장	-5396
무게	-5397
▁몸무게	-5398
▁북서쪽	-5399
▁유비	-5400
▁유성	-5401
▁프로세서	-5402
▁어원	-5403
▁똑같	-5404
▁페루	-5405
▁소설가	-5406
카스	-5407
▁진술	-5408
▁교과	-5409
▁수직	-5410
▁추대	-5411
▁죠	-5412
▁시게	-5413
▁161	-5414
▁그랜드	-5415
▁변동	-5416
▁하와이	-5417
ff	-5418
▁일자	-5419
▁둔	-5420
▁EP	-5421
▁돌파	-5422
▁명사	-5423
▁수명	-5424
▁주사	-5425
대문	-5426
▁필름	-5427
up	-5428
▁음모	-5429
▁복구	-5430
▁카자	-5431
▁주류	-5432
▁압도	-5433
▁어워드	-5434
프란	-5435
▁기관차	-5436
▁사당	-5437
▁프레임	-5438
▁파트너	-5439
▁결심	-5440
▁수상자	-5441
▁빅토리아	-5442
▁북극	-5443
▁중시	-5444
▁청동	-5445
행성	-5446
▁꼽히	-5447
▁철저	-5448
▁파생	-5449
▁단선	-5450
▁이조	-5451
▁레이블	-5452
▁수장	-5453
▁엽	-5454
▁서인	-5455
▁KT	-5456
▁쇠퇴	-5457
▁삼각형	-5458
▁가톨릭교회	-5459
스팅	-5460
▁부수	-5461
▁홀로	-5462
▁175	-5463
▁사거리	-5464
▁어항	-5465
▁부탁	-5466
▁도마뱀	-5467
▁종로	-5468
▁틸	-5469
▁칼리	-5470
▁동일본	-5471
▁규슈	-5472
▁트럼	-5473
▁바오	-5474
▁이날	-5475
▁표지	-5476
▁피트	-5477
▁최상	-5478
▁건축물	-5479
애나	-5480
▁때로	-5481
▁나폴리	-5482
즈키	-5483
▁북아메리카	-5484
태우	-5485
▁도어	-5486
▁랭킹	-5487
▁평생	-5488
부사	-5489
▁파운드	-5490
▁향토	-5491
▁황태	-5492
▁각자	-5493
▁크레	-5494
멘트	-5495
▁리치	-5496
메니아	-5497
▁유역	-5498
▁자치구	-5499
▁My	-5500
▁노무	-5501
▁여인	-5502
▁왕가	-5503
▁전승	-5504
▁지연	-5505
▁엘리자베스	-5506
▁준우	-5507
▁투구	-5508
▁1922	-5509
▁고안	-5510
▁없애	-5511
▁codice	-5512
▁SM	-5513
▁유용	-5514
▁화가	-5515
▁버지니아	-5516
▁부유	-5517
▁직선	-5518
▁무인	-5519
▁벨라	-5520
▁라마	-5521
▁아기	-5522
▁청하	-5523
타운	-5524
▁""	-5525
IS	-5526
▁이오	-5527
▁중구	-5528
▁침해	-5529
▁무릎	-5530
▁노비	-5531
▁문인	-5532
▁토벌	-5533
▁1912	-5534
▁아르메니아	-5535
▁공격수	-5536
▁국민당	-5537
▁JR	-5538
▁연령	-5539
▁단행	-5540
라이터	-5541
▁모니	-5542
▁모래	-5543
▁납치	-5544
▁직위	-5545
눅스	-5546
▁구미	-5547
▁패턴	-5548
▁무산	-5549
▁간섭	-5550
▁봉사	-5551
▁인천광역시	-5552
▁색상	-5553
▁다양체	-5554
▁루트비히	-5555
▁왈	-5556
▁적응	-5557
▁리눅스	-5558
▁지중해	-5559
▁MV	-5560
▁인력	-5561
▁포유	-5562
▁모듈	-5563
▁스케이팅	-5564
▁베타	-5565
▁윤치	-5566
▁항목	-5567
▁164	-5568
▁사토	-5569
▁수지	-5570
▁퍼시	-5571
▁탐험	-5572
▁동아시아	-5573
▁06	-5574
▁상처	-5575
▁Go	-5576
▁Love	-5577
ip	-5578
▁출현	-5579
마치	-5580
▁교차로	-5581
▁릭	-5582
▁교역	-5583
▁매각	-5584
▁이종	-5585
▁하사	-5586
▁마카	-5587
ant	-5588
ong	-5589
양군	-5590
▁배상	-5591
▁삽입	-5592
▁연소	-5593
▁블라디	-5594
▁글씨	-5595
▁베토	-5596
▁영조	-5597
▁토르	-5598
▁상무	-5599
ED	-5600
ld	-5601
▁실점	-5602
▁전향	-5603
▁시상식	-5604
▁돼지	-5605
▁플레	-5606
▁부동산	-5607
▁헤드	-5608
▁1908	-5609
▁렉	-5610
▁호조	-5611
아리	-5612
▁커피	-5613
▁과도	-5614
▁제주도	-5615
슬로	-5616
▁아가	-5617
▁연금	-5618
▁장사	-5619
▁패러	-5620
멘터리	-5621
▁우루	-5622
▁굿	-5623
▁자책	-5624
▁시아	-5625
▁참조	-5626
▁남동쪽	-5627
▁싫	-5628
▁03	-5629
▁육성	-5630
▁조명	-5631
▁크림	-5632
▁태자	-5633
▁SN	-5634
도니아	-5635
▁히가시	-5636
▁1917	-5637
OM	-5638
▁기종	-5639
▁사촌	-5640
▁에스파	-5641
▁1906	-5642
▁외계	-5643
▁목조	-5644
▁배급	-5645
▁시집	-5646
▁체인	-5647
▁기하학	-5648
▁인자	-5649
야수	-5650
▁정서	-5651
▁밀라노	-5652
▁관중	-5653
▁명문	-5654
▁비전	-5655
몬드	-5656
▁종족	-5657
▁폐기	-5658
▁입문	-5659
▁호르	-5660
▁시외	-5661
보살	-5662
▁전작	-5663
▁안양	-5664
영상	-5665
▁동사	-5666
▁통로	-5667
▁표본	-5668
▁럭	-5669
▁우익	-5670
▁적어도	-5671
▁옹호	-5672
▁유인	-5673
▁보통학교	-5674
▁무선	-5675
▁이토	-5676
▁정자	-5677
▁몬테	-5678
▁사이클	-5679
▁1927	-5680
▁앱	-5681
▁산타	-5682
▁앨런	-5683
av	-5684
▁과장	-5685
▁의병	-5686
▁창간	-5687
▁송라이터	-5688
▁자전거	-5689
▁대행	-5690
▁노인	-5691
▁북동쪽	-5692
▁보좌	-5693
▁스와	-5694
▁트윈	-5695
▁다큐멘터리	-5696
▁선제	-5697
▁산악	-5698
▁준우승	-5699
이즈	-5700
▁기압	-5701
▁안보	-5702
▁내장	-5703
▁유신	-5704
▁포크	-5705
플레이	-5706
▁1907	-5707
▁1926	-5708
티움	-5709
▁정류장	-5710
▁유닛	-5711
▁커지	-5712
▁험	-5713
▁별로	-5714
▁오리지	-5715
▁협의회	-5716
▁디즈니	-5717
▁최우수	-5718
▁유입	-5719
▁슐	-5720
▁사신	-5721
▁예외	-5722
▁흙	-5723
튜브	-5724
▁산지	-5725
▁탑승	-5726
▁스페셜	-5727
▁노조	-5728
AC	-5729
▁수감	-5730
▁왕립	-5731
페이지	-5732
▁베토벤	-5733
▁우크라이나	-5734
▁168	-5735
▁석조	-5736
▁자문	-5737
▁꺼	-5738
▁BBC	-5739
▁묘지	-5740
▁드래곤	-5741
▁PD	-5742
▁놀라	-5743
▁상영	-5744
▁호남	-5745
▁He	-5746
▁연고지	-5747
▁유튜브	-5748
스토	-5749
▁급속	-5750
▁하천	-5751
슬라	-5752
▁스틸	-5753
▁번식	-5754
▁기름	-5755
▁시에	-5756
▁주거	-5757
▁상하이	-5758
▁광역	-5759
▁카페	-5760
런트	-5761
▁머물	-5762
다이라	-5763
▁독일어	-5764
ind	-5765
▁Sp	-5766
▁아무런	-5767
▁데이터베이스	-5768
▁에릭	-5769
▁라이벌	-5770
▁대교	-5771
▁진지	-5772
▁버그	-5773
▁할리	-5774
▁색깔	-5775
se	-5776
▁대안	-5777
▁사료	-5778
▁겨우	-5779
▁점성	-5780
▁정사	-5781
▁합계	-5782
▁커뮤니티	-5783
▁선진	-5784
무네	-5785
로프	-5786
▁아울	-5787
▁지바	-5788
▁홈페이지	-5789
▁문하	-5790
▁제후	-5791
▁세조	-5792
▁자바	-5793
브스	-5794
▁꾸미	-5795
ame	-5796
▁마오	-5797
▁룩	-5798
텐도	-5799
▁흥미	-5800
▁닌텐도	-5801
생물	-5802
▁요미	-5803
▁좌익	-5804
▁NHK	-5805
▁민족주의	-5806
▁지름	-5807
총장	-5808
▁원로	-5809
프란시스코	-5810
세스	-5811
▁소니	-5812
▁특급	-5813
▁대조	-5814
▁방안	-5815
▁분배	-5816
▁수수	-5817
▁콩고	-5818
▁품질	-5819
▁꾸준히	-5820
▁리듬	-5821
▁상세	-5822
▁증기	-5823
▁166	-5824
▁엄마	-5825
▁162	-5826
▁샌프란시스코	-5827
▁레이스	-5828
▁1905	-5829
▁문화유산	-5830
▁레이다	-5831
▁운명	-5832
▁주의자	-5833
ort	-5834
▁반환	-5835
▁와카	-5836
▁원산	-5837
▁151	-5838
ry	-5839
▁트럭	-5840
▁스승	-5841
▁아크	-5842
▁주한	-5843
▁바이올	-5844
▁모집	-5845
▁비평가	-5846
▁십자군	-5847
지마	-5848
▁도리	-5849
▁마일	-5850
▁가쓰	-5851
스티벌	-5852
▁ㄴ다고	-5853
▁랴	-5854
▁진도	-5855
▁칩	-5856
▁재무	-5857
▁뚫	-5858
▁역과	-5859
▁출산	-5860
▁현황	-5861
▁물려	-5862
▁페스티벌	-5863
ith	-5864
▁02	-5865
▁협의	-5866
▁조선인	-5867
▁모터	-5868
▁셋째	-5869
▁신비	-5870
▁리얼	-5871
려나	-5872
스케	-5873
▁비단	-5874
▁우르	-5875
ES	-5876
▁쥬	-5877
▁일행	-5878
▁주말	-5879
▁유고슬	-5880
▁유고슬라비아	-5881
나카	-5882
▁목격	-5883
▁주파	-5884
▁묻히	-5885
▁날리	-5886
▁곧바로	-5887
▁스피드	-5888
▁158	-5889
▁묘소	-5890
▁바라보	-5891
▁한나라	-5892
엘라	-5893
▁크리스토	-5894
▁렌즈	-5895
▁야생	-5896
▁정계	-5897
▁오리지널	-5898
▁가미	-5899
▁단층	-5900
▁배정	-5901
▁보전	-5902
▁플루	-5903
▁구마	-5904
▁오디션	-5905
▁한나라당	-5906
▁||	-5907
▁조르	-5908
어트	-5909
▁문과	-5910
▁한화	-5911
▁옛날	-5912
▁입증	-5913
▁남서쪽	-5914
▁스테이지	-5915
▁템	-5916
▁상소	-5917
프스	-5918
▁수천	-5919
결승	-5920
▁토니	-5921
▁빨리	-5922
▁이리	-5923
▁직장	-5924
▁동전	-5925
▁무관	-5926
▁미네	-5927
▁문제점	-5928
▁운반	-5929
교육	-5930
▁기점	-5931
▁마라	-5932
▁복제	-5933
▁사면	-5934
▁되찾	-5935
▁동영상	-5936
▁급행	-5937
▁도심	-5938
▁출판사	-5939
리케이션	-5940
▁브라이언	-5941
▁적색	-5942
▁디자이너	-5943
▁챌	-5944
▁마스	-5945
▁서북	-5946
▁기용	-5947
▁긴급	-5948
▁사리	-5949
▁인텔	-5950
▁케이블	-5951
ok	-5952
▁Un	-5953
▁동치	-5954
▁인치	-5955
▁합작	-5956
▁쿠르	-5957
잡히	-5958
▁지휘자	-5959
회의	-5960
▁배제	-5961
▁지질	-5962
▁호환	-5963
▁베이스볼	-5964
▁알라	-5965
▁예언	-5966
▁폭스	-5967
▁저지르	-5968
▁프랜	-5969
▁연주자	-5970
▁판타지	-5971
▁콜롬비아	-5972
▁마케도니아	-5973
▁번주	-5974
▁기념물	-5975
▁당사자	-5976
▁교전	-5977
▁단종	-5978
해군	-5979
▁신임	-5980
▁향년	-5981
▁비즈니스	-5982
▁부패	-5983
▁사직	-5984
▁초래	-5985
▁회원국	-5986
루살	-5987
프라	-5988
▁예술가	-5989
▁모순	-5990
▁개수	-5991
▁좌석	-5992
▁미만	-5993
▁부시	-5994
▁오다	-5995
▁정교	-5996
▁용기	-5997
루살렘	-5998
▁하드웨어	-5999
▁기재	-6000
▁도메인	-6001
▁선사	-6002
qu	-6003
▁수면	-6004
▁집계	-6005
▁파나	-6006
▁가게	-6007
▁역명	-6008
▁오타	-6009
▁평소	-6010
▁포맷	-6011
▁165	-6012
▁마쓰다이라	-6013
▁AM	-6014
▁관장	-6015
▁트레	-6016
쳐지	-6017
▁센트럴	-6018
▁스펙트	-6019
▁콘스탄티노	-6020
▁서경	-6021
모니	-6022
▁154	-6023
▁내륙	-6024
▁자회사	-6025
▁1904	-6026
▁이지	-6027
▁신용	-6028
경기	-6029
▁의거	-6030
▁입히	-6031
ord	-6032
▁석탑	-6033
▁항일	-6034
▁과제	-6035
▁무신	-6036
▁왕족	-6037
▁사로	-6038
▁연애	-6039
▁스펙트럼	-6040
▁Wh	-6041
▁Se	-6042
PS	-6043
▁이력	-6044
문학	-6045
▁신하	-6046
▁임상	-6047
▁자사	-6048
▁파동	-6049
▁여동생	-6050
▁압박	-6051
ob	-6052
▁권고	-6053
▁전염	-6054
▁여신	-6055
▁챌린	-6056
▁이명박	-6057
▁DJ	-6058
▁용산	-6059
식물	-6060
▁사르	-6061
▁장편	-6062
▁마케팅	-6063
▁예루살렘	-6064
▁겹치	-6065
▁계단	-6066
▁SF	-6067
▁아인	-6068
IC	-6069
▁163	-6070
▁900	-6071
▁발효	-6072
▁167	-6073
▁혜성	-6074
▁스마트폰	-6075
우옌	-6076
▁차관	-6077
가스	-6078
페이	-6079
ate	-6080
▁무슬	-6081
려오	-6082
▁가득	-6083
▁이글	-6084
▁그랑	-6085
▁대단	-6086
▁스쿨	-6087
▁게시	-6088
▁훼손	-6089
▁바이올린	-6090
▁서브	-6091
▁사범	-6092
디스	-6093
▁조류	-6094
▁156	-6095
▁상임	-6096
▁노무현	-6097
▁받침	-6098
▁크리스티	-6099
▁교섭	-6100
▁미얀	-6101
▁끼리	-6102
▁얼음	-6103
▁팅	-6104
▁부흥	-6105
▁차체	-6106
▁리투아	-6107
▁리투아니아	-6108
▁분지	-6109
▁식사	-6110
▁무슬림	-6111
▁저기	-6112
▁행정부	-6113
▁비잔티움	-6114
운서	-6115
▁디비전	-6116
▁쇼군	-6117
▁진상	-6118
▁서울시	-6119
▁아나운서	-6120
▁기아	-6121
▁AS	-6122
▁규격	-6123
▁예능	-6124
▁깔	-6125
▁니스	-6126
▁조국	-6127
▁비로	-6128
▁타마	-6129
▁밀접	-6130
▁착륙	-6131
▁피스	-6132
▁끄	-6133
▁샹	-6134
껍질	-6135
▁한양	-6136
▁씌	-6137
▁성공회	-6138
▁UN	-6139
▁간접	-6140
▁지주	-6141
랑이	-6142
커스	-6143
▁애국	-6144
지르	-6145
▁정벌	-6146
▁고립	-6147
▁자마	-6148
▁친정	-6149
카르	-6150
▁아베	-6151
▁바그	-6152
▁우지	-6153
▁구장	-6154
▁오케스트라	-6155
▁낱	-6156
▁하트	-6157
▁옌	-6158
▁월간	-6159
▁점유	-6160
▁무라	-6161
잡이	-6162
▁피렌	-6163
▁시달리	-6164
로디	-6165
▁와중	-6166
▁융합	-6167
ET	-6168
▁출구	-6169
▁충남	-6170
▁브라우	-6171
▁아이디	-6172
▁주립	-6173
▁바티	-6174
▁뱅크	-6175
▁제네	-6176
▁학파	-6177
▁참판	-6178
▁부통령	-6179
ast	-6180
▁었었	-6181
▁ᆯ수록	-6182
▁선두	-6183
▁샬	-6184
▁용량	-6185
▁잊	-6186
킨스	-6187
▁소나	-6188
▁페어	-6189
▁하노	-6190
▁일요일	-6191
▁거인	-6192
▁몰락	-6193
▁요크	-6194
▁유하	-6195
▁스타크래프트	-6196
럼비아	-6197
▁농도	-6198
▁진나라	-6199
예프	-6200
▁김동	-6201
▁굉	-6202
▁귀환	-6203
▁두산	-6204
▁맥스	-6205
▁이에	-6206
▁지장	-6207
▁최신	-6208
▁뜨겁	-6209
▁투명	-6210
▁부자	-6211
▁비아	-6212
▁시체	-6213
▁쿠스	-6214
▁개발자	-6215
▁련	-6216
▁공과	-6217
▁MVP	-6218
▁야기	-6219
▁흥행	-6220
▁발족	-6221
▁성종	-6222
▁위주	-6223
부인	-6224
▁강연	-6225
▁완화	-6226
데이트	-6227
▁중국어	-6228
길이	-6229
▁사사	-6230
▁스트리트	-6231
▁알바니아	-6232
▁충성	-6233
▁139	-6234
▁마천	-6235
▁업데이트	-6236
▁애플리케이션	-6237
▁DS	-6238
▁대령	-6239
▁보드	-6240
▁전지	-6241
▁미나미	-6242
트롤	-6243
▁HIV	-6244
▁전이	-6245
▁145	-6246
▁마리오	-6247
if	-6248
▁고조	-6249
▁공용	-6250
▁서열	-6251
▁아세	-6252
▁측근	-6253
▁응우옌	-6254
▁이슈	-6255
▁피렌체	-6256
▁디젤	-6257
▁시드니	-6258
▁킬로미터	-6259
▁착수	-6260
AD	-6261
▁경선	-6262
▁서일본	-6263
▁부도	-6264
▁기타리스트	-6265
주곡	-6266
▁검증	-6267
▁해인	-6268
레이터	-6269
트랙	-6270
▁리오	-6271
▁게이트	-6272
▁주머니	-6273
▁준결승	-6274
랑크	-6275
ive	-6276
▁관찰사	-6277
▁아이디어	-6278
▁수산	-6279
▁중도	-6280
란트	-6281
▁사명	-6282
▁전두	-6283
▁구동	-6284
수아	-6285
▁마산	-6286
▁형법	-6287
IT	-6288
▁턴	-6289
▁사바	-6290
▁요미우리	-6291
▁넬	-6292
▁아종	-6293
▁해전	-6294
▁전류	-6295
▁거스르	-6296
악기	-6297
▁공전	-6298
▁규명	-6299
▁전임	-6300
▁테오	-6301
▁174	-6302
▁관광객	-6303
츠키	-6304
카드	-6305
▁석탄	-6306
▁몸길이	-6307
ack	-6308
ure	-6309
▁권유	-6310
▁지각	-6311
트니	-6312
▁수학자	-6313
▁제의	-6314
▁IP	-6315
▁인과	-6316
리티	-6317
▁연수	-6318
▁중독	-6319
▁소송법	-6320
▁관습	-6321
▁플라스	-6322
▁좌표	-6323
▁1896	-6324
토미	-6325
▁천문학	-6326
▁끈	-6327
▁로빈	-6328
▁자율	-6329
▁소재지	-6330
▁실용	-6331
루미	-6332
▁Ar	-6333
▁노동조합	-6334
▁젖	-6335
▁청와	-6336
▁판매량	-6337
▁스콧	-6338
▁우즈	-6339
▁피에르	-6340
▁여덟	-6341
어내	-6342
▁마운	-6343
▁메디	-6344
▁정찰	-6345
▁책봉	-6346
▁사인	-6347
▁뷔	-6348
균관	-6349
▁쇼핑	-6350
▁옐	-6351
▁신칸	-6352
▁살아가	-6353
▁세례	-6354
▁존경	-6355
▁호평	-6356
▁자면	-6357
iv	-6358
▁백신	-6359
▁오렌	-6360
▁통행	-6361
▁청와대	-6362
▁5000	-6363
ock	-6364
▁성벽	-6365
▁꼴	-6366
▁수신	-6367
▁전장	-6368
▁친선	-6369
▁다이아	-6370
▁저기압	-6371
▁둘러싸이	-6372
▁피난	-6373
▁152	-6374
▁로고	-6375
▁조용	-6376
▁행진	-6377
▁짙	-6378
▁프로세스	-6379
▁전진	-6380
ck	-6381
▁미하	-6382
▁문재인	-6383
▁복소	-6384
▁회수	-6385
▁시라	-6386
▁테일러	-6387
▁상상	-6388
▁염색	-6389
▁악마	-6390
▁신전	-6391
▁157	-6392
▁시외버스	-6393
▁쏟	-6394
▁고사	-6395
▁구제	-6396
▁자손	-6397
▁취약	-6398
▁곁	-6399
▁폴리스	-6400
▁전문학교	-6401
문관	-6402
▁비극	-6403
▁카시	-6404
▁연구자	-6405
가루	-6406
▁기울이	-6407
▁미스터	-6408
▁관념	-6409
▁얼마나	-6410
혁명	-6411
▁과목	-6412
▁MP	-6413
▁대외	-6414
▁지분	-6415
▁카나	-6416
▁급진	-6417
▁뿔	-6418
▁킨	-6419
▁장성	-6420
▁유년	-6421
▁준공	-6422
▁한강	-6423
▁할당	-6424
▁금성	-6425
▁빌헬	-6426
▁동남아시아	-6427
▁유출	-6428
▁루터	-6429
▁무효	-6430
▁밀양	-6431
▁창업	-6432
▁쇄	-6433
창기	-6434
▁관현	-6435
▁마찰	-6436
▁번뇌	-6437
▁식당	-6438
▁퇴각	-6439
▁파스	-6440
▁독립운동가	-6441
▁믿음	-6442
▁아울러	-6443
▁일화	-6444
▁적대	-6445
▁제휴	-6446
▁해임	-6447
외선	-6448
▁고개	-6449
▁루수	-6450
▁메가	-6451
▁힌두	-6452
▁신칸센	-6453
▁여의	-6454
▁응답	-6455
끄럽	-6456
수수	-6457
▁히스	-6458
▁가즈	-6459
▁국어	-6460
▁들리	-6461
▁승차	-6462
▁에티	-6463
12	-6464
전자	-6465
▁장인	-6466
▁하버드	-6467
포스	-6468
▁김용	-6469
▁j	-6470
일드	-6471
▁서독	-6472
▁힘쓰	-6473
메르	-6474
▁나미	-6475
▁상류	-6476
▁이순	-6477
니스트	-6478
▁성균관	-6479
▁따위	-6480
▁소금	-6481
▁아니하	-6482
▁희극	-6483
▁프로토콜	-6484
▁연루	-6485
▁105	-6486
산군	-6487
▁매출	-6488
▁쳐	-6489
델피아	-6490
▁필라델피아	-6491
▁PS	-6492
▁동위	-6493
▁중점	-6494
▁히라	-6495
▁소총	-6496
폴리스	-6497
▁외무	-6498
▁충족	-6499
▁패전	-6500
▁휩	-6501
▁소닉	-6502
하르트	-6503
▁1500	-6504
▁3000	-6505
▁노드	-6506
▁성전	-6507
▁소지	-6508
악단	-6509
▁저택	-6510
▁항공모	-6511
▁박영	-6512
자와	-6513
▁니아	-6514
▁이노	-6515
▁125	-6516
▁MC	-6517
▁두드	-6518
▁와인	-6519
▁청사	-6520
▁우정	-6521
▁달아나	-6522
▁1911	-6523
▁매개	-6524
▁146	-6525
▁오클	-6526
▁아즈	-6527
▁자고	-6528
원숭이	-6529
▁남인	-6530
▁예배	-6531
▁흩	-6532
▁Le	-6533
▁적히	-6534
▁추모	-6535
▁단점	-6536
▁성모	-6537
▁제트	-6538
▁편곡	-6539
▁조언	-6540
▁참가자	-6541
팩트	-6542
▁얇	-6543
▁서서	-6544
▁주권	-6545
▁하마	-6546
▁술탄	-6547
▁여수	-6548
▁원나라	-6549
▁보잉	-6550
▁천사	-6551
▁남양	-6552
one	-6553
▁개원	-6554
▁민국	-6555
▁환원	-6556
ML	-6557
▁강사	-6558
▁증후	-6559
▁우주선	-6560
▁법령	-6561
▁Pro	-6562
▁포장	-6563
▁153	-6564
▁단원	-6565
네이	-6566
▁반격	-6567
라트	-6568
▁착공	-6569
▁패스	-6570
▁초창기	-6571
▁회계	-6572
▁고무	-6573
▁회화	-6574
▁곳곳	-6575
▁환상	-6576
▁떠오르	-6577
▁자책점	-6578
▁고원	-6579
▁윌슨	-6580
▁회견	-6581
▁지지자	-6582
오리	-6583
ime	-6584
▁내내	-6585
▁나열	-6586
▁카자흐	-6587
AP	-6588
▁유언	-6589
서양	-6590
▁두르	-6591
▁배구	-6592
▁일렉	-6593
상스	-6594
▁찾아보	-6595
▁얘	-6596
▁눈물	-6597
▁연인	-6598
▁셈	-6599
▁리메	-6600
▁별자리	-6601
고속도로	-6602
▁점프	-6603
▁친척	-6604
▁카트	-6605
▁미얀마	-6606
펴보	-6607
▁빌헬름	-6608
▁살펴보	-6609
▁이복	-6610
▁지목	-6611
▁특유	-6612
▁여래	-6613
▁103	-6614
▁닭	-6615
▁고베	-6616
▁근접	-6617
▁후자	-6618
OC	-6619
▁개업	-6620
▁소관	-6621
▁출입구	-6622
▁매기	-6623
▁인격	-6624
▁오키나	-6625
▁디비	-6626
제프	-6627
토시	-6628
▁석가	-6629
▁순천	-6630
▁기장	-6631
▁이어서	-6632
▁양상	-6633
▁일관	-6634
▁터지	-6635
▁민사	-6636
▁대답	-6637
▁클린	-6638
▁공략	-6639
▁사지	-6640
▁갈라지	-6641
▁오디오	-6642
▁가라	-6643
▁진리	-6644
▁채무	-6645
▁나리	-6646
▁유해	-6647
▁최적	-6648
▁북동부	-6649
▁비틀즈	-6650
▁정치가	-6651
▁룰	-6652
▁삿	-6653
▁공인	-6654
▁강수량	-6655
노리	-6656
어리	-6657
▁우편	-6658
▁인형	-6659
▁위장	-6660
▁컨트롤	-6661
te	-6662
즈카	-6663
▁이원	-6664
▁협동	-6665
▁보충	-6666
▁실종	-6667
▁이이	-6668
▁이글스	-6669
▁토크	-6670
노프	-6671
▁매력	-6672
▁중장	-6673
▁해역	-6674
동물	-6675
소스	-6676
▁허브	-6677
대군	-6678
▁공자	-6679
▁항공모함	-6680
▁취재	-6681
▁베르크	-6682
기니	-6683
▁매사	-6684
▁게재	-6685
▁선원	-6686
▁주파수	-6687
Pa	-6688
▁레전	-6689
▁증후군	-6690
▁사우디아	-6691
▁나고	-6692
▁ISO	-6693
▁카타	-6694
▁155	-6695
▁상자	-6696
▁토리	-6697
▁오렌지	-6698
▁별개	-6699
▁사가	-6700
▁굵	-6701
▁전례	-6702
받침	-6703
▁미소	-6704
▁버튼	-6705
▁빼앗기	-6706
▁내지	-6707
▁민영	-6708
▁유격	-6709
▁이영	-6710
▁아군	-6711
▁테스	-6712
▁시립	-6713
▁지우	-6714
항공	-6715
▁각기	-6716
▁합법	-6717
▁트라이	-6718
▁겸임	-6719
▁사물	-6720
▁호칭	-6721
▁르네상스	-6722
▁쉐	-6723
▁승무원	-6724
▁각본가	-6725
▁#	-6726
마사	-6727
▁금액	-6728
▁법무	-6729
▁두드러지	-6730
▁중종	-6731
io	-6732
▁Con	-6733
▁배틀	-6734
리크	-6735
▁스터	-6736
▁담배	-6737
▁유교	-6738
▁스파이	-6739
▁맵	-6740
플러	-6741
▁Bo	-6742
▁연도	-6743
▁격렬	-6744
▁동등	-6745
▁이인	-6746
▁평행	-6747
▁아리스	-6748
▁성주	-6749
▁캐스팅	-6750
▁108	-6751
▁히데요시	-6752
▁아바	-6753
▁아케	-6754
▁태우	-6755
▁밭	-6756
▁자발	-6757
때로	-6758
▁사다	-6759
▁일족	-6760
▁캠페인	-6761
시온	-6762
ber	-6763
▁상장	-6764
▁생일	-6765
▁이바	-6766
▁포수	-6767
▁고체	-6768
▁세균	-6769
▁레이저	-6770
▁서해	-6771
▁에이스	-6772
▁이슬람교	-6773
▁치세	-6774
▁전두환	-6775
▁갓	-6776
▁조리	-6777
▁영동	-6778
▁나고야	-6779
▁생명체	-6780
▁일찍이	-6781
▁드라이브	-6782
pe	-6783
▁IT	-6784
▁싸이	-6785
▁앞면	-6786
▁해운	-6787
▁복장	-6788
▁에디	-6789
▁퍼시픽	-6790
▁감지	-6791
▁서서히	-6792
▁고발	-6793
▁미루	-6794
▁콜라	-6795
▁화살	-6796
▁시청자	-6797
▁토요일	-6798
▁브래	-6799
▁때때로	-6800
시티	-6801
퍼니	-6802
▁만세	-6803
라이트	-6804
▁상대방	-6805
모어	-6806
▁궁정	-6807
▁외곽	-6808
▁하우	-6809
▁사우디아라비아	-6810
▁메타	-6811
▁야간	-6812
▁골프	-6813
▁연혁	-6814
▁호세	-6815
▁교단	-6816
▁추격	-6817
▁가계	-6818
▁교장	-6819
▁1909	-6820
▁향후	-6821
▁이사장	-6822
▁트럼프	-6823
▁최저	-6824
▁박탈	-6825
▁꾀	-6826
▁어드	-6827
▁홍수	-6828
▁트위	-6829
▁크리스마스	-6830
ge	-6831
▁건의	-6832
▁무려	-6833
▁상부	-6834
▁입상	-6835
▁아우구	-6836
다드	-6837
베이터	-6838
▁하인리히	-6839
라미	-6840
러미	-6841
화점	-6842
▁기금	-6843
▁에우	-6844
▁김영삼	-6845
행위	-6846
▁댐	-6847
▁방침	-6848
▁섞이	-6849
▁속성	-6850
▁가르침	-6851
구장	-6852
▁일생	-6853
▁개찰구	-6854
▁유니폼	-6855
▁외국어	-6856
산리	-6857
▁긴장	-6858
▁초연	-6859
칠리아	-6860
산면	-6861
▁발현	-6862
▁앙리	-6863
▁중재	-6864
가타	-6865
▁전도	-6866
▁단기	-6867
집합	-6868
▁명의	-6869
▁수성	-6870
▁128	-6871
▁레전드	-6872
▁다중	-6873
▁톈	-6874
▁건축가	-6875
▁ᆯ까	-6876
▁개관	-6877
▁물자	-6878
▁네이버	-6879
람회	-6880
▁슬라	-6881
▁피고	-6882
▁149	-6883
▁사이버	-6884
▁하이드	-6885
▁부착	-6886
▁트루	-6887
▁102	-6888
▁자마자	-6889
▁대주교	-6890
▁송나라	-6891
▁포도주	-6892
▁보스니아	-6893
▁세미	-6894
▁남한	-6895
▁전대	-6896
▁제작자	-6897
▁Bl	-6898
▁운동장	-6899
▁텍스트	-6900
▁GT	-6901
▁섭취	-6902
▁안장	-6903
▁정밀	-6904
▁캄보	-6905
▁아미노	-6906
▁존중	-6907
▁팽창	-6908
▁유소년	-6909
▁주지사	-6910
▁짜리	-6911
▁취지	-6912
▁여진	-6913
▁그만두	-6914
▁고가	-6915
▁셸	-6916
▁굉장	-6917
▁직책	-6918
언스	-6919
▁에스파냐	-6920
▁기수	-6921
▁예시	-6922
▁대군	-6923
▁발원	-6924
▁자유당	-6925
▁숭배	-6926
▁컬러	-6927
트릭	-6928
▁포괄	-6929
▁계절	-6930
▁여주	-6931
▁토스	-6932
▁중국인	-6933
▁객관	-6934
▁펼쳐지	-6935
iz	-6936
▁딩	-6937
▁강경	-6938
▁향교	-6939
▁원자로	-6940
▁키프	-6941
▁시오	-6942
▁입체	-6943
▁후안	-6944
DP	-6945
먼드	-6946
▁오키나와	-6947
▁고래	-6948
▁문양	-6949
▁팔레스	-6950
울리	-6951
▁계몽	-6952
▁촉구	-6953
▁병역	-6954
▁차남	-6955
▁낙선	-6956
▁사절	-6957
orld	-6958
백과	-6959
▁탐지	-6960
▁블루스	-6961
▁최소한	-6962
age	-6963
▁서사	-6964
▁넓히	-6965
▁동독	-6966
▁수평	-6967
▁통칭	-6968
▁태생	-6969
▁룽	-6970
▁턱	-6971
▁며칠	-6972
▁토마	-6973
▁음원	-6974
▁청장	-6975
▁보리	-6976
▁스릴	-6977
▁손가락	-6978
▁내주	-6979
▁메인	-6980
▁수군	-6981
▁추상	-6982
▁CPU	-6983
▁대니	-6984
▁로프	-6985
사기	-6986
▁경과	-6987
▁센서	-6988
▁디스플레이	-6989
▁$	-6990
▁볼리	-6991
▁갑작	-6992
▁북방	-6993
▁뽑히	-6994
수엘라	-6995
▁뢰	-6996
▁머신	-6997
▁정말	-6998
▁그랑프리	-6999
▁리메이크	-7000
▁겔	-7001
▁아미타	-7002
▁프랭크	-7003
서리	-7004
▁조반	-7005
석기	-7006
▁무죄	-7007
▁진군	-7008
차례	-7009
▁명목	-7010
▁시그	-7011
▁심의	-7012
▁충주	-7013
▁침몰	-7014
▁147	-7015
라리	-7016
▁효력	-7017
노부	-7018
▁마하	-7019
▁어업	-7020
▁팜	-7021
▁엘리베이터	-7022
▁난민	-7023
▁전함	-7024
▁김진	-7025
▁마비	-7026
▁왜성	-7027
▁저명	-7028
우라	-7029
▁협조	-7030
▁127	-7031
▁171	-7032
▁제곱	-7033
▁께서	-7034
▁알코	-7035
▁hPa	-7036
▁김재	-7037
ik	-7038
▁경부	-7039
▁김태	-7040
▁원고	-7041
▁후일	-7042
▁타이거즈	-7043
▁대처	-7044
▁수렴	-7045
▁스핀	-7046
▁노란색	-7047
▁로맨스	-7048
▁1915	-7049
▁모스	-7050
▁수동	-7051
포트	-7052
▁트윈스	-7053
▁베네수엘라	-7054
▁라파	-7055
두르	-7056
▁신흥	-7057
▁투르크	-7058
▁윌리엄스	-7059
▁반박	-7060
▁부천	-7061
▁케네	-7062
▁세계관	-7063
▁추증	-7064
▁언론인	-7065
자스	-7066
EN	-7067
▁분광	-7068
▁재미	-7069
▁주축	-7070
▁김수	-7071
▁전성기	-7072
▁1913	-7073
▁울리	-7074
▁코프	-7075
▁그동안	-7076
▁동년	-7077
▁북구	-7078
▁옥스	-7079
▁타르	-7080
▁이어받	-7081
▁부과	-7082
▁창시	-7083
▁풍경	-7084
▁시공	-7085
▁인재	-7086
▁문학상	-7087
▁언제나	-7088
▁테니스	-7089
▁낮추	-7090
▁프레스	-7091
▁황해	-7092
▁이민자	-7093
▁나가사키	-7094
▁al	-7095
▁개미	-7096
▁공직	-7097
▁기습	-7098
▁탈환	-7099
▁상당수	-7100
▁닿	-7101
기지	-7102
▁따뜻	-7103
▁출토	-7104
▁원반	-7105
▁위키백과	-7106
▁천문학자	-7107
▁동력	-7108
크리트	-7109
와라	-7110
▁창건	-7111
트리올	-7112
▁몬트리올	-7113
▁SP	-7114
▁동당	-7115
▁차종	-7116
▁청원	-7117
▁강과	-7118
▁광년	-7119
▁아폴	-7120
▁쓰러지	-7121
▁Tr	-7122
▁아사히	-7123
▁네이션스	-7124
▁결선	-7125
무기	-7126
▁섭정	-7127
▁종결	-7128
▁북서부	-7129
창군	-7130
▁대역	-7131
▁링컨	-7132
▁별칭	-7133
▁이틀	-7134
▁169	-7135
▁캄보디아	-7136
▁스파르타	-7137
▁팔레스타인	-7138
sp	-7139
▁둘레	-7140
▁바흐	-7141
▁주차	-7142
▁걱	-7143
▁큰	-7144
▁정무	-7145
▁동래	-7146
▁유수	-7147
▁아이템	-7148
▁대포	-7149
▁엔지	-7150
▁태수	-7151
▁식별	-7152
▁적자	-7153
▁고백	-7154
▁나주	-7155
▁유연	-7156
▁수령	-7157
▁대제	-7158
▁에다	-7159
▁카탈	-7160
▁찾아내	-7161
▁이진	-7162
▁도호쿠	-7163
▁끊임	-7164
자치도	-7165
▁제주특별	-7166
▁제주특별자치도	-7167
▁온천	-7168
▁차기	-7169
포구	-7170
▁풋볼	-7171
MS	-7172
▁딴	-7173
▁광부	-7174
▁든지	-7175
▁신세	-7176
▁사회학	-7177
▁자기장	-7178
▁1895	-7179
선거	-7180
▁때리	-7181
▁언더	-7182
▁후대	-7183
▁나르	-7184
▁비문	-7185
▁총괄	-7186
▁북위	-7187
▁지폐	-7188
네스코	-7189
▁그로	-7190
▁영리	-7191
▁무제	-7192
▁번영	-7193
여지	-7194
▁남원	-7195
▁리버풀	-7196
▁베어스	-7197
▁NC	-7198
▁135	-7199
▁141	-7200
▁초상화	-7201
▁흩어지	-7202
▁장학	-7203
▁폐위	-7204
▁후세	-7205
▁다운로드	-7206
▁한동안	-7207
공신	-7208
▁날짜	-7209
▁대위	-7210
▁어스	-7211
명사전	-7212
▁무상	-7213
▁양주	-7214
▁총선거	-7215
▁교원	-7216
▁십자가	-7217
▁면하	-7218
▁하부	-7219
▁111	-7220
▁법제	-7221
▁삼진	-7222
▁오빠	-7223
▁조달	-7224
▁아틀레	-7225
▁해병대	-7226
▁탤	-7227
평군	-7228
ust	-7229
▁바실	-7230
▁여파	-7231
▁서울대	-7232
▁수용소	-7233
벌레	-7234
▁휴전	-7235
보기	-7236
키지	-7237
▁소환	-7238
▁관람	-7239
▁국사	-7240
▁소실	-7241
▁첨가	-7242
▁중소	-7243
▁컴퍼니	-7244
▁기요	-7245
▁원내	-7246
▁장미	-7247
▁제수	-7248
선스	-7249
▁위임	-7250
그라드	-7251
▁144	-7252
▁CE	-7253
▁명백	-7254
▁미즈	-7255
▁서머	-7256
▁중순	-7257
▁신중	-7258
▁카리브	-7259
▁CO	-7260
▁걱정	-7261
▁인산	-7262
▁파업	-7263
박쥐	-7264
▁정전	-7265
▁천도	-7266
▁119	-7267
▁모방	-7268
니치	-7269
▁의상	-7270
▁평하	-7271
GC	-7272
ep	-7273
▁덤	-7274
▁불편	-7275
▁이광	-7276
▁휴식	-7277
▁신학자	-7278
▁드라	-7279
▁리어	-7280
▁충실	-7281
ib	-7282
▁민회	-7283
▁스릴러	-7284
▁더글	-7285
따르	-7286
▁당일	-7287
▁고민	-7288
▁김포	-7289
▁함유	-7290
ian	-7291
▁내외	-7292
▁다니엘	-7293
▁스티브	-7294
▁문화방송	-7295
▁선구	-7296
▁쇼트	-7297
루션	-7298
▁두루	-7299
int	-7300
▁루시	-7301
▁TO	-7302
▁도스	-7303
▁신기	-7304
▁실전	-7305
▁요르	-7306
▁몰아내	-7307
▁TH	-7308
▁귀중	-7309
▁지능	-7310
▁172	-7311
라이더	-7312
▁아레나	-7313
▁컬럼비아	-7314
▁캉	-7315
▁드럼	-7316
▁소통	-7317
▁장난	-7318
▁해수	-7319
리케인	-7320
케이션	-7321
▁시나리오	-7322
푸스	-7323
▁교양	-7324
▁연세대	-7325
▁엔지니어	-7326
▁케이스	-7327
▁관통	-7328
▁신학교	-7329
그로	-7330
▁총사	-7331
▁라이선스	-7332
▁간호	-7333
▁평야	-7334
▁허리케인	-7335
릴라	-7336
▁It	-7337
▁슈트	-7338
▁외교관	-7339
▁공모	-7340
▁바퀴	-7341
▁병조	-7342
▁오세	-7343
▁정렬	-7344
▁증진	-7345
▁스페이스	-7346
누엘	-7347
ome	-7348
▁김상	-7349
▁선종	-7350
▁할리우드	-7351
▁꽤	-7352
▁항소	-7353
ire	-7354
▁신탁	-7355
▁좌절	-7356
▁배신	-7357
▁초과	-7358
▁아이슬	-7359
▁유니버	-7360
▁카이사르	-7361
▁격투	-7362
▁미토	-7363
▁약칭	-7364
▁진짜	-7365
▁총대	-7366
▁테레	-7367
▁편리	-7368
▁106	-7369
▁유네스코	-7370
페르	-7371
▁We	-7372
▁마인	-7373
▁베드	-7374
▁연패	-7375
▁껍질	-7376
▁아벨	-7377
▁NBA	-7378
▁마이너	-7379
▁매카	-7380
▁미주	-7381
▁우연히	-7382
스럽	-7383
▁영남	-7384
▁영장	-7385
▁평범	-7386
▁케네디	-7387
▁룡	-7388
▁쿤	-7389
▁공채	-7390
▁그루	-7391
▁낱말	-7392
▁콘크리트	-7393
▁서남	-7394
▁역설	-7395
▁인연	-7396
▁표명	-7397
▁구조물	-7398
시로	-7399
▁바리	-7400
▁장려	-7401
▁바이오	-7402
▁보완	-7403
▁승점	-7404
▁의의	-7405
▁에스토	-7406
▁마츠	-7407
▁지혜	-7408
▁평일	-7409
▁에버	-7410
▁아이슬란드	-7411
▁멋	-7412
▁공의회	-7413
나리	-7414
▁구이	-7415
▁부재	-7416
▁중량	-7417
▁니콜라	-7418
▁돌연	-7419
▁등재	-7420
▁애덤	-7421
▁콰	-7422
▁열대	-7423
▁차이점	-7424
▁닷	-7425
▁고수	-7426
▁업계	-7427
치오	-7428
▁오비	-7429
▁제갈	-7430
▁묘역	-7431
▁합창	-7432
▁해변	-7433
▁애틀	-7434
▁전압	-7435
▁탱크	-7436
▁포격	-7437
블로	-7438
▁공단	-7439
내셔널	-7440
▁인터내셔널	-7441
▁훔	-7442
▁부채	-7443
▁우울	-7444
▁입지	-7445
▁치열	-7446
▁페르난	-7447
▁책임자	-7448
▁양도	-7449
▁요하	-7450
▁장안	-7451
▁한성부	-7452
▁도르	-7453
▁잦	-7454
▁발트	-7455
▁우라늄	-7456
▁단식	-7457
▁배터리	-7458
▁나스	-7459
▁레바	-7460
▁얘기	-7461
▁친일인	-7462
▁파이어	-7463
▁황태자	-7464
▁친일인명사전	-7465
▁오사	-7466
▁방패	-7467
▁생전	-7468
▁첼시	-7469
▁프랑수아	-7470
ere	-7471
ude	-7472
▁로열	-7473
▁마약	-7474
주의자	-7475
▁괴롭	-7476
▁스페인어	-7477
세츠	-7478
실록	-7479
말라	-7480
▁봉쇄	-7481
▁라이온즈	-7482
▁교외	-7483
▁파장	-7484
▁횟	-7485
▁투르	-7486
▁에스토니아	-7487
▁불명	-7488
▁통근	-7489
▁매사추	-7490
▁동문	-7491
▁호위	-7492
▁매사추세츠	-7493
▁신속	-7494
▁호프	-7495
의자	-7496
▁암석	-7497
▁주행	-7498
▁협주곡	-7499
▁대전광역시	-7500
유행	-7501
▁HT	-7502
▁상담	-7503
▁오피스	-7504
▁다항	-7505
▁사슬	-7506
▁재위	-7507
▁충북	-7508
▁상서	-7509
▁일조	-7510
오피아	-7511
▁리비아	-7512
▁에티오피아	-7513
ide	-7514
▁도라	-7515
▁섬기	-7516
▁치즈	-7517
▁하락	-7518
▁닝	-7519
▁DC	-7520
▁개그	-7521
▁낭만	-7522
▁슬로바키아	-7523
▁유동	-7524
ment	-7525
▁생식	-7526
▁신생	-7527
▁여지	-7528
▁탈당	-7529
▁밟	-7530
제리	-7531
▁고령	-7532
▁김기	-7533
▁도주	-7534
▁시흥	-7535
▁어휘	-7536
ace	-7537
▁오노	-7538
▁지선	-7539
바이잔	-7540
▁CON	-7541
▁조이	-7542
▁특집	-7543
중국	-7544
▁다치	-7545
▁추세	-7546
▁해소	-7547
야시	-7548
▁".	-7549
▁견디	-7550
▁대웅	-7551
▁서정	-7552
▁아드	-7553
▁위탁	-7554
▁중심부	-7555
▁물리학자	-7556
▁응원	-7557
▁명제	-7558
▁소유자	-7559
▁우루과이	-7560
▁끓	-7561
번스	-7562
▁시선	-7563
▁친하	-7564
IM	-7565
리에	-7566
▁가면	-7567
▁기인	-7568
▁추출	-7569
▁현금	-7570
▁기어	-7571
▁육지	-7572
아이	-7573
▁조연	-7574
▁아제르	-7575
▁중추원	-7576
▁친왕	-7577
▁평택	-7578
▁실시간	-7579
▁퍼센트	-7580
▁닛폰	-7581
▁도루	-7582
▁의뢰	-7583
▁출처	-7584
▁흘리	-7585
▁병행	-7586
▁호기	-7587
▁내려지	-7588
▁아제르바이잔	-7589
▁어다	-7590
▁어라	-7591
▁패키지	-7592
▁국무총리	-7593
▁객체	-7594
▁을지	-7595
마드	-7596
▁성운	-7597
▁시초	-7598
▁즈음	-7599
▁바닷	-7600
▁바스	-7601
▁알아	-7602
▁푼	-7603
하면	-7604
▁극동	-7605
▁부적	-7606
▁창고	-7607
지리아	-7608
▁노부나가	-7609
▁나이지리아	-7610
위원	-7611
▁브라우저	-7612
▁순회	-7613
▁지류	-7614
▁136	-7615
▁박해	-7616
▁전라도	-7617
▁신념	-7618
▁구도	-7619
▁비리	-7620
▁쌍둥이	-7621
▁휴스턴	-7622
▁1916	-7623
▁포터	-7624
▁허리	-7625
▁가로지르	-7626
▁구호	-7627
▁세션	-7628
▁입당	-7629
▁작센	-7630
▁결혼식	-7631
▁이사회	-7632
▁고소	-7633
▁148	-7634
▁동상	-7635
▁우세	-7636
바다	-7637
석탑	-7638
▁의약	-7639
▁중위	-7640
▁딕	-7641
▁막내	-7642
층석탑	-7643
▁IBM	-7644
▁리틀	-7645
▁워드	-7646
▁스튜어트	-7647
▁솜	-7648
▁수습	-7649
▁덮이	-7650
▁신규	-7651
▁실장	-7652
▁펌	-7653
승지	-7654
▁격퇴	-7655
▁알아내	-7656
▁애틀랜	-7657
▁되게	-7658
▁해적	-7659
▁라이언	-7660
▁서재	-7661
▁어쩌	-7662
▁저하	-7663
▁급격히	-7664
▁산림	-7665
▁거론	-7666
▁냉각	-7667
▁분당	-7668
▁안성	-7669
▁138	-7670
시피	-7671
▁경연	-7672
▁극히	-7673
▁백색	-7674
▁아마도	-7675
▁면허	-7676
▁도장	-7677
▁원숭이	-7678
▁LP	-7679
▁성숙	-7680
▁해밀	-7681
▁라이브러리	-7682
▁la	-7683
▁시즈	-7684
▁시칠리아	-7685
▁대의원	-7686
▁앓	-7687
▁옴	-7688
▁가동	-7689
▁이세	-7690
▁인플	-7691
▁택시	-7692
▁어울리	-7693
▁신한	-7694
▁삼국지	-7695
▁데이비스	-7696
▁전념	-7697
▁만남	-7698
타로	-7699
▁돌려	-7700
▁반감	-7701
▁안기	-7702
▁탐구	-7703
▁백화점	-7704
▁후쿠시마	-7705
▁회고	-7706
▁갈리	-7707
▁감리	-7708
▁동점	-7709
▁평원	-7710
거지	-7711
▁대표작	-7712
▁테이블	-7713
▁외치	-7714
▁이식	-7715
▁최상위	-7716
▁반경	-7717
▁사헌	-7718
▁줄리	-7719
▁현종	-7720
▁360	-7721
고쿠	-7722
▁기단	-7723
▁솟	-7724
▁코무네	-7725
▁환영	-7726
▁게르만	-7727
▁도미	-7728
▁돌보	-7729
▁리우스	-7730
▁혀	-7731
▁스톡	-7732
▁오해	-7733
▁주이	-7734
▁라트비아	-7735
람쥐	-7736
파르	-7737
▁최악	-7738
▁토성	-7739
▁한스	-7740
▁한쪽	-7741
▁횟수	-7742
푸르트	-7743
▁고성	-7744
▁익히	-7745
▁치명	-7746
▁혈통	-7747
▁모니터	-7748
양함	-7749
▁반도체	-7750
▁중성자	-7751
대신	-7752
▁구릉	-7753
토모	-7754
▁En	-7755
▁사우루스	-7756
▁뭉	-7757
데시	-7758
▁트래	-7759
▁104	-7760
▁그램	-7761
▁야구장	-7762
▁영의정	-7763
▁페르디	-7764
▁부당	-7765
▁피에	-7766
▁후방	-7767
타나	-7768
▁가짜	-7769
▁성체	-7770
▁오바	-7771
cl	-7772
▁그날	-7773
▁산란	-7774
▁칼라	-7775
▁공천	-7776
▁리라	-7777
▁상공	-7778
▁임용	-7779
▁주가	-7780
▁춘추	-7781
▁아부	-7782
▁재현	-7783
▁플랜	-7784
▁거행	-7785
▁발해	-7786
▁복선	-7787
▁레논	-7788
▁음료	-7789
▁잔류	-7790
▁동이	-7791
▁순교	-7792
▁사헌부	-7793
▁거제	-7794
▁여당	-7795
하시	-7796
▁성취	-7797
▁팔라	-7798
베르토	-7799
어버리	-7800
▁대학생	-7801
타고	-7802
▁춘천	-7803
래스카	-7804
▁AK	-7805
▁시바	-7806
▁109	-7807
▁방송사	-7808
마쓰	-7809
▁나비	-7810
▁비시	-7811
▁주주	-7812
▁증대	-7813
▁힘입	-7814
▁Mar	-7815
▁명령어	-7816
▁스트레스	-7817
▁별다르	-7818
▁릉	-7819
▁견제	-7820
▁피츠	-7821
회장	-7822
▁루프	-7823
▁우위	-7824
▁휠	-7825
▁데모	-7826
▁폭행	-7827
▁올바르	-7828
▁왜냐	-7829
▁적분	-7830
▁품종	-7831
▁현저	-7832
은색	-7833
▁폭동	-7834
▁교황청	-7835
▁차장	-7836
▁이에야스	-7837
여래	-7838
▁고인	-7839
▁목판	-7840
▁한인	-7841
▁열정	-7842
▁제독	-7843
▁축적	-7844
▁공수	-7845
▁플라이	-7846
글리	-7847
브레	-7848
▁매입	-7849
▁아홉	-7850
살이	-7851
▁AR	-7852
▁CS	-7853
▁송시	-7854
▁육체	-7855
▁123	-7856
▁주역	-7857
▁축하	-7858
곡리	-7859
▁이윤	-7860
▁정점	-7861
▁분비	-7862
▁수련	-7863
▁하워드	-7864
▁호랑이	-7865
▁킥	-7866
▁카자흐스탄	-7867
리니	-7868
▁다발	-7869
▁사모	-7870
▁유한	-7871
▁이케	-7872
▁터치	-7873
▁충전	-7874
▁헐	-7875
▁광학	-7876
▁아담	-7877
▁억압	-7878
▁통증	-7879
▁히어로즈	-7880
▁법조	-7881
▁주름	-7882
▁해명	-7883
권자	-7884
헤이	-7885
▁기적	-7886
▁바나	-7887
란히	-7888
▁소매	-7889
▁연합회	-7890
▁공산주의자	-7891
차기	-7892
▁관구	-7893
▁제하	-7894
▁다이아몬드	-7895
AL	-7896
은이	-7897
▁경관	-7898
▁래퍼	-7899
▁햇	-7900
▁팡	-7901
▁신조	-7902
실베이	-7903
실베이니아	-7904
▁펜실베이니아	-7905
▁고장	-7906
▁광물	-7907
러스트	-7908
ies	-7909
▁왓	-7910
▁Op	-7911
▁드로	-7912
▁암시	-7913
▁규범	-7914
▁처녀	-7915
더슨	-7916
▁계시	-7917
▁벌금	-7918
▁청춘	-7919
▁사업자	-7920
법인	-7921
포드	-7922
▁히메	-7923
▁부르크	-7924
▁생산량	-7925
▁리우	-7926
▁상용	-7927
▁마야	-7928
▁미라	-7929
▁남동부	-7930
바시	-7931
▁목재	-7932
▁베스	-7933
▁존속	-7934
▁상점	-7935
▁아예	-7936
▁컴파	-7937
▁CC	-7938
▁염기	-7939
▁143	-7940
▁소나타	-7941
▁태양계	-7942
▁펑크	-7943
▁룬	-7944
스틴	-7945
▁상반	-7946
▁갈라	-7947
▁놀랍	-7948
▁박람회	-7949
▁자민	-7950
▁돋	-7951
▁너비	-7952
▁블로그	-7953
▁가죽	-7954
▁다투	-7955
▁제프	-7956
▁티스	-7957
▁경상도	-7958
▁동아일보	-7959
▁성사	-7960
▁신주	-7961
브리지	-7962
▁공습	-7963
▁무지	-7964
▁누이	-7965
▁보석	-7966
▁사육	-7967
▁신약	-7968
▁이화	-7969
▁공관	-7970
▁노바	-7971
▁롤링	-7972
▁연하	-7973
▁적당	-7974
▁분기점	-7975
▁종로구	-7976
▁이소	-7977
▁평의회	-7978
ile	-7979
▁국소	-7980
▁부설	-7981
▁조세	-7982
▁토모	-7983
▁라오스	-7984
▁가군	-7985
▁김경	-7986
▁부제	-7987
▁조선일보	-7988
▁누나	-7989
▁우유	-7990
▁운하	-7991
▁태권	-7992
▁친일파	-7993
▁비자	-7994
▁지르	-7995
▁유로파	-7996
▁근교	-7997
▁레일	-7998
▁왜곡	-7999
▁블라디미르	-8000
▁헤비	-8001
▁알코올	-8002
▁비싸	-8003
▁상단	-8004
▁서진	-8005
나오	-8006
연합	-8007
▁이타	-8008
▁허위	-8009
▁황실	-8010
▁말라	-8011
▁동국	-8012
▁헤라	-8013
▁나트	-8014
▁날씨	-8015
▁공익	-8016
▁맥락	-8017
▁비유	-8018
▁RNA	-8019
▁범인	-8020
▁설탕	-8021
▁통영	-8022
▁경보	-8023
▁마디	-8024
▁협박	-8025
산동	-8026
▁소셜	-8027
▁유죄	-8028
▁굉장히	-8029
레기	-8030
▁Pr	-8031
▁트위터	-8032
나스	-8033
▁깨닫	-8034
▁상사	-8035
▁확신	-8036
▁col	-8037
▁시골	-8038
▁제재	-8039
수리	-8040
ite	-8041
▁대폭	-8042
▁에미	-8043
▁인체	-8044
▁112	-8045
▁인문	-8046
▁내보내	-8047
▁성단	-8048
▁신민	-8049
▁플러스	-8050
▁장거리	-8051
▁전자기	-8052
▁Te	-8053
▁맥주	-8054
▁카롤	-8055
▁브라더스	-8056
▁미르	-8057
▁미션	-8058
▁시어	-8059
▁루이지	-8060
비나	-8061
▁거칠	-8062
▁구출	-8063
▁왜냐하면	-8064
xt	-8065
▁흠	-8066
▁우승자	-8067
▁아랍어	-8068
▁중의원	-8069
▁카를로스	-8070
▁갇	-8071
기업	-8072
▁성별	-8073
▁포럼	-8074
▁법무부	-8075
▁양키스	-8076
▁시베리아	-8077
▁뉘	-8078
▁CF	-8079
▁근원	-8080
▁경찰청	-8081
▁키프로스	-8082
▁믹스	-8083
▁보증	-8084
▁연쇄	-8085
▁히사	-8086
도리	-8087
의장	-8088
▁다녀	-8089
▁창원시	-8090
▁실체	-8091
▁필터	-8092
▁엿	-8093
도바	-8094
▁126	-8095
▁이순신	-8096
▁거북	-8097
▁자선	-8098
▁개교	-8099
▁당주	-8100
▁언니	-8101
▁우호	-8102
▁임하	-8103
▁107	-8104
▁다지	-8105
▁단단	-8106
▁수법	-8107
▁핸드	-8108
▁이산화	-8109
스부르크	-8110
▁교과서	-8111
▁탐사선	-8112
랑카	-8113
▁가마쿠라	-8114
▁117	-8115
▁SE	-8116
▁신선	-8117
▁세라	-8118
▁구축함	-8119
▁결함	-8120
▁탐색	-8121
▁거울	-8122
▁다크	-8123
▁빨간	-8124
▁소원	-8125
▁일방	-8126
▁입원	-8127
▁희생자	-8128
()	-8129
고래	-8130
▁빈곤	-8131
▁후사	-8132
▁냉전	-8133
▁양측	-8134
▁릿	-8135
▁인명	-8136
ath	-8137
▁ㅓ서	-8138
▁합하	-8139
ound	-8140
▁곡인	-8141
▁조종사	-8142
ft	-8143
단체	-8144
▁몰래	-8145
▁제니	-8146
▁is	-8147
▁갇히	-8148
▁자아	-8149
▁천장	-8150
▁KIA	-8151
▁공방	-8152
▁투옥	-8153
▁할머니	-8154
▁샘플	-8155
▁수색	-8156
▁이브	-8157
▁후궁	-8158
그레이드	-8159
▁지평	-8160
▁풀리	-8161
▁교정	-8162
▁꾀하	-8163
▁이경	-8164
▁피우	-8165
▁게스트	-8166
▁350	-8167
▁수용체	-8168
▁제대	-8169
▁삼층석탑	-8170
▁업그레이드	-8171
▁퐁	-8172
▁문예	-8173
▁진하	-8174
▁네스	-8175
승부	-8176
▁승계	-8177
▁송시열	-8178
▁철회	-8179
▁com	-8180
▁고속도	-8181
▁도마뱀붙이	-8182
OL	-8183
다지	-8184
▁신시	-8185
▁칭찬	-8186
▁맘	-8187
▁통틀	-8188
▁핵무기	-8189
▁말씀	-8190
▁줄무늬	-8191
▁클라우드	-8192
▁결코	-8193
▁성도	-8194
▁판본	-8195
▁대웅전	-8196
▁삼성전자	-8197
크라	-8198
▁IM	-8199
▁상표	-8200
▁진공	-8201
갈색	-8202
▁도청	-8203
▁극장판	-8204
▁근로자	-8205
▁테이프	-8206
▁옆면	-8207
▁요약	-8208
▁워터	-8209
베니아	-8210
▁아카데미상	-8211
▁택하	-8212
▁라이너	-8213
▁일반인	-8214
▁CR	-8215
▁세속	-8216
▁173	-8217
▁헥	-8218
끼리	-8219
ond	-8220
▁더니	-8221
▁문구	-8222
▁요동	-8223
▁해고	-8224
▁고고학	-8225
▁사생활	-8226
▁연합국	-8227
수소	-8228
▁궁극	-8229
▁방화	-8230
▁121	-8231
▁알제리	-8232
▁Am	-8233
▁LC	-8234
▁스캔	-8235
▁진급	-8236
▁포병	-8237
▁브로드	-8238
▁비추	-8239
▁가져가	-8240
▁슬로베니아	-8241
마루	-8242
▁그냥	-8243
▁일가	-8244
▁멜로디	-8245
▁화장실	-8246
▁항쟁	-8247
▁113	-8248
▁137	-8249
▁킴	-8250
▁가축	-8251
▁김현	-8252
▁만일	-8253
무스	-8254
▁펠리	-8255
▁기업인	-8256
시타	-8257
지붕	-8258
▁치안	-8259
▁1894	-8260
박스	-8261
▁대명	-8262
▁뒤집	-8263
▁드레	-8264
▁비르	-8265
▁약력	-8266
▁공백	-8267
▁레온	-8268
▁바우	-8269
▁냄	-8270
조부	-8271
ory	-8272
▁타당	-8273
▁빨간색	-8274
▁프랑크푸르트	-8275
ov	-8276
▁불타	-8277
▁몬스터	-8278
▁지미	-8279
▁카카	-8280
▁게이지	-8281
▁놓치	-8282
▁캐시	-8283
▁ㅁ	-8284
▁시뮬	-8285
▁제인	-8286
▁최강	-8287
▁도미니	-8288
▁바티칸	-8289
▁말년	-8290
▁z	-8291
▁왕복	-8292
▁초월	-8293
▁둥지	-8294
게이머	-8295
▁바오로	-8296
▁프로게이머	-8297
축구	-8298
톨레	-8299
▁SU	-8300
▁럼	-8301
▁붐	-8302
▁농림	-8303
▁야쿠	-8304
▁용병	-8305
▁오프닝	-8306
▁총독부	-8307
▁코스타	-8308
▁낫	-8309
규모	-8310
man	-8311
▁미키	-8312
▁원전	-8313
▁피오	-8314
▁계정	-8315
▁적도	-8316
▁물려받	-8317
▁공민	-8318
▁구절	-8319
▁옵션	-8320
아프리카	-8321
그리	-8322
로이	-8323
▁사상자	-8324
▁야마토	-8325
린스	-8326
▁군정	-8327
▁혈관	-8328
▁먼지	-8329
▁서민	-8330
▁크리스토퍼	-8331
대기	-8332
블리	-8333
▁기질	-8334
▁필리프	-8335
▁대피	-8336
▁학명	-8337
▁남서부	-8338
▁최대한	-8339
▁커뮤니케이션	-8340
▁쑤	-8341
▁가루	-8342
▁내정	-8343
▁학계	-8344
▁화해	-8345
▁World	-8346
퍼런스	-8347
iver	-8348
▁가장자리	-8349
▁닫히	-8350
▁극심	-8351
▁즉각	-8352
▁횡단	-8353
▁넘치	-8354
▁뒷면	-8355
▁욕구	-8356
▁곤란	-8357
▁정세	-8358
로니	-8359
▁그랜	-8360
▁돌격	-8361
▁무어	-8362
▁성문	-8363
셰비	-8364
▁개종	-8365
▁외모	-8366
▁124	-8367
아키	-8368
▁이거	-8369
▁로이	-8370
▁부딪	-8371
▁국내외	-8372
▁침투	-8373
▁독일인	-8374
▁배후	-8375
▁모친	-8376
▁자비	-8377
▁하동	-8378
▁1890	-8379
▁관세	-8380
▁두껍	-8381
▁체크	-8382
▁평정	-8383
▁파이널	-8384
▁On	-8385
▁그대	-8386
▁명하	-8387
▁우파	-8388
▁제치	-8389
프레스	-8390
▁탤런트	-8391
▁뭐	-8392
▁프로덕	-8393
▁강서	-8394
▁서초	-8395
▁브리지	-8396
▁New	-8397
▁땃	-8398
▁자오	-8399
▁제압	-8400
▁트로이	-8401
줄기	-8402
▁데르	-8403
▁이드	-8404
▁계열사	-8405
▁분명히	-8406
▁오리콘	-8407
▁므	-8408
▁EC	-8409
▁러시	-8410
▁풍자	-8411
▁드라이버	-8412
IP	-8413
▁징계	-8414
▁초록	-8415
▁자연수	-8416
▁륙	-8417
▁감자	-8418
▁디렉	-8419
▁체조	-8420
▁다가오	-8421
ich	-8422
▁발리	-8423
▁오라	-8424
▁관음	-8425
▁챌린지	-8426
드르	-8427
▁be	-8428
▁봉건	-8429
▁설화	-8430
▁은데	-8431
▁SD	-8432
▁vs	-8433
▁매매	-8434
▁선비	-8435
▁부작용	-8436
▁뉴턴	-8437
▁정변	-8438
▁쾌속	-8439
지스	-8440
▁괴물	-8441
▁어미	-8442
▁예조	-8443
▁114	-8444
▁검찰청	-8445
▁블랙홀	-8446
▁미노	-8447
▁베니	-8448
▁유저	-8449
▁소규모	-8450
▁맑	-8451
▁정주	-8452
▁베네딕	-8453
▁플래시	-8454
▁대거	-8455
대원군	-8456
▁방사선	-8457
렉스	-8458
ial	-8459
▁공감	-8460
▁김정일	-8461
▁매니저	-8462
▁알루미	-8463
▁태극	-8464
▁코믹스	-8465
▁영산	-8466
▁자음	-8467
▁아랫	-8468
▁컨셉	-8469
▁태그	-8470
▁학업	-8471
▁안토니오	-8472
먼스	-8473
▁경신	-8474
▁이준	-8475
hn	-8476
▁퇴임	-8477
▁캔자스	-8478
▁답변	-8479
▁시정	-8480
▁지침	-8481
▁알아보	-8482
▁군중	-8483
▁양호	-8484
▁요정	-8485
▁컷	-8486
황후	-8487
▁Sc	-8488
ign	-8489
▁가드	-8490
▁빛나	-8491
▁조부	-8492
▁중형	-8493
▁악단	-8494
▁자택	-8495
▁115	-8496
▁구스타	-8497
▁벵	-8498
▁빔	-8499
▁김규	-8500
▁스칼	-8501
▁운수	-8502
러드	-8503
▁앵글	-8504
▁이남	-8505
▁118	-8506
▁시위대	-8507
저지	-8508
▁비로소	-8509
▁통치자	-8510
▁떨치	-8511
▁연승	-8512
타리오	-8513
조건	-8514
▁공조	-8515
▁세이브	-8516
▁윤치호	-8517
▁`	-8518
▁비기	-8519
▁체스	-8520
▁다녀오	-8521
▁원로원	-8522
TS	-8523
▁과반	-8524
▁비주	-8525
▁하프	-8526
▁모나	-8527
▁변이	-8528
보르	-8529
▁진사	-8530
▁일리노	-8531
▁취업	-8532
▁대부	-8533
▁생체	-8534
▁저널	-8535
▁깎	-8536
▁남미	-8537
▁종착	-8538
▁주부	-8539
▁일리노이	-8540
▁믹	-8541
닐라	-8542
▁로그	-8543
▁어긋	-8544
▁용이	-8545
▁키르	-8546
▁혜택	-8547
▁크리스티안	-8548
▁동정	-8549
▁증손	-8550
▁하르	-8551
▁헬리	-8552
▁무승부	-8553
▁우즈베	-8554
하루	-8555
▁땃쥐	-8556
▁지인	-8557
▁경찰관	-8558
▁승부차기	-8559
히코	-8560
▁구와	-8561
▁재상	-8562
▁카우	-8563
▁커널	-8564
▁1898	-8565
▁갑작스럽	-8566
기념	-8567
문트	-8568
▁숙청	-8569
▁뉴저지	-8570
▁레바논	-8571
▁풀려나	-8572
▁마력	-8573
▁만료	-8574
▁힌두교	-8575
▁남구	-8576
▁기각	-8577
▁밝기	-8578
▁본국	-8579
마이오스	-8580
▁GP	-8581
▁극작	-8582
▁맥도	-8583
▁서자	-8584
▁종속	-8585
▁천하	-8586
▁미하일	-8587
▁소방서	-8588
▁모로코	-8589
▁소모	-8590
▁밀집	-8591
▁외관	-8592
▁파란색	-8593
교도	-8594
함수	-8595
▁GS	-8596
▁미세	-8597
▁헬기	-8598
▁엇	-8599
▁바빌	-8600
바닥	-8601
▁순조	-8602
▁축출	-8603
▁통보	-8604
▁뇌물	-8605
▁우측	-8606
벨트	-8607
▁한족	-8608
▁III	-8609
▁반지름	-8610
▁스폰	-8611
▁전년	-8612
▁직면	-8613
▁코카	-8614
▁필사	-8615
▁성리학	-8616
▁왕세	-8617
▁연예인	-8618
▁웨스턴	-8619
▁체코슬로	-8620
▁체코슬로바키아	-8621
▁렐	-8622
▁선도	-8623
▁리뷰	-8624
▁사적	-8625
▁희귀	-8626
▁쯔	-8627
미사	-8628
▁예고	-8629
ph	-8630
쟁이	-8631
▁관제	-8632
▁웹툰	-8633
▁레슬링	-8634
▁스크립	-8635
려워하	-8636
▁그레고	-8637
▁디비시온	-8638
▁프로덕션	-8639
시즘	-8640
아먹	-8641
▁부스	-8642
▁케빈	-8643
▁범유행	-8644
속기	-8645
▁기증	-8646
▁호출	-8647
▁사쿠라	-8648
▁가옥	-8649
▁배수	-8650
▁척추	-8651
▁천재	-8652
타니	-8653
▁ㅕㅆ	-8654
▁서신	-8655
▁지출	-8656
▁케냐	-8657
▁129	-8658
▁시가지	-8659
▁무성	-8660
▁카디	-8661
▁젊은이	-8662
레타	-8663
▁발급	-8664
▁종래	-8665
▁대변인	-8666
▁의약품	-8667
▁알루미늄	-8668
▁광해군	-8669
▁쫓겨나	-8670
슬러	-8671
틱스	-8672
화물	-8673
▁말미	-8674
▁패럴	-8675
▁화력	-8676
테르부르크	-8677
▁맏	-8678
부리	-8679
▁승자	-8680
▁임원	-8681
▁파산	-8682
▁외야수	-8683
▁로비	-8684
▁발병	-8685
▁봉안	-8686
▁페널	-8687
▁Ne	-8688
▁스타리그	-8689
▁옳	-8690
▁센티	-8691
▁재혼	-8692
▁컴백	-8693
▁개막전	-8694
▁닦	-8695
타리	-8696
▁등기	-8697
▁어른	-8698
▁흘러	-8699
▁워크	-8700
▁중산	-8701
▁창출	-8702
▁한테	-8703
▁사위	-8704
▁요건	-8705
▁응시	-8706
▁켈리	-8707
▁폭넓	-8708
▁핑크	-8709
▁터뜨리	-8710
▁난징	-8711
▁실망	-8712
▁1899	-8713
▁벨라루스	-8714
▁글루	-8715
▁부의장	-8716
▁원천	-8717
▁재선	-8718
▁첨단	-8719
▁연산자	-8720
▁총사령	-8721
▁무명	-8722
▁마운트	-8723
코딩	-8724
▁저주	-8725
▁전속	-8726
▁중공	-8727
▁세이부	-8728
▁확실히	-8729
개미	-8730
▁부피	-8731
▁성폭	-8732
▁지옥	-8733
▁청산	-8734
▁케임	-8735
▁사용자	-8736
▁러셀	-8737
▁미들	-8738
▁예하	-8739
▁토양	-8740
▁회관	-8741
▁브리튼	-8742
TA	-8743
▁총칭	-8744
▁천문대	-8745
▁퉁	-8746
▁기차	-8747
▁사본	-8748
▁장례식	-8749
▁키보드	-8750
▁기술자	-8751
▁플라스틱	-8752
▁웬	-8753
rom	-8754
우트	-8755
▁황족	-8756
니까	-8757
▁드림	-8758
▁유라	-8759
▁뒷받침	-8760
▁오오	-8761
▁워너	-8762
▁넘어서	-8763
▁스트리	-8764
▁감싸	-8765
▁토끼	-8766
▁희곡	-8767
포로	-8768
▁유진	-8769
▁ch	-8770
▁유방	-8771
▁각도	-8772
▁남작	-8773
▁토미	-8774
▁감행	-8775
▁안테	-8776
느러미	-8777
▁끌어들이	-8778
▁괘	-8779
▁구경	-8780
▁벽돌	-8781
▁시범	-8782
▁142	-8783
▁얹	-8784
▁공리	-8785
▁양반	-8786
▁오크	-8787
▁옹립	-8788
▁혼동	-8789
MA	-8790
▁ID	-8791
▁찌르	-8792
▁거래소	-8793
▁조지프	-8794
▁두려워하	-8795
▁설교	-8796
▁독서	-8797
▁리프	-8798
▁사간	-8799
▁소생	-8800
▁교통국	-8801
▁아리아	-8802
ens	-8803
▁대치	-8804
▁폭포	-8805
▁월요일	-8806
토르	-8807
▁감마	-8808
▁만성	-8809
▁제국주의	-8810
▁대패	-8811
▁벨트	-8812
▁병기	-8813
파이어	-8814
▁타임스	-8815
▁프란츠	-8816
pp	-8817
▁학기	-8818
셰비키	-8819
방송공사	-8820
진군	-8821
▁BS	-8822
▁CJ	-8823
▁공적	-8824
▁지켜	-8825
▁광둥	-8826
▁채소	-8827
▁화자	-8828
ction	-8829
urn	-8830
▁신원	-8831
▁형조	-8832
▁도카이	-8833
타주	-8834
▁무함	-8835
▁정성	-8836
▁피겨	-8837
▁하얗	-8838
▁화상	-8839
▁어긋나	-8840
▁프톨레	-8841
▁더글러스	-8842
▁프톨레마이오스	-8843
▁가야	-8844
▁시리	-8845
▁의자	-8846
▁중복	-8847
▁룩셈	-8848
▁본문	-8849
▁시코	-8850
치기	-8851
lan	-8852
▁거세	-8853
▁스턴	-8854
▁마르티	-8855
▁룩셈부르크	-8856
럴드	-8857
▁JT	-8858
▁김지	-8859
▁수분	-8860
▁트리플	-8861
▁온타리오	-8862
▁보위	-8863
▁지치	-8864
▁Man	-8865
▁잃어버리	-8866
▁쟈	-8867
▁체류	-8868
▁대서양	-8869
▁부여받	-8870
ert	-8871
▁끊임없이	-8872
▁제네바	-8873
글라	-8874
▁마녀	-8875
▁시가	-8876
▁영문	-8877
▁왼손	-8878
▁축물	-8879
▁청주시	-8880
▁밍	-8881
브르	-8882
▁선배	-8883
▁자크	-8884
롤라이나	-8885
▁발기	-8886
▁금요일	-8887
▁스즈키	-8888
샤바	-8889
▁서류	-8890
▁그래미	-8891
▁점성술	-8892
▁콕	-8893
▁서장	-8894
▁촉매	-8895
▁코시	-8896
▁습지	-8897
덩이	-8898
▁동네	-8899
▁선행	-8900
▁정적	-8901
▁피신	-8902
▁플랫폼	-8903
▁게리	-8904
▁유체	-8905
▁광주광역시	-8906
▁익스프레스	-8907
▁동학	-8908
▁빌라	-8909
▁1902	-8910
▁간선	-8911
▁물품	-8912
▁함정	-8913
두리	-8914
▁기사단	-8915
▁몫	-8916
천리	-8917
▁명종	-8918
▁혐오	-8919
▁다항식	-8920
▁호르몬	-8921
▁흔들리	-8922
▁간토	-8923
▁니코	-8924
▁포획	-8925
▁표기법	-8926
▁''	-8927
▁가환	-8928
▁깃발	-8929
▁엔딩	-8930
▁정려	-8931
▁표적	-8932
▁강변	-8933
▁국영	-8934
▁얽	-8935
크로	-8936
▁독성	-8937
▁버드	-8938
▁우체	-8939
▁초신	-8940
▁스위치	-8941
▁러시아어	-8942
▁준결승전	-8943
그룹	-8944
▁그릇	-8945
▁단절	-8946
▁영등	-8947
▁서유럽	-8948
▁으려고	-8949
lic	-8950
▁사슴	-8951
▁관광지	-8952
▁마스크	-8953
▁바깥쪽	-8954
▁붙잡히	-8955
▁지식인	-8956
▁앗	-8957
▁수확	-8958
▁약자	-8959
▁위쪽	-8960
▁타케	-8961
▁코끼리	-8962
aw	-8963
▁나노	-8964
▁메커	-8965
▁치아	-8966
▁보이스	-8967
▁정동	-8968
▁소나무	-8969
▁매수	-8970
▁기니	-8971
▁원종	-8972
▁응하	-8973
▁해밀턴	-8974
▁광명	-8975
▁동행	-8976
▁로라	-8977
▁세비	-8978
▁정립	-8979
▁판례	-8980
▁갈수록	-8981
▁갈릴	-8982
▁참의	-8983
▁아이오	-8984
ys	-8985
ach	-8986
▁불꽃	-8987
▁연꽃	-8988
폴리	-8989
▁개소	-8990
▁검열	-8991
▁면제	-8992
▁부가	-8993
▁상금	-8994
▁슈팅	-8995
▁입각	-8996
▁주조	-8997
▁춥	-8998
▁대합	-8999
▁성지	-9000
▁전방	-9001
▁조립	-9002
▁탄도	-9003
▁비석	-9004
▁서리	-9005
▁하단	-9006
▁비행장	-9007
▁아돌프	-9008
짓점	-9009
▁고아	-9010
▁대손	-9011
▁복용	-9012
▁역량	-9013
▁기숙	-9014
▁마블	-9015
▁입국	-9016
▁꼭짓점	-9017
▁부회장	-9018
▁단축	-9019
▁보복	-9020
▁소시	-9021
▁염증	-9022
▁퀘벡	-9023
▁크롬	-9024
▁뮤지션	-9025
▁이용자	-9026
TC	-9027
▁강동	-9028
▁실버	-9029
▁원료	-9030
▁이단	-9031
▁헌신	-9032
레슬링	-9033
▁연기자	-9034
카가	-9035
텍처	-9036
▁갱신	-9037
▁산출	-9038
▁색채	-9039
▁쓰촨	-9040
▁울프	-9041
▁입성	-9042
▁고양시	-9043
▁아키텍처	-9044
▁박지	-9045
▁아산	-9046
▁열도	-9047
▁하치	-9048
▁간단히	-9049
LS	-9050
디나	-9051
타임	-9052
▁직결	-9053
▁코코	-9054
▁1901	-9055
▁포켓몬스터	-9056
▁No	-9057
▁광대	-9058
▁브뤼	-9059
▁에디션	-9060
▁패밀리	-9061
구르	-9062
히토	-9063
▁염색체	-9064
out	-9065
▁커스	-9066
▁삿포로	-9067
▁토착종	-9068
▁페널티	-9069
▁페르디난	-9070
▁민감	-9071
▁생생	-9072
▁임관	-9073
▁체르	-9074
▁특권	-9075
▁폭격기	-9076
테인	-9077
▁스텔	-9078
▁쿄	-9079
미트	-9080
▁단의	-9081
▁대두	-9082
▁보트	-9083
▁드러머	-9084
국사	-9085
▁극대	-9086
▁누적	-9087
▁서문	-9088
▁압둘	-9089
▁축조	-9090
▁표방	-9091
▁매카트니	-9092
LE	-9093
▁권총	-9094
▁이현	-9095
피어	-9096
▁생략	-9097
▁프로레슬링	-9098
링턴	-9099
▁어류	-9100
모스	-9101
▁수축	-9102
▁일산	-9103
▁카미	-9104
▁사이토	-9105
▁영국인	-9106
자르	-9107
▁레즈	-9108
▁분수	-9109
▁제로	-9110
▁리더십	-9111
▁요르단	-9112
▁지켜보	-9113
IG	-9114
▁공예	-9115
▁호모	-9116
▁케임브리지	-9117
▁김창	-9118
▁라그	-9119
▁아라비아	-9120
루아	-9121
▁버티	-9122
▁안경	-9123
▁페니	-9124
▁경성부	-9125
▁자작	-9126
▁바이킹	-9127
▁메커니즘	-9128
▁울산광역시	-9129
▁논하	-9130
▁여운	-9131
아웃	-9132
▁소말	-9133
▁실적	-9134
일으키	-9135
▁도요토미	-9136
▁불러일으키	-9137
ug	-9138
▁렘	-9139
▁례	-9140
로우	-9141
▁아브	-9142
▁오쿠	-9143
▁정문	-9144
▁사회당	-9145
▁차르	-9146
▁화강	-9147
▁kt	-9148
▁고산	-9149
▁체중	-9150
▁하비	-9151
▁언어학	-9152
▁발렌시아	-9153
▁동조	-9154
▁보헤	-9155
▁원본	-9156
▁터보	-9157
▁특색	-9158
▁광저우	-9159
▁알렉산드르	-9160
▁무궁	-9161
▁학대	-9162
▁쓰레기	-9163
▁아리스토	-9164
▁아시카가	-9165
▁옥스퍼드	-9166
▁MB	-9167
▁이태	-9168
▁그다지	-9169
▁비타	-9170
▁선동	-9171
▁갈리아	-9172
▁사업가	-9173
▁이병	-9174
▁조수	-9175
▁퇴역	-9176
▁노태우	-9177
▁장기간	-9178
▁트로피	-9179
▁홈구장	-9180
▁공명	-9181
▁섹스	-9182
▁어둠	-9183
▁회상	-9184
클레스	-9185
사리	-9186
▁불신	-9187
▁손꼽	-9188
▁어찌	-9189
▁카프	-9190
▁토기	-9191
▁All	-9192
▁개인전	-9193
▁파이터	-9194
▁썰	-9195
쿠버	-9196
펜하	-9197
▁교대	-9198
▁다마	-9199
▁크레이	-9200
기스	-9201
테르담	-9202
▁134	-9203
▁마우	-9204
▁질소	-9205
나우	-9206
카미	-9207
▁연봉	-9208
노미야	-9209
내리	-9210
ype	-9211
▁개화	-9212
▁현은	-9213
라이어	-9214
▁방송인	-9215
▁두께	-9216
▁조형	-9217
▁전염병	-9218
▁피고인	-9219
▁아인슈타인	-9220
올로	-9221
▁스님	-9222
▁원더	-9223
▁취항	-9224
▁훔치	-9225
▁당연히	-9226
▁알렉산드리아	-9227
▁Cl	-9228
▁EX	-9229
▁THE	-9230
▁푸에르	-9231
▁무함마드	-9232
▁검출	-9233
▁공고	-9234
▁김제	-9235
▁어뢰	-9236
ke	-9237
▁루타	-9238
▁만주국	-9239
▁지도부	-9240
▁1903	-9241
대장	-9242
정리	-9243
ase	-9244
▁공황	-9245
▁드레스	-9246
▁모서리	-9247
그래	-9248
카타	-9249
퀘어	-9250
▁반공	-9251
그레	-9252
▁미륵	-9253
▁패널	-9254
▁AN	-9255
▁가역	-9256
▁모모	-9257
▁전위	-9258
▁좌측	-9259
▁토요	-9260
▁헌정	-9261
베트남	-9262
하키	-9263
▁강간	-9264
▁삼촌	-9265
▁배우자	-9266
▁이성계	-9267
▁야마구치	-9268
▁노보	-9269
▁뛰어	-9270
▁마키	-9271
사이드	-9272
▁방글라	-9273
▁컨트리	-9274
▁1884	-9275
▁방글라데시	-9276
▁기분	-9277
▁아폴로	-9278
방울	-9279
▁구형	-9280
▁물가	-9281
▁직경	-9282
▁파병	-9283
▁쓰시마	-9284
▁김홍	-9285
▁와일드	-9286
처스	-9287
▁Gr	-9288
▁각색	-9289
▁남매	-9290
▁단면	-9291
▁에콰	-9292
▁취미	-9293
▁코믹	-9294
▁미시시피	-9295
▁에콰도르	-9296
그라	-9297
▁상고	-9298
▁이관	-9299
▁하리	-9300
▁One	-9301
도스	-9302
천사	-9303
▁로저	-9304
▁우치	-9305
▁인질	-9306
▁캐서	-9307
▁함선	-9308
역학	-9309
CAF	-9310
▁정유	-9311
▁LA	-9312
▁슬라브	-9313
▁세키	-9314
▁회피	-9315
▁히타	-9316
▁기념관	-9317
▁그레이트	-9318
▁대구광역시	-9319
▁앰	-9320
▁실재	-9321
▁정선	-9322
▁기념비	-9323
▁더욱이	-9324
푸르	-9325
▁데카	-9326
▁밀란	-9327
▁장벽	-9328
▁토시	-9329
▁1800	-9330
▁군산	-9331
▁날카	-9332
▁조승	-9333
▁복합체	-9334
라이언트	-9335
가와현	-9336
▁날카롭	-9337
▁신도비	-9338
▁아나키	-9339
▁염소	-9340
▁진전	-9341
▁오사카부	-9342
▁와이번스	-9343
▁발칸	-9344
▁의결	-9345
▁클라이언트	-9346
고스	-9347
▁네오	-9348
▁준주	-9349
▁중령	-9350
▁클라이	-9351
▁아미노산	-9352
불교	-9353
▁강대	-9354
▁실무	-9355
▁우회	-9356
▁마르틴	-9357
▁프란체	-9358
▁히로시	-9359
▁중앙아시아	-9360
▁구스	-9361
▁군함	-9362
▁상응	-9363
▁상트	-9364
▁에밀	-9365
▁프레드	-9366
▁농부	-9367
▁리만	-9368
▁도널드	-9369
▁콤팩트	-9370
▁북아프리카	-9371
네마	-9372
▁IN	-9373
▁깨지	-9374
11	-9375
▁경작	-9376
▁퇴적	-9377
▁티코	-9378
▁니콜라이	-9379
▁샌디	-9380
▁추첨	-9381
가르	-9382
▁음향	-9383
▁}	-9384
니시	-9385
▁CN	-9386
▁간신	-9387
▁대문	-9388
▁분량	-9389
▁조반니	-9390
리코	-9391
▁복소수	-9392
▁충청도	-9393
▁내걸	-9394
▁소자	-9395
▁유부	-9396
▁이북	-9397
▁전구	-9398
▁진료	-9399
▁마르코	-9400
▁을까	-9401
▁효고	-9402
▁꼭대기	-9403
ree	-9404
▁곡물	-9405
▁구약	-9406
▁도선	-9407
▁상가	-9408
간지	-9409
▁달걀	-9410
▁카사	-9411
▁팰	-9412
번뇌	-9413
▁관절	-9414
▁비뉴	-9415
▁철폐	-9416
테이션	-9417
▁선우	-9418
▁추론	-9419
▁꿀	-9420
▁팟	-9421
사우	-9422
▁공약	-9423
▁당수	-9424
▁심화	-9425
▁쥐과	-9426
▁소행성	-9427
▁일자리	-9428
▁기저	-9429
▁무슨	-9430
▁종말	-9431
▁갤러리	-9432
▁총대주교	-9433
파리	-9434
▁까닭	-9435
▁분출	-9436
▁민간인	-9437
▁소수자	-9438
pt	-9439
포터	-9440
▁가산	-9441
▁상경	-9442
▁유대교	-9443
▁전시회	-9444
ary	-9445
▁GO	-9446
▁묶이	-9447
▁한층	-9448
▁거짓말	-9449
▁데스크	-9450
▁방사성	-9451
ass	-9452
▁가열	-9453
▁가오	-9454
▁권장	-9455
▁전복	-9456
▁다케다	-9457
▁Ad	-9458
▁건륭	-9459
▁교량	-9460
▁러스	-9461
▁브란	-9462
▁신축	-9463
▁용서	-9464
▁정화	-9465
▁침체	-9466
▁하차	-9467
▁득표율	-9468
▁카스티	-9469
act	-9470
▁델타	-9471
▁돌기	-9472
▁뉴욕주	-9473
▁대성당	-9474
▁스토어	-9475
사업	-9476
▁Br	-9477
▁가신	-9478
▁대출	-9479
▁뒤쪽	-9480
▁반전	-9481
▁가브리	-9482
벤처	-9483
산성	-9484
아들	-9485
▁감안	-9486
▁격차	-9487
▁해남	-9488
▁활주	-9489
▁흥선	-9490
▁with	-9491
▁어드벤처	-9492
▁강희	-9493
▁모리스	-9494
▁수목	-9495
▁교도소	-9496
▁마가	-9497
▁막스	-9498
▁시야	-9499
▁자형	-9500
▁진행자	-9501
▁일렉트로	-9502
구역	-9503
▁견인	-9504
▁궁중	-9505
▁급수	-9506
▁냄새	-9507
▁상법	-9508
산맥	-9509
▁복권	-9510
▁우물	-9511
▁장자	-9512
▁반군	-9513
▁샌드	-9514
▁이반	-9515
▁116	-9516
▁220	-9517
▁지지율	-9518
개골	-9519
▁등용	-9520
▁남동생	-9521
▁볼리비아	-9522
▁절단	-9523
▁창녕	-9524
▁칼뱅	-9525
▁현감	-9526
▁거주지	-9527
▁기관총	-9528
몰로지	-9529
▁되돌리	-9530
▁인테르	-9531
▁페이스북	-9532
▁깨끗	-9533
▁라오	-9534
▁카를로	-9535
▁1860	-9536
ark	-9537
▁경인	-9538
▁민정	-9539
▁버마	-9540
▁체력	-9541
▁폭로	-9542
▁스트라이크	-9543
▁연대기	-9544
▁스크립트	-9545
▁글래	-9546
▁기슭	-9547
▁디트로	-9548
▁마카오	-9549
▁포스터	-9550
▁디트로이트	-9551
▁갈래	-9552
▁발령	-9553
▁접수	-9554
기념물	-9555
▁버클리	-9556
▁쓸	-9557
▁마니	-9558
▁무로	-9559
▁애리	-9560
▁올드	-9561
▁일파	-9562
▁맞붙	-9563
▁세바	-9564
▁1897	-9565
▁Ex	-9566
▁낙동	-9567
▁신정	-9568
▁오로	-9569
▁중원	-9570
ream	-9571
▁홉	-9572
곡동	-9573
▁ㄴ지	-9574
▁후반기	-9575
▁나루	-9576
▁평창	-9577
▁떡	-9578
▁단행본	-9579
▁중공업	-9580
▁카타르	-9581
▁대관	-9582
▁찰리	-9583
▁후작	-9584
▁가의	-9585
▁종파	-9586
▁태백	-9587
▁모티브	-9588
▁홍문관	-9589
▁애칭	-9590
▁사카이	-9591
▁일부분	-9592
▁가가	-9593
▁보성	-9594
▁상트페	-9595
▁상트페테르부르크	-9596
▁벽화	-9597
▁아소	-9598
▁쿠니	-9599
▁타우	-9600
▁솔루션	-9601
▁북경	-9602
▁전격	-9603
▁강남구	-9604
▁리조	-9605
▁장제	-9606
▁적군	-9607
▁과실	-9608
▁동형	-9609
▁왕정	-9610
▁입주	-9611
▁안산	-9612
▁캐서린	-9613
▁바르샤바	-9614
▁랍	-9615
▁전산	-9616
▁학력	-9617
▁델라	-9618
▁르노	-9619
▁브랜	-9620
▁미네소	-9621
리안	-9622
▁속편	-9623
▁카즈	-9624
▁합당	-9625
거진	-9626
츠크	-9627
▁농사	-9628
▁사살	-9629
▁수중	-9630
▁제작사	-9631
▁경제학자	-9632
▁애틀랜타	-9633
▁셜	-9634
▁Is	-9635
▁공손	-9636
▁돌입	-9637
▁마당	-9638
▁수료	-9639
▁호쿠	-9640
▁휴가	-9641
▁한국방송공사	-9642
▁저렴	-9643
▁효종	-9644
▁교육청	-9645
▁청소	-9646
▁팔레	-9647
▁공용어	-9648
▁타지	-9649
▁클라크	-9650
▁섀	-9651
리즘	-9652
반구	-9653
▁;&	-9654
▁con	-9655
▁고이	-9656
▁스퀘어	-9657
▁알프레	-9658
세기	-9659
▁리히	-9660
▁무술	-9661
▁집결	-9662
▁유닉스	-9663
▁1880	-9664
▁신동	-9665
▁오지	-9666
▁프렌	-9667
▁확진	-9668
▁BM	-9669
▁노이	-9670
▁분파	-9671
▁소행	-9672
▁이빨	-9673
▁122	-9674
▁고토	-9675
▁정경	-9676
▁쥐속	-9677
▁타협	-9678
▁괴롭히	-9679
▁마라톤	-9680
▁안드레아	-9681
▁함부르크	-9682
니지	-9683
▁갑옷	-9684
▁보강	-9685
▁빈도	-9686
▁살피	-9687
▁숙주	-9688
▁연동	-9689
▁창의	-9690
▁아마존	-9691
▁옥수수	-9692
▁경위	-9693
▁청색	-9694
스카르	-9695
▁그림자	-9696
iss	-9697
▁김민	-9698
▁ᆫ다며	-9699
▁게릴라	-9700
▁이주하	-9701
▁일러스트	-9702
▁파라과이	-9703
▁뻔	-9704
▁메라	-9705
▁세네	-9706
▁설립자	-9707
나미	-9708
▁브룩	-9709
▁블리	-9710
▁추리	-9711
▁나란히	-9712
▁새로이	-9713
▁2022	-9714
▁슛	-9715
퍼슨	-9716
▁고추	-9717
▁안치	-9718
▁동요	-9719
▁루크	-9720
▁막시	-9721
▁예명	-9722
▁오락	-9723
▁천연기념물	-9724
UR	-9725
▁낚	-9726
▁강풍	-9727
▁듀얼	-9728
▁석회	-9729
▁열심	-9730
▁유령	-9731
▁극작가	-9732
ii	-9733
케이	-9734
▁강철	-9735
▁군청	-9736
▁입양	-9737
콥터	-9738
▁ES	-9739
▁석불	-9740
▁이데	-9741
▁장원	-9742
▁출석	-9743
▁133	-9744
▁그레고리오	-9745
▁눕	-9746
기구	-9747
▁어로	-9748
▁재해	-9749
▁치우	-9750
네시	-9751
▁감추	-9752
▁메릴	-9753
▁짐작	-9754
▁돌아다니	-9755
ake	-9756
▁등극	-9757
▁처지	-9758
▁NGC	-9759
▁++	-9760
▁용암	-9761
▁프롤	-9762
▁호응	-9763
푸아	-9764
▁스노	-9765
▁이언	-9766
▁쳐들	-9767
▁스트라이커	-9768
▁엮	-9769
▁더비	-9770
▁무스	-9771
▁두개골	-9772
▁교육부	-9773
▁키예프	-9774
▁기성	-9775
▁수녀	-9776
▁아요	-9777
▁원격	-9778
▁확고	-9779
▁경쟁력	-9780
▁추종	-9781
▁엘리트	-9782
▁이용객	-9783
▁마애	-9784
▁이장	-9785
▁지청	-9786
▁해부	-9787
▁지방산	-9788
▁사무총장	-9789
▁흥선대원군	-9790
타케	-9791
해튼	-9792
▁극도	-9793
▁번성	-9794
▁유스	-9795
▁제왕	-9796
▁화순	-9797
▁소령	-9798
▁위생	-9799
▁유정	-9800
▁즐겁	-9801
자치시	-9802
▁CEO	-9803
▁특별자치시	-9804
▁대국	-9805
▁기상청	-9806
▁DM	-9807
▁연못	-9808
▁요법	-9809
▁우상	-9810
▁워치	-9811
▁윤보	-9812
▁재난	-9813
▁현행	-9814
캐롤라이나	-9815
▁선장	-9816
▁자카	-9817
▁콘테	-9818
▁그렇지만	-9819
▁격자	-9820
▁몽고	-9821
▁붙여지	-9822
▁손꼽히	-9823
old	-9824
▁사쿠	-9825
▁아치	-9826
▁함양	-9827
▁이동하	-9828
▁반역	-9829
▁이득	-9830
▁장단	-9831
▁종점	-9832
▁진수	-9833
▁파우	-9834
HO	-9835
타마	-9836
▁결핍	-9837
▁심야	-9838
▁제리	-9839
▁Mus	-9840
▁미생물	-9841
▁인프라	-9842
▁포도당	-9843
사관학교	-9844
▁결제	-9845
▁국유	-9846
▁농어	-9847
▁일괄	-9848
GA	-9849
▁개항	-9850
▁모용	-9851
▁자결	-9852
▁정관	-9853
▁해치	-9854
다운	-9855
▁가네	-9856
▁니카	-9857
own	-9858
▁Ro	-9859
▁이규	-9860
▁헬륨	-9861
▁CBS	-9862
▁대지진	-9863
▁법정동	-9864
▁시뮬레이션	-9865
▁프랭클린	-9866
▁감동	-9867
▁도사	-9868
▁명분	-9869
▁야시	-9870
▁펜싱	-9871
▁파이프	-9872
▁스리랑카	-9873
어뜨리	-9874
▁가도	-9875
▁스로	-9876
▁암흑	-9877
▁아스널	-9878
▁앨리스	-9879
▁위나라	-9880
▁자치체	-9881
거래	-9882
ork	-9883
▁파문	-9884
▁제조업	-9885
▁평민	-9886
▁하고	-9887
▁무궁화	-9888
렉션	-9889
▁성령	-9890
▁자생	-9891
▁탁월	-9892
▁국악	-9893
▁앞장	-9894
▁겉보기	-9895
▁막히	-9896
▁조계	-9897
▁아래쪽	-9898
▁그레고리	-9899
▁툰	-9900
미스	-9901
▁GDP	-9902
에미	-9903
▁NE	-9904
▁만년	-9905
▁문경	-9906
▁불행	-9907
▁아데	-9908
▁정인	-9909
▁무조건	-9910
lo	-9911
▁싣	-9912
멘스	-9913
삭스	-9914
파크	-9915
▁온갖	-9916
▁대사헌	-9917
▁마우스	-9918
▁수년	-9919
▁스태	-9920
▁모터스	-9921
▁선거법	-9922
버러	-9923
▁듀오	-9924
▁루비	-9925
▁미셸	-9926
▁부조	-9927
▁132	-9928
▁동성애자	-9929
▁삼국사기	-9930
위성	-9931
ick	-9932
▁이모	-9933
▁아이스하키	-9934
▁PR	-9935
▁가타	-9936
▁타석	-9937
▁쾰	-9938
▁시종	-9939
▁장흥	-9940
▁총무	-9941
▁인디애나	-9942
▁동참	-9943
▁베른	-9944
▁속주	-9945
▁주지	-9946
▁후속작	-9947
▁낙하	-9948
▁리모	-9949
▁빈번	-9950
▁복음서	-9951
▁or	-9952
▁꿈꾸	-9953
▁주화	-9954
▁퇴장	-9955
스기	-9956
원장	-9957
▁상연	-9958
▁조병	-9959
위원회	-9960
림픽	-9961
▁상기	-9962
▁신상	-9963
▁정국	-9964
▁센고쿠	-9965
▁그리스인	-9966
▁CONCA	-9967
▁글로브	-9968
변이	-9969
헌영	-9970
▁수심	-9971
▁시국	-9972
▁초원	-9973
▁돌연변이	-9974
▁보헤미아	-9975
Hz	-9976
▁대각	-9977
▁시애	-9978
▁장대	-9979
▁표창	-9980
▁호족	-9981
▁비주얼	-9982
▁CONCACAF	-9983
▁국당	-9984
▁단과	-9985
▁무르	-9986
▁매거진	-9987
▁헛	-9988
미즈	-9989
▁제너	-9990
▁른	-9991
라기	-9992
▁구니	-9993
▁두렵	-9994
▁아쿠	-9995
▁황도	-9996
ence	-9997
▁광양	-9998
▁현직	-9999
브리아	-10000
▁대성전	-10001
ix	-10002
타이드	-10003
▁통틀어	-10004
clude	-10005
메다	-10006
▁공파	-10007
▁총기	-10008
▁기병대	-10009
해지	-10010
▁국수	-10011
▁김병	-10012
▁맞대	-10013
▁맹세	-10014
▁발각	-10015
▁마다가	-10016
마리	-10017
▁카바	-10018
바야시	-10019
▁애리조	-10020
▁오클랜드	-10021
▁초고	-10022
▁pro	-10023
▁댓	-10024
벨라	-10025
▁양육	-10026
▁미주리	-10027
▁자세히	-10028
▁짱	-10029
▁SL	-10030
▁난이	-10031
▁소울	-10032
▁저격	-10033
▁피로	-10034
▁시애틀	-10035
▁저널리	-10036
▁타이베이	-10037
▁합스부르크	-10038
할시	-10039
▁투항	-10040
플로	-10041
홀름	-10042
▁로리	-10043
▁속이	-10044
▁재질	-10045
공산	-10046
▁틀리	-10047
▁호리	-10048
▁호의	-10049
ance	-10050
▁마르크스주의	-10051
▁숀	-10052
▁관동	-10053
▁페로	-10054
▁농산물	-10055
▁맨해튼	-10056
▁요제프	-10057
EM	-10058
루냐	-10059
를테	-10060
▁복식	-10061
▁빠져	-10062
▁아빠	-10063
를테면	-10064
▁청동기	-10065
▁이를테면	-10066
▁엥	-10067
ear	-10068
▁비늘	-10069
▁극락	-10070
▁티켓	-10071
▁소피아	-10072
▁볼셰비키	-10073
▁패럴림픽	-10074
▁감금	-10075
▁반성	-10076
▁따라가	-10077
▁우즈베키스탄	-10078
▁공표	-10079
▁김옥	-10080
▁내면	-10081
▁민요	-10082
▁수교	-10083
▁의과	-10084
▁활주로	-10085
▁1885	-10086
러피	-10087
▁GN	-10088
▁Ph	-10089
▁개헌	-10090
▁밀러	-10091
▁배속	-10092
▁이븐	-10093
▁포고	-10094
▁중앙부	-10095
십자	-10096
▁리터	-10097
▁매직	-10098
▁세븐	-10099
▁실존	-10100
▁즘	-10101
돌리	-10102
▁수염	-10103
▁야구단	-10104
▁창시자	-10105
▁숨지	-10106
▁입수	-10107
▁퍼포	-10108
▁1870	-10109
티시	-10110
▁바디	-10111
▁NAS	-10112
▁매끄럽	-10113
▁스폰서	-10114
어오	-10115
▁세손	-10116
▁제동	-10117
▁주되	-10118
▁오로지	-10119
▁퍼포먼스	-10120
쩌둥	-10121
▁감수	-10122
▁생계	-10123
▁마오쩌둥	-10124
파이	-10125
▁릴리	-10126
▁청자	-10127
▁예선전	-10128
▁유권자	-10129
▁냐는	-10130
▁리바	-10131
▁머스	-10132
▁원심	-10133
▁지로	-10134
▁우체국	-10135
관리	-10136
▁un	-10137
▁경질	-10138
▁왜구	-10139
▁대장군	-10140
▁To	-10141
▁우아	-10142
▁휩쓸	-10143
▁240	-10144
▁450	-10145
▁1871	-10146
▁평안남도	-10147
▁뾰	-10148
제이	-10149
▁참사	-10150
▁테일	-10151
테리아	-10152
▁프랜시스	-10153
▁돌출	-10154
▁벤치	-10155
▁하노이	-10156
▁네이션스컵	-10157
▁중상	-10158
▁학설	-10159
▁끌려가	-10160
▁볼프	-10161
▁카터	-10162
OV	-10163
▁관행	-10164
▁내성	-10165
▁신종	-10166
▁전날	-10167
▁파인	-10168
▁활발히	-10169
irl	-10170
▁증인	-10171
텔레스	-10172
▁유료	-10173
▁마닐라	-10174
▁프레이	-10175
라고	-10176
▁중서	-10177
▁차리	-10178
▁청룡	-10179
▁편집자	-10180
▁맷	-10181
▁역도	-10182
▁중생	-10183
▁화랑	-10184
lass	-10185
면체	-10186
▁지성	-10187
▁함자	-10188
▁해저	-10189
▁로렌스	-10190
▁쿡	-10191
테쓰	-10192
▁각성	-10193
▁남용	-10194
▁뉴클	-10195
▁실험실	-10196
▁1600	-10197
▁평안북도	-10198
ild	-10199
▁AD	-10200
▁앞쪽	-10201
▁이양	-10202
▁수원시	-10203
▁당내	-10204
▁콜레	-10205
▁파나마	-10206
▁USS	-10207
▁내무부	-10208
▁알래스카	-10209
▁분과	-10210
▁수인	-10211
▁출가	-10212
▁카니	-10213
등식	-10214
틀리	-10215
▁CM	-10216
▁고쿠	-10217
▁로페	-10218
▁생선	-10219
▁흉노	-10220
▁아리스토텔레스	-10221
▁개개	-10222
▁시합	-10223
▁트릭	-10224
▁양성자	-10225
▁프라하	-10226
▁프로리그	-10227
올라	-10228
▁문고	-10229
▁위스	-10230
▁퍼스	-10231
▁빅토르	-10232
ection	-10233
맥스	-10234
ans	-10235
▁루카	-10236
▁호크	-10237
▁다람쥐	-10238
▁유치원	-10239
▁브레이크	-10240
▁상급	-10241
▁요지	-10242
▁자칭	-10243
▁지오	-10244
▁휴게	-10245
러피언	-10246
▁알렉스	-10247
▁앤더슨	-10248
▁능선	-10249
▁빨갛	-10250
▁성실	-10251
▁다나카	-10252
▁구청	-10253
▁궁궐	-10254
▁박헌영	-10255
▁러시아인	-10256
사상	-10257
▁무척	-10258
▁이룩	-10259
▁정제	-10260
▁퍼스트	-10261
▁1200	-10262
▁유러피언	-10263
▁교실	-10264
▁나선	-10265
▁리비	-10266
▁이완	-10267
▁화기	-10268
▁불태우	-10269
▁역사가	-10270
▁독도	-10271
▁부각	-10272
▁케라	-10273
▁국보	-10274
▁조광	-10275
▁친분	-10276
▁아무것	-10277
▁올림피아	-10278
▁멍	-10279
▁조례	-10280
▁왕세자	-10281
▁Sy	-10282
▁동로	-10283
▁경영자	-10284
▁잡아먹	-10285
▁케이프	-10286
▁칼럼	-10287
▁동유럽	-10288
▁반란군	-10289
▁오른손	-10290
▁오미	-10291
▁케인	-10292
▁신문사	-10293
▁마다가스카르	-10294
▁려던	-10295
▁차용	-10296
▁초빙	-10297
▁테라	-10298
▁동물원	-10299
▁only	-10300
▁구마모토	-10301
▁겁	-10302
메스	-10303
체고	-10304
▁서산	-10305
▁재외	-10306
▁지쿠	-10307
▁김정은	-10308
▁루돌프	-10309
체고비나	-10310
무소	-10311
▁섬세	-10312
▁성화	-10313
▁이방	-10314
▁EBS	-10315
▁레이싱	-10316
▁앤드루	-10317
▁몸통	-10318
▁한미	-10319
▁한하	-10320
▁미군정	-10321
▁강령	-10322
▁징병	-10323
▁평형	-10324
▁봉수	-10325
▁약혼	-10326
▁MTV	-10327
▁공민왕	-10328
▁다저스	-10329
ivers	-10330
▁뉴클레오	-10331
ish	-10332
▁경시	-10333
▁김원	-10334
▁농경	-10335
▁메카	-10336
▁칙령	-10337
▁통용	-10338
▁배려	-10339
▁재활	-10340
▁밴쿠버	-10341
OD	-10342
▁대본	-10343
▁바트	-10344
▁송도	-10345
▁신발	-10346
▁통역	-10347
▁허드	-10348
▁윤보선	-10349
GM	-10350
▁관문	-10351
▁수필	-10352
▁김규식	-10353
▁유년기	-10354
▁클레이	-10355
▁헬리콥터	-10356
▁괄	-10357
환경	-10358
▁가솔	-10359
▁에프	-10360
▁영예	-10361
▁창문	-10362
▁특전	-10363
▁동대문	-10364
▁레이크	-10365
바흐	-10366
통일	-10367
▁전래	-10368
▁절망	-10369
▁주입	-10370
▁탑신	-10371
▁하류	-10372
▁부원군	-10373
▁극한	-10374
▁로얄	-10375
▁포식	-10376
▁예정자	-10377
▁경희	-10378
▁나우	-10379
▁메뉴	-10380
▁일당	-10381
▁총애	-10382
▁정의당	-10383
▁친위대	-10384
▁Jo	-10385
▁독창	-10386
▁총통	-10387
▁커플	-10388
▁비타민	-10389
▁성남시	-10390
▁크라이	-10391
코토	-10392
▁욕망	-10393
▁예수회	-10394
▁위너스	-10395
▁해리슨	-10396
▁남산	-10397
▁마술	-10398
▁산호	-10399
▁는다면	-10400
▁리조트	-10401
▁메이커	-10402
▁NT	-10403
▁명소	-10404
▁시노	-10405
▁카테	-10406
▁케플러	-10407
▁경호	-10408
▁나인	-10409
▁수다	-10410
▁시부	-10411
▁편제	-10412
▁포착	-10413
▁호스	-10414
▁솔로몬	-10415
▁ex	-10416
▁검정	-10417
▁제노	-10418
▁대대로	-10419
▁진해	-10420
토랑	-10421
▁담보	-10422
▁보행	-10423
▁뾰족	-10424
▁아날	-10425
▁찬양	-10426
▁하반	-10427
▁사각형	-10428
▁레스토랑	-10429
어사	-10430
▁안녕	-10431
▁도교	-10432
▁마차	-10433
▁보라	-10434
▁카지	-10435
▁데려오	-10436
▁제퍼슨	-10437
▁컴퓨팅	-10438
▁유혹	-10439
▁파도	-10440
▁하키	-10441
▁고속버스	-10442
RA	-10443
▁얕	-10444
oun	-10445
▁대북	-10446
▁모의	-10447
▁시몬	-10448
▁실정	-10449
▁차갑	-10450
▁화엄	-10451
원수	-10452
▁당연	-10453
▁플라톤	-10454
매매	-10455
▁관청	-10456
▁광도	-10457
▁모호	-10458
▁사역	-10459
▁소극	-10460
▁소음	-10461
▁스가	-10462
▁아키라	-10463
천면	-10464
▁남해	-10465
▁테리	-10466
▁대합실	-10467
▁클린턴	-10468
▁해리스	-10469
▁벅	-10470
▁추이	-10471
▁브루스	-10472
EL	-10473
lat	-10474
▁가맹	-10475
▁매리	-10476
▁찬사	-10477
▁천왕	-10478
▁침묵	-10479
▁긴테쓰	-10480
fe	-10481
에스	-10482
are	-10483
▁반기	-10484
▁수양	-10485
▁보로	-10486
▁블레	-10487
▁블로	-10488
▁최진	-10489
▁황소	-10490
▁효자	-10491
▁스톡홀름	-10492
az	-10493
신문	-10494
▁씨앗	-10495
▁Fr	-10496
▁국공	-10497
▁드미	-10498
▁라서	-10499
▁불변	-10500
▁자제	-10501
ical	-10502
▁스테파	-10503
▁북아일랜드	-10504
▁허정	-10505
▁서재필	-10506
▁오리온	-10507
EG	-10508
▁다테	-10509
▁선천	-10510
▁전한	-10511
▁프론	-10512
▁방어선	-10513
▁알프스	-10514
▁요시다	-10515
▁가늘	-10516
▁김유	-10517
▁마켓	-10518
▁이점	-10519
▁바이트	-10520
▁아나톨	-10521
▁@	-10522
지능	-10523
히트	-10524
▁무실	-10525
▁박종	-10526
▁주임	-10527
▁캐롤	-10528
▁인공지능	-10529
▁sc	-10530
▁드루	-10531
▁럭비	-10532
▁리보	-10533
▁폭파	-10534
▁개구리	-10535
▁리프트	-10536
▁총사령관	-10537
include	-10538
▁도둑	-10539
▁들여	-10540
▁수복	-10541
▁시중	-10542
블랜드	-10543
러브	-10544
▁넷째	-10545
▁라자	-10546
▁만장	-10547
▁본성	-10548
▁제물	-10549
▁분류군	-10550
라니	-10551
▁ㅓ야	-10552
▁색소	-10553
▁ABC	-10554
▁결별	-10555
▁채취	-10556
▁타스	-10557
▁피라미	-10558
▁샐	-10559
▁별세	-10560
▁화약	-10561
▁보수당	-10562
▁아키타	-10563
TP	-10564
▁":	-10565
▁CH	-10566
▁스텝	-10567
▁어군	-10568
▁카피	-10569
▁클리블랜드	-10570
정원	-10571
▁모어	-10572
▁엄밀	-10573
▁뛰어들	-10574
덴부르크	-10575
창호	-10576
▁DD	-10577
▁전담	-10578
▁포토	-10579
대표	-10580
▁AV	-10581
▁고든	-10582
▁로버	-10583
▁영유	-10584
▁원통	-10585
▁정거	-10586
▁나트륨	-10587
▁마천루	-10588
▁토스카	-10589
▁프린스	-10590
▁함경남도	-10591
▁전무	-10592
▁투자자	-10593
▁구두	-10594
▁벤처	-10595
▁일리	-10596
▁천국	-10597
▁210	-10598
▁비밀리	-10599
▁슬픔	-10600
▁초신성	-10601
▁리사	-10602
▁야전	-10603
▁퇴직	-10604
▁가이드	-10605
놀이	-10606
▁로우	-10607
▁마셜	-10608
▁내야수	-10609
▁타이거스	-10610
▁콘스탄티노폴리스	-10611
▁쾰른	-10612
▁로드리	-10613
▁선구자	-10614
▁자치주	-10615
카리	-10616
▁방콕	-10617
▁소중	-10618
▁대원군	-10619
▁극우	-10620
▁동향	-10621
▁웨인	-10622
▁유선	-10623
▁제명	-10624
▁차출	-10625
▁치과	-10626
▁서대문	-10627
▁알파벳	-10628
란토	-10629
사고	-10630
▁백두	-10631
▁약사	-10632
▁정형	-10633
▁켈트	-10634
▁노론	-10635
▁리베	-10636
▁로크	-10637
▁묘비	-10638
▁실권	-10639
▁위그	-10640
▁안테나	-10641
▁따지	-10642
▁ATP	-10643
▁여유	-10644
▁펌프	-10645
▁홀리	-10646
▁경전철	-10647
▁동시대	-10648
▁유아기	-10649
부르	-10650
▁김형	-10651
▁왕권	-10652
▁장시	-10653
▁천거	-10654
▁파손	-10655
▁유격수	-10656
▁가브리엘	-10657
메드	-10658
▁종식	-10659
▁중합	-10660
공산당	-10661
▁주차장	-10662
▁피아니스트	-10663
▁멧	-10664
▁삼림	-10665
▁아이폰	-10666
▁앞장서	-10667
▁타이어	-10668
▁튀르크	-10669
FL	-10670
대사	-10671
▁구실	-10672
▁미수	-10673
▁플리	-10674
▁적외선	-10675
▁봇	-10676
▁엣	-10677
▁강렬	-10678
▁밸리	-10679
▁형질	-10680
클레	-10681
▁목회	-10682
▁야드	-10683
▁왕건	-10684
▁이의	-10685
▁톈진	-10686
▁헬싱	-10687
▁드디어	-10688
▁용인시	-10689
▁정부군	-10690
수스	-10691
▁감상	-10692
▁책임지	-10693
암동	-10694
휴일	-10695
ica	-10696
▁감성	-10697
▁감찰	-10698
▁마에	-10699
▁상행	-10700
▁스칸	-10701
▁임정	-10702
▁가락	-10703
▁사방	-10704
▁유목	-10705
▁연극배우	-10706
소통	-10707
▁간첩	-10708
▁그저	-10709
▁불참	-10710
▁사설	-10711
▁친족	-10712
▁캐리	-10713
▁잇따르	-10714
▁딥	-10715
충류	-10716
대교	-10717
말리	-10718
▁매트	-10719
▁뭉치	-10720
해살이	-10721
▁사로잡	-10722
▁콘테스트	-10723
▁헤르체고비나	-10724
▁구내	-10725
▁방치	-10726
▁삽화	-10727
▁애정	-10728
▁마누엘	-10729
▁소말리아	-10730
ey	-10731
캐슬	-10732
티넘	-10733
▁리본	-10734
▁악보	-10735
▁준수	-10736
▁칸국	-10737
▁플래티넘	-10738
▁he	-10739
▁공존	-10740
▁실록	-10741
▁절정	-10742
와라노	-10743
▁연산군	-10744
▁프레데	-10745
▁의사소통	-10746
▁후지와라노	-10747
군다	-10748
▁고딕	-10749
▁산성	-10750
▁송신	-10751
▁여권	-10752
▁연말	-10753
▁예약	-10754
▁운임	-10755
▁스트로	-10756
▁1889	-10757
▁브루클린	-10758
60	-10759
▁비엔	-10760
▁사탕	-10761
▁삼존	-10762
▁어는	-10763
▁불량	-10764
▁새우	-10765
▁슬하	-10766
▁외형	-10767
▁전전	-10768
▁지자	-10769
▁직통	-10770
테이너	-10771
tern	-10772
▁간신히	-10773
합성	-10774
▁마땅	-10775
▁시네마	-10776
▁열심히	-10777
▁나카무라	-10778
▁스카우트	-10779
▁구르	-10780
▁니혼	-10781
▁모하	-10782
▁서임	-10783
▁여서	-10784
▁치환	-10785
▁가솔린	-10786
▁화강암	-10787
▁늙	-10788
▁건전	-10789
▁라리	-10790
▁로트	-10791
▁모금	-10792
▁본작	-10793
▁의류	-10794
▁집정	-10795
▁치루	-10796
▁쿠퍼	-10797
▁기관지	-10798
▁두려움	-10799
▁목요일	-10800
▁발라드	-10801
▁가나가와현	-10802
▁대영	-10803
▁징수	-10804
▁무형	-10805
▁아끼	-10806
▁하시	-10807
▁해독	-10808
▁AKB	-10809
▁말미암	-10810
▁메디치	-10811
▁브레이	-10812
▁엔트리	-10813
▁오바마	-10814
▁접어들	-10815
▁챙	-10816
▁김준	-10817
▁봉화	-10818
▁중퇴	-10819
▁피지	-10820
▁For	-10821
▁패트릭	-10822
sh	-10823
망디	-10824
바나	-10825
▁반포	-10826
▁베트	-10827
▁사서	-10828
▁삼중	-10829
▁시크	-10830
▁이송	-10831
▁OST	-10832
▁라이더	-10833
난성	-10834
▁백과	-10835
▁영정	-10836
▁도망가	-10837
▁So	-10838
▁다윈	-10839
▁메소	-10840
▁요충	-10841
▁뉴캐슬	-10842
AF	-10843
위안	-10844
▁모색	-10845
▁유희	-10846
▁토트	-10847
▁Com	-10848
부로	-10849
천동	-10850
▁pr	-10851
▁격리	-10852
▁능하	-10853
▁비야	-10854
▁로마인	-10855
▁금호	-10856
▁리옹	-10857
▁작물	-10858
▁트렌	-10859
▁한중	-10860
▁해태	-10861
▁피라미드	-10862
bo	-10863
가미	-10864
▁볼트	-10865
▁은거	-10866
▁인가	-10867
▁하야	-10868
▁생존자	-10869
IL	-10870
▁갈아	-10871
▁송출	-10872
▁호대	-10873
▁츄	-10874
유예	-10875
▁우림	-10876
▁종자	-10877
▁항만	-10878
▁깜	-10879
▁Ma	-10880
▁도피	-10881
▁유의	-10882
▁정작	-10883
▁기숙사	-10884
▁낙동강	-10885
▁스타트	-10886
애미	-10887
▁공소	-10888
▁비준	-10889
▁똑같이	-10890
▁Part	-10891
▁마이애미	-10892
▁훙	-10893
▁Mo	-10894
▁도래	-10895
▁요격	-10896
▁투여	-10897
▁후배	-10898
도르프	-10899
▁장학금	-10900
▁지상파	-10901
▁떨어뜨리	-10902
▁프란체스코	-10903
프로	-10904
▁수락	-10905
▁클러	-10906
추부사	-10907
▁카카오	-10908
교통	-10909
▁권하	-10910
▁앙골	-10911
▁음운	-10912
▁공휴일	-10913
▁토리노	-10914
▁Live	-10915
▁미야자키	-10916
풀이	-10917
▁가두	-10918
▁김명	-10919
▁열강	-10920
▁주계	-10921
▁중수	-10922
▁일본국	-10923
▁자유민주당	-10924
▁EU	-10925
▁거미	-10926
▁정종	-10927
▁Sou	-10928
▁부딪히	-10929
에미리트	-10930
▁아랍에미리트	-10931
▁양심	-10932
▁잠정	-10933
▁당기	-10934
▁병자	-10935
▁의령	-10936
▁정읍	-10937
▁페트	-10938
▁1848	-10939
드레	-10940
▁공성	-10941
▁벨리	-10942
▁서태	-10943
▁워즈	-10944
▁한신	-10945
바이트	-10946
▁어시스트	-10947
말로	-10948
▁거란	-10949
▁원군	-10950
▁천주	-10951
▁여배우	-10952
▁튀니지	-10953
▁JTBC	-10954
▁프랑스인	-10955
▁튼	-10956
▁기이	-10957
▁받치	-10958
▁연정	-10959
▁광복군	-10960
▁프랑스령	-10961
▁급여	-10962
▁모욕	-10963
▁바지	-10964
▁성곽	-10965
▁하구	-10966
EE	-10967
지기	-10968
▁평판	-10969
클리드	-10970
▁미야기	-10971
▁센티미터	-10972
▁격추	-10973
▁순종	-10974
▁암스	-10975
▁포털	-10976
▁Col	-10977
▁유니버설	-10978
uc	-10979
화문	-10980
▁귀신	-10981
▁김광	-10982
▁인칭	-10983
▁자서	-10984
마르크	-10985
▁에스페	-10986
▁티아	-10987
▁대리인	-10988
▁에이즈	-10989
▁보수주의	-10990
▁카탈루냐	-10991
에몽	-10992
▁금산	-10993
▁워커	-10994
▁레이더	-10995
▁마이어	-10996
의사	-10997
▁교의	-10998
▁굴절	-10999
▁무과	-11000
▁습윤	-11001
▁응급	-11002
▁익숙	-11003
▁탄약	-11004
▁대법관	-11005
▁대승불교	-11006
▁"&	-11007
▁랴오	-11008
▁만화가	-11009
▁무네	-11010
▁조인	-11011
▁국제법	-11012
▁마법사	-11013
▁줄기세포	-11014
▁캅	-11015
▁매킨	-11016
▁해피	-11017
▁카스티야	-11018
간다	-11019
관계	-11020
▁문집	-11021
하이오	-11022
▁API	-11023
▁검은색	-11024
▁여의도	-11025
▁레드삭스	-11026
▁오하이오	-11027
▁쌍대	-11028
▁진로	-11029
▁코리	-11030
▁모건	-11031
▁유식	-11032
▁교통부	-11033
▁사운드트랙	-11034
ann	-11035
▁류큐	-11036
▁배분	-11037
▁사쓰	-11038
▁평평	-11039
▁정거장	-11040
▁패러디	-11041
거스	-11042
▁볼로	-11043
▁자명	-11044
▁우루스	-11045
▁지배자	-11046
▁니키	-11047
▁음절	-11048
페스트	-11049
▁Time	-11050
▁부합	-11051
레스트	-11052
▁시코쿠	-11053
메니	-11054
▁EM	-11055
▁여사	-11056
▁재팬	-11057
▁추력	-11058
▁혼다	-11059
파니아	-11060
▁int	-11061
나마	-11062
지부	-11063
lay	-11064
▁BC	-11065
▁권역	-11066
▁수로	-11067
▁한림	-11068
▁아이즈	-11069
row	-11070
▁공대	-11071
▁공영	-11072
▁국한	-11073
▁총격	-11074
▁바그너	-11075
▁그라운드	-11076
▁기전	-11077
▁김인	-11078
▁댄서	-11079
▁리카	-11080
▁안개	-11081
▁여고	-11082
▁재일	-11083
olog	-11084
▁SNS	-11085
브로	-11086
ous	-11087
▁동진	-11088
▁비정	-11089
▁점포	-11090
▁추억	-11091
▁대단히	-11092
▁레이트	-11093
▁부총리	-11094
▁정치학	-11095
▁하노버	-11096
▁아날로그	-11097
▁비토	-11098
▁베어	-11099
▁비대	-11100
▁사민	-11101
▁산둥	-11102
▁업자	-11103
▁명확히	-11104
OP	-11105
▁검거	-11106
▁국외	-11107
▁라르	-11108
▁로키	-11109
▁사수	-11110
▁설문	-11111
▁치카	-11112
▁대니얼	-11113
▁프란치	-11114
자루	-11115
orn	-11116
ows	-11117
▁고생	-11118
▁메일	-11119
▁실증	-11120
▁오만	-11121
▁방사능	-11122
▁가혹	-11123
▁도박	-11124
▁동산	-11125
▁지법	-11126
찌르	-11127
현동	-11128
▁근사	-11129
▁종군	-11130
▁시멘트	-11131
서스	-11132
▁GB	-11133
▁고로	-11134
▁골격	-11135
▁부다	-11136
▁절벽	-11137
▁제위	-11138
▁특화	-11139
▁하행	-11140
▁커리어	-11141
용차	-11142
▁그랜트	-11143
▁초콜	-11144
▁우한	-11145
▁헬레	-11146
프랑크	-11147
▁고인돌	-11148
▁카메룬	-11149
▁남군	-11150
▁단결	-11151
▁대마	-11152
▁몰아	-11153
▁방대	-11154
▁선명	-11155
▁용액	-11156
▁클라우	-11157
▁문단	-11158
▁셀레	-11159
▁관현악단	-11160
▁경복	-11161
▁연립	-11162
▁오디	-11163
▁케르	-11164
▁법원장	-11165
▁페트로	-11166
▁곶	-11167
▁국교	-11168
▁글꼴	-11169
▁Bla	-11170
▁노르망디	-11171
시노	-11172
정동	-11173
▁남방	-11174
▁마테	-11175
▁부평	-11176
▁최선	-11177
▁편견	-11178
드리아	-11179
▁Your	-11180
▁관상	-11181
▁모세	-11182
▁무안	-11183
▁범행	-11184
▁신곡	-11185
▁종양	-11186
▁타락	-11187
▁라인업	-11188
▁제우스	-11189
▁헤어지	-11190
버른	-11191
제품	-11192
▁보령	-11193
▁소외	-11194
▁항체	-11195
span	-11196
▁131	-11197
▁무찌르	-11198
▁체인지	-11199
으로	-11200
▁가쿠	-11201
▁메스	-11202
▁황색	-11203
▁대나무	-11204
▁저지대	-11205
▁파일럿	-11206
▁onlyinclude	-11207
▁GM	-11208
▁가중	-11209
▁꺼내	-11210
▁단군	-11211
▁하코	-11212
▁형벌	-11213
▁NASA	-11214
▁촛	-11215
▁가고	-11216
▁간략	-11217
▁모빌	-11218
▁선봉	-11219
▁콘솔	-11220
▁후진	-11221
메이카	-11222
▁정보원	-11223
▁자메이카	-11224
▁쾨	-11225
칼리	-11226
▁수식	-11227
▁은혜	-11228
▁Sch	-11229
▁교부	-11230
▁봉인	-11231
▁사림	-11232
▁중소기업	-11233
▁1883	-11234
▁라디	-11235
▁라바	-11236
▁모범	-11237
▁숙부	-11238
▁절감	-11239
▁ㄴ다면	-11240
▁영화상	-11241
히사	-11242
▁at	-11243
▁무작	-11244
▁보루	-11245
▁재편	-11246
▁녕	-11247
지아	-11248
▁객차	-11249
▁김윤	-11250
▁속력	-11251
▁중엽	-11252
▁원산지	-11253
센스	-11254
토프	-11255
▁범하	-11256
▁사학	-11257
▁산요	-11258
▁유우	-11259
▁정반	-11260
▁공화정	-11261
▁제이슨	-11262
▁u	-11263
▁쪼	-11264
▁기세	-11265
▁노면	-11266
▁전보	-11267
른스트	-11268
▁라파엘	-11269
▁연구회	-11270
▁줄리아	-11271
amp	-11272
▁리즈	-11273
▁야외	-11274
▁연희	-11275
▁판소리	-11276
▁가토	-11277
▁다툼	-11278
▁도키	-11279
▁리마	-11280
▁서귀	-11281
▁피리	-11282
▁전반기	-11283
▁욱	-11284
▁공무	-11285
▁녹화	-11286
▁램프	-11287
▁발상	-11288
▁큐브	-11289
▁국정원	-11290
▁에이전	-11291
▁기량	-11292
▁코소	-11293
워스	-11294
▁SA	-11295
▁다듬	-11296
▁라기	-11297
▁식스	-11298
▁엔드	-11299
▁유공	-11300
▁적료	-11301
▁평지	-11302
▁플러	-11303
▁할인	-11304
네그로	-11305
▁해상도	-11306
▁본뜨	-11307
▁하남	-11308
▁ref	-11309
▁고분군	-11310
▁교향악단	-11311
▁유클리드	-11312
80	-11313
▁열전	-11314
▁항우	-11315
▁날아가	-11316
▁부상자	-11317
▁스칼라	-11318
CC	-11319
▁기와	-11320
▁안방	-11321
▁위조	-11322
빌라이	-11323
▁비서관	-11324
ood	-11325
▁Ge	-11326
▁무섭	-11327
▁분단	-11328
▁조교	-11329
티모어	-11330
▁북유럽	-11331
▁텍사스주	-11332
ink	-11333
▁고의	-11334
▁병마	-11335
▁안나	-11336
▁카마	-11337
ern	-11338
▁스루	-11339
▁씨족	-11340
▁외래	-11341
▁이터	-11342
▁자수	-11343
▁탄자	-11344
스트리	-11345
▁뫼	-11346
▁Or	-11347
▁사영	-11348
▁온난	-11349
▁이회	-11350
▁지석	-11351
▁멜버른	-11352
▁선진국	-11353
▁연장전	-11354
▁가우	-11355
▁상어	-11356
▁송파	-11357
▁수위	-11358
▁다이어	-11359
▁스캔들	-11360
▁Wind	-11361
돌이	-11362
지로	-11363
프턴	-11364
▁RS	-11365
▁간사	-11366
▁도네	-11367
▁세습	-11368
▁콜럼	-11369
▁노벨상	-11370
▁위구르	-11371
▁프로모	-11372
▁1882	-11373
RT	-11374
치히	-11375
▁계주	-11376
▁지극	-11377
▁헤이안	-11378
에고	-11379
▁위로	-11380
▁통신사	-11381
▁OB	-11382
▁대인	-11383
▁어기	-11384
▁우산	-11385
▁피치	-11386
▁다이노스	-11387
II	-11388
▁콥	-11389
화학	-11390
▁RP	-11391
▁관례	-11392
▁단속	-11393
▁멋지	-11394
▁아유	-11395
▁요양	-11396
▁카네	-11397
ost	-11398
▁tv	-11399
▁결사	-11400
▁족보	-11401
▁함량	-11402
▁토마토	-11403
▁프로그래머	-11404
US	-11405
▁관악	-11406
▁몰타	-11407
▁왕궁	-11408
▁요절	-11409
▁파벌	-11410
▁너무나	-11411
▁내일	-11412
▁대좌	-11413
▁동적	-11414
▁부교	-11415
▁천수	-11416
▁표정	-11417
▁거성	-11418
▁시안	-11419
▁군사력	-11420
▁아이언	-11421
▁카스트	-11422
40	-11423
▁루키	-11424
▁성원	-11425
▁월터	-11426
▁유생	-11427
▁재래	-11428
▁회귀	-11429
▁330	-11430
▁해안선	-11431
▁강행	-11432
▁북군	-11433
▁사안	-11434
▁유서	-11435
▁주선	-11436
▁야마가타	-11437
▁받들	-11438
▁배달	-11439
▁정정	-11440
▁최영	-11441
▁후예	-11442
▁Day	-11443
▁미토콘	-11444
▁산티아	-11445
▁관계없이	-11446
▁미토콘드리아	-11447
데라	-11448
팡이	-11449
협회	-11450
▁세련	-11451
▁장덕	-11452
갈리	-11453
▁고흥	-11454
▁급증	-11455
▁동포	-11456
▁법관	-11457
▁선대	-11458
▁정은	-11459
▁올리브	-11460
▁중공군	-11461
▁히브리	-11462
▁Girl	-11463
▁La	-11464
▁내력	-11465
▁정월	-11466
▁항원	-11467
▁기념일	-11468
▁영원히	-11469
▁파시즘	-11470
▁필립스	-11471
▁쿠빌라이	-11472
융합	-11473
▁부왕	-11474
▁붙잡	-11475
▁성동	-11476
▁출자	-11477
▁협업	-11478
▁시즈오카	-11479
도라	-11480
▁고노	-11481
▁다우	-11482
▁랭크	-11483
▁으리	-11484
스탄불	-11485
▁대상자	-11486
▁대표자	-11487
▁폐기물	-11488
▁미스터리	-11489
▁이스탄불	-11490
▁덮개	-11491
▁리믹스	-11492
▁부파	-11493
▁직속	-11494
▁항로	-11495
▁독수리	-11496
▁사이타마	-11497
▁서면	-11498
▁어파	-11499
▁우시	-11500
▁우월	-11501
▁종영	-11502
▁데니스	-11503
▁부르주	-11504
▁사업소	-11505
▁슈퍼컵	-11506
▁핵융합	-11507
▁효고현	-11508
포시	-11509
호란	-11510
▁부치	-11511
▁상록	-11512
▁수열	-11513
▁식용	-11514
▁사로잡히	-11515
▁몹	-11516
▁단말	-11517
▁빙하	-11518
▁잠깐	-11519
▁조셉	-11520
▁LED	-11521
▁단체전	-11522
▁해운대	-11523
▁FK	-11524
▁남하	-11525
▁아목	-11526
▁조슈	-11527
▁형편	-11528
▁레오폴	-11529
▁프랜차	-11530
▁호스트	-11531
▁컨트롤러	-11532
▁렛	-11533
게스	-11534
서니	-11535
▁발동	-11536
▁베풀	-11537
▁얽히	-11538
▁주창	-11539
▁무실점	-11540
▁냥	-11541
여객	-11542
▁뇨	-11543
▁러일	-11544
▁소프	-11545
▁타수	-11546
오르크	-11547
▁4000	-11548
▁사회민주당	-11549
OT	-11550
▁군벌	-11551
▁노사	-11552
▁보름	-11553
▁스콜	-11554
▁제천	-11555
▁테네시	-11556
oll	-11557
▁강당	-11558
▁넬슨	-11559
▁대진	-11560
▁산시	-11561
▁증폭	-11562
▁켄트	-11563
▁피드	-11564
▁서사시	-11565
▁번창	-11566
▁양보	-11567
▁1868	-11568
▁컨테이너	-11569
지리	-11570
해자	-11571
▁사치	-11572
▁신입	-11573
▁태후	-11574
▁오스틴	-11575
▁오일러	-11576
▁아케이드	-11577
▁관목	-11578
▁규탄	-11579
▁버터	-11580
▁사천	-11581
▁안티오	-11582
▁프랜차이즈	-11583
▁괌	-11584
▁염려	-11585
▁위력	-11586
▁여성주의	-11587
▁교직	-11588
▁내분	-11589
▁밝혀	-11590
▁고트	-11591
▁금전	-11592
▁딜런	-11593
▁라미	-11594
▁분사	-11595
▁양수	-11596
▁제단	-11597
▁법조인	-11598
▁앙골라	-11599
▁제갈량	-11600
▁휴게소	-11601
본부	-11602
▁전수	-11603
▁증오	-11604
▁메릴랜드	-11605
▁과테	-11606
▁라카	-11607
▁성악	-11608
▁베이커	-11609
▁과테말라	-11610
▁겨루	-11611
▁능동	-11612
▁시비	-11613
▁급속히	-11614
▁데려가	-11615
▁배역	-11616
▁오아	-11617
▁전세	-11618
▁점거	-11619
▁퍼즐	-11620
▁하의	-11621
▁각료	-11622
▁농지	-11623
▁밀레	-11624
▁호아	-11625
▁320	-11626
▁경주시	-11627
▁파푸아	-11628
▁샨	-11629
히드	-11630
▁국철	-11631
▁습관	-11632
▁영덕	-11633
▁일각	-11634
▁절제	-11635
▁접종	-11636
▁청계	-11637
▁로마자	-11638
▁가고시마	-11639
▁공안	-11640
▁밝혀내	-11641
▁야마모토	-11642
▁찢	-11643
▁너머	-11644
▁대도	-11645
웨이트	-11646
펜하겐	-11647
▁new	-11648
▁발전기	-11649
▁레인저스	-11650
▁코펜하겐	-11651
▁몬테네그로	-11652
▁암스테르담	-11653
▁놈	-11654
▁안무	-11655
▁저조	-11656
▁지난	-11657
▁척도	-11658
▁초안	-11659
▁축전	-11660
▁카세	-11661
▁우의정	-11662
▁베르나르	-11663
바오	-11664
▁박성	-11665
▁외과	-11666
▁정령	-11667
▁대명사	-11668
당기	-11669
▁노후	-11670
▁데드	-11671
▁생리	-11672
▁컨설	-11673
▁타리	-11674
▁트이	-11675
▁사이먼	-11676
걸이	-11677
게임	-11678
▁고온	-11679
▁넥센	-11680
▁우연	-11681
▁이항	-11682
▁헌장	-11683
▁복음주의	-11684
▁TR	-11685
▁바울	-11686
▁우왕	-11687
▁이메	-11688
▁잔인	-11689
▁장병	-11690
▁치하	-11691
▁요충지	-11692
▁지붕돌	-11693
▁산티아고	-11694
▁프란시스코	-11695
웍스	-11696
▁거처	-11697
▁수량	-11698
▁정몽	-11699
▁종신	-11700
▁출동	-11701
▁치유	-11702
▁편향	-11703
▁에스페란토	-11704
▁후쿠오카현	-11705
▁망치	-11706
▁복종	-11707
▁이바지	-11708
▁코스타리카	-11709
▁늪	-11710
독립	-11711
▁DF	-11712
▁배드	-11713
▁양대	-11714
19	-11715
나드	-11716
▁게끔	-11717
▁성산	-11718
▁소아	-11719
▁주심	-11720
LA	-11721
les	-11722
▁브릿	-11723
▁자진	-11724
▁자서전	-11725
▁화장품	-11726
▁마이크로	-11727
▁도상	-11728
▁상국	-11729
▁서스	-11730
▁서주	-11731
▁영월	-11732
▁루이지애나	-11733
▁김선	-11734
▁사비	-11735
▁조영	-11736
▁차선	-11737
▁충렬	-11738
▁피핀	-11739
▁그만큼	-11740
▁서바이	-11741
▁신주쿠	-11742
▁좌의정	-11743
디나비아	-11744
▁스칸디나비아	-11745
gr	-11746
▁위촉	-11747
▁이아	-11748
▁위안부	-11749
▁주계열	-11750
▁네티	-11751
▁샤프	-11752
▁슈테	-11753
▁톰슨	-11754
▁페더	-11755
▁end	-11756
▁수요일	-11757
▁요하네스	-11758
▁쿠웨이트	-11759
ung	-11760
▁천마	-11761
▁헌터	-11762
아다니	-11763
▁결과물	-11764
▁포르노	-11765
퍼레이션	-11766
▁이탈리아어	-11767
▁슌	-11768
▁끊기	-11769
▁노랗	-11770
▁은신	-11771
▁철강	-11772
▁동맹국	-11773
꼬리	-11774
▁소대	-11775
▁순차	-11776
▁자재	-11777
▁청도	-11778
▁추서	-11779
▁거지	-11780
▁대차	-11781
▁리코	-11782
▁축산	-11783
▁"()	-11784
▁텔레콤	-11785
▁가면라이더	-11786
익스	-11787
▁NP	-11788
▁정재	-11789
▁타일	-11790
토리코	-11791
▁도자기	-11792
▁에른스트	-11793
▁le	-11794
▁모차	-11795
▁영암	-11796
▁직행	-11797
▁김옥균	-11798
▁서해안	-11799
▁맬	-11800
▁결핵	-11801
▁온대	-11802
▁타로	-11803
▁피크	-11804
▁해왕	-11805
라이드	-11806
▁김승	-11807
▁대청	-11808
▁전락	-11809
▁카툰	-11810
▁하타	-11811
▁브뤼셀	-11812
▁시트콤	-11813
▁철저히	-11814
▁갯	-11815
▁촐	-11816
▁고집	-11817
▁대덕	-11818
▁주성	-11819
▁부르고	-11820
▁Comp	-11821
▁육군사관학교	-11822
OW	-11823
▁톡	-11824
공주	-11825
레드	-11826
우에	-11827
▁노아	-11828
▁배양	-11829
▁압록	-11830
▁충무	-11831
▁함흥	-11832
▁후유	-11833
▁교육자	-11834
▁게오르크	-11835
▁니콜라스	-11836
려들	-11837
▁기쁨	-11838
▁긴밀	-11839
▁대종	-11840
▁리튬	-11841
▁문종	-11842
▁전학	-11843
▁준장	-11844
▁칭송	-11845
▁탈취	-11846
▁203	-11847
▁데이브	-11848
▁유적지	-11849
▁컬렉션	-11850
▁트리오	-11851
▁colspan	-11852
니파	-11853
어넣	-11854
▁여도	-11855
▁차츰	-11856
▁첼로	-11857
▁측량	-11858
▁초콜릿	-11859
단지	-11860
▁by	-11861
▁레프	-11862
▁문무	-11863
▁바비	-11864
▁오하	-11865
▁코네	-11866
로이드	-11867
▁데일리	-11868
▁케이크	-11869
▁푸에르토리코	-11870
비크	-11871
▁격려	-11872
▁낚시	-11873
▁박상	-11874
▁원활	-11875
▁재발	-11876
▁짐승	-11877
▁글래스	-11878
▁로스쿨	-11879
▁도카이도	-11880
▁스킴	-11881
▁아흐	-11882
▁앤디	-11883
▁이우	-11884
▁집착	-11885
▁기업가	-11886
▁1893	-11887
셀러	-11888
업자	-11889
gin	-11890
▁Fe	-11891
▁공양	-11892
▁미성	-11893
▁페오	-11894
▁폐렴	-11895
▁한큐	-11896
▁280	-11897
▁가라앉	-11898
▁장로교	-11899
▁지리학	-11900
상시	-11901
eth	-11902
▁내무	-11903
▁온화	-11904
▁헤로	-11905
▁흡사	-11906
▁흥분	-11907
▁백악	-11908
▁조니	-11909
▁하급	-11910
▁막판	-11911
▁선인	-11912
▁심포	-11913
▁학장	-11914
▁아라곤	-11915
▁윗부분	-11916
▁펠릭스	-11917
▁플랑크	-11918
▁해안가	-11919
▁플로리다주	-11920
▁갚	-11921
▁관성	-11922
▁김치	-11923
▁단정	-11924
▁아쉽	-11925
▁조제	-11926
▁생리학	-11927
▁지바현	-11928
세유	-11929
▁영천	-11930
▁월트	-11931
▁천천	-11932
▁IOC	-11933
▁어웨이	-11934
IR	-11935
▁과시	-11936
▁끓이	-11937
▁도출	-11938
▁반동	-11939
▁스포르	-11940
▁유학자	-11941
▁천안시	-11942
▁가르시아	-11943
티에	-11944
▁AB	-11945
▁금동	-11946
▁아와	-11947
▁우두	-11948
▁유족	-11949
▁도야마	-11950
몬트	-11951
바리	-11952
▁도이	-11953
▁앨리	-11954
▁주세	-11955
▁침례	-11956
▁TBS	-11957
▁노미야	-11958
▁민병대	-11959
▁비스타	-11960
▁아우르	-11961
▁함경북도	-11962
▁핼	-11963
▁관우	-11964
▁굳히	-11965
▁입헌	-11966
▁칼슘	-11967
루이스	-11968
▁논리학	-11969
▁프리스	-11970
▁Univers	-11971
북구	-11972
▁에로	-11973
▁점검	-11974
▁천천히	-11975
▁Rock	-11976
▁핏	-11977
▁까마	-11978
▁림프	-11979
▁마트	-11980
▁심부	-11981
▁제철	-11982
▁조롱	-11983
▁특기	-11984
▁탄자니아	-11985
계승	-11986
▁격하	-11987
▁발목	-11988
▁심상	-11989
▁애인	-11990
▁유영	-11991
▁한문	-11992
▁Rec	-11993
▁국제선	-11994
▁로베르	-11995
▁부르고뉴	-11996
들러	-11997
▁간직	-11998
▁과잉	-11999
▁버러	-12000
▁소동	-12001
▁아츠	-12002
▁유포	-12003
▁이황	-12004
▁서초구	-12005
▁픽처스	-12006
▁위즈	-12007
▁전미	-12008
▁Sup	-12009
▁게오르	-12010
▁발사체	-12011
▁사상가	-12012
익스피어	-12013
▁덥	-12014
▁가부	-12015
▁귀속	-12016
▁배리	-12017
▁공방전	-12018
▁동맹군	-12019
▁셰익스피어	-12020
oth	-12021
▁상정	-12022
▁소사	-12023
▁카레	-12024
▁우울증	-12025
▁하이퍼	-12026
▁대주	-12027
▁마타	-12028
▁버섯	-12029
▁심문	-12030
▁용품	-12031
▁중고	-12032
▁녹색당	-12033
▁조선왕	-12034
▁미나모토	-12035
▁참모총장	-12036
▁Su	-12037
▁구금	-12038
▁구치	-12039
▁라드	-12040
▁라흐	-12041
▁사귀	-12042
▁세레	-12043
▁톱니	-12044
▁휴양	-12045
▁고려사	-12046
▁더블린	-12047
▁인플레이션	-12048
▁펫	-12049
▁공법	-12050
▁구독	-12051
▁미츠	-12052
▁위계	-12053
▁재차	-12054
▁특사	-12055
▁순양함	-12056
▁가와사키	-12057
국적	-12058
▁명인	-12059
▁으시	-12060
▁쇠고기	-12061
▁인공위성	-12062
나기	-12063
▁IV	-12064
▁견고	-12065
▁김천	-12066
▁무단	-12067
▁배기	-12068
▁한번	-12069
▁서포터	-12070
▁수나라	-12071
▁으려는	-12072
▁카운트	-12073
▁중앙은행	-12074
태평	-12075
▁강성	-12076
▁비지	-12077
▁웃음	-12078
▁청량	-12079
▁황산	-12080
민스터	-12081
▁도르트	-12082
▁당뇨	-12083
▁명부	-12084
▁물결	-12085
▁불경	-12086
▁아메	-12087
▁악곡	-12088
▁에바	-12089
▁자립	-12090
▁장녀	-12091
▁파편	-12092
▁강화도	-12093
▁절도사	-12094
그마	-12095
▁고스	-12096
▁라가	-12097
▁메틸	-12098
▁스투	-12099
▁경계선	-12100
▁성매매	-12101
▁데스크톱	-12102
폭탄	-12103
mer	-12104
▁시속	-12105
▁에마	-12106
▁이바라	-12107
▁평안도	-12108
▁미아	-12109
▁살라	-12110
▁슈타	-12111
▁슬램	-12112
▁조현	-12113
▁직계	-12114
▁풍습	-12115
▁현판	-12116
로니아	-12117
▁스탠드	-12118
▁차세대	-12119
▁휘말리	-12120
▁박테리아	-12121
▁노랑	-12122
▁대접	-12123
▁성기	-12124
▁소용	-12125
▁연회	-12126
▁제창	-12127
▁230	-12128
▁GNU	-12129
▁율리우스	-12130
▁CG	-12131
▁나뭇	-12132
▁노프	-12133
▁원유	-12134
▁주먹	-12135
▁USB	-12136
▁밀려나	-12137
▁산스크	-12138
▁러시아군	-12139
▁상관없이	-12140
▁산스크리트	-12141
▁Do	-12142
▁축성	-12143
▁코호	-12144
▁피사	-12145
▁다이빙	-12146
▁1892	-12147
▁펩	-12148
비안	-12149
유사	-12150
▁코사	-12151
▁베르타	-12152
▁마르세유	-12153
▁프레임워크	-12154
연수	-12155
자동	-12156
트르	-12157
▁공시	-12158
▁데미	-12159
▁사변	-12160
▁옥타	-12161
▁이범	-12162
▁장래	-12163
▁향기	-12164
▁Car	-12165
▁스탠리	-12166
▁1888	-12167
▁뮐	-12168
네임	-12169
헤드	-12170
▁면모	-12171
▁발자	-12172
▁이은	-12173
▁형용	-12174
▁끼우	-12175
▁산수	-12176
▁유무	-12177
▁자코	-12178
▁재앙	-12179
▁다면서	-12180
▁아브라	-12181
▁과연	-12182
▁꾸리	-12183
▁리차	-12184
▁불사	-12185
▁시우	-12186
▁울릉	-12187
▁금나라	-12188
▁로이드	-12189
▁물려주	-12190
ublic	-12191
▁계량	-12192
▁닉슨	-12193
▁불계승	-12194
▁서기관	-12195
▁세비야	-12196
▁수차례	-12197
▁케이트	-12198
▁from	-12199
ah	-12200
▁푹	-12201
▁Sw	-12202
▁강진	-12203
▁계보	-12204
▁네모	-12205
▁라즈	-12206
▁애초	-12207
▁에반	-12208
▁하임	-12209
미디어	-12210
▁관현악	-12211
▁세네갈	-12212
▁허드슨	-12213
▁미식	-12214
▁사키	-12215
▁어의	-12216
▁펠트	-12217
▁후하	-12218
▁문자열	-12219
▁쫓아내	-12220
▁펠리페	-12221
▁대중교통	-12222
▁볼티모어	-12223
▁깁	-12224
▁덱	-12225
쓰기	-12226
연의	-12227
▁ar	-12228
▁동종	-12229
▁반주	-12230
▁아다	-12231
▁카야	-12232
▁퇴위	-12233
▁필하	-12234
▁로빈슨	-12235
▁자라나	-12236
둘기	-12237
▁거룩	-12238
▁매달	-12239
▁모던	-12240
▁수력	-12241
▁순례	-12242
▁정진	-12243
▁사커	-12244
▁이봉	-12245
▁소학교	-12246
▁유전학	-12247
▁좌표계	-12248
보리	-12249
▁농축	-12250
▁변종	-12251
▁포츠	-12252
▁대공국	-12253
▁활동가	-12254
티노	-12255
ron	-12256
▁머니	-12257
▁복싱	-12258
▁청송	-12259
▁애덤스	-12260
▁조승우	-12261
AE	-12262
다보	-12263
철수	-12264
코르	-12265
홍색	-12266
▁나름	-12267
▁대금	-12268
▁붕어	-12269
▁아지	-12270
▁페스	-12271
▁해결책	-12272
▁1876	-12273
▁겟	-12274
사태	-12275
▁납부	-12276
▁맥아	-12277
▁시문	-12278
▁아디	-12279
▁이산	-12280
▁펀드	-12281
▁게시판	-12282
▁고려대	-12283
▁볼로냐	-12284
▁참의원	-12285
▁후원자	-12286
DA	-12287
▁뱃	-12288
클라	-12289
▁군데	-12290
▁단조	-12291
▁서예	-12292
▁약점	-12293
▁재결	-12294
▁우에스기	-12295
▁프린스턴	-12296
▁알렉산드로스	-12297
▁굶	-12298
▁당황	-12299
▁선양	-12300
▁토이	-12301
▁다카라	-12302
▁대전차	-12303
▁레이디	-12304
▁보좌관	-12305
▁아무리	-12306
▁펭	-12307
네트	-12308
라호	-12309
▁co	-12310
▁박수	-12311
▁부류	-12312
▁해병	-12313
▁주니치	-12314
로쿠	-12315
▁너스	-12316
▁니켈	-12317
▁도제	-12318
▁새뮤	-12319
▁채색	-12320
▁꽂	-12321
▁씻	-12322
▁사간원	-12323
▁프리미엄	-12324
▁노스캐롤라이나	-12325
뮬러	-12326
큐어	-12327
▁구문	-12328
▁군관	-12329
▁낙양	-12330
▁본체	-12331
▁스모	-12332
▁임계	-12333
▁죄수	-12334
▁파파	-12335
▁브래드	-12336
▁사절단	-12337
▁레버	-12338
▁미미	-12339
▁부양	-12340
▁Gre	-12341
▁바이어	-12342
▁이즈미	-12343
ational	-12344
▁웨스트민스터	-12345
광성	-12346
▁도하	-12347
▁라시	-12348
▁물류	-12349
▁중일	-12350
▁통폐	-12351
▁교구장	-12352
▁민영화	-12353
▁북조선	-12354
▁올리버	-12355
▁용의자	-12356
▁장난감	-12357
▁토트넘	-12358
▁1866	-12359
암리	-12360
▁ML	-12361
▁댓글	-12362
▁도약	-12363
▁마구	-12364
▁바시	-12365
▁박자	-12366
▁수하	-12367
▁신진	-12368
▁에리	-12369
▁유능	-12370
▁사단장	-12371
▁쏟아지	-12372
▁집행유예	-12373
다오	-12374
▁경무	-12375
▁긴키	-12376
▁깃털	-12377
▁백자	-12378
▁앤서니	-12379
분열	-12380
▁SH	-12381
▁송환	-12382
▁이호	-12383
▁전권	-12384
▁중개	-12385
리카락	-12386
른베르크	-12387
▁1886	-12388
▁머리카락	-12389
▁SV	-12390
▁마린	-12391
▁알폰	-12392
▁애슬	-12393
▁오메	-12394
▁제르	-12395
▁조개	-12396
▁초전	-12397
러뜨리	-12398
▁간사이	-12399
▁스테판	-12400
▁장제스	-12401
▁wh	-12402
▁실각	-12403
▁익명	-12404
▁베이비	-12405
▁구스타프	-12406
▁브리티시	-12407
▁광선	-12408
▁두각	-12409
▁산청	-12410
▁습득	-12411
▁여건	-12412
▁유머	-12413
▁일진	-12414
▁260	-12415
▁바람직	-12416
▁보안법	-12417
▁전주시	-12418
ble	-12419
▁간혹	-12420
▁레트	-12421
▁코소보	-12422
▁페미니	-12423
▁Tour	-12424
슈타	-12425
우회	-12426
▁로브	-12427
▁모라	-12428
▁생모	-12429
▁손녀	-12430
▁유다	-12431
▁작중	-12432
▁저우	-12433
▁조소	-12434
▁경영학	-12435
▁독립군	-12436
▁조나라	-12437
▁프란치스코	-12438
EST	-12439
▁무수	-12440
▁원상	-12441
▁행방	-12442
르타뉴	-12443
▁역사학	-12444
▁브르타뉴	-12445
▁페르난도	-12446
▁베이시스트	-12447
꿈치	-12448
▁라니	-12449
▁비우	-12450
▁아자	-12451
▁요괴	-12452
▁천지	-12453
▁프루	-12454
▁270	-12455
▁구획	-12456
▁발의	-12457
▁산물	-12458
▁얼룩	-12459
▁완도	-12460
▁촛불	-12461
▁출혈	-12462
▁쿼크	-12463
land	-12464
▁스테이	-12465
▁스테인	-12466
짜기	-12467
▁마티	-12468
▁엘런	-12469
▁차수	-12470
▁펠로	-12471
▁펴내	-12472
▁포탄	-12473
▁표하	-12474
▁덩어리	-12475
▁통폐합	-12476
▁돗	-12477
레시	-12478
▁KB	-12479
▁도성	-12480
▁번갈	-12481
▁세분	-12482
▁파커	-12483
▁삼각주	-12484
▁1887	-12485
▁베네딕토	-12486
너드	-12487
하임	-12488
▁배척	-12489
▁장애물	-12490
▁1861	-12491
▁대한항공	-12492
▁빅뱅	-12493
▁타구	-12494
▁현과	-12495
▁Wii	-12496
▁모나코	-12497
▁바로크	-12498
▁도미니카	-12499
▁모차르트	-12500
▁Dream	-12501
▁삼국지연의	-12502
▁마나	-12503
▁위시	-12504
▁잘리	-12505
▁사쓰마	-12506
▁축구팀	-12507
▁코스트	-12508
▁재단법인	-12509
▁여타	-12510
▁지아	-12511
▁근거지	-12512
▁새뮤얼	-12513
ition	-12514
▁프로모션	-12515
AI	-12516
▁동창	-12517
▁외환	-12518
▁지면	-12519
▁포화	-12520
▁합천	-12521
▁홍성	-12522
▁강서구	-12523
▁부분군	-12524
▁홈경기	-12525
▁1850	-12526
▁Life	-12527
지오	-12528
ult	-12529
▁강세	-12530
▁경매	-12531
▁내포	-12532
▁사내	-12533
▁오일	-12534
▁생성물	-12535
▁화요일	-12536
▁유니버스	-12537
▁가닥	-12538
▁무자	-12539
▁올레	-12540
▁자판	-12541
▁공연장	-12542
▁해석학	-12543
▁마르쿠스	-12544
▁카르타고	-12545
▁RT	-12546
▁it	-12547
▁완결	-12548
▁음주	-12549
▁정예	-12550
브리드	-12551
▁개정안	-12552
▁컨텐츠	-12553
▁드미트리	-12554
▁싹	-12555
orm	-12556
▁Up	-12557
▁세무	-12558
▁슬프	-12559
▁오대	-12560
▁피닉스	-12561
▁렙	-12562
코타	-12563
▁AG	-12564
▁남조	-12565
▁모국	-12566
▁복위	-12567
▁증세	-12568
▁직사	-12569
▁홀딩	-12570
▁당선자	-12571
▁요금소	-12572
린트	-12573
즐리	-12574
▁TC	-12575
▁배트	-12576
▁오산	-12577
▁접합	-12578
▁착하	-12579
▁뛰어넘	-12580
▁보너스	-12581
▁센다이	-12582
▁집정관	-12583
니오	-12584
▁급히	-12585
▁저축	-12586
▁토목	-12587
▁편안	-12588
▁표절	-12589
스코트	-12590
▁보살상	-12591
▁선제골	-12592
▁낭만주의	-12593
제비	-12594
▁망하	-12595
▁모닝	-12596
▁몰두	-12597
▁이별	-12598
▁자궁	-12599
라호마	-12600
▁아카이	-12601
▁오클라호마	-12602
동자	-12603
▁자릿	-12604
▁환관	-12605
▁노동력	-12606
▁프랑코	-12607
아메리카	-12608
▁하이브리드	-12609
▁댈	-12610
직경	-12611
▁경건	-12612
▁앵커	-12613
▁유타	-12614
▁가해자	-12615
▁불러들이	-12616
▁Ed	-12617
▁고창	-12618
▁다행	-12619
▁버크	-12620
▁위패	-12621
▁이누	-12622
▁시직경	-12623
▁신세계	-12624
▁클레멘스	-12625
▁기밀	-12626
▁삭스	-12627
▁필연	-12628
▁히토	-12629
▁재판부	-12630
▁헤라클레스	-12631
왕후	-12632
▁교지	-12633
▁꺼리	-12634
▁패권	-12635
솔리니	-12636
▁스트리밍	-12637
▁오스트리	-12638
▁관내	-12639
▁동차	-12640
▁만점	-12641
▁말단	-12642
▁왕관	-12643
▁워킹	-12644
▁단거리	-12645
▁1864	-12646
▁Open	-12647
콘신	-12648
▁"-	-12649
▁암모	-12650
▁애완	-12651
▁1830	-12652
▁석가모니	-12653
▁위스콘신	-12654
열차	-12655
▁건네	-12656
▁눈치	-12657
▁예의	-12658
▁전교	-12659
▁파직	-12660
▁음악원	-12661
▁도라에몽	-12662
▁승하	-12663
▁여호	-12664
▁백악기	-12665
▁카이로	-12666
▁휘두르	-12667
EP	-12668
예술	-12669
타입	-12670
ton	-12671
▁공판	-12672
▁광업	-12673
▁대강	-12674
▁뒤늦	-12675
▁딸리	-12676
▁리트	-12677
▁매스	-12678
▁양현	-12679
▁혼혈	-12680
▁후세인	-12681
▁마을버스	-12682
▁컴파일러	-12683
▁도르트문트	-12684
거나	-12685
▁en	-12686
▁가독	-12687
▁관용	-12688
▁근래	-12689
▁스몰	-12690
▁평탄	-12691
▁허블	-12692
▁감리교	-12693
라이어티	-12694
▁미네소타	-12695
▁버라이어티	-12696
디슨	-12697
▁더하	-12698
▁발톱	-12699
▁승단	-12700
▁잔디	-12701
▁장전	-12702
▁카와	-12703
▁네티즌	-12704
▁데이빗	-12705
▁크리에이	-12706
▁다카라즈카	-12707
▁마요	-12708
▁방공	-12709
▁사하	-12710
▁쓰루	-12711
▁에두	-12712
▁재벌	-12713
▁홈즈	-12714
▁로맨틱	-12715
▁사나이	-12716
▁주나라	-12717
▁황해도	-12718
▁아이디얼	-12719
▁이시카와	-12720
▁배아	-12721
▁불분	-12722
▁수이	-12723
▁아편	-12724
▁어우	-12725
▁정황	-12726
▁추존	-12727
▁현미	-12728
▁격투기	-12729
▁관련자	-12730
▁재판관	-12731
해살이풀	-12732
▁백업	-12733
▁하얀	-12734
달마	-12735
클럽	-12736
▁ㄴ데	-12737
▁고모	-12738
▁라라	-12739
▁매진	-12740
▁민물	-12741
▁뷰티	-12742
▁스기	-12743
▁스윙	-12744
▁챙기	-12745
▁청문	-12746
▁푸아	-12747
바도르	-12748
▁캣	-12749
▁an	-12750
▁등등	-12751
▁조경	-12752
▁라치오	-12753
▁유전체	-12754
▁1881	-12755
▁트레이닝	-12756
ION	-12757
ave	-12758
▁선율	-12759
▁황자	-12760
▁난이도	-12761
▁남베트남	-12762
▁객원	-12763
▁나마	-12764
▁러닝	-12765
▁벌레	-12766
▁소라	-12767
▁양조	-12768
▁침대	-12769
▁헌납	-12770
▁iOS	-12771
께끼	-12772
플린	-12773
▁Ab	-12774
▁기고	-12775
▁도산	-12776
▁보정	-12777
▁편하	-12778
▁까마귀	-12779
▁무작위	-12780
▁수수께끼	-12781
브웨	-12782
스레	-12783
▁다비	-12784
▁알맞	-12785
▁야망	-12786
▁잠실	-12787
▁전리	-12788
▁코난	-12789
▁트란	-12790
▁행정동	-12791
▁피츠버그	-12792
리쿠	-12793
▁구례	-12794
▁남송	-12795
▁목욕	-12796
▁아타	-12797
▁엿보	-12798
▁조심	-12799
▁사들이	-12800
▁캐스트	-12801
▁Music	-12802
TE	-12803
▁고하	-12804
▁그란	-12805
▁기통	-12806
▁세간	-12807
▁왕성	-12808
▁짐바	-12809
▁찍히	-12810
ject	-12811
▁롬바르	-12812
▁모멘트	-12813
▁반대파	-12814
▁외무부	-12815
▁1872	-12816
▁리에	-12817
▁생도	-12818
▁아이콘	-12819
▁압록강	-12820
▁루스벨트	-12821
▁XP	-12822
▁군세	-12823
▁로니	-12824
▁승지	-12825
▁오우	-12826
▁재고	-12827
▁코뮌	-12828
▁흑백	-12829
올로기	-12830
▁기획사	-12831
▁대표단	-12832
▁이데올로기	-12833
▁루나	-12834
▁별장	-12835
▁부풀	-12836
▁산기	-12837
▁용사	-12838
▁쿠로	-12839
▁농어촌	-12840
▁이메일	-12841
▁부다페스트	-12842
▁레비	-12843
▁발포	-12844
▁베일	-12845
▁부실	-12846
▁양면	-12847
▁의례	-12848
▁지경	-12849
▁돋보이	-12850
▁여학생	-12851
▁제프리	-12852
▁합창단	-12853
나파	-12854
▁닌자	-12855
▁반죽	-12856
▁복직	-12857
▁캐피	-12858
▁콘티	-12859
▁통지	-12860
▁750	-12861
덕왕	-12862
▁BL	-12863
▁김희	-12864
▁미상	-12865
▁부전	-12866
▁어촌	-12867
▁토로	-12868
▁투하	-12869
▁판관	-12870
▁화성시	-12871
▁쵸	-12872
▁킷	-12873
렌스	-12874
ics	-12875
▁if	-12876
▁국호	-12877
▁삼척	-12878
▁인제	-12879
▁종업	-12880
▁대교구	-12881
▁파충류	-12882
▁부르주아	-12883
▁세계유산	-12884
▁교제	-12885
▁극찬	-12886
▁리브	-12887
▁메츠	-12888
▁원동	-12889
▁직관	-12890
▁파기	-12891
리아스	-12892
▁라이스	-12893
쿠니	-12894
▁곡면	-12895
▁곱셈	-12896
▁이례	-12897
▁파주	-12898
▁노르드	-12899
▁범죄자	-12900
뛰기	-12901
성경	-12902
▁경도	-12903
▁꼬마	-12904
▁닛산	-12905
▁상파	-12906
▁시원	-12907
▁신봉	-12908
▁다시금	-12909
▁마르셀	-12910
▁1863	-12911
▁무솔리니	-12912
▁당과	-12913
▁샤이	-12914
▁진흙	-12915
▁탄산	-12916
▁밀가루	-12917
▁HTML	-12918
▁꿰	-12919
화경	-12920
ier	-12921
▁Sm	-12922
▁가곡	-12923
▁경량	-12924
▁괘불	-12925
▁내재	-12926
▁발산	-12927
▁북벌	-12928
▁정명	-12929
▁친밀	-12930
▁파열	-12931
변속기	-12932
▁다비드	-12933
▁슬로건	-12934
ool	-12935
▁금고	-12936
▁메우	-12937
▁배향	-12938
▁익산	-12939
▁중랑	-12940
▁취향	-12941
부아르	-12942
▁승용차	-12943
▁화학자	-12944
루크	-12945
림사	-12946
▁순항	-12947
▁가든	-12948
▁가비	-12949
▁브렌	-12950
▁주고	-12951
▁해킹	-12952
태평양	-12953
▁개체군	-12954
▁무로마치	-12955
QL	-12956
▁나탈	-12957
▁인위	-12958
▁계승자	-12959
평리	-12960
▁AL	-12961
▁병단	-12962
▁살짝	-12963
▁종묘	-12964
▁체하	-12965
▁Don	-12966
▁참가국	-12967
▁취리히	-12968
▁코호몰로지	-12969
ru	-12970
▁엡	-12971
▁단국	-12972
▁레아	-12973
▁입시	-12974
▁켄터	-12975
▁탐정	-12976
▁앞세우	-12977
▁호크스	-12978
▁te	-12979
▁거꾸	-12980
▁계좌	-12981
▁고난	-12982
▁납작	-12983
▁당진	-12984
▁의용	-12985
슬라프	-12986
▁초록색	-12987
▁유라시아	-12988
데자	-12989
바인	-12990
워즈	-12991
▁대의	-12992
▁두어	-12993
▁루즈	-12994
▁복역	-12995
▁승상	-12996
▁불분명	-12997
▁작품상	-12998
데자네이	-12999
▁1873	-13000
▁세르게이	-13001
비오	-13002
che	-13003
▁ㄹ라	-13004
▁기쁘	-13005
▁덴쇼	-13006
▁오트	-13007
▁클릭	-13008
▁햇빛	-13009
▁타임즈	-13010
번에	-13011
▁조장	-13012
▁페라	-13013
▁페인	-13014
▁휩싸	-13015
▁공통점	-13016
▁국민회	-13017
▁1865	-13018
▁교통사고	-13019
▁교동	-13020
▁매립	-13021
▁완비	-13022
▁장쑤	-13023
▁조시	-13024
▁태아	-13025
▁피카	-13026
▁시간대	-13027
▁청년회	-13028
▁하얀색	-13029
ise	-13030
▁경마	-13031
▁모란	-13032
▁박진	-13033
▁위법	-13034
▁을사	-13035
▁작년	-13036
▁코마	-13037
▁킹스	-13038
▁여진족	-13039
▁폼페이	-13040
▁샵	-13041
타스	-13042
ode	-13043
▁도도	-13044
▁서지	-13045
▁에치	-13046
▁팔작	-13047
▁와이드	-13048
▁항아리	-13049
리야	-13050
▁계엄	-13051
▁과다	-13052
▁비키	-13053
▁옹주	-13054
▁왓슨	-13055
▁잠기	-13056
▁IMF	-13057
▁그나마	-13058
▁챌린저	-13059
▁탐험가	-13060
▁마스코트	-13061
▁열렬	-13062
▁외상	-13063
▁픽셀	-13064
▁경복궁	-13065
▁오카야마	-13066
▁쩔	-13067
▁신대	-13068
▁양궁	-13069
▁충당	-13070
▁하스	-13071
▁해시	-13072
▁제너럴	-13073
▁1891	-13074
리언	-13075
▁PM	-13076
▁걸작	-13077
▁몸돌	-13078
▁착취	-13079
▁한창	-13080
▁허목	-13081
▁안산시	-13082
▁야쿠르트	-13083
데자네이루	-13084
▁리우데자네이루	-13085
▁등단	-13086
▁벌리	-13087
▁티모	-13088
▁유니언	-13089
더지	-13090
매김	-13091
시대	-13092
▁구강	-13093
▁단자	-13094
▁대목	-13095
▁봉황	-13096
▁슈고	-13097
▁요즘	-13098
▁조공	-13099
▁처방	-13100
▁캐치	-13101
stem	-13102
▁몰도바	-13103
▁박영효	-13104
▁Night	-13105
바지	-13106
▁반항	-13107
▁법전	-13108
▁세단	-13109
▁쇼크	-13110
▁다국적	-13111
▁생화학	-13112
▁제조사	-13113
▁조선소	-13114
▁크루즈	-13115
▁아비달마	-13116
▁아오모리	-13117
▁경지	-13118
▁도봉	-13119
▁루피	-13120
▁리자	-13121
▁야심	-13122
▁입술	-13123
▁합금	-13124
▁발기인	-13125
린더	-13126
미쓰	-13127
▁라크	-13128
▁모함	-13129
▁최장	-13130
▁피셔	-13131
▁시티즌	-13132
▁지자체	-13133
▁공군기지	-13134
UC	-13135
친왕	-13136
쿠르	-13137
▁MA	-13138
▁두텁	-13139
▁발하	-13140
▁부에	-13141
▁분경	-13142
▁사드	-13143
▁산책	-13144
▁포대	-13145
▁혈압	-13146
플렉스	-13147
▁고성군	-13148
▁우간다	-13149
▁온타리오주	-13150
▁괜	-13151
단위	-13152
사화	-13153
인구	-13154
▁--	-13155
▁NS	-13156
▁구슬	-13157
▁급하	-13158
▁매도	-13159
▁부추	-13160
▁이야	-13161
▁적발	-13162
▁촉발	-13163
▁카슈	-13164
이스케	-13165
▁공식전	-13166
▁세군다	-13167
▁종사자	-13168
라르	-13169
훈장	-13170
▁버펄	-13171
▁볼넷	-13172
▁주저	-13173
▁증발	-13174
▁현무	-13175
합중국	-13176
▁승정원	-13177
▁앤드류	-13178
▁자리매김	-13179
▁맞춤	-13180
▁우마	-13181
▁철종	-13182
▁타도	-13183
▁필두	-13184
▁해부학	-13185
▁조선왕조	-13186
▁삐	-13187
▁불로	-13188
▁후한	-13189
▁발가락	-13190
▁켄터키	-13191
▁고마	-13192
▁과격	-13193
▁란스	-13194
▁미인	-13195
▁채굴	-13196
▁650	-13197
▁제작진	-13198
▁짐바브웨	-13199
NG	-13200
동맹	-13201
참찬	-13202
▁MM	-13203
▁반점	-13204
▁아뢰	-13205
▁헤어	-13206
▁거꾸로	-13207
레타리아	-13208
▁프롤레타리아	-13209
▁마모	-13210
▁무고	-13211
▁스킬	-13212
▁증강	-13213
▁진원	-13214
▁스코어	-13215
▁Good	-13216
▁이바라키	-13217
▁베스트셀러	-13218
ai	-13219
레반	-13220
▁AI	-13221
▁굴복	-13222
▁시진	-13223
▁연행	-13224
▁체내	-13225
▁캐논	-13226
▁키즈	-13227
▁헌병	-13228
▁현도	-13229
▁Black	-13230
ank	-13231
▁강호	-13232
▁소작	-13233
▁여대	-13234
▁유태	-13235
▁후미	-13236
ower	-13237
▁릴레이	-13238
▁연출가	-13239
상어	-13240
▁qu	-13241
▁반론	-13242
▁오즈	-13243
▁자켓	-13244
▁접전	-13245
▁직교	-13246
▁다마스	-13247
▁스테이트	-13248
▁콧	-13249
▁터빈	-13250
▁튼튼	-13251
▁파랑	-13252
▁Can	-13253
▁노르만	-13254
▁매달리	-13255
▁종업원	-13256
▁포항시	-13257
▁삼국유사	-13258
▁사이타마현	-13259
▁샴	-13260
▁간판	-13261
▁기묘	-13262
▁네임	-13263
▁농성	-13264
▁도발	-13265
▁용감	-13266
▁ret	-13267
▁댈러스	-13268
▁백악관	-13269
▁국부	-13270
▁스톰	-13271
▁위헌	-13272
▁적정	-13273
▁NAD	-13274
▁트로트	-13275
▁미합중국	-13276
킨슨	-13277
포타	-13278
▁당당	-13279
▁산신	-13280
▁이니	-13281
▁조준	-13282
▁처치	-13283
▁투신	-13284
▁흔들	-13285
▁550	-13286
▁수시로	-13287
▁테무르	-13288
70	-13289
▁믈	-13290
무제	-13291
세다	-13292
▁El	-13293
▁내란	-13294
▁대담	-13295
▁리키	-13296
▁문정	-13297
▁병과	-13298
▁열쇠	-13299
▁저해	-13300
▁횡령	-13301
▁반정부	-13302
▁자외선	-13303
▁자유형	-13304
DS	-13305
▁켜	-13306
고르	-13307
▁교서	-13308
▁변증	-13309
▁사교	-13310
▁신의	-13311
▁온건	-13312
▁행보	-13313
▁흡연	-13314
▁용산구	-13315
▁이성질	-13316
▁하반기	-13317
▁1862	-13318
내티	-13319
티야	-13320
▁걸프	-13321
▁무도	-13322
▁수퍼	-13323
▁연달	-13324
▁미카엘	-13325
▁받침돌	-13326
▁타이탄	-13327
포타미아	-13328
▁신시내티	-13329
▁메소포타미아	-13330
▁q	-13331
펠러	-13332
▁분별	-13333
▁전멸	-13334
▁티저	-13335
▁히노	-13336
▁Qu	-13337
▁길드	-13338
▁내역	-13339
▁아델	-13340
▁양양	-13341
▁완수	-13342
▁장신	-13343
▁조어	-13344
▁증식	-13345
▁피어	-13346
▁활자	-13347
타나베	-13348
▁Ser	-13349
▁국력	-13350
▁서위	-13351
▁송진	-13352
▁심정	-13353
▁연화	-13354
▁오보	-13355
▁이강	-13356
▁조서	-13357
▁조석	-13358
▁진언	-13359
▁필명	-13360
▁김성수	-13361
▁서두르	-13362
▁엑스포	-13363
▁입법부	-13364
▁LS	-13365
▁군자	-13366
▁북대	-13367
▁성수	-13368
▁신해	-13369
▁엘라	-13370
▁해지	-13371
▁언론사	-13372
▁연주회	-13373
▁플러그	-13374
루엔	-13375
조리	-13376
▁교훈	-13377
▁황폐	-13378
▁1867	-13379
디언	-13380
▁독주	-13381
▁모반	-13382
▁온두	-13383
▁레인저	-13384
▁편집장	-13385
▁온두라스	-13386
▁페르디난트	-13387
▁UC	-13388
▁광자	-13389
▁Let	-13390
▁페르미	-13391
▁6000	-13392
▁팔작지붕	-13393
▁라이프치히	-13394
▁Ac	-13395
▁간결	-13396
▁고찰	-13397
▁그거	-13398
▁씌우	-13399
▁지문	-13400
▁처장	-13401
▁푸드	-13402
세우스	-13403
▁705	-13404
▁사무국	-13405
테이	-13406
▁DR	-13407
▁광배	-13408
▁서한	-13409
▁양군	-13410
드라마	-13411
선거구	-13412
▁변광성	-13413
▁앨버트	-13414
▁증조부	-13415
▁타타르	-13416
구나	-13417
정사	-13418
활약	-13419
▁AU	-13420
▁나사	-13421
▁노브	-13422
▁변모	-13423
▁옥시	-13424
▁경희대	-13425
진구	-13426
lar	-13427
ings	-13428
▁ㅣ	-13429
▁팍	-13430
센터	-13431
▁유구	-13432
▁토유	-13433
▁표출	-13434
▁MSL	-13435
▁맹활약	-13436
▁손잡이	-13437
▁알폰소	-13438
▁페드로	-13439
▁데카르트	-13440
비언	-13441
투르	-13442
▁예종	-13443
▁지탱	-13444
▁쿠라	-13445
▁회유	-13446
▁프로테	-13447
▁백과사전	-13448
▁이노우에	-13449
▁section	-13450
▁궐	-13451
▁객실	-13452
▁잔존	-13453
▁코모	-13454
▁키릴	-13455
▁빠져나가	-13456
다발	-13457
▁보직	-13458
▁사보이	-13459
▁치료제	-13460
중추부사	-13461
▁프라이즈	-13462
▁협동조합	-13463
ta	-13464
▁낡	-13465
렐라	-13466
방군	-13467
위치	-13468
젤로	-13469
▁-&	-13470
▁경은	-13471
▁넘버	-13472
▁성품	-13473
▁수당	-13474
▁잉크	-13475
▁청각	-13476
▁하중	-13477
▁부등식	-13478
▁홀딩스	-13479
▁썩	-13480
▁상선	-13481
절도사	-13482
▁감염증	-13483
▁탬	-13484
자원	-13485
할린	-13486
▁당파	-13487
▁버진	-13488
▁번개	-13489
▁절약	-13490
▁충칭	-13491
▁피처	-13492
▁기원후	-13493
▁이브스	-13494
▁일본식	-13495
▁특별법	-13496
▁심소	-13497
▁차림	-13498
▁폴라	-13499
▁헤겔	-13500
rist	-13501
▁And	-13502
▁곁들이	-13503
▁라면서	-13504
▁무사히	-13505
▁웨이브	-13506
▁명성황후	-13507
tr	-13508
▁가극	-13509
▁무너	-13510
▁벵골	-13511
▁유망	-13512
▁치이	-13513
▁무너뜨리	-13514
▁스파이더	-13515
▁신한은행	-13516
▁후지와라	-13517
ee	-13518
▁Ag	-13519
▁수급	-13520
▁엘레	-13521
▁지그	-13522
▁참패	-13523
▁마그네	-13524
▁봉우리	-13525
▁인지도	-13526
▁1878	-13527
니티	-13528
마디	-13529
정보	-13530
▁가방	-13531
▁박원	-13532
▁용해	-13533
▁자행	-13534
▁컴파일	-13535
▁국민학교	-13536
▁미나모토노	-13537
▁코퍼레이션	-13538
ky	-13539
▁PL	-13540
▁가물	-13541
▁글렌	-13542
▁동탁	-13543
▁시르	-13544
▁영미	-13545
▁중용	-13546
▁지린	-13547
▁자릿수	-13548
▁플루토	-13549
▁고등학생	-13550
▁썬	-13551
▁SO	-13552
▁후드	-13553
가르트	-13554
▁수도회	-13555
▁교화	-13556
▁냐고	-13557
▁동자	-13558
▁변질	-13559
▁참수	-13560
▁건륭제	-13561
▁경쟁자	-13562
▁그래도	-13563
▁연예계	-13564
▁지질학	-13565
▁비스마르크	-13566
▁아나톨리아	-13567
▁일리노이주	-13568
빌리	-13569
▁꽃잎	-13570
▁렉스	-13571
▁보류	-13572
▁서거	-13573
▁세토	-13574
▁유림	-13575
▁직물	-13576
▁충신	-13577
▁대리석	-13578
▁주고받	-13579
▁출입문	-13580
▁스에	-13581
▁점진	-13582
▁추축	-13583
▁행군	-13584
플로러	-13585
▁나치오	-13586
▁신기록	-13587
▁아이젠	-13588
▁익스플로러	-13589
산부	-13590
▁괄호	-13591
▁국화	-13592
▁미학	-13593
▁서점	-13594
▁손님	-13595
▁현악	-13596
▁802	-13597
▁베르나	-13598
▁외교부	-13599
▁패스트	-13600
▁스케이트	-13601
▁tr	-13602
▁라다	-13603
▁용수	-13604
▁텍스	-13605
▁항생	-13606
▁불가피	-13607
▁사대부	-13608
▁되돌아가	-13609
▁프랑스와	-13610
▁급성	-13611
▁자부	-13612
▁차명	-13613
▁액세스	-13614
▁밧	-13615
▁뵈	-13616
누마	-13617
▁무비	-13618
▁수레	-13619
▁완만	-13620
▁유화	-13621
▁지체	-13622
▁축일	-13623
▁골짜기	-13624
▁뉴기니	-13625
▁요리토모	-13626
북면	-13627
일치	-13628
hem	-13629
▁RC	-13630
▁각주	-13631
▁다목	-13632
▁모티	-13633
▁바쿠	-13634
▁사부	-13635
▁솔라	-13636
▁수증	-13637
▁습성	-13638
▁정박	-13639
▁추후	-13640
▁출국	-13641
▁형주	-13642
에이고	-13643
▁영유권	-13644
▁쿠르드	-13645
▁아우구스	-13646
▁키르기스	-13647
▁샌디에이고	-13648
작전	-13649
▁과자	-13650
▁영사	-13651
▁환율	-13652
▁원자핵	-13653
▁인코딩	-13654
▁포뮬러	-13655
▁프리츠	-13656
▁공상	-13657
▁근방	-13658
▁부관	-13659
▁에트	-13660
▁옥천	-13661
▁추계	-13662
▁패킷	-13663
▁랙	-13664
대전	-13665
벤션	-13666
셔주	-13667
시게	-13668
▁거사	-13669
▁고국	-13670
▁국인	-13671
▁반입	-13672
▁시역	-13673
▁콜드	-13674
▁갈아타	-13675
▁여객기	-13676
BI	-13677
퉁이	-13678
▁강우	-13679
▁기조	-13680
▁맛보	-13681
▁사소	-13682
▁육식	-13683
▁으러	-13684
▁일설	-13685
▁잔해	-13686
▁치사	-13687
▁516	-13688
▁핵분열	-13689
사우루스	-13690
▁개기	-13691
▁그물	-13692
▁대타	-13693
▁출세	-13694
▁패망	-13695
▁헤더	-13696
▁방위군	-13697
▁부여군	-13698
▁수비대	-13699
▁프라임	-13700
▁1869	-13701
▁힐베르트	-13702
▁팻	-13703
수단	-13704
▁교파	-13705
▁다량	-13706
▁매슈	-13707
▁무색	-13708
▁시시	-13709
▁인승	-13710
▁일선	-13711
▁절친	-13712
▁해트	-13713
시아드	-13714
▁HMS	-13715
▁기동전	-13716
▁운동량	-13717
▁1840	-13718
▁글로브상	-13719
▁와타나베	-13720
▁이끼	-13721
▁채권자	-13722
▁유니버시아드	-13723
pr	-13724
날드	-13725
부시	-13726
▁로시	-13727
▁면직	-13728
▁소피	-13729
▁오자	-13730
▁의정	-13731
▁초음	-13732
▁쿼터	-13733
▁며느리	-13734
▁바닷물	-13735
▁와세다	-13736
네르	-13737
▁닉스	-13738
▁부두	-13739
▁상식	-13740
▁상의	-13741
▁쫓기	-13742
▁포천	-13743
뉴기니	-13744
▁업로드	-13745
▁운전자	-13746
▁유엔군	-13747
▁널	-13748
블릿	-13749
▁목동	-13750
▁빅터	-13751
▁쌍성	-13752
▁자정	-13753
▁자처	-13754
▁저그	-13755
▁청취	-13756
▁컵스	-13757
▁마포구	-13758
▁치료법	-13759
▁몸체	-13760
▁벤츠	-13761
▁이목	-13762
▁퀴즈	-13763
▁토키	-13764
▁떠올리	-13765
▁오스카	-13766
▁낯	-13767
노르	-13768
▁국세	-13769
▁귀인	-13770
▁민심	-13771
▁바보	-13772
▁베라	-13773
▁애기	-13774
▁입출	-13775
스타인	-13776
▁예언자	-13777
▁팔꿈치	-13778
▁레지스터	-13779
▁사이언스	-13780
▁에이전트	-13781
곡면	-13782
ade	-13783
▁물론	-13784
▁컴필	-13785
▁휘발	-13786
▁Mon	-13787
▁강력히	-13788
▁시니어	-13789
▁Song	-13790
▁매킨토시	-13791
▁컴필레이션	-13792
ae	-13793
▁벳	-13794
▁볶	-13795
날레	-13796
선언	-13797
▁단서	-13798
▁바인	-13799
▁베오	-13800
▁부군	-13801
▁자취	-13802
▁포자	-13803
▁포탑	-13804
▁헤일	-13805
▁호그	-13806
▁피의자	-13807
▁파시스트	-13808
▁로드리게스	-13809
▁아나키스트	-13810
조사	-13811
효소	-13812
▁디나	-13813
▁변혁	-13814
▁텐서	-13815
▁금강산	-13816
크라테스	-13817
per	-13818
▁마레	-13819
▁신지	-13820
▁위도	-13821
▁글러브	-13822
▁네이트	-13823
▁스트림	-13824
▁모자이크	-13825
▁와카야마	-13826
세르	-13827
▁더러	-13828
▁빈민	-13829
▁숙소	-13830
▁자질	-13831
▁캐슬	-13832
ount	-13833
▁목적지	-13834
탄두	-13835
▁AA	-13836
▁Pe	-13837
▁VS	-13838
▁강인	-13839
▁걸음	-13840
▁지요	-13841
▁천상	-13842
▁토라	-13843
▁하수	-13844
▁세미나	-13845
티컷	-13846
▁me	-13847
▁괜찮	-13848
▁단역	-13849
▁박재	-13850
▁백조	-13851
▁블러	-13852
▁소박	-13853
▁아어	-13854
▁전단	-13855
▁맥아더	-13856
▁1592	-13857
▁고등교육	-13858
▁남아시아	-13859
▁코네티컷	-13860
▁밋	-13861
히메	-13862
▁As	-13863
▁논산	-13864
▁바쁘	-13865
▁성가	-13866
▁스택	-13867
▁실사	-13868
▁영수	-13869
▁철자	-13870
▁리차드	-13871
▁안타깝	-13872
▁종착역	-13873
▁창립자	-13874
구스	-13875
▁고을	-13876
▁고제	-13877
▁니까	-13878
▁직렬	-13879
암사	-13880
ium	-13881
▁Aw	-13882
▁금색	-13883
▁끌리	-13884
▁관심사	-13885
▁테크놀	-13886
▁8000	-13887
▁병자호란	-13888
▁친선경기	-13889
IF	-13890
▁뒤지	-13891
▁암수	-13892
▁양파	-13893
▁의복	-13894
▁자루	-13895
▁튜브	-13896
이치로	-13897
▁보유자	-13898
▁안동시	-13899
▁장로회	-13900
▁필사본	-13901
▁크리스티나	-13902
수염	-13903
ale	-13904
▁KN	-13905
▁규율	-13906
▁리스본	-13907
▁이랜드	-13908
▁적십자	-13909
▁히타치	-13910
▁Windows	-13911
IX	-13912
보당	-13913
전선	-13914
▁란트	-13915
▁슈투	-13916
▁어부	-13917
▁어사	-13918
▁왜군	-13919
▁유이	-13920
▁이와테	-13921
▁코트디	-13922
▁휩싸이	-13923
▁뉘른베르크	-13924
▁코트디부아르	-13925
▁펜실베이니아주	-13926
90	-13927
히데	-13928
▁기행	-13929
▁다쓰	-13930
▁박히	-13931
▁성대	-13932
▁온실	-13933
▁은밀	-13934
▁피살	-13935
▁KTX	-13936
▁과반수	-13937
▁린다	-13938
▁외면	-13939
▁유자	-13940
▁풍기	-13941
▁뒤따르	-13942
▁엇갈리	-13943
▁지하역	-13944
▁Heart	-13945
▁포르투갈어	-13946
찬성	-13947
ata	-13948
▁노현	-13949
▁동호	-13950
▁방탄	-13951
▁사주	-13952
▁악명	-13953
▁웍스	-13954
▁유골	-13955
▁임종	-13956
▁구단주	-13957
▁담당자	-13958
▁보호법	-13959
▁어도비	-13960
▁헤르만	-13961
테랑	-13962
▁Gl	-13963
▁ab	-13964
▁능가	-13965
▁면담	-13966
▁병풍	-13967
▁수만	-13968
▁질투	-13969
▁하라	-13970
▁클리어	-13971
▁심리학자	-13972
▁눌	-13973
어하	-13974
▁계룡	-13975
▁농가	-13976
▁삭감	-13977
▁이카	-13978
▁준동	-13979
▁380	-13980
▁로타르	-13981
▁파주시	-13982
던트	-13983
▁뉴런	-13984
▁여포	-13985
▁의주	-13986
▁탁구	-13987
▁1875	-13988
▁그린란드	-13989
▁페널티킥	-13990
▁세인트루이스	-13991
링겐	-13992
▁거창	-13993
▁크메르	-13994
▁형용사	-13995
▁근본번뇌	-13996
넌트	-13997
▁권익	-13998
▁김연	-13999
▁도우	-14000
▁문중	-14001
▁서약	-14002
▁연중	-14003
▁염화	-14004
▁오구	-14005
▁위크	-14006
▁이선	-14007
▁정오	-14008
▁비둘기	-14009
▁신석기	-14010
뻐하	-14011
어가	-14012
▁니케	-14013
▁들르	-14014
▁디바	-14015
▁라프	-14016
▁문체	-14017
▁방울	-14018
▁볼록	-14019
▁열세	-14020
▁예식	-14021
▁워스	-14022
▁일명	-14023
▁잠입	-14024
▁흥원	-14025
루엔자	-14026
▁Gen	-14027
▁기뻐하	-14028
▁성폭행	-14029
▁되돌아오	-14030
세키	-14031
욕장	-14032
▁독살	-14033
▁미지	-14034
▁숙련	-14035
▁실상	-14036
▁어선	-14037
▁오시	-14038
▁율법	-14039
▁특공	-14040
▁한민	-14041
▁스피커	-14042
▁통신망	-14043
▁여우원숭이	-14044
son	-14045
▁강습	-14046
▁상과	-14047
▁설리	-14048
▁셔틀	-14049
▁외척	-14050
▁원문	-14051
▁친화	-14052
▁콜린	-14053
▁키드	-14054
▁타쿠	-14055
▁페레	-14056
▁호른	-14057
▁사이즈	-14058
▁안창호	-14059
▁집단군	-14060
▁학술지	-14061
▁기판	-14062
▁다름	-14063
▁루도	-14064
▁막강	-14065
▁상동	-14066
▁시찰	-14067
▁야수	-14068
▁예금	-14069
▁이심	-14070
▁타나	-14071
세데스	-14072
▁개그맨	-14073
▁지장보살	-14074
▁브란덴부르크	-14075
▁귀엽	-14076
▁불복	-14077
▁엔젤	-14078
▁원단	-14079
▁유카	-14080
▁중견	-14081
▁칸트	-14082
▁친환경	-14083
▁메르세데스	-14084
▁return	-14085
▁sh	-14086
▁겸직	-14087
▁도적	-14088
▁발착	-14089
▁비료	-14090
▁사각	-14091
▁실명	-14092
▁윤휴	-14093
▁Out	-14094
▁회고록	-14095
▁영등포구	-14096
▁바빌로니아	-14097
▁배당	-14098
▁절충	-14099
▁최하	-14100
레이트	-14101
▁강대국	-14102
▁몽고메리	-14103
▁기린	-14104
▁로큰	-14105
▁아노	-14106
▁재보	-14107
▁정칙	-14108
▁징집	-14109
▁침식	-14110
▁향신	-14111
▁가환환	-14112
▁고문서	-14113
▁스케줄	-14114
▁시미즈	-14115
▁예비역	-14116
▁크라운	-14117
▁토요타	-14118
부대	-14119
알라	-14120
itt	-14121
▁구루	-14122
▁몹시	-14123
▁조비	-14124
▁키리	-14125
▁포인	-14126
▁나리타	-14127
▁대항전	-14128
▁아세틸	-14129
ng	-14130
기아	-14131
세서	-14132
▁다자	-14133
▁로사	-14134
▁선상	-14135
▁게임기	-14136
▁레스터	-14137
▁스케치	-14138
▁알프레드	-14139
▁엑스박스	-14140
▁랠	-14141
기즈	-14142
놀드	-14143
사유	-14144
▁TS	-14145
▁예프	-14146
▁착각	-14147
▁출품	-14148
▁AMD	-14149
▁다이쇼	-14150
▁보리스	-14151
▁클레어	-14152
▁파스칼	-14153
▁함경도	-14154
▁합성어	-14155
▁항공대	-14156
▁끌어올리	-14157
▁인플루엔자	-14158
▁땀	-14159
이에	-14160
▁기운	-14161
▁슬리	-14162
▁야권	-14163
▁첩보	-14164
▁파랗	-14165
▁폐허	-14166
▁로큰롤	-14167
▁사무라이	-14168
PA	-14169
계사	-14170
▁결말	-14171
▁구시	-14172
▁달콤	-14173
▁최남	-14174
▁표제	-14175
▁슈타인	-14176
▁열역학	-14177
▁일부러	-14178
▁최성기	-14179
▁싯	-14180
더링	-14181
▁DB	-14182
▁김두	-14183
▁리크	-14184
▁명상	-14185
▁사와	-14186
▁애착	-14187
▁자장	-14188
▁데이트	-14189
▁벙	-14190
방향	-14191
양이	-14192
▁바늘	-14193
▁왕래	-14194
▁마주치	-14195
▁부적절	-14196
▁진주시	-14197
▁컨벤션	-14198
UN	-14199
▁생원	-14200
▁오마	-14201
▁일차	-14202
▁혼잡	-14203
그래피	-14204
▁데뷔작	-14205
▁채무자	-14206
▁테오도	-14207
두사	-14208
르카	-14209
▁에코	-14210
▁오도	-14211
▁인먼	-14212
▁강희제	-14213
▁그러면	-14214
▁돌고래	-14215
▁매디슨	-14216
▁표트르	-14217
▁쳐들어오	-14218
▁극소	-14219
▁버트	-14220
▁서클	-14221
▁선체	-14222
▁순식	-14223
▁여럿	-14224
▁예멘	-14225
▁이희	-14226
▁취직	-14227
▁터너	-14228
▁맥스웰	-14229
▁파라오	-14230
▁프론트	-14231
▁안드로메다	-14232
▁노원	-14233
▁닥치	-14234
▁배반	-14235
▁성행	-14236
▁이씨	-14237
▁타시	-14238
▁태안	-14239
▁반감기	-14240
▁칭기즈	-14241
▁오프라인	-14242
몽골	-14243
IVE	-14244
▁감기	-14245
▁라벨	-14246
▁목장	-14247
▁용지	-14248
▁웨어	-14249
▁재화	-14250
▁집전	-14251
▁헤센	-14252
▁획기	-14253
able	-14254
▁Par	-14255
▁광둥성	-14256
▁쇼핑몰	-14257
▁중앙선	-14258
행파	-14259
▁결전	-14260
▁레몬	-14261
▁스펜	-14262
▁월남	-14263
▁되풀이	-14264
▁베르트	-14265
▁송파구	-14266
▁남양주시	-14267
▁맴	-14268
ody	-14269
▁KO	-14270
▁구타	-14271
▁메모	-14272
▁모피	-14273
▁수은	-14274
▁술라	-14275
▁장정	-14276
▁Vol	-14277
▁싫어하	-14278
▁야마다	-14279
건설	-14280
시험	-14281
▁WC	-14282
▁모질	-14283
▁안식	-14284
▁안중	-14285
▁의성	-14286
▁이질	-14287
▁235	-14288
▁행해지	-14289
VA	-14290
벌리	-14291
엽수	-14292
윽고	-14293
임새	-14294
▁기마	-14295
▁등산	-14296
▁디디	-14297
▁양극	-14298
▁영락	-14299
▁월화	-14300
▁토피	-14301
▁보조금	-14302
▁이윽고	-14303
▁장갑차	-14304
▁쇼트트랙	-14305
▁거머	-14306
▁문관	-14307
▁양지	-14308
▁에레	-14309
▁유충	-14310
▁체로	-14311
록대부	-14312
▁중앙아메리카	-14313
▁샷	-14314
▁텅	-14315
모음	-14316
▁가세	-14317
▁경의	-14318
▁기공	-14319
▁동거	-14320
▁모체	-14321
▁묘호	-14322
▁법규	-14323
▁생쥐	-14324
▁서안	-14325
▁이홍	-14326
▁즐거	-14327
▁DOS	-14328
▁상반기	-14329
▁선거인	-14330
▁이사벨	-14331
▁통도사	-14332
▁University	-14333
▁가모	-14334
▁거시	-14335
▁내림	-14336
▁보우	-14337
▁원효	-14338
▁아리랑	-14339
13	-14340
우주	-14341
크리	-14342
화당	-14343
▁수마	-14344
▁건너오	-14345
▁자격증	-14346
▁아우구스투스	-14347
루즈	-14348
어류	-14349
은사	-14350
▁교관	-14351
▁금정	-14352
▁모사	-14353
▁무능	-14354
▁방호	-14355
▁서당	-14356
▁활기	-14357
▁캐스터	-14358
▁브로드웨이	-14359
▁구세	-14360
▁근세	-14361
▁로바	-14362
▁실은	-14363
▁안톤	-14364
▁위트	-14365
▁코로	-14366
▁사할린	-14367
▁카디널	-14368
▁저널리스트	-14369
me	-14370
▁탭	-14371
▁가명	-14372
▁베티	-14373
▁보그	-14374
▁세일	-14375
▁수역	-14376
▁열악	-14377
▁잉카	-14378
▁정언	-14379
▁젤리	-14380
▁콘스	-14381
▁키트	-14382
해방군	-14383
▁동아리	-14384
▁바나나	-14385
▁서스펜	-14386
▁슈퍼스타	-14387
▁인민해방군	-14388
그램	-14389
박사	-14390
텐셜	-14391
▁구아	-14392
▁규약	-14393
▁시의	-14394
▁양서	-14395
▁요가	-14396
▁일간	-14397
▁출격	-14398
▁북극점	-14399
▁연속극	-14400
▁정치국	-14401
▁대류	-14402
▁샤르	-14403
▁염두	-14404
▁패치	-14405
▁205	-14406
▁NBC	-14407
▁꽃차례	-14408
▁통계청	-14409
사와	-14410
▁동군	-14411
▁라울	-14412
▁문수	-14413
▁미트	-14414
▁박용	-14415
▁변천	-14416
▁빌드	-14417
▁사미	-14418
▁야코	-14419
▁이달	-14420
▁정글	-14421
▁종가	-14422
▁확충	-14423
▁순식간	-14424
▁콜럼버스	-14425
18	-14426
anc	-14427
▁경순	-14428
▁세스	-14429
▁시제	-14430
▁은폐	-14431
▁출사	-14432
▁키타	-14433
▁가이아	-14434
▁교육감	-14435
▁퍼텐셜	-14436
▁라이베리아	-14437
▁보컬리스트	-14438
▁IR	-14439
▁경종	-14440
▁래리	-14441
▁병렬	-14442
▁잉여	-14443
▁자위	-14444
▁중남	-14445
▁집사	-14446
▁후루	-14447
진보당	-14448
▁가요제	-14449
▁로버츠	-14450
쿠사	-14451
▁At	-14452
▁기미	-14453
▁단양	-14454
▁볼드	-14455
▁상계	-14456
▁석기	-14457
▁소양	-14458
▁실효	-14459
▁악당	-14460
▁안심	-14461
▁전조	-14462
▁뉴올리	-14463
▁사학자	-14464
▁청문회	-14465
스코리아	-14466
▁나일	-14467
▁숙박	-14468
▁싱크	-14469
▁초계	-14470
▁케리	-14471
▁시그마	-14472
▁퀄	-14473
데기	-14474
▁가뭄	-14475
▁델리	-14476
▁라지	-14477
▁신병	-14478
▁정승	-14479
▁정에	-14480
▁대수학	-14481
▁무지개	-14482
▁비단털	-14483
▁셴	-14484
촌리	-14485
▁균일	-14486
▁노카	-14487
▁데일	-14488
▁미첼	-14489
▁바니	-14490
▁복부	-14491
▁불쾌	-14492
▁자키	-14493
▁품목	-14494
▁호로	-14495
very	-14496
▁708	-14497
▁슈미트	-14498
▁아스카	-14499
▁비단털쥐	-14500
에쓰	-14501
연구	-14502
주크	-14503
▁AE	-14504
▁띄우	-14505
▁외할	-14506
▁일주	-14507
▁축복	-14508
▁스케일	-14509
▁콘라트	-14510
▁관음보살	-14511
▁유가행파	-14512
▁지하철역	-14513
au	-14514
▁뤄	-14515
▁군복	-14516
▁금하	-14517
▁나기	-14518
▁라플	-14519
▁무가	-14520
▁산문	-14521
▁아연	-14522
▁에볼	-14523
▁조봉	-14524
▁족장	-14525
▁총영	-14526
▁칼륨	-14527
▁하지	-14528
▁한겨	-14529
▁재미있	-14530
▁호흡기	-14531
▁Hell	-14532
▁서비스업	-14533
보라	-14534
▁cc	-14535
▁경화	-14536
▁금환	-14537
▁안팎	-14538
▁화음	-14539
▁ATC	-14540
▁게임즈	-14541
▁교육학	-14542
▁당뇨병	-14543
▁로베르토	-14544
▁바이마르	-14545
▁스틸러스	-14546
net	-14547
▁단발	-14548
▁옥사	-14549
▁잔혹	-14550
▁폐교	-14551
▁한복	-14552
▁비잔틴	-14553
▁오르간	-14554
▁조선공산당	-14555
열대	-14556
▁JC	-14557
▁기스	-14558
▁남단	-14559
▁리시	-14560
▁뮐러	-14561
▁베크	-14562
▁줄곧	-14563
▁초회	-14564
▁다가가	-14565
▁신호장	-14566
▁테두리	-14567
▁갈릴레오	-14568
르산	-14569
큐슈	-14570
ala	-14571
▁골절	-14572
▁시성	-14573
▁애드	-14574
▁후이	-14575
스크림	-14576
▁거주자	-14577
▁그레이엄	-14578
▁마흐	-14579
▁손목	-14580
▁오니	-14581
▁코크	-14582
▁포니	-14583
▁향수	-14584
폴리탄	-14585
▁간호사	-14586
▁시마즈	-14587
▁유명세	-14588
▁조각상	-14589
▁1874	-14590
▁name	-14591
▁일렉트릭	-14592
▁클러스터	-14593
▁메트로폴리탄	-14594
바드	-14595
ATO	-14596
▁낭비	-14597
▁스펙	-14598
▁전범	-14599
▁치마	-14600
▁침범	-14601
▁카로	-14602
▁클랜	-14603
▁오릭스	-14604
▁벚	-14605
나들	-14606
변수	-14607
▁비옥	-14608
▁상한	-14609
▁솜씨	-14610
▁외손	-14611
▁우기	-14612
▁우표	-14613
▁읍성	-14614
▁인성	-14615
▁조각가	-14616
▁후쿠이	-14617
▁잼	-14618
민당	-14619
악산	-14620
▁고층	-14621
▁그립	-14622
▁보어	-14623
▁소론	-14624
▁에노	-14625
▁자네	-14626
▁젠더	-14627
▁통솔	-14628
▁하산	-14629
▁화승	-14630
▁김해시	-14631
▁출판물	-14632
▁케이드	-14633
▁sp	-14634
▁다쿠	-14635
▁외삼	-14636
▁일삼	-14637
▁Her	-14638
▁공학자	-14639
▁라스트	-14640
▁성폭력	-14641
▁콘퍼런스	-14642
14	-14643
구니	-14644
프랑	-14645
▁되살	-14646
▁무예	-14647
▁쿠마	-14648
▁화원	-14649
▁반대편	-14650
▁최진실	-14651
▁포식자	-14652
▁우두머리	-14653
ps	-14654
범죄	-14655
ash	-14656
▁강국	-14657
▁과세	-14658
▁나한	-14659
▁뉴멕	-14660
▁도형	-14661
▁리나	-14662
▁모치	-14663
▁몰수	-14664
▁밸브	-14665
▁재회	-14666
▁창구	-14667
▁탄수	-14668
▁풀백	-14669
▁사무관	-14670
▁안양시	-14671
▁전시관	-14672
▁핸드볼	-14673
▁뉴멕시코	-14674
▁멱	-14675
란다	-14676
신저	-14677
▁SR	-14678
▁et	-14679
▁강좌	-14680
▁관위	-14681
▁발작	-14682
▁쓰리	-14683
▁이문	-14684
▁tvN	-14685
▁한겨레	-14686
▁This	-14687
▁오아시스	-14688
데일	-14689
▁너희	-14690
▁넷플	-14691
▁노라	-14692
▁리타	-14693
▁발판	-14694
▁버니	-14695
▁사중	-14696
▁양평	-14697
▁적법	-14698
▁점하	-14699
▁사하라	-14700
▁안드레	-14701
▁컨설팅	-14702
▁트레일	-14703
▁넷플릭스	-14704
▁멀티미디어	-14705
높이	-14706
소문	-14707
황색	-14708
▁가온	-14709
▁동백	-14710
▁요직	-14711
▁학당	-14712
▁남극점	-14713
▁부르봉	-14714
▁셀주크	-14715
▁여운형	-14716
▁바그다드	-14717
▁알렉산데르	-14718
ax	-14719
▁YG	-14720
▁마늘	-14721
▁예제	-14722
▁잔여	-14723
▁조동	-14724
어나오	-14725
▁저스틴	-14726
▁휴대폰	-14727
▁1877	-14728
▁유니코드	-14729
▁컨퍼런스	-14730
▁서아프리카	-14731
15	-14732
co	-14733
▁맞물	-14734
▁벗기	-14735
▁석권	-14736
▁이색	-14737
▁코린	-14738
▁화염	-14739
▁204	-14740
▁클로드	-14741
HC	-14742
▁레나	-14743
▁문맥	-14744
▁산조	-14745
▁인스	-14746
▁칠성	-14747
▁코바	-14748
▁협곡	-14749
▁로페스	-14750
▁외계인	-14751
▁중거리	-14752
▁천도교	-14753
▁항공편	-14754
▁미스코리아	-14755
▁뉴클레오타이드	-14756
▁"|	-14757
▁격전	-14758
▁공문	-14759
▁김우	-14760
▁백지	-14761
▁자성	-14762
▁홍익	-14763
▁이주민	-14764
▁핵탄두	-14765
▁파푸아뉴기니	-14766
스퍼	-14767
피크	-14768
▁가선	-14769
▁변론	-14770
▁선단	-14771
▁엄지	-14772
▁템플	-14773
야누스	-14774
▁지리산	-14775
▁캄파니아	-14776
▁플루토늄	-14777
▁호소카와	-14778
GB	-14779
so	-14780
yn	-14781
▁쿰	-14782
일기	-14783
▁고승	-14784
▁그르	-14785
▁두뇌	-14786
▁부엌	-14787
▁소인	-14788
▁의제	-14789
▁주군	-14790
▁퇴진	-14791
▁행선	-14792
▁회차	-14793
▁CIA	-14794
▁Dra	-14795
▁동남쪽	-14796
▁한국군	-14797
를레	-14798
징어	-14799
▁경합	-14800
▁문물	-14801
▁바야	-14802
▁에페	-14803
▁공주시	-14804
▁아놀드	-14805
▁레닌주의	-14806
▁서바이벌	-14807
▁트라야누스	-14808
계약	-14809
비에	-14810
혈구	-14811
▁AF	-14812
▁복속	-14813
▁제비	-14814
▁판명	-14815
▁펭귄	-14816
▁흐리	-14817
▁Best	-14818
▁기울어지	-14819
▁챠	-14820
▁툼	-14821
oid	-14822
▁GR	-14823
▁논증	-14824
▁소르	-14825
▁송이	-14826
▁여정	-14827
▁차오	-14828
▁카일	-14829
▁518	-14830
▁허베이	-14831
▁현미경	-14832
▁7000	-14833
▁끔	-14834
▁감축	-14835
▁경내	-14836
▁깔리	-14837
▁승낙	-14838
▁시발	-14839
▁원사	-14840
▁재물	-14841
▁지크	-14842
▁캠벨	-14843
▁Bab	-14844
▁개화파	-14845
▁앞바다	-14846
▁에스컬	-14847
▁카리스	-14848
▁트레인	-14849
▁에스컬레이터	-14850
더릭	-14851
토크	-14852
▁곤살	-14853
▁도부	-14854
▁라임	-14855
▁무주	-14856
▁미겔	-14857
▁블랑	-14858
▁세제	-14859
▁제지	-14860
▁퇴치	-14861
▁후회	-14862
▁거머쥐	-14863
▁브리스	-14864
▁오리엔	-14865
▁참전하	-14866
▁콘티넨	-14867
▁돌려보내	-14868
동원	-14869
운수	-14870
▁기닿	-14871
▁민원	-14872
▁스플	-14873
▁아킬	-14874
▁앨라	-14875
▁미트라	-14876
▁스타드	-14877
▁프레슬리	-14878
투리	-14879
▁레크	-14880
▁서품	-14881
▁양천	-14882
▁1700	-14883
▁다카하시	-14884
마을	-14885
재판	-14886
▁Mi	-14887
▁결장	-14888
▁노하	-14889
▁도읍	-14890
▁미러	-14891
▁베다	-14892
▁앞뒤	-14893
▁억울	-14894
▁요도	-14895
▁트림	-14896
▁클레오	-14897
▁페스트	-14898
ict	-14899
▁건지	-14900
▁달력	-14901
▁바젤	-14902
▁소주	-14903
▁달려가	-14904
▁대사간	-14905
▁수백만	-14906
▁울트라	-14907
▁쓰러뜨리	-14908
▁웜	-14909
티지	-14910
ose	-14911
▁로망	-14912
▁북측	-14913
▁산술	-14914
▁산체	-14915
▁루이즈	-14916
▁콜린스	-14917
제철	-14918
▁거병	-14919
▁미켈	-14920
▁숙명	-14921
▁순찰	-14922
▁승률	-14923
▁지령	-14924
▁츠카	-14925
▁타선	-14926
▁통찰	-14927
▁하층	-14928
▁625	-14929
▁사다리	-14930
▁원주시	-14931
▁인류학	-14932
22	-14933
▁랏	-14934
▁얄	-14935
▁켐	-14936
의식	-14937
▁본존	-14938
▁사연	-14939
▁산재	-14940
▁산정	-14941
▁토바	-14942
▁화소	-14943
▁APG	-14944
▁길거리	-14945
▁루카스	-14946
▁아키텐	-14947
▁엘비스	-14948
▁연방군	-14949
▁우에노	-14950
▁이론가	-14951
▁만장일치	-14952
▁아드리아	-14953
장사	-14954
형제	-14955
▁공병	-14956
▁다윗	-14957
▁만지	-14958
▁인계	-14959
▁자백	-14960
▁처마	-14961
▁투사	-14962
▁게이밍	-14963
▁경부선	-14964
▁돌려주	-14965
▁억제제	-14966
▁1859	-14967
▁라이센스	-14968
▁카디널스	-14969
▁프리큐어	-14970
버터	-14971
▁KS	-14972
▁결여	-14973
▁대입	-14974
▁맹렬	-14975
▁상환	-14976
▁롤러	-14977
▁방학	-14978
▁블룸	-14979
▁테헤	-14980
로트	-14981
▁ᆫ단	-14982
▁문건	-14983
▁북인	-14984
▁상설	-14985
▁허물	-14986
▁강화군	-14987
▁서태지	-14988
양구	-14989
▁도안	-14990
▁뒤덮	-14991
▁수질	-14992
▁율리	-14993
▁푸젠	-14994
▁함장	-14995
▁난쟁이	-14996
▁통계학	-14997
▁향신료	-14998
▁짚	-14999
고사	-15000
과학	-15001
무장	-15002
▁se	-15003
▁곡식	-15004
▁구전	-15005
▁김주	-15006
▁네브	-15007
▁만류	-15008
▁명왕	-15009
▁성조	-15010
▁유창	-15011
▁일어	-15012
▁차역	-15013
▁후견	-15014
▁빌바오	-15015
▁이케다	-15016
▁제니퍼	-15017
▁자이언트	-15018
나시	-15019
▁김도	-15020
▁나투	-15021
▁리안	-15022
▁발광	-15023
▁알로	-15024
▁전봉	-15025
▁플랑	-15026
▁헬스	-15027
▁가치관	-15028
▁매니아	-15029
▁아이치	-15030
▁앙드레	-15031
▁아이스크림	-15032
르바	-15033
EEE	-15034
▁니즈	-15035
▁로디	-15036
▁무공	-15037
▁백운	-15038
▁사병	-15039
▁완장	-15040
▁빈센트	-15041
▁자카르타	-15042
▁튀어나오	-15043
장조	-15044
▁us	-15045
▁관아	-15046
▁구가	-15047
▁부식	-15048
▁서체	-15049
▁이만	-15050
▁주포	-15051
▁진심	-15052
▁결의안	-15053
▁곧이어	-15054
▁혼합물	-15055
▁스테파노	-15056
▁뚜껑	-15057
▁멜라	-15058
▁사산	-15059
▁상감	-15060
▁원점	-15061
▁폐차	-15062
▁대혁명	-15063
▁불러오	-15064
▁슈투트	-15065
▁테크놀로지	-15066
▁슈투트가르트	-15067
▁긋	-15068
uck	-15069
▁군기	-15070
▁루드	-15071
▁박찬	-15072
▁선과	-15073
▁수프	-15074
▁의인	-15075
▁일면	-15076
▁카보	-15077
▁피자	-15078
▁홀수	-15079
▁미성년	-15080
▁순천시	-15081
▁아파치	-15082
▁출장소	-15083
▁미야기현	-15084
▁사이클론	-15085
▁뮈	-15086
매기	-15087
배마	-15088
소니	-15089
스톤	-15090
▁금관	-15091
▁왕당	-15092
▁퇴출	-15093
reak	-15094
▁셰퍼드	-15095
▁메모리얼	-15096
▁앨라배마	-15097
플레	-15098
▁소서	-15099
▁오와	-15100
▁중건	-15101
▁타파	-15102
▁튜링	-15103
▁후면	-15104
de	-15105
▁펙	-15106
▁이창	-15107
▁바스크	-15108
▁이치현	-15109
▁소아시아	-15110
남면	-15111
▁모교	-15112
▁바투	-15113
▁발터	-15114
▁보디	-15115
▁안주	-15116
▁어학	-15117
▁예보	-15118
▁태화	-15119
▁터스	-15120
▁가우스	-15121
▁개최지	-15122
▁대제학	-15123
▁순교자	-15124
▁직사각	-15125
▁^	-15126
완다	-15127
vel	-15128
▁레티	-15129
▁모션	-15130
▁수주	-15131
▁340	-15132
▁쓰촨성	-15133
▁안철수	-15134
▁정착지	-15135
▁헬레니즘	-15136
정변	-15137
▁사생	-15138
▁선별	-15139
▁연해	-15140
▁장경	-15141
▁전서	-15142
▁정역	-15143
▁타밀	-15144
▁학창	-15145
▁무신론	-15146
▁브레멘	-15147
▁IEEE	-15148
▁국가원수	-15149
▁크리스틴	-15150
▁Super	-15151
학파	-15152
▁리언	-15153
▁비어	-15154
▁솔리	-15155
▁원만	-15156
▁입찰	-15157
▁자갈	-15158
▁총감	-15159
▁호투	-15160
떨어지	-15161
▁목표물	-15162
▁바빌론	-15163
▁아니면	-15164
▁환승역	-15165
▁안토니우스	-15166
댓값	-15167
▁관군	-15168
▁교재	-15169
▁근간	-15170
▁로보	-15171
▁로코	-15172
▁사탄	-15173
▁스완	-15174
▁오인	-15175
▁호적	-15176
▁화풍	-15177
▁개막식	-15178
▁라그랑	-15179
▁로스트	-15180
▁마코토	-15181
HL	-15182
oo	-15183
▁FF	-15184
▁공석	-15185
▁교감	-15186
▁뉴잉	-15187
▁속국	-15188
▁아누	-15189
▁짝수	-15190
▁코이	-15191
▁하후	-15192
▁국내선	-15193
▁기념장	-15194
▁로저스	-15195
▁무사시	-15196
▁조르주	-15197
티어	-15198
팩스	-15199
▁김학	-15200
▁덮치	-15201
▁도끼	-15202
▁동급	-15203
▁발진	-15204
▁보아	-15205
▁산남	-15206
▁유틸	-15207
▁은지	-15208
▁작자	-15209
게이트	-15210
▁310	-15211
▁des	-15212
▁선제후	-15213
▁실린더	-15214
▁에세이	-15215
▁유틸리티	-15216
나주	-15217
패드	-15218
ail	-15219
▁as	-15220
▁개표	-15221
▁섹션	-15222
▁조회	-15223
▁타라	-15224
▁통감	-15225
레틱스	-15226
▁대관식	-15227
▁볼프강	-15228
▁예문관	-15229
▁Star	-15230
▁그래픽스	-15231
▁오토바이	-15232
▁무형문화재	-15233
▁애슬레틱스	-15234
▁후쿠시마현	-15235
TF	-15236
바퀴	-15237
조류	-15238
▁경원	-15239
▁구라	-15240
▁베가	-15241
▁산인	-15242
▁센타	-15243
▁수구	-15244
▁시력	-15245
▁왕명	-15246
▁용맹	-15247
▁기생충	-15248
▁원정대	-15249
▁탈레반	-15250
▁모니터링	-15251
▁썸	-15252
버라	-15253
주사	-15254
▁거문	-15255
▁과달	-15256
▁교인	-15257
▁도매	-15258
▁뚫리	-15259
▁변성	-15260
▁상층	-15261
▁어지	-15262
▁추장	-15263
▁희미	-15264
공화당	-15265
▁개척자	-15266
▁리바이	-15267
▁1812	-15268
▁선거관리	-15269
▁중앙일보	-15270
▁뉴올리언스	-15271
▁민주공화당	-15272
▁매사추세츠주	-15273
▁선거관리위원회	-15274
디드	-15275
▁my	-15276
▁정청	-15277
▁커리	-15278
▁투기	-15279
▁호화	-15280
▁레이건	-15281
▁슈트라	-15282
▁오슬로	-15283
▁John	-15284
▁나바	-15285
▁아칸	-15286
▁황위	-15287
하마드	-15288
▁디에고	-15289
▁분류학	-15290
▁여러분	-15291
▁해인사	-15292
▁아이파크	-15293
▁콘스탄티누스	-15294
iel	-15295
▁DO	-15296
▁ON	-15297
▁나시	-15298
▁담양	-15299
▁닷컴	-15300
▁도파	-15301
▁메드	-15302
▁버밍	-15303
▁철기	-15304
▁교황령	-15305
▁어우러지	-15306
▁슈트라우스	-15307
▁뽀	-15308
▁ad	-15309
▁기권	-15310
▁무위	-15311
▁보국	-15312
▁세밀	-15313
▁손수	-15314
▁스쿼	-15315
▁슬러	-15316
▁양동	-15317
▁청정	-15318
▁추밀	-15319
▁포상	-15320
▁하강	-15321
▁호국	-15322
▁자본가	-15323
▁합병증	-15324
▁고바야시	-15325
▁아미타불	-15326
gh	-15327
▁Kn	-15328
▁근위	-15329
▁떠돌	-15330
▁박경	-15331
▁시편	-15332
▁유보	-15333
▁평방	-15334
▁Sun	-15335
▁록히드	-15336
▁셀레우	-15337
▁테헤란	-15338
▁한자어	-15339
▁불법행위	-15340
주석	-15341
▁게놈	-15342
▁공경	-15343
▁레저	-15344
▁명륜	-15345
▁빨강	-15346
▁용역	-15347
▁울루	-15348
▁이건	-15349
▁진천	-15350
▁체질	-15351
▁커브	-15352
▁특명	-15353
▁호이	-15354
시아키	-15355
▁you	-15356
▁이광수	-15357
▁후반전	-15358
▁뉴잉글랜드	-15359
RI	-15360
▁당상	-15361
▁부락	-15362
▁수문	-15363
▁토프	-15364
▁단말기	-15365
▁보이즈	-15366
▁에이지	-15367
▁인산화	-15368
▁Soul	-15369
▁아브라함	-15370
구미	-15371
▁걸스	-15372
▁로런	-15373
▁무진	-15374
▁배타	-15375
▁주유	-15376
▁폐하	-15377
▁해커	-15378
▁App	-15379
어놓	-15380
ray	-15381
▁개경	-15382
▁김덕	-15383
▁로컬	-15384
▁수라	-15385
▁정실	-15386
▁충동	-15387
▁퀸스	-15388
▁항문	-15389
▁209	-15390
▁에이브	-15391
▁파르마	-15392
▁북대서양	-15393
OK	-15394
▁IF	-15395
▁가창	-15396
▁과감	-15397
▁관개	-15398
▁논평	-15399
▁소포	-15400
▁수족	-15401
▁식이	-15402
▁아호	-15403
▁조던	-15404
▁지검	-15405
▁천자	-15406
▁청일	-15407
▁총생	-15408
▁카파	-15409
▁코우	-15410
▁공성전	-15411
▁대대장	-15412
▁레코딩	-15413
▁오메가	-15414
▁울주군	-15415
▁Christ	-15416
블릭	-15417
ute	-15418
▁Mr	-15419
▁리퍼	-15420
▁샤오	-15421
▁애호	-15422
▁양념	-15423
▁쿠루	-15424
▁투니	-15425
▁피그	-15426
▁태블릿	-15427
EA	-15428
연맹	-15429
▁귀순	-15430
▁금기	-15431
▁도자	-15432
▁의논	-15433
▁패자	-15434
▁해주	-15435
하우스	-15436
▁게이오	-15437
▁송진우	-15438
▁접미사	-15439
▁주거지	-15440
▁지석묘	-15441
▁ICBM	-15442
▁리바운드	-15443
▁강유	-15444
▁구비	-15445
▁그릴	-15446
▁노마	-15447
▁늦추	-15448
▁안면	-15449
▁카펠	-15450
▁휴일	-15451
▁206	-15452
▁사우디	-15453
▁파르티아	-15454
▁아람	-15455
▁영도	-15456
▁쪼개	-15457
▁풀이	-15458
▁주제가	-15459
▁클라리	-15460
▁페르시	-15461
▁쑹	-15462
탄올	-15463
▁금천	-15464
▁끔찍	-15465
▁당장	-15466
▁법상	-15467
▁속초	-15468
▁유계	-15469
▁장강	-15470
▁장지	-15471
▁점토	-15472
▁천적	-15473
▁풍요	-15474
라이스	-15475
▁르완다	-15476
▁베르사유	-15477
도감	-15478
샤오	-15479
초프	-15480
▁HP	-15481
▁그늘	-15482
▁사파	-15483
▁양원	-15484
▁유상	-15485
▁인척	-15486
▁조우	-15487
▁탄두	-15488
▁스태프	-15489
▁자오선	-15490
▁1879	-15491
59	-15492
▁름	-15493
▁쑨	-15494
화산	-15495
▁NM	-15496
▁Tw	-15497
▁규합	-15498
▁김시	-15499
▁단수	-15500
▁로지	-15501
▁부기	-15502
▁상이	-15503
▁손쉽	-15504
▁지카	-15505
▁집적	-15506
▁남북조	-15507
▁여주인	-15508
▁영사관	-15509
▁음식점	-15510
▁막시밀리	-15511
분투	-15512
자드	-15513
▁고후	-15514
▁니치	-15515
▁듀스	-15516
▁루손	-15517
▁반정	-15518
▁자존	-15519
▁차차	-15520
▁개개인	-15521
▁윤치영	-15522
▁자치현	-15523
▁조광조	-15524
네프	-15525
반정	-15526
▁감당	-15527
▁더라	-15528
▁산동	-15529
▁유세	-15530
▁카토	-15531
▁콜론	-15532
▁쿠시	-15533
▁747	-15534
▁백두산	-15535
▁안데스	-15536
▁엘리스	-15537
▁알렉세이	-15538
▁군마	-15539
▁모태	-15540
▁부화	-15541
▁불문	-15542
▁유민	-15543
▁자석	-15544
▁춘계	-15545
▁현수	-15546
▁효능	-15547
로세서	-15548
▁고지대	-15549
▁에다가	-15550
▁여수시	-15551
▁카지노	-15552
▁트리스	-15553
▁ᆯ지라도	-15554
16	-15555
네오	-15556
방스	-15557
티보	-15558
▁동맥	-15559
▁두부	-15560
▁딱딱	-15561
▁범람	-15562
▁아로	-15563
▁역동	-15564
▁위축	-15565
▁이코	-15566
▁독재자	-15567
▁삼거리	-15568
▁아이작	-15569
▁연대장	-15570
▁의병장	-15571
▁피어스	-15572
▁금리	-15573
▁농담	-15574
▁시타	-15575
▁중등	-15576
▁흐트	-15577
▁광합성	-15578
무지	-15579
▁NX	-15580
▁갑신	-15581
▁맞배	-15582
▁비오	-15583
▁성자	-15584
▁자각	-15585
를레앙	-15586
▁420	-15587
▁로널드	-15588
▁선수상	-15589
▁조봉암	-15590
▁페이퍼	-15591
▁유럽연합	-15592
YP	-15593
▁꽝	-15594
다임	-15595
슐리	-15596
▁PA	-15597
▁반납	-15598
▁정맥	-15599
▁카다	-15600
▁힐스	-15601
로그램	-15602
▁석회암	-15603
▁남경	-15604
▁대등	-15605
▁대여	-15606
▁라쿠	-15607
▁불능	-15608
▁빛깔	-15609
▁스킨	-15610
▁양정	-15611
▁전열	-15612
▁초식	-15613
▁국방군	-15614
17	-15615
▁쿵	-15616
산업	-15617
▁Gu	-15618
▁낯설	-15619
▁반향	-15620
▁상회	-15621
▁소량	-15622
▁수아	-15623
▁앙상	-15624
▁잇달	-15625
▁장이	-15626
▁호시	-15627
스트림	-15628
▁Win	-15629
▁바닷가	-15630
▁건국훈장	-15631
면적	-15632
일체	-15633
▁국문	-15634
▁나토	-15635
▁동대	-15636
▁머큐	-15637
▁시영	-15638
▁원한	-15639
▁CoA	-15640
▁사가미	-15641
▁패러다임	-15642
▁둠	-15643
▁뜯	-15644
▁퀼	-15645
수지	-15646
ual	-15647
▁무패	-15648
▁실베	-15649
▁영종	-15650
▁오웬	-15651
▁인삼	-15652
▁촐라	-15653
▁컬링	-15654
▁킬러	-15655
▁폴로	-15656
▁버스터	-15657
▁재결합	-15658
▁일렉트로닉	-15659
태자	-15660
▁내시	-15661
▁온전	-15662
▁클럭	-15663
▁440	-15664
▁변호인	-15665
▁제이크	-15666
▁즐거움	-15667
▁테크노	-15668
▁항생제	-15669
▁반달	-15670
▁부트	-15671
▁안락	-15672
▁유관	-15673
▁제고	-15674
▁군주제	-15675
▁니가타	-15676
▁여행자	-15677
리아누스	-15678
▁포틀랜드	-15679
링크	-15680
박이	-15681
ull	-15682
▁"'	-15683
▁RA	-15684
▁권투	-15685
▁능숙	-15686
▁두스	-15687
▁먼로	-15688
▁압수	-15689
▁일보	-15690
▁투병	-15691
▁할로	-15692
▁호찌	-15693
▁리그컵	-15694
▁바레인	-15695
▁으리라	-15696
▁플래닛	-15697
▁엔지니어링	-15698
▁Record	-15699
울루	-15700
의금	-15701
▁스텐	-15702
▁열람	-15703
▁이설	-15704
▁임실	-15705
▁할구	-15706
▁항전	-15707
▁랴오닝	-15708
▁수영장	-15709
▁알칼리	-15710
▁암스트	-15711
▁야구부	-15712
▁영화관	-15713
▁요나라	-15714
▁접근성	-15715
▁들어올리	-15716
선교	-15717
장군	-15718
▁고독	-15719
▁노역	-15720
▁대방	-15721
▁바바	-15722
▁전곡	-15723
▁화이	-15724
▁Per	-15725
▁크리스탈	-15726
▁Intern	-15727
발트	-15728
신보	-15729
VID	-15730
▁강가	-15731
▁사목	-15732
▁요셉	-15733
▁이석	-15734
▁증축	-15735
▁후추	-15736
▁글리제	-15737
▁부추기	-15738
▁불거지	-15739
▁스텔스	-15740
▁실리콘	-15741
▁오우치	-15742
▁ㄹ로	-15743
▁고요	-15744
▁끊이	-15745
▁매복	-15746
▁멘델	-15747
▁사체	-15748
▁산투스	-15749
▁지극히	-15750
▁KD	-15751
▁기한	-15752
▁리노	-15753
▁접목	-15754
▁최용	-15755
▁코인	-15756
▁행운	-15757
▁환산	-15758
▁256	-15759
▁본거지	-15760
▁호기심	-15761
바이러스	-15762
능력	-15763
대비	-15764
▁광시	-15765
▁기시	-15766
▁기피	-15767
▁도나	-15768
▁바타	-15769
▁소진	-15770
▁솔직	-15771
▁오차	-15772
▁처칠	-15773
▁체리	-15774
▁911	-15775
▁기본법	-15776
▁베이직	-15777
▁스위트	-15778
▁유기체	-15779
▁잠비아	-15780
▁그러다가	-15781
▁다마스쿠스	-15782
▁아우구스트	-15783
▁미타	-15784
▁성형	-15785
▁정직	-15786
▁제방	-15787
▁치킨	-15788
▁225	-15789
▁Str	-15790
▁깨어나	-15791
▁살아오	-15792
▁엔리케	-15793
▁이회창	-15794
▁조용히	-15795
▁토론회	-15796
▁판매고	-15797
▁2500	-15798
▁원종공신	-15799
▁MD	-15800
▁문어	-15801
▁앉히	-15802
▁열거	-15803
▁준하	-15804
▁트램	-15805
▁을수록	-15806
▁타지키스탄	-15807
로로	-15808
쿠치	-15809
▁po	-15810
▁가결	-15811
▁노엘	-15812
▁담수	-15813
▁시온	-15814
▁왕릉	-15815
▁왕좌	-15816
▁우디	-15817
▁바실리	-15818
▁양산시	-15819
▁엘리엇	-15820
▁대법원장	-15821
니에	-15822
▁내기	-15823
▁동하	-15824
▁멘토	-15825
▁봉분	-15826
▁우타	-15827
▁중신	-15828
▁탈피	-15829
고로드	-15830
▁연금술	-15831
데오	-15832
레미	-15833
스틱	-15834
▁mu	-15835
▁담임	-15836
▁미녀	-15837
▁성현	-15838
▁양구	-15839
▁왕녀	-15840
▁워낙	-15841
▁콜리	-15842
▁Hot	-15843
▁디스코	-15844
▁렌더링	-15845
▁초고층	-15846
▁총생산	-15847
▁후유증	-15848
▁'.	-15849
▁교명	-15850
▁균등	-15851
▁동두	-15852
▁리지	-15853
▁만물	-15854
▁사조	-15855
▁성교	-15856
▁수표	-15857
▁아역	-15858
▁악어	-15859
▁응력	-15860
▁코니	-15861
▁탄력	-15862
▁피질	-15863
ions	-15864
▁고다이	-15865
▁네바다	-15866
▁습니까	-15867
▁잠재력	-15868
▁제시카	-15869
▁춘천시	-15870
▁주머니쥐	-15871
▁쐐	-15872
▁nm	-15873
▁강자	-15874
▁군도	-15875
▁노름	-15876
▁브이	-15877
▁사나	-15878
▁신익	-15879
▁영성	-15880
▁용문	-15881
▁윤곽	-15882
▁맞물리	-15883
▁비행사	-15884
▁왕당파	-15885
▁프리드	-15886
길준	-15887
로움	-15888
▁CA	-15889
▁궁주	-15890
▁득실	-15891
▁로만	-15892
▁사스	-15893
▁원곡	-15894
▁카츠	-15895
▁헐리	-15896
▁히코	-15897
레이즈	-15898
▁생산자	-15899
▁시에라	-15900
▁오토모	-15901
▁카스텔	-15902
▁허버트	-15903
▁독립선언	-15904
▁public	-15905
ty	-15906
는점	-15907
피카	-15908
황제	-15909
▁곱하	-15910
▁광동	-15911
▁교내	-15912
▁동체	-15913
▁무소	-15914
▁북마	-15915
▁세타	-15916
▁실책	-15917
▁쌍용	-15918
▁쐐기	-15919
▁유미	-15920
▁은평	-15921
▁이보	-15922
▁이한	-15923
▁파출	-15924
▁길버트	-15925
▁부서지	-15926
▁앙상블	-15927
▁예비군	-15928
▁웨슬리	-15929
▁이세이	-15930
▁지배하	-15931
25	-15932
▁앳	-15933
덕궁	-15934
스텐	-15935
ors	-15936
▁HS	-15937
▁관저	-15938
▁대용	-15939
▁애프	-15940
▁여관	-15941
▁조율	-15942
▁캅카스	-15943
▁Kore	-15944
▁드래곤즈	-15945
빨리	-15946
인산	-15947
자나	-15948
▁거품	-15949
▁교학	-15950
▁구명	-15951
▁라사	-15952
▁마거	-15953
▁환초	-15954
▁오나라	-15955
▁프린세스	-15956
▁print	-15957
무트	-15958
RNA	-15959
▁Ke	-15960
▁강타	-15961
▁명동	-15962
▁유독	-15963
▁즉흥	-15964
▁지브	-15965
▁코일	-15966
▁호지	-15967
▁마운틴	-15968
▁부러지	-15969
▁브릿지	-15970
▁사무엘	-15971
▁유물론	-15972
ll	-15973
▁농협	-15974
▁미디	-15975
▁생김	-15976
▁셔츠	-15977
▁스팀	-15978
▁종실	-15979
▁방법론	-15980
▁와이어	-15981
▁주둔지	-15982
▁추축국	-15983
▁1789	-15984
▁기타큐슈	-15985
▁리치먼드	-15986
라과	-15987
불명	-15988
커우	-15989
훈련	-15990
▁OK	-15991
▁누마	-15992
▁접시	-15993
▁침수	-15994
▁파피	-15995
▁머큐리	-15996
▁프로필	-15997
▁탄수화물	-15998
▁플랑드르	-15999
이상	-16000
▁가전	-16001
▁구애	-16002
▁군림	-16003
▁던전	-16004
▁동률	-16005
▁예쁘	-16006
▁장차	-16007
▁제타	-16008
▁채집	-16009
▁춘향	-16010
▁커넥	-16011
▁향로	-16012
▁흉내	-16013
▁고스트	-16014
▁디아스	-16015
▁브루노	-16016
▁오이타	-16017
▁유도탄	-16018
▁이마가와	-16019
포리	-16020
▁노골	-16021
▁녹이	-16022
▁느슨	-16023
▁석재	-16024
▁성부	-16025
▁아구	-16026
▁우니	-16027
▁진성	-16028
ames	-16029
▁오리건	-16030
▁제품군	-16031
▁조연상	-16032
▁콜라보	-16033
▁천문단위	-16034
▁베오그라드	-16035
평면	-16036
▁'-	-16037
▁NL	-16038
▁깊숙	-16039
▁정중	-16040
▁현관	-16041
▁흡입	-16042
리오스	-16043
▁내몽골	-16044
▁다행히	-16045
▁알베르	-16046
▁인문학	-16047
▁1801	-16048
▁NATO	-16049
자락	-16050
▁Fl	-16051
▁도식	-16052
▁소노	-16053
▁진위	-16054
▁칠곡	-16055
lect	-16056
ogle	-16057
▁208	-16058
▁제노바	-16059
▁Back	-16060
▁캥	-16061
다스	-16062
던스	-16063
모닉	-16064
차리	-16065
ove	-16066
▁가령	-16067
▁겨냥	-16068
▁공평	-16069
▁도화	-16070
▁무루	-16071
▁신천	-16072
▁청중	-16073
▁타키	-16074
▁트론	-16075
▁급속도	-16076
▁사법부	-16077
▁사천왕	-16078
▁아미타여래	-16079
▁강구	-16080
▁야만	-16081
▁유익	-16082
▁이크	-16083
▁재심	-16084
▁중학	-16085
▁치밀	-16086
던지기	-16087
▁예수교	-16088
▁클라인	-16089
▁흘러가	-16090
▁니카라과	-16091
▁돼지고기	-16092
GO	-16093
▁박태	-16094
▁안건	-16095
▁첫날	-16096
▁카인	-16097
▁트럼펫	-16098
▁1400	-16099
▁미식축구	-16100
제사	-16101
▁다채	-16102
▁라테	-16103
▁부안	-16104
▁생장	-16105
▁열기	-16106
▁전과	-16107
▁최순	-16108
▁통킹	-16109
▁함의	-16110
프리드	-16111
▁동일시	-16112
▁브루크	-16113
▁영문학	-16114
▁영장류	-16115
▁조제프	-16116
ox	-16117
레븐	-16118
▁BO	-16119
▁Cr	-16120
▁결투	-16121
▁교란	-16122
▁군량	-16123
▁균열	-16124
▁악의	-16125
▁안시	-16126
▁유감	-16127
▁초석	-16128
▁초판	-16129
▁탄성	-16130
▁후난	-16131
▁붉은색	-16132
▁아르테	-16133
▁킵	-16134
▁가변	-16135
▁김장	-16136
▁부이	-16137
▁승마	-16138
▁양위	-16139
▁총국	-16140
▁캡틴	-16141
▁코디	-16142
▁표어	-16143
▁호전	-16144
▁370	-16145
▁거듭나	-16146
▁나카노	-16147
▁유길준	-16148
▁제주시	-16149
▁항소심	-16150
▁Amer	-16151
▁암스트롱	-16152
▁이성질체	-16153
득점	-16154
파니	-16155
▁기일	-16156
▁소마	-16157
▁약품	-16158
▁얼리	-16159
▁유재	-16160
▁책정	-16161
▁코딩	-16162
▁핼리	-16163
▁Res	-16164
▁War	-16165
▁광주시	-16166
▁남아공	-16167
▁동북부	-16168
▁미요시	-16169
▁방문객	-16170
▁페라리	-16171
노스아이	-16172
▁생물학자	-16173
▁항공우주	-16174
▁해수욕장	-16175
▁셀레우코스	-16176
노스아이레스	-16177
▁부에노스아이레스	-16178
▁렬	-16179
▁격침	-16180
▁격화	-16181
▁굳이	-16182
▁김은	-16183
▁본능	-16184
▁실태	-16185
▁약수	-16186
▁어인	-16187
▁예편	-16188
▁이가	-16189
▁폭주	-16190
▁Mag	-16191
▁기네스	-16192
▁어드밴	-16193
▁해수면	-16194
▁이리하여	-16195
▁소크라테스	-16196
▁갸	-16197
▁고관	-16198
▁궁수	-16199
▁사일	-16200
▁신궁	-16201
▁알마	-16202
▁에픽	-16203
▁운석	-16204
▁직각	-16205
▁흑색	-16206
▁Get	-16207
▁만주족	-16208
▁리하르트	-16209
▁폼페이우스	-16210
▁고는	-16211
▁매듭	-16212
▁명장	-16213
▁황하	-16214
▁GPS	-16215
▁들여오	-16216
▁메신저	-16217
▁사망률	-16218
▁요시카	-16219
그라운드	-16220
▁비로자나	-16221
월드	-16222
처럼	-16223
let	-16224
▁BB	-16225
▁서곡	-16226
▁수화	-16227
▁천태	-16228
▁철근	-16229
▁출정	-16230
▁출항	-16231
▁MIT	-16232
▁디렉터	-16233
▁로런스	-16234
▁베테랑	-16235
▁타일러	-16236
▁태양광	-16237
▁트로츠키	-16238
▁둑	-16239
▁뿜	-16240
▁씬	-16241
enn	-16242
▁구부	-16243
▁나날	-16244
▁무쓰	-16245
▁배지	-16246
▁오랑	-16247
▁하세	-16248
inal	-16249
▁마거릿	-16250
▁Baby	-16251
▁남한산성	-16252
▁레오나르	-16253
UM	-16254
▁DA	-16255
▁니트	-16256
▁듀엣	-16257
▁발열	-16258
▁비방	-16259
▁윈드	-16260
▁효모	-16261
▁라이드	-16262
▁부천시	-16263
▁스펜서	-16264
▁양평군	-16265
▁주세페	-16266
ology	-16267
가요	-16268
경찰	-16269
심원	-16270
▁개축	-16271
▁결단	-16272
▁결렬	-16273
▁공지	-16274
▁관원	-16275
▁국산	-16276
▁미끄	-16277
▁미로	-16278
▁박동	-16279
▁생포	-16280
▁장론	-16281
▁제헌	-16282
▁탄광	-16283
▁해내	-16284
▁호박	-16285
▁화교	-16286
▁아열대	-16287
▁작아지	-16288
남동	-16289
덱스	-16290
든가	-16291
메랄	-16292
오드	-16293
▁극회	-16294
▁누에	-16295
▁민선	-16296
▁승선	-16297
▁장승	-16298
▁쟁점	-16299
▁조엘	-16300
▁허구	-16301
▁블러드	-16302
▁모노이드	-16303
TN	-16304
▁Dr	-16305
▁개리	-16306
▁공훈	-16307
▁그간	-16308
▁다라	-16309
▁대소	-16310
▁레반	-16311
▁비고	-16312
▁사옥	-16313
▁수선	-16314
▁예일	-16315
▁증류	-16316
▁지회	-16317
▁청군	-16318
▁카불	-16319
▁한정판	-16320
▁알아차리	-16321
▁안티오키아	-16322
금속	-16323
무실	-16324
▁결집	-16325
▁군위	-16326
▁기교	-16327
▁도보	-16328
▁총수	-16329
▁출병	-16330
▁친히	-16331
▁캔터	-16332
▁365	-16333
▁Way	-16334
▁모터쇼	-16335
▁민의원	-16336
▁부사장	-16337
▁사이다	-16338
▁스트라	-16339
▁시나노	-16340
▁이유로	-16341
▁이지스	-16342
▁정몽주	-16343
▁선거인단	-16344
니츠	-16345
시카	-16346
입자	-16347
▁PH	-16348
▁니체	-16349
▁베아	-16350
▁봉헌	-16351
▁악역	-16352
▁죄인	-16353
▁필로	-16354
▁감마선	-16355
▁혈액형	-16356
▁게오르기	-16357
▁서귀포시	-16358
당류	-16359
테일	-16360
▁굴욕	-16361
▁명중	-16362
▁불길	-16363
▁연어	-16364
▁외가	-16365
▁충고	-16366
▁카노	-16367
▁학도	-16368
▁효성	-16369
▁리카르	-16370
▁쌍방울	-16371
▁전망대	-16372
ature	-16373
▁로베르트	-16374
가키	-16375
락부	-16376
▁고취	-16377
▁기형	-16378
▁산마	-16379
▁에인	-16380
▁으뜸	-16381
▁해머	-16382
이즈미	-16383
▁직할시	-16384
▁리얼리티	-16385
▁이오니아	-16386
▁프레더릭	-16387
나비	-16388
백색	-16389
컨드	-16390
app	-16391
ons	-16392
ret	-16393
▁도난	-16394
▁도량	-16395
▁벅스	-16396
▁북송	-16397
▁사계	-16398
▁설과	-16399
▁영위	-16400
▁키치	-16401
코비치	-16402
▁TOP	-16403
▁다카시	-16404
▁리그전	-16405
▁범어사	-16406
▁선데이	-16407
▁시아파	-16408
▁태극기	-16409
▁Cent	-16410
▁라이온스	-16411
▁SG	-16412
▁SW	-16413
▁갑오	-16414
▁담그	-16415
▁변조	-16416
▁창씨	-16417
▁콘셉	-16418
▁토하	-16419
▁국무부	-16420
▁대학살	-16421
▁도나우	-16422
▁신안군	-16423
▁알레산	-16424
▁이치로	-16425
▁지포스	-16426
▁함부로	-16427
의금부사	-16428
▁에두아르	-16429
▁System	-16430
FS	-16431
za	-16432
갱이	-16433
즈미	-16434
현실	-16435
▁결실	-16436
▁레르	-16437
▁맞닿	-16438
▁매튜	-16439
▁선서	-16440
▁스틱	-16441
▁풋살	-16442
피에르	-16443
▁디나모	-16444
▁프린터	-16445
▁1815	-16446
▁아르바이트	-16447
▁경산	-16448
▁리서	-16449
▁살레	-16450
▁성찬	-16451
▁세도	-16452
▁습도	-16453
▁에든	-16454
▁전극	-16455
▁주스	-16456
▁토의	-16457
▁특혜	-16458
말라야	-16459
▁Dis	-16460
▁무정부	-16461
▁일제히	-16462
▁피드백	-16463
▁필리스	-16464
▁에든버러	-16465
랭크	-16466
민정	-16467
▁롤리	-16468
▁사악	-16469
▁인노	-16470
▁장서	-16471
▁쿠사	-16472
▁틈타	-16473
▁퍼플	-16474
▁하츠	-16475
▁합장	-16476
▁207	-16477
▁김종직	-16478
▁생김새	-16479
▁세컨드	-16480
▁압둘라	-16481
▁야행성	-16482
▁유공자	-16483
▁전동기	-16484
▁포인터	-16485
로프로세서	-16486
▁마이크로프로세서	-16487
▁욘	-16488
▁공해	-16489
▁기주	-16490
▁모잠	-16491
▁발라	-16492
▁사보	-16493
▁새해	-16494
▁천리	-16495
▁트롤	-16496
▁한꺼	-16497
ater	-16498
▁가디언	-16499
▁농민군	-16500
▁조합원	-16501
▁1820	-16502
▁모잠비크	-16503
▁한꺼번에	-16504
▁낸	-16505
카라	-16506
ina	-16507
▁깁슨	-16508
▁서역	-16509
▁월경	-16510
▁위배	-16511
▁잔치	-16512
▁테살	-16513
▁강릉시	-16514
▁모델링	-16515
▁일진회	-16516
▁지팡이	-16517
▁훅	-16518
마니	-16519
▁공보	-16520
▁베컴	-16521
▁본진	-16522
▁소탕	-16523
▁음역	-16524
▁이구	-16525
▁조너	-16526
▁종단	-16527
▁하카	-16528
지먼트	-16529
▁노무라	-16530
▁두더지	-16531
▁혁명가	-16532
▁필하모닉	-16533
▁매니지먼트	-16534
▁폴리네시아	-16535
24	-16536
▁기근	-16537
▁김석	-16538
▁당사	-16539
▁성내	-16540
▁슐레	-16541
▁이삭	-16542
▁자막	-16543
▁직류	-16544
▁펜스	-16545
▁헬로	-16546
ange	-16547
▁미우라	-16548
▁고고학자	-16549
▁마쓰모토	-16550
▁서대문구	-16551
▁히말라야	-16552
▁레닌그라드	-16553
▁쥘	-16554
▁격상	-16555
▁견지	-16556
▁녹말	-16557
▁달마	-16558
▁디펜	-16559
▁만수	-16560
▁분담	-16561
▁비이	-16562
▁아약	-16563
▁에뮬	-16564
▁음양	-16565
▁조나	-16566
▁피시	-16567
▁그리드	-16568
▁연습생	-16569
▁오스트로	-16570
▁막시밀리안	-16571
실험	-16572
▁로제	-16573
▁마취	-16574
▁시차	-16575
▁전란	-16576
▁헤지	-16577
▁형광	-16578
▁휴먼	-16579
어들이	-16580
▁Tra	-16581
▁오징어	-16582
▁페레스	-16583
▁후베이	-16584
▁High	-16585
ux	-16586
달음	-16587
러기	-16588
▁경구	-16589
▁더빙	-16590
▁마초	-16591
▁미완	-16592
▁미추	-16593
▁상해	-16594
▁신안	-16595
▁옵티	-16596
▁정현	-16597
▁특위	-16598
▁학생회	-16599
▁카롤루스	-16600
토바	-16601
▁술집	-16602
▁전액	-16603
▁좌랑	-16604
▁징후	-16605
▁코넬	-16606
▁태상	-16607
▁한라	-16608
▁Int	-16609
▁넘어지	-16610
▁노르트	-16611
▁적절히	-16612
▁체육회	-16613
▁프로방스	-16614
광사	-16615
라나	-16616
쓰네	-16617
▁노총	-16618
▁담장	-16619
▁마도	-16620
▁융기	-16621
▁지반	-16622
▁출루	-16623
▁퇴계	-16624
스티안	-16625
▁마피아	-16626
▁아드리	-16627
▁지방도	-16628
▁알베르트	-16629
▁써	-16630
자유	-16631
ley	-16632
▁FS	-16633
▁기민	-16634
▁발췌	-16635
▁세실	-16636
▁앨버	-16637
▁쿠리	-16638
▁프록	-16639
▁피쳐	-16640
▁USA	-16641
▁광화문	-16642
▁군산시	-16643
▁선언문	-16644
▁아약스	-16645
▁액티브	-16646
▁조병옥	-16647
▁트랜싯	-16648
▁1858	-16649
▁밈	-16650
▁엎	-16651
스테	-16652
퍼트	-16653
▁기욤	-16654
▁데니	-16655
▁위태	-16656
▁지뢰	-16657
가하라	-16658
▁Mac	-16659
▁Not	-16660
▁수증기	-16661
▁크레타	-16662
▁프렌즈	-16663
▁천연가스	-16664
▁알렉산드라	-16665
▁캔자스시티	-16666
▁귤	-16667
거루	-16668
베인	-16669
비츠	-16670
적분	-16671
▁관대	-16672
▁낙태	-16673
▁만연	-16674
▁매질	-16675
▁소켓	-16676
▁아토	-16677
▁양분	-16678
▁엠블	-16679
▁완산	-16680
▁육박	-16681
▁초당	-16682
▁퀘이	-16683
▁탈리	-16684
▁테드	-16685
▁핑계	-16686
▁도치기	-16687
▁목포시	-16688
▁평상시	-16689
▁챈	-16690
운전	-16691
전쟁	-16692
▁대정	-16693
▁로어	-16694
▁안재	-16695
▁제법	-16696
▁콤비	-16697
▁튀기	-16698
▁포섭	-16699
▁노트북	-16700
▁라쿠텐	-16701
▁분홍색	-16702
▁마그네슘	-16703
▁알베르토	-16704
att	-16705
▁광서	-16706
▁군집	-16707
▁기악	-16708
▁당명	-16709
▁수훈	-16710
▁엠마	-16711
▁율령	-16712
▁주상	-16713
▁토드	-16714
▁허들	-16715
▁MLB	-16716
▁관찰자	-16717
▁중심핵	-16718
▁파블로	-16719
▁Type	-16720
▁조선왕조실록	-16721
▁고택	-16722
▁납품	-16723
▁농작	-16724
▁도표	-16725
▁스쿠	-16726
▁스팅	-16727
▁깨달음	-16728
▁모조리	-16729
▁베일리	-16730
▁비올라	-16731
▁안티고	-16732
▁티무르	-16733
데냐	-16734
사랑	-16735
싸움	-16736
▁군비	-16737
▁급사	-16738
▁말소	-16739
▁보카	-16740
▁수강	-16741
▁좌천	-16742
▁합산	-16743
▁효용	-16744
▁마에다	-16745
▁밀어내	-16746
▁수도사	-16747
▁스와프	-16748
▁신익희	-16749
▁보호구역	-16750
▁사르데냐	-16751
▁암모니아	-16752
▁동아프리카	-16753
정제	-16754
▁고갈	-16755
▁궁내	-16756
▁급기	-16757
▁달래	-16758
▁마고	-16759
▁바하	-16760
▁애쓰	-16761
▁우대	-16762
▁재주	-16763
▁펠레	-16764
▁막아내	-16765
▁연구실	-16766
▁조너선	-16767
▁플래그	-16768
▁1814	-16769
▁자연주의	-16770
▁class	-16771
토쿠	-16772
▁견훤	-16773
▁군락	-16774
▁남궁	-16775
▁동티	-16776
▁보육	-16777
▁아핀	-16778
▁알렌	-16779
▁에린	-16780
▁열망	-16781
▁우이	-16782
▁이철	-16783
▁총액	-16784
▁풍수	-16785
▁학급	-16786
▁혼돈	-16787
정보부	-16788
▁ᄇ니까	-16789
▁고조선	-16790
▁넘어오	-16791
▁스타인	-16792
▁시게루	-16793
▁크라스	-16794
▁무궁화호	-16795
식스	-16796
촌동	-16797
코인	-16798
ART	-16799
▁갈비	-16800
▁로타	-16801
▁모식	-16802
▁부탄	-16803
▁비욘	-16804
▁수의	-16805
▁애매	-16806
▁의왕	-16807
▁정공	-16808
▁제보	-16809
▁진구	-16810
▁총살	-16811
▁키아	-16812
▁푸틴	-16813
지스터	-16814
▁날아오	-16815
▁리포트	-16816
▁스레드	-16817
▁플라자	-16818
▁서아시아	-16819
기둥	-16820
▁감탄	-16821
▁독실	-16822
▁소정	-16823
▁아말	-16824
▁용접	-16825
▁원생	-16826
▁유승	-16827
▁전집	-16828
▁증직	-16829
▁직권	-16830
▁290	-16831
▁IEC	-16832
▁WHO	-16833
▁니스트	-16834
▁성명서	-16835
▁정확도	-16836
▁클라이맥스	-16837
뉴스	-16838
동리	-16839
마일	-16840
재단	-16841
▁간지	-16842
▁니라	-16843
▁덕수	-16844
▁마틸	-16845
▁민가	-16846
▁벨벳	-16847
▁비호	-16848
▁성제	-16849
▁완주	-16850
▁장택	-16851
▁정일	-16852
▁증원	-16853
▁Art	-16854
▁사이공	-16855
▁주교좌	-16856
▁혁명군	-16857
▁1300	-16858
▁샌드위치	-16859
▁토스카나	-16860
▁그리스도교	-16861
▁그리스도인	-16862
OVE	-16863
▁Of	-16864
▁괴뢰	-16865
▁북상	-16866
▁아루	-16867
▁열풍	-16868
▁팬아	-16869
▁헬렌	-16870
플레잉	-16871
▁봉수대	-16872
▁커티스	-16873
▁그래미상	-16874
▁롤플레잉	-16875
▁자유민주	-16876
▁프로이트	-16877
▁트랜지스터	-16878
que	-16879
▁구자	-16880
▁귀하	-16881
▁노화	-16882
▁랜덤	-16883
▁만기	-16884
▁미자	-16885
▁영재	-16886
▁정과	-16887
▁패드	-16888
▁TBC	-16889
▁교토부	-16890
▁유성구	-16891
▁지방관	-16892
▁취약점	-16893
▁패트리	-16894
▁type	-16895
▁맞배지붕	-16896
▁서프랑크	-16897
▁세키가하라	-16898
거성	-16899
전차	-16900
enc	-16901
▁루지	-16902
▁리츠	-16903
▁머피	-16904
▁버거	-16905
▁승전	-16906
▁실크	-16907
▁아픔	-16908
▁약학	-16909
▁우도	-16910
▁패퇴	-16911
▁훈족	-16912
▁전철역	-16913
▁타블로	-16914
▁프리킥	-16915
살바도르	-16916
▁플레이스	-16917
▁여러해살이풀	-16918
yle	-16919
▁EN	-16920
▁레딧	-16921
▁면은	-16922
▁목화	-16923
▁문성	-16924
▁바사	-16925
▁신관	-16926
▁씨름	-16927
▁옥상	-16928
▁이덕	-16929
▁잊히	-16930
▁지층	-16931
▁캐럴	-16932
▁토비	-16933
▁포진	-16934
▁공기업	-16935
▁상대론	-16936
▁하모니	-16937
▁페더레이션	-16938
BN	-16939
널목	-16940
회원	-16941
alk	-16942
▁ED	-16943
▁Vf	-16944
▁리온	-16945
▁미에	-16946
▁아랑	-16947
▁암초	-16948
▁얼터	-16949
▁웅진	-16950
▁춤추	-16951
▁흥덕	-16952
▁LCK	-16953
▁건널목	-16954
▁겨울철	-16955
▁아쿠아	-16956
▁파출소	-16957
▁평의원	-16958
▁What	-16959
▁산업단지	-16960
▁크리스천	-16961
ye	-16962
▁뱌	-16963
고나	-16964
구멍	-16965
▁게일	-16966
▁규장	-16967
▁소치	-16968
▁헤임	-16969
씨식물	-16970
▁MHz	-16971
▁대항해	-16972
▁맞대결	-16973
▁미시간	-16974
▁변속기	-16975
▁스타즈	-16976
▁에히메	-16977
▁창업자	-16978
▁아나키즘	-16979
▁병인	-16980
▁보궐	-16981
▁소도	-16982
▁포교	-16983
▁할양	-16984
학생회	-16985
ough	-16986
▁Med	-16987
▁건너편	-16988
▁다면체	-16989
▁등록금	-16990
▁성북구	-16991
▁수번뇌	-16992
▁우승컵	-16993
▁중서부	-16994
▁충주시	-16995
▁아오모리현	-16996
건적	-16997
ger	-16998
▁Di	-16999
▁kW	-17000
▁구석	-17001
▁려다	-17002
▁올랭	-17003
▁238	-17004
▁남조선	-17005
▁넥스트	-17006
▁재빨리	-17007
▁초대칭	-17008
▁키워드	-17009
▁With	-17010
▁수마트라	-17011
▁요시아키	-17012
▁총학생회	-17013
ING	-17014
▁민권	-17015
▁선회	-17016
▁세베	-17017
▁인대	-17018
▁장조	-17019
▁직함	-17020
▁파드	-17021
▁홍천	-17022
▁나가노	-17023
▁보행자	-17024
▁윤리학	-17025
▁평택시	-17026
▁포스코	-17027
▁1795	-17028
▁아틀레틱	-17029
▁Google	-17030
TR	-17031
▁렝	-17032
르모	-17033
천국	-17034
▁개전	-17035
▁경이	-17036
▁드니	-17037
▁레미	-17038
▁매춘	-17039
▁미숙	-17040
▁석등	-17041
▁순정	-17042
▁스톨	-17043
▁일람	-17044
네소스	-17045
독립당	-17046
▁850	-17047
▁원정군	-17048
▁홉킨스	-17049
▁카테고리	-17050
▁한국독립당	-17051
▁윔	-17052
림동	-17053
▁과부	-17054
▁김세	-17055
▁독소	-17056
▁멜론	-17057
▁쇠약	-17058
▁아난	-17059
▁우사	-17060
▁윈터	-17061
▁이효	-17062
▁정여	-17063
▁켈빈	-17064
▁페터	-17065
▁하디	-17066
▁헨드	-17067
주니어	-17068
▁남반구	-17069
▁트루먼	-17070
▁포위전	-17071
▁갑신정변	-17072
팽이	-17073
▁내수	-17074
▁마는	-17075
▁몬태	-17076
▁브람	-17077
▁수렵	-17078
▁에런	-17079
▁윗면	-17080
▁이국	-17081
▁차분	-17082
▁첨부	-17083
▁페데	-17084
디우스	-17085
▁480	-17086
▁메이트	-17087
▁베드로	-17088
▁블루어	-17089
▁석가여래	-17090
▁어드밴스	-17091
▁언어학자	-17092
▁중앙정보부	-17093
▁줌	-17094
니코	-17095
렁이	-17096
부미	-17097
▁월북	-17098
▁웰스	-17099
▁유시	-17100
▁익산시	-17101
▁통신부	-17102
▁MPEG	-17103
▁드레이크	-17104
▁디렉터리	-17105
▁사탕수수	-17106
▁여주인공	-17107
▁키르기스스탄	-17108
▁깡	-17109
▁국지	-17110
▁니나	-17111
▁니콘	-17112
▁도정	-17113
▁민생	-17114
▁반야	-17115
▁부녀	-17116
▁장준	-17117
▁정병	-17118
▁코지	-17119
▁국문학	-17120
▁로렌초	-17121
▁여객선	-17122
▁다리우스	-17123
▁하이웨이	-17124
대성	-17125
블린	-17126
▁PP	-17127
▁도색	-17128
▁루머	-17129
▁여과	-17130
▁유원	-17131
▁특례	-17132
▁공직자	-17133
▁웨이트	-17134
▁체스터	-17135
▁자동변속기	-17136
UI	-17137
▁뚱	-17138
▁먀	-17139
▁각광	-17140
▁골수	-17141
▁광택	-17142
▁국과	-17143
▁굶주	-17144
▁남포	-17145
▁데메	-17146
▁맛있	-17147
▁미코	-17148
▁보훈	-17149
▁본초	-17150
▁불평	-17151
▁신구	-17152
▁심플	-17153
▁이트	-17154
▁인신	-17155
▁팀장	-17156
▁필기	-17157
▁COM	-17158
▁Rev	-17159
▁바로잡	-17160
▁빅토리	-17161
▁시공간	-17162
▁합천군	-17163
▁황태후	-17164
▁부위원장	-17165
▁COVID	-17166
▁켓	-17167
레프	-17168
▁당분	-17169
▁로동	-17170
▁발단	-17171
▁버시	-17172
▁이형	-17173
▁정강	-17174
▁참배	-17175
▁펀치	-17176
시우스	-17177
▁737	-17178
▁돌아서	-17179
▁북반구	-17180
▁1793	-17181
▁안드레이	-17182
사회	-17183
▁ㄴ가	-17184
▁교묘	-17185
▁내구	-17186
▁더럽	-17187
▁몸집	-17188
▁종친	-17189
▁평신	-17190
▁해일	-17191
캐스트	-17192
▁223	-17193
▁에밀리	-17194
▁가나자와	-17195
23	-17196
개혁	-17197
der	-17198
▁갤러	-17199
▁구인	-17200
▁군국	-17201
▁깜짝	-17202
▁낙타	-17203
▁덩굴	-17204
▁데쓰	-17205
▁바덴	-17206
▁바일	-17207
▁설사	-17208
▁세탁	-17209
▁연유	-17210
▁천구	-17211
▁클루	-17212
슬라브	-17213
▁가입자	-17214
▁남해군	-17215
▁데포르	-17216
▁돗토리	-17217
▁손바닥	-17218
▁안데르	-17219
▁알레르	-17220
▁제이스	-17221
▁창덕궁	-17222
▁팩토리	-17223
▁Blue	-17224
▁꼼	-17225
▁뺏	-17226
섬유	-17227
에리	-17228
재란	-17229
▁간디	-17230
▁구나	-17231
▁논설	-17232
▁느라	-17233
▁랜디	-17234
▁무당	-17235
▁박승	-17236
▁보츠	-17237
▁솔트	-17238
▁야로	-17239
▁엄정	-17240
▁존엄	-17241
▁쿠릴	-17242
▁벤피카	-17243
▁산체스	-17244
▁이완용	-17245
▁추밀원	-17246
▁정유재란	-17247
메트	-17248
▁교주	-17249
▁범용	-17250
▁산불	-17251
▁숭실	-17252
▁오호	-17253
▁장항	-17254
▁천정	-17255
▁환기	-17256
루리아	-17257
코스트	-17258
▁낙하산	-17259
▁유격대	-17260
▁페테르	-17261
총리대신	-17262
▁1846	-17263
▁갈릴레이	-17264
▁기념사업	-17265
▁브루나이	-17266
▁블레이드	-17267
▁상파울루	-17268
▁이베리아	-17269
▁이해관계	-17270
▁시즈오카현	-17271
▁내각총리대신	-17272
래시	-17273
모자	-17274
ump	-17275
▁묘법	-17276
▁아민	-17277
▁언약	-17278
▁역습	-17279
▁이견	-17280
▁표결	-17281
▁농작물	-17282
▁보라색	-17283
▁아칸소	-17284
▁이브라	-17285
▁테이크	-17286
▁평화상	-17287
26	-17288
BT	-17289
▁넉	-17290
바람	-17291
증권	-17292
▁갑각	-17293
▁걸맞	-17294
▁구토	-17295
▁귀양	-17296
▁돌핀	-17297
▁리저	-17298
▁서강	-17299
▁억류	-17300
▁예속	-17301
▁철원	-17302
▁총체	-17303
▁치중	-17304
▁문하시	-17305
▁보호관	-17306
▁엉덩이	-17307
▁입출력	-17308
▁전기장	-17309
▁지난해	-17310
▁페인트	-17311
▁하카타	-17312
▁중앙아프리카	-17313
IO	-17314
LC	-17315
나물	-17316
든지	-17317
▁경멸	-17318
▁교포	-17319
▁국면	-17320
▁대뇌	-17321
▁분양	-17322
▁삼키	-17323
▁유품	-17324
▁제식	-17325
▁주경	-17326
▁톨킨	-17327
▁하순	-17328
▁핵산	-17329
▁Top	-17330
▁국무원	-17331
▁충렬왕	-17332
▁테트라	-17333
▁에드먼드	-17334
▁퓌	-17335
▁ME	-17336
▁구룡	-17337
▁박기	-17338
▁베버	-17339
▁본당	-17340
▁실로	-17341
▁역모	-17342
▁와해	-17343
▁윤석	-17344
▁조력	-17345
▁추위	-17346
연화경	-17347
웨스트	-17348
▁LCD	-17349
▁Min	-17350
▁기부금	-17351
▁다이나	-17352
▁상속인	-17353
▁Beat	-17354
▁서스펜션	-17355
▁초등학생	-17356
▁돛	-17357
파스	-17358
패스	-17359
호프	-17360
후이	-17361
▁괴멸	-17362
▁봉작	-17363
▁상작	-17364
▁서보	-17365
▁수류	-17366
▁육아	-17367
▁잠들	-17368
▁칼레	-17369
▁페가	-17370
▁후시	-17371
비우스	-17372
▁산둥성	-17373
▁시어터	-17374
▁외무성	-17375
▁물리학상	-17376
▁오브젝트	-17377
▁하시모토	-17378
▁히로부미	-17379
▁네덜란드어	-17380
HD	-17381
처리	-17382
▁간장	-17383
▁라티	-17384
▁모기	-17385
▁미묘	-17386
▁브롱	-17387
▁심근	-17388
▁웨일	-17389
▁치수	-17390
다람쥐	-17391
티우스	-17392
프랑스	-17393
▁구청장	-17394
▁버나드	-17395
▁절대로	-17396
스트리트	-17397
▁1839	-17398
▁공화주의	-17399
▁미성년자	-17400
▁촘	-17401
질량	-17402
▁방조	-17403
▁인출	-17404
▁해자	-17405
▁현충	-17406
쿠스틱	-17407
▁아산시	-17408
▁1854	-17409
▁time	-17410
▁어쿠스틱	-17411
버드	-17412
연대	-17413
우어	-17414
▁공덕	-17415
▁망루	-17416
▁볼륨	-17417
▁윤원	-17418
▁이부	-17419
▁휘트	-17420
▁가시마	-17421
▁배수량	-17422
▁배트맨	-17423
▁비지니스	-17424
▁간염	-17425
▁등대	-17426
▁몰입	-17427
▁박준	-17428
▁브론	-17429
▁사흘	-17430
▁상투	-17431
▁새턴	-17432
▁성추	-17433
▁아모	-17434
▁욕설	-17435
▁인피	-17436
▁코레	-17437
▁후백	-17438
▁214	-17439
▁430	-17440
▁아테나	-17441
▁오비탈	-17442
베이거스	-17443
깨비	-17444
왕국	-17445
천년	-17446
▁고압	-17447
▁마한	-17448
▁매월	-17449
▁반려	-17450
▁반열	-17451
▁본디	-17452
▁비참	-17453
▁사죄	-17454
▁센스	-17455
▁오딘	-17456
▁찬탈	-17457
▁퇴단	-17458
▁교직원	-17459
▁보나파	-17460
▁비행대	-17461
▁찬드라	-17462
▁파트리	-17463
▁기독교인	-17464
▁소용돌이	-17465
▁데포르티보	-17466
▁보나파르트	-17467
▁라스베이거스	-17468
고트	-17469
정권	-17470
▁견습	-17471
▁메사	-17472
▁석상	-17473
▁적재	-17474
▁종주	-17475
니다드	-17476
▁건국대	-17477
▁증명서	-17478
▁후임자	-17479
▁1849	-17480
▁차량기지	-17481
▁트리니다드	-17482
OU	-17483
▁매번	-17484
▁미모	-17485
▁부윤	-17486
▁소홀	-17487
▁시경	-17488
▁신작	-17489
▁오닐	-17490
▁원제	-17491
▁유폐	-17492
▁인테	-17493
▁제학	-17494
▁존상	-17495
▁현령	-17496
▁화전	-17497
트로피	-17498
▁211	-17499
▁경비대	-17500
▁식물원	-17501
▁어리석	-17502
▁진보당	-17503
▁헬싱키	-17504
▁플로이드	-17505
담회	-17506
버거	-17507
호르	-17508
▁계란	-17509
▁담론	-17510
▁북해	-17511
▁소란	-17512
▁손책	-17513
▁알비	-17514
▁태세	-17515
▁화북	-17516
고양이	-17517
atch	-17518
▁419	-17519
▁보르도	-17520
▁장택상	-17521
28	-17522
▁럴	-17523
누아	-17524
▁김문	-17525
▁만국	-17526
▁변방	-17527
▁어이	-17528
▁우동	-17529
▁웅장	-17530
▁윤영	-17531
▁임베	-17532
▁제원	-17533
▁파격	-17534
▁FBI	-17535
▁대머리	-17536
▁안중근	-17537
▁노동자당	-17538
▁마음대로	-17539
▁비트코인	-17540
▁임베디드	-17541
오린	-17542
탐정	-17543
▁낙랑	-17544
▁단사	-17545
▁배설	-17546
▁분쇄	-17547
▁분장	-17548
▁셔먼	-17549
▁스맥	-17550
▁유장	-17551
▁친절	-17552
▁폰트	-17553
▁필살	-17554
▁갖가지	-17555
▁은하단	-17556
▁하이든	-17557
▁1856	-17558
▁정사각형	-17559
소득	-17560
재기	-17561
▁TG	-17562
▁광경	-17563
▁단성	-17564
▁라몬	-17565
▁비크	-17566
▁여생	-17567
▁장령	-17568
▁타오	-17569
▁페드	-17570
▁한서	-17571
궐선거	-17572
타니아	-17573
▁가파르	-17574
▁레인보	-17575
▁조계종	-17576
▁참모장	-17577
▁해럴드	-17578
▁Will	-17579
▁이와테현	-17580
▁크레이그	-17581
▁재보궐선거	-17582
▁통합진보당	-17583
▁크리에이티브	-17584
전기	-17585
oup	-17586
▁가니	-17587
▁명주	-17588
▁열반	-17589
▁적성	-17590
▁추궁	-17591
▁가속기	-17592
▁감염자	-17593
▁시부야	-17594
▁카운터	-17595
▁펠로폰	-17596
츠부르크	-17597
타고라스	-17598
▁1851	-17599
▁델라웨어	-17600
▁펠로폰네소스	-17601
일라	-17602
▁낙엽	-17603
▁단호	-17604
▁대세	-17605
▁마자	-17606
▁밀스	-17607
▁선하	-17608
▁수배	-17609
▁한참	-17610
▁301	-17611
▁베르디	-17612
▁아가씨	-17613
▁에리크	-17614
▁특이점	-17615
▁반공주의	-17616
▁스탠퍼드	-17617
ery	-17618
▁KC	-17619
▁계투	-17620
▁남로	-17621
▁디온	-17622
▁방한	-17623
▁벽면	-17624
▁시주	-17625
▁심슨	-17626
▁요아	-17627
▁원가	-17628
▁이안	-17629
▁타현	-17630
▁페티	-17631
▁글리코	-17632
▁대주주	-17633
▁북극해	-17634
▁저작물	-17635
86	-17636
ma	-17637
▁녜	-17638
카테	-17639
쿠젠	-17640
▁결탁	-17641
▁서상	-17642
▁연임	-17643
▁히다	-17644
직할시	-17645
icro	-17646
▁공사관	-17647
▁레이어	-17648
▁일간지	-17649
▁사보이아	-17650
▁폴란드인	-17651
케스	-17652
▁상체	-17653
▁성간	-17654
▁오기	-17655
▁카잔	-17656
▁케니	-17657
cess	-17658
▁그로스	-17659
▁명명법	-17660
▁스나이	-17661
▁투데이	-17662
▁핵폭탄	-17663
메니스탄	-17664
▁1857	-17665
▁스맥다운	-17666
▁올랭피크	-17667
▁캐나다인	-17668
▁투르크메니스탄	-17669
지대	-17670
테른	-17671
투안	-17672
하늘	-17673
▁ER	-17674
▁IA	-17675
▁거액	-17676
▁귀납	-17677
▁니즘	-17678
▁도독	-17679
▁발송	-17680
▁방수	-17681
▁버퍼	-17682
▁빌미	-17683
▁소망	-17684
▁원성	-17685
▁잠복	-17686
▁재원	-17687
▁정시	-17688
▁착안	-17689
▁찬스	-17690
▁촌은	-17691
▁퇴사	-17692
▁헤엄	-17693
▁현청	-17694
▁히나	-17695
▁변증법	-17696
▁수산물	-17697
▁수수료	-17698
▁집어넣	-17699
▁핵실험	-17700
▁다이스케	-17701
▁엔트로피	-17702
니엄	-17703
모습	-17704
체어	-17705
▁쇼팽	-17706
▁하쿠	-17707
▁현명	-17708
제르맹	-17709
▁노스케	-17710
▁뽑아내	-17711
▁새천년	-17712
▁올라서	-17713
▁지평선	-17714
▁최하위	-17715
▁형무소	-17716
▁1855	-17717
▁힉	-17718
레토	-17719
바꿈	-17720
연료	-17721
하스	-17722
▁경색	-17723
▁미안	-17724
▁보문	-17725
▁신영	-17726
▁현생	-17727
▁마그마	-17728
▁서북쪽	-17729
▁하이델	-17730
▁행정관	-17731
▁Free	-17732
▁프란시스	-17733
29	-17734
봉사	-17735
▁YM	-17736
▁가메	-17737
▁김한	-17738
▁노다	-17739
▁박격	-17740
▁변장	-17741
▁분개	-17742
▁수서	-17743
▁정년	-17744
▁대각선	-17745
▁동의어	-17746
▁사모아	-17747
▁애벌레	-17748
▁캥거루	-17749
▁하동군	-17750
▁스티븐스	-17751
쇼프	-17752
흐트	-17753
▁과업	-17754
▁벚꽃	-17755
▁액수	-17756
▁외동	-17757
▁음경	-17758
▁주치	-17759
▁체임	-17760
▁캔디	-17761
▁택지	-17762
▁템포	-17763
▁항모	-17764
들랜드	-17765
중국해	-17766
▁XML	-17767
▁구석기	-17768
▁기념식	-17769
▁봉사자	-17770
▁시흥시	-17771
▁황도대	-17772
▁생제르맹	-17773
로아	-17774
하르	-17775
▁간파	-17776
▁대열	-17777
▁무왕	-17778
▁서천	-17779
▁지소	-17780
▁포구	-17781
▁픽션	-17782
▁합체	-17783
▁Pop	-17784
▁비정규	-17785
▁상세히	-17786
▁성추행	-17787
▁작사가	-17788
▁컨디션	-17789
▁포브스	-17790
▁휠체어	-17791
▁무라카미	-17792
▁사카모토	-17793
▁병마절도사	-17794
▁캄파니아주	-17795
27	-17796
▁기물	-17797
▁대광	-17798
▁덧셈	-17799
▁슈바	-17800
▁언젠	-17801
▁주둥	-17802
▁친목	-17803
▁병원체	-17804
▁타고나	-17805
▁민족주의자	-17806
▁오하이오주	-17807
니크	-17808
▁권세	-17809
▁노회	-17810
▁본기	-17811
▁성년	-17812
▁성채	-17813
▁수스	-17814
▁신명	-17815
▁역행	-17816
▁이학	-17817
▁체첸	-17818
▁코민	-17819
▁한도	-17820
메네스	-17821
콥스키	-17822
▁루터교	-17823
▁모티프	-17824
▁언젠가	-17825
▁오카다	-17826
▁해설자	-17827
▁스포르팅	-17828
▁원내대표	-17829
▁좡	-17830
댄스	-17831
평가	-17832
▁Po	-17833
▁고증	-17834
▁대적	-17835
▁도기	-17836
▁라데	-17837
▁만리	-17838
▁미팅	-17839
▁서드	-17840
▁위니	-17841
▁중첩	-17842
▁지병	-17843
▁해금	-17844
▁회부	-17845
시오날	-17846
▁마인드	-17847
▁비엔나	-17848
▁태그팀	-17849
▁LIVE	-17850
▁나시오날	-17851
▁태평천국	-17852
▁플루오린	-17853
산읍	-17854
ont	-17855
▁급습	-17856
▁녀석	-17857
▁셀룰	-17858
▁셰이	-17859
▁실습	-17860
▁요네	-17861
▁장구	-17862
▁카렐	-17863
▁칸타	-17864
▁급기야	-17865
▁나주시	-17866
▁달라이	-17867
▁모자라	-17868
▁샘플링	-17869
▁포천시	-17870
▁프로파	-17871
▁ne	-17872
▁누락	-17873
▁레베	-17874
▁문교	-17875
▁산탄	-17876
▁외벽	-17877
▁이공	-17878
▁탄원	-17879
▁퇴화	-17880
▁호가	-17881
▁화신	-17882
덜랜드	-17883
▁Bro	-17884
▁구미시	-17885
▁려다가	-17886
▁베르그	-17887
▁출생지	-17888
▁포위망	-17889
▁미주리주	-17890
▁포레스트	-17891
노동	-17892
마타	-17893
스탕	-17894
▁계파	-17895
▁몬트	-17896
▁사극	-17897
▁압송	-17898
▁이서	-17899
▁입안	-17900
▁직제	-17901
▁늘어지	-17902
▁따돌리	-17903
▁베리아	-17904
▁시우바	-17905
▁헤이스	-17906
를린	-17907
여들	-17908
day	-17909
▁금광	-17910
▁버즈	-17911
▁영아	-17912
▁와트	-17913
▁읽히	-17914
▁준위	-17915
▁청탁	-17916
▁크세	-17917
▁파사	-17918
▁수송기	-17919
▁시설물	-17920
▁팰리스	-17921
▁항구역	-17922
▁1776	-17923
▁가까스로	-17924
▁클라리넷	-17925
광선	-17926
▁교복	-17927
▁국고	-17928
▁뇌졸	-17929
▁명지	-17930
▁율곡	-17931
▁총알	-17932
▁최경	-17933
레시브	-17934
▁del	-17935
▁독립국	-17936
▁브레인	-17937
▁아세트	-17938
▁영등포	-17939
▁퍼펙트	-17940
▁국민회의	-17941
▁프로그레시브	-17942
계리	-17943
페리	-17944
활성	-17945
aut	-17946
▁HK	-17947
▁심신	-17948
▁음란	-17949
▁천명	-17950
▁팔자	-17951
▁픽업	-17952
▁End	-17953
▁리서치	-17954
▁모여들	-17955
▁보니파	-17956
▁이범석	-17957
▁크리켓	-17958
▁플레이트	-17959
▁국물	-17960
▁대흥	-17961
▁명절	-17962
▁생사	-17963
▁알론	-17964
▁이연	-17965
▁장타	-17966
▁정파	-17967
▁포탈	-17968
▁혹독	-17969
메데스	-17970
▁게이츠	-17971
▁메이플	-17972
▁바이스	-17973
▁살아나	-17974
▁청교도	-17975
▁청구인	-17976
▁후반부	-17977
▁코미디언	-17978
▁그레고리력	-17979
▁레오나르도	-17980
▁프로토타입	-17981
팔렌	-17982
▁골목	-17983
▁김보	-17984
▁나나	-17985
▁메콩	-17986
▁부총	-17987
▁서던	-17988
▁세브	-17989
▁연좌	-17990
▁연천	-17991
▁음소	-17992
▁정량	-17993
▁포에	-17994
▁홀드	-17995
▁다시피	-17996
▁목걸이	-17997
▁서기장	-17998
▁에인절	-17999
버섯	-18000
▁BR	-18001
▁FX	-18002
▁린드	-18003
▁사성	-18004
▁양손	-18005
▁이로	-18006
▁조식	-18007
▁쿠페	-18008
▁한방	-18009
▁233	-18010
▁레일리	-18011
▁부활절	-18012
▁브리트	-18013
▁진정하	-18014
▁클라라	-18015
▁특공대	-18016
▁10000	-18017
가야	-18018
니발	-18019
▁각별	-18020
▁간소	-18021
▁박주	-18022
▁발주	-18023
▁비슈	-18024
▁수잔	-18025
▁전갈	-18026
▁접착	-18027
▁클론	-18028
▁판별	-18029
▁포즈	-18030
노벨라	-18031
▁215	-18032
▁거제시	-18033
▁경기력	-18034
▁레너드	-18035
▁심포니	-18036
▁유니온	-18037
▁미시간주	-18038
▁인테리어	-18039
▁텔레노벨라	-18040
다롭	-18041
행사	-18042
its	-18043
▁TN	-18044
▁괴팅	-18045
▁국채	-18046
▁노미	-18047
▁땅콩	-18048
▁로로	-18049
▁모더	-18050
▁세가	-18051
▁영세	-18052
▁표상	-18053
▁퓨전	-18054
▁가로막	-18055
▁계약서	-18056
▁단기간	-18057
▁수메르	-18058
▁어지럽	-18059
▁엑스선	-18060
▁치우치	-18061
▁해적단	-18062
HS	-18063
oss	-18064
▁누각	-18065
▁대양	-18066
▁반증	-18067
▁살림	-18068
▁살상	-18069
▁샬럿	-18070
▁시로	-18071
▁양력	-18072
▁욕심	-18073
▁창안	-18074
▁Des	-18075
▁굳어지	-18076
▁김종필	-18077
▁까다롭	-18078
▁영산회	-18079
▁네브래스카	-18080
슐린	-18081
▁MW	-18082
▁로미	-18083
▁루아	-18084
▁매드	-18085
▁미망	-18086
▁반일	-18087
▁영연	-18088
▁우랄	-18089
▁지단	-18090
▁질리	-18091
▁계약금	-18092
▁서로마	-18093
▁에버턴	-18094
▁플랜트	-18095
▁LOVE	-18096
▁피에트로	-18097
▁묘법연화경	-18098
▁언더그라운드	-18099
br	-18100
▁뿌	-18101
개발	-18102
급시	-18103
볼트	-18104
빼미	-18105
워키	-18106
▁CV	-18107
▁교우	-18108
▁금화	-18109
▁노먼	-18110
▁로젠	-18111
▁미움	-18112
▁상시	-18113
▁실드	-18114
▁어필	-18115
▁커트	-18116
▁Big	-18117
▁권력자	-18118
▁동북쪽	-18119
▁Sing	-18120
저민	-18121
IDS	-18122
▁JP	-18123
▁가인	-18124
▁나니	-18125
▁비비	-18126
▁시왕	-18127
▁아속	-18128
▁열광	-18129
▁요세	-18130
▁위드	-18131
▁유즈	-18132
▁윤선	-18133
▁조참	-18134
▁진안	-18135
▁쿠키	-18136
파트라	-18137
irst	-18138
▁239	-18139
▁510	-18140
▁벤저민	-18141
▁빠뜨리	-18142
▁파이브	-18143
▁클레오파트라	-18144
타라	-18145
▁RE	-18146
▁WH	-18147
▁독감	-18148
▁라비	-18149
▁마마	-18150
▁부원	-18151
▁수난	-18152
▁시판	-18153
▁에나	-18154
▁우메	-18155
▁이족	-18156
▁제반	-18157
▁콘월	-18158
▁문화사	-18159
▁Rain	-18160
▁아틀라스	-18161
▁알레르기	-18162
미치	-18163
▁감명	-18164
▁구면	-18165
▁루소	-18166
▁면접	-18167
▁서훈	-18168
▁숙성	-18169
▁약정	-18170
▁최북	-18171
▁카쿠	-18172
핵생물	-18173
▁212	-18174
▁미카사	-18175
▁생태학	-18176
▁한마디	-18177
▁사다하루	-18178
▁캔터베리	-18179
be	-18180
하워	-18181
▁SI	-18182
▁감히	-18183
▁낭독	-18184
▁도핑	-18185
▁북제	-18186
▁불황	-18187
▁시동	-18188
▁신재	-18189
▁위아	-18190
▁이계	-18191
▁정약	-18192
▁청화	-18193
▁황보	-18194
▁BMW	-18195
▁사중주	-18196
▁조기어류	-18197
▁아이젠하워	-18198
▁히로시마현	-18199
▁개간	-18200
▁경수	-18201
▁상피	-18202
▁서킷	-18203
▁시료	-18204
▁은둔	-18205
▁정철	-18206
▁틈새	-18207
▁향리	-18208
▁호치	-18209
▁DFB	-18210
▁set	-18211
▁게이초	-18212
▁버밍엄	-18213
▁서남쪽	-18214
▁아르카	-18215
▁전년도	-18216
▁Mnet	-18217
▁권위주의	-18218
개명	-18219
▁공녀	-18220
▁대검	-18221
▁로자	-18222
▁배영	-18223
▁세관	-18224
▁아그	-18225
▁우문	-18226
▁원화	-18227
▁음색	-18228
▁장보	-18229
너티브	-18230
▁미술가	-18231
▁보호자	-18232
▁사생아	-18233
▁양서류	-18234
▁요리사	-18235
▁월리스	-18236
ement	-18237
▁1792	-18238
▁뱀파이어	-18239
▁얼터너티브	-18240
BL	-18241
▁찻	-18242
지않	-18243
▁CT	-18244
▁경치	-18245
▁귀향	-18246
▁근연	-18247
▁도금	-18248
▁디어	-18249
▁사구	-18250
▁시구	-18251
▁질레	-18252
▁촌락	-18253
▁탄환	-18254
▁튀르	-18255
▁패주	-18256
▁호러	-18257
▁홍백	-18258
▁경영진	-18259
▁논산시	-18260
▁정말로	-18261
▁출연진	-18262
▁퀘스트	-18263
▁표준어	-18264
▁프리랜	-18265
▁핵연료	-18266
▁호위함	-18267
▁계몽주의	-18268
▁젬	-18269
코바	-18270
▁개년	-18271
▁그려	-18272
▁덤불	-18273
▁듀크	-18274
▁밑면	-18275
▁방과	-18276
▁상권	-18277
▁슬럼	-18278
▁시암	-18279
▁안상	-18280
▁외화	-18281
▁잠그	-18282
▁지드	-18283
▁추석	-18284
▁출소	-18285
▁코다	-18286
즐랜드	-18287
▁부제학	-18288
▁슈퍼주니어	-18289
▁잣	-18290
이인	-18291
▁내쫓	-18292
▁도고	-18293
▁독신	-18294
▁유실	-18295
▁윤회	-18296
▁이면	-18297
▁정태	-18298
▁제향	-18299
▁착오	-18300
▁티르	-18301
▁히브	-18302
메이트	-18303
▁Bar	-18304
▁게이머	-18305
▁목격자	-18306
▁밀워키	-18307
▁재정난	-18308
▁퀸즐랜드	-18309
▁begin	-18310
▁롬바르디아	-18311
그림	-18312
얼빈	-18313
▁만찬	-18314
▁바크	-18315
▁수뇌	-18316
▁스커	-18317
▁슬퍼	-18318
▁최재	-18319
▁호엔	-18320
▁명백히	-18321
▁베이컨	-18322
▁브람스	-18323
▁재판장	-18324
▁크래프트	-18325
▁엘살바도르	-18326
▁퓰	-18327
타바	-18328
▁do	-18329
▁까치	-18330
▁라벤	-18331
▁매너	-18332
▁색인	-18333
▁선방	-18334
▁쓰가	-18335
▁지터	-18336
▁칼빈	-18337
▁케스	-18338
▁쾌락	-18339
▁후신	-18340
▁기장군	-18341
▁릴리스	-18342
▁랜드마크	-18343
▁소선거구	-18344
▁카리브해	-18345
▁퍼레이드	-18346
보스	-18347
삼문	-18348
임수	-18349
aff	-18350
vis	-18351
▁CL	-18352
▁구급	-18353
▁다의	-18354
▁메트	-18355
▁서하	-18356
▁으라	-18357
▁절멸	-18358
▁카오	-18359
▁회중	-18360
▁다다르	-18361
▁부끄럽	-18362
▁앵글로	-18363
▁좀처럼	-18364
▁중학생	-18365
▁지도력	-18366
▁퍼뜨리	-18367
▁1852	-18368
▁경향신문	-18369
▁천주교회	-18370
▁프라이스	-18371
▁Hello	-18372
경궁	-18373
바타	-18374
방식	-18375
▁관서	-18376
▁그람	-18377
▁비츠	-18378
▁수온	-18379
▁실화	-18380
▁어음	-18381
▁예견	-18382
▁오쓰	-18383
▁우쓰	-18384
▁유루	-18385
▁타코	-18386
▁탄화	-18387
▁함안	-18388
▁검사장	-18389
▁다각형	-18390
▁동식물	-18391
▁외삼촌	-18392
▁중생대	-18393
▁1853	-18394
▁Road	-18395
▁도네츠크	-18396
▁동대문구	-18397
▁모하메드	-18398
▁창씨개명	-18399
도서	-18400
루이	-18401
▁FN	-18402
▁나츠	-18403
▁나팔	-18404
▁성하	-18405
▁수첩	-18406
▁식료	-18407
▁에타	-18408
▁예천	-18409
▁요트	-18410
▁제각	-18411
▁주술	-18412
▁그려지	-18413
▁더구나	-18414
▁에르난	-18415
▁콘셉트	-18416
▁1791	-18417
▁Show	-18418
▁옥타비아	-18419
▁즌	-18420
▁가평	-18421
▁입적	-18422
▁점심	-18423
▁종택	-18424
▁초중	-18425
▁평년	-18426
▁무인역	-18427
▁프레디	-18428
▁void	-18429
▁옅	-18430
노헤	-18431
막염	-18432
오세	-18433
▁구보	-18434
▁모후	-18435
▁밀턴	-18436
▁박인	-18437
▁산토	-18438
▁섬멸	-18439
▁셰프	-18440
▁오에	-18441
▁자락	-18442
▁카멜	-18443
▁캄포	-18444
▁합방	-18445
▁황성	-18446
▁희박	-18447
하이머	-18448
▁과선교	-18449
▁중대장	-18450
▁지원자	-18451
▁최적화	-18452
▁현악기	-18453
▁다운타운	-18454
▁시트르산	-18455
▁Sound	-18456
▁테러리스트	-18457
▁콘스탄티노플	-18458
티드	-18459
▁EF	-18460
▁갑판	-18461
▁관사	-18462
▁난간	-18463
▁노던	-18464
▁망상	-18465
▁미신	-18466
▁박중	-18467
▁버블	-18468
▁아쓰	-18469
▁어쨌	-18470
▁연작	-18471
▁친숙	-18472
▁푸시	-18473
컨트리	-18474
▁간행물	-18475
▁무안군	-18476
▁브리즈	-18477
▁벌어들이	-18478
▁사회단체	-18479
▁속씨식물	-18480
▁필리포스	-18481
▁강물	-18482
▁고질	-18483
▁고타	-18484
▁기노	-18485
▁노년	-18486
▁버락	-18487
▁아만	-18488
▁울음	-18489
▁원망	-18490
▁진과	-18491
▁한류	-18492
▁호감	-18493
▁분화구	-18494
▁세일러	-18495
▁슬퍼하	-18496
▁이베이	-18497
▁조나단	-18498
▁1100	-18499
▁크로스컨트리	-18500
▁뚝	-18501
귀비	-18502
야구	-18503
하트	-18504
ech	-18505
▁RD	-18506
▁기치	-18507
▁김호	-18508
▁래스	-18509
▁벨레	-18510
▁부응	-18511
▁여태	-18512
▁영해	-18513
▁월급	-18514
▁이도	-18515
▁장영	-18516
▁최치	-18517
▁도지사	-18518
▁비스트	-18519
▁유목민	-18520
▁레인보우	-18521
way	-18522
▁es	-18523
▁강수	-18524
▁고작	-18525
▁궁금	-18526
▁냉동	-18527
▁능통	-18528
▁대파	-18529
▁독려	-18530
▁동복	-18531
▁따내	-18532
▁린치	-18533
▁마왕	-18534
▁발화	-18535
▁밥상	-18536
▁보두	-18537
▁부름	-18538
▁안젤	-18539
▁윤상	-18540
▁자력	-18541
▁파니	-18542
▁학점	-18543
▁레프트	-18544
▁쓰임새	-18545
▁올빼미	-18546
▁옹진군	-18547
▁저술가	-18548
▁점성가	-18549
▁카이저	-18550
▁1847	-18551
▁개인주의	-18552
▁팬아메리칸	-18553
▁똥	-18554
▁빽	-18555
무드	-18556
색슨	-18557
에어	-18558
▁경감	-18559
▁남짓	-18560
▁마조	-18561
▁미일	-18562
▁수전	-18563
▁수찬	-18564
▁해동	-18565
대주의	-18566
▁221	-18567
▁LTE	-18568
▁Red	-18569
▁강아지	-18570
▁끊어지	-18571
▁레슬리	-18572
▁상류층	-18573
▁성동구	-18574
▁세포막	-18575
▁음악회	-18576
▁피스톤	-18577
▁하얼빈	-18578
▁Like	-18579
▁글래스고	-18580
▁모모야마	-18581
▁앵글로색슨	-18582
고도	-18583
▁RO	-18584
▁베레	-18585
▁북진	-18586
▁삼부	-18587
▁송금	-18588
▁실황	-18589
▁쑨원	-18590
▁장터	-18591
▁장현	-18592
▁정구	-18593
▁패미	-18594
▁폐간	-18595
▁품계	-18596
▁후각	-18597
리오카	-18598
소년단	-18599
▁관악구	-18600
▁꽃받침	-18601
▁수류탄	-18602
▁현저히	-18603
▁교섭단체	-18604
▁시라카와	-18605
▁옵티머스	-18606
WS	-18607
yl	-18608
▁젓	-18609
거슨	-18610
니언	-18611
▁가봉	-18612
▁골자	-18613
▁동족	-18614
▁불펜	-18615
▁비약	-18616
▁서간	-18617
▁앙주	-18618
▁유위	-18619
▁전륜	-18620
▁존호	-18621
▁청진	-18622
▁추월	-18623
▁플뢰	-18624
▁독립성	-18625
▁브룩스	-18626
▁이스턴	-18627
▁인슐린	-18628
▁Over	-18629
오밍	-18630
▁MX	-18631
▁OC	-18632
▁ac	-18633
▁교착	-18634
▁본적	-18635
▁슬롯	-18636
▁완투	-18637
▁왈라	-18638
▁우화	-18639
▁회군	-18640
노세키	-18641
▁Eng	-18642
▁김포시	-18643
▁배상금	-18644
▁세례명	-18645
▁유학생	-18646
▁정보국	-18647
▁브래들리	-18648
▁에트루리아	-18649
서기	-18650
ric	-18651
▁경학	-18652
▁국명	-18653
▁업소	-18654
▁연사	-18655
▁연일	-18656
▁오경	-18657
▁오목	-18658
▁우성	-18659
▁조위	-18660
▁주어	-18661
▁팔각	-18662
자위대	-18663
ouse	-18664
▁390	-18665
▁편의점	-18666
▁콘티넨털	-18667
▁Light	-18668
▁안티고노스	-18669
▁즙	-18670
비어	-18671
슈티	-18672
쿠로	-18673
ana	-18674
▁고부	-18675
▁궤멸	-18676
▁마누	-18677
▁마로	-18678
▁봉산	-18679
▁수작	-18680
▁신예	-18681
▁포리	-18682
▁혈청	-18683
▁혹평	-18684
▁회기	-18685
▁...	-18686
▁나뭇잎	-18687
▁뇌졸중	-18688
▁박격포	-18689
▁유가족	-18690
▁탈수소	-18691
▁동명이인	-18692
▁루키우스	-18693
▁프리랜서	-18694
iet	-18695
▁NK	-18696
▁UK	-18697
▁강압	-18698
▁계명	-18699
▁공물	-18700
▁다키	-18701
▁벙커	-18702
▁신숙	-18703
▁약국	-18704
▁유주	-18705
▁재귀	-18706
▁케어	-18707
▁크릭	-18708
▁흡혈	-18709
▁Net	-18710
▁갑각류	-18711
▁리히텐	-18712
▁잎자루	-18713
▁정찰기	-18714
▁황갈색	-18715
▁가이우스	-18716
▁도쿠시마	-18717
▁오를레앙	-18718
▁카리스마	-18719
▁프라이드	-18720
▁읊	-18721
랄라	-18722
▁JS	-18723
▁ㄴ대	-18724
▁갑상	-18725
▁계략	-18726
▁과천	-18727
▁낙인	-18728
▁덴버	-18729
▁반민	-18730
▁색조	-18731
▁선승	-18732
▁신빙	-18733
▁안구	-18734
▁커크	-18735
▁프롬	-18736
하이드	-18737
▁개찰기	-18738
▁부사관	-18739
▁생산력	-18740
▁프런트	-18741
▁하루카	-18742
▁은행나무	-18743
▁민속문화재	-18744
▁버지니아주	-18745
루트	-18746
▁고즈	-18747
▁고해	-18748
▁균류	-18749
▁명품	-18750
▁무방	-18751
▁부결	-18752
▁삼가	-18753
▁선지	-18754
▁성직	-18755
▁야채	-18756
▁외전	-18757
▁유흥	-18758
▁임업	-18759
▁적시	-18760
▁조만	-18761
▁중흥	-18762
▁차드	-18763
▁해류	-18764
ason	-18765
▁231	-18766
▁멤피스	-18767
▁미망인	-18768
▁자신감	-18769
▁태권도	-18770
▁후견인	-18771
보레	-18772
시간	-18773
옹주	-18774
▁mg	-18775
▁비명	-18776
▁수유	-18777
▁스벤	-18778
▁여순	-18779
▁오데	-18780
▁우미	-18781
▁이등	-18782
▁쟁취	-18783
▁치타	-18784
▁키노	-18785
▁토사	-18786
베를린	-18787
슈타트	-18788
▁228	-18789
▁가오슝	-18790
▁도깨비	-18791
▁산화물	-18792
▁성범죄	-18793
▁요코스카	-18794
▁꽁	-18795
코로	-18796
ner	-18797
▁TA	-18798
▁간편	-18799
▁다방	-18800
▁담화	-18801
▁미약	-18802
▁바예	-18803
▁북단	-18804
▁셀러	-18805
▁셀프	-18806
▁재야	-18807
▁청렴	-18808
▁토토	-18809
자동차	-18810
▁가야금	-18811
▁피타고라스	-18812
제곱	-18813
▁PK	-18814
▁Pa	-18815
▁과수	-18816
▁노시	-18817
▁라피	-18818
▁보현	-18819
▁선더	-18820
▁송병	-18821
▁실바	-18822
▁아레	-18823
▁악하	-18824
▁체온	-18825
▁콕스	-18826
▁티나	-18827
▁정착민	-18828
▁집합론	-18829
▁1837	-18830
▁1844	-18831
▁팁	-18832
호크	-18833
▁각인	-18834
▁굴리	-18835
▁메로	-18836
▁비니	-18837
▁식년	-18838
▁아워	-18839
▁약제	-18840
▁유예	-18841
▁장엄	-18842
▁칼초	-18843
▁Sec	-18844
▁예배당	-18845
▁창세기	-18846
브레히트	-18847
▁포리스트	-18848
▁강판	-18849
▁거장	-18850
▁걸즈	-18851
▁노숙	-18852
▁동천	-18853
▁만능	-18854
▁아론	-18855
▁정연	-18856
▁취락	-18857
▁트랩	-18858
▁하체	-18859
▁한옥	-18860
▁홍명	-18861
▁Har	-18862
▁무척추	-18863
▁비대칭	-18864
▁연장선	-18865
▁취임식	-18866
▁저널리즘	-18867
▁네덜란드인	-18868
[...]
