[UNK]
[CLS]
[SEP]
[PAD]
[MASK]
!
"
#
$
%
&
'
(
)
*
+
,
-
.
/
0
1
2
3
4
5
6
7
8
9
:
;
<
=
>
?
@
A
B
C
D
E
F
G
H
I
J
K
L
M
N
O
P
Q
R
S
T
U
V
W
X
Y
Z
[
\
]
^
_
`
a
b
c
d
e
f
g
h
i
j
k
l
m
n
o
p
q
r
s
t
u
v
w
x
y
z
{
|
}
~

ㄱ
ㄲ
ㄳ
ㄴ
ㄵ
ㄶ
ㄷ
ㄸ
ㄹ
ㄺ
ㄻ
ㄼ
ㄽ
ㄾ
ㄿ
ㅀ
ㅁ
ㅂ
ㅃ
ㅄ
ㅅ
ㅆ
ㅇ
ㅈ
ㅉ
ㅊ
ㅋ
ㅌ
ㅍ
ㅎ
ㅏ
ㅐ
ㅑ
ㅒ
ㅓ
ㅔ
ㅕ
ㅖ
ㅗ
ㅘ
ㅙ
ㅚ
ㅛ
ㅜ
ㅝ
ㅞ
ㅟ
ㅠ
ㅡ
ㅢ
ㅣ
가
각
갂
갃
간
갅
갆
갇
갈
갉
갊
갋
갌
갍
갎
갏
감
갑
값
갓
갔
강
갖
갗
갘
같
갚
갛
개
객
갞
갟
갠
갡
갢
갣
갤
갥
갦
갧
갨
갩
갪
갫
갬
갭
갮
갯
갰
갱
갲
갳
갴
갵
갶
갷
갸
갹
갺
갻
갼
갽
갾
갿
걀
걁
걂
걃
걄
걅
걆
걇
걈
걉
걊
걋
걌
걍
걎
걏
걐
걑
걒
걓
걔
걕
걖
걗
걘
걙
걚
걛
걜
걝
걞
걟
걠
걡
걢
걣
걤
걥
걦
걧
걨
걩
걪
걫
걬
걭
걮
걯
거
걱
걲
걳
건
걵
걶
걷
걸
걹
걺
걻
걼
걽
걾
걿
검
겁
겂
것
겄
겅
겆
겇
겈
겉
겊
겋
게
겍
겎
겏
겐
겑
겒
겓
겔
겕
겖
겗
겘
겙
겚
겛
겜
겝
겞
겟
겠
겡
겢
겣
겤
겥
겦
겧
겨
격
겪
겫
견
겭
겮
겯
결
겱
겲
겳
겴
겵
겶
겷
겸
겹
겺
겻
겼
경
겾
겿
곀
곁
곂
곃
계
곅
곆
곇
곈
곉
곊
곋
곌
곍
곎
곏
곐
곑
곒
곓
곔
곕
곖
곗
곘
곙
곚
곛
곜
곝
곞
곟
고
곡
곢
곣
곤
곥
곦
곧
골
곩
곪
곫
곬
곭
곮
곯
곰
곱
곲
곳
곴
공
곶
곷
곸
곹
곺
곻
과
곽
곾
곿
관
괁
괂
괃
괄
괅
괆
괇
괈
괉
괊
괋
괌
괍
괎
괏
괐
광
괒
괓
괔
괕
괖
괗
괘
괙
괚
괛
괜
괝
괞
괟
괠
괡
괢
괣
괤
괥
괦
괧
괨
괩
괪
괫
괬
괭
괮
괯
괰
괱
괲
괳
괴
괵
괶
괷
괸
괹
괺
괻
괼
괽
괾
괿
굀
굁
굂
굃
굄
굅
굆
굇
굈
굉
굊
굋
굌
굍
굎
굏
교
굑
굒
굓
굔
굕
굖
굗
굘
굙
굚
굛
굜
굝
굞
굟
굠
굡
굢
굣
굤
굥
굦
굧
굨
굩
굪
굫
구
국
굮
굯
군
굱
굲
굳
굴
굵
굶
굷
굸
굹
굺
굻
굼
굽
굾
굿
궀
궁
궂
궃
궄
궅
궆
궇
궈
궉
궊
궋
권
궍
궎
궏
궐
궑
궒
궓
궔
궕
궖
궗
궘
궙
궚
궛
궜
궝
궞
궟
궠
궡
궢
궣
궤
궥
궦
궧
궨
궩
궪
궫
궬
궭
궮
궯
궰
궱
궲
궳
궴
궵
궶
궷
궸
궹
궺
궻
궼
궽
궾
궿
귀
귁
귂
귃
귄
귅
귆
귇
귈
귉
귊
귋
귌
귍
귎
귏
귐
귑
귒
귓
귔
귕
귖
귗
귘
귙
귚
귛
규
귝
귞
귟
균
귡
귢
귣
귤
귥
귦
귧
귨
귩
귪
귫
귬
귭
귮
귯
귰
귱
귲
귳
귴
귵
귶
귷
그
극
귺
귻
근
귽
귾
귿
글
긁
긂
긃
긄
긅
긆
긇
금
급
긊
긋
긌
긍
긎
긏
긐
긑
긒
긓
긔
긕
긖
긗
긘
긙
긚
긛
긜
긝
긞
긟
긠
긡
긢
긣
긤
긥
긦
긧
긨
긩
긪
긫
긬
긭
긮
긯
기
긱
긲
긳
긴
긵
긶
긷
길
긹
긺
긻
긼
긽
긾
긿
김
깁
깂
깃
깄
깅
깆
깇
깈
깉
깊
깋
까
깍
깎
깏
깐
깑
깒
깓
깔
깕
깖
깗
깘
깙
깚
깛
깜
깝
깞
깟
깠
깡
깢
깣
깤
깥
깦
깧
깨
깩
깪
깫
깬
깭
깮
깯
깰
깱
깲
깳
깴
깵
깶
깷
깸
깹
깺
깻
깼
깽
깾
깿
꺀
꺁
꺂
꺃
꺄
꺅
꺆
꺇
꺈
꺉
꺊
꺋
꺌
꺍
꺎
꺏
꺐
꺑
꺒
꺓
꺔
꺕
꺖
꺗
꺘
꺙
꺚
꺛
꺜
꺝
꺞
꺟
꺠
꺡
꺢
꺣
꺤
꺥
꺦
꺧
꺨
꺩
꺪
꺫
꺬
꺭
꺮
꺯
꺰
꺱
꺲
꺳
꺴
꺵
꺶
꺷
꺸
꺹
꺺
꺻
꺼
꺽
꺾
꺿
껀
껁
껂
껃
껄
껅
껆
껇
껈
껉
껊
껋
껌
껍
껎
껏
껐
껑
껒
껓
껔
껕
껖
껗
께
껙
껚
껛
껜
껝
껞
껟
껠
껡
껢
껣
껤
껥
껦
껧
껨
껩
껪
껫
껬
껭
껮
껯
껰
껱
껲
껳
껴
껵
껶
껷
껸
껹
껺
껻
껼
껽
껾
껿
꼀
꼁
꼂
꼃
꼄
꼅
꼆
꼇
꼈
꼉
꼊
꼋
꼌
꼍
꼎
꼏
꼐
꼑
꼒
꼓
꼔
꼕
꼖
꼗
꼘
꼙
꼚
꼛
꼜
꼝
꼞
꼟
꼠
꼡
꼢
꼣
꼤
꼥
꼦
꼧
꼨
꼩
꼪
꼫
꼬
꼭
꼮
꼯
꼰
꼱
꼲
꼳
꼴
꼵
꼶
꼷
꼸
꼹
꼺
꼻
꼼
꼽
꼾
꼿
꽀
꽁
꽂
꽃
꽄
꽅
꽆
꽇
꽈
꽉
꽊
꽋
꽌
꽍
꽎
꽏
꽐
꽑
꽒
꽓
꽔
꽕
꽖
꽗
꽘
꽙
꽚
꽛
꽜
꽝
꽞
꽟
꽠
꽡
꽢
꽣
꽤
꽥
꽦
꽧
꽨
꽩
꽪
꽫
꽬
꽭
꽮
꽯
꽰
꽱
꽲
꽳
꽴
꽵
꽶
꽷
꽸
꽹
꽺
꽻
꽼
꽽
꽾
꽿
꾀
꾁
꾂
꾃
꾄
꾅
꾆
꾇
꾈
꾉
꾊
꾋
꾌
꾍
꾎
꾏
꾐
꾑
꾒
꾓
꾔
꾕
꾖
꾗
꾘
꾙
꾚
꾛
꾜
꾝
꾞
꾟
꾠
꾡
꾢
꾣
꾤
꾥
꾦
꾧
꾨
꾩
꾪
꾫
꾬
꾭
꾮
꾯
꾰
꾱
꾲
꾳
꾴
꾵
꾶
꾷
꾸
꾹
꾺
꾻
꾼
꾽
꾾
꾿
꿀
꿁
꿂
꿃
꿄
꿅
꿆
꿇
꿈
꿉
꿊
꿋
꿌
꿍
꿎
꿏
꿐
꿑
꿒
꿓
꿔
꿕
꿖
꿗
꿘
꿙
꿚
꿛
꿜
꿝
꿞
꿟
꿠
꿡
꿢
꿣
꿤
꿥
꿦
꿧
꿨
꿩
꿪
꿫
꿬
꿭
꿮
꿯
꿰
꿱
꿲
꿳
꿴
꿵
꿶
꿷
꿸
꿹
꿺
꿻
꿼
꿽
꿾
꿿
뀀
뀁
뀂
뀃
뀄
뀅
뀆
뀇
뀈
뀉
뀊
뀋
뀌
뀍
뀎
뀏
뀐
뀑
뀒
뀓
뀔
뀕
뀖
뀗
뀘
뀙
뀚
뀛
뀜
뀝
뀞
뀟
뀠
뀡
뀢
뀣
뀤
뀥
뀦
뀧
뀨
뀩
뀪
뀫
뀬
뀭
뀮
뀯
뀰
뀱
뀲
뀳
뀴
뀵
뀶
뀷
뀸
뀹
뀺
뀻
뀼
뀽
뀾
뀿
끀
끁
끂
끃
끄
끅
끆
끇
끈
끉
끊
끋
끌
끍
끎
끏
끐
끑
끒
끓
끔
끕
끖
끗
끘
끙
끚
끛
끜
끝
끞
끟
끠
끡
끢
끣
끤
끥
끦
끧
끨
끩
끪
끫
끬
끭
끮
끯
끰
끱
끲
끳
끴
끵
끶
끷
끸
끹
끺
끻
끼
끽
끾
끿
낀
낁
낂
낃
낄
낅
낆
낇
낈
낉
낊
낋
낌
낍
낎
낏
낐
낑
낒
낓
낔
낕
낖
낗
나
낙
낚
낛
난
낝
낞
낟
날
낡
낢
낣
낤
낥
낦
낧
남
납
낪
낫
났
낭
낮
낯
낰
낱
낲
낳
내
낵
낶
낷
낸
낹
낺
낻
낼
낽
낾
낿
냀
냁
냂
냃
냄
냅
냆
냇
냈
냉
냊
냋
냌
냍
냎
냏
냐
냑
냒
냓
냔
냕
냖
냗
냘
냙
냚
냛
냜
냝
냞
냟
냠
냡
냢
냣
냤
냥
냦
냧
냨
냩
냪
냫
냬
냭
냮
냯
냰
냱
냲
냳
냴
냵
냶
냷
냸
냹
냺
냻
냼
냽
냾
냿
넀
넁
넂
넃
넄
넅
넆
넇
너
넉
넊
넋
넌
넍
넎
넏
널
넑
넒
넓
넔
넕
넖
넗
넘
넙
넚
넛
넜
넝
넞
넟
넠
넡
넢
넣
네
넥
넦
넧
넨
넩
넪
넫
넬
넭
넮
넯
넰
넱
넲
넳
넴
넵
넶
넷
넸
넹
넺
넻
넼
넽
넾
넿
녀
녁
녂
녃
년
녅
녆
녇
녈
녉
녊
녋
녌
녍
녎
녏
념
녑
녒
녓
녔
녕
녖
녗
녘
녙
녚
녛
녜
녝
녞
녟
녠
녡
녢
녣
녤
녥
녦
녧
녨
녩
녪
녫
녬
녭
녮
녯
녰
녱
녲
녳
녴
녵
녶
녷
노
녹
녺
녻
논
녽
녾
녿
놀
놁
놂
놃
놄
놅
놆
놇
놈
놉
놊
놋
놌
농
놎
놏
놐
놑
높
놓
놔
놕
놖
놗
놘
놙
놚
놛
놜
놝
놞
놟
놠
놡
놢
놣
놤
놥
놦
놧
놨
놩
놪
놫
놬
놭
놮
놯
놰
놱
놲
놳
놴
놵
놶
놷
놸
놹
놺
놻
놼
놽
놾
놿
뇀
뇁
뇂
뇃
뇄
뇅
뇆
뇇
뇈
뇉
뇊
뇋
뇌
뇍
뇎
뇏
뇐
뇑
뇒
뇓
뇔
뇕
뇖
뇗
뇘
뇙
뇚
뇛
뇜
뇝
뇞
뇟
뇠
뇡
뇢
뇣
뇤
뇥
뇦
뇧
뇨
뇩
뇪
뇫
뇬
뇭
뇮
뇯
뇰
뇱
뇲
뇳
뇴
뇵
뇶
뇷
뇸
뇹
뇺
뇻
뇼
뇽
뇾
뇿
눀
눁
눂
눃
누
눅
눆
눇
눈
눉
눊
눋
눌
눍
눎
눏
눐
눑
눒
눓
눔
눕
눖
눗
눘
눙
눚
눛
눜
눝
눞
눟
눠
눡
눢
눣
눤
눥
눦
눧
눨
눩
눪
눫
눬
눭
눮
눯
눰
눱
눲
눳
눴
눵
눶
눷
눸
눹
눺
눻
눼
눽
눾
눿
뉀
뉁
뉂
뉃
뉄
뉅
뉆
뉇
뉈
뉉
뉊
뉋
뉌
뉍
뉎
뉏
뉐
뉑
뉒
뉓
뉔
뉕
뉖
뉗
뉘
뉙
뉚
뉛
뉜
뉝
뉞
뉟
뉠
뉡
뉢
뉣
뉤
뉥
뉦
뉧
뉨
뉩
뉪
뉫
뉬
뉭
뉮
뉯
뉰
뉱
뉲
뉳
뉴
뉵
뉶
뉷
뉸
뉹
뉺
뉻
뉼
뉽
뉾
뉿
늀
늁
늂
늃
늄
늅
늆
늇
늈
늉
늊
늋
늌
늍
늎
늏
느
늑
늒
늓
는
늕
늖
늗
늘
늙
늚
늛
늜
늝
늞
늟
늠
늡
늢
늣
늤
능
늦
늧
늨
늩
늪
늫
늬
늭
늮
늯
늰
늱
늲
늳
늴
늵
늶
늷
늸
늹
늺
늻
늼
늽
늾
늿
닀
닁
닂
닃
닄
닅
닆
닇
니
닉
닊
닋
닌
닍
닎
닏
닐
닑
닒
닓
닔
닕
닖
닗
님
닙
닚
닛
닜
닝
닞
닟
닠
닡
닢
닣
다
닥
닦
닧
단
닩
닪
닫
달
닭
닮
닯
닰
닱
닲
닳
담
답
닶
닷
닸
당
닺
닻
닼
닽
닾
닿
대
댁
댂
댃
댄
댅
댆
댇
댈
댉
댊
댋
댌
댍
댎
댏
댐
댑
댒
댓
댔
댕
댖
댗
댘
댙
댚
댛
댜
댝
댞
댟
댠
댡
댢
댣
댤
댥
댦
댧
댨
댩
댪
댫
댬
댭
댮
댯
댰
댱
댲
댳
댴
댵
댶
댷
댸
댹
댺
댻
댼
댽
댾
댿
덀
덁
덂
덃
덄
덅
덆
덇
덈
덉
덊
덋
덌
덍
덎
덏
덐
덑
덒
덓
더
덕
덖
덗
던
덙
덚
덛
덜
덝
덞
덟
덠
덡
덢
덣
덤
덥
덦
덧
덨
덩
덪
덫
덬
덭
덮
덯
데
덱
덲
덳
덴
덵
덶
덷
델
덹
덺
덻
덼
덽
덾
덿
뎀
뎁
뎂
뎃
뎄
뎅
뎆
뎇
뎈
뎉
뎊
뎋
뎌
뎍
뎎
뎏
뎐
뎑
뎒
뎓
뎔
뎕
뎖
뎗
뎘
뎙
뎚
뎛
뎜
뎝
뎞
뎟
뎠
뎡
뎢
뎣
뎤
뎥
뎦
뎧
뎨
뎩
뎪
뎫
뎬
뎭
뎮
뎯
뎰
뎱
뎲
뎳
뎴
뎵
뎶
뎷
뎸
뎹
뎺
뎻
뎼
뎽
뎾
뎿
돀
돁
돂
돃
도
독
돆
돇
돈
돉
돊
돋
돌
돍
돎
돏
돐
돑
돒
돓
돔
돕
돖
돗
돘
동
돚
돛
돜
돝
돞
돟
돠
돡
돢
돣
돤
돥
돦
돧
돨
돩
돪
돫
돬
돭
돮
돯
돰
돱
돲
돳
돴
돵
돶
돷
돸
돹
돺
돻
돼
돽
돾
돿
됀
됁
됂
됃
됄
됅
됆
됇
됈
됉
됊
됋
됌
됍
됎
됏
됐
됑
됒
됓
됔
됕
됖
됗
되
됙
됚
됛
된
됝
됞
됟
될
됡
됢
됣
됤
됥
됦
됧
됨
됩
됪
됫
됬
됭
됮
됯
됰
됱
됲
됳
됴
됵
됶
됷
됸
됹
됺
됻
됼
됽
됾
됿
둀
둁
둂
둃
둄
둅
둆
둇
둈
둉
둊
둋
둌
둍
둎
둏
두
둑
둒
둓
둔
둕
둖
둗
둘
둙
둚
둛
둜
둝
둞
둟
둠
둡
둢
둣
둤
둥
둦
둧
둨
둩
둪
둫
둬
둭
둮
둯
둰
둱
둲
둳
둴
둵
둶
둷
둸
둹
둺
둻
둼
둽
둾
둿
뒀
뒁
뒂
뒃
뒄
뒅
뒆
뒇
뒈
뒉
뒊
뒋
뒌
뒍
뒎
뒏
뒐
뒑
뒒
뒓
뒔
뒕
뒖
뒗
뒘
뒙
뒚
뒛
뒜
뒝
뒞
뒟
뒠
뒡
뒢
뒣
뒤
뒥
뒦
뒧
뒨
뒩
뒪
뒫
뒬
뒭
뒮
뒯
뒰
뒱
뒲
뒳
뒴
뒵
뒶
뒷
뒸
뒹
뒺
뒻
뒼
뒽
뒾
뒿
듀
듁
듂
듃
듄
듅
듆
듇
듈
듉
듊
듋
듌
듍
듎
듏
듐
듑
듒
듓
듔
듕
듖
듗
듘
듙
듚
듛
드
득
듞
듟
든
듡
듢
듣
들
듥
듦
듧
듨
듩
듪
듫
듬
듭
듮
듯
듰
등
듲
듳
듴
듵
듶
듷
듸
듹
듺
듻
듼
듽
듾
듿
딀
딁
딂
딃
딄
딅
딆
딇
딈
딉
딊
딋
딌
딍
딎
딏
딐
딑
딒
딓
디
딕
딖
딗
딘
딙
딚
딛
딜
딝
딞
딟
딠
딡
딢
딣
딤
딥
딦
딧
딨
딩
딪
딫
딬
딭
딮
딯
따
딱
딲
딳
딴
딵
딶
딷
딸
딹
딺
딻
딼
딽
딾
딿
땀
땁
땂
땃
땄
땅
땆
땇
땈
땉
땊
땋
때
땍
땎
땏
땐
땑
땒
땓
땔
땕
땖
땗
땘
땙
땚
땛
땜
땝
땞
땟
땠
땡
땢
땣
땤
땥
땦
땧
땨
땩
땪
땫
땬
땭
땮
땯
땰
땱
땲
땳
땴
땵
땶
땷
땸
땹
땺
땻
땼
땽
땾
땿
떀
떁
떂
떃
떄
떅
떆
떇
떈
떉
떊
떋
떌
떍
떎
떏
떐
떑
떒
떓
떔
떕
떖
떗
떘
떙
떚
떛
떜
떝
떞
떟
떠
떡
떢
떣
떤
떥
떦
떧
떨
떩
떪
떫
떬
떭
떮
떯
떰
떱
떲
떳
떴
떵
떶
떷
떸
떹
떺
떻
떼
떽
떾
떿
뗀
뗁
뗂
뗃
뗄
뗅
뗆
뗇
뗈
뗉
뗊
뗋
뗌
뗍
뗎
뗏
뗐
뗑
뗒
뗓
뗔
뗕
뗖
뗗
뗘
뗙
뗚
뗛
뗜
뗝
뗞
뗟
뗠
뗡
뗢
뗣
뗤
뗥
뗦
뗧
뗨
뗩
뗪
뗫
뗬
뗭
뗮
뗯
뗰
뗱
뗲
뗳
뗴
뗵
뗶
뗷
뗸
뗹
뗺
뗻
뗼
뗽
뗾
뗿
똀
똁
똂
똃
똄
똅
똆
똇
똈
똉
똊
똋
똌
똍
똎
똏
또
똑
똒
똓
똔
똕
똖
똗
똘
똙
똚
똛
똜
똝
똞
똟
똠
똡
똢
똣
똤
똥
똦
똧
똨
똩
똪
똫
똬
똭
똮
똯
똰
똱
똲
똳
똴
똵
똶
똷
똸
똹
똺
똻
똼
똽
똾
똿
뙀
뙁
뙂
뙃
뙄
뙅
뙆
뙇
뙈
뙉
뙊
뙋
뙌
뙍
뙎
뙏
뙐
뙑
뙒
뙓
뙔
뙕
뙖
뙗
뙘
뙙
뙚
뙛
뙜
뙝
뙞
뙟
뙠
뙡
뙢
뙣
뙤
뙥
뙦
뙧
뙨
뙩
뙪
뙫
뙬
뙭
뙮
뙯
뙰
뙱
뙲
뙳
뙴
뙵
뙶
뙷
뙸
뙹
뙺
뙻
뙼
뙽
뙾
뙿
뚀
뚁
뚂
뚃
뚄
뚅
뚆
뚇
뚈
뚉
뚊
뚋
뚌
뚍
뚎
뚏
뚐
뚑
뚒
뚓
뚔
뚕
뚖
뚗
뚘
뚙
뚚
뚛
뚜
뚝
뚞
뚟
뚠
뚡
뚢
뚣
뚤
뚥
뚦
뚧
뚨
뚩
뚪
뚫
뚬
뚭
뚮
뚯
뚰
뚱
뚲
뚳
뚴
뚵
뚶
뚷
뚸
뚹
뚺
뚻
뚼
뚽
뚾
뚿
뛀
뛁
뛂
뛃
뛄
뛅
뛆
뛇
뛈
뛉
뛊
뛋
뛌
뛍
뛎
뛏
뛐
뛑
뛒
뛓
뛔
뛕
뛖
뛗
뛘
뛙
뛚
뛛
뛜
뛝
뛞
뛟
뛠
뛡
뛢
뛣
뛤
뛥
뛦
뛧
뛨
뛩
뛪
뛫
뛬
뛭
뛮
뛯
뛰
뛱
뛲
뛳
뛴
뛵
뛶
뛷
뛸
뛹
뛺
뛻
뛼
뛽
뛾
뛿
뜀
뜁
뜂
뜃
뜄
뜅
뜆
뜇
뜈
뜉
뜊
뜋
뜌
뜍
뜎
뜏
뜐
뜑
뜒
뜓
뜔
뜕
뜖
뜗
뜘
뜙
뜚
뜛
뜜
뜝
뜞
뜟
뜠
뜡
뜢
뜣
뜤
뜥
뜦
뜧
뜨
뜩
뜪
뜫
뜬
뜭
뜮
뜯
뜰
뜱
뜲
뜳
뜴
뜵
뜶
뜷
뜸
뜹
뜺
뜻
뜼
뜽
뜾
뜿
띀
띁
띂
띃
띄
띅
띆
띇
띈
띉
띊
띋
띌
띍
띎
띏
띐
띑
띒
띓
띔
띕
띖
띗
띘
띙
띚
띛
띜
띝
띞
띟
띠
띡
띢
띣
띤
띥
띦
띧
띨
띩
띪
띫
띬
띭
띮
띯
띰
띱
띲
띳
띴
띵
띶
띷
띸
띹
띺
띻
라
락
띾
띿
란
랁
랂
랃
랄
랅
랆
랇
랈
랉
랊
랋
람
랍
랎
랏
랐
랑
랒
랓
랔
랕
랖
랗
래
랙
랚
랛
랜
랝
랞
랟
랠
랡
랢
랣
랤
랥
랦
랧
램
랩
랪
랫
랬
랭
랮
랯
랰
랱
랲
랳
랴
략
랶
랷
랸
랹
랺
랻
랼
랽
랾
랿
럀
럁
럂
럃
럄
럅
럆
럇
럈
량
럊
럋
럌
럍
럎
럏
럐
럑
럒
럓
럔
럕
럖
럗
럘
럙
럚
럛
럜
럝
럞
럟
럠
럡
럢
럣
럤
럥
럦
럧
럨
럩
럪
럫
러
럭
럮
럯
런
럱
럲
럳
럴
럵
럶
럷
럸
럹
럺
럻
럼
럽
럾
럿
렀
렁
렂
렃
렄
렅
렆
렇
레
렉
렊
렋
렌
렍
렎
렏
렐
렑
렒
렓
렔
렕
렖
렗
렘
렙
렚
렛
렜
렝
렞
렟
렠
렡
렢
렣
려
력
렦
렧
련
렩
렪
렫
렬
렭
렮
렯
렰
렱
렲
렳
렴
렵
렶
렷
렸
령
렺
렻
렼
렽
렾
렿
례
롁
롂
롃
롄
롅
롆
롇
롈
롉
롊
롋
롌
롍
롎
롏
롐
롑
롒
롓
롔
롕
롖
롗
롘
롙
롚
롛
로
록
롞
롟
론
롡
롢
롣
롤
롥
롦
롧
롨
롩
롪
롫
롬
롭
롮
롯
롰
롱
롲
롳
롴
롵
롶
롷
롸
롹
롺
롻
롼
롽
롾
롿
뢀
뢁
뢂
뢃
뢄
뢅
뢆
뢇
뢈
뢉
뢊
뢋
뢌
뢍
뢎
뢏
뢐
뢑
뢒
뢓
뢔
뢕
뢖
뢗
뢘
뢙
뢚
뢛
뢜
뢝
뢞
뢟
뢠
뢡
뢢
뢣
뢤
뢥
뢦
뢧
뢨
뢩
뢪
뢫
뢬
뢭
뢮
뢯
뢰
뢱
뢲
뢳
뢴
뢵
뢶
뢷
뢸
뢹
뢺
뢻
뢼
뢽
뢾
뢿
룀
룁
룂
룃
룄
룅
룆
룇
룈
룉
룊
룋
료
룍
룎
룏
룐
룑
룒
룓
룔
룕
룖
룗
룘
룙
룚
룛
룜
룝
룞
룟
룠
룡
룢
룣
룤
룥
룦
룧
루
룩
룪
룫
룬
룭
룮
룯
룰
룱
룲
룳
룴
룵
룶
룷
룸
룹
룺
룻
룼
룽
룾
룿
뤀
뤁
뤂
뤃
뤄
뤅
뤆
뤇
뤈
뤉
뤊
뤋
뤌
뤍
뤎
뤏
뤐
뤑
뤒
뤓
뤔
뤕
뤖
뤗
뤘
뤙
뤚
뤛
뤜
뤝
뤞
뤟
뤠
뤡
뤢
뤣
뤤
뤥
뤦
뤧
뤨
뤩
뤪
뤫
뤬
뤭
뤮
뤯
뤰
뤱
뤲
뤳
뤴
뤵
뤶
뤷
뤸
뤹
뤺
뤻
뤼
뤽
뤾
뤿
륀
륁
륂
륃
륄
륅
륆
륇
륈
륉
륊
륋
륌
륍
륎
륏
륐
륑
륒
륓
륔
륕
륖
륗
류
륙
륚
륛
륜
륝
륞
륟
률
륡
륢
륣
륤
륥
륦
륧
륨
륩
륪
륫
륬
륭
륮
륯
륰
륱
륲
륳
르
륵
륶
륷
른
륹
륺
륻
를
륽
륾
륿
릀
릁
릂
릃
름
릅
릆
릇
릈
릉
릊
릋
릌
릍
릎
릏
릐
릑
릒
릓
릔
릕
릖
릗
릘
릙
릚
릛
릜
릝
릞
릟
릠
릡
릢
릣
릤
릥
릦
릧
릨
릩
릪
릫
리
릭
릮
릯
린
릱
릲
릳
릴
릵
릶
릷
릸
릹
릺
릻
림
립
릾
릿
맀
링
맂
맃
맄
맅
맆
맇
마
막
맊
맋
만
맍
많
맏
말
맑
맒
맓
맔
맕
맖
맗
맘
맙
맚
맛
맜
망
맞
맟
맠
맡
맢
맣
매
맥
맦
맧
맨
맩
맪
맫
맬
맭
맮
맯
맰
맱
맲
맳
맴
맵
맶
맷
맸
맹
맺
맻
맼
맽
맾
맿
먀
먁
먂
먃
먄
먅
먆
먇
먈
먉
먊
먋
먌
먍
먎
먏
먐
먑
먒
먓
먔
먕
먖
먗
먘
먙
먚
먛
먜
먝
먞
먟
먠
먡
먢
먣
먤
먥
먦
먧
먨
먩
먪
먫
먬
먭
먮
먯
먰
먱
먲
먳
먴
먵
먶
먷
머
먹
먺
먻
먼
먽
먾
먿
멀
멁
멂
멃
멄
멅
멆
멇
멈
멉
멊
멋
멌
멍
멎
멏
멐
멑
멒
멓
메
멕
멖
멗
멘
멙
멚
멛
멜
멝
멞
멟
멠
멡
멢
멣
멤
멥
멦
멧
멨
멩
멪
멫
멬
멭
멮
멯
며
멱
멲
멳
면
멵
멶
멷
멸
멹
멺
멻
멼
멽
멾
멿
몀
몁
몂
몃
몄
명
몆
몇
몈
몉
몊
몋
몌
몍
몎
몏
몐
몑
몒
몓
몔
몕
몖
몗
몘
몙
몚
몛
몜
몝
몞
몟
몠
몡
몢
몣
몤
몥
몦
몧
모
목
몪
몫
몬
몭
몮
몯
몰
몱
몲
몳
몴
몵
몶
몷
몸
몹
몺
못
몼
몽
몾
몿
뫀
뫁
뫂
뫃
뫄
뫅
뫆
뫇
뫈
뫉
뫊
뫋
뫌
뫍
뫎
뫏
뫐
뫑
뫒
뫓
뫔
뫕
뫖
뫗
뫘
뫙
뫚
뫛
뫜
뫝
뫞
뫟
뫠
뫡
뫢
뫣
뫤
뫥
뫦
뫧
뫨
뫩
뫪
뫫
뫬
뫭
뫮
뫯
뫰
뫱
뫲
뫳
뫴
뫵
뫶
뫷
뫸
뫹
뫺
뫻
뫼
뫽
뫾
뫿
묀
묁
묂
묃
묄
묅
묆
묇
묈
묉
묊
묋
묌
묍
묎
묏
묐
묑
묒
묓
묔
묕
묖
묗
묘
묙
묚
묛
묜
묝
묞
묟
묠
묡
묢
묣
묤
묥
묦
묧
묨
묩
묪
묫
묬
묭
묮
묯
묰
묱
묲
묳
무
묵
묶
묷
문
묹
묺
묻
물
묽
묾
묿
뭀
뭁
뭂
뭃
뭄
뭅
뭆
뭇
뭈
뭉
뭊
뭋
뭌
뭍
뭎
뭏
뭐
뭑
뭒
뭓
뭔
뭕
뭖
뭗
뭘
뭙
뭚
뭛
뭜
뭝
뭞
뭟
뭠
뭡
뭢
뭣
뭤
뭥
뭦
뭧
뭨
뭩
뭪
뭫
뭬
뭭
뭮
뭯
뭰
뭱
뭲
뭳
뭴
뭵
뭶
뭷
뭸
뭹
뭺
뭻
뭼
뭽
뭾
뭿
뮀
뮁
뮂
뮃
뮄
뮅
뮆
뮇
뮈
뮉
뮊
뮋
뮌
뮍
뮎
뮏
뮐
뮑
뮒
뮓
뮔
뮕
뮖
뮗
뮘
뮙
뮚
뮛
뮜
뮝
뮞
뮟
뮠
뮡
뮢
뮣
뮤
뮥
뮦
뮧
뮨
뮩
뮪
뮫
뮬
뮭
뮮
뮯
뮰
뮱
뮲
뮳
뮴
뮵
뮶
뮷
뮸
뮹
뮺
뮻
뮼
뮽
뮾
뮿
므
믁
믂
믃
믄
믅
믆
믇
믈
믉
믊
믋
믌
믍
믎
믏
믐
믑
믒
믓
믔
믕
믖
믗
믘
믙
믚
믛
믜
믝
믞
믟
믠
믡
믢
믣
믤
믥
믦
믧
믨
믩
믪
믫
믬
믭
믮
믯
믰
믱
믲
믳
믴
믵
믶
믷
미
믹
믺
믻
민
믽
믾
믿
밀
밁
밂
밃
밄
밅
밆
밇
밈
밉
밊
밋
밌
밍
밎
및
밐
밑
밒
밓
바
박
밖
밗
반
밙
밚
받
발
밝
밞
밟
밠
밡
밢
밣
밤
밥
밦
밧
밨
방
밪
밫
밬
밭
밮
밯
배
백
밲
밳
밴
밵
밶
밷
밸
밹
밺
밻
밼
밽
밾
밿
뱀
뱁
뱂
뱃
뱄
뱅
뱆
뱇
뱈
뱉
뱊
뱋
뱌
뱍
뱎
뱏
뱐
뱑
뱒
뱓
뱔
뱕
뱖
뱗
뱘
뱙
뱚
뱛
뱜
뱝
뱞
뱟
뱠
뱡
뱢
뱣
뱤
뱥
뱦
뱧
뱨
뱩
뱪
뱫
뱬
뱭
뱮
뱯
뱰
뱱
뱲
뱳
뱴
뱵
뱶
뱷
뱸
뱹
뱺
뱻
뱼
뱽
뱾
뱿
벀
벁
벂
벃
버
벅
벆
벇
번
벉
벊
벋
벌
벍
벎
벏
벐
벑
벒
벓
범
법
벖
벗
벘
벙
벚
벛
벜
벝
벞
벟
베
벡
벢
벣
벤
벥
벦
벧
벨
벩
벪
벫
벬
벭
벮
벯
벰
벱
벲
벳
벴
벵
벶
벷
벸
벹
벺
벻
벼
벽
벾
벿
변
볁
볂
볃
별
볅
볆
볇
볈
볉
볊
볋
볌
볍
볎
볏
볐
병
볒
볓
볔
볕
볖
볗
볘
볙
볚
볛
볜
볝
볞
볟
볠
볡
볢
볣
볤
볥
볦
볧
볨
볩
볪
볫
볬
볭
볮
볯
볰
볱
볲
볳
보
복
볶
볷
본
볹
볺
볻
볼
볽
볾
볿
봀
봁
봂
봃
봄
봅
봆
봇
봈
봉
봊
봋
봌
봍
봎
봏
봐
봑
봒
봓
봔
봕
봖
봗
봘
봙
봚
봛
봜
봝
봞
봟
봠
봡
봢
봣
봤
봥
봦
봧
봨
봩
봪
봫
봬
봭
봮
봯
봰
봱
봲
봳
봴
봵
봶
봷
봸
봹
봺
봻
봼
봽
봾
봿
뵀
뵁
뵂
뵃
뵄
뵅
뵆
뵇
뵈
뵉
뵊
뵋
뵌
뵍
뵎
뵏
뵐
뵑
뵒
뵓
뵔
뵕
뵖
뵗
뵘
뵙
뵚
뵛
뵜
뵝
뵞
뵟
뵠
뵡
뵢
뵣
뵤
뵥
뵦
뵧
뵨
뵩
뵪
뵫
뵬
뵭
뵮
뵯
뵰
뵱
뵲
뵳
뵴
뵵
뵶
뵷
뵸
뵹
뵺
뵻
뵼
뵽
뵾
뵿
부
북
붂
붃
분
붅
붆
붇
불
붉
붊
붋
붌
붍
붎
붏
붐
붑
붒
붓
붔
붕
붖
붗
붘
붙
붚
붛
붜
붝
붞
붟
붠
붡
붢
붣
붤
붥
붦
붧
붨
붩
붪
붫
붬
붭
붮
붯
붰
붱
붲
붳
붴
붵
붶
붷
붸
붹
붺
붻
붼
붽
붾
붿
뷀
뷁
뷂
뷃
뷄
뷅
뷆
뷇
뷈
뷉
뷊
뷋
뷌
뷍
뷎
뷏
뷐
뷑
뷒
뷓
뷔
뷕
뷖
뷗
뷘
뷙
뷚
뷛
뷜
뷝
뷞
뷟
뷠
뷡
뷢
뷣
뷤
뷥
뷦
뷧
뷨
뷩
뷪
뷫
뷬
뷭
뷮
뷯
뷰
뷱
뷲
뷳
뷴
뷵
뷶
뷷
뷸
뷹
뷺
뷻
뷼
뷽
뷾
뷿
븀
븁
븂
븃
븄
븅
븆
븇
븈
븉
븊
븋
브
븍
븎
븏
븐
븑
븒
븓
블
븕
븖
븗
븘
븙
븚
븛
븜
븝
븞
븟
븠
븡
븢
븣
븤
븥
븦
븧
븨
븩
븪
븫
븬
븭
븮
븯
븰
븱
븲
븳
븴
븵
븶
븷
븸
븹
븺
븻
븼
븽
븾
븿
빀
빁
빂
빃
비
빅
빆
빇
빈
빉
빊
빋
빌
빍
빎
빏
빐
빑
빒
빓
빔
빕
빖
빗
빘
빙
빚
빛
빜
빝
빞
빟
빠
빡
빢
빣
빤
빥
빦
빧
빨
빩
빪
빫
빬
빭
빮
빯
빰
빱
빲
빳
빴
빵
빶
빷
빸
빹
빺
빻
빼
빽
빾
빿
뺀
뺁
뺂
뺃
뺄
뺅
뺆
뺇
뺈
뺉
뺊
뺋
뺌
뺍
뺎
뺏
뺐
뺑
뺒
뺓
뺔
뺕
뺖
뺗
뺘
뺙
뺚
뺛
뺜
뺝
뺞
뺟
뺠
뺡
뺢
뺣
뺤
뺥
뺦
뺧
뺨
뺩
뺪
뺫
뺬
뺭
뺮
뺯
뺰
뺱
뺲
뺳
뺴
뺵
뺶
뺷
뺸
뺹
뺺
뺻
뺼
뺽
뺾
뺿
뻀
뻁
뻂
뻃
뻄
뻅
뻆
뻇
뻈
뻉
뻊
뻋
뻌
뻍
뻎
뻏
뻐
뻑
뻒
뻓
뻔
뻕
뻖
뻗
뻘
뻙
뻚
뻛
뻜
뻝
뻞
뻟
뻠
뻡
뻢
뻣
뻤
뻥
뻦
뻧
뻨
뻩
뻪
뻫
뻬
뻭
뻮
뻯
뻰
뻱
뻲
뻳
뻴
뻵
뻶
뻷
뻸
뻹
뻺
뻻
뻼
뻽
뻾
뻿
뼀
뼁
뼂
뼃
뼄
뼅
뼆
뼇
뼈
뼉
뼊
뼋
뼌
뼍
뼎
뼏
뼐
뼑
뼒
뼓
뼔
뼕
뼖
뼗
뼘
뼙
뼚
뼛
뼜
뼝
뼞
뼟
뼠
뼡
뼢
뼣
뼤
뼥
뼦
뼧
뼨
뼩
뼪
뼫
뼬
뼭
뼮
뼯
뼰
뼱
뼲
뼳
뼴
뼵
뼶
뼷
뼸
뼹
뼺
뼻
뼼
뼽
뼾
뼿
뽀
뽁
뽂
뽃
뽄
뽅
뽆
뽇
뽈
뽉
뽊
뽋
뽌
뽍
뽎
뽏
뽐
뽑
뽒
뽓
뽔
뽕
뽖
뽗
뽘
뽙
뽚
뽛
뽜
뽝
뽞
뽟
뽠
뽡
뽢
뽣
뽤
뽥
뽦
뽧
뽨
뽩
뽪
뽫
뽬
뽭
뽮
뽯
뽰
뽱
뽲
뽳
뽴
뽵
뽶
뽷
뽸
뽹
뽺
뽻
뽼
뽽
뽾
뽿
뾀
뾁
뾂
뾃
뾄
뾅
뾆
뾇
뾈
뾉
뾊
뾋
뾌
뾍
뾎
뾏
뾐
뾑
뾒
뾓
뾔
뾕
뾖
뾗
뾘
뾙
뾚
뾛
뾜
뾝
뾞
뾟
뾠
뾡
뾢
뾣
뾤
뾥
뾦
뾧
뾨
뾩
뾪
뾫
뾬
뾭
뾮
뾯
뾰
뾱
뾲
뾳
뾴
뾵
뾶
뾷
뾸
뾹
뾺
뾻
뾼
뾽
뾾
뾿
뿀
뿁
뿂
뿃
뿄
뿅
뿆
뿇
뿈
뿉
뿊
뿋
뿌
뿍
뿎
뿏
뿐
뿑
뿒
뿓
뿔
뿕
뿖
뿗
뿘
뿙
뿚
뿛
뿜
뿝
뿞
뿟
뿠
뿡
뿢
뿣
뿤
뿥
뿦
뿧
뿨
뿩
뿪
뿫
뿬
뿭
뿮
뿯
뿰
뿱
뿲
뿳
뿴
뿵
뿶
뿷
뿸
뿹
뿺
뿻
뿼
뿽
뿾
뿿
쀀
쀁
쀂
쀃
쀄
쀅
쀆
쀇
쀈
쀉
쀊
쀋
쀌
쀍
쀎
쀏
쀐
쀑
쀒
쀓
쀔
쀕
쀖
쀗
쀘
쀙
쀚
쀛
쀜
쀝
쀞
쀟
쀠
쀡
쀢
쀣
쀤
쀥
쀦
쀧
쀨
쀩
쀪
쀫
쀬
쀭
쀮
쀯
쀰
쀱
쀲
쀳
쀴
쀵
쀶
쀷
쀸
쀹
쀺
쀻
쀼
쀽
쀾
쀿
쁀
쁁
쁂
쁃
쁄
쁅
쁆
쁇
쁈
쁉
쁊
쁋
쁌
쁍
쁎
쁏
쁐
쁑
쁒
쁓
쁔
쁕
쁖
쁗
쁘
쁙
쁚
쁛
쁜
쁝
쁞
쁟
쁠
쁡
쁢
쁣
쁤
쁥
쁦
쁧
쁨
쁩
쁪
쁫
쁬
쁭
쁮
쁯
쁰
쁱
쁲
쁳
쁴
쁵
쁶
쁷
쁸
쁹
쁺
쁻
쁼
쁽
쁾
쁿
삀
삁
삂
삃
삄
삅
삆
삇
삈
삉
삊
삋
삌
삍
삎
삏
삐
삑
삒
삓
삔
삕
삖
삗
삘
삙
삚
삛
삜
삝
삞
삟
삠
삡
삢
삣
삤
삥
삦
삧
삨
삩
삪
삫
사
삭
삮
삯
산
삱
삲
삳
살
삵
삶
삷
삸
삹
삺
삻
삼
삽
삾
삿
샀
상
샂
샃
샄
샅
샆
샇
새
색
샊
샋
샌
샍
샎
샏
샐
샑
샒
샓
샔
샕
샖
샗
샘
샙
샚
샛
샜
생
샞
샟
샠
샡
샢
샣
샤
샥
샦
샧
샨
샩
샪
샫
샬
샭
샮
샯
샰
샱
샲
샳
샴
샵
샶
샷
샸
샹
샺
샻
샼
샽
샾
샿
섀
섁
섂
섃
섄
섅
섆
섇
섈
섉
섊
섋
섌
섍
섎
섏
섐
섑
섒
섓
섔
섕
섖
섗
섘
섙
섚
섛
서
석
섞
섟
선
섡
섢
섣
설
섥
섦
섧
섨
섩
섪
섫
섬
섭
섮
섯
섰
성
섲
섳
섴
섵
섶
섷
세
섹
섺
섻
센
섽
섾
섿
셀
셁
셂
셃
셄
셅
셆
셇
셈
셉
셊
셋
셌
셍
셎
셏
셐
셑
셒
셓
셔
셕
셖
셗
션
셙
셚
셛
셜
셝
셞
셟
셠
셡
셢
셣
셤
셥
셦
셧
셨
셩
셪
셫
셬
셭
셮
셯
셰
셱
셲
셳
셴
셵
셶
셷
셸
셹
셺
셻
셼
셽
셾
셿
솀
솁
솂
솃
솄
솅
솆
솇
솈
솉
솊
솋
소
속
솎
솏
손
솑
솒
솓
솔
솕
솖
솗
솘
솙
솚
솛
솜
솝
솞
솟
솠
송
솢
솣
솤
솥
솦
솧
솨
솩
솪
솫
솬
솭
솮
솯
솰
솱
솲
솳
솴
솵
솶
솷
솸
솹
솺
솻
솼
솽
솾
솿
쇀
쇁
쇂
쇃
쇄
쇅
쇆
쇇
쇈
쇉
쇊
쇋
쇌
쇍
쇎
쇏
쇐
쇑
쇒
쇓
쇔
쇕
쇖
쇗
쇘
쇙
쇚
쇛
쇜
쇝
쇞
쇟
쇠
쇡
쇢
쇣
쇤
쇥
쇦
쇧
쇨
쇩
쇪
쇫
쇬
쇭
쇮
쇯
쇰
쇱
쇲
쇳
쇴
쇵
쇶
쇷
쇸
쇹
쇺
쇻
쇼
쇽
쇾
쇿
숀
숁
숂
숃
숄
숅
숆
숇
숈
숉
숊
숋
숌
숍
숎
숏
숐
숑
숒
숓
숔
숕
숖
숗
수
숙
숚
숛
순
숝
숞
숟
술
숡
숢
숣
숤
숥
숦
숧
숨
숩
숪
숫
숬
숭
숮
숯
숰
숱
숲
숳
숴
숵
숶
숷
숸
숹
숺
숻
숼
숽
숾
숿
쉀
쉁
쉂
쉃
쉄
쉅
쉆
쉇
쉈
쉉
쉊
쉋
쉌
쉍
쉎
쉏
쉐
쉑
쉒
쉓
쉔
쉕
쉖
쉗
쉘
쉙
쉚
쉛
쉜
쉝
쉞
쉟
쉠
쉡
쉢
쉣
쉤
쉥
쉦
쉧
쉨
쉩
쉪
쉫
쉬
쉭
쉮
쉯
쉰
쉱
쉲
쉳
쉴
쉵
쉶
쉷
쉸
쉹
쉺
쉻
쉼
쉽
쉾
쉿
슀
슁
슂
슃
슄
슅
슆
슇
슈
슉
슊
슋
슌
슍
슎
슏
슐
슑
슒
슓
슔
슕
슖
슗
슘
슙
슚
슛
슜
슝
슞
슟
슠
슡
슢
슣
스
슥
슦
슧
슨
슩
슪
슫
슬
슭
슮
슯
슰
슱
슲
슳
슴
습
슶
슷
슸
승
슺
슻
슼
슽
슾
슿
싀
싁
싂
싃
싄
싅
싆
싇
싈
싉
싊
싋
싌
싍
싎
싏
싐
싑
싒
싓
싔
싕
싖
싗
싘
싙
싚
싛
시
식
싞
싟
신
싡
싢
싣
실
싥
싦
싧
싨
싩
싪
싫
심
십
싮
싯
싰
싱
싲
싳
싴
싵
싶
싷
싸
싹
싺
싻
싼
싽
싾
싿
쌀
쌁
쌂
쌃
쌄
쌅
쌆
쌇
쌈
쌉
쌊
쌋
쌌
쌍
쌎
쌏
쌐
쌑
쌒
쌓
쌔
쌕
쌖
쌗
쌘
쌙
쌚
쌛
쌜
쌝
쌞
쌟
쌠
쌡
쌢
쌣
쌤
쌥
쌦
쌧
쌨
쌩
쌪
쌫
쌬
쌭
쌮
쌯
쌰
쌱
쌲
쌳
쌴
쌵
쌶
쌷
쌸
쌹
쌺
쌻
쌼
쌽
쌾
쌿
썀
썁
썂
썃
썄
썅
썆
썇
썈
썉
썊
썋
썌
썍
썎
썏
썐
썑
썒
썓
썔
썕
썖
썗
썘
썙
썚
썛
썜
썝
썞
썟
썠
썡
썢
썣
썤
썥
썦
썧
써
썩
썪
썫
썬
썭
썮
썯
썰
썱
썲
썳
썴
썵
썶
썷
썸
썹
썺
썻
썼
썽
썾
썿
쎀
쎁
쎂
쎃
쎄
쎅
쎆
쎇
쎈
쎉
쎊
쎋
쎌
쎍
쎎
쎏
쎐
쎑
쎒
쎓
쎔
쎕
쎖
쎗
쎘
쎙
쎚
쎛
쎜
쎝
쎞
쎟
쎠
쎡
쎢
쎣
쎤
쎥
쎦
쎧
쎨
쎩
쎪
쎫
쎬
쎭
쎮
쎯
쎰
쎱
쎲
쎳
쎴
쎵
쎶
쎷
쎸
쎹
쎺
쎻
쎼
쎽
쎾
쎿
쏀
쏁
쏂
쏃
쏄
쏅
쏆
쏇
쏈
쏉
쏊
쏋
쏌
쏍
쏎
쏏
쏐
쏑
쏒
쏓
쏔
쏕
쏖
쏗
쏘
쏙
쏚
쏛
쏜
쏝
쏞
쏟
쏠
쏡
쏢
쏣
쏤
쏥
쏦
쏧
쏨
쏩
쏪
쏫
쏬
쏭
쏮
쏯
쏰
쏱
쏲
쏳
쏴
쏵
쏶
쏷
쏸
쏹
쏺
쏻
쏼
쏽
쏾
쏿
쐀
쐁
쐂
쐃
쐄
쐅
쐆
쐇
쐈
쐉
쐊
쐋
쐌
쐍
쐎
쐏
쐐
쐑
쐒
쐓
쐔
쐕
쐖
쐗
쐘
쐙
쐚
쐛
쐜
쐝
쐞
쐟
쐠
쐡
쐢
쐣
쐤
쐥
쐦
쐧
쐨
쐩
쐪
쐫
쐬
쐭
쐮
쐯
쐰
쐱
쐲
쐳
쐴
쐵
쐶
쐷
쐸
쐹
쐺
쐻
쐼
쐽
쐾
쐿
쑀
쑁
쑂
쑃
쑄
쑅
쑆
쑇
쑈
쑉
쑊
쑋
쑌
쑍
쑎
쑏
쑐
쑑
쑒
쑓
쑔
쑕
쑖
쑗
쑘
쑙
쑚
쑛
쑜
쑝
쑞
쑟
쑠
쑡
쑢
쑣
쑤
쑥
쑦
쑧
쑨
쑩
쑪
쑫
쑬
쑭
쑮
쑯
쑰
쑱
쑲
쑳
쑴
쑵
쑶
쑷
쑸
쑹
쑺
쑻
쑼
쑽
쑾
쑿
쒀
쒁
쒂
쒃
쒄
쒅
쒆
쒇
쒈
쒉
쒊
쒋
쒌
쒍
쒎
쒏
쒐
쒑
쒒
쒓
쒔
쒕
쒖
쒗
쒘
쒙
쒚
쒛
쒜
쒝
쒞
쒟
쒠
쒡
쒢
쒣
쒤
쒥
쒦
쒧
쒨
쒩
쒪
쒫
쒬
쒭
쒮
쒯
쒰
쒱
쒲
쒳
쒴
쒵
쒶
쒷
쒸
쒹
쒺
쒻
쒼
쒽
쒾
쒿
쓀
쓁
쓂
쓃
쓄
쓅
쓆
쓇
쓈
쓉
쓊
쓋
쓌
쓍
쓎
쓏
쓐
쓑
쓒
쓓
쓔
쓕
쓖
쓗
쓘
쓙
쓚
쓛
쓜
쓝
쓞
쓟
쓠
쓡
쓢
쓣
쓤
쓥
쓦
쓧
쓨
쓩
쓪
쓫
쓬
쓭
쓮
쓯
쓰
쓱
쓲
쓳
쓴
쓵
쓶
쓷
쓸
쓹
쓺
쓻
쓼
쓽
쓾
쓿
씀
씁
씂
씃
씄
씅
씆
씇
씈
씉
씊
씋
씌
씍
씎
씏
씐
씑
씒
씓
씔
씕
씖
씗
씘
씙
씚
씛
씜
씝
씞
씟
씠
씡
씢
씣
씤
씥
씦
씧
씨
씩
씪
씫
씬
씭
씮
씯
씰
씱
씲
씳
씴
씵
씶
씷
씸
씹
씺
씻
씼
씽
씾
씿
앀
앁
앂
앃
아
악
앆
앇
안
앉
않
앋
알
앍
앎
앏
앐
앑
앒
앓
암
압
앖
앗
았
앙
앚
앛
앜
앝
앞
앟
애
액
앢
앣
앤
앥
앦
앧
앨
앩
앪
앫
앬
앭
앮
앯
앰
앱
앲
앳
앴
앵
앶
앷
앸
앹
앺
앻
야
약
앾
앿
얀
얁
얂
얃
얄
얅
얆
얇
얈
얉
얊
얋
얌
얍
얎
얏
얐
양
얒
얓
얔
얕
얖
얗
얘
얙
얚
얛
얜
얝
얞
얟
얠
얡
얢
얣
얤
얥
얦
얧
얨
얩
얪
얫
얬
얭
얮
얯
얰
얱
얲
얳
어
억
얶
얷
언
얹
얺
얻
얼
얽
얾
얿
엀
엁
엂
엃
엄
업
없
엇
었
엉
엊
엋
엌
엍
엎
엏
에
엑
엒
엓
엔
엕
엖
엗
엘
엙
엚
엛
엜
엝
엞
엟
엠
엡
엢
엣
엤
엥
엦
엧
엨
엩
엪
엫
여
역
엮
엯
연
엱
엲
엳
열
엵
엶
엷
엸
엹
엺
엻
염
엽
엾
엿
였
영
옂
옃
옄
옅
옆
옇
예
옉
옊
옋
옌
옍
옎
옏
옐
옑
옒
옓
옔
옕
옖
옗
옘
옙
옚
옛
옜
옝
옞
옟
옠
옡
옢
옣
오
옥
옦
옧
온
옩
옪
옫
올
옭
옮
옯
옰
옱
옲
옳
옴
옵
옶
옷
옸
옹
옺
옻
옼
옽
옾
옿
와
왁
왂
왃
완
왅
왆
왇
왈
왉
왊
왋
왌
왍
왎
왏
왐
왑
왒
왓
왔
왕
왖
왗
왘
왙
왚
왛
왜
왝
왞
왟
왠
왡
왢
왣
왤
왥
왦
왧
왨
왩
왪
왫
왬
왭
왮
왯
왰
왱
왲
왳
왴
왵
왶
왷
외
왹
왺
왻
왼
왽
왾
왿
욀
욁
욂
욃
욄
욅
욆
욇
욈
욉
욊
욋
욌
욍
욎
욏
욐
욑
욒
욓
요
욕
욖
욗
욘
욙
욚
욛
욜
욝
욞
욟
욠
욡
욢
욣
욤
욥
욦
욧
욨
용
욪
욫
욬
욭
욮
욯
우
욱
욲
욳
운
욵
욶
욷
울
욹
욺
욻
욼
욽
욾
욿
움
웁
웂
웃
웄
웅
웆
웇
웈
웉
웊
웋
워
웍
웎
웏
원
웑
웒
웓
월
웕
웖
웗
웘
웙
웚
웛
웜
웝
웞
웟
웠
웡
웢
웣
웤
웥
웦
웧
웨
웩
웪
웫
웬
웭
웮
웯
웰
웱
웲
웳
웴
웵
웶
웷
웸
웹
웺
웻
웼
웽
웾
웿
윀
윁
윂
윃
위
윅
윆
윇
윈
윉
윊
윋
윌
윍
윎
윏
윐
윑
윒
윓
윔
윕
윖
윗
윘
윙
윚
윛
윜
윝
윞
윟
유
육
윢
윣
윤
윥
윦
윧
율
윩
윪
윫
윬
윭
윮
윯
윰
윱
윲
윳
윴
융
윶
윷
윸
윹
윺
윻
으
윽
윾
윿
은
읁
읂
읃
을
읅
읆
읇
읈
읉
읊
읋
음
읍
읎
읏
읐
응
읒
읓
읔
읕
읖
읗
의
읙
읚
읛
읜
읝
읞
읟
읠
읡
읢
읣
읤
읥
읦
읧
읨
읩
읪
읫
읬
읭
읮
읯
읰
읱
읲
읳
이
익
읶
읷
인
읹
읺
읻
일
읽
읾
읿
잀
잁
잂
잃
임
입
잆
잇
있
잉
잊
잋
잌
잍
잎
잏
자
작
잒
잓
잔
잕
잖
잗
잘
잙
잚
잛
잜
잝
잞
잟
잠
잡
잢
잣
잤
장
잦
잧
잨
잩
잪
잫
재
잭
잮
잯
잰
잱
잲
잳
잴
잵
잶
잷
잸
잹
잺
잻
잼
잽
잾
잿
쟀
쟁
쟂
쟃
쟄
쟅
쟆
쟇
쟈
쟉
쟊
쟋
쟌
쟍
쟎
쟏
쟐
쟑
쟒
쟓
쟔
쟕
쟖
쟗
쟘
쟙
쟚
쟛
쟜
쟝
쟞
쟟
쟠
쟡
쟢
쟣
쟤
쟥
쟦
쟧
쟨
쟩
쟪
쟫
쟬
쟭
쟮
쟯
쟰
쟱
쟲
쟳
쟴
쟵
쟶
쟷
쟸
쟹
쟺
쟻
쟼
쟽
쟾
쟿
저
적
젂
젃
전
젅
젆
젇
절
젉
젊
젋
젌
젍
젎
젏
점
접
젒
젓
젔
정
젖
젗
젘
젙
젚
젛
제
젝
젞
젟
젠
젡
젢
젣
젤
젥
젦
젧
젨
젩
젪
젫
젬
젭
젮
젯
젰
젱
젲
젳
젴
젵
젶
젷
져
젹
젺
젻
젼
젽
젾
젿
졀
졁
졂
졃
졄
졅
졆
졇
졈
졉
졊
졋
졌
졍
졎
졏
졐
졑
졒
졓
졔
졕
졖
졗
졘
졙
졚
졛
졜
졝
졞
졟
졠
졡
졢
졣
졤
졥
졦
졧
졨
졩
졪
졫
졬
졭
졮
졯
조
족
졲
졳
존
졵
졶
졷
졸
졹
졺
졻
졼
졽
졾
졿
좀
좁
좂
좃
좄
종
좆
좇
좈
좉
좊
좋
좌
좍
좎
좏
좐
좑
좒
좓
좔
좕
좖
좗
좘
좙
좚
좛
좜
좝
좞
좟
좠
좡
좢
좣
좤
좥
좦
좧
좨
좩
좪
좫
좬
좭
좮
좯
좰
좱
좲
좳
좴
좵
좶
좷
좸
좹
좺
좻
좼
좽
좾
좿
죀
죁
죂
죃
죄
죅
죆
죇
죈
죉
죊
죋
죌
죍
죎
죏
죐
죑
죒
죓
죔
죕
죖
죗
죘
죙
죚
죛
죜
죝
죞
죟
죠
죡
죢
죣
죤
죥
죦
죧
죨
죩
죪
죫
죬
죭
죮
죯
죰
죱
죲
죳
죴
죵
죶
죷
죸
죹
죺
죻
주
죽
죾
죿
준
줁
줂
줃
줄
줅
줆
줇
줈
줉
줊
줋
줌
줍
줎
줏
줐
중
줒
줓
줔
줕
줖
줗
줘
줙
줚
줛
줜
줝
줞
줟
줠
줡
줢
줣
줤
줥
줦
줧
줨
줩
줪
줫
줬
줭
줮
줯
줰
줱
줲
줳
줴
줵
줶
줷
줸
줹
줺
줻
줼
줽
줾
줿
쥀
쥁
쥂
쥃
쥄
쥅
쥆
쥇
쥈
쥉
쥊
쥋
쥌
쥍
쥎
쥏
쥐
쥑
쥒
쥓
쥔
쥕
쥖
쥗
쥘
쥙
쥚
쥛
쥜
쥝
쥞
쥟
쥠
쥡
쥢
쥣
쥤
쥥
쥦
쥧
쥨
쥩
쥪
쥫
쥬
쥭
쥮
쥯
쥰
쥱
쥲
쥳
쥴
쥵
쥶
쥷
쥸
쥹
쥺
쥻
쥼
쥽
쥾
쥿
즀
즁
즂
즃
즄
즅
즆
즇
즈
즉
즊
즋
즌
즍
즎
즏
즐
즑
즒
즓
즔
즕
즖
즗
즘
즙
즚
즛
즜
증
즞
즟
즠
즡
즢
즣
즤
즥
즦
즧
즨
즩
즪
즫
즬
즭
즮
즯
즰
즱
즲
즳
즴
즵
즶
즷
즸
즹
즺
즻
즼
즽
즾
즿
지
직
짂
짃
진
짅
짆
짇
질
짉
짊
짋
짌
짍
짎
짏
짐
집
짒
짓
짔
징
짖
짗
짘
짙
짚
짛
짜
짝
짞
짟
짠
짡
짢
짣
짤
짥
짦
짧
짨
짩
짪
짫
짬
짭
짮
짯
짰
짱
짲
짳
짴
짵
짶
짷
째
짹
짺
짻
짼
짽
짾
짿
쨀
쨁
쨂
쨃
쨄
쨅
쨆
쨇
쨈
쨉
쨊
쨋
쨌
쨍
쨎
쨏
쨐
쨑
쨒
쨓
쨔
쨕
쨖
쨗
쨘
쨙
쨚
쨛
쨜
쨝
쨞
쨟
쨠
쨡
쨢
쨣
쨤
쨥
쨦
쨧
쨨
쨩
쨪
쨫
쨬
쨭
쨮
쨯
쨰
쨱
쨲
쨳
쨴
쨵
쨶
쨷
쨸
쨹
쨺
쨻
쨼
쨽
쨾
쨿
쩀
쩁
쩂
쩃
쩄
쩅
쩆
쩇
쩈
쩉
쩊
쩋
쩌
쩍
쩎
쩏
쩐
쩑
쩒
쩓
쩔
쩕
쩖
쩗
쩘
쩙
쩚
쩛
쩜
쩝
쩞
쩟
쩠
쩡
쩢
쩣
쩤
쩥
쩦
쩧
쩨
쩩
쩪
쩫
쩬
쩭
쩮
쩯
쩰
쩱
쩲
쩳
쩴
쩵
쩶
쩷
쩸
쩹
쩺
쩻
쩼
쩽
쩾
쩿
쪀
쪁
쪂
쪃
쪄
쪅
쪆
쪇
쪈
쪉
쪊
쪋
쪌
쪍
쪎
쪏
쪐
쪑
쪒
쪓
쪔
쪕
쪖
쪗
쪘
쪙
쪚
쪛
쪜
쪝
쪞
쪟
쪠
쪡
쪢
쪣
쪤
쪥
쪦
쪧
쪨
쪩
쪪
쪫
쪬
쪭
쪮
쪯
쪰
쪱
쪲
쪳
쪴
쪵
쪶
쪷
쪸
쪹
쪺
쪻
쪼
쪽
쪾
쪿
쫀
쫁
쫂
쫃
쫄
쫅
쫆
쫇
쫈
쫉
쫊
쫋
쫌
쫍
쫎
쫏
쫐
쫑
쫒
쫓
쫔
쫕
쫖
쫗
쫘
쫙
쫚
쫛
쫜
쫝
쫞
쫟
쫠
쫡
쫢
쫣
쫤
쫥
쫦
쫧
쫨
쫩
쫪
쫫
쫬
쫭
쫮
쫯
쫰
쫱
쫲
쫳
쫴
쫵
쫶
쫷
쫸
쫹
쫺
쫻
쫼
쫽
쫾
쫿
쬀
쬁
쬂
쬃
쬄
쬅
쬆
쬇
쬈
쬉
쬊
쬋
쬌
쬍
쬎
쬏
쬐
쬑
쬒
쬓
쬔
쬕
쬖
쬗
쬘
쬙
쬚
쬛
쬜
쬝
쬞
쬟
쬠
쬡
쬢
쬣
쬤
쬥
쬦
쬧
쬨
쬩
쬪
쬫
쬬
쬭
쬮
쬯
쬰
쬱
쬲
쬳
쬴
쬵
쬶
쬷
쬸
쬹
쬺
쬻
쬼
쬽
쬾
쬿
쭀
쭁
쭂
쭃
쭄
쭅
쭆
쭇
쭈
쭉
쭊
쭋
쭌
쭍
쭎
쭏
쭐
쭑
쭒
쭓
쭔
쭕
쭖
쭗
쭘
쭙
쭚
쭛
쭜
쭝
쭞
쭟
쭠
쭡
쭢
쭣
쭤
쭥
쭦
쭧
쭨
쭩
쭪
쭫
쭬
쭭
쭮
쭯
쭰
쭱
쭲
쭳
쭴
쭵
쭶
쭷
쭸
쭹
쭺
쭻
쭼
쭽
쭾
쭿
쮀
쮁
쮂
쮃
쮄
쮅
쮆
쮇
쮈
쮉
쮊
쮋
쮌
쮍
쮎
쮏
쮐
쮑
쮒
쮓
쮔
쮕
쮖
쮗
쮘
쮙
쮚
쮛
쮜
쮝
쮞
쮟
쮠
쮡
쮢
쮣
쮤
쮥
쮦
쮧
쮨
쮩
쮪
쮫
쮬
쮭
쮮
쮯
쮰
쮱
쮲
쮳
쮴
쮵
쮶
쮷
쮸
쮹
쮺
쮻
쮼
쮽
쮾
쮿
쯀
쯁
쯂
쯃
쯄
쯅
쯆
쯇
쯈
쯉
쯊
쯋
쯌
쯍
쯎
쯏
쯐
쯑
쯒
쯓
쯔
쯕
쯖
쯗
쯘
쯙
쯚
쯛
쯜
쯝
쯞
쯟
쯠
쯡
쯢
쯣
쯤
쯥
쯦
쯧
쯨
쯩
쯪
쯫
쯬
쯭
쯮
쯯
쯰
쯱
쯲
쯳
쯴
쯵
쯶
쯷
쯸
쯹
쯺
쯻
쯼
쯽
쯾
쯿
찀
찁
찂
찃
찄
찅
찆
찇
찈
찉
찊
찋
찌
찍
찎
찏
찐
찑
찒
찓
찔
찕
찖
찗
찘
찙
찚
찛
찜
찝
찞
찟
찠
찡
찢
찣
찤
찥
찦
찧
차
착
찪
찫
찬
찭
찮
찯
찰
찱
찲
찳
찴
찵
찶
찷
참
찹
찺
찻
찼
창
찾
찿
챀
챁
챂
챃
채
책
챆
챇
챈
챉
챊
챋
챌
챍
챎
챏
챐
챑
챒
챓
챔
챕
챖
챗
챘
챙
챚
챛
챜
챝
챞
챟
챠
챡
챢
챣
챤
챥
챦
챧
챨
챩
챪
챫
챬
챭
챮
챯
챰
챱
챲
챳
챴
챵
챶
챷
챸
챹
챺
챻
챼
챽
챾
챿
첀
첁
첂
첃
첄
첅
첆
첇
첈
첉
첊
첋
첌
첍
첎
첏
첐
첑
첒
첓
첔
첕
첖
첗
처
척
첚
첛
천
첝
첞
첟
철
첡
첢
첣
첤
첥
첦
첧
첨
첩
첪
첫
첬
청
첮
첯
첰
첱
첲
첳
체
첵
첶
첷
첸
첹
첺
첻
첼
첽
첾
첿
쳀
쳁
쳂
쳃
쳄
쳅
쳆
쳇
쳈
쳉
쳊
쳋
쳌
쳍
쳎
쳏
쳐
쳑
쳒
쳓
쳔
쳕
쳖
쳗
쳘
쳙
쳚
쳛
쳜
쳝
쳞
쳟
쳠
쳡
쳢
쳣
쳤
쳥
쳦
쳧
쳨
쳩
쳪
쳫
쳬
쳭
쳮
쳯
쳰
쳱
쳲
쳳
쳴
쳵
쳶
쳷
쳸
쳹
쳺
쳻
쳼
쳽
쳾
쳿
촀
촁
촂
촃
촄
촅
촆
촇
초
촉
촊
촋
촌
촍
촎
촏
촐
촑
촒
촓
촔
촕
촖
촗
촘
촙
촚
촛
촜
총
촞
촟
촠
촡
촢
촣
촤
촥
촦
촧
촨
촩
촪
촫
촬
촭
촮
촯
촰
촱
촲
촳
촴
촵
촶
촷
촸
촹
촺
촻
촼
촽
촾
촿
쵀
쵁
쵂
쵃
쵄
쵅
쵆
쵇
쵈
쵉
쵊
쵋
쵌
쵍
쵎
쵏
쵐
쵑
쵒
쵓
쵔
쵕
쵖
쵗
쵘
쵙
쵚
쵛
최
쵝
쵞
쵟
쵠
쵡
쵢
쵣
쵤
쵥
쵦
쵧
쵨
쵩
쵪
쵫
쵬
쵭
쵮
쵯
쵰
쵱
쵲
쵳
쵴
쵵
쵶
쵷
쵸
쵹
쵺
쵻
쵼
쵽
쵾
쵿
춀
춁
춂
춃
춄
춅
춆
춇
춈
춉
춊
춋
춌
춍
춎
춏
춐
춑
춒
춓
추
축
춖
춗
춘
춙
춚
춛
출
춝
춞
춟
춠
춡
춢
춣
춤
춥
춦
춧
춨
충
춪
춫
춬
춭
춮
춯
춰
춱
춲
춳
춴
춵
춶
춷
춸
춹
춺
춻
춼
춽
춾
춿
췀
췁
췂
췃
췄
췅
췆
췇
췈
췉
췊
췋
췌
췍
췎
췏
췐
췑
췒
췓
췔
췕
췖
췗
췘
췙
췚
췛
췜
췝
췞
췟
췠
췡
췢
췣
췤
췥
췦
췧
취
췩
췪
췫
췬
췭
췮
췯
췰
췱
췲
췳
췴
췵
췶
췷
췸
췹
췺
췻
췼
췽
췾
췿
츀
츁
츂
츃
츄
츅
츆
츇
츈
츉
츊
츋
츌
츍
츎
츏
츐
츑
츒
츓
츔
츕
츖
츗
츘
츙
츚
츛
츜
츝
츞
츟
츠
측
츢
츣
츤
츥
츦
츧
츨
츩
츪
츫
츬
츭
츮
츯
츰
츱
츲
츳
츴
층
츶
츷
츸
츹
츺
츻
츼
츽
츾
츿
칀
칁
칂
칃
칄
칅
칆
칇
칈
칉
칊
칋
칌
칍
칎
칏
칐
칑
칒
칓
칔
칕
칖
칗
치
칙
칚
칛
친
칝
칞
칟
칠
칡
칢
칣
칤
칥
칦
칧
침
칩
칪
칫
칬
칭
칮
칯
칰
칱
칲
칳
카
칵
칶
칷
칸
칹
칺
칻
칼
칽
칾
칿
캀
캁
캂
캃
캄
캅
캆
캇
캈
캉
캊
캋
캌
캍
캎
캏
캐
캑
캒
캓
캔
캕
캖
캗
캘
캙
캚
캛
캜
캝
캞
캟
캠
캡
캢
캣
캤
캥
캦
캧
캨
캩
캪
캫
캬
캭
캮
캯
캰
캱
캲
캳
캴
캵
캶
캷
캸
캹
캺
캻
캼
캽
캾
캿
컀
컁
컂
컃
컄
컅
컆
컇
컈
컉
컊
컋
컌
컍
컎
컏
컐
컑
컒
컓
컔
컕
컖
컗
컘
컙
컚
컛
컜
컝
컞
컟
컠
컡
컢
컣
커
컥
컦
컧
컨
컩
컪
컫
컬
컭
컮
컯
컰
컱
컲
컳
컴
컵
컶
컷
컸
컹
컺
컻
컼
컽
컾
컿
케
켁
켂
켃
켄
켅
켆
켇
켈
켉
켊
켋
켌
켍
켎
켏
켐
켑
켒
켓
켔
켕
켖
켗
켘
켙
켚
켛
켜
켝
켞
켟
켠
켡
켢
켣
켤
켥
켦
켧
켨
켩
켪
켫
켬
켭
켮
켯
켰
켱
켲
켳
켴
켵
켶
켷
켸
켹
켺
켻
켼
켽
켾
켿
콀
콁
콂
콃
콄
콅
콆
콇
콈
콉
콊
콋
콌
콍
콎
콏
콐
콑
콒
콓
코
콕
콖
콗
콘
콙
콚
콛
콜
콝
콞
콟
콠
콡
콢
콣
콤
콥
콦
콧
콨
콩
콪
콫
콬
콭
콮
콯
콰
콱
콲
콳
콴
콵
콶
콷
콸
콹
콺
콻
콼
콽
콾
콿
쾀
쾁
쾂
쾃
쾄
쾅
쾆
쾇
쾈
쾉
쾊
쾋
쾌
쾍
쾎
쾏
쾐
쾑
쾒
쾓
쾔
쾕
쾖
쾗
쾘
쾙
쾚
쾛
쾜
쾝
쾞
쾟
쾠
쾡
쾢
쾣
쾤
쾥
쾦
쾧
쾨
쾩
쾪
쾫
쾬
쾭
쾮
쾯
쾰
쾱
쾲
쾳
쾴
쾵
쾶
쾷
쾸
쾹
쾺
쾻
쾼
쾽
쾾
쾿
쿀
쿁
쿂
쿃
쿄
쿅
쿆
쿇
쿈
쿉
쿊
쿋
쿌
쿍
쿎
쿏
쿐
쿑
쿒
쿓
쿔
쿕
쿖
쿗
쿘
쿙
쿚
쿛
쿜
쿝
쿞
쿟
쿠
쿡
쿢
쿣
쿤
쿥
쿦
쿧
쿨
쿩
쿪
쿫
쿬
쿭
쿮
쿯
쿰
쿱
쿲
쿳
쿴
쿵
쿶
쿷
쿸
쿹
쿺
쿻
쿼
쿽
쿾
쿿
퀀
퀁
퀂
퀃
퀄
퀅
퀆
퀇
퀈
퀉
퀊
퀋
퀌
퀍
퀎
퀏
퀐
퀑
퀒
퀓
퀔
퀕
퀖
퀗
퀘
퀙
퀚
퀛
퀜
퀝
퀞
퀟
퀠
퀡
퀢
퀣
퀤
퀥
퀦
퀧
퀨
퀩
퀪
퀫
퀬
퀭
퀮
퀯
퀰
퀱
퀲
퀳
퀴
퀵
퀶
퀷
퀸
퀹
퀺
퀻
퀼
퀽
퀾
퀿
큀
큁
큂
큃
큄
큅
큆
큇
큈
큉
큊
큋
큌
큍
큎
큏
큐
큑
큒
큓
큔
큕
큖
큗
큘
큙
큚
큛
큜
큝
큞
큟
큠
큡
큢
큣
큤
큥
큦
큧
큨
큩
큪
큫
크
큭
큮
큯
큰
큱
큲
큳
클
큵
큶
큷
큸
큹
큺
큻
큼
큽
큾
큿
킀
킁
킂
킃
킄
킅
킆
킇
킈
킉
킊
킋
킌
킍
킎
킏
킐
킑
킒
킓
킔
킕
킖
킗
킘
킙
킚
킛
킜
킝
킞
킟
킠
킡
킢
킣
키
킥
킦
킧
킨
킩
킪
킫
킬
킭
킮
킯
킰
킱
킲
킳
킴
킵
킶
킷
킸
킹
킺
킻
킼
킽
킾
킿
타
탁
탂
탃
탄
탅
탆
탇
탈
탉
탊
탋
탌
탍
탎
탏
탐
탑
탒
탓
탔
탕
탖
탗
탘
탙
탚
탛
태
택
탞
탟
탠
탡
탢
탣
탤
탥
탦
탧
탨
탩
탪
탫
탬
탭
탮
탯
탰
탱
탲
탳
탴
탵
탶
탷
탸
탹
탺
탻
탼
탽
탾
탿
턀
턁
턂
턃
턄
턅
턆
턇
턈
턉
턊
턋
턌
턍
턎
턏
턐
턑
턒
턓
턔
턕
턖
턗
턘
턙
턚
턛
턜
턝
턞
턟
턠
턡
턢
턣
턤
턥
턦
턧
턨
턩
턪
턫
턬
턭
턮
턯
터
턱
턲
턳
턴
턵
턶
턷
털
턹
턺
턻
턼
턽
턾
턿
텀
텁
텂
텃
텄
텅
텆
텇
텈
텉
텊
텋
테
텍
텎
텏
텐
텑
텒
텓
텔
텕
텖
텗
텘
텙
텚
텛
템
텝
텞
텟
텠
텡
텢
텣
텤
텥
텦
텧
텨
텩
텪
텫
텬
텭
텮
텯
텰
텱
텲
텳
텴
텵
텶
텷
텸
텹
텺
텻
텼
텽
텾
텿
톀
톁
톂
톃
톄
톅
톆
톇
톈
톉
톊
톋
톌
톍
톎
톏
톐
톑
톒
톓
톔
톕
톖
톗
톘
톙
톚
톛
톜
톝
톞
톟
토
톡
톢
톣
톤
톥
톦
톧
톨
톩
톪
톫
톬
톭
톮
톯
톰
톱
톲
톳
톴
통
톶
톷
톸
톹
톺
톻
톼
톽
톾
톿
퇀
퇁
퇂
퇃
퇄
퇅
퇆
퇇
퇈
퇉
퇊
퇋
퇌
퇍
퇎
퇏
퇐
퇑
퇒
퇓
퇔
퇕
퇖
퇗
퇘
퇙
퇚
퇛
퇜
퇝
퇞
퇟
퇠
퇡
퇢
퇣
퇤
퇥
퇦
퇧
퇨
퇩
퇪
퇫
퇬
퇭
퇮
퇯
퇰
퇱
퇲
퇳
퇴
퇵
퇶
퇷
퇸
퇹
퇺
퇻
퇼
퇽
퇾
퇿
툀
툁
툂
툃
툄
툅
툆
툇
툈
툉
툊
툋
툌
툍
툎
툏
툐
툑
툒
툓
툔
툕
툖
툗
툘
툙
툚
툛
툜
툝
툞
툟
툠
툡
툢
툣
툤
툥
툦
툧
툨
툩
툪
툫
투
툭
툮
툯
툰
툱
툲
툳
툴
툵
툶
툷
툸
툹
툺
툻
툼
툽
툾
툿
퉀
퉁
퉂
퉃
퉄
퉅
퉆
퉇
퉈
퉉
퉊
퉋
퉌
퉍
퉎
퉏
퉐
퉑
퉒
퉓
퉔
퉕
퉖
퉗
퉘
퉙
퉚
퉛
퉜
퉝
퉞
퉟
퉠
퉡
퉢
퉣
퉤
퉥
퉦
퉧
퉨
퉩
퉪
퉫
퉬
퉭
퉮
퉯
퉰
퉱
퉲
퉳
퉴
퉵
퉶
퉷
퉸
퉹
퉺
퉻
퉼
퉽
퉾
퉿
튀
튁
튂
튃
튄
튅
튆
튇
튈
튉
튊
튋
튌
튍
튎
튏
튐
튑
튒
튓
튔
튕
튖
튗
튘
튙
튚
튛
튜
튝
튞
튟
튠
튡
튢
튣
튤
튥
튦
튧
튨
튩
튪
튫
튬
튭
튮
튯
튰
튱
튲
튳
튴
튵
튶
튷
트
특
튺
튻
튼
튽
튾
튿
틀
틁
틂
틃
틄
틅
틆
틇
틈
틉
틊
틋
틌
틍
틎
틏
틐
틑
틒
틓
틔
틕
틖
틗
틘
틙
틚
틛
틜
틝
틞
틟
틠
틡
틢
틣
틤
틥
틦
틧
틨
틩
틪
틫
틬
틭
틮
틯
티
틱
틲
틳
틴
틵
틶
틷
틸
틹
틺
틻
틼
틽
틾
틿
팀
팁
팂
팃
팄
팅
팆
팇
팈
팉
팊
팋
파
팍
팎
팏
판
팑
팒
팓
팔
팕
팖
팗
팘
팙
팚
팛
팜
팝
팞
팟
팠
팡
팢
팣
팤
팥
팦
팧
패
팩
팪
팫
팬
팭
팮
팯
팰
팱
팲
팳
팴
팵
팶
팷
팸
팹
팺
팻
팼
팽
팾
팿
퍀
퍁
퍂
퍃
퍄
퍅
퍆
퍇
퍈
퍉
퍊
퍋
퍌
퍍
퍎
퍏
퍐
퍑
퍒
퍓
퍔
퍕
퍖
퍗
퍘
퍙
퍚
퍛
퍜
퍝
퍞
퍟
퍠
퍡
퍢
퍣
퍤
퍥
퍦
퍧
퍨
퍩
퍪
퍫
퍬
퍭
퍮
퍯
퍰
퍱
퍲
퍳
퍴
퍵
퍶
퍷
퍸
퍹
퍺
퍻
퍼
퍽
퍾
퍿
펀
펁
펂
펃
펄
펅
펆
펇
펈
펉
펊
펋
펌
펍
펎
펏
펐
펑
펒
펓
펔
펕
펖
펗
페
펙
펚
펛
펜
펝
펞
펟
펠
펡
펢
펣
펤
펥
펦
펧
펨
펩
펪
펫
펬
펭
펮
펯
펰
펱
펲
펳
펴
펵
펶
펷
편
펹
펺
펻
펼
펽
펾
펿
폀
폁
폂
폃
폄
폅
폆
폇
폈
평
폊
폋
폌
폍
폎
폏
폐
폑
폒
폓
폔
폕
폖
폗
폘
폙
폚
폛
폜
폝
폞
폟
폠
폡
폢
폣
폤
폥
폦
폧
폨
폩
폪
폫
포
폭
폮
폯
폰
폱
폲
폳
폴
폵
폶
폷
폸
폹
폺
폻
폼
폽
폾
폿
퐀
퐁
퐂
퐃
퐄
퐅
퐆
퐇
퐈
퐉
퐊
퐋
퐌
퐍
퐎
퐏
퐐
퐑
퐒
퐓
퐔
퐕
퐖
퐗
퐘
퐙
퐚
퐛
퐜
퐝
퐞
퐟
퐠
퐡
퐢
퐣
퐤
퐥
퐦
퐧
퐨
퐩
퐪
퐫
퐬
퐭
퐮
퐯
퐰
퐱
퐲
퐳
퐴
퐵
퐶
퐷
퐸
퐹
퐺
퐻
퐼
퐽
퐾
퐿
푀
푁
푂
푃
푄
푅
푆
푇
푈
푉
푊
푋
푌
푍
푎
푏
푐
푑
푒
푓
푔
푕
푖
푗
푘
푙
푚
푛
표
푝
푞
푟
푠
푡
푢
푣
푤
푥
푦
푧
푨
푩
푪
푫
푬
푭
푮
푯
푰
푱
푲
푳
푴
푵
푶
푷
푸
푹
푺
푻
푼
푽
푾
푿
풀
풁
풂
풃
풄
풅
풆
풇
품
풉
풊
풋
풌
풍
풎
풏
풐
풑
풒
풓
풔
풕
풖
풗
풘
풙
풚
풛
풜
풝
풞
풟
풠
풡
풢
풣
풤
풥
풦
풧
풨
풩
풪
풫
풬
풭
풮
풯
풰
풱
풲
풳
풴
풵
풶
풷
풸
풹
풺
풻
풼
풽
풾
풿
퓀
퓁
퓂
퓃
퓄
퓅
퓆
퓇
퓈
퓉
퓊
퓋
퓌
퓍
퓎
퓏
퓐
퓑
퓒
퓓
퓔
퓕
퓖
퓗
퓘
퓙
퓚
퓛
퓜
퓝
퓞
퓟
퓠
퓡
퓢
퓣
퓤
퓥
퓦
퓧
퓨
퓩
퓪
퓫
퓬
퓭
퓮
퓯
퓰
퓱
퓲
퓳
퓴
퓵
퓶
퓷
퓸
퓹
퓺
퓻
퓼
퓽
퓾
퓿
픀
픁
픂
픃
프
픅
픆
픇
픈
픉
픊
픋
플
픍
픎
픏
픐
픑
픒
픓
픔
픕
픖
픗
픘
픙
픚
픛
픜
픝
픞
픟
픠
픡
픢
픣
픤
픥
픦
픧
픨
픩
픪
픫
픬
픭
픮
픯
픰
픱
픲
픳
픴
픵
픶
픷
픸
픹
픺
픻
피
픽
픾
픿
핀
핁
핂
핃
필
핅
핆
핇
핈
핉
핊
핋
핌
핍
핎
핏
핐
핑
핒
핓
핔
핕
핖
핗
하
학
핚
핛
한
핝
핞
핟
할
핡
핢
핣
핤
핥
핦
핧
함
합
핪
핫
핬
항
핮
핯
핰
핱
핲
핳
해
핵
핶
핷
핸
핹
핺
핻
핼
핽
핾
핿
햀
햁
햂
햃
햄
햅
햆
햇
했
행
햊
햋
햌
햍
햎
햏
햐
햑
햒
햓
햔
햕
햖
햗
햘
햙
햚
햛
햜
햝
햞
햟
햠
햡
햢
햣
햤
향
햦
햧
햨
햩
햪
햫
햬
햭
햮
햯
햰
햱
햲
햳
햴
햵
햶
햷
햸
햹
햺
햻
햼
햽
햾
햿
헀
헁
헂
헃
헄
헅
헆
헇
허
헉
헊
헋
헌
헍
헎
헏
헐
헑
헒
헓
헔
헕
헖
헗
험
헙
헚
헛
헜
헝
헞
헟
헠
헡
헢
헣
헤
헥
헦
헧
헨
헩
헪
헫
헬
헭
헮
헯
헰
헱
헲
헳
헴
헵
헶
헷
헸
헹
헺
헻
헼
헽
헾
헿
혀
혁
혂
혃
현
혅
혆
혇
혈
혉
혊
혋
혌
혍
혎
혏
혐
협
혒
혓
혔
형
혖
혗
혘
혙
혚
혛
혜
혝
혞
혟
혠
혡
혢
혣
혤
혥
혦
혧
혨
혩
혪
혫
혬
혭
혮
혯
혰
혱
혲
혳
혴
혵
혶
혷
호
혹
혺
혻
혼
혽
혾
혿
홀
홁
홂
홃
홄
홅
홆
홇
홈
홉
홊
홋
홌
홍
홎
홏
홐
홑
홒
홓
화
확
홖
홗
환
홙
홚
홛
활
홝
홞
홟
홠
홡
홢
홣
홤
홥
홦
홧
홨
황
홪
홫
홬
홭
홮
홯
홰
홱
홲
홳
홴
홵
홶
홷
홸
홹
홺
홻
홼
홽
홾
홿
횀
횁
횂
횃
횄
횅
횆
횇
횈
횉
횊
횋
회
획
횎
횏
횐
횑
횒
횓
횔
횕
횖
횗
횘
횙
횚
횛
횜
횝
횞
횟
횠
횡
횢
횣
횤
횥
횦
횧
효
횩
횪
횫
횬
횭
횮
횯
횰
횱
횲
횳
횴
횵
횶
횷
횸
횹
횺
횻
횼
횽
횾
횿
훀
훁
훂
훃
후
훅
훆
훇
훈
훉
훊
훋
훌
훍
훎
훏
훐
훑
훒
훓
훔
훕
훖
훗
훘
훙
훚
훛
훜
훝
훞
훟
훠
훡
훢
훣
훤
훥
훦
훧
훨
훩
훪
훫
훬
훭
훮
훯
훰
훱
훲
훳
훴
훵
훶
훷
훸
훹
훺
훻
훼
훽
훾
훿
휀
휁
휂
휃
휄
휅
휆
휇
휈
휉
휊
휋
휌
휍
휎
휏
휐
휑
휒
휓
휔
휕
휖
휗
휘
휙
휚
휛
휜
휝
휞
휟
휠
휡
휢
휣
휤
휥
휦
휧
휨
휩
휪
휫
휬
휭
휮
휯
휰
휱
휲
휳
휴
휵
휶
휷
휸
휹
휺
휻
휼
휽
휾
휿
흀
흁
흂
흃
흄
흅
흆
흇
흈
흉
흊
흋
흌
흍
흎
흏
흐
흑
흒
흓
흔
흕
흖
흗
흘
흙
흚
흛
흜
흝
흞
흟
흠
흡
흢
흣
흤
흥
흦
흧
흨
흩
흪
흫
희
흭
흮
흯
흰
흱
흲
흳
흴
흵
흶
흷
흸
흹
흺
흻
흼
흽
흾
흿
힀
힁
힂
힃
힄
힅
힆
힇
히
힉
힊
힋
힌
힍
힎
힏
힐
힑
힒
힓
힔
힕
힖
힗
힘
힙
힚
힛
힜
힝
힞
힟
힠
힡
힢
힣
##h
##a
##n
##y
##u
##우
##진
##르
##니
##r
##x
##z
##C
##k
##e
##d
##1
##0
##3
##2
##등
##성
##o
##i
##s
##7
##N
##S
##t
##c
##G
##M
##l
##w
##b
##미
##혜
##F
##E
##6
##P
##A
##p
##g
##L
##달
##여
##해
##5
##른
##에
##v
##시
##틴
##그
##리
##드
##m
##Z
##와
##Y
##기
##차
##잠
##두
##로
##f
##D
##J
##K
##9
##8
##무
##술
##어
##O
##세
##스
##장
##구
##머
##초
##필
##병
##Q
##코
##아
##냈
##으
##므
##읍
##도
##박
##과
##쉬
##T
##R
##4
##럽
##의
##실
##상
##학
##큐
##론
##킨
##디
##다
##라
##고
##트
##양
##선
##석
##혼
##효
##ㅒ
##ㄶ
##B
##푸
##권
##자
##명
##U
##I
##원
##급
##소
##카
##모
##렌
##턴
##옥
##운
##창
##너
##데
##j
##X
##임
##수
##증
##재
##죄
##야
##몰
##정
##레
##변
##H
##을
##쿠
##란
##보
##능
##/
##-
##ㅇ
##은
##화
##히
##후
##파
##헤
##벌
##대
##유
##천
##혀
##져
##백
##청
##용
##출
##인
##네
##남
##종
##타
##팀
##친
##위
##넌
##나
##요
##총
##건
##체
##하
##왈
##씨
##각
##테
##입
##면
##치
##루
##마
##글
##랫
##비
##교
##순
##제
##방
##패
##q
##신
##광
##벤
##부
##터
##가
##엣
##티
##븐
##슨
##안
##만
##형
##지
##강
##육
##국
##사
##호
##근
##오
##"
##&
###
##틀
##며
##저
##범
##왕
##겐
##력
##택
##판
##토
##옹
##ㅑ
##ㄵ
##찬
##커
##없
##이
##경
##델
##첸
##W
##열
##먼
##반
##키
##덕
##훈
##참
##굴
##까
##봄
##월
##관
##래
##조
##V
##메
##일
##봉
##공
##ㅔ
##ㅈ
##태
##는
##톤
##섭
##영
##롱
##응
##점
##를
##주
##칼
##한
##논
##램
##프
##량
##줌
##든
##연
##동
##워
##서
##둘
##러
##댔
##섬
##문
##숙
##;
##설
##들
##적
##류
##웬
##난
##희
##포
##베
##@
##,
##본
##규
##탁
##매
##찌
##작
##음
##났
##었
##ㄹ
##함
##맨
##싱
##계
##준
##크
##벨
##쫄
##뀽
##맥
##회
##표
##똥
##%
##웨
##받
##겨
##버
##림
##년
##\
##]
##ㅊ
##즈
##배
##ㅎ
##엄
##갈
##ㅟ
##ㅁ
##험
##켈
##텔
##랑
##케
##심
##녕
##페
##브
##발
##환
##뒤
##족
##흥
##님
##ㅙ
##밀
##듬
##통
##룩
##말
##려
##승
##산
##번
##완
##콤
##복
##얼
##랜
##ㄱ
##ㅌ
##민
##돌
##온
##탈
##흘
##노
##힘
##욱
##?
##생
##쇄
##린
##녜
##따
##풀
##떡
##거
##렸
##철
##닉
##름
##충
##!
##.
##처
##ㅡ
##ㅆ
##챱
##전
##팬
##군
##송
##징
##욕
##죽
##곡
##물
##뜸
##쇼
##쑊
##홍
##잉
##게
##{
##+
##중
##있
##간
##던
##식
##렁
##덩
##ㅅ
##몽
##더
##셰
##윙
##닛
##분
##깔
##같
##좌
##ㅛ
##누
##피
##향
##멀
##날
##츤
##편
##칸
##짝
##였
##쑹
##개
##펠
##윌
##단
##평
##행
##격
##쪽
##울
##겔
##첩
##현
##록
##련
##랴
##츠
##당
##바
##역
##꽃
##허
##릿
##탱
##골
##탄
##때
##맛
##ㅋ
##쳐
##폴
##픽
##션
##릴
##럼
##탑
##압
##빛
##목
##렉
##팔
##추
##협
##욋
##앚
##언
##'
##켠
##엔
##)
##슈
##묵
##채
##색
##몬
##법
##칠
##책
##햄
##켄
##빌
##빅
##억
##악
##극
##내
##절
##았
##항
##룡
##섯
##딸
##쓰
##~
##^
##율
##쟁
##업
##멘
##알
##살
##폈
##힐
##흉
##애
##렵
##썽
##녀
##약
##링
##룽
##텝
##첨
##꾼
##략
##넬
##삭
##돈
##헝
##굉
##삐
##룬
##벼
##냐
##륜
##길
##걸
##암
##투
##빈
##질
##새
##귀
##퍝
##뱌
##즤
##짓
##왓
##슬
##엽
##집
##뚜
##랄
##센
##령
##깐
##블
##쳇
##뎃
##담
##끔
##감
##:
##객
##먹
##쩍
##ㅍ
##밟
##뛰
##흡
##룸
##갱
##할
##샨
##웰
##풍
##긴
##꼬
##독
##쌍
##클
##촬
##품
##빽
##금
##료
##렬
##염
##잣
##낭
##댐
##눈
##앙
##끼
##빠
##액
##플
##셀
##멜
##껍
##속
##취
##뭐
##손
##김
##황
##ㄺ
##폭
##람
##탕
##닌
##캅
##락
##싸
##ㅏ
##즐
##콩
##합
##짜
##츙
##휘
##윤
##옴
##퍼
##ㅚ
##섰
##쨉
##븀
##콧
##앉
##넘
##댈
##끌
##ㅓ
##갑
##>
##ㅗ
##ㅣ
##뿐
##예
##갤
##쨩
##롤
##못
##쿨
##착
##찍
##혈
##궁
##퇴
##득
##좀
##쿤
##꾸
##늘
##딘
##엠
##릭
##댑
##늄
##침
##및
##툴
##셔
##핀
##렛
##큼
##런
##윅
##푼
##측
##톨
##헨
##맹
##덤
##ㅂ
##ㄲ
##칭
##_
##뜨
##층
##벽
##뤄
##낼
##것
##농
##꺼
##샘
##답
##졌
##느
##잡
##붓
##킹
##뉴
##뜩
##균
##뇽
##폐
##팽
##퀴
##존
##막
##헌
##잔
##룰
##올
##축
##삼
##널
##망
##릇
##즌
##팅
##듯
##릉
##퉁
##빗
##직
##닐
##찔
##찰
##톱
##놀
##졔
##쿼
##}
##낄
##불
##뇌
##ㄴ
##팠
##킁
##잇
##ㅞ
##돔
##듀
##삠
##웅
##셜
##튠
##혔
##뇰
##되
##묄
##칩
##넥
##엇
##뎨
##견
##핑
##덴
##펩
##써
##딕
##롬
##캇
##삽
##눕
##렇
##활
##줄
##뿌
##춘
##헉
##갔
##틸
##킥
##럴
##띠
##펙
##촉
##밴
##ㅐ
##촌
##ㄷ
##퍅
##혁
##딩
##겁
##옷
##낚
##폰
##ㄼ
##튜
##훤
##외
##뢰
##켓
##펴
##결
##최
##끄
##념
##쁠
##흐
##콘
##붙
##옵
##곱
##낙
##엘
##=
##짤
##풹
##렀
##익
##*
##곽
##꼭
##퀸
##랐
##했
##붕
##봐
##빙
##삿
##짐
##꼽
##겜
##넷
##왔
##쓸
##숭
##댜
##뜽
##랭
##렐
##[
##뎡
##ㅕ
##ㄿ
##쾌
##빔
##밥
##팡
##샌
##뇨
##립
##쎄
##뤼
##쾨
##홓
##볼
##납
##꽂
##샤
##많
##셋
##엡
##웃
##딱
##습
##휴
##둥
##듸
##례
##횡
##뮨
##넨
##콜
##북
##빵
##붑
##튬
##늬
##낫
##춰
##펜
##힌
##닷
##<
##검
##얇
##얖
##믈
##숀
##즘
##뺨
##얀
##쾅
##슴
##꽈
##뵈
##ㅜ
##끝
##앤
##넣
##뻥
##째
##줍
##랏
##닥
##또
##뭉
##콥
##탐
##놔
##앞
##츄
##엥
##묘
##햣
##햐
##홀
##턱
##팥
##듐
##쯔
##늑
##ㅢ
##쪼
##삣
##륨
##떼
##챠
##웠
##삘
##셨
##낏
##곤
##볜
##켜
##랙
##긋
##별
##컨
##뱅
##캐
##륙
##꾹
##뿡
##쑴
##륵
##댄
##떤
##뼈
##졸
##ㅝ
##ㅠ
##텐
##끗
##밤
##쑤
##힝
##첼
##뚠
##볶
##굣
##겼
##툰
##컵
##률
##랗
##쭈
##셈
##뀨
##셸
##척
##솔
##갓
##윗
##덮
##맡
##봤
##ㄾ
##귁
##벅
##몸
##힠
##칙
##ㅀ
##챙
##된
##촘
##털
##놓
##뎅
##앜
##빖
##읪
##뷰
##챗
##뭇
##룹
##샷
##껴
##콰
##뜰
##젤
##텀
##멬
##떨
##뢍
##멍
##빨
##깃
##빡
##핵
##롭
##엉
##렘
##컷
##흠
##팍
##짚
##냥
##앗
##겿
##캥
##ㅖ
##ㄽ
##괵
##댁
##쳤
##ㅄ
##(
##빼
##캠
##ㄻ
##둑
##싹
##젠
##섞
##앟
##잎
##멧
##밑
##춤
##팁
##캄
##쌜
##곶
##찟
##튼
##틱
##땐
##걱
##쩔
##딜
##줘
##캔
##풋
##훼
##낱
##뇸
##쿄
##쉰
##굽
##쩌
##쥐
##탭
##푱
##늅
##텍
##킷
##씽
##쌀
##옌
##슛
##녁
##캘
##낸
##듈
##껄
##렙
##랍
##혹
##쑥
##냄
##솜
##툭
##눠
##찮
##켰
##접
##걲
##쭝
##툼
##팝
##갯
##괘
##샇
##둔
##쓴
##겠
##컬
##슘
##뗄
##뢴
##촨
##얄
##궈
##퐁
##쁘
##$
##겸
##좆
##솨
##뽑
##큰
##엌
##둠
##뻐
##벡
##솥
##젼
##펄
##댕
##깨
##퍽
##앵
##땃
##덜
##꾿
##쭉
##융
##찜
##꼴
##괴
##럿
##렴
##핳
##잆
##븞
##릾
##듮
##듭
##십
##촐
##첵
##잘
##쌔
##쿡
##께
##돋
##움
##꿨
##긔
##뤽
##쪄
##삡
##냘
##톳
##헣
##핸
##꿔
##븨
##값
##흔
##푹
##쏘
##읽
##읅
##둬
##윈
##봅
##굿
##뚱
##롯
##샹
##밸
##곳
##빩
##좇
##냇
##뉘
##릎
##쉔
##딴
##맬
##쥬
##펑
##덱
##싯
##놈
##특
##ㄳ
##뷸
##셴
##껏
##쇠
##덧
##톰
##쨋
##밭
##훍
##꾜
##흣
##볐
##쳉
##눔
##냉
##궤
##|
##뿔
##굥
##퀀
##탬
##믿
##숏
##췄
##톡
##볕
##밌
##잖
##셤
##눗
##뷔
##륄
##귤
##궐
##풔
##풮
##킵
##옛
##깡
##쯱
##썰
##뒬
##륭
##찐
##퓨
##씩
##닝
##킬
##헐
##탓
##젓
##벳
##뎌
##끈
##탠
##좁
##쟈
##젖
##쪘
##뮤
##츼
##겟
##딪
##푝
##ㄸ
##쁜
##퍄
##ㅘ
##뫼
##눌
##높
##랩
##겹
##싁
##믜
##웹
##돼
##츨
##힙
##팸
##챃
##뼛
##맞
##욤
##췁
##밍
##뱀
##걀
##죵
##럭
##쉐
##웡
##랬
##얌
##싼
##흙
##붉
##뽁
##씅
##슌
##샬
##낰
##윱
##욜
##쩨
##곧
##큘
##않
##잋
##팰
##곰
##픈
##롮
##펀
##힉
##컥
##뽓
##늦
##댧
##댯
##홉
##놉
##봇
##슝
##떠
##텡
##믄
##뻑
##낑
##획
##갰
##떻
##딫
##쥔
##읜
##뜬
##펫
##캣
##믹
##죠
##밝
##썩
##힛
##괏
##짠
##홋
##젬
##퀘
##깄
##팩
##뺙
##좸
##훌
##샥
##ㅃ
##맵
##옙
##켑
##뉜
##뭄
##릘
##멕
##핫
##댓
##얏
##뜻
##땀
##뵐
##젋
##뒀
##렝
##즉
##뫅
##엙
##싴
##뷘
##릅
##녹
##읋
##엃
##꼐
##뮈
##헬
##둣
##튀
##멤
##횻
##휏
##쌋
##콕
##펐
##혐
##셩
##윾
##퀼
##캉
##넵
##쳅
##묻
##쉼
##템
##놋
##헿
##헼
##맴
##늙
##냅
##슐
##꽁
##멸
##롄
##짱
##놨
##컴
##쥿
##벚
##훔
##깍
##꺄
##꿈
##끕
##앱
##혠
##탸
##폼
##줏
##닫
##뮺
##썼
##냑
##쌰
##뾰
##싀
##숄
##닿
##껑
##뺏
##밋
##츳
##돕
##녔
##퓔
##봬
##팜
##홈
##킴
##뻔
##슷
##닮
##쨌
##펔
##쫙
##뤯
##룱
##갸
##옆
##꼼
##껙
##뿅
##확
##륑
##엿
##녘
##룻
##ㅉ
##씬
##긤
##`
##킄
##컄
##벙
##곈
##곀
##덫
##볓
##윽
##쫣
##똵
##뽧
##꽑
##뽭
##빤
##짹
##휼
##왁
##쥠
##쥰
##텁
##굘
##롸
##탤
##숌
##쮸
##쌈
##흫
##궜
##꿋
##탯
##눅
##룀
##츌
##뚝
##즁
##릐
##닭
##듁
##핍
##앨
##왜
##짼
##뽀
##괭
##훅
##윔
##옿
##챔
##훙
##괜
##릏
##홁
##훑
##쁩
##촤
##썝
##뿉
##슙
##왑
##빱
##숑
##쀼
##뎂
##슶
##닶
##꼿
##팎
##멩
##슥
##픗
##틈
##쌉
##꿩
##똘
##셉
##껨
##뾸
##땅
##퐝
##뵤
##뵹
##탔
##쀏
##픤
##븃
##룅
##흑
##뜯
##괄
##좟
##븝
##챈
##꿀
##뵷
##쯋
##밈
##볍
##헱
##롻
##쿵
##쩜
##췩
##켕
##됨
##웁
##쥽
##뎍
##슢
##쵸
##귈
##깅
##얽
##숍
##쁑
##쭙
##뗘
##땠
##솟
##좋
##귐
##썬
##낀
##멋
##찼
##뎬
##얘
##읒
##훠
##뚤
##칫
##낵
##랒
##맆
##즙
##컹
##뚫
##쪙
##굼
##숯
##숲
##샵
##돘
##몆
##슭
##짬
##틍
##캭
##꿍
##랸
##쌌
##찢
##먄
##갷
##뷫
##넉
##맷
##긶
##깊
##쒀
##뽄
##꺾
##듟
##왱
##탒
##챳
##멱
##떵
##뎻
##몐
##쿰
##칵
##뛴
##겅
##욷
##벗
##딧
##깻
##얔
##앳
##욘
##씌
##녤
##킅
##뀩
##쉴
##뫄
##맘
##뜳
##듦
##뀜
##찾
##끓
##깝
##숴
##읗
##귄
##얅
##밧
##챕
##쬬
##퀄
##밖
##뙇
##삔
##될
##짙
##쭐
##핏
##랣
##땗
##팉
##픠
##뎀
##뤀
##빚
##녈
##슼
##엑
##쪠
##숕
##껀
##깥
##캡
##띤
##쯧
##옻
##헑
##볘
##챤
##쵹
##꽝
##폿
##쁟
##쫀
##뿛
##늠
##뵜
##콴
##쉘
##웤
##뤌
##곂
##졀
##뚥
##멈
##쪨
##쏜
##씻
##쌤
##쫓
##홰
##뮬
##쟌
##뉨
##붐
##챨
##뮴
##뾱
##섹
##칽
##렷
##넛
##긍
##딛
##쯤
##깁
##튕
##텃
##낮
##켐
##쇽
##윳
##톈
##멓
##벓
##웍
##륀
##옐
##폕
##웩
##잭
##틉
##쌓
##샛
##돤
##섶
##깎
##떄
##봡
##냔
##얍
##듣
##뱃
##픔
##뽕
##쏠
##솝
##좂
##읏
##츈
##읭
##빰
##쟝
##겆
##궭
##듕
##쑨
##핧
##냬
##갠
##쬭
##뺀
##벰
##퓸
##숨
##돗
##죌
##홧
##똔
##덥
##숩
##띔
##땡
##얗
##씸
##눼
##깜
##솽
##젭
##묭
##뎁
##쩡
##닢
##픖
##틊
##솬
##랠
##솰
##욺
##뮐
##탼
##닳
##팻
##낌
##줬
##뒹
##뀌
##녠
##뻬
##옾
##뗔
##쥴
##퉈
##넴
##먀
##샜
##펨
##큠
##쌥
##웻
##늉
##좡
##깰
##둡
##갬
##쩐
##횟
##훜
##쓔
##쒜
##곻
##뮌
##끙
##툐
##훨
##똑
##푀
##셍
##뤠
##큽
##웽
##왐
##륍
##쿙
##돠
##굇
##묜
##썸
##짭
##딤
##흰
##낛
##앓
##캎
##칰
##헙
##띵
##엾
##캬
##펌
##넓
##셭
##놑
##룍
##쫜
##뻘
##겡
##샄
##펭
##찻
##휠
##뻉
##퓩
##쓱
##훟
##숟
##햏
##횽
##쌩
##헠
##뇬
##렡
##굄
##젹
##쁨
##욧
##씀
##캌
##뀔
##홱
##줴
##웟
##꿰
##닦
##씁
##컁
##헛
##캆
##졈
##땜
##뺵
##샴
##젧
##죡
##뺴
##뀻
##믐
##썹
##캑
##씹
##읃
##핰
##뼬
##굔
##딥
##젝
##닙
##쎌
##탹
##퉅
##벵
##젔
##퐈
##젏
##폵
##숧
##씉
##퓌
##샅
##젱
##찎
##쟉
##뚯
##뺐
##꿇
##붸
##뻗
##핻
##풒
##먁
##흧
##숫
##뱡
##웜
##걔
##썀
##쭤
##꺽
##눴
##쏨
##킈
##샐
##쫭
##쌕
##햘
##싶
##멦
##긁
##셌
##뀰
##엏
##깽
##췌
##럇
##돚
##꿉
##좊
##잰
##튽
##삥
##귶
##뙓
##곗
##핥
##쏭
##딨
##옅
##뺩
##껚
##죤
##헹
##텅
##뛸
##뱉
##춧
##믕
##뉵
##눙
##팟
##꺅
##맸
##롇
##퍙
##뙈
##쏙
##뀠
##닻
##뿁
##끵
##덟
##짖
##왷
##괳
##뷇
##왼
##뀝
##뎠
##뜐
##헴
##퉤
##씰
##냙
##빻
##컼
##뜝
##퀜
##찝
##텟
##댱
##몹
##쑼
##흇
##늏
##귿
##츰
##챡
##윰
##졍
##잍
##곺
##픕
##겍
##듧
##돓
##롼
##갭
##챘
##엎
##뱔
##돛
##렫
##윿
##엓
##죳
##읷
##덗
##젯
##뀐
##깟
##믓
##뿎
##킼
##핲
##쫑
##뒝
##넸
##쾡
##삯
##칯
##롫
##켤
##넙
##돡
##탉
##겧
##촛
##졬
##빕
##샙
##둴
##뻤
##띰
##셒
##슾
##섣
##긱
##놏
##삶
##윷
##뗀
##냏
##웳
##셕
##떙
##넽
##닊
##콸
##낯
##셧
##턻
##퉹
##궂
##꾀
##쁌
##삮
##밐
##뛩
##텨
##뽱
##폘
##댠
##닼
##릯
##볫
##혓
##얒
##찹
##챌
##곁
##똬
##넡
##냠
##톼
##맙
##핌
##뿜
##쨔
##봊
##뒑
##췽
##섴
##핼
##잤
##풉
##묑
##죗
##읖
##뿍
##찓
##쁙
##뷀
##빳
##먕
##싕
##뇻
##뇾
##몌
##퉷
##켸
##늪
##쨕
##솎
##엨
##넝
##쌱
##벩
##펡
##팃
##쮜
##쮝
##뇐
##춥
##잼
##톄
##숱
##쎈
##졷
##뺄
##툵
##뻣
##듳
##쉥
##똏
##껠
##갖
##뎐
##팼
##곬
##잿
##짘
##왘
##굳
##똟
##렜
##낻
##뚀
##꼈
##떱
##륶
##뭅
##떽
##앴
##촵
##밉
##쯉
##몇
##앰
##틷
##쒸
##깬
##훗
##롓
##벍
##퓰
##횔
##탵
##벫
##쿶
##휗
##쳄
##뺑
##갹
##얭
##왉
##맢
##핟
##꽊
##뢸
##옠
##즛
##럐
##솹
##풂
##뺭
##쏴
##쉠
##뿓
##뤘
##깠
##쑝
##얫
##랃
##맣
##귪
##궸
##궼
##춸
##꿎
##벞
##틋
##쫩
##틔
##뫙
##뗏
##잌
##팈
##됐
##뻡
##뼤
##낲
##땨
##뵥
##쉽
##뜵
##괼
##낍
##뷉
##늡
##웉
##삵
##셥
##끽
##꿏
##츩
##쩬
##쉭
##쭁
##푴
##눞
##맠
##춉
##챰
##튐
##넹
##촙
##퇀
##쩝
##왧
##뷃
##휙
##쨘
##뤨
##벱
##꽥
##굛
##댦
##뷁
##꺆
##뜜
##읠
##홐
##혻
##촥
##땁
##봙
##옘
##튱
##퇘
##껒
##숎
##쭘
##쵼
##떳
##헵
##뫀
##딍
##몫
##챦
##튝
##긧
##튄
##쯪
##핡
##삑
##좍
##뗶
##뗵
##짇
##붱
##퐳
##볏
##뒥
##짧
##뽜
##땽
##훽
##꼇
##꺠
##쭌
##줜
##큾
##벖
##텂
##큥
##벲
##뒈
##몀
##맑
##둅
##촡
##멨
##좔
##꼳
##셱
##띨
##됬
##뷴
##퐄
##앍
##솀
##꺘
##듹
##헗
##갚
##쎅
##쳑
##뼉
##쭵
##꿘
##훓
##뫃
##뚷
##뭏
##붖
##켁
##볈
##뷜
##쎔
##젴
##땛
##밻
##샒
##껌
##둍
##꺕
##꺵
##뉼
##쯸
##찡
##뀍
##뇓
##뇩
##촹
##햅
##첬
##빴
##흴
##갉
##믁
##왠
##듄
##꾁
##뫞
##뿷
##땞
##밪
##뒗
##됵
##롊
##눝
##쾰
##몄
##먳
##맻
##뮻
##뭋
##긇
##섀
##먏
##쾃
##뉸
##옇
##띱
##곌
##겕
##휀
##쌘
##뜫
##귓
##읫
##쿸
##쑈
##벜
##잨
##챵
##툽
##흿
##롹
##댸
##츹
##녯
##읔
##쥘
##헥
##딈
##삜
##랕
##앆
##풑
##닏
##둈
##랔
##뾘
##겉
##롣
##됸
##콬
##됴
##촷
##쿳
##뒷
##툿
##왇
##뿝
##횢
##곯
##픓
##뺚
##귱
##끆
##닯
##웸
##뗑
##웗
##뛃
##꽯
##쨍
##쥥
##엤
##퀵
##삒
##쏚
##졉
##햇
##퍗
##짢
##혬
##떴
##씤
##귬
##쩠
##띄
##볽
##툇
##뺌
##횦
##괸
##콫
##퀠
##뢔
##뤵
##쯕
##뭔
##뵌
##텼
##죔
##꺐
##뱐
##붹
##갛
##덯
##돵
##흟
##녓
##쿱
##쵁
##퓻
##얃
##쏀
##룳
##쯰
##랼
##툠
##눟
##걷
##캰
##쟛
##곲
##횞
##삾
##뼜
##쒕
##췅
##쭨
##낪
##밊
##돿
##풱
##붇
##뜀
##폄
##큇
##큭
##잫
##륽
##춱
##몔
##닾
##쬐
##겋
##튿
##쉈
##냟
##냣
##퐐
##쑜
##늿
##싣
##끅
##엮
##뭘
##돜
##듶
##땍
##큄
##챸
##괂
##읳
##랖
##뫌
##칞
##칟
##솩
##쉿
##뒫
##띈
##꼰
##쇅
##뿟
##됭
##먗
##빧
##랰
##츀
##묶
##똠
##횝
##뽈
##뚬
##뺘
##꿝
##쳬
##웈
##쏩
##얶
##욀
##쮹
##꾱
##츺
##띙
##룺
##닜
##탘
##딺
##핚
##맫
##끎
##짞
##꽉
##뽝
##봑
##깤
##돫
##칡
##껫
##줓
##뗻
##띧
##윘
##눤
##릣
##뙤
##뉻
##뒨
##쳡
##벋
##큿
##먐
##쉡
##겊
##큮
##첫
##
##떅
##겴
##튭
##겻
##옺
##쏫
##헔
##뺅
##귯
##췬
##큪
##핔
##씃
##좐
##횅
##떰
##껸
##찷
##캤
##듫
##궬
##즑
##뎊
##뛟
##쳰
##횬
##켚
##뤕
##쎼
##굵
##횸
##붚
##꽌
##븟
##엒
##폯
##뚮
##쐙
##뽟
##퇼
##싰
##얬
##쏼
##껰
##긞
##긏
##귺
##썅
##싮
##쨈
##좹
##쁶
##잽
##갇
##긿
##삧
##텬
##꼍
##탰
##웝
##뤂
##둉
##쒹
##벧
##맺
##뭭
##뫟
##룔
##잏
##픨
##앸
##둙
##쥭
##룐
##꽤
##빎
##쩧
##푈
##샻
##엪
##몃
##뎜
##컿
##웆
##뀪
##댬
##뉠
##싐
##뉩
##읕
##탙
##퀑
##즹
##릵
##픅
##톻
##훕
##쎠
##섕
##쩅
##뭍
##끊
##괆
##귖
##궺
##긲
##깒
##깛
##긛
##씍
##줵
##툉
##늰
##뒁
##걕
##돖
##왒
##귝
##쇳
##읶
##맏
##휫
##쑁
##푯
##횩
##꽦
##걋
##뙳
##홂
##곖
##쵮
##덿
##닑
##홥
##휭
##솁
##쥩
##끨
##뼥
##꽇
##큣
##붘
##룟
##뼸
##콱
##텽
##뿨
##쓩
##쁅
##뺡
##뗡
##긑
##쬘
##홝
##홑
##밣
##뎋
##쟣
##킳
##뵙
##릊
##둇
##옳
##헷
##긕
##춋
##츔
##끜
##흗
##뼝
##랋
##짰
##핱
##딯
##믌
##뒓
##셣
##죨
##쬰
##꺌
##쉏
##뿮
##뱦
##냫
##둗
##윹
##넜
##땄
##섦
##쭓
##붏
##밬
##푷
##폔
##덞
##흓
##낳
##컭
##걍
##콣
##쯩
##솅
##꼮
##흨
##끤
##욣
##랆
##큔
##듥
##췻
##퇸
##뮹
##튤
##휵
##멉
##졧
##큅
##섈
##삗
##췛
##췰
##햑
##횐
##썄
##튮
##뷓
##얹
##뚧
##덦
##흩
##켬
##쁴
##젊
##욹
##궖
##궫
##궋
##캢
##욦
##싈
##혯
##룝
##륷
##윻
##픳
##쉑
##햟
##싫
##펍
##쟘
##굠
##땩
##떈
##셷
##윕
##얺
##킦
##끾
##븅
##컫
##엊
##뭬
##뛣
##홣
##꾫
##봫
##쟙
##넠
##흄
##롁
##퉜
##돩
##챝
##짒
##뻴
##엷
##앝
##쐐
##췃
##깏
##좨
##쳔
##맓
##싧
##댋
##삷
##핿
##줊
##셟
##섧
##갊
##핣
##닚
##닧
##튺
##얐
##꺙
##뿀
##슆
##콻
##쬔
##땝
##샠
##졋
##썷
##줭
##픋
##춈
##쬷
##홅
##욿
##쌻
##풇
##퇗
##뿗
##쟤
##쬲
##냌
##쨥
##쌐
##쥉
##엫
##갗
##뱨
##몊
##쉟
##렣
##헯
##휩
##쬽
##괧
##쎃
##맄
##뾲
##슁
##븓
##묺
##붛
##뗐
##펼
##왂
##싄
##힁
##돨
##꽹
##붝
##뤩
##슉
##띡
##죰
##롑
##렞
##샢
##낟
##탇
##쏟
##끠
##줆
##꽐
##퇵
##슽
##큉
##깩
##핤
##췍
##쵤
##훳
##줛
##놗
##솫
##뗛
##몼
##돇
##돣
##뢐
##홳
##잓
##웫
##룫
##뺃
##뗣
##뚞
##뺼
##뇔
##썻
##쳌
##찧
##늕
##쀳
##꿱
##쥣
##믱
##븍
##꺢
##읓
##젮
##둩
##칣
##팂
##놰
##쀠
##띾
##텄
##녑
##툥
##죈
##훁
##쨰
##퉱
##끍
##휽
##쳣
##놘
##쁐
##엗
##퀌
##밦
##뢱
##궶
##궻
##랤
##궢
##몯
##톹
##퐆
##콦
##빋
##궃
##푠
##뗠
##텤
##깈
##쿜
##쬴
##됼
##굑
##쭊
##뒿
##뜷
##뙗
##퀙
##옮
##힡
##촾
##얻
##힗
##뤙
##쵠
##뱁
##쫒
##쭛
##롷
##롈
##쭀
##맇
##뚸
##벐
##챞
##퓍
##싟
##밗
##귡
##긮
##깑
##툑
으로
에서
20
한다
지만
에게
201
는데
때문
19
까지
##00
된다
라고
라는
다고
면서
경우
10
사용
다는
공격
아니
이후
자신
##레이
사람
그리
정도
부터
으며
##스트
가능
다른
이나
12
200
보다
등장
는다
대한
11
아이
그리고
게임
하나
경기
..
위해
해서
다가
##er
사실
시간
그러
사이
시작
일본
이상
이름
모습
함께
##니다
##지만
상대
한국
문제
15
나오
거나
다시
어서
##in
하지만
프로
##스터
만들
생각
으면
또한
들어
따라
가지
가장
캐릭
당시
##대로
시즌
처럼
캐릭터
플레이
18
##on
능력
##이트
모두
상황
상태
모든
추가
결국
세계
선수
##an
16
##or
스킬
카드
##미지
현재
보여
다만
많이
보이
전투
효과
다음
30
그러나
그런
존재
지역
으나
##으며
13
미국
시리
14
그래
199
##라이
매우
##ar
##으나
라이
나온
17
대학
상당
레벨
기록
##he
시리즈
##인다
##at
스타
기술
대해
레이
다면
물론
무기
##리아
이용
시키
처음
이유
자체
해야
방송
그렇
100
이런
같이
아닌
필요
영화
실제
여러
해당
25
피해
마법
주인
통해
여기
일반
돌아
거의
##린다
역시
바로
##리스
리그
인지
학교
인데
사건
##이스
##en
이야
특히
관련
##거리
기본
2017
부분
##이지
위치
##진다
진행
##ou
아무
방어
2018
##부분
이야기
대표
떨어
국가
는지
없이
##지막
못하
제작
활동
인간
달리
에선
동안
작품
증가
대부분
아서
##al
마지막
본인
2019
일부
계속
자기
버리
##시아
21
서울
라면
내용
만큼
##es
해도
인해
주인공
2016
감독
##어나
보인다
참고
속도
관계
50
##전히
중국
대신
수준
이전
그냥
올라
비슷
어느
전쟁
지금
타이
우리
##한다
성공
22
기준
인물
습니다
도시
198
상당히
공격력
그녀
24
마다
도록
최대
기사
##민국
결과
지원
그대로
평가
시절
너무
므로
보스
제외
##it
자리
##토리
연구
##버지
의미
의해
나타
소속
이미
실제로
승리
직접
전체
새로
2015
영상
대한민국
23
유닛
원래
체력
여자
##부터
로서
언급
대로
개발
데미지
멤버
##ing
유저
알려
##st
##le
##학교
##ic
이동
마음
설정
40
정보
문서
다르
방법
선택
##다가
애니
##re
과거
이것
##운드
몬스터
으니
머리
들어가
이어
출연
성우
친구
포함
나가
차이
##랜드
##dd
위한
##이션
##라도
나온다
대상
설명
엄청
##가지
사회
바람
플레이어
장면
나왔
준다
우승
최고
여성
버전
사랑
비해
소리
프리
아버지
지나
##이드
동시
공식
유명
시대
당하
2014
만든
배우
발생
이루
영향
사망
주로
거리
대회
려고
프랑
##주의
남자
결정
조금
발매
26
주장
출신
아이템
##ff
나라
초반
000
이러
인터
학생
##어난
전부
버스
공개
사라
마이
역사
28
운영
서로
유지
파이
스토리
모드
##el
한다는
27
구성
대사
파괴
제대로
##am
했으나
정부
방식
그것
음악
강화
31
자주
중요
아직
후반
이때
또는
월드
the
과정
형태
최종
이렇
나이
정치
역할
독일
시스
최초
##벤트
노래
대전
이벤트
시켜
##om
강력
마리
모르
스테
정말
##른다
변경
회복
##머니
##이도
기존
어떤
##우스
그런데
드라
영국
보통
드래
비교
소환
라도
정신
마찬
마찬가지
##la
가진
조선
인기
당연
특성
부르
##is
성능
##프트
못했
확률
속성
마을
행동
2013
슈퍼
오히
노선
모양
오히려
##리어
아래
자유
아들
교육
197
발견
차량
바이
라인
29
수록
게다가
따르
32
부족
특수
프랑스
##et
이번
00
대학교
확인
그래서
성격
문화
유일
활약
차지
새로운
했으며
##ol
가까
2012
관리
장비
만나
##ion
버렸
영웅
모델
그래도
일단
입장
아예
찾아
생산
스트
시스템
이렇게
어려
제국
고등
다이
심지
##간다
시킨
심지어
먼저
경찰
반대
계획
주변
##레이드
넘어
운동
2010
어야
앨범
##디오
자동
거기
완전히
조건
드러
내려
우주
기간
사진
바뀌
힘들
##레스
난이도
부대
개인
적용
발동
기능
어떻
##ow
지구
건물
60
감소
위원
##nd
km
##20
축구
##통령
자세
##il
##ig
##므로
중심
한다고
##인트
##ed
실패
이제
메이
애니메
하이
세트
혹은
중앙
선거
라며
현대
35
으로서
회사
덕분
초기
전혀
얼굴
데이
작가
시기
표현
따라서
국내
원작
대통령
보내
패배
위해서
민주
처리
오브
순간
##너지
TV
동일
##버스
지속
프로그
드라마
반응
지방
합니다
도움
얼마
다니
더라도
인정
참여
기관
애니메이션
출시
##니아
명칭
##ac
판매
담당
데뷔
##as
##없이
##BS
정확
불리
요구
획득
196
##나마
##리카
굉장
스페
하루
생활
of
그렇게
시점
2011
작중
다양
발표
밖에
후보
설치
그룹
상승
진출
선발
아군
구조
기억
항목
Lv
영어
만화
가격
움직
단계
그림
##소드
특별
마스터
물리
실력
가져
##ve
그나마
드래곤
아마
에피
어도
01
조차
야구
다며
시장
The
가족
사고
범위
특징
경제
려는
시청
방향
##소리
연기
대체
패치
경험
계약
고려
수비
빠르
##ot
나와
밝혀
아르
확실
참가
국제
디자
에피소드
500
세대
발사
폭발
##로스
브라
묘사
싸우
로부터
##스크
주의
한테
프로그램
어린
고등학교
80
##비스
활용
2000
어떻게
라서
죽이
상위
결혼
어머니
무시
제한
비판
목적
더욱
준비
중간
각각
##ad
37
대해서
보호
##어지
러시아
45
아야
아주
버프
챔피
라운드
굉장히
이미지
패턴
국민
오리
어디
히로
위험
진짜
참조
세이
어렵
대미지
생명
조직
싸움
조사
단순
듯이
과학
여담
크리스
타입
세력
현실
파워
St
안타
시도
소모
제공
주요
구간
194
유리
불구
전문
지하
유럽
일으
연속
부산
세기
나머
혼자
못한
순위
논란
##러운
조합
한정
포인트
사실상
엄청난
기에
약간
으므로
나머지
동료
##id
70
나무
분위
성장
09
떨어지
버린다
##ay
무장
여전히
보였
디자인
분위기
당연히
취급
항공
출전
90
이해
올리
트리
학년
##스로
일정
지도
규모
등급
훨씬
FC
##ER
투수
소설
##나라
한편
예정
인구
운행
블랙
성적
##어났
강한
부상
자연
엔딩
기타
살아
삼성
계열
mm
02
해결
2009
03
사업
##ch
스테이지
센터
였으며
방면
연결
미션
300
기대
##이크
방영
최근
의견
였으나
연합
수정
##us
48
으면서
변화
도망
종류
자면
##ir
이탈
표기
잘못
전용
05
퀘스트
배치
195
추정
33
for
##려서
2008
발전
소녀
36
08
##난다
대화
거대
보여준
정상
직업
시켰
안정
07
##ur
도중
메인
죽음
엔진
충분
스스로
종료
나타나
##스타
작전
##티브
수상
챔피언
세상
이라
나중
오래
독립
일행
비행
쓰러
요소
오른
느낌
마저
당신
입니다
HP
보상
에너지
당했
만드
방어력
달성
수도
비롯
전설
##..
공연
##od
미사
무리
06
동물
배틀
##러스
##BC
부활
특정
장착
훈련
스피
절대
th
스카
졸업
철도
유니
버린
##im
##자기
기업
전기
다운
포켓
위기
지휘
행정
싱글
번역
번호
근접
##란드
더불
아이돌
제목
건설
04
관심
만약
##아들
미래
황제
내부
남성
반면
요리
올림
득점
##un
충격
점수
##ut
##다는
신경
SK
시험
전차
##리오
군사
돌아가
목소리
목표
강하
홈런
지지
소재
2007
전사
##운데
##데이트
업데이트
정체
you
공간
##지션
똑같
했었
가끔
무대
##어들
스파
시설
사이트
타격
로마
오늘
34
##인물
도로
일어나
배경
링크
지정
장소
각성
전작
누구
서비스
공중
항상
날아
##ro
최소
교체
다리
그만
전국
파티
분노
쓰이
##어진
##너스
생존
작곡
북한
등장인물
정식
예상
##수록
자랑
의원
부여
클래
생긴
작업
무엇
포켓몬
사냥
##디어
분류
종족
스포
으로써
한데
인도
악마
##ag
##igh
소개
야마
38
한다면
인사
스타일
아프
비밀
##ver
엘리
단체
얘기
케이
애초
인터뷰
괜찮
가수
필드
##ec
오르
결승
##동안
cm
판정
빠른
크리
이끌
기계
클리어
75
목록
연출
각종
외국
카이
하늘
이외
타카
명령
파일
가리
##ent
제일
2006
초등
아파
기체
병력
지상
카운
로봇
개념
55
전반
확정
기동
in
교통
불러
으려
정작
193
건담
레어
비용
별로
##ak
화력
##인지
장갑
올림픽
수행
군대
니까
가르
사항
표시
크기
##다고
이게
가운데
프레
따로
인식
시티
행위
사격
수치
경쟁
라이브
##해서
떠나
2020
##라인
사거리
to
##um
알아
인가
아카
가문
기반
변신
갑자기
저항
감정
',
이걸
나름
포지션
##젝트
이기
마치
진화
이탈리아
달려
완전
평균
왕국
아키
단점
집중
인천
보유
교수
나올
근처
통합
지키
당한
기회
병원
vs
직전
의하
던전
노력
임무
지난
냐고
빠져
의식
아도
코스
자원
전자
특이
국회
설립
탈출
##화국
언제
정의
오버
압도
##르트
##ST
바라
이닝
베이
월드컵
부모
단어
다크
부정
환경
##em
고양
현상
##ub
정리
사례
잠시
사정
##비아
판단
효율
시전
스러운
제품
지켜
이쪽
생기
극장
치명
일러
로드
본래
달라
가까운
기다
##말로
주제
무슨
촬영
아스
파트
더니
##000
삭제
상관
##르크
의외
##라스
주문
위원회
전력
동생
고속
이건
원인
주민
대구
여행
물건
제거
지배
강제
발언
소련
연습
치료
병사
##어로
포기
스코
스럽
골드
위력
요시
도전
2005
전개
끝나
이하
노트
저지
역대
책임
해군
중학교
기념
##요일
사무
올라가
도입
정책
시킬
봐도
점프
나이트
완성
복귀
실험
##ight
화면
이르
42
루트
고정
려면
공주
도쿄
살인
유사
레드
바꾸
의사
음식
41
##학생
페이
##트리
##야마
별명
바다
던지
받아들
차원
직후
선생
이적
히어로
불가
다수
사기
밝혔
중반
구하
39
티어
전략
히트
어둠
밴드
분명
마나
공동
도착
2004
##무리
무려
미니
##모토
접근
언어
녀석
가치
제도
EX
관한
LG
에게서
정당
으로부터
은데
오프
회피
추천
타임
조종
정규
사상
시민
대기
밀리
예전
##ce
확장
아파트
신체
고자
##루스
##그레이드
업그레이드
생겼
마사
구매
##AR
##드시
연장
롯데
리더
자료
랭크
이곳
반드시
폭탄
##os
투표
탈락
타이틀
인터넷
부탁
어요
장치
단지
##다니
##시마
학원
완벽
크로
라이트
미사일
종교
44
노리
우선
##ri
일러스트
소유
형식
해외
고대
##AN
구역
장점
사령
최강
데스
심각
산업
뛰어난
아내
##ula
Ch
금지
하드
##ON
##역시
도와
추측
다루
버그
실시
올려
No
자마
위키
마무리
##ap
43
느끼
99
대장
클럽
몇몇
그린
공포
가사
##져서
노동
##and
##이치
2002
연재
가드
구분
st
검사
달러
범죄
합류
점점
시킨다
서버
로스
조정
요청
보여준다
이사
행사
##이어
차례
##트라
form
레인
옵션
맞추
재료
보병
그야
##러리
조작
선정
선언
수많
마법사
다소
걸리
전통
교회
타자
걱정
프로젝트
kg
그리스
종종
개그
47
스포츠
46
데이터
51
191
좋아
컴퓨
개월
암살
부하
광고
형제
마르
formula
열차
빨리
성향
뉴스
대중
개최
평범
##나이
이라고
내리
자마자
KBS
포스
인한
##조건
그야말로
실점
한계
스페인
구단
재미
채널
대결
##아내
설계
코드
##ter
거부
통신
언론
아무리
워낙
생물
다행
비중
보조
복수
종합
알려져
행성
컴퓨터
민족
기지
디스
and
전화
높이
한글
무한
투입
개봉
해석
무조건
본격
영혼
에이
냐는
그걸
운용
어려운
모자
굳이
##ul
MA
평소
정확히
실수
회장
원정
광주
##IN
걸로
지적
모아
소년
##타임
연주
지명
와중
##무라
인상
1000
위협
미드
박사
2003
회의
상징
충분히
##op
등록
는가
사태
집단
대형
가정
대응
카메
그럼
대비
보너스
터미
넘어가
아웃
자동차
소비
##ck
전원
보컬
체제
공사
페르
시청자
%,
##뜨리
##로드
태양
특유
희생
150
비하
조각
플래
가면
개조
모른다
맞춰
65
##FA
군단
##자리
##ation
무사
편성
열린
봉인
해졌
거두
된다는
##리트
여름
MBC
마력
##니스
SP
##드리
일종
기자
##로그
##ra
아라
192
육군
앞서
간단
발음
네이
장군
공항
들어오
스크
생성
통과
얼마나
##일러
##의원
시나
분리
움직이
방문
64
오리지
II
##다면
장르
동맹
장기
오랜
바르
함정
반복
고양이
서술
##튜브
소식
의도
전환
사쿠
펼치
빼앗
분야
디지
로써
근데
52
불과
유튜브
세요
가깝
바닥
영입
안전
경기도
브레이
괴물
저격
마크
##텐츠
제안
거쳐
흡수
점령
You
힘든
##시스
의지
는다는
엄청나
못한다
예선
초대
필살
미리
최후
##니티
전해
400
개선
그때
공략
유도
##남도
화염
와서
빠지
숫자
독자
사라지
전술
##art
데려
코치
그저
방해
주력
액션
확보
외모
인원
매일
평화
##낸다
비트
드립
진입
터미널
이론
##런스
##니까
규정
관통
VS
클래스
피하
라디오
에스
오토
장난
뭔가
수사
49
##오스
이치
투자
승부
컨셉
눈물
체육
목숨
형성
적극
느냐
방패
AP
56
가스
패러
상자
음반
진다
끝내
모험
사과
아름
서브
리어
왼쪽
적절
인류
한국어
계기
보도
모리
살아남
2001
함대
구축
##동생
거짓
의심
간다
약점
그려
##여서
예술
공화국
역전
##스케
인형
기원
53
오리지널
54
비디오
##페이지
작성
완료
더블
##모리
당해
...
##온다
공부
은퇴
수리
코어
솔로
회전
스위
##라이더
지닌
단순히
대단
질문
In
PC
편집
황금
부른다
마침
뮤직
##래프트
알렉
##로우
시내
안드
##시브
홈페이지
착용
필수
트랙
누군
상대방
날려
꾸준
85
보수
해제
민주당
미스
선보
카페
이어지
을지
나쁘
엄마
아프리카
드라이
경상
##ia
사단
습격
장관
1990
현장
날개
사장
코스트
비난
포르
희망
돌려
원거리
##ill
오스
의한
수원
##ie
재판
분석
하위
##으니
##레이션
명중
아시아
지니
진정
무력
코믹
선물
##RA
성인
수호
ST
모티브
##힌다
##IA
비고
에이스
청소
확실히
심하
블루
행복
경계
저주
감안
카즈
중단
태도
가슴
190
##ik
임명
남편
공원
기획
지식
관광
##나다
표정
허용
승강
스마
쿨타임
장애
수단
오른쪽
탑재
아쉬
바탕
본선
딱히
인민
제시
소프트
상처
주도
##무원
당장
59
##연히
##북도
의문
영역
유래
기점
유우
테마
소울
테크
고통
리스
마시
보급
##ab
직원
불명
돌파
기어
일어난
베이스
위주
멀티
작용
나누
주목
제압
대답
120
58
나카
그라
잠깐
##워드
##마스
주연
카운터
여부
고유
제기
순서
미치
##워서
측면
베르
체계
도서
##est
게이
57
업무
박스
진영
부인
우수
##th
MP
멀리
문명
이스
카메라
패스
횟수
후속
멸망
통일
온라인
##all
버튼
공장
어찌
##트롤
텔레
시나리오
지내
지점
거주
케이스
귀족
놀라
##ea
66
알리
95
코너
문자
당선
에어
겨우
협력
차별
특기
계산
소수
지옥
약속
듀얼
삼국
최악
마츠
눈치
크로스
뉴욕
Sh
연계
대하
딜러
시체
은행
##머리
Lo
##ct
스펙
살해
느껴
ddd
on
바꿔
개편
을까
오후
유키
1999
스케
Re
붕괴
배신
게시
대놓
자격
혁명
어울
떨어져
버려
매치
군주
부담
110
처치
##ddd
생겨
dddddd
Sp
컨트롤
게이지
1998
벌이
##AL
해금
##스티
나아
그레이
겨울
국회의원
다름
견제
증거
에겐
레이저
스탠
미친
외부
최대한
군인
구해
장전
된다고
교사
필살기
제조
##AT
62
출발
진실
자살
핵심
##바이
##PS
정권
##피아
대원
후지
따른
여왕
전장
궁극
##라리
누군가
미군
##OR
중화
연방
용병
가졌
마왕
##니어
스프
로켓
아침
##래도
댄스
가로
##VE
거절
제로
충전
미나
누가
한화
타이밍
출생
자이
누르
유용
공산
돌아오
SS
알려진
일본어
기분
SBS
##어져
이성
##터리
커뮤
조준
만족
충돌
바뀐
날리
고급
브랜드
##어도
도구
단위
취소
는다고
트레
애매
교환
스피드
부진
거래
##ate
스킨
##로이드
터지
##사카
수학
흔히
##ess
피해자
뛰어
극장판
토스
Th
카르
##ell
61
반란
제주
##광역시
##나가
발휘
세계관
얼음
##ard
무게
끝난
76
오스트
해진
우려
장수
파악
후반부
자고
하트
건너
##ang
끼리
단독
통하
아무래도
모션
레전
홍콩
인생
패시브
공통
##IC
##하라
근무
판타
미야
##ue
신화
비록
격투
아머
한자
빌리
헤드
##ant
##ack
순수
##ers
피아
Al
NP
웨이
77
커버
구입
##아리
정령
##다운
파이터
브리
##ine
88
공군
1997
##다수
운전
72
등등
혼란
계급
자식
가입
그게
줄어들
수입
아메
스코어
닥터
##심히
트레이
회수
떨어진
권력
경력
본부
채용
지시
공작
근거
마이크
데리
속하
##피스
탄생
쉬운
생일
밸런스
해방
비율
##친다
향해
기절
건강
지하철
언니
용도
테러
꾸준히
늘어나
##가락
기다리
병기
엑스
표준
갤러리
좋아하
BG
타워
로운
실질
돌격
##메달
지대
##ok
##OS
납치
증명
협회
반영
홍보
지급
프라
남부
인지라
대공
강조
아사
입학
be
플라
오오
약한
나쁜
파라
트위
불안
업체
여겨
랜덤
373
FI
유형
그럴
외교
요원
##디션
경영
왕자
or
들어갔
##유키
밀려
아나
감염
대륙
경향
##세이
98
fff
위하
온갖
훌륭
광역
감사
CD
gt
고서
연대
마녀
실행
장식
문학
##ive
패러디
##웨이
쓴다
기독
트라
못해
페이스
메탈
물질
600
##오리
어쩔
입단
재생
가까이
태어났
##크래프트
울트라
스페셜
화살
추진
주년
어차
집안
고민
내내
설득
대다수
계승
1996
서포
조지
건지
정해
승강장
살짝
사카
선배
##트로
드리
어차피
부문
폐지
##ast
이슬
캐나다
##고기
무서
숨겨
올랐
PS
##AS
영원
정지
대놓고
봐야
신문
베트
1995
보물
적당
신뢰
이래
사전
##바로
브라질
연예
##어리
작사
즉시
기기
##uby
",
##어졌
전선
당황
##ED
미소
##긴다
따지
불렀
당한다
함선
##tt
##즈키
##이터
68
뒤집
페이지
##ee
폭풍
등판
은근
lt
오픈
800
소문
탑승
버티
명예
어째
열심히
스파이
상품
화장
입수
레전드
오프닝
갑옷
별도
경유
러브
심리
시행
##거나
경기장
이거
단일
파리
63
라스
둘러
의회
1980
변호
통제
마련
##카와
올렸
댓글
반격
##ong
##AM
ruby
스티
때려
운명
가면라이더
변하
오류
정류
##시오
응원
갖추
일으키
모으
레오
후쿠
한때
커뮤니티
신청
쓰레
트위터
격파
라이벌
사령관
##ort
김성
주전
고전
기독교
출판
습득
이승
##웨어
중계
돌리
공기
편의
##ith
수업
하수
심장
아리
##리티
불만
끌어
신고
오해
마인
마주
두산
울산
##아먹
##다지
71
##if
74
흔들
관객
전함
외국인
카나
정말로
랜드
보정
##나무
주위
##ly
크루
##fff
건축
출장
##아버지
....
스트라이
용어
MV
##ld
흘러
공유
그곳
전달
고기
73
여론
67
아트
메이저
ffffff
민간
사운드
우스
절반
짜리
조치
##티컬
내놓
지형
물러
남기
갈등
여신
##도우
붙잡
임시
무적
자치
드러나
##학자
재능
가득
아오
전공
압박
NC
카라
##ain
리버
열리
별개
지나가
엔터
붙여
초월
##ist
96
##쳐서
종점
연구소
오로
네이버
요새
스튜
1994
##ind
##오르
움직임
나서
북쪽
강해
전형
추적
메가
TH
그다지
메타
시각
전하
##타인
180
컨텐츠
남쪽
벗어나
디아
늑대
보장
약하
이란
테이
쓰인다
AC
돌진
소멸
##서트
판타지
시야
81
AT
##가와
난다
결승전
전시
클라
타점
든지
꺼내
다행히
파이어
일부러
잖아
걸려
##per
불꽃
서부
그만큼
동네
화이트
환자
##듀서
프로듀서
##ps
뿌리
강원
동기
가이
##지컬
##EN
만난
여동생
문제점
화려
##드라
##츠키
그림자
선호
왕조
동원
폭력
상향
파이널
회원
대만
본명
치명타
유로
북부
유비
신세
##EC
소드
밝히
자는
됩니다
신라
78
그런지
##식간
91
##OL
빨간
##스탄
수요
여서
순식간
연상
무난
##ew
도서관
테스트
향상
메시
전역
매력
클로
학과
##에도
아시
차트
전적
떠올
##더스
아가
변형
통한
아무런
스토
아일
최상
전방
저런
부품
##로운
뛰어나
84
CP
체포
영토
일상
수집
크리티컬
암흑
전투력
시드
게이트
##사키
코믹스
되돌
키스
영업
##LC
마술
me
인수
토모
##ry
수용
이마
조절
파견
어쨌
드디어
할지
폭격
복잡
학살
복장
유전
아우
##어스
82
대우
떡밥
##lo
벌어지
입력
그래픽
구현
밝혀졌
편지
개통
생명력
사라졌
발매되
몰아
호환
오빠
현지
97
니시
추락
신인
사자
천사
도달
따위
고향
동부
닌자
사토
##덜란드
네덜란드
청년
86
창작
경비
통해서
점차
반지
작동
맞이
콜라
콘서트
연관
프레임
교황
제이
엘프
보단
한국인
쓰레기
수송
출현
노예
##운다
스톤
기초
##레나
##거운
사쿠라
푸른
종이
모바
추격
해설
아닐
it
세워
해체
69
해진다
##퍼스
다시피
##어버
몰래
구도
조용
스러
충청
의상
##노스
심판
플레
간격
진지
공급
녹음
아티
들어간
is
주먹
##히로
식물
아무것
토리
막장
시위
조성
NPC
보냈
무너
프리미
##디아
전투기
##오프
##IT
제자
조조
잉글
연사
인하
두려
##둥이
수술
무효
스마트
연애
검색
슬롯
##와서
옮겨
실드
##시코
마스
감시
##타로
레스
버릴
스카이
US
나갔
일제
블록
꼬리
당할
일어났
법원
##스트라
동쪽
##특별
마리오
나루
경험치
구체
MS
고교
옛날
##오카
An
통상
때리
총기
김정
##티나
범인
탱크
구속
베트남
라이더
##모로
##버트
세우
##ust
신규
신분
대립
장교
성과
지나치
은하
연락
국립
예외
쿠키
##주시
##다른
250
어깨
KT
강의
인근
입구
지도자
신성
다섯
차단
규칙
##50
글자
먹이
되찾
불편
대대
메카
이랑
헤이
마도
평타
프린
요정
언제나
창조
박살
코인
안습
바보
총선
유희
모바일
만났
동작
토론
##도로
후기
전라
##비전
##일리
여러모로
환상
마리아
아크
에드
189
거짓말
노출
기여
의료
##파이어
##브리
권총
세월
소총
리아
이리
이득
농구
어택
##자키
일원
다이아
빠진
자이언
무료
##워하
신호
블레이드
202
서쪽
##영상
이날
1992
부위
출처
음성
정복
개혁
들어간다
미술
##스턴
폭주
극단
잠수
고생
92
헌터
##BO
##ore
##저히
간부
죽여
##톨릭
드러내
Ar
참전
반발
전직
이뤄
교전
편하
고용
투어
대체로
양산
일자
밀어
길이
보석
고문
폴란드
대량
키리
연도
키우
상점
83
글로
라이프
제법
호평
상상
제어
사마
동영상
수영
정류장
걸쳐
승격
전대
Te
##보드
출력
자라
누리
사양
합격
89
기습
없애
##FF
101
터치
93
1993
공학
잉글랜드
지휘관
북미
De
MAX
제작진
기병
득표
윌리
나뉘
중대
94
요괴
돌아온
마루
합성
미디어
머신
환승
인증
드물
날아가
법률
##어진다
com
치가
79
상하
보낸
적어도
파란
가시
##일드
탄약
조심
가량
박근
런던
회차
구출
널리
요즘
탱커
##FC
파일럿
의혹
원소
re
매니
리얼
활성
사이드
동방
귀여
떨어진다
유령
포탑
하수인
낸다
알파
노멀
삼진
히데
침공
87
마이클
디지털
분기
하고
이재
개정
서양
부수
가톨릭
즐기
묘지
인공
의무
어쩌
##우드
볼넷
이슬람
똑같이
네임
가속
다면서
결성
##one
예비
축제
대략
On
블러
가게
학자
패널
경고
레인저
계정
괴롭
보고
##se
올라오
타케
이자
##ip
헌법
소화
전면
이내
아일랜드
##AC
이루어지
취하
AI
부부
스키
DJ
특화
##RE
줘야
익숙
써서
용사
상호
##미야
달린
미츠
심한
갤럭
던져
##ere
캐스
##먼트
이시
스웨
그럼에도
##임스
문장
바이러스
메모리
슈트
걸어
워치
들이
근육
대항
커맨
불법
##PG
리메
BGM
MC
부리
나와서
불린다
플레이오프
핸드
베스트
플로
SN
자매
유행
한방
개체
어지
##준다
파크
##ity
도발
##ath
김영
##창기
보안
쿠로
일시
육성
예측
어린이
냐며
예고
트로
느리
소닉
넘기
이즈
자금
갤럭시
##라이언
총리
루시
##어날
살려
보일
검찰
취임
멕시코
FIFA
터키
무언
마냥
정면
결론
신기
사제
길드
##end
국방
어떠
리스트
##조리
형사
스톰
고백
1991
넘겨
루타
구멍
캐리
식사
마구
레이스
리치
세이브
호텔
곧바로
상업
감옥
이명
태어난
!!
##펙트
저장
절망
여유
제임스
개방
부서
진심
##워크
투구
그랬
사이즈
구원
유대
노르
볼트
초창기
플랫
세르
THE
700
타마
대가
FA
피부
너무나
와이
배차
##요시
박정
##고리
청소년
오랫
팀원
웬만
흥행
으니까
강철
일지
번개
카타
고르
몰려
착각
좌우
##특별시
된다면
전철
커플
합쳐
##릭스
여지
1988
##구리
바위
파트너
발달
##레이터
세포
리메이크
MVP
펼쳐
소형
##로나
처벌
그동안
서울특별시
다스
현역
레이드
아기
신설
긍정
주식
융합
##데스
##네스
주간
원자
##지마
외계
아쉽
분량
아빠
차라리
아름다운
프라이
정착
Ro
위장
미카
##OT
인정받
돼지
반사
챕터
카스
합의
사신
##디언
식민
랭킹
찾아가
지냈
내성
##성기
목격
인연
누적
입히
협박
통치
전문가
드림
내장
장악
단장
게스트
의뢰
화학
빌드
떨어졌
CC
방지
에서부터
포스트
클리
도망치
야스
에다
브레이크
무언가
잡지
박근혜
##레인
Wh
해병
영향력
공지
스미
논리
방출
안드로이드
동의
태그
어울리
국왕
사우
방사
는다면
AK
시즈
대지
타이거
도우
조약
포트
한지
각자
내주
요코
배트
한번
관할
저녁
지능
##ect
돌아왔
DLC
살리
골든
국군
하필
htt
라면서
대폭
Se
1970
의존
##스키
최소한
양쪽
고지
손가락
토르
Le
악역
마침내
루이
호주
스턴
동화
홀로
연맹
과목
변호사
실버
공무원
유치
걸린
'.
후속작
막차
붙이
모여
기구
으론
수련
본작
무역
수수
He
면역
소지
보관
소원
오랫동안
무덤
PD
##age
어쨌든
올린
오사카
웹툰
주말
역임
##IS
귀신
오카
나간
육체
연인
##바라
크라
기원전
al
혐의
스튜디오
해리
내구
명중률
확대
재산
카오스
접촉
호감
대리
기도
불교
적대
다룬
##티아
네트
kt
남겨
##잡이
노부
대처
##다리
명성
써먹
강남
스틸
태평
계단
나타내
전후
Go
비행기
올해
연료
예능
정비
Me
출마
가볍
테일
간혹
슈팅
끌려
##페인
오늘날
합체
트레이드
싸울
피스
로즈
권한
모모
##크스
정치인
부장
컬러
마키
흐름
정원
퀄리티
개성
맞서
소장
블리
리드
시마
체인
받아들이
안내
그로
학부
이지
오전
게시판
소스
GT
준수
휴대
접속
##다이
저그
수익
권리
##베르
1989
##라드
KIA
특집
더라
연극
하우스
##og
외형
금융
##ake
##ide
필리
박물
하얀
코미
선전
화제
김태
새벽
윌리엄
상당수
허리
##OM
다를
Be
피격
이집
My
초간
이집트
WW
무렵
공공
그대
주기
환영
편곡
페이즈
일기
130
최다
금속
포르투
나치
고구
AR
둘째
메르
원칙
##ss
이루어진
카미
결합
SC
##ark
지우
##ime
연타
##ire
알렉산
누나
SM
편입
으려고
식당
어릴
할아버지
시계
##구치
유물
개입
문재
캠퍼스
한동안
인조
어른
매직
어두
##세스
향하
지진
바라보
거인
188
전신
##밀리
그건
소중
아니면
극복
wh
116
블로그
전진
시선
까다
성립
영문
my
Su
##ES
정찰
은근히
정글
헤비
회상
아바
기사단
##프레
사도
SD
협상
캐스팅
메뉴
궤도
스웨덴
##ID
빨라
깨닫
시내버스
팬덤
##으면
Tr
음원
튀어나
는지라
대개
##닉스
작곡가
손해
##ite
주사
태어나
##던가
대충
독특
재단
수십
동굴
비해서
우위
더더
##아지
복무
##아시아
우라
고수
아닌가
안티
이길
민주주의
용기
식량
##부르크
트럭
160
교차
종목
세이버
이익
해안
##회사
미라
처형
##ound
조언
못할
일찍
멀쩡
트랜
SR
아이스
클래식
과제
리듬
이끄
위상
내려가
##iv
원본
더더욱
HD
져서
''
펀치
커맨드
신비
줄어
커스
##리그
김민
타인
박물관
잡혀
오가
트윈
돌아다니
빛나
##가미
애플
##iz
##OP
삼국지
훗날
##ge
들어갈
증언
해적
갈수록
멘탈
날짜
허나
절대로
천재
적군
IC
자국
일격
갈라
마비
내세
신앙
위원장
나갈
구사
신부
##큐어
##OW
나타난
별다른
노인
나눠
각본
재미있
무릎
코우
중독
나타난다
느라
기적
재정
죄다
세종
주포
바리
집행
양성
스승
철학
하락
외치
참석
놀이
구나
지위
멈추
몰랐
마이너
캠페인
과연
비례
유이
죽일
정수
개시
예산
결코
국적
적응
패션
교류
관중
호위
작화
크리스마스
한참
탄창
나간다
알려졌
매체
이브
이중
##LL
열쇠
##덩이
죽인
안경
히메
시아
상한
##ome
하야
활발
일으킨
노란
경기력
Gr
##가리
나아가
로그
선출
투명
십자
##테르
해상
흐르
with
바퀴
우연히
김종
루수
체크
##BA
희귀
명단
녹색
충성
##UN
화성
클레
##마디
진보
미안
스타크래프트
남겼
드레
이영
원주
칭찬
개수
사막
개막
첫차
주일
결말
##아웃
IS
위대
행적
적혀
##미니
갖춘
전성기
##몬드
기아
들어온
제정
당일
모래
인지도
흔적
칼리
1987
상급
기종
챌린
후방
업적
오스트리아
de
미터
강점
BE
px
임대
상성
다닌
140
어려움
농담
가져가
어지간
김동
웃음
포로
호수
계통
사유
보라
##MA
Pr
버스터
재현
대학원
취미
면적
줄이
심해
무작
매년
##ord
스프링
Love
비상
오직
체육관
클릭
토끼
거치
심사
##ud
일반인
포항
고스트
개량
앞두
##가스
##치기
사후
신장
거점
프리큐어
생존자
유적
이정
남북
강도
자책
과장
니코
ch
본체
모조리
##양함
자본
갈리
어마
으라
괴수
자극
대수
덧붙
세웠
예수
이주
시달
가을
##mp
부지
파츠
##사자
화물
##데미
##10
부작
맥스
여야
저작
전멸
##ame
기용
텐데
소위
비싸
UE
선고
##ance
아메리카
##리나
캡틴
##다란
연금
추구
가해
아쉬운
아티스트
SKT
##ax
##카드
인격
자세히
an
가짜
출입
판매량
휘두
JR
공세
채워
##ure
아카데미
유나이
유니폼
새끼
##ix
어스
흥미
900
일치
눌러
차기
GS
승점
채택
포격
##코드
공룡
일방
##이즈
단편
유나이티
취향
무지
##ick
소송
올라왔
##mer
스마트폰
도주
포드
집어
탈퇴
카트
코코
일본인
##ice
막대
사형
으러
연패
기량
색깔
타율
억지
피아노
스트리
들리
바깥
로고
몽골
귀찮
##our
로우
제작자
한마디
Bo
유통
건조
노벨
그레
코리아
상실
아즈
메리
이루어져
타선
화장실
드라이브
할머니
구경
후계
치유
마린
라이온
측정
EP
영구
식민지
지켜보
비주
무라
더러
요금
##시로
아미
자전
보존
1986
거듭
본다
채우
##공화국
선택지
어드
쌍둥이
내보
잠재
사라진
1960
아이콘
가요
##이너
OST
내렸
상인
##든가
나타났
무방
##비드
커피
강요
##랭크
레이더
메시지
##코토
인민공화국
KO
##{{
들려
Un
간신
이른
언스
이민
##고속
이슈
통산
어째서
동력
가상
고도
##러지
Ex
##랑이
포수
신사
원수
넥센
도끼
조연
색상
피터
데드
캐논
##AD
명확
오타
벌어진
몰락
연승
##qu
주택
화재
사원
여객
##멘트
루카
교장
네트워크
주소
타락
곡명
귀환
##oc
가루
냄새
브루
{{{
외전
초보
내지
몰라도
콜라보
##반도
유희왕
제갈
실망
판결
##80
소라
##시스트
칭호
떠났
모토
기울
GB
대선
경로
레알
수장
##카리
UEFA
항공기
메달
이터
스페이스
찌르
광역시
가하
남녀
위반
깔끔
매니저
잡히
비싼
거미
포르투갈
DS
고구려
타수
연합군
186
##own
sh
##ys
머물
아케
오라
약해
반동
아마도
라인업
순환
CPU
##노우
혐오
아요
##나카
교실
영주
##가시
##럼프
베네
법인
항복
백성
부른
챙겨
##라이트
글러
관찰
복지
쫓아
타운
잠수함
미스터
##ber
풀리
모를
단단
비서
주역
##라노
들여
숨겨진
주자
적합
캠프
스터
배터리
매장
수류
We
관람
익스
AM
예시
유효
강원도
불타
커리어
드래프트
줘서
싱크
##저스
히어로즈
이겨
105
공성
카츠
공업
##av
아쿠
##OC
흑인
인치
하단
유학
벌레
트라이
이스라
승객
##old
예언
용량
김재
##정부
동성
등지
.."
고작
본사
##로디
##시타
치킨
남긴
상단
승률
##일보
싸워
국경
추억
소프트웨어
CF
면모
천만
마약
포위
나선
휴식
서구
티켓
원하
온다
관측
LI
철수
수출
일대
성남
그러니까
##orld
##리스트
도적
곤란
중립
자폭
카운트
생략
스텔
구글
흘리
개국
표지
적당히
너희
느린
수류탄
터널
상술
변환
음모
조별
클랜
마드리
기생
정하
좌석
허가
합병
다름없
봐서
추종
형상
##위대
소대
시그
사이버
실전
언젠
오크
히나
바꾼
정기
후술
아랍
였을
김대
문구
어려워
내전
마드리드
통계
1984
디스크
보험
인종
차이점
밝혀진
마디
만날
##ont
1985
글로벌
최신
근본
물려
복구
느낀
지경
입지
언더
액티브
사명
연예인
187
서포터
증오
SH
지뢰
후손
이스라엘
스트라이크
아시안
후배
용서
##데이
에르
구석
담배
3000
사정거리
위성
일족
시너지
타로
대인
크리스탈
오마
AD
##ies
허락
커다란
LC
기숙
고위
DF
급격
지르
##보이
그랜드
자막
즉위
리타
숙련
##머스
올라온
함수
논의
느낄
부각
전주
하차
구슬
텔레비전
공방
lo
KBO
행보
어뢰
몰라
미묘
경주
##팩트
토벌
시노
##하면
쓸모
감각
모니
발행
해피
새롭
아츠
말리
모노
네요
이젠
언덕
서식
It
왕위
망치
마그
##lay
연령
특전
XX
##슬러
어리
준우
넘치
살펴
금메달
중첩
이어서
에리
태평양
부딪
취약
가만
뜬금
후원
오랜만
제약
쿼터
블러드
루나
까진
노동자
무척
침략
저렴
정화
간신히
세운
##자드
총알
기관총
##OD
침입
세븐
노스
MF
드롭
간접
일본군
생년
##US
아르헨
방어구
##블린
제트
워커
흡혈
분쟁
법정
입대
##어마
헬기
든다
파르
학습
혹시
균형
드럼
맛있
가동
아테
전이
CV
진압
강자
카카
산하
##프리
모이
WWE
남아
.....
##PM
아르헨티나
빠졌
##ann
잡아먹
곳곳
찬스
공용
텍스트
소방
평생
여우
분열
스리
NE
헤어
아이언
SE
어마어마
주차
비스
자이언츠
관점
##40
인디
중세
네오
신전
약화
악당
금방
정차
치르
고개
125
##pe
플라이
이토
거울
##30
트랜스
애정
부적
페널
결심
이수
속한다
경상북도
지리
나리
딜링
저질
반전
제작사
나폴
격추
제출
상기
##네임
성당
앨리스
##sh
연고
구리
보호막
your
니콜
이혼
따라가
양자
크림
스팀
##란다
통화
라기
토너
표면
호흡
##NA
폐쇄
##배우
사령부
금액
아저
##마크
결전
큐브
구축함
엘리트
가라
미즈
간주
코르
히토
악화
저택
보완
뮤지컬
창원
구름
이식
리온
세인트
얻어
인권
아저씨
도망가
충실
##VD
채팅
스크린
CJ
김현
선거구
분해
AS
용인
상관없
피할
늘어난
더군
참모
전파
초록
열매
주둔
지불
가리키
DE
사라진다
인용
하루카
유력
부자
##은행
암시
##키아
대왕
천안
##ng
##io
낚시
긴장
정예
도라
교과
지라
##천시
##베이
멋진
토니
프란
동양
유발
문재인
돼서
서서
보건
존재감
성별
공정
경남
체결
우에
시인
배포
학력
상세
소유자
수석
기뻐
후계자
;&
사인
악기
답변
비아
신지
드라이버
짜증
상영
##oo
토너먼트
블라
원리
재밌
수호자
도둑
전승
엑스트라
바이오
악명
행운
##라기
로버트
우르
개설
써야
호기
170
언젠가
숨기
이듬
도박
Pro
무서운
쓰였
구미
본관
업로드
잔뜩
미쿠
일으켜
기인
이겼
선두
은신
에요
기숙사
기운
##싱턴
##월일
죽였
##ave
뱀파이어
만남
가벼
양식
실종
교도
중량
에다가
지팡
루비
##포트
릴리
요인
백인
##걸이
받아들여
보인
테라
벌어졌
로리
탐험
정황
##LE
불사
부임
임신
난입
중력
아동
처분
대책
임금
동점
LV
관리자
캐스터
디지몬
미키
심심
##번트
방송국
that
논문
야생
칼날
UP
항의
관계자
헨리
미네
생년월일
해명
백작
##나미
시카
유독
탄환
##센트
분명히
베타
호칭
##우마
복합
도루
서번트
카와
말투
윈도우
##ION
베리
동명
##슬링
생명체
문단
진주
생긴다
들어서
발렌
자녀
##ream
와일드
할인
법칙
수백
가방
다이아몬드
려던
콜로
ED
1500
어딘
단축
절차
정통
잃어버
EN
루이스
해골
분신
외계인
달하
무관
마신
영광
기상
따온
운동장
데몬
하향
이드
온도
시합
선보였
라틴
보드
이듬해
귀여운
브레
주술
분대
프로필
인력
리뷰
##ond
창고
1982
치즈
->
딜레이
부스터
기름
이온
니스
왠지
어라
들어왔
리오
끔찍
광장
로얄
플래시
##게임
##iss
Com
5000
사살
의학
기둥
크레
창설
뛰어넘
전동
건국
성질
울프
전북
조리
마블
한쪽
유인
막내
공허
엔젤
체험
싸웠
레딧
장인
부드
나마
##에르
잘라
퇴장
그렇지만
물고기
부사
유격
존경
민첩
집착
커녕
우정
##운서
삽입
디젤
아나운서
망가
걸맞
웨스트
걸린다
상식
참가자
아키라
승자
1950
공산당
##플레이
##IP
##11
가려
매달
창단
요약
휘말
부를
##카이
가르쳐
시상
감지
시원
작년
진학
모터
시공
그램
증상
전제
독재
아인
수면
1983
하츠
##아나
의장
불펜
##60
##다나
학기
샌드
출구
복제
##ian
??
by
##소녀
아틀
의해서
놓치
오디션
he
싫어
나츠
시라
유산
천하
##커스
비전
철저
선제
덩치
발굴
가공
모자라
BL
하이퍼
불렸
단원
깨달
스위스
투스
유전자
다녔
스폰
##도르
&#
반박
어두운
##유럽
go
그럭
레지
트럼프
일으켰
여주
항구
구할
타석
리스크
코트
어렸
미만
##세대
돌입
##저럭
안녕
갑작
중형
스쿨
콘텐츠
겹치
스위치
동인
##티스
다카
비주얼
그럭저럭
사법
주니어
##쟁이
노바
##Hz
통로
준우승
배정
걸렸
##TV
수명
백제
마스크
사용자
대거
어필
알아보
출격
기재
휘하
상륙
라이플
논쟁
웨이브
쓰여
정교
열렸
이펙트
본진
단행
자전거
##투스
다녀
가죽
배트맨
보충
살아가
토마
##베스
##ory
신도
트리플
훈장
##우리
##필드
호소
##TE
시리아
식품
회담
스트레스
격차
국장
축복
인질
##ace
##rom
떠올리
케인
코미디
시트
##크라
Co
##세서
실책
##틀러
스펠
근대
완결
위안
Bl
옹호
학문
파편
##카이도
태국
평양
##누스
공화
카를
지사
유기
마우스
;&#
경전
공립
라니
갈아
루스
워싱턴
두들
팬텀
이글
부근
마케
적중
DVD
올릴
##필더
승인
쓰러뜨
미드필더
Br
원문
오키
토지
침묵
반해
돌아와
소음
빌려
메이드
디즈
시켜서
슬로
##부로
기갑
기동성
경직
소요
플래그
부실
와타
Or
##게이
중국어
세부
노려
빅토
##oth
쓰러뜨리
근거리
트롤
께서
조기
축하
해요
배출
##ows
내각
막판
결투
경상남도
무너지
보이스
복선
##산시
시신
오염
솔직
파동
방위
##MP
연습생
마감
남매
동계
리카
수능
내일
삼각
간단히
차체
과학자
후퇴
동급
테츠
기후
고객
임기
날카
##TS
옮기
철거
센스
휘두르
넘버
우세
##키지
슬라이
헝가리
##먼스
무작위
수급
왜곡
상담
학위
손상
##화점
##신교
##든지
국정
밝힌
한반도
괜히
##무시
지향
규격
무인
##IG
영지
장거리
아끼
노조
야수
##셔널
CG
약탈
마법소녀
일당
드러났
중시
기세
하마
##주교
무사히
고리
##경기
##aw
늘어났
선행
185
##하마
토크
라라
유성
쓰러지
요한
##텐도
닌텐도
패키지
스즈
##타이
최상위
했으니
장탄
멜로디
떠난
과도
##포르
미나미
야구장
간간
비치
신발
엔드
양상
록맨
대포
성전
##ale
SNS
출루
사라져
프리미엄
지칭
타쿠
그날
끝난다
즈음
변수
개발자
PV
킬러
스트리트
핑크
주류
##ike
대치
독일군
개별
페이스북
후자
해치
안개
무산
##하시
##틀랜드
특별히
더군다나
여러분
영원히
임팩트
자르
전망
사키
초인
새겨
1945
입주
어딘가
물체
Cl
챌린지
집권
##에이
업계
바디
농업
For
무시무시
데이비드
군수
리프
부착
원조
흰색
동남
##키퍼
##야수
암살자
첼시
매번
장사
RPG
브로
나미
왜냐
청주
만주
중복
##OU
브라운
이긴
##끄러
##자와
Dr
질병
커지
손실
야마토
최적
악몽
##바닥
서서히
필리핀
##ep
선조
피트
취득
##irl
벌였
##man
폭행
동아리
##ach
##ile
175
동경
수비력
1981
Sc
인방
BB
바뀐다
여인
호랑이
##여객
골키퍼
OP
서클
벨트
부동
올스타
해양
구별
102
##공항
호시
잠입
줄어든
117
지팡이
헤르
어이
고장
진격
인피
가진다
퍼지
파생
끊임
향한
##12
Team
106
배역
못지
모로
교토
골라
##VA
LA
물량
해킹
##철도
##ink
플러스
Sk
선임
일람
파울
제독
아닌데
퍼포
의외로
사회주의
Mo
체인지
퍼포먼스
페널티
신나
직장
리라
GP
합계
권위
중장
가만히
오이
국당
기호
레코드
공수
청와
늘리
DD
##데드
마물
무술
115
##아키
내려오
응용
시크
김경
세팅
라우
사립
데이트
코난
원형
이웃
평점
라그
이종
##플렉
약물
메이커
가디언
기동전
주행
귀국
언데드
신입
최우
연산
##ial
FM
##승부
청와대
고마
밀도
투쟁
##토스
개장
##런트
##메이
##ish
엘리자
국어
장로
당대
에릭
SU
파란색
1979
건가
서기
레일
후임
여전
풀려
에디
긴급
집합
UN
만만
냐면
배달
##래시
이와
커서
징역
챔피언십
억지로
스파이더
프로토
포즈
오스만
나비
트릭
선사
동해
친한
합리
쇼핑
개신교
권장
분포
오우
트루
장신
김상
기장
행방
폴리
추방
택시
##ower
저하
천연
공백
감동
회색
##네시아
갑작스
안양
이룬
전무
프레이
해산
은지
일화
며칠
궁금
프리미어
연구원
독점
증폭
신자
수동
즉사
모스크
확산
명의
##II
관여
야간
주관
Bla
면허
교단
여학생
다닌다
공인
조이
방치
스캔
재회
사귀
선보이
거친
임의
모집
폐기
##하르트
듀오
빌딩
유미
##오루
대단히
조상
혼돈
만일
명백
뱅크
김진
고인
##GE
전남
썬더
저지르
##숭이
라이너
##운동
코멘트
감상
아레나
캘리
##버그
바둑
성경
렌즈
버섯
사무소
##크로
CH
매출
##아이
분당
we
맡기
캐치
고블린
데모
피닉스
발목
돌연
BS
##IM
출간
조명
타이거즈
처참
Ne
##!!
##비치
불량
Star
장미
광산
깜짝
올라갔
오메
광선
박지
느려
로빈
##프리카
승무원
드릴
김기
##레일
자비
이어졌
전라남도
모듈
달라지
구성원
포켓몬스터
비웃
##벌레
무스
상관없이
가까워
복원
처지
PR
해머
우월
고소
실장
ID
우주선
고로
질투
히가시
목사
되게
스타디
통틀
평일
하인
계수
간호
지연
와카
##번에
배급
##킨다
##히코
##쿠라
드루
Wind
미국인
버드
수색
우드
화산
바꿀
350
라이온즈
유출
대조
난사
협정
##99
유언
파이트
수립
탐정
터져
엄격
시외
조롱
히라
up
스탠드
풍부
##전자
운수
자꾸
줄여
서포트
LP
재학
파멸
심의
DC
골렘
한두
우익
##카락
국무
메이플
산맥
War
머리카락
fe
체감
And
정발
펼쳤
스텝
우유
의자
검술
온천
##체스터
도저히
##ass
미루
바스
쿠라
당사자
##가드
청구
치열
나기
모험가
센트
합동
육상
토미
##러진
포장
국제공항
뒤늦
사이코
##ms
반부
키타
##me
올라간다
루크
젤리
##타카
360
Man
소용
실내
이라크
오로지
다운로드
에픽
본토
진이
112
마코토
축소
토시
기력
권유
제네
특급
조용히
극도
규제
디즈니
승진
키워
배수
##gh
##어놓
##블로
따뜻
비틀
우치
##CG
낙하
##릴라
##렐라
루머
비명
담긴
시사
108
##도리
All
베를
러시
려다
AKB
나노
티아
거둔
극한
##tle
니아
하계
##pp
사이클
##ble
##amp
충청남도
반감
간지
범죄자
바르셀
지인
루피
오락
출범
바르셀로나
디바
바른
비유
우즈
##ft
여섯
지목
수직
친해
시바
베이징
알라
안쪽
토큰
중지
단종
이걸로
일요일
프렌
103
메일
수월
스러워
경북
세금
탐지
폭파
스테이
##거지
황후
능력자
전당
협의
세라
리즈
어시스트
##yle
스타디움
서머
##70
그래서인지
실은
페리
이글스
신데
여파
##ous
물품
중순
직선
망했
세리
실현
배제
조우
##슬라
스태
모임
##now
##atch
베테
신학
##sp
막아내
리버풀
카구
불행
분산
돌아갔
막히
##르타
당당
조커
One
잡아내
Mar
가져오
아가씨
귀엽
##orm
수염
생전
손자
김해
평론
얻어맞
캐시
토키
살펴보
유의
신용
나스
들어올
New
To
ON
명문
모음
나섰
거북
타일
기묘
드론
추세
바론
여고
무승부
ex
막상
체중
저지른
낙선
##스티벌
나루토
나요
진상
페스티벌
수비수
IN
경악
챙기
##란히
토요일
던가
BR
##사이
로이
##민주
천문
##구나
까이
Part
맥주
스미스
수습
태풍
가난
더빙
채보
KR
지녔
기수
가질
떠오르
연봉
함락
마카
김용
Gam
강등
칭하
쳐서
비극
센서
강사
그만두
되살
SF
주최
후회
패전
힙합
##ING
주어지
##그리
대성
극히
집어넣
잠실
산탄
고속도로
CS
좌절
엄밀
국판
듀스
명목
배려
동반
자아
배드
훼손
스핀
인접
유망
대시
노가
실시간
개척
힐러
코마
철권
##ment
리가
기부
PP
##방송
에반
사무실
발리
##ae
흔들리
반짝
케이블
##64
주체
하여
##더라
128
원시
스티븐
압력
모스
상반
고증
장탄수
꼬마
쇼크
스테이션
##불명
유재
혜택
스와
투척
도장
신속
포탄
닉네임
늘려
인자
##ase
혈액
호남
중화민국
##사기
농장
십시오
마땅
아이러
각지
##ree
장성
쉬워
이타
샤이
쳐들
사나
초콜
재개
바지
조카
역습
추리
주교
걸즈
고치
음료
휴가
유니크
벤치
히틀러
##리온
반도
엑시
암호
내린
구조물
소니
버려서
고시
구르
구장
찾아보
날씨
샷건
##구장
변동
총장
En
캘리포
몰리
시로
네티
확장팩
퍼즐
도리
생길
나르
##노리
제갈량
둘러싸
그라운드
물러나
에로
시상식
짐작
하프
1978
알바
질서
1973
근원
레온
믹스
JT
함부로
느꼈
트로피
해병대
두들겨
##저리
어쩌면
야쿠
184
로맨
사퇴
##우치
거론
들어와
오브젝트
##az
두드
##bo
대행
상사
##페라
캘리포니아
그치
보라색
흔한
##혀서
슬라
시비
찬성
라즈
갈색
거든
첫째
짐승
AN
가담
깊이
나뉜
##블리
##러그
각오
인재
사로
World
##ason
양손
구동
##AY
111
그랑
##케이션
속한
쿠데
220
여럿
지워
##바르
안심
호불
##iki
호불호
퇴각
##베리
무용
백화점
##돌이
최저
혁신
공감
183
강림
키보드
정반
##사리
결제
##키스탄
베기
감수
가벼운
지수
JP
##저기
오더
포스터
사야
사리
쫓겨
동서
프린세스
말기
트레이너
진급
마계
전날
계층
베어스
고무
쏟아
네티즌
알렉스
내게
원더
동아
##ear
So
경호
중동
빨간색
대령
특별시
동행
산타
흡사
##hen
후반기
가르치
라크
장례
셔틀
노란색
여기저기
갤러
중부
장난감
마오
240
일어날
잡아
았었
사관
막강
타이탄
기리
리처
##MS
뜬금없이
신선
접하
sp
수지
맞춘
퍼져
세뇌
엔지
그거
핀란드
학생회
피로
##are
포획
드레스
견해
FW
무섭
베를린
탐색
##기에
드문
요미
클린
보좌
인과
유혹
여의
GO
매주
선수단
##붙이
양반
교복
패밀리
유입
봉쇄
모은
국도
후미
영감
우호
강렬
원곡
스코틀랜드
연쇄
뮌헨
상주
입자
##직자
페어
케이드
선진
1974
##차기
방송사
무공
발라
문화재
마일
프랑스어
생체
재건
tv
클론
먹히
우측
려다가
박쥐
끌어올
소재지
트라우마
도어
역명
해져
점유
운송
토대
즐겨
##브라
콤비
##루미
방탄
무실
경찰서
아이러니
드로우
아베
위로
왕실
결계
김준
서바이
잭슨
시달리
약자
와인
신중
공격수
결혼식
세로
데려가
비스트
http
수여
##하나
침대
지부
1972
연금술
알레
복사
##90
##ven
래퍼
트윈스
##ife
포터
관료
끼치
화폐
도덕
바이올
제물
전락
집회
통칭
찾아오
바나
윈드
https
##싸움
감싸
로이드
완공
튼튼
트랩
##ade
허무
장판
순양함
프라임
리안
##AP
Wi
취업
##베이터
프론
디시
역량
스즈키
선장
콘솔
소금
##박스
##으로
폭스
탐사
덴마크
세자
될지
영양
출혈
##렉션
강경
흔하
우회
##던지
쓸데
빈도
라마
##act
도감
MB
하스
글씨
~!
도트
##데레
홀드
##ai
대타
일곱
##ank
아바타
##깨비
##gin
연설
할까
억제
이순
튕겨
간섭
여단
%/
관통력
해라
상무
공대
낭비
do
단행본
졌으며
##aby
루프
히든
부작용
노무
메이지
모형
창문
104
영화제
디오
오노
청나라
승차
##out
전동차
##으므로
인도네시아
소통
법무
Fate
no
트레일러
전격
침투
성씨
술사
비추
재직
태클
워크래프트
페미니
손꼽
다가오
기다려
당초
매니아
한창
블로
다큐
돌아간다
1975
##우트
커스텀
쿠데타
마트
마피아
##lect
시카고
신데렐라
실상
타가
히로시
LIVE
간간히
부재
형편
백업
제재
파밍
123
설령
손오
출산
라가
성실
스탈
깃발
끊임없이
범용
##ET
##에른
하하
##토니
공산주의
장애물
스나이
경연
강간
김일
스트라이커
##oll
##어질
NH
벨기에
우승자
끌어들
전향
소득
고쳐
스타리그
시호
미미
검증
조종사
##UM
##모스
할리
토요
중점
Up
품질
이른바
왕비
OS
여타
카자
1976
라스트
소나
are
나나
근접전
말레이
변이
항해
외곽
III
##ork
워크
##천군
##추어
스피릿
굴러
##다보
마라
파도
강릉
성분
최선
원주민
이스트
오지
정석
마산
사악
휘둘
##버려
띄우
을수록
대접
사사
혈통
섀도우
모니터
그러므로
발명
판사
이어진
유료
##바야
Do
단기
##ary
이어받
하급
구상
타르
차리
특공
선박
리코
리모
카더라
맞붙
Oh
제왕
공통점
왜냐하면
검열
광물
나빠
하반
##way
티스
전생
왼손
넘어갔
##루션
동전
입문
119
브라이언
키라
유연
##바지
트리거
친하
천천
포도
찾아내
중상
쓰인
해질
명분
올드
탄핵
##ey
마틴
##ich
명사
공헌
변해
고종
스플
장남
화해
원장
전송
사로잡
##께끼
135
수수께끼
급행
소모량
중심지
단검
109
##슈타인
##모함
초콜릿
우루
중고
원한
박정희
바이에른
초상
우울
코스튬
미지
지선
##저우
중기
##타입
ES
중위
확신
대변
괴롭히
김수
##미터
Mk
공단
입증
베테랑
##어내
일체
한나라
모스크바
잔인
##능력
한나라당
관우
##키리
찾아온
일리
엘리베이터
검토
오페라
시모
너머
수인
Ad
잉여
예약
시온
친다
단발
조국
부패
질주
친절
찾아볼
불태
손오공
치우
대법
아이디어
lv
땅볼
부유
겹쳐
대동
처하
히스
##벤처
교리
all
##동자
Day
어드벤처
진단
시게
##니시
존스
떠난다
강호
발판
보스턴
성배
아스카
터스
유망주
천황
케빈
로보
콘스탄
AFC
시외버스
곡인
건네
이어진다
스태프
도쿠
부속
이병
천천히
nd
체코
버스트
정해진
압축
충족
학사
##pt
고는
182
##orn
과자
카카오
메리트
이현
니혼
고스
카시
굴욕
##페이
구독
준다는
무제
드러난다
도깨비
에이지
앤드
그릇
##하루
프로게이
프로게이머
분할
동정
손님
크레이
오메가
붙인
##라미
강전
화상
군부
바치
연수
자제
나폴레
루마
토마스
친분
플랜
어색
후일
대박
머무
라이언
지붕
되돌아
민중
위엄
아지
싱가
싱가포르
항공모함
디자이너
평등
##가루
121
홋카이도
치카
미궁
레이디
나폴레옹
마운
지력
##레일리아
삼성전자
눈치채
라그나
따왔
1971
일관
노르웨이
##본다
머니
Windows
고고
저자
##의자
레이블
으려는
메트로
##네마
왕복
박살내
와이번
FF
이럴
테이블
폭격기
스택
발레
이어져
동구
145
물어
사촌
107
아님
렉스
맹세
디펜
속해
에버
망명
##테이션
극대
="
이경
현금
RA
꼽히
열정
가져다
찰스
이틀
엑시즈
스케일
광기
합작
1977
점검
강점기
진에
##쿠스
대전차
##ah
김포
엔트리
퍼스트
##EM
비리
기르
##사스
일가
하이라이트
카리스
여포
질량
유탄
키를
창립
DP
다가가
변태
##리안
리틀
종결
할로
원숭이
촉수
후드
아까
하사
지오
작위
무거운
마타
ML
아아
이모
고집
사체
AA
묘하
##very
신동
두려워
자율
리퍼
블레이
##uck
마술사
##버리
보고서
재배
존중
조화
츠카
본질
그레이트
독일어
안타까
##리스타
표절
무지막
사족
무지막지
다닐
오렌
챔프
총합
파스
원전
ne
크라이
천장
선교
IT
공신
평행
엔지니어
본다면
보르
나뉜다
스런
br
석유
부스
그쳤
쳐들어
중거리
자존
감탄
브라더스
임진
놓여
전라북도
##ph
Sw
부숴
DPS
호크
자네
자책점
피카
BPM
게이머
JTBC
소집
정사
지분
농민
물자
210
스포일러
메카닉
카마
봉사
노무현
연간
해소
178
인칭
란스
##ero
몸통
스가
1969
다이스
움직일
과일
113
손쉽
스티브
유가
이대로
털리
관장
리처드
저기
".
대위
유격수
쿠스
교과서
오니
무실점
착한
교차로
##ool
로키
사수
타구
서적
동속
검정
레이어
노가다
##들이
165
##바나
오스트레일리아
광명
브레이커
마유
으라고
시뮬
어나
아닐까
김지
1968
날뛰
하치
맨체스터
동대
러스
냉정
1963
데빌
주식회사
철저히
##ical
뜬다
총독
토트
놀라운
건데
불쌍
빙판
명시
기차
아픈
출판사
시골
NBA
부원
프랜
힘입
이오
입사
필름
장타
주축
다니엘
##urn
부산광역시
가구
뜨거운
착륙
##퍼드
백만
##ype
Ph
병역
블리자드
오케
탄압
슬픔
실체
##ARD
부천
Con
말씀
에드워드
2021
윤리
모순
##구미
배웠
##anc
주사위
호의
##센스
스노우
매각
고아
광경
마당
제니
지장
깨끗
유치원
터보
미오
매드
불능
마인드
카리
스폰서
페스
훔쳐
목걸이
{{{#
##뜨려
어벤
부스트
부러
##은색
김유
155
서열
배운
완화
지혜
용산
올라갈
Cr
파운드
변장
##ung
참사
평론가
엄연히
줄기
유니버스
울리
이라도
멍청
OVA
사우스
한다며
김승
수천
울트라맨
싸운
답답
아드
명명
문양
굴리
하나하나
보편
변했
개명
122
Qu
우타
서류
트윗
납득
상금
미러
초청
워프
##항공
배구
모델링
씨앗
구로
외국어
평상
##테일
미르
Station
181
까마
레인지
프로그래
제리
##업자
압권
TVA
뚜렷
이노
치안
감자
열혈
가설
144
정문
중구
난무
친척
진동
취재
엘레
집계
중원
엘리자베스
박수
##소년
본능
수위
LO
발키리
도마
향후
##ww
절친
좌익
이케
아닌지
KOF
고사
재앙
태우
철갑
마케팅
서명
자산
리나
주석
싫어하
츠바
헷갈
성명
깨지
오죽
녹화
우연
고등학생
##끼리
생김
##시피
도심
##iver
케이크
우린
카지
애칭
무늬
지낸
초능력
소생
작정
어나더
at
패자
행진
서방
강민
너스
매트
##들리
지로
국토
트래
사연
사직
시조
테스
##DD
잃어버린
곤충
베인
신하
일까
어이없
152
서울대
일렉
잊혀
아리아
드래곤볼
용암
유아
골프
가이드
love
결의
로프
타츠
아마추어
경부
실용
액체
학대
실사
##폭탄
시어
##ens
경사
국방부
정성
산소
발발
벌인
멋대로
이대
자사
쿠니
표적
##리칸
전지
as
즐거
워터
편리
벙커
트릴
좌측
유엔
일어난다
저렇
안타깝
싸이
##ost
스카우트
아스트
민간인
도색
##이동
##어트
TR
자칭
카네
다케
침몰
114
엄밀히
워즈
사투
주머니
마음대로
##워즈
##ence
1930
우마
라이즈
거지
wiki
몰살
잠들
마하
이소
##이나
끝날
박성
예쁘
만점
인성
미성
롤러
IM
변명
##nt
괴로
의정부
직책
##마루
개교
초록색
망토
##변이
돌연변이
from
기질
초점
항모
##드로
##ise
옥상
이이
각도
코토
각인
법사
##int
포크
리본
##시스코
##버렸
이진
버틸
변한
습니까
텍사스
플라스
이누
1920
개구리
원피스
맞춰서
템플
마모
아자
스컬
망하
루리
179
방학
##이치로
만능
고의
유스
이념
정밀
!"
##하여
아냐
발급
##AK
##베트
죄책
통째
등극
학급
카레
모시
Super
기스
브래
이원
포탈
즐길
에디션
쿠마
적자
MG
Fr
격려
1940
이명박
BJ
can
##oy
##자치
로라
용자
##지능
인공지능
동성애
조항
방심
아담
포병
슈퍼맨
미인
혼인
이른다
정신력
제치
이빨
www
##ign
발탁
쳐도
적절히
CM
선동
오렌지
엉망
관직
종영
엮이
인벤
연전
협동
##ans
스타트
써도
이태
177
북아
마찰
안동
돌아갈
일컫
어설
대역
##타운
남동생
기소
죄책감
소비자
##과이
튜버
끼워
에미
추후
달라진다
네이션
리사
호러
##ug
포착
겐지
최순
Dream
헬멧
펌프
풍선
정반대
다거나
##바이트
장벽
##바야시
아케이드
공속
감당
124
이윤
밝혀진다
은폐
##전차
블럭
억울
1967
금강
##야스
선로
어려울
저서
니다
##느리
더럽
유진
갱신
고가
버텨
원로
반경
127
다시금
준다고
USB
마에
##슬리
해냈
그해
가리킨다
아무튼
오른손
교역
협조
페어리
나인
정점
오다
도약
용이
예의
익히
아사히
부동산
아울
아쿠아
신곡
해운
this
시오
##IR
인해서
내기
유카
페르시아
스틱
1200
중국인
##코트
##나베
분홍
##vel
보낼
쉴드
타치
450
잔혹
시타
고발
카운티
아이디
연동
왕족
기본기
욕설
##철수
마친
독립운동
##질랜드
컴백
ERA
##지사
##ode
군요
민감
뉴질랜드
출동
교도소
초과
필립
크래프트
누스
절벽
선원
바쿠
##uk
강했
##VER
버거
##젤레스
떨어질
수신
에도
지역구
게르
대차
비단
호드
부채
시크릿
부친
가져온
##버린
제사
수감
무도
후쿠오카
사방
프레스
베스
침착
갇혀
사무라이
Fl
발각
방침
뿌려
스토어
Pl
후유
변한다
회관
물리치
덩어리
청춘
대세
로렌
어려웠
팔라
물려받
카테
보강
Ver
스로
밀어내
##린다는
대피
바꿨
내보내
##나기
##역사
제의
CE
##생활
연이
그러면
섞여
피오
구형
급격히
저질렀
키미
아랫
잡힌
##킵니다
게끔
EC
종전
철도역
진에어
디스플레이
EXP
연소
카리스마
재즈
##공사
style
내외
애완
함장
놀랍
가마
측근
쌓이
##민주당
발전소
방사능
도르
번지
날카로운
선포
##헤이
스쿼
코스프레
애인
실존
레나
보낸다
사와
유재석
히카
##ier
신한
궁합
마야
퇴치
미쳐
반성
판도
강대
가위
현자
카쿠
리바
격렬
하이드
기법
분자
워리어
가오
Sch
예방
미아
잔류
##페이스
산다
김구
Girl
당국
Season
사물
인문
1962
##ash
징계
IP
오퍼
앞선
##려고
러쉬
박자
문신
왕가
##속기
ar
자이언트
근로
La
모빌
이놈
코노
DM
모욕
전담
약혼
화기
강타
NO
아름답
반역
일어
162
이카
흡혈귀
유동
이단
정조
흑마
tr
사치
중견
118
흥분
종로
높여
친애
올라와
화석
WC
시종
가져왔
점심
터졌
쿠바
퀴즈
고립
##끄럽
제주도
패트
노아
기동력
##믹스
그루
분배
##reat
1966
##IX
아처
##나와
유우키
브론
이용자
피자
명나라
위쪽
부가
헬리
카피
레이싱
틀린
로스트
토라
단백
타이어
황당
##ib
만난다
##시고
박진
경성
오를
계곡
실린
왕후
벌써
이행
314
달려가
##돌프
자존심
학술
달려들
##치아
생김새
제노
위해선
스나이퍼
건드리
던진
탈환
태생
##usic
월간
저글
Max
##보기
##사랑
중소
피지컬
감추
남동
##탐정
관문
날렸
우두
었었
실적
##우라
망설
한양
750
##방울
1964
덧붙여
금요일
대검
입시
그간
능가
안무
적시타
불길
##리얼
갖춰
Vol
TS
뱅가드
##수리
숙소
라미
소서
유고
휩쓸
DNA
그쪽
여태
정전
##마리
토트넘
어째서인지
내셔널
얼티
급속
스파이더맨
Ed
아오이
천상
##}}
--
궁전
시범
중재
요격
##ose
ld
할로윈
통솔
레아
모종
성사
코파
스피어
대학생
중도
나이프
사슬
헤라
탈취
진술
##리드
스타즈
AV
존슨
에메
직위
한꺼
한꺼번에
까마귀
소소
입원
호리
##시대
괴인
과시
나이츠
황태
amp
욕망
계절
불참
##서스
Col
쓰리
혼합
##부키
야당
##te
so
생태
넘쳐
기껏
피치
시킵니다
오만
학년도
항공사
GM
비자
저글링
점멸
HE
모인
질환
##사르
미정
극심
##ail
##msys
페르소
날린다
##ition
ldmsys
원판
간판
머스
그란
안겨
스탈린
천국
충청북도
스탭
히드라
이별
홀리
우지
도대
테르
필사
과금
시시
마기
rd
터뜨리
Night
각국
입힌다
하지
##티노
욕심
##구니
BC
차장
##와라
마르코
테리
상냥
토우
강인
나들
not
조립
레버
샘플
시안
회로
##키스
##당초
모아서
앨런
태워
미녀
나들목
날아오
리버스
##워프
군데
##IL
이사장
지루
지크
김주
알렸
단자
스매
승패
지지율
요코하마
암컷
인텔
공국
##히토
##ild
빠져나가
하여금
168
김치
올린다
일일
##아치
김광
페르소나
오토바이
Let
수소
아비
알렉산드
조르
물약
##그라
도미
스윙
제발
마쓰
병행
부시
희생자
디아블로
오사
키요
##닐라
학회
피난
단백질
상부
난민
스크롤
##ody
바텀
만렙
테니스
등재
실려
목욕
사탕
빙결
Black
어원
펑크
159
일환
##바리
여겼
코끼리
밀리언
알아내
신작
무녀
이승만
##세지
##파이
도배
퍼펙트
BD
나눈
평택
##클린
무신
칼라
말레이시아
라인하르트
부처
예요
아마존
미노
리자
인쇄
여주인
보로
해변
##진호
옮겼
쓰러진
해역
아리스
오즈
파고
신생
팔리
화신
금발
환생
둥지
마도카
대니
한가
터진
두꺼
싸운다
직행
1948
배울
mar
##ough
응답
해전
발사기
아메리칸
국기
까다로운
진흥
까다롭
AF
MM
챔스
절단
엉덩이
1944
미소녀
세례
도대체
모의
무능
1965
성벽
OG
부제
히사
##33
##모습
명장
시켜야
쿠르
유머
중공
깨어나
프롤
일조
##앤젤레스
로스앤젤레스
##레아
퓨전
스텔스
섬멸
못해서
노부나가
석사
충남
방언
##스카
프랑크
회계
불상
스쿼드
노릇
##멘터리
아카네
끝났
아포
주저
RE
섭취
아슬
울음
와이번스
수중
식스
수아
말려
모나
때로
약체
필라
4000
눈앞
모았
Op
##gr
일명
들키
대국
안토니
스네
카일
스케이
찔러
좌파
전임
빅토리아
꿈꾸
지면
사임
동상
집필
고래
객관
출석
##aster
차가
접수
##스크림
##무지
빌보드
공교
내린다
급하
외야수
##app
마을버스
그리스도
메디
##orts
##타리
끌려가
평상시
목포
확립
비평
인피니티
이나마
선회
사이토
대안
##성군
그리핀
낮추
대승
연세대
아유
유메
##uc
보살
쿄코
피우
베이비
사천
교향
두루
드워프
애용
혼혈
1946
##고속도로
십자군
아수
신관
##은이
워드
공동체
성지
이계
##시티
주공
PK
에코
다큐멘터리
마르크
주입
##렉터
루미
장본
해고
알렉산더
무자
서울시
최상급
보우
컨디션
그려져
적힌
말라
그랑프리
동북
위시
슬퍼
휴게
늘어난다
스카웃
김대중
실리
이무
##CE
주파
스기
대면
##ject
en
편의점
껍질
스타워즈
평판
교대
이니
##OO
EXT
탄소
##티니
침해
..?
블라디
득표율
가령
아쉬움
##ari
단련
폭로
math
믿음
카게
비로
자력
컴뱃
전도
방안
줍니다
면제
수컷
사지
퍼시
민폐
집사
le
휴대폰
AL
흑막
테이프
CR
독백
크롬
##뜨렸
라비
솔저
히로시마
정서
숙청
소마
달인
섬광
아르바이트
EZ
리프트
돌아올
두려움
막부
스모
벨라
성대
##프란
리부
##각형
와타나베
구호
달콤
큐어
경제학
항성
원자력
감성
##iel
##트론
프랭크
우미
공명
대해선
단서
강동
벗겨
냉장
지각
남학생
##퍼니
관광객
##디스
홈경기
151
줄여서
찬양
보복
유즈
격퇴
138
타우
아름다
Gu
하와
신념
신조
SA
##미르
던지라
가해자
장본인
티저
광복
남양
개업
케리
320
하도
172
기하
비비
GSL
눈동자
은메달
로비
##애나
타카하시
샤를
정우
사르
휴먼
벡터
수성
##오피스
뛰어들
으신
상시
남한
그려진
가이아
무지개
##TA
막혀
조수
김병
천주교
ATK
##ats
순천
##ye
##도전
다치
의의
정답
어벤져
단역
보직
강아지
변함
EU
##eah
##바람
##올라
아폴
불화
동아시아
개막전
견디
자루
주한
315
로크
시네마
1961
##총장
컬렉션
##부인
걸까
풍경
GD
서바이벌
일각
##뜨린
천지
고맙
걸음
배후
##중간
얼티밋
투고
배리
고난
TOP
마쳤
테레
Mag
오공
158
##랍니다
거스
균열
동사
##다드
대교
바닷
내정
다간
오른다
그리하여
라이드
CL
표기법
그렸
상원
재질
탁월
깃털
도스
흑역사
카사
손잡이
가왕
악행
캡슐
무한도전
통보
스칼
마미
스톡
##이센
시련
추모
로맨스
AB
민병
NT
물리학
ver
리믹스
수확
흉내
동메달
카이저
내면
숭배
일산
비키
루마니아
UC
구울
매그
여수
##oh
이세
##eth
드러냈
바랍니다
이순신
충고
표식
위함
##ron
박스오피스
소꿉
쿠사
스파크
슬라이드
섞인
제대
독보
결과물
병살
올바
금고
##세요
##ings
아이즈
주차장
이호
김일성
마주치
유마
구제
청사
##메리카
사범
신상
제인
다투
어판
쿠리
유한
그레이드
건립
레이지
176
공로
컴퍼니
##운수
도요
방정
아무렇
크라운
떠돌
도사
다저스
##맥스
삽질
will
간파
운반
지미
Is
ME
재수
예고편
수라
보가
직무
원했
##느님
계략
저항력
멈춰
테란
병과
호응
발톱
타리
##inal
궁수
심정
##==
126
김윤
마수
차림
신임
1949
오로치
드러난
정의당
Am
과격
대명
완벽히
하느님
자작
기온
폴아웃
승려
##성이
상어
친일
치렀
우두머리
이점
10000
리볼
마지
어그
주의자
몸매
##저래
Don
테오
문법
보루
감금
서원
타스
으려면
##ult
유라
인플
크로우
라이트닝
무선
바이킹
응급
코로나
노라
154
맡겨
사망자
like
레시피
LE
패왕
세르비아
총사
흉악
WH
방울
맷집
{{{-
KB
뒤쪽
Time
132
##총리
##MAN
내려갔
주황
전법
총선거
법안
유해
드루이드
무비
자카
걸친
웨폰
거꾸
김성근
레슬링
센트럴
아테나
난리
new
##덕션
성폭
어긋
강서
성직자
멸종
##13
떨어뜨리
기뻐하
응시
##빨리
지배자
베어
이즈미
넘겼
강습
천체
벗어난
저승
이래저래
튀어나오
노린
##리언
218
완성도
니트
코프
이용객
테크닉
이리저리
르노
Mi
피드
파인
장신구
##GA
예쁜
행하
로열
코디
만지
국민당
##ov
취지
##oul
스콜
급식
충격파
트론
##18
상의
서리
라이징
손목
선봉
리츠
##조합
엠블
이영호
안젤
탐구
유신
쥬얼
키노
당나라
노비
짝사랑
더미
지터
##ob
##라이나
제너
핑계
보트
태조
였음
여긴
전염
무슬
##나르
리우스
야망
미남
과언
블랙홀
유능
후반전
어드밴
고조
담겨
##ould
돌아온다
이쿠
키로
##처럼
통틀어
156
##보우
마가
..!
iOS
무궁
Ser
##친구
one
마마
164
##alk
리리
##tern
재벌
##yn
##레븐
카제
숙련도
139
나란히
배율
필두
##활약
유카리
##15
고우
모에
시간대
미세
이인
##up
구청
들으면
153
조던
네크로
하츠네
하우
교정
저격수
Gaming
먼지
플리
하나님
##레이크
##reak
반장
콜롬
올라간
공격기
거꾸로
커플링
무슬림
양심
합법
초등학생
빼앗기
가져갔
김두
나열
이광
##der
웃기
##able
GK
하드웨어
멋지
##고사
겁니다
접전
##제스
리터
##그마
엉뚱
전두
청장
성숙
후면
지성
상공
세미
##라이언스
##바스
최하
148
거뒀
디비전
Car
맞먹
##ions
비즈
허브
신주
인천광역시
연달
##사고
진도
탄막
실업
##엘라
스케줄
표창
동등
얼라이언스
Your
타키
셋째
오바
단의
벌금
푸르
모른다는
주유
##문화
167
##널드
볼드
김선
장시
걸릴
냉장고
스마일
대등
호스
즐겁
203
동지
북서
배열
지표
몰아넣
카렌
가히
끊기
애드
선지
로제
황혼
프로덕션
애국
데미
SSR
지킬
창작물
##백과
##주의자
##PA
무색
사료
1958
브라우
가나
1941
음향
174
스나
놀리
오역
지나친
주술사
야마모토
승급
알려준다
영화배우
##ull
누이
휴스턴
도모
치러
공모
무죄
사야카
##프란시스코
##퀘어
샌프란시스코
전례
라틴어
슬픈
종말
여주인공
se
유타
타당
아수라
##재기
동년
Min
설탕
법학
##시다
##전사
버블
번식
적이
앞세
무안
RO
##셉트
시뮬레이션
142
자키
통행
지지자
바이크
사내
처녀
##상가
LTE
광범
레이븐
영등
문헌
헤드샷
빈약
인명
##니코
염색
스페인어
카인
주가
순간이동
##무네
163
던졌
혼동
런처
원화
과감
박탈
파이프
가라앉
한층
##기업
배상
수령
차일드
덤벼
맹활약
토비
해준다
레인보우
득실
이오리
프로이센
##ube
##ECT
일련
러너
뽑아내
##해졌
마스코트
꼴찌
1954
염두
우편
BGA
레바
리볼버
##아티아
졸업식
네스
크로아티아
강수
월요일
묻혀
진로
##스레
드로
훔치
안보
제자리
##ll
전학
have
후쿠시마
사가
pr
태권
회견
맥락
제지
단식
찰나
황실
설마
out
주어진
레슨
절정
음력
오리온
밀레
수하
기관포
페미니즘
대목
먹여
연막
능숙
발현
대외
득표수
크리스토
장례식
상속
약칭
이룬다
이만
카토
##ICE
##랄드
##립트
초상화
환호
대군
날아다니
단총
연고지
라든가
사소
NM
제프
복음
토론토
따른다
미트
으리
##터스
##스티스
##보라
파우
143
137
대법원
공고
죄수
부호
앞면
향한다
##타니
당원
한강
소우
너클
시흥
릴리스
방벽
##베르트
어제
공짜
바나나
투사
창당
313
현직
맞물
노골
혹평
Sum
무단
솔직히
평창
다지만
전해진다
베일
관해
내뱉
인듯
한정판
##프라
소꿉친구
박종
사당
양국
빙의
북동
해져서
코레
차분
##바루
HS
외관
인체
ALL
플라스틱
오비
경찰청
가미
자포
테일즈
트러
두뇌
무식
CN
IV
여도
추출
랜서
이력
##소수
##타르
1943
십자가
230
이준
앵커
전반기
알아차
반란군
찾아와
오딘
넘어갈
아테네
뮤지션
태자
##대사
델타
띄워
북구
지요
순찰
맹독
키드
남미
난투
오케스트라
프로스트
기술력
플레임
개미
고질
우산
157
관계없이
해상도
잡혔
##모어
강탈
극악
오쿠
숙주
133
##FL
슬슬
공자
기이
미시
브레스
갈리아
틀리
당해서
내세우
코지
un
출제
146
팬티
129
극우
잔해
계시
떨어져서
확고
구독자
##더슨
000000
폴리스
플레이버
1942
광범위
세키
별칭
지극
렀다
죽인다
청룡
화약
##STER
비참
173
헤일
나카무라
카오루
BO
미쳤
##트랙
이루어진다
워너
##결승
종사
설비
미쓰
진구
박명
치마
힌트
관해서
키즈
경선
내버려
채찍
리뉴
리셋
여장
기쁨
##천사
클리셰
열린다
원년
폐허
margin
실바
수영복
know
서치
로그인
카테고리
오디오
연안
멘붕
전수
해태
호출
##무게
텔레포트
몸무게
바티
후대
팀장
##MAX
set
##무이
방화
##DX
나락
생물학
보였으나
##날두
쟁이
청원
칠레
OF
통증
호날두
공천
공습
기행
136
Play
편한
체스
생애
BT
사나이
팩션
합치
미하
테러리
파랑
시초
##ica
정교회
CB
메테
##che
##소총
Of
서장
해선
태종
##ock
히카루
라시
번갈
포니
바그
판다
얼터
As
la
개판
미모
##풀이
우크라
망상
달랐
증기
##YP
제조사
메세지
맞대
빈번
저조
Red
##회장
럭키
Type
다스리
BM
하의
##제국
양대
##14
불문
섹스
##산역
오른팔
시에
브루스
일러스트레이터
하비
심화
조력
##박이
클라우드
149
정준
바인
혼다
로지
라이센스
복도
캐슬
박영
우파
대패
친정
산탄총
##에몽
치바
쓰러져
##전설
교육청
유선
##스틴
때려잡
트랜스포
크리스티
샤오
BA
포맷
오키나와
##ict
빠진다
미끼
범주
정한
##17
심야
134
1900
슬라임
1956
미숙
인터페이스
불쾌
미도리
##크리
건드
스트로
경지
해독
가의
야전
TP
입국
냉동
가혹
지주
목재
DI
라파
##ster
레슬러
신세계
진리
사일
책상
공손
퍼센트
##ange
나사
##ater
대사관
EV
부흥
버림
운항
원한다
가로막
깡패
건다
다룰
진짜로
김천
##티넘
플래티넘
슈가
구마
왕관
High
태미
슬램
오세
무서워
##ons
##권자
무수
##메라
춤추
열세
심히
자부
파손
파괴력
트레이닝
제이슨
장갑차
pro
맞출
중후
##레슬링
분쇄
교양
스매시
초래
개개
무명
자켓
feat
진형
요우
입법
TE
원망
켄지
프로그래밍
NEW
펭귄
날린
미들
섹시
수시로
외면
페이크
프로레슬링
슬러그
재림
찰리
축구단
다툼
##왜란
악곡
둔다
임진왜란
증인
##ple
열기
중급
랜스
싱어
경질
인트
방정식
퇴역
쇼트
사천왕
전두환
스바루
시집
모어
미칠
주고
##교통
##지오
%.
뒷면
비기
연말
##해야
##니스트
147
스팅
공과
골목
꾸미
비로소
불릴
Light
웨일
##차례
아래쪽
패스트
앞뒤
미식
박해
여겨진다
호프
부끄러
와라
자회사
##두리
리플렉
퓨처
상대식
심상
AE
생선
안철수
##주군
##무늬
폐선
틀어
280
세일러
배우자
노하
실로
##끄러운
##아닌
##세서리
엄폐
최정
2500
소령
살라
제우스
헐크
##카미
나뭇
하지메
저스티스
드리블
오프라인
MO
수용소
거칠
선인
##티지
GHz
할수록
철갑탄
세츠
착지
##텍스
직통
메구미
##마르
Gen
아랑
관절
222
차관
마켓
토막
##to
CO
의아
격리
테일러
##에트
히나타
보디
##구역
편견
##토랑
고추
##니즘
실천
##의회
레스토랑
가브리
가르침
걸려서
따라잡
~"
더구나
보잉
강세
내밀
애쉬
클러
수상자
1939
수다
음색
##더기
김연
배속
브랜
##CC
개그맨
was
What
제단
소행
로브
바란다
발간
꼼수
면접
템포
찾아왔
감행
레귤
프로세서
배신자
용의자
##산동
복용
취한
Kor
166
미호
손꼽히
립스
증권
##바다
고음
##고래
원종
타고
##베리아
##컨드
연기력
1959
반론
도쿠가와
지문
##ics
1936
프랜차
명탐정
세컨드
동조
섬유
소설가
롤링
##나리
일삼
두목
##사관
신칸
냉기
우물
준공
구한
술집
붙였
탈당
하후
##투아
##다닌
재임
꼽힌다
##ACK
화소
Heart
러닝
산화
레프
퍼부
공영
Tw
종착
더러운
소노
스콧
조교
##어붙
프랜차이즈
##les
줄어든다
케리건
내역
라곤
역학
LOVE
패했
필터
웨인
oh
1955
정해져
GPU
삼촌
##레드
미스터리
##레이트
##ex
##사와
기피
병종
##BM
이아
트랜스포머
##데르
모함
골치
어벤져스
뭔지
체격
아이스크림
자란
##모니
하카
투신
NHK
라임
AG
에그
반환
찌질
아이폰
전광
어린아이
위키백과
Mr
파문
##니스탄
올바른
신칸센
책략
동문
루키
콘셉트
채취
토가
사모
기술자
책임지
Blo
마요
동호
재활
PL
하이브리
경보
속편
호무
영등포
참으로
이방
물가
야마다
하이브리드
그제
##lass
전열
##무실
시가
장학
##16
인구수
특훈
##테스
부도
다름아닌
냉각
레귤러
자질
반군
FPS
MK
플루
##AND
부당
투성이
준결승
방호
장편
TO
스트리밍
최대치
봉기
좌표
방송인
서민
마의
안드로
##아슬
아슬아슬
좋아한다
말년
Par
윈터
보행
정형
##전트
소사
##nder
##플러스
성기
##규모
패드
인사이드
스크립트
로테이션
모던
1952
뒤지
라바
상행
전했
time
포식
뇌물
걸어가
적립
수량
넘어간다
가와
전반전
공존
범행
부드러운
ll
330
주된
내뿜
수도원
##교육
##더링
하반기
달아
엣지
270
사슴
캔디
카즈야
이뤄지
##내리
##ors
Fe
##볼루션
교통사고
얼어붙
패닉
노래방
도청
도호
##ME
##란트
표본
단과
깔려
죠죠
들어온다
김도
##단지
LED
정계
카니
불가리아
경과
오타쿠
속력
풍기
유대인
몹시
서해
배워
스텔라
담임
직속
중년
끝장
스윕
##어버리
카우
태극
순정
뚜껑
여배우
버터
##드리히
입양
에메랄드
매지
멋있
미수
발라드
고마워
교섭
테러리스트
함성
합친
파키스탄
출고
소매
어미
1947
GTA
파격
동로
원고
스퀘어
춘천
#!
솜씨
##대기
225
네놈
르네
평안
모양새
Good
우체
두근
##콥터
전속
거품
박상
심문
방공
직격
불려
놀란
심했
상쇄
영동
자랐
곡선
우상
재빨리
주워
무고
현존
세스
Per
돋보이
유지비
적색
초코
현황
따돌
메이트
다이노스
프리드리히
사투리
핸드폰
쓰러트리
멜론
영남
그릴
로저
커졌
모른다고
순교
자각
광대
배리어
호구
단말
자칫
이에
산악
하행
##글라스
오락실
스파이크
##수수
갈래
시가지
##나갔
프랑스군
카를로스
마초
신흥
월등
그랜
생겨서
##보내
벚꽃
어워드
다기
앤디
SL
am
##HT
마테
사탄
##파리
넉넉
성서
석상
발렌타인
지기
하시
신병
느껴진다
대본
라프
레즈
적재
260
급히
##eep
격전
우천
1800
래스터
유나
바닐라
벌어진다
요미우리
유니콘
미유키
MSL
타이완
더욱이
선우
구절
부관
1919
리바운드
홀딩
##무기
본의
클레이
고산
저희
호투
실력자
브이
IIDX
하리
호박
휩싸
트렌
걸어서
부사관
공약
추궁
중학생
호르
불신
아홉
##ott
원내
즉각
프로모
심연
질풍
비타
간호사
야만
기함
상용
##거진
차용
핸들
Kn
ab
정정
상장
신정
일례
움직여
0900
유니온
군림
남작
소실
징크스
풀린
Li
로스터
치루
눈빛
꿰뚫
시부
증발
박살나
카이사르
부류
지름
선형
유방
운석
장원
##메다
이례
EBS
단정
고분
적성
다중
카탈
wid
유정
포워드
프로토타입
Wii
클라이
##수아
쓰일
줄리
들린다
##문트
츤데레
에바
도시락
박혀
##들여
최우수
This
프롤로그
드레드
근력
따져
##메스
안성
브레인
호그
훈훈
미로
여관
설화
성비
하와이
악령
하라
조준경
##산물
축적
미티
픽셀
길거리
##르바
##IV
헬리콥터
구타
보리
##자동
양보
유무
유승
회귀
Baby
더라면
##25
본가
소규모
##IK
##클리
페인
망원
후루
라던가
남서
##anna
격투기
허위
기관차
진정한
##두사
##파크
자본주의
프린스
교훈
트러블
실정
제보
전산
농사
켈리
정재
진수
카디
습관
HARD
Sm
바오
불평
쏟아지
신수
일레븐
ONE
스토커
탄탄
이선
버려진
동요
모라
충북
서정
유코
빈틈
히데요시
루터
킹덤
1953
대중교통
에필
에필로그
레이트
서태
자문
게임즈
밀집
대진
샤워
중성
주어진다
##델피아
##포드
필라델피아
GN
##지도
민정
1938
심리학
##other
총괄
관념
리키
누워
원작자
Rock
송출
격침
첫날
##행위
169
프렌즈
us
단속
회화
줄어드
##19
박용
청산
석방
##바키아
미팅
책정
독서
리부트
550
야외
우가
만료
만루
자격증
돌보
치고
##앙스
총회
장풍
width
달라졌
고토
양측
파벌
데려오
수수료
헤어지
말미
수평
##icro
Live
라나
##케인
루루
고든
수복
요시다
일품
김원
페르난
호세
생산량
병장
부턴
노트북
Ac
차가운
특이점
온몸
두르
뉘앙스
술탄
보증
속이
죄송
##ins
황태자
여권
들어와서
히카리
멀리서
감기
유유
리우
클립
##토르
할리우드
##oss
미니언
##ru
DB
희대
결사
연금술사
플로리
동래
킬로
그리드
대마
에일리
내릴
미라이
결함
페이커
쌓여
여당
가창
##하이
왕좌
독수리
마차
장동
리조
##받침
완구
교내
의석
혜성
##플렉스
처한
하부
협약
성수
윌슨
자니
쇠퇴
나고
cc
교시
유배
크롤
은혜
아울러
후안
머무르
홈즈
OK
연의
캐스트
다룬다
##gain
##ction
Blue
구두
브릿
정체불명
경쟁자
##지르
Dark
놔두
누명
버릇
##EL
재위
1957
배송
도라에몽
사안
제작비
고성
체형
KTX
원활
가축
부드럽
니카
초교
한다거나
##리케이션
우루과이
아르카
오리진
무사시
저술
프랭
라오
메모
서대
##0000
펠리
##킨스
머릿
전세
""
자크
방과
게시물
토마토
셰프
편안
불어
진행자
천마
강팀
주거
로컬
Champ
말소
자발
환수
더비
말아먹
소비에트
선대
예배
속박
수강
특허
포대
격기
원흉
경순
##na
발차기
분기점
RC
편찬
Im
주파수
실루
유비트
분장
Sun
첨단
##ood
##agon
보구
브론즈
오시
##UT
진군
##자재
가까웠
트로이
게릴라
닥치
##버드
탯이
넥서스
타다
바이올린
++
친목
OCG
모친
닉스
Can
뜯어
직결
일일이
장제스
스케이팅
포럼
리액
들러
Bat
해적단
깨알
날라
선곡
떠날
라트
수녀
MHz
back
타카시
소시
환사
텍스
자손
니나
북극
##ky
무겁
연루
코즈
요리사
DR
거니
유영
205
##토리얼
쓸데없이
했어도
재무
센티
다짐
경감
##페르
미성년
가두
용감
통수
합쳐서
생겨났
키트
기획사
본성
정동
튜토리얼
커트
이창
##지부
주고받
##통수
달라붙
유로파
na
박재
미즈키
열악
열람
무제한
기성
##코스
흘러가
디렉터
수식
데스티니
Summer
대출
금색
##놀이
RP
단선
권능
모범
니코니코
##일으
요시노
##ty
불러일으
플레어
김명
##irst
분홍색
야마구치
넘사
넘사벽
##마치
매수
오클
명곡
##DS
민영
상가
야심
농촌
당주
벌리
살상
브레이브
빅토르
벌인다
산책
자판
도검
##ady
목동
양키스
야시
##land
Korea
##무소
흠좀
흠좀무
즐거운
대대로
Music
탄도
원천
헌신
##소스
제스
중추
항아리
창세
페니
일으킬
동족
하워드
따윈
스파르타
비시
그래프
서초
남발
자처
엘리스
##코프
레이첼
박찬
레이너
##저드
휴게소
함재기
발광
다다
소극
BEMAN
루이지
타나카
##균관
급기
병합
줄줄
1914
행렬
넘어지
개칭
노동당
계란
토이
겸하
프리즘
도마뱀
무진
안산
카타르
기괴
슈터
필연
어느새
베이스볼
강행
반대편
잠재력
합당
생겨나
임원
BEMANI
장안
파산
캐서
악의
##현우
치아
만행
일렉트로
##OID
감전
토로
루팡
나레이션
Fire
##석민
무상
인데다
기다렸
다이스케
후한
설상가
리턴
##프스
윌리엄스
프로모션
설상가상
제휴
##스트림
피에르
##기지
금호
##마당
##현진
인어
성모
재난
OB
전과
피에
##세포
now
학점
교관
김형
댄서
벌여
성균관
밀란
##커녕
유난
650
야기
하원
살인마
노릴
반기
음악가
힐링
정벌
펜듈
펜듈럼
창업
뽑아
글리
조직원
##리히
211
손톱
실습
여진
주심
##곡동
지어
목적지
줄게
마운트
화합
대각
문고
북방
입체
복면
위탁
이질
아타
총격
후궁
악어
차선
포토
광속
지온
##ium
청동
호기심
달걀
여정
평원
미스트
정립
폭동
쐐기
##로프
농락
세션
##테이너
귀중
듀크
치사
GG
시코
점사
Life
CA
뒤통수
서독
진나라
##혁명
계열사
가성
육지
사다
3164
##즈카
##ush
냉전
해수
STR
고령
재판소
##메어
블래
양호
그립
문어
반항
소동
한발
실무
실명
어선
에밀
##기사
달래
##로니
성도
퓨리
Ma
분화
피카츄
스냅
##ount
바꿔서
비꼬
가급
모닝
달라진
스캔들
까닭
But
리엘
세탁
염려
##서야
별점
1951
세레
동탁
호노
Just
똑똑
어퍼
되돌리
##크리트
##르기
로저스
풍속
증가량
204
로코
자수
총재
한탄
돌이
진성
돌려주
투니
월급
내륙
동체
받아들였
일수록
대상자
모른
네이트
스킵
진료
로워
##리우스
선제골
불로
DX
##CH
나이트메어
후예
고속도
창시
지극히
네코
대공포
시몬
해내
플로리다
선방
Ste
잘려
##때로
신대
우아
이복
day
캐리어
##노스케
비춰
##년기
한숨
Sy
##ger
일진
프로리그
##봐도
털어놓
박경
사면
##퍼런스
FFF
하타
향기
pt
감히
남극
몬테
개개인
야드
Dance
에스파
강연
사찰
마운드
박명수
스완
일본식
개연
공익
노블
해임
행방불명
츠바사
출근
파장
할당
##저것
이것저것
현상금
FB
상표
한도
발칸
Gold
여친
석탄
홍성
CON
지상파
실루엣
국산
호로
Grand
주황색
적료
섬기
스퍼
이노우
피츠
연회
테루
##그룹
지휘자
물러났
Pre
오의
회고
산지
저상
Ev
민법
기복
음주
페루
##티콘
1600
나폴리
광전사
VOC
구단주
효소
##레스트
암울
##ne
##블릿
##ally
##일라
HK
아프가
채집
##ution
서지
##줌마
이속
바니
시간표
LCK
예언자
##미스
성체
슬로우
비운
아르메
기타리스트
대주
##준표
괴상
아깝
괴력
차후
콘티
난감
슬리
아줌마
영진
지중
화자
##pr
번트
일식
대표작
피고
관동
스네이크
가브리엘
##징어
라구
매너
전교
접점
망한
나타낸다
구급
파수
파업
열등
바비
##봐야
수락
캐롤
##보그
get
통신사
넘어서
세일
부여받
카이토
사우루스
##마침
됐으며
##클럽
살아나
아델
매스
터트
##미즈
아부
정세
밀려나
TW
Over
놀랐
목요일
케이지
군복
코다
이변
콘크리트
내수
부평
교직
투하
램프
1937
카르마
##사이드
리마
##ator
뛰쳐
ARM
추기
포효
호쿠
경찰관
정확도
아틀레
신축
정자
딸기
때마침
beat
##장난
출루율
한스
미사키
출연진
소피아
전리
박치기
러셀
합창
아이유
매출액
따내
무궁화
UF
변질
##체스
금화
외래
차종
##베르토
홍진호
DJMAX
서인
행정부
예지
선구
회오리
각기
##air
연발
자진
트리스
클레어
뷰티
Sec
코바야시
두려워하
비장
어리석
왠만
남아프리카
퇴출
tvN
픽업
대부
##르드
챌린저
처절
크루즈
대쉬
묻혔
일절
최영
##네이터
배기
개인전
베네치아
백신
코카
세세
##나드
이를
카밀
출중
##토시
아카리
넘긴
교향곡
아프가니스탄
매운
BBC
부과
지날
동창
Out
지침
아제
조영
커비
영리
사극
접근성
고릴라
느니
달렸
한성
마누
볼까
태수
신원
만세
광부
##inc
간선
점거
둘러싼
상류
스릴
간략
회심
경매
경희
딱딱
수험
코요
검은색
리에
부려
이은
으리라
##장이
콜드
##축구
##포스
영조
완수
고요
부대원
스피커
파파
컨트롤러
요건
##츠카
강해서
입힐
풍자
달빛
묘한
상체
리티
양주
El
Dis
but
책임자
Win
전년
미판
케이트
사이보그
##꿈치
강판
사스케
유난히
##동원
상하이
새우
수요일
저렇게
VOCAL
조형
군함
묶여
베이더
총열
빅뱅
외우
은밀
리브
##...
고선
뒤덮
이용해
용맹
천공
후문
계좌
콜롬비아
다비
##휴일
총사령
연구실
소수자
##ART
막아
백색
촉진
천둥
카구라
UI
소감
미술관
잔디
##use
평민
바우
##바시
고속버스
전류
sc
케로
정크
6000
##수스
런닝
##테이
미코토
못지않
자신감
부딪히
밀렸
Mon
예명
##베이스
혹사
기밀
준하
웨어
HG
워낙에
제다이
조인
김두한
영장
성형
안면
##ring
민원
앙리
중견수
판권
##XT
리베
페이트
man
조제
차남
비즈니스
~~
매칭
##LS
레이나
Af
역과
조류
오인
퓨어
이동하
이야말로
권고
레몬
도망쳐
장기간
카가미
Power
임관
태블릿
라자
샤프
지났
학계
##린다고
대문
타니
함포
던진다
사출
##ina
튜닝
##대교
Res
철회
넘어간
매개
정렬
스님
##관총
집결
줘도
취해
후진
우체국
내야수
관하
정거
퍼붓
##히트
간다는
보여서
소절
형편없
망령
380
퀄컴
매진
발전기
기합
오피스
At
호전
섀도
리전
무효화
터질
##소문
체리
건전
OPS
도피
}}}
바주
피스트
혈액형
지자
퇴사
경쟁력
여덟
노엘
였으니
256
솔라
입술
키무라
추첨
나고야
직구
SCP
캐서린
NG
욕구
웨이트
접어들
유서
전전
이성계
조달
제라
Fem
강성
금성
국사
##범죄
당첨
베니
자취
동갑
때때로
카지노
공휴일
동참
속공
와이어
농협
섬세
무너져
아카이
존속
세워진
볼륨
지그
안다
타치바나
어쌔
총탄
김영삼
어쌔신
쌓인
증후
##ittle
무빙
코시
틀림
영미
타국
글래
적발
sm
빌라
뒤틀
경량
##아르
##카스
김택
유포
Fi
서사
MR
거세
옵티
레기
오징어
직역
색채
성역
아르메니아
MX
질러
초고
##라이어
악용
##심장
채소
여사
명대사
휘말려
궤적
가호
방어선
집중력
##베르크
내구력
애시
공성전
건재
부추
화가
허공
가급적
대인배
Sing
카노
조력자
낙인
떠오
거제
본국
1910
FL
등교
##하하
##숨에
단숨에
일으킨다
마에다
장병
도메
저널
페더
##ERO
츠나
SG
카즈마
라드
코이
##de
노기
페가
##춘다
가솔
패미
광탈
넥슨
타나
##be
피드백
gr
지켰
궁지
레닌
쳐다보
횡단
고안
랩터
젊은이
러시아어
허구
부식
에밀리
##ello
베토
괴리
공방전
리트
재고
갑작스럽
정거장
사육
MT
가명
태세
##reen
SV
소용돌이
쿠루
서진
##ual
피라미
김정은
밝힌다
창의
피처
승천
IG
적진
족장
생산력
##대부
세조
견인
예장
근성
돌릴
로사
맞춤
무전
증세
포지
막바지
기미
복싱
절규
##코어
정명
줄거리
돌격소총
통용
군사력
노이즈
휴전
주재
MLB
바뀔
##바퀴
동인지
데우스
Pv
모방
디펜스
Rem
라지만
맥도
바실
건축물
서킷
표방
기보
카오리
Ep
가뜩
친선
추적자
쪼개
역병
##ational
##프레스
원격
쏟아져
999
연예계
군기
대파
흘러나
어인
수군
##riend
발상
##af
아이작
나왔으며
히토미
##ars
파이브
##bs
신주쿠
터진다
하임
##그러
작인
설계도
루카스
결장
소진
출몰
Vo
두부
깊숙
기한
카에
##IE
가뜩이나
초당
카바
슈퍼스타
베드
정은
홍준표
양파
##해군
스타팅
발악
후려
급기야
##ivers
주방
##퇴근
수비진
증후군
노드
네모
테이크
폭포
자유자재
인벤토리
조폭
VOCALOID
모호
쫓기
간다고
##리에
양현
청하
그려지
IDOL
아폴로
리쿠
악랄
초선
오로라
럼블
판서
돌아간
뒤이
타시
포트리스
박격
고양시
Leg
King
수원시
상임
블래스트
시킴
##에이터
애교
중전차
고원
김희
연호
풋볼
베가
##회의
미야자키
마이어
병단
깽판
실황
HT
핵무기
##클레스
스위트
YOU
될까
BF
강변
자유주의
벽돌
just
시스터
차려
히노
이치고
무림
아몬
태그팀
제르
에이전트
제시카
상회
##지리
엄지
##외선
표출
세나
쏠쏠
징징
분경
응원가
코타로
추기경
억압
##SS
일자리
School
신시
지령
##MC
운운
Miss
선도
김창
애틀
CEO
키사
랜턴
1935
팔찌
##atic
간행
인맥
UFC
진가
Rec
GR
대제
풀렸
삼거리
끈질
##일본
바루
##니클
##토미
유토
what
배분
사사키
옥타
고베
경유지
???
벅스
수고
스티커
극소수
뒷받침
밀접
에우
재사
1918
치명상
못한다는
##ern
소피
티베트
마르크스
다단
자바
포고
##itch
조지아
블루스
코스타
당분
알고리
달아나
데카
이노우에
##ts
장타율
빨강
##스톤
STER
별자리
1934
운동가
레스터
Che
리플
허리케인
습한
쿠파
창병
131
아이언맨
놨다
드립니다
떠서
본디
스타크
ADV
'''
기마
일보
국력
손아
임상
아의
##연합
##사전
여고생
플래닛
어드밴스
악한
평면
게임기
천도
하르
##셔츠
고폭탄
##카즈
End
퍼시픽
프론트
방금
자주포
줄일
천적
##날드
로만
시중
VR
##rain
Ge
전한
Di
피겨
쿠시
##스트로
##그레
##큘라
위나라
이가
함경
도리어
독성
인내
Air
쇼군
단골
##tr
마이너스
편대
세간
방황
선보인
과부
군산
##루살
새로이
대명사
무성
입성
##루살렘
고어
넓이
노조미
도도
명령어
성문
알고리즘
묻히
헬스
갈린다
키가
##oot
Mod
줄곧
한심
나온다는
마사키
사부
강유
##노미야
글러브
군벌
메라
if
전편
종일
마이트
야쿠자
그리스어
교주
단조
##칼리
걸작
인프라
토네
멀쩡히
자민
표명
예술가
실험실
바흐
안나
경신
##재판
깨어난
흡연
모여서
교란
남구
##의사
초사
붙여서
드라큘라
서드
취직
위즈
포털
마커
##ren
굴복
에일리언
정유
이화
피리
박주
착수
남용
관악
당기
시립
우크
송도
솔로몬
col
담당자
광신
##같이
체질
금전
작별
단절
타케시
샤크
첨가
비토
악장
##UE
상반기
EMP
아이리스
움직인다
우크라이나
지망
카스미
휘둘러
##55
예비군
집정
예루살렘
해운대
여의도
저격총
PVP
직관
천계
왕궁
콘테
시드니
레지스
관제
이치로
학번
##UR
옵티머스
새겨진
원호
휴일
성추
제후
##데아
그걸로
초원
광석
로딩
추이
토오루
미성년자
메스
건너가
만류
다이나
##rist
night
다뤄
매사
비늘
주범
사교
손녀
진흙
킹스
타노스
도미니
잘리
##ony
보인다는
청색
##ma
카린
##무스
Sound
몰아내
토착
사쿠라이
POP
##쿠로
오디
느냐는
박힌
Hy
염소
키워드
회복력
총대
화요일
##린스
##중국
양도
제식
##사우
문과
정중
연희
열려
광저우
돌렸
##레오
불멸
컨테이너
하세
백합
해지
한지라
무작정
김전
아닙
##세데스
되돌려
메르세데스
##iew
이끈
쿠노
끼어들
요동
고독
괴담
아역
프런트
거주지
DO
유소년
출퇴근
군중
상수
블라디미르
진작
연구자
팔라딘
울려
don
벼슬
##ope
해커
행태
좌익수
양면
유교
조운
##시계
MASTER
겨루
빼돌
갇힌
노숙
대칭
오너
현명
요르
성채
아산
##데기
모터스
바주카
애틀랜
웃긴
신다
어우
잉크
##수엘라
법무부
발트
신디
인테르
민족주의
바이스
시한
에티
MD
고려대
EM
ㅋㅋ
나날
퍼스
징병
##ana
손바닥
유목
아야카
게리온
후유증
빌헬
배지
먹방
##atale
무거
드라군
선비
##어찌
과실
카무이
깎이
굴려
치이
제멋
교육부
조장
커리
##던트
데이비스
프레데
스코프
하야토
상해
Femme
##oon
베토벤
청량
로망
사업자
준다면
##라비아
콜로니
볼리
효력
그닥
SO
Cat
사에
옮긴
저리
칼럼
시그마
way
끝냈
황족
휘말리
액셀
##패스
명작
이마트
농어
##ox
BAS
애프
의거
이안
빈사
##생긴
어찌어찌
나진
레이터
##ield
대용
재팬
언행
마도사
라지
맛보
브라더
금기
일부분
득점자
경인
박준
사우디아
얼핏
##천동
bl
학업
텔레콤
섭외
성주
가치관
애당초
##22
티코
베르크
빠질
다나카
베네수엘라
역설
EA
미토
1100
이관
매복
수산
##안군
무어
소심
우시
펄스
##노이
쟁탈
##무장
1932
극찬
타협
##야샤
이누야샤
WE
생사
흑백
각색
경장
한몫
리노
강해졌
친밀
활주
##의정
##레미
##olog
알프레
진해
트림
##티어
드러낸
1931
그놈
피라미드
광학
##가요
1933
XP
수준급
링컨
민국
알코
이우
초토
해인
선체
택배
미지수
대잠
보답
총통
겉보기
폴더
친위대
사바
이윽
이윽고
나눌
증원
어둡
재혼
##언정
확연히
아루
패기
대두
양념
창원시
아그
브릿지
조율
돌아와서
일쑤
어떨
중앙선
광주광역시
피어
강적
##변속기
스루
##Fatale
전리품
조선일보
FemmeFatale
아멜
중얼
With
반말
병살타
Hard
성가
자연스레
여겨졌
Run
다던가
스테이트
내려온
효과음
빅터
외출
위화
카도
안토니오
##다닌다
다정
마모루
건의
미타
##징가
시력
타고난
참패
피곤
##돼지
XXX
자잘
쾌속
지중해
다인
김전일
끌어내
마징가
부회장
두께
바하
추석
임용
복종
CT
가든
칭송
연비
##AA
후타
탈옥
번영
##쿠버
엇갈
##무진
반다이
##블랜드
수작
맞히
미셸
성폭행
미디
토머스
340
부화
클리블랜드
Not
정장
##니치
중령
쏜다
커브
머물렀
전념
##리즘
폭발물
유수
든가
봉황
느낀다
게리
알아채
App
가토
카가
직감
셜록
신이치
이스터
진공
치뤄
가솔린
손흥
승기
안테
찍힌
##elf
Rev
슈타인
가산
여건
##암동
입맛
추대
토하
##ouse
도전자
RS
놀림
설득력
말장난
프랑켄
소이
1928
##선거
제정신
캡콤
214
따라오
##사의
기병대
CCTV
식신
스폰지
동봉
송구
흑화
압살
RG
충주
환원
도망쳤
도널드
토탈
호대
##레트
성공회
셀프
제이스
생겨난
dis
후세
부츠
다른데
명인
채무
술법
##저트
예리
키퍼
난전
악세
Da
꼭두
바늘
치중
환각
체조
게재
손흥민
발해
사용법
든든
무의
쓸모없
스크래
박격포
듀엣
외무
아지트
서문
송이
쇼핑몰
##75
VIP
가출
입힌
장래
시동
##인드
쓸데없
의병
페로
기와
접시
안도
서식지
순진
육식
충성심
키리토
마포
경위
##투수
SHOW
좀처럼
피신
뾰족
미라클
유감
##무니
밀어주
재사용
##폴리스
재해
##둘러
허세
부름
패한
협곡
반칙
스왑
분사
마작
삼각형
메테오
서면
광양
도호쿠
완전체
공채
위생
선발투수
봐선
아종
괴롭힘
변종
##아아
아즈사
어긋나
##드립
##득점
상권
선진국
진과
부서지
사우디아라비아
UM
임하
트린
시궁
계보
육박
날아간다
Elect
임창
하코
관습
##로이
오스카
마음껏
사각
서북
기만
윈스턴
돋보
시구
RAW
북유럽
어처
온화
평했
아치
무너진
시위대
리포트
초식
##방향
빌미
혼종
흘려
##마사
##라이즈
불가사의
종자
폭사
##컨대
co
##ORE
미츠루
Ke
141
She
학창
310
대강
동국
체이
사마의
순조
호노카
체가
8000
만회
데이브
제비
망가지
잠복
펼쳐지
스플래시
정인
##투표
격돌
결별
뽑히
작살
꼬이
액세서리
취했
저번
카세
##we
##ecial
가가
석궁
최전
홈구장
도르트
서부터
마니
동물원
에리카
연주자
백미
조세
현행
제구
사위
향수
입학식
구자
철학자
사과문
따랐
패트릭
Get
낙원
버지
김혜
입당
협의회
사다리
존댓
존댓말
대여
아픔
앞쪽
발산
패하
옐로
수법
정적
해한다
행해
탄종
풀백
##조각
단테
대관
디에
##요환
홍대
본문
##asy
제이크
호스트
##ane
아벨
포르노
라거나
수렴
##66
승부차기
콜라보레이션
불사조
##케이
가네
샌디
우기
평정
##its
##치오
DT
두드러지
Ang
스크래치
애플리케이션
world
상정
##슬로
김세
블레이즈
사설
나타날
고를
받쳐
어려우
느껴질
비석
임요환
##28
한해서
##네트
오미
수레
와우
정제
어처구니
비정
드러낸다
오리콘
시엘
무자비
1924
정류소
터트리
##미사
열풍
까먹
##러드
꺼지
왼팔
유죄
프레디
최면
##히사
white
크로니클
거물
당당히
듀티
엑소
김인
480
스튜어트
대담
속삭
송병
설사
헌데
식별
학파
베라
소인
스몰
##짜기
생각나
기각
##먼드
순교자
진한
차세대
쫓아가
강당
볼텍스
제이드
분수
지켜야
양동
##EX
왔으며
재선
느냐고
뭉치
촉구
안장
##ze
밸리
손수
들어선
SW
알루미
앞장
영분
처했
침체
007
키운
헷갈리
##용차
끌어들이
원동
가까스로
밀라노
박병
더스트
수배
0000
Cy
다이브
로드리
탐욕
한조
대전광역시
추산
프리즈
부합
시애
하드코어
영락
헤딩
선공
열받
대변인
니키
스칼렛
지아
우익수
콘스탄티노
su
노브
##ness
##그라드
망원경
난동
베른
720
주주
사이퍼
기총
착공
플랫폼
어비스
##링크
네메
전태
##포로
에덴
Song
목성
Big
다이어트
Comm
시저
호조
해서인지
사이언
발렌시아
국무총리
##24
비약
자위대
편제
합방
Back
선명
모을
부풀
처단
##인간
클로즈
만두
동포
##appy
주작
데이빗
도르트문트
420
팔꿈치
강남구
애리
마른
신민
정무
Arm
류현진
##틱스
안드레아
##매매
마더
##도니아
선교사
이과
##즈마
시애틀
노렸
의미심장
막힌
안치
디트로
디트로이트
서점
불태우
교구
바시
광화
검찰청
빌헬름
레트
커먼
##다간
불린
승계
안기
품종
황자
삽화
화수
##지대
방대
빼앗긴
망자
익스프레스
유쾌
##ny
출입구
화장품
격노
이산
동대문
코리
코이치
대한항공
오버로드
매거진
##제리
조선인
리젠
##테리
##벨트
항로
목표물
##ke
교감
누군지
##평가
바쳐
틀렸
히로유키
특권
쓰러진다
창출
Order
유명세
##제품
##RAM
##sc
##슬라비아
유고슬라비아
끼쳤
적정
##부대
주어졌
1929
거슬러
미주
##드래
대각선
##모자
바바
1911
빡빡
##제이
브란
민병대
와이드
돌아보
포화
골리
역기
로마자
잠금
노이
착하
후일담
알루미늄
대장군
Skill
기라
설레
리액션
기쁘
카야
테크노
젤다
스케치
미련
나우
내비
거느리
단신
전복
갈기
꼭대기
서재
정현
택하
치른
프리스트
송파
방랑
헤매
마티
커넥
인디언
con
주군
두꺼운
>,
##35
김준호
대머리
법령
뭉쳐
KS
던질
플러그
망해
배척
벌칙
선천
유추
집정관
독재자
농부
서커스
##chor
스탠다드
웨일스
매입
주성
씁쓸
TB
나주
케네
##평군
리조트
태연
사이오
타라
퇴근
안드로메다
첩보
##공격
클락
허영
##어쓰
오드
인즈
차출
UR
박세
마고
겸임
발효
1925
시즈카
문의
아론
열전
Every
페인트
떨구
사토시
자택
과반
행선
좀비
##느니
##let
김정일
토네이도
세균
퍼트
버금
노후
새해
수분
일직
졸개
토의
무협
정규군
연기자
##실히
당분간
오재
보유자
PSP
cl
##나간
서경
윤종
투르
분교
국정원
디테일
병영
입상
조회
##푸스
난폭
장단
경이
내년
모티
##UC
태고
##예프
양아치
##니트
##AG
운전자
다라
짤방
석화
영화판
리히
That
가즈
밀린다
비행선
사상자
나나미
위조
알코올
어휘
속옷
총사령관
바쁘
##각시
상대편
마늘
수반
왕녀
난해
1917
성추행
커터
구이
느긋
성취
##자카
qu
##파니
208
해협
화랑
이에야스
활주로
간식
동거
##눅스
샤아
가차
단거리
##양군
지독
전염병
생리
치타
##패드
비숍
추월
##작전
쫒아
합산
##타자
##페스트
나선다
노랑
조비
심포
공병
얼리
괴도
크래
갈고리
상경
조그
펜스
선발전
프랭클린
te
국수
온전히
지체
라운
춘추
마장
이따
자석
TCG
인민군
신종
##자루
격하
졌으나
##비우스
시노부
복권
점하
홍수
자부심
단말기
늘어놓
불리우
스펙트
개화
마는
숙종
켄타
212
츠카사
리눅스
공직
에프
출세
넘어오
역전승
해저
##버거
펼쳐진
마그마
비욘
원산
##버릴
##정역
##애미
세이부
관광지
유행어
##bps
쓰러졌
Des
마이애미
최진
이어인
동남아시아
교재
대적
제멋대로
Har
##운전
##레인지
갑판
위임
##바위
##ert
교원
콩고
초급
잔당
토요타
낭만
불운
##ious
##정동
볼프
나츠미
FX
등산
의대
171
##ient
라이터
NL
Top
가주
앞마당
왕따
게이밍
타쿠미
구세
튜너
항쟁
235
##마이
모건
요일
침식
##단체
올리버
체이스
판본
##net
연방군
슈타
무너졌
채굴
능동
떠들
##모사
스펙터
GL
##렉트
파열
영창
자의
파고들
개종
850
유체
Tri
누마
법조
심부
##위치
의리
##비히
##게요
EXH
##유산
크리스토퍼
벗어날
야채
##노기
##ret
사절
255
이제동
태어났으며
1927
조슈
FR
농도
##ideo
으라는
후작
NS
..'
서스
##리아나
패거리
##라이터
다이너
악보
리오스
키웠
##라이언트
어중간
일선
직계
가한다
키메라
푸드
관대
근래
정진
마츠모토
가변
##튀기
플레이트
심플
영기
장녀
##니지
레이크
일찍이
백악
비대
법정동
클라이언트
마드
래스
뻥튀기
##pl
주임
RF
해밀
데려온
안타까운
구치
##호도
##olution
신한은행
Amer
골대
헌병
##둘기
공전
는군
중산
와일드카드
내심
미완
매트릭스
반하
어로
햇빛
어지간히
바트
왕건
슬퍼하
꺼리
##토록
Em
용품
초동
싸워야
모기
206
스플릿
가메
갈릴
채울
카멜
##주곡
트리오
연평
특출
유니버
이의
상고
쫓아내
이승엽
유세
애틀랜타
부메
나탈
바란
자며
했으므로
안중
투기
PO
텐션
DEF
드레이크
인신
##자스
##IST
LCD
작렬
바쁜
펼친
off
삿포로
아름다움
몰린
##co
경호원
전한다
##버릇
소량
##ERS
각본가
유민
##비언
버디
오아
인스
정직
흐트
리바이
면은
사역
성남시
댄다
##피어
알파벳
중공업
구애
벨벳
이지스
우로
주스
켄이치
##교도
333
게르만
장학금
피크
Act
프라이즈
기통
##러미
벌어질
UFO
부메랑
요크
프레드
깨우
원제
가쿠
정경
드리프트
치부
데뷔작
209
##러기
도왔
앨리
이메
메아리
이신
카터
파드
청주시
##ful
엘런
##mania
ve
판도라
절묘
과다
괴로워
290
Pe
지친
지바
kn
기겁
LS
케르
구했
메소
우메
줄줄이
꼭두각시
남원
달했
##노프
이어질
도망친
자드
작물
##다르
##누르
무난히
튜브
KG
사비
코지마
##렉스
리투아
암석
토템
##틀링
리투아니아
동선
소아
정종
소음기
##ner
뇌격
##ham
##고쿠
TD
버니
형법
##사우루스
특공대
팔레스
토와
향했
미뤄
주름
츠루
##캐슬
인기투표
내려놓
Bar
Fre
215
받침
진전
쳐내
받아들일
선풍
친근
오바마
가창력
트레이서
데프
서둘러
스쳐
성녀
외야
단단히
세단
반달
##하니
아니하
Ext
소중히
접한
##조선
비틀즈
루즈
##하늘
런닝맨
브로드
어기
##럭스
AMD
시정
알림
이민자
##태우
시궁창
God
자연수
데일리
##뜨린다
Str
1926
아닙니다
생계
통역
데스크
송곳
희미
나루호도
되려
레미
다이묘
뉴캐슬
반가
항우
독립운동가
달라서
둘러보
##곡리
모를까
동산
##ning
GDP
괴멸
부두
나가사키
브라우저
탈리
Hot
꾸며
빼내
팩토리
Bea
재상
##미아
가중
Ab
경관
##캐스트
##ERT
STAR
오마주
규명
RAM
anchor
덩크
키움
위화감
김제
살린
우투
앞둔
음양
##ump
아우구
세워졌
샤이닝
가세
클라우
나츠키
어린애
Char
항소
성종
전폭
자정
보전
##서리
고스란히
러블리
새겨져
'-
케네디
일지도
가신
뚫리
레고
##ward
심심찮
마카오
Met
Rain
심슨
시발
다구
점포
##day
우습
Sil
굶주
통한다
소셜
초중
every
대의
서남
중소기업
공시
마천
최성
헛소리
알맞
##뜨릴
##ATION
위인
인장
데이즈
FN
##여행
경상도
랄까
무심
탄수
붙잡혀
오일
최적화
간장
동유럽
산호
##레즈
박민
투여
**
뮤즈
만화가
해결책
빠져서
수리검
넘길
시르
영재
체류
이시다
want
노사
##상스
아이리
뒤따
성령
앵글
뛰어났
로페
이목
재화
FE
이분
White
##88
##겨서
비하인드
Inf
옥스
헤라클레스
랜디
찬사
치도
##내기
밀어붙이
최우선
신촌
1400
헌납
yout
세무
팔레스타인
빗나가
채권
셔츠
경의
미얀
인피니트
기판
대리인
레비
로버
문호
비어
##매니아
카자흐
제각
십상
눈부
바사
주시
수료
유우야
이송
계승자
사생활
코나미
KD
로니
명품
북두
맞물려
루드
충동
성동
바람직
진다는
알아듣
군단장
수영장
안테나
세토
조승
현수
역관
타지
평지
밀러
앤더슨
김태균
down
최재
한다던가
긴장감
more
단다
멸자
과잉
황무지
녹여
오덕
May
몰렸
불분
버지니아
길목
오피
애리조
##대표
건너편
정연
포이
207
마케도니아
그물
키바
감속
스트레이트
이로
이치카
Pop
빈스
울부
잔여
살릴
끌어올리
시세
IDOLM
다이렉트
주부
한인
도보
개틀링
권역
빨려
오퍼레이터
대도
발령
로로
어때
##살이
저스틴
여행자
근로자
Master
청문
장막
주권
내무
흑룡
##소통
배럴
터무니
대한제국
##트니
##대군
의류
의사소통
어머
하렘
##son
지자체
따라다니
저러
한결
창세기
하데스
내려왔
편집자
노마
영국인
##드래곤
투항
##뮤직
부녀
분과
##au
서울역
유부
##ANC
체로
올려서
PA
외교관
우사
자음
##oud
농어촌
냐면서
병맛
머들
박기
심리전
##ves
익명
튕기
아르테
사단장
감도
나이지
단연
나이지리아
치밀
몸체
포유
##피탈
Game
뺏기
고모
대입
숙명
초연
나기사
공석
카프
불분명
이범
랄프
멧돼지
지갑
##실록
노동조합
무법
여객철도
OR
사병
촛불
플라워
요하
스펙트럼
나시
는데도
로자
충실히
수년
분전
수뇌
안식
외쳤
죄인
##마츠
161
경희대
미분
they
끝판
며느리
감시자
##지물
1922
사카모토
##ift
내걸
송라이터
으시
티탄
행동력
외로
데려다
여대
란트
체급
둥글
만화책
거신
리비아
엠파이어
##ship
즉석
전용기
명확히
서유럽
호타
불러서
날릴
##ape
애프터
COM
너구리
동독
쿠미
##블랑
유시
제품군
성검
중심부
울부짖
Are
경시
한중
카에데
신령
##감치
GAM
그토록
기공
##원군
공적
오반
##찌감치
피고인
체르
치세
미하일
들통
경합
리언
1923
열렬
놓인
##레인저
지출
체내
세츠나
##틀리
TN
행각
WAR
기생충
국물
무로
절약
역전패
간편
민지
터리
1921
고갈
구만
기린
자재
##현동
TG
외래어
김택용
##lock
좌석버스
불가피
카트라이더
반자동
차마
원한다면
메커
산출
요양
몸집
트레인
Bu
재빠
무네
Bra
조로
520
나데
##을지도
only
로미
##쩌둥
언론사
마오쩌둥
##ien
아노
마우
크러
##도사
시프트
익스트림
천문학
Yeah
부설
아킬
버즈
젠지
경전철
##관계
마비노기
애덤
##장구
속했
DA
단번에
의약
필기
##less
사시
준장
쿼드
비둘기
##ize
스노
특색
news
학부모
소망
짓밟
크림슨
##산면
아만
이장
라데
요지
도타
순순
##zy
음식점
루시퍼
니콜라
Cont
마취
##LD
완패
절감
케어
디디
##니케이션
메이크
솔리드
피니시
리시
헤더
성급
커뮤니케이션
오스틴
pl
터미네이터
걸스
신공
제명
하얀색
등용
아란
프란츠
제네시스
일컬
##EE
이라든가
##형제
탤런트
밴시
티나
산산
예하
Hea
창간
서약
친화
트레버
인분
사라질
가야
레베
쌓았
##45
월터
르네상스
항속
장대
활기
##마드
##led
셔서
유스케
##고루
##omb
아껴
일갈
강령
섹터
인다
전투원
자치구
당근
아세
궁정
극동
일생
포괄
##준호
비범
콘테스트
영화관
남아공
다마
설문
##마트
구스타
쏴서
붙여진
급여
노스케
무패
붉은색
구비
종로구
뒤바
운임
어려서
간첩
폐하
거쳤
급제
독설
위태
돌아다
독도
저거
포진
단간
댈러스
##기어
출생지
재차
##ited
Project
교직원
##HD
##법인
그지
락스
온게임
팀킬
온게임넷
와타루
7000
세련
리포
민속
##문화재
복부
##소타
Joh
회자
##조작
##ALL
Off
온전
자위
Battle
불허
이상민
TEC
응징
붕대
생포
##람쥐
1912
쫓겨나
외침
TF
세실
플라잉
불안감
선상
정선
이유로
스릴러
다트
메츠
우동
계약자
순순히
##ita
승부조작
밀쳐
유다
다이빙
정주
발자
배고
회유
이어폰
팔려
##준혁
JC
선별
Open
톡톡
##ORM
동이
성유
반죽
원상
태후
##ton
DDR
~'
가져와
정국
협공
빵빵
성품
조나
척하
##29
순차
천연가스
wiz
칸나
우와
아이슬
Sky
돌풍
이도
지못
지못미
화내
패미컴
Moon
백지
나뭇잎
치를
브룩
전투복
조니
브리핑
케미
번거
우이
##플러
......
221
##ENT
BASIC
이석
스켈
##선스
연장전
나지
노원
조부
관건
기염
알비
미네소타
앞세워
일직선
777
얀데레
몰려오
맞대결
good
##23
카르타
구워
힌두
저력
타츠야
라리
전라도
하늘색
레코
##row
##27
1300
맞췄
부서진
꼼짝
섭정
야자
끼친
소주
짤막
급진
미카엘
넵튠
무너뜨리
##개골
네타
카즈키
감염자
Like
다듬
남짓
##com
##위원
내려찍
체구
아이슬란드
무모
성원
마코
청취
라이선스
초회
바꾼다
수족
WCS
벌어들
##ling
멀린
라든지
매도
소탕
희박
경비원
김현수
Special
화속
2022
남긴다
순항
오모
음란
흉터
여느
갱단
거둬
졸지
비밀리
beatmania
##의지
니즘
방어전
개드립
##타기
반짝이
네메시스
Bad
눈썹
소프
류지
탈탈
노프
샌드박스
아틀라스
도메인
재주
비서관
탄다
강호동
##교회
마자
톱니
누락
온건
검거
특촬
관현
둔화
막말
이나즈마
보인다고
낙하산
정했
중사
음모론
루리웹
경영학
디에고
하천
TT
때릴
탈주
티셔츠
일정량
산체스
빼놓
악인
업자
이북
릭스
통학
데이터베이스
Soul
숨겨져
합금
바이올렛
##일관
파병
##레타
백수
치과
다이크
추위
팽창
부상자
Med
코팅
는구나
세이지
##rop
미달
줄리아
프라이드
급상
주립
탈것
##카르
성범죄
착취
채운
##즐리
원로원
사죄
임프
브래드
둥근
벤츠
213
드래곤즈
##방식
거창
잘린
조개
반대쪽
이천
이시카와
크레이지
급한
지폐
##트리스
마셔
호라이
칠흑
##UB
진행할
##아라
박태
키나
서스펜
형벌
end
Po
##vent
마사무네
티타
Hey
over
정관
피쳐
환불
생방송
입혀
쪽지
대지진
FBI
##산리
모치
픽처
이메일
쓸어버리
일간
##line
##ute
Now
WOR
무당
물들
반납
일파
조현
자기장
시빌
Dragon
성희
Bur
여하
조원
223
몰라서
유노
##play
시킨다는
페트
명백히
our
##부리
사카이
철벽
##xt
##나들
275
아브
내려와
밀양
밸브
##메르
드미
해프
햄버거
히코
전갈
메커니즘
놀란다
##지기
##먹이
스탠딩
막스
부통령
키울
baby
관용
지질
##나가와
다친
자자
파괴자
정부군
래쉬
##stem
001
니즈
미처
#,
신봉
이바
지나갈
##oney
거처
세속
Eng
뽑혔
미유
에테르
넘쳐나
장동민
매점
피버
순례
버퍼
치히로
##소니
대장장이
헤지
fl
성운
돌린
브라이
왕립
처한다
급습
원나라
거머
1907
헬로
##방사기
화염방사기
하시모토
만장
민심
연성
팬클럽
##96
스탠스
수차례
폭군
구루
길러
마호
일찌감치
자선
본드
액트
ac
신탁
옥수수
손책
영령
구스
에로게
퍼진
비행장
개관
무찌
아카기
쓰러뜨린
Way
코브라
##규어
일개
##글러
올리브
제너럴
던져서
민사
급증
파나
강서구
결선
인승
종속
##두근
슬쩍
퍼졌
Alb
##FFF
노보
##IGHT
골리앗
##미츠
결단
외환
올라온다
불러오
패권
수당
원어
지으며
##eng
설립자
써니
해프닝
수납
레그
see
겸비
볼일
스투
마리사
라이브러리
1905
관전
바빌
암기
펠트
스스
황소
카논
연대기
세운다
아다
케니
테슬라
행군
##벅지
새신
디비
설교
포자
##말라
럭스
문성
##lt
번번
수퍼
참모총장
라파엘
뽑힌
제국주의
탄두
튀김
갈아입
DAY
러시아군
골짜기
아득
빈센트
뒤쳐
태백
슬라이딩
Int
송신
##나우
365
거쳐서
갈아타
Cent
린다
방관
엠마
조문
max
악질
##라트
속사
미나토
Comp
망설이
증진
향년
현무
막혔
사드
초전
##는데
전령
벨리
티모
모리스
일괄
쓸쓸
희생양
Match
타케루
앤드류
부기
##툭튀
선글라스
##시즘
지쳐
##홍철
골고루
##영향
수송선
모로코
료마
클로버
Ass
갑툭튀
거행
극성
은가
코일
코로
216
대구광역시
최형
두개골
백두
지탱
##26
보급품
바깥쪽
맡겼
변모
제드
블루투스
반주
총구
명장면
검출
데니스
내줬
"'
미용
사생
거니와
물음
Yes
욕먹
초필
충무
템플러
명실
밴쿠버
본거지
자결
##건설
##탕스
370
레지스탕스
끊이
언락
왕성
구라
다량
동아일보
마공
프리드
막론
파기
리더십
say
블랑
시베리아
NAS
최하위
폴라
서프
여명
정한다
행세
Fla
증강
사업가
레프트
right
사주
알제리
이남
자판기
복식
메두사
어부
재규어
걸치
격납
매지컬
이문
암흑기
저질러
재발
푸른색
덕택
미공
수속
승하
정대
##렁이
서유
토토
두른
만년
코칭
도망친다
떠올랐
kr
매매
양육
##세이더
크루세이더
경전차
텐더
해발
달한다
세레나
소란
한복
##열차
##ude
교제
##데라
##독부
포상
메르시
어진
자릿
##맹이
이달
전위
CIA
블레
##원지
##천리
장기전
Ook
##내셔널
인터내셔널
부르크
사파이어
좌완
드래그
광동
하버드
포레스트
PvP
잠식
##ata
레오나
약해서
찍혀
베이커
SUP
##공주
에어컨
아츠시
봐라
사서
왕세
토사
하남
구실
##큐버스
케로로
오카다
수혜
시오리
공안
사력
연화
폐위
선역
시연
Last
아날
몽땅
XY
에러
총애
호우
상승세
시종일관
우즈베
거미줄
동맹군
IF
보호자
척추
밀가루
차오
이터널
개찰
부술
장담
화판
##고스
TWICE
무안타
결투장
누님
슬러
차갑
현질
바드
부전
처방
##ius
북서쪽
쟁탈전
거유
명왕
래리
크로노스
떨어진다는
헤븐
##스코
카메오
소름
양지
쿠퍼
명은
화질
##집니다
자멸
급상승
아랍어
플레인
마실
야구단
도입부
440
정윤
공중전
막시
어쩐
미약
나카노
##III
빅토리
##이프
##red
부적절
수뇌부
배반
유족
마운틴
난장
적기
나온다고
세비
자치령
##나시
하반신
였으므로
기어이
간직
벗어났
의존도
입니까
추상
순삭
##오피아
에티오피아
팰리스
이강
불발
Core
BRV
무소
##ets
달린다
퇴임
자백
크리에이터
될수록
정보원
늘릴
지도부
이룰
한국군
Mir
Show
죽임
##76
##ated
납품
시라이
보이드
there
스맥
좌상
발병
##매치
##ara
두각
왕정
이긴다
철퇴
카트리
관세
츠바키
감찰
석가
아이젠
배급사
돌기
최장
필승
예매
원반
국내외
스맥다운
덤비
쌍용
공민
비잔
Nor
네로
데스매치
1908
##페어
취할
편도
조선소
가했
원성
백룡
센트리
##cl
사이먼
깜빡
임페
신약
질수록
피칭
쉬우
장려
##가타
his
배운다
걷어
아리사
HOT
정몽
프론티어
나트
우대
크리드
들이대
소모품
MI
수전
저축
횡령
승낙
또래
갈구
보름
시어터
악수
얌전
퇴마
바이퍼
##44
##테리어
보좌관
대북
견고
묵직
테츠야
능하
끝낼
판과
리비
적도
아레스
호화
pe
##천역
밝혀져
가넷
오보
micro
끝낸
신격
자가
필적
잔재
바운드
##일기
슬로건
성단
솔루션
물류
엘소드
에노
모탈
위아
##ely
반려
수박
슬래시
연하
연못
tw
승승
원자로
몰입
통근
노태우
밀린
##산군
무방비
Mark
문인
쿠도
투석
시녀
##테면
컨퍼런스
##거스
저항군
신빙
폰트
전문학교
변속기
오산
란다
미얀마
노획
후지와라
얼룩
커맨더
If
##이즈미
이를테면
##UST
빈곤
소나무
제복
충공
근위
컬링
갇히
비열
다크니스
에어리어
각별
뜬공
Art
지명타자
Best
레니
First
차린
##임수
##영수
이니셜
고른
팝픈
혈관
팝픈뮤직
깔리
쿠폰
RPM
수제
허술
난쟁이
##디난
##선다
엮인
이탈리아어
스케이트
Sur
블리츠
서태지
got
남산
##KO
오클랜드
김소
악영향
터프
튀어나온
##워했
삼국사기
호르몬
해낼
How
험한
놓이
##더스트
가늠
맨날
베아
빨라서
그제서야
파주
첨부
액수
돌봐
재미없
크리스티안
who
들려주
시미즈
츠치
틈새
##스기
##OCK
용왕
id
큰일
허벅지
식인
여운
커져
칼리지
-.
부피
직면
통찰
금서
Sl
고뇌
쓴다는
열광
Christ
언론인
##85
Ap
어딜
히이
근방
인플레
평하
219
##INE
이대호
심해서
위안부
감마
이형
피그
##니르
분출
샤르
간절
연합국
압둘
이규
##넘기
가르시아
중론
페달
훈련소
구미호
##ga
부토
푸쉬
아스타
알몸
웨딩
후카
자유당
##udio
해밀턴
어쩌다
틀어막
##질러
##ERF
문관
사하
무리수
평의회
머릿속
토코
거라
한족
시리우스
비타민
린치
Down
소폭
김신
난징
복각
급속도
RED
망할
중화기
FFFFFF
임페리얼
저음
남친
곧장
정시
스피리
책봉
Never
NA
엿볼
졸라
##푸르트
동급생
추론
갈려
##ric
유창
Sam
투르크
포메
950
벼락
처해
키치
낯선
민트
전황
오자
##만도
Tour
겉모습
약수
키프
마키나
말살
파탄
feel
도망칠
군세
화전
##칠리아
송병구
밤중
백과
벌일
##work
눈치챈
Free
NAT
들으며
티거
활약상
다지
추운
##통일
하이브
540
아유미
##ther
골수
금곡
닛산
덩달
시커
나오키
##ley
퍼니
내쫓
소홀
잊혀진
이조
용인시
고고학
매그넘
활발히
화룡
Na
시술
김호
단타
Side
버틴
질질
검도
뚱뚱
전우
이뤄졌
대나무
동결
장자
##세우스
마토
아이오
받아들인
##ux
지저
가르쳤
진다고
된다며
GX
화끈
416
GPS
미움
Magic
튀어나와
병신
환산
리벤
옵스
편해
##NG
##HC
##럴드
전쟁터
독단
카츠키
하쿠
분비
중의원
키쿠
일기토
나리타
궤멸
그분
와도
제동
조짐
사쿠야
사복
영수
개리
선후
한들
##다듬
치워
##erm
미니게임
동성애자
yeah
치곤
##hy
엑셀
인테리어
투수진
페이퍼
Track
몸싸움
##황후
세가
전패
겹쳐서
##요리
정치가
미완성
서동
판명
##제프
투표율
곡사
로선
외장
유역
허니
탐험가
페미니스트
이반
엄폐물
토바
트라웃
개더링
다채
형주
지석
통영
Sim
정승
박차
까다로
##사관학교
동남아
갑주
개헌
9000
직진
창시자
상서
배틀필드
정착지
내공
로토
픽처스
지하실
시속
##피드
##답시고
KN
조선총
박히
부디
전곡
검색어
진범
페라리
해설자
체크카드
KCC
라르
스커
##가르드
경비병
엠블럼
내준
다발
끝없이
태어날
톰슨
제곱
거액
동그
아재
알프레드
윤성
차인
충원
태양계
마크로스
신년
##ird
조선총독부
KA
랍시고
한미
공연장
살아온
바그너
어시
마라톤
한눈
##도스
Pol
면도
야말로
퍼블
페드로
흩어져
포식자
girl
보리스
사학
알트
성희롱
City
프리킥
노선도
PM
체하
##생물
##전쟁
조공
##스부르크
##월드
화보
대영
245
드러머
오아시스
Happy
##이인
스턴트
이뤄진
방망
공황
불계
대구경
난데
Party
##고생
##사람
##BOX
깨진
절제
축출
밧줄
##삭스
일어서
광화문
충공깽
슬립
우여
포섭
Edition
두근두근
##UL
##덱스
미우
현종
지상군
##리아스
김한
잠정
족보
플랑
##rew
##김없이
야마자키
Perf
메탈기어
AW
초계
##니컬
험악
##21
골절
재결
능욕
스러웠
평준
##소년단
비룡
야인
잊어버
짱구
캄보
##슬쩍
090
라카
멘토
오도
##디우스
벤트
##UK
청문회
라다
카르텔
의뢰인
##파일
Cap
낙동
BP
YG
클럭
넷째
쥬라기
Fall
숙지
234
고아원
di
신천
쓴다면
할지라도
물결
미코
샬롯
성시
이츠키
Final
실감
천왕
치프
옴니
초딩
콩두
엑스맨
아와
약사
코러스
##aka
선율
##코스터
가져간다
로어
아날로그
RT
모였
왔으나
그리폰
끌어당
##yes
퍼플
수사관
life
원치
후후
그러다가
EB
블룸
즐거움
박병호
차우
삽입곡
엘릭
롤러코스터
토우마
애니메이터
권하
난다고
다비드
226
싱크로
Will
신드
##ris
난장판
우디
##미트
249
알바니아
엠블렘
부우
주화
로스쿨
김하
야스오
동명이인
미식축구
송나라
아야노
규율
붙인다
##거래
판단력
마사토
포구
##달리
출국
이어주
로렌스
풀이
블로킹
PT
세바스
허다
부록
잠든
스트림
악평
안톤
메트
밀려서
위닝
##레톤
방사선
망각
##오버
##분투
시프
주지
카툰
호각
소방서
업종
북동쪽
넬슨
도봉
바알
사냥터
소나타
티라노
방탄소년단
만성
백병
Angel
호라이즌
생식
토카
남인
켈트
우선시
메가트론
RX
저명
스켈레톤
소양
카자마
길래
관현악
##해져
야구부
유승민
분양
치는
Stage
Net
뻔하
Spring
make
강진
흡입
##게스
효용
겁쟁이
이룩
적과
##린트
클라크
귀한
니퍼
여긴다
재보
맥시
##que
##arius
최원
SEED
낮춰
우먼
217
곧이어
팔렸
보이즈
함유
스테이크
오리지날
WHIP
상소
퇴직
410
참수
컬럼
들켜
찾아갔
신태
##하임
배수량
김은
방영일
BMW
올라서
증대
엘더스
제주특별
##자치도
제주특별자치도
##ONE
경순양함
카라스
##재욱
인삼
재일
동률
슈리
흉기
##tain
##곡절
사적
속주
싫어한다
린이
Boy
플랜트
보성
파비
Club
생몰
예민
우여곡절
루돌프
##ision
자행
에이미
라티
웍스
그레이브
주루
깃든
모셔
애시당초
하강
괄호
반도체
기교
론가
멈출
전자기
질려
해온
깐다
디럭스
호족
표준어
샌드위치
ff
챙겼
올레
슬라이더
발사체
다이어
도래
##모델
경부선
요가
1906
월등히
혼잡
228
ABC
BW
소품
Come
Great
사요
##str
RR
미상
빨아들
압승
##걸음
233
매료
산전
좋아했
중순양함
레바논
해낸다
향토
스러움
잔존
##폴트
라이토
계약서
##보스
최연
애니플러스
가맹
예뻐
익산
한승
##95
Cor
겨누
경멸
초라
토드
파커
캠핑
마석
기울이
리만
내용물
##ASS
검기
억양
아돌프
루기
##ader
김시
칼질
##올로
##ama
혈압
모자란
교무실
재래
##OWN
궁궐
싸인
치토
##러져
옥타브
박한
유상
잘생긴
##부사
고철
미도
과열
이보
##ague
고드
기념일
소대장
악단
양말
독살
여중
티르
보그
##신기
##블루
쓴다고
part
수만
천진
캄보디아
골격
철자
커진다
용호
중대장
미네랄
Class
황폐
트렌드
걸쳐서
타원
##ause
진기
예컨대
차크라
##팔로
##IME
스팟
편애
224
IMF
평이
뽐내
파라오
Break
MY
잠자
나왔었
Fly
투영
포커
##시장
##거렸
속임수
약품
잔소리
375
##ross
텐트
슬래
황색
##ival
실탄
연마
취항
역전재판
사우디
버금가
has
아르타
SKE
받아들인다
서주
im
Legend
아디
염동
발열
설진
친왕
##보살
바티칸
발포
버크
신진
피파
초구
항일
리제
목조
카로
자릿수
cont
산림
##겨운
Little
하자드
PH
구가
엘라
티격
경대
##바인
인원수
강대국
기보단
##브레
##ism
센고쿠
피노
사이비
##로지
##83
임재
환율
최형우
들어섰
누렸
멜리
##모트
aqu
기증
하인리히
허약
##관리
복수심
머독
##와르
열릴
내세워
시부야
기압
신승
청자
##상부
쓰여진
계신
문경
##어먹
나눈다
발하
조각상
발기
였었
위저드
코퍼
세울
골라서
자서
레볼루션
##장치
광폭
양방향
Girls
북벌
시우
틀림없
용납
우등
##att
갈라지
Univers
알아차리
클러치
발족
코우지
깨졌
집요
만우
예비역
황해
##테라
전해졌
견뎌
##IVE
코바
낙서
거든요
만악
보스니아
RB
세터
털렸
어설트
는커녕
무르
세계수
Swe
구식
아로
##불리
##erry
수송기
'~
ER
구한다
NFL
지나간
교황청
고참
못했으며
서산
키사라기
정찰기
꺼려
묻힌
승용차
회원국
fr
코요미
##대왕
공평
초음
잠겨
는다며
뮐러
사춘
김구라
나설
시급
파워레인저
강정
이트
John
EXO
조동
잖아요
프랑크푸르트
은색
모금
별거
아누
APC
윤종신
폭언
보아
수목
심복
김규
로젠
숨결
이완
치하
##피온
머물러
##르슈
##네즈
연합회
빙글
대주교
아소
전주시
도네
##도어
내세운
카자흐스탄
몬트리
박원
##슐리
never
몬트리올
출진
301
내려서
음료수
녹스
떨치
레인저스
셔먼
스틸러스
비방
##교사
코미디언
모차
찍히
출연자
글래스
포메이션
마이티
린드
남아메리카
우왕
목장
##uch
아슈
증표
냉혹
again
비야
에마
천자
초심
성우진
바이트
만우절
야나기
##래스카
순회
##구멍
##매김
해부
평야
피했
##트릭
heart
이바라
##티티
Gl
몰두
후사
두터
빈민
추축
치솟
##헤드
우려먹
자객
컵스
자리매김
CGV
미스테리
개전
오거
몰아붙이
호위함
위아래
광해군
오정
스테판
크로스오버
시메
227
폭넓
하동
나아지
##ords
PRO
브록
정민
헌트
망가진
Mem
Take
러스트
호문
악연
이면
거침
올인
착안
하로
##시온
##전함
마사히로
도요토미
견딜
램지
봄버
히다
##충류
레이카
겨냥
히브리
성소
어웨이
국보
##서니
매기
사츠키
사춘기
무예
헤엄
노홍철
실록
담보
스탬
##샤인
취한다
조슈아
TBS
명지
쇼타
패해
강국
쇼코
390
1913
악세사리
대기실
비평가
em
##로그램
헤이세이
에버튼
통폐
건축가
미공개
보류
지원군
눈보라
볶음
##람회
원사
인계
한판
모자이크
낙양
놓쳤
로트
살피
사이다
라몬
512
교묘
범하
화성시
니르
데인
윤영
##ubl
강희
화합물
라이엇
우울증
요령
제때
##마니
매튜
1909
비우
아토
차고
오우거
은신처
레티
루시안
캔자스
프렌드
남겨진
##베트남
동탄
##조림
##칼리버
징집
비견
휴지
지식인
나아졌
갔으나
제천
프로토콜
괴이
생생
가져올
가한
미시마
이여
숙박
시끄럽
질리
sk
북위
브리지
정설
줄무늬
서신
점성
편향
##브론
슬프
가할
대련
에라
임정
1915
돌려서
마방
스미레
고야
교명
이리스
익힌
정치력
알라딘
중종
가둬
대니얼
남동쪽
##포동
은빛
011
시켰으며
무함
인턴
키는
토치
xx
갈비
계엄
유권자
기다려야
정근
##body
Cry
mA
뻔뻔
##링턴
의약품
오승
오컬
큐트
저상버스
Hol
가온
도가
어르
1700
타쿠야
근황
의결
##정리
각광
맹렬
힘내
북아메리카
마레
반입
##숭아
선가
나오미
흘렸
견습
##토모
##ital
김종국
유키노
크류
흑색
뜬금없
모하
철혈
제네레이션
에디터
대성공
사칭
총수
##apan
스냅드래곤
수첩
칭한다
뜻밖
돌변
종파
품목
##세움
##주니어
쌍검
##어야
딸리
맹수
원가
정명훈
분파
식용
활력
시티즌
위드
페가수스
애착
양양
##로리
ISO
내분
재기
나타낸
내려간
장지
개표
##iny
크리스티나
시트콤
울산광역시
알려준
EPL
풀려나
반공
쿄스케
타도
##넌트
나크
마르셀
거래소
빼앗겼
ad
달릴
모사
반쪽
지킨
##ura
더듬
투덜
폐업
##뉴스
OO
예거
주선
##시간
##전대
훔친
서대문
통폐합
나성
##박혀
비터
전압
시칠리아
##ople
기권
둔기
뚫려
아틀란
재계
키시
##ler
##cy
김종민
귀속
숙제
띈다
##마을
here
아린
폐인
##REME
Ho
간과
오컬트
마르티
Gal
도맡
DSP
오사무
어썰
어썰트
뉴타입
담원
당겨
허물
Sn
이븐
넘어선
클레멘
니콜라스
1904
##DDR
오현
##펠러
문예
트인
크레인
##스틱
관람객
747
꼬박
푸시
Ind
OM
무마
Mbps
##라이어티
HR
~?
경복
버라이어티
##oun
테드
표류
슬로바키아
기금
씌워
타오
둘째치
bb
정박
쾌락
펠릭스
남서쪽
군청
##ino
바닷가
데미안
##수염
강해진다
전조
카오
인기가요
##훈련
##irect
소외
손발
김장
사오
치러진
naver
매크로
날아갔
MUS
에너
##메이트
거둔다
\]
동자
릴레이
내레이션
야요
헤어진
##78
합숙
공소
풀타임
아쉬웠
기념관
##TH
##IO
##려야
##팽이
요르단
보여진다
로더
시제
엄연
여차
일면
카즈미
GTX
도넛
자물
스러울
입점
확진
느려서
모용
상층
씌우
231
다이노
단결
커진
세이야
어울린다
체이서
성북
역도
##십자
설리
##길이
전광판
고온
방아
오라클
FO
루가
트리니티
노미야
증식
추격전
|[
우즈베키스탄
Real
프레데터
aquarius
사고방식
1916
인제
일전
흐른
##가키
자물쇠
Rad
선샤인
마스터즈
##aker
끈질기
bo
백스
운하
무트
NORM
상역
조경
252
SMG
when
류우
지효
##소연
급감
응하
튀르크
환장
꽃잎
금세
당부
단호
접한다
진중
가비
완주
##후미
타카히로
닛폰
때렸
사각형
섬뜩
염증
라이덴
경비대
Sou
강급
그늘
##by
##AE
식구
컬트
실물
암묵
교통부
닷컴
역적
짝퉁
238
서바이버
트롤링
특혜
##식물
백종
서강
아라시
나카지마
선단
가까울
장시간
gu
그딴
노노
주지사
수학자
꺼져
타일러
파헤
let
숙이
툭하면
Aut
##lex
순전히
아오키
중용
##UD
NORMAL
친일파
코스모스
딸려
베풀
이동기
When
이따금
야요이
조만
질책
덮치
열대
협주곡
신뢰도
신해
지으
##줄기
아이파크
430
좁혀
any
##유예
주변인
돌려받
계주
데이지
기대감
다리우스
가락
뿌요
주조
##어져서
선보인다
Park
만신
손길
명심
Single
##BY
무함마드
새턴
스쿠
이코
