▁▃ -0
▁이 -1
▁. -2
▁에 -3
▁는 -4
▁다 -5
▁의 -6
▁을 -7
▁하 -8
▁가 -9
▁, -10
▁한 -11
▁고 -12
▁를 -13
▁은 -14
▁1 -15
▁지 -16
▁으 -17
▁도 -18
▁기 -19
▁있 -20
▁2 -21
▁로 -22
▁아 -23
▁그 -24
▁에서 -25
▁으로 -26
▁사 -27
▁인 -28
▁시 -29
▁어 -30
▁들 -31
▁대 -32
▁라 -33
▁수 -34
▁게 -35
▁보 -36
▁자 -37
▁나 -38
▁일 -39
▁되 -40
▁전 -41
▁해 -42
▁었 -43
▁과 -44
▁- -45
▁면 -46
▁적 -47
▁마 -48
▁것 -49
▁만 -50
▁스 -51
▁3 -52
▁와 -53
▁주 -54
▁했 -55
▁정 -56
▁부 -57
▁상 -58
▁모 -59
▁20 -60
▁때 -61
▁' -62
▁공 -63
▁년 -64
▁한다 -65
▁: -66
▁여 -67
▁경 -68
▁제 -69
▁유 -70
▁중 -71
▁된 -72
▁오 -73
▁위 -74
▁없 -75
▁소 -76
▁4 -77
▁지만 -78
▁무 -79
▁비 -80
▁성 -81
▁등 -82
▁거 -83
▁할 -84
▁않 -85
▁5 -86
▁에게 -87
▁던 -88
▁개 -89
▁미 -90
▁0 -91
▁조 -92
▁세 -93
▁며 -94
▁바 -95
▁" -96
▁서 -97
▁월 -98
▁201 -99
▁장 -100
▁/ -101
▁방 -102
▁내 -103
▁동 -104
▁선 -105
▁카 -106
▁연 -107
▁구 -108
▁타 -109
▁신 -110
▁안 -111
▁영 -112
▁말 -113
▁생 -114
▁후 -115
▁화 -116
▁당 -117
▁리 -118
▁발 -119
▁버 -120
▁진 -121
▁까 -122
▁차 -123
▁는데 -124
▁레 -125
▁더 -126
▁때문 -127
▁6 -128
▁원 -129
▁파 -130
▁강 -131
▁우 -132
▁10 -133
▁명 -134
▁실 -135
▁최 -136
▁까지 -137
▁노 -138
▁문 -139
▁불 -140
▁번 -141
▁데 -142
▁7 -143
▁같 -144
▁단 -145
▁였 -146
▁라고 -147
▁라는 -148
▁포 -149
▁회 -150
▁! -151
▁된다 -152
▁관 -153
▁받 -154
▁S -155
▁특 -156
▁8 -157
▁많 -158
▁결 -159
▁초 -160
▁반 -161
▁았 -162
▁다고 -163
▁작 -164
▁드 -165
▁알 -166
▁역 -167
▁프 -168
▁19 -169
▁면서 -170
▁처 -171
▁배 -172
▁코 -173
▁계 -174
▁9 -175
▁경우 -176
▁피 -177
▁분 -178
▁공격 -179
▁남 -180
▁추 -181
▁함 -182
▁건 -183
▁아니 -184
▁A -185
▁다는 -186
▁물 -187
▁사용 -188
▁출 -189
▁본 -190
▁국 -191
▁못 -192
▁야 -193
▁현 -194
▁자신 -195
▁크 -196
▁달 -197
▁매 -198
레이 -199
▁편 -200
▁좋 -201
▁M -202
▁치 -203
▁입 -204
▁이후 -205
▁니 -206
▁점 -207
▁패 -208
▁감 -209
▁% -210
▁호 -211
▁요 -212
▁트 -213
▁학 -214
▁교 -215
▁따 -216
▁두 -217
▁정도 -218
▁재 -219
▁사람 -220
▁저 -221
▁메 -222
▁통 -223
▁C -224
▁예 -225
▁그리 -226
▁또 -227
▁속 -228
▁플 -229
스트 -230
▁B -231
▁가능 -232
▁T -233
▁김 -234
▁설 -235
▁캐 -236
▁걸 -237
▁참 -238
▁형 -239
▁평 -240
▁등장 -241
▁~ -242
▁D -243
▁다른 -244
▁부터 -245
▁군 -246
▁+ -247
▁쓰 -248
▁돌 -249
▁? -250
▁토 -251
▁살 -252
▁죽 -253
▁올 -254
▁이나 -255
▁종 -256
▁12 -257
▁음 -258
▁으며 -259
▁아이 -260
▁승 -261
▁체 -262
▁보다 -263
▁권 -264
▁게임 -265
▁외 -266
▁키 -267
▁는다 -268
▁팀 -269
▁간 -270
▁판 -271
▁.. -272
er -273
▁200 -274
▁11 -275
▁잘 -276
▁직 -277
▁루 -278
▁용 -279
▁L -280
▁그리고 -281
00 -282
▁해서 -283
▁네 -284
▁맞 -285
▁확 -286
▁심 -287
▁애 -288
▁하나 -289
▁행 -290
▁사실 -291
▁경기 -292
▁변 -293
▁필 -294
in -295
▁박 -296
▁운 -297
▁듯 -298
▁테 -299
▁시간 -300
▁F -301
▁엔 -302
▁날 -303
▁다가 -304
▁P -305
▁뒤 -306
▁위해 -307
▁투 -308
▁디 -309
니다 -310
▁모습 -311
▁목 -312
▁히 -313
▁베 -314
▁집 -315
▁언 -316
▁높 -317
지만 -318
▁약 -319
▁대한 -320
▁이상 -321
▁G -322
▁활 -323
▁순 -324
▁사이 -325
▁이름 -326
▁준 -327
▁각 -328
▁그러 -329
▁표 -330
▁상대 -331
▁양 -332
▁나오 -333
▁E -334
▁클 -335
스터 -336
an -337
▁능 -338
▁려 -339
▁시작 -340
▁볼 -341
▁하지만 -342
▁존 -343
▁효 -344
▁문제 -345
on -346
▁15 -347
▁잡 -348
▁일본 -349
▁함께 -350
▁어서 -351
▁거나 -352
▁힘 -353
▁왕 -354
▁손 -355
▁증 -356
▁생각 -357
▁병 -358
▁겠 -359
▁별 -360
▁너 -361
▁난 -362
▁한국 -363
▁으면 -364
▁다시 -365
▁임 -366
▁# -367
▁캐릭 -368
▁H -369
▁합 -370
▁브 -371
▁막 -372
▁R -373
▁완 -374
▁천 -375
▁만들 -376
▁K -377
▁폭 -378
▁열 -379
▁끝 -380
▁캐릭터 -381
▁들어 -382
▁능력 -383
대로 -384
▁프로 -385
▁t -386
▁총 -387
▁플레이 -388
▁독 -389
▁블 -390
▁I -391
▁시즌 -392
▁먹 -393
▁N -394
▁스킬 -395
▁항 -396
▁페 -397
▁처럼 -398
이트 -399
▁근 -400
▁커 -401
▁광 -402
▁줄 -403
▁추가 -404
▁복 -405
▁m -406
▁가지 -407
▁식 -408
▁상황 -409
▁검 -410
▁가장 -411
▁친 -412
▁새 -413
▁태 -414
▁쿠 -415
▁또한 -416
▁카드 -417
▁삼 -418
or -419
▁따라 -420
미지 -421
▁상태 -422
▁채 -423
▁누 -424
▁당시 -425
▁느 -426
▁모두 -427
▁빠 -428
ar -429
▁결국 -430
▁백 -431
▁충 -432
▁효과 -433
▁길 -434
▁산 -435
▁다만 -436
▁터 -437
▁곡 -438
▁업 -439
▁앞 -440
▁모든 -441
▁얼 -442
▁18 -443
▁16 -444
▁티 -445
▁보여 -446
▁악 -447
▁그런 -448
▁넘 -449
▁금 -450
▁많이 -451
▁눈 -452
▁보이 -453
▁O -454
▁러 -455
▁전투 -456
▁30 -457
at -458
▁시리 -459
▁및 -460
▁급 -461
▁될 -462
▁온 -463
▁민 -464
▁13 -465
▁그래 -466
▁선수 -467
▁s -468
he -469
▁레벨 -470
▁슈 -471
▁세계 -472
▁싸 -473
▁] -474
▁머 -475
▁W -476
▁존재 -477
▁케 -478
라이 -479
▁나온 -480
▁14 -481
▁습 -482
▁현재 -483
▁[ -484
▁라이 -485
▁골 -486
▁큰 -487
▁매우 -488
▁시리즈 -489
▁취 -490
▁으나 -491
▁무기 -492
▁상당 -493
▁긴 -494
▁갈 -495
▁스타 -496
▁물론 -497
▁그러나 -498
▁팬 -499
▁다면 -500
▁레이 -501
▁첫 -502
▁절 -503
▁마법 -504
▁극 -505
▁탄 -506
en -507
▁엄 -508
인다 -509
므로 -510
▁c -511
▁찾 -512
▁황 -513
▁얻 -514
▁17 -515
▁그렇 -516
▁자체 -517
▁창 -518
▁기술 -519
▁뿐 -520
▁100 -521
▁밀 -522
▁이런 -523
▁00 -524
▁실제 -525
▁청 -526
▁탈 -527
▁주인 -528
▁아닌 -529
▁해야 -530
▁피해 -531
▁이유 -532
으나 -533
▁25 -534
▁벌 -535
▁관련 -536
▁허 -537
ou -538
▁떨 -539
거리 -540
▁같이 -541
▁시키 -542
▁V -543
al -544
이지 -545
린다 -546
▁이용 -547
▁필요 -548
▁여기 -549
▁U -550
▁방송 -551
▁다음 -552
▁해당 -553
▁인데 -554
▁기본 -555
▁인지 -556
▁몬 -557
▁철 -558
▁지역 -559
▁바로 -560
▁법 -561
▁역시 -562
▁질 -563
▁처음 -564
▁워 -565
▁대해 -566
▁기록 -567
▁곳 -568
▁방어 -569
▁돌아 -570
▁일반 -571
▁거의 -572
▁환 -573
▁째 -574
▁잠 -575
▁귀 -576
▁혼 -577
▁몰 -578
▁이야 -579
▁2017 -580
리스 -581
▁199 -582
▁둘 -583
▁북 -584
▁범 -585
▁대학 -586
▁아무 -587
▁글 -588
이스 -589
으며 -590
▁좀 -591
▁냐 -592
▁2018 -593
▁붙 -594
▁사건 -595
▁여러 -596
▁놓 -597
▁미국 -598
▁에선 -599
▁격 -600
▁특히 -601
▁이야기 -602
▁란 -603
▁는지 -604
▁밖 -605
진다 -606
▁엘 -607
▁k -608
▁없이 -609
▁부분 -610
▁싶 -611
▁떨어 -612
▁진행 -613
리아 -614
es -615
▁영화 -616
지막 -617
▁학교 -618
▁통해 -619
▁본인 -620
▁달리 -621
▁인간 -622
▁헤 -623
▁아서 -624
▁못하 -625
▁참고 -626
▁2019 -627
▁증가 -628
▁즉 -629
it -630
▁버리 -631
▁담 -632
▁라면 -633
▁슬 -634
▁풀 -635
▁리그 -636
▁해도 -637
▁주인공 -638
부분 -639
▁든 -640
▁제작 -641
▁만큼 -642
▁마지막 -643
▁자기 -644
▁속도 -645
▁몸 -646
▁작품 -647
▁그냥 -648
▁21 -649
▁덕 -650
▁50 -651
▁X -652
▁밝 -653
▁내용 -654
▁보인다 -655
▁2016 -656
▁공격력 -657
▁계속 -658
▁수준 -659
▁대표 -660
▁대부분 -661
▁인물 -662
▁접 -663
▁& -664
▁개요 -665
is -666
▁암 -667
re -668
▁몇 -669
▁올라 -670
▁팔 -671
▁떠 -672
전히 -673
▁쪽 -674
▁어느 -675
▁위치 -676
▁비슷 -677
▁w -678
▁동안 -679
▁딜 -680
▁습니다 -681
어나 -682
▁대신 -683
▁22 -684
▁국가 -685
▁인해 -686
le -687
▁지금 -688
토리 -689
▁홈 -690
▁상당히 -691
▁평가 -692
▁축 -693
▁기사 -694
▁활동 -695
▁관계 -696
▁일부 -697
▁타이 -698
▁우리 -699
▁이전 -700
▁낮 -701
▁영상 -702
▁J -703
▁보스 -704
▁d -705
▁울 -706
▁서울 -707
한다 -708
▁규 -709
▁너무 -710
▁그대로 -711
▁체력 -712
▁24 -713
▁퍼 -714
▁마다 -715
▁유닛 -716
▁감독 -717
▁최대 -718
▁맡 -719
▁문서 -720
▁성공 -721
▁괴 -722
▁기준 -723
▁시절 -724
▁논 -725
▁홍 -726
ing -727
▁넣 -728
▁먼 -729
ic -730
▁제외 -731
▁f -732
▁데미지 -733
▁므로 -734
▁망 -735
▁중국 -736
▁몬스터 -737
▁츠 -738
as -739
▁실제로 -740
▁바람 -741
▁유저 -742
▁설정 -743
▁b -744
▁결과 -745
▁맨 -746
▁대로 -747
▁뛰 -748
▁정보 -749
▁멤 -750
▁그녀 -751
다가 -752
▁센 -753
시아 -754
▁전쟁 -755
▁지원 -756
▁승리 -757
▁이미 -758
▁23 -759
▁멤버 -760
▁2015 -761
▁소속 -762
▁자리 -763
▁언급 -764
▁쓸 -765
▁빌 -766
▁님 -767
▁애니 -768
▁원래 -769
▁칼 -770
▁도록 -771
▁40 -772
▁직접 -773
▁으니 -774
▁성우 -775
버지 -776
▁컨 -777
▁설명 -778
▁링 -779
▁육 -780
▁선택 -781
▁이동 -782
▁전체 -783
▁의미 -784
▁쉽 -785
▁도시 -786
▁마음 -787
▁a -788
▁여자 -789
운드 -790
▁씩 -791
▁희 -792
▁다르 -793
▁봐 -794
▁과거 -795
▁돈 -796
▁나온다 -797
▁머리 -798
▁협 -799
▁< -800
랜드 -801
▁봉 -802
▁엄청 -803
▁플레이어 -804
▁들어가 -805
▁묘 -806
▁친구 -807
▁갑 -808
▁방법 -809
▁) -810
▁늘 -811
▁나타 -812
▁측 -813
▁아이템 -814
▁장면 -815
라도 -816
▁됐 -817
▁출연 -818
▁뉴 -819
이션 -820
▁나왔 -821
▁나가 -822
▁준다 -823
▁버전 -824
▁차이 -825
▁스토리 -826
▁새로 -827
om -828
▁소리 -829
▁p -830
am -831
▁탑 -832
▁h -833
▁향 -834
가지 -835
▁꽤 -836
▁즈 -837
▁깨 -838
▁놀 -839
▁대사 -840
이드 -841
▁비해 -842
▁사랑 -843
▁혹 -844
▁모드 -845
▁공식 -846
▁압 -847
▁프리 -848
벤트 -849
▁이것 -850
▁조금 -851
▁빨 -852
▁당하 -853
▁송 -854
▁개발 -855
▁갖 -856
▁198 -857
▁거리 -858
▁대상 -859
▁초반 -860
el -861
▁책 -862
▁지나 -863
학교 -864
▁전부 -865
▁파이 -866
▁버스 -867
▁o -868
▁연구 -869
▁씨 -870
▁려고 -871
▁침 -872
▁이어 -873
▁답 -874
▁남자 -875
▁이벤트 -876
▁최고 -877
▁만든 -878
▁제대로 -879
▁로서 -880
▁쇼 -881
▁속성 -882
▁사라 -883
▁26 -884
▁궁 -885
▁알려 -886
▁2014 -887
▁동시 -888
▁n -889
▁여성 -890
▁듣 -891
▁강화 -892
▁파괴 -893
▁유명 -894
▁기타 -895
이도 -896
▁나이 -897
▁정말 -898
▁잔 -899
▁층 -900
▁아버지 -901
▁스테 -902
▁28 -903
▁쉬 -904
▁역사 -905
▁류 -906
▁드래 -907
▁색 -908
▁소환 -909
▁성능 -910
▁찍 -911
▁자주 -912
▁학생 -913
▁the -914
▁27 -915
▁아직 -916
▁샤 -917
▁최종 -918
▁의해 -919
▁운영 -920
▁앨 -921
▁왜 -922
▁이렇 -923
▁우승 -924
▁모르 -925
▁회복 -926
▁석 -927
▁멀 -928
▁후반 -929
▁당연 -930
▁31 -931
▁= -932
▁출신 -933
▁농 -934
▁마이 -935
▁그런데 -936
▁특성 -937
▁라도 -938
▁인터 -939
▁강력 -940
▁한다는 -941
▁공개 -942
▁이때 -943
부터 -944
▁마리 -945
▁확률 -946
▁서로 -947
▁사망 -948
▁유지 -949
리어 -950
▁콘 -951
▁주로 -952
▁노래 -953
▁착 -954
▁그것 -955
▁움 -956
▁노선 -957
어난 -958
▁발매 -959
▁했으나 -960
▁턴 -961
▁시켜 -962
ol -963
▁위한 -964
▁방식 -965
▁나라 -966
▁슈퍼 -967
▁발생 -968
▁써 -969
▁라인 -970
▁000 -971
▁마찬 -972
▁마찬가지 -973
▁정신 -974
▁특수 -975
▁시스 -976
▁결정 -977
▁오히 -978
▁영향 -979
▁끌 -980
▁대전 -981
▁월드 -982
▁오히려 -983
▁솔 -984
▁빼 -985
ion -986
et -987
▁변경 -988
▁비교 -989
▁포함 -990
▁영웅 -991
▁장비 -992
▁기존 -993
ac -994
른다 -995
▁역할 -996
▁배우 -997
▁수록 -998
▁게다가 -999
▁드라 -1000
▁보통 -1001
▁인기 -1002
▁어떤 -1003
▁르 -1004
머니 -1005
▁뜻 -1006
▁작중 -1007
▁32 -1008
▁억 -1009
▁섬 -1010
▁그래도 -1011
▁마을 -1012
▁차량 -1013
▁중요 -1014
▁아예 -1015
▁가진 -1016
▁형태 -1017
▁Y -1018
▁술 -1019
▁일단 -1020
▁성격 -1021
▁좌 -1022
▁싱 -1023
▁행동 -1024
▁세트 -1025
▁그래서 -1026
▁이번 -1027
▁버렸 -1028
▁난이도 -1029
▁못했 -1030
▁이루 -1031
il -1032
us -1033
▁29 -1034
프트 -1035
▁부르 -1036
▁과정 -1037
▁주장 -1038
우스 -1039
▁모양 -1040
▁흑 -1041
▁맵 -1042
▁액 -1043
▁v -1044
ig -1045
▁졌 -1046
▁심지 -1047
ow -1048
▁이러 -1049
▁빈 -1050
▁시대 -1051
▁음악 -1052
▁부족 -1053
▁대회 -1054
▁뽑 -1055
레이드 -1056
▁끼 -1057
ed -1058
▁최초 -1059
▁2013 -1060
▁심지어 -1061
민국 -1062
▁사회 -1063
▁구성 -1064
▁윤 -1065
▁빛 -1066
▁이렇게 -1067
▁발동 -1068
▁왔 -1069
▁숨 -1070
▁스트 -1071
▁입장 -1072
▁찾아 -1073
▁만나 -1074
▁풍 -1075
▁휴 -1076
▁폐 -1077
▁확인 -1078
간다 -1079
▁l -1080
▁힘들 -1081
▁유일 -1082
▁가까 -1083
▁거기 -1084
▁어려 -1085
▁넘어 -1086
▁다이 -1087
▁칸 -1088
▁바이 -1089
▁사진 -1090
▁먼저 -1091
▁획 -1092
▁정치 -1093
▁애니메 -1094
▁x -1095
▁흔 -1096
▁응 -1097
▁어떻 -1098
▁60 -1099
▁아래 -1100
▁항목 -1101
▁활약 -1102
▁여담 -1103
▁조건 -1104
▁자세 -1105
▁모델 -1106
▁훈 -1107
▁원작 -1108
▁콜 -1109
▁시킨 -1110
▁덕분 -1111
▁이제 -1112
▁35 -1113
▁득 -1114
▁바뀌 -1115
▁곤 -1116
▁하이 -1117
▁시스템 -1118
▁녹 -1119
▁완전히 -1120
▁대한민국 -1121
id -1122
▁굉 -1123
▁주변 -1124
▁Lv -1125
▁감소 -1126
▁드러 -1127
▁합니다 -1128
▁어야 -1129
▁뭐 -1130
▁프랑 -1131
인트 -1132
▁내려 -1133
▁자유 -1134
▁챔 -1135
▁순간 -1136
▁독일 -1137
▁명칭 -1138
▁라며 -1139
ay -1140
▁따르 -1141
▁갤 -1142
▁얼굴 -1143
▁메이 -1144
▁전혀 -1145
▁푸 -1146
▁2012 -1147
▁관리 -1148
ad -1149
▁애니메이션 -1150
▁잃 -1151
▁경찰 -1152
▁특징 -1153
▁우주 -1154
▁자동 -1155
▁차지 -1156
▁01 -1157
버스 -1158
▁웨 -1159
▁부대 -1160
▁적용 -1161
▁교육 -1162
▁영어 -1163
나마 -1164
▁굉장 -1165
▁가격 -1166
▁듀 -1167
▁r -1168
▁더라도 -1169
▁정부 -1170
▁패배 -1171
▁뮤 -1172
▁of -1173
▁드래곤 -1174
▁고등 -1175
▁아군 -1176
▁마스터 -1177
▁실패 -1178
▁다니 -1179
▁기간 -1180
없이 -1181
▁그렇게 -1182
▁쳐 -1183
소드 -1184
▁개인 -1185
▁오브 -1186
▁생산 -1187
▁짓 -1188
▁앨범 -1189
ot -1190
▁얼마 -1191
▁죠 -1192
▁한다고 -1193
▁건물 -1194
▁시점 -1195
ve -1196
and -1197
▁아들 -1198
▁그나마 -1199
▁견 -1200
▁새로운 -1201
▁혹은 -1202
▁하루 -1203
▁지속 -1204
▁상승 -1205
▁덱 -1206
주의 -1207
▁벨 -1208
▁기능 -1209
▁밖에 -1210
▁국내 -1211
▁처리 -1212
▁작가 -1213
▁지구 -1214
▁기억 -1215
디오 -1216
▁딸 -1217
▁TV -1218
레스 -1219
▁획득 -1220
▁휘 -1221
▁발견 -1222
▁패치 -1223
▁에피 -1224
▁실력 -1225
▁반응 -1226
▁y -1227
▁제국 -1228
▁소개 -1229
▁위해서 -1230
▁정확 -1231
▁도움 -1232
너지 -1233
▁퀘 -1234
▁참조 -1235
▁랭 -1236
▁익 -1237
▁만화 -1238
▁영국 -1239
▁동일 -1240
▁보내 -1241
▁킹 -1242
20 -1243
▁홀 -1244
▁대학교 -1245
▁선발 -1246
▁현대 -1247
▁랑 -1248
▁반대 -1249
▁조차 -1250
▁어도 -1251
▁맛 -1252
▁담당 -1253
ch -1254
▁그림 -1255
▁땅 -1256
▁출시 -1257
▁맥 -1258
▁계획 -1259
▁에피소드 -1260
▁기관 -1261
▁초기 -1262
▁쿨 -1263
▁량 -1264
▁드라마 -1265
▁아마 -1266
▁세대 -1267
▁단계 -1268
▁밤 -1269
▁움직 -1270
▁쓴 -1271
▁다며 -1272
▁딱 -1273
▁한테 -1274
un -1275
▁헌 -1276
▁라서 -1277
▁판매 -1278
▁또는 -1279
▁범위 -1280
▁가져 -1281
▁폴 -1282
▁헬 -1283
▁했으며 -1284
▁퇴 -1285
소리 -1286
▁37 -1287
▁버프 -1288
▁시청 -1289
▁The -1290
▁틀 -1291
▁2010 -1292
▁졸 -1293
BS -1294
▁패턴 -1295
▁싸우 -1296
▁회사 -1297
▁g -1298
▁탐 -1299
▁빠르 -1300
▁데이 -1301
▁폭발 -1302
▁문화 -1303
▁상위 -1304
▁시기 -1305
▁표현 -1306
▁나와 -1307
▁물리 -1308
▁따라서 -1309
▁등급 -1310
▁대미지 -1311
▁요구 -1312
▁무시 -1313
▁겨 -1314
▁타입 -1315
▁확실 -1316
▁수비 -1317
▁80 -1318
▁어떻게 -1319
▁500 -1320
▁라운드 -1321
▁웃 -1322
▁사고 -1323
▁죽이 -1324
▁진짜 -1325
▁굉장히 -1326
▁St -1327
▁인정 -1328
▁돼 -1329
▁스페 -1330
▁이미지 -1331
▁45 -1332
▁경험 -1333
▁발사 -1334
▁가족 -1335
▁어디 -1336
▁불리 -1337
▁아야 -1338
ER -1339
▁생활 -1340
▁주의 -1341
▁컴 -1342
▁소모 -1343
▁려는 -1344
▁파워 -1345
▁09 -1346
▁밝혀 -1347
▁낙 -1348
▁묘사 -1349
▁세이 -1350
▁* -1351
▁족 -1352
▁특별 -1353
▁활용 -1354
▁굴 -1355
▁아주 -1356
▁율 -1357
▁오리 -1358
▁줬 -1359
▁중앙 -1360
▁펼 -1361
▁대체 -1362
▁연기 -1363
▁02 -1364
▁방향 -1365
▁03 -1366
dd -1367
▁디자 -1368
▁듯이 -1369
▁197 -1370
▁으로서 -1371
▁진출 -1372
로스 -1373
▁운동 -1374
▁km -1375
▁싸움 -1376
▁트리 -1377
▁한정 -1378
▁중간 -1379
▁히로 -1380
▁믿 -1381
▁꿈 -1382
▁엑 -1383
▁프랑스 -1384
▁데뷔 -1385
▁숙 -1386
▁그룹 -1387
▁어렵 -1388
▁생명 -1389
인물 -1390
▁준비 -1391
▁린 -1392
▁제한 -1393
▁포인트 -1394
▁핵 -1395
▁유리 -1396
▁2011 -1397
▁엔딩 -1398
▁혼자 -1399
▁당연히 -1400
▁밴 -1401
▁야구 -1402
▁어린 -1403
▁낸 -1404
▁위험 -1405
▁선거 -1406
▁안타 -1407
▁스테이지 -1408
ff -1409
▁옆 -1410
▁현실 -1411
▁짜 -1412
▁후보 -1413
▁기에 -1414
▁시장 -1415
▁엄청난 -1416
▁등장인물 -1417
▁버린다 -1418
▁조합 -1419
▁논란 -1420
▁아르 -1421
▁욕 -1422
ir -1423
▁05 -1424
▁텐 -1425
▁순위 -1426
통령 -1427
▁무장 -1428
▁묻 -1429
▁더욱 -1430
어지 -1431
▁십 -1432
▁스러 -1433
▁어머니 -1434
▁흡 -1435
▁죄 -1436
▁미션 -1437
▁퀘스트 -1438
▁싫 -1439
▁분위 -1440
▁얘 -1441
▁괜 -1442
▁런 -1443
▁사실상 -1444
▁떨어지 -1445
▁Z -1446
▁표기 -1447
▁크리스 -1448
스크 -1449
os -1450
▁( -1451
▁비판 -1452
▁브라 -1453
▁단순 -1454
▁고등학교 -1455
▁민주 -1456
▁챔피 -1457
▁참여 -1458
▁08 -1459
▁프로그 -1460
▁구조 -1461
▁70 -1462
▁90 -1463
▁분위기 -1464
▁블랙 -1465
▁계약 -1466
▁학년 -1467
▁동료 -1468
▁갔 -1469
▁훨 -1470
▁07 -1471
im -1472
▁약간 -1473
▁대통령 -1474
▁꾸 -1475
▁중심 -1476
▁꼬 -1477
▁찬 -1478
▁조선 -1479
▁취급 -1480
▁링크 -1481
▁투수 -1482
▁론 -1483
▁못한 -1484
▁... -1485
▁방어력 -1486
▁으므로 -1487
▁직업 -1488
▁똑 -1489
▁흥 -1490
▁콤 -1491
▁대해서 -1492
▁48 -1493
▁나무 -1494
▁보호 -1495
▁훨씬 -1496
▁줘 -1497
▁여전히 -1498
▁즐 -1499
▁결혼 -1500
비스 -1501
▁나머 -1502
리카 -1503
▁HP -1504
▁염 -1505
▁시도 -1506
▁설치 -1507
▁자면 -1508
▁구간 -1509
▁계열 -1510
ter -1511
▁다양 -1512
▁위원 -1513
▁나머지 -1514
▁전용 -1515
▁불구 -1516
▁방면 -1517
▁올리 -1518
이크 -1519
▁06 -1520
▁살아 -1521
▁보였 -1522
▁져 -1523
▁읽 -1524
니아 -1525
▁주요 -1526
▁성적 -1527
▁디자인 -1528
▁탓 -1529
▁일정 -1530
▁2000 -1531
려서 -1532
▁축구 -1533
티브 -1534
▁300 -1535
▁보상 -1536
▁mm -1537
▁목적 -1538
▁소녀 -1539
▁탱 -1540
▁연속 -1541
▁메인 -1542
▁도망 -1543
▁옵 -1544
▁강한 -1545
▁33 -1546
▁수정 -1547
▁킬 -1548
▁배틀 -1549
▁지하 -1550
▁기대 -1551
▁고려 -1552
ur -1553
▁세력 -1554
▁징 -1555
▁쌍 -1556
▁성장 -1557
▁대화 -1558
▁04 -1559
▁률 -1560
▁벽 -1561
▁잘못 -1562
▁삼성 -1563
▁부산 -1564
스로 -1565
▁36 -1566
▁종류 -1567
▁각각 -1568
▁롤 -1569
▁이해 -1570
▁지방 -1571
▁캠 -1572
▁e -1573
▁팩 -1574
▁해결 -1575
▁보여준 -1576
▁당신 -1577
▁일행 -1578
▁참가 -1579
od -1580
▁의견 -1581
▁으면서 -1582
▁입니다 -1583
▁력 -1584
▁쓰러 -1585
▁발표 -1586
▁랜 -1587
▁th -1588
▁부상 -1589
▁전설 -1590
▁포켓 -1591
▁마저 -1592
▁느낌 -1593
▁픽 -1594
ag -1595
▁전문 -1596
▁큐 -1597
▁거대 -1598
▁짧 -1599
▁you -1600
▁예정 -1601
▁일으 -1602
▁굳 -1603
▁벗 -1604
▁방영 -1605
▁끊 -1606
▁스피 -1607
▁힐 -1608
▁종족 -1609
▁센터 -1610
▁프로그램 -1611
▁옥 -1612
▁버린 -1613
▁종료 -1614
▁과학 -1615
▁다운 -1616
▁운행 -1617
▁죽음 -1618
▁소설 -1619
▁부활 -1620
▁녀 -1621
▁충분 -1622
▁근접 -1623
▁도중 -1624
▁각성 -1625
지션 -1626
▁조사 -1627
▁봤 -1628
▁FC -1629
▁배치 -1630
ub -1631
난다 -1632
▁흐 -1633
▁렌 -1634
▁최근 -1635
▁무리 -1636
▁장착 -1637
▁빅 -1638
▁칭 -1639
▁국민 -1640
▁삭 -1641
▁아이돌 -1642
▁러시아 -1643
▁세상 -1644
▁척 -1645
데이트 -1646
▁덤 -1647
▁안정 -1648
▁절대 -1649
▁업데이트 -1650
▁나중 -1651
▁스카 -1652
▁래 -1653
▁벤 -1654
▁경제 -1655
▁지도 -1656
▁스스로 -1657
▁제공 -1658
▁cm -1659
▁SK -1660
▁항공 -1661
▁점수 -1662
▁꺼 -1663
igh -1664
▁유니 -1665
▁만드 -1666
▁엔진 -1667
▁제목 -1668
▁자연 -1669
▁충격 -1670
▁달성 -1671
▁정상 -1672
▁오른 -1673
▁곧 -1674
▁켄 -1675
▁오래 -1676
▁번호 -1677
▁챔피언 -1678
▁미사 -1679
자기 -1680
▁추정 -1681
▁작전 -1682
ver -1683
▁나타나 -1684
▁배경 -1685
▁번역 -1686
▁셈 -1687
▁똑같 -1688
▁비행 -1689
▁목소리 -1690
▁날아 -1691
▁조직 -1692
▁정체 -1693
▁가끔 -1694
ak -1695
ent -1696
▁사이트 -1697
▁목록 -1698
너스 -1699
▁미래 -1700
▁규모 -1701
▁요소 -1702
스타 -1703
▁포켓몬 -1704
▁당했 -1705
▁스파 -1706
▁남성 -1707
▁196 -1708
▁레어 -1709
▁34 -1710
다는 -1711
▁품 -1712
▁전작 -1713
▁훈련 -1714
▁앤 -1715
▁전차 -1716
▁출전 -1717
▁돌아가 -1718
▁악마 -1719
▁파티 -1720
▁전사 -1721
▁빙 -1722
▁공중 -1723
▁타격 -1724
▁스타일 -1725
▁로부터 -1726
▁강하 -1727
▁클리어 -1728
▁만약 -1729
▁위기 -1730
▁타카 -1731
▁분노 -1732
▁누구 -1733
▁괜찮 -1734
▁멘 -1735
▁사냥 -1736
▁변화 -1737
▁생존 -1738
▁에너지 -1739
▁혈 -1740
▁그만 -1741
▁홈런 -1742
▁신경 -1743
▁동물 -1744
um -1745
▁클래 -1746
▁애초 -1747
▁했었 -1748
▁자랑 -1749
▁뒷 -1750
▁득점 -1751
▁한데 -1752
▁요리 -1753
▁이라 -1754
▁더불 -1755
BC -1756
▁션 -1757
리오 -1758
▁얘기 -1759
▁수상 -1760
▁연결 -1761
▁단점 -1762
▁75 -1763
▁필드 -1764
ut -1765
▁크리 -1766
▁한편 -1767
▁장갑 -1768
▁국제 -1769
▁로봇 -1770
▁건담 -1771
▁포지션 -1772
디어 -1773
▁소재 -1774
러스 -1775
수록 -1776
▁냉 -1777
어들 -1778
▁특정 -1779
▁반면 -1780
▁연합 -1781
ec -1782
▁니까 -1783
▁기동 -1784
▁시험 -1785
▁생긴 -1786
▁vs -1787
▁판정 -1788
▁무엇 -1789
▁비용 -1790
▁38 -1791
▁장소 -1792
▁in -1793
▁아파 -1794
▁전기 -1795
▁맹 -1796
▁공연 -1797
▁예상 -1798
▁한다면 -1799
▁사항 -1800
▁일러 -1801
▁롯 -1802
▁싱글 -1803
▁항상 -1804
▁멸 -1805
▁목표 -1806
▁무대 -1807
▁이게 -1808
▁화력 -1809
▁정작 -1810
▁칠 -1811
▁최소 -1812
▁연출 -1813
▁기체 -1814
▁사거리 -1815
▁관심 -1816
▁사업 -1817
▁시설 -1818
▁꽃 -1819
▁55 -1820
▁유럽 -1821
▁인터뷰 -1822
▁케이 -1823
아들 -1824
▁2009 -1825
▁교체 -1826
▁던전 -1827
인지 -1828
▁내부 -1829
▁빠른 -1830
▁하늘 -1831
▁흘 -1832
▁비밀 -1833
▁지휘 -1834
▁제일 -1835
▁다리 -1836
▁카이 -1837
▁이걸 -1838
▁야마 -1839
▁사격 -1840
동안 -1841
▁였으나 -1842
▁엘리 -1843
▁Q -1844
▁별로 -1845
▁철도 -1846
▁인사 -1847
▁to -1848
▁파일 -1849
▁변신 -1850
▁다크 -1851
ST -1852
ro -1853
▁시켰 -1854
▁나름 -1855
▁수치 -1856
▁록 -1857
▁넓 -1858
▁수도 -1859
▁기계 -1860
▁으려 -1861
▁정식 -1862
▁쓰이 -1863
▁깔 -1864
어났 -1865
▁뜨 -1866
▁털 -1867
▁작곡 -1868
▁스포 -1869
▁놈 -1870
▁시전 -1871
▁결승 -1872
▁카운 -1873
▁옷 -1874
▁도로 -1875
▁_ -1876
▁인가 -1877
▁교통 -1878
▁비롯 -1879
▁오버 -1880
▁나올 -1881
▁냐고 -1882
▁따로 -1883
나라 -1884
▁각종 -1885
▁오늘 -1886
다고 -1887
▁부여 -1888
해서 -1889
▁황제 -1890
▁마나 -1891
▁확정 -1892
▁졸업 -1893
▁일어나 -1894
▁코스 -1895
▁지상 -1896
▁쥬 -1897
▁갑자기 -1898
▁이탈 -1899
▁달려 -1900
▁병력 -1901
▁쌓 -1902
▁전반 -1903
▁치명 -1904
▁진화 -1905
▁이쪽 -1906
▁북한 -1907
▁둔 -1908
▁불러 -1909
▁특이 -1910
▁아도 -1911
▁오르 -1912
▁기업 -1913
▁라이브 -1914
▁왼 -1915
▁발전 -1916
▁이기 -1917
▁알아 -1918
▁컬 -1919
▁아키 -1920
▁건설 -1921
▁쯤 -1922
▁시티 -1923
▁무슨 -1924
▁언제 -1925
▁압도 -1926
▁이외 -1927
▁의외 -1928
어진 -1929
▁사정 -1930
em -1931
말로 -1932
▁EX -1933
▁가사 -1934
▁2008 -1935
▁외국 -1936
▁나이트 -1937
▁역대 -1938
▁일러스트 -1939
▁이건 -1940
▁감정 -1941
▁납 -1942
▁당한 -1943
▁탈출 -1944
▁주문 -1945
▁삭제 -1946
▁직전 -1947
▁지지 -1948
▁저항 -1949
ight -1950
▁빠져 -1951
▁뭔 -1952
▁티어 -1953
▁쏘 -1954
▁더니 -1955
▁임무 -1956
▁고양 -1957
▁마치 -1958
▁이닝 -1959
▁프레 -1960
▁지키 -1961
▁골드 -1962
▁위력 -1963
▁자원 -1964
▁보유 -1965
어로 -1966
라인 -1967
▁지켜 -1968
▁아카 -1969
AN -1970
▁바라 -1971
▁기다 -1972
▁로드 -1973
▁스러운 -1974
▁봐도 -1975
▁사례 -1976
▁집중 -1977
▁세기 -1978
▁서비스 -1979
▁점프 -1980
▁깊 -1981
▁표시 -1982
▁가르 -1983
▁노트 -1984
▁어둠 -1985
AR -1986
▁잉 -1987
▁파트 -1988
▁떠나 -1989
▁아프 -1990
▁인구 -1991
▁전국 -1992
▁튀 -1993
▁달라 -1994
▁상관 -1995
▁효율 -1996
▁꾼 -1997
▁명령 -1998
▁분류 -1999
▁작업 -2000
▁페이 -2001
▁기회 -2002
▁랭크 -2003
▁완전 -2004
▁뇌 -2005
▁아스 -2006
▁인식 -2007
▁댄 -2008
젝트 -2009
▁공간 -2010
▁연습 -2011
▁히어로 -2012
▁생기 -2013
▁루트 -2014
▁회피 -2015
▁물건 -2016
ap -2017
▁도전 -2018
▁잠시 -2019
▁가수 -2020
▁경쟁 -2021
▁극장 -2022
▁화면 -2023
▁옛 -2024
▁42 -2025
▁장점 -2026
▁던지 -2027
▁녀석 -2028
▁셀 -2029
ON -2030
▁41 -2031
▁사기 -2032
▁부모 -2033
▁폰 -2034
▁별명 -2035
▁컵 -2036
▁촬 -2037
▁군사 -2038
▁개념 -2039
▁가문 -2040
▁레드 -2041
그레이드 -2042
▁업그레이드 -2043
▁행정 -2044
▁단어 -2045
▁스럽 -2046
▁어요 -2047
▁병원 -2048
▁몽 -2049
▁근처 -2050
▁인천 -2051
▁올라가 -2052
▁추천 -2053
▁194 -2054
▁No -2055
▁발언 -2056
▁짐 -2057
▁려면 -2058
▁오프 -2059
▁전력 -2060
▁살인 -2061
▁의식 -2062
▁이끌 -2063
▁포기 -2064
▁39 -2065
▁무려 -2066
▁펜 -2067
▁은데 -2068
▁가까운 -2069
마자 -2070
▁불가 -2071
▁Ch -2072
▁아파트 -2073
▁> -2074
▁크기 -2075
▁전개 -2076
▁끝나 -2077
▁신체 -2078
▁정리 -2079
학생 -2080
▁미니 -2081
▁', -2082
▁지난 -2083
▁겸 -2084
▁판단 -2085
▁저지 -2086
▁강제 -2087
▁주제 -2088
▁촬영 -2089
▁노력 -2090
▁밑 -2091
▁본래 -2092
▁히트 -2093
▁고정 -2094
▁밀리 -2095
ul -2096
▁부정 -2097
▁붕 -2098
▁타임 -2099
▁kg -2100
▁이하 -2101
페이지 -2102
▁st -2103
▁44 -2104
▁라이트 -2105
▁공주 -2106
▁셋 -2107
▁병사 -2108
▁구하 -2109
▁데스 -2110
▁선생 -2111
무리 -2112
▁버그 -2113
▁롭 -2114
▁평균 -2115
ce -2116
▁뿌 -2117
▁스코 -2118
ik -2119
▁독립 -2120
▁최강 -2121
▁2020 -2122
▁; -2123
▁왕국 -2124
▁시킬 -2125
▁제거 -2126
▁분명 -2127
▁학원 -2128
▁부탁 -2129
▁홈페이지 -2130
▁띄 -2131
운데 -2132
▁폭탄 -2133
▁구매 -2134
000 -2135
▁꼭 -2136
▁조종 -2137
▁베이 -2138
▁생겼 -2139
▁제품 -2140
▁닥 -2141
▁99 -2142
▁군대 -2143
▁동생 -2144
▁윈 -2145
다니 -2146
▁마법사 -2147
▁롯데 -2148
▁가드 -2149
▁LG -2150
▁위키 -2151
▁닌 -2152
라스 -2153
▁중반 -2154
▁고속 -2155
▁리더 -2156
▁예전 -2157
▁여행 -2158
요일 -2159
▁붉 -2160
▁행위 -2161
▁단체 -2162
▁음식 -2163
믹스 -2164
▁겪 -2165
▁노리 -2166
▁떡 -2167
▁웹 -2168
▁멜 -2169
▁완벽 -2170
▁밸 -2171
▁옵션 -2172
▁전자 -2173
▁2007 -2174
▁현상 -2175
트리 -2176
▁쫓 -2177
▁195 -2178
▁수행 -2179
▁대구 -2180
all -2181
▁탈락 -2182
▁43 -2183
▁원인 -2184
드시 -2185
▁요시 -2186
▁그야 -2187
▁완성 -2188
▁구분 -2189
▁레인 -2190
야마 -2191
▁반드시 -2192
IN -2193
▁대기 -2194
▁의원 -2195
▁바다 -2196
모토 -2197
▁통합 -2198
▁개그 -2199
란드 -2200
▁주민 -2201
▁에게서 -2202
▁전략 -2203
이치 -2204
▁바꾸 -2205
져서 -2206
▁직후 -2207
▁널 -2208
▁차원 -2209
▁MA -2210
▁단지 -2211
▁크로 -2212
▁재료 -2213
▁복귀 -2214
▁하드 -2215
▁가리 -2216
▁템 -2217
▁마사 -2218
▁환경 -2219
nd -2220
▁도와 -2221
▁광역 -2222
▁걱 -2223
▁늦 -2224
▁그야말로 -2225
르트 -2226
▁마무리 -2227
▁치료 -2228
▁으로써 -2229
▁기반 -2230
▁걱정 -2231
튜브 -2232
이어 -2233
▁샷 -2234
▁올려 -2235
타임 -2236
러리 -2237
▁연재 -2238
▁인도 -2239
▁걸리 -2240
트라 -2241
▁한글 -2242
▁해군 -2243
▁46 -2244
▁서버 -2245
▁느끼 -2246
▁47 -2247
▁다행 -2248
▁정규 -2249
▁지정 -2250
▁밥 -2251
▁연장 -2252
▁2006 -2253
▁다수 -2254
▁대장 -2255
▁해외 -2256
▁받아들 -2257
▁도착 -2258
▁보병 -2259
▁심각 -2260
▁평범 -2261
▁옮 -2262
▁우선 -2263
▁책임 -2264
조건 -2265
▁빨리 -2266
▁보여준다 -2267
▁뻔 -2268
▁워낙 -2269
▁공포 -2270
▁보너스 -2271
▁월드컵 -2272
▁타이틀 -2273
▁조작 -2274
▁미사일 -2275
▁아무리 -2276
▁포스 -2277
▁유사 -2278
▁추측 -2279
▁실험 -2280
▁자마자 -2281
▁재미 -2282
th -2283
▁점점 -2284
▁뛰어난 -2285
▁51 -2286
▁그걸 -2287
▁캡 -2288
▁가면 -2289
▁굳이 -2290
▁타자 -2291
tt -2292
루스 -2293
▁디스 -2294
▁상세 -2295
▁코스트 -2296
▁택 -2297
▁였으며 -2298
▁필살 -2299
▁다소 -2300
▁맞추 -2301
▁폼 -2302
▁접근 -2303
▁성향 -2304
▁시킨다 -2305
▁무조건 -2306
▁좋아 -2307
▁걸로 -2308
▁닉 -2309
▁중학교 -2310
▁실점 -2311
▁한계 -2312
▁찌 -2313
▁교수 -2314
▁의사 -2315
▁대결 -2316
op -2317
▁영혼 -2318
▁냐는 -2319
▁부하 -2320
▁잭 -2321
▁톤 -2322
▁무한 -2323
▁사무 -2324
▁모자 -2325
▁국회 -2326
▁멋 -2327
▁SP -2328
▁복수 -2329
st -2330
▁비중 -2331
▁암살 -2332
▁지배 -2333
▁앙 -2334
▁정확히 -2335
시마 -2336
▁보조 -2337
▁함정 -2338
▁아내 -2339
아내 -2340
▁평소 -2341
▁정의 -2342
▁엠 -2343
▁마르 -2344
▁그린 -2345
▁덴 -2346
▁의하 -2347
ation -2348
▁인터넷 -2349
▁광고 -2350
▁세요 -2351
▁장르 -2352
▁혁 -2353
ra -2354
▁마력 -2355
▁와중 -2356
▁범죄 -2357
▁봉인 -2358
▁숲 -2359
▁투표 -2360
▁내리 -2361
▁다루 -2362
▁1000 -2363
ack -2364
무라 -2365
▁확장 -2366
ia -2367
▁운용 -2368
▁채널 -2369
▁고자 -2370
▁사령 -2371
▁전화 -2372
▁넘어가 -2373
▁밝혔 -2374
▁그럼 -2375
▁이곳 -2376
▁합류 -2377
▁공략 -2378
나이 -2379
▁도쿄 -2380
▁소련 -2381
▁장치 -2382
▁and -2383
▁가치 -2384
▁어려운 -2385
▁빵 -2386
▁몇몇 -2387
▁냈 -2388
▁검사 -2389
▁기념 -2390
oc -2391
▁금지 -2392
▁낫 -2393
▁아웃 -2394
▁시청자 -2395
▁잇 -2396
▁종종 -2397
▁이적 -2398
로그 -2399
▁초등 -2400
▁소유 -2401
▁모른다 -2402
▁펼치 -2403
▁가운데 -2404
▁150 -2405
▁정당 -2406
▁충분히 -2407
▁도입 -2408
▁65 -2409
▁비하 -2410
▁오리지 -2411
▁네이 -2412
▁실수 -2413
▁특유 -2414
▁플래 -2415
시브 -2416
▁뚫 -2417
▁유튜브 -2418
▁미드 -2419
▁셔 -2420
▁보컬 -2421
▁코드 -2422
▁사쿠 -2423
▁근데 -2424
▁모아 -2425
▁브레이 -2426
▁잊 -2427
▁VS -2428
▁클럽 -2429
▁맞춰 -2430
뜨리 -2431
▁소년 -2432
▁화염 -2433
▁시민 -2434
▁본격 -2435
▁기지 -2436
▁프로젝트 -2437
▁투입 -2438
▁올림 -2439
▁저격 -2440
▁고대 -2441
▁개조 -2442
▁뉴스 -2443
▁무사 -2444
▁시나 -2445
▁는가 -2446
▁인한 -2447
▁전원 -2448
▁괴물 -2449
▁종교 -2450
▁형제 -2451
다면 -2452
▁얼마나 -2453
ie -2454
일러 -2455
▁에이 -2456
▁드립 -2457
▁수많 -2458
ill -2459
▁%, -2460
▁희생 -2461
▁고양이 -2462
▁행사 -2463
▁로스 -2464
▁요청 -2465
▁스포츠 -2466
▁인상 -2467
▁릴 -2468
비아 -2469
▁이탈리아 -2470
▁흉 -2471
▁로마 -2472
▁아라 -2473
▁들어오 -2474
로드 -2475
▁대중 -2476
▁발음 -2477
▁엄청나 -2478
▁사태 -2479
▁원정 -2480
▁터미 -2481
▁카메 -2482
▁상징 -2483
▁2005 -2484
▁52 -2485
라이더 -2486
▁KBS -2487
▁종합 -2488
▁II -2489
▁밴드 -2490
니까 -2491
art -2492
▁숫 -2493
▁구역 -2494
▁넥 -2495
▁클래스 -2496
▁대형 -2497
▁64 -2498
▁군단 -2499
▁대비 -2500
▁외모 -2501
▁위협 -2502
▁뭔가 -2503
▁힘든 -2504
텐츠 -2505
▁스크 -2506
▁된다는 -2507
▁방패 -2508
▁조정 -2509
▁이사 -2510
▁그저 -2511
▁움직이 -2512
▁랍 -2513
▁인원 -2514
▁패러 -2515
▁해졌 -2516
▁서브 -2517
니티 -2518
▁서술 -2519
▁생물 -2520
▁불명 -2521
▁간단 -2522
▁락 -2523
▁자료 -2524
▁최후 -2525
▁일본어 -2526
▁장난 -2527
▁형식 -2528
▁관통 -2529
▁약점 -2530
▁가깝 -2531
▁컨셉 -2532
▁섞 -2533
▁몹 -2534
▁광주 -2535
▁달러 -2536
▁You -2537
▁행성 -2538
▁2004 -2539
런스 -2540
▁눈물 -2541
ri -2542
▁정책 -2543
▁전술 -2544
▁통신 -2545
▁상자 -2546
uby -2547
▁앉 -2548
▁바닥 -2549
▁거부 -2550
▁모험 -2551
▁액션 -2552
시스 -2553
▁비고 -2554
ab -2555
▁49 -2556
▁사라지 -2557
▁젊 -2558
▁미리 -2559
▁못한다 -2560
RA -2561
▁오리지널 -2562
▁데려 -2563
▁앞서 -2564
▁빠지 -2565
▁AP -2566
▁박사 -2567
▁의도 -2568
▁명중 -2569
▁빼앗 -2570
▁반복 -2571
▁인형 -2572
로우 -2573
▁56 -2574
▁트랙 -2575
▁쿨타임 -2576
▁회장 -2577
est -2578
▁ST -2579
래프트 -2580
▁개월 -2581
▁매일 -2582
▁챙 -2583
▁400 -2584
▁의지 -2585
▁ruby -2586
▁등록 -2587
▁영입 -2588
▁는다는 -2589
▁해석 -2590
▁와서 -2591
▁공동 -2592
▁구단 -2593
▁대응 -2594
▁마크 -2595
▁지적 -2596
▁MBC -2597
▁이치 -2598
▁언론 -2599
▁값 -2600
▁났 -2601
▁리어 -2602
▁오토 -2603
▁In -2604
▁dd -2605
▁오랜 -2606
▁열차 -2607
▁지명 -2608
▁목숨 -2609
▁젠 -2610
▁개봉 -2611
▁주력 -2612
▁그때 -2613
▁원거리 -2614
▁코어 -2615
▁덜 -2616
ttp -2617
AL -2618
스케 -2619
▁간다 -2620
▁선언 -2621
▁http -2622
▁웬 -2623
▁85 -2624
▁날려 -2625
▁한국어 -2626
▁뜬 -2627
▁혐 -2628
▁소식 -2629
▁언어 -2630
▁차례 -2631
▁윌 -2632
▁이라고 -2633
▁흡수 -2634
▁더블 -2635
자리 -2636
▁데이터 -2637
▁거짓 -2638
▁사상 -2639
▁사과 -2640
▁설계 -2641
▁피하 -2642
▁승부 -2643
▁방해 -2644
▁자동차 -2645
▁역전 -2646
▁살아남 -2647
▁나쁘 -2648
▁탯 -2649
▁193 -2650
▁텔 -2651
▁관한 -2652
▁53 -2653
▁느냐 -2654
▁혜 -2655
▁54 -2656
▁카즈 -2657
▁2002 -2658
리트 -2659
온다 -2660
▁카페 -2661
퓨터 -2662
▁대단 -2663
▁엄마 -2664
▁디지 -2665
▁여름 -2666
▁이르 -2667
▁연계 -2668
▁숫자 -2669
▁누군 -2670
▁모티브 -2671
▁핑 -2672
▁필살기 -2673
▁조각 -2674
▁닮 -2675
▁끝내 -2676
▁저주 -2677
▁기자 -2678
▁을지 -2679
▁미스 -2680
▁유우 -2681
▁소울 -2682
▁불과 -2683
▁진입 -2684
▁랄 -2685
▁체육 -2686
▁황금 -2687
▁PC -2688
▁쥐 -2689
▁수리 -2690
▁상대방 -2691
▁완료 -2692
▁맺 -2693
오스 -2694
▁질문 -2695
▁쿄 -2696
▁텍 -2697
▁가정 -2698
▁장기 -2699
▁수호 -2700
▁산업 -2701
▁생성 -2702
▁착용 -2703
▁적절 -2704
▁덩 -2705
▁Sh -2706
▁해제 -2707
▁공화 -2708
▁당해 -2709
▁컴퓨터 -2710
▁단순히 -2711
으니 -2712
여서 -2713
동생 -2714
▁터미널 -2715
dddd -2716
▁dddddd -2717
▁진다 -2718
▁꼴 -2719
▁멈 -2720
▁겹 -2721
▁썼 -2722
▁모리 -2723
▁표정 -2724
▁드라이 -2725
▁필수 -2726
니스 -2727
▁카운터 -2728
▁겐 -2729
▁테마 -2730
▁에이스 -2731
▁딱히 -2732
▁실시 -2733
▁컷 -2734
▁독자 -2735
▁의심 -2736
▁편성 -2737
▁ff -2738
▁선정 -2739
▁행적 -2740
▁유도 -2741
▁전환 -2742
▁비트 -2743
▁선물 -2744
▁확실히 -2745
▁아쉬 -2746
up -2747
▁습격 -2748
▁무력 -2749
▁기어 -2750
▁감안 -2751
▁당장 -2752
▁훌 -2753
▁페르 -2754
▁델 -2755
▁꾸준 -2756
▁왼쪽 -2757
▁특기 -2758
▁날개 -2759
▁뮤직 -2760
▁인류 -2761
▁집단 -2762
▁패시브 -2763
▁기점 -2764
▁함대 -2765
▁잖 -2766
▁핸 -2767
▁셰 -2768
▁아름 -2769
낸다 -2770
▁솔로 -2771
▁돌려 -2772
▁소비 -2773
▁안전 -2774
▁퓨 -2775
▁개선 -2776
▁제도 -2777
▁박스 -2778
▁re -2779
▁i -2780
▁횟 -2781
▁높이 -2782
▁연주 -2783
▁59 -2784
▁잠깐 -2785
▁가스 -2786
▁심하 -2787
▁위원회 -2788
▁확보 -2789
▁바르 -2790
▁사장 -2791
▁행복 -2792
▁MP -2793
▁경력 -2794
▁회전 -2795
VE -2796
▁구축 -2797
▁돌파 -2798
▁코치 -2799
힌다 -2800
▁마츠 -2801
▁거두 -2802
▁지옥 -2803
▁스킨 -2804
▁희망 -2805
▁으로부터 -2806
▁테크 -2807
▁설립 -2808
▁Re -2809
▁스마 -2810
▁제압 -2811
▁올림픽 -2812
▁장군 -2813
▁일종 -2814
▁시나리오 -2815
▁진정 -2816
ate -2817
▁블루 -2818
▁전통 -2819
▁Sp -2820
▁가슴 -2821
▁58 -2822
▁지닌 -2823
레이션 -2824
▁안드 -2825
▁상처 -2826
▁시내 -2827
▁통과 -2828
▁하위 -2829
ard -2830
▁대답 -2831
▁멀티 -2832
▁마침 -2833
▁적극 -2834
▁라디오 -2835
▁횟수 -2836
▁듀얼 -2837
▁공항 -2838
▁120 -2839
▁수사 -2840
▁선보 -2841
▁로써 -2842
워서 -2843
▁공사 -2844
▁패스 -2845
▁체제 -2846
모리 -2847
▁샌 -2848
▁초대 -2849
▁촉 -2850
AT -2851
▁캔 -2852
▁딜러 -2853
▁편집 -2854
▁방문 -2855
드리 -2856
▁그라 -2857
▁어찌 -2858
ang -2859
OR -2860
▁문명 -2861
▁57 -2862
▁버튼 -2863
▁비디오 -2864
▁펀 -2865
▁됨 -2866
▁의문 -2867
▁해금 -2868
▁뱀 -2869
연히 -2870
▁위주 -2871
▁롱 -2872
▁리스 -2873
▁현장 -2874
▁묶 -2875
▁이어지 -2876
▁66 -2877
▁95 -2878
▁눈치 -2879
▁수원 -2880
▁케이스 -2881
▁태도 -2882
▁동맹 -2883
▁엉 -2884
▁댓 -2885
▁핀 -2886
트롤 -2887
▁그려 -2888
▁2003 -2889
▁고통 -2890
▁료 -2891
▁코너 -2892
▁지니 -2893
▁작성 -2894
▁처치 -2895
▁진영 -2896
▁대놓 -2897
▁투자 -2898
▁콩 -2899
▁마시 -2900
▁전장 -2901
▁갱 -2902
▁태양 -2903
▁크로스 -2904
▁분리 -2905
▁장전 -2906
▁유키 -2907
▁계기 -2908
▁비난 -2909
▁마왕 -2910
▁노동 -2911
▁전해 -2912
▁예선 -2913
▁스페인 -2914
▁한자 -2915
▁제안 -2916
▁최악 -2917
IA -2918
▁을까 -2919
▁봄 -2920
르크 -2921
▁랩 -2922
▁제로 -2923
▁육군 -2924
▁공부 -2925
▁에스 -2926
▁떼 -2927
▁고유 -2928
▁후속 -2929
▁삼국 -2930
▁게시 -2931
▁느껴 -2932
▁미친 -2933
▁버려 -2934
▁스위 -2935
PS -2936
▁깎 -2937
▁겨우 -2938
▁놀라 -2939
▁스펙 -2940
▁레이저 -2941
▁be -2942
ess -2943
▁시체 -2944
ok -2945
▁배신 -2946
▁회의 -2947
ant -2948
▁좁 -2949
▁평화 -2950
▁Bl -2951
▁오른쪽 -2952
▁에겐 -2953
▁BG -2954
▁바꿔 -2955
▁110 -2956
▁개최 -2957
▁성인 -2958
▁부른다 -2959
래도 -2960
▁빌리 -2961
▁꼽 -2962
▁아머 -2963
▁나카 -2964
▁조준 -2965
▁게이지 -2966
▁견제 -2967
▁on -2968
▁여부 -2969
▁룰 -2970
▁용병 -2971
▁멀리 -2972
▁점령 -2973
▁컨트롤 -2974
▁궤 -2975
▁어울 -2976
▁기획 -2977
▁궁극 -2978
▁다름 -2979
▁탑재 -2980
▁젤 -2981
▁타이밍 -2982
ell -2983
▁청소 -2984
▁극장판 -2985
▁매치 -2986
▁보급 -2987
▁카메라 -2988
▁춤 -2989
IC -2990
▁SS -2991
▁or -2992
▁진실 -2993
머리 -2994
▁구해 -2995
▁베이스 -2996
▁애매 -2997
▁최대한 -2998
ct -2999
▁충전 -3000
▁62 -3001
▁직원 -3002
▁남편 -3003
▁에어 -3004
▁373 -3005
마스 -3006
▁관광 -3007
ue -3008
▁누군가 -3009
ine -3010
▁기분 -3011
▁정령 -3012
▁그레이 -3013
▁날리 -3014
▁순서 -3015
▁게이 -3016
▁보도 -3017
▁스피드 -3018
▁낼 -3019
▁댄스 -3020
▁은퇴 -3021
▁누가 -3022
▁후반부 -3023
▁수단 -3024
▁온라인 -3025
▁틈 -3026
의원 -3027
▁오스 -3028
▁모션 -3029
▁한화 -3030
▁.... -3031
▁하트 -3032
▁터지 -3033
라리 -3034
▁아무래도 -3035
▁NP -3036
▁멸망 -3037
▁레전 -3038
▁허용 -3039
▁튜 -3040
▁트레 -3041
▁교회 -3042
▁Al -3043
▁격투 -3044
▁갓 -3045
▁세계관 -3046
▁밸런스 -3047
▁빔 -3048
▁약속 -3049
▁민주당 -3050
무원 -3051
▁보수 -3052
▁미치 -3053
ist -3054
▁알렉 -3055
▁얼음 -3056
▁76 -3057
▁스코어 -3058
▁바뀐 -3059
▁그게 -3060
▁트위 -3061
▁여왕 -3062
▁Th -3063
▁스탠 -3064
ove -3065
▁파이터 -3066
ore -3067
▁우수 -3068
▁부담 -3069
▁갤러리 -3070
▁토스 -3071
▁스프 -3072
▁대원 -3073
▁등등 -3074
▁com -3075
▁미나 -3076
▁겁 -3077
▁오오 -3078
▁알리 -3079
▁유용 -3080
▁뛰어 -3081
▁헤드 -3082
▁로켓 -3083
▁울트라 -3084
▁77 -3085
▁융 -3086
▁돌격 -3087
▁61 -3088
▁뱅 -3089
▁벌이 -3090
아리 -3091
▁무게 -3092
▁삶 -3093
▁{ -3094
▁고급 -3095
▁생일 -3096
▁지식 -3097
▁규정 -3098
▁기절 -3099
▁차별 -3100
▁판타 -3101
▁해진 -3102
▁본선 -3103
▁커뮤 -3104
▁돌아오 -3105
▁아프리카 -3106
ort -3107
▁렉 -3108
▁는다고 -3109
▁알려져 -3110
▁자고 -3111
▁병기 -3112
▁88 -3113
피스 -3114
▁72 -3115
▁그리스 -3116
▁중단 -3117
▁가면라이더 -3118
▁측면 -3119
▁랜덤 -3120
▁끼리 -3121
▁장애 -3122
▁분야 -3123
심히 -3124
▁된다고 -3125
▁자이 -3126
▁나누 -3127
어도 -3128
▁스케 -3129
▁트레이 -3130
▁지점 -3131
▁} -3132
▁인지라 -3133
▁2001 -3134
▁닥터 -3135
로이드 -3136
▁누르 -3137
▁찰 -3138
▁마녀 -3139
▁삽 -3140
▁언니 -3141
▁패러디 -3142
바이 -3143
▁발휘 -3144
▁경기도 -3145
▁주목 -3146
▁자살 -3147
▁그럴 -3148
▁넷 -3149
▁커버 -3150
▁회수 -3151
▁도서 -3152
▁제시 -3153
ive -3154
▁룬 -3155
▁외부 -3156
▁생겨 -3157
▁카나 -3158
▁입수 -3159
▁인생 -3160
▁피해자 -3161
▁포르 -3162
▁취소 -3163
▁살해 -3164
▁나아 -3165
▁ffff -3166
▁웨이 -3167
▁경계 -3168
▁공통 -3169
▁쉬운 -3170
OS -3171
▁유래 -3172
▁미야 -3173
▁지내 -3174
▁도구 -3175
ong -3176
▁둘러 -3177
▁아사 -3178
▁군주 -3179
▁교환 -3180
▁공원 -3181
▁후지 -3182
워드 -3183
▁릭 -3184
▁개편 -3185
▁국적 -3186
▁오프닝 -3187
▁아침 -3188
▁어차 -3189
▁민족 -3190
▁기다리 -3191
▁SBS -3192
▁트위터 -3193
▁공장 -3194
▁승강 -3195
▁ffffff -3196
ers -3197
▁나쁜 -3198
▁어차피 -3199
AM -3200
▁스페셜 -3201
▁장수 -3202
▁이거 -3203
▁계산 -3204
오리 -3205
▁킥 -3206
▁재판 -3207
▁윙 -3208
▁서포 -3209
▁떨어져 -3210
▁핵심 -3211
▁페이스 -3212
▁짤 -3213
▁부진 -3214
크래프트 -3215
▁건지 -3216
▁대놓고 -3217
▁PS -3218
친다 -3219
▁붕괴 -3220
▁사단 -3221
▁어째 -3222
AS -3223
▁무서 -3224
▁98 -3225
▁이성 -3226
▁데리 -3227
▁교사 -3228
▁구입 -3229
▁온갖 -3230
▁제기 -3231
하라 -3232
▁단독 -3233
▁191 -3234
▁바탕 -3235
▁거절 -3236
▁겨울 -3237
▁소수 -3238
▁브랜드 -3239
유키 -3240
▁출생 -3241
▁용도 -3242
스티 -3243
니어 -3244
▁갑옷 -3245
▁영역 -3246
다수 -3247
▁당선 -3248
▁메탈 -3249
터리 -3250
▁펠 -3251
▁어쩔 -3252
▁탄생 -3253
▁약한 -3254
▁좋아하 -3255
▁봐야 -3256
▁살짝 -3257
▁출발 -3258
▁함선 -3259
티컬 -3260
▁아시아 -3261
▁요원 -3262
▁늘어나 -3263
▁은근 -3264
ED -3265
▁납치 -3266
ip -3267
어리 -3268
▁분석 -3269
피아 -3270
▁꾸준히 -3271
▁귀족 -3272
▁은행 -3273
▁스파이 -3274
▁페이지 -3275
▁우려 -3276
▁오후 -3277
▁주연 -3278
▁줄어들 -3279
▁작사 -3280
▁끝난 -3281
▁화살 -3282
▁타워 -3283
▁선배 -3284
▁순수 -3285
ain -3286
쳐서 -3287
▁자식 -3288
▁CD -3289
즈키 -3290
▁숨겨 -3291
▁증거 -3292
▁파악 -3293
▁재생 -3294
▁가로 -3295
if -3296
▁섭 -3297
▁600 -3298
▁습득 -3299
▁따지 -3300
▁엑스 -3301
▁대공 -3302
▁하수 -3303
▁자격 -3304
▁쏟 -3305
▁예술 -3306
▁홍보 -3307
▁업무 -3308
▁드리 -3309
▁일어난 -3310
▁이스 -3311
가락 -3312
▁협력 -3313
ee -3314
▁당황 -3315
▁고서 -3316
▁고민 -3317
리티 -3318
거나 -3319
▁1990 -3320
다운 -3321
▁쓴다 -3322
▁군인 -3323
▁유형 -3324
▁보정 -3325
▁| -3326
▁훌륭 -3327
디션 -3328
▁베르 -3329
▁테러 -3330
▁잖아 -3331
▁플라 -3332
▁사카 -3333
EN -3334
▁밟 -3335
▁미소 -3336
▁열심히 -3337
▁파라 -3338
▁레전드 -3339
▁신화 -3340
▁적당 -3341
▁폭풍 -3342
▁카르 -3343
▁경유 -3344
▁영원 -3345
▁쓰레 -3346
▁댓글 -3347
▁마인 -3348
▁응원 -3349
▁열린 -3350
▁흔히 -3351
▁MV -3352
▁내내 -3353
▁프라 -3354
▁당한다 -3355
▁뒤집 -3356
▁불안 -3357
▁63 -3358
나가 -3359
▁보물 -3360
▁향해 -3361
▁비록 -3362
▁러브 -3363
▁주도 -3364
▁퀄 -3365
▁때려 -3366
▁거래 -3367
▁틱 -3368
▁정말로 -3369
▁부인 -3370
▁왕자 -3371
▁탑승 -3372
▁만족 -3373
▁소드 -3374
▁출처 -3375
세이 -3376
▁장관 -3377
▁종점 -3378
▁밀려 -3379
▁버티 -3380
▁혼란 -3381
▁챠 -3382
▁68 -3383
▁무적 -3384
▁채용 -3385
▁감사 -3386
▁전함 -3387
▁스트라이 -3388
▁네이버 -3389
▁가졌 -3390
ith -3391
ld -3392
▁운전 -3393
▁본명 -3394
▁컨텐츠 -3395
▁못해 -3396
▁대다수 -3397
▁문제점 -3398
ly -3399
▁운명 -3400
▁실질 -3401
▁파이어 -3402
긴다 -3403
▁반격 -3404
▁800 -3405
▁넌 -3406
▁늑 -3407
▁계급 -3408
▁로운 -3409
▁트라 -3410
▁옹 -3411
▁라스 -3412
▁균 -3413
▁71 -3414
▁미군 -3415
▁중계 -3416
▁커뮤니티 -3417
▁정류 -3418
▁라이벌 -3419
▁오해 -3420
ind -3421
▁김성 -3422
▁초월 -3423
▁짝 -3424
▁지급 -3425
▁돌진 -3426
▁오류 -3427
▁두산 -3428
▁수입 -3429
▁74 -3430
▁가까이 -3431
▁AC -3432
▁돌리 -3433
아먹 -3434
▁전공 -3435
▁연도 -3436
▁랜드 -3437
▁연예 -3438
▁모으 -3439
▁카라 -3440
OL -3441
▁메타 -3442
▁치명타 -3443
▁공군 -3444
▁67 -3445
▁설득 -3446
▁체계 -3447
▁낚 -3448
▁소문 -3449
다지 -3450
▁흰 -3451
▁메가 -3452
이터 -3453
▁기기 -3454
ew -3455
▁아나 -3456
▁아트 -3457
▁통일 -3458
▁충돌 -3459
▁피아 -3460
▁흔들 -3461
▁아오 -3462
▁따른 -3463
▁여신 -3464
▁반영 -3465
▁즉시 -3466
▁단위 -3467
▁화장 -3468
▁거주 -3469
▁낳 -3470
ry -3471
▁끌어 -3472
▁문자 -3473
▁73 -3474
▁코믹스 -3475
▁건너 -3476
▁불꽃 -3477
바로 -3478
▁그림자 -3479
▁TH -3480
▁편의 -3481
▁안습 -3482
ast -3483
▁아리 -3484
▁지시 -3485
▁닿 -3486
▁NC -3487
▁96 -3488
▁홍콩 -3489
▁학과 -3490
▁레오 -3491
▁전투력 -3492
▁크루 -3493
▁AT -3494
▁주년 -3495
▁짜리 -3496
▁해방 -3497
▁다행히 -3498
시오 -3499
▁시야 -3500
▁me -3501
▁크리티컬 -3502
▁비율 -3503
▁제조 -3504
카와 -3505
IT -3506
▁정해 -3507
▁슬롯 -3508
츠키 -3509
▁국회의원 -3510
▁됩 -3511
▁강해 -3512
▁들어갔 -3513
▁떡밥 -3514
▁난다 -3515
▁상향 -3516
▁일부러 -3517
LC -3518
▁생명력 -3519
▁꺼내 -3520
▁신뢰 -3521
▁지나가 -3522
▁정지 -3523
▁변하 -3524
▁약하 -3525
▁격파 -3526
▁공화국 -3527
EC -3528
▁그런지 -3529
▁81 -3530
▁그다지 -3531
▁관객 -3532
▁암흑 -3533
▁심장 -3534
▁깃 -3535
▁소프트 -3536
▁신고 -3537
▁수업 -3538
▁오로 -3539
▁파이널 -3540
▁CP -3541
▁토모 -3542
▁닌자 -3543
▁곰 -3544
▁그만큼 -3545
▁사전 -3546
▁등판 -3547
▁무난 -3548
▁됩니다 -3549
▁늑대 -3550
▁판타지 -3551
▁동네 -3552
▁가득 -3553
▁디아 -3554
▁마주 -3555
▁붙잡 -3556
▁j -3557
▁엘프 -3558
▁가입 -3559
FA -3560
사카 -3561
▁유비 -3562
▁192 -3563
▁연사 -3564
▁1999 -3565
▁별개 -3566
▁덮 -3567
나다 -3568
▁맘 -3569
▁저런 -3570
▁사운드 -3571
▁압박 -3572
▁마술 -3573
▁본부 -3574
▁고기 -3575
▁집안 -3576
▁NPC -3577
▁78 -3578
▁아티 -3579
식간 -3580
▁킨 -3581
▁84 -3582
▁리버 -3583
▁건강 -3584
▁근무 -3585
end -3586
▁재능 -3587
▁창작 -3588
▁의한 -3589
▁순식간 -3590
▁춘 -3591
▁막장 -3592
▁91 -3593
▁짱 -3594
▁벌어 -3595
▁든지 -3596
▁반란 -3597
▁an -3598
▁드디어 -3599
▁실드 -3600
고기 -3601
▁추적 -3602
▁업체 -3603
▁룡 -3604
▁지하철 -3605
▁드러나 -3606
▁장식 -3607
▁제주 -3608
▁사쿠라 -3609
▁지형 -3610
▁화이트 -3611
▁신세 -3612
▁팝 -3613
▁1998 -3614
▁it -3615
▁가이 -3616
▁어쨌 -3617
▁불만 -3618
▁전적 -3619
▁남기 -3620
▁입학 -3621
▁경향 -3622
▁증명 -3623
▁!! -3624
▁떨어진 -3625
▁수학 -3626
▁경험치 -3627
▁보단 -3628
▁쿼 -3629
og -3630
▁상품 -3631
▁묵 -3632
▁나서 -3633
▁천사 -3634
▁브리 -3635
▁땐 -3636
▁내놓 -3637
▁게이트 -3638
오르 -3639
▁기원 -3640
▁대만 -3641
▁낭 -3642
▁형성 -3643
▁통하 -3644
▁신청 -3645
▁An -3646
▁전방 -3647
▁테이 -3648
▁예고 -3649
▁스티 -3650
▁여동생 -3651
▁걸려 -3652
▁매력 -3653
▁오픈 -3654
▁겟 -3655
▁블레이드 -3656
▁쓰레기 -3657
▁노멀 -3658
▁떠올 -3659
▁절반 -3660
▁정권 -3661
▁사령관 -3662
▁콜라 -3663
▁아가 -3664
▁97 -3665
▁클로 -3666
▁흘러 -3667
▁쿠키 -3668
▁나루 -3669
아버지 -3670
▁팅 -3671
▁우스 -3672
▁주먹 -3673
▁섹 -3674
▁감염 -3675
▁빨간 -3676
▁마도 -3677
▁마이크 -3678
▁다시피 -3679
▁이마 -3680
▁의상 -3681
▁여론 -3682
▁만난 -3683
▁외국인 -3684
▁Ar -3685
광역 -3686
▁걷 -3687
▁He -3688
▁샘 -3689
▁령 -3690
▁타점 -3691
▁82 -3692
▁회차 -3693
▁강조 -3694
▁유희 -3695
▁라이더 -3696
▁69 -3697
▁키스 -3698
▁사토 -3699
▁단일 -3700
▁이론 -3701
지컬 -3702
▁메카 -3703
▁이승 -3704
▁오빠 -3705
▁선호 -3706
▁어택 -3707
▁근거 -3708
▁알려진 -3709
▁소멸 -3710
▁연상 -3711
▁거쳐 -3712
▁복장 -3713
▁별도 -3714
▁엔터 -3715
▁전선 -3716
로운 -3717
▁코인 -3718
▁버릴 -3719
▁바보 -3720
▁is -3721
▁실행 -3722
▁할지 -3723
▁대륙 -3724
타로 -3725
▁250 -3726
트로 -3727
▁여서 -3728
▁스톤 -3729
▁주전 -3730
▁공작 -3731
▁일으키 -3732
▁for -3733
▁작용 -3734
▁아닐 -3735
광역시 -3736
▁최상 -3737
▁한때 -3738
▁아무것 -3739
▁공기 -3740
▁아메 -3741
▁180 -3742
가와 -3743
▁MAX -3744
▁플레 -3745
드라 -3746
▁몰아 -3747
▁86 -3748
▁해진다 -3749
▁반지 -3750
▁부품 -3751
▁때리 -3752
▁평타 -3753
▁뛰어나 -3754
▁SN -3755
▁화려 -3756
▁벗어나 -3757
▁요정 -3758
어버 -3759
▁불렀 -3760
▁190 -3761
▁스토 -3762
▁헌터 -3763
▁해설 -3764
▁권력 -3765
▁대하 -3766
▁간격 -3767
▁따위 -3768
▁출현 -3769
▁아무런 -3770
▁호환 -3771
▁푸른 -3772
운다 -3773
파이어 -3774
모로 -3775
▁끔 -3776
▁전형 -3777
▁총기 -3778
▁뉴욕 -3779
▁몰래 -3780
▁탱크 -3781
▁퀸 -3782
▁니시 -3783
▁추격 -3784
▁올렸 -3785
▁출장 -3786
▁키리 -3787
둥이 -3788
▁박살 -3789
▁움직임 -3790
▁이랑 -3791
▁당할 -3792
▁토리 -3793
▁사라졌 -3794
▁조용 -3795
▁구도 -3796
▁요새 -3797
▁울산 -3798
▁사자 -3799
▁무효 -3800
▁주위 -3801
ath -3802
▁마스 -3803
에도 -3804
▁스카이 -3805
▁벌어지 -3806
레나 -3807
▁경상 -3808
▁연애 -3809
▁BGM -3810
▁프레임 -3811
▁탁 -3812
더스 -3813
▁명예 -3814
서트 -3815
▁여러모로 -3816
▁마리오 -3817
▁권총 -3818
▁범인 -3819
av -3820
▁폭격 -3821
▁이슬 -3822
▁경비 -3823
▁시드 -3824
RE -3825
▁께 -3826
▁붙여 -3827
▁1997 -3828
▁제이 -3829
▁추락 -3830
▁동기 -3831
▁되돌 -3832
50 -3833
▁대우 -3834
▁De -3835
▁경영 -3836
▁테스트 -3837
▁심리 -3838
▁Te -3839
타인 -3840
▁신규 -3841
▁자는 -3842
▁지대 -3843
▁심판 -3844
▁폭주 -3845
▁모바 -3846
듀서 -3847
▁블록 -3848
▁프로듀서 -3849
와서 -3850
▁클라 -3851
▁후쿠 -3852
▁소총 -3853
웨이 -3854
▁영업 -3855
▁갈등 -3856
▁거짓말 -3857
▁공유 -3858
▁MS -3859
▁뿌리 -3860
▁아크 -3861
▁하수인 -3862
se -3863
▁물러 -3864
▁변호 -3865
▁일상 -3866
▁수요 -3867
▁탄약 -3868
▁들어간 -3869
▁계승 -3870
one -3871
▁외교 -3872
히로 -3873
▁고교 -3874
▁진지 -3875
▁전대 -3876
어스 -3877
▁이래 -3878
▁환상 -3879
▁그래픽 -3880
▁열리 -3881
▁메이저 -3882
▁고전 -3883
▁학살 -3884
▁통제 -3885
▁요괴 -3886
▁브라질 -3887
▁밝히 -3888
▁북미 -3889
▁사양 -3890
▁렙 -3891
▁상점 -3892
▁언제나 -3893
▁죽여 -3894
▁Be -3895
▁편하 -3896
▁보석 -3897
▁무너 -3898
▁마련 -3899
▁시각 -3900
▁입력 -3901
사키 -3902
▁변형 -3903
남도 -3904
▁이득 -3905
▁썬 -3906
▁83 -3907
▁갖추 -3908
▁폭력 -3909
▁터치 -3910
▁다이아 -3911
▁제법 -3912
▁공학 -3913
▁훔 -3914
▁옛날 -3915
▁귀여 -3916
▁탱커 -3917
▁혁명 -3918
러운 -3919
▁유령 -3920
▁빗 -3921
▁불편 -3922
▁리아 -3923
▁블러 -3924
▁제작진 -3925
▁통상 -3926
▁커맨 -3927
퍼스 -3928
▁지나치 -3929
▁그곳 -3930
▁작동 -3931
▁미츠 -3932
▁KT -3933
▁리스트 -3934
어져 -3935
스트라 -3936
▁믹 -3937
ust -3938
▁92 -3939
▁용사 -3940
▁89 -3941
▁예외 -3942
▁동원 -3943
▁전투기 -3944
▁조치 -3945
▁타케 -3946
▁94 -3947
▁조심 -3948
▁승강장 -3949
▁밝혀졌 -3950
▁어쩌 -3951
▁연대 -3952
▁고생 -3953
▁밀어 -3954
▁민간 -3955
▁구현 -3956
▁수집 -3957
▁스마트 -3958
▁미디어 -3959
▁머신 -3960
도우 -3961
▁치가 -3962
▁빠진 -3963
▁파일럿 -3964
거운 -3965
▁현지 -3966
ide -3967
▁날아가 -3968
▁한국인 -3969
▁프로필 -3970
▁둥 -3971
▁일자 -3972
▁포탑 -3973
▁검색 -3974
▁79 -3975
▁네임 -3976
▁들어간다 -3977
▁워치 -3978
▁앵 -3979
▁쿠로 -3980
▁Le -3981
▁입구 -3982
노스 -3983
▁이리 -3984
나무 -3985
▁챕 -3986
▁이란 -3987
▁조조 -3988
▁메시 -3989
▁여겨 -3990
▁사이즈 -3991
▁되찾 -3992
▁쓰인다 -3993
▁신인 -3994
▁경기장 -3995
▁모바일 -3996
▁꺾 -3997
▁조절 -3998
일드 -3999
▁두려 -4000
다른 -4001
▁Se -4002
▁93 -4003
ity -4004
▁동영 -4005
▁차단 -4006
▁신장 -4007
PG -4008
▁콘서트 -4009
메달 -4010
▁요즘 -4011
▁키우 -4012
▁US -4013
▁쟈 -4014
워하 -4015
▁부위 -4016
▁감시 -4017
▁눌 -4018
▁표준 -4019
▁카미 -4020
▁레스 -4021
▁챕터 -4022
▁레인저 -4023
▁보장 -4024
▁교전 -4025
▁부수 -4026
▁긍 -4027
▁편지 -4028
▁음반 -4029
▁수송 -4030
저히 -4031
▁마루 -4032
▁시행 -4033
OT -4034
▁정류장 -4035
▁동방 -4036
▁87 -4037
▁덧 -4038
▁도발 -4039
▁폐지 -4040
일리 -4041
▁공산 -4042
▁프린 -4043
▁맞이 -4044
▁스톰 -4045
▁1996 -4046
▁101 -4047
▁떨어진다 -4048
▁동영상 -4049
▁길드 -4050
▁상상 -4051
▁한방 -4052
▁연락 -4053
▁배차 -4054
▁줘야 -4055
▁패널 -4056
▁리얼 -4057
▁기습 -4058
▁AI -4059
▁볼넷 -4060
▁용어 -4061
▁1995 -4062
북도 -4063
ere -4064
▁MC -4065
▁DJ -4066
▁쇠 -4067
▁전하 -4068
▁구출 -4069
▁음성 -4070
▁자이언 -4071
AC -4072
▁슛 -4073
▁앱 -4074
▁텔레 -4075
▁프리미 -4076
▁다면서 -4077
▁호평 -4078
▁올라오 -4079
▁루타 -4080
▁연방 -4081
▁똑같이 -4082
▁이재 -4083
▁김정 -4084
▁어깨 -4085
▁특화 -4086
▁없애 -4087
▁드러내 -4088
▁On -4089
▁마냥 -4090
▁라이프 -4091
▁도달 -4092
age -4093
▁쟁 -4094
▁추진 -4095
▁세월 -4096
▁계정 -4097
▁도서관 -4098
▁만났 -4099
▁흥행 -4100
▁볼트 -4101
▁이날 -4102
▁사이드 -4103
▁나와서 -4104
▁연관 -4105
▁잠수 -4106
▁강철 -4107
▁간부 -4108
▁익숙 -4109
▁매니 -4110
▁핸드 -4111
▁어지 -4112
▁무료 -4113
▁냐며 -4114
▁결승전 -4115
▁걸어 -4116
▁파란 -4117
펙트 -4118
▁괴롭 -4119
▁슈트 -4120
▁농구 -4121
▁신문 -4122
▁통한 -4123
▁지휘관 -4124
▁전달 -4125
▁번개 -4126
▁레이드 -4127
▁노예 -4128
▁통해서 -4129
▁극단 -4130
▁삼진 -4131
자키 -4132
▁신분 -4133
▁으니까 -4134
▁향상 -4135
▁@ -4136
오프 -4137
▁고향 -4138
▁겉 -4139
▁나갔 -4140
▁주소 -4141
▁..... -4142
▁전직 -4143
이즈 -4144
▁루시 -4145
▁리메 -4146
▁돌아온 -4147
▁수술 -4148
▁양산 -4149
▁누리 -4150
▁그동안 -4151
▁출력 -4152
▁빌드 -4153
▁켈 -4154
▁묘지 -4155
▁환자 -4156
▁사마 -4157
레이터 -4158
▁노출 -4159
▁신성 -4160
▁던져 -4161
▁즐기 -4162
▁마구 -4163
▁캐리 -4164
▁가상 -4165
▁신기 -4166
▁그랬 -4167
▁먹이 -4168
▁박근 -4169
▁장교 -4170
▁전역 -4171
▁들이 -4172
▁낸다 -4173
▁제자 -4174
▁복잡 -4175
▁진심 -4176
▁팀원 -4177
▁스튜 -4178
▁레이스 -4179
▁헨 -4180
▁가속 -4181
▁왠 -4182
▁동작 -4183
▁일지 -4184
▁웬만 -4185
▁적어도 -4186
▁환승 -4187
▁임명 -4188
▁글자 -4189
▁베트 -4190
▁살려 -4191
▁갤럭 -4192
qu -4193
▁부문 -4194
▁멕 -4195
▁소닉 -4196
▁px -4197
▁무언 -4198
▁세이브 -4199
▁아우 -4200
▁봇 -4201
▁씬 -4202
▁입단 -4203
▁커플 -4204
▁올랐 -4205
▁가게 -4206
▁느리 -4207
▁절망 -4208
▁써서 -4209
▁DLC -4210
ood -4211
▁캐스 -4212
▁내구 -4213
▁대체로 -4214
▁달린 -4215
▁쾌 -4216
▁넘기 -4217
조리 -4218
▁AK -4219
▁해체 -4220
▁기병 -4221
▁내성 -4222
▁성별 -4223
▁타마 -4224
▁드물 -4225
▁임시 -4226
창기 -4227
▁가시 -4228
▁명중률 -4229
▁핫 -4230
▁구속 -4231
▁THE -4232
BO -4233
▁착각 -4234
▁부리 -4235
▁브레이크 -4236
▁아쉽 -4237
▁페이즈 -4238
▁아빠 -4239
▁알파 -4240
▁종이 -4241
▁여유 -4242
▁MVP -4243
▁너무나 -4244
▁전시 -4245
▁막차 -4246
▁차라리 -4247
▁근육 -4248
▁득표 -4249
▁갤럭시 -4250
▁수영 -4251
▁육성 -4252
▁멍 -4253
▁연구소 -4254
▁도우 -4255
▁Wh -4256
▁심한 -4257
▁중화 -4258
▁뼈 -4259
IS -4260
▁이즈 -4261
준다 -4262
▁보일 -4263
are -4264
오카 -4265
▁고백 -4266
▁경고 -4267
▁CC -4268
PM -4269
▁인수 -4270
▁대량 -4271
▁빡 -4272
▁셨 -4273
▁융합 -4274
▁공지 -4275
▁창조 -4276
▁그럼에도 -4277
▁개통 -4278
▁자매 -4279
▁리메이크 -4280
▁이자 -4281
▁강원 -4282
▁참전 -4283
▁분기 -4284
▁1994 -4285
▁배트 -4286
▁하필 -4287
▁물질 -4288
전자 -4289
▁인증 -4290
▁$ -4291
▁엮 -4292
▁된다면 -4293
▁규칙 -4294
▁의뢰 -4295
▁카오스 -4296
▁대대 -4297
▁럭 -4298
▁람 -4299
▁인연 -4300
▁1980 -4301
▁시즈 -4302
▁파리 -4303
▁소화 -4304
▁초창기 -4305
▁리치 -4306
▁날짜 -4307
▁지능 -4308
지마 -4309
▁실버 -4310
▁글로 -4311
▁제어 -4312
▁협회 -4313
브리 -4314
▁구체 -4315
▁드림 -4316
▁게스트 -4317
▁점차 -4318
▁톱 -4319
▁식사 -4320
▁입히 -4321
▁뭉 -4322
OM -4323
디아 -4324
▁카타 -4325
▁분량 -4326
▁가량 -4327
▁성과 -4328
▁이시 -4329
▁청년 -4330
ob -4331
크스 -4332
▁악역 -4333
▁이뤄 -4334
▁700 -4335
▁고용 -4336
▁도망치 -4337
▁무언가 -4338
▁태그 -4339
▁남부 -4340
▁이내 -4341
▁의혹 -4342
▁객 -4343
▁미카 -4344
▁대립 -4345
▁누적 -4346
▁Tr -4347
▁투구 -4348
▁흠 -4349
▁냄 -4350
▁합격 -4351
▁몰려 -4352
▁돼지 -4353
▁회원 -4354
티나 -4355
ock -4356
▁정복 -4357
▁반발 -4358
▁고르 -4359
▁일어났 -4360
▁중대 -4361
▁어울리 -4362
▁여지 -4363
▁테일 -4364
▁김영 -4365
▁협박 -4366
▁메모리 -4367
▁녹음 -4368
▁귀신 -4369
▁합체 -4370
ake -4371
▁감옥 -4372
▁위장 -4373
▁뚜 -4374
먼트 -4375
▁의료 -4376
▁'' -4377
▁결론 -4378
▁이명 -4379
▁조지 -4380
▁웅 -4381
▁아니면 -4382
▁인하 -4383
ect -4384
구리 -4385
▁체포 -4386
our -4387
▁꼬리 -4388
▁으론 -4389
▁는다면 -4390
OW -4391
▁어쨌든 -4392
▁호감 -4393
▁파트너 -4394
▁아시 -4395
ass -4396
▁곧바로 -4397
▁he -4398
▁험 -4399
oy -4400
▁피격 -4401
▁넘겨 -4402
▁세우 -4403
▁게시판 -4404
▁자라 -4405
▁출판 -4406
▁FI -4407
▁써먹 -4408
ire -4409
▁서부 -4410
▁외계 -4411
▁뷰 -4412
보드 -4413
▁잦 -4414
▁강의 -4415
도로 -4416
▁비아 -4417
▁스턴 -4418
▁웹툰 -4419
▁사신 -4420
▁모모 -4421
▁후속작 -4422
ark -4423
▁차트 -4424
▁히데 -4425
▁츄 -4426
▁기초 -4427
▁썩 -4428
▁삼국지 -4429
▁정면 -4430
▁예비 -4431
▁아기 -4432
▁부서 -4433
▁합성 -4434
▁유로 -4435
어날 -4436
▁베스트 -4437
ite -4438
▁림 -4439
▁마키 -4440
▁한지 -4441
▁쉴 -4442
▁카스 -4443
▁구멍 -4444
▁축제 -4445
▁사제 -4446
▁랭킹 -4447
▁에다 -4448
▁문장 -4449
웨어 -4450
▁보낸 -4451
▁햄 -4452
▁나간 -4453
▁동화 -4454
▁일시 -4455
▁블리 -4456
▁토론 -4457
▁편곡 -4458
▁본작 -4459
▁퀄리티 -4460
▁토르 -4461
▁깜 -4462
▁공급 -4463
▁발매되 -4464
▁돕 -4465
▁부부 -4466
▁수련 -4467
▁저그 -4468
▁개방 -4469
주시 -4470
▁대가 -4471
ah -4472
▁인공 -4473
▁떨어졌 -4474
▁렛 -4475
▁안드로이드 -4476
▁단장 -4477
▁횡 -4478
▁FA -4479
▁내주 -4480
▁wh -4481
▁SR -4482
▁걸린 -4483
▁찾아가 -4484
레인 -4485
▁소형 -4486
▁다섯 -4487
▁룸 -4488
▁뺏 -4489
▁소원 -4490
▁매체 -4491
▁전면 -4492
▁고문 -4493
▁은하 -4494
성기 -4495
FC -4496
▁살리 -4497
▁대폭 -4498
▁kt -4499
▁마이클 -4500
ES -4501
▁슈팅 -4502
▁Cl -4503
▁트로 -4504
라이언 -4505
▁AR -4506
▁유행 -4507
▁립 -4508
▁곁 -4509
▁마리아 -4510
▁끈 -4511
▁플랫 -4512
▁해병 -4513
▁예능 -4514
▁활성 -4515
▁캐나다 -4516
▁투어 -4517
▁더라 -4518
▁보냈 -4519
▁과목 -4520
▁초간 -4521
UN -4522
▁클리 -4523
▁문학 -4524
▁파견 -4525
▁세이버 -4526
▁신호 -4527
▁대략 -4528
릭스 -4529
▁아일 -4530
▁싸울 -4531
▁목격 -4532
▁매직 -4533
▁에드 -4534
▁손가락 -4535
▁내장 -4536
▁넉 -4537
▁커맨드 -4538
▁왕조 -4539
▁시위 -4540
▁컬러 -4541
▁GT -4542
▁연타 -4543
iz -4544
▁옮겨 -4545
ound -4546
▁적군 -4547
▁그건 -4548
▁관중 -4549
▁외형 -4550
▁하고 -4551
▁포스트 -4552
▁간혹 -4553
▁스틸 -4554
▁긍정 -4555
▁김태 -4556
▁체인 -4557
▁팬덤 -4558
▁야스 -4559
던가 -4560
▁구원 -4561
▁이지 -4562
▁박근혜 -4563
▁일원 -4564
ime -4565
▁피부 -4566
▁의무 -4567
▁플레이오프 -4568
▁반사 -4569
▁식물 -4570
▁정글 -4571
▁희귀 -4572
▁소지 -4573
▁챌 -4574
▁프라이 -4575
▁최소한 -4576
▁육체 -4577
▁my -4578
▁펀치 -4579
▁가볍 -4580
▁수수 -4581
▁SD -4582
▁그대 -4583
▁블로그 -4584
스턴 -4585
▁코우 -4586
▁PD -4587
▁바위 -4588
▁김민 -4589
▁은근히 -4590
▁연인 -4591
▁크라 -4592
▁신라 -4593
LL -4594
▁상성 -4595
▁Gr -4596
우드 -4597
iv -4598
▁준수 -4599
▁타이거 -4600
▁대처 -4601
▁피스 -4602
잡이 -4603
▁구나 -4604
▁SC -4605
▁KIA -4606
▁합쳐 -4607
▁Me -4608
▁멘탈 -4609
▁수용 -4610
▁주말 -4611
▁대충 -4612
▁는지라 -4613
▁취하 -4614
▁아름다운 -4615
▁인근 -4616
▁오카 -4617
▁파크 -4618
▁불법 -4619
버트 -4620
▁섀 -4621
▁붙이 -4622
▁일격 -4623
▁메뉴 -4624
▁나뉘 -4625
ID -4626
페인 -4627
큐어 -4628
▁각자 -4629
▁상하 -4630
▁까다 -4631
▁예측 -4632
▁자치 -4633
▁개체 -4634
▁116 -4635
▁딩 -4636
▁특집 -4637
▁미라 -4638
▁환영 -4639
▁헤이 -4640
▁전철 -4641
▁영토 -4642
▁동부 -4643
▁박정 -4644
▁헤비 -4645
▁곡명 -4646
▁영문 -4647
▁조성 -4648
▁적대 -4649
▁뜯 -4650
▁다스 -4651
▁대지 -4652
▁펼쳐 -4653
▁홀로 -4654
▁SM -4655
▁끌려 -4656
▁멀쩡 -4657
▁My -4658
▁기사단 -4659
▁로즈 -4660
▁보안 -4661
▁그로 -4662
▁더더 -4663
시코 -4664
▁쏴 -4665
▁다를 -4666
OP -4667
▁국군 -4668
▁어떠 -4669
▁건축 -4670
▁130 -4671
▁하얀 -4672
▁서양 -4673
▁소중 -4674
▁커스 -4675
▁침공 -4676
디언 -4677
▁오랫 -4678
미야 -4679
▁원본 -4680
▁빨라 -4681
▁왈 -4682
▁냥 -4683
▁형사 -4684
▁계단 -4685
▁누나 -4686
▁바리 -4687
▁지우 -4688
▁강남 -4689
▁끄 -4690
▁안내 -4691
▁접속 -4692
▁더더욱 -4693
▁거인 -4694
▁어린이 -4695
▁튀어나 -4696
▁뭘 -4697
으면 -4698
▁주포 -4699
▁아바 -4700
▁갇 -4701
▁좌우 -4702
▁어른 -4703
▁탄창 -4704
▁훗 -4705
▁Pr -4706
▁결말 -4707
▁호텔 -4708
▁{{ -4709
▁올린 -4710
▁플로 -4711
▁기독 -4712
▁이길 -4713
▁첨 -4714
▁아닌가 -4715
▁유이 -4716
▁정찰 -4717
▁지도자 -4718
▁사우 -4719
▁호주 -4720
ge -4721
데스 -4722
▁면역 -4723
▁으려고 -4724
▁골든 -4725
▁깡 -4726
가미 -4727
▁회상 -4728
▁처벌 -4729
▁죄다 -4730
▁허나 -4731
▁스미 -4732
▁미안 -4733
▁액티브 -4734
▁대항 -4735
▁시선 -4736
▁시내버스 -4737
▁{{{ -4738
▁펫 -4739
▁와이 -4740
▁남겨 -4741
다리 -4742
▁https -4743
▁후기 -4744
▁절대로 -4745
▁딘 -4746
▁학부 -4747
▁현역 -4748
▁비해서 -4749
▁BE -4750
▁음원 -4751
▁닫 -4752
▁식당 -4753
▁작화 -4754
▁이루어지 -4755
▁퀴 -4756
▁괴수 -4757
ax -4758
ome -4759
▁상당수 -4760
▁빛나 -4761
▁포트 -4762
▁로그 -4763
▁히메 -4764
▁과연 -4765
▁메르 -4766
▁요코 -4767
▁에서부터 -4768
▁해적 -4769
▁하야 -4770
▁돌아왔 -4771
▁취미 -4772
▁아이스 -4773
▁재미있 -4774
▁바라보 -4775
바라 -4776
▁캐스팅 -4777
▁저녁 -4778
▁일기 -4779
덜란드 -4780
▁네덜란드 -4781
▁버스터 -4782
▁DF -4783
▁전문가 -4784
▁새벽 -4785
▁고스트 -4786
ance -4787
▁전진 -4788
▁프리큐어 -4789
▁느라 -4790
uc -4791
▁져서 -4792
▁꽂 -4793
▁돌아다니 -4794
▁주간 -4795
밀리 -4796
▁과제 -4797
▁튼 -4798
▁라인업 -4799
ick -4800
▁MF -4801
▁리듬 -4802
▁한동안 -4803
▁헤어 -4804
▁시계 -4805
▁아티스트 -4806
▁비행기 -4807
▁열쇠 -4808
▁한번 -4809
▁유치 -4810
▁고지 -4811
▁스키 -4812
▁깨닫 -4813
▁천재 -4814
▁Pl -4815
▁ch -4816
스탄 -4817
▁줄어 -4818
▁예시 -4819
닉스 -4820
▁검찰 -4821
▁죽일 -4822
▁오스트 -4823
▁기적 -4824
▁삐 -4825
▁자금 -4826
▁한참 -4827
▁촌 -4828
▁총선 -4829
▁방지 -4830
▁세워 -4831
▁고수 -4832
▁첫차 -4833
▁HD -4834
▁니코 -4835
구치 -4836
요시 -4837
▁승격 -4838
▁리드 -4839
10 -4840
▁몰랐 -4841
▁용기 -4842
▁\ -4843
ix -4844
▁우위 -4845
MA -4846
▁WW -4847
▁트레이드 -4848
▁어릴 -4849
▁트럭 -4850
ord -4851
▁마비 -4852
mer -4853
▁트윈 -4854
▁파츠 -4855
▁경기력 -4856
▁외치 -4857
▁방사 -4858
▁드레 -4859
▁보고 -4860
▁잡혀 -4861
▁?? -4862
▁이슬람 -4863
▁어지간 -4864
▁속하 -4865
▁들어갈 -4866
▁주사 -4867
▁휴대 -4868
▁안경 -4869
▁저장 -4870
▁양쪽 -4871
아지 -4872
▁못할 -4873
▁스타크래프트 -4874
▁160 -4875
ure -4876
아웃 -4877
▁보라 -4878
▁코코 -4879
▁위하 -4880
▁램 -4881
▁한마 -4882
▁갈수록 -4883
▁허리 -4884
▁개성 -4885
▁토끼 -4886
▁할아버지 -4887
▁농담 -4888
▁상한 -4889
▁나갈 -4890
▁디지털 -4891
▁캠페인 -4892
▁GB -4893
▁신비 -4894
▁캡틴 -4895
덩이 -4896
▁내려가 -4897
▁크리스마스 -4898
고리 -4899
프레 -4900
▁청소년 -4901
▁캠퍼스 -4902
▁빚 -4903
▁상급 -4904
▁동굴 -4905
▁개정 -4906
▁국어 -4907
▁무덤 -4908
▁영향력 -4909
▁받아들이 -4910
특별 -4911
▁어두 -4912
▁with -4913
▁문재 -4914
▁OST -4915
▁불린다 -4916
▁마침내 -4917
▁1992 -4918
▁오랫동안 -4919
▁조언 -4920
▁시아 -4921
▁체크 -4922
▁이영 -4923
▁죽인 -4924
▁다룬 -4925
▁유희왕 -4926
▁웃음 -4927
▁북부 -4928
▁모여 -4929
▁터키 -4930
▁나눠 -4931
▁방출 -4932
▁호위 -4933
▁나간다 -4934
▁화제 -4935
▁기독교 -4936
▁미술 -4937
▁마이너 -4938
▁인지도 -4939
▁김동 -4940
▁클래식 -4941
▁바퀴 -4942
▁KO -4943
▁해리 -4944
▁1993 -4945
▁연료 -4946
▁아이콘 -4947
라드 -4948
ud -4949
▁올해 -4950
▁텐데 -4951
▁릿 -4952
▁맞서 -4953
▁곽 -4954
▁가져가 -4955
▁장악 -4956
▁극복 -4957
▁안티 -4958
▁원소 -4959
▁접촉 -4960
▁어마 -4961
▁정원 -4962
양함 -4963
치기 -4964
▁클릭 -4965
▁별다른 -4966
▁의존 -4967
톨릭 -4968
▁베트남 -4969
▁중독 -4970
▁국방 -4971
▁귀찮 -4972
▁시마 -4973
▁SKT -4974
▁노인 -4975
▁일제 -4976
▁인정받 -4977
▁사도 -4978
▁다닌 -4979
▁멈추 -4980
▁결코 -4981
라이트 -4982
▁바이러스 -4983
▁라면서 -4984
▁하락 -4985
▁식량 -4986
▁선택지 -4987
▁아쉬운 -4988
▁태어난 -4989
▁흐름 -4990
▁톰 -4991
▁140 -4992
▁생존자 -4993
▁기도 -4994
▁놀이 -4995
▁무작 -4996
▁Ex -4997
▁모조리 -4998
▁헛 -4999
▁우라 -5000
ame -5001
▁수익 -5002
▁전신 -5003
▁하우스 -5004
80 -5005
▁윌리 -5006
▁sh -5007
▁쉐 -5008
▁비싸 -5009
▁칭찬 -5010
▁로우 -5011
▁본체 -5012
멘트 -5013
▁신설 -5014
▁보관 -5015
▁챌린 -5016
▁찔 -5017
▁캐논 -5018
▁으라 -5019
▁전멸 -5020
임스 -5021
▁JR -5022
▁부장 -5023
▁투명 -5024
▁공무원 -5025
▁대리 -5026
▁커리어 -5027
▁", -5028
AD -5029
▁손해 -5030
▁전성기 -5031
▁외전 -5032
▁휘두 -5033
▁적혀 -5034
▁핏 -5035
▁도끼 -5036
▁기아 -5037
▁어째서 -5038
▁체육관 -5039
▁취향 -5040
▁칩 -5041
▁개수 -5042
▁논리 -5043
▁쳤 -5044
몬드 -5045
▁de -5046
▁켜 -5047
▁이브 -5048
▁후방 -5049
▁치유 -5050
▁한마디 -5051
▁스승 -5052
▁노부 -5053
▁씹 -5054
세스 -5055
▁IC -5056
▁수십 -5057
▁루수 -5058
리그 -5059
▁나타난 -5060
ost -5061
▁비주 -5062
▁들어온 -5063
▁갈리 -5064
▁억지 -5065
▁우연히 -5066
▁카트 -5067
▁모래 -5068
▁눌러 -5069
▁심해 -5070
▁어스 -5071
▁돋 -5072
▁충성 -5073
▁기종 -5074
▁무릎 -5075
▁오가 -5076
▁최다 -5077
▁데드 -5078
▁에리 -5079
out -5080
▁정비 -5081
▁김종 -5082
▁가톨릭 -5083
▁동의 -5084
▁교장 -5085
▁Love -5086
▁툴 -5087
▁이터 -5088
▁변호사 -5089
▁올라왔 -5090
▁마린 -5091
▁무지 -5092
▁콜라보 -5093
▁재현 -5094
코토 -5095
old -5096
▁일반인 -5097
카리 -5098
▁유니폼 -5099
▁레이더 -5100
▁으러 -5101
▁첼 -5102
▁구경 -5103
▁집어 -5104
든가 -5105
▁들리 -5106
▁사막 -5107
▁GS -5108
▁제작자 -5109
▁당일 -5110
▁힙 -5111
▁노란 -5112
▁반동 -5113
▁세르 -5114
▁명성 -5115
▁소라 -5116
스키 -5117
▁적응 -5118
▁900 -5119
▁Un -5120
▁제임스 -5121
▁로고 -5122
▁이정 -5123
▁타선 -5124
▁맥스 -5125
▁충청 -5126
▁기여 -5127
▁구사 -5128
▁트랜 -5129
▁작곡가 -5130
own -5131
▁코미 -5132
▁법률 -5133
▁증언 -5134
▁소스 -5135
▁카츠 -5136
▁거미 -5137
▁오전 -5138
네스 -5139
▁사정거리 -5140
▁수류 -5141
▁쵸 -5142
▁선전 -5143
▁합의 -5144
▁202 -5145
▁자세히 -5146
▁업적 -5147
▁타인 -5148
▁패션 -5149
▁멕시코 -5150
▁무방 -5151
카드 -5152
▁잉글 -5153
▁개입 -5154
▁기량 -5155
▁둘째 -5156
▁더러 -5157
▁아일랜드 -5158
워크 -5159
▁아즈 -5160
▁몰라도 -5161
▁꿀 -5162
▁아요 -5163
▁타락 -5164
▁초보 -5165
▁연금 -5166
▁바깥 -5167
▁가짜 -5168
▁썰 -5169
▁유통 -5170
▁스트리 -5171
▁판매량 -5172
▁채워 -5173
▁찢 -5174
▁법원 -5175
▁자국 -5176
▁향하 -5177
▁놔 -5178
▁지켜보 -5179
▁할머니 -5180
▁잡지 -5181
▁상업 -5182
▁드라이브 -5183
▁스웨 -5184
▁내세 -5185
▁사라진 -5186
▁아쿠 -5187
▁폴란드 -5188
▁SH -5189
US -5190
시로 -5191
▁무라 -5192
▁북쪽 -5193
▁신부 -5194
▁의회 -5195
▁넥센 -5196
▁취임 -5197
▁화장실 -5198
▁조연 -5199
▁정수 -5200
▁LI -5201
▁일방 -5202
▁포격 -5203
▁수류탄 -5204
▁닭 -5205
▁EP -5206
▁유물 -5207
다이 -5208
▁주식 -5209
▁전후 -5210
▁루카 -5211
▁찌르 -5212
▁치킨 -5213
▁wik -5214
ave -5215
미니 -5216
▁복무 -5217
▁벌레 -5218
▁깔끔 -5219
▁숨겨진 -5220
▁가루 -5221
▁차기 -5222
▁히나 -5223
▁똥 -5224
▁그러니까 -5225
▁쏠 -5226
▁쌍둥이 -5227
▁주기 -5228
▁교실 -5229
▁과장 -5230
▁승점 -5231
▁출마 -5232
▁챙겨 -5233
▁금속 -5234
▁대개 -5235
▁FF -5236
pe -5237
▁펑 -5238
▁IS -5239
▁어드 -5240
ace -5241
▁결성 -5242
▁오사카 -5243
▁팽 -5244
▁들려 -5245
▁정착 -5246
▁남쪽 -5247
▁도주 -5248
▁인격 -5249
▁위상 -5250
▁드롭 -5251
per -5252
▁싱크 -5253
▁줘서 -5254
▁인조 -5255
▁포드 -5256
▁비례 -5257
▁흔적 -5258
▁연패 -5259
▁헐 -5260
▁XX -5261
달리 -5262
▁주일 -5263
▁자폭 -5264
▁동력 -5265
노우 -5266
▁채우 -5267
ng -5268
▁교차 -5269
▁처형 -5270
▁잠재 -5271
▁튕 -5272
▁냄새 -5273
▁독특 -5274
▁비싼 -5275
ice -5276
▁도적 -5277
▁오라 -5278
▁훗날 -5279
▁간신 -5280
▁스텔 -5281
▁권한 -5282
▁방어구 -5283
▁숭 -5284
▁공성 -5285
▁1991 -5286
▁거점 -5287
▁스터 -5288
네임 -5289
▁강도 -5290
▁네요 -5291
▁스마트폰 -5292
▁모를 -5293
▁스프링 -5294
▁위대 -5295
▁상호 -5296
▁화학 -5297
▁잡히 -5298
▁자책 -5299
▁매니저 -5300
▁글러 -5301
▁일찍 -5302
ont -5303
▁정치인 -5304
▁블러드 -5305
▁라이온 -5306
▁남녀 -5307
▁국립 -5308
▁연승 -5309
▁클레 -5310
▁CV -5311
▁새끼 -5312
▁1988 -5313
▁공룡 -5314
ov -5315
▁비상 -5316
▁부작 -5317
▁포항 -5318
▁포수 -5319
▁AD -5320
▁기용 -5321
▁클랜 -5322
▁귀환 -5323
▁몰락 -5324
▁시너지 -5325
▁CF -5326
▁We -5327
▁후술 -5328
▁일으킨 -5329
▁제갈 -5330
▁고작 -5331
▁불타 -5332
OD -5333
▁추억 -5334
가스 -5335
▁스튜디오 -5336
▁유대 -5337
▁행보 -5338
▁풀리 -5339
▁크리스탈 -5340
▁타수 -5341
▁스페이스 -5342
▁런던 -5343
▁갈라 -5344
▁이슈 -5345
랑이 -5346
▁개량 -5347
▁적당히 -5348
▁오타 -5349
▁각본 -5350
▁김재 -5351
▁지뢰 -5352
▁어려움 -5353
▁실망 -5354
▁사유 -5355
▁상술 -5356
랭크 -5357
▁대인 -5358
▁쫓아 -5359
▁시노 -5360
▁승률 -5361
나카 -5362
▁색깔 -5363
▁아케 -5364
▁아츠 -5365
▁내보 -5366
▁트라이 -5367
▁흥미 -5368
▁공세 -5369
▁혐오 -5370
▁주역 -5371
▁숙련 -5372
▁개막 -5373
▁언젠 -5374
▁105 -5375
자드 -5376
▁혈액 -5377
▁너희 -5378
▁이중 -5379
▁AM -5380
▁줄이 -5381
▁거치 -5382
▁광역시 -5383
▁녹색 -5384
▁길이 -5385
▁커피 -5386
▁루나 -5387
▁재단 -5388
▁가해 -5389
▁뜬금 -5390
▁카운트 -5391
▁미스터 -5392
▁봐서 -5393
러지 -5394
▁약해 -5395
로나 -5396
▁태어났 -5397
블린 -5398
가시 -5399
orld -5400
▁타로 -5401
▁자막 -5402
▁해피 -5403
▁다름없 -5404
ies -5405
▁인민 -5406
▁소위 -5407
▁나타난다 -5408
▁히어로즈 -5409
▁DS -5410
▁서포터 -5411
팡이 -5412
▁일람 -5413
▁널리 -5414
▁컸 -5415
▁리온 -5416
▁망치 -5417
▁코리아 -5418
▁나아가 -5419
▁.." -5420
ann -5421
▁화성 -5422
▁학력 -5423
▁생년 -5424
▁계통 -5425
▁금융 -5426
▁이젠 -5427
▁색상 -5428
▁나치 -5429
▁리타 -5430
▁몰라 -5431
▁스트라이크 -5432
▁이겨 -5433
▁노르 -5434
▁국왕 -5435
▁티켓 -5436
▁특전 -5437
▁SNS -5438
▁관람 -5439
▁면모 -5440
▁ED -5441
▁제작사 -5442
▁요금 -5443
▁흡혈 -5444
▁아마도 -5445
▁구슬 -5446
▁덧붙 -5447
▁흘리 -5448
▁미터 -5449
시타 -5450
▁온다 -5451
OC -5452
▁심사 -5453
특별시 -5454
▁영구 -5455
▁아이언 -5456
▁오크 -5457
▁싸워 -5458
고속 -5459
▁쓸모 -5460
▁차이점 -5461
▁단단 -5462
▁오직 -5463
▁하단 -5464
▁배터리 -5465
▁기숙 -5466
▁뿔 -5467
럼프 -5468
▁오랜만 -5469
▁까진 -5470
▁재산 -5471
다란 -5472
▁소대 -5473
▁증오 -5474
▁디지몬 -5475
▁펄 -5476
▁개시 -5477
▁느린 -5478
▁세종 -5479
BA -5480
▁시그 -5481
▁서울특별시 -5482
▁중량 -5483
▁CPU -5484
▁추종 -5485
▁사이버 -5486
▁미묘 -5487
▁칭호 -5488
▁어뢰 -5489
▁공공 -5490
▁호수 -5491
▁이루어진 -5492
▁생략 -5493
▁세븐 -5494
▁잉글랜드 -5495
▁혹시 -5496
▁맛있 -5497
▁엿 -5498
LE -5499
▁내지 -5500
▁중첩 -5501
▁DE -5502
▁가만 -5503
▁고구 -5504
▁보호막 -5505
▁올라온 -5506
▁좌석 -5507
▁만날 -5508
▁스팀 -5509
▁혐의 -5510
베르 -5511
▁민첩 -5512
▁히토 -5513
▁연령 -5514
▁오마 -5515
▁지경 -5516
▁총알 -5517
▁편입 -5518
▁부지 -5519
▁워커 -5520
티아 -5521
▁밝혀진 -5522
▁뎀 -5523
▁십자 -5524
▁언더 -5525
▁부른 -5526
▁협상 -5527
▁지르 -5528
▁애플 -5529
▁마약 -5530
저스 -5531
▁해상 -5532
▁쿼터 -5533
▁딴 -5534
▁메리 -5535
▁상단 -5536
▁휴식 -5537
▁전라 -5538
▁실전 -5539
▁LC -5540
▁본다 -5541
▁아저 -5542
▁단편 -5543
▁신사 -5544
▁네오 -5545
어마 -5546
▁태어나 -5547
▁하차 -5548
▁LV -5549
▁상인 -5550
▁타율 -5551
▁이익 -5552
▁예언 -5553
▁노벨 -5554
▁흐르 -5555
▁your -5556
▁후배 -5557
시스트 -5558
▁연예인 -5559
▁걸쳐 -5560
로디 -5561
▁곤란 -5562
▁가요 -5563
▁구석 -5564
▁아저씨 -5565
▁네트 -5566
▁찬스 -5567
▁정화 -5568
▁용서 -5569
ber -5570
▁막대 -5571
▁NE -5572
▁딜링 -5573
▁강요 -5574
▁중국어 -5575
▁펌 -5576
▁남겼 -5577
▁수장 -5578
▁탈퇴 -5579
▁어마어마 -5580
▁카카 -5581
▁기관총 -5582
ys -5583
▁익스 -5584
▁예산 -5585
사자 -5586
▁임대 -5587
▁189 -5588
▁어리 -5589
▁동쪽 -5590
▁언스 -5591
▁어려워 -5592
▁느낄 -5593
▁강자 -5594
▁공방 -5595
▁문구 -5596
▁턱 -5597
▁용량 -5598
▁SE -5599
▁개혁 -5600
▁가하 -5601
der -5602
▁바꾼 -5603
▁하루카 -5604
▁원칙 -5605
▁김현 -5606
aw -5607
▁캠프 -5608
▁모노 -5609
ION -5610
▁자극 -5611
▁진보 -5612
▁악당 -5613
▁It -5614
▁소장 -5615
▁수호자 -5616
▁금방 -5617
▁넘치 -5618
▁3000 -5619
▁상실 -5620
▁잠수함 -5621
▁부각 -5622
▁드럼 -5623
▁총리 -5624
▁포로 -5625
60 -5626
▁틸 -5627
▁큐브 -5628
▁원수 -5629
▁상관없 -5630
▁칼리 -5631
oo -5632
▁데몬 -5633
▁원하 -5634
이너 -5635
▁마디 -5636
▁교류 -5637
▁인치 -5638
▁루이 -5639
▁학자 -5640
▁집행 -5641
▁포르투 -5642
FF -5643
40 -5644
▁EN -5645
▁남긴 -5646
▁굿 -5647
▁BPM -5648
▁든다 -5649
▁에요 -5650
ike -5651
▁앨리스 -5652
▁얀 -5653
▁원문 -5654
▁유효 -5655
▁자전 -5656
▁메달 -5657
ream -5658
▁원주 -5659
▁얻어 -5660
▁저작 -5661
▁결전 -5662
▁표지 -5663
▁간신히 -5664
▁채팅 -5665
▁일족 -5666
▁가을 -5667
▁나나 -5668
▁후계 -5669
▁뱀파이어 -5670
▁로리 -5671
▁미쿠 -5672
▁125 -5673
▁무척 -5674
▁1989 -5675
▁타운 -5676
▁활발 -5677
▁엑스트라 -5678
▁신앙 -5679
▁중립 -5680
▁입지 -5681
▁헬기 -5682
▁Com -5683
▁엘리트 -5684
▁모토 -5685
▁들여 -5686
위대 -5687
▁피터 -5688
▁메시지 -5689
▁힌 -5690
술사 -5691
▁사형 -5692
▁저렴 -5693
▁해골 -5694
▁화물 -5695
▁무렵 -5696
▁카와 -5697
▁도루 -5698
▁낚시 -5699
▁기생 -5700
▁제트 -5701
▁마그 -5702
▁이끄 -5703
ory -5704
▁복지 -5705
▁담배 -5706
▁서번 -5707
▁어라 -5708
▁벌어진 -5709
▁칼날 -5710
▁짜증 -5711
▁더군 -5712
▁느낀 -5713
월일 -5714
▁첩 -5715
▁PV -5716
▁정예 -5717
▁그레 -5718
▁사명 -5719
▁모이 -5720
▁성남 -5721
▁서번트 -5722
▁ww -5723
▁요약 -5724
▁루비 -5725
▁재밌 -5726
▁안녕 -5727
▁말리 -5728
▁추구 -5729
▁UP -5730
▁미즈 -5731
▁일본인 -5732
▁행운 -5733
▁거울 -5734
▁위원장 -5735
▁동아 -5736
▁도망가 -5737
▁여야 -5738
▁레알 -5739
▁부딪 -5740
▁지라 -5741
▁존재감 -5742
iss -5743
▁영주 -5744
팩트 -5745
▁딜레이 -5746
▁잡아먹 -5747
▁신지 -5748
▁거듭 -5749
▁테라 -5750
▁애정 -5751
▁그랜드 -5752
▁나리 -5753
▁터널 -5754
▁생년월일 -5755
▁반전 -5756
▁대학원 -5757
▁주자 -5758
▁도둑 -5759
▁따라가 -5760
▁구축함 -5761
▁음모 -5762
▁바이오 -5763
▁순환 -5764
하면 -5765
▁www -5766
▁철학 -5767
데이 -5768
▁가동 -5769
▁격추 -5770
▁사라진다 -5771
▁캐스터 -5772
▁저질 -5773
▁잔뜩 -5774
▁최신 -5775
▁AS -5776
▁나선 -5777
▁멋진 -5778
▁사원 -5779
▁무역 -5780
▁플라이 -5781
라기 -5782
보이 -5783
▁피아노 -5784
▁엔젤 -5785
▁텍스트 -5786
▁참석 -5787
▁태평 -5788
▁휩 -5789
▁공허 -5790
▁라기 -5791
▁서쪽 -5792
▁알렉산 -5793
▁무서운 -5794
▁기구 -5795
▁돼서 -5796
▁모니 -5797
▁부적 -5798
▁심심 -5799
▁기숙사 -5800
▁언젠가 -5801
걸이 -5802
▁-> -5803
▁부스터 -5804
▁마신 -5805
▁늘어난 -5806
▁BL -5807
▁취약 -5808
▁비서 -5809
▁이집 -5810
▁공용 -5811
▁주차 -5812
▁이집트 -5813
▁써야 -5814
30 -5815
▁분신 -5816
▁that -5817
▁드래프트 -5818
ian -5819
▁분대 -5820
테르 -5821
▁궤도 -5822
chor -5823
▁상기 -5824
▁옳 -5825
▁준우 -5826
▁유적 -5827
▁통산 -5828
▁CJ -5829
▁체중 -5830
회사 -5831
▁토벌 -5832
▁쭉 -5833
▁초록 -5834
▁난입 -5835
▁유나이 -5836
▁권리 -5837
▁페널 -5838
▁교황 -5839
▁명단 -5840
▁확대 -5841
▁훼 -5842
▁탄환 -5843
▁이토 -5844
우마 -5845
▁윌리엄 -5846
▁피할 -5847
▁식민 -5848
io -5849
▁종목 -5850
▁Pro -5851
▁도박 -5852
게임 -5853
▁나츠 -5854
▁유나이티 -5855
▁복구 -5856
▁귀여운 -5857
▁왠지 -5858
▁경로 -5859
▁은신 -5860
▁출입 -5861
▁신전 -5862
▁알려졌 -5863
▁스펠 -5864
▁밍 -5865
▁이식 -5866
▁말투 -5867
▁브루 -5868
▁대선 -5869
▁악명 -5870
▁빠졌 -5871
▁하츠 -5872
소녀 -5873
▁기뻐 -5874
▁외계인 -5875
▁1970 -5876
▁건조 -5877
▁기울 -5878
▁글로벌 -5879
▁코멘트 -5880
▁트랜스 -5881
▁불사 -5882
▁기운 -5883
▁조리 -5884
▁둠 -5885
▁간접 -5886
▁형상 -5887
▁윗 -5888
정부 -5889
▁이수 -5890
▁업로드 -5891
▁에다가 -5892
▁Fl -5893
▁가방 -5894
▁가라 -5895
▁시라 -5896
▁발달 -5897
▁양성 -5898
▁고개 -5899
▁물려 -5900
▁레딧 -5901
▁와일드 -5902
▁레슬 -5903
▁아미 -5904
▁도라 -5905
▁연맹 -5906
▁하향 -5907
▁천만 -5908
▁숨기 -5909
▁김대 -5910
▁일치 -5911
▁어딘 -5912
▁적합 -5913
▁Br -5914
▁고도 -5915
▁명확 -5916
▁디스크 -5917
▁소유자 -5918
▁이드 -5919
▁제약 -5920
▁장탄 -5921
0000 -5922
▁살펴 -5923
▁뿜 -5924
▁유독 -5925
▁아메리카 -5926
▁나타났 -5927
▁전이 -5928
▁라이플 -5929
▁연극 -5930
▁미키 -5931
▁릴리 -5932
▁드라이버 -5933
▁커다란 -5934
▁해요 -5935
▁구글 -5936
▁정황 -5937
▁사후 -5938
▁anchor -5939
▁화재 -5940
▁;& -5941
▁이펙트 -5942
▁매장 -5943
▁딕 -5944
▁커녕 -5945
리나 -5946
▁리스크 -5947
▁크림 -5948
▁구리 -5949
▁끔찍 -5950
▁저택 -5951
▁팬텀 -5952
▁강점 -5953
▁헌법 -5954
▁wiki -5955
▁WWE -5956
▁곳곳 -5957
▁주택 -5958
▁아키라 -5959
▁나타내 -5960
▁실책 -5961
▁울프 -5962
▁갖춘 -5963
IP -5964
포트 -5965
▁로얄 -5966
▁할인 -5967
▁le -5968
▁백성 -5969
▁&# -5970
▁이민 -5971
▁170 -5972
▁리뷰 -5973
▁셜 -5974
▁평생 -5975
▁보완 -5976
▁앞두 -5977
▁암시 -5978
▁그램 -5979
▁사인 -5980
▁Or -5981
▁다이아몬드 -5982
▁문단 -5983
▁렐 -5984
▁만남 -5985
UM -5986
IG -5987
▁이겼 -5988
▁비주얼 -5989
▁운동장 -5990
▁하이퍼 -5991
▁그럭 -5992
▁조별 -5993
▁언덕 -5994
VD -5995
▁마블 -5996
▁답변 -5997
▁단축 -5998
▁이어서 -5999
▁야수 -6000
▁우르 -6001
▁허락 -6002
▁나마 -6003
▁충실 -6004
▁금액 -6005
저럭 -6006
▁웨이브 -6007
▁어필 -6008
▁뻗 -6009
▁망가 -6010
▁라니 -6011
▁메이드 -6012
▁고위 -6013
가리 -6014
▁치즈 -6015
▁승객 -6016
▁그럭저럭 -6017
▁테츠 -6018
▁여우 -6019
▁토니 -6020
TE -6021
▁걸맞 -6022
▁생긴다 -6023
▁박물 -6024
▁플래시 -6025
▁스테이 -6026
▁by -6027
▁1987 -6028
▁호기 -6029
▁원자 -6030
▁시합 -6031
▁비스 -6032
▁모자라 -6033
▁이른 -6034
▁덩치 -6035
▁샌드 -6036
▁불펜 -6037
▁감각 -6038
oth -6039
▁상식 -6040
란다 -6041
▁자이언츠 -6042
▁였을 -6043
▁항공기 -6044
▁가벼 -6045
▁Dr -6046
▁성립 -6047
▁위반 -6048
▁에르 -6049
▁파편 -6050
▁뛰어넘 -6051
az -6052
▁가르쳐 -6053
▁스웨덴 -6054
▁꼼 -6055
▁라라 -6056
▁트롤 -6057
▁스크린 -6058
▁승자 -6059
▁출격 -6060
▁잃어버 -6061
데미 -6062
▁토너 -6063
▁상영 -6064
ep -6065
▁려던 -6066
▁시원 -6067
▁구미 -6068
▁부자 -6069
▁긴장 -6070
man -6071
▁기동성 -6072
▁축복 -6073
비드 -6074
▁입대 -6075
▁배트맨 -6076
▁선고 -6077
▁유학 -6078
▁걸린다 -6079
▁매년 -6080
▁필리 -6081
▁집착 -6082
▁천하 -6083
▁급격 -6084
OU -6085
▁문재인 -6086
▁록맨 -6087
▁놓치 -6088
▁흩 -6089
▁니스 -6090
ale -6091
▁미네 -6092
▁;&# -6093
▁권장 -6094
▁캘 -6095
▁넘버 -6096
▁킬러 -6097
▁OP -6098
▁동성 -6099
▁사살 -6100
▁서구 -6101
▁작년 -6102
▁보드 -6103
▁서서 -6104
▁호칭 -6105
VA -6106
▁놨 -6107
▁창고 -6108
▁퇴장 -6109
▁내전 -6110
▁기인 -6111
▁아카데미 -6112
▁일대 -6113
▁플래그 -6114
▁통치 -6115
▁싫어 -6116
▁토마 -6117
▁해명 -6118
▁스폰 -6119
▁참가자 -6120
어진다 -6121
▁평점 -6122
▁맷 -6123
▁적중 -6124
▁분명히 -6125
▁보인 -6126
▁우에 -6127
▁한쪽 -6128
▁리오 -6129
▁마법소녀 -6130
▁케인 -6131
▁대수 -6132
▁스즈 -6133
▁결심 -6134
▁휘말 -6135
70 -6136
쟁이 -6137
▁정하 -6138
▁RPG -6139
ach -6140
▁따온 -6141
▁시공 -6142
▁구름 -6143
▁내렸 -6144
다나 -6145
▁실종 -6146
▁교과 -6147
▁노바 -6148
▁동점 -6149
▁관할 -6150
▁열매 -6151
▁탐험 -6152
arg -6153
▁떠났 -6154
운서 -6155
▁두들 -6156
▁아나운서 -6157
▁1500 -6158
▁용인 -6159
▁중형 -6160
▁전주 -6161
아나 -6162
▁Sc -6163
▁학기 -6164
부르크 -6165
ook -6166
▁그렇지만 -6167
▁죽였 -6168
▁사키 -6169
▁흑인 -6170
▁근거리 -6171
▁타쿠 -6172
▁읍 -6173
▁본진 -6174
▁싹 -6175
▁약화 -6176
▁결합 -6177
▁결투 -6178
ows -6179
▁경직 -6180
▁법인 -6181
▁5000 -6182
▁떠올리 -6183
▁쓰러뜨 -6184
▁정기 -6185
▁치르 -6186
▁리플 -6187
▁해안 -6188
▁잘라 -6189
▁팟 -6190
▁노려 -6191
▁가려 -6192
▁솜 -6193
▁111 -6194
▁호흡 -6195
orm -6196
▁토너먼트 -6197
▁수능 -6198
▁괜히 -6199
▁어판 -6200
▁생명체 -6201
▁전승 -6202
▁마스크 -6203
▁등지 -6204
▁헝 -6205
▁발렌 -6206
▁믹스 -6207
▁암살자 -6208
▁야생 -6209
▁내일 -6210
▁센스 -6211
▁호시 -6212
ish -6213
▁채보 -6214
▁파르 -6215
ky -6216
▁막내 -6217
▁쓰러뜨리 -6218
▁럼 -6219
▁연합군 -6220
▁악몽 -6221
▁Team -6222
▁천안 -6223
▁KBO -6224
▁완결 -6225
▁지위 -6226
▁페이스북 -6227
▁근본 -6228
▁크레 -6229
▁겹치 -6230
▁}} -6231
▁동아리 -6232
▁정차 -6233
▁뮤지컬 -6234
▁변환 -6235
▁불교 -6236
▁솔직 -6237
▁스위치 -6238
▁우정 -6239
▁본사 -6240
▁간지 -6241
▁BB -6242
▁박물관 -6243
▁엔드 -6244
▁슬라이 -6245
무시 -6246
▁Go -6247
▁선두 -6248
▁침략 -6249
▁휠 -6250
▁인디 -6251
ae -6252
▁휘두르 -6253
▁연습생 -6254
▁베리 -6255
▁침묵 -6256
▁통화 -6257
▁부를 -6258
GE -6259
▁침입 -6260
▁베타 -6261
▁보이스 -6262
▁지팡이 -6263
▁마우스 -6264
▁와타 -6265
▁머물 -6266
ug -6267
▁알아보 -6268
▁소음 -6269
▁장인 -6270
▁리카 -6271
Hz -6272
▁들어왔 -6273
▁부실 -6274
ade -6275
rom -6276
▁올릴 -6277
▁초인 -6278
▁동급 -6279
▁벌어졌 -6280
▁마물 -6281
일보 -6282
커스 -6283
든지 -6284
▁유발 -6285
▁트리플 -6286
▁타석 -6287
ile -6288
▁유력 -6289
▁챈 -6290
▁돌입 -6291
▁통계 -6292
▁면적 -6293
▁유격 -6294
▁판결 -6295
yle -6296
▁관리자 -6297
▁FIFA -6298
▁참모 -6299
▁키타 -6300
▁지불 -6301
▁영광 -6302
▁건가 -6303
▁교도 -6304
▁했으니 -6305
▁갈아 -6306
▁대왕 -6307
▁지진 -6308
▁서클 -6309
▁임팩트 -6310
▁일본군 -6311
▁법정 -6312
▁새롭 -6313
ash -6314
ower -6315
irl -6316
▁소방 -6317
ink -6318
반도 -6319
▁수급 -6320
▁철수 -6321
프리 -6322
▁1986 -6323
▁벙 -6324
▁히라 -6325
부로 -6326
▁깨달 -6327
데드 -6328
▁출구 -6329
▁균형 -6330
▁가죽 -6331
▁허가 -6332
▁무시무시 -6333
▁쓰러지 -6334
▁임신 -6335
▁ㅣ -6336
▁구할 -6337
▁무작위 -6338
▁노스 -6339
▁인피 -6340
▁대거 -6341
▁걸렸 -6342
▁재정 -6343
▁더군다나 -6344
▁CH -6345
▁무관 -6346
▁우타 -6347
▁언데드 -6348
▁가디언 -6349
▁보험 -6350
▁수비력 -6351
▁프리미엄 -6352
▁어렸 -6353
TS -6354
▁감지 -6355
▁세팅 -6356
▁CG -6357
은행 -6358
▁항복 -6359
▁콜로 -6360
▁간간 -6361
atch -6362
▁인질 -6363
▁채택 -6364
▁인종 -6365
▁폐쇄 -6366
▁인력 -6367
▁신발 -6368
▁썬더 -6369
▁블라 -6370
▁여러분 -6371
▁FW -6372
▁디젤 -6373
▁안개 -6374
▁시켜서 -6375
▁막판 -6376
▁격차 -6377
▁삽입 -6378
▁사라져 -6379
▁we -6380
▁몽골 -6381
▁기름 -6382
▁스쿨 -6383
▁반박 -6384
▁고블린 -6385
▁어딘가 -6386
▁철저 -6387
▁망했 -6388
▁인방 -6389
센트 -6390
▁이혼 -6391
▁단원 -6392
▁남북 -6393
▁제정 -6394
▁아끼 -6395
▁관계자 -6396
IM -6397
▁바디 -6398
▁선보였 -6399
▁핑크 -6400
▁경남 -6401
▁비전 -6402
▁DD -6403
▁데모 -6404
▁창원 -6405
▁출루 -6406
▁유인 -6407
ial -6408
▁리프 -6409
▁백인 -6410
▁존경 -6411
sh -6412
머스 -6413
▁트럼프 -6414
CG -6415
▁후계자 -6416
▁남매 -6417
▁포위 -6418
▁텟 -6419
▁여주 -6420
▁포켓몬스터 -6421
▁아닌데 -6422
▁살아가 -6423
▁배포 -6424
▁고구려 -6425
▁스파이더 -6426
▁들어서 -6427
▁무사히 -6428
▁싸웠 -6429
▁코르 -6430
▁아틀 -6431
▁이타 -6432
▁영원히 -6433
▁수면 -6434
▁골렘 -6435
▁투스 -6436
먼스 -6437
▁아인 -6438
▁쏜 -6439
▁예수 -6440
▁신나 -6441
끄러 -6442
▁스트레스 -6443
▁복제 -6444
▁챌린지 -6445
▁씌 -6446
▁War -6447
▁인용 -6448
▁매번 -6449
▁어두운 -6450
▁동양 -6451
▁일당 -6452
래시 -6453
▁김경 -6454
▁쓰였 -6455
▁고마 -6456
여객 -6457
▁ID -6458
▁체인지 -6459
▁복선 -6460
▁쿠라 -6461
▁오늘날 -6462
▁어이 -6463
▁팁 -6464
▁륜 -6465
▁벼 -6466
▁무너지 -6467
▁빌려 -6468
▁기세 -6469
전차 -6470
▁국당 -6471
▁다녀 -6472
▁갑작 -6473
▁캐치 -6474
▁소송 -6475
▁학습 -6476
▁Star -6477
▁LA -6478
▁물량 -6479
▁중복 -6480
▁106 -6481
▁개설 -6482
리스트 -6483
▁포르투갈 -6484
▁일으켜 -6485
코드 -6486
▁가만히 -6487
▁아테 -6488
▁지리 -6489
▁반해 -6490
▁끝난다 -6491
▁메이플 -6492
▁up -6493
▁보충 -6494
▁해치 -6495
▁수출 -6496
▁준우승 -6497
▁탕 -6498
▁왜곡 -6499
▁냐면 -6500
▁레지 -6501
▁에픽 -6502
▁동명 -6503
▁간단히 -6504
▁날카 -6505
▁즉사 -6506
필드 -6507
▁선행 -6508
▁보건 -6509
▁체험 -6510
▁해머 -6511
오루 -6512
▁코난 -6513
▁상담 -6514
▁축하 -6515
카이 -6516
▁오디션 -6517
▁장신 -6518
▁물고기 -6519
▁분열 -6520
▁대책 -6521
▁바뀐다 -6522
▁웰 -6523
▁이글 -6524
▁토크 -6525
▁자르 -6526
▁파이트 -6527
▁기상 -6528
▁정통 -6529
▁못지 -6530
▁미만 -6531
▁잠입 -6532
▁피닉스 -6533
천시 -6534
▁드릴 -6535
▁이주 -6536
▁동인 -6537
▁미나미 -6538
▁만만 -6539
▁데이트 -6540
▁귀엽 -6541
▁네트워크 -6542
▁뽀 -6543
▁중력 -6544
▁혼돈 -6545
▁코트 -6546
▁배정 -6547
▁닉네임 -6548
▁DVD -6549
티스 -6550
▁오키 -6551
키지 -6552
▁메이커 -6553
▁버섯 -6554
▁처분 -6555
▁시크 -6556
▁멜로디 -6557
▁해킹 -6558
▁PR -6559
▁전북 -6560
▁115 -6561
▁항의 -6562
▁공업 -6563
▁부드 -6564
▁오우 -6565
▁밝힌 -6566
▁포즈 -6567
화점 -6568
▁수석 -6569
▁선제 -6570
▁골라 -6571
▁나미 -6572
▁ON -6573
▁후원 -6574
▁여전 -6575
▁단행 -6576
▁진압 -6577
▁하마 -6578
▁자전거 -6579
▁넨 -6580
▁억지로 -6581
▁오메 -6582
▁102 -6583
▁야마토 -6584
▁줍 -6585
▁악기 -6586
ING -6587
▁줄어든 -6588
▁패키지 -6589
▁트릭 -6590
▁개업 -6591
▁수백 -6592
▁다녔 -6593
▁fe -6594
ous -6595
▁아랍 -6596
▁마드리 -6597
▁기재 -6598
▁벨트 -6599
▁사령부 -6600
▁입주 -6601
▁자본 -6602
▁유산 -6603
▁퍼포 -6604
▁배역 -6605
▁퍼포먼스 -6606
▁께서 -6607
▁장거리 -6608
▁기갑 -6609
▁For -6610
▁수명 -6611
▁Ne -6612
▁기동전 -6613
▁서포트 -6614
▁플러스 -6615
▁라그 -6616
▁장탄수 -6617
▁And -6618
att -6619
▁악화 -6620
▁돔 -6621
amp -6622
▁대포 -6623
▁이루어져 -6624
세대 -6625
▁성전 -6626
▁마드리드 -6627
▁궁금 -6628
▁은지 -6629
가드 -6630
▁콘텐츠 -6631
▁고리 -6632
▁오스트리아 -6633
▁사이코 -6634
▁옹호 -6635
▁닛 -6636
▁대치 -6637
▁우세 -6638
▁파멸 -6639
▁호랑이 -6640
▁통로 -6641
▁분쟁 -6642
▁}}} -6643
▁정발 -6644
▁파동 -6645
▁전제 -6646
▁프레이 -6647
▁야구장 -6648
게이 -6649
▁분해 -6650
야수 -6651
▁지냈 -6652
▁그날 -6653
▁이스라 -6654
▁사용자 -6655
▁가공 -6656
▁세부 -6657
▁신입 -6658
▁카구 -6659
▁GP -6660
▁드러났 -6661
▁유미 -6662
▁꿰 -6663
▁나기 -6664
▁도감 -6665
▁모험가 -6666
▁첼시 -6667
▁175 -6668
▁주니어 -6669
▁탐정 -6670
▁기력 -6671
바닥 -6672
▁Cr -6673
▁늘어났 -6674
▁논의 -6675
▁188 -6676
▁재회 -6677
▁Wind -6678
▁배달 -6679
▁무술 -6680
▁조약 -6681
▁다닌다 -6682
▁최상위 -6683
▁넬 -6684
아키 -6685
▁깜짝 -6686
▁아르헨 -6687
▁느려 -6688
▁김상 -6689
▁공정 -6690
자와 -6691
▁1985 -6692
▁비웃 -6693
▁처참 -6694
크로 -6695
▁행방 -6696
▁친한 -6697
▁광선 -6698
▁자꾸 -6699
▁디즈 -6700
▁세포 -6701
▁젤리 -6702
▁파생 -6703
하시 -6704
▁커지 -6705
me -6706
▁진주 -6707
▁버드 -6708
▁받아들여 -6709
▁산하 -6710
▁시트 -6711
▁모터 -6712
▁리라 -6713
▁양상 -6714
▁이긴 -6715
▁bl -6716
▁진학 -6717
▁무스 -6718
▁노조 -6719
▁체감 -6720
▁유성 -6721
▁박지 -6722
▁차체 -6723
AY -6724
▁위안 -6725
▁조우 -6726
▁후손 -6727
▁마코토 -6728
▁나비 -6729
▁아르헨티나 -6730
▁장미 -6731
▁증폭 -6732
텐도 -6733
▁토키 -6734
▁닌텐도 -6735
▁저지르 -6736
▁롬 -6737
▁터스 -6738
▁레일 -6739
▁터져 -6740
▁wid -6741
▁왜냐 -6742
▁조이 -6743
▁앗 -6744
ms -6745
▁강원도 -6746
▁고로 -6747
▁여학생 -6748
ib -6749
▁김진 -6750
▁즈음 -6751
64 -6752
▁독재 -6753
▁아동 -6754
▁폭행 -6755
▁관점 -6756
▁사귀 -6757
▁부착 -6758
▁퍼지 -6759
▁쪼 -6760
▁주둔 -6761
▁니콜 -6762
▁금메달 -6763
▁al -6764
▁방치 -6765
▁규격 -6766
ft -6767
▁업계 -6768
▁난사 -6769
▁검술 -6770
▁페널티 -6771
▁조기 -6772
▁휘하 -6773
▁베네 -6774
▁커서 -6775
now -6776
▁시카 -6777
▁드루 -6778
▁띠 -6779
▁한두 -6780
▁공수 -6781
▁듀오 -6782
▁전파 -6783
▁질투 -6784
▁350 -6785
▁제독 -6786
벌레 -6787
▁신데 -6788
▁전무 -6789
▁width -6790
▁이걸로 -6791
▁브레 -6792
▁중세 -6793
▁무인 -6794
▁훈장 -6795
▁Gam -6796
승부 -6797
▁택시 -6798
▁불량 -6799
▁톨 -6800
▁조커 -6801
MP -6802
▁고장 -6803
▁베테 -6804
▁PP -6805
▁세웠 -6806
▁파란색 -6807
ps -6808
▁경주 -6809
렐라 -6810
▁떠난 -6811
▁측정 -6812
▁감상 -6813
▁드론 -6814
▁IN -6815
▁소요 -6816
▁중장 -6817
▁면허 -6818
▁방송국 -6819
▁개발자 -6820
▁나요 -6821
▁BS -6822
▁속한다 -6823
▁스트리트 -6824
비전 -6825
▁감동 -6826
▁이스라엘 -6827
▁김기 -6828
▁스탠드 -6829
▁도저히 -6830
▁오염 -6831
▁늘리 -6832
▁능력자 -6833
▁전동 -6834
oll -6835
▁토큰 -6836
▁승무원 -6837
▁1984 -6838
▁세인트 -6839
▁약탈 -6840
▁루스 -6841
▁최적 -6842
▁기원전 -6843
히코 -6844
▁부사 -6845
TV -6846
▁후자 -6847
▁틴 -6848
▁트루 -6849
▁이온 -6850
pl -6851
▁지사 -6852
▁BR -6853
▁시상 -6854
▁아아 -6855
▁발목 -6856
▁Man -6857
12 -6858
▁신도 -6859
▁AKB -6860
▁대단히 -6861
▁디바 -6862
▁하하 -6863
▁룩 -6864
▁산탄 -6865
▁티아 -6866
▁국판 -6867
▁스캔 -6868
▁맡기 -6869
▁루머 -6870
▁운수 -6871
▁위성 -6872
▁피트 -6873
▁후퇴 -6874
태프 -6875
▁돌아와 -6876
▁나루토 -6877
▁토시 -6878
▁에디 -6879
port -6880
▁UN -6881
▁유니크 -6882
▁우월 -6883
▁닝 -6884
▁루이스 -6885
▁세운 -6886
▁부러 -6887
▁기장 -6888
▁All -6889
▁우치 -6890
▁옮기 -6891
▁광장 -6892
▁내려오 -6893
▁주행 -6894
▁선거구 -6895
▁아시안 -6896
▁그래서인지 -6897
▁이종 -6898
▁스텝 -6899
번에 -6900
▁왕위 -6901
▁브로 -6902
▁루크 -6903
▁식민지 -6904
▁아레나 -6905
▁코마 -6906
신교 -6907
▁상관없이 -6908
▁샷건 -6909
▁바론 -6910
▁히가시 -6911
▁ex -6912
▁혈액형 -6913
▁선보이 -6914
▁소용 -6915
▁나노 -6916
▁서서히 -6917
▁반짝 -6918
▁조용히 -6919
▁자비 -6920
▁자녀 -6921
▁던가 -6922
카락 -6923
▁달라지 -6924
▁창단 -6925
▁머리카락 -6926
▁Part -6927
▁철권 -6928
▁SU -6929
▁과도 -6930
▁베기 -6931
▁에반 -6932
▁제출 -6933
▁112 -6934
▁토미 -6935
▁올라갔 -6936
▁친해 -6937
경기 -6938
▁라이너 -6939
▁KR -6940
▁까이 -6941
▁조롱 -6942
▁공백 -6943
▁기둥 -6944
▁야간 -6945
▁분당 -6946
▁명의 -6947
▁아가씨 -6948
▁다운로드 -6949
▁원리 -6950
▁En -6951
▁붐 -6952
▁간호 -6953
▁비명 -6954
▁얻어맞 -6955
▁노가 -6956
▁일화 -6957
▁힐러 -6958
▁향한 -6959
▁끊임 -6960
▁요인 -6961
ond -6962
▁연고 -6963
▁수월 -6964
▁뻥 -6965
세서 -6966
▁철거 -6967
키퍼 -6968
▁진이 -6969
▁처지 -6970
어놓 -6971
▁마감 -6972
▁투척 -6973
▁프렌 -6974
▁려다 -6975
▁쇼핑 -6976
▁백작 -6977
▁바꿀 -6978
▁대시 -6979
▁DC -6980
ment -6981
▁실장 -6982
▁돌연 -6983
▁막히 -6984
▁장사 -6985
▁보존 -6986
▁LP -6987
▁쓰여 -6988
▁몫 -6989
▁중시 -6990
▁캣 -6991
▁Sup -6992
▁잡아내 -6993
▁더빙 -6994
▁굵 -6995
더라 -6996
필더 -6997
▁미드필더 -6998
▁절차 -6999
▁고증 -7000
▁리즈 -7001
▁라우 -7002
▁줄거리 -7003
▁루피 -7004
▁Mar -7005
▁타일 -7006
▁Fate -7007
▁십시오 -7008
▁뒤늦 -7009
▁프란 -7010
▁전망 -7011
▁고인 -7012
▁108 -7013
ase -7014
▁범죄자 -7015
데레 -7016
▁시신 -7017
아이 -7018
▁막상 -7019
▁반부 -7020
▁타이거즈 -7021
▁닐 -7022
▁갑작스 -7023
▁무산 -7024
▁엑시 -7025
▁스러워 -7026
▁경악 -7027
▁AN -7028
▁듀스 -7029
▁수동 -7030
▁수색 -7031
▁합병 -7032
▁호소 -7033
▁온천 -7034
▁쇼크 -7035
▁주류 -7036
▁챙기 -7037
▁모로 -7038
▁저하 -7039
▁시외 -7040
도리 -7041
유럽 -7042
▁시바 -7043
▁오락 -7044
▁메일 -7045
▁특급 -7046
▁긴급 -7047
▁여인 -7048
▁세라 -7049
▁원조 -7050
▁라이온즈 -7051
ool -7052
▁풀려 -7053
▁가까워 -7054
하르트 -7055
▁스리 -7056
▁바스 -7057
▁에릭 -7058
▁식품 -7059
▁고객 -7060
▁와카 -7061
▁줄여 -7062
▁골키퍼 -7063
▁나폴 -7064
▁배드 -7065
▁인권 -7066
▁평일 -7067
▁낙하 -7068
▁합계 -7069
▁360 -7070
▁유재 -7071
▁117 -7072
▁배급 -7073
▁빅토 -7074
▁꼬마 -7075
▁청와 -7076
▁생애 -7077
▁의자 -7078
▁걸즈 -7079
▁마계 -7080
블로 -7081
▁우유 -7082
▁교단 -7083
▁성당 -7084
▁키워 -7085
투스 -7086
▁지칭 -7087
▁발굴 -7088
▁러시 -7089
런트 -7090
▁복합 -7091
▁막아내 -7092
▁킷 -7093
▁실은 -7094
▁직장 -7095
▁안양 -7096
▁로빈 -7097
▁잠실 -7098
▁남아 -7099
▁샤이 -7100
▁증상 -7101
▁임금 -7102
▁스포일러 -7103
▁One -7104
▁며칠 -7105
▁방위 -7106
▁강림 -7107
▁GO -7108
ph -7109
▁팡 -7110
▁폭파 -7111
구나 -7112
▁고소 -7113
▁만일 -7114
▁확장팩 -7115
혀서 -7116
▁청와대 -7117
▁공인 -7118
▁달하 -7119
▁해라 -7120
▁국경 -7121
▁어시스트 -7122
▁오이 -7123
▁꽉 -7124
▁여고 -7125
▁당당 -7126
▁부임 -7127
▁개별 -7128
▁유의 -7129
▁버려서 -7130
▁미루 -7131
산시 -7132
▁그라운드 -7133
▁후회 -7134
▁로이 -7135
틀러 -7136
ree -7137
▁Oh -7138
▁기묘 -7139
▁극한 -7140
▁로버트 -7141
▁뱃 -7142
▁배수 -7143
▁뱅크 -7144
▁명백 -7145
▁오로지 -7146
▁거북 -7147
▁파울 -7148
▁프린세스 -7149
▁교복 -7150
▁코스튬 -7151
▁예고편 -7152
▁특별히 -7153
▁그거 -7154
▁사나 -7155
▁포스터 -7156
▁선사 -7157
▁역습 -7158
▁통틀 -7159
플레이 -7160
▁올라간다 -7161
▁시로 -7162
▁비치 -7163
▁학생회 -7164
▁청주 -7165
▁개장 -7166
▁쳐서 -7167
▁히든 -7168
▁헨리 -7169
▁집어넣 -7170
▁As -7171
▁극도 -7172
▁아이러 -7173
▁엎 -7174
▁곱 -7175
▁New -7176
▁회담 -7177
▁쓸데 -7178
학자 -7179
리온 -7180
▁도트 -7181
▁하이라이트 -7182
▁조명 -7183
우리 -7184
▁되살 -7185
▁두들겨 -7186
▁수염 -7187
ason -7188
베스 -7189
▁퍼즐 -7190
▁거든 -7191
불명 -7192
▁FM -7193
▁쉬워 -7194
▁니아 -7195
▁관찰 -7196
▁뜬금없이 -7197
▁사야 -7198
▁여객 -7199
▁103 -7200
▁되게 -7201
▁저지른 -7202
카이도 -7203
▁어쩌면 -7204
ai -7205
릴라 -7206
▁오더 -7207
aby -7208
▁불행 -7209
▁렌즈 -7210
▁개신교 -7211
▁모집 -7212
▁바른 -7213
▁엇 -7214
▁헷 -7215
▁성질 -7216
▁술사 -7217
불호 -7218
▁호불호 -7219
러그 -7220
▁실존 -7221
▁비스트 -7222
▁마케 -7223
▁양손 -7224
▁흰색 -7225
크라 -7226
▁세뇌 -7227
▁트레일러 -7228
▁부동 -7229
▁1960 -7230
▁유언 -7231
▁동경 -7232
▁에로 -7233
▁셔틀 -7234
▁매출 -7235
▁장로 -7236
▁흔들리 -7237
▁케이드 -7238
▁220 -7239
▁보라색 -7240
▁유기 -7241
▁각오 -7242
▁CS -7243
도르 -7244
▁JP -7245
▁무섭 -7246
▁바지 -7247
▁물품 -7248
저리 -7249
그리 -7250
▁결계 -7251
▁올스타 -7252
▁트레이너 -7253
▁우주선 -7254
▁햇 -7255
▁과학자 -7256
▁찾아보 -7257
▁프로토 -7258
▁un -7259
▁지인 -7260
▁캐시 -7261
▁알라 -7262
▁모듈 -7263
▁항구 -7264
▁구르 -7265
▁들어올 -7266
▁샵 -7267
▁손상 -7268
▁떠오르 -7269
▁샬 -7270
▁유망 -7271
▁오브젝트 -7272
▁초콜 -7273
▁타르 -7274
▁나스 -7275
키아 -7276
▁심의 -7277
에이 -7278
▁타이탄 -7279
▁코미디 -7280
▁여파 -7281
▁웨스트 -7282
▁회색 -7283
▁라크 -7284
▁z -7285
▁연봉 -7286
▁UE -7287
▁우즈 -7288
▁240 -7289
▁라즈 -7290
▁법칙 -7291
▁원곡 -7292
돌이 -7293
▁국정 -7294
▁윈드 -7295
▁비유 -7296
▁지향 -7297
▁tv -7298
▁풋 -7299
oon -7300
▁무승부 -7301
▁진격 -7302
▁포탄 -7303
▁폐기 -7304
▁이와 -7305
▁엘리자 -7306
▁거친 -7307
▁태평양 -7308
▁손실 -7309
▁늘려 -7310
마크 -7311
▁담긴 -7312
▁128 -7313
싱턴 -7314
▁치열 -7315
▁김용 -7316
90 -7317
▁드로우 -7318
▁늙 -7319
▁정반 -7320
▁가져오 -7321
▁홀드 -7322
베이 -7323
▁유출 -7324
▁추리 -7325
▁포장 -7326
MS -7327
▁건국 -7328
▁국장 -7329
▁광산 -7330
▁신선 -7331
▁지워 -7332
▁브라운 -7333
▁함부로 -7334
저기 -7335
▁따뜻 -7336
▁내게 -7337
▁무공 -7338
▁영지 -7339
▁리버풀 -7340
거지 -7341
▁갤러 -7342
act -7343
▁이글스 -7344
▁제갈량 -7345
▁즉위 -7346
▁우드 -7347
▁맥주 -7348
▁제네 -7349
ox -7350
▁짐승 -7351
▁중순 -7352
▁임기 -7353
▁엄밀 -7354
▁발리 -7355
▁트랩 -7356
▁장판 -7357
토스 -7358
▁코믹 -7359
▁슬로 -7360
▁노동자 -7361
라노 -7362
hen -7363
▁클론 -7364
▁패전 -7365
▁단기 -7366
▁반감 -7367
▁배려 -7368
▁이웃 -7369
▁닷 -7370
▁하스 -7371
▁여기저기 -7372
▁합리 -7373
ARD -7374
▁워크래프트 -7375
▁모스 -7376
▁생길 -7377
▁서머 -7378
▁안심 -7379
▁탐지 -7380
▁go -7381
▁원더 -7382
메이 -7383
▁스핀 -7384
▁아바타 -7385
▁먹히 -7386
▁후미 -7387
▁사이클 -7388
▁간주 -7389
▁TVA -7390
▁네티 -7391
▁최우 -7392
▁하프 -7393
▁매달 -7394
▁양자 -7395
▁쿤 -7396
▁살펴보 -7397
▁%/ -7398
▁지녔 -7399
▁알렉스 -7400
▁기수 -7401
▁독점 -7402
▁커스텀 -7403
▁계수 -7404
▁백제 -7405
▁섀도우 -7406
ank -7407
▁리안 -7408
▁트리거 -7409
▁트라우마 -7410
▁휴가 -7411
▁로이드 -7412
▁마땅 -7413
▁당대 -7414
▁라틴 -7415
▁키라 -7416
▁트로피 -7417
▁지연 -7418
▁레온 -7419
▁관통력 -7420
▁신용 -7421
▁장난감 -7422
▁시비 -7423
▁단검 -7424
▁사립 -7425
▁방탄 -7426
▁스나이 -7427
▁여럿 -7428
▁상륙 -7429
깨비 -7430
▁대조 -7431
ich -7432
▁생전 -7433
▁벤치 -7434
▁야쿠 -7435
▁김준 -7436
▁나르 -7437
▁콤비 -7438
▁일요일 -7439
▁옐 -7440
▁디시 -7441
▁소프트웨어 -7442
▁World -7443
▁날씨 -7444
▁1982 -7445
▁신자 -7446
▁디즈니 -7447
▁JT -7448
▁우익 -7449
▁신데렐라 -7450
▁단종 -7451
포르 -7452
ear -7453
▁이모 -7454
▁시리아 -7455
▁아이러니 -7456
▁할까 -7457
▁시인 -7458
▁혜택 -7459
ife -7460
▁챔피언십 -7461
▁쏟아 -7462
▁프라임 -7463
▁토요일 -7464
ary -7465
▁잡아 -7466
lect -7467
▁태국 -7468
▁신속 -7469
▁Mk -7470
▁수습 -7471
▁쳐들 -7472
▁선임 -7473
▁음료 -7474
▁그만두 -7475
▁사법 -7476
블리 -7477
▁권유 -7478
란히 -7479
▁손오 -7480
▁자아 -7481
▁당사자 -7482
▁변수 -7483
▁파밍 -7484
▁독일군 -7485
▁주어지 -7486
▁갚 -7487
▁센서 -7488
▁도장 -7489
▁허무 -7490
하나 -7491
▁방송사 -7492
▁순양함 -7493
▁동해 -7494
▁근원 -7495
▁네티즌 -7496
▁권위 -7497
▁일으켰 -7498
하마 -7499
▁막강 -7500
▁스트라이커 -7501
▁추세 -7502
▁튕겨 -7503
▁벡 -7504
▁스피릿 -7505
▁실내 -7506
에르 -7507
싸움 -7508
▁서바이 -7509
▁의학 -7510
▁서기 -7511
▁지목 -7512
반기 -7513
▁려다가 -7514
uk -7515
AP -7516
▁기다려 -7517
▁추방 -7518
▁all -7519
▁상사 -7520
▁슬라 -7521
▁라스트 -7522
▁경호 -7523
▁데려가 -7524
▁후임 -7525
키리 -7526
ET -7527
▁약물 -7528
▁LIVE -7529
렉션 -7530
▁전생 -7531
▁끓 -7532
▁버스트 -7533
▁키보드 -7534
way -7535
▁SF -7536
▁마카 -7537
▁비틀 -7538
▁짐작 -7539
▁쌀 -7540
쿠라 -7541
▁프론 -7542
▁탭 -7543
사기 -7544
▁카더라 -7545
▁결제 -7546
▁전남 -7547
▁불렸 -7548
▁유혹 -7549
▁될지 -7550
▁선장 -7551
▁표면 -7552
▁드레스 -7553
▁얽 -7554
▁조상 -7555
▁배출 -7556
▁185 -7557
우치 -7558
▁흡사 -7559
▁극히 -7560
▁지력 -7561
▁후반기 -7562
ple -7563
▁침대 -7564
▁구조물 -7565
▁벌였 -7566
▁Day -7567
▁유전자 -7568
▁김해 -7569
▁엽 -7570
타카 -7571
▁논쟁 -7572
▁근접전 -7573
▁Fr -7574
▁태클 -7575
▁1983 -7576
▁기호 -7577
▁고치 -7578
▁실시간 -7579
▁설령 -7580
▁진상 -7581
▁패밀리 -7582
▁줌 -7583
▁경북 -7584
▁정석 -7585
▁낙선 -7586
▁감수 -7587
▁몰리 -7588
▁새겨 -7589
▁았었 -7590
▁마피아 -7591
▁좌절 -7592
▁흔한 -7593
▁강사 -7594
▁동속 -7595
▁니혼 -7596
▁are -7597
▁합동 -7598
▁페리 -7599
사리 -7600
▁끌어올 -7601
▁창설 -7602
▁매니아 -7603
▁느꼈 -7604
▁둘러보 -7605
▁간간히 -7606
▁스타디 -7607
숭이 -7608
▁로보 -7609
▁비극 -7610
▁119 -7611
노리 -7612
▁포획 -7613
▁찾아오 -7614
나미 -7615
▁물체 -7616
▁울트라맨 -7617
▁do -7618
▁nd -7619
▁역임 -7620
ype -7621
ens -7622
▁집권 -7623
▁원형 -7624
▁DPS -7625
▁낭비 -7626
▁백화점 -7627
▁성배 -7628
▁맞춘 -7629
▁거둔 -7630
▁타가 -7631
▁시온 -7632
▁중상 -7633
▁lv -7634
▁사무소 -7635
▁전날 -7636
▁{{{# -7637
던지 -7638
▁도리 -7639
aster -7640
▁범용 -7641
▁MB -7642
▁빌딩 -7643
▁정교 -7644
orn -7645
ork -7646
▁튼튼 -7647
▁손오공 -7648
▁명목 -7649
▁그치 -7650
▁소모량 -7651
▁굴러 -7652
▁특공 -7653
▁해병대 -7654
▁연구원 -7655
▁페어 -7656
버려 -7657
▁혀 -7658
▁구동 -7659
▁피로 -7660
▁퀵 -7661
▁출혈 -7662
▁펼쳤 -7663
▁동남 -7664
▁마트 -7665
▁엄격 -7666
▁123 -7667
사이 -7668
▁띄우 -7669
▁미궁 -7670
▁변태 -7671
▁의장 -7672
▁한반도 -7673
▁공감 -7674
▁104 -7675
▁위로 -7676
▁사악 -7677
▁콘솔 -7678
▁삼각 -7679
▁푼 -7680
▁베어스 -7681
11 -7682
▁헤르 -7683
스티벌 -7684
▁지선 -7685
▁페스티벌 -7686
▁질병 -7687
▁생체 -7688
▁가벼운 -7689
▁수직 -7690
▁부스트 -7691
▁해져 -7692
▁호남 -7693
▁대타 -7694
▁베테랑 -7695
▁땡 -7696
▁배제 -7697
ans -7698
▁질주 -7699
▁Ad -7700
▁미미 -7701
▁가진다 -7702
▁Up -7703
▁내린 -7704
▁스태프 -7705
▁DP -7706
▁하인 -7707
▁109 -7708
▁Wi -7709
▁데이비드 -7710
▁복원 -7711
▁젖 -7712
▁강렬 -7713
ons -7714
▁동행 -7715
▁가질 -7716
▁관측 -7717
▁바나 -7718
▁Sw -7719
▁양반 -7720
▁오메가 -7721
▁실상 -7722
▁AA -7723
▁직선 -7724
▁스즈키 -7725
▁빨간색 -7726
▁래퍼 -7727
▁OVA -7728
▁공대 -7729
▁단행본 -7730
▁개국 -7731
▁엑시즈 -7732
▁제물 -7733
▁돌아간다 -7734
▁휘둘 -7735
버그 -7736
▁탐색 -7737
▁본토 -7738
▁특별시 -7739
▁style -7740
ey -7741
▁우측 -7742
어졌 -7743
▁진급 -7744
▁케이블 -7745
▁비추 -7746
▁오니 -7747
▁KOF -7748
▁토요 -7749
▁쨩 -7750
▁도깨비 -7751
▁디펜 -7752
▁들어와 -7753
▁오지 -7754
▁페미니 -7755
▁전락 -7756
▁약자 -7757
very -7758
▁스플 -7759
▁다가오 -7760
▁관여 -7761
▁sp -7762
▁라그나 -7763
▁무실 -7764
▁센트 -7765
▁블로 -7766
▁리코 -7767
▁장성 -7768
▁브레이커 -7769
▁선조 -7770
▁광기 -7771
▁차리 -7772
▁발라 -7773
▁거론 -7774
▁세금 -7775
▁엔지 -7776
▁앰 -7777
▁연쇄 -7778
▁ES -7779
▁우호 -7780
▁아스카 -7781
▁잉여 -7782
▁메리트 -7783
▁변동 -7784
▁즐겨 -7785
NA -7786
차기 -7787
ex -7788
ung -7789
▁마타 -7790
▁스와 -7791
▁고무 -7792
▁총합 -7793
▁본관 -7794
▁III -7795
▁스테이션 -7796
▁모은 -7797
공항 -7798
▁친절 -7799
▁땅볼 -7800
▁끼치 -7801
▁논문 -7802
▁한창 -7803
▁코토 -7804
▁인재 -7805
▁유탄 -7806
▁바둑 -7807
▁백업 -7808
▁시달리 -7809
▁모음 -7810
▁워싱턴 -7811
렉스 -7812
▁군수 -7813
▁괴롭히 -7814
▁싼 -7815
▁오노 -7816
다보 -7817
▁친다 -7818
▁해양 -7819
타입 -7820
▁촉수 -7821
▁히로시 -7822
▁전격 -7823
▁긁 -7824
▁훼손 -7825
▁감싸 -7826
박스 -7827
▁UEFA -7828
▁위엄 -7829
▁소니 -7830
▁그랑 -7831
▁친하 -7832
▁옴 -7833
▁수비수 -7834
▁단발 -7835
▁명문 -7836
▁하급 -7837
▁축소 -7838
▁장애물 -7839
▁대박 -7840
▁마술사 -7841
▁을수록 -7842
▁리모 -7843
▁카를 -7844
▁이럴 -7845
나기 -7846
▁라가 -7847
EM -7848
▁응용 -7849
▁중지 -7850
▁민주주의 -7851
능력 -7852
▁프리미어 -7853
▁벅 -7854
▁쫒 -7855
▁형편 -7856
▁어색 -7857
▁박살내 -7858
▁마오 -7859
▁에이지 -7860
▁구장 -7861
▁재학 -7862
께끼 -7863
▁성실 -7864
▁수수께끼 -7865
▁취업 -7866
▁스타디움 -7867
▁치카 -7868
▁돌아갔 -7869
▁스위스 -7870
▁물어 -7871
▁RA -7872
▁할로 -7873
▁그러다가 -7874
▁강호 -7875
▁!" -7876
ll -7877
▁최저 -7878
▁역량 -7879
▁안쪽 -7880
▁구성원 -7881
▁사리 -7882
▁바르셀 -7883
▁as -7884
anc -7885
▁확산 -7886
▁고스 -7887
▁바르셀로나 -7888
▁데빌 -7889
▁창문 -7890
▁이어졌 -7891
▁중고 -7892
▁짙 -7893
▁미지 -7894
▁우회 -7895
AK -7896
▁아지 -7897
▁리퍼 -7898
▁트윈스 -7899
▁징역 -7900
▁쫓겨 -7901
▁노란색 -7902
▁초콜릿 -7903
▁겜 -7904
▁츠카 -7905
▁유망주 -7906
▁Windows -7907
▁고는 -7908
▁아까 -7909
▁제왕 -7910
▁노가다 -7911
▁물러나 -7912
▁해질 -7913
▁드문 -7914
▁역명 -7915
▁워크 -7916
체스터 -7917
▁메카닉 -7918
▁썸 -7919
▁빈도 -7920
▁렉스 -7921
▁깃발 -7922
▁코바 -7923
▁찾아온 -7924
▁no -7925
▁인자 -7926
▁카카오 -7927
우트 -7928
▁강등 -7929
▁이현 -7930
▁키미 -7931
▁공통점 -7932
▁묘하 -7933
▁천연 -7934
▁윈도우 -7935
▁대행 -7936
▁원피스 -7937
▁en -7938
▁여타 -7939
▁퇴각 -7940
▁과자 -7941
▁경상북도 -7942
▁나빠 -7943
▁변해 -7944
▁불쌍 -7945
누스 -7946
▁온도 -7947
▁굴욕 -7948
▁산타 -7949
▁부작용 -7950
▁뉘 -7951
▁폴리 -7952
▁란스 -7953
▁분산 -7954
▁의해서 -7955
▁여의 -7956
▁일어날 -7957
▁힙합 -7958
▁가리키 -7959
▁티스 -7960
▁팰 -7961
▁눈치채 -7962
▁마유 -7963
▁껍 -7964
▁포터 -7965
▁유료 -7966
▁최선 -7967
▁승차 -7968
▁구독 -7969
▁레이디 -7970
▁봉쇄 -7971
▁농장 -7972
ero -7973
지막지 -7974
▁무지막지 -7975
▁우승자 -7976
35 -7977
argin -7978
▁대령 -7979
▁원한 -7980
▁통칭 -7981
▁수인 -7982
▁전당 -7983
▁대접 -7984
▁취득 -7985
▁이병 -7986
▁스미스 -7987
▁치우 -7988
▁드래곤볼 -7989
▁관우 -7990
▁동반 -7991
▁스노우 -7992
▁젬 -7993
모스 -7994
▁부숴 -7995
▁올드 -7996
▁어나 -7997
▁187 -7998
본다 -7999
▁칭하 -8000
어내 -8001
▁시상식 -8002
▁건네 -8003
▁파도 -8004
▁루프 -8005
루미 -8006
oss -8007
▁발판 -8008
▁클린 -8009
▁Ph -8010
▁So -8011
▁츠바 -8012
▁Qu -8013
▁화산 -8014
▁LO -8015
▁성씨 -8016
벤처 -8017
▁Station -8018
▁아님 -8019
브라 -8020
▁어드벤처 -8021
▁챔프 -8022
▁어벤 -8023
▁발키리 -8024
▁발행 -8025
동자 -8026
▁천천 -8027
▁규제 -8028
▁국무 -8029
▁로맨 -8030
▁크레이 -8031
붙이 -8032
▁레이어 -8033
▁다이스 -8034
비치 -8035
▁손님 -8036
▁원시 -8037
▁margin -8038
▁머니 -8039
▁ㅋ -8040
▁진에 -8041
▁블레이 -8042
▁결혼식 -8043
▁오스만 -8044
▁나섰 -8045
▁흔하 -8046
▁공산당 -8047
▁대전차 -8048
▁잔인 -8049
▁급행 -8050
▁ML -8051
▁공단 -8052
▁멍청 -8053
▁135 -8054
▁빙판 -8055
99 -8056
▁카마 -8057
▁강간 -8058
▁드러난다 -8059
▁톡 -8060
▁두드 -8061
▁후드 -8062
▁가난 -8063
▁요한 -8064
▁키를 -8065
pt -8066
▁매드 -8067
▁변이 -8068
▁이대로 -8069
▁평양 -8070
으로 -8071
▁210 -8072
▁침투 -8073
▁121 -8074
▁다가가 -8075
▁겔 -8076
▁표절 -8077
▁신중 -8078
▁황후 -8079
▁사족 -8080
▁요미 -8081
▁손꼽 -8082
▁렘 -8083
구장 -8084
ise -8085
▁시사 -8086
▁아베 -8087
▁와인 -8088
▁타치 -8089
▁건데 -8090
▁주사위 -8091
▁검열 -8092
▁털리 -8093
▁너머 -8094
▁날뛰 -8095
▁샐 -8096
▁미오 -8097
베이터 -8098
▁와이번 -8099
▁사로 -8100
▁지오 -8101
▁인과 -8102
▁쿵 -8103
▁여포 -8104
▁찾아내 -8105
▁카리스 -8106
▁스케일 -8107
▁세리 -8108
▁수지 -8109
▁피카 -8110
▁예약 -8111
▁경연 -8112
ical -8113
▁준다는 -8114
▁소재지 -8115
▁107 -8116
▁뜬다 -8117
▁선출 -8118
▁겹쳐 -8119
▁고쳐 -8120
▁개척 -8121
▁블리자드 -8122
▁안타까 -8123
▁천천히 -8124
네마 -8125
▁목걸이 -8126
구미 -8127
▁게이머 -8128
▁쯔 -8129
▁이라크 -8130
▁특훈 -8131
▁뮌 -8132
셔널 -8133
▁스택 -8134
▁스타리그 -8135
▁알바 -8136
▁넘어갔 -8137
리안 -8138
▁Ver -8139
▁강민 -8140
▁김수 -8141
▁난무 -8142
▁쇄 -8143
▁미국인 -8144
▁왼손 -8145
▁주체 -8146
▁케빈 -8147
▁의외로 -8148
▁떠난다 -8149
▁여섯 -8150
▁열혈 -8151
▁1981 -8152
▁캄 -8153
▁-- -8154
▁호크 -8155
▁강경 -8156
▁끊임없이 -8157
▁신동 -8158
▁시외버스 -8159
▁페어리 -8160
▁마인드 -8161
▁이순 -8162
▁타츠 -8163
▁자네 -8164
▁사체 -8165
▁일까 -8166
▁MG -8167
▁지수 -8168
▁퍼져 -8169
▁엔트리 -8170
▁쫄 -8171
▁불태 -8172
모함 -8173
▁조종사 -8174
▁인칭 -8175
▁부재 -8176
▁패자 -8177
리스타 -8178
▁기부 -8179
▁그레이트 -8180
▁감탄 -8181
▁광물 -8182
▁끌어들 -8183
▁명분 -8184
▁어나더 -8185
▁제재 -8186
▁본다면 -8187
▁퍼스트 -8188
▁주관 -8189
▁워프 -8190
▁프랑스어 -8191
▁착한 -8192
▁pl -8193
▁답답 -8194
▁소통 -8195
▁사수 -8196
▁사관 -8197
▁맞붙 -8198
▁우린 -8199
▁중거리 -8200
루션 -8201
ign -8202
▁슌 -8203
▁김지 -8204
테이션 -8205
▁점검 -8206
▁혈통 -8207
하루 -8208
▁아닐까 -8209
▁베인 -8210
▁으라고 -8211
▁모니터 -8212
▁대성 -8213
▁교토 -8214
▁마일 -8215
▁압권 -8216
▁스티븐 -8217
니시 -8218
▁첫째 -8219
▁이경 -8220
▁소금 -8221
gh -8222
▁고시 -8223
▁무용 -8224
▁선진 -8225
▁서식 -8226
▁토지 -8227
게이머 -8228
▁프로게이머 -8229
▁처하 -8230
▁자존 -8231
▁냉정 -8232
▁트윗 -8233
▁모델링 -8234
▁폭스 -8235
▁경찰서 -8236
▁으려는 -8237
▁엄연히 -8238
▁아픈 -8239
▁이라도 -8240
▁이노 -8241
▁스컬 -8242
▁이어진 -8243
▁미정 -8244
▁철갑 -8245
▁첸 -8246
▁루리 -8247
▁love -8248
▁김승 -8249
▁미러 -8250
▁점유 -8251
▁출간 -8252
▁EC -8253
▁레인지 -8254
▁평론 -8255
▁이대 -8256
▁가르치 -8257
▁해산 -8258
▁사사 -8259
▁폭격기 -8260
▁공격수 -8261
▁자제 -8262
▁카시 -8263
▁열렸 -8264
▁헷갈 -8265
▁흙 -8266
센스 -8267
▁오죽 -8268
▁다닐 -8269
▁러스 -8270
테일 -8271
▁중위 -8272
▁임의 -8273
▁망토 -8274
IR -8275
▁구별 -8276
▁아스트 -8277
▁라마 -8278
▁하여 -8279
▁TR -8280
▁손쉽 -8281
▁스런 -8282
▁맹세 -8283
ail -8284
▁플랜 -8285
urn -8286
▁친분 -8287
▁연산 -8288
▁보좌 -8289
▁중동 -8290
▁장타 -8291
▁math -8292
▁고사 -8293
▁리나 -8294
▁크라이 -8295
▁외곽 -8296
▁페스 -8297
바나 -8298
▁아냐 -8299
▁Sk -8300
▁라이즈 -8301
▁어이없 -8302
▁주최 -8303
▁용자 -8304
▁굴리 -8305
▁도어 -8306
▁왜냐하면 -8307
▁본능 -8308
▁질서 -8309
▁열정 -8310
▁풍부 -8311
▁디오 -8312
▁화상 -8313
▁붓 -8314
▁186 -8315
▁재개 -8316
▁고집 -8317
▁엣 -8318
▁개교 -8319
▁실사 -8320
▁마산 -8321
▁JTBC -8322
▁예쁘 -8323
▁납득 -8324
ence -8325
▁항공모함 -8326
▁그릇 -8327
▁훔쳐 -8328
▁쉴드 -8329
▁영감 -8330
▁동정 -8331
▁상무 -8332
▁하나하나 -8333
▁저렇 -8334
▁군요 -8335
추어 -8336
▁To -8337
▁불능 -8338
▁유니버스 -8339
▁가져다 -8340
민주 -8341
▁바이올 -8342
▁정해진 -8343
VER -8344
▁유입 -8345
▁크래프트 -8346
▁=" -8347
▁시타 -8348
베리 -8349
▁지부 -8350
틀랜드 -8351
▁사퇴 -8352
▁사무실 -8353
▁Super -8354
▁변장 -8355
▁우울 -8356
▁꼽히 -8357
▁스폰서 -8358
▁트릴 -8359
▁라이언 -8360
▁고속도로 -8361
▁122 -8362
▁웜 -8363
▁초능력 -8364
▁기스 -8365
▁광경 -8366
▁공속 -8367
▁찬성 -8368
의자 -8369
▁정신력 -8370
▁화해 -8371
▁BJ -8372
▁작정 -8373
▁광명 -8374
▁생김 -8375
▁확신 -8376
▁벙커 -8377
▁유연 -8378
▁너스 -8379
바지 -8380
▁잊혀 -8381
▁국제공항 -8382
▁어설 -8383
▁박성 -8384
▁Dream -8385
▁올바 -8386
▁움직일 -8387
이동 -8388
▁검정 -8389
▁근대 -8390
▁에버 -8391
▁일가 -8392
▁히틀러 -8393
▁멋대로 -8394
▁우마 -8395
▁레시 -8396
▁김유 -8397
▁리틀 -8398
라미 -8399
▁엘리베이터 -8400
▁박수 -8401
▁에디션 -8402
▁몸통 -8403
▁인벤 -8404
▁삼성전자 -8405
▁코노 -8406
▁스가 -8407
▁까마 -8408
▁기본기 -8409
▁템플 -8410
▁하치 -8411
▁애칭 -8412
▁닦 -8413
▁중점 -8414
▁토트 -8415
▁LE -8416
▁장례 -8417
▁왓 -8418
▁극대 -8419
▁1979 -8420
▁평상 -8421
▁출범 -8422
▁원숭이 -8423
▁법사 -8424
▁찾아볼 -8425
▁따왔 -8426
이나 -8427
▁로키 -8428
▁슈퍼맨 -8429
배우 -8430
▁카레 -8431
▁체결 -8432
▁굽 -8433
ier -8434
▁김포 -8435
▁변명 -8436
▁올라갈 -8437
▁아쿠아 -8438
▁총장 -8439
▁마모 -8440
▁타구 -8441
버리 -8442
▁카자 -8443
▁엘레 -8444
▁홋 -8445
▁변했 -8446
▁can -8447
▁EXP -8448
▁기르 -8449
▁쓰인 -8450
▁카쿠 -8451
▁이어진다 -8452
뜨려 -8453
▁투쟁 -8454
▁145 -8455
▁안타깝 -8456
▁쳐들어 -8457
▁유치원 -8458
▁곡인 -8459
▁민국 -8460
▁출산 -8461
▁워리어 -8462
ble -8463
▁만능 -8464
▁아닌지 -8465
▁청구 -8466
▁할리 -8467
버렸 -8468
▁잠들 -8469
▁노무 -8470
▁이어받 -8471
▁만주 -8472
▁모임 -8473
▁슬픔 -8474
▁조카 -8475
▁퍽 -8476
▁부근 -8477
▁카네 -8478
▁도색 -8479
▁유격수 -8480
▁마라 -8481
▁붙인 -8482
▁더럽 -8483
▁워즈 -8484
▁실현 -8485
▁버틸 -8486
▁블럭 -8487
IX -8488
▁싫어하 -8489
▁이누 -8490
▁창작물 -8491
▁무제 -8492
▁재앙 -8493
oun -8494
▁부스 -8495
▁쳐도 -8496
▁테이블 -8497
▁아처 -8498
▁브라더스 -8499
들이 -8500
▁NO -8501
▁롤러 -8502
▁부천 -8503
▁헬멧 -8504
▁싸운 -8505
워즈 -8506
▁방심 -8507
▁매주 -8508
▁우루 -8509
▁후일 -8510
▁113 -8511
▁히스 -8512
▁무실점 -8513
▁학급 -8514
▁가이드 -8515
▁브라이언 -8516
▁암호 -8517
▁써도 -8518
▁IM -8519
▁비리 -8520
▁튜버 -8521
▁Ap -8522
▁고등학생 -8523
▁쿠니 -8524
▁씨앗 -8525
▁철저히 -8526
역사 -8527
▁검증 -8528
▁풍선 -8529
▁165 -8530
▁펭 -8531
이치로 -8532
▁항모 -8533
▁맞춰서 -8534
iver -8535
▁헝가리 -8536
▁1950 -8537
▁복사 -8538
▁깨지 -8539
▁마운 -8540
▁스쿼 -8541
▁이이 -8542
▁한다며 -8543
▁엉망 -8544
▁왕복 -8545
▁터보 -8546
▁니다 -8547
▁몰살 -8548
▁엮이 -8549
ott -8550
▁각인 -8551
▁그러면 -8552
▁알레 -8553
▁케이크 -8554
▁인접 -8555
▁리가 -8556
▁손자 -8557
▁포탈 -8558
▁글씨 -8559
▁호러 -8560
▁IT -8561
▁144 -8562
▁사투 -8563
으므로 -8564
▁카지 -8565
▁병역 -8566
▁명사 -8567
▁사연 -8568
▁되돌아 -8569
▁엄밀히 -8570
▁제니 -8571
▁운송 -8572
▁이카 -8573
▁인성 -8574
▁놀라운 -8575
▁상주 -8576
▁155 -8577
▁쿠마 -8578
▁레이블 -8579
▁유우키 -8580
▁습니까 -8581
▁배운 -8582
▁매트 -8583
▁절친 -8584
▁옥상 -8585
▁ATK -8586
▁두려워 -8587
▁at -8588
▁쿠데 -8589
▁간섭 -8590
▁화폐 -8591
▁통째 -8592
▁CM -8593
▁세로 -8594
▁마당 -8595
▁죄책 -8596
▁아무튼 -8597
▁승인 -8598
▁조국 -8599
슬라 -8600
▁버텨 -8601
▁시뮬 -8602
▁동전 -8603
▁바치 -8604
▁품질 -8605
▁사로잡 -8606
eah -8607
▁현금 -8608
▁젼 -8609
▁연수 -8610
▁연전 -8611
uck -8612
▁망하 -8613
▁방학 -8614
▁영양 -8615
▁기리 -8616
▁Max -8617
진호 -8618
▁114 -8619
▁마음대로 -8620
▁제리 -8621
페이 -8622
폭탄 -8623
▁일곱 -8624
▁싸이 -8625
▁츤 -8626
▁태우 -8627
▁목사 -8628
▁독일어 -8629
▁거지 -8630
▁버거 -8631
▁기차 -8632
▁유재석 -8633
▁엔지니어 -8634
▁즐거 -8635
▁쓰리 -8636
▁천장 -8637
▁상금 -8638
▁우연 -8639
▁깊이 -8640
▁입문 -8641
▁BD -8642
ode -8643
▁함락 -8644
▁양식 -8645
▁ERA -8646
▁집회 -8647
▁잃어버린 -8648
코트 -8649
▁레나 -8650
▁죄책감 -8651
▁아오이 -8652
II -8653
▁바쿠 -8654
▁스나이퍼 -8655
oh -8656
▁깐 -8657
▁원전 -8658
▁this -8659
▁아자 -8660
▁동대 -8661
▁뮌헨 -8662
자치 -8663
▁현자 -8664
▁이놈 -8665
▁히카 -8666
▁뱅가드 -8667
▁밝혀진다 -8668
▁솟 -8669
▁호드 -8670
▁유메 -8671
▁시크릿 -8672
▁미르 -8673
▁수위 -8674
▁괴로 -8675
▁다큐 -8676
▁페르소 -8677
▁스틱 -8678
▁유카 -8679
▁기동력 -8680
▁혁신 -8681
▁쿠스 -8682
버린 -8683
▁승진 -8684
▁나인 -8685
▁리본 -8686
▁호의 -8687
▁변한 -8688
▁개구리 -8689
▁다거나 -8690
▁스티브 -8691
▁감자 -8692
▁부패 -8693
네시아 -8694
▁초록색 -8695
▁용암 -8696
▁토대 -8697
가루 -8698
끼리 -8699
▁성경 -8700
▁이케 -8701
▁할로윈 -8702
▁스카우트 -8703
▁시모 -8704
▁전향 -8705
▁참사 -8706
▁정문 -8707
▁멧 -8708
▁종결 -8709
▁스피어 -8710
▁최순 -8711
킵니다 -8712
▁코스프레 -8713
▁고아 -8714
▁지로 -8715
▁궁합 -8716
▁러쉬 -8717
주교 -8718
▁전동차 -8719
▁이룬 -8720
▁녹화 -8721
▁오렌 -8722
▁미성 -8723
▁티저 -8724
▁원장 -8725
▁시게 -8726
▁750 -8727
▁..! -8728
▁한나라 -8729
▁깨끗 -8730
▁친애 -8731
▁메트로 -8732
▁만점 -8733
▁아리아 -8734
▁사무라이 -8735
▁GK -8736
▁아드 -8737
▁from -8738
▁아이디어 -8739
▁한나라당 -8740
▁정반대 -8741
▁HE -8742
케이션 -8743
▁ne -8744
▁자율 -8745
▁은폐 -8746
▁대위 -8747
▁무거운 -8748
▁평행 -8749
▁흑마 -8750
야시 -8751
변이 -8752
▁돌연변이 -8753
▁디자이너 -8754
▁이소 -8755
▁잭슨 -8756
▁토우 -8757
▁미인 -8758
▁말씀 -8759
▁협의 -8760
▁??? -8761
bs -8762
int -8763
들리 -8764
▁OS -8765
▁도약 -8766
▁교과서 -8767
▁나이프 -8768
▁항해 -8769
▁필리핀 -8770
▁페르소나 -8771
▁슨 -8772
▁메이지 -8773
▁기후 -8774
▁이력 -8775
▁자칭 -8776
▁실체 -8777
▁오퍼 -8778
▁정성 -8779
▁적절히 -8780
▁저글 -8781
▁유전 -8782
▁지분 -8783
▁합작 -8784
▁충족 -8785
▁다니엘 -8786
▁흡혈귀 -8787
▁450 -8788
▁tr -8789
▁NBA -8790
▁갯 -8791
▁이스트 -8792
▁진에어 -8793
▁끼워 -8794
▁Season -8795
항공 -8796
운동 -8797
▁AB -8798
▁스매 -8799
▁이태 -8800
▁마에 -8801
▁이틀 -8802
▁종영 -8803
▁동서 -8804
▁좌측 -8805
▁파스 -8806
▁치안 -8807
▁학문 -8808
▁자이언트 -8809
▁뜨거운 -8810
▁트래 -8811
itt -8812
▁중원 -8813
▁리사 -8814
▁겐지 -8815
IL -8816
▁지혜 -8817
▁여단 -8818
▁브론 -8819
ose -8820
▁욕설 -8821
▁시골 -8822
▁잼 -8823
▁일관 -8824
▁서류 -8825
▁가담 -8826
▁가위 -8827
직자 -8828
▁내기 -8829
▁얼티 -8830
▁피자 -8831
▁학대 -8832
▁new -8833
▁{{{- -8834
▁스타트 -8835
▁침착 -8836
▁사와 -8837
▁히드라 -8838
▁억울 -8839
▁입증 -8840
▁레코드 -8841
▁준다고 -8842
▁어려울 -8843
▁떨어질 -8844
▁EXT -8845
▁계층 -8846
▁헥 -8847
▁각지 -8848
▁얇 -8849
▁울리 -8850
▁놀랍 -8851
철도 -8852
▁협정 -8853
▁외국어 -8854
▁로라 -8855
▁떴 -8856
▁분홍 -8857
▁스쿼드 -8858
▁포병 -8859
▁마기 -8860
▁La -8861
렉터 -8862
▁물자 -8863
▁해냈 -8864
려고 -8865
▁미쳐 -8866
▁돌아갈 -8867
▁존중 -8868
▁해소 -8869
▁소생 -8870
▁Im -8871
▁감당 -8872
▁일리 -8873
▁EZ -8874
▁추후 -8875
▁잔혹 -8876
▁끝날 -8877
▁314 -8878
▁베이징 -8879
▁함장 -8880
시고 -8881
탐정 -8882
▁카테 -8883
reat -8884
▁고의 -8885
▁밀도 -8886
▁미아 -8887
▁무도 -8888
▁아케이드 -8889
▁머무 -8890
▁밀어내 -8891
▁강릉 -8892
▁나이츠 -8893
▁로스트 -8894
▁초상 -8895
▁고고 -8896
▁저글링 -8897
▁툰 -8898
슈타인 -8899
은색 -8900
▁격려 -8901
▁Con -8902
▁Vol -8903
▁카리스마 -8904
▁대동 -8905
▁갈색 -8906
▁유스 -8907
▁부원 -8908
▁스탈 -8909
▁124 -8910
지능 -8911
▁학년도 -8912
▁인공지능 -8913
▁스파이더맨 -8914
▁뿌려 -8915
▁이오 -8916
▁익히 -8917
▁토라 -8918
▁Sch -8919
린다는 -8920
▁에메 -8921
▁가오 -8922
마루 -8923
철수 -8924
▁신곡 -8925
▁강타 -8926
▁점멸 -8927
▁존스 -8928
▁대세 -8929
▁Ed -8930
▁부유 -8931
▁피지컬 -8932
부키 -8933
나베 -8934
▁rd -8935
▁시어 -8936
▁주석 -8937
▁판도 -8938
▁스타즈 -8939
▁출판사 -8940
▁제발 -8941
▁쌓이 -8942
▁어째서인지 -8943
ube -8944
▁황당 -8945
▁Girl -8946
▁저기 -8947
▁워터 -8948
▁민간인 -8949
▁하지 -8950
▁점심 -8951
▁물약 -8952
▁밀레 -8953
▁강전 -8954
바이트 -8955
▁속한 -8956
▁틀린 -8957
▁힘입 -8958
▁과금 -8959
▁압력 -8960
▁정사 -8961
▁펌프 -8962
▁디아블로 -8963
▁세자 -8964
워프 -8965
▁ld -8966
▁강했 -8967
▁퀴즈 -8968
▁RE -8969
▁표적 -8970
▁부속 -8971
▁대변 -8972
▁건드리 -8973
▁배구 -8974
▁대검 -8975
▁Night -8976
▁그러므로 -8977
▁터졌 -8978
방송 -8979
▁그쪽 -8980
▁샀 -8981
▁둘러싸 -8982
▁USB -8983
▁이빨 -8984
▁압축 -8985
▁183 -8986
ition -8987
ari -8988
▁소서 -8989
▁뚱 -8990
▁달려들 -8991
▁괴인 -8992
usic -8993
▁벌써 -8994
▁갇혀 -8995
▁예의 -8996
▁시킵니다 -8997
▁산맥 -8998
오피스 -8999
▁달라진다 -9000
▁애완 -9001
▁생김새 -9002
▁마틴 -9003
▁빙결 -9004
msys -9005
▁벌인 -9006
▁후유 -9007
▁ldmsys -9008
업자 -9009
▁법무 -9010
▁씻 -9011
▁다시금 -9012
▁노아 -9013
▁테스 -9014
▁내역 -9015
▁마하 -9016
▁키요 -9017
▁152 -9018
▁망설 -9019
▁중견 -9020
15 -9021
▁동구 -9022
▁병살 -9023
▁제노 -9024
▁경부 -9025
▁보스턴 -9026
▁기껏 -9027
▁즐길 -9028
▁이어져 -9029
▁소소 -9030
▁일어 -9031
▁나뉜 -9032
▁레이싱 -9033
▁퇴치 -9034
▁날린다 -9035
ats -9036
▁리버스 -9037
▁TS -9038
▁출동 -9039
▁김주 -9040
▁연설 -9041
▁마케팅 -9042
▁..? -9043
▁스탭 -9044
▁재건 -9045
▁덩어리 -9046
▁발사기 -9047
리얼 -9048
끄럽 -9049
▁이른바 -9050
▁아카네 -9051
▁1200 -9052
▁만렙 -9053
▁자존심 -9054
▁련 -9055
▁기질 -9056
▁Black -9057
▁노무현 -9058
▁인해서 -9059
▁저질렀 -9060
페라 -9061
▁도대 -9062
▁잡힌 -9063
▁변한다 -9064
▁집계 -9065
▁박스오피스 -9066
▁BC -9067
▁골프 -9068
▁도덕 -9069
▁토마스 -9070
▁모형 -9071
사랑 -9072
▁자책점 -9073
▁로프 -9074
▁사촌 -9075
▁박진 -9076
▁선동 -9077
▁에미 -9078
▁182 -9079
▁예요 -9080
▁주축 -9081
▁달려가 -9082
▁농업 -9083
▁무녀 -9084
▁WC -9085
▁위해선 -9086
▁얄 -9087
▁보낼 -9088
▁입힌다 -9089
▁장벽 -9090
▁Bo -9091
▁NH -9092
▁댐 -9093
▁대차 -9094
13 -9095
▁모종 -9096
▁포착 -9097
시대 -9098
▁바텀 -9099
세지 -9100
▁철도역 -9101
▁귀국 -9102
yn -9103
▁ver -9104
▁일렉 -9105
아치 -9106
▁천상 -9107
▁절벽 -9108
▁문양 -9109
▁카게 -9110
▁원판 -9111
▁통솔 -9112
▁넘쳐 -9113
▁등극 -9114
▁억제 -9115
▁유진 -9116
▁남동생 -9117
▁레아 -9118
▁구상 -9119
▁발레 -9120
▁연동 -9121
토니 -9122
▁127 -9123
▁드워프 -9124
▁각도 -9125
▁Let -9126
▁마도카 -9127
▁킴 -9128
▁그레이드 -9129
▁불길 -9130
▁리처 -9131
▁상냥 -9132
▁애인 -9133
▁이원 -9134
▁관장 -9135
▁이윤 -9136
▁적시타 -9137
app -9138
▁not -9139
▁교차로 -9140
당초 -9141
▁오른손 -9142
▁탄핵 -9143
▁모스크 -9144
▁현황 -9145
▁발명 -9146
▁리바 -9147
▁내보내 -9148
▁모빌 -9149
▁앓 -9150
▁졌으며 -9151
▁회관 -9152
▁도배 -9153
▁솔저 -9154
▁DM -9155
▁MM -9156
▁아담 -9157
▁서울대 -9158
▁쿠데타 -9159
▁타이어 -9160
▁118 -9161
▁그란 -9162
▁섞여 -9163
▁왕실 -9164
▁라인하르트 -9165
DD -9166
▁뻘 -9167
▁올라와 -9168
▁날카로운 -9169
▁협동 -9170
▁봉사 -9171
▁육상 -9172
▁발급 -9173
▁사치 -9174
▁스크롤 -9175
▁왕비 -9176
▁아마추어 -9177
▁퓨전 -9178
▁날아오 -9179
▁프랜 -9180
▁원주민 -9181
▁스토어 -9182
▁베를 -9183
▁용산 -9184
ough -9185
▁섬광 -9186
타이 -9187
▁착륙 -9188
▁OG -9189
▁방사능 -9190
▁사방 -9191
▁향후 -9192
▁184 -9193
▁까마귀 -9194
▁아포 -9195
▁전담 -9196
▁라미 -9197
▁쿄코 -9198
▁던진 -9199
▁하사 -9200
▁피오 -9201
▁지장 -9202
▁환생 -9203
▁SSR -9204
▁Am -9205
▁챔스 -9206
▁서열 -9207
gr -9208
▁제치 -9209
▁여태 -9210
▁시안 -9211
▁시시 -9212
▁뤼 -9213
▁Op -9214
▁학사 -9215
▁숙소 -9216
▁다카 -9217
▁얌 -9218
▁반성 -9219
▁Str -9220
▁Col -9221
▁AF -9222
▁도대체 -9223
▁지루 -9224
▁베스 -9225
▁선박 -9226
▁밀리언 -9227
▁잎 -9228
▁정밀 -9229
▁이별 -9230
▁입시 -9231
▁행진 -9232
▁박자 -9233
▁시오 -9234
▁우두 -9235
▁퍼펙트 -9236
ye -9237
▁이무 -9238
▁GM -9239
▁지크 -9240
▁인피니티 -9241
▁청춘 -9242
▁민폐 -9243
▁어그 -9244
▁미녀 -9245
▁서적 -9246
▁000000 -9247
▁게끔 -9248
▁교도소 -9249
▁날렸 -9250
▁컴뱃 -9251
▁프롤 -9252
▁루마 -9253
어트 -9254
▁유가 -9255
▁큐어 -9256
▁그쳤 -9257
▁필름 -9258
▁실용 -9259
▁감추 -9260
▁욕심 -9261
▁팔라 -9262
▁보우 -9263
▁루미 -9264
▁Mag -9265
CE -9266
▁그간 -9267
▁화기 -9268
▁바꿨 -9269
▁강인 -9270
▁아수 -9271
▁싱가 -9272
▁싱가포르 -9273
iel -9274
▁카리 -9275
▁카피 -9276
▁리자 -9277
▁스로 -9278
▁조화 -9279
▁편리 -9280
▁갱신 -9281
▁스타워즈 -9282
▁브래 -9283
▁친척 -9284
▁취재 -9285
▁금발 -9286
▁승패 -9287
▁직책 -9288
▁가져온 -9289
▁툭 -9290
▁김치 -9291
▁선원 -9292
▁모순 -9293
▁주공 -9294
▁오렌지 -9295
▁홀리 -9296
▁테리 -9297
▁고맙 -9298
▁화신 -9299
▁마을버스 -9300
▁스네 -9301
▁아슬 -9302
▁까다롭 -9303
▁일일 -9304
▁시호 -9305
▁AV -9306
▁흥분 -9307
▁침몰 -9308
▁발각 -9309
▁탐사 -9310
▁욱 -9311
▁1978 -9312
▁이진 -9313
ull -9314
vel -9315
▁어벤져 -9316
▁한가 -9317
▁전송 -9318
▁스카웃 -9319
▁과일 -9320
▁올린다 -9321
▁한꺼 -9322
▁한꺼번에 -9323
▁어려웠 -9324
▁AL -9325
▁폴아웃 -9326
▁섬멸 -9327
▁우미 -9328
▁전지 -9329
▁태워 -9330
▁이계 -9331
▁보낸다 -9332
크리 -9333
▁김광 -9334
▁완화 -9335
▁모아서 -9336
▁경전 -9337
프리카 -9338
▁스기 -9339
▁안무 -9340
▁흑역사 -9341
▁구울 -9342
▁오다 -9343
▁싸운다 -9344
▁진단 -9345
▁능가 -9346
▁군부 -9347
▁앞선 -9348
▁깨어나 -9349
▁오토바이 -9350
▁마야 -9351
▁높여 -9352
▁까다로운 -9353
▁쿠사 -9354
▁보강 -9355
▁흑막 -9356
▁중구 -9357
▁들키 -9358
▁시간대 -9359
▁대역 -9360
▁천국 -9361
헤이 -9362
ult -9363
▁해운 -9364
▁토트넘 -9365
▁모욕 -9366
▁오즈 -9367
▁성명 -9368
▁쓰러진 -9369
▁178 -9370
▁못해서 -9371
▁구형 -9372
키스탄 -9373
서스 -9374
▁아사히 -9375
▁리부 -9376
▁가구 -9377
▁컴백 -9378
▁CL -9379
▁도르 -9380
▁소나 -9381
▁용이 -9382
▁아름답 -9383
▁민감 -9384
able -9385
▁관문 -9386
▁약혼 -9387
▁반경 -9388
▁스텔스 -9389
바리 -9390
▁이단 -9391
▁홋카이도 -9392
에른 -9393
▁1945 -9394
ject -9395
▁반역 -9396
▁신관 -9397
소년 -9398
▁미소녀 -9399
구니 -9400
▁주머니 -9401
▁완공 -9402
▁호리 -9403
▁빠져나가 -9404
▁인문 -9405
▁PK -9406
▁스윙 -9407
▁었었 -9408
▁경상남도 -9409
▁동계 -9410
▁카일 -9411
기에 -9412
▁최상급 -9413
▁모에 -9414
▁만난다 -9415
▁CE -9416
▁안겨 -9417
▁등재 -9418
▁일체 -9419
▁그리핀 -9420
▁엉덩이 -9421
▁터진 -9422
▁달인 -9423
▁레버 -9424
▁껴 -9425
18 -9426
▁라비 -9427
▁헬리 -9428
▁Co -9429
세요 -9430
▁cl -9431
eth -9432
▁강대 -9433
▁오만 -9434
▁매각 -9435
▁소득 -9436
▁유즈 -9437
▁시카고 -9438
▁피치 -9439
▁간판 -9440
▁직행 -9441
▁이나마 -9442
▁사직 -9443
▁에코 -9444
▁얼티밋 -9445
▁적자 -9446
방울 -9447
▁타카하시 -9448
바람 -9449
▁신작 -9450
▁갖춰 -9451
▁마수 -9452
▁저자 -9453
▁줍니다 -9454
마리 -9455
▁코레 -9456
▁시종 -9457
▁독백 -9458
▁정답 -9459
▁베이비 -9460
▁테란 -9461
▁머스 -9462
▁울음 -9463
모습 -9464
▁부채 -9465
▁라이트닝 -9466
MAN -9467
▁엘리자베스 -9468
▁플라스 -9469
▁정점 -9470
▁프레스 -9471
▁터뜨리 -9472
▁장남 -9473
▁약체 -9474
타리 -9475
▁수아 -9476
▁명장 -9477
▁사탕 -9478
▁패트 -9479
▁요격 -9480
▁탈취 -9481
▁파운드 -9482
▁스마일 -9483
▁매그 -9484
▁늘어난다 -9485
▁레시피 -9486
▁걸까 -9487
▁디스플레이 -9488
속기 -9489
▁여주인 -9490
▁짬 -9491
▁수천 -9492
▁카제 -9493
▁늪 -9494
▁금요일 -9495
▁눈앞 -9496
▁불참 -9497
▁단자 -9498
▁아랫 -9499
▁마미 -9500
▁카사 -9501
▁던지라 -9502
▁배울 -9503
무지 -9504
▁그러다 -9505
▁패왕 -9506
▁노릇 -9507
▁오케 -9508
▁얹 -9509
▁바이에른 -9510
▁실적 -9511
▁무능 -9512
▁파고 -9513
스크림 -9514
▁Is -9515
▁쿠리 -9516
▁Do -9517
▁찔러 -9518
▁편의점 -9519
▁소마 -9520
▁도심 -9521
▁휴먼 -9522
▁물리치 -9523
▁대피 -9524
▁휩쓸 -9525
▁밈 -9526
▁교리 -9527
▁TOP -9528
▁BO -9529
▁레이지 -9530
ild -9531
▁도쿠 -9532
▁크로우 -9533
▁박정희 -9534
▁카이저 -9535
▁비비 -9536
▁입사 -9537
▁탔 -9538
▁욕망 -9539
랍니다 -9540
▁목욕 -9541
▁과시 -9542
▁구로 -9543
▁펴 -9544
▁애용 -9545
25 -9546
▁일러스트레이터 -9547
▁짠 -9548
▁태풍 -9549
▁맨체스터 -9550
파이 -9551
▁신한 -9552
▁AFC -9553
▁신하 -9554
▁가왕 -9555
니코 -9556
▁4000 -9557
▁급하 -9558
▁시범 -9559
▁눈동자 -9560
▁평상시 -9561
▁삽질 -9562
▁함수 -9563
▁렀 -9564
생활 -9565
▁오공 -9566
▁자사 -9567
▁굶 -9568
▁곤충 -9569
▁스모 -9570
▁진동 -9571
▁좌익 -9572
inal -9573
▁네크로 -9574
▁BGA -9575
▁물려받 -9576
▁아이디 -9577
▁공신 -9578
▁케리 -9579
▁집사 -9580
▁무지개 -9581
▁김일 -9582
▁소집 -9583
▁남학생 -9584
▁놓여 -9585
▁웨폰 -9586
▁평론가 -9587
아시아 -9588
▁드루이드 -9589
▁맷집 -9590
▁SA -9591
▁다간 -9592
▁연이 -9593
▁하이드 -9594
▁단련 -9595
▁이쿠 -9596
▁타리 -9597
▁고가 -9598
▁말려 -9599
▁바랍니다 -9600
도전 -9601
▁ME -9602
▁가이아 -9603
쿠스 -9604
▁유아 -9605
▁아쉬움 -9606
▁냉장 -9607
▁보르 -9608
▁아유 -9609
▁검토 -9610
▁정우 -9611
▁중소 -9612
▁Gaming -9613
▁사천 -9614
▁징계 -9615
▁키노 -9616
▁하도 -9617
▁CR -9618
▁유머 -9619
▁320 -9620
▁1973 -9621
▁선회 -9622
▁스파크 -9623
▁리볼 -9624
▁달콤 -9625
▁포크 -9626
▁명시 -9627
▁초과 -9628
▁아마존 -9629
▁장본 -9630
▁마마 -9631
ings -9632
▁이용자 -9633
▁대면 -9634
▁일어난다 -9635
▁GSL -9636
▁모의 -9637
▁으신 -9638
▁315 -9639
▁캡슐 -9640
▁성분 -9641
▁배웠 -9642
▁당초 -9643
▁숙련도 -9644
▁투고 -9645
▁컬렉션 -9646
▁Gl -9647
▁장신구 -9648
DX -9649
▁식스 -9650
트론 -9651
▁산다 -9652
▁아르바이트 -9653
TA -9654
▁자력 -9655
▁무한도전 -9656
▁시련 -9657
▁중기 -9658
르타 -9659
▁부가 -9660
▁그루 -9661
▁협조 -9662
▁Gu -9663
▁슬퍼 -9664
▁위쪽 -9665
▁라이드 -9666
▁중국인 -9667
▁중부 -9668
▁슬라이드 -9669
▁오를 -9670
▁컨디션 -9671
reak -9672
▁군데 -9673
▁강아지 -9674
▁대법 -9675
▁민중 -9676
▁일명 -9677
▁유동 -9678
▁이명박 -9679
▁와타나베 -9680
▁오로치 -9681
대사 -9682
▁마찰 -9683
▁헤라 -9684
▁알아내 -9685
▁코끼리 -9686
▁인도네시아 -9687
히토 -9688
수리 -9689
▁궁수 -9690
▁모나 -9691
ron -9692
▁장본인 -9693
▁저항력 -9694
▁이호 -9695
▁잔류 -9696
▁미노 -9697
▁고발 -9698
▁리리 -9699
▁끌려가 -9700
▁소꿉 -9701
▁주저 -9702
▁대해선 -9703
▁공교 -9704
▁무늬 -9705
▁무자 -9706
▁주술사 -9707
▁so -9708
▁캘리 -9709
▁비키 -9710
▁속해 -9711
▁지면 -9712
▁유마 -9713
▁이니 -9714
▁금강 -9715
저래 -9716
▁접하 -9717
티니 -9718
▁급식 -9719
▁표식 -9720
▁나폴레 -9721
타운 -9722
▁앤드 -9723
▁뺨 -9724
▁재수 -9725
▁외야수 -9726
▁멈춰 -9727
▁가령 -9728
▁급격히 -9729
▁like -9730
▁밭 -9731
▁168 -9732
▁와이번스 -9733
▁모인 -9734
▁학위 -9735
▁상시 -9736
슬러 -9737
▁고우 -9738
▁벨기에 -9739
▁아무렇 -9740
▁서바이벌 -9741
▁도마 -9742
▁네이션 -9743
중간 -9744
▁보로 -9745
▁판사 -9746
▁국도 -9747
▁적힌 -9748
▁주술 -9749
▁혼혈 -9750
▁막혀 -9751
▁수신 -9752
▁평택 -9753
▁낯 -9754
▁방침 -9755
▁203 -9756
▁나폴레옹 -9757
▁will -9758
▁이용객 -9759
▁내외 -9760
▁휴대폰 -9761
▁공헌 -9762
▁유카리 -9763
▁크라운 -9764
14 -9765
▁NM -9766
▁돌아올 -9767
▁윤리 -9768
▁도미 -9769
▁부산광역시 -9770
사와 -9771
▁악행 -9772
▁라이징 -9773
▁ㄷ -9774
▁성대 -9775
▁초청 -9776
▁개명 -9777
▁내각 -9778
▁보직 -9779
PA -9780
▁강동 -9781
▁승급 -9782
▁몸매 -9783
▁벗겨 -9784
▁흉악 -9785
르드 -9786
▁조립 -9787
▁천지 -9788
▁218 -9789
17 -9790
▁김병 -9791
▁체코 -9792
▁이래저래 -9793
▁오페라 -9794
▁이즈미 -9795
▁Min -9796
▁균열 -9797
▁꿈꾸 -9798
▁국토 -9799
▁쥬얼 -9800
▁모시 -9801
▁수립 -9802
▁독보 -9803
▁자산 -9804
▁뚜렷 -9805
▁마친 -9806
▁시네마 -9807
▁아테나 -9808
우라 -9809
▁저격수 -9810
전사 -9811
▁단역 -9812
▁충청남도 -9813
▁단총 -9814
▁런처 -9815
▁레이븐 -9816
▁위시 -9817
▁황혼 -9818
▁두꺼 -9819
▁사슬 -9820
▁소우 -9821
▁베를린 -9822
▁휴게 -9823
▁마주치 -9824
▁볶 -9825
▁배율 -9826
▁어원 -9827
▁테크닉 -9828
GA -9829
▁탄압 -9830
▁서방 -9831
▁의정부 -9832
▁저승 -9833
▁one -9834
▁내린다 -9835
▁부동산 -9836
▁웃기 -9837
▁10000 -9838
▁난리 -9839
▁니트 -9840
▁차장 -9841
러진 -9842
▁노린 -9843
닐라 -9844
▁오사 -9845
▁대학생 -9846
▁배리 -9847
주의자 -9848
▁필사 -9849
▁교역 -9850
▁설마 -9851
▁로크 -9852
ECT -9853
▁시켜야 -9854
▁절단 -9855
성이 -9856
▁지지율 -9857
그라 -9858
▁수중 -9859
▁수라 -9860
▁리믹스 -9861
▁국방부 -9862
▁충격파 -9863
▁단서 -9864
▁리츠 -9865
▁보가 -9866
▁면제 -9867
▁경사 -9868
▁튀어나오 -9869
▁피우 -9870
▁예쁜 -9871
▁Ro -9872
▁변함 -9873
▁리프트 -9874
▁거스 -9875
▁이오리 -9876
▁탄막 -9877
▁iOS -9878
▁트론 -9879
▁비자 -9880
▁작위 -9881
▁마지 -9882
▁지터 -9883
▁하츠네 -9884
▁스코틀랜드 -9885
▁김성근 -9886
▁번지 -9887
▁실린 -9888
▁RO -9889
운수 -9890
▁타키 -9891
▁이리저리 -9892
▁대국 -9893
ICE -9894
▁견해 -9895
▁성지 -9896
▁인명 -9897
▁히사 -9898
▁플레임 -9899
▁na -9900
▁덧붙여 -9901
▁걸음 -9902
▁멋지 -9903
▁자루 -9904
▁오역 -9905
▁원로 -9906
▁비단 -9907
▁시간표 -9908
oul -9909
뜨린 -9910
▁으려면 -9911
▁아수라 -9912
▁미남 -9913
▁왕족 -9914
▁더미 -9915
▁ALL -9916
▁Play -9917
▁엠블 -9918
▁정전 -9919
ould -9920
MAX -9921
▁1974 -9922
보우 -9923
AND -9924
▁흉내 -9925
보기 -9926
▁입원 -9927
▁버블 -9928
▁타우 -9929
▁칼라 -9930
▁평판 -9931
▁사물 -9932
▁성사 -9933
▁KB -9934
▁Red -9935
▁펑크 -9936
▁득표율 -9937
▁Ser -9938
▁오른다 -9939
▁말레이 -9940
▁극심 -9941
▁보편 -9942
▁계략 -9943
▁사이토 -9944
▁중화민국 -9945
▁해역 -9946
▁가해자 -9947
▁주황 -9948
▁완벽히 -9949
▁Type -9950
▁요우 -9951
나와 -9952
친구 -9953
저우 -9954
▁토비 -9955
▁끝났 -9956
▁공격기 -9957
▁격렬 -9958
ody -9959
▁NT -9960
▁간파 -9961
▁출석 -9962
▁캇 -9963
▁둥지 -9964
▁UC -9965
▁전법 -9966
▁샘플 -9967
▁사우스 -9968
▁재배 -9969
▁희생자 -9970
과이 -9971
▁우두머리 -9972
▁인듯 -9973
▁반장 -9974
▁177 -9975
▁se -9976
▁연막 -9977
▁Don -9978
▁액체 -9979
▁아울 -9980
ions -9981
▁덤벼 -9982
▁발톱 -9983
▁탈환 -9984
▁만지 -9985
▁계절 -9986
▁고난 -9987
▁다케 -9988
▁가져왔 -9989
▁충고 -9990
▁헤드샷 -9991
▁순간이동 -9992
▁커플링 -9993
▁깃털 -9994
▁김윤 -9995
▁이듬 -9996
▁제의 -9997
▁주입 -9998
▁Car -9999
▁해변 -10000
▁리볼버 -10001
▁감성 -10002
▁차가 -10003
STER -10004
▁강습 -10005
▁마르코 -10006
▁한양 -10007
▁플레이버 -10008
▁선로 -10009
▁스나 -10010
▁진형 -10011
▁의의 -10012
▁손잡이 -10013
▁벚 -10014
▁맑 -10015
▁섞인 -10016
▁짝사랑 -10017
▁맡겨 -10018
▁딥 -10019
▁랜서 -10020
▁홈경기 -10021
▁전라남도 -10022
▁태생 -10023
▁무비 -10024
▁방울 -10025
▁반도 -10026
▁스콜 -10027
▁138 -10028
▁us -10029
▁과언 -10030
▁나뉜다 -10031
텍스 -10032
▁슬라임 -10033
▁중재 -10034
드로 -10035
▁겁니다 -10036
▁1975 -10037
▁레슨 -10038
▁입자 -10039
▁코디 -10040
▁아이즈 -10041
▁안젤 -10042
▁이영호 -10043
▁금고 -10044
▁노라 -10045
▁보루 -10046
▁공명 -10047
▁주교 -10048
▁서명 -10049
▁접수 -10050
▁사야카 -10051
▁병과 -10052
▁카렌 -10053
▁맹독 -10054
▁크롬 -10055
▁측근 -10056
▁유지비 -10057
천군 -10058
▁베어 -10059
▁동성애 -10060
▁드러난 -10061
▁차일드 -10062
▁Es -10063
▁상의 -10064
16 -10065
ven -10066
▁상어 -10067
▁중도 -10068
▁워드 -10069
▁너클 -10070
▁필립 -10071
alk -10072
▁석유 -10073
▁자켓 -10074
▁리처드 -10075
▁메테 -10076
▁산탄총 -10077
▁냅 -10078
레븐 -10079
▁들으면 -10080
▁아리스 -10081
▁두려움 -10082
▁부제 -10083
▁냉장고 -10084
▁찬양 -10085
▁완성도 -10086
▁데미 -10087
▁떠돌 -10088
▁러너 -10089
▁팍 -10090
▁낮추 -10091
▁바이크 -10092
▁나눈 -10093
▁타스 -10094
라이언스 -10095
▁팔리 -10096
▁졸업식 -10097
▁다치 -10098
▁테니스 -10099
▁프로스트 -10100
▁어드밴 -10101
▁라든가 -10102
▁이사장 -10103
▁월간 -10104
▁놀리 -10105
▁백만 -10106
▁떨어뜨리 -10107
▁얼라이언스 -10108
느리 -10109
▁Time -10110
▁원화 -10111
▁본질 -10112
▁삿 -10113
▁''' -10114
▁교대 -10115
▁이념 -10116
af -10117
야스 -10118
▁콘스탄 -10119
▁마스코트 -10120
▁레인보우 -10121
▁162 -10122
▁뛰어들 -10123
▁고래 -10124
▁일각 -10125
▁EU -10126
▁견디 -10127
소총 -10128
▁우지 -10129
▁have -10130
▁126 -10131
te -10132
▁수감 -10133
▁여긴 -10134
스티스 -10135
▁분할 -10136
▁가히 -10137
▁찰스 -10138
시다 -10139
▁내려갔 -10140
▁박명 -10141
▁조수 -10142
▁빙의 -10143
▁이듬해 -10144
▁엉뚱 -10145
맥스 -10146
▁스바 -10147
▁슬러그 -10148
▁쟁이 -10149
▁테일즈 -10150
▁카오루 -10151
뜨렸 -10152
▁평등 -10153
▁댈 -10154
▁키즈 -10155
▁로그인 -10156
▁Sum -10157
▁둬 -10158
▁WH -10159
▁로제 -10160
▁보고서 -10161
공사 -10162
▁올라간 -10163
▁핑계 -10164
▁스칼 -10165
▁김선 -10166
▁돌아온다 -10167
▁김두 -10168
빨리 -10169
▁심정 -10170
ics -10171
▁노부나가 -10172
▁지역구 -10173
▁신생 -10174
▁차림 -10175
▁폭로 -10176
▁스매시 -10177
▁자키 -10178
▁연소 -10179
▁제조사 -10180
▁대니 -10181
▁기관포 -10182
▁말기 -10183
▁응급 -10184
▁젝 -10185
▁누스 -10186
▁부시 -10187
▁에드워드 -10188
▁텔레포트 -10189
▁왕가 -10190
▁클리셰 -10191
▁영화제 -10192
▁고립 -10193
랄드 -10194
▁실려 -10195
▁주차장 -10196
▁초등학생 -10197
▁꼴찌 -10198
YP -10199
▁조던 -10200
▁히카루 -10201
▁과격 -10202
▁고종 -10203
▁동상 -10204
▁사회주의 -10205
▁손목 -10206
▁기뻐하 -10207
▁무식 -10208
▁로비 -10209
▁코지 -10210
▁후반전 -10211
▁민병 -10212
▁솔직히 -10213
▁펙 -10214
▁나락 -10215
▁공짜 -10216
▁유라 -10217
올라 -10218
▁회계 -10219
▁신상 -10220
재기 -10221
▁결과물 -10222
▁병행 -10223
시스코 -10224
▁끊기 -10225
▁맞먹 -10226
▁직위 -10227
▁조르 -10228
▁카토 -10229
▁위함 -10230
▁팩션 -10231
▁~" -10232
▁득표수 -10233
ACK -10234
▁know -10235
미터 -10236
▁주유 -10237
▁BT -10238
▁팜 -10239
▁멘붕 -10240
▁out -10241
▁애드 -10242
▁고마워 -10243
▁oh -10244
▁어제 -10245
▁포도 -10246
▁카인 -10247
▁다지만 -10248
보라 -10249
은이 -10250
▁IIDX -10251
▁BA -10252
▁CB -10253
▁김구 -10254
▁제너 -10255
▁콰 -10256
▁팬티 -10257
▁종로 -10258
처럼 -10259
▁브레스 -10260
▁꾀 -10261
▁분배 -10262
▁피드 -10263
▁즐겁 -10264
▁방벽 -10265
▁정의당 -10266
▁보복 -10267
▁조항 -10268
▁연세대 -10269
▁모른다는 -10270
▁슬슬 -10271
▁투사 -10272
▁거꾸 -10273
▁재질 -10274
▁아름다 -10275
▁제자리 -10276
▁먹여 -10277
▁야망 -10278
페이스 -10279
▁난투 -10280
▁숙청 -10281
▁1976 -10282
▁알려준다 -10283
고사 -10284
▁도사 -10285
tern -10286
▁후면 -10287
▁레귤 -10288
▁이세 -10289
ins -10290
▁Kore -10291
▁극악 -10292
셉트 -10293
ict -10294
시티 -10295
▁슬픈 -10296
▁지배자 -10297
▁볼드 -10298
▁313 -10299
▁EV -10300
▁pr -10301
▁소꿉친구 -10302
▁리셋 -10303
▁신조 -10304
▁발전소 -10305
▁몰아넣 -10306
▁넘겼 -10307
▁내뱉 -10308
▁선지 -10309
▁132 -10310
▁한정판 -10311
▁내면 -10312
▁두루 -10313
▁상부 -10314
▁난민 -10315
▁LTE -10316
▁페이크 -10317
▁걸릴 -10318
▁결의 -10319
▁럭키 -10320
▁날아다니 -10321
▁서리 -10322
▁!!! -10323
ange -10324
▁해고 -10325
▁테이프 -10326
▁찰나 -10327
▁자포 -10328
▁미트 -10329
▁가져갔 -10330
▁드러냈 -10331
▁약칭 -10332
▁뽑아내 -10333
ater -10334
▁제주도 -10335
전설 -10336
▁세츠 -10337
▁모았 -10338
▁표기법 -10339
▁훔치 -10340
▁빈약 -10341
▁테르 -10342
▁갸 -10343
▁Sun -10344
▁DI -10345
▁다저스 -10346
▁1972 -10347
▁개판 -10348
▁중후 -10349
▁채찍 -10350
▁여겼 -10351
▁그려진 -10352
▁바나나 -10353
▁카테고리 -10354
▁근로 -10355
▁페미니즘 -10356
▁수확 -10357
▁줄여서 -10358
▁set -10359
▁유비트 -10360
▁해전 -10361
퍼니 -10362
▁캔디 -10363
▁일산 -10364
▁실리 -10365
▁트랜스포 -10366
▁병종 -10367
레이크 -10368
▁당해서 -10369
▁연간 -10370
▁지미 -10371
▁재벌 -10372
▁바이킹 -10373
▁수영복 -10374
▁츤데레 -10375
▁선봉 -10376
무이 -10377
▁종전 -10378
▁접전 -10379
▁158 -10380
▁강탈 -10381
▁하지메 -10382
▁환호 -10383
▁여주인공 -10384
▁산소 -10385
▁로렌 -10386
▁넘어갈 -10387
▁메디 -10388
상가 -10389
▁feat -10390
▁IP -10391
▁메세지 -10392
▁자카 -10393
▁구독자 -10394
▁탁월 -10395
▁퉁 -10396
▁오딘 -10397
▁구청 -10398
19 -10399
▁키로 -10400
▁GD -10401
▁제인 -10402
▁정준 -10403
돌프 -10404
▁사각 -10405
▁그랑프리 -10406
▁TP -10407
▁콧 -10408
▁MO -10409
▁자작 -10410
▁가설 -10411
▁일조 -10412
▁다투 -10413
▁1977 -10414
▁힌트 -10415
▁벗어난 -10416
▁진짜로 -10417
▁프롤로그 -10418
고속도로 -10419
▁초점 -10420
▁카이사 -10421
▁대등 -10422
▁스케줄 -10423
▁적이 -10424
▁릴리스 -10425
▁교훈 -10426
▁IV -10427
▁지킬 -10428
▁쿠바 -10429
▁230 -10430
▁서치 -10431
▁내정 -10432
▁띄워 -10433
▁응답 -10434
▁레귤러 -10435
▁미도리 -10436
▁수여 -10437
▁구호 -10438
▁르노 -10439
▁빼앗기 -10440
▁신념 -10441
▁폐선 -10442
▁야마모토 -10443
▁관료 -10444
▁진로 -10445
▁거꾸로 -10446
사스 -10447
▁유능 -10448
▁프랭크 -10449
그마 -10450
▁키드 -10451
▁무궁 -10452
▁High -10453
▁마가 -10454
▁이점 -10455
▁인트 -10456
활약 -10457
▁라시 -10458
▁뚝 -10459
▁충남 -10460
▁깡패 -10461
▁임진 -10462
▁니코니코 -10463
▁실바 -10464
▁중급 -10465
▁172 -10466
▁편한 -10467
▁앨런 -10468
▁랏 -10469
▁HS -10470
▁프로그래 -10471
▁필두 -10472
▁무신 -10473
▁Light -10474
▁푸르 -10475
▁껍질 -10476
▁ㅇ -10477
▁감금 -10478
▁소비자 -10479
▁줄기 -10480
▁스바루 -10481
▁파인 -10482
▁대명 -10483
▁때려잡 -10484
▁테레 -10485
▁무서워 -10486
▁쥰 -10487
▁개막전 -10488
▁리뉴 -10489
▁TE -10490
▁죽인다 -10491
천사 -10492
▁치바 -10493
▁헐크 -10494
▁태미 -10495
▁바인 -10496
▁트러 -10497
▁꿇 -10498
che -10499
ME -10500
▁떨어져서 -10501
▁피난 -10502
▁컴퍼니 -10503
▁양심 -10504
민주당 -10505
▁이만 -10506
▁해져서 -10507
▁133 -10508
▁순천 -10509
▁혹평 -10510
▁지나친 -10511
▁박쥐 -10512
▁정조 -10513
▁덴마크 -10514
▁섭취 -10515
▁시달 -10516
지사 -10517
▁내버려 -10518
▁플리 -10519
▁애쉬 -10520
▁LOVE -10521
▁주식회사 -10522
키스 -10523
▁보트 -10524
▁이순신 -10525
▁공국 -10526
▁해선 -10527
▁재림 -10528
▁켄지 -10529
▁배후 -10530
▁아폴 -10531
▁강서 -10532
▁무색 -10533
▁인텔 -10534
▁캐슬 -10535
▁객관 -10536
▁도스 -10537
▁랜스 -10538
▁팀장 -10539
▁파괴력 -10540
▁차분 -10541
▁Your -10542
▁기술력 -10543
▁진구 -10544
▁망상 -10545
▁최하 -10546
▁순찰 -10547
▁냉기 -10548
▁얼터 -10549
▁신학 -10550
▁득실 -10551
제스 -10552
▁존슨 -10553
▁Tw -10554
▁호응 -10555
▁la -10556
덕션 -10557
▁연달 -10558
▁과감 -10559
▁지붕 -10560
▁미끼 -10561
▁지성 -10562
▁148 -10563
▁급속 -10564
▁수성 -10565
▁여장 -10566
▁통보 -10567
▁박종 -10568
▁최정 -10569
▁윈터 -10570
▁NEW -10571
▁히나타 -10572
▁고질 -10573
▁사내 -10574
▁출제 -10575
▁틀어 -10576
메라 -10577
▁알렸 -10578
▁황태 -10579
▁179 -10580
▁제작비 -10581
▁저스티스 -10582
▁Mr -10583
▁판다 -10584
▁펭귄 -10585
▁매지 -10586
▁앵커 -10587
▁향한다 -10588
▁건다 -10589
▁스톡 -10590
▁복도 -10591
▁메구미 -10592
▁케리건 -10593
▁어벤져스 -10594
▁능숙 -10595
▁OF -10596
▁찌질 -10597
▁노르웨이 -10598
▁망명 -10599
▁샤오 -10600
▁조력 -10601
▁소노 -10602
▁틀리 -10603
ica -10604
산역 -10605
▁두근 -10606
▁레슬러 -10607
▁세례 -10608
▁격퇴 -10609
▁건드 -10610
▁파랑 -10611
▁오른팔 -10612
▁미숙 -10613
▁제지 -10614
▁모스크바 -10615
▁성벽 -10616
▁장갑차 -10617
세서리 -10618
▁베일 -10619
▁라이센스 -10620
▁Gen -10621
▁트랜스포머 -10622
▁GTA -10623
▁립스 -10624
▁반론 -10625
▁로맨스 -10626
▁심히 -10627
▁포니 -10628
▁리터 -10629
사고 -10630
▁교시 -10631
▁스팅 -10632
▁Mi -10633
▁후쿠오카 -10634
▁게르 -10635
▁드로 -10636
▁제대 -10637
IK -10638
다드 -10639
▁사지 -10640
▁눕 -10641
▁156 -10642
▁철갑탄 -10643
교통 -10644
▁풍경 -10645
▁더러운 -10646
▁섹시 -10647
▁사나이 -10648
▁Em -10649
▁노골 -10650
▁두뇌 -10651
▁헤일 -10652
▁am -10653
▁염두 -10654
날두 -10655
▁유타 -10656
▁지요 -10657
▁154 -10658
▁뒤쪽 -10659
▁종말 -10660
▁ar -10661
▁파우 -10662
리칸 -10663
▁꼼수 -10664
▁미모 -10665
▁탐구 -10666
▁호날두 -10667
▁시조 -10668
▁사소 -10669
▁혼인 -10670
▁표창 -10671
ors -10672
▁던졌 -10673
▁비참 -10674
▁Par -10675
▁교육청 -10676
▁슈가 -10677
▁밧 -10678
▁159 -10679
스레 -10680
▁진술 -10681
FL -10682
▁치마 -10683
▁사일 -10684
▁호무 -10685
▁노래방 -10686
▁레슬링 -10687
▁앞세 -10688
▁바닷 -10689
▁해준다 -10690
▁맹활약 -10691
▁진흥 -10692
▁묻혀 -10693
▁아비 -10694
▁초코 -10695
▁음향 -10696
▁명대사 -10697
▁호구 -10698
▁미세 -10699
▁여수 -10700
▁으리 -10701
▁176 -10702
▁안동 -10703
▁날린 -10704
▁사가 -10705
▁죄수 -10706
▁재즈 -10707
▁222 -10708
▁알아차 -10709
▁배신자 -10710
HT -10711
▁찾아와 -10712
▁냉동 -10713
▁춤추 -10714
▁응시 -10715
▁MK -10716
▁일컫 -10717
▁착지 -10718
▁분쇄 -10719
▁오쿠 -10720
▁전반기 -10721
▁공립 -10722
▁미호 -10723
▁HARD -10724
박이 -10725
▁블랙홀 -10726
▁발탁 -10727
▁1971 -10728
▁기행 -10729
▁전학 -10730
▁생태 -10731
▁u -10732
▁발발 -10733
▁말라 -10734
▁맞출 -10735
▁믿음 -10736
▁성폭 -10737
▁이른다 -10738
▁코프 -10739
▁맞물 -10740
▁엄폐 -10741
▁테오 -10742
퀘어 -10743
▁129 -10744
▁에그 -10745
▁레오나 -10746
▁통틀어 -10747
▁대목 -10748
▁폐허 -10749
▁남양 -10750
▁173 -10751
▁가라앉 -10752
▁현직 -10753
▁핀란드 -10754
클린 -10755
▁OCG -10756
▁리우스 -10757
어붙 -10758
▁전임 -10759
▁수하 -10760
▁FPS -10761
▁사천왕 -10762
▁계곡 -10763
바스 -10764
티지 -10765
▁잡혔 -10766
▁버림 -10767
▁AE -10768
▁오리온 -10769
▁책상 -10770
아닌 -10771
▁153 -10772
▁사르 -10773
▁른 -10774
▁와라 -10775
▁PL -10776
▁천문 -10777
▁명탐정 -10778
▁의아 -10779
▁was -10780
▁화석 -10781
킨다 -10782
▁ll -10783
CH -10784
▁세키 -10785
▁텍사스 -10786
▁캘리포 -10787
▁전도 -10788
▁나란히 -10789
▁걸려서 -10790
▁가마 -10791
▁남한 -10792
▁선포 -10793
▁안드레 -10794
▁드리블 -10795
▁프로덕션 -10796
멘터리 -10797
▁파이프 -10798
▁고음 -10799
▁신주 -10800
▁꽁 -10801
▁뭔지 -10802
pr -10803
▁질풍 -10804
▁시뮬레이션 -10805
▁샹 -10806
UT -10807
▁토막 -10808
▁137 -10809
▁부끄러 -10810
▁빠진다 -10811
▁나카무라 -10812
하여 -10813
▁에메랄드 -10814
▁테러리 -10815
▁낀 -10816
▁Kn -10817
▁라곤 -10818
eep -10819
▁우산 -10820
▁스탈린 -10821
▁Of -10822
▁죠죠 -10823
▁네놈 -10824
▁무단 -10825
리언 -10826
▁캘리포니아 -10827
▁지각 -10828
▁호스 -10829
▁혼다 -10830
▁보였으나 -10831
▁러닝 -10832
▁인플 -10833
▁원했 -10834
▁어긋 -10835
슬링 -10836
▁에필 -10837
▁잔해 -10838
▁에필로그 -10839
▁이광 -10840
▁세일러 -10841
▁절정 -10842
▁래스터 -10843
▁오락실 -10844
▁문화재 -10845
▁대안 -10846
▁로스터 -10847
▁그렸 -10848
▁~~ -10849
▁토가 -10850
▁다름아닌 -10851
▁What -10852
▁영등 -10853
les -10854
타니 -10855
▁책략 -10856
▁목포 -10857
▁쓰러져 -10858
▁뺀 -10859
▁두목 -10860
▁교정 -10861
▁라던가 -10862
▁비기 -10863
▁이행 -10864
▁GHz -10865
▁발렌타인 -10866
▁청룡 -10867
▁예방 -10868
▁멋있 -10869
▁배리어 -10870
▁로테이션 -10871
▁스텔라 -10872
▁불문 -10873
▁아랑 -10874
▁골치 -10875
▁노하 -10876
▁원한다 -10877
▁말소 -10878
▁요코하마 -10879
▁먼지 -10880
▁십자군 -10881
▁로열 -10882
▁장시 -10883
▁280 -10884
▁1969 -10885
▁빅토리아 -10886
▁신세계 -10887
▁벨라 -10888
▁델타 -10889
▁레바 -10890
▁총사 -10891
▁유니콘 -10892
▁숭배 -10893
▁BM -10894
▁얼어붙 -10895
▁슬램 -10896
▁야당 -10897
▁기쁨 -10898
▁다큐멘터리 -10899
아슬 -10900
▁174 -10901
▁아슬아슬 -10902
▁서울시 -10903
▁총선거 -10904
▁225 -10905
▁가로막 -10906
▁골목 -10907
▁면접 -10908
▁엣지 -10909
▁대교 -10910
▁거뒀 -10911
▁139 -10912
▁Per -10913
▁중공 -10914
▁163 -10915
더기 -10916
▁134 -10917
▁땀 -10918
▁원망 -10919
▁주파 -10920
▁따라잡 -10921
▁카즈야 -10922
▁네스 -10923
플러스 -10924
▁깽 -10925
▁하의 -10926
▁월요일 -10927
▁167 -10928
▁보디 -10929
▁였음 -10930
▁처녀 -10931
▁심연 -10932
▁열기 -10933
▁미식 -10934
▁버터 -10935
▁오바 -10936
▁143 -10937
▁단의 -10938
▁Fe -10939
▁악곡 -10940
▁TO -10941
▁나사 -10942
▁GPU -10943
▁분포 -10944
▁Heart -10945
▁이준 -10946
▁내밀 -10947
▁부친 -10948
▁필라 -10949
볼루션 -10950
▁오타쿠 -10951
▁투성이 -10952
▁블라디 -10953
반신 -10954
▁스파이크 -10955
▁해상도 -10956
▁쓸데없이 -10957
▁끝장 -10958
▁스페인어 -10959
총장 -10960
▁최대치 -10961
▁루루 -10962
컨드 -10963
▁Good -10964
▁부처 -10965
▁로지 -10966
▁세컨드 -10967
다닌 -10968
▁상장 -10969
▁그제 -10970
▁yout -10971
▁모기 -10972
▁전광 -10973
▁함성 -10974
▁142 -10975
▁CO -10976
▁인구수 -10977
해야 -10978
▁청사 -10979
▁화약 -10980
▁퍼시 -10981
▁연기력 -10982
▁용의자 -10983
▁2500 -10984
agon -10985
▁김도 -10986
▁왕관 -10987
▁여도 -10988
▁태권 -10989
▁반란군 -10990
▁관광객 -10991
▁전수 -10992
▁패닉 -10993
ert -10994
▁스윕 -10995
▁줄어든다 -10996
▁164 -10997
공화 -10998
▁바란다 -10999
▁항공사 -11000
▁선수단 -11001
▁히카리 -11002
▁인사이드 -11003
▁CN -11004
▁때로 -11005
▁스토커 -11006
▁트레이닝 -11007
▁무안 -11008
▁비로 -11009
▁유나 -11010
▁beat -11011
부인 -11012
▁ㅡ -11013
▁기소 -11014
▁드레드 -11015
▁미유키 -11016
▁걸어가 -11017
어버리 -11018
▁불쾌 -11019
▁추모 -11020
▁구제 -11021
▁하후 -11022
▁pro -11023
▁스트로 -11024
▁퓨처 -11025
▁넘어간다 -11026
▁실로 -11027
EL -11028
▁해태 -11029
▁야마다 -11030
▁하우 -11031
에몽 -11032
▁국기 -11033
▁담겨 -11034
▁심야 -11035
▁할수록 -11036
▁기이 -11037
▁라임 -11038
▁마의 -11039
▁제단 -11040
▁극우 -11041
▁ONE -11042
▁누이 -11043
▁왕후 -11044
▁음색 -11045
▁선인 -11046
▁청장 -11047
▁이인 -11048
▁직격 -11049
▁페르시아 -11050
▁뉴질 -11051
▁뉴질랜드 -11052
▁악령 -11053
와라 -11054
▁야전 -11055
▁패스트 -11056
▁동아시아 -11057
▁우투 -11058
▁홍성 -11059
▁꾸미 -11060
▁직통 -11061
▁136 -11062
▁뱉 -11063
▁공고 -11064
▁김연 -11065
▁김천 -11066
▁주워 -11067
▁관계없이 -11068
▁지극 -11069
좀무 -11070
▁흠좀무 -11071
▁쓰러트리 -11072
▁벚꽃 -11073
▁킹덤 -11074
▁콘셉트 -11075
▁회로 -11076
▁징크스 -11077
▁참으로 -11078
▁로브 -11079
무실 -11080
▁리부트 -11081
▁제이슨 -11082
▁Dark -11083
}} -11084
▁안철수 -11085
▁time -11086
▁내세우 -11087
▁KC -11088
▁템포 -11089
▁방안 -11090
▁적립 -11091
▁서장 -11092
디스 -11093
▁개그맨 -11094
▁아이스크림 -11095
▁더구나 -11096
지오 -11097
▁랙 -11098
▁바닐라 -11099
프란 -11100
▁궁전 -11101
▁일환 -11102
백과 -11103
▁알렉산더 -11104
▁오프라인 -11105
▁핸드폰 -11106
▁타고 -11107
립트 -11108
▁사범 -11109
▁동사 -11110
▁조준경 -11111
▁경찰청 -11112
▁유고 -11113
▁한층 -11114
리드 -11115
▁들어온다 -11116
슬리 -11117
▁경지 -11118
▁완구 -11119
▁번갈 -11120
▁유해 -11121
▁자부 -11122
▁어린아이 -11123
▁샤를 -11124
▁텀 -11125
▁훈훈 -11126
무게 -11127
레이트 -11128
▁몸무게 -11129
▁유선 -11130
▁157 -11131
▁1963 -11132
▁숙주 -11133
▁다룰 -11134
▁미라이 -11135
▁퍼부 -11136
▁중심지 -11137
▁체격 -11138
▁죄송 -11139
▁술집 -11140
▁메이트 -11141
▁330 -11142
▁0900 -11143
▁내뿜 -11144
▁중년 -11145
other -11146
▁모던 -11147
▁세미 -11148
▁카니 -11149
풀이 -11150
▁모양새 -11151
▁라바 -11152
▁마요 -11153
▁연의 -11154
▁혼동 -11155
▁화소 -11156
iew -11157
▁열세 -11158
▁ab -11159
▁출고 -11160
▁찾아왔 -11161
▁문신 -11162
ideo -11163
▁Sm -11164
▁근력 -11165
land -11166
▁좌파 -11167
▁뮤지션 -11168
▁정서 -11169
르도 -11170
▁순정 -11171
▁방호 -11172
▁외면 -11173
▁앞뒤 -11174
▁배우자 -11175
티넘 -11176
▁양대 -11177
▁전반전 -11178
▁플래티넘 -11179
▁브루스 -11180
▁눈빛 -11181
▁박살나 -11182
▁갈리아 -11183
▁사투리 -11184
▁호박 -11185
▁불릴 -11186
▁레프 -11187
▁휴스턴 -11188
▁안토니 -11189
애나 -11190
▁하카 -11191
▁브이 -11192
air -11193
▁계시 -11194
▁창립 -11195
▁패드 -11196
▁Sl -11197
▁합치 -11198
▁좋아한다 -11199
▁타다 -11200
▁연금술사 -11201
▁느껴진다 -11202
▁제사 -11203
▁주한 -11204
▁에일리 -11205
▁대중교통 -11206
▁우천 -11207
▁제우스 -11208
▁1968 -11209
▁270 -11210
▁침해 -11211
▁저조 -11212
▁설탕 -11213
▁성숙 -11214
▁시흥 -11215
▁장례식 -11216
▁뒤지 -11217
▁출연진 -11218
▁제프 -11219
▁본의 -11220
▁플라스틱 -11221
▁농민 -11222
▁생겨서 -11223
▁집필 -11224
▁꿰뚫 -11225
▁투신 -11226
▁Blue -11227
▁타당 -11228
▁Baby -11229
ator -11230
▁AG -11231
▁나뭇 -11232
▁달랐 -11233
▁해독 -11234
▁박상 -11235
▁미니언 -11236
▁외관 -11237
▁이선 -11238
▁코즈 -11239
▁이아 -11240
▁도시락 -11241
▁클라우드 -11242
▁...... -11243
oot -11244
▁워너 -11245
▁스케이 -11246
▁신수 -11247
▁전열 -11248
▁환사 -11249
anna -11250
▁테러리스트 -11251
▁Ac -11252
▁대진 -11253
▁유코 -11254
▁장풍 -11255
▁샤워 -11256
▁초교 -11257
▁기피 -11258
▁깨알 -11259
▁김대중 -11260
▁선교 -11261
▁체스 -11262
▁들린다 -11263
▁하이브리 -11264
▁동호 -11265
▁깔려 -11266
▁벌금 -11267
▁수시로 -11268
▁하이브리드 -11269
▁테루 -11270
▁세스 -11271
▁전라북도 -11272
▁무수 -11273
▁부사관 -11274
▁방언 -11275
▁청나라 -11276
▁미칠 -11277
▁우상 -11278
▁자칫 -11279
ush -11280
▁미티 -11281
▁집합 -11282
▁히로시마 -11283
▁모어 -11284
▁브레인 -11285
▁취지 -11286
▁담임 -11287
▁149 -11288
▁오비 -11289
▁심상 -11290
▁맞대 -11291
▁방공 -11292
▁모른다고 -11293
▁하비 -11294
▁놀란 -11295
▁풀린 -11296
▁강세 -11297
▁브론즈 -11298
▁마쳤 -11299
▁그려져 -11300
▁센트럴 -11301
▁각국 -11302
▁사탄 -11303
▁적성 -11304
▁넉넉 -11305
▁희대 -11306
▁총독 -11307
▁146 -11308
▁상쇄 -11309
▁후루 -11310
▁푹 -11311
▁허브 -11312
▁경제학 -11313
▁트러블 -11314
▁황실 -11315
▁가혹 -11316
▁모함 -11317
▁확고 -11318
▁벌어진다 -11319
▁야만 -11320
▁Li -11321
▁OK -11322
▁공모 -11323
▁조교 -11324
▁멜론 -11325
▁마켓 -11326
▁Fire -11327
카미 -11328
▁손꼽히 -11329
▁마초 -11330
▁지문 -11331
na -11332
▁기함 -11333
▁남미 -11334
토리얼 -11335
▁격전 -11336
▁심했 -11337
▁하여금 -11338
▁연회 -11339
▁브레이브 -11340
▁거품 -11341
▁암컷 -11342
▁후쿠시마 -11343
▁튜토리얼 -11344
▁뜰 -11345
▁상공 -11346
▁하라 -11347
▁찰리 -11348
▁260 -11349
▁풍기 -11350
▁낡 -11351
▁공영 -11352
▁일삼 -11353
▁오리진 -11354
▁심화 -11355
▁종착 -11356
▁열린다 -11357
▁프로토타입 -11358
▁리액 -11359
▁장동 -11360
▁저희 -11361
▁유니온 -11362
▁El -11363
▁sm -11364
▁섹스 -11365
▁페이커 -11366
▁방화 -11367
▁거칠 -11368
▁마테 -11369
▁크롤 -11370
▁소사 -11371
▁주의자 -11372
▁월등 -11373
▁프렌즈 -11374
▁라나 -11375
▁루키 -11376
▁빈틈 -11377
▁럴 -11378
▁치고 -11379
▁라프 -11380
▁따른다 -11381
▁경과 -11382
▁걸어서 -11383
▁말년 -11384
단지 -11385
▁병장 -11386
▁따져 -11387
▁웨인 -11388
▁아르카 -11389
▁Dis -11390
▁뒀 -11391
OID -11392
▁랩터 -11393
글라스 -11394
▁초상화 -11395
▁레이너 -11396
▁맥락 -11397
▁슈터 -11398
▁인체 -11399
전트 -11400
ady -11401
▁공손 -11402
▁실력자 -11403
▁일레븐 -11404
▁줄게 -11405
더슨 -11406
▁일품 -11407
▁다기 -11408
▁클러 -11409
▁주가 -11410
▁BEMAN -11411
▁kr -11412
▁원자력 -11413
▁고추 -11414
▁브랜 -11415
▁오세 -11416
▁미스터리 -11417
▁정해져 -11418
▁합법 -11419
▁개미 -11420
▁책임지 -11421
▁타카시 -11422
▁오의 -11423
▁석상 -11424
▁중학생 -11425
▁고성 -11426
▁파격 -11427
▁므 -11428
▁신병 -11429
▁핸들 -11430
▁포워드 -11431
두사 -11432
▁운반 -11433
▁적재 -11434
▁프로모 -11435
▁별칭 -11436
베트 -11437
▁격기 -11438
▁속력 -11439
▁편견 -11440
▁수량 -11441
▁자질 -11442
▁DJMAX -11443
▁미즈키 -11444
▁BEMANI -11445
▁부턴 -11446
▁문법 -11447
▁무선 -11448
▁생선 -11449
티노 -11450
▁미로 -11451
▁파손 -11452
▁도검 -11453
▁지기 -11454
토랑 -11455
▁뒷면 -11456
▁레스토랑 -11457
▁fl -11458
▁빈번 -11459
▁쏟아지 -11460
▁Champ -11461
▁보구 -11462
메어 -11463
▁속공 -11464
▁더라면 -11465
▁말아먹 -11466
▁불화 -11467
▁가성 -11468
▁연말 -11469
▁우편 -11470
▁리바운드 -11471
▁다이노스 -11472
ution -11473
▁프랜차 -11474
▁통행 -11475
▁STR -11476
▁cc -11477
▁호출 -11478
▁본가 -11479
앙스 -11480
▁주고 -11481
▁명명 -11482
▁하반기 -11483
▁발차기 -11484
▁박혀 -11485
▁유유 -11486
▁수령 -11487
▁움직여 -11488
레드 -11489
▁스트리밍 -11490
▁쐐 -11491
▁격리 -11492
레슬링 -11493
나리 -11494
▁가브리 -11495
▁피카츄 -11496
▁유승 -11497
▁소령 -11498
▁박명수 -11499
▁데스티니 -11500
스틴 -11501
▁Pre -11502
▁북구 -11503
사벽 -11504
▁넘사벽 -11505
▁재빨리 -11506
▁Ev -11507
▁취한 -11508
▁프랜차이즈 -11509
▁프로레슬링 -11510
▁205 -11511
▁뚜껑 -11512
▁수컷 -11513
▁맴 -11514
▁1967 -11515
저드 -11516
더링 -11517
구역 -11518
▁쑤 -11519
▁솜씨 -11520
▁나이트메어 -11521
▁자각 -11522
▁평창 -11523
▁돋보이 -11524
▁퇴역 -11525
▁당국 -11526
▁뉘앙스 -11527
엘라 -11528
▁추출 -11529
▁구한 -11530
▁DB -11531
▁정형 -11532
▁관해 -11533
▁대승 -11534
▁독립운동 -11535
▁성기 -11536
▁앤디 -11537
▁선곡 -11538
▁증인 -11539
▁배워 -11540
▁앞면 -11541
▁니나 -11542
▁프리즘 -11543
▁경질 -11544
▁박용 -11545
▁신임 -11546
▁이방 -11547
▁정체불명 -11548
▁일례 -11549
▁전염 -11550
▁하와 -11551
▁뽐 -11552
치아 -11553
래스 -11554
▁원흉 -11555
▁탯이 -11556
▁클립 -11557
▁무죄 -11558
석민 -11559
▁단식 -11560
▁간호사 -11561
ium -11562
▁550 -11563
▁우파 -11564
▁RP -11565
▁애국 -11566
▁GG -11567
▁정재 -11568
▁네코 -11569
▁아메리칸 -11570
▁부관 -11571
▁타나카 -11572
▁교통사고 -11573
▁운석 -11574
▁질환 -11575
▁Summer -11576
듈럼 -11577
▁동로 -11578
▁우가 -11579
▁가의 -11580
▁147 -11581
▁광전사 -11582
▁나열 -11583
▁강점기 -11584
▁버려진 -11585
▁오시 -11586
▁디비전 -11587
▁석사 -11588
▁나레이션 -11589
▁개개 -11590
▁츠바사 -11591
▁여관 -11592
▁수수료 -11593
미르 -11594
▁따돌 -11595
▁몹시 -11596
▁수다 -11597
▁놔두 -11598
▁Grand -11599
▁한다거나 -11600
▁블래 -11601
▁Rock -11602
▁노블 -11603
▁범행 -11604
▁호그 -11605
▁미들 -11606
▁살라 -11607
▁퓨리 -11608
▁콕 -11609
▁원작자 -11610
▁back -11611
▁넥서스 -11612
▁게임즈 -11613
▁미팅 -11614
▁우체 -11615
▁무고 -11616
▁추궁 -11617
▁펜듈럼 -11618
▁따윈 -11619
▁플레어 -11620
▁하드웨어 -11621
▁헤어지 -11622
▁동년 -11623
▁무명 -11624
▁날라 -11625
▁토마토 -11626
▁입국 -11627
통수 -11628
▁SCP -11629
▁211 -11630
퍼드 -11631
▁치루 -11632
▁달라졌 -11633
gain -11634
▁동등 -11635
▁멀리서 -11636
모어 -11637
▁내셔널 -11638
▁페인 -11639
▁브라우 -11640
▁버릇 -11641
▁탄탄 -11642
▁유신 -11643
▁전두 -11644
▁now -11645
▁줄어드 -11646
▁총평 -11647
현우 -11648
▁특이점 -11649
▁폴리스 -11650
▁하시 -11651
▁통수 -11652
▁배속 -11653
지도 -11654
▁복면 -11655
▁떄 -11656
▁박찬 -11657
▁원종 -11658
▁유무 -11659
▁Over -11660
▁공습 -11661
▁만루 -11662
▁전례 -11663
▁체형 -11664
▁This -11665
▁대외 -11666
▁메모 -11667
▁day -11668
▁아이폰 -11669
▁권능 -11670
▁다툼 -11671
▁뜯어 -11672
▁군림 -11673
르바 -11674
▁사슴 -11675
▁인어 -11676
두리 -11677
▁데려오 -11678
▁불려 -11679
▁재활 -11680
▁영등포 -11681
▁감전 -11682
▁옌 -11683
▁퓨어 -11684
▁환수 -11685
▁게시물 -11686
▁은메달 -11687
▁강팀 -11688
고래 -11689
▁심문 -11690
노스케 -11691
ction -11692
▁텅 -11693
▁십자가 -11694
▁대패 -11695
▁호노 -11696
끄러운 -11697
▁사교 -11698
▁에바 -11699
▁그리드 -11700
▁무슬 -11701
▁포식 -11702
▁아래쪽 -11703
보내 -11704
▁힐링 -11705
▁LED -11706
▁Dance -11707
▁말레이시아 -11708
▁누워 -11709
▁But -11710
평가 -11711
▁실루 -11712
▁속박 -11713
▁온몸 -11714
▁제보 -11715
▁살인마 -11716
▁레이첼 -11717
▁했어도 -11718
▁리키 -11719
내리 -11720
▁에도 -11721
▁한강 -11722
▁방과 -11723
▁광속 -11724
▁알렉산드 -11725
▁루팡 -11726
▁관절 -11727
▁파문 -11728
▁함재기 -11729
▁대군 -11730
▁DR -11731
▁별자리 -11732
▁동북 -11733
▁배송 -11734
▁염색 -11735
▁무제한 -11736
▁홀딩 -11737
ne -11738
▁닥치 -11739
결승 -11740
▁점사 -11741
irst -11742
▁셰프 -11743
▁노비 -11744
▁미스트 -11745
▁관해서 -11746
▁거니 -11747
▁진도 -11748
▁내구력 -11749
▁VOC -11750
▁길거리 -11751
▁호투 -11752
▁둔다 -11753
▁픽셀 -11754
▁교내 -11755
▁이창 -11756
파리 -11757
▁미쳤 -11758
▁격침 -11759
▁박탈 -11760
▁SL -11761
▁볼까 -11762
▁라구 -11763
▁우물 -11764
▁직속 -11765
▁노트북 -11766
▁자란 -11767
▁통증 -11768
트랙 -11769
▁Wii -11770
▁감기 -11771
▁불평 -11772
▁경순 -11773
▁채취 -11774
▁라파 -11775
▁오디오 -11776
▁MSL -11777
▁속편 -11778
▁공천 -11779
▁발현 -11780
▁어느새 -11781
▁요리사 -11782
▁미수 -11783
▁발라드 -11784
▁커졌 -11785
▁박재 -11786
▁가창 -11787
ount -11788
▁무슬림 -11789
▁Ste -11790
▁목재 -11791
▁여배우 -11792
기사 -11793
츠카 -11794
▁그릴 -11795
▁스퀘어 -11796
▁카우 -11797
▁Gold -11798
▁보행 -11799
▁리엘 -11800
▁박영 -11801
▁기괴 -11802
▁클레이 -11803
▁자격증 -11804
▁성직자 -11805
▁시초 -11806
▁해적단 -11807
▁성비 -11808
▁지어 -11809
▁3164 -11810
▁머릿 -11811
▁HG -11812
▁캐스트 -11813
느님 -11814
▁포효 -11815
▁격투기 -11816
콥터 -11817
▁하행 -11818
▁교양 -11819
▁상행 -11820
▁무사시 -11821
현진 -11822
▁Just -11823
▁DX -11824
▁닉스 -11825
▁왕좌 -11826
▁누명 -11827
▁인데다 -11828
▁구타 -11829
▁동문 -11830
▁셋째 -11831
▁안드로 -11832
▁자니 -11833
▁지낸 -11834
▁증가량 -11835
▁지지자 -11836
▁남발 -11837
▁줄줄 -11838
▁꼽힌다 -11839
▁스네이크 -11840
▁동메달 -11841
▁타치바나 -11842
▁단말 -11843
▁성수 -11844
▁하느님 -11845
자동 -11846
let -11847
▁첫날 -11848
▁1966 -11849
▁쓰일 -11850
▁HK -11851
ring -11852
▁농락 -11853
▁뒤통수 -11854
▁동조 -11855
▁국민당 -11856
▁대공포 -11857
▁지온 -11858
▁줄리 -11859
▁일일이 -11860
줌마 -11861
▁노릴 -11862
▁news -11863
▁빌보드 -11864
▁FL -11865
▁달라붙 -11866
▁올바른 -11867
▁미사키 -11868
▁여친 -11869
▁증발 -11870
▁기획사 -11871
▁속이 -11872
▁방송인 -11873
▁삼촌 -11874
저것 -11875
▁창세 -11876
▁204 -11877
▁이것저것 -11878
▁수강 -11879
▁륙 -11880
▁멸종 -11881
▁손톱 -11882
▁아줌마 -11883
플렉스 -11884
▁명나라 -11885
▁별점 -11886
eng -11887
▁DNA -11888
▁넘어지 -11889
▁물가 -11890
▁번식 -11891
▁제스 -11892
▁대쉬 -11893
▁쇼트 -11894
▁리턴 -11895
레일 -11896
무네 -11897
DS -11898
▁회견 -11899
▁샌프란 -11900
▁샌프란시스코 -11901
봐도 -11902
▁정한 -11903
▁들러 -11904
▁혼합 -11905
▁뷔 -11906
▁166 -11907
▁공존 -11908
▁크리스토 -11909
▁스킵 -11910
▁독수리 -11911
▁회복력 -11912
▁들어와서 -11913
▁쌓여 -11914
▁카구라 -11915
▁한숨 -11916
▁비즈 -11917
▁경감 -11918
▁사망자 -11919
▁휩싸 -11920
▁TW -11921
ports -11922
▁책정 -11923
▁기합 -11924
▁스크립트 -11925
▁커트 -11926
▁복용 -11927
▁급히 -11928
▁시가 -11929
▁오키나와 -11930
메스 -11931
▁pt -11932
▁괴력 -11933
▁사모 -11934
▁친목 -11935
▁후대 -11936
▁셸 -11937
▁직무 -11938
▁공자 -11939
▁정정 -11940
▁흘러가 -11941
▁재사 -11942
소수 -11943
▁프로모션 -11944
▁정크 -11945
▁동족 -11946
▁Can -11947
▁사료 -11948
▁다스리 -11949
자재 -11950
▁트렌 -11951
▁다이스케 -11952
▁Korea -11953
산동 -11954
▁주심 -11955
▁회귀 -11956
▁명곡 -11957
▁인쇄 -11958
▁단과 -11959
▁롤링 -11960
▁악어 -11961
▁현상금 -11962
▁차가운 -11963
▁다짐 -11964
▁기술자 -11965
▁코바야시 -11966
▁회오리 -11967
▁FB -11968
▁아깝 -11969
▁계란 -11970
▁CA -11971
▁사우루스 -11972
▁슬로우 -11973
파크 -11974
ina -11975
나갔 -11976
▁카이토 -11977
프라 -11978
▁호프 -11979
▁뽑아 -11980
▁VOCAL -11981
스트림 -11982
▁포대 -11983
▁이례 -11984
▁만행 -11985
▁비로소 -11986
▁실습 -11987
▁키트 -11988
▁박치기 -11989
▁토이 -11990
▁헬리콥터 -11991
▁합친 -11992
▁회심 -11993
ally -11994
▁아카리 -11995
▁카르마 -11996
▁벌리 -11997
▁분장 -11998
▁도라에몽 -11999
▁연고지 -12000
▁필터 -12001
▁박해 -12002
▁김원 -12003
상가상 -12004
▁설상가상 -12005
▁하리 -12006
▁얕 -12007
▁KTX -12008
보그 -12009
▁캐리어 -12010
ERO -12011
▁고조 -12012
▁벌인다 -12013
▁인천광역시 -12014
▁반군 -12015
▁장원 -12016
▁부류 -12017
▁Sec -12018
커녕 -12019
▁피스트 -12020
▁미하 -12021
▁두르 -12022
▁되돌리 -12023
▁경보 -12024
▁이뤄지 -12025
▁홍진호 -12026
▁가나 -12027
▁스냅 -12028
▁그립 -12029
OO -12030
▁로컬 -12031
▁비타 -12032
UR -12033
▁니카 -12034
▁미판 -12035
바르 -12036
▁진수 -12037
▁650 -12038
▁바꿔서 -12039
▁브릿 -12040
▁듀크 -12041
▁문어 -12042
▁신정 -12043
조합 -12044
▁광대 -12045
▁난감 -12046
▁유정 -12047
▁MHz -12048
소문 -12049
▁프린스 -12050
▁시부 -12051
▁At -12052
▁가까웠 -12053
▁비꼬 -12054
▁디렉터 -12055
▁Music -12056
▁++ -12057
▁타시 -12058
▁EBS -12059
▁똑똑 -12060
▁재직 -12061
▁병살타 -12062
▁셉 -12063
▁선우 -12064
▁우메 -12065
티콘 -12066
▁루마니아 -12067
▁이속 -12068
▁미성년 -12069
▁천마 -12070
▁박경 -12071
▁유영 -12072
네이터 -12073
▁분홍색 -12074
▁살상 -12075
▁옮겼 -12076
▁가급 -12077
▁유난 -12078
마당 -12079
▁Su -12080
▁ㅋㅋ -12081
▁감행 -12082
▁태극 -12083
▁보살 -12084
▁기다렸 -12085
▁엘리스 -12086
▁개연 -12087
▁달라진 -12088
▁무진 -12089
▁패했 -12090
▁퍼센트 -12091
▁김형 -12092
▁파수 -12093
▁로저 -12094
▁아이유 -12095
▁퐁 -12096
▁1962 -12097
▁짚 -12098
바다 -12099
▁Ep -12100
▁바티 -12101
▁리플렉 -12102
▁즐거운 -12103
▁괴상 -12104
▁입양 -12105
▁실루엣 -12106
▁부드러운 -12107
▁프랑크 -12108
▁딸기 -12109
▁총열 -12110
▁조직원 -12111
▁아타 -12112
▁홈즈 -12113
▁주어진 -12114
▁망령 -12115
▁열람 -12116
니카 -12117
▁습관 -12118
▁내릴 -12119
▁스완 -12120
▁로코 -12121
▁츠나 -12122
▁한발 -12123
▁텍스 -12124
▁Live -12125
▁뽕 -12126
▁대마 -12127
▁레이트 -12128
▁학점 -12129
▁get -12130
▁레즈 -12131
ART -12132
▁장학 -12133
▁그리하여 -12134
▁항아리 -12135
▁왠만 -12136
▁악의 -12137
▁춘천 -12138
▁단정 -12139
▁해내 -12140
▁Comm -12141
▁진리 -12142
널드 -12143
▁GN -12144
▁어퍼 -12145
▁가미 -12146
▁관직 -12147
▁달빛 -12148
▁야외 -12149
▁예지 -12150
▁무겁 -12151
▁암울 -12152
▁고토 -12153
▁모른 -12154
▁목동 -12155
▁케이지 -12156
▁카가미 -12157
▁서태 -12158
▁콜롬 -12159
▁합쳐서 -12160
장난 -12161
▁레기 -12162
▁양보 -12163
▁저렇게 -12164
▁판권 -12165
▁깁 -12166
젤레스 -12167
▁요시다 -12168
▁BF -12169
use -12170
▁달아 -12171
▁고릴라 -12172
▁망한 -12173
▁발광 -12174
▁대본 -12175
▁세탁 -12176
▁금색 -12177
▁경유지 -12178
▁모라 -12179
▁후문 -12180
▁주거 -12181
▁MX -12182
▁잘려 -12183
▁터트 -12184
▁위키백과 -12185
▁기법 -12186
▁강수 -12187
▁파벌 -12188
▁대인배 -12189
son -12190
▁키무라 -12191
▁돌격소총 -12192
▁사이보그 -12193
▁리티 -12194
▁UF -12195
▁천공 -12196
서야 -12197
▁169 -12198
봐야 -12199
▁클라이 -12200
▁용감 -12201
▁` -12202
▁갈래 -12203
▁도청 -12204
▁진성 -12205
▁오케스트라 -12206
▁저서 -12207
▁고든 -12208
▁연발 -12209
▁뇌물 -12210
▁안보 -12211
▁바그 -12212
▁man -12213
▁사스케 -12214
▁요시노 -12215
▁똘 -12216
▁뛴 -12217
▁1800 -12218
일라 -12219
▁김명 -12220
▁투니 -12221
▁산책 -12222
▁레이나 -12223
▁카에 -12224
▁바주 -12225
▁구급 -12226
▁전속 -12227
▁북아 -12228
▁경쟁자 -12229
▁gr -12230
▁한탄 -12231
▁코요 -12232
문트 -12233
▁단속 -12234
▁천둥 -12235
▁소절 -12236
▁바니 -12237
▁서민 -12238
▁비춰 -12239
▁베이더 -12240
itch -12241
들여 -12242
▁코다 -12243
관총 -12244
▁로워 -12245
▁뢰 -12246
▁섀도 -12247
▁실업 -12248
▁디펜스 -12249
tr -12250
▁번트 -12251
▁영진 -12252
▁but -12253
▁커비 -12254
▁털어놓 -12255
▁1944 -12256
▁돌이 -12257
▁처한 -12258
▁타니 -12259
reen -12260
▁GR -12261
▁잠재력 -12262
== -12263
▁달래 -12264
▁Res -12265
▁Power -12266
▁수용소 -12267
▁1940 -12268
▁Leg -12269
▁Af -12270
▁로저스 -12271
▁어미 -12272
attle -12273
어질 -12274
▁그랜 -12275
▁급기 -12276
▁주황색 -12277
▁재사용 -12278
inn -12279
▁스퍼 -12280
▁페이트 -12281
▁살아나 -12282
▁차용 -12283
▁배상 -12284
▁결사 -12285
▁법안 -12286
▁볼텍스 -12287
▁남작 -12288
▁행방불명 -12289
▁제다이 -12290
▁처절 -12291
▁치사 -12292
▁은혜 -12293
체스 -12294
▁Hard -12295
▁추적자 -12296
▁RC -12297
▁교관 -12298
▁조력자 -12299
▁MR -12300
▁송출 -12301
▁영남 -12302
▁월급 -12303
▁고산 -12304
▁Pv -12305
▁열악 -12306
▁놀랐 -12307
▁자판 -12308
▁청원 -12309
▁히토미 -12310
▁접점 -12311
▁혹사 -12312
못미 -12313
▁감히 -12314
▁런닝 -12315
▁지못미 -12316
▁비운 -12317
▁장제스 -12318
▁공약 -12319
▁UI -12320
▁저상 -12321
▁쿠루 -12322
▁전산 -12323
▁냉각 -12324
▁리조 -12325
▁불어 -12326
▁준결승 -12327
▁ARM -12328
▁마운드 -12329
▁워낙에 -12330
▁경선 -12331
▁채집 -12332
▁코이 -12333
▁호로 -12334
징어 -12335
▁부려 -12336
▁Ma -12337
▁수복 -12338
▁쐐기 -12339
▁직결 -12340
쌔신 -12341
▁카즈마 -12342
▁Sing -12343
▁어쌔신 -12344
▁일수록 -12345
▁뛰쳐 -12346
▁편안 -12347
▁Che -12348
▁카를로스 -12349
▁카밀 -12350
놀이 -12351
▁구두 -12352
▁여정 -12353
▁줘도 -12354
▁출근 -12355
▁출중 -12356
장이 -12357
75 -12358
▁매너 -12359
▁떠날 -12360
▁켈리 -12361
▁진행자 -12362
▁Life -12363
니클 -12364
▁라오 -12365
ern -12366
▁강해서 -12367
▁co -12368
▁동요 -12369
▁기복 -12370
XT -12371
▁공과 -12372
▁보잉 -12373
▁준공 -12374
▁미코토 -12375
▁천주교 -12376
▁독서 -12377
▁블래스트 -12378
▁제원 -12379
▁Master -12380
▁묘한 -12381
▁응원가 -12382
▁트리스 -12383
▁느니 -12384
▁선방 -12385
TC -12386
▁ADV -12387
▁모닝 -12388
▁가호 -12389
규모 -12390
▁김두한 -12391
ars -12392
큘라 -12393
▁키사 -12394
▁걸친 -12395
▁크리스티 -12396
▁실정 -12397
▁여권 -12398
▁입힐 -12399
▁행하 -12400
▁주고받 -12401
▁무효화 -12402
▁정확도 -12403
토르 -12404
▁붙였 -12405
▁im -12406
▁돌려주 -12407
▁나들 -12408
▁슬리 -12409
▁호기심 -12410
▁가두 -12411
▁무빙 -12412
▁Rem -12413
준표 -12414
▁전두환 -12415
▁설화 -12416
▁코파 -12417
▁터질 -12418
▁전세 -12419
▁튜닝 -12420
▁제라 -12421
▁나들목 -12422
▁예언자 -12423
▁VOCALOID -12424
▁탈당 -12425
asy -12426
▁광탈 -12427
▁외우 -12428
▁불신 -12429
▁징징 -12430
▁휴게소 -12431
▁훅 -12432
▁마차 -12433
니스트 -12434
to -12435
▁토로 -12436
▁LCK -12437
▁출루율 -12438
총리 -12439
▁Lo -12440
▁한도 -12441
▁동탁 -12442
▁농사 -12443
rain -12444
▁반대편 -12445
▁러시아어 -12446
▁형편없 -12447
▁뷰티 -12448
▁데우스 -12449
▁민정 -12450
▁비장 -12451
▁Fem -12452
▁시가지 -12453
▁원활 -12454
▁야심 -12455
▁사안 -12456
▁사출 -12457
▁동체 -12458
IE -12459
▁당첨 -12460
▁1930 -12461
▁충청북도 -12462
▁네이트 -12463
▁보여서 -12464
▁부흥 -12465
▁Out -12466
▁카오리 -12467
▁노기 -12468
UE -12469
▁이변 -12470
▁리전 -12471
▁소매 -12472
▁픽업 -12473
▁더욱이 -12474
▁전해진다 -12475
▁실명 -12476
▁선대 -12477
▁증기 -12478
▁지주 -12479
▁카디 -12480
▁부당 -12481
ana -12482
▁막아 -12483
▁열등 -12484
▁카노 -12485
▁교향 -12486
▁테일러 -12487
▁근성 -12488
▁더비 -12489
▁탬 -12490
▁고선 -12491
▁매칭 -12492
▁댄서 -12493
▁야시 -12494
심장 -12495
▁농협 -12496
▁시에 -12497
▁자처 -12498
▁창병 -12499
린다고 -12500
▁무림 -12501
▁매출액 -12502
▁체리 -12503
▁금호 -12504
▁차후 -12505
▁OPS -12506
마침 -12507
▁일절 -12508
차례 -12509
▁센티 -12510
▁던진다 -12511
▁궤적 -12512
▁사당 -12513
▁서지 -12514
▁포트리스 -12515
▁상용 -12516
▁태자 -12517
테이 -12518
▁OB -12519
▁금화 -12520
▁포맷 -12521
▁151 -12522
▁자회사 -12523
cl -12524
▁신대 -12525
▁유한 -12526
▁간선 -12527
ield -12528
▁구단주 -12529
▁친정 -12530
▁목적지 -12531
▁밀렸 -12532
▁음주 -12533
▁이질 -12534
▁득점자 -12535
▁때마침 -12536
▁돌보 -12537
▁동지 -12538
▁매운 -12539
▁등교 -12540
▁문고 -12541
▁999 -12542
▁어리석 -12543
▁내수 -12544
▁모범 -12545
▁유방 -12546
▁전과 -12547
▁학술 -12548
▁허공 -12549
▁구마 -12550
▁아델 -12551
24 -12552
년기 -12553
▁중전차 -12554
▁괴리 -12555
▁End -12556
▁256 -12557
riend -12558
▁퍼붓 -12559
▁지극히 -12560
▁숀 -12561
▁세나 -12562
▁POP -12563
▁Hell -12564
▁치러 -12565
▁성역 -12566
▁밀려나 -12567
▁따내 -12568
▁이은 -12569
▁군복 -12570
▁세레 -12571
▁인벤토리 -12572
무소 -12573
▁신칸 -12574
▁팔찌 -12575
▁유난히 -12576
atic -12577
대기 -12578
▁코타로 -12579
▁드립니다 -12580
▁아이리스 -12581
▁깽판 -12582
▁사극 -12583
▁just -12584
▁1964 -12585
▁교감 -12586
▁동갑 -12587
▁초선 -12588
▁1965 -12589
코어 -12590
클럽 -12591
▁Fi -12592
▁수험 -12593
▁잔디 -12594
▁보리 -12595
▁이노우 -12596
▁가르침 -12597
▁지표 -12598
▁부대원 -12599
▁부호 -12600
▁서해 -12601
▁세세 -12602
▁어선 -12603
▁필연 -12604
▁스타팅 -12605
▁고요 -12606
▁소시 -12607
▁못지않 -12608
▁이용해 -12609
▁아이언맨 -12610
▁수식 -12611
지부 -12612
▁안성 -12613
▁충북 -12614
▁함포 -12615
▁김일성 -12616
▁클레어 -12617
▁신칸센 -12618
▁질러 -12619
▁"" -12620
▁불로 -12621
▁법학 -12622
▁시스터 -12623
거진 -12624
▁확립 -12625
▁터진다 -12626
▁리마 -12627
▁반기 -12628
▁후려 -12629
▁샨 -12630
▁배열 -12631
▁PVP -12632
▁Miss -12633
33 -12634
▁빅토르 -12635
▁주어진다 -12636
▁sc -12637
▁가뜩 -12638
▁세일 -12639
▁애교 -12640
ittle -12641
▁뒤틀 -12642
▁넘어간 -12643
▁숏 -12644
▁넘긴 -12645
▁본성 -12646
▁아몬 -12647
▁커먼 -12648
▁절규 -12649
▁발악 -12650
▁전했 -12651
▁쳐다보 -12652
▁야마구치 -12653
▁퀄컴 -12654
▁구절 -12655
▁이루어진다 -12656
▁파파 -12657
▁Air -12658
▁night -12659
▁타나 -12660
▁쑥 -12661
▁쿠시 -12662
▁순교 -12663
▁q -12664
▁SG -12665
지르 -12666
▁스캔들 -12667
▁개개인 -12668
▁what -12669
▁애시 -12670
▁포토 -12671
▁부드럽 -12672
▁집중력 -12673
▁향기 -12674
▁대법원 -12675
▁영동 -12676
▁웨어 -12677
▁가뜩이나 -12678
▁교직 -12679
▁부딪히 -12680
▁아카이 -12681
▁6000 -12682
▁카스미 -12683
▁간다는 -12684
▁조폭 -12685
LS -12686
동원 -12687
▁반항 -12688
▁에일리언 -12689
▁중견수 -12690
▁설비 -12691
▁아홉 -12692
▁배기 -12693
▁쿠노 -12694
▁김택 -12695
▁오징어 -12696
▁팔라딘 -12697
▁Vo -12698
▁케로 -12699
▁서정 -12700
▁깰 -12701
▁연구실 -12702
▁이치고 -12703
▁380 -12704
▁트로이 -12705
▁럼블 -12706
▁가급적 -12707
▁일본식 -12708
▁악랄 -12709
▁랜턴 -12710
▁액셀 -12711
▁일진 -12712
▁Hy -12713
▁바비 -12714
▁역병 -12715
▁콜드 -12716
▁초당 -12717
▁자크 -12718
▁신흥 -12719
▁직역 -12720
▁학번 -12721
블릿 -12722
▁스타크 -12723
▁VR -12724
▁쿠파 -12725
▁소감 -12726
▁소동 -12727
▁Mod -12728
▁손아 -12729
▁수녀 -12730
▁출몰 -12731
▁고폭탄 -12732
▁자주포 -12733
뮤직 -12734
▁바주카 -12735
▁샤크 -12736
▁국산 -12737
▁레몬 -12738
▁직구 -12739
▁넘어서 -12740
▁EMP -12741
▁볼륨 -12742
▁야드 -12743
▁이야말로 -12744
▁임원 -12745
▁폿 -12746
▁넥슨 -12747
레스트 -12748
▁스콧 -12749
▁1920 -12750
▁게릴라 -12751
▁설계도 -12752
▁성형 -12753
▁지났 -12754
▁차관 -12755
▁패미 -12756
▁포지 -12757
▁양측 -12758
▁즉각 -12759
▁달렸 -12760
▁서대 -12761
▁토오루 -12762
▁쏠쏠 -12763
▁토네 -12764
▁로딩 -12765
28 -12766
▁강행 -12767
▁노엘 -12768
▁시코 -12769
▁Di -12770
▁챌린저 -12771
▁승려 -12772
▁YOU -12773
▁라틴어 -12774
▁상체 -12775
▁MT -12776
▁차선 -12777
▁페니 -12778
▁접근성 -12779
▁한심 -12780
▁강판 -12781
▁전폭 -12782
▁무전 -12783
▁마도사 -12784
▁뮬 -12785
▁돌릴 -12786
▁연비 -12787
사관 -12788
▁하타 -12789
▁패기 -12790
▁King -12791
▁자신감 -12792
▁Sy -12793
▁후예 -12794
▁조영 -12795
▁공산주의 -12796
▁칙 -12797
▁예장 -12798
▁총탄 -12799
▁Ang -12800
▁드라군 -12801
▁수상자 -12802
▁매스 -12803
▁소규모 -12804
▁일렉트로 -12805
▁최영 -12806
▁XXX -12807
▁마에다 -12808
▁노조미 -12809
▁상가 -12810
▁도요 -12811
▁정동 -12812
▁자수 -12813
▁타케시 -12814
▁EA -12815
▁기성 -12816
▁노이즈 -12817
▁밋 -12818
이센 -12819
▁진료 -12820
▁바루 -12821
▁건재 -12822
▁악용 -12823
▁파이브 -12824
▁승천 -12825
▁오로라 -12826
▁페가 -12827
▁용맹 -12828
숨에 -12829
포드 -12830
▁리에 -12831
▁수고 -12832
▁시몬 -12833
▁적진 -12834
▁호쿠 -12835
▁단숨에 -12836
ony -12837
▁떠오 -12838
▁tvN -12839
▁에밀리 -12840
▁놨다 -12841
란트 -12842
▁첨단 -12843
▁IG -12844
▁빈사 -12845
무기 -12846
▁리우 -12847
▁남동 -12848
테이너 -12849
▁쌓인 -12850
▁전리 -12851
▁광신 -12852
▁밀집 -12853
▁박격 -12854
▁될까 -12855
▁펠리 -12856
▁먹방 -12857
▁다비 -12858
▁허위 -12859
▁카타르 -12860
▁초사 -12861
▁퇴출 -12862
▁태조 -12863
▁0000 -12864
▁샤프 -12865
▁크루즈 -12866
▁인터페이스 -12867
▁타국 -12868
▁간다고 -12869
▁페르난 -12870
▁콘티 -12871
▁휘말려 -12872
▁딱딱 -12873
▁생산력 -12874
▁UFC -12875
▁퇴사 -12876
춘다 -12877
▁샴 -12878
▁밀란 -12879
▁말미 -12880
▁동인지 -12881
▁카무이 -12882
▁서킷 -12883
▁수비진 -12884
▁타노스 -12885
▁안다 -12886
▁운운 -12887
▁리쿠 -12888
▁사임 -12889
▁우아 -12890
▁안산 -12891
▁오인 -12892
▁사사키 -12893
▁씁 -12894
mania -12895
▁소극 -12896
▁카린 -12897
▁대상자 -12898
▁스피커 -12899
▁STER -12900
▁플루 -12901
ma -12902
▁원고 -12903
▁와이어 -12904
▁섬기 -12905
▁안면 -12906
▁원내 -12907
▁은밀 -12908
▁기보 -12909
▁실황 -12910
▁소용돌이 -12911
미스 -12912
▁총격 -12913
▁선제골 -12914
▁드라큘라 -12915
▁로사 -12916
▁대대로 -12917
▁만료 -12918
▁재위 -12919
▁옵티 -12920
▁도망쳐 -12921
▁자연수 -12922
▁재난 -12923
▁웨이트 -12924
▁저격총 -12925
▁카탈 -12926
▁대주 -12927
▁대출 -12928
▁솔라 -12929
▁유토 -12930
▁프랭 -12931
▁아이작 -12932
▁투하 -12933
▁덫 -12934
▁멀쩡히 -12935
▁학회 -12936
▁Cy -12937
▁낙인 -12938
▁보증 -12939
▁게리온 -12940
▁자랐 -12941
▁카지노 -12942
▁변질 -12943
▁습한 -12944
곡동 -12945
▁준하 -12946
타르 -12947
▁방금 -12948
▁태세 -12949
▁지날 -12950
▁Run -12951
▁풀렸 -12952
단체 -12953
▁관동 -12954
▁천계 -12955
▁1600 -12956
▁벅스 -12957
▁지그 -12958
▁랴 -12959
▁진가 -12960
▁밝힌다 -12961
▁였으니 -12962
▁가브리엘 -12963
▁포럼 -12964
▁IDOL -12965
▁떠서 -12966
밀리아 -12967
▁치명상 -12968
▁태블릿 -12969
▁갈린다 -12970
be -12971
▁공성전 -12972
▁카이사르 -12973
터스 -12974
▁초래 -12975
▁야쿠자 -12976
▁염려 -12977
▁목요일 -12978
▁스티커 -12979
ual -12980
▁새우 -12981
▁틀림 -12982
인드 -12983
▁캐롤 -12984
▁메테오 -12985
▁131 -12986
ret -12987
▁생산량 -12988
▁쏟아져 -12989
▁스위트 -12990
▁편해 -12991
▁부평 -12992
▁벌여 -12993
▁주방 -12994
▁무궁화 -12995
▁좌표 -12996
▁축적 -12997
▁사에 -12998
▁청산 -12999
▁다단 -13000
▁그걸로 -13001
▁마사키 -13002
▁물리학 -13003
하하 -13004
▁장편 -13005
▁마이트 -13006
회장 -13007
▁캐서 -13008
▁자유자재 -13009
▁SV -13010
▁민원 -13011
▁케이트 -13012
▁광복 -13013
▁아야카 -13014
▁UM -13015
▁수요일 -13016
▁white -13017
▁서초 -13018
▁머무르 -13019
▁우체국 -13020
▁괴담 -13021
▁경성 -13022
▁칠레 -13023
▁MLB -13024
▁램프 -13025
페르 -13026
▁벡터 -13027
▁호전 -13028
▁우루과이 -13029
▁빅뱅 -13030
▁외래 -13031
▁MASTER -13032
▁전교 -13033
▁전편 -13034
미즈 -13035
▁다중 -13036
▁don -13037
▁내야수 -13038
ecial -13039
▁부도 -13040
▁단골 -13041
▁이승만 -13042
▁으리라 -13043
▁흘러나 -13044
▁대각 -13045
▁뒤덮 -13046
▁School -13047
▁하야토 -13048
▁동창 -13049
▁원호 -13050
▁인맥 -13051
권자 -13052
무장 -13053
▁SO -13054
▁가축 -13055
셔츠 -13056
스트로 -13057
징가 -13058
▁라지만 -13059
▁마징가 -13060
▁차려 -13061
▁통신사 -13062
ane -13063
▁기한 -13064
▁입학식 -13065
▁궁지 -13066
▁미타 -13067
▁백합 -13068
▁분기점 -13069
▁무너져 -13070
▁달걀 -13071
▁테이크 -13072
▁대파 -13073
▁흑화 -13074
▁결함 -13075
▁영미 -13076
▁나온다는 -13077
▁강성 -13078
▁경매 -13079
▁Rec -13080
▁마커 -13081
▁미시 -13082
▁깨어난 -13083
마르 -13084
▁취해 -13085
범죄 -13086
▁묶여 -13087
▁장타율 -13088
▁한지라 -13089
▁도도 -13090
▁소실 -13091
▁탄도 -13092
▁고속도 -13093
▁지상파 -13094
▁아닙 -13095
▁웃긴 -13096
▁증권 -13097
▁막바지 -13098
▁홍준표 -13099
▁김전 -13100
▁way -13101
▁합당 -13102
ope -13103
▁Sound -13104
▁김희 -13105
▁여고생 -13106
▁끈질 -13107
▁제시카 -13108
▁쉘 -13109
▁박준 -13110
▁인내 -13111
▁허구 -13112
▁Art -13113
▁휘둘러 -13114
▁울려 -13115
▁Arm -13116
▁다룬다 -13117
▁마운트 -13118
▁바뀔 -13119
▁마이너스 -13120
▁Yeah -13121
▁피에 -13122
▁피드백 -13123
▁사쿠라이 -13124
▁루카스 -13125
▁아루 -13126
행위 -13127
▁일련 -13128
퇴근 -13129
▁매수 -13130
▁시집 -13131
Fat -13132
▁괄 -13133
▁히노 -13134
▁어인 -13135
▁완수 -13136
▁헌신 -13137
▁소설가 -13138
▁베가 -13139
▁계열사 -13140
니즘 -13141
어찌 -13142
▁공로 -13143
▁프로리그 -13144
그러 -13145
▁계좌 -13146
▁이마트 -13147
▁쫓기 -13148
티어 -13149
▁바이스 -13150
바퀴 -13151
▁레지스 -13152
▁두려워하 -13153
elf -13154
▁강적 -13155
▁리트 -13156
베르트 -13157
▁BAS -13158
▁소피아 -13159
▁박주 -13160
▁적료 -13161
▁고속버스 -13162
▁고어 -13163
▁그닥 -13164
일으 -13165
▁기밀 -13166
▁동래 -13167
▁당나라 -13168
▁마모루 -13169
수수 -13170
▁EM -13171
▁루이지 -13172
▁불러일으 -13173
▁굴려 -13174
▁두부 -13175
▁컨트롤러 -13176
ision -13177
▁생겨나 -13178
▁작별 -13179
▁깎이 -13180
▁Femme -13181
재판 -13182
▁로스앤 -13183
▁로스앤젤레스 -13184
드립 -13185
▁오너 -13186
▁아멜 -13187
▁Rev -13188
▁1961 -13189
▁부츠 -13190
▁Cat -13191
대교 -13192
▁리베 -13193
▁양국 -13194
▁레이터 -13195
▁스코프 -13196
▁편대 -13197
▁어찌어찌 -13198
▁부식 -13199
▁소행 -13200
▁간략 -13201
▁자진 -13202
▁플래닛 -13203
▁세르비아 -13204
▁Ge -13205
▁경희 -13206
▁모친 -13207
▁슈퍼스타 -13208
▁WE -13209
▁VIP -13210
▁브라더 -13211
▁그놈 -13212
▁원천 -13213
▁작인 -13214
▁아그 -13215
▁총괄 -13216
▁신다 -13217
야샤 -13218
▁이누야샤 -13219
에이터 -13220
▁발칸 -13221
▁실무 -13222
▁불멸 -13223
▁싣 -13224
▁묻히 -13225
▁꽝 -13226
▁극소수 -13227
▁김전일 -13228
▁술법 -13229
▁입술 -13230
▁비시 -13231
▁공방전 -13232
▁쪼개 -13233
즈카 -13234
▁빨강 -13235
▁후일담 -13236
▁어드밴스 -13237
▁DO -13238
▁저리 -13239
we -13240
▁진정한 -13241
▁태그팀 -13242
▁라드 -13243
▁식신 -13244
▁파산 -13245
▁카가 -13246
쿠로 -13247
▁우크라 -13248
수스 -13249
▁쿠르 -13250
▁끼어들 -13251
▁지령 -13252
▁일으킬 -13253
▁무작정 -13254
▁여당 -13255
▁석궁 -13256
▁페더 -13257
▁군기 -13258
▁키가 -13259
▁덥 -13260
▁족장 -13261
▁사용법 -13262
▁제멋 -13263
▁경량 -13264
▁할리우드 -13265
▁기마 -13266
▁시궁 -13267
▁피처 -13268
▁발전기 -13269
Fatale -13270
꿈치 -13271
▁자취 -13272
▁FemmeFatale -13273
▁라지 -13274
▁진작 -13275
▁쓸데없 -13276
▁준다면 -13277
▁못한다는 -13278
▁허세 -13279
▁ㄱ -13280
▁아의 -13281
▁다던가 -13282
str -13283
▁수락 -13284
▁이가 -13285
▁반말 -13286
▁정명 -13287
▁치아 -13288
▁악한 -13289
▁다이나 -13290
ational -13291
▁잘리 -13292
생긴 -13293
같이 -13294
▁회화 -13295
▁나진 -13296
▁일보 -13297
▁방황 -13298
▁이에 -13299
▁정계 -13300
▁대잠 -13301
▁제르 -13302
▁크로니클 -13303
▁예명 -13304
▁후한 -13305
▁하세 -13306
ouse -13307
▁dis -13308
수아 -13309
▁어떨 -13310
▁묻혔 -13311
▁황태자 -13312
SS -13313
▁가명 -13314
appy -13315
▁렸 -13316
▁신디 -13317
▁성도 -13318
카즈 -13319
▁소진 -13320
▁양파 -13321
▁중얼 -13322
▁연금술 -13323
▁에이전트 -13324
▁껄 -13325
▁마작 -13326
▁하워드 -13327
▁넵 -13328
▁NHK -13329
▁검은색 -13330
▁그려지 -13331
▁얼핏 -13332
AG -13333
▁섬유 -13334
▁이스터 -13335
▁헬스 -13336
▁급기야 -13337
언정 -13338
▁박힌 -13339
ORE -13340
▁혼종 -13341
▁로만 -13342
▁반환 -13343
▁악세 -13344
▁스칼렛 -13345
▁키리토 -13346
▁쏜다 -13347
▁소심 -13348
▁창업 -13349
▁효과음 -13350
▁하임 -13351
▁미츠루 -13352
▁br -13353
▁후타 -13354
▁네모 -13355
▁호노카 -13356
▁화수 -13357
▁광석 -13358
▁병단 -13359
축구 -13360
투아 -13361
▁배지 -13362
케인 -13363
▁애당초 -13364
▁유로파 -13365
▁하부 -13366
▁Order -13367
▁교섭 -13368
▁상회 -13369
ness -13370
휴일 -13371
▁당원 -13372
▁점거 -13373
▁카도 -13374
▁수준급 -13375
▁1100 -13376
▁삼거리 -13377
▁신주쿠 -13378
▁난전 -13379
▁팝픈 -13380
▁팝픈뮤직 -13381
제국 -13382
▁스플래시 -13383
▁키퍼 -13384
▁교주 -13385
▁택배 -13386
▁제정신 -13387
▁MD -13388
▁초필 -13389
▁미지수 -13390
▁바하 -13391
▁좌익수 -13392
라이나 -13393
▁아즈사 -13394
▁자잘 -13395
▁주범 -13396
▁주작 -13397
▁기미 -13398
▁토론토 -13399
▁천적 -13400
▁성채 -13401
▁호세 -13402
▁양키스 -13403
▁갑작스럽 -13404
▁김혜 -13405
▁양현 -13406
▁Elect -13407
▁폭동 -13408
▁엄지 -13409
▁조운 -13410
▁코카 -13411
▁적발 -13412
▁콜로니 -13413
▁펄스 -13414
▁이치로 -13415
▁매진 -13416
델피아 -13417
▁필라델피아 -13418
▁소피 -13419
▁^ -13420
▁당주 -13421
▁시엘 -13422
▁정립 -13423
▁한몫 -13424
▁나왔으며 -13425
▁붙여서 -13426
▁완전체 -13427
▁요미우리 -13428
사이드 -13429
시계 -13430
▁과부 -13431
▁미라클 -13432
▁히데요시 -13433
▁깊숙 -13434
▁깬 -13435
▁땜 -13436
▁종일 -13437
▁라자 -13438
inc -13439
▁다인 -13440
▁빼돌 -13441
▁TCG -13442
▁블레이즈 -13443
▁까닭 -13444
▁생겨났 -13445
저트 -13446
▁이안 -13447
▁EXH -13448
▁돌아간 -13449
▁프로세서 -13450
▁댔 -13451
▁복싱 -13452
▁보인다는 -13453
▁나고 -13454
▁서드 -13455
▁피곤 -13456
▁쓸모없 -13457
▁어비스 -13458
▁옵티머스 -13459
▁CON -13460
투수 -13461
▁연예계 -13462
▁프랑켄 -13463
▁광범 -13464
▁기온 -13465
▁말장난 -13466
▁시한 -13467
▁전리품 -13468
▁수평 -13469
▁태종 -13470
▁프론트 -13471
▁본디 -13472
▁도리어 -13473
▁적색 -13474
▁선발투수 -13475
▁결장 -13476
▁대사관 -13477
▁운항 -13478
날드 -13479
▁지망 -13480
▁휴일 -13481
▁world -13482
▁신이치 -13483
데아 -13484
▁스왑 -13485
▁양호 -13486
▁214 -13487
▁RG -13488
▁고령 -13489
▁볼프 -13490
▁후궁 -13491
▁부추 -13492
히트 -13493
▁냉전 -13494
▁든가 -13495
▁조형 -13496
▁일쑤 -13497
▁유포 -13498
▁She -13499
그룹 -13500
▁당기 -13501
▁강해졌 -13502
▁스크래 -13503
▁폴더 -13504
▁리노 -13505
▁빠질 -13506
▁손흥 -13507
▁사이퍼 -13508
▁작살 -13509
우루스 -13510
▁SHOW -13511
▁놀림 -13512
▁정은 -13513
▁경장 -13514
▁당분 -13515
▁키워드 -13516
▁강유 -13517
▁교란 -13518
IV -13519
▁맞히 -13520
▁재고 -13521
▁리브 -13522
▁봐선 -13523
▁따라오 -13524
▁루터 -13525
▁ㄴ -13526
▁다이브 -13527
▁고독 -13528
▁비토 -13529
▁한조 -13530
돼지 -13531
day -13532
omb -13533
▁정거 -13534
▁1943 -13535
▁산악 -13536
▁공휴일 -13537
▁스폰지 -13538
▁제식 -13539
▁밀어주 -13540
▁불사조 -13541
▁도호 -13542
its -13543
▁탄종 -13544
사의 -13545
▁성추 -13546
▁후안 -13547
▁이노우에 -13548
▁도전자 -13549
▁노숙 -13550
▁소이 -13551
▁프런트 -13552
▁건전 -13553
▁승기 -13554
▁압살 -13555
▁유서 -13556
▁속삭 -13557
▁Da -13558
▁임창 -13559
▁아지트 -13560
▁언행 -13561
▁대표작 -13562
▁토하 -13563
▁섭외 -13564
▁손흥민 -13565
▁ap -13566
▁명작 -13567
▁더스트 -13568
▁도쿠가와 -13569
▁탄소 -13570
▁예비군 -13571
퍼런스 -13572
▁초토 -13573
다닌다 -13574
인간 -13575
투표 -13576
▁셀프 -13577
▁naver -13578
▁정교회 -13579
▁** -13580
▁340 -13581
▁정류소 -13582
▁상속 -13583
▁행태 -13584
▁beatmania -13585
▁맞춤 -13586
▁직감 -13587
▁에리카 -13588
▁제이드 -13589
▁1942 -13590
ham -13591
▁조인 -13592
▁141 -13593
▁날아간다 -13594
스톤 -13595
▁해수 -13596
▁확연히 -13597
▁오버로드 -13598
▁여사 -13599
▁토탈 -13600
▁박격포 -13601
▁콜라보레이션 -13602
▁느냐는 -13603
▁미성년자 -13604
▁움직인다 -13605
▁갇힌 -13606
▁텔레비전 -13607
▁트린 -13608
ious -13609
▁쩔 -13610
▁툼 -13611
▁사부 -13612
▁쟁탈 -13613
▁애프 -13614
▁폭발물 -13615
▁엑소 -13616
▁좀비 -13617
▁레스터 -13618
▁개인전 -13619
▁윌슨 -13620
댓말 -13621
▁존댓말 -13622
▁프로이센 -13623
▁공익 -13624
EX -13625
▁휘말리 -13626
▁SW -13627
▁어처 -13628
▁출퇴근 -13629
▁오클 -13630
아티아 -13631
▁크로아티아 -13632
무진 -13633
▁찐 -13634
▁게임기 -13635
▁장병 -13636
▁현명 -13637
▁불가사의 -13638
▁도피 -13639
▁모여서 -13640
세데스 -13641
▁메르세데스 -13642
▁다뤄 -13643
▁증세 -13644
▁창당 -13645
▁서원 -13646
▁te -13647
▁폭사 -13648
▁셜록 -13649
▁알아채 -13650
▁신축 -13651
▁상대식 -13652
▁상권 -13653
▁양주 -13654
▁프로그래밍 -13655
▁지자 -13656
▁액세서리 -13657
▁무거 -13658
▁까먹 -13659
▁저번 -13660
▁글러브 -13661
▁다정 -13662
▁Not -13663
▁광범위 -13664
▁구자 -13665
▁입맛 -13666
▁진군 -13667
▁평원 -13668
▁거세 -13669
▁캡콤 -13670
▁위즈 -13671
▁합창 -13672
▁정거장 -13673
▁러셀 -13674
▁스파르타 -13675
▁자연스레 -13676
▁오모 -13677
▁김창 -13678
▁옥타 -13679
▁하드코어 -13680
▁군함 -13681
▁동봉 -13682
▁술탄 -13683
▁송구 -13684
▁종사 -13685
▁라거나 -13686
▁접어들 -13687
aut -13688
▁든든 -13689
▁시그마 -13690
ivers -13691
▁스크래치 -13692
▁싱어 -13693
▁장안 -13694
▁국력 -13695
▁망가지 -13696
▁피라미 -13697
던트 -13698
▁반다이 -13699
▁이우 -13700
▁표본 -13701
▁DEF -13702
▁리액션 -13703
요환 -13704
▁막부 -13705
▁위탁 -13706
▁Ke -13707
▁바우 -13708
▁사이오 -13709
▁로망 -13710
▁꼬이 -13711
▁네메 -13712
▁공동체 -13713
패스 -13714
▁With -13715
27 -13716
▁설레 -13717
▁위화 -13718
▁질량 -13719
▁찍힌 -13720
▁상반기 -13721
▁아부 -13722
▁RAW -13723
23 -13724
ERS -13725
▁프리즈 -13726
데르 -13727
▁치이 -13728
▁상표 -13729
▁윌리엄스 -13730
▁세션 -13731
▁화자 -13732
▁브릿지 -13733
▁랫 -13734
▁마음껏 -13735
▁Every -13736
ANC -13737
olution -13738
▁체질 -13739
▁코시 -13740
레미 -13741
▁주된 -13742
▁군사력 -13743
▁선보인 -13744
아아 -13745
▁깠 -13746
▁는군 -13747
▁헌데 -13748
매니아 -13749
▁오재 -13750
▁정세 -13751
▁와우 -13752
▁꼭두 -13753
▁쌈 -13754
▁마이어 -13755
▁아역 -13756
▁임요환 -13757
▁전전 -13758
▁캐서린 -13759
▁열받 -13760
▁탈옥 -13761
▁망자 -13762
▁치뤄 -13763
▁프리스트 -13764
▁정장 -13765
▁외출 -13766
▁해한다 -13767
▁관념 -13768
▁뾰 -13769
▁체이 -13770
▁카바 -13771
▁재임 -13772
olog -13773
▁손바닥 -13774
▁어처구니 -13775
45 -13776
▁렴 -13777
게요 -13778
▁왼팔 -13779
르기 -13780
▁ph -13781
▁느껴질 -13782
UC -13783
▁평민 -13784
▁킹스 -13785
▁310 -13786
무늬 -13787
▁백미 -13788
▁제구 -13789
▁코이치 -13790
▁방정 -13791
▁김준호 -13792
▁생각나 -13793
▁대문 -13794
라이어 -13795
▁집결 -13796
▁커리 -13797
▁윈스턴 -13798
▁일으킨다 -13799
▁헷갈리 -13800
▁표출 -13801
▁다른데 -13802
가요 -13803
▁시즈카 -13804
▁사다 -13805
▁환각 -13806
▁원제 -13807
▁소수자 -13808
▁골리 -13809
▁신원 -13810
무니 -13811
▁if -13812
▁수원시 -13813
▁최면 -13814
▁나나미 -13815
▁순진 -13816
▁드러낸 -13817
▁무상 -13818
▁듀티 -13819
▁박병 -13820
▁옐로 -13821
▁피츠 -13822
▁Get -13823
▁부서지 -13824
▁낙원 -13825
▁불상 -13826
▁생사 -13827
▁터트리 -13828
▁경찰관 -13829
▁보답 -13830
▁나날 -13831
▁Chr -13832
▁렀다 -13833
▁류현진 -13834
▁1946 -13835
29 -13836
▁EB -13837
▁007 -13838
▁도모 -13839
▁정중 -13840
▁후진 -13841
▁주파수 -13842
▁기하 -13843
▁촛 -13844
▁스루 -13845
66 -13846
▁짤방 -13847
▁쾌속 -13848
지리 -13849
▁르네 -13850
▁FR -13851
▁끌어내 -13852
▁안나 -13853
▁가솔 -13854
▁CT -13855
▁호르 -13856
▁커터 -13857
▁해커 -13858
▁미야자키 -13859
데기 -13860
▁메라 -13861
▁분경 -13862
▁대부 -13863
▁김정은 -13864
▁최우수 -13865
▁김세 -13866
▁사과문 -13867
▁시저 -13868
▁추석 -13869
▁대명사 -13870
▁시노부 -13871
▁줄곧 -13872
▁해서인지 -13873
조각 -13874
ely -13875
리에 -13876
▁TB -13877
▁타고난 -13878
▁가출 -13879
▁화요일 -13880
ty -13881
▁Har -13882
▁흡연 -13883
▁우시 -13884
▁탐욕 -13885
▁자발 -13886
▁Boy -13887
▁키메라 -13888
▁무자비 -13889
▁해운대 -13890
▁반칙 -13891
나드 -13892
▁토네이도 -13893
▁벵 -13894
베르토 -13895
▁비하인드 -13896
킨스 -13897
▁예배 -13898
▁양아치 -13899
icro -13900
▁빡빡 -13901
ny -13902
▁캉 -13903
▁기총 -13904
▁1954 -13905
▁스님 -13906
▁영화판 -13907
▁연희 -13908
▁한스 -13909
▁당당히 -13910
▁받아들였 -13911
의사 -13912
▁마더 -13913
▁지름 -13914
받침 -13915
▁담당자 -13916
▁Skill -13917
즈마 -13918
▁꺼지 -13919
▁아폴로 -13920
▁되돌려 -13921
▁슈타인 -13922
▁중앙선 -13923
▁바오 -13924
ters -13925
마치 -13926
▁민영 -13927
▁홍대 -13928
▁후유증 -13929
▁720 -13930
▁금기 -13931
▁요건 -13932
▁지침 -13933
▁추첨 -13934
▁켄타 -13935
▁부여받 -13936
▁맛보 -13937
▁Des -13938
▁에덴 -13939
▁무협 -13940
▁발상 -13941
▁줄일 -13942
▁혜성 -13943
▁1958 -13944
노기 -13945
▁육지 -13946
▁취직 -13947
베리아 -13948
▁괴도 -13949
▁>, -13950
▁방어선 -13951
▁영분 -13952
▁의미심장 -13953
▁Ab -13954
▁굴복 -13955
▁마누 -13956
▁리포트 -13957
▁이동하 -13958
▁걸작 -13959
▁섬세 -13960
▁달아나 -13961
▁서부터 -13962
▁쫓아가 -13963
▁만세 -13964
▁초고 -13965
소스 -13966
▁전태 -13967
▁설득력 -13968
▁북방 -13969
▁인즈 -13970
▁CCTV -13971
▁단선 -13972
▁리젠 -13973
▁유대인 -13974
▁웨일 -13975
▁매복 -13976
▁추이 -13977
▁츠루 -13978
▁사마의 -13979
▁떨구 -13980
▁이어인 -13981
▁대용 -13982
▁예리 -13983
▁1941 -13984
▁ㅅ -13985
▁영기 -13986
▁진흙 -13987
▁단테 -13988
테스 -13989
▁만류 -13990
▁젤다 -13991
▁졸개 -13992
▁171 -13993
▁=, -13994
▁가든 -13995
▁돋보 -13996
ient -13997
▁단조 -13998
▁다이어트 -13999
▁480 -14000
▁생물학 -14001
▁충성심 -14002
▁DA -14003
▁고를 -14004
▁미디 -14005
▁체가 -14006
다간 -14007
▁성체 -14008
▁시력 -14009
리우스 -14010
▁OO -14011
▁교화 -14012
▁부메 -14013
▁기라 -14014
▁수작 -14015
▁겸하 -14016
▁미상 -14017
▁괴롭힘 -14018
▁Big -14019
▁조율 -14020
▁트림 -14021
라이즈 -14022
▁양념 -14023
▁잉크 -14024
▁듀엣 -14025
▁id -14026
▁빌라 -14027
▁석화 -14028
▁1900 -14029
▁성녀 -14030
▁차종 -14031
▁PSP -14032
▁총사령 -14033
▁견인 -14034
▁자문 -14035
▁협곡 -14036
▁부메랑 -14037
▁카운티 -14038
▁Tri -14039
▁메스 -14040
▁유행어 -14041
▁피리 -14042
▁드리프트 -14043
▁png -14044
▁kn -14045
▁선공 -14046
▁임관 -14047
▁복음 -14048
▁클락 -14049
▁튜너 -14050
▁제이스 -14051
▁입힌 -14052
▁오피스 -14053
▁데카 -14054
▁돌렸 -14055
▁181 -14056
▁막힌 -14057
▁8000 -14058
▁세간 -14059
▁경쟁력 -14060
▁쓰러진다 -14061
▁UR -14062
▁문헌 -14063
▁바바 -14064
▁빅터 -14065
▁틀렸 -14066
▁이과 -14067
크리트 -14068
▁DT -14069
▁시동 -14070
▁입체 -14071
ful -14072
uch -14073
▁기만 -14074
▁만회 -14075
▁태연 -14076
▁채소 -14077
▁흘려 -14078
▁동참 -14079
▁미련 -14080
▁어워드 -14081
▁망해 -14082
▁군벌 -14083
▁상원 -14084
칼리 -14085
▁씁쓸 -14086
▁느낀다 -14087
▁스탠다드 -14088
▁잠금 -14089
▁파장 -14090
▁연혁 -14091
▁피어 -14092
▁격돌 -14093
▁원격 -14094
▁조장 -14095
▁고분 -14096
▁천황 -14097
▁갈기 -14098
느니 -14099
▁방랑 -14100
▁무너진 -14101
▁샤이닝 -14102
▁누군지 -14103
▁어우 -14104
▁봉기 -14105
▁염소 -14106
▁초식 -14107
▁Ext -14108
▁스펙터 -14109
▁난동 -14110
▁어둡 -14111
▁XP -14112
▁쫒아 -14113
▁부화 -14114
▁오디 -14115
▁가치관 -14116
▁돌아와서 -14117
bl -14118
▁격노 -14119
▁성모 -14120
▁귀중 -14121
클레스 -14122
▁생몰 -14123
▁증원 -14124
▁직관 -14125
▁키운 -14126
프레스 -14127
▁창의 -14128
토시 -14129
▁드러낸다 -14130
▁통용 -14131
▁RS -14132
ship -14133
기업 -14134
▁박세 -14135
▁봉황 -14136
▁기관차 -14137
▁원년 -14138
▁내려온 -14139
85 -14140
▁노렸 -14141
▁샤아 -14142
▁성균 -14143
▁선체 -14144
▁유감 -14145
▁STAR -14146
둘러 -14147
▁가토 -14148
▁아제 -14149
▁제비 -14150
▁츠카사 -14151
▁윤종 -14152
▁베니 -14153
▁자위대 -14154
▁받쳐 -14155
▁해지 -14156
▁밀린다 -14157
▁성균관 -14158
▁만두 -14159
▁뭉치 -14160
▁송병 -14161
▁양면 -14162
▁회고 -14163
▁장기간 -14164
▁퍼스 -14165
▁모을 -14166
▁나츠미 -14167
자카 -14168
▁겨루 -14169
▁학창 -14170
▁이성계 -14171
▁1948 -14172
▁비숍 -14173
▁디테일 -14174
▁자손 -14175
▁잠복 -14176
▁흑백 -14177
▁qu -14178
▁역기 -14179
▁타라 -14180
▁풍자 -14181
▁클로즈 -14182
▁송이 -14183
▁255 -14184
▁느긋 -14185
▁배분 -14186
▁수리검 -14187
리케이션 -14188
▁Inf -14189
▁모호 -14190
▁한해서 -14191
▁히로유키 -14192
▁조제 -14193
▁벌칙 -14194
▁Bar -14195
▁Sil -14196
▁우익수 -14197
▁뫼 -14198
▁여진 -14199
▁서커스 -14200
▁프레디 -14201
▁웍 -14202
▁시궁창 -14203
▁군산 -14204
▁퇴근 -14205
레트 -14206
▁KS -14207
▁청량 -14208
▁그리스도 -14209
정역 -14210
▁전년 -14211
▁왕궁 -14212
▁텔레콤 -14213
▁아테네 -14214
▁커브 -14215
▁OR -14216
▁솔로몬 -14217
▁White -14218
▁손녀 -14219
▁오드 -14220
▁판도라 -14221
니트 -14222
▁열려 -14223
▁토템 -14224
▁다이너 -14225
▁불리우 -14226
버릇 -14227
▁뽑히 -14228
▁진과 -14229
▁창시 -14230
▁Win -14231
▁프레데 -14232
▁요일 -14233
▁Back -14234
▁송도 -14235
▁지켰 -14236
ump -14237
▁크래 -14238
▁헤매 -14239
▁농어 -14240
▁스테이트 -14241
▁바쁘 -14242
co -14243
▁여의도 -14244
▁좀처럼 -14245
산물 -14246
▁작렬 -14247
혁명 -14248
테리 -14249
▁성가 -14250
공격 -14251
▁왕따 -14252
▁콘크리트 -14253
▁파키스탄 -14254
▁치중 -14255
▁PO -14256
모사 -14257
26 -14258
▁타쿠미 -14259
▁착하 -14260
▁바이올린 -14261
▁특촬 -14262
▁공병 -14263
▁피에르 -14264
▁접시 -14265
▁던질 -14266
▁재팬 -14267
▁아울러 -14268
▁하와이 -14269
튀기 -14270
ift -14271
▁태고 -14272
▁PM -14273
▁단신 -14274
▁바늘 -14275
▁연루 -14276
▁jp -14277
▁고양시 -14278
버릴 -14279
▁폭포 -14280
▁아틀레 -14281
▁최전 -14282
▁Fre -14283
▁간식 -14284
▁down -14285
▁박민 -14286
▁뻥튀기 -14287
▁초원 -14288
▁제이크 -14289
▁NG -14290
▁나기사 -14291
호도 -14292
노미야 -14293
RAM -14294
▁초급 -14295
▁허영 -14296
▁이윽 -14297
▁420 -14298
▁실험실 -14299
틀링 -14300
▁학계 -14301
▁이윽고 -14302
▁215 -14303
▁러블리 -14304
▁색채 -14305
▁마비노기 -14306
▁제멋대로 -14307
▁관악 -14308
▁금전 -14309
▁지독 -14310
▁GL -14311
▁카세 -14312
▁맥도 -14313
▁어지간히 -14314
▁맏 -14315
▁갈고리 -14316
ENT -14317
▁백색 -14318
▁심리학 -14319
▁텐션 -14320
▁컨테이너 -14321
▁집정 -14322
▁소음기 -14323
▁어중간 -14324
▁아픔 -14325
▁횡단 -14326
▁어려우 -14327
▁하르 -14328
▁거주지 -14329
▁켄이치 -14330
▁FE -14331
▁도타 -14332
▁off -14333
▁1949 -14334
▁앞마당 -14335
▁우기 -14336
▁오덕 -14337
▁사토시 -14338
ATION -14339
▁친밀 -14340
기지 -14341
▁트레이서 -14342
▁every -14343
▁어때 -14344
▁서독 -14345
▁포털 -14346
▁수소 -14347
▁포고 -14348
레인지 -14349
▁사육 -14350
▁Met -14351
▁강변 -14352
▁치렀 -14353
▁욕구 -14354
▁자드 -14355
▁기쁘 -14356
▁실천 -14357
edia -14358
▁정유 -14359
▁시구 -14360
▁헤딩 -14361
▁쇼핑몰 -14362
▁성서 -14363
▁메아리 -14364
▁성폭행 -14365
각시 -14366
▁나츠키 -14367
▁빌미 -14368
득점 -14369
▁Sky -14370
▁가차 -14371
모니 -14372
바위 -14373
▁Hey -14374
▁테크노 -14375
▁열풍 -14376
▁인장 -14377
▁느냐고 -14378
▁하코 -14379
링크 -14380
▁쇠퇴 -14381
▁유엔 -14382
▁CEO -14383
▁육박 -14384
▁인프라 -14385
카스 -14386
▁듬 -14387
▁라운 -14388
▁아론 -14389
▁선구 -14390
▁안도 -14391
▁인기투표 -14392
▁양동 -14393
▁엇갈 -14394
▁제휴 -14395
▁이승엽 -14396
▁남용 -14397
▁변종 -14398
▁최성 -14399
ALL -14400
▁병맛 -14401
▁208 -14402
▁현존 -14403
▁럽 -14404
▁무의 -14405
▁오퍼레이터 -14406
▁광부 -14407
▁235 -14408
▁Act -14409
▁서진 -14410
▁동선 -14411
▁파업 -14412
ERT -14413
▁UFO -14414
▁}{ -14415
▁거물 -14416
▁FN -14417
▁패거리 -14418
▁대한항공 -14419
▁갭 -14420
▁향수 -14421
▁거제 -14422
▁내비 -14423
▁어머 -14424
▁퍼트 -14425
▁편제 -14426
▁육식 -14427
▁수배 -14428
▁1936 -14429
▁시중 -14430
▁체이스 -14431
▁비늘 -14432
케이 -14433
▁돌아보 -14434
▁뇌격 -14435
▁대여 -14436
▁대머리 -14437
▁런닝맨 -14438
▁바시 -14439
▁정현 -14440
▁333 -14441
BM -14442
▁삽화 -14443
▁사다리 -14444
oud -14445
▁하렘 -14446
▁출생지 -14447
▁도르트 -14448
사우루스 -14449
▁병영 -14450
드래 -14451
▁메소 -14452
여행 -14453
▁ve -14454
▁마장 -14455
▁처단 -14456
▁FX -14457
less -14458
▁지켜야 -14459
▁유쾌 -14460
▁비행선 -14461
▁발간 -14462
▁That -14463
▁댄다 -14464
▁가주 -14465
▁랄까 -14466
▁TD -14467
니스탄 -14468
▁206 -14469
▁철회 -14470
지대 -14471
▁덩크 -14472
네트 -14473
어쓰 -14474
ize -14475
▁카멜 -14476
▁NL -14477
▁본국 -14478
▁코지마 -14479
▁아이리 -14480
▁펼쳐지 -14481
▁마고 -14482
▁합방 -14483
▁개틀링 -14484
▁난폭 -14485
▁Song -14486
▁ㅎ -14487
▁초동 -14488
▁세츠나 -14489
▁파고들 -14490
▁넘어오 -14491
▁em -14492
▁김하 -14493
▁극찬 -14494
▁항속 -14495
린스 -14496
▁나루호도 -14497
▁안타까운 -14498
95 -14499
▁띈 -14500
나간 -14501
▁비약 -14502
변속기 -14503
▁디스코 -14504
▁기겁 -14505
▁오마주 -14506
▁설사 -14507
▁심플 -14508
▁con -14509
천동 -14510
▁경인 -14511
▁참패 -14512
▁May -14513
▁성문 -14514
▁늘어놓 -14515
▁다구 -14516
▁키바 -14517
▁미쓰 -14518
공화국 -14519
▁문의 -14520
bps -14521
▁뭉쳐 -14522
의회 -14523
▁영리 -14524
▁모를까 -14525
▁피라미드 -14526
▁속옷 -14527
▁일지도 -14528
▁커넥 -14529
▁가한다 -14530
▁젊은이 -14531
방향 -14532
▁161 -14533
▁빼앗긴 -14534
▁멸자 -14535
▁불태우 -14536
▁성검 -14537
▁헛소리 -14538
▁마츠모토 -14539
▁와일드카드 -14540
▁누마 -14541
▁쭈 -14542
▁부름 -14543
VEL -14544
▁계보 -14545
▁김인 -14546
▁유목 -14547
▁도망쳤 -14548
▁끝냈 -14549
▁베라 -14550
▁아닙니다 -14551
ape -14552
▁시킴 -14553
▁라트 -14554
▁팀킬 -14555
▁GAM -14556
▁850 -14557
▁상대편 -14558
▁위나라 -14559
▁마그마 -14560
▁스플릿 -14561
▁내년 -14562
UB -14563
▁얼리 -14564
▁우로 -14565
▁리오스 -14566
▁얀데레 -14567
▁김태균 -14568
▁배급사 -14569
▁페인트 -14570
▁want -14571
▁처했 -14572
▁감시자 -14573
▁유우야 -14574
▁God -14575
▁데이브 -14576
▁명인 -14577
▁진해 -14578
▁크러 -14579
마츠 -14580
▁끝판 -14581
▁표방 -14582
▁풀백 -14583
▁떠들 -14584
▁좌석버스 -14585
▁송곳 -14586
▁스릴 -14587
▁정벌 -14588
ger -14589
▁옮긴 -14590
▁장래 -14591
▁카에데 -14592
▁가까스로 -14593
▁토와 -14594
▁밴시 -14595
▁불가리아 -14596
IST -14597
타자 -14598
96 -14599
▁일자리 -14600
▁야기 -14601
▁다나카 -14602
▁디에 -14603
▁모터스 -14604
▁벽돌 -14605
▁스쳐 -14606
▁선발전 -14607
▁도마뱀 -14608
▁Rain -14609
▁북극 -14610
aka -14611
▁독성 -14612
▁호대 -14613
▁RAM -14614
▁데려온 -14615
▁버금 -14616
▁싸워야 -14617
▁소인 -14618
▁이복 -14619
▁끌어들이 -14620
▁되려 -14621
▁영장 -14622
▁오미 -14623
▁지아 -14624
실히 -14625
ita -14626
▁언락 -14627
▁영창 -14628
▁손수 -14629
▁무법 -14630
▁비욘 -14631
▁징병 -14632
▁인피니트 -14633
때로 -14634
▁청색 -14635
▁쓰러졌 -14636
▁북두 -14637
▁채울 -14638
▁경위 -14639
▁성주 -14640
▁290 -14641
▁플라워 -14642
▁복종 -14643
▁자며 -14644
▁어린애 -14645
▁마드 -14646
▁도르트문트 -14647
zy -14648
▁RF -14649
▁불운 -14650
▁신시 -14651
▁정인 -14652
▁정렬 -14653
▁심심찮 -14654
모자 -14655
▁난해 -14656
▁Top -14657
▁무난히 -14658
▁으라는 -14659
러드 -14660
▁망원 -14661
76 -14662
▁수레 -14663
하니 -14664
ORM -14665
▁단간 -14666
▁여건 -14667
▁피고 -14668
▁알프레 -14669
▁거신 -14670
▁서면 -14671
▁알림 -14672
▁열전 -14673
▁하데스 -14674
▁친일 -14675
▁당분간 -14676
▁코스타 -14677
▁페로 -14678
▁임하 -14679
▁좆 -14680
로프 -14681
▁." -14682
▁선도 -14683
▁대강 -14684
▁고려대 -14685
▁마니 -14686
▁나선다 -14687
▁포이 -14688
▁퀑 -14689
▁인다 -14690
▁more -14691
▁콘테 -14692
▁우습 -14693
▁대각선 -14694
▁젯 -14695
▁마른 -14696
▁데이즈 -14697
레인저 -14698
rop -14699
▁물러났 -14700
▁정규군 -14701
▁울부 -14702
▁절묘 -14703
▁특출 -14704
▁책임자 -14705
▁석탄 -14706
▁야채 -14707
▁유추 -14708
▁칼럼 -14709
▁줄줄이 -14710
연합 -14711
▁버디 -14712
▁순교자 -14713
▁괴로워 -14714
▁Pe -14715
운전 -14716
▁남구 -14717
▁이를 -14718
▁쳐내 -14719
▁WAR -14720
▁친위대 -14721
▁벌어질 -14722
▁이제동 -14723
▁전용기 -14724
▁내륙 -14725
▁역학 -14726
▁위화감 -14727
▁바실 -14728
▁축구단 -14729
렉트 -14730
암동 -14731
▁1955 -14732
▁스몰 -14733
▁존속 -14734
▁게리 -14735
토록 -14736
기어 -14737
▁자부심 -14738
▁드레이크 -14739
▁Battle -14740
무스 -14741
▁스케치 -14742
▁특공대 -14743
▁라이터 -14744
▁꼭두각시 -14745
▁매트릭스 -14746
작전 -14747
▁갑판 -14748
IGHT -14749
▁이따 -14750
▁칭송 -14751
▁한다던가 -14752
▁외로 -14753
▁Moon -14754
▁역전승 -14755
▁미셸 -14756
버거 -14757
▁중성 -14758
▁Game -14759
포스 -14760
▁화속 -14761
▁가창력 -14762
▁인테르 -14763
bo -14764
▁최재 -14765
net -14766
▁들어선 -14767
▁일직 -14768
▁단다 -14769
ward -14770
▁구만 -14771
▁조그 -14772
비우스 -14773
▁행동력 -14774
▁코로나 -14775
ara -14776
▁노브 -14777
▁과실 -14778
▁선풍 -14779
▁총통 -14780
▁TEC -14781
▁성추행 -14782
▁플레이트 -14783
▁곡선 -14784
row -14785
▁이신 -14786
▁튕기 -14787
OK -14788
▁뚫리 -14789
▁호타 -14790
▁영락 -14791
▁스케이팅 -14792
블랜드 -14793
com -14794
▁분사 -14795
▁새로이 -14796
▁클리블랜드 -14797
ren -14798
▁SUP -14799
▁킬로 -14800
리아나 -14801
메다 -14802
▁경이 -14803
▁골대 -14804
▁인민공화국 -14805
▁허리케인 -14806
▁Dragon -14807
▁새해 -14808
▁KG -14809
▁레트 -14810
▁카야 -14811
▁태수 -14812
▁꺼리 -14813
▁나데 -14814
▁내심 -14815
▁212 -14816
버드 -14817
▁저러 -14818
▁독재자 -14819
▁바란 -14820
▁반자동 -14821
▁뛸 -14822
▁유명세 -14823
▁max -14824
▁터미네이터 -14825
▁NS -14826
뜨린다 -14827
▁경호원 -14828
▁북유럽 -14829
▁안기 -14830
▁깨우 -14831
▁밸리 -14832
▁개드립 -14833
▁빗나가 -14834
▁LS -14835
▁가가 -14836
▁민지 -14837
▁의리 -14838
▁코나미 -14839
▁진나라 -14840
▁데프 -14841
▁Bra -14842
▁빠져서 -14843
▁오반 -14844
▁왕녀 -14845
▁치부 -14846
▁강당 -14847
▁본문 -14848
▁흑룡 -14849
▁1959 -14850
▁아란 -14851
▁루시퍼 -14852
클리 -14853
▁광저우 -14854
▁울부짖 -14855
▁대담 -14856
▁부과 -14857
led -14858
▁소중히 -14859
▁캬 -14860
▁냐면서 -14861
▁밀어붙이 -14862
▁나고야 -14863
▁알아듣 -14864
▁교육부 -14865
▁they -14866
▁LCD -14867
▁팩토리 -14868
▁가메 -14869
▁니키 -14870
▁추월 -14871
부대 -14872
▁피겨 -14873
▁가솔린 -14874
▁사이언 -14875
▁티코 -14876
▁둘러싼 -14877
짜기 -14878
▁Special -14879
니엄 -14880
▁김현수 -14881
▁치타 -14882
▁토요타 -14883
▁관제 -14884
▁할당 -14885
▁베이스볼 -14886
▁해임 -14887
▁벗어날 -14888
▁호스트 -14889
▁목표물 -14890
▁발산 -14891
▁크림슨 -14892
▁치도 -14893
▁뭣 -14894
러기 -14895
▁원동 -14896
▁조달 -14897
▁밀레니엄 -14898
▁광화 -14899
▁자석 -14900
▁파괴자 -14901
▁협공 -14902
▁몰린 -14903
▁잔당 -14904
▁지친 -14905
▁븐 -14906
▁앙리 -14907
▁핵무기 -14908
▁다라 -14909
▁001 -14910
테나 -14911
▁도미니 -14912
▁연방군 -14913
▁온전히 -14914
▁서점 -14915
▁와이드 -14916
▁마티 -14917
코프 -14918
▁십상 -14919
▁의석 -14920
▁서울역 -14921
▁플로리 -14922
aven -14923
▁스트레이트 -14924
▁탤 -14925
▁펜스 -14926
▁데이빗 -14927
▁전투원 -14928
▁가변 -14929
▁넘길 -14930
▁이룬다 -14931
▁지갑 -14932
▁무성 -14933
히사 -14934
▁마포 -14935
▁달라서 -14936
▁광양 -14937
▁빈스 -14938
▁종자 -14939
럭스 -14940
▁1956 -14941
▁슬퍼하 -14942
▁단단히 -14943
▁행선 -14944
▁이치카 -14945
▁카트라이더 -14946
▁바쳐 -14947
▁베드 -14948
▁우사 -14949
▁쿠미 -14950
▁활주 -14951
▁아산 -14952
▁뒷받침 -14953
▁강연 -14954
▁서사 -14955
▁이로 -14956
▁주군 -14957
▁특허 -14958
▁슐 -14959
▁wiz -14960
그레 -14961
▁Hot -14962
LD -14963
▁레고 -14964
▁무심 -14965
▁미완 -14966
▁Amer -14967
▁평했 -14968
▁노마 -14969
▁피니시 -14970
▁뮤즈 -14971
▁머들 -14972
▁벨벳 -14973
▁기와 -14974
▁레미 -14975
▁저거 -14976
▁협약 -14977
▁생겨난 -14978
▁카즈키 -14979
▁안드로메다 -14980
▁신공 -14981
▁장막 -14982
▁Pop -14983
▁부회장 -14984
▁Track -14985
▁등산 -14986
▁심리전 -14987
▁사파이어 -14988
패드 -14989
▁날릴 -14990
하이 -14991
▁조회 -14992
▁DAY -14993
▁새겨진 -14994
▁플러그 -14995
겨서 -14996
▁는데도 -14997
▁임프 -14998
▁tw -14999
▁귀도 -15000
▁탈것 -15001
▁여겨진다 -15002
▁인분 -15003
▁칠흑 -15004
▁토의 -15005
▁석방 -15006
▁스켈 -15007
▁FFFF -15008
▁마는 -15009
▁온화 -15010
▁도망친 -15011
▁오스카 -15012
▁이상민 -15013
내기 -15014
▁입성 -15015
▁포르노 -15016
▁TG -15017
▁코리 -15018
▁파드 -15019
▁두드러지 -15020
▁국사 -15021
누르 -15022
▁음양 -15023
▁게이밍 -15024
▁몰아내 -15025
▁살릴 -15026
▁합산 -15027
▁랄프 -15028
▁백신 -15029
▁선진국 -15030
▁바쁜 -15031
▁신령 -15032
▁유민 -15033
▁차남 -15034
▁탄다 -15035
▁익스트림 -15036
▁점하 -15037
바키아 -15038
▁계약자 -15039
▁뺏기 -15040
▁이시다 -15041
▁택하 -15042
▁Cont -15043
▁바이올렛 -15044
▁첩보 -15045
▁에스파 -15046
▁대적 -15047
▁1939 -15048
▁적정 -15049
▁경신 -15050
▁마늘 -15051
▁이분 -15052
▁나폴리 -15053
왜란 -15054
▁가네 -15055
▁우와 -15056
▁트리오 -15057
▁TN -15058
▁네메시스 -15059
▁단절 -15060
▁부풀 -15061
▁프랑스군 -15062
▁각기 -15063
▁주스 -15064
▁리바이 -15065
▁임진왜란 -15066
▁아치 -15067
▁사면 -15068
▁멧돼지 -15069
▁으시 -15070
▁빵빵 -15071
▁역관 -15072
지물 -15073
▁빨려 -15074
▁젠지 -15075
▁황무지 -15076
▁내려놓 -15077
▁증후 -15078
play -15079
▁위인 -15080
▁와타루 -15081
▁팔꿈치 -15082
▁". -15083
▁감도 -15084
▁초회 -15085
▁쉔 -15086
ands -15087
▁Yes -15088
▁명령어 -15089
▁내려찍 -15090
▁올려서 -15091
▁너구리 -15092
▁금성 -15093
▁오피 -15094
▁이화 -15095
▁기병대 -15096
▁패트릭 -15097
▁원한다면 -15098
▁모티 -15099
▁광주광역시 -15100
▁녹여 -15101
▁됐으며 -15102
▁207 -15103
▁이지스 -15104
34 -15105
▁화장품 -15106
▁교재 -15107
▁차세대 -15108
▁창세기 -15109
▁키움 -15110
▁통한다 -15111
▁황자 -15112
▁플라잉 -15113
▁baby -15114
▁노랑 -15115
두근 -15116
▁뾰족 -15117
▁위생 -15118
▁COM -15119
▁단백 -15120
▁의대 -15121
▁청동 -15122
▁어긋나 -15123
▁섰 -15124
▁관대 -15125
▁애틀 -15126
▁외야 -15127
▁풋볼 -15128
▁동물원 -15129
▁티탄 -15130
▁단말기 -15131
쿠버 -15132
▁불기 -15133
▁따라다니 -15134
ze -15135
▁구세 -15136
▁넵튠 -15137
▁배고 -15138
▁기타리스트 -15139
▁반가 -15140
▁매지컬 -15141
▁켠 -15142
▁분자 -15143
▁새신 -15144
▁터무니 -15145
▁래스 -15146
▁서문 -15147
▁520 -15148
▁슈타 -15149
▁네타 -15150
▁유세 -15151
▁푸드 -15152
▁각색 -15153
▁에우 -15154
▁겉보기 -15155
▁good -15156
▁바사 -15157
▁초중 -15158
▁인신 -15159
▁는구나 -15160
바시 -15161
▁로자 -15162
뜨릴 -15163
을지도 -15164
▁루리웹 -15165
▁미뤄 -15166
▁정진 -15167
▁777 -15168
ien -15169
▁이터널 -15170
▁지휘자 -15171
▁채굴 -15172
▁over -15173
▁영재 -15174
▁트레버 -15175
▁박기 -15176
▁타협 -15177
▁붕대 -15178
▁무너졌 -15179
▁나우 -15180
▁PA -15181
아스 -15182
▁고스란히 -15183
다르 -15184
교육 -15185
용차 -15186
▁타츠야 -15187
▁빼내 -15188
▁동거 -15189
캐스트 -15190
▁제품군 -15191
▁재해 -15192
큐버스 -15193
▁BASIC -15194
▁들통 -15195
▁체급 -15196
▁상정 -15197
▁이관 -15198
▁문호 -15199
▁친근 -15200
▁송파 -15201
▁조비 -15202
▁포화 -15203
방사기 -15204
▁화염방사기 -15205
▁천체 -15206
ited -15207
▁Mir -15208
▁그래프 -15209
▁최적화 -15210
▁그지 -15211
▁철벽 -15212
▁항로 -15213
▁집정관 -15214
▁단연 -15215
▁독설 -15216
▁자의 -15217
▁진한 -15218
▁비정 -15219
▁..' -15220
▁IDOLM -15221
▁청하 -15222
▁보유자 -15223
▁도널드 -15224
▁성급 -15225
▁애프터 -15226
▁정제 -15227
▁라든지 -15228
▁눈부 -15229
▁아껴 -15230
▁밀쳐 -15231
▁데려다 -15232
▁나타날 -15233
▁불러서 -15234
▁배럴 -15235
▁비어 -15236
▁흐트 -15237
▁일부분 -15238
▁구치 -15239
▁로로 -15240
▁한결 -15241
▁동포 -15242
▁호라이 -15243
▁크레이지 -15244
▁블라디미르 -15245
▁209 -15246
▁강호동 -15247
▁다트 -15248
▁김택용 -15249
▁쏴서 -15250
▁전투복 -15251
준호 -15252
▁상류 -15253
둘기 -15254
위치 -15255
▁그토록 -15256
▁이라든가 -15257
▁나시 -15258
▁나지 -15259
▁서둘러 -15260
▁소모품 -15261
▁미공 -15262
▁Bur -15263
▁쫓아내 -15264
▁감속 -15265
▁순순 -15266
▁심슨 -15267
파니 -15268
▁키웠 -15269
▁다이렉트 -15270
▁배틀필드 -15271
au -15272
▁~' -15273
▁선비 -15274
▁펼쳐진 -15275
▁터리 -15276
▁장동민 -15277
중국 -15278
▁무어 -15279
▁중령 -15280
▁col -15281
▁콜롬비아 -15282
▁류지 -15283
▁선명 -15284
▁일갈 -15285
▁Project -15286
▁구했 -15287
▁억압 -15288
▁끌어올리 -15289
▁사설 -15290
블랑 -15291
▁휴전 -15292
▁로드리 -15293
▁버니 -15294
▁진다는 -15295
▁탈리 -15296
▁살린 -15297
▁골리앗 -15298
▁로마자 -15299
▁민병대 -15300
▁TF -15301
▁투타 -15302
▁김영삼 -15303
▁대제 -15304
▁화내 -15305
▁시세 -15306
▁당근 -15307
▁모방 -15308
▁전류 -15309
▁스탠딩 -15310
▁키나 -15311
▁Sur -15312
▁두꺼운 -15313
▁간장 -15314
▁신촌 -15315
▁장단 -15316
▁1400 -15317
▁안토니오 -15318
▁미유 -15319
36 -15320
▁비범 -15321
▁정직 -15322
▁단거리 -15323
▁시프트 -15324
▁마코 -15325
▁주성 -15326
▁이어폰 -15327
▁시제 -15328
▁Off -15329
▁백수 -15330
▁차마 -15331
▁솔리드 -15332
▁최우선 -15333
▁탄수 -15334
▁yeah -15335
▁어기 -15336
▁황족 -15337
ius -15338
▁긴장감 -15339
▁세이지 -15340
▁현질 -15341
드리히 -15342
▁군중 -15343
▁대두 -15344
▁운전자 -15345
▁셔서 -15346
▁반짝이 -15347
▁행정부 -15348
▁비즈니스 -15349
▁톡톡 -15350
▁투기 -15351
▁사바 -15352
▁사시 -15353
▁창원시 -15354
▁콥 -15355
▁증후군 -15356
▁짓밟 -15357
▁랜디 -15358
▁군단장 -15359
▁역전패 -15360
▁써니 -15361
▁이나즈마 -15362
21 -15363
▁굶주 -15364
▁나탈 -15365
▁칸나 -15366
▁인스 -15367
▁KD -15368
▁아노 -15369
▁자민 -15370
▁락스 -15371
▁외침 -15372
▁글리 -15373
▁노사 -15374
▁정연 -15375
▁침식 -15376
▁유스케 -15377
▁결별 -15378
▁주시 -15379
▁사카모토 -15380
▁봐라 -15381
▁출세 -15382
▁아르테 -15383
▁FFFFFF -15384
▁미토 -15385
▁제네시스 -15386
▁체조 -15387
▁선형 -15388
▁탈탈 -15389
▁Bad -15390
▁프론티어 -15391
▁아르메 -15392
▁이어질 -15393
▁치히로 -15394
▁때릴 -15395
▁심포 -15396
▁액트 -15397
oney -15398
HD -15399
UK -15400
▁루드 -15401
▁에로게 -15402
▁동대문 -15403
▁취했 -15404
ata -15405
▁마호 -15406
▁매사 -15407
▁노이 -15408
▁분전 -15409
▁템플러 -15410
AA -15411
▁전갈 -15412
▁천도 -15413
▁스탠스 -15414
▁저력 -15415
▁WOR -15416
▁안중 -15417
▁1938 -15418
▁가산 -15419
▁공석 -15420
▁산화 -15421
▁엠파이어 -15422
▁bo -15423
▁격하 -15424
▁순순히 -15425
▁코브라 -15426
▁욘 -15427
▁부서진 -15428
▁매개 -15429
▁배척 -15430
▁구애 -15431
▁관건 -15432
▁지체 -15433
▁피버 -15434
▁파열 -15435
▁데뷔작 -15436
▁Po -15437
▁명품 -15438
▁학업 -15439
▁유노 -15440
▁요동 -15441
틱스 -15442
▁Int -15443
▁결투장 -15444
▁걸스 -15445
▁프리드리히 -15446
▁라데 -15447
▁페루 -15448
드래곤 -15449
준혁 -15450
▁면은 -15451
장구 -15452
방식 -15453
페스트 -15454
▁ac -15455
▁버즈 -15456
▁치프 -15457
▁리조트 -15458
INE -15459
제이 -15460
▁산산 -15461
▁섹터 -15462
vent -15463
마트 -15464
▁현행 -15465
▁Are -15466
▁티나 -15467
▁영령 -15468
▁졸지 -15469
▁단번에 -15470
▁메이크 -15471
▁몰려오 -15472
▁조류 -15473
▁오아 -15474
▁맞물려 -15475
▁자본주의 -15476
감치 -15477
▁올리버 -15478
▁Ul -15479
▁응징 -15480
▁조로 -15481
▁때때로 -15482
▁마리사 -15483
찌감치 -15484
▁메두사 -15485
▁튜브 -15486
▁DDR -15487
토미 -15488
▁입법 -15489
▁say -15490
▁이끈 -15491
▁꼼짝 -15492
▁외래어 -15493
▁재빠 -15494
▁두께 -15495
▁총구 -15496
고루 -15497
그래 -15498
▁275 -15499
▁성유 -15500
▁카논 -15501
▁츠바키 -15502
▁#, -15503
▁잿 -15504
▁WCS -15505
▁하늘색 -15506
▁아만 -15507
▁상해 -15508
▁ㄹ -15509
▁마공 -15510
line -15511
▁즉석 -15512
▁다이크 -15513
▁블루스 -15514
컨대 -15515
▁노스케 -15516
▁팻 -15517
▁샌디 -15518
▁Ass -15519
▁음모론 -15520
▁JC -15521
▁대장장이 -15522
▁브리핑 -15523
▁쌩 -15524
▁광학 -15525
비언 -15526
▁'- -15527
▁소량 -15528
▁갱단 -15529
▁완주 -15530
▁즘 -15531
▁프라이즈 -15532
▁TWICE -15533
▁몰렸 -15534
▁PvP -15535
▁법무부 -15536
▁아츠시 -15537
▁신한은행 -15538
▁쓸어버리 -15539
▁로미 -15540
▁베른 -15541
▁org -15542
▁내려왔 -15543
홍철 -15544
▁몰라서 -15545
▁받아들일 -15546
▁용품 -15547
▁만화책 -15548
▁했으므로 -15549
▁가와 -15550
▁괴멸 -15551
▁시발 -15552
▁221 -15553
▁쎄 -15554
툭튀 -15555
▁쿼드 -15556
▁사라질 -15557
▁행각 -15558
▁릭스 -15559
▁애틀랜 -15560
UL -15561
▁래쉬 -15562
▁몬테 -15563
▁사생활 -15564
▁건립 -15565
▁멀린 -15566
▁수뇌 -15567
▁노후 -15568
▁레베 -15569
▁재혼 -15570
ague -15571
▁란트 -15572
▁교직원 -15573
▁수군 -15574
▁노동당 -15575
규어 -15576
▁갑툭튀 -15577
▁폭군 -15578
▁폭투 -15579
세이더 -15580
▁AMD -15581
▁크루세이더 -15582
▁발트 -15583
▁패미컴 -15584
▁거유 -15585
▁정자 -15586
▁부합 -15587
▁에프 -15588
▁최진 -15589
▁뒤바 -15590
ton -15591
▁케미 -15592
▁see -15593
▁번거 -15594
▁Eng -15595
▁시애 -15596
▁헬로 -15597
▁여행자 -15598
▁샌드박스 -15599
▁대관 -15600
▁시오리 -15601
▁Match -15602
▁셔츠 -15603
▁척하 -15604
ck -15605
UST -15606
▁외쳤 -15607
▁제드 -15608
▁경전차 -15609
▁수영장 -15610
▁경비원 -15611
78 -15612
▁희미 -15613
▁중소기업 -15614
▁쪽지 -15615
▁커맨더 -15616
▁길목 -15617
▁피크 -15618
▁클로버 -15619
▁Char -15620
▁모치 -15621
▁케르 -15622
▁디디 -15623
▁짤막 -15624
▁릉 -15625
▁제각 -15626
▁요르 -15627
▁타케루 -15628
▁홈구장 -15629
매매 -15630
피탈 -15631
▁세토 -15632
▁시르 -15633
▁여명 -15634
▁시립 -15635
▁앞쪽 -15636
▁진공 -15637
▁바이퍼 -15638
의지 -15639
▁부녀 -15640
▁플로리다 -15641
▁고원 -15642
▁케어 -15643
▁fr -15644
▁수도원 -15645
▁기린 -15646
매치 -15647
▁아재 -15648
▁돌아다 -15649
▁부두 -15650
▁메르시 -15651
▁1952 -15652
und -15653
▁조원 -15654
▁퇴마 -15655
지기 -15656
▁아카기 -15657
▁데스매치 -15658
▁방대 -15659
▁탈주 -15660
▁데이비스 -15661
▁XY -15662
▁Now -15663
▁가쿠 -15664
▁슬쩍 -15665
▁여덟 -15666
레즈 -15667
▁유시 -15668
▁헤븐 -15669
▁볼일 -15670
▁RED -15671
erm -15672
▁어딜 -15673
▁슬래시 -15674
▁엘소드 -15675
ute -15676
▁일선 -15677
▁앨리 -15678
▁노드 -15679
▁레비 -15680
▁최형 -15681
▁금곡 -15682
▁리벤 -15683
▁욕먹 -15684
▁트레인 -15685
▁티타 -15686
▁놀란다 -15687
▁입니까 -15688
▁됬 -15689
▁스스 -15690
▁자판기 -15691
▁저스틴 -15692
천역 -15693
▁묵직 -15694
▁넘쳐나 -15695
▁사업자 -15696
▁일직선 -15697
▁리언 -15698
▁히이 -15699
자루 -15700
▁리히 -15701
▁우동 -15702
▁우이 -15703
ILL -15704
▁마셔 -15705
▁브란 -15706
▁농촌 -15707
▁위조 -15708
▁시애틀 -15709
▁일정량 -15710
▁루즈 -15711
▁안치 -15712
▁216 -15713
맹이 -15714
▁흉터 -15715
▁Core -15716
▁정적 -15717
▁세단 -15718
▁환불 -15719
▁햇빛 -15720
▁재규어 -15721
▁right -15722
일관 -15723
▁소름 -15724
▁매거진 -15725
▁수속 -15726
▁츠치 -15727
▁명장면 -15728
▁발렌시아 -15729
▁도보 -15730
▁매점 -15731
▁화랑 -15732
▁바흐 -15733
▁스노 -15734
▁악인 -15735
▁유배 -15736
▁Blood -15737
▁로니 -15738
▁현수 -15739
▁티셔츠 -15740
▁다크니스 -15741
▁모건 -15742
▁농어촌 -15743
▁센트리 -15744
red -15745
▁관전 -15746
▁누님 -15747
▁오일 -15748
▁BW -15749
▁마토 -15750
▁럭스 -15751
▁416 -15752
▁충실히 -15753
▁}}}} -15754
▁대장군 -15755
▁2021 -15756
▁해저 -15757
hy -15758
▁213 -15759
▁아틀라스 -15760
▁고베 -15761
▁무모 -15762
▁헤라클레스 -15763
▁숙명 -15764
▁충동 -15765
▁쓰러뜨린 -15766
▁Joh -15767
▁our -15768
▁서스 -15769
▁심부 -15770
▁후후 -15771
▁따랐 -15772
▁세무 -15773
▁코칭 -15774
▁헌병 -15775
▁동국 -15776
▁기공 -15777
▁장녀 -15778
▁}}}}}} -15779
▁조슈 -15780
▁아득 -15781
▁BRV -15782
▁충공 -15783
▁Rob -15784
▁분수 -15785
▁올라온다 -15786
▁능동 -15787
▁건너편 -15788
▁학부모 -15789
▁선글라스 -15790
▁펼친 -15791
▁햄버거 -15792
▁국물 -15793
▁붙잡혀 -15794
▁에테르 -15795
정동 -15796
▁애리 -15797
▁평안 -15798
▁기염 -15799
▁시빌 -15800
▁아리사 -15801
▁마사무네 -15802
▁간편 -15803
▁맞췄 -15804
▁퍼시픽 -15805
55 -15806
▁빼놓 -15807
▁어쩐 -15808
▁던져서 -15809
먹이 -15810
▁레그 -15811
게임넷 -15812
▁Ook -15813
▁온게임넷 -15814
▁국정원 -15815
▁세실 -15816
▁야자 -15817
애미 -15818
▁BBC -15819
▁비둘기 -15820
▁ㅁ -15821
ism -15822
수엘라 -15823
▁짊 -15824
▁경의 -15825
▁친선 -15826
▁보이드 -15827
▁마이애미 -15828
▁선천 -15829
▁소망 -15830
코스 -15831
▁둔화 -15832
▁잘린 -15833
▁강남구 -15834
▁사쿠야 -15835
아라 -15836
▁Last -15837
▁모탈 -15838
▁속사 -15839
▁패한 -15840
▁1300 -15841
▁재화 -15842
▁중사 -15843
▁병신 -15844
▁필기 -15845
▁1953 -15846
▁급상 -15847
▁방어전 -15848
▁cr -15849
▁여하 -15850
▁친화 -15851
는데 -15852
▁여느 -15853
▁회자 -15854
▁블리츠 -15855
III -15856
▁이도 -15857
▁테츠야 -15858
▁익스프레스 -15859
조작 -15860
▁슬라이딩 -15861
▁돌풍 -15862
OCK -15863
▁앞장 -15864
▁미니게임 -15865
▁리시 -15866
▁임상 -15867
▁레이크 -15868
▁근래 -15869
▁필승 -15870
▁악질 -15871
▁완패 -15872
▁튀김 -15873
▁기생충 -15874
▁디트로 -15875
▁승부조작 -15876
▁승부차기 -15877
▁디트로이트 -15878
▁찜 -15879
▁서유 -15880
▁검찰청 -15881
미사 -15882
▁기통 -15883
▁과다 -15884
▁소아 -15885
▁순삭 -15886
▁자자 -15887
▁기판 -15888
▁벤트 -15889
▁남긴다 -15890
▁국수 -15891
▁물들 -15892
▁서인 -15893
ets -15894
▁쓸쓸 -15895
▁자가 -15896
▁직계 -15897
88 -15898
▁안식 -15899
▁경영학 -15900
▁통학 -15901
▁암흑기 -15902
타기 -15903
▁가세 -15904
▁세레나 -15905
▁재판소 -15906
▁구미호 -15907
▁두근두근 -15908
▁단백질 -15909
▁pe -15910
▁토코 -15911
▁표명 -15912
미츠 -15913
▁조선일보 -15914
▁무네 -15915
▁호우 -15916
▁망할 -15917
▁은가 -15918
▁전고 -15919
괭이 -15920
add -15921
▁마취 -15922
▁백룡 -15923
▁죄인 -15924
▁알비 -15925
▁잽 -15926
▁사병 -15927
▁그해 -15928
▁눈썹 -15929
▁풍속 -15930
▁극성 -15931
▁아종 -15932
▁희생양 -15933
▁피신 -15934
▁해프 -15935
▁유소년 -15936
▁숨겨져 -15937
▁쩌 -15938
▁막혔 -15939
▁토사 -15940
▁데스크 -15941
▁홉 -15942
OWN -15943
▁NA -15944
▁엘런 -15945
▁료마 -15946
▁시라이 -15947
▁박태 -15948
▁업종 -15949
▁비석 -15950
▁재선 -15951
▁총대 -15952
▁나뭇잎 -15953
▁베네수엘라 -15954
▁암기 -15955
▁이천 -15956
▁동산 -15957
▁키울 -15958
이프 -15959
▁갈아타 -15960
▁약해서 -15961
▁활주로 -15962
포로 -15963
▁데일리 -15964
▁다친 -15965
▁Magic -15966
▁치밀 -15967
▁팬클럽 -15968
▁권고 -15969
▁7000 -15970
▁RR -15971
▁가넷 -15972
▁초딩 -15973
▁침체 -15974
▁양도 -15975
▁이의 -15976
▁가져와 -15977
▁재미없 -15978
▁중화기 -15979
▁피칭 -15980
▁볼리 -15981
니지 -15982
ama -15983
▁이대호 -15984
▁농부 -15985
▁서약 -15986
▁경희대 -15987
▁드래곤즈 -15988
▁총사령관 -15989
▁고갈 -15990
▁포진 -15991
▁Like -15992
▁덤비 -15993
▁there -15994
▁메탈기어 -15995
외선 -15996
▁차출 -15997
▁사력 -15998
▁프라이드 -15999
▁이메 -16000
▁영화관 -16001
▁부술 -16002
▁조세 -16003
▁갈아입 -16004
▁거미줄 -16005
▁그물 -16006
▁사위 -16007
▁사단장 -16008
▁HOT -16009
▁내줬 -16010
▁방관 -16011
▁Alb -16012
집니다 -16013
▁불안감 -16014
▁니즘 -16015
▁드래그 -16016
▁첨가 -16017
▁히코 -16018
▁자멸 -16019
▁아킬 -16020
▁자정 -16021
▁매그넘 -16022
장판 -16023
▁반달 -16024
▁정종 -16025
▁불허 -16026
▁방정식 -16027
▁카츠키 -16028
니르 -16029
▁몽땅 -16030
▁화룡 -16031
▁낙하산 -16032
▁잔여 -16033
▁수송선 -16034
▁프랭클린 -16035
▁입혀 -16036
▁케니 -16037
▁신종 -16038
▁원어 -16039
▁거리표 -16040
▁관광지 -16041
▁Soul -16042
▁Happy -16043
▁이범 -16044
ther -16045
▁해프닝 -16046
탕스 -16047
▁급한 -16048
▁상하이 -16049
▁성남시 -16050
▁레지스탕스 -16051
▁권역 -16052
▁몸집 -16053
▁사역 -16054
▁악보 -16055
▁남극 -16056
▁RPM -16057
▁화판 -16058
▁거니와 -16059
▁토토 -16060
▁퍼니 -16061
▁뒤쳐 -16062
▁연안 -16063
▁테슬라 -16064
▁정윤 -16065
ader -16066
▁꾸며 -16067
▁성동 -16068
▁지으며 -16069
▁텐더 -16070
ERF -16071
▁대입 -16072
▁장기전 -16073
▁범주 -16074
▁순조 -16075
▁음란 -16076
▁사비 -16077
▁철퇴 -16078
▁마키나 -16079
▁이목 -16080
▁Nor -16081
▁기어이 -16082
▁졌으나 -16083
▁베르크 -16084
▁쥔 -16085
▁포레스트 -16086
▁223 -16087
이인 -16088
▁대의 -16089
▁도망친다 -16090
▁룽 -16091
▁치를 -16092
▁미나토 -16093
▁비대 -16094
▁지나갈 -16095
▁하자드 -16096
만도 -16097
▁막말 -16098
▁리포 -16099
▁본드 -16100
▁큰일 -16101
▁갈구 -16102
▁돌린 -16103
▁클라우 -16104
▁나눌 -16105
▁임용 -16106
▁체구 -16107
▁망설이 -16108
▁아레스 -16109
자국 -16110
▁구워 -16111
▁미달 -16112
▁비룡 -16113
▁역설 -16114
▁TT -16115
▁법정동 -16116
▁체로 -16117
▁거라 -16118
▁코로 -16119
▁사요 -16120
▁엑셀 -16121
▁영조 -16122
▁his -16123
▁바꾼다 -16124
▁깜빡 -16125
▁조나 -16126
트리스 -16127
▁읊 -16128
▁김소 -16129
렁이 -16130
▁들이대 -16131
▁지쳐 -16132
▁고모 -16133
▁바트 -16134
▁선역 -16135
▁정대 -16136
▁골고루 -16137
▁이긴다 -16138
▁who -16139
▁산체스 -16140
▁하이브 -16141
▁나온다고 -16142
▁계승자 -16143
▁마크로스 -16144
▁코팅 -16145
▁Party -16146
▁네로 -16147
▁삽입곡 -16148
▁맨날 -16149
▁무당 -16150
▁임페 -16151
▁충주 -16152
▁쿠도 -16153
▁365 -16154
▁주임 -16155
▁레프트 -16156
▁멱 -16157
ocal -16158
베이스 -16159
▁시종일관 -16160
▁net -16161
벅지 -16162
▁수법 -16163
▁일찌감치 -16164
▁미용 -16165
▁충공깽 -16166
▁watch -16167
니치 -16168
▁문성 -16169
▁got -16170
▁크리드 -16171
▁Side -16172
▁투석 -16173
▁해결책 -16174
▁용왕 -16175
▁보인다고 -16176
▁남친 -16177
▁식인 -16178
▁음식점 -16179
▁GX -16180
▁교향곡 -16181
▁감염자 -16182
▁잊혀진 -16183
▁동명이인 -16184
▁1957 -16185
▁덕택 -16186
▁산호 -16187
▁성희 -16188
▁앞둔 -16189
▁저질러 -16190
▁girl -16191
▁아르메니아 -16192
▁연성 -16193
▁역과 -16194
▁도입부 -16195
uz -16196
▁Sim -16197
▁붉은색 -16198
▁장학금 -16199
▁Show -16200
형제 -16201
▁시위대 -16202
▁노원 -16203
▁공중전 -16204
▁여대 -16205
▁청문 -16206
OWER -16207
▁크로노스 -16208
▁장담 -16209
▁앞세워 -16210
▁사우디아 -16211
▁격납 -16212
▁수납 -16213
▁IF -16214
▁민트 -16215
▁얌전 -16216
▁적기 -16217
▁며느리 -16218
ga -16219
▁성범죄 -16220
▁관하 -16221
▁백지 -16222
▁에티 -16223
▁경합 -16224
▁불러오 -16225
▁Edition -16226
BOX -16227
▁Open -16228
▁무너뜨리 -16229
ONE -16230
▁에러 -16231
▁아유미 -16232
▁feel -16233
▁걷어 -16234
▁불린 -16235
▁남아공 -16236
▁보급품 -16237
▁뜬공 -16238
ated -16239
▁링컨 -16240
▁진행할 -16241
▁쟁탈전 -16242
▁에어리어 -16243
▁전복 -16244
▁370 -16245
▁브라이 -16246
▁처한다 -16247
▁엮인 -16248
▁이츠키 -16249
▁잣 -16250
▁떨어진다는 -16251
▁크리에이터 -16252
▁일기토 -16253
▁카메오 -16254
더리 -16255
rew -16256
▁작물 -16257
▁스피리 -16258
▁위태 -16259
▁플랫폼 -16260
84 -16261
▁레타 -16262
▁재무 -16263
▁토카 -16264
▁팔려 -16265
▁능욕 -16266
▁시커 -16267
▁임페리얼 -16268
▁터프 -16269
▁Cap -16270
▁알파벳 -16271
▁채운 -16272
▁Way -16273
▁급상승 -16274
▁김호 -16275
▁카터 -16276
▁왕건 -16277
▁여겨졌 -16278
▁치른 -16279
▁거둬 -16280
▁빽 -16281
▁Und -16282
▁만악 -16283
▁바람직 -16284
▁인플레 -16285
ASS -16286
▁뒤따 -16287
▁평정 -16288
ley -16289
▁유수 -16290
▁윤성 -16291
▁폐하 -16292
▁대변인 -16293
▁라이토 -16294
amu -16295
▁구루 -16296
▁신년 -16297
▁Mark -16298
▁민족주의 -16299
▁키쿠 -16300
work -16301
▁구라 -16302
▁베르나 -16303
▁아프가 -16304
▁바운드 -16305
▁복권 -16306
▁주루 -16307
▁특권 -16308
▁활약상 -16309
▁난데 -16310
▁효력 -16311
▁뽑힌 -16312
▁시드니 -16313
▁쿠폰 -16314
▁대도 -16315
▁총재 -16316
넘기 -16317
▁토우마 -16318
▁남짓 -16319
▁전령 -16320
ster -16321
▁푸쉬 -16322
▁후카 -16323
▁지자체 -16324
hammer -16325
▁몸체 -16326
▁소주 -16327
▁의존도 -16328
▁헤더 -16329
▁경순양함 -16330
로이 -16331
ird -16332
▁알맞 -16333
▁맞대결 -16334
▁1947 -16335
▁잠식 -16336
▁정경 -16337
▁플레인 -16338
▁심해서 -16339
▁상임 -16340
▁익명 -16341
▁빨라서 -16342
▁Angel -16343
▁돗 -16344
선거 -16345
피드 -16346
▁누락 -16347
▁화끈 -16348
▁Pol -16349
▁디에고 -16350
▁하시모토 -16351
▁꼭대기 -16352
▁출연자 -16353
▁란다 -16354
▁건너가 -16355
▁쫓겨나 -16356
▁프레드 -16357
▁천연가스 -16358
▁희박 -16359
벨트 -16360
▁생포 -16361
▁도호쿠 -16362
▁벌어들 -16363
▁소탕 -16364
▁입상 -16365
▁중추 -16366
▁SKE -16367
▁근황 -16368
▁저항군 -16369
▁기각 -16370
▁옵스 -16371
▁항우 -16372
▁FBI -16373
▁그리폰 -16374
▁의류 -16375
▁에어컨 -16376
▁자위 -16377
▁Val -16378
▁미처 -16379
▁깔리 -16380
▁무패 -16381
▁차갑 -16382
▁미카엘 -16383
▁알루미 -16384
▁블루투스 -16385
▁어쩌다 -16386
▁Na -16387
▁화질 -16388
▁알코 -16389
▁엠마 -16390
▁헌납 -16391
▁버퍼 -16392
▁벼락 -16393
▁분과 -16394
▁허니 -16395
▁아야노 -16396
▁하반신 -16397
▁부디 -16398
▁수족 -16399
▁절약 -16400
▁행세 -16401
▁방영일 -16402
▁배수량 -16403
▁댈러스 -16404
▁이유로 -16405
▁Comp -16406
▁micro -16407
▁카트리 -16408
▁셧 -16409
▁통역 -16410
▁오리콘 -16411
▁한성 -16412
라비아 -16413
▁명은 -16414
▁복각 -16415
▁투표율 -16416
레톤 -16417
▁교무실 -16418
IVE -16419
▁유교 -16420
▁화보 -16421
더스트 -16422
▁950 -16423
▁역전재판 -16424
▁선별 -16425
▁비열 -16426
▁재주 -16427
▁그제서야 -16428
▁스켈레톤 -16429
▁봄버 -16430
▁234 -16431
▁금서 -16432
▁공시 -16433
▁수분 -16434
▁활기 -16435
▁트라웃 -16436
▁점포 -16437
▁찍혀 -16438
▁추위 -16439
▁아름다움 -16440
▁과잉 -16441
▁상경 -16442
▁차린 -16443
▁물음 -16444
▁예매 -16445
▁촛불 -16446
▁될수록 -16447
▁틀어막 -16448
▁애틀랜타 -16449
▁내공 -16450
▁엑스맨 -16451
▁아프가니스탄 -16452
캐슬 -16453
▁Stage -16454
▁상고 -16455
▁지저 -16456
▁레테 -16457
▁치곤 -16458
▁연기자 -16459
▁로버 -16460
▁수박 -16461
▁양평 -16462
▁개화 -16463
▁구비 -16464
▁부토 -16465
▁경비병 -16466
▁Fly -16467
▁불분 -16468
▁알몸 -16469
▁상승세 -16470
▁아스타 -16471
▁전념 -16472
▁반대쪽 -16473
소니 -16474
▁미공개 -16475
▁life -16476
▁시연 -16477
▁엄폐물 -16478
▁쓴다는 -16479
▁249 -16480
74 -16481
고생 -16482
▁후작 -16483
해군 -16484
▁치토 -16485
▁가중 -16486
▁온전 -16487
▁박병호 -16488
▁베아 -16489
▁무방비 -16490
▁피쳐 -16491
▁번영 -16492
▁신민 -16493
▁수뇌부 -16494
▁Fall -16495
▁090 -16496
▁전염병 -16497
▁Legend -16498
▁검도 -16499
▁엘더스 -16500
▁First -16501
▁단타 -16502
▁머릿속 -16503
▁뉴캐슬 -16504
▁쥴 -16505
무로 -16506
▁사죄 -16507
▁버틴 -16508
▁김구라 -16509
▁밀린 -16510
▁219 -16511
▁중공업 -16512
▁겸비 -16513
▁좌완 -16514
▁중론 -16515
▁245 -16516
▁막론 -16517
▁승승 -16518
▁이석 -16519
▁중순양함 -16520
▁키사라기 -16521
치오 -16522
▁개더링 -16523
▁배운다 -16524
stem -16525
▁갈려 -16526
▁엘릭 -16527
▁웨딩 -16528
▁조현 -16529
▁검기 -16530
▁마운틴 -16531
▁불분명 -16532
ura -16533
▁불가피 -16534
▁어설트 -16535
▁호라이즌 -16536
▁전경 -16537
▁빅토리 -16538
▁랍시고 -16539
▁갑주 -16540
▁빌헬 -16541
▁포메 -16542
▁마실 -16543
▁진범 -16544
답시고 -16545
▁바드 -16546
▁Free -16547
▁Perf -16548
건설 -16549
▁코일 -16550
▁유다 -16551
▁투르 -16552
▁후세 -16553
▁오바마 -16554
▁급습 -16555
▁세조 -16556
▁쉬우 -16557
▁그리스어 -16558
tm -16559
▁부기 -16560
▁덩달 -16561
▁이문 -16562
▁자바 -16563
▁두른 -16564
▁판과 -16565
▁경전철 -16566
슬쩍 -16567
▁손책 -16568
▁총회 -16569
▁한들 -16570
▁오카다 -16571
▁알루미늄 -16572
▁오리지날 -16573
▁자유주의 -16574
▁겁쟁이 -16575
▁끝낼 -16576
▁Break -16577
▁메츠 -16578
▁540 -16579
▁스튜어트 -16580
▁Er -16581
▁김신 -16582
▁복부 -16583
▁처해 -16584
틀리 -16585
▁티거 -16586
udio -16587
▁만화가 -16588
▁프리드 -16589
▁접한 -16590
▁준장 -16591
▁질질 -16592
▁허술 -16593
▁카자마 -16594
▁돌봐 -16595
▁부우 -16596
▁언론사 -16597
레일리아 -16598
▁콩두 -16599
▁늘릴 -16600
▁아벨 -16601
▁top -16602
▁송병구 -16603
▁Class -16604
▁로페 -16605
▁체내 -16606
▁명백히 -16607
▁노프 -16608
▁푸른색 -16609
▁How -16610
▁성우진 -16611
▁긋 -16612
선다 -16613
▁명실 -16614
▁무소 -16615
▁소폭 -16616
▁운임 -16617
ling -16618
▁Final -16619
▁차오 -16620
▁퍼진 -16621
▁수혜 -16622
▁치워 -16623
▁대리인 -16624
▁무리수 -16625
▁유죄 -16626
▁질수록 -16627
▁케로로 -16628
err -16629
▁반하 -16630
▁비평 -16631
▁타지 -16632
▁선상 -16633
피어 -16634
▁쇼군 -16635
▁쌍용 -16636
▁악수 -16637
▁열렬 -16638
▁까다로 -16639
페어 -16640
▁유체 -16641
▁오우거 -16642
▁GDP -16643
▁눈치챈 -16644
▁If -16645
▁440 -16646
▁동유럽 -16647
▁파워레인저 -16648
▁법조 -16649
TH -16650
▁린다 -16651
▁창출 -16652
▁세워진 -16653
▁정한다 -16654
yes -16655
▁신격 -16656
▁Never -16657
▁수제 -16658
▁앤더슨 -16659
▁지명타자 -16660
▁루기 -16661
▁망각 -16662
▁베레 -16663
▁자치령 -16664
▁쥬라기 -16665
▁로토 -16666
▁엠블럼 -16667
▁City -16668
▁뚱뚱 -16669
▁세가 -16670
▁잔재 -16671
▁한승 -16672
▁Spring -16673
▁나카노 -16674
▁빈센트 -16675
글러 -16676
▁평지 -16677
▁김정일 -16678
arius -16679
▁슬래 -16680
▁조니 -16681
▁쓴다면 -16682
영수 -16683
▁또래 -16684
▁밀러 -16685
▁하얀색 -16686
ux -16687
▁박히 -16688
▁번번 -16689
▁벤츠 -16690
▁중파 -16691
▁Cor -16692
▁사우디아라비아 -16693
▁잊어버 -16694
▁Down -16695
▁스투 -16696
▁제복 -16697
▁끼쳤 -16698
▁카라스 -16699
▁김제 -16700
▁224 -16701
▁동급생 -16702
AGE -16703
▁MAN -16704
▁안테나 -16705
▁사냥터 -16706
▁이니셜 -16707
▁무안타 -16708
▁품종 -16709
그라드 -16710
ause -16711
▁이시카와 -16712
▁하나님 -16713
▁분화 -16714
▁헤지 -16715
▁1951 -16716
고쿠 -16717
▁일개 -16718
▁Mon -16719
▁AW -16720
▁로선 -16721
▁자재 -16722
▁한국군 -16723
▁띵 -16724
▁신태 -16725
▁행해 -16726
▁난장판 -16727
▁왔으며 -16728
▁광폭 -16729
▁우먼 -16730
▁PRO -16731
▁체크카드 -16732
워했 -16733
▁선후 -16734
▁우려먹 -16735
▁의뢰인 -16736
▁슬러 -16737
▁지중 -16738
▁겹쳐서 -16739
▁삿포로 -16740
▁티라노 -16741
▁와도 -16742
▁청주시 -16743
피온 -16744
▁시녀 -16745
▁섣 -16746
▁큼 -16747
▁어로 -16748
▁하쿠 -16749
즐리 -16750
tain -16751
▁팰리스 -16752
제리 -16753
영향 -16754
▁sk -16755
▁직진 -16756
▁편도 -16757
▁나오키 -16758
스부르크 -16759
▁도메 -16760
▁마석 -16761
▁세이부 -16762
▁KCC -16763
▁cont -16764
▁대전광역시 -16765
▁향했 -16766
▁바알 -16767
▁한중 -16768
▁GOT -16769
▁베토 -16770
▁전우 -16771
현동 -16772
▁오스틴 -16773
▁1914 -16774
▁성품 -16775
▁메가트론 -16776
REME -16777
▁도망칠 -16778
라이언트 -16779
▁최원 -16780
▁사복 -16781
▁예뻐 -16782
▁연호 -16783
▁해낼 -16784
▁험한 -16785
▁니퍼 -16786
▁BP -16787
▁마자 -16788
▁승계 -16789
▁오산 -16790
블루 -16791
▁튀어나와 -16792
▁맥시 -16793
▁성령 -16794
▁반납 -16795
▁끝없이 -16796
▁클라이언트 -16797
▁엠블렘 -16798
▁9000 -16799
▁불발 -16800
▁저음 -16801
▁튀어나온 -16802
IME -16803
▁염동 -16804
▁서스펜 -16805
▁레니 -16806
▁이형 -16807
▁숙지 -16808
▁어진 -16809
▁들으며 -16810
▁226 -16811
재욱 -16812
▁베로 -16813
▁청취 -16814
▁판본 -16815
▁행군 -16816
▁랠 -16817
▁짱구 -16818
▁건축물 -16819
▁갇히 -16820
▁투여 -16821
리히 -16822
▁결단 -16823
▁Sn -16824
▁주주 -16825
칼리버 -16826
raft -16827
▁깐다 -16828
▁인승 -16829
신기 -16830
▁수전 -16831
▁밸브 -16832
▁저널 -16833
▁현무 -16834
▁알트 -16835
▁시킨다는 -16836
▁애시당초 -16837
▁순항 -16838
▁Swe -16839
▁세운다 -16840
▁야스오 -16841
▁위닝 -16842
▁시리우스 -16843
다듬 -16844
▁구이 -16845
▁마카오 -16846
▁코우지 -16847
▁가져간다 -16848
▁길래 -16849
▁이송 -16850
▁입당 -16851
▁end -16852
erry -16853
▁강함 -16854
▁신봉 -16855
▁Mem -16856
▁위저드 -16857
▁소란 -16858
▁허벅지 -16859
김없이 -16860
▁"' -16861
▁말살 -16862
▁서동 -16863
▁시프 -16864
iny -16865
▁정치력 -16866
안군 -16867
▁곡사 -16868
▁광동 -16869
▁악장 -16870
▁회유 -16871
▁공채 -16872
▁밀접 -16873
▁뻔하 -16874
코스터 -16875
▁가늠 -16876
▁최형우 -16877
▁니즈 -16878
▁야인 -16879
▁국무총리 -16880
▁꾹 -16881
평균 -16882
▁들려주 -16883
▁밀려서 -16884
▁뛰어났 -16885
▁아다 -16886
▁make -16887
▁명왕 -16888
▁샬롯 -16889
▁끼친 -16890
▁다이빙 -16891
▁예술가 -16892
▁훈련소 -16893
▁티모 -16894
▁롤러코스터 -16895
▁내준 -16896
▁사생 -16897
▁슬립 -16898
▁몸싸움 -16899
▁변속기 -16900
대표 -16901
▁리제 -16902
▁월터 -16903
▁픈 -16904
▁서재 -16905
▁페달 -16906
▁숨결 -16907
▁요양 -16908
나들 -16909
▁쇼타 -16910
▁브래드 -16911
83 -16912
▁합금 -16913
▁보호자 -16914
▁그레이브 -16915
▁미우 -16916
테라 -16917
▁011 -16918
▁빙글 -16919
▁허다 -16920
▁시메 -16921
▁평준 -16922
▁난다고 -16923
▁얍 -16924
▁양양 -16925
▁블로킹 -16926
▁자택 -16927
▁진다고 -16928
▁베네치아 -16929
소통 -16930
▁1937 -16931
▁의사소통 -16932
▁칼질 -16933
▁호각 -16934
▁APC -16935
▁검색어 -16936
▁끊이 -16937
▁반죽 -16938
▁야말로 -16939
de -16940
▁험악 -16941
▁벗어났 -16942
▁고뇌 -16943
▁생계 -16944
▁졸라 -16945
▁에버튼 -16946
▁미약 -16947
▁방망 -16948
▁탄두 -16949
▁과반 -16950
▁노선도 -16951
▁오스트레일리아 -16952
▁폴라 -16953
ival -16954
테리어 -16955
▁세계수 -16956
살렘 -16957
▁어시 -16958
▁play -16959
▁들켜 -16960
▁라리 -16961
▁토바 -16962
▁쉰 -16963
▁포자 -16964
▁사츠키 -16965
▁일어서 -16966
▁보성 -16967
▁조개 -16968
▁착수 -16969
▁제너럴 -16970
▁코요미 -16971
▁RX -16972
루살렘 -16973
리즘 -16974
▁고른 -16975
▁크리스토퍼 -16976
걸음 -16977
▁반려 -16978
요리 -16979
▁캠핑 -16980
▁키치 -16981
▁내려와 -16982
▁중산 -16983
▁애리조 -16984
▁착취 -16985
▁발해 -16986
▁강령 -16987
▁카르텔 -16988
▁뺑 -16989
▁간절 -16990
▁린이 -16991
▁치는 -16992
▁이강 -16993
▁큐트 -16994
가르드 -16995
▁연구자 -16996
▁ㅈ -16997
▁만우 -16998
▁건의 -16999
▁양말 -17000
▁피그 -17001
▁Christ -17002
▁김은 -17003
▁PT -17004
▁원성 -17005
▁야마자키 -17006
▁일생 -17007
▁톱니 -17008
▁놓인 -17009
▁사상자 -17010
▁잔소리 -17011
ATE -17012
▁part -17013
▁아니하 -17014
▁무찌 -17015
▁원상 -17016
▁잠든 -17017
▁판단력 -17018
▁츳 -17019
▁쌍검 -17020
▁펠트 -17021
▁375 -17022
RO -17023
▁끝낸 -17024
▁근위 -17025
▁래리 -17026
▁면도 -17027
▁지하실 -17028
▁경시 -17029
▁산지 -17030
▁생방송 -17031
먼드 -17032
▁박한 -17033
▁춘추 -17034
▁디럭스 -17035
모델 -17036
▁매도 -17037
▁흉기 -17038
22 -17039
▁사찰 -17040
▁위아 -17041
▁aqu -17042
que -17043
▁편애 -17044
▁233 -17045
▁슴 -17046
▁외장 -17047
▁찬사 -17048
▁정무 -17049
▁미도 -17050
▁컬링 -17051
▁털렸 -17052
▁걸치 -17053
▁410 -17054
▁Hol -17055
▁골짜기 -17056
▁된다며 -17057
▁Come -17058
썰트 -17059
임수 -17060
▁고안 -17061
▁어썰트 -17062
넌트 -17063
하늘 -17064
▁성원 -17065
▁유승민 -17066
▁싫어한다 -17067
▁러스트 -17068
▁김한 -17069
▁EXTREME -17070
ONG -17071
▁again -17072
▁다다 -17073
▁슈리 -17074
▁충원 -17075
▁나주 -17076
이즈미 -17077
▁애니메이터 -17078
▁노획 -17079
▁태후 -17080
전함 -17081
▁힘내 -17082
▁줄리아 -17083
▁예루살렘 -17084
▁벌일 -17085
▁설진 -17086
▁양지 -17087
▁오보 -17088
▁악영향 -17089
▁스테이크 -17090
▁악평 -17091
▁투수진 -17092
▁애니플러스 -17093
▁고철 -17094
▁곧장 -17095
▁한복 -17096
▁아르타 -17097
▁깨진 -17098
▁이달 -17099
▁필적 -17100
▁Club -17101
lo -17102
나시 -17103
▁KE -17104
idd -17105
▁레코 -17106
▁북서 -17107
▁싱크로 -17108
▁앤드류 -17109
▁깍 -17110
▁잖아요 -17111
ino -17112
▁모자란 -17113
▁급여 -17114
▁성시 -17115
erg -17116
▁조승 -17117
▁화가 -17118
▁만우절 -17119
▁진전 -17120
▁노홍철 -17121
사람 -17122
▁겉모습 -17123
▁나왔었 -17124
▁쓴다고 -17125
▁이메일 -17126
▁식별 -17127
▁실탄 -17128
▁전패 -17129
▁포상 -17130
▁대구경 -17131
▁파주 -17132
▁편집자 -17133
▁MIX -17134
▁다마 -17135
▁레이카 -17136
일기 -17137
▁명확히 -17138
▁hp -17139
▁순례 -17140
▁파탄 -17141
▁내걸 -17142
▁둔기 -17143
▁소프 -17144
▁스맥 -17145
▁블레 -17146
▁스맥다운 -17147
▁린치 -17148
▁백병 -17149
▁황소 -17150
▁never -17151
▁류우 -17152
▁수퍼 -17153
▁Cry -17154
▁잘생긴 -17155
▁코러스 -17156
▁레전더리 -17157
▁적과 -17158
▁항쟁 -17159
ya -17160
▁알코올 -17161
▁에노 -17162
▁오승 -17163
▁진기 -17164
▁김종국 -17165
▁스미레 -17166
▁레볼루션 -17167
▁수산 -17168
▁폰트 -17169
베르크 -17170
▁차우 -17171
aker -17172
▁붙인다 -17173
▁그분 -17174
▁재차 -17175
▁성희롱 -17176
▁개칭 -17177
▁세카 -17178
▁어부 -17179
▁참모총장 -17180
▁블랑 -17181
▁성취 -17182
▁미완성 -17183
▁본거지 -17184
▁멩 -17185
▁유원 -17186
▁절감 -17187
▁안장 -17188
▁퍼플 -17189
▁슬로건 -17190
▁교목 -17191
▁질려 -17192
▁시어터 -17193
MC -17194
▁귤 -17195
▁SMG -17196
▁미네랄 -17197
▁성소 -17198
▁강서구 -17199
▁인원수 -17200
▁xx -17201
▁론가 -17202
▁WHIP -17203
▁heart -17204
▁음력 -17205
▁이바 -17206
▁이장 -17207
▁라이덴 -17208
태우 -17209
▁갈릴 -17210
이라 -17211
▁마우 -17212
▁증표 -17213
▁틈새 -17214
공주 -17215
▁제명 -17216
▁티격 -17217
▁CIA -17218
▁독도 -17219
▁밧줄 -17220
▁치과 -17221
▁악세사리 -17222
▁환원 -17223
▁어휘 -17224
▁깃든 -17225
▁동탄 -17226
▁루시안 -17227
▁벳 -17228
▁거머 -17229
회의 -17230
▁KA -17231
▁카오 -17232
▁has -17233
▁신드 -17234
▁정시 -17235
▁뻐 -17236
▁머독 -17237
BY -17238
▁겨누 -17239
▁관용 -17240
▁이에야스 -17241
▁밤중 -17242
▁신빙 -17243
▁이탈리아어 -17244
▁Ah -17245
▁쇼코 -17246
▁수당 -17247
▁실감 -17248
▁동결 -17249
▁설문 -17250
▁온건 -17251
▁하남 -17252
▁격변 -17253
▁거든요 -17254
관계 -17255
▁미주 -17256
▁동남아 -17257
▁해낸다 -17258
▁di -17259
▁시정 -17260
▁지상군 -17261
▁수렴 -17262
▁윤종신 -17263
▁무로 -17264
▁호문 -17265
▁은혼 -17266
▁기보단 -17267
HN -17268
cy -17269
▁전한 -17270
▁쿄스케 -17271
▁쁘 -17272
▁챙겼 -17273
▁눈보라 -17274
▁마사토 -17275
▁개종 -17276
▁아린 -17277
▁끌어당 -17278
열차 -17279
르슈 -17280
▁bb -17281
▁경대 -17282
▁몰입 -17283
▁채무 -17284
▁최연 -17285
▁수사관 -17286
자치단체 -17287
▁only -17288
▁에너 -17289
▁일루 -17290
▁데니스 -17291
▁순차 -17292
▁평이 -17293
▁고아원 -17294
NG -17295
일본 -17296
▁Will -17297
▁민심 -17298
anger -17299
▁PH -17300
▁납품 -17301
▁세련 -17302
▁빨아들 -17303
▁뜬금없 -17304
▁간첩 -17305
▁유부 -17306
▁조짐 -17307
▁NORM -17308
▁요지 -17309
▁\] -17310
▁매입 -17311
▁싸인 -17312
▁옴니 -17313
▁투항 -17314
▁해설자 -17315
▁1919 -17316
▁페미니스트 -17317
▁볶음 -17318
▁사대 -17319
▁올인 -17320
▁카프 -17321
▁동그 -17322
▁다이노 -17323
전쟁 -17324
▁카모 -17325
▁콘테스트 -17326
▁유키노 -17327
▁Girls -17328
▁개리 -17329
▁길러 -17330
▁뻔뻔 -17331
▁브로드 -17332
▁우크 -17333
▁체이서 -17334
▁화전 -17335
▁살아온 -17336
OUR -17337
▁떠올랐 -17338
▁전쟁터 -17339
▁수료 -17340
▁차인 -17341
▁컨퍼런스 -17342
▁우크라이나 -17343
▁각별 -17344
▁자음 -17345
▁전황 -17346
▁용호 -17347
▁우대 -17348
▁마이티 -17349
▁MY -17350
▁외환 -17351
▁차크라 -17352
▁XC -17353
▁연하 -17354
▁김종민 -17355
▁최하위 -17356
ORA -17357
▁게재 -17358
▁열광 -17359
▁복수심 -17360
쩌둥 -17361
▁임재 -17362
▁마오쩌둥 -17363
▁골라서 -17364
▁멈출 -17365
▁메트 -17366
▁미코 -17367
▁낮춰 -17368
▁포커 -17369
86 -17370
거렸 -17371
▁체르 -17372
전대 -17373
▁우선시 -17374
▁트롤링 -17375
ument -17376
▁음악가 -17377
onder -17378
메리카 -17379
▁NORMAL -17380
▁뿌요 -17381
▁포메이션 -17382
▁부전 -17383
▁페이퍼 -17384
▁인테리어 -17385
▁라파엘 -17386
▁서큐버스 -17387
▁천진 -17388
▁첨부 -17389
▁here -17390
▁켐 -17391
푸스 -17392
▁에이미 -17393
▁제후 -17394
▁스턴트 -17395
▁월등히 -17396
▁프렌드 -17397
▁가신 -17398
▁해인 -17399
▁성공회 -17400
▁RB -17401
▁자백 -17402
▁정근 -17403
▁타쿠야 -17404
▁뽐내 -17405
▁시술 -17406
▁짝퉁 -17407
폴리스 -17408
▁난쟁이 -17409
▁배반 -17410
팔로 -17411
▁액수 -17412
▁망가진 -17413
▁에라 -17414
▁Sol -17415
▁Great -17416
▁스커 -17417
▁활력 -17418
▁아이젠 -17419
▁후지와라 -17420
불리 -17421
▁여중 -17422
▁연장전 -17423
▁Best -17424
▁소대장 -17425
▁알라딘 -17426
▁꺼져 -17427
▁잠자 -17428
ball -17429
▁문과 -17430
▁수년 -17431
▁초심 -17432
▁한판 -17433
▁보크 -17434
▁MUS -17435
▁부상자 -17436
▁비서관 -17437
▁사드 -17438
▁우의 -17439
▁EXO -17440
▁장대 -17441
▁정했 -17442
▁궤멸 -17443
▁연마 -17444
▁SEED -17445
▁개전 -17446
▁박차 -17447
▁피노 -17448
▁능하 -17449
▁굴림 -17450
▁나츠메 -17451
▁시끄럽 -17452
▁연화 -17453
디우스 -17454
▁미식축구 -17455
osh -17456
▁제네레이션 -17457
샤인 -17458
▁비터 -17459
▁악연 -17460
▁증강 -17461
오버 -17462
▁남산 -17463
▁페트 -17464
▁한눈 -17465
겨운 -17466
▁북동 -17467
▁시미즈 -17468
▁옥타브 -17469
▁몰아붙이 -17470
▁억양 -17471
▁철혈 -17472
▁세이야 -17473
▁사주 -17474
▁낙서 -17475
▁스팟 -17476
▁호화 -17477
▁과열 -17478
▁환산 -17479
▁217 -17480
▁Net -17481
UD -17482
▁올리브 -17483
▁다듬 -17484
▁데미안 -17485
▁스러움 -17486
▁스콜피온 -17487
▁Ind -17488
▁ㅂ -17489
▁OM -17490
▁업자 -17491
▁달린다 -17492
▁올라서 -17493
▁패하 -17494
▁이동기 -17495
▁Dest -17496
▁낯선 -17497
▁슬라이더 -17498
▁뽑혔 -17499
▁내용물 -17500
▁1911 -17501
▁Little -17502
월드 -17503
▁물류 -17504
▁주부 -17505
▁찍히 -17506
▁초전 -17507
▁추기 -17508
▁미스테리 -17509
▁교원 -17510
▁소나무 -17511
세포 -17512
▁부적절 -17513
▁플랜트 -17514
▁패권 -17515
light -17516
▁산전 -17517
▁카니발 -17518
▁레닌 -17519
▁미술관 -17520
▁오컬 -17521
▁이보 -17522
▁발령 -17523
▁str -17524
▁메모리얼 -17525
▁낭만 -17526
니컬 -17527
▁검거 -17528
▁우여 -17529
▁전곡 -17530
▁해밀 -17531
▁red -17532
▁할지라도 -17533
▁gu -17534
▁정선 -17535
▁초라 -17536
티티 -17537
▁로어 -17538
▁은빛 -17539
장치 -17540
▁독단 -17541
▁서프 -17542
▁클러치 -17543
▁오자 -17544
▁고참 -17545
▁딸리 -17546
▁'~ -17547
▁정승 -17548
▁라이엇 -17549
▁KN -17550
▁대기실 -17551
▁베이커 -17552
▁소품 -17553
▁오도 -17554
▁해온 -17555
▁부록 -17556
▁귀한 -17557
▁생리 -17558
▁다지 -17559
▁브룩 -17560
▁폐업 -17561
▁통찰 -17562
▁우치하 -17563
▁스러웠 -17564
▁하노 -17565
▁허약 -17566
소년단 -17567
▁어떡 -17568
▁질리 -17569
▁음료수 -17570
▁교명 -17571
▁나성 -17572
▁미움 -17573
▁러시아군 -17574
▁다량 -17575
▁약수 -17576
▁지탱 -17577
▁Take -17578
▁노노 -17579
▁228 -17580
▁괴이 -17581
▁냉혹 -17582
▁변모 -17583
▁픽처 -17584
▁커져 -17585
▁거쳐서 -17586
와르 -17587
▁미하일 -17588
HC -17589
▁내쫓 -17590
▁아라시 -17591
데라 -17592
▁소셜 -17593
▁앵글 -17594
▁정민 -17595
▁맹수 -17596
▁let -17597
▁야나기 -17598
▁상반 -17599
▁재상 -17600
▁BMW -17601
▁나아졌 -17602
ANCED -17603
▁기교 -17604
▁투덜 -17605
▁서태지 -17606
▁ad -17607
▁체류 -17608
▁조선소 -17609
▁오아시스 -17610
▁FO -17611
▁골수 -17612
▁Mix -17613
▁카즈미 -17614
▁크류 -17615
▁화합 -17616
▁는커녕 -17617
▁Single -17618
▁뮐 -17619
eek -17620
▁액스 -17621
▁GPS -17622
▁세바스 -17623
▁고드 -17624
▁010 -17625
▁야구부 -17626
▁남아프리카 -17627
세움 -17628
▁예민 -17629
▁유창 -17630
ASY -17631
▁가둬 -17632
▁Sam -17633
▁나리타 -17634
▁Inv -17635
▁게르만 -17636
▁래빗 -17637
▁무트 -17638
▁로켓단 -17639
▁익산 -17640
▁환장 -17641
▁NFL -17642
▁승낙 -17643
▁가야 -17644
▁드미 -17645
▁오컬트 -17646
▁야요 -17647
▁정국 -17648
▁형벌 -17649
▁야구단 -17650
브론 -17651
▁강정 -17652
▁없음 -17653
▁피파 -17654
▁영국인 -17655
▁내레이션 -17656
▁세터 -17657
▁저축 -17658
▁마스터즈 -17659
▁티르 -17660
▁폐인 -17661
▁하계 -17662
▁Ult -17663
▁헌트 -17664
▁광란 -17665
▁어르 -17666
▁출입구 -17667
▁301 -17668
▁CGV -17669
▁백두 -17670
▁특색 -17671
▁Aut -17672
IO -17673
비지 -17674
서리 -17675
▁계신 -17676
▁의거 -17677
▁둘째치 -17678
▁타카히로 -17679
▁승하 -17680
▁요령 -17681
▁촉진 -17682
▁뉴타입 -17683
ena -17684
▁빌헬름 -17685
▁페라리 -17686
94 -17687
▁프레데터 -17688
시장 -17689
▁맡겼 -17690
▁마방 -17691
▁사오 -17692
lex -17693
▁신천 -17694
▁퍼졌 -17695
▁방탄소년단 -17696
▁반주 -17697
▁소홀 -17698
▁집요 -17699
▁YG -17700
▁이트 -17701
▁파기 -17702
▁는다며 -17703
uture -17704
▁우디 -17705
▁타카오 -17706
▁잠겨 -17707
▁밀가루 -17708
▁유니버 -17709
▁호위함 -17710
▁이룰 -17711
▁담원 -17712
▁내려서 -17713
▁수차례 -17714
▁하야테 -17715
▁껌 -17716
▁252 -17717
▁퍼블 -17718
▁깨졌 -17719
▁케네 -17720
▁나아지 -17721
▁재보 -17722
▁토드 -17723
▁라다 -17724
▁하즈 -17725
▁EPL -17726
▁서유럽 -17727
▁니르 -17728
▁하로 -17729
각형 -17730
▁거창 -17731
▁공직 -17732
▁슬프 -17733
▁촉구 -17734
▁초계 -17735
▁폭언 -17736
▁백종 -17737
▁항성 -17738
▁속임수 -17739
▁aquarius -17740
▁지효 -17741
▁통솔력 -17742
모트 -17743
▁얼룩 -17744
▁아틀란 -17745
▁헤이세이 -17746
교사 -17747
▁교제 -17748
▁그딴 -17749
▁츠네 -17750
▁대성공 -17751
▁버금가 -17752
▁Real -17753
▁돌려서 -17754
▁알프레드 -17755
▁녹스 -17756
덱스 -17757
▁메커 -17758
▁광화문 -17759
▁얏 -17760
▁별거 -17761
▁처방 -17762
▁스트림 -17763
▁한국식 -17764
▁여차 -17765
▁사이먼 -17766
▁ADVANCED -17767
▁재발 -17768
▁뜸 -17769
▁뇨 -17770
▁mA -17771
곡절 -17772
대왕 -17773
▁멜리 -17774
▁사카이 -17775
▁원치 -17776
ital -17777
▁512 -17778
▁어쩐지 -17779
▁포구 -17780
▁우여곡절 -17781
▁|[ -17782
▁왕성 -17783
▁DSP -17784
▁Dec -17785
▁Storm -17786
▁스냅드래곤 -17787
98 -17788
▁멘토 -17789
▁파나 -17790
▁코미디언 -17791
▁견뎌 -17792
▁카르타 -17793
▁2022 -17794
▁느려서 -17795
▁받아들인 -17796
▁섬뜩 -17797
▁제때 -17798
▁최장 -17799
▁하원 -17800
세우스 -17801
▁로젠 -17802
▁문관 -17803
▁아날 -17804
▁나오미 -17805
▁커진다 -17806
니케이션 -17807
▁스케이트 -17808
▁둥글 -17809
▁학파 -17810
▁저상버스 -17811
ano -17812
▁선가 -17813
▁정관 -17814
▁야가미 -17815
네즈 -17816
▁김시 -17817
▁아카이브 -17818
레오 -17819
▁커뮤니케이션 -17820
▁꼬박 -17821
▁횡령 -17822
▁틀림없 -17823
▁프란츠 -17824
▁텐트 -17825
▁any -17826
▁알아차리 -17827
▁츳코 -17828
▁운동가 -17829
▁윤석민 -17830
▁더해 -17831
▁손길 -17832
▁급속도 -17833
박혀 -17834
▁닛산 -17835
▁도넛 -17836
▁브록 -17837
▁엿볼 -17838
▁Med -17839
▁켓 -17840
▁가즈 -17841
▁강급 -17842
▁신승 -17843
▁절도 -17844
▁가리킨다 -17845
aid -17846
▁쇼우 -17847
▁Def -17848
▁아쉬웠 -17849
▁Gun -17850
▁야요이 -17851
▁명지 -17852
▁샤르 -17853
▁스탬 -17854
성어 -17855
소연 -17856
▁다람 -17857
▁사춘 -17858
▁차고 -17859
조림 -17860
▁거침 -17861
▁등용 -17862
▁지나간 -17863
공학 -17864
▁htm -17865
▁거액 -17866
▁아토 -17867
▁거느리 -17868
ude -17869
▁발하 -17870
▁선샤인 -17871
▁정찰기 -17872
▁라티 -17873
▁QP -17874
▁매료 -17875
▁경관 -17876
▁만신 -17877
▁알려준 -17878
▁트렌드 -17879
▁포식자 -17880
▁youtu -17881
▁핍 -17882
소타 -17883
▁정몽 -17884
▁착공 -17885
경민 -17886
▁돌변 -17887
▁자릿 -17888
▁when -17889
▁받아들인다 -17890
▁관습 -17891
▁산출 -17892
▁베토벤 -17893
▁정착지 -17894
▁해봐도 -17895
▁어울린다 -17896
▁애플리케이션 -17897
▁HR -17898
▁youtube -17899
▁ER -17900
▁요가 -17901
▁초구 -17902
▁Hero -17903
▁부설 -17904
▁Zero -17905
▁클럭 -17906
▁Rad -17907
▁샌드위치 -17908
UG -17909
마사 -17910
▁보그 -17911
▁취할 -17912
65 -17913
apan -17914
▁미네소타 -17915
어먹 -17916
unt -17917
▁크래시 -17918
▁강해진다 -17919
▁사하 -17920
▁공안 -17921
▁오거 -17922
▁히다 -17923
▁찾아갔 -17924
▁데이지 -17925
▁피고인 -17926
▁오정 -17927
▁정주 -17928
노트 -17929
부리 -17930
▁시급 -17931
ning -17932
32 -17933
▁추격전 -17934
▁재탕 -17935
▁스러울 -17936
▁루팅 -17937
▁압승 -17938
▁사이비 -17939
▁스프레이 -17940
▁보이즈 -17941
▁프리킥 -17942
▁EXTRA -17943
▁엄연 -17944
리스크 -17945
▁송곳니 -17946
▁램지 -17947
▁시놉 -17948
▁아슈 -17949
▁Cal -17950
DDR -17951
▁급증 -17952
▁암석 -17953
▁은색 -17954
▁키시 -17955
ours -17956
▁대장간 -17957
▁툭하면 -17958
arm -17959
ett -17960
ler -17961
▁은신처 -17962
ather -17963
▁크로스오버 -17964
▁레터 -17965
병기 -17966
▁머물렀 -17967
▁Warhammer -17968
폴트 -17969
▁묻힌 -17970
▁태백 -17971
▁풀이 -17972
▁동맹군 -17973
어야 -17974
▁대련 -17975
▁블룸 -17976
▁390 -17977
▁보리스 -17978
▁정명훈 -17979
러져 -17980
unk -17981
▁밝혀져 -17982
▁콴 -17983
▁냅다 -17984
▁이여 -17985
▁다채 -17986
▁탐험가 -17987
▁자습 -17988
▁시놉시스 -17989
▁빤 -17990
▁백악 -17991
▁227 -17992
▁1934 -17993
▁Ry -17994
▁총점 -17995
▁롱주 -17996
▁예하 -17997
▁Ag -17998
▁만장 -17999
▁멱살 -18000
▁Park -18001
▁예거 -18002
▁붙여진 -18003
▁표준어 -18004
▁투영 -18005
레마 -18006
▁우등 -18007
▁합숙 -18008
▁평하 -18009
▁숙제 -18010
▁주름 -18011
▁용납 -18012
▁경부선 -18013
▁프리퀄 -18014
▁비밀리 -18015
▁Sweet -18016
▁분양 -18017
▁인삼 -18018
▁추운 -18019
▁!!!! -18020
lection -18021
▁신노스케 -18022
BE -18023
▁기신 -18024
▁오현 -18025
▁웍스 -18026
▁치요 -18027
▁사춘기 -18028
irect -18029
▁나크 -18030
▁실컷 -18031
▁뜻밖 -18032
▁조슈아 -18033
▁주변인 -18034
▁Mbps -18035
▁시부야 -18036
une -18037
▁BLACK -18038
▁을시 -18039
▁정보원 -18040
▁노보 -18041
▁백웅 -18042
▁윤영 -18043
▁파비 -18044
▁휴지 -18045
▁John -18046
▁반쪽 -18047
▁위임 -18048
▁파이팅 -18049
▁아틀란티스 -18050
▁사칭 -18051
▁서북 -18052
▁자객 -18053
▁쿠보 -18054
▁홍련 -18055
▁최민 -18056
▁내려간 -18057
워진 -18058
▁난도 -18059
▁포섭 -18060
▁보좌관 -18061
▁연막탄 -18062
ouble -18063
살이 -18064
▁교가 -18065
▁나설 -18066
▁세균 -18067
▁심복 -18068
ords -18069
▁미시마 -18070
▁op -18071
▁안즈 -18072
▁우터 -18073
▁날아갔 -18074
▁아랍어 -18075
▁폄 -18076
나타 -18077
▁공적 -18078
▁유상 -18079
▁Hel -18080
▁달했 -18081
▁명심 -18082
ople -18083
▁홍수 -18084
▁동이 -18085
▁계약서 -18086
▁== -18087
▁당겨 -18088
▁리비 -18089
▁영수 -18090
▁대지진 -18091
▁마사히로 -18092
▁몽환 -18093
▁아오키 -18094
▁기다려야 -18095
▁주재 -18096
▁Say -18097
▁min -18098
로리 -18099
숭아 -18100
▁달려드 -18101
▁정부군 -18102
▁젓 -18103
▁익힌 -18104
▁쿠퍼 -18105
▁샤이니 -18106
▁짓거리 -18107
▁Space -18108
▁자물 -18109
▁햐 -18110
▁Gal -18111
▁양방향 -18112
▁레이브 -18113
▁페가수스 -18114
▁보름 -18115
▁권하 -18116
▁진명 -18117
사노 -18118
▁토치 -18119
ames -18120
▁밴쿠버 -18121
▁이리스 -18122
▁린드 -18123
▁재기 -18124
▁에디터 -18125
▁중대장 -18126
uct -18127
▁구스 -18128
▁낙사 -18129
▁용족 -18130
▁태어날 -18131
▁오소 -18132
▁죽임 -18133
▁수송기 -18134
못해 -18135
▁개머리 -18136
▁연대기 -18137
▁은근슬쩍 -18138
▁경상도 -18139
▁노리코 -18140
▁자물쇠 -18141
▁컷인 -18142
▁231 -18143
▁장민 -18144
▁판명 -18145
▁효용 -18146
thing -18147
▁하가 -18148
▁훔친 -18149
▁옅 -18150
▁구스타 -18151
uff -18152
▁제련 -18153
▁흡입 -18154
▁쿠루미 -18155
▁웬디 -18156
▁Feel -18157
▁가할 -18158
▁여긴다 -18159
br -18160
▁꺼려 -18161
▁달릴 -18162
▁가르시아 -18163
▁PG -18164
▁료코 -18165
▁사념 -18166
▁유족 -18167
▁베가스 -18168
▁need -18169
▁교활 -18170
▁아와 -18171
▁코스모스 -18172
▁근방 -18173
▁오라클 -18174
▁페드로 -18175
▁비견 -18176
▁서바이버 -18177
▁고영 -18178
▁때렸 -18179
oj -18180
▁흘렸 -18181
KO -18182
▁관람객 -18183
립스 -18184
▁간직 -18185
▁약품 -18186
▁요하 -18187
▁옥수수 -18188
▁즐거움 -18189
▁Je -18190
▁코타 -18191
oe -18192
▁브라우저 -18193
개골 -18194
▁안톤 -18195
▁피했 -18196
▁거슬러 -18197
▁LEVEL -18198
TER -18199
▁이부키 -18200
▁코스모 -18201
▁HT -18202
▁모였 -18203
▁이그 -18204
▁방주 -18205
거스 -18206
▁함경 -18207
▁근로자 -18208
▁끈질기 -18209
▁피쉬 -18210
▁금단 -18211
▁법령 -18212
END -18213
vil -18214
▁두각 -18215
▁였었 -18216
▁집게 -18217
▁케도 -18218
▁설립자 -18219
▁나가사키 -18220
yr -18221
▁먹혀 -18222
▁씌우 -18223
▁텝 -18224
▁덮치 -18225
▁경멸 -18226
▁타타 -18227
▁견고 -18228
▁도봉 -18229
▁최준 -18230
교도 -18231
▁출진 -18232
▁Kim -18233
후미 -18234
▁마쓰 -18235
▁햄튼 -18236
▁들어도 -18237
▁투지 -18238
▁라몬 -18239
▁주점 -18240
▁앙쥬 -18241
▁mAh -18242
▁손발 -18243
▁꼬맹이 -18244
▁소양 -18245
▁지출 -18246
▁남녀공학 -18247
▁에니 -18248
비슷 -18249
▁잭스 -18250
▁비우 -18251
▁오사무 -18252
▁나카지마 -18253
▁트리니티 -18254
▁바카 -18255
▁Sport -18256
▁대첩 -18257
▁사루 -18258
▁신스 -18259
▁조공 -18260
▁청문회 -18261
▁협의회 -18262
▁똑바로 -18263
▁병합 -18264
▁모리스 -18265
▁일간 -18266
▁피통 -18267
리아스 -18268
나우 -18269
▁JYP -18270
▁좋아했 -18271
▁구식 -18272
▁외친다 -18273
▁식구 -18274
자스 -18275
▁부착물 -18276
▁them -18277
▁막스 -18278
▁아누 -18279
▁조련 -18280
분투 -18281
▁로더 -18282
▁Ret -18283
▁치솟 -18284
▁카나코 -18285
▁some -18286
▁흑발 -18287
▁크레인 -18288
▁조동 -18289
▁형주 -18290
▁레베카 -18291
▁헤어진 -18292
▁변기 -18293
로그램 -18294
▁지원군 -18295
곡리 -18296
태격 -18297
▁티격태격 -18298
▁명계 -18299
▁를르슈 -18300
▁마즈 -18301
▁백스 -18302
▁Dem -18303
▁여제 -18304
▁골절 -18305
▁겸임 -18306
▁딸려 -18307
▁사서 -18308
▁평면 -18309
▁성물 -18310
▁지네 -18311
▁GTX -18312
▁Sou -18313
▁카로 -18314
▁스타킹 -18315
설수 -18316
▁데인 -18317
▁뚫려 -18318
▁비화 -18319
▁쌓았 -18320
▁코아 -18321
▁하강 -18322
▁후사 -18323
▁나이지 -18324
▁어려서 -18325
▁나타낸다 -18326
▁나이지리아 -18327
▁서남 -18328
▁동률 -18329
▁셔먼 -18330
▁컬트 -18331
▁톰슨 -18332
▁박살난 -18333
▁Kill -18334
▁Tour -18335
노프 -18336
▁규율 -18337
▁덴마 -18338
▁발열 -18339
▁끌어안 -18340
▁동남아시아 -18341
▁닳 -18342
ODE -18343
▁남원 -18344
▁아로 -18345
▁버팔로 -18346
▁커진 -18347
▁프랑켄슈타인 -18348
▁전광판 -18349
▁껴안 -18350
▁부포 -18351
▁어정 -18352
▁위아래 -18353
▁견습 -18354
▁도가 -18355
▁개머리판 -18356
뚜기 -18357
▁달려오 -18358
▁횃 -18359
▁로밍 -18360
▁역마 -18361
arth -18362
▁GC -18363
▁싸워서 -18364
▁탤런트 -18365
부수 -18366
▁가했 -18367
▁초밥 -18368
▁430 -18369
▁더듬 -18370
▁LOL -18371
▁근육질 -18372
동물 -18373
▁매튜 -18374
▁포커스 -18375
비야 -18376
린트 -18377
▁만년 -18378
▁입점 -18379
▁마일리 -18380
▁부대장 -18381
▁짭 -18382
제트 -18383
메이트 -18384
▁원가 -18385
▁포이즌 -18386
▁라카 -18387
▁236 -18388
▁방아 -18389
▁엘사 -18390
▁참치 -18391
aser -18392
▁간다면 -18393
▁지중해 -18394
려야 -18395
▁KBL -18396
▁치아키 -18397
onna -18398
▁르블랑 -18399
▁노동조합 -18400
▁철구 -18401
▁정근우 -18402
▁아스가르드 -18403
ner -18404
▁구한다 -18405
도어 -18406
▁놀러 -18407
▁떨치 -18408
▁스메 -18409
▁팔다리 -18410
▁사절 -18411
▁요요 -18412
▁테디 -18413
▁파병 -18414
▁Orig -18415
▁인턴 -18416
▁타깃 -18417
▁가까울 -18418
▁이북 -18419
▁하피 -18420
▁플리트 -18421
▁보여진다 -18422
▁마커스 -18423
▁스틸러스 -18424
슬로 -18425
▁격납고 -18426
▁치어리 -18427
▁마로 -18428
▁한인 -18429
▁새겨져 -18430
▁간과 -18431
▁her -18432
▁고야 -18433
▁놓이 -18434
ways -18435
▁기대감 -18436
▁넘어선 -18437
▁연주자 -18438
▁Beat -18439
▁목장 -18440
▁미니건 -18441
▁이라든지 -18442
▁엑스칼리버 -18443
▁열화 -18444
▁선보인다 -18445
슐리 -18446
▁이윤열 -18447
▁감찰 -18448
▁군세 -18449
▁포츈 -18450
▁방탄복 -18451
▁부순 -18452
▁WORLD -18453
▁드럼매니아 -18454
마니 -18455
▁이규 -18456
고스 -18457
▁매크로 -18458
▁엘라 -18459
▁원정대 -18460
▁싯 -18461
▁아브 -18462
▁좁혀 -18463
▁사일런트 -18464
▁귀여워 -18465
▁파라오 -18466
▁애써 -18467
▁표류 -18468
▁누른 -18469
▁상병 -18470
▁265 -18471
▁옐로우 -18472
▁도왔 -18473
▁일파 -18474
▁질럿 -18475
▁NAS -18476
▁다비드 -18477
▁주유소 -18478
▁일전 -18479
ormal -18480
▁뫼비우스 -18481
▁올레 -18482
▁장문 -18483
▁Luc -18484
팽이 -18485
▁<< -18486
▁내신 -18487
▁아디 -18488
▁메커니즘 -18489
▁놓친 -18490
▁원사 -18491
▁하르트 -18492
▁구실 -18493
▁복식 -18494
iful -18495
▁블러디 -18496
상부 -18497
▁김건 -18498
▁씌워 -18499
▁지킨 -18500
▁타오 -18501
▁세이프 -18502
▁PERF -18503
▁숙이 -18504
▁견딜 -18505
▁경기관총 -18506
▁Story -18507
▁통통 -18508
▁마츠다 -18509
UND -18510
▁거처 -18511
▁하네 -18512
▁아날로그 -18513
▁로아 -18514
▁위안부 -18515
▁이리야 -18516
▁3500 -18517
▁서슴 -18518
▁지석 -18519
구멍 -18520
▁신야 -18521
▁항소 -18522
▁넥스트 -18523
배기 -18524
▁수트 -18525
▁오레 -18526
▁MAD -18527
▁살아왔 -18528
▁스트롱 -18529
▁밀리터리 -18530
44 -18531
▁티베트 -18532
▁When -18533
▁쿡 -18534
▁루가 -18535
▁저술 -18536
문화 -18537
▁노미 -18538
▁남겨진 -18539
▁바바리 -18540
▁앞머리 -18541
리역 -18542
▁빡세 -18543
▁위드 -18544
▁공평 -18545
▁막시 -18546
▁she -18547
▁곧이어 -18548
▁편찬 -18549
▁Tech -18550
ANG -18551
▁백과 -18552
▁약사 -18553
▁기울이 -18554
▁내세운 -18555
▁사이킥 -18556
뉴스 -18557
떨어진 -18558
▁공연장 -18559
▁피스톨 -18560
▁놓쳤 -18561
▁폭죽 -18562
▁강민호 -18563
천리 -18564
▁순전히 -18565
러미 -18566
▁한미 -18567
▁WWF -18568
▁리비아 -18569
▁쑨 -18570
입구역 -18571
▁사우디 -18572
▁한없이 -18573
▁선율 -18574
▁정설 -18575
▁족족 -18576
▁출국 -18577
주니어 -18578
▁케네디 -18579
▁개관 -18580
레스타인 -18581
▁땅굴 -18582
▁수첩 -18583
▁조라 -18584
▁Album -18585
fl -18586
▁이모티콘 -18587
▁레티 -18588
ations -18589
▁재결 -18590
▁DIO -18591
▁희한 -18592
▁시속 -18593
▁참수 -18594
▁불굴 -18595
▁사학 -18596
▁Who -18597
▁마레 -18598
▁범하 -18599
▁외화 -18600
▁훌쩍 -18601
▁팔아먹 -18602
▁갈비 -18603
▁상디 -18604
▁암묵 -18605
▁이면 -18606
▁돌려받 -18607
▁소리치 -18608
▁얼른 -18609
▁대나무 -18610
▁코코로 -18611
▁풀타임 -18612
▁김장 -18613
▁세인 -18614
▁익혀 -18615
포동 -18616
▁급감 -18617
▁라르 -18618
▁로데 -18619
▁GE -18620
▁루디 -18621
▁테드 -18622
▁정준하 -18623
▁기껏해야 -18624
▁샛 -18625
ait -18626
▁실기 -18627
▁조부 -18628
▁Step -18629
▁즌 -18630
▁픽처스 -18631
▁마개 -18632
▁가희 -18633
▁아닌지라 -18634
39 -18635
▁볼링 -18636
▁쿠즈 -18637
▁로드리게 -18638
시간 -18639
질러 -18640
프스 -18641
▁뒤이 -18642
▁헤엄 -18643
▁마세요 -18644
▁칼데아 -18645
실록 -18646
▁번쩍 -18647
▁나눈다 -18648
▁잃어버렸 -18649
▁232 -18650
통일 -18651
▁금세 -18652
▁나눠서 -18653
▁부끄러워 -18654
▁다나 -18655
▁art -18656
▁역적 -18657
▁맥크리 -18658
가키 -18659
▁드로이드 -18660
▁다림 -18661
▁맨서 -18662
▁숙적 -18663
▁공구 -18664
▁물결 -18665
▁음파 -18666
▁의병 -18667
▁진중 -18668
▁호루스 -18669
▁깃들 -18670
▁행렬 -18671
▁힛 -18672
▁의약 -18673
▁일괄 -18674
▁전위 -18675
▁다르크 -18676
▁죽여야 -18677
▁두개골 -18678
▁전한다 -18679
▁산산조각 -18680
▁무례 -18681
▁Death -18682
▁노어 -18683
페르노 -18684
▁마성 -18685
▁엽기 -18686
▁육신 -18687
▁sec -18688
▁언뜻 -18689
▁찼 -18690
▁옥스 -18691
▁총애 -18692
▁갔으나 -18693
▁공격대 -18694
▁왕정 -18695
▁원산 -18696
▁투혼 -18697
▁인기가요 -18698
▁인페르노 -18699
▁체하 -18700
▁홍차 -18701
▁쟤 -18702
사무소 -18703
▁세리카 -18704
▁조건부 -18705
▁독살 -18706
예프 -18707
투사 -18708
body -18709
▁찻 -18710
▁괄호 -18711
▁금빛 -18712
▁변속 -18713
▁도맡 -18714
▁푸딩 -18715
▁플롯 -18716
게일 -18717
▁심영 -18718
▁대북 -18719
▁서강 -18720
▁1931 -18721
▁결번 -18722
▁소굴 -18723
사전 -18724
OSS -18725
▁비행장 -18726
▁조성주 -18727
▁about -18728
▁푸시 -18729
▁불륜 -18730
▁노우 -18731
▁흐른 -18732
▁양육 -18733
▁스캇 -18734
▁비타민 -18735
▁사이다 -18736
시즘 -18737
▁뜨거 -18738
▁벨리 -18739
▁여길 -18740
▁가져올 -18741
▁수없이 -18742
▁칭한다 -18743
▁지날수록 -18744
▁가한 -18745
▁넬슨 -18746
▁바빌 -18747
▁뻔한 -18748
▁일컬 -18749
▁천자 -18750
▁이뤄진 -18751
ene -18752
▁대영 -18753
▁부러지 -18754
▁수식어 -18755
▁구가 -18756
▁최승 -18757
▁거둔다 -18758
▁삼켜 -18759
▁뮐러 -18760
▁지마 -18761
▁혼잡 -18762
▁승승장구 -18763
▁팔레스타인 -18764
▁디나 -18765
▁장지 -18766
▁510 -18767
▁퍼레이드 -18768
▁바빠 -18769
▁서경 -18770
▁사이렌 -18771
▁종로구 -18772
▁이불 -18773
▁거너 -18774
▁무마 -18775
▁데려왔 -18776
▁외교관 -18777
▁조각상 -18778
▁취한다 -18779
▁콘스탄티노 -18780
▁매혹 -18781
▁세울 -18782
틀린 -18783
▁남서 -18784
▁안영 -18785
▁착안 -18786
▁포박 -18787
▁Champion -18788
바야시 -18789
37 -18790
uss -18791
▁이크 -18792
▁리더십 -18793
▁1935 -18794
▁쿠토 -18795
▁황녀 -18796
▁SNK -18797
▁양현종 -18798
▁교묘 -18799
▁다던 -18800
▁도면 -18801
▁삼국사기 -18802
▁미끄 -18803
그래피 -18804
rough -18805
▁엘더 -18806
▁에델 -18807
▁첩자 -18808
▁파커 -18809
▁다는데 -18810
▁댁 -18811
스틱 -18812
ume -18813
▁니콜라 -18814
AE -18815
▁기색 -18816
▁족보 -18817
▁질책 -18818
▁케일 -18819
빙글 -18820
▁메기 -18821
▁박원 -18822
▁비방 -18823
▁자결 -18824
▁타츠미 -18825
▁Line -18826
▁래디 -18827
▁철자 -18828
IDE -18829
▁꼼꼼 -18830
▁카툰 -18831
▁Tra -18832
▁1700 -18833
파일 -18834
▁환율 -18835
▁다이어 -18836
▁미츠키 -18837
▁신뢰도 -18838
▁come -18839
마을 -18840
▁닷컴 -18841
▁장발 -18842
▁흑색 -18843
▁캡쳐 -18844
▁클래시 -18845
슬라비아 -18846
lease -18847
▁유고슬라비아 -18848
하임 -18849
▁자하 -18850
▁지으 -18851
▁선량 -18852
▁왼발 -18853
▁이코 -18854
▁LCS -18855
▁토모코 -18856
▁프리티 -18857
▁인가요 -18858
도스 -18859
상스 -18860
▁뭉개 -18861
▁타사 -18862
▁305 -18863
▁나와야 -18864
▁XBOX -18865
▁밀짚 -18866
▁살아갈 -18867
▁워페어 -18868
▁전면전 -18869
▁Du -18870
▁나즈 -18871
▁추축 -18872
▁사고방식 -18873
주곡 -18874
▁존기 -18875
▁탈락자 -18876
▁풀려나 -18877
▁변칙 -18878
듭니다 -18879
▁코만도 -18880
orever -18881
ESS -18882
▁섬머 -18883
▁치뤘 -18884
▁뛰어다니 -18885
욕장 -18886
▁Apple -18887
[...]
