{"version":"1.0","truncation":null,"padding":null,"added_tokens":[{"id":0,"special":true,"content":"[UNK]","single_word":false,"lstrip":false,"rstrip":false,"normalized":false},{"id":1,"special":true,"content":"[CLS]","single_word":false,"lstrip":false,"rstrip":false,"normalized":false},{"id":2,"special":true,"content":"[SEP]","single_word":false,"lstrip":false,"rstrip":false,"normalized":false},{"id":3,"special":true,"content":"[PAD]","single_word":false,"lstrip":false,"rstrip":false,"normalized":false},{"id":4,"special":true,"content":"[MASK]","single_word":false,"lstrip":false,"rstrip":false,"normalized":false}],"normalizer":{"type":"Sequence","normalizers":[{"type":"StripAccents"}]},"pre_tokenizer":{"type":"WhitespaceSplit"},"post_processor":{"type":"TemplateProcessing","single":[{"SpecialToken":{"id":"[CLS]","type_id":0}},{"Sequence":{"id":"A","type_id":0}},{"SpecialToken":{"id":"[SEP]","type_id":0}}],"pair":[{"SpecialToken":{"id":"[CLS]","type_id":0}},{"Sequence":{"id":"A","type_id":0}},{"SpecialToken":{"id":"[SEP]","type_id":0}},{"Sequence":{"id":"B","type_id":1}},{"SpecialToken":{"id":"[SEP]","type_id":1}}],"special_tokens":{"[CLS]":{"id":"[CLS]","ids":[1],"tokens":["[CLS]"]},"[SEP]":{"id":"[SEP]","ids":[2],"tokens":["[SEP]"]}}},"decoder":null,"model":{"type":"WordPiece","unk_token":"[UNK]","continuing_subword_prefix":"##","max_input_chars_per_word":100,"vocab":{"[UNK]":0,"[CLS]":1,"[SEP]":2,"[PAD]":3,"[MASK]":4,"!":5,"\"":6,"#":7,"$":8,"%":9,"&":10,"'":11,"(":12,")":13,"*":14,"+":15,",":16,"-":17,".":18,"/":19,"0":20,"1":21,"2":22,"3":23,"4":24,"5":25,"6":26,"7":27,"8":28,"9":29,":":30,";":31,"<":32,"=":33,">":34,"?":35,"@":36,"A":37,"B":38,"C":39,"D":40,"E":41,"F":42,"G":43,"H":44,"I":45,"J":46,"K":47,"L":48,"M":49,"N":50,"O":51,"P":52,"Q":53,"R":54,"S":55,"T":56,"U":57,"V":58,"W":59,"X":60,"Y":61,"Z":62,"[":63,"\\":64,"]":65,"^":66,"_":67,"`":68,"a":69,"b":70,"c":71,"d":72,"e":73,"f":74,"g":75,"h":76,"i":77,"j":78,"k":79,"l":80,"m":81,"n":82,"o":83,"p":84,"q":85,"r":86,"s":87,"t":88,"u":89,"v":90,"w":91,"x":92,"y":93,"z":94,"{":95,"|":96,"}":97,"~":98,"":99,"ᄀ":100,"ᄁ":101,"ᄂ":102,"ᄃ":103,"ᄄ":104,"ᄅ":105,"ᄆ":106,"ᄇ":107,"ᄈ":108,"ᄉ":109,"ᄊ":110,"ᄋ":111,"ᄌ":112,"ᄍ":113,"ᄎ":114,"ᄏ":115,"ᄐ":116,"ᄑ":117,"ᄒ":118,"ᅡ":119,"ᅢ":120,"ᅣ":121,"ᅤ":122,"ᅥ":123,"ᅦ":124,"ᅧ":125,"ᅨ":126,"ᅩ":127,"ᅪ":128,"ᅫ":129,"ᅬ":130,"ᅭ":131,"ᅮ":132,"ᅯ":133,"ᅰ":134,"ᅱ":135,"ᅲ":136,"ᅳ":137,"ᅴ":138,"ᅵ":139,"ᆨ":140,"ᆩ":141,"ᆪ":142,"ᆫ":143,"ᆬ":144,"ᆭ":145,"ᆮ":146,"ᆯ":147,"ᆰ":148,"ᆱ":149,"ᆲ":150,"ᆳ":151,"ᆴ":152,"ᆵ":153,"ᆶ":154,"ᆷ":155,"ᆸ":156,"ᆹ":157,"ᆺ":158,"ᆻ":159,"ᆼ":160,"ᆽ":161,"ᆾ":162,"ᆿ":163,"ᇀ":164,"ᇁ":165,"ᇂ":166,"⫸":167,"⭧":168,"ㄱ":169,"ㄲ":170,"ㄳ":171,"ㄴ":172,"ㄵ":173,"ㄶ":174,"ㄷ":175,"ㄸ":176,"ㄹ":177,"ㄺ":178,"ㄻ":179,"ㄼ":180,"ㄽ":181,"ㄾ":182,"ㄿ":183,"ㅀ":184,"ㅁ":185,"ㅂ":186,"ㅃ":187,"ㅄ":188,"ㅅ":189,"ㅆ":190,"ㅇ":191,"ㅈ":192,"ㅉ":193,"ㅊ":194,"ㅋ":195,"ㅌ":196,"ㅍ":197,"ㅎ":198,"ㅏ":199,"ㅐ":200,"ㅑ":201,"ㅒ":202,"ㅓ":203,"ㅔ":204,"ㅕ":205,"ㅖ":206,"ㅗ":207,"ㅘ":208,"ㅙ":209,"ㅚ":210,"ㅛ":211,"ㅜ":212,"ㅝ":213,"ㅞ":214,"ㅟ":215,"ㅠ":216,"ㅡ":217,"ㅢ":218,"ㅣ":219,"##ᅮ":220,"##ᄎ":221,"##ᅳ":222,"##a":223,"##t":224,"##e":225,"##r":226,"##i":227,"##l":228,"##y":229,"##0":230,"##6":231,"##7":232,"##4":233,"##9":234,"##1":235,"##2":236,"##g":237,"##o":238,"##ᅦ":239,"##ᄂ":240,"##ᅥ":241,"##ᆯ":242,"##ᄐ":243,"##ᄏ":244,"##ᅵ":245,"##ᆨ":246,"##ᄋ":247,"##ᄅ":248,"##ᅩ":249,"##H":250,"##k":251,"##m":252,"##c":253,"##ᅡ":254,"##ᄉ":255,"##ᆫ":256,"##ᄃ":257,"##5":258,"##ᅬ":259,"##ᄒ":260,"##ᅧ":261,"##ᆼ":262,"##ᄀ":263,"##ᆷ":264,"##n":265,"##d":266,"##h":267,"##ᅴ":268,"##ᄆ":269,"##u":270,"##R":271,"##O":272,"##U":273,"##G":274,"##T":275,"##N":276,"##s":277,"##M":278,"##b":279,"##V":280,"##D":281,"##ᅨ":282,"##ᅢ":283,"##3":284,"##ᄑ":285,"##ᅭ":286,"##E":287,"##L":288,"##A":289,"##S":290,"##8":291,"##j":292,"##f":293,"##ᄌ":294,"##ᆾ":295,"##ᅲ":296,"##B":297,"##w":298,"##ᆻ":299,"##p":300,"##x":301,"##Z":302,"##K":303,"##C":304,"##ᄇ":305,"##q":306,"##X":307,"##ᅱ":308,"##z":309,"##v":310,"##F":311,"##Y":312,"##P":313,"##I":314,"##ᅪ":315,"##ᄁ":316,"##ᅰ":317,"##ᅯ":318,"##ᆸ":319,"##ᆺ":320,"##ᅤ":321,"##W":322,"##ᄍ":323,"##ᇂ":324,"##ᄄ":325,"##ᅫ":326,"##^":327,"##\\":328,"##;":329,"##'":330,"##,":331,"##ᅣ":332,"##?":333,"##.":334,"##ᆹ":335,"##ᆮ":336,"##ᆽ":337,"##J":338,"##ㄹ":339,"##ㅅ":340,"##ㅍ":341,"##ㅁ":342,"##ᄈ":343,"##}":344,"##[":345,"##ᇁ":346,"##ᆱ":347,"##ㄴ":348,"##ㅜ":349,"##ᄊ":350,"##ᆭ":351,"##ᇀ":352,"##ᆳ":353,"##ᆩ":354,"##ᆬ":355,"##ㅡ":356,"##ㅀ":357,"##!":358,"###":359,"##@":360,"##$":361,"##%":362,"##ㅙ":363,"##ㅌ":364,"##ᆵ":365,"##Q":366,"##ㄲ":367,"##ㅘ":368,"##ㅎ":369,"##ㄿ":370,"##ᆿ":371,"##ㅔ":372,"##ㄻ":373,"##-":374,"##{":375,"##ㅏ":376,"##~":377,"##ㄽ":378,"##&":379,"##ᆲ":380,"##_":381,"##+":382,"##ㅈ":383,"##ㅣ":384,"##ㅓ":385,"##=":386,"##|":387,"##\"":388,"##ㅒ":389,"##)":390,"##ㅗ":391,"##ㅄ":392,"##ㄱ":393,"##]":394,"##ㅟ":395,"##ㅐ":396,"##ㄼ":397,"##ㅇ":398,"##ㄳ":399,"##ᆰ":400,"##/":401,"##ᆶ":402,"##ㅝ":403,"##ㅖ":404,"##ㅚ":405,"##>":406,"##ㅢ":407,"##:":408,"##ᆪ":409,"##(":410,"##ㄶ":411,"##ㅛ":412,"##ㄷ":413,"##ㅑ":414,"##ㅕ":415,"##*":416,"##`":417,"##ㅂ":418,"##ㅠ":419,"##ㅋ":420,"##ㄺ":421,"##<":422,"##ᆴ":423,"##ㅆ":424,"##ㄾ":425,"##ㅊ":426,"##ㅞ":427,"##ㄸ":428,"##ㅃ":429,"##ㄵ":430,"##ㅉ":431,"##":432,"⫸ᄋ":433,"이":434,"##ᅳᆫ":435,"⭧ᄋ":436,"##ᅳᆯ":437,"하":438,"##다":439,"##는":440,"⭧ᆫ":441,"⫸에":442,"##ᅡᆫ":443,"##로":444,"##ᅡᆼ":445,"##이":446,"##ᅥᆫ":447,"⭧다":448,"⭧ᄀ":449,"⫸의":450,"##ᅧᆫ":451,"##지":452,"##서":453,"##가":454,"⫸을":455,"⭧어":456,"⭧아":457,"##리":458,"⫸이":459,"##도":460,"⭧는":461,"##ᅧᆼ":462,"⫸ᄅ":463,"##ᅩᆼ":464,"##ᅮᆫ":465,"##ᅡᆯ":466,"⫸를":467,"##시":468,"⫸는":469,"시":470,"⫸가":471,"##ᅥᆼ":472,"##라":473,"⭧고":474,"##스":475,"아":476,"##하":477,"되":478,"##ᅳ로":479,"가":480,"있":481,"지":482,"##ᅮᆯ":483,"그":484,"##ᅩᆨ":485,"⭧었":486,"주":487,"##ᅧᆨ":488,"거":489,"##나":490,"사":491,"⫸에서":492,"⫸은":493,"⫸로":494,"⫸으로":495,"⭧ᆫ다":496,"##기":497,"##ᅥᆨ":498,"⭧았":499,"⫸도":500,"⭧ᄆ":501,"##ᅳᆼ":502,"##자":503,"##어":504,"보":505,"⭧ᆯ":506,"들":507,"어":508,"대":509,"마":510,"##과":511,"자":512,"수":513,"나":514,"##고":515,"기":516,"##ᅢᆼ":517,"⭧지":518,"##ᅮᆨ":519,"##만":520,"##니":521,"##ᅩᆫ":522,"것":523,"##르":524,"##ᅥᆷ":525,"일":526,"다":527,"##드":528,"모":529,"##ᅯᆫ":530,"##ᅦ이":531,"전":532,"⭧기":533,"바":534,"##우":535,"##ᅥᆯ":536,"##사":537,"⭧게":538,"##트":539,"적":540,"⭧라":541,"##치":542,"오":543,"##장":544,"##요":545,"##대":546,"##ᅧᆯ":547,"⫸과":548,"년":549,"⭧면":550,"스":551,"##러":552,"##아":553,"##ᅳᆷ":554,"미":555,"⭧은":556,"정":557,"⫸와":558,"화":559,"##부":560,"##미":561,"##화":562,"조":563,"상":564,"유":565,"##수":566,"20":567,"부":568,"##정":569,"##인":570,"##오":571,"##ᅣᆼ":572,"공":573,"비":574,"##터":575,"##주":576,"때":577,"##상":578,"##전":579,"##히":580,"##ᅢᆨ":581,"위":582,"##마":583,"중":584,"인":585,"##데":586,"경":587,"제":588,"차":589,"⭧으":590,"##국":591,"##게":592,"고":593,"##용":594,"도":595,"##력":596,"##제":597,"한":598,"##키":599,"##ᅯᆯ":600,"소":601,"과":602,"무":603,"##구":604,"##성":605,"노":606,"##신":607,"없":608,"##ᅳᆨ":609,"등":610,"##문":611,"성":612,"세":613,"##야":614,"⭧지만":615,"⭧ᄃ":616,"##면":617,"여":618,"##래":619,"않":620,"##원":621,"월":622,"##격":623,"만":624,"##동":625,"⫸에게":626,"개":627,"##ᅥᆸ":628,"##타":629,"##보":630,"타":631,"⭧며":632,"구":633,"⭧던":634,"⭧여":635,"내":636,"##까":637,"리":638,"##그":639,"201":640,"동":641,"피":642,"##간":643,"장":644,"방":645,"선":646,"##거":647,"연":648,"##비":649,"⫸ᆫ":650,"후":651,"##려":652,"##유":653,"##ᆯ리":654,"영":655,"카":656,"⭧을":657,"말":658,"치":659,"우":660,"신":661,"발":662,"##체":663,"드":664,"당":665,"##ᅦᆫ":666,"요":667,"안":668,"##소":669,"생":670,"버":671,"##작":672,"⫸만":673,"⭧는데":674,"##무":675,"##명":676,"##ᅵᆷ":677,"##며":678,"서":679,"##계":680,"의":681,"추":682,"파":683,"##크":684,"원":685,"포":686,"##일":687,"회":688,"때문":689,"명":690,"##재":691,"19":692,"강":693,"##까지":694,"⫸까지":695,"해":696,"⭧아서":697,"##식":698,"##들":699,"##차":700,"##티":701,"##위":702,"##의":703,"최":704,"##00":705,"문":706,"##당":707,"##ᅦᆯ":708,"##루":709,"##후":710,"크":711,"아니":712,"매":713,"배":714,"##카":715,"데":716,"더":717,"실":718,"같":719,"##음":720,"번":721,"관":722,"와":723,"##선":724,"##한":725,"##교":726,"받":727,"##물":728,"불":729,"##프":730,"⭧라는":731,"##행":732,"호":733,"진":734,"코":735,"##즈":736,"라":737,"##실":738,"단":739,"##바":740,"##능":741,"결":742,"##내":743,"##학":744,"##역":745,"##회":746,"##단":747,"반":748,"⭧자":749,"초":750,"패":751,"많":752,"##공":753,"알":754,"##조":755,"특":756,"##디":757,"나오":758,"##피":759,"⭧다고":760,"##람":761,"로":762,"역":763,"작":764,"##모":765,"##속":766,"##토":767,"야":768,"⭧으며":769,"계":770,"##버":771,"⭧면서":772,"##반":773,"보이":774,"쓰":775,"##레":776,"##점":777,"분":778,"레":779,"##분":780,"남":781,"에":782,"##산":783,"국":784,"⭧라고":785,"그리":786,"그러":787,"##생":788,"경우":789,"10":790,"두":791,"따":792,"##각":793,"##두":794,"##록":795,"처":796,"사용":797,"⭧어서":798,"현":799,"출":800,"##본":801,"##습":802,"##레이":803,"##부터":804,"⭧다는":805,"물":806,"##진":807,"공격":808,"##연":809,"##중":810,"저":811,"##류":812,"이후":813,"##호":814,"##관":815,"캐":816,"예":817,"##태":818,"자신":819,"교":820,"##안":821,"못":822,"학":823,"감":824,"달":825,"통":826,"점":827,"재":828,"##군":829,"##저":830,"또":831,"⭧였":832,"애":833,"편":834,"##민":835,"##런":836,"##세":837,"##른":838,"좋":839,"##영":840,"##노":841,"##름":842,"##코":843,"사람":844,"디":845,"키":846,"##해":847,"입":848,"##급":849,"위하":850,"정도":851,"##금":852,"##경":853,"##ᅮᆷ":854,"대하":855,"##방":856,"##법":857,"##발":858,"메":859,"##적":860,"##종":861,"속":862,"너":863,"트":864,"##브":865,"⫸부터":866,"형":867,"함":868,"설":869,"##업":870,"##통":871,"⫸나":872,"김":873,"##포":874,"군":875,"참":876,"##스트":877,"가능":878,"플":879,"게이":880,"##승":881,"##양":882,"외":883,"평":884,"본":885,"##처":886,"토":887,"시키":888,"##란":889,"##술":890,"##매":891,"다른":892,"종":893,"##파":894,"##준":895,"##료":896,"##테":897,"권":898,"##직":899,"승":900,"12":901,"##건":902,"##와":903,"##녀":904,"프":905,"⭧으나":906,"죽":907,"⫸이나":908,"가지":909,"##심":910,"##션":911,"팀":912,"⫸ᆯ":913,"##론":914,"200":915,"뒤":916,"등장":917,"직":918,"살":919,"##투":920,"⭧는다":921,"##입":922,"아이":923,"⫸보":924,"11":925,"⫸보다":926,"히":927,"##표":928,"그리고":929,"용":930,"판":931,"버리":932,"##어지":933,"확":934,"하나":935,"체":936,"게임":937,"시ᄌ":938,"행":939,"경기":940,"변":941,"##ᅥ나":942,"심":943,"운":944,"돌":945,"##운":946,"..":947,"잘":948,"맞":949,"만들":950,"##개":951,"##랑":952,"##판":953,"##여":954,"못하":955,"박":956,"끄":957,"##약":958,"채":959,"##족":960,"##er":961,"##석":962,"##든":963,"사실":964,"간":965,"활":966,"투":967,"##설":968,"집":969,"##령":970,"시간":971,"##황":972,"##께":973,"##형":974,"##대로":975,"##너":976,"##량":977,"##네":978,"목":979,"##련":980,"양":981,"필":982,"약":983,"건":984,"##출":985,"사이":986,"각":987,"네":988,"날":989,"##합":990,"높":991,"##더":992,"##릭":993,"##향":994,"테":995,"##츠":996,"##청":997,"##럼":998,"시작":999,"⭧니":1000,"표":1001,"루":1002,"##추":1003,"##품":1004,"##현":1005,"##에":1006,"일본":1007,"새":1008,"##복":1009,"이상":1010,"##망":1011,"모습":1012,"이름":1013,"왕":1014,"##니다":1015,"##것":1016,"태":1017,"언":1018,"함께":1019,"존":1020,"순":1021,"##언":1022,"열":1023,"##외":1024,"따르":1025,"##지만":1026,"베":1027,"상대":1028,"⭧려":1029,"프로":1030,"⭧다가":1031,"독":1032,"증":1033,"한국":1034,"##어나":1035,"문제":1036,"15":1037,"##울":1038,"##환":1039,"##머":1040,"병":1041,"천":1042,"총":1043,"손":1044,"##ᅳᆯ리":1045,"잡":1046,"##in":1047,"⭧으면":1048,"효":1049,"⭧거나":1050,"하지만":1051,"터":1052,"##임":1053,"##스터":1054,"능":1055,"생각":1056,"##ᆯ라":1057,"음":1058,"##ᅵᆨ":1059,"별":1060,"힘":1061,"##독":1062,"완":1063,"다시":1064,"끝":1065,"⭧겠":1066,"##송":1067,"막":1068,"또한":1069,"##병":1070,"항":1071,"##목":1072,"폭":1073,"##천":1074,"스키":1075,"가장":1076,"##립":1077,"복":1078,"들어":1079,"근":1080,"광":1081,"##배":1082,"##험":1083,"브":1084,"식":1085,"싸":1086,"빠":1087,"캐릭":1088,"당시":1089,"시즌":1090,"플레이":1091,"##처럼":1092,"##럽":1093,"삼":1094,"티":1095,"⭧ᆫ데":1096,"듯":1097,"누":1098,"⭧아야":1099,"먹":1100,"##막":1101,"⫸처럼":1102,"캐릭터":1103,"당하":1104,"및":1105,"18":1106,"검":1107,"##on":1108,"능력":1109,"산":1110,"⭧ᆫ지":1111,"##년":1112,"모두":1113,"##쿠":1114,"상황":1115,"백":1116,"충":1117,"##색":1118,"상태":1119,"니":1120,"##락":1121,"그렇":1122,"민":1123,"##결":1124,"⭧아도":1125,"임":1126,"블":1127,"레이":1128,"길":1129,"##쪽":1130,"느":1131,"##ᅧᆸ":1132,"##말":1133,"모든":1134,"##감":1135,"##퍼":1136,"##근":1137,"추가":1138,"금":1139,"결국":1140,"앞":1141,"라이":1142,"세계":1143,"##악":1144,"커":1145,"##질":1146,"선수":1147,"##an":1148,"머":1149,"##초":1150,"##담":1151,"16":1152,"##벨":1153,"##or":1154,"카드":1155,"친":1156,"스킬":1157,"##케":1158,"##미지":1159,"곡":1160,"##살":1161,"##탄":1162,"##ᆫ드":1163,"업":1164,"현재":1165,"##등":1166,"얼":1167,"합":1168,"슈":1169,"쿠":1170,"넘":1171,"##편":1172,"악":1173,"##남":1174,"많이":1175,"##쟁":1176,"⭧ᆫ다는":1177,"통하":1178,"##메":1179,"전투":1180,"쉬":1181,"효과":1182,"다음":1183,"30":1184,"다만":1185,"급":1186,"그러나":1187,"##느":1188,"눈":1189,"존재":1190,"##함":1191,"지역":1192,"##라이":1193,"13":1194,"미국":1195,"⭧ᄇ":1196,"취":1197,"여기":1198,"시리":1199,"첫":1200,"##냐":1201,"##택":1202,"##항":1203,"청":1204,"##접":1205,"##냥":1206,"14":1207,"페":1208,"199":1209,"⭧서":1210,"매우":1211,"엔":1212,"##예":1213,"법":1214,"황":1215,"##ar":1216,"창":1217,"이러":1218,"클":1219,"##ᅥᆯ어지":1220,"북":1221,"달리":1222,"절":1223,"이ᄇ":1224,"17":1225,"##견":1226,"##절":1227,"극":1228,"##존":1229,"대학":1230,"얻":1231,"⭧ㅓ":1232,"허":1233,"그런":1234,"##강":1235,"골":1236,"##글":1237,"상당":1238,"뜨":1239,"⭧ᄇ니다":1240,"레벨":1241,"##ᅡᆯ리":1242,"##패":1243,"기록":1244,"##범":1245,"스타":1246,"##he":1247,"시리즈":1248,"게":1249,"찾":1250,"째":1251,"괴":1252,"⭧야":1253,"##at":1254,"이유":1255,"인하":1256,"##집":1257,"철":1258,"기술":1259,"##움":1260,"##ᅮᆼ":1261,"물론":1262,"무기":1263,"바ᄁ":1264,"엄":1265,"##득":1266,"어ᄄ":1267,"그래":1268,"이용":1269,"의하":1270,"여러":1271,"##왕":1272,"올리":1273,"처음":1274,"##규":1275,"⭧다면":1276,"놓":1277,"난":1278,"자체":1279,"⭧시":1280,"##커":1281,"부르":1282,"팬":1283,"방송":1284,"곳":1285,"100":1286,"이것":1287,"이런":1288,"은":1289,"##별":1290,"필요":1291,"영화":1292,"줄":1293,"##템":1294,"워":1295,"실제":1296,"환":1297,"##워":1298,"##널":1299,"해당":1300,"25":1301,"들어가":1302,"마법":1303,"모르":1304,"##은":1305,"주인":1306,"##곡":1307,"귀":1308,"##열":1309,"일반":1310,"스ᄐ":1311,"탈":1312,"⭧ᆫ다고":1313,"⫸마":1314,"⫸서":1315,"돌아":1316,"⭧어야":1317,"규":1318,"거의":1319,"꼬":1320,"##끼":1321,"##거리":1322,"역시":1323,"바로":1324,"리그":1325,"학교":1326,"혼":1327,"범":1328,"나가":1329,"잠":1330,"사건":1331,"##틀":1332,"##큼":1333,"##en":1334,"다르":1335,"같이":1336,"특히":1337,"관련":1338,"유니":1339,"기본":1340,"##달":1341,"2017":1342,"붙":1343,"##ᆨ스":1344,"##착":1345,"부분":1346,"즉":1347,"위치":1348,"피해":1349,"##야기":1350,"⭧도":1351,"##으":1352,"진행":1353,"류":1354,"##ou":1355,"겨":1356,"아무":1357,"방어":1358,"격":1359,"2018":1360,"면":1361,"탄":1362,"##칭":1363,"이야기":1364,"##부분":1365,"축":1366,"대표":1367,"글":1368,"##다가":1369,"##창":1370,"담":1371,"##짜":1372,"마지":1373,"국가":1374,"좀":1375,"⭧는지":1376,"없이":1377,"##박":1378,"⭧냐":1379,"##례":1380,"⭧음":1381,"제작":1382,"##권":1383,"며":1384,"##찰":1385,"메이":1386,"활동":1387,"인간":1388,"##난":1389,"싶":1390,"동안":1391,"##육":1392,"밝":1393,"작품":1394,"걸":1395,"알리":1396,"증가":1397,"##때":1398,"##변":1399,"짜":1400,"둘":1401,"##페":1402,"웨":1403,"##괴":1404,"풀":1405,"##롭":1406,"대부분":1407,"준":1408,"래":1409,"쉽":1410,"뿐":1411,"##al":1412,"접":1413,"비스":1414,"마지막":1415,"본인":1416,"##찬":1417,"몸":1418,"자기":1419,"씨":1420,"2019":1421,"##ᆯ러":1422,"일부":1423,"##혼":1424,"헤":1425,"지나":1426,"계속":1427,"⭧ᆫ가":1428,"##활":1429,"##렵":1430,"##시아":1431,"떨어지":1432,"21":1433,"암":1434,"생기":1435,"서울":1436,"##ᇂ게":1437,"몬":1438,"우리":1439,"##극":1440,"몇":1441,"내용":1442,"##es":1443,"샤":1444,"##광":1445,"러":1446,"주인공":1447,"벌":1448,"##률":1449,"넣":1450,"2016":1451,"덕":1452,"감독":1453,"##희":1454,"참고":1455,"속도":1456,"관계":1457,"50":1458,"##철":1459,"##애":1460,"##순":1461,"##월":1462,"맡":1463,"팔":1464,"흐":1465,"⫸라":1466,"##전히":1467,"까":1468,"중국":1469,"##없":1470,"대신":1471,"##슨":1472,"수준":1473,"이전":1474,"그냥":1475,"##베":1476,"##린":1477,"타이":1478,"쪽":1479,"⭧어도":1480,"⭧습":1481,"비슷":1482,"어느":1483,"⭧으니":1484,"나이":1485,"##징":1486,"전쟁":1487,"비하":1488,"지금":1489,"##블":1490,"강하":1491,"⭧라면":1492,"희":1493,"##턴":1494,"##날":1495,"##응":1496,"만나":1497,"성공":1498,"22":1499,"스토":1500,"질":1501,"낮":1502,"기준":1503,"홍":1504,"뛰":1505,"도시":1506,"##ᅦ인":1507,"밝히":1508,"인물":1509,"##탈":1510,"##돌":1511,"논":1512,"⭧습니다":1513,"멀":1514,"울":1515,"##불":1516,"슬":1517,"##랴":1518,"이루":1519,"배우":1520,"협":1521,"⭧도록":1522,"##벌":1523,"⫸라고":1524,"198":1525,"상당히":1526,"공격력":1527,"그녀":1528,"자리":1529,"대한":1530,"24":1531,"##율":1532,"최대":1533,"기사":1534,"올라":1535,"##ᅦᆫ트":1536,"##민국":1537,"결과":1538,"##온":1539,"⭧더":1540,"##ᅦ이스":1541,"홈":1542,"지원":1543,"##ᆷ버":1544,"그대로":1545,"평가":1546,"##리스":1547,"시절":1548,"밀":1549,"##림":1550,"##증":1551,"너무":1552,"빠르":1553,"육":1554,"뉴":1555,"##플":1556,"##략":1557,"보스":1558,"제외":1559,"##it":1560,"⭧므로":1561,"죽이":1562,"##할":1563,"연구":1564,"##씨":1565,"##버지":1566,"의미":1567,"온":1568,"망":1569,"나타":1570,"⭧ㅏ":1571,"##ᅦ이지":1572,"실제로":1573,"##ᆯ로":1574,"##축":1575,"##백":1576,"측":1577,"소속":1578,"##라지":1579,"##북":1580,"이미":1581,"⫸로서":1582,"봉":1583,"##귀":1584,"승리":1585,"직접":1586,"전체":1587,"2015":1588,"##책":1589,"영상":1590,"대한민국":1591,"보내":1592,"향":1593,"23":1594,"어렵":1595,"원래":1596,"유닛":1597,"퍼":1598,"체력":1599,"여자":1600,"##을":1601,"⫸마다":1602,"##굴":1603,"언급":1604,"그것":1605,"##획":1606,"##념":1607,"묘":1608,"개발":1609,"데미지":1610,"##리아":1611,"멤버":1612,"##ing":1613,"유저":1614,"갖":1615,"##st":1616,"갈":1617,"##le":1618,"##학교":1619,"머리":1620,"##ic":1621,"츠":1622,"휴":1623,"이동":1624,"##가지":1625,"##앙":1626,"마음":1627,"설정":1628,"40":1629,"싸우":1630,"정보":1631,"책":1632,"⭧ᆫ다면":1633,"맨":1634,"씩":1635,"방법":1636,"컨":1637,"문서":1638,"몰":1639,"선택":1640,"애니":1641,"차이":1642,"님":1643,"##re":1644,"깨":1645,"##늘":1646,"과거":1647,"가까":1648,"##ᆷ피":1649,"##운드":1650,"던":1651,"몬스터":1652,"듣":1653,"센":1654,"쇼":1655,"왜":1656,"##평":1657,"##슬":1658,"⭧나":1659,"출연":1660,"성우":1661,"불리":1662,"송":1663,"##누":1664,"##몬":1665,"친구":1666,"포함":1667,"파이":1668,"⭧란":1669,"##욱":1670,"돈":1671,"침":1672,"##dd":1673,"빼":1674,"석":1675,"##닝":1676,"농":1677,"##ᅦ이션":1678,"갑":1679,"뜻":1680,"뭐":1681,"압":1682,"탑":1683,"대상":1684,"설명":1685,"거리":1686,"엄청":1687,"프리":1688,"혹":1689,"어ᄍ":1690,"사회":1691,"소리":1692,"##총":1693,"바람":1694,"플레이어":1695,"장면":1696,"##딩":1697,"힘들":1698,"우승":1699,"최고":1700,"여성":1701,"##봉":1702,"버전":1703,"사랑":1704,"바뀌":1705,"아버지":1706,"즈":1707,"##웅":1708,"칼":1709,"##침":1710,"마이":1711,"동시":1712,"⭧드":1713,"공식":1714,"##팅":1715,"유명":1716,"시대":1717,"스럽":1718,"2014":1719,"##켓":1720,"답":1721,"발생":1722,"영향":1723,"사망":1724,"주로":1725,"어떠":1726,"꽤":1727,"대회":1728,"프랑":1729,"##주의":1730,"남자":1731,"궁":1732,"층":1733,"색":1734,"결정":1735,"조금":1736,"⭧려고":1737,"발매":1738,"26":1739,"주장":1740,"출신":1741,"아이템":1742,"⭧러":1743,"##ff":1744,"##ᅩᆸ":1745,"초반":1746,"000":1747,"역사":1748,"걸리":1749,"섬":1750,"빠지":1751,"인터":1752,"일어나":1753,"학생":1754,"나라":1755,"전부":1756,"버스":1757,"공개":1758,"28":1759,"##랜드":1760,"푸":1761,"##쉬":1762,"운영":1763,"오르":1764,"서로":1765,"유지":1766,"콘":1767,"오래":1768,"스토리":1769,"모드":1770,"##밀":1771,"##el":1772,"27":1773,"##ᅦ일":1774,"대사":1775,"구성":1776,"##염":1777,"엘":1778,"##갑":1779,"파괴":1780,"제대로":1781,"##am":1782,"정부":1783,"방식":1784,"만큼":1785,"음악":1786,"강화":1787,"자주":1788,"31":1789,"쏘":1790,"중요":1791,"아직":1792,"후반":1793,"이때":1794,"##쁘":1795,"나타나":1796,"또는":1797,"노래":1798,"월드":1799,"##컬":1800,"the":1801,"정치":1802,"##델":1803,"과정":1804,"형태":1805,"밖":1806,"최종":1807,"새롭":1808,"다니":1809,"독일":1810,"시스":1811,"역할":1812,"르":1813,"좌":1814,"휘":1815,"최초":1816,"억":1817,"##라도":1818,"대전":1819,"##벽":1820,"딜":1821,"##랙":1822,"끼":1823,"착":1824,"찍":1825,"마리":1826,"##필":1827,"쓰이":1828,"이벤트":1829,"누구":1830,"##om":1831,"##머니":1832,"강력":1833,"아래":1834,"정말":1835,"변경":1836,"회복":1837,"##얼":1838,"##곤":1839,"##클":1840,"##먹":1841,"##확":1842,"기존":1843,"##우스":1844,"싱":1845,"##맨":1846,"바이":1847,"그런데":1848,"##잡":1849,"볼":1850,"영국":1851,"보통":1852,"비교":1853,"드래":1854,"소환":1855,"잔":1856,"느끼":1857,"##아가":1858,"정신":1859,"##객":1860,"폐":1861,"마찬":1862,"마찬가지":1863,"이기":1864,"##la":1865,"⭧든":1866,"어떤":1867,"조선":1868,"##었":1869,"당연":1870,"##측":1871,"특성":1872,"인기":1873,"##is":1874,"엄청나":1875,"성능":1876,"##프트":1877,"늘":1878,"링":1879,"확률":1880,"속성":1881,"##뜨":1882,"마을":1883,"⭧듯":1884,"##번":1885,"먼":1886,"행동":1887,"움":1888,"##이도":1889,"##훈":1890,"바꾸":1891,"⭧라도":1892,"앨":1893,"2013":1894,"슈퍼":1895,"오히":1896,"노선":1897,"다이":1898,"⫸대로":1899,"윤":1900,"모양":1901,"##덕":1902,"이제":1903,"오히려":1904,"케":1905,"풍":1906,"데이":1907,"올":1908,"드라":1909,"##풍":1910,"가깝":1911,"자유":1912,"아들":1913,"교육":1914,"197":1915,"발견":1916,"차량":1917,"##억":1918,"라인":1919,"##퇴":1920,"##휘":1921,"짓":1922,"29":1923,"사라지":1924,"끌":1925,"##너지":1926,"게다가":1927,"술":1928,"32":1929,"하이":1930,"부족":1931,"특수":1932,"프랑스":1933,"##et":1934,"이번":1935,"00":1936,"대학교":1937,"##손":1938,"확인":1939,"성격":1940,"끝나":1941,"문화":1942,"유일":1943,"활약":1944,"차지":1945,"##렌":1946,"흑":1947,"수록":1948,"##ol":1949,"2012":1950,"장비":1951,"관리":1952,"##혀":1953,"##써":1954,"##ion":1955,"아예":1956,"##답":1957,"영웅":1958,"응":1959,"일단":1960,"입장":1961,"구하":1962,"녹":1963,"##슈":1964,"액":1965,"내리":1966,"생산":1967,"맞추":1968,"따라":1969,"시스템":1970,"빛":1971,"이렇게":1972,"##지어":1973,"제국":1974,"흔":1975,"맵":1976,"훈":1977,"숨":1978,"##폭":1979,"고등":1980,"뽑":1981,"##웨":1982,"어리":1983,"##ᆫ스":1984,"##숙":1985,"돌아오":1986,"에피":1987,"들어오":1988,"먼저":1989,"심지어":1990,"득":1991,"경찰":1992,"반대":1993,"##디오":1994,"계획":1995,"주변":1996,"거기":1997,"##레이드":1998,"운동":1999,"2010":2000,"앨범":2001,"##던":2002,"자동":2003,"⭧어요":2004,"##골":2005,"획":2006,"완전히":2007,"조건":2008,"드러":2009,"##램":2010,"우주":2011,"기간":2012,"사진":2013,"##엇":2014,"##새":2015,"##ᅢᆼ크":2016,"##레스":2017,"애니ᄆ":2018,"난이도":2019,"부대":2020,"##옥":2021,"적용":2022,"발동":2023,"개인":2024,"기능":2025,"##튼":2026,"##ow":2027,"지구":2028,"뮤":2029,"건물":2030,"60":2031,"감소":2032,"위원":2033,"잃":2034,"##nd":2035,"km":2036,"##멸":2037,"##20":2038,"축구":2039,"자세":2040,"##통령":2041,"##il":2042,"떠나":2043,"##ig":2044,"##므로":2045,"어디":2046,"그루":2047,"스ᄑ":2048,"중심":2049,"⫸으로서":2050,"모델":2051,"##ed":2052,"실패":2053,"견":2054,"##링":2055,"##져":2056,"지키":2057,"그래서":2058,"##곳":2059,"세트":2060,"혹은":2061,"중앙":2062,"##ᅦ이트":2063,"선거":2064,"##뢰":2065,"⭧라며":2066,"현대":2067,"35":2068,"회사":2069,"덕분":2070,"##ᆼ장":2071,"돌아가":2072,"클리":2073,"초기":2074,"##ᅩᆾ":2075,"전혀":2076,"얼굴":2077,"##롯":2078,"##먼":2079,"작가":2080,"바다":2081,"시기":2082,"듀":2083,"표현":2084,"국내":2085,"원작":2086,"##충":2087,"민주":2088,"대통령":2089,"패배":2090,"##밖":2091,"##탁":2092,"##웃":2093,"물리":2094,"처리":2095,"오브":2096,"순간":2097,"TV":2098,"크로":2099,"하루":2100,"동일":2101,"##뷔":2102,"스트":2103,"모으":2104,"지속":2105,"프로그":2106,"드라마":2107,"반응":2108,"지방":2109,"##익":2110,"무엇":2111,"얼마":2112,"날리":2113,"열리":2114,"##균":2115,"##ᆨ트":2116,"##버스":2117,"도움":2118,"⭧더라도":2119,"인정":2120,"참여":2121,"기관":2122,"맥":2123,"애니메이션":2124,"출시":2125,"##니아":2126,"칸":2127,"명칭":2128,"##ac":2129,"판매":2130,"담당":2131,"데뷔":2132,"##as":2133,"##나마":2134,"##엘":2135,"##없이":2136,"꾸":2137,"퇴":2138,"##밖에":2139,"##BS":2140,"##압":2141,"정확":2142,"##싸":2143,"요구":2144,"획득":2145,"196":2146,"땅":2147,"##룡":2148,"굉장":2149,"생활":2150,"그렇게":2151,"of":2152,"⫸루":2153,"시점":2154,"헌":2155,"컴":2156,"2011":2157,"설치":2158,"작중":2159,"넘어":2160,"다양":2161,"⫸밖에":2162,"발표":2163,"후보":2164,"##끔":2165,"그룹":2166,"상승":2167,"##아내":2168,"진출":2169,"선발":2170,"아군":2171,"구조":2172,"기억":2173,"롭":2174,"항목":2175,"Lv":2176,"영어":2177,"만화":2178,"가격":2179,"움직":2180,"습":2181,"탐":2182,"단계":2183,"족":2184,"##소드":2185,"그림":2186,"##럭":2187,"밤":2188,"특별":2189,"##들이":2190,"올라가":2191,"마스터":2192,"실력":2193,"##ve":2194,"그나마":2195,"##놓":2196,"핵":2197,"세이":2198,"⭧으므로":2199,"##리카":2200,"##죄":2201,"량":2202,"드래곤":2203,"아마":2204,"⭧다며":2205,"턴":2206,"세우":2207,"이거":2208,"찌":2209,"01":2210,"##욕":2211,"야구":2212,"빌":2213,"킹":2214,"##채":2215,"⭧았었":2216,"덱":2217,"졸":2218,"시장":2219,"맛":2220,"수비":2221,"낙":2222,"The":2223,"미치":2224,"가족":2225,"##비스":2226,"아주":2227,"범위":2228,"##탕":2229,"##찮":2230,"사고":2231,"특징":2232,"밀리":2233,"연기":2234,"##넷":2235,"⭧려는":2236,"##소리":2237,"경제":2238,"시청":2239,"방향":2240,"스ᄏ":2241,"대체":2242,"딸":2243,"패치":2244,"경험":2245,"##뜨리":2246,"계약":2247,"⫸한":2248,"퀘":2249,"고려":2250,"##스크":2251,"##조차":2252,"##ot":2253,"남기":2254,"⫸한테":2255,"⫸조차":2256,"숙":2257,"벨":2258,"아르":2259,"확실":2260,"참가":2261,"국제":2262,"딱":2263,"지니":2264,"디자":2265,"에피소드":2266,"500":2267,"발사":2268,"세대":2269,"어머니":2270,"폭발":2271,"묘사":2272,"⫸로부터":2273,"##트로":2274,"##이드":2275,"##덤":2276,"주의":2277,"프로그램":2278,"고등학교":2279,"80":2280,"던지":2281,"믿":2282,"활용":2283,"2000":2284,"트리":2285,"굴":2286,"어떻게":2287,"피하":2288,"상위":2289,"결혼":2290,"무시":2291,"⭧라서":2292,"⭧ㅕ":2293,"##으키":2294,"비판":2295,"목적":2296,"##효":2297,"더욱":2298,"준비":2299,"##못":2300,"중간":2301,"나무":2302,"##밍":2303,"심하":2304,"각각":2305,"##ad":2306,"쿨":2307,"보호":2308,"37":2309,"브라":2310,"##ᇀ이":2311,"러시아":2312,"45":2313,"오리":2314,"펼":2315,"묻":2316,"챔피":2317,"버프":2318,"##맹":2319,"이ᄁ":2320,"라운드":2321,"굉장히":2322,"이미지":2323,"⫸다":2324,"패턴":2325,"빈":2326,"국민":2327,"##궁":2328,"히로":2329,"##혹":2330,"이어지":2331,"위험":2332,"진짜":2333,"옆":2334,"참조":2335,"##인트":2336,"내려":2337,"꿈":2338,"##검":2339,"조사":2340,"대미지":2341,"생명":2342,"조직":2343,"죄":2344,"단순":2345,"혼자":2346,"싸움":2347,"과학":2348,"여담":2349,"크리스":2350,"약하":2351,"##ᅦ임":2352,"이루어지":2353,"꺼":2354,"전하":2355,"나쁘":2356,"스피":2357,"타입":2358,"다루":2359,"##뷰":2360,"흡":2361,"소모":2362,"세력":2363,"현실":2364,"파워":2365,"St":2366,"시도":2367,"안타":2368,"⭧ᆯ지":2369,"##씬":2370,"염":2371,"제공":2372,"욕":2373,"주요":2374,"구간":2375,"흥":2376,"율":2377,"194":2378,"유리":2379,"불구":2380,"거치":2381,"가리":2382,"전문":2383,"지하":2384,"유럽":2385,"할":2386,"일으키":2387,"연속":2388,"웃":2389,"##칙":2390,"부산":2391,"세기":2392,"##머지":2393,"나머지":2394,"순위":2395,"논란":2396,"돕":2397,"조합":2398,"한정":2399,"포인트":2400,"괘":2401,"익":2402,"사실상":2403,"헬":2404,"케이":2405,"약간":2406,"##아오":2407,"론":2408,"##틴":2409,"노리":2410,"동료":2411,"##id":2412,"70":2413,"클래":2414,"뛰어나":2415,"##샤":2416,"분위":2417,"성장":2418,"훨":2419,"09":2420,"떠":2421,"##섭":2422,"##ay":2423,"아프":2424,"무장":2425,"여전히":2426,"바라":2427,"디자인":2428,"⫸랑":2429,"##갈":2430,"즐":2431,"분위기":2432,"당연히":2433,"취급":2434,"항공":2435,"출전":2436,"##스로":2437,"90":2438,"이해":2439,"⭧으면서":2440,"학년":2441,"얘":2442,"린":2443,"##렉":2444,"일정":2445,"규모":2446,"등급":2447,"##혁":2448,"싫":2449,"훨씬":2450,"FC":2451,"##ER":2452,"지도":2453,"투수":2454,"소설":2455,"징":2456,"##나라":2457,"한편":2458,"예정":2459,"운행":2460,"블랙":2461,"성적":2462,"##협":2463,"인구":2464,"읽":2465,"부상":2466,"쌍":2467,"기대":2468,"자연":2469,"엔딩":2470,"기타":2471,"그래도":2472,"⭧구":2473,"마치":2474,"삼성":2475,"##러지":2476,"벽":2477,"계열":2478,"mm":2479,"똑":2480,"02":2481,"해결":2482,"2009":2483,"03":2484,"폴":2485,"괜":2486,"사업":2487,"가져":2488,"##ch":2489,"스테이지":2490,"향하":2491,"센터":2492,"##킹":2493,"가스":2494,"##완":2495,"어두":2496,"##혜":2497,"방면":2498,"연결":2499,"미션":2500,"300":2501,"콤":2502,"옥":2503,"엘리":2504,"방영":2505,"플래":2506,"최근":2507,"##빈":2508,"의견":2509,"튀":2510,"##낌":2511,"⭧기에":2512,"연합":2513,"수정":2514,"##짝":2515,"짧":2516,"##us":2517,"48":2518,"변화":2519,"도망":2520,"종류":2521,"##ir":2522,"⭧자면":2523,"⭧ᆯ까":2524,"그거":2525,"곧":2526,"표기":2527,"잘못":2528,"⫸야":2529,"률":2530,"칭":2531,"전용":2532,"이르":2533,"태어나":2534,"배치":2535,"##받":2536,"05":2537,"털":2538,"퀘스트":2539,"195":2540,"추정":2541,"33":2542,"for":2543,"터지":2544,"2008":2545,"⫸고":2546,"탓":2547,"발전":2548,"##다리":2549,"벗":2550,"##척":2551,"소녀":2552,"##혈":2553,"36":2554,"##엄":2555,"##폰":2556,"08":2557,"대화":2558,"변하":2559,"거대":2560,"정상":2561,"직업":2562,"##스타":2563,"##참":2564,"끊":2565,"안정":2566,"척":2567,"07":2568,"움직이":2569,"##ur":2570,"도중":2571,"언제":2572,"죽음":2573,"엔진":2574,"충분":2575,"⭧네":2576,"올라오":2577,"스스로":2578,"큐":2579,"종료":2580,"작전":2581,"넘어가":2582,"##티브":2583,"##파이":2584,"스카":2585,"수상":2586,"챔피언":2587,"펼치":2588,"세상":2589,"품":2590,"나중":2591,"##둥":2592,"붙이":2593,"십":2594,"##텐":2595,"독립":2596,"일행":2597,"비행":2598,"요소":2599,"나누":2600,"캠":2601,"느낌":2602,"속하":2603,"##볼":2604,"##취":2605,"수도":2606,"당신":2607,"HP":2608,"굳":2609,"벌어지":2610,"벌이":2611,"로보":2612,"##액":2613,"보상":2614,"에너지":2615,"##륙":2616,"##ᆩ이":2617,"지내":2618,"방어력":2619,"달성":2620,"비롯":2621,"전설":2622,"팩":2623,"녀":2624,"##..":2625,"무리":2626,"공연":2627,"##od":2628,"미사":2629,"##센":2630,"만드":2631,"06":2632,"력":2633,"동물":2634,"⫸만큼":2635,"솔":2636,"배틀":2637,"##BC":2638,"부활":2639,"특정":2640,"관하":2641,"장착":2642,"훈련":2643,"절대":2644,"빅":2645,"##ᅡᆯ리아":2646,"th":2647,"졸업":2648,"철도":2649,"전기":2650,"지지":2651,"렌":2652,"##자기":2653,"##im":2654,"기업":2655,"##암":2656,"위기":2657,"포켓":2658,"##길":2659,"##라고":2660,"넓":2661,"지휘":2662,"행정":2663,"다리":2664,"싱글":2665,"번역":2666,"런":2667,"##빠":2668,"번호":2669,"근접":2670,"##란드":2671,"틀":2672,"더불":2673,"돌리":2674,"제목":2675,"점수":2676,"건설":2677,"빨":2678,"04":2679,"만약":2680,"관심":2681,"아이돌":2682,"미래":2683,"##어들":2684,"황제":2685,"내부":2686,"스페":2687,"남성":2688,"##렬":2689,"스코":2690,"반면":2691,"따라서":2692,"득점":2693,"##un":2694,"충격":2695,"##ut":2696,"신경":2697,"##겁":2698,"SK":2699,"시험":2700,"전차":2701,"##뉴":2702,"요리":2703,"군사":2704,"가르":2705,"목소리":2706,"거두":2707,"목표":2708,"##수록":2709,"삭":2710,"홈런":2711,"소재":2712,"인사":2713,"덤":2714,"뚜":2715,"전사":2716,"2007":2717,"##데이트":2718,"업데이트":2719,"바르":2720,"정체":2721,"멸":2722,"you":2723,"공간":2724,"##지션":2725,"똑가":2726,"가끔":2727,"저지":2728,"무대":2729,"##튜":2730,"카이":2731,"픽":2732,"어찌":2733,"시설":2734,"놀":2735,"사이트":2736,"타격":2737,"셈":2738,"로마":2739,"오늘":2740,"34":2741,"뒷":2742,"꽃":2743,"##인물":2744,"##즘":2745,"##컵":2746,"##흥":2747,"배경":2748,"##트리":2749,"링크":2750,"록":2751,"지정":2752,"⫸다가":2753,"장소":2754,"각성":2755,"전작":2756,"##죠":2757,"찬":2758,"서비스":2759,"공중":2760,"마르":2761,"빙":2762,"최소":2763,"##큐":2764,"항상":2765,"부여":2766,"##다니":2767,"##ro":2768,"냉":2769,"교체":2770,"도로":2771,"그만":2772,"파티":2773,"전국":2774,"##닉":2775,"맹":2776,"분노":2777,"⭧느":2778,"베이":2779,"##너스":2780,"##폐":2781,"생존":2782,"⭧으려":2783,"작곡":2784,"북한":2785,"얘기":2786,"넘기":2787,"등장인물":2788,"켄":2789,"정식":2790,"예상":2791,"스포":2792,"⫸마저":2793,"자랑":2794,"의원":2795,"##알":2796,"혀":2797,"⫸으로써":2798,"작업":2799,"높이":2800,"잉":2801,"포켓몬":2802,"사냥":2803,"##디어":2804,"##쇄":2805,"랜":2806,"크리":2807,"분류":2808,"종족":2809,"늘어나":2810,"이끌":2811,"##엽":2812,"##층":2813,"인도":2814,"벤":2815,"악마":2816,"##ag":2817,"##igh":2818,"소개":2819,"야마":2820,"드리":2821,"38":2822,"올림피":2823,"아키":2824,"쌓":2825,"겸":2826,"##ver":2827,"단체":2828,"혈":2829,"애초":2830,"제한":2831,"인터뷰":2832,"괜찮":2833,"⫸ᆯ로":2834,"가수":2835,"홀":2836,"필드":2837,"##ec":2838,"결승":2839,"##동안":2840,"cm":2841,"판정":2842,"##뿐":2843,"롯":2844,"⭧듯이":2845,"기계":2846,"이어":2847,"클리어":2848,"75":2849,"연출":2850,"목록":2851,"각종":2852,"외국":2853,"하늘":2854,"컵":2855,"이외":2856,"타카":2857,"명령":2858,"##ᅪᆯ":2859,"정하":2860,"##ent":2861,"2006":2862,"제일":2863,"초등":2864,"기체":2865,"병력":2866,"지상":2867,"깊":2868,"카운":2869,"페이":2870,"재미":2871,"로봇":2872,"개념":2873,"스타일":2874,"아카":2875,"##보이":2876,"트위":2877,"가운":2878,"55":2879,"놀라":2880,"##드리":2881,"전반":2882,"확정":2883,"##이트":2884,"기동":2885,"in":2886,"##콘":2887,"교통":2888,"옛":2889,"정작":2890,"##꾸":2891,"##허":2892,"##촌":2893,"193":2894,"건담":2895,"레어":2896,"비용":2897,"##쓰":2898,"퀴":2899,"옷":2900,"##탈리아":2901,"별로":2902,"파일":2903,"왼":2904,"##ak":2905,"##스티":2906,"화력":2907,"장갑":2908,"옵":2909,"올림픽":2910,"수행":2911,"⫸뿐":2912,"몽":2913,"##랄":2914,"⭧니까":2915,"군대":2916,"드러나":2917,"사항":2918,"가운데":2919,"갖추":2920,"표시":2921,"##흐":2922,"크기":2923,"##뮤":2924,"⭧오":2925,"따로":2926,"인식":2927,"시티":2928,"행위":2929,"사격":2930,"수치":2931,"경쟁":2932,"##겨":2933,"라이브":2934,"료":2935,"2020":2936,"사거리":2937,"납":2938,"to":2939,"##um":2940,"##최":2941,"누르":2942,"##쉽":2943,"기반":2944,"변신":2945,"갑자기":2946,"저항":2947,"감정":2948,"',":2949,"##쿄":2950,"##러스":2951,"나름":2952,"포지션":2953,"비밀":2954,"잇":2955,"##젝트":2956,"진화":2957,"이탈리아":2958,"완전":2959,"평균":2960,"왕국":2961,"단점":2962,"##짓":2963,"뇌":2964,"보유":2965,"집중":2966,"인천":2967,"스티":2968,"코미":2969,"##리오":2970,"란":2971,"교수":2972,"##ᆨ터":2973,"##셉":2974,"근처":2975,"통합":2976,"기회":2977,"병원":2978,"살리":2979,"vs":2980,"폰":2981,"직전":2982,"에이":2983,"던전":2984,"노력":2985,"특이":2986,"임무":2987,"띄":2988,"##아들이":2989,"의식":2990,"##라인":2991,"자원":2992,"전자":2993,"어쩌":2994,"⭧냐고":2995,"느리":2996,"국회":2997,"설립":2998,"탈출":2999,"스태":3000,"코스":3001,"##친":3002,"놈":3003,"##화국":3004,"정의":3005,"쯤":3006,"##윤":3007,"오버":3008,"압도":3009,"##ST":3010,"오른":3011,"혁":3012,"레인":3013,"이닝":3014,"옮":3015,"월드컵":3016,"부모":3017,"촬":3018,"단어":3019,"다크":3020,"때리":3021,"부정":3022,"환경":3023,"##em":3024,"##앗":3025,"고양":3026,"마시":3027,"현상":3028,"##ub":3029,"정리":3030,"사례":3031,"잠시":3032,"떨":3033,"사정":3034,"##비아":3035,"판단":3036,"효율":3037,"시전":3038,"제품":3039,"이쪽":3040,"아파":3041,"콜":3042,"쥬":3043,"펜":3044,"밑":3045,"극장":3046,"⭧더니":3047,"치명":3048,"스위":3049,"##텔":3050,"본래":3051,"아스":3052,"##르트":3053,"##ᆯ링":3054,"##리어":3055,"나서":3056,"주제":3057,"##말로":3058,"무슨":3059,"촬영":3060,"##000":3061,"삭제":3062,"붕":3063,"상관":3064,"사무":3065,"의외":3066,"주문":3067,"위원회":3068,"전력":3069,"가문":3070,"⭧ㅏㅆ":3071,"겪":3072,"##낙":3073,"##븐":3074,"동생":3075,"고속":3076,"컬":3077,"##어로":3078,"원인":3079,"주민":3080,"대구":3081,"##묘":3082,"여행":3083,"물건":3084,"옮기":3085,"지배":3086,"제거":3087,"##헌":3088,"발언":3089,"강제":3090,"키우":3091,"소련":3092,"연습":3093,"곤":3094,"치료":3095,"병사":3096,"포기":3097,"골드":3098,"위력":3099,"요시":3100,"파트":3101,"도전":3102,"##무리":3103,"전개":3104,"2005":3105,"기다리":3106,"이하":3107,"노트":3108,"역대":3109,"새로":3110,"책임":3111,"해군":3112,"##째":3113,"중학교":3114,"기념":3115,"##요일":3116,"도입":3117,"정책":3118,"점프":3119,"앞서":3120,"완성":3121,"웹":3122,"복귀":3123,"##싱":3124,"실험":3125,"##ight":3126,"화면":3127,"42":3128,"##야마":3129,"루트":3130,"⭧려면":3131,"유사":3132,"고정":3133,"공주":3134,"도쿄":3135,"살인":3136,"의사":3137,"모이":3138,"음식":3139,"41":3140,"##학생":3141,"레드":3142,"##좌":3143,"칠":3144,"별명":3145,"차원":3146,"직후":3147,"선생":3148,"끝내":3149,"이적":3150,"뿌":3151,"히어로":3152,"불가":3153,"다수":3154,"셋":3155,"버티":3156,"사기":3157,"중반":3158,"나이트":3159,"39":3160,"받아들이":3161,"잡히":3162,"##섯":3163,"티어":3164,"전략":3165,"숨기":3166,"히트":3167,"엑":3168,"어둠":3169,"⫸에게서":3170,"분명":3171,"밴드":3172,"마나":3173,"붉":3174,"공동":3175,"도착":3176,"2004":3177,"무려":3178,"미니":3179,"쫓":3180,"꼭":3181,"##모토":3182,"션":3183,"##특":3184,"접근":3185,"가치":3186,"언어":3187,"녀석":3188,"짐":3189,"제도":3190,"##야말로":3191,"일러":3192,"EX":3193,"LG":3194,"⭧은데":3195,"빌리":3196,"정당":3197,"⫸으로부터":3198,"텐":3199,"회피":3200,"텔":3201,"추천":3202,"타임":3203,"조종":3204,"⭧ㅓㅆ":3205,"##ᆯ린":3206,"정규":3207,"사상":3208,"시민":3209,"대기":3210,"반드":3211,"로드":3212,"##젤":3213,"예전":3214,"##ce":3215,"살아":3216,"확장":3217,"아파트":3218,"신체":3219,"빨리":3220,"##숨":3221,"##그레이드":3222,"업그레이드":3223,"##루스":3224,"마사":3225,"쥐":3226,"구매":3227,"##AR":3228,"줄이":3229,"연장":3230,"멘":3231,"롯데":3232,"리더":3233,"자료":3234,"##퓨":3235,"랭크":3236,"이곳":3237,"반드시":3238,"폭탄":3239,"##os":3240,"투표":3241,"##끄":3242,"탈락":3243,"꾼":3244,"오프":3245,"타이틀":3246,"인터넷":3247,"##밥":3248,"부탁":3249,"장치":3250,"학원":3251,"단지":3252,"완벽":3253,"라이트":3254,"미사일":3255,"종교":3256,"44":3257,"##찍":3258,"우선":3259,"##ri":3260,"일러스트":3261,"소유":3262,"형식":3263,"닌":3264,"해외":3265,"고대":3266,"낫":3267,"##시마":3268,"##AN":3269,"구역":3270,"장점":3271,"사령":3272,"셰":3273,"최강":3274,"이사":3275,"힐":3276,"심각":3277,"산업":3278,"##걸":3279,"##듀":3280,"아내":3281,"##ula":3282,"Ch":3283,"금지":3284,"늦":3285,"##벤":3286,"⭧죠":3287,"##ON":3288,"수마":3289,"##셀":3290,"##역시":3291,"하드":3292,"탱":3293,"앙":3294,"추측":3295,"버그":3296,"실시":3297,"##덴":3298,"No":3299,"위키":3300,"마무리":3301,"##ap":3302,"43":3303,"99":3304,"⫸이라고":3305,"⭧곤":3306,"대장":3307,"##홍":3308,"##몇":3309,"클럽":3310,"몇몇":3311,"공포":3312,"가사":3313,"##나이":3314,"##ᆨ정":3315,"노동":3316,"##and":3317,"2002":3318,"연재":3319,"가드":3320,"구분":3321,"복수":3322,"취하":3323,"st":3324,"검사":3325,"##마자":3326,"디스":3327,"아라":3328,"범죄":3329,"톤":3330,"합류":3331,"점점":3332,"달러":3333,"즐기":3334,"서버":3335,"로스":3336,"다소":3337,"조정":3338,"##아하":3339,"요청":3340,"드로":3341,"행사":3342,"##이치":3343,"차례":3344,"form":3345,"덜":3346,"옵션":3347,"##탑":3348,"떡":3349,"재료":3350,"보병":3351,"밥":3352,"조작":3353,"선정":3354,"선언":3355,"수많":3356,"마법사":3357,"전통":3358,"택":3359,"교회":3360,"잭":3361,"입히":3362,"타자":3363,"걱정":3364,"프로젝트":3365,"브레이":3366,"롤":3367,"kg":3368,"##쳐":3369,"그리스":3370,"종종":3371,"개그":3372,"47":3373,"스포츠":3374,"46":3375,"##빙":3376,"데이터":3377,"51":3378,"191":3379,"##첩":3380,"좋아하":3381,"컴퓨":3382,"개월":3383,"암살":3384,"부하":3385,"##듬":3386,"광고":3387,"형제":3388,"열차":3389,"formula":3390,"##르크":3391,"트레이":3392,"채우":3393,"템":3394,"성향":3395,"뉴스":3396,"대중":3397,"##털":3398,"개최":3399,"##십":3400,"평범":3401,"폼":3402,"⭧자마자":3403,"KBS":3404,"##ᆯ리스":3405,"아쉽":3406,"##조건":3407,"포스":3408,"숲":3409,"그야말로":3410,"실점":3411,"모자":3412,"한계":3413,"스페인":3414,"구단":3415,"고르":3416,"##죽":3417,"채널":3418,"##맞":3419,"뻔":3420,"대결":3421,"설계":3422,"##ter":3423,"거부":3424,"코드":3425,"통신":3426,"언론":3427,"아무리":3428,"보조":3429,"##아보":3430,"워낙":3431,"생물":3432,"다행":3433,"##맥":3434,"비중":3435,"종합":3436,"⭧고자":3437,"전화":3438,"행성":3439,"기지":3440,"컴퓨터":3441,"민족":3442,"멜":3443,"and":3444,"##셜":3445,"맺":3446,"한글":3447,"무한":3448,"투입":3449,"개봉":3450,"해석":3451,"값":3452,"무조건":3453,"##트라":3454,"캡":3455,"##아지":3456,"본격":3457,"영혼":3458,"트로":3459,"정확히":3460,"연주":3461,"⭧냐는":3462,"굳이":3463,"운용":3464,"##ul":3465,"MA":3466,"평소":3467,"실수":3468,"회장":3469,"원정":3470,"광주":3471,"##IN":3472,"지적":3473,"박사":3474,"소년":3475,"##타임":3476,"##ᆺ자":3477,"지명":3478,"와중":3479,"##무라":3480,"##ᅳᆯ린":3481,"인상":3482,"1000":3483,"위협":3484,"미드":3485,"##버리":3486,"2003":3487,"닉":3488,"줄어들":3489,"멋":3490,"젊":3491,"##ᅳᆯ링":3492,"회의":3493,"상징":3494,"충분히":3495,"##꽃":3496,"으":3497,"##op":3498,"등록":3499,"대로":3500,"##몽":3501,"##ᆺ수":3502,"⭧는가":3503,"사태":3504,"집단":3505,"대형":3506,"가정":3507,"대응":3508,"대비":3509,"쓸":3510,"보너스":3511,"터미":3512,"아웃":3513,"카메":3514,"자동차":3515,"데스":3516,"소비":3517,"엠":3518,"##ck":3519,"전원":3520,"공사":3521,"보컬":3522,"체제":3523,"페르":3524,"시청자":3525,"%,":3526,"다운":3527,"뚫":3528,"태양":3529,"##되":3530,"특유":3531,"희생":3532,"150":3533,"조각":3534,"먹이":3535,"##드로":3536,"개조":3537,"가면":3538,"무사":3539,"65":3540,"##FA":3541,"혐":3542,"샷":3543,"군단":3544,"##ation":3545,"빵":3546,"편성":3547,"뿌리":3548,"도망치":3549,"봉인":3550,"깔":3551,"네이":3552,"리어":3553,"여름":3554,"MBC":3555,"마력":3556,"##따":3557,"흉":3558,"##니스":3559,"SP":3560,"긴":3561,"통과":3562,"일종":3563,"##ᆫ만":3564,"기자":3565,"떠오":3566,"##ra":3567,"##려가":3568,"192":3569,"##라스":3570,"잊":3571,"똑같":3572,"육군":3573,"##콩":3574,"##펜":3575,"혜":3576,"##자리":3577,"발음":3578,"장군":3579,"공항":3580,"##셔":3581,"##녕":3582,"죠":3583,"생성":3584,"벗어나":3585,"얼마나":3586,"##의원":3587,"시나":3588,"분리":3589,"##스케":3590,"방문":3591,"64":3592,"##리트":3593,"오리지":3594,"##있":3595,"II":3596,"##오스":3597,"가하":3598,"⫸로써":3599,"드러내":3600,"##꺼":3601,"##ᅦ이크":3602,"고양이":3603,"하야":3604,"촉":3605,"장르":3606,"보다":3607,"동맹":3608,"빼앗":3609,"장기":3610,"간단":3611,"##톤":3612,"함정":3613,"##줄":3614,"반복":3615,"##칸":3616,"⭧ㅏ서":3617,"서술":3618,"⭧을지":3619,"##튜브":3620,"튜":3621,"소식":3622,"앉":3623,"의도":3624,"##려오":3625,"##넘":3626,"사쿠":3627,"분야":3628,"디지":3629,"##깨":3630,"전환":3631,"근데":3632,"갤러":3633,"52":3634,"불과":3635,"합치":3636,"유튜브":3637,"랭":3638,"##니까":3639,"바닥":3640,"영입":3641,"안전":3642,"경기도":3643,"그때":3644,"치르":3645,"##돈":3646,"괴물":3647,"저격":3648,"제안":3649,"##텐츠":3650,"흡수":3651,"점령":3652,"##찌":3653,"You":3654,"##ᅧ보":3655,"의지":3656,"##깐":3657,"밸":3658,"##시스":3659,"⭧는다는":3660,"윈":3661,"예선":3662,"초대":3663,"루이":3664,"필살":3665,"최후":3666,"##니티":3667,"따지":3668,"400":3669,"##릿":3670,"개선":3671,"공략":3672,"유도":3673,"##빌":3674,"화염":3675,"##남도":3676,"##엔":3677,"##빛":3678,"숫자":3679,"독자":3680,"오토":3681,"전술":3682,"##art":3683,"코치":3684,"그저":3685,"블루":3686,"미리":3687,"방해":3688,"##나가":3689,"##님":3690,"주력":3691,"원하":3692,"액션":3693,"확보":3694,"외모":3695,"인원":3696,"가져오":3697,"평화":3698,"매일":3699,"##풀":3700,"진입":3701,"터미널":3702,"이론":3703,"##런스":3704,"규정":3705,"관통":3706,"VS":3707,"수사":3708,"클래스":3709,"비트":3710,"라디오":3711,"찾아오":3712,"장난":3713,"넥":3714,"##랗":3715,"49":3716,"들리":3717,"이치":3718,"투자":3719,"⭧느냐":3720,"승부":3721,"컨셉":3722,"눈물":3723,"체육":3724,"목숨":3725,"형성":3726,"지나가":3727,"적극":3728,"패러":3729,"인류":3730,"방패":3731,"AP":3732,"56":3733,"##시피":3734,"상자":3735,"##논":3736,"##핑":3737,"음반":3738,"몹":3739,"에스":3740,"모험":3741,"시내":3742,"사과":3743,"아름":3744,"서브":3745,"겹":3746,"왼쪽":3747,"부수":3748,"적절":3749,"흐르":3750,"한국어":3751,"계기":3752,"보도":3753,"2001":3754,"함대":3755,"구축":3756,"트래":3757,"떼":3758,"##동생":3759,"거짓":3760,"저지르":3761,"##팔":3762,"살아남":3763,"의심":3764,"⭧ᆫ지라":3765,"약점":3766,"챙":3767,"쳐":3768,"예술":3769,"공화국":3770,"들이":3771,"역전":3772,"궤":3773,"인형":3774,"##퀴":3775,"기원":3776,"53":3777,"오리지널":3778,"54":3779,"비디오":3780,"##페이지":3781,"작성":3782,"완료":3783,"##모리":3784,"...":3785,"데리":3786,"자라":3787,"공부":3788,"은퇴":3789,"수리":3790,"솔로":3791,"코어":3792,"회전":3793,"쓰러지":3794,"##라이더":3795,"단순히":3796,"풀리":3797,"대단":3798,"질문":3799,"In":3800,"걸치":3801,"PC":3802,"편집":3803,"황금":3804,"닮":3805,"끌어":3806,"민주당":3807,"마침":3808,"뮤직":3809,"훌":3810,"##래프트":3811,"날개":3812,"프레이":3813,"##바이":3814,"핑":3815,"##시브":3816,"홈페이지":3817,"덩":3818,"착용":3819,"필수":3820,"##삼":3821,"트랙":3822,"오스":3823,"상대방":3824,"멈":3825,"보수":3826,"꾸준":3827,"85":3828,"해제":3829,"##옷":3830,"##토리":3831,"엄마":3832,"아프리카":3833,"드라이":3834,"경상":3835,"##ia":3836,"사단":3837,"습격":3838,"##ᆯ리아":3839,"장관":3840,"편하":3841,"1990":3842,"현장":3843,"사장":3844,"비난":3845,"포르":3846,"희망":3847,"코스트":3848,"걷":3849,"원거리":3850,"##ill":3851,"청소":3852,"수원":3853,"##ie":3854,"재판":3855,"선보이":3856,"분석":3857,"하위":3858,"카페":3859,"##레이션":3860,"명중":3861,"테러":3862,"앤":3863,"아시아":3864,"퓨":3865,"진정":3866,"더블":3867,"무력":3868,"##로드":3869,"선물":3870,"##RA":3871,"##나다":3872,"인지":3873,"성인":3874,"수호":3875,"ST":3876,"마크":3877,"삶":3878,"##덜":3879,"모티브":3880,"##IA":3881,"##몰":3882,"비고":3883,"스파이":3884,"에이스":3885,"콩":3886,"확실히":3887,"아름답":3888,"행복":3889,"경계":3890,"부리":3891,"저주":3892,"감안":3893,"중단":3894,"태도":3895,"##를":3896,"가슴":3897,"190":3898,"##ik":3899,"카즈":3900,"임명":3901,"남편":3902,"공원":3903,"기획":3904,"꼴":3905,"쿄":3906,"지식":3907,"##롱":3908,"관광":3909,"##텀":3910,"표정":3911,"허용":3912,"승강":3913,"스마":3914,"쿨타임":3915,"장애":3916,"무섭":3917,"수단":3918,"지나치":3919,"오른쪽":3920,"셀":3921,"탑재":3922,"바탕":3923,"본선":3924,"멈추":3925,"딱히":3926,"인민":3927,"제시":3928,"친하":3929,"소프트":3930,"좁":3931,"상처":3932,"주도":3933,"##무원":3934,"당장":3935,"59":3936,"망하":3937,"이스":3938,"롱":3939,"##연히":3940,"처치":3941,"##북도":3942,"의문":3943,"영역":3944,"유래":3945,"기점":3946,"테마":3947,"소울":3948,"테크":3949,"고통":3950,"리스":3951,"보급":3952,"유우":3953,"##ab":3954,"컷":3955,"직원":3956,"불명":3957,"날아가":3958,"비싸":3959,"돌파":3960,"기어":3961,"멀티":3962,"베이스":3963,"위주":3964,"##닥":3965,"작용":3966,"고유":3967,"브로":3968,"주목":3969,"제압":3970,"대답":3971,"챙기":3972,"120":3973,"58":3974,"##워드":3975,"##뉘":3976,"나카":3977,"꼽":3978,"잠깐":3979,"##마스":3980,"주연":3981,"⭧아요":3982,"⭧을까":3983,"카운터":3984,"여부":3985,"##잔":3986,"##울리":3987,"제기":3988,"순서":3989,"갈리":3990,"측면":3991,"꺼내":3992,"베르":3993,"체계":3994,"도서":3995,"##춘":3996,"##est":3997,"탯":3998,"57":3999,"업무":4000,"박스":4001,"우수":4002,"진영":4003,"부인":4004,"텍":4005,"##th":4006,"MP":4007,"멀리":4008,"퍼지":4009,"문명":4010,"그레이":4011,"카메라":4012,"패스":4013,"횟수":4014,"드립":4015,"후속":4016,"멸망":4017,"통일":4018,"온라인":4019,"##all":4020,"버튼":4021,"공장":4022,"텔레":4023,"⭧어라":4024,"낳":4025,"시나리오":4026,"⫸아":4027,"##푸":4028,"지점":4029,"거주":4030,"케이스":4031,"갱":4032,"귀족":4033,"나뉘":4034,"##ea":4035,"##쇼":4036,"##거나":4037,"66":4038,"가ᄇ":4039,"##뇌":4040,"95":4041,"코너":4042,"문자":4043,"당선":4044,"##쇠":4045,"내려가":4046,"엉":4047,"겨우":4048,"협력":4049,"특기":4050,"차별":4051,"계산":4052,"소수":4053,"펀":4054,"지옥":4055,"##ᆸ터":4056,"후지":4057,"셔":4058,"댓":4059,"눈치":4060,"약속":4061,"듀얼":4062,"널":4063,"삼국":4064,"##로스":4065,"최악":4066,"마츠":4067,"##럴":4068,"건너":4069,"춤":4070,"스크":4071,"뉴욕":4072,"달라지":4073,"랍":4074,"테이":4075,"에어":4076,"Sh":4077,"시체":4078,"연계":4079,"⭧ᆯ수록":4080,"딜러":4081,"조지":4082,"은행":4083,"##붙이":4084,"다가":4085,"뱀":4086,"⭧건":4087,"##머리":4088,"크로스":4089,"Lo":4090,"##ct":4091,"늘리":4092,"살해":4093,"가볍":4094,"ddd":4095,"나타내":4096,"유키":4097,"on":4098,"##ᆨ시":4099,"프레":4100,"개편":4101,"상하":4102,"오후":4103,"가져가":4104,"1999":4105,"그라":4106,"##다르":4107,"융":4108,"Re":4109,"붕괴":4110,"배신":4111,"제로":4112,"틈":4113,"가로":4114,"대놓":4115,"자격":4116,"미스":4117,"미야":4118,"혁명":4119,"자치":4120,"게시":4121,"매치":4122,"군주":4123,"부담":4124,"110":4125,"##ddd":4126,"dddddd":4127,"Sp":4128,"자이":4129,"컨트로":4130,"게이지":4131,"1998":4132,"##AL":4133,"해금":4134,"겨울":4135,"국회의원":4136,"어울리":4137,"견제":4138,"증거":4139,"##핀":4140,"레이저":4141,"외부":4142,"##픈":4143,"##꼬":4144,"최대한":4145,"군인":4146,"장전":4147,"⭧ㅓ서":4148,"교사":4149,"필살기":4150,"##릉":4151,"##AT":4152,"62":4153,"출발":4154,"진실":4155,"제조":4156,"자살":4157,"핵심":4158,"##PS":4159,"정권":4160,"##워하":4161,"균":4162,"어린":4163,"대원":4164,"웨이":4165,"##륭":4166,"여왕":4167,"전장":4168,"드물":4169,"궁극":4170,"미군":4171,"##OR":4172,"중화":4173,"연방":4174,"용병":4175,"##니어":4176,"마왕":4177,"아메":4178,"섭":4179,"로켓":4180,"귀엽":4181,"니코":4182,"아침":4183,"댄스":4184,"옹":4185,"##VE":4186,"거절":4187,"충전":4188,"##아리":4189,"##라리":4190,"룰":4191,"한화":4192,"타이밍":4193,"출생":4194,"쓰러":4195,"브리":4196,"스프":4197,"봄":4198,"가르치":4199,"유용":4200,"공산":4201,"체인":4202,"SS":4203,"일본어":4204,"기분":4205,"SBS":4206,"미나":4207,"이성":4208,"##달리":4209,"##터리":4210,"커뮤":4211,"조준":4212,"만족":4213,"충돌":4214,"고급":4215,"브랜드":4216,"도구":4217,"단위":4218,"취소":4219,"블로":4220,"애매":4221,"교환":4222,"⭧는다고":4223,"스피드":4224,"부진":4225,"넷":4226,"⭧고서":4227,"거래":4228,"##ate":4229,"스킨":4230,"⭧쿠":4231,"##래도":4232,"스파":4233,"##사카":4234,"수학":4235,"흔히":4236,"##ess":4237,"피해자":4238,"##컨":4239,"극장판":4240,"토스":4241,"Th":4242,"##ell":4243,"카르":4244,"61":4245,"반란":4246,"제주":4247,"무게":4248,"##광역시":4249,"발휘":4250,"세계관":4251,"##킨":4252,"얼음":4253,"##ard":4254,"##읍":4255,"76":4256,"끼리":4257,"어떻":4258,"플라":4259,"장수":4260,"파악":4261,"후반부":4262,"##멘":4263,"하트":4264,"##ang":4265,"단독":4266,"아무래도":4267,"겹치":4268,"인생":4269,"모션":4270,"레전":4271,"홍콩":4272,"막히":4273,"패시브":4274,"공통":4275,"##IC":4276,"근무":4277,"판타":4278,"자르":4279,"##ue":4280,"신화":4281,"##랜":4282,"비록":4283,"삽":4284,"격투":4285,"아머":4286,"한자":4287,"##ant":4288,"헤드":4289,"##ack":4290,"순수":4291,"몰리":4292,"##ers":4293,"따위":4294,"피아":4295,"Al":4296,"NP":4297,"77":4298,"##두르":4299,"구입":4300,"정령":4301,"파이터":4302,"##ine":4303,"88":4304,"공군":4305,"1997":4306,"##다수":4307,"운전":4308,"72":4309,"등등":4310,"혼란":4311,"쿼":4312,"계급":4313,"자식":4314,"가입":4315,"수입":4316,"##하라":4317,"스코어":4318,"닥터":4319,"오스트":4320,"##심히":4321,"빔":4322,"내주":4323,"회수":4324,"##어내":4325,"권력":4326,"⭧자고":4327,"경력":4328,"본부":4329,"핀":4330,"채용":4331,"지시":4332,"##세이":4333,"공작":4334,"근거":4335,"커버":4336,"탄생":4337,"생일":4338,"밸런스":4339,"해방":4340,"비율":4341,"누리":4342,"##젠":4343,"##흑":4344,"외치":4345,"기절":4346,"우려":4347,"##촉":4348,"건강":4349,"쪼":4350,"지하철":4351,"언니":4352,"엑스":4353,"##웨이":4354,"용도":4355,"남부":4356,"꾸준히":4357,"##가락":4358,"아사":4359,"병기":4360,"갓":4361,"표준":4362,"갤러리":4363,"BG":4364,"⭧ㅕ서":4365,"##헨":4366,"타워":4367,"모리":4368,"실질":4369,"돌격":4370,"지대":4371,"##ok":4372,"##OS":4373,"납치":4374,"증명":4375,"스테":4376,"협회":4377,"반영":4378,"홍보":4379,"지급":4380,"##피아":4381,"무너지":4382,"##둑":4383,"프라":4384,"대공":4385,"강조":4386,"입학":4387,"be":4388,"오오":4389,"업체":4390,"##멀":4391,"불안":4392,"##렛":4393,"덴":4394,"랜덤":4395,"373":4396,"FI":4397,"윙":4398,"유형":4399,"왕자":4400,"##아나":4401,"외교":4402,"##픽":4403,"요원":4404,"##디션":4405,"경영":4406,"or":4407,"온가":4408,"##유키":4409,"대륙":4410,"감염":4411,"경향":4412,"쏟":4413,"98":4414,"fff":4415,"온갖":4416,"훌륭":4417,"광역":4418,"감사":4419,"CD":4420,"gt":4421,"⭧아라":4422,"연대":4423,"노르":4424,"제이":4425,"##솔":4426,"마녀":4427,"실행":4428,"맡기":4429,"장식":4430,"문학":4431,"##ive":4432,"패러디":4433,"젠":4434,"울트라":4435,"기독":4436,"서포":4437,"덮":4438,"페이스":4439,"찌르":4440,"물질":4441,"600":4442,"원수":4443,"주어지":4444,"없애":4445,"내놓":4446,"입단":4447,"##오리":4448,"재생":4449,"가까이":4450,"##크래프트":4451,"스페셜":4452,"화살":4453,"추진":4454,"주년":4455,"어차":4456,"찾아가":4457,"집안":4458,"고민":4459,"내내":4460,"설득":4461,"대다수":4462,"계승":4463,"1996":4464,"트라":4465,"선배":4466,"승강장":4467,"살짝":4468,"사카":4469,"어차피":4470,"부문":4471,"폐지":4472,"##ast":4473,"캐나다":4474,"##고기":4475,"PS":4476,"고기":4477,"##AS":4478,"영원":4479,"정지":4480,"대놓고":4481,"와이":4482,"이슬":4483,"##들리":4484,"신문":4485,"##피스":4486,"##어리":4487,"베트":4488,"1995":4489,"밟":4490,"보물":4491,"낭":4492,"적당":4493,"##메달":4494,"킥":4495,"아나":4496,"오류":4497,"신뢰":4498,"사전":4499,"##바로":4500,"아리":4501,"##멍":4502,"이렇":4503,"연예":4504,"지우":4505,"작사":4506,"즉시":4507,"⭧ㅓ야":4508,"기기":4509,"흘리":4510,"##즈키":4511,"##uby":4512,"\",":4513,"파라":4514,"전선":4515,"당황":4516,"##ED":4517,"미소":4518,"내려오":4519,"함선":4520,"괴롭":4521,"##tt":4522,"##휴":4523,"아야":4524,"##다지":4525,"68":4526,"뒤집":4527,"페이지":4528,"##ee":4529,"폭풍":4530,"브라질":4531,"등판":4532,"은근":4533,"쇠":4534,"lt":4535,"오픈":4536,"800":4537,"소문":4538,"짝":4539,"헤이":4540,"탑승":4541,"명예":4542,"열심히":4543,"상품":4544,"화장":4545,"입수":4546,"레전드":4547,"오프닝":4548,"⭧군":4549,"##렘":4550,"필리":4551,"별도":4552,"갑옷":4553,"경유":4554,"심리":4555,"시행":4556,"락":4557,"파리":4558,"##붙":4559,"경기장":4560,"러브":4561,"령":4562,"단일":4563,"63":4564,"##시오":4565,"말리":4566,"메탈":4567,"마이크":4568,"의회":4569,"##렴":4570,"1980":4571,"변호":4572,"##팩":4573,"라스":4574,"통제":4575,"마련":4576,"늑":4577,"##아먹":4578,"랩":4579,"##카와":4580,"틱":4581,"공유":4582,"댓글":4583,"반격":4584,"##ong":4585,"##AM":4586,"ruby":4587,"##ᅦᆯ라":4588,"운명":4589,"가면라이더":4590,"정류":4591,"푸르":4592,"응원":4593,"##세우":4594,"크루":4595,"캔":4596,"레오":4597,"후쿠":4598,"한때":4599,"커뮤니티":4600,"신청":4601,"쓰레":4602,"트위터":4603,"격파":4604,"라이벌":4605,"사령관":4606,"##ort":4607,"⭧리":4608,"김성":4609,"주전":4610,"갤":4611,"고전":4612,"기독교":4613,"출판":4614,"공기":4615,"##납":4616,"습득":4617,"이승":4618,"##웨어":4619,"컨트롤":4620,"중계":4621,"랜드":4622,"깃":4623,"편의":4624,"퀄":4625,"##ith":4626,"하수":4627,"수업":4628,"심장":4629,"오해":4630,"처하":4631,"불만":4632,"신고":4633,"마인":4634,"마주":4635,"두산":4636,"울산":4637,"71":4638,"##if":4639,"74":4640,"관객":4641,"외국인":4642,"##ᆮ히":4643,"카나":4644,"정말로":4645,"보정":4646,"주위":4647,"##ly":4648,"메가":4649,"스트라이":4650,"##나무":4651,"##fff":4652,"건축":4653,"##아버지":4654,"출장":4655,"....":4656,"용어":4657,"MV":4658,"##ld":4659,"그곳":4660,"전달":4661,"닿":4662,"73":4663,"여론":4664,"67":4665,"메이저":4666,"ffffff":4667,"민간":4668,"사운드":4669,"짜리":4670,"절반":4671,"조치":4672,"묵":4673,"가리키":4674,"##티컬":4675,"고치":4676,"지형":4677,"가토":4678,"갈등":4679,"여신":4680,"##딘":4681,"##도우":4682,"붙잡":4683,"임시":4684,"무적":4685,"##ᆯ릭":4686,"##학자":4687,"재능":4688,"챠":4689,"가득":4690,"요새":4691,"전함":4692,"아오":4693,"전공":4694,"##겨나":4695,"둥":4696,"압박":4697,"NC":4698,"##ain":4699,"리버":4700,"별개":4701,"엔터":4702,"초월":4703,"##ist":4704,"96":4705,"알렉":4706,"쌓이":4707,"오로":4708,"종점":4709,"연구소":4710,"네이버":4711,"##묵":4712,"##쥐":4713,"스튜":4714,"##타인":4715,"1994":4716,"##ind":4717,"안드로":4718,"북쪽":4719,"##드라":4720,"카라":4721,"전형":4722,"추적":4723,"팝":4724,"TH":4725,"그다지":4726,"메타":4727,"시각":4728,"180":4729,"컨텐츠":4730,"남쪽":4731,"##돌리":4732,"제하":4733,"지ᄏ":4734,"무르":4735,"가이":4736,"늑대":4737,"보장":4738,"발매되":4739,"써":4740,"AC":4741,"돌진":4742,"시야":4743,"소멸":4744,"##서트":4745,"판타지":4746,"##크로":4747,"81":4748,"AT":4749,"##ᆷ프":4750,"결승전":4751,"전시":4752,"널리":4753,"클라":4754,"타점":4755,"다행히":4756,"파이어":4757,"일부러":4758,"무지":4759,"⫸하":4760,"##럿":4761,"탁":4762,"##렁":4763,"##per":4764,"동기":4765,"불꽃":4766,"그만큼":4767,"##가와":4768,"따오":4769,"동네":4770,"환자":4771,"##듀서":4772,"프로듀서":4773,"##ps":4774,"강원":4775,"##지컬":4776,"##EN":4777,"서부":4778,"쉐":4779,"여동생":4780,"문제점":4781,"흔하":4782,"적히":4783,"화려":4784,"화이트":4785,"##츠키":4786,"쓰러뜨리":4787,"그림자":4788,"선호":4789,"왕조":4790,"동원":4791,"폭력":4792,"##놈":4793,"상향":4794,"아티":4795,"우스":4796,"지켜보":4797,"##깝":4798,"파이널":4799,"회원":4800,"이마":4801,"대만":4802,"뛰어":4803,"본명":4804,"치명타":4805,"유비":4806,"유로":4807,"북부":4808,"맞서":4809,"굽":4810,"물러":4811,"##EC":4812,"소드":4813,"⭧자는":4814,"##툰":4815,"##ᆺ가":4816,"클로":4817,"78":4818,"신라":4819,"##식간":4820,"91":4821,"맘":4822,"##OL":4823,"##콤":4824,"##스탄":4825,"수요":4826,"순식간":4827,"연상":4828,"##어스":4829,"무난":4830,"곰":4831,"##ew":4832,"종이":4833,"도서관":4834,"##ᅫ지":4835,"신세":4836,"향상":4837,"전역":4838,"메시":4839,"매력":4840,"학과":4841,"차트":4842,"전적":4843,"##더스":4844,"틀리":4845,"변형":4846,"##캐":4847,"최상":4848,"헨":4849,"전방":4850,"부품":4851,"##팡":4852,"지르":4853,"아시":4854,"84":4855,"CP":4856,"체포":4857,"영토":4858,"성과":4859,"일상":4860,"수집":4861,"크리티컬":4862,"암흑":4863,"전투력":4864,"시드":4865,"게이트":4866,"##사키":4867,"코믹스":4868,"아우":4869,"테스트":4870,"키스":4871,"아트":4872,"팅":4873,"영업":4874,"##LC":4875,"킬":4876,"##ᆷ치":4877,"마술":4878,"me":4879,"인수":4880,"토모":4881,"##ry":4882,"수용":4883,"조절":4884,"저런":4885,"파견":4886,"플로":4887,"드디어":4888,"오랜":4889,"폭격":4890,"복잡":4891,"학살":4892,"유전":4893,"복장":4894,"##려움":4895,"오빠":4896,"82":4897,"바라보":4898,"대우":4899,"떡밥":4900,"릭":4901,"##lo":4902,"입력":4903,"구현":4904,"편지":4905,"##껏":4906,"##융":4907,"개통":4908,"생명력":4909,"호환":4910,"현지":4911,"97":4912,"니시":4913,"추락":4914,"키리":4915,"신인":4916,"사자":4917,"천사":4918,"도달":4919,"아무런":4920,"고향":4921,"콜라":4922,"동부":4923,"닌자":4924,"사토":4925,"##덜란드":4926,"네덜란드":4927,"청년":4928,"86":4929,"##찾":4930,"창작":4931,"반지":4932,"밴":4933,"아가":4934,"경비":4935,"점차":4936,"작동":4937,"맞이":4938,"콘서트":4939,"연관":4940,"프레임":4941,"교황":4942,"엘프":4943,"스펙":4944,"##일랜드":4945,"##브리":4946,"한국인":4947,"쓰레기":4948,"수송":4949,"출현":4950,"노예":4951,"그치":4952,"스톤":4953,"기초":4954,"바이오":4955,"##레나":4956,"낚":4957,"짱":4958,"모바":4959,"덧":4960,"추격":4961,"⭧단":4962,"해설":4963,"it":4964,"해체":4965,"69":4966,"객":4967,"##퍼스":4968,"⭧다시피":4969,"몰래":4970,"달하":4971,"토리":4972,"##어버리":4973,"조용":4974,"구도":4975,"충청":4976,"묶":4977,"의상":4978,"##노스":4979,"심판":4980,"##밀리":4981,"간격":4982,"공급":4983,"녹음":4984,"나루":4985,"is":4986,"주먹":4987,"아무것":4988,"##모로":4989,"##히로":4990,"식물":4991,"막장":4992,"시위":4993,"조성":4994,"NPC":4995,"연사":4996,"##ᆷ새":4997,"프리미":4998,"전투기":4999,"조조":5000,"사쿠라":5001,"##오프":5002,"##IT":5003,"제자":5004,"퀸":5005,"둘러":5006,"##둥이":5007,"돌아다니":5008,"수술":5009,"무효":5010,"썰":5011,"마스":5012,"스마트":5013,"연애":5014,"검색":5015,"슬롯":5016,"⭧잖":5017,"실드":5018,"만든":5019,"감시":5020,"##타로":5021,"스카이":5022,"레스":5023,"US":5024,"그래픽":5025,"일제":5026,"블록":5027,"꼬리":5028,"법원":5029,"##스트라":5030,"동쪽":5031,"##특별":5032,"찰":5033,"마리오":5034,"⫸께":5035,"경험치":5036,"구체":5037,"MS":5038,"고교":5039,"룬":5040,"옛날":5041,"놓치":5042,"까다":5043,"알아":5044,"##오카":5045,"An":5046,"통상":5047,"총기":5048,"김정":5049,"##티나":5050,"뼈":5051,"##보내":5052,"범인":5053,"##ᅦ이터":5054,"룡":5055,"구속":5056,"긍":5057,"베트남":5058,"라이더":5059,"##글랜드":5060,"진지":5061,"##ust":5062,"마리아":5063,"신분":5064,"대립":5065,"신규":5066,"장교":5067,"은하":5068,"연락":5069,"카미":5070,"어깨":5071,"국립":5072,"예외":5073,"쿠키":5074,"앵":5075,"250":5076,"##주시":5077,"KT":5078,"강의":5079,"##어도":5080,"##칠":5081,"인근":5082,"춘":5083,"입구":5084,"탱크":5085,"##ᆼ이":5086,"지도자":5087,"신성":5088,"뷰":5089,"다섯":5090,"차단":5091,"규칙":5092,"글자":5093,"##50":5094,"되찾":5095,"불편":5096,"대대":5097,"##뜩":5098,"메카":5099,"디아":5100,"마도":5101,"평타":5102,"프린":5103,"창조":5104,"요정":5105,"언제나":5106,"바보":5107,"박살":5108,"코인":5109,"안습":5110,"총선":5111,"##헤":5112,"유희":5113,"모바일":5114,"동작":5115,"##도로":5116,"토론":5117,"후기":5118,"전라":5119,"##비전":5120,"##홀":5121,"여러모로":5122,"에드":5123,"환상":5124,"189":5125,"거짓말":5126,"##디아":5127,"노출":5128,"기여":5129,"의료":5130,"##파이어":5131,"권총":5132,"세월":5133,"소총":5134,"접하":5135,"이래":5136,"이리":5137,"이득":5138,"농구":5139,"어택":5140,"##즌":5141,"일원":5142,"##ᆯ레":5143,"자이언":5144,"무료":5145,"신호":5146,"블레이드":5147,"202":5148,"서쪽":5149,"##영상":5150,"가시":5151,"이날":5152,"1992":5153,"##버트":5154,"부위":5155,"##크스":5156,"출처":5157,"정복":5158,"개혁":5159,"음성":5160,"미술":5161,"폭주":5162,"그르":5163,"극단":5164,"잠수":5165,"고생":5166,"##깔":5167,"띄우":5168,"92":5169,"##옹":5170,"헌터":5171,"##BO":5172,"##ore":5173,"##ᅢᆼ이":5174,"##저히":5175,"간부":5176,"겉":5177,"Ar":5178,"참전":5179,"반발":5180,"전직":5181,"교전":5182,"고용":5183,"투어":5184,"대체로":5185,"양산":5186,"일자":5187,"보석":5188,"고문":5189,"폴란드":5190,"대량":5191,"연도":5192,"상점":5193,"83":5194,"글로":5195,"렙":5196,"라이프":5197,"제법":5198,"호평":5199,"상상":5200,"제어":5201,"동영상":5202,"길이":5203,"수영":5204,"마루":5205,"정류장":5206,"##리티":5207,"승격":5208,"전대":5209,"Te":5210,"##보드":5211,"출력":5212,"⭧랄":5213,"##ᆸ스":5214,"겐":5215,"사양":5216,"합격":5217,"89":5218,"기습":5219,"⭧잖아":5220,"휘두르":5221,"터치":5222,"##FF":5223,"101":5224,"사마":5225,"##룩":5226,"93":5227,"1993":5228,"공학":5229,"잉글랜드":5230,"반하":5231,"지휘관":5232,"북미":5233,"De":5234,"MAX":5235,"제작진":5236,"태우":5237,"기병":5238,"윌리":5239,"촌":5240,"득표":5241,"⫸하고":5242,"중대":5243,"94":5244,"요괴":5245,"합성":5246,"미디어":5247,"⫸이랑":5248,"깎":5249,"다이아":5250,"머신":5251,"환승":5252,"인증":5253,"##륜":5254,"##다이":5255,"⫸링":5256,"법률":5257,"com":5258,"79":5259,"끼치":5260,"적어도":5261,"탄약":5262,"조심":5263,"가량":5264,"박근":5265,"##일드":5266,"런던":5267,"회차":5268,"구출":5269,"이자":5270,"매니":5271,"요즘":5272,"탱커":5273,"##FC":5274,"파일럿":5275,"의혹":5276,"##ᆨ시코":5277,"원소":5278,"띠":5279,"re":5280,"활성":5281,"사이드":5282,"동방":5283,"샘":5284,"유령":5285,"포탑":5286,"하수인":5287,"##덩":5288,"노멀":5289,"삼진":5290,"침공":5291,"믹":5292,"⭧다면서":5293,"분기":5294,"87":5295,"디지털":5296,"마이클":5297,"의무":5298,"이재":5299,"##란색":5300,"##ᆫ지":5301,"톱":5302,"개정":5303,"서양":5304,"멋지":5305,"알파":5306,"가톨릭":5307,"묘지":5308,"인공":5309,"##우드":5310,"가게":5311,"홀로":5312,"볼넷":5313,"훔치":5314,"이슬람":5315,"똑같이":5316,"네임":5317,"첨":5318,"가속":5319,"결성":5320,"##one":5321,"실리":5322,"예비":5323,"메인":5324,"대략":5325,"스웨":5326,"학자":5327,"On":5328,"히데":5329,"블러":5330,"패널":5331,"##쩡":5332,"경고":5333,"레인저":5334,"계정":5335,"⫸란":5336,"##폼":5337,"아크":5338,"##se":5339,"축제":5340,"##ip":5341,"캐스":5342,"쾌":5343,"헌법":5344,"소화":5345,"전면":5346,"이내":5347,"아일랜드":5348,"##둔":5349,"##AC":5350,"부부":5351,"AI":5352,"DJ":5353,"앱":5354,"특화":5355,"용사":5356,"##RE":5357,"##자키":5358,"익숙":5359,"상호":5360,"나아가":5361,"횡":5362,"⫸같이":5363,"미츠":5364,"⭧었었":5365,"갤럭":5366,"##ere":5367,"##먼트":5368,"문장":5369,"바이러스":5370,"메모리":5371,"도망가":5372,"어지":5373,"워치":5374,"블리":5375,"근육":5376,"대항":5377,"불법":5378,"넘치":5379,"##PG":5380,"##닫":5381,"어째":5382,"슈트":5383,"BGM":5384,"MC":5385,"슛":5386,"핸드":5387,"플레이오프":5388,"칼리":5389,"베스트":5390,"이시":5391,"어둡":5392,"오가":5393,"SN":5394,"자매":5395,"유행":5396,"묻히":5397,"한방":5398,"개체":5399,"켜":5400,"##ity":5401,"도발":5402,"⭧냐며":5403,"쿠로":5404,"타케":5405,"어린이":5406,"##붕":5407,"들어서":5408,"##ath":5409,"김영":5410,"##녁":5411,"핫":5412,"##창기":5413,"고지":5414,"보안":5415,"육성":5416,"##넣":5417,"##조리":5418,"예측":5419,"빛나":5420,"예고":5421,"신기":5422,"이즈":5423,"소닉":5424,"빗":5425,"제임":5426,"자금":5427,"갤럭시":5428,"총리":5429,"루시":5430,"⭧으니까":5431,"겁":5432,"##컷":5433,"검찰":5434,"형사":5435,"취임":5436,"멕시코":5437,"카스":5438,"FIFA":5439,"터키":5440,"정면":5441,"결론":5442,"사제":5443,"길드":5444,"##end":5445,"국방":5446,"웬만":5447,"차리":5448,"리스트":5449,"스톰":5450,"고백":5451,"1991":5452,"대리":5453,"##끄럽":5454,"루타":5455,"캐리":5456,"파크":5457,"구멍":5458,"식사":5459,"움직임":5460,"불러":5461,"마구":5462,"일시":5463,"아기":5464,"레이스":5465,"리치":5466,"세이브":5467,"스미":5468,"호텔":5469,"곧바로":5470,"##컴":5471,"상업":5472,"앞두":5473,"이명":5474,"감옥":5475,"여유":5476,"그로":5477,"!!":5478,"##펙트":5479,"저장":5480,"번개":5481,"절망":5482,"제임스":5483,"찾아보":5484,"개방":5485,"부서":5486,"진심":5487,"원자":5488,"##워크":5489,"투구":5490,"사이즈":5491,"구원":5492,"##라이트":5493,"대가":5494,"유대":5495,"볼트":5496,"초창기":5497,"플랫":5498,"세르":5499,"THE":5500,"700":5501,"타마":5502,"FA":5503,"##고리":5504,"피부":5505,"너무나":5506,"바위":5507,"콜로":5508,"배차":5509,"##요시":5510,"박정":5511,"듯이":5512,"청소년":5513,"오랫":5514,"팀원":5515,"흥행":5516,"강철":5517,"⭧ㅕㅆ":5518,"럭":5519,"바치":5520,"카타":5521,"리ᄆ":5522,"⭧거":5523,"착각":5524,"좌우":5525,"##특별시":5526,"전철":5527,"여지":5528,"1988":5529,"##구리":5530,"파트너":5531,"발달":5532,"세포":5533,"리메이크":5534,"MVP":5535,"소형":5536,"##페인":5537,"아끼":5538,"처벌":5539,"그동안":5540,"서울특별시":5541,"반사":5542,"떠오르":5543,"현역":5544,"다스":5545,"레이드":5546,"신설":5547,"둔":5548,"긍정":5549,"##네스":5550,"아빠":5551,"##쾌":5552,"주식":5553,"융합":5554,"##데스":5555,"##레이터":5556,"훗":5557,"주간":5558,"망치":5559,"외계":5560,"##로나":5561,"분량":5562,"차라리":5563,"프라이":5564,"정착":5565,"Ro":5566,"위장":5567,"물러나":5568,"잦":5569,"미카":5570,"##OT":5571,"인정받":5572,"돼지":5573,"챕터":5574,"합의":5575,"##디언":5576,"식민":5577,"랭킹":5578,"내성":5579,"##성기":5580,"봇":5581,"목격":5582,"인연":5583,"누적":5584,"커지":5585,"협박":5586,"전문가":5587,"내장":5588,"장악":5589,"단장":5590,"게스트":5591,"의뢰":5592,"화학":5593,"빌드":5594,"알레":5595,"보고":5596,"CC":5597,"방지":5598,"⫸에서부터":5599,"포스트":5600,"펠":5601,"곁":5602,"야스":5603,"섞":5604,"브레이크":5605,"잡지":5606,"박근혜":5607,"##든지":5608,"Wh":5609,"해병":5610,"영향력":5611,"공지":5612,"논리":5613,"방출":5614,"안드로이드":5615,"동의":5616,"태그":5617,"##ᆫ트":5618,"쟈":5619,"국왕":5620,"사우":5621,"방사":5622,"⭧는다면":5623,"AK":5624,"시즈":5625,"깨지":5626,"타이거":5627,"먹히":5628,"조약":5629,"포트":5630,"뭉":5631,"각자":5632,"그대":5633,"꺾":5634,"몰아":5635,"떠올리":5636,"요코":5637,"배트":5638,"한번":5639,"룸":5640,"괴롭히":5641,"관할":5642,"저녁":5643,"펴":5644,"지능":5645,"##ect":5646,"DLC":5647,"골든":5648,"하필":5649,"국군":5650,"칭하":5651,"htt":5652,"⭧라면서":5653,"대폭":5654,"Se":5655,"1970":5656,"흠":5657,"의존":5658,"최소한":5659,"양쪽":5660,"놀이":5661,"멍":5662,"⭧으려고":5663,"호주":5664,"손가락":5665,"토르":5666,"Le":5667,"악역":5668,"마침내":5669,"스턴":5670,"동화":5671,"연맹":5672,"과목":5673,"변호사":5674,"대지":5675,"실버":5676,"공무원":5677,"유치":5678,"'.":5679,"삐":5680,"후속작":5681,"막차":5682,"기구":5683,"##셰":5684,"수련":5685,"수수":5686,"본작":5687,"그럼":5688,"무역":5689,"소지":5690,"섞이":5691,"He":5692,"면역":5693,"보관":5694,"소원":5695,"오랫동안":5696,"무덤":5697,"PD":5698,"##톱":5699,"##age":5700,"오사카":5701,"웹툰":5702,"주말":5703,"역임":5704,"오카":5705,"##IS":5706,"귀신":5707,"육체":5708,"연인":5709,"스리":5710,"이지":5711,"기원전":5712,"빡":5713,"al":5714,"혐의":5715,"해리":5716,"스튜디오":5717,"썩":5718,"내구":5719,"명중률":5720,"확대":5721,"재산":5722,"카오스":5723,"접촉":5724,"⫸레":5725,"호감":5726,"어쨌":5727,"불교":5728,"노부":5729,"다가오":5730,"적대":5731,"##구치":5732,"네트":5733,"kt":5734,"##잡이":5735,"대처":5736,"샌":5737,"깜":5738,"메리":5739,"윌":5740,"명성":5741,"팔리":5742,"써먹":5743,"강남":5744,"태평":5745,"계단":5746,"올해":5747,"전후":5748,"비행기":5749,"Go":5750,"연료":5751,"예능":5752,"정비":5753,"Me":5754,"출마":5755,"통치":5756,"씌":5757,"간혹":5758,"슈팅":5759,"험":5760,"테일":5761,"오늘날":5762,"딘":5763,"합체":5764,"트레이드":5765,"피스":5766,"화제":5767,"로즈":5768,"컬러":5769,"모모":5770,"예쁘":5771,"정치인":5772,"마키":5773,"부장":5774,"정원":5775,"섀":5776,"퀄리티":5777,"흐름":5778,"개성":5779,"츄":5780,"⭧ᆫ다며":5781,"소장":5782,"리드":5783,"안내":5784,"놀랍":5785,"학부":5786,"오전":5787,"게시판":5788,"소스":5789,"뺏":5790,"GT":5791,"놓이":5792,"준수":5793,"휴대":5794,"접속":5795,"저그":5796,"수익":5797,"권리":5798,"1989":5799,"떨어":5800,"KIA":5801,"권한":5802,"빚":5803,"특집":5804,"패하":5805,"연극":5806,"하우스":5807,"##og":5808,"외형":5809,"금융":5810,"##ake":5811,"##ide":5812,"##어나오":5813,"박물":5814,"크라":5815,"선전":5816,"김태":5817,"새벽":5818,"허리":5819,"##오르":5820,"고마":5821,"상당수":5822,"윌리엄":5823,"톰":5824,"##OM":5825,"Be":5826,"피격":5827,"이집":5828,"⫸에다":5829,"My":5830,"초간":5831,"이집트":5832,"주기":5833,"WW":5834,"무렵":5835,"따라가":5836,"공공":5837,"##미야":5838,"##흡":5839,"뻐":5840,"담기":5841,"##ᅦ인트":5842,"환영":5843,"편곡":5844,"페이즈":5845,"일기":5846,"130":5847,"최다":5848,"둘째":5849,"시계":5850,"금속":5851,"포르투":5852,"갇히":5853,"꼽히":5854,"##윈":5855,"알아보":5856,"##려주":5857,"나치":5858,"넉":5859,"AR":5860,"메르":5861,"##ss":5862,"고구":5863,"원칙":5864,"##바라":5865,"결합":5866,"SC":5867,"##ark":5868,"누나":5869,"림":5870,"##ime":5871,"숭":5872,"깨닫":5873,"연타":5874,"##ire":5875,"알렉산":5876,"할아버지":5877,"치우":5878,"SM":5879,"편입":5880,"식당":5881,"리얼":5882,"##지마":5883,"유물":5884,"굴리":5885,"개입":5886,"한동안":5887,"문재":5888,"캠퍼스":5889,"흘":5890,"기도":5891,"인조":5892,"매직":5893,"어른":5894,"##세스":5895,"뜬":5896,"렛":5897,"웅":5898,"지진":5899,"주사":5900,"거인":5901,"188":5902,"전신":5903,"⭧으러":5904,"소중":5905,"아니면":5906,"극복":5907,"wh":5908,"116":5909,"블로그":5910,"전진":5911,"시선":5912,"성립":5913,"영문":5914,"##듭":5915,"my":5916,"Su":5917,"##ES":5918,"정찰":5919,"##티아":5920,"사도":5921,"은근히":5922,"회상":5923,"헤비":5924,"정글":5925,"딩":5926,"아바":5927,"기사단":5928,"SD":5929,"협상":5930,"⭧ㅓ도":5931,"캐스팅":5932,"##칼":5933,"메뉴":5934,"궤도":5935,"뜯":5936,"스웨덴":5937,"##ID":5938,"##그마":5939,"시내버스":5940,"팬덤":5941,"Tr":5942,"음원":5943,"부디":5944,"유이":5945,"⭧는지라":5946,"대개":5947,"작곡가":5948,"손해":5949,"데모":5950,"##ite":5951,"##던가":5952,"익히":5953,"대충":5954,"튀어나오":5955,"독특":5956,"재단":5957,"수십":5958,"동굴":5959,"##다랗":5960,"우위":5961,"더더":5962,"별다르":5963,"##아시아":5964,"안티":5965,"복무":5966,"무겁":5967,"보라":5968,"고수":5969,"민주주의":5970,"용기":5971,"식량":5972,"##부르크":5973,"털리":5974,"트럭":5975,"160":5976,"젤":5977,"교차":5978,"리아":5979,"종목":5980,"이익":5981,"해안":5982,"##회사":5983,"처형":5984,"##맨드":5985,"##ound":5986,"조언":5987,"아이스":5988,"일찍":5989,"뱅":5990,"멀쩡":5991,"SR":5992,"클래식":5993,"과제":5994,"이끄":5995,"리듬":5996,"세이버":5997,"허나":5998,"위상":5999,"##iv":6000,"원본":6001,"더더욱":6002,"HD":6003,"''":6004,"커맨드":6005,"펀치":6006,"신비":6007,"커스":6008,"##라드":6009,"김민":6010,"빼앗기":6011,"시마":6012,"##베르":6013,"타인":6014,"박물관":6015,"까다롭":6016,"플라이":6017,"##미니":6018,"힙":6019,"신부":6020,"##리그":6021,"⭧든지":6022,"##가미":6023,"##iz":6024,"##OP":6025,"삼국지":6026,"##쳐지":6027,"훗날":6028,"##ge":6029,"##마디":6030,"증언":6031,"해적":6032,"머무":6033,"천재":6034,"날짜":6035,"절대로":6036,"적군":6037,"IC":6038,"자국":6039,"꽂":6040,"마비":6041,"일격":6042,"살아가":6043,"신앙":6044,"위원장":6045,"구사":6046,"##가리":6047,"##OW":6048,"갈수록":6049,"⭧구나":6050,"##ᆯ락":6051,"노인":6052,"재미있":6053,"바리":6054,"##스턴":6055,"각본":6056,"무릎":6057,"코우":6058,"중독":6059,"하얗":6060,"##큐어":6061,"기적":6062,"재정":6063,"죄다":6064,"킨":6065,"세종":6066,"주포":6067,"집행":6068,"양성":6069,"슬로":6070,"스승":6071,"멘탈":6072,"철학":6073,"⫸요":6074,"하락":6075,"우라":6076,"참석":6077,"마이너":6078,"지위":6079,"##바르":6080,"캠페인":6081,"과연":6082,"비례":6083,"고리":6084,"정수":6085,"개시":6086,"호수":6087,"예산":6088,"결코":6089,"모자라":6090,"국적":6091,"적응":6092,"패션":6093,"호위":6094,"교류":6095,"관중":6096,"작화":6097,"크리스마스":6098,"한참":6099,"탄창":6100,"깡":6101,"매체":6102,"##팀":6103,"이브":6104,"이중":6105,"##덩이":6106,"##LL":6107,"열쇠":6108,"##프레":6109,"안경":6110,"히메":6111,"##ome":6112,"활발":6113,"시아":6114,"데이비":6115,"경기력":6116,"Gr":6117,"##갛":6118,"##쩍":6119,"펫":6120,"내세우":6121,"원주":6122,"⭧어다":6123,"선출":6124,"투명":6125,"십자":6126,"드레":6127,"##테르":6128,"툴":6129,"해상":6130,"바퀴":6131,"##쥬":6132,"with":6133,"냥":6134,"우연히":6135,"김종":6136,"루수":6137,"체크":6138,"##BA":6139,"희귀":6140,"##지로":6141,"명단":6142,"비추":6143,"녹색":6144,"##UN":6145,"충성":6146,"화성":6147,"진보":6148,"곽":6149,"##리스트":6150,"미안":6151,"스타크래프트":6152,"##스키":6153,"데려오":6154,"##슬리":6155,"새기":6156,"이영":6157,"칭찬":6158,"개수":6159,"사막":6160,"개막":6161,"렉":6162,"첫차":6163,"주일":6164,"##아웃":6165,"결말":6166,"IS":6167,"위대":6168,"로그":6169,"행적":6170,"헝":6171,"##든가":6172,"전성기":6173,"##몬드":6174,"모래":6175,"뽀":6176,"제정":6177,"당일":6178,"의대":6179,"기르":6180,"인지도":6181,"흔적":6182,"1987":6183,"상급":6184,"기종":6185,"챌린":6186,"흔들리":6187,"후방":6188,"업적":6189,"오스트리아":6190,"de":6191,"미터":6192,"강점":6193,"BE":6194,"px":6195,"임대":6196,"상성":6197,"140":6198,"농담":6199,"어지간":6200,"김동":6201,"포로":6202,"웃음":6203,"사유":6204,"계통":6205,"⭧겟":6206,"##핵":6207,"대수":6208,"##릭스":6209,"켈":6210,"⭧느라":6211,"도우":6212,"##MA":6213,"Pr":6214,"버스터":6215,"재현":6216,"대학원":6217,"⭧요":6218,"취미":6219,"면적":6220,"무작":6221,"왈":6222,"매년":6223,"##ord":6224,"스프링":6225,"Love":6226,"비상":6227,"오직":6228,"어쨌든":6229,"토끼":6230,"어려움":6231,"체육관":6232,"클릭":6233,"⭧더라":6234,"##려나":6235,"심사":6236,"##ud":6237,"일반인":6238,"포항":6239,"펑":6240,"고스트":6241,"피니":6242,"개량":6243,"사후":6244,"⭧에":6245,"신장":6246,"##가시":6247,"거점":6248,"프리큐어":6249,"첼":6250,"생존자":6251,"유적":6252,"이정":6253,"남북":6254,"어마":6255,"강도":6256,"자책":6257,"기아":6258,"과장":6259,"새끼":6260,"ch":6261,"본체":6262,"모조리":6263,"##양함":6264,"자본":6265,"자극":6266,"괴수":6267,"예수":6268,"이주":6269,"##코드":6270,"닥":6271,"가을":6272,"##mp":6273,"부지":6274,"##케이":6275,"⭧으시":6276,"파츠":6277,"##사자":6278,"헛":6279,"화물":6280,"##데미":6281,"울리":6282,"카트":6283,"##10":6284,"부작":6285,"로우":6286,"맥스":6287,"저작":6288,"전멸":6289,"돋":6290,"스탠":6291,"##일러":6292,"##ame":6293,"##나미":6294,"람":6295,"기용":6296,"##겐":6297,"소위":6298,"UE":6299,"어스":6300,"선고":6301,"##멜":6302,"##ance":6303,"아메리카":6304,"캡틴":6305,"시달리":6306,"연금":6307,"추구":6308,"기울":6309,"아티스트":6310,"SKT":6311,"##ax":6312,"##카드":6313,"미라":6314,"구리":6315,"인격":6316,"##ᆼ기":6317,"에리":6318,"흥미":6319,"자세히":6320,"an":6321,"##치기":6322,"가짜":6323,"출입":6324,"행하":6325,"판매량":6326,"JR":6327,"공세":6328,"##ure":6329,"아카데미":6330,"뮈":6331,"유나이":6332,"유니폼":6333,"꽈":6334,"불타":6335,"##ix":6336,"기ᄈ":6337,"900":6338,"일치":6339,"차기":6340,"GS":6341,"승점":6342,"채택":6343,"포격":6344,"브루":6345,"##뜻":6346,"공룡":6347,"일방":6348,"단편":6349,"유나이티":6350,"취향":6351,"아미":6352,"##ick":6353,"소송":6354,"##mer":6355,"스마트폰":6356,"도주":6357,"##랑이":6358,"포드":6359,"덧붙이":6360,"탈퇴":6361,"코코":6362,"부자":6363,"일본인":6364,"##ice":6365,"막대":6366,"사형":6367,"스트리":6368,"연패":6369,"할머니":6370,"기량":6371,"색깔":6372,"타율":6373,"칩":6374,"피아노":6375,"##깥":6376,"바깥":6377,"귀찮":6378,"##our":6379,"제작자":6380,"사라":6381,"잘리":6382,"한마디":6383,"##긋":6384,"Bo":6385,"유통":6386,"건조":6387,"코리아":6388,"상실":6389,"아즈":6390,"눕":6391,"타선":6392,"화장실":6393,"드라이브":6394,"⭧런":6395,"구경":6396,"후계":6397,"생겨나":6398,"영구":6399,"치유":6400,"##이즈":6401,"집어":6402,"을":6403,"라이온":6404,"마린":6405,"몽골":6406,"측정":6407,"EP":6408,"닭":6409,"노벨":6410,"식민지":6411,"내지":6412,"비주":6413,"##아다니":6414,"미루":6415,"요금":6416,"햄":6417,"##시로":6418,"씹":6419,"##맛":6420,"자전":6421,"보존":6422,"1986":6423,"거듭":6424,"로고":6425,"##시타":6426,"날아오":6427,"다름":6428,"##공화국":6429,"선택지":6430,"무라":6431,"##랭크":6432,"트레":6433,"쌍둥이":6434,"어드":6435,"클레":6436,"초코":6437,"잠재":6438,"1960":6439,"아이콘":6440,"OST":6441,"상인":6442,"##가스":6443,"무방":6444,"커피":6445,"레디":6446,"##켄":6447,"찢":6448,"빨갛":6449,"사신":6450,"쵸":6451,"훼":6452,"강요":6453,"##코토":6454,"레이더":6455,"메시지":6456,"인민공화국":6457,"KO":6458,"##{{":6459,"Un":6460,"간신":6461,"언스":6462,"초보":6463,"이민":6464,"##고속":6465,"이슈":6466,"통산":6467,"팽":6468,"가요":6469,"동력":6470,"가상":6471,"박히":6472,"Ex":6473,"##얄":6474,"포수":6475,"가루":6476,"신사":6477,"도끼":6478,"넥센":6479,"조연":6480,"색상":6481,"등지":6482,"릴":6483,"피터":6484,"다치":6485,"데드":6486,"##AD":6487,"캐논":6488,"명확":6489,"오타":6490,"##듈":6491,"몰락":6492,"##멘트":6493,"연승":6494,"##qu":6495,"주택":6496,"화재":6497,"사원":6498,"여객":6499,"루카":6500,"교장":6501,"네트워크":6502,"주소":6503,"조이":6504,"타락":6505,"곡명":6506,"귀환":6507,"##oc":6508,"베네":6509,"냄새":6510,"안타깝":6511,"{{{":6512,"외전":6513,"즐겁":6514,"콜라보":6515,"구르":6516,"##반도":6517,"유희왕":6518,"모토":6519,"나포":6520,"터뜨리":6521,"제갈":6522,"실망":6523,"판결":6524,"##80":6525,"##시스트":6526,"남녀":6527,"아서":6528,"칭호":6529,"##카리":6530,"GB":6531,"대선":6532,"찾아내":6533,"담배":6534,"경로":6535,"##ᆫ색":6536,"수장":6537,"둘러싸":6538,"UEFA":6539,"항공기":6540,"펄":6541,"이터":6542,"스페이스":6543,"광역시":6544,"핏":6545,"⭧슈":6546,"위반":6547,"레알":6548,"깔끔":6549,"매니저":6550,"비치":6551,"포르투갈":6552,"DS":6553,"고구려":6554,"타수":6555,"연합군":6556,"186":6557,"##own":6558,"sh":6559,"##ys":6560,"반동":6561,"##나카":6562,"아마도":6563,"라인업":6564,"순환":6565,"CPU":6566,"##노우":6567,"혐오":6568,"스터":6569,"교실":6570,"영주":6571,"##스틱":6572,"##럼프":6573,"그만두":6574,"항복":6575,"법인":6576,"백성":6577,"이탈":6578,"너희":6579,"관찰":6580,"복지":6581,"뿔":6582,"타운":6583,"잠수함":6584,"##ber":6585,"미스터":6586,"단단":6587,"비서":6588,"주역":6589,"주자":6590,"##블리":6591,"적합":6592,"캠프":6593,"벼":6594,"배터리":6595,"쟁":6596,"낚시":6597,"스와":6598,"매장":6599,"수류":6600,"시노":6601,"거미":6602,"We":6603,"##프리":6604,"관람":6605,"익스":6606,"붓":6607,"AM":6608,"소라":6609,"커다랗":6610,"예시":6611,"유효":6612,"강원도":6613,"커리어":6614,"드래프트":6615,"##괄":6616,"##저스":6617,"흘러":6618,"히어로즈":6619,"105":6620,"끊기":6621,"공성":6622,"공업":6623,"##av":6624,"아쿠":6625,"##OC":6626,"트라이":6627,"흑인":6628,"하단":6629,"##섬":6630,"인치":6631,"고도":6632,"유학":6633,"벌레":6634,"##쌍":6635,"이스라":6636,"##데이":6637,"승객":6638,"고개":6639,"##old":6640,"카츠":6641,"예언":6642,"용량":6643,"##정부":6644,"김재":6645,"동성":6646,"..\"":6647,"고작":6648,"본사":6649,"##땅":6650,"상단":6651,"##큰":6652,"승률":6653,"국경":6654,"##일보":6655,"추억":6656,"소프트웨어":6657,"CF":6658,"면모":6659,"천만":6660,"##랭":6661,"마약":6662,"포위":6663,"튕기":6664,"휴식":6665,"서구":6666,"티켓":6667,"꾸미":6668,"관측":6669,"LI":6670,"철수":6671,"수출":6672,"일대":6673,"그러니까":6674,"첩":6675,"##orld":6676,"도적":6677,"곤란":6678,"중립":6679,"자폭":6680,"카운트":6681,"생략":6682,"개국":6683,"표지":6684,"적당히":6685,"수류탄":6686,"터널":6687,"상술":6688,"립":6689,"턱":6690,"변환":6691,"음모":6692,"조별":6693,"클랜":6694,"인디":6695,"마드리":6696,"기생":6697,"좌석":6698,"허가":6699,"합병":6700,"다름없":6701,"추종":6702,"##위대":6703,"형상":6704,"윗":6705,"고맙":6706,"##곱":6707,"소대":6708,"대인":6709,"곱":6710,"사이버":6711,"웬":6712,"실전":6713,"##늬":6714,"오크":6715,"치루":6716,"##김":6717,"정기":6718,"후술":6719,"아랍":6720,"문구":6721,"김대":6722,"내전":6723,"마드리드":6724,"통계":6725,"1984":6726,"디스크":6727,"더럽":6728,"보험":6729,"인종":6730,"차이점":6731,"메달":6732,"마디":6733,"펌":6734,"##머스":6735,"##ont":6736,"1985":6737,"글로벌":6738,"연예인":6739,"최신":6740,"근본":6741,"복구":6742,"##려들":6743,"지경":6744,"언더":6745,"액티브":6746,"입지":6747,"사명":6748,"타로":6749,"베리":6750,"187":6751,"##삭":6752,"서포터":6753,"증오":6754,"SH":6755,"지뢰":6756,"후손":6757,"함수":6758,"이스라엘":6759,"스트라이크":6760,"후배":6761,"용서":6762,"아시안":6763,"에르":6764,"구석":6765,"성남":6766,"3000":6767,"똥":6768,"사정거리":6769,"위성":6770,"일족":6771,"시너지":6772,"크리스탈":6773,"떨어뜨리":6774,"AD":6775,"##ies":6776,"허락":6777,"LC":6778,"기숙":6779,"고위":6780,"스틸":6781,"DF":6782,"급격":6783,"자막":6784,"그랜드":6785,"즉위":6786,"모노":6787,"끈":6788,"휩":6789,"리타":6790,"숙련":6791,"논의":6792,"하차":6793,"전주":6794,"부각":6795,"텔레비전":6796,"엿":6797,"공방":6798,"lo":6799,"KBO":6800,"행보":6801,"어뢰":6802,"미묘":6803,"경주":6804,"굿":6805,"이수":6806,"##팩트":6807,"토벌":6808,"들키":6809,"오라":6810,"쓸모":6811,"모니":6812,"감각":6813,"발행":6814,"해피":6815,"데려가":6816,"##타이":6817,"언덕":6818,"서식":6819,"It":6820,"왕위":6821,"##lay":6822,"연령":6823,"특전":6824,"⭧네요":6825,"XX":6826,"준우":6827,"중첩":6828,"태평양":6829,"부딪":6830,"뻗":6831,"취약":6832,"가만":6833,"뜬금":6834,"구글":6835,"후원":6836,"##ᆯ드":6837,"오랜만":6838,"제약":6839,"쿼터":6840,"블러드":6841,"루나":6842,"##어마":6843,"아츠":6844,"노동자":6845,"무척":6846,"침략":6847,"파르":6848,"저렴":6849,"정화":6850,"간신히":6851,"##자드":6852,"총알":6853,"기관총":6854,"##OD":6855,"노스":6856,"침입":6857,"##하면":6858,"눈치채":6859,"릿":6860,"##쓸":6861,"세븐":6862,"MF":6863,"루비":6864,"간접":6865,"일본군":6866,"생년":6867,"오마":6868,"##US":6869,"아르헨":6870,"방어구":6871,"히나":6872,"##슴":6873,"제트":6874,"워커":6875,"흡혈":6876,"분쟁":6877,"법정":6878,"입대":6879,"알아내":6880,"헬기":6881,"학습":6882,"혹시":6883,"균형":6884,"전이":6885,"드럼":6886,"놀리":6887,"맛있":6888,"가동":6889,"찍히":6890,"아테":6891,"CV":6892,"사귀":6893,"읍":6894,"진압":6895,"강자":6896,"##뇨":6897,"##말리":6898,"카카":6899,"산하":6900,"WWE":6901,"우르":6902,".....":6903,"##PM":6904,"아르헨티나":6905,"##ann":6906,"잡아먹":6907,"곳곳":6908,"찬스":6909,"공용":6910,"텍스트":6911,"소방":6912,"평생":6913,"##라이언":6914,"양자":6915,"머무르":6916,"여우":6917,"##넬":6918,"분열":6919,"NE":6920,"트랜스":6921,"아이언":6922,"SE":6923,"어마어마":6924,"네오":6925,"주차":6926,"모시":6927,"드롭":6928,"자이언츠":6929,"##40":6930,"관점":6931,"중세":6932,"구슬":6933,"신전":6934,"동인":6935,"약화":6936,"악당":6937,"금방":6938,"정차":6939,"아포":6940,"##블린":6941,"나리":6942,"125":6943,"##pe":6944,"##첨":6945,"깨어나":6946,"저러":6947,"이토":6948,"잡아내":6949,"거울":6950,"##30":6951,"##뚱":6952,"애정":6953,"부적":6954,"페널":6955,"결심":6956,"지리":6957,"경상북도":6958,"딜링":6959,"반전":6960,"제작사":6961,"다지":6962,"격추":6963,"옳":6964,"내보내":6965,"제출":6966,"상기":6967,"##네임":6968,"성당":6969,"앨리스":6970,"##sh":6971,"⭧라기":6972,"연고":6973,"보호막":6974,"your":6975,"이혼":6976,"되돌리":6977,"##플레이":6978,"통화":6979,"크림":6980,"스팀":6981,"이란":6982,"⭧던지":6983,"##눈":6984,"토너":6985,"##NA":6986,"호흡":6987,"표면":6988,"폐쇄":6989,"##배우":6990,"뎀":6991,"사령부":6992,"아저":6993,"금액":6994,"##마크":6995,"결전":6996,"큐브":6997,"구축함":6998,"엘리트":6999,"미즈":7000,"아저씨":7001,"코르":7002,"간주":7003,"히토":7004,"악화":7005,"저택":7006,"보완":7007,"뮤지컬":7008,"##픔":7009,"게리":7010,"창원":7011,"구름":7012,"이식":7013,"인권":7014,"얻어":7015,"스캐":7016,"뽑히":7017,"충실":7018,"##VD":7019,"채팅":7020,"스크린":7021,"헤어지":7022,"썬":7023,"불사":7024,"CJ":7025,"김현":7026,"선거구":7027,"착하":7028,"AS":7029,"용인":7030,"상관없":7031,"라면":7032,"##츄":7033,"참모":7034,"전파":7035,"플레":7036,"초록":7037,"열매":7038,"주둔":7039,"지불":7040,"DE":7041,"세인트":7042,"발리":7043,"인용":7044,"하루카":7045,"유력":7046,"##은행":7047,"암시":7048,"대왕":7049,"천안":7050,"##ng":7051,"##키아":7052,"##io":7053,"##값":7054,"긴장":7055,"정예":7056,"교과":7057,"분해":7058,"물리치":7059,"##천시":7060,"묘하":7061,"해치":7062,"##올리":7063,"흩":7064,"빠져":7065,"토니":7066,"프란":7067,"딴":7068,"동양":7069,"유발":7070,"멜로":7071,"문재인":7072,"서서":7073,"보건":7074,"존재감":7075,"성별":7076,"공정":7077,"##뛰":7078,"경남":7079,"체결":7080,"릴리":7081,"시인":7082,"남아":7083,"배포":7084,"학력":7085,"상세":7086,"##셋":7087,"얀":7088,"소유자":7089,"낮추":7090,"##ᆫ가":7091,"##ᆯ라이":7092,"엮이":7093,"수석":7094,"우에":7095,"커플":7096,"##거지":7097,"후계자":7098,";&":7099,"악기":7100,"언젠가":7101,"답변":7102,"드라이버":7103,"마주치":7104,"걸어":7105,"짜증":7106,"상영":7107,"##oo":7108,"토너먼트":7109,"시라":7110,"원리":7111,"수호자":7112,"안기":7113,"재밌":7114,"도둑":7115,"전승":7116,"로이":7117,"엑스트라":7118,"로리":7119,"악명":7120,"행운":7121,"호기":7122,"로버트":7123,"개설":7124,"170":7125,"##렐":7126,"지라":7127,"이듬":7128,"도박":7129,"Pro":7130,"구미":7131,"##즐":7132,"본관":7133,"천하":7134,"뜨겁":7135,"업로드":7136,"잔뜩":7137,"미쿠":7138,"기인":7139,"선두":7140,"은신":7141,"견디":7142,"기숙사":7143,"##싱턴":7144,"##월일":7145,"##ave":7146,"씬":7147,"뱀파이어":7148,"양식":7149,"실종":7150,"쏟아지":7151,"교도":7152,"중량":7153,"지팡":7154,"##포트":7155,"요인":7156,"테라":7157,"백인":7158,"##걸이":7159,"⭧에요":7160,"쭉":7161,"탐험":7162,"##LE":7163,"정황":7164,"⫸에다가":7165,"부임":7166,"임신":7167,"난입":7168,"중력":7169,"아동":7170,"처분":7171,"대책":7172,"임금":7173,"비아":7174,"동점":7175,"LV":7176,"관리자":7177,"캐스터":7178,"미키":7179,"디지몬":7180,"애플":7181,"심심":7182,"##번트":7183,"건드리":7184,"만남":7185,"끔":7186,"방송국":7187,"that":7188,"논문":7189,"야생":7190,"칼날":7191,"UP":7192,"항의":7193,"##라기":7194,"관계자":7195,"헨리":7196,"생년월일":7197,"해명":7198,"백작":7199,"시카":7200,"유독":7201,"탄환":7202,"##센트":7203,"분명히":7204,"베타":7205,"##우마":7206,"호칭":7207,"##슬링":7208,"복합":7209,"도루":7210,"서번트":7211,"카와":7212,"닫":7213,"금메달":7214,"##베이":7215,"말투":7216,"윈도우":7217,"##ION":7218,"동명":7219,"생명체":7220,"이라":7221,"진주":7222,"문단":7223,"##ream":7224,"와일드":7225,"할인":7226,"법칙":7227,"##스럽":7228,"브레":7229,"수백":7230,"가방":7231,"패키":7232,"다이아몬드":7233,"⭧려던":7234,"발렌":7235,"ED":7236,"1500":7237,"단축":7238,"자녀":7239,"뿜":7240,"절차":7241,"정통":7242,"잃어버리":7243,"EN":7244,"⭧다니":7245,"해골":7246,"분신":7247,"외계인":7248,"무관":7249,"영광":7250,"루이스":7251,"기상":7252,"운동장":7253,"하향":7254,"델":7255,"지치":7256,"온도":7257,"이드":7258,"시합":7259,"조리":7260,"라틴":7261,"이듬해":7262,"⭧래":7263,"주술":7264,"분대":7265,"닛":7266,"인력":7267,"프로필":7268,"리뷰":7269,"##ond":7270,"딜레이":7271,"창고":7272,"1982":7273,"치즈":7274,"->":7275,"보드":7276,"부스터":7277,"##펴보":7278,"살펴보":7279,"이온":7280,"니스":7281,"끔찍":7282,"##어하":7283,"광장":7284,"로얄":7285,"기름":7286,"플래시":7287,"도라":7288,"⭧소":7289,"##게임":7290,"##iss":7291,"Com":7292,"5000":7293,"왠지":7294,"막내":7295,"사살":7296,"의학":7297,"미네":7298,"기둥":7299,"헐":7300,"창설":7301,"뛰어넘":7302,"전동":7303,"레지":7304,"건국":7305,"성질":7306,"전북":7307,"울프":7308,"밍":7309,"셜":7310,"##메이":7311,"한쪽":7312,"유인":7313,"공허":7314,"샌드":7315,"가라":7316,"체험":7317,"레딧":7318,"장인":7319,"부드":7320,"##에르":7321,"부사":7322,"퇴장":7323,"그렇지만":7324,"물고기":7325,"유격":7326,"존경":7327,"집착":7328,"민첩":7329,"두르":7330,"##태우":7331,"우정":7332,"##운서":7333,"##탐":7334,"삽입":7335,"디젤":7336,"##군다":7337,"아나운서":7338,"걸맞":7339,"상식":7340,"참가자":7341,"아키라":7342,"승자":7343,"1950":7344,"럼":7345,"공산당":7346,"##카이":7347,"크레":7348,"##IP":7349,"##11":7350,"깔리":7351,"웨스트":7352,"창단":7353,"요약":7354,"그린":7355,"휘말리":7356,"블라":7357,"엔젤":7358,"시상":7359,"##ᆺ갈리":7360,"감지":7361,"시원":7362,"작년":7363,"진학":7364,"시공":7365,"모터":7366,"솜":7367,"조기":7368,"증상":7369,"그램":7370,"전제":7371,"마블":7372,"독재":7373,"수면":7374,"감추":7375,"1983":7376,"하츠":7377,"의장":7378,"불펜":7379,"##올":7380,"##60":7381,"학기":7382,"##도르":7383,"출구":7384,"##ian":7385,"복제":7386,"??":7387,"by":7388,"##비치":7389,"##소녀":7390,"부드럽":7391,"오디션":7392,"he":7393,"싫어하":7394,"나츠":7395,"유산":7396,"##커스":7397,"⫸께서":7398,"힐러":7399,"비전":7400,"덩치":7401,"##이어":7402,"철저":7403,"선제":7404,"발굴":7405,"가공":7406,"BL":7407,"하이퍼":7408,"헤어":7409,"단원":7410,"스위스":7411,"투스":7412,"유전자":7413,"스폰":7414,"&#":7415,"반박":7416,"##유럽":7417,"go":7418,"그럭":7419,"트럼프":7420,"맷":7421,"##그리":7422,"여주":7423,"항구":7424,"탕":7425,"타석":7426,"리스크":7427,"코트":7428,"미만":7429,"##세대":7430,"돌입":7431,"##저럭":7432,"웃기":7433,"안녕":7434,"갑작":7435,"중형":7436,"스쿨":7437,"사인":7438,"콘텐츠":7439,"스위치":7440,"펼쳐지":7441,"꼼":7442,"비주얼":7443,"꿀":7444,"다카":7445,"그럭저럭":7446,"##티스":7447,"딕":7448,"사법":7449,"주니어":7450,"##팬":7451,"##쟁이":7452,"노바":7453,"기운":7454,"##Hz":7455,"통로":7456,"준우승":7457,"배정":7458,"##TV":7459,"돔":7460,"수명":7461,"마스크":7462,"##던지":7463,"사용자":7464,"대거":7465,"어필":7466,"출격":7467,"휘하":7468,"기재":7469,"상륙":7470,"라이플":7471,"논쟁":7472,"웨이브":7473,"정교":7474,"##크라":7475,"이펙트":7476,"본진":7477,"단행":7478,"자전거":7479,"##투스":7480,"가죽":7481,"배트맨":7482,"보충":7483,"대조":7484,"토마":7485,"팟":7486,"##ory":7487,"신도":7488,"##베스":7489,"깨달":7490,"트리플":7491,"처지":7492,"훈장":7493,"호소":7494,"##TE":7495,"##우리":7496,"시리아":7497,"회담":7498,"식품":7499,"스트레스":7500,"격차":7501,"속이":7502,"국장":7503,"축복":7504,"빅토":7505,"인질":7506,"백제":7507,"##ace":7508,"##rom":7509,"코미디":7510,"Co":7511,"##늄":7512,"##세서":7513,"실책":7514,"##틀러":7515,"폴리":7516,"근대":7517,"완결":7518,"##엣":7519,"위안":7520,"Bl":7521,"옹호":7522,"학문":7523,"파편":7524,"##카이도":7525,"태국":7526,"케인":7527,"평양":7528,"##누스":7529,"지사":7530,"공화":7531,"유기":7532,"싸이":7533,"마우스":7534,";&#":7535,"##꼽":7536,"경전":7537,"공립":7538,"갈아":7539,"워싱턴":7540,"카를":7541,"팬텀":7542,"오키":7543,"부근":7544,"적중":7545,"DVD":7546,"##필더":7547,"승인":7548,"미드필더":7549,"Br":7550,"원문":7551,"##필드":7552,"##틱":7553,"토지":7554,"침묵":7555,"소음":7556,"##ᆫ들":7557,"피우":7558,"##레인":7559,"마케":7560,"메이드":7561,"디즈":7562,"##부로":7563,"소요":7564,"기갑":7565,"기동성":7566,"##끈":7567,"경직":7568,"플래그":7569,"이글":7570,"뱅크":7571,"Or":7572,"##게이":7573,"루스":7574,"##무시":7575,"중국어":7576,"세부":7577,"##뚝":7578,"커녕":7579,"##oth":7580,"두들":7581,"와타":7582,"근거리":7583,"치킨":7584,"축하":7585,"배출":7586,"##ows":7587,"내각":7588,"막판":7589,"결투":7590,"경상남도":7591,"신나":7592,"보이스":7593,"##산시":7594,"복선":7595,"시신":7596,"오염":7597,"솔직":7598,"파동":7599,"방위":7600,"##MP":7601,"연습생":7602,"마감":7603,"부실":7604,"동계":7605,"남매":7606,"리카":7607,"수능":7608,"내일":7609,"삼각":7610,"간단히":7611,"차체":7612,"과학자":7613,"급하":7614,"후퇴":7615,"그레":7616,"동급":7617,"히라":7618,"기후":7619,"##잠":7620,"고객":7621,"임기":7622,"날카":7623,"##TS":7624,"줍":7625,"밀어":7626,"센스":7627,"넘버":7628,"##빵":7629,"슬라이":7630,"우세":7631,"##먼스":7632,"헝가리":7633,"##잘":7634,"무작위":7635,"수급":7636,"망가지":7637,"왜곡":7638,"무인":7639,"상담":7640,"##ᆯ로그":7641,"학위":7642,"손상":7643,"롬":7644,"##화점":7645,"##신교":7646,"국정":7647,"랄":7648,"노조":7649,"한반도":7650,"괜히":7651,"지향":7652,"규격":7653,"스케":7654,"##IG":7655,"영지":7656,"장거리":7657,"##더러":7658,"바쁘":7659,"리오":7660,"야수":7661,"안개":7662,"##곽":7663,"##셔널":7664,"CG":7665,"약탈":7666,"램":7667,"마법소녀":7668,"일당":7669,"##다보":7670,"중시":7671,"철거":7672,"기세":7673,"질리":7674,"##주교":7675,"무사히":7676,"##그나":7677,"##경기":7678,"##aw":7679,"끼우":7680,"선행":7681,"185":7682,"##하마":7683,"토크":7684,"요한":7685,"유성":7686,"날카롭":7687,"##텐도":7688,"닌텐도":7689,"패키지":7690,"스즈":7691,"##에이":7692,"최상위":7693,"멜로디":7694,"##딱":7695,"싱크":7696,"장탄":7697,"킬러":7698,"과도":7699,"하마":7700,"##포르":7701,"미나미":7702,"야구장":7703,"##몸":7704,"콰":7705,"간간":7706,"신발":7707,"대포":7708,"엔드":7709,"##군다나":7710,"##ᆻ다":7711,"양상":7712,"록맨":7713,"성전":7714,"##ale":7715,"SNS":7716,"출루":7717,"즈음":7718,"프리미엄":7719,"지칭":7720,"타쿠":7721,"그날":7722,"골키":7723,"변수":7724,"개발자":7725,"##아키":7726,"PV":7727,"스트리트":7728,"핑크":7729,"주류":7730,"##ike":7731,"대치":7732,"모데":7733,"독일군":7734,"개별":7735,"뭉치":7736,"페이스북":7737,"후자":7738,"에서":7739,"벙":7740,"##하시":7741,"무산":7742,"##틀랜드":7743,"특별히":7744,"더군다나":7745,"여러분":7746,"영원히":7747,"임팩트":7748,"장사":7749,"사키":7750,"##밋":7751,"전망":7752,"초인":7753,"1945":7754,"입주":7755,"Cl":7756,"챌린지":7757,"물체":7758,"집권":7759,"##아이":7760,"##겹":7761,"업계":7762,"바디":7763,"농업":7764,"For":7765,"무시무시":7766,"군수":7767,"부착":7768,"리프":7769,"원조":7770,"데이비드":7771,"흰색":7772,"동남":7773,"##야수":7774,"암살자":7775,"첼시":7776,"매번":7777,"RPG":7778,"나미":7779,"왜냐":7780,"청주":7781,"⭧우":7782,"만주":7783,"계시":7784,"##OU":7785,"중복":7786,"브라운":7787,"시비":7788,"Dr":7789,"질병":7790,"손실":7791,"야마토":7792,"최적":7793,"틸":7794,"악몽":7795,"##바닥":7796,"서서히":7797,"필리핀":7798,"##ep":7799,"선조":7800,"피트":7801,"취득":7802,"모로":7803,"##irl":7804,"##man":7805,"##우치":7806,"폭행":7807,"동아리":7808,"오이":7809,"##ach":7810,"##ile":7811,"175":7812,"동경":7813,"수비력":7814,"##닌":7815,"1981":7816,"슬프":7817,"Sc":7818,"인방":7819,"스트로":7820,"BB":7821,"호랑이":7822,"##여객":7823,"골키퍼":7824,"OP":7825,"벨트":7826,"부동":7827,"해양":7828,"올스타":7829,"서클":7830,"싹":7831,"여인":7832,"구별":7833,"102":7834,"##공항":7835,"잠입":7836,"사리":7837,"헤르":7838,"117":7839,"어이":7840,"지팡이":7841,"꿰":7842,"나르":7843,"진격":7844,"인피":7845,"파생":7846,"##12":7847,"고장":7848,"Team":7849,"106":7850,"며칠":7851,"배역":7852,"끌려가":7853,"잎":7854,"교토":7855,"룩":7856,"##자와":7857,"##VA":7858,"LA":7859,"몫":7860,"해킹":7861,"물량":7862,"##철도":7863,"트루":7864,"##ink":7865,"플러스":7866,"Sk":7867,"선임":7868,"일람":7869,"제독":7870,"상한":7871,"퍼포":7872,"의외로":7873,"사회주의":7874,"굵":7875,"##둘":7876,"Mo":7877,"체인지":7878,"퍼포먼스":7879,"⭧ᆯ게":7880,"감싸":7881,"페널티":7882,"직장":7883,"GP":7884,"비비":7885,"합계":7886,"권위":7887,"중장":7888,"가만히":7889,"국당":7890,"기호":7891,"##데드":7892,"레코드":7893,"공수":7894,"청와":7895,"DD":7896,"##륨":7897,"틴":7898,"마물":7899,"무술":7900,"115":7901,"⭧ᄇ시오":7902,"응용":7903,"##어놓":7904,"시크":7905,"메이커":7906,"⭧로":7907,"김경":7908,"해내":7909,"세팅":7910,"사립":7911,"⭧여야":7912,"데이트":7913,"코난":7914,"팡":7915,"원형":7916,"제네":7917,"시트":7918,"이웃":7919,"평점":7920,"이종":7921,"약물":7922,"가디언":7923,"기동전":7924,"주행":7925,"귀국":7926,"언데드":7927,"신입":7928,"최우":7929,"연산":7930,"##ial":7931,"스펠":7932,"FM":7933,"##승부":7934,"나비":7935,"풋":7936,"청와대":7937,"건네":7938,"밀도":7939,"투쟁":7940,"##토스":7941,"개장":7942,"##런트":7943,"##킥":7944,"##ish":7945,"엘리자":7946,"장로":7947,"국어":7948,"당대":7949,"에릭":7950,"SU":7951,"파란색":7952,"1979":7953,"서기":7954,"마다":7955,"캄":7956,"⭧냐면":7957,"후임":7958,"여전":7959,"에디":7960,"긴급":7961,"집합":7962,"UN":7963,"이와":7964,"만만":7965,"웰":7966,"배달":7967,"징역":7968,"챔피언십":7969,"억지로":7970,"스파이더":7971,"프로토":7972,"포즈":7973,"오스만":7974,"트릭":7975,"선사":7976,"테츠":7977,"⭧옵":7978,"합리":7979,"쇼핑":7980,"##앉":7981,"개신교":7982,"분포":7983,"권장":7984,"뽑아내":7985,"장신":7986,"김상":7987,"기장":7988,"행방":7989,"랑":7990,"추방":7991,"##ower":7992,"택시":7993,"저하":7994,"천연":7995,"다가가":7996,"공백":7997,"회색":7998,"감동":7999,"##네시아":8000,"##튬":8001,"안양":8002,"전무":8003,"해산":8004,"일화":8005,"댄":8006,"궁금":8007,"프리미어":8008,"연구원":8009,"독점":8010,"증폭":8011,"신자":8012,"수동":8013,"즉사":8014,"모스크":8015,"확산":8016,"##II":8017,"명의":8018,"관여":8019,"야간":8020,"주관":8021,"⫸더러":8022,"Bla":8023,"면허":8024,"교단":8025,"여학생":8026,"공인":8027,"방치":8028,"재회":8029,"임의":8030,"모집":8031,"폐기":8032,"##하르트":8033,"듀오":8034,"빌딩":8035,"유미":8036,"##오루":8037,"아틀":8038,"대단히":8039,"조상":8040,"혼돈":8041,"잠들":8042,"라이너":8043,"만일":8044,"명백":8045,"김진":8046,"##GE":8047,"전남":8048,"썬더":8049,"##ᆺ이":8050,"##블로":8051,"코멘트":8052,"감상":8053,"아레나":8054,"캘리":8055,"바둑":8056,"성경":8057,"렌즈":8058,"쌀":8059,"##운동":8060,"버섯":8061,"사무소":8062,"택하":8063,"CH":8064,"매출":8065,"도마":8066,"##늦":8067,"분당":8068,"we":8069,"캐치":8070,"고블린":8071,"자비":8072,"피닉스":8073,"끊임":8074,"발목":8075,"토시":8076,"돌연":8077,"BS":8078,"##IM":8079,"출간":8080,"조명":8081,"타이거즈":8082,"처참":8083,"Ne":8084,"추리":8085,"##!!":8086,"불량":8087,"Star":8088,"##콜":8089,"오메":8090,"장미":8091,"부서지":8092,"광산":8093,"닐":8094,"깜짝":8095,"광선":8096,"박지":8097,"뒤지":8098,"##프리카":8099,"승무원":8100,"김기":8101,"무스":8102,"##ᅡᆯ린":8103,"전라남도":8104,"구성원":8105,"포켓몬스터":8106,"비웃":8107,"##벌레":8108,"스테이":8109,"상관없이":8110,"복원":8111,"뚫리":8112,"PR":8113,"해머":8114,"우월":8115,"고소":8116,"실장":8117,"ID":8118,"우주선":8119,"##벳":8120,"고로":8121,"질투":8122,"히가시":8123,"목사":8124,"쿠라":8125,"스타디":8126,"되게":8127,"통틀":8128,"##언스":8129,"하인":8130,"평일":8131,"만지":8132,"계수":8133,"간호":8134,"기쁘":8135,"지연":8136,"난사":8137,"와카":8138,"##번에":8139,"##히코":8140,"배급":8141,"##쿠라":8142,"드루":8143,"Wind":8144,"미국인":8145,"버드":8146,"수색":8147,"##드레":8148,"화산":8149,"350":8150,"라이온즈":8151,"세리":8152,"유출":8153,"벌리":8154,"협정":8155,"닝":8156,"##99":8157,"유언":8158,"##벅":8159,"파이트":8160,"수립":8161,"탐정":8162,"엄격":8163,"시외":8164,"조롱":8165,"up":8166,"스탠드":8167,"풍부":8168,"##전자":8169,"붐":8170,"우유":8171,"짤":8172,"운수":8173,"##나오":8174,"서포트":8175,"LP":8176,"재학":8177,"파멸":8178,"심의":8179,"DC":8180,"골렘":8181,"한두":8182,"우익":8183,"##카락":8184,"국무":8185,"산맥":8186,"War":8187,"##래시":8188,"머리카락":8189,"오니":8190,"메이플":8191,"fe":8192,"체감":8193,"And":8194,"정발":8195,"뤼":8196,"시바":8197,"의자":8198,"호시":8199,"젤리":8200,"⫸이란":8201,"검술":8202,"온천":8203,"##체스터":8204,"도저히":8205,"##ass":8206,"텟":8207,"당사자":8208,"청구":8209,"치열":8210,"##ᆺ지":8211,"나기":8212,"모험가":8213,"센트":8214,"말ᄊ":8215,"합동":8216,"육상":8217,"토미":8218,"##타카":8219,"포장":8220,"국제공항":8221,"뒤늦":8222,"사이코":8223,"##ms":8224,"반부":8225,"##me":8226,"키타":8227,"루크":8228,"360":8229,"스텝":8230,"Man":8231,"##릇":8232,"레일":8233,"소용":8234,"실내":8235,"이라크":8236,"오로지":8237,"다운로드":8238,"본토":8239,"##춤":8240,"112":8241,"마코토":8242,"축소":8243,"기력":8244,"권유":8245,"특급":8246,"로빈":8247,"조용히":8248,"극도":8249,"에픽":8250,"아쉬":8251,"규제":8252,"디즈니":8253,"승진":8254,"배수":8255,"##gh":8256,"바스":8257,"따뜻":8258,"⭧티":8259,"우치":8260,"##CG":8261,"낙하":8262,"##렐라":8263,"비명":8264,"루머":8265,"마냥":8266,"시사":8267,"##가드":8268,"108":8269,"##뮬":8270,"##도리":8271,"All":8272,"라라":8273,"##사이":8274,"묶이":8275,"거스":8276,"자꾸":8277,"러시":8278,"AKB":8279,"나노":8280,"티아":8281,"##틀리":8282,"##tle":8283,"하계":8284,"##pp":8285,"⫸두":8286,"##ble":8287,"##amp":8288,"충청남도":8289,"반감":8290,"톨":8291,"범죄자":8292,"지인":8293,"바르셀":8294,"페리":8295,"루피":8296,"오락":8297,"파울":8298,"출범":8299,"바르셀로나":8300,"##를린":8301,"세라":8302,"##ᆯ러스":8303,"비유":8304,"우즈":8305,"##ft":8306,"지목":8307,"여섯":8308,"수직":8309,"베이징":8310,"안쪽":8311,"##농":8312,"토큰":8313,"뮌":8314,"중지":8315,"단종":8316,"오우":8317,"알라":8318,"##궐":8319,"일요일":8320,"103":8321,"프렌":8322,"수월":8323,"⭧려다":8324,"경북":8325,"세금":8326,"탐지":8327,"폭파":8328,"황후":8329,"능력자":8330,"전당":8331,"##슬라":8332,"붙잡히":8333,"협의":8334,"바니":8335,"꼬이":8336,"리즈":8337,"어시스트":8338,"##yle":8339,"스타디움":8340,"서머":8341,"##70":8342,"⫸니":8343,"우드":8344,"기리":8345,"미르":8346,"실은":8347,"이글스":8348,"여파":8349,"##ous":8350,"중순":8351,"물품":8352,"직선":8353,"막아내":8354,"##려받":8355,"실현":8356,"배제":8357,"조우":8358,"모임":8359,"##튀":8360,"##now":8361,"베테":8362,"##atch":8363,"##sp":8364,"신학":8365,"슬리":8366,"넘어지":8367,"리버풀":8368,"카구":8369,"불행":8370,"분산":8371,"##졸":8372,"부딪히":8373,"당당":8374,"조커":8375,"One":8376,"넘어서":8377,"타르":8378,"아가씨":8379,"Mar":8380,"에미":8381,"모듈":8382,"##orm":8383,"수염":8384,"미미":8385,"생전":8386,"손자":8387,"드림":8388,"김해":8389,"평론":8390,"얻어맞":8391,"캐시":8392,"토키":8393,"유의":8394,"신용":8395,"New":8396,"To":8397,"##뚜":8398,"ON":8399,"명문":8400,"퍼부":8401,"거북":8402,"할로":8403,"기묘":8404,"나스":8405,"추세":8406,"드론":8407,"바론":8408,"여고":8409,"조르":8410,"무승부":8411,"ex":8412,"체중":8413,"막상":8414,"낙선":8415,"##스티벌":8416,"나루토":8417,"진상":8418,"페스티벌":8419,"⭧노":8420,"수비수":8421,"IN":8422,"경악":8423,"##란히":8424,"##플레":8425,"살아나":8426,"토요일":8427,"BR":8428,"⭧던가":8429,"맥주":8430,"##민주":8431,"천문":8432,"까이":8433,"Part":8434,"스미스":8435,"수습":8436,"엽":8437,"태풍":8438,"가난":8439,"더빙":8440,"채보":8441,"KR":8442,"기수":8443,"##구나":8444,"두렵":8445,"마카":8446,"연봉":8447,"함락":8448,"김용":8449,"Gam":8450,"##쿨":8451,"강등":8452,"엑시":8453,"비극":8454,"센서":8455,"강사":8456,"시로":8457,"##저리":8458,"알바":8459,"되살":8460,"SF":8461,"주최":8462,"후회":8463,"패전":8464,"힙합":8465,"이나":8466,"##ING":8467,"대성":8468,"홋":8469,"극히":8470,"##슬러":8471,"집어넣":8472,"잠실":8473,"리온":8474,"비틀":8475,"산탄":8476,"고속도로":8477,"CS":8478,"좌절":8479,"적자":8480,"⭧ᆫ다거나":8481,"엄밀":8482,"국판":8483,"듀스":8484,"명목":8485,"까마":8486,"배려":8487,"동반":8488,"배드":8489,"팁":8490,"타일":8491,"둠":8492,"엎":8493,"끓":8494,"훼손":8495,"꽉":8496,"인접":8497,"유망":8498,"대시":8499,"노가":8500,"실시간":8501,"개척":8502,"코마":8503,"##ment":8504,"철권":8505,"리가":8506,"기부":8507,"PP":8508,"##방송":8509,"에로":8510,"에반":8511,"사무실":8512,"##ae":8513,"빨간":8514,"반짝":8515,"케이블":8516,"야쿠":8517,"⫸나마":8518,"주체":8519,"늙":8520,"도리":8521,"##64":8522,"하여":8523,"128":8524,"뻥":8525,"원시":8526,"스티븐":8527,"압력":8528,"모스":8529,"##펠":8530,"상반":8531,"고증":8532,"장탄수":8533,"캣":8534,"샤이":8535,"젖":8536,"스테이션":8537,"##불명":8538,"유재":8539,"스핀":8540,"⭧나요":8541,"혜택":8542,"투척":8543,"도장":8544,"##더라":8545,"신속":8546,"포탄":8547,"닉네임":8548,"##테이":8549,"바지":8550,"##버그":8551,"인자":8552,"##ase":8553,"혈액":8554,"쳐들":8555,"호남":8556,"중화민국":8557,"##사기":8558,"코믹":8559,"농장":8560,"마땅":8561,"아이러":8562,"각지":8563,"##ree":8564,"장성":8565,"다투":8566,"이타":8567,"꼬마":8568,"되돌":8569,"재개":8570,"##사리":8571,"조카":8572,"역습":8573,"주교":8574,"걸즈":8575,"고시":8576,"음료":8577,"유니크":8578,"휴가":8579,"벤치":8580,"히틀러":8581,"반도":8582,"##앤":8583,"암호":8584,"##밭":8585,"쇼크":8586,"구조물":8587,"달려가":8588,"짙":8589,"구장":8590,"날씨":8591,"##어트":8592,"샷건":8593,"##구장":8594,"때려":8595,"변동":8596,"번지":8597,"총장":8598,"En":8599,"캘리포":8600,"네티":8601,"##킷":8602,"쿤":8603,"확장팩":8604,"퍼즐":8605,"얽":8606,"##노리":8607,"제갈량":8608,"그라운드":8609,"시상식":8610,"하프":8611,"짐작":8612,"1978":8613,"질서":8614,"1973":8615,"⭧ᄇ니까":8616,"오페":8617,"근원":8618,"챔":8619,"믹스":8620,"레온":8621,"JT":8622,"함부로":8623,"트로피":8624,"해병대":8625,"동해":8626,"##ᅥ하":8627,"기뻐하":8628,"어쩌면":8629,"184":8630,"사퇴":8631,"로맨":8632,"거론":8633,"오브젝트":8634,"##az":8635,"튼":8636,"여의":8637,"##bo":8638,"대행":8639,"렐":8640,"캘리포니아":8641,"보라색":8642,"슬라":8643,"제치":8644,"소니":8645,"찬성":8646,"라즈":8647,"첫째":8648,"갈색":8649,"짐승":8650,"AN":8651,"상사":8652,"가담":8653,"깊이":8654,"베기":8655,"##러그":8656,"각오":8657,"인재":8658,"##놀":8659,"##앞":8660,"사로":8661,"World":8662,"##ason":8663,"양손":8664,"구동":8665,"##AY":8666,"111":8667,"##케이션":8668,"그랑":8669,"샵":8670,"쿠데":8671,"220":8672,"여럿":8673,"안심":8674,"호불":8675,"##iki":8676,"호불호":8677,"퇴각":8678,"무용":8679,"백화점":8680,"껍":8681,"최저":8682,"##베리":8683,"혁신":8684,"거칠":8685,"사야":8686,"공감":8687,"갚":8688,"183":8689,"강림":8690,"메트로":8691,"키보드":8692,"정반":8693,"##돌이":8694,"결제":8695,"지수":8696,"##키스탄":8697,"킷":8698,"감수":8699,"시그":8700,"JP":8701,"##저기":8702,"오더":8703,"카리":8704,"포스터":8705,"##느리":8706,"사이클":8707,"돌보":8708,"동서":8709,"프린세스":8710,"말기":8711,"⭧레":8712,"트레이너":8713,"진급":8714,"마계":8715,"전날":8716,"계층":8717,"베어스":8718,"리미":8719,"고무":8720,"할리":8721,"네티즌":8722,"알렉스":8723,"원더":8724,"동아":8725,"##ear":8726,"So":8727,"중동":8728,"경호":8729,"빨간색":8730,"대령":8731,"⭧거든":8732,"특별시":8733,"피로":8734,"동행":8735,"산타":8736,"흡사":8737,"##hen":8738,"후반기":8739,"하하":8740,"빠져나가":8741,"장례":8742,"셔틀":8743,"노란색":8744,"여기저기":8745,"중부":8746,"장난감":8747,"마오":8748,"240":8749,"평하":8750,"흔들":8751,"사관":8752,"막강":8753,"타이탄":8754,"리처":8755,"##MS":8756,"뜬금없이":8757,"신선":8758,"당기":8759,"sp":8760,"수지":8761,"##ᆯ릿":8762,"세뇌":8763,"핀란드":8764,"학생회":8765,"가두":8766,"##키스":8767,"아베":8768,"##are":8769,"휠":8770,"포획":8771,"드레스":8772,"밀어내":8773,"견해":8774,"⭧려다가":8775,"FW":8776,"베를린":8777,"탐색":8778,"두들기":8779,"헬리":8780,"차갑":8781,"##빨":8782,"보좌":8783,"인과":8784,"유혹":8785,"GO":8786,"깎이":8787,"매주":8788,"선수단":8789,"날뛰":8790,"양반":8791,"폭스":8792,"교복":8793,"패밀리":8794,"유입":8795,"봉쇄":8796,"국도":8797,"⭧ᆯ려":8798,"페어":8799,"영감":8800,"우호":8801,"강렬":8802,"원곡":8803,"스코틀랜드":8804,"연쇄":8805,"뮌헨":8806,"상주":8807,"입자":8808,"##직자":8809,"##브라":8810,"케이드":8811,"선진":8812,"##차기":8813,"1974":8814,"돋보이":8815,"방송사":8816,"무공":8817,"문화재":8818,"프랑스어":8819,"생체":8820,"끌리":8821,"재건":8822,"tv":8823,"##클리":8824,"클론":8825,"우측":8826,"박쥐":8827,"소재지":8828,"트라우마":8829,"마일":8830,"비기":8831,"도어":8832,"역명":8833,"점유":8834,"운송":8835,"##우트":8836,"토대":8837,"##이너":8838,"⫸마냥":8839,"콤비":8840,"##루미":8841,"방탄":8842,"요미":8843,"경찰서":8844,"아이러니":8845,"드로우":8846,"##케이드":8847,"위로":8848,"왕실":8849,"결계":8850,"##듯":8851,"김준":8852,"서바이":8853,"잭슨":8854,"후미":8855,"흙":8856,"박살나":8857,"와인":8858,"약자":8859,"신중":8860,"공격수":8861,"무실":8862,"결혼식":8863,"세로":8864,"##ᆺ불":8865,"http":8866,"비스트":8867,"부시":8868,"수여":8869,"##하나":8870,"침대":8871,"지부":8872,"1972":8873,"연금술":8874,"##기에":8875,"복사":8876,"##90":8877,"##ven":8878,"래퍼":8879,"트윈스":8880,"윈드":8881,"##ife":8882,"포터":8883,"##아치":8884,"관료":8885,"화폐":8886,"제물":8887,"기스":8888,"도덕":8889,"전락":8890,"집회":8891,"통칭":8892,"바나":8893,"https":8894,"##싸움":8895,"쇄":8896,"로이드":8897,"완공":8898,"튼튼":8899,"트랩":8900,"첸":8901,"토하":8902,"##ade":8903,"허무":8904,"⭧마":8905,"장판":8906,"프라임":8907,"순양함":8908,"엔지":8909,"리안":8910,"밀려나":8911,"##AP":8912,"Wi":8913,"취업":8914,"##박스":8915,"##베이터":8916,"홀리":8917,"역량":8918,"스즈키":8919,"선장":8920,"소금":8921,"콘솔":8922,"탐사":8923,"##렉션":8924,"세자":8925,"덴마크":8926,"영양":8927,"출혈":8928,"강경":8929,"우회":8930,"쓸데":8931,"##껍":8932,"빈도":8933,"탭":8934,"나아지":8935,"##act":8936,"##데레":8937,"도감":8938,"MB":8939,"##웰":8940,"글씨":8941,"~!":8942,"도트":8943,"홀드":8944,"##ai":8945,"대타":8946,"일곱":8947,"##ank":8948,"아바타":8949,"##깨비":8950,"##gin":8951,"연설":8952,"이순":8953,"억제":8954,"여단":8955,"간섭":8956,"%/":8957,"관통력":8958,"라크":8959,"상무":8960,"공대":8961,"낭비":8962,"do":8963,"단행본":8964,"⫸이라":8965,"##aby":8966,"히든":8967,"루프":8968,"부작용":8969,"노무":8970,"메이지":8971,"오노":8972,"모형":8973,"신데":8974,"창문":8975,"104":8976,"영화제":8977,"청나라":8978,"⭧라니":8979,"하스":8980,"승차":8981,"##out":8982,"전동차":8983,"인도네시아":8984,"책임지":8985,"소통":8986,"법무":8987,"Fate":8988,"no":8989,"트레일러":8990,"##흔":8991,"전격":8992,"침투":8993,"성씨":8994,"##토니":8995,"술사":8996,"재직":8997,"태클":8998,"오지":8999,"페미니":9000,"워크래프트":9001,"손꼽":9002,"넘어오":9003,"디시":9004,"⭧이":9005,"당초":9006,"매니아":9007,"한창":9008,"⫸든":9009,"다큐":9010,"1975":9011,"커스텀":9012,"쿠데타":9013,"⭧되":9014,"마피아":9015,"##lect":9016,"시카고":9017,"신데렐라":9018,"실상":9019,"##른바":9020,"히로시":9021,"LIVE":9022,"간간히":9023,"부재":9024,"##지르":9025,"형편":9026,"백업":9027,"제재":9028,"파밍":9029,"123":9030,"설령":9031,"손오":9032,"출산":9033,"성실":9034,"손쉽":9035,"깃발":9036,"끊임없이":9037,"##ET":9038,"범용":9039,"##에른":9040,"공산주의":9041,"장애물":9042,"스나이":9043,"⭧을수록":9044,"경연":9045,"강간":9046,"김일":9047,"스트라이커":9048,"딸리":9049,"##oll":9050,"큰":9051,"제니":9052,"NH":9053,"우승자":9054,"끌어들이":9055,"전향":9056,"소득":9057,"스타리그":9058,"시호":9059,"검증":9060,"조종사":9061,"##UM":9062,"##모스":9063,"토요":9064,"중점":9065,"Up":9066,"이른바":9067,"품질":9068,"왕비":9069,"OS":9070,"노르웨이":9071,"여타":9072,"카자":9073,"1976":9074,"라스트":9075,"are":9076,"근접전":9077,"소나":9078,"말레이":9079,"변이":9080,"항해":9081,"외곽":9082,"III":9083,"##ork":9084,"렉스":9085,"##천군":9086,"워크":9087,"다스리":9088,"스피릿":9089,"파도":9090,"성분":9091,"강릉":9092,"최선":9093,"원주민":9094,"정석":9095,"마산":9096,"사악":9097,"사사":9098,"크라이":9099,"대접":9100,"혈통":9101,"섀도우":9102,"모니터":9103,"그러므로":9104,"##추어":9105,"발명":9106,"따라오":9107,"판사":9108,"유료":9109,"##바야":9110,"Do":9111,"단기":9112,"##ary":9113,"이어받":9114,"하급":9115,"마트":9116,"구상":9117,"특공":9118,"선박":9119,"리코":9120,"리모":9121,"카더라":9122,"Oh":9123,"제왕":9124,"공통점":9125,"왜냐하면":9126,"검열":9127,"광물":9128,"##넌":9129,"##way":9130,"하반":9131,"티스":9132,"전생":9133,"##ᆸ시":9134,"##렇":9135,"왼손":9136,"포도":9137,"스텔":9138,"끌어올리":9139,"뉘":9140,"##루션":9141,"##페이":9142,"동전":9143,"입문":9144,"119":9145,"##와라":9146,"브라이언":9147,"키라":9148,"유연":9149,"트리거":9150,"벨기에":9151,"천천":9152,"##바지":9153,"##톡":9154,"중상":9155,"맞붙":9156,"명분":9157,"탄핵":9158,"올드":9159,"##ey":9160,"쯔":9161,"##ich":9162,"명사":9163,"공헌":9164,"고종":9165,"장남":9166,"전송":9167,"원장":9168,"사로잡":9169,"##께끼":9170,"135":9171,"수수께끼":9172,"이스트":9173,"급행":9174,"소모량":9175,"중심지":9176,"단검":9177,"109":9178,"##슈타인":9179,"##모함":9180,"초콜릿":9181,"엘레":9182,"중고":9183,"김수":9184,"박정희":9185,"미지":9186,"바이에른":9187,"초상":9188,"우울":9189,"코스튬":9190,"중기":9191,"지선":9192,"##저우":9193,"##타입":9194,"ES":9195,"중위":9196,"트롤":9197,"확신":9198,"대변":9199,"##으로":9200,"##플링":9201,"올바르":9202,"Mk":9203,"공단":9204,"입증":9205,"⭧으려는":9206,"베테랑":9207,"일체":9208,"한나라":9209,"모스크바":9210,"잔인":9211,"##능력":9212,"##키리":9213,"크레이":9214,"한나라당":9215,"관우":9216,"벅":9217,"엘리베이터":9218,"검토":9219,"오페라":9220,"시모":9221,"저자":9222,"자네":9223,"수인":9224,"마틴":9225,"시게":9226,"Ad":9227,"잉여":9228,"예약":9229,"시온":9230,"단발":9231,"조국":9232,"부패":9233,"질주":9234,"친절":9235,"불태우":9236,"손오공":9237,"대법":9238,"아이디어":9239,"lv":9240,"땅볼":9241,"부유":9242,"메일":9243,"대동":9244,"##샷":9245,"히스":9246,"긁":9247,"꿈꾸":9248,"힌":9249,"교리":9250,"all":9251,"##동자":9252,"##벤처":9253,"Day":9254,"어드벤처":9255,"씌우":9256,"존스":9257,"강호":9258,"발판":9259,"보스턴":9260,"아스카":9261,"성배":9262,"##헬":9263,"터스":9264,"유망주":9265,"천황":9266,"콘스탄":9267,"AFC":9268,"##어드":9269,"케빈":9270,"시외버스":9271,"곡인":9272,"스태프":9273,"부속":9274,"도쿠":9275,"퀵":9276,"이병":9277,"앤드":9278,"##다운":9279,"천천히":9280,"nd":9281,"체코":9282,"버스트":9283,"렘":9284,"압축":9285,"##하루":9286,"충족":9287,"일레":9288,"학사":9289,"##pt":9290,"⭧고는":9291,"182":9292,"##라미":9293,"##orn":9294,"과자":9295,"카카오":9296,"흩어지":9297,"이현":9298,"메리트":9299,"비리":9300,"니혼":9301,"고스":9302,"카시":9303,"굴욕":9304,"구독":9305,"무제":9306,"도깨비":9307,"에이지":9308,"##스카":9309,"그릇":9310,"갑작스럽":9311,"쓰리":9312,"프로게이":9313,"프로게이머":9314,"분할":9315,"동정":9316,"손님":9317,"오메가":9318,"강전":9319,"화상":9320,"군부":9321,"자제":9322,"연수":9323,"나폴레":9324,"##르타":9325,"루마":9326,"토마스":9327,"친분":9328,"어색":9329,"후일":9330,"대박":9331,"지붕":9332,"위엄":9333,"민중":9334,"싱가":9335,"싱가포르":9336,"항공모함":9337,"디자이너":9338,"기하":9339,"평등":9340,"기차":9341,"121":9342,"홋카이도":9343,"치카":9344,"##네이":9345,"미궁":9346,"레이디":9347,"이모":9348,"나폴레옹":9349,"마운":9350,"지력":9351,"##레일리아":9352,"고고":9353,"삼성전자":9354,"라그나":9355,"##스레":9356,"1971":9357,"땡":9358,"일관":9359,"머니":9360,"Windows":9361,"까지":9362,"##의자":9363,"##네마":9364,"왕복":9365,"얇":9366,"레이블":9367,"박살내":9368,"와이번":9369,"달아나":9370,"FF":9371,"이오":9372,"동구":9373,"테이블":9374,"폭격기":9375,"스택":9376,"너머":9377,"발레":9378,"머물":9379,"145":9380,"사체":9381,"사촌":9382,"극대":9383,"107":9384,"블레이":9385,"맹세":9386,"디펜":9387,"망명":9388,"##테이션":9389,"우루":9390,"톡":9391,"=\"":9392,"이경":9393,"현금":9394,"RA":9395,"기울이":9396,"열정":9397,"찰스":9398,"이틀":9399,"엑시즈":9400,"광기":9401,"합작":9402,"1977":9403,"진에":9404,"점검":9405,"강점기":9406,"대전차":9407,"##ah":9408,"김포":9409,"엔트리":9410,"퍼스트":9411,"##EM":9412,"터트리":9413,"그립":9414,"하이라이트":9415,"카리스":9416,"여포":9417,"질량":9418,"유탄":9419,"창립":9420,"쫓겨나":9421,"DP":9422,"변태":9423,"종결":9424,"썸":9425,"##사스":9426,"원숭이":9427,"⭧으라고":9428,"후드":9429,"촉수":9430,"하사":9431,"##군가":9432,"작위":9433,"마타":9434,"ML":9435,"##브로":9436,"고집":9437,"##렷":9438,"AA":9439,"##very":9440,"신동":9441,"자율":9442,"리퍼":9443,"##uck":9444,"화해":9445,"저기":9446,"마술사":9447,"일가":9448,"보고서":9449,"리틀":9450,"재배":9451,"존중":9452,"조화":9453,"누군가":9454,"츠카":9455,"본질":9456,"그레이트":9457,"독일어":9458,"##첼":9459,"표절":9460,"##막지":9461,"사족":9462,"무지막지":9463,"챔프":9464,"춥":9465,"총합":9466,"오렌":9467,"외우":9468,"원전":9469,"ne":9470,"⭧여서":9471,"천장":9472,"잊히":9473,"선교":9474,"이대로":9475,"IT":9476,"공신":9477,"에버":9478,"평행":9479,"엔지니어":9480,"보르":9481,"앗":9482,"이이":9483,"##라는":9484,"br":9485,"석유":9486,"부스":9487,"⭧쥬":9488,"쳐들어":9489,"중거리":9490,"자존":9491,"감탄":9492,"브라더스":9493,"임진":9494,"전라북도":9495,"피카":9496,"##ph":9497,"Sw":9498,"DPS":9499,"호크":9500,"젬":9501,"자책점":9502,"면하":9503,"BPM":9504,"게이머":9505,"JTBC":9506,"소집":9507,"정사":9508,"지분":9509,"농민":9510,"##아들":9511,"진단":9512,"물자":9513,"210":9514,"지오":9515,"스포일러":9516,"란스":9517,"##끗":9518,"메카닉":9519,"카마":9520,"봉사":9521,"노무현":9522,"연간":9523,"해소":9524,"178":9525,"인칭":9526,"카레":9527,"##ero":9528,"꺼리":9529,"몸통":9530,"스가":9531,"1969":9532,"마그":9533,"떨치":9534,"과일":9535,"##자치":9536,"113":9537,"니아":9538,"유가":9539,"스티브":9540,"관장":9541,"리처드":9542,"\".":9543,"대위":9544,"유격수":9545,"교과서":9546,"파랗":9547,"무실점":9548,"##플리":9549,"라마":9550,"쿠스":9551,"교차로":9552,"##ool":9553,"타구":9554,"사수":9555,"서적":9556,"동속":9557,"검정":9558,"노가다":9559,"165":9560,"##바나":9561,"오스트레일리아":9562,"파스":9563,"광명":9564,"브레이커":9565,"마유":9566,"김지":9567,"1968":9568,"하치":9569,"맨체스터":9570,"동대":9571,"솟":9572,"1963":9573,"냉정":9574,"데빌":9575,"주식회사":9576,"임하":9577,"철저히":9578,"##ical":9579,"러스":9580,"총독":9581,"토트":9582,"쨩":9583,"불쌍":9584,"빙판":9585,"명시":9586,"출판사":9587,"시골":9588,"손꼽히":9589,"NBA":9590,"부원":9591,"프랜":9592,"힘입":9593,"입사":9594,"필름":9595,"주축":9596,"장타":9597,"##urn":9598,"부산광역시":9599,"아깝":9600,"가구":9601,"착륙":9602,"##퍼드":9603,"백만":9604,"겜":9605,"##ype":9606,"다니엘":9607,"Ph":9608,"병역":9609,"블리자드":9610,"탄압":9611,"실체":9612,"슬픔":9613,"##ARD":9614,"부천":9615,"Con":9616,"테스":9617,"2021":9618,"말씀":9619,"에드워드":9620,"윤리":9621,"모순":9622,"##구미":9623,"##anc":9624,"주사위":9625,"호의":9626,"##센스":9627,"##지아":9628,"스노우":9629,"매각":9630,"##ᆺ속":9631,"고아":9632,"광경":9633,"지장":9634,"유치원":9635,"터보":9636,"미오":9637,"##우라":9638,"매드":9639,"섹":9640,"불능":9641,"마인드":9642,"닦":9643,"스폰서":9644,"목걸이":9645,"##프로":9646,"{{{#":9647,"⭧은지":9648,"어벤":9649,"부스트":9650,"라이언":9651,"##은색":9652,"김유":9653,"155":9654,"서열":9655,"레이어":9656,"완화":9657,"겸하":9658,"지혜":9659,"용산":9660,"Cr":9661,"마당":9662,"파운드":9663,"변장":9664,"##ung":9665,"참사":9666,"제리":9667,"평론가":9668,"엄연히":9669,"줄기":9670,"유니버스":9671,"날아다니":9672,"⫸이라도":9673,"내버리":9674,"물어":9675,"멍청":9676,"OVA":9677,"사우스":9678,"수천":9679,"김승":9680,"울트라맨":9681,"답답":9682,"명명":9683,"##멧":9684,"우타":9685,"문양":9686,"나나":9687,"하나하나":9688,"보편":9689,"개명":9690,"122":9691,"Qu":9692,"서류":9693,"트윗":9694,"상금":9695,"납득":9696,"아아":9697,"미러":9698,"초청":9699,"워프":9700,"##항공":9701,"배구":9702,"모델링":9703,"씨앗":9704,"외국어":9705,"##ᆫ즈":9706,"평상":9707,"##테일":9708,"시뮬":9709,"디오":9710,"Station":9711,"181":9712,"레인지":9713,"프로그래":9714,"##업자":9715,"압권":9716,"TVA":9717,"이노":9718,"치안":9719,"열혈":9720,"가설":9721,"##잉":9722,"144":9723,"중구":9724,"정문":9725,"친척":9726,"난무":9727,"어나":9728,"펠리":9729,"진동":9730,"취재":9731,"닥치":9732,"집계":9733,"디바":9734,"중원":9735,"엘리자베스":9736,"박수":9737,"##소년":9738,"본능":9739,"수위":9740,"LO":9741,"발키리":9742,"향후":9743,"##ww":9744,"앓":9745,"절친":9746,"좌익":9747,"KOF":9748,"재앙":9749,"철갑":9750,"마케팅":9751,"자산":9752,"서명":9753,"주석":9754,"리나":9755,"헷갈리":9756,"성명":9757,"클린":9758,"오죽":9759,"카지":9760,"우연":9761,"녹화":9762,"고등학생":9763,"##끼리":9764,"이케":9765,"##iver":9766,"도심":9767,"케이크":9768,"애칭":9769,"무늬":9770,"초능력":9771,"##부지":9772,"비우":9773,"소생":9774,"작정":9775,"고사":9776,"어나더":9777,"at":9778,"패자":9779,"행진":9780,"서방":9781,"강민":9782,"쫒":9783,"쿵":9784,"국토":9785,"햇":9786,"사연":9787,"사직":9788,"시조":9789,"덤비":9790,"페스":9791,"##DD":9792,"신하":9793,"곤충":9794,"어이없":9795,"브래":9796,"152":9797,"일리":9798,"서울대":9799,"시어":9800,"드래곤볼":9801,"유아":9802,"용암":9803,"골프":9804,"가이드":9805,"love":9806,"결의":9807,"아리아":9808,"로프":9809,"아마추어":9810,"경부":9811,"실용":9812,"액체":9813,"학대":9814,"실사":9815,"##폭탄":9816,"##ens":9817,"경사":9818,"산소":9819,"국방부":9820,"정성":9821,"발발":9822,"멋대로":9823,"매트":9824,"자사":9825,"쿠니":9826,"##마리":9827,"표적":9828,"츠바":9829,"전지":9830,"as":9831,"워터":9832,"편리":9833,"벙커":9834,"좌측":9835,"유엔":9836,"##ost":9837,"스카우트":9838,"민간인":9839,"도색":9840,"##이동":9841,"TR":9842,"이태":9843,"자칭":9844,"##드러지":9845,"리플":9846,"침몰":9847,"114":9848,"엄밀히":9849,"##ᆺ말":9850,"워즈":9851,"##마르":9852,"주머니":9853,"사투":9854,"일커":9855,"마음대로":9856,"스케일":9857,"##워즈":9858,"##ence":9859,"1930":9860,"일컫":9861,"다케":9862,"##흉":9863,"라이즈":9864,"wiki":9865,"몰살":9866,"거지":9867,"마하":9868,"아지":9869,"박성":9870,"롤러":9871,"인성":9872,"만점":9873,"미성":9874,"##려워하":9875,"IM":9876,"##nt":9877,"변명":9878,"##밤":9879,"의정부":9880,"이대":9881,"직책":9882,"때로":9883,"##띠":9884,"##마루":9885,"##켈":9886,"자아":9887,"개교":9888,"초록색":9889,"망토":9890,"알아채":9891,"##변이":9892,"돌연변이":9893,"from":9894,"초점":9895,"항모":9896,"##ise":9897,"⭧샤":9898,"옥상":9899,"⭧습니까":9900,"각도":9901,"코토":9902,"각인":9903,"법사":9904,"웜":9905,"##int":9906,"리본":9907,"##시스코":9908,"이진":9909,"기질":9910,"모음":9911,"텍사스":9912,"포크":9913,"이누":9914,"1920":9915,"개구리":9916,"원피스":9917,"겔":9918,"템플":9919,"마모":9920,"아자":9921,"신지":9922,"스컬":9923,"루리":9924,"179":9925,"##타운":9926,"방학":9927,"##뱅":9928,"만능":9929,"이념":9930,"정밀":9931,"유스":9932,"고의":9933,"달려들":9934,"!\"":9935,"발급":9936,"##탱":9937,"##AK":9938,"통째":9939,"풍기":9940,"죄책":9941,"등극":9942,"학급":9943,"지로":9944,"Super":9945,"⭧션":9946,"이원":9947,"포탈":9948,"매달리":9949,"에디션":9950,"MG":9951,"##이나":9952,"##하여":9953,"비키":9954,"Fr":9955,"격려":9956,"1940":9957,"이명박":9958,"BJ":9959,"can":9960,"이어서":9961,"##oy":9962,"##지능":9963,"용자":9964,"인공지능":9965,"동성애":9966,"조항":9967,"아담":9968,"방심":9969,"포병":9970,"슈퍼맨":9971,"미인":9972,"혼인":9973,"정신력":9974,"##툼":9975,"이빨":9976,"www":9977,"##ign":9978,"발탁":9979,"##떨어지":9980,"구로":9981,"적절히":9982,"CM":9983,"선동":9984,"오렌지":9985,"엉망":9986,"관직":9987,"종영":9988,"인벤":9989,"연전":9990,"##ans":9991,"극한":9992,"협동":9993,"스타트":9994,"바쿠":9995,"연이":9996,"177":9997,"북아":9998,"마찰":9999,"안동":10000,"기소":10001,"어설":10002,"대역":10003,"제사":10004,"들여":10005,"남동생":10006,"멧":10007,"죄책감":10008,"소비자":10009,"##과이":10010,"튜버":10011,"##리칸":10012,"추후":10013,"네이션":10014,"리사":10015,"호러":10016,"##ug":10017,"포착":10018,"최순":10019,"Dream":10020,"##베트":10021,"헬멧":10022,"풍선":10023,"펌프":10024,"##팽":10025,"정반대":10026,"트릴":10027,"부러지":10028,"⭧다거나":10029,"##바이트":10030,"장벽":10031,"##바야시":10032,"아케이드":10033,"공속":10034,"감당":10035,"덮치":10036,"124":10037,"은폐":10038,"뚜렷":10039,"##전차":10040,"블럭":10041,"##이치로":10042,"억울":10043,"1967":10044,"##야스":10045,"금강":10046,"선로":10047,"너스":10048,"저서":10049,"유진":10050,"갱신":10051,"고가":10052,"원로":10053,"반경":10054,"127":10055,"다시금":10056,"아이디":10057,"##트론":10058,"##글링":10059,"마에":10060,"USB":10061,"흘러가":10062,"킴":10063,"그해":10064,"아무튼":10065,"오른손":10066,"오다":10067,"교역":10068,"타츠":10069,"협조":10070,"페어리":10071,"뛰어들":10072,"정점":10073,"용이":10074,"씻":10075,"도약":10076,"예의":10077,"##룬":10078,"##짱":10079,"아사히":10080,"부동산":10081,"아쿠아":10082,"신곡":10083,"해운":10084,"this":10085,"##IR":10086,"내기":10087,"다비":10088,"유카":10089,"##나베":10090,"##뒤":10091,"페르시아":10092,"펭":10093,"1200":10094,"퍽":10095,"중국인":10096,"##코트":10097,"시오":10098,"##vel":10099,"분홍":10100,"트윈":10101,"대차":10102,"쉴드":10103,"타치":10104,"마라":10105,"450":10106,"잔혹":10107,"시타":10108,"고발":10109,"맞히":10110,"카운티":10111,"부채":10112,"연동":10113,"왕족":10114,"##이크":10115,"기본기":10116,"사나":10117,"녹이":10118,"피오":10119,"##철수":10120,"욕설":10121,"독립운동":10122,"⭧ᆫ데다":10123,"##질랜드":10124,"컴백":10125,"##지사":10126,"ERA":10127,"##ode":10128,"민감":10129,"뉴질랜드":10130,"출동":10131,"교도소":10132,"초과":10133,"크래프트":10134,"누스":10135,"절벽":10136,"선원":10137,"카테":10138,"##uk":10139,"##VER":10140,"옴":10141,"##셈":10142,"##젤레스":10143,"수신":10144,"지역구":10145,"비단":10146,"##빡":10147,"##쭉":10148,"호드":10149,"시크릿":10150,"네크로":10151,"수감":10152,"무도":10153,"후쿠오카":10154,"사방":10155,"프레스":10156,"베스":10157,"어ᄊ":10158,"침착":10159,"사무라이":10160,"서리":10161,"Fl":10162,"발각":10163,"방침":10164,"스토어":10165,"감자":10166,"덩어리":10167,"Pl":10168,"후유":10169,"##렉터":10170,"회관":10171,"청춘":10172,"우마":10173,"대세":10174,"뺏기":10175,"툰":10176,"물려받":10177,"팔라":10178,"갯":10179,"젼":10180,"보강":10181,"Ver":10182,"스로":10183,"이소":10184,"대피":10185,"##역사":10186,"제의":10187,"CE":10188,"##나기":10189,"##생활":10190,"얹":10191,"그러면":10192,"구형":10193,"급격히":10194,"키미":10195,"스케이":10196,"⭧게끔":10197,"EC":10198,"종전":10199,"철도역":10200,"진에어":10201,"디스플레이":10202,"⫸게":10203,"EXP":10204,"##텍":10205,"연소":10206,"카리스마":10207,"재즈":10208,"##공사":10209,"style":10210,"내외":10211,"애완":10212,"함장":10213,"이윤":10214,"측근":10215,"얽히":10216,"##민주당":10217,"발전소":10218,"히카":10219,"방사능":10220,"도르":10221,"##헤이":10222,"로렌":10223,"꾀":10224,"스쿼":10225,"코스프레":10226,"코노":10227,"애인":10228,"가마":10229,"실존":10230,"선포":10231,"아울":10232,"레나":10233,"유재석":10234,"##ier":10235,"에도":10236,"마야":10237,"게르":10238,"신한":10239,"궁합":10240,"가위":10241,"퇴치":10242,"반성":10243,"판도":10244,"아랫":10245,"강대":10246,"현자":10247,"카쿠":10248,"리바":10249,"격렬":10250,"기법":10251,"분자":10252,"워리어":10253,"아비":10254,"Sch":10255,"가오":10256,"예방":10257,"잔류":10258,"나인":10259,"밭":10260,"##페이스":10261,"김구":10262,"Girl":10263,"당국":10264,"Season":10265,"두드러지":10266,"사물":10267,"##뱃":10268,"인문":10269,"⭧군요":10270,"##틈":10271,"1962":10272,"##ash":10273,"징계":10274,"IP":10275,"오퍼":10276,"러쉬":10277,"미아":10278,"박자":10279,"문신":10280,"##속기":10281,"왕가":10282,"ar":10283,"자이언트":10284,"근로":10285,"La":10286,"이놈":10287,"DM":10288,"시시":10289,"모욕":10290,"전담":10291,"화기":10292,"약혼":10293,"강타":10294,"쿠마":10295,"NO":10296,"반역":10297,"162":10298,"이카":10299,"흡혈귀":10300,"카피":10301,"유동":10302,"이단":10303,"정조":10304,"흑마":10305,"tr":10306,"사치":10307,"중견":10308,"118":10309,"종로":10310,"흥분":10311,"왕후":10312,"친애":10313,"지루":10314,"비오":10315,"화석":10316,"WC":10317,"시종":10318,"점심":10319,"쿠바":10320,"퀴즈":10321,"불러오":10322,"고립":10323,"피자":10324,"제주도":10325,"벗기":10326,"노아":10327,"기동력":10328,"카네":10329,"분배":10330,"##reat":10331,"1966":10332,"##IX":10333,"쿠리":10334,"아처":10335,"넬":10336,"부가":10337,"유우키":10338,"잠기":10339,"돌려주":10340,"이용자":10341,"명나라":10342,"위쪽":10343,"레이싱":10344,"단백":10345,"##ib":10346,"황당":10347,"타이어":10348,"박진":10349,"경성":10350,"계곡":10351,"##리나":10352,"벌써":10353,"이행":10354,"##꿈":10355,"김치":10356,"314":10357,"##돌프":10358,"자존심":10359,"학술":10360,"##렙":10361,"##치아":10362,"##뱀":10363,"생김새":10364,"제노":10365,"##슐":10366,"스나이퍼":10367,"한하":10368,"태생":10369,"탈환":10370,"##usic":10371,"월간":10372,"Max":10373,"##사랑":10374,"중소":10375,"피지컬":10376,"##탐정":10377,"우두":10378,"관문":10379,"실적":10380,"로스트":10381,"모나":10382,"한양":10383,"망설":10384,"##딸":10385,"750":10386,"입시":10387,"##방울":10388,"1964":10389,"##폴":10390,"바시":10391,"스모":10392,"건지":10393,"금요일":10394,"대검":10395,"노랗":10396,"뚱":10397,"고인":10398,"골치":10399,"그간":10400,"##ᆸ시고":10401,"안무":10402,"적시타":10403,"불길":10404,"##수리":10405,"Vol":10406,"TS":10407,"아스트":10408,"뱅가드":10409,"##리얼":10410,"숙소":10411,"유고":10412,"DNA":10413,"그쪽":10414,"여태":10415,"정전":10416,"토트넘":10417,"라미":10418,"오케":10419,"내셔널":10420,"얼티":10421,"급속":10422,"스파이더맨":10423,"능가":10424,"Ed":10425,"아오이":10426,"천상":10427,"##}}":10428,"--":10429,"궁전":10430,"시범":10431,"중재":10432,"요격":10433,"호리":10434,"##ose":10435,"ld":10436,"할로윈":10437,"통솔":10438,"레아":10439,"남동":10440,"모종":10441,"성사":10442,"스피어":10443,"대학생":10444,"코파":10445,"##서스":10446,"중도":10447,"나이프":10448,"사슬":10449,"탈취":10450,"진술":10451,"스타즈":10452,"갈라지":10453,"로키":10454,"AV":10455,"존슨":10456,"부끄럽":10457,"에메":10458,"까마귀":10459,"직위":10460,"한꺼":10461,"치이":10462,"섬기":10463,"한꺼번에":10464,"소소":10465,"입원":10466,"##시대":10467,"두려워하":10468,"##닛":10469,"괴인":10470,"과시":10471,"나이츠":10472,"##보기":10473,"황태":10474,"amp":10475,"욕망":10476,"계절":10477,"불참":10478,"##프라":10479,"청하":10480,"Col":10481,"거세":10482,"혼합":10483,"##부키":10484,"##te":10485,"야당":10486,"so":10487,"생태":10488,"##킬":10489,"##ᅳ롤":10490,"기껏":10491,"##미터":10492,"학년도":10493,"아리스":10494,"항공사":10495,"GM":10496,"비자":10497,"저글링":10498,"점멸":10499,"HE":10500,"건너가":10501,"##사르":10502,"질환":10503,"미정":10504,"⫸든지":10505,"마기":10506,"극심":10507,"뷔":10508,"다녀":10509,"##ail":10510,"오만":10511,"##msys":10512,"모빌":10513,"페르소":10514,"우지":10515,"##ition":10516,"ldmsys":10517,"원판":10518,"간판":10519,"그란":10520,"테리":10521,"천국":10522,"충청북도":10523,"스탭":10524,"일지":10525,"스탈린":10526,"히드라":10527,"이별":10528,"닷":10529,"도대":10530,"필사":10531,"테르":10532,"얼리":10533,"과금":10534,"##구니":10535,"욱":10536,"rd":10537,"보로":10538,"Night":10539,"각국":10540,"잼":10541,"욕심":10542,"BC":10543,"차장":10544,"마르코":10545,"상냥":10546,"토우":10547,"나들":10548,"강인":10549,"not":10550,"조립":10551,"레버":10552,"시안":10553,"회로":10554,"##당초":10555,"앨런":10556,"미녀":10557,"련":10558,"고추":10559,"헤라":10560,"나들목":10561,"리버스":10562,"##워프":10563,"##IL":10564,"달려오":10565,"이사장":10566,"지크":10567,"김주":10568,"뻘":10569,"아케":10570,"단자":10571,"스매":10572,"승패":10573,"지지율":10574,"요코하마":10575,"암컷":10576,"공국":10577,"##당기":10578,"##히토":10579,"##ild":10580,"##무지":10581,"하여금":10582,"##러브":10583,"얌":10584,"168":10585,"일일":10586,"김광":10587,"페르소나":10588,"오토바이":10589,"Let":10590,"수소":10591,"툭":10592,"##티노":10593,"물약":10594,"도미":10595,"마쓰":10596,"깨끗":10597,"병행":10598,"희생자":10599,"디아블로":10600,"고이":10601,"오사":10602,"키요":10603,"학회":10604,"하지":10605,"피난":10606,"⭧ᆯ래":10607,"단백질":10608,"굶":10609,"상부":10610,"난민":10611,"스크롤":10612,"##ody":10613,"돌려":10614,"바텀":10615,"로비":10616,"만렙":10617,"테니스":10618,"갸":10619,"등재":10620,"목욕":10621,"##깃":10622,"사탕":10623,"빙결":10624,"Black":10625,"들르":10626,"어원":10627,"펑크":10628,"159":10629,"##바리":10630,"일환":10631,"어서":10632,"코끼리":10633,"밀리언":10634,"신작":10635,"무녀":10636,"스윙":10637,"이승만":10638,"##세지":10639,"미노":10640,"얄":10641,"도배":10642,"퍼펙트":10643,"BD":10644,"토라":10645,"평택":10646,"무신":10647,"춤추":10648,"말레이시아":10649,"칼라":10650,"라인하르트":10651,"부처":10652,"아마존":10653,"일어":10654,"⭧ㅔ":10655,"인쇄":10656,"내밀":10657,"리자":10658,"여주인":10659,"해변":10660,"##진호":10661,"##클린":10662,"해역":10663,"오즈":10664,"파고":10665,"아인":10666,"신생":10667,"화신":10668,"금발":10669,"무지개":10670,"부친":10671,"환생":10672,"##톨":10673,"둥지":10674,"덥":10675,"##빗":10676,"마도카":10677,"가해":10678,"##딴":10679,"직행":10680,"1948":10681,"mar":10682,"##ough":10683,"응답":10684,"해전":10685,"발사기":10686,"아메리칸":10687,"국기":10688,"##치고":10689,"진흥":10690,"엉덩이":10691,"⭧머":10692,"맑":10693,"삼키":10694,"AF":10695,"##롤":10696,"대니":10697,"늪":10698,"MM":10699,"챔스":10700,"절단":10701,"1944":10702,"미소녀":10703,"세례":10704,"아무렇":10705,"도대체":10706,"모의":10707,"무능":10708,"1965":10709,"성벽":10710,"OG":10711,"부제":10712,"히사":10713,"##33":10714,"##모습":10715,"명장":10716,"두껍":10717,"맛보":10718,"쿠르":10719,"유머":10720,"중공":10721,"일조":10722,"로스앤":10723,"로스앤젤레스":10724,"퓨전":10725,"스텔스":10726,"섬멸":10727,"##쑤":10728,"노부나가":10729,"충남":10730,"석사":10731,"방언":10732,"프랑크":10733,"회계":10734,"간지":10735,"불상":10736,"스쿼드":10737,"노릇":10738,"아카네":10739,"##멘터리":10740,"주저":10741,"RE":10742,"섭취":10743,"아슬":10744,"울음":10745,"##겔":10746,"와이번스":10747,"수중":10748,"식스":10749,"수아":10750,"약체":10751,"필라":10752,"4000":10753,"눈앞":10754,"Op":10755,"##gr":10756,"데몬":10757,"일명":10758,"대국":10759,"조수":10760,"안토니":10761,"좌파":10762,"전임":10763,"##타리":10764,"##스크림":10765,"빅토리아":10766,"카일":10767,"사임":10768,"고래":10769,"동상":10770,"집필":10771,"객관":10772,"출석":10773,"##aster":10774,"접수":10775,"⭧ㅔ요":10776,"빌보드":10777,"공교":10778,"외야수":10779,"##app":10780,"마을버스":10781,"그리스도":10782,"메디":10783,"##orts":10784,"평상시":10785,"목포":10786,"확립":10787,"두루":10788,"비평":10789,"인피니티":10790,"선회":10791,"사이토":10792,"대안":10793,"##성군":10794,"그리핀":10795,"⭧까":10796,"뾰":10797,"대승":10798,"연세대":10799,"유메":10800,"##uc":10801,"보살":10802,"뺘":10803,"쿄코":10804,"베이비":10805,"##벼":10806,"사천":10807,"교향":10808,"에코":10809,"드워프":10810,"애용":10811,"혼혈":10812,"1946":10813,"걸어가":10814,"##고속도로":10815,"##은이":10816,"십자군":10817,"아수":10818,"신관":10819,"아니하":10820,"워드":10821,"공동체":10822,"성지":10823,"이계":10824,"주공":10825,"PK":10826,"다큐멘터리":10827,"주입":10828,"##ᅩᆯ":10829,"어제":10830,"루미":10831,"장본":10832,"해고":10833,"##시티":10834,"꺼지":10835,"알렉산더":10836,"무자":10837,"옐로":10838,"서울시":10839,"최상급":10840,"보우":10841,"컨디션":10842,"츤":10843,"그랑프리":10844,"코레":10845,"동북":10846,"놔":10847,"위시":10848,"휴게":10849,"스카웃":10850,"김대중":10851,"##CE":10852,"이무":10853,"주파":10854,"제발":10855,"스기":10856,"##ject":10857,"en":10858,"편의점":10859,"스타워즈":10860,"껍질":10861,"평판":10862,"라비":10863,"교대":10864,"##OO":10865,"EXT":10866,"⭧몬":10867,"탄소":10868,"침해":10869,"..?":10870,"카토":10871,"블라디":10872,"득표율":10873,"비로":10874,"가령":10875,"##ari":10876,"단련":10877,"프랭크":10878,"줄리":10879,"폭로":10880,"math":10881,"낯":10882,"믿음":10883,"아유":10884,"카게":10885,"자력":10886,"컴뱃":10887,"전도":10888,"방안":10889,"댐":10890,"면제":10891,"수컷":10892,"사지":10893,"벨라":10894,"##긋나":10895,"민폐":10896,"집사":10897,"le":10898,"휴대폰":10899,"AL":10900,"흑막":10901,"진도":10902,"테이프":10903,"CR":10904,"독백":10905,"정답":10906,"아쉬움":10907,"크롬":10908,"라우":10909,"히로시마":10910,"솔저":10911,"정서":10912,"숙청":10913,"섬광":10914,"아르바이트":10915,"EZ":10916,"려":10917,"리프트":10918,"두려움":10919,"유즈":10920,"대면":10921,"소마":10922,"막부":10923,"성대":10924,"뻔하":10925,"##프란":10926,"리부":10927,"타우":10928,"##각형":10929,"와타나베":10930,"구호":10931,"달콤":10932,"원한":10933,"라가":10934,"밈":10935,"큐어":10936,"경제학":10937,"항성":10938,"원자력":10939,"##iel":10940,"##그라":10941,"감성":10942,"우미":10943,"떠돌":10944,"팜":10945,"단서":10946,"강동":10947,"지각":10948,"냉장":10949,"남학생":10950,"공명":10951,"##퍼니":10952,"관광객":10953,"151":10954,"홈경기":10955,"##미르":10956,"둥글":10957,"찬양":10958,"하와":10959,"사르":10960,"보복":10961,"격퇴":10962,"138":10963,"Gu":10964,"신념":10965,"스틱":10966,"배리":10967,"신조":10968,"⭧으려면":10969,"SA":10970,"⭧던지라":10971,"가해자":10972,"장본인":10973,"쑤":10974,"티저":10975,"광복":10976,"남양":10977,"개업":10978,"320":10979,"케리":10980,"하도":10981,"172":10982,"GSL":10983,"눈동자":10984,"은메달":10985,"적이":10986,"##애나":10987,"점하":10988,"타카하시":10989,"권하":10990,"정우":10991,"휴먼":10992,"벡터":10993,"수성":10994,"##오피스":10995,"상시":10996,"남한":10997,"가이아":10998,"##TA":10999,"김병":11000,"천주교":11001,"ATK":11002,"살아오":11003,"##ats":11004,"순천":11005,"##도전":11006,"##ye":11007,"지면":11008,"의의":11009,"강아지":11010,"어벤져":11011,"단역":11012,"보직":11013,"우기":11014,"EU":11015,"##eah":11016,"##바람":11017,"불화":11018,"동아시아":11019,"개막전":11020,"사와":11021,"아드":11022,"자루":11023,"주한":11024,"315":11025,"수라":11026,"시네마":11027,"로크":11028,"1961":11029,"##가루":11030,"##총장":11031,"##부인":11032,"컬렉션":11033,"풍경":11034,"GD":11035,"서바이벌":11036,"일각":11037,"천지":11038,"배후":11039,"테레":11040,"걸음":11041,"##중간":11042,"얼티밋":11043,"투고":11044,"##운수":11045,"고난":11046,"트이":11047,"TOP":11048,"##디스":11049,"Mag":11050,"오공":11051,"158":11052,"⭧케":11053,"균열":11054,"동사":11055,"어기":11056,"대교":11057,"찔리":11058,"내정":11059,"그리하여":11060,"라이드":11061,"샹":11062,"CL":11063,"노비":11064,"표기법":11065,"##다드":11066,"상원":11067,"도스":11068,"재질":11069,"탁월":11070,"다녀오":11071,"깃털":11072,"흑역사":11073,"카사":11074,"손잡이":11075,"가왕":11076,"악행":11077,"캡슐":11078,"무한도전":11079,"통보":11080,"##이센":11081,"마미":11082,"스톡":11083,"시련":11084,"추모":11085,"로맨스":11086,"AB":11087,"민병":11088,"NT":11089,"물리학":11090,"##꿉":11091,"여수":11092,"ver":11093,"리믹스":11094,"수확":11095,"로제":11096,"흉내":11097,"스파크":11098,"동메달":11099,"카이저":11100,"내면":11101,"일산":11102,"스칼":11103,"숭배":11104,"루마니아":11105,"UC":11106,"##oh":11107,"⫸치고":11108,"##eth":11109,"이순신":11110,"매그":11111,"충고":11112,"표식":11113,"##ron":11114,"동이":11115,"박스오피스":11116,"소꿉":11117,"쿠사":11118,"슬라이드":11119,"##사고":11120,"제대":11121,"##성이":11122,"독보":11123,"결과물":11124,"병살":11125,"금고":11126,"##ings":11127,"아이즈":11128,"##룸":11129,"주차장":11130,"마저":11131,"이호":11132,"김일성":11133,"패트":11134,"유마":11135,"구제":11136,"##내리":11137,"##메리카":11138,"제인":11139,"사범":11140,"신상":11141,"어판":11142,"이세":11143,"볶":11144,"그레이드":11145,"건립":11146,"레이지":11147,"176":11148,"공로":11149,"도요":11150,"컴퍼니":11151,"방정":11152,"크라운":11153,"다저스":11154,"딥":11155,"삽질":11156,"will":11157,"간파":11158,"운반":11159,"지미":11160,"Is":11161,"ME":11162,"재수":11163,"예고편":11164,"보가":11165,"##짤":11166,"##떡":11167,"직무":11168,"##로우":11169,"##느님":11170,"병과":11171,"계략":11172,"저항력":11173,"테란":11174,"청사":11175,"호응":11176,"타리":11177,"발톱":11178,"##inal":11179,"궁수":11180,"군데":11181,"심정":11182,"##==":11183,"126":11184,"차림":11185,"김윤":11186,"신임":11187,"1949":11188,"오로치":11189,"정의당":11190,"마수":11191,"안드레":11192,"주의자":11193,"Am":11194,"과격":11195,"대명":11196,"완벽히":11197,"하느님":11198,"자작":11199,"기온":11200,"폴아웃":11201,"승려":11202,"자카":11203,"상어":11204,"친일":11205,"우두머리":11206,"이점":11207,"10000":11208,"겟":11209,"몸매":11210,"어그":11211,"보루":11212,"Don":11213,"테오":11214,"문법":11215,"감금":11216,"타스":11217,"서원":11218,"갈기":11219,"##ult":11220,"겨루":11221,"크로우":11222,"라이트닝":11223,"무선":11224,"바이킹":11225,"응급":11226,"코로나":11227,"리리":11228,"테크노":11229,"154":11230,"사망자":11231,"like":11232,"레시피":11233,"LE":11234,"패왕":11235,"세르비아":11236,"총사":11237,"쫓기":11238,"흉악":11239,"WH":11240,"방울":11241,"스치":11242,"맷집":11243,"{{{-":11244,"KB":11245,"뒤쪽":11246,"풀려나":11247,"Time":11248,"리볼":11249,"132":11250,"##총리":11251,"##MAN":11252,"클레이":11253,"주황":11254,"전법":11255,"총선거":11256,"법안":11257,"유해":11258,"드루이드":11259,"무비":11260,"도사":11261,"웨폰":11262,"거꾸":11263,"김성근":11264,"표하":11265,"짬":11266,"습하":11267,"레슬링":11268,"센트럴":11269,"아테나":11270,"##핏":11271,"new":11272,"##넛":11273,"##덕션":11274,"성폭":11275,"##빨리":11276,"성직자":11277,"강서":11278,"##13":11279,"멸종":11280,"응시":11281,"##저래":11282,"지배자":11283,"##마치":11284,"이즈미":11285,"빗나가":11286,"강습":11287,"천체":11288,"삿":11289,"저승":11290,"이래저래":11291,"반기":11292,"218":11293,"완성도":11294,"이용객":11295,"테크닉":11296,"이리저리":11297,"르노":11298,"Mi":11299,"피드":11300,"##겸":11301,"장신구":11302,"##GA":11303,"니트":11304,"##ᆼ가":11305,"코디":11306,"로열":11307,"떨구":11308,"국민당":11309,"난리":11310,"##ov":11311,"취지":11312,"##oul":11313,"슌":11314,"급식":11315,"충격파":11316,"##18":11317,"상의":11318,"퉁":11319,"라이징":11320,"##낭":11321,"##곰":11322,"손목":11323,"선봉":11324,"리츠":11325,"##조합":11326,"엠블":11327,"이영호":11328,"탐구":11329,"유신":11330,"키노":11331,"당나라":11332,"짝사랑":11333,"더미":11334,"지터":11335,"##ob":11336,"제너":11337,"핑계":11338,"보트":11339,"⫸우":11340,"태조":11341,"##나르":11342,"전염":11343,"리우스":11344,"야망":11345,"미남":11346,"마가":11347,"과언":11348,"블랙홀":11349,"트론":11350,"유능":11351,"후반전":11352,"어드배":11353,"고조":11354,"##ould":11355,"하우":11356,"이쿠":11357,"##전사":11358,"통틀어":11359,"156":11360,"##보우":11361,"..!":11362,"iOS":11363,"무궁":11364,"Ser":11365,"마마":11366,"##친구":11367,"카제":11368,"one":11369,"164":11370,"스크래":11371,"##alk":11372,"버거":11373,"미세":11374,"진하":11375,"엮":11376,"##tern":11377,"##yn":11378,"재벌":11379,"숙련도":11380,"139":11381,"나란히":11382,"배율":11383,"필두":11384,"렀다":11385,"모에":11386,"샤를":11387,"##활약":11388,"놔두":11389,"얼라이":11390,"⭧ᆫ가요":11391,"유카리":11392,"⫸이나마":11393,"##15":11394,"능하":11395,"몰려오":11396,"긋":11397,"시간대":11398,"이인":11399,"##up":11400,"구청":11401,"153":11402,"조던":11403,"매기":11404,"하츠네":11405,"아호":11406,"먼지":11407,"벚":11408,"교정":11409,"저격수":11410,"Gaming":11411,"플리":11412,"하나님":11413,"##레이크":11414,"##reak":11415,"무슬리":11416,"반장":11417,"콜롬":11418,"감기":11419,"공격기":11420,"거꾸로":11421,"커플링":11422,"무슬림":11423,"양심":11424,"합법":11425,"초등학생":11426,"나열":11427,"김두":11428,"이광":11429,"##der":11430,"⭧으리":11431,"##able":11432,"GK":11433,"오키나":11434,"하드웨어":11435,"코프":11436,"유라":11437,"##제스":11438,"접전":11439,"리터":11440,"⭧ᆫ듯":11441,"전두":11442,"청장":11443,"엉뚱":11444,"하비":11445,"성숙":11446,"세미":11447,"후면":11448,"누이":11449,"지성":11450,"상공":11451,"##바스":11452,"최하":11453,"148":11454,"디비전":11455,"가히":11456,"신주":11457,"Car":11458,"맞먹":11459,"##ions":11460,"허브":11461,"인천광역시":11462,"연달":11463,"탄막":11464,"범하":11465,"실업":11466,"셋째":11467,"니콜라":11468,"##엘라":11469,"스케줄":11470,"표창":11471,"동등":11472,"Your":11473,"얼라이언스":11474,"마티":11475,"타키":11476,"오바":11477,"단의":11478,"벌금":11479,"주유":11480,"⫸롤":11481,"##문화":11482,"167":11483,"##널드":11484,"⭧ᆫ단":11485,"볼드":11486,"고우":11487,"장시":11488,"김선":11489,"냉장고":11490,"스마일":11491,"쟁이":11492,"대등":11493,"맞대":11494,"203":11495,"동지":11496,"북서":11497,"봉하":11498,"배열":11499,"달인":11500,"지표":11501,"몰아넣":11502,"애드":11503,"쫓아내":11504,"황혼":11505,"프로덕션":11506,"##쿠스":11507,"어긋나":11508,"애국":11509,"데미":11510,"##타니":11511,"SSR":11512,"창작물":11513,"##백과":11514,"##주의자":11515,"##PA":11516,"##사와":11517,"사료":11518,"무색":11519,"1958":11520,"브라우":11521,"가나":11522,"1941":11523,"음향":11524,"174":11525,"이니":11526,"오역":11527,"주술사":11528,"야마모토":11529,"승급":11530,"##왜":11531,"영화배우":11532,"##ull":11533,"휴스턴":11534,"도모":11535,"##타르":11536,"공모":11537,"무죄":11538,"갈구":11539,"꾸리":11540,"사야카":11541,"##프란시스코":11542,"샌프란시스코":11543,"전례":11544,"라틴어":11545,"##재기":11546,"진로":11547,"##뼈":11548,"종말":11549,"여주인공":11550,"se":11551,"유타":11552,"타당":11553,"아수라":11554,"노하":11555,"동년":11556,"시끄럽":11557,"##뱉":11558,"Min":11559,"설탕":11560,"법학":11561,"깨우":11562,"버블":11563,"번식":11564,"##ᅰ어":11565,"처녀":11566,"앞세우":11567,"무안":11568,"RO":11569,"##셉트":11570,"시뮬레이션":11571,"142":11572,"자키":11573,"##니코":11574,"밀라":11575,"통행":11576,"지지자":11577,"바이크":11578,"##상가":11579,"LTE":11580,"광범":11581,"레이븐":11582,"##차리":11583,"굳히":11584,"영등":11585,"##껑":11586,"문헌":11587,"사내":11588,"헤드샷":11589,"빈약":11590,"인명":11591,"염색":11592,"스페인어":11593,"쳐들어오":11594,"카인":11595,"주가":11596,"순간이동":11597,"##무네":11598,"163":11599,"혼동":11600,"원화":11601,"런처":11602,"과감":11603,"박탈":11604,"가라앉":11605,"한층":11606,"##넨":11607,"##기업":11608,"파이프":11609,"배상":11610,"수령":11611,"차일드":11612,"맹활약":11613,"토비":11614,"레인보우":11615,"생각나":11616,"득실":11617,"이오리":11618,"프로이센":11619,"##ube":11620,"##ECT":11621,"일련":11622,"러너":11623,"비즈":11624,"마스코트":11625,"네스":11626,"꼴찌":11627,"1954":11628,"우편":11629,"염두":11630,"BGA":11631,"레바":11632,"리볼버":11633,"##아티아":11634,"제자리":11635,"졸업식":11636,"사가":11637,"크로아티아":11638,"강수":11639,"월요일":11640,"⭧디":11641,"안보":11642,"##ll":11643,"전학":11644,"##크리":11645,"have":11646,"플레임":11647,"후쿠시마":11648,"pr":11649,"태권":11650,"회견":11651,"맥락":11652,"##뤼":11653,"제지":11654,"단식":11655,"찰나":11656,"설마":11657,"황실":11658,"out":11659,"##보라":11660,"레슨":11661,"절정":11662,"음력":11663,"밀레":11664,"오리온":11665,"수하":11666,"##퉁":11667,"기관포":11668,"페미니즘":11669,"대목":11670,"연막":11671,"능숙":11672,"른":11673,"발현":11674,"대외":11675,"득표수":11676,"크리스토":11677,"장례식":11678,"상속":11679,"약칭":11680,"이만":11681,"##스티스":11682,"##ICE":11683,"##립트":11684,"##랄드":11685,"내ᄈ":11686,"스캔":11687,"초상화":11688,"환호":11689,"카렌":11690,"단총":11691,"연고지":11692,"사소":11693,"안제":11694,"NM":11695,"제프":11696,"복음":11697,"토론토":11698,"미트":11699,"대군":11700,"파우":11701,"143":11702,"밀어붙이":11703,"137":11704,"공고":11705,"인텔":11706,"대법원":11707,"호스":11708,"죄수":11709,"부호":11710,"##물리":11711,"앞면":11712,"당원":11713,"한강":11714,"무너":11715,"무너뜨리":11716,"소우":11717,"따내":11718,"시흥":11719,"너클":11720,"릴리스":11721,"방벽":11722,"공짜":11723,"쳐다보":11724,"##베르트":11725,"투사":11726,"창당":11727,"313":11728,"현직":11729,"노골":11730,"격하":11731,"혹평":11732,"Sum":11733,"무단":11734,"솔직히":11735,"망설이":11736,"평창":11737,"⭧다지만":11738,"내뱉":11739,"한정판":11740,"##귄":11741,"소꿉친구":11742,"사당":11743,"박종":11744,"펙":11745,"양국":11746,"빙의":11747,"북동":11748,"##바루":11749,"차분":11750,"왓":11751,"HS":11752,"인체":11753,"외관":11754,"ALL":11755,"플라스틱":11756,"오비":11757,"경찰청":11758,"꿇":11759,"가미":11760,"자포":11761,"테일즈":11762,"트러":11763,"두뇌":11764,"무식":11765,"CN":11766,"IV":11767,"추출":11768,"랜서":11769,"설비":11770,"이력":11771,"치마":11772,"##소수":11773,"베어":11774,"1943":11775,"십자가":11776,"230":11777,"이준":11778,"전반기":11779,"앵커":11780,"반란군":11781,"알아차리":11782,"스트레이":11783,"바티":11784,"오딘":11785,"아테네":11786,"태자":11787,"뮤지션":11788,"##대사":11789,"델타":11790,"북구":11791,"##박이":11792,"순찰":11793,"맹독":11794,"남미":11795,"난투":11796,"오케스트라":11797,"프로스트":11798,"기술력":11799,"푼":11800,"##ᅨᆫ":11801,"우산":11802,"157":11803,"관계없이":11804,"해상도":11805,"몰아내":11806,"##모어":11807,"강탈":11808,"오쿠":11809,"극악":11810,"키드":11811,"133":11812,"숙주":11813,"⭧ᆯ까요":11814,"##FL":11815,"기이":11816,"슬슬":11817,"공자":11818,"브레스":11819,"거스르":11820,"갈리아":11821,"바비":11822,"미시":11823,"un":11824,"출제":11825,"146":11826,"팬티":11827,"129":11828,"극우":11829,"뚝":11830,"잔해":11831,"윈터":11832,"확고":11833,"구독자":11834,"세키":11835,"##더슨":11836,"000000":11837,"플레이버":11838,"1942":11839,"광범위":11840,"별칭":11841,"지극":11842,"##곧":11843,"청룡":11844,"화약":11845,"##STER":11846,"비참":11847,"173":11848,"시에":11849,"나카무라":11850,"카오루":11851,"BO":11852,"##트랙":11853,"워너":11854,"##결승":11855,"종사":11856,"미쓰":11857,"박명":11858,"발하":11859,"달래":11860,"##고사":11861,"힌트":11862,"키즈":11863,"경선":11864,"##드리히":11865,"채찍":11866,"여장":11867,"리뉴":11868,"리셋":11869,"##천사":11870,"기쁨":11871,"클리셰":11872,"원년":11873,"진구":11874,"폐허":11875,"margin":11876,"섹스":11877,"실바":11878,"수영복":11879,"know":11880,"서치":11881,"##맷":11882,"카테고리":11883,"오디오":11884,"라시":11885,"연안":11886,"멘붕":11887,"전수":11888,"해태":11889,"##무게":11890,"호출":11891,"텔레포트":11892,"몸무게":11893,"후대":11894,"칠레":11895,"폴리스":11896,"팀장":11897,"##MAX":11898,"끓이":11899,"set":11900,"##무이":11901,"방화":11902,"##DX":11903,"나락":11904,"생물학":11905,"청원":11906,"##날두":11907,"OF":11908,"호날두":11909,"통증":11910,"기행":11911,"공습":11912,"공천":11913,"136":11914,"Play":11915,"체스":11916,"리베":11917,"생애":11918,"BT":11919,"사나이":11920,"팩션":11921,"미하":11922,"파랑":11923,"시초":11924,"##ica":11925,"정교회":11926,"CB":11927,"##믹":11928,"##che":11929,"##소총":11930,"Of":11931,"서장":11932,"애쉬":11933,"태종":11934,"##ock":11935,"히카루":11936,"번갈":11937,"포니":11938,"바그":11939,"##생기":11940,"얼터":11941,"As":11942,"la":11943,"##풀이":11944,"개판":11945,"미모":11946,"우크라":11947,"크리스티":11948,"망상":11949,"##YP":11950,"증기":11951,"제조사":11952,"메세지":11953,"빈번":11954,"저조":11955,"Red":11956,"아노":11957,"##회장":11958,"럭키":11959,"Type":11960,"BM":11961,"하의":11962,"##제국":11963,"양대":11964,"##14":11965,"불문":11966,"##산역":11967,"##로그":11968,"오른팔":11969,"애쓰":11970,"브루스":11971,"일러스트레이터":11972,"잠그":11973,"조력":11974,"심화":11975,"복도":11976,"클라우드":11977,"149":11978,"⭧다만":11979,"버터":11980,"대패":11981,"정준":11982,"바인":11983,"혼다":11984,"라이센스":11985,"우파":11986,"박영":11987,"친정":11988,"산탄총":11989,"##에몽":11990,"##시다":11991,"##전설":11992,"치바":11993,"교육청":11994,"유선":11995,"바나나":11996,"때려잡":11997,"트랜스포":11998,"넓히":11999,"샤오":12000,"BA":12001,"포맷":12002,"오키나와":12003,"##ict":12004,"미끼":12005,"범주":12006,"##17":12007,"##스틴":12008,"라파":12009,"스ᄂ":12010,"심야":12011,"134":12012,"1900":12013,"슬라임":12014,"마니":12015,"1956":12016,"미숙":12017,"인터페이스":12018,"미도리":12019,"맞물리":12020,"경지":12021,"해독":12022,"##지않":12023,"가의":12024,"스나":12025,"로라":12026,"TP":12027,"입국":12028,"냉동":12029,"가혹":12030,"지주":12031,"진리":12032,"목재":12033,"DI":12034,"##ᆺ대":12035,"##ster":12036,"레슬러":12037,"신세계":12038,"책상":12039,"공손":12040,"퍼센트":12041,"##ange":12042,"나사":12043,"##ater":12044,"대사관":12045,"EV":12046,"개미":12047,"부흥":12048,"팍":12049,"운항":12050,"가로막":12051,"거느리":12052,"밧":12053,"깡패":12054,"뫼":12055,"진짜로":12056,"##티넘":12057,"김천":12058,"플래티넘":12059,"슈가":12060,"비꼬":12061,"왕관":12062,"High":12063,"태미":12064,"슬램":12065,"사일":12066,"##ons":12067,"캇":12068,"##권자":12069,"##모니":12070,"##뿔":12071,"무수":12072,"로그인":12073,"##ᅣᆯ":12074,"자부":12075,"열세":12076,"파손":12077,"심히":12078,"##메라":12079,"파괴력":12080,"트레이닝":12081,"제이슨":12082,"장갑차":12083,"pro":12084,"중후":12085,"앞뒤":12086,"##레슬링":12087,"오세":12088,"땀":12089,"분쇄":12090,"달라":12091,"교양":12092,"스매시":12093,"불쾌":12094,"초래":12095,"개개":12096,"자켓":12097,"무명":12098,"feat":12099,"진형":12100,"요우":12101,"입법":12102,"TE":12103,"찰리":12104,"원망":12105,"프로그래밍":12106,"NEW":12107,"미들":12108,"수시로":12109,"섹시":12110,"외면":12111,"프로레슬링":12112,"페이크":12113,"재림":12114,"슬러그":12115,"축구단":12116,"##나리":12117,"##왜란":12118,"악곡":12119,"임진왜란":12120,"##ple":12121,"보디":12122,"증인":12123,"중급":12124,"열기":12125,"랜스":12126,"트리스":12127,"싱어":12128,"인트":12129,"경질":12130,"칙":12131,"방정식":12132,"퇴역":12133,"쇼트":12134,"사천왕":12135,"전두환":12136,"##넉":12137,"지난":12138,"스바루":12139,"##콕":12140,"시집":12141,"주고":12142,"모어":12143,"##교통":12144,"%.":12145,"뒷면":12146,"콕":12147,"싣":12148,"연말":12149,"##니스트":12150,"147":12151,"⭧리라":12152,"스팅":12153,"공과":12154,"골목":12155,"##툴":12156,"비로소":12157,"Light":12158,"##차례":12159,"아래쪽":12160,"패스트":12161,"닫히":12162,"미식":12163,"박해":12164,"호프":12165,"자회사":12166,"퓨처":12167,"상대식":12168,"심상":12169,"클러":12170,"AE":12171,"안철수":12172,"생선":12173,"앰":12174,"꽁":12175,"##주군":12176,"##무늬":12177,"폐선":12178,"##이스":12179,"280":12180,"세일러":12181,"배우자":12182,"실로":12183,"##탈리":12184,"##세서리":12185,"최정":12186,"엄폐":12187,"2500":12188,"므":12189,"소령":12190,"제우스":12191,"헐크":12192,"##바다":12193,"하지메":12194,"저스티스":12195,"드리블":12196,"##지오":12197,"오프라인":12198,"MO":12199,"수용소":12200,"선인":12201,"##티지":12202,"GHz":12203,"##카미":12204,"철갑탄":12205,"옌":12206,"##텍스":12207,"착지":12208,"직통":12209,"메구미":12210,"Gen":12211,"아랑":12212,"웨일":12213,"관절":12214,"222":12215,"차관":12216,"마켓":12217,"토막":12218,"##to":12219,"CO":12220,"의아":12221,"##에트":12222,"격리":12223,"테일러":12224,"히나타":12225,"##구역":12226,"편견":12227,"##토랑":12228,"##니즘":12229,"##의회":12230,"실천":12231,"레스토랑":12232,"가브리":12233,"굴러":12234,"따라잡":12235,"~\"":12236,"보잉":12237,"세츠":12238,"강세":12239,"수상자":12240,"1939":12241,"음색":12242,"불리우":12243,"##더기":12244,"배속":12245,"김연":12246,"##CC":12247,"개그맨":12248,"was":12249,"라임":12250,"What":12251,"제단":12252,"소행":12253,"브랜":12254,"로브":12255,"플랜":12256,"메테":12257,"면접":12258,"꼼수":12259,"템포":12260,"감행":12261,"레규":12262,"프로세서":12263,"배신자":12264,"푹":12265,"용의자":12266,"##산동":12267,"복용":12268,"거르":12269,"Kor":12270,"166":12271,"미호":12272,"로지":12273,"##고래":12274,"증권":12275,"고음":12276,"원종":12277,"연기력":12278,"1959":12279,"##컨드":12280,"물어보":12281,"⭧지요":12282,"반론":12283,"도쿠가와":12284,"지문":12285,"##ics":12286,"1936":12287,"타고":12288,"야전":12289,"프랜차":12290,"⭧바":12291,"명탐정":12292,"세컨드":12293,"동조":12294,"섬유":12295,"소설가":12296,"롤링":12297,"일삼":12298,"냉기":12299,"두목":12300,"##사관":12301,"신칸":12302,"준공":12303,"술집":12304,"하후":12305,"탈당":12306,"우물":12307,"재임":12308,"##ACK":12309,"화소":12310,"Heart":12311,"율리":12312,"##투아":12313,"산화":12314,"러닝":12315,"레프":12316,"공영":12317,"Tw":12318,"종착":12319,"펭귄":12320,"조교":12321,"소노":12322,"스콧":12323,"프랜차이즈":12324,"##les":12325,"플로리":12326,"케리건":12327,"미수":12328,"내역":12329,"역학":12330,"LOVE":12331,"필터":12332,"웨인":12333,"oh":12334,"1955":12335,"GPU":12336,"삼촌":12337,"미스터리":12338,"##ex":12339,"기피":12340,"병종":12341,"##BM":12342,"이아":12343,"트랜스포머":12344,"모함":12345,"##어붙":12346,"어벤져스":12347,"퍼붓":12348,"랙":12349,"##커녕":12350,"아이스크림":12351,"체격":12352,"하카":12353,"낡":12354,"투신":12355,"NHK":12356,"AG":12357,"##쫓":12358,"투성이":12359,"에그":12360,"##데르":12361,"반환":12362,"아이폰":12363,"찌질":12364,"전광":12365,"성기":12366,"위키백과":12367,"어린아이":12368,"Mr":12369,"파문":12370,"##니스탄":12371,"신칸센":12372,"책략":12373,"동문":12374,"루키":12375,"콘셉트":12376,"토가":12377,"채취":12378,"사모":12379,"기술자":12380,"Blo":12381,"동호":12382,"재활":12383,"둘러싸이":12384,"PL":12385,"하이브리":12386,"경보":12387,"호무":12388,"속편":12389,"영등포":12390,"참으로":12391,"이방":12392,"시가":12393,"그제":12394,"야마다":12395,"⭧락":12396,"물가":12397,"하이브리드":12398,"##lass":12399,"전열":12400,"더구나":12401,"가르침":12402,"##플렉스":12403,"솔라":12404,"##레드":12405,"장학":12406,"##16":12407,"인구수":12408,"특훈":12409,"##테스":12410,"부도":12411,"뱃":12412,"응하":12413,"냉각":12414,"봉기":12415,"레귤러":12416,"자질":12417,"반군":12418,"FPS":12419,"주되":12420,"틀어":12421,"MK":12422,"플루":12423,"##AND":12424,"깃들":12425,"다면":12426,"부당":12427,"##두리":12428,"##무실":12429,"준결승":12430,"장편":12431,"방호":12432,"TO":12433,"스트리밍":12434,"최대치":12435,"쫓아가":12436,"방송인":12437,"좌표":12438,"서민":12439,"마의":12440,"##아슬":12441,"아슬아슬":12442,"하리":12443,"말년":12444,"져":12445,"Par":12446,"보행":12447,"정형":12448,"##전트":12449,"소사":12450,"메우":12451,"##nder":12452,"##플러스":12453,"##규모":12454,"패드":12455,"인사이드":12456,"스크립트":12457,"모던":12458,"로테이션":12459,"1952":12460,"쐐":12461,"상행":12462,"라바":12463,"time":12464,"포식":12465,"뢰":12466,"뇌물":12467,"적립":12468,"수량":12469,"가와":12470,"소매":12471,"악하":12472,"전반전":12473,"공존":12474,"범행":12475,"ll":12476,"330":12477,"되살리":12478,"수도원":12479,"내뿜":12480,"##교육":12481,"##더링":12482,"하반기":12483,"엣지":12484,"##좀":12485,"캐슬":12486,"270":12487,"사슴":12488,"캔디":12489,"카즈야":12490,"##ors":12491,"Fe":12492,"##볼루션":12493,"교통사고":12494,"륙":12495,"패닉":12496,"얼어붙":12497,"노래방":12498,"도청":12499,"##ME":12500,"도호":12501,"더하":12502,"##란트":12503,"접어들":12504,"표본":12505,"단과":12506,"죠죠":12507,"신수":12508,"쥰":12509,"김도":12510,"LED":12511,"카니":12512,"정계":12513,"페니":12514,"불가리아":12515,"경과":12516,"오타쿠":12517,"속력":12518,"유대인":12519,"서해":12520,"몹시":12521,"스텔라":12522,"담임":12523,"직속":12524,"중년":12525,"어미":12526,"뱉":12527,"끝장":12528,"스윕":12529,"카우":12530,"태극":12531,"여배우":12532,"순정":12533,"뚜껑":12534,"매지":12535,"입양":12536,"에메랄드":12537,"발라드":12538,"멋있":12539,"교섭":12540,"테러리스트":12541,"함성":12542,"우체":12543,"파키스탄":12544,"⫸거나":12545,"출고":12546,"1947":12547,"GTA":12548,"파격":12549,"동로":12550,"원고":12551,"##단지":12552,"저거":12553,"필립":12554,"춘천":12555,"#!":12556,"솜씨":12557,"##대기":12558,"이에":12559,"225":12560,"평안":12561,"모양새":12562,"구마":12563,"Good":12564,"얕":12565,"두근":12566,"##콥터":12567,"전속":12568,"르네":12569,"거품":12570,"심문":12571,"박상":12572,"맴":12573,"방공":12574,"직격":12575,"탈리":12576,"소시":12577,"상쇄":12578,"스퀘어":12579,"짤리":12580,"영동":12581,"우상":12582,"곡선":12583,"재빨리":12584,"저희":12585,"무고":12586,"발간":12587,"현존":12588,"세스":12589,"Per":12590,"##뿌":12591,"유지비":12592,"적색":12593,"현황":12594,"서두르":12595,"따돌리":12596,"다이노스":12597,"프리드리히":12598,"사투리":12599,"##딕":12600,"핸드폰":12601,"쓰러트리":12602,"멜론":12603,"##수수":12604,"영남":12605,"로저":12606,"자각":12607,"##려보":12608,"순교":12609,"광대":12610,"쥬얼":12611,"⭧ᆯ라":12612,"배리어":12613,"호구":12614,"단말":12615,"자칫":12616,"산악":12617,"하행":12618,"##글라스":12619,"오락실":12620,"##무기":12621,"시가지":12622,"스파이크":12623,"프랑스군":12624,"카를로스":12625,"마초":12626,"베일":12627,"월등":12628,"신흥":12629,"벚꽃":12630,"어워드":12631,"##ᆺ집":12632,"앤디":12633,"SL":12634,"##파리":12635,"am":12636,"##HT":12637,"사탄":12638,"텀":12639,"넉넉":12640,"성서":12641,"털어놓":12642,"석상":12643,"발렌타인":12644,"쎄":12645,"하시":12646,"신병":12647,"라프":12648,"적재":12649,"레즈":12650,"260":12651,"스내":12652,"급히":12653,"보리":12654,"마신":12655,"##eep":12656,"우천":12657,"1800":12658,"격전":12659,"래스터":12660,"쏠":12661,"유나":12662,"메이트":12663,"바닐라":12664,"요미우리":12665,"유니콘":12666,"미유키":12667,"##윽":12668,"MSL":12669,"##뚫":12670,"타이완":12671,"더욱이":12672,"선우":12673,"구절":12674,"부관":12675,"1919":12676,"리바운드":12677,"홀딩":12678,"본의":12679,"줌":12680,"호투":12681,"실력자":12682,"브이":12683,"휩싸":12684,"IIDX":12685,"몰아붙이":12686,"고산":12687,"##ᆯ리언":12688,"하라":12689,"새우":12690,"부사관":12691,"공약":12692,"추궁":12693,"갈라":12694,"중학생":12695,"호르":12696,"불신":12697,"아홉":12698,"##ott":12699,"받치":12700,"원내":12701,"즉각":12702,"프로모":12703,"심연":12704,"질풍":12705,"비타":12706,"간호사":12707,"야만":12708,"기함":12709,"상용":12710,"차용":12711,"핸들":12712,"미티":12713,"Kn":12714,"쳐내":12715,"ab":12716,"정정":12717,"상장":12718,"신정":12719,"일례":12720,"유니온":12721,"0900":12722,"퐁":12723,"남작":12724,"군림":12725,"소실":12726,"징크스":12727,"Li":12728,"로스터":12729,"⭧ㅓㅆ었":12730,"눈빛":12731,"이례":12732,"시부":12733,"꿰뚫":12734,"증발":12735,"호박":12736,"카이사르":12737,"부류":12738,"텅":12739,"냅":12740,"선형":12741,"유방":12742,"장원":12743,"운석":12744,"##메다":12745,"EBS":12746,"단정":12747,"적성":12748,"고분":12749,"다중":12750,"wid":12751,"유정":12752,"포워드":12753,"프로토타입":12754,"Wii":12755,"클라이":12756,"##문트":12757,"에바":12758,"⭧ᆯ려고":12759,"츤데레":12760,"##수아":12761,"타고나":12762,"도시락":12763,"양보":12764,"##메스":12765,"최우수":12766,"프롤로그":12767,"소리치":12768,"This":12769,"근력":12770,"안성":12771,"호그":12772,"⭧ㅏ야":12773,"드레드":12774,"머스":12775,"훈훈":12776,"미로":12777,"여관":12778,"설화":12779,"성비":12780,"⭧ᆯ지라도":12781,"하와이":12782,"악령":12783,"조준경":12784,"##산물":12785,"축적":12786,"픽셀":12787,"##IV":12788,"길거리":12789,"헬리콥터":12790,"구타":12791,"유무":12792,"지름":12793,"유승":12794,"회귀":12795,"⭧더라면":12796,"Baby":12797,"##25":12798,"##IK":12799,"소규모":12800,"본가":12801,"카디":12802,"페인":12803,"후루":12804,"망원":12805,"남서":12806,"##anna":12807,"허위":12808,"격투기":12809,"기관차":12810,"##두사":12811,"##파크":12812,"루루":12813,"자본주의":12814,"프린스":12815,"깽":12816,"교훈":12817,"트러블":12818,"실정":12819,"진수":12820,"제보":12821,"페르난":12822,"##자동":12823,"전산":12824,"농사":12825,"켈리":12826,"정재":12827,"습관":12828,"HARD":12829,"Sm":12830,"바오":12831,"⭧드라":12832,"불평":12833,"존대":12834,"일레븐":12835,"럴":12836,"ONE":12837,"스토커":12838,"탄탄":12839,"동요":12840,"떄":12841,"충북":12842,"서정":12843,"유코":12844,"빈틈":12845,"히데요시":12846,"루터":12847,"킹덤":12848,"1953":12849,"대중교통":12850,"스콜":12851,"에필로그":12852,"레이트":12853,"서태":12854,"자문":12855,"게임즈":12856,"밀집":12857,"대진":12858,"중성":12859,"샤워":12860,"##포드":12861,"##델피아":12862,"필라델피아":12863,"GN":12864,"민정":12865,"##넘기":12866,"1938":12867,"리키":12868,"심리학":12869,"##other":12870,"총괄":12871,"관념":12872,"원작자":12873,"Rock":12874,"송출":12875,"격침":12876,"##행위":12877,"첫날":12878,"169":12879,"프렌즈":12880,"us":12881,"회화":12882,"단속":12883,"줄어드":12884,"##19":12885,"박용":12886,"청산":12887,"석방":12888,"##바키아":12889,"알렉산드":12890,"빌라":12891,"##세포":12892,"미팅":12893,"일렉":12894,"책정":12895,"독서":12896,"뽐":12897,"리부트":12898,"550":12899,"야외":12900,"우가":12901,"만료":12902,"구두":12903,"만루":12904,"자격증":12905,"##똑":12906,"##앙스":12907,"##그루":12908,"총회":12909,"장풍":12910,"width":12911,"선대":12912,"고토":12913,"말미":12914,"양측":12915,"파벌":12916,"수수료":12917,"수평":12918,"##쉐":12919,"##icro":12920,"Live":12921,"밀어주":12922,"##케인":12923,"고든":12924,"수복":12925,"요시다":12926,"일품":12927,"리조":12928,"김원":12929,"생산량":12930,"병장":12931,"노트북":12932,"Ac":12933,"특이점":12934,"온몸":12935,"술탄":12936,"뉘앙스":12937,"보증":12938,"##ins":12939,"죄송":12940,"내수":12941,"황태자":12942,"여권":12943,"히카리":12944,"멀리서":12945,"엇":12946,"유유":12947,"비토":12948,"리우":12949,"할리우드":12950,"##oss":12951,"##ᆷ마":12952,"미니언":12953,"##ru":12954,"DB":12955,"크래":12956,"희대":12957,"결사":12958,"연금술사":12959,"킬로":12960,"동래":12961,"그리드":12962,"대마":12963,"좁히":12964,"미라이":12965,"결함":12966,"페이커":12967,"여당":12968,"##하이":12969,"니카":12970,"가창":12971,"왕좌":12972,"독수리":12973,"장동":12974,"완구":12975,"의석":12976,"교내":12977,"혜성":12978,"에밀리":12979,"##받침":12980,"하부":12981,"성수":12982,"헥":12983,"유배":12984,"협약":12985,"##노스케":12986,"상가":12987,"요하":12988,"윌슨":12989,"쇠퇴":12990,"cc":12991,"살피":12992,"교시":12993,"은혜":12994,"후안":12995,"홈즈":12996,"OK":12997,"연의":12998,"호세":12999,"##gain":13000,"##ction":13001,"Blue":13002,"##턱":13003,"브릿":13004,"전세":13005,"정체불명":13006,"경쟁자":13007,"##잎":13008,"잊어버리":13009,"Dark":13010,"##EL":13011,"⭧움":13012,"버릇":13013,"누명":13014,"재위":13015,"1957":13016,"배송":13017,"도라에몽":13018,"사안":13019,"제작비":13020,"고성":13021,"달ᄀ":13022,"체형":13023,"KTX":13024,"원활":13025,"가축":13026,"갈아타":13027,"초교":13028,"우루과이":13029,"##플리케이션":13030,"아르카":13031,"오리진":13032,"무사시":13033,"저술":13034,"캐스트":13035,"메모":13036,"서대":13037,"텍스":13038,"##0000":13039,"##팍":13040,"짚":13041,"\"\"":13042,"자크":13043,"켄지":13044,"방과":13045,"글리":13046,"게시물":13047,"토마토":13048,"편안":13049,"셰프":13050,"진행자":13051,"마테":13052,"천마":13053,"강팀":13054,"주거":13055,"마차":13056,"로컬":13057,"Champ":13058,"자발":13059,"말소":13060,"환수":13061,"더비":13062,"##툭":13063,"말아먹":13064,"소비에트":13065,"예배":13066,"##토르":13067,"속박":13068,"수강":13069,"특허":13070,"포대":13071,"⭧라구":13072,"원흉":13073,"격기":13074,"경순":13075,"##na":13076,"발차기":13077,"분기점":13078,"RC":13079,"편찬":13080,"빠뜨리":13081,"Im":13082,"주파수":13083,"실루":13084,"유비트":13085,"분장":13086,"Sun":13087,"##ood":13088,"첨단":13089,"##agon":13090,"쫓아오":13091,"오시":13092,"브론즈":13093,"##UT":13094,"유로파":13095,"진군":13096,"진정하":13097,"##자재":13098,"타다":13099,"트로이":13100,"게릴라":13101,"탯이":13102,"넥서스":13103,"바이올린":13104,"++":13105,"##어쓰":13106,"친목":13107,"OCG":13108,"모친":13109,"##ᆯ리티":13110,"돌아보":13111,"닉스":13112,"Can":13113,"직결":13114,"일일이":13115,"장제스":13116,"스케이팅":13117,"포럼":13118,"리액":13119,"아까":13120,"프랭":13121,"랩터":13122,"Bat":13123,"해적단":13124,"선곡":13125,"깨알":13126,"##스티니":13127,"수녀":13128,"라트":13129,"MHz":13130,"back":13131,"타카시":13132,"환사":13133,"슬퍼":13134,"자손":13135,"니나":13136,"요리사":13137,"##ky":13138,"북극":13139,"연루":13140,"코즈":13141,"##버드":13142,"DR":13143,"유영":13144,"205":13145,"##토리얼":13146,"쓸데없이":13147,"##훼":13148,"재무":13149,"센티":13150,"클립":13151,"매달":13152,"찢어지":13153,"경감":13154,"미성년":13155,"통수":13156,"용감":13157,"키트":13158,"기획사":13159,"정동":13160,"본성":13161,"튜토리얼":13162,"커트":13163,"##꼴":13164,"이창":13165,"##놀이":13166,"주고받":13167,"##통수":13168,"달라붙":13169,"na":13170,"박재":13171,"미즈키":13172,"열람":13173,"열악":13174,"피에":13175,"무제한":13176,"기성":13177,"##코스":13178,"수식":13179,"불어":13180,"디렉터":13181,"후지와라":13182,"데스티니":13183,"Summer":13184,"대출":13185,"금색":13186,"RP":13187,"단선":13188,"권능":13189,"모범":13190,"니코니코":13191,"##일으키":13192,"요시노":13193,"##ty":13194,"불러일으키":13195,"플레어":13196,"김명":13197,"##irst":13198,"셰이":13199,"분홍색":13200,"야마구치":13201,"##사벽":13202,"넘사벽":13203,"배기":13204,"오클":13205,"매수":13206,"명곡":13207,"##DS":13208,"민영":13209,"##페르":13210,"야심":13211,"농촌":13212,"당주":13213,"⭧유":13214,"살상":13215,"연하":13216,"브레이브":13217,"##코프":13218,"빅토르":13219,"##기지":13220,"자판":13221,"산책":13222,"저것":13223,"도검":13224,"##ady":13225,"목동":13226,"양키스":13227,"##무소":13228,"##land":13229,"Korea":13230,"밀치":13231,"흠좀":13232,"흠좀무":13233,"대대로":13234,"Music":13235,"탄도":13236,"원천":13237,"헌신":13238,"##소스":13239,"제스":13240,"피치":13241,"중추":13242,"항아리":13243,"창세":13244,"동족":13245,"하워드":13246,"##박히":13247,"비시":13248,"스파르타":13249,"##듣":13250,"그래프":13251,"서초":13252,"아울러":13253,"오디":13254,"남발":13255,"자처":13256,"레이첼":13257,"레이너":13258,"##저드":13259,"엘리스":13260,"휴게소":13261,"함재기":13262,"발광":13263,"소극":13264,"BEMAN":13265,"타나카":13266,"세레":13267,"루이지":13268,"##균관":13269,"병합":13270,"급기":13271,"줄줄":13272,"1914":13273,"행렬":13274,"어느새":13275,"라드":13276,"아제":13277,"개칭":13278,"토이":13279,"노동당":13280,"코지":13281,"계란":13282,"프리즘":13283,"도마뱀":13284,"무진":13285,"귀하":13286,"안산":13287,"합하":13288,"카타르":13289,"기괴":13290,"슈터":13291,"필연":13292,"빼내":13293,"베이스볼":13294,"험하":13295,"강행":13296,"반대편":13297,"잠재력":13298,"합당":13299,"임원":13300,"##누르":13301,"BEMANI":13302,"장안":13303,"파산":13304,"실무":13305,"##현우":13306,"악의":13307,"만행":13308,"화내":13309,"일렉트로":13310,"엿보":13311,"##OID":13312,"감전":13313,"토로":13314,"핸":13315,"루팡":13316,"나레이션":13317,"Fire":13318,"##석민":13319,"무상":13320,"다이스케":13321,"설상가":13322,"리턴":13323,"윌리엄스":13324,"프로모션":13325,"설상가상":13326,"제휴":13327,"##스트림":13328,"피에르":13329,"블래":13330,"##현진":13331,"금호":13332,"##마당":13333,"인어":13334,"성모":13335,"재난":13336,"OB":13337,"now":13338,"쪼개":13339,"학점":13340,"쩔":13341,"교관":13342,"솔리":13343,"김형":13344,"댄서":13345,"##숍":13346,"성균관":13347,"밀란":13348,"유난":13349,"650":13350,"야기":13351,"하원":13352,"살인마":13353,"##셸":13354,"셸":13355,"음악가":13356,"힐링":13357,"정벌":13358,"펜듈":13359,"펜듈럼":13360,"창업":13361,"조직원":13362,"##킨스":13363,"211":13364,"주심":13365,"실습":13366,"손톱":13367,"##곡동":13368,"목적지":13369,"마운트":13370,"화합":13371,"대각":13372,"문고":13373,"북방":13374,"입체":13375,"이질":13376,"위탁":13377,"복면":13378,"아타":13379,"고자":13380,"총격":13381,"후궁":13382,"##프스":13383,"슬퍼하":13384,"악어":13385,"시코":13386,"##니시":13387,"차선":13388,"포토":13389,"##ium":13390,"지온":13391,"광속":13392,"청동":13393,"호기심":13394,"여정":13395,"평원":13396,"달걀":13397,"휩싸이":13398,"보구":13399,"미스트":13400,"정립":13401,"폭동":13402,"늦추":13403,"쐐기":13404,"세션":13405,"농락":13406,"##테이너":13407,"후예":13408,"귀중":13409,"듀크":13410,"치사":13411,"GG":13412,"점사":13413,"Life":13414,"CA":13415,"서독":13416,"뒤통수":13417,"미끄":13418,"진나라":13419,"##혁명":13420,"계열사":13421,"가성":13422,"육지":13423,"사다":13424,"3164":13425,"##즈카":13426,"##ush":13427,"냉전":13428,"해수":13429,"STR":13430,"고령":13431,"재판소":13432,"로코":13433,"##메어":13434,"양호":13435,"##기사":13436,"한발":13437,"소동":13438,"반항":13439,"실명":13440,"문어":13441,"성도":13442,"박찬":13443,"퓨리":13444,"Ma":13445,"분화":13446,"피카츄":13447,"##ount":13448,"스냅":13449,"마요":13450,"##ᆯ럿":13451,"어설프":13452,"가급":13453,"모닝":13454,"스캔들":13455,"까닭":13456,"But":13457,"숙이":13458,"세탁":13459,"리엘":13460,"염려":13461,"별점":13462,"1951":13463,"동탁":13464,"호노":13465,"Just":13466,"똑똑":13467,"어퍼":13468,"##크리트":13469,"로저스":13470,"증가량":13471,"풍속":13472,"##그룹":13473,"204":13474,"##멋":13475,"뭔":13476,"자수":13477,"총재":13478,"숀":13479,"한탄":13480,"돌이":13481,"진성":13482,"투니":13483,"월급":13484,"내륙":13485,"동체":13486,"준하":13487,"대상자":13488,"쓸어버리":13489,"네이트":13490,"진료":13491,"스킵":13492,"아토":13493,"선제골":13494,"연회":13495,"##따르":13496,"불로":13497,"##ᅥᆫ지":13498,"DX":13499,"##CH":13500,"코리":13501,"나이트메어":13502,"고속도":13503,"지극히":13504,"창시":13505,"##궤":13506,"네코":13507,"대공포":13508,"사로잡히":13509,"시몬":13510,"플로리다":13511,"선방":13512,"Ste":13513,"##때로":13514,"끌어내":13515,"이복":13516,"우아":13517,"day":13518,"캐리어":13519,"레기":13520,"##년기":13521,"향기":13522,"##르기":13523,"한숨":13524,"Sy":13525,"##ger":13526,"프로리그":13527,"사면":13528,"박경":13529,"##퍼런스":13530,"FFF":13531,"하타":13532,"pt":13533,"남극":13534,"감히":13535,"개개인":13536,"##덮":13537,"야드":13538,"Dance":13539,"##주리":13540,"에스파":13541,"사찰":13542,"강연":13543,"마운드":13544,"드릴":13545,"박명수":13546,"일본식":13547,"공익":13548,"개연":13549,"해임":13550,"행방불명":13551,"끼어들":13552,"츠바사":13553,"파장":13554,"출근":13555,"##저것":13556,"이것저것":13557,"할당":13558,"현상금":13559,"FB":13560,"상표":13561,"한도":13562,"발칸":13563,"Gold":13564,"여친":13565,"홍성":13566,"석탄":13567,"나폴리":13568,"CON":13569,"##엉":13570,"훅":13571,"지상파":13572,"실루엣":13573,"국산":13574,"노블":13575,"호로":13576,"Grand":13577,"주황색":13578,"적료":13579,"스완":13580,"네놈":13581,"이노우":13582,"스퍼":13583,"##블릿":13584,"테루":13585,"지휘자":13586,"망가":13587,"Pre":13588,"오의":13589,"회고":13590,"페루":13591,"저상":13592,"Ev":13593,"민법":13594,"##티콘":13595,"기복":13596,"음주":13597,"1600":13598,"콘티":13599,"광전사":13600,"VOC":13601,"구단주":13602,"##아라":13603,"효소":13604,"##ne":13605,"암울":13606,"##ally":13607,"HK":13608,"아프가":13609,"채집":13610,"##ution":13611,"서지":13612,"이속":13613,"괄":13614,"시간표":13615,"LCK":13616,"따라다니":13617,"예언자":13618,"##미스":13619,"성체":13620,"슬로우":13621,"대주":13622,"아르메":13623,"기타리스트":13624,"##준표":13625,"괴상":13626,"차후":13627,"괴력":13628,"아줌마":13629,"##눅":13630,"난감":13631,"##pr":13632,"지중":13633,"화자":13634,"영진":13635,"번트":13636,"일식":13637,"대표작":13638,"피고":13639,"관동":13640,"스네이크":13641,"##징어":13642,"신대":13643,"매너":13644,"##빼":13645,"전교":13646,"접점":13647,"구급":13648,"파수":13649,"파업":13650,"열등":13651,"수락":13652,"##힐":13653,"반짝이":13654,"get":13655,"통신사":13656,"세일":13657,"##보그":13658,"카이토":13659,"부여받":13660,"사우루스":13661,"화나":13662,"##마침":13663,"논하":13664,"##클럽":13665,"샘플":13666,"외롭":13667,"다짐":13668,"##미즈":13669,"내걸":13670,"TW":13671,"Over":13672,"대본":13673,"##얼거리":13674,"케이지":13675,"목요일":13676,"코다":13677,"군복":13678,"이변":13679,"콘크리트":13680,"꽂히":13681,"부평":13682,"교직":13683,"투하":13684,"셉":13685,"램프":13686,"1937":13687,"카르마":13688,"나고":13689,"##사이드":13690,"매스":13691,"리마":13692,"##ator":13693,"ARM":13694,"추기":13695,"포효":13696,"호쿠":13697,"경찰관":13698,"정확도":13699,"##펄":13700,"아틀레":13701,"정세":13702,"정자":13703,"신축":13704,"때마침":13705,"딸기":13706,"beat":13707,"젝":13708,"##장난":13709,"잖":13710,"해치우":13711,"출루율":13712,"미사키":13713,"출연진":13714,"소피아":13715,"고질":13716,"전리":13717,"박치기":13718,"합창":13719,"러셀":13720,"일어서":13721,"한스":13722,"가브리엘":13723,"아이유":13724,"쫄":13725,"매출액":13726,"무궁화":13727,"UF":13728,"##체스":13729,"변질":13730,"외래":13731,"금화":13732,"##도스":13733,"차종":13734,"일진":13735,"샐러":13736,"##베르토":13737,"리에":13738,"선구":13739,"뷰티":13740,"홍진호":13741,"DJMAX":13742,"서인":13743,"행정부":13744,"예지":13745,"##봇":13746,"회오리":13747,"##air":13748,"각기":13749,"자진":13750,"연발":13751,"클레어":13752,"Sec":13753,"코바야시":13754,"비장":13755,"어리석":13756,"남아프리카":13757,"퇴출":13758,"등교":13759,"##얀":13760,"tvN":13761,"픽업":13762,"대부":13763,"챌린저":13764,"처절":13765,"크루즈":13766,"대쉬":13767,"##르드":13768,"일절":13769,"최영":13770,"##네이터":13771,"브레인":13772,"개인전":13773,"베네치아":13774,"코카":13775,"백신":13776,"세세":13777,"파인":13778,"##쩌":13779,"피츠":13780,"##라노":13781,"##토시":13782,"출중":13783,"여진":13784,"아카리":13785,"##엎":13786,"교향곡":13787,"⭧ᆫ들":13788,"아프가니스탄":13789,"##나드":13790,"BBC":13791,"부과":13792,"동창":13793,"Out":13794,"지침":13795,"조영":13796,"커비":13797,"영리":13798,"사극":13799,"접근성":13800,"##ᆸ니다":13801,"⭧느니":13802,"고릴라":13803,"한성":13804,"마누":13805,"태수":13806,"우습":13807,"신원":13808,"##히트":13809,"만세":13810,"쾨":13811,"뺨":13812,"##inc":13813,"광부":13814,"점거":13815,"간선":13816,"상류":13817,"헤매":13818,"##스톤":13819,"회심":13820,"간략":13821,"그려":13822,"경매":13823,"뽐내":13824,"수험":13825,"경희":13826,"코요":13827,"딱딱":13828,"##로이드":13829,"검은색":13830,"이은":13831,"소서":13832,"시치":13833,"##닐":13834,"##축구":13835,"콜드":13836,"##장이":13837,"체이":13838,"##포스":13839,"영조":13840,"완수":13841,"부대원":13842,"스피커":13843,"밋":13844,"컨트롤러":13845,"풍자":13846,"##츠카":13847,"달빛":13848,"##펑":13849,"상체":13850,"리티":13851,"양주":13852,"El":13853,"Dis":13854,"but":13855,"책임자":13856,"Win":13857,"가소":13858,"전년":13859,"##흙":13860,"케이트":13861,"미판":13862,"사이보그":13863,"##꿈치":13864,"사스케":13865,"강판":13866,"유난히":13867,"##동원":13868,"상하이":13869,"수요일":13870,"저렇게":13871,"VOCAL":13872,"##러리":13873,"조형":13874,"군함":13875,"베이더":13876,"에티":13877,"총열":13878,"빅뱅":13879,"은밀":13880,"리브":13881,"캐서":13882,"##...":13883,"뒤덮":13884,"이용해":13885,"리플렉":13886,"용맹":13887,"천공":13888,"후문":13889,"⭧ᆫ다던가":13890,"계좌":13891,"콜롬비아":13892,"##바시":13893,"##휴일":13894,"총사령":13895,"연구실":13896,"소수자":13897,"##ART":13898,"백색":13899,"촉진":13900,"천둥":13901,"카구라":13902,"미술관":13903,"UI":13904,"오피":13905,"소감":13906,"잔디":13907,"##use":13908,"평민":13909,"바우":13910,"고속버스":13911,"전류":13912,"몬테":13913,"sc":13914,"케로":13915,"정크":13916,"6000":13917,"##앵":13918,"런닝":13919,"##수스":13920,"미코토":13921,"##터스":13922,"못지않":13923,"자신감":13924,"조제":13925,"여더":13926,"Mon":13927,"##베이스":13928,"예명":13929,"스플리":13930,"혹사":13931,"노려보":13932,"기밀":13933,"웨어":13934,"HG":13935,"워낙에":13936,"제다이":13937,"김두한":13938,"영장":13939,"##ring":13940,"성형":13941,"안면":13942,"민원":13943,"앙리":13944,"중견수":13945,"판권":13946,"##XT":13947,"벵":13948,"페이트":13949,"man":13950,"차남":13951,"비즈니스":13952,"~~":13953,"##LS":13954,"매칭":13955,"레이나":13956,"Af":13957,"조류":13958,"역과":13959,"##ᆯ렛":13960,"##레스트":13961,"오인":13962,"이동하":13963,"퓨어":13964,"레몬":13965,"권고":13966,"장기간":13967,"비요":13968,"카가미":13969,"힘쓰":13970,"우와":13971,"Power":13972,"막아":13973,"##아스":13974,"태블릿":13975,"임관":13976,"학계":13977,"다툼":13978,"대문":13979,"타니":13980,"함포":13981,"사출":13982,"##여지":13983,"##ina":13984,"##대교":13985,"튜닝":13986,"Res":13987,"철회":13988,"정렬":13989,"매개":13990,"스님":13991,"샤프":13992,"##관총":13993,"체리":13994,"집결":13995,"우체국":13996,"내야수":13997,"아폴로":13998,"뽕":13999,"정거":14000,"##로니":14001,"소절":14002,"형편없":14003,"망령":14004,"380":14005,"퀄컴":14006,"매진":14007,"발전기":14008,"기합":14009,"오피스":14010,"At":14011,"호전":14012,"도피":14013,"섀도":14014,"리전":14015,"무효화":14016,"##소문":14017,"건전":14018,"OPS":14019,"패미":14020,"베인":14021,"}}}":14022,"바주":14023,"피스트":14024,"혈액형":14025,"지자":14026,"퇴사":14027,"경쟁력":14028,"여덟":14029,"노엘":14030,"글래":14031,"256":14032,"키무라":14033,"입술":14034,"추첨":14035,"나고야":14036,"직구":14037,"똘":14038,"SCP":14039,"캐서린":14040,"NG":14041,"웨이트":14042,"욕구":14043,"유서":14044,"전전":14045,"이성계":14046,"조달":14047,"제라":14048,"Fem":14049,"강성":14050,"금성":14051,"국사":14052,"##범죄":14053,"당첨":14054,"저리":14055,"자취":14056,"베니":14057,"때때로":14058,"동갑":14059,"카지노":14060,"##하하":14061,"공휴일":14062,"동참":14063,"속공":14064,"농협":14065,"섬세":14066,"볼리":14067,"아카이":14068,"존속":14069,"립스":14070,"볼륨":14071,"⫸이야말로":14072,"##맥스":14073,"맏":14074,"페가":14075,"타치바나":14076,"##ᅢ신":14077,"야시":14078,"총탄":14079,"김영삼":14080,"어쌔신":14081,"코시":14082,"증후":14083,"##ittle":14084,"무빙":14085,"타국":14086,"영미":14087,"쑥":14088,"적발":14089,"sm":14090,"경량":14091,"##베리아":14092,"##아르":14093,"초고":14094,"유포":14095,"김택":14096,"Fi":14097,"서사":14098,"MR":14099,"옵티":14100,"오징어":14101,"직역":14102,"제르":14103,"무소":14104,"색채":14105,"성역":14106,"아르메니아":14107,"MX":14108,"##심장":14109,"악용":14110,"##카스":14111,"채소":14112,"명대사":14113,"궤적":14114,"가호":14115,"##라이어":14116,"방어선":14117,"집중력":14118,"여사":14119,"샴":14120,"내구력":14121,"애시":14122,"공성전":14123,"부추":14124,"건재":14125,"화가":14126,"지그":14127,"허공":14128,"가급적":14129,"##베르크":14130,"코이":14131,"대인배":14132,"Sing":14133,"##흘":14134,"카노":14135,"조력자":14136,"조그마":14137,"낙인":14138,"거제":14139,"본국":14140,"1910":14141,"##삐":14142,"##부시":14143,"FL":14144,"##숨에":14145,"단숨에":14146,"노기":14147,"⭧거니":14148,"마에다":14149,"아부":14150,"장병":14151,"저널":14152,"##ERO":14153,"츠나":14154,"SG":14155,"카즈마":14156,"##싹":14157,"##de":14158,"광탈":14159,"##be":14160,"넥슨":14161,"피드백":14162,"gr":14163,"궁지":14164,"횡단":14165,"고안":14166,"러시아어":14167,"젊은이":14168,"##긴":14169,"부식":14170,"##ello":14171,"이우":14172,"베토":14173,"갈래":14174,"괴리":14175,"공방전":14176,"리트":14177,"재고":14178,"정거장":14179,"사육":14180,"타나":14181,"MT":14182,"가명":14183,"태세":14184,"##reen":14185,"SV":14186,"쿠루":14187,"서진":14188,"##ual":14189,"윈스":14190,"피라미":14191,"김정은":14192,"억지":14193,"피처":14194,"창의":14195,"승천":14196,"IG":14197,"적진":14198,"생산력":14199,"족장":14200,"견인":14201,"세조":14202,"##대부":14203,"예장":14204,"근성":14205,"로사":14206,"무전":14207,"증세":14208,"튀기":14209,"##라비아":14210,"레닌":14211,"막바지":14212,"기미":14213,"복싱":14214,"락스":14215,"절규":14216,"##코어":14217,"정명":14218,"줄거리":14219,"돌격소총":14220,"뒤이":14221,"통용":14222,"군사력":14223,"소용돌이":14224,"하임":14225,"노이즈":14226,"휴전":14227,"##ᆺ잎":14228,"주재":14229,"MLB":14230,"##바퀴":14231,"동인지":14232,"데우스":14233,"Pv":14234,"##칼리":14235,"모방":14236,"포지":14237,"꺾이":14238,"디펜스":14239,"후후":14240,"Rem":14241,"⭧라지만":14242,"돌아서":14243,"맥도":14244,"건축물":14245,"서킷":14246,"표방":14247,"허구":14248,"에우":14249,"카오리":14250,"Ep":14251,"가뜩":14252,"친선":14253,"추적자":14254,"역병":14255,"##ational":14256,"##프레스":14257,"원격":14258,"999":14259,"연예계":14260,"대파":14261,"타시":14262,"군기":14263,"돌려보내":14264,"어인":14265,"수군":14266,"##riend":14267,"##af":14268,"발상":14269,"아이작":14270,"히토미":14271,"##ars":14272,"카바":14273,"파이브":14274,"##bs":14275,"신주쿠":14276,"두부":14277,"##첸":14278,"설계도":14279,"루카스":14280,"소진":14281,"결장":14282,"출몰":14283,"Vo":14284,"깊숙":14285,"카에":14286,"둘러보":14287,"##IE":14288,"가뜩이나":14289,"초당":14290,"슈퍼스타":14291,"정은":14292,"베드":14293,"홍준표":14294,"##해군":14295,"양파":14296,"모호":14297,"스타팅":14298,"이선":14299,"발악":14300,"급기야":14301,"숏":14302,"##ivers":14303,"주방":14304,"##퇴근":14305,"수비진":14306,"증후군":14307,"노드":14308,"테이크":14309,"네모":14310,"폭포":14311,"트렌":14312,"흐리":14313,"자유자재":14314,"길들이":14315,"인벤토리":14316,"조폭":14317,"VOCALOID":14318,"양현":14319,"⭧다기":14320,"IDOL":14321,"그려지":14322,"##ᆺ물":14323,"리쿠":14324,"악랄":14325,"꽝":14326,"초선":14327,"오로라":14328,"판서":14329,"럼블":14330,"포트리스":14331,"박격":14332,"고양시":14333,"Leg":14334,"King":14335,"수원시":14336,"상임":14337,"블래스트":14338,"##에이터":14339,"중전차":14340,"애교":14341,"고원":14342,"연호":14343,"김희":14344,"풋볼":14345,"베가":14346,"부럽":14347,"##회의":14348,"미야자키":14349,"든":14350,"마이어":14351,"병단":14352,"실황":14353,"깽판":14354,"HT":14355,"##클레스":14356,"핵무기":14357,"스위트":14358,"YOU":14359,"BF":14360,"강변":14361,"자유주의":14362,"벽돌":14363,"just":14364,"시스터":14365,"히노":14366,"이치고":14367,"무림":14368,"아몬":14369,"##쏠":14370,"태그팀":14371,"에이전트":14372,"제시카":14373,"상회":14374,"엄지":14375,"##외선":14376,"물들":14377,"표출":14378,"징징":14379,"쏠쏠":14380,"분경":14381,"응원가":14382,"코타로":14383,"추기경":14384,"콘테":14385,"##시픽":14386,"억압":14387,"##SS":14388,"일자리":14389,"School":14390,"##MC":14391,"지령":14392,"신시":14393,"왠만":14394,"운운":14395,"⭧람":14396,"Miss":14397,"선도":14398,"김창":14399,"CEO":14400,"키사":14401,"랜턴":14402,"1935":14403,"팔찌":14404,"##atic":14405,"수다":14406,"간행":14407,"##질기":14408,"밉":14409,"인맥":14410,"UFC":14411,"진가":14412,"Rec":14413,"삼거리":14414,"GR":14415,"대제":14416,"끈질기":14417,"##그램":14418,"##일본":14419,"##니클":14420,"바루":14421,"유토":14422,"what":14423,"사사키":14424,"배분":14425,"수고":14426,"옥타":14427,"고베":14428,"재사":14429,"경유지":14430,"???":14431,"스티커":14432,"##토미":14433,"극소수":14434,"뒷받침":14435,"밀접":14436,"1918":14437,"치명상":14438,"##ern":14439,"소피":14440,"티베트":14441,"마르크스":14442,"다단":14443,"자바":14444,"벅스":14445,"포고":14446,"##itch":14447,"코스타":14448,"블루스":14449,"조지아":14450,"당분":14451,"알고리":14452,"데카":14453,"이노우에":14454,"##ts":14455,"장타율":14456,"빨강":14457,"STER":14458,"별자리":14459,"1934":14460,"운동가":14461,"반갑":14462,"레스터":14463,"본디":14464,"Che":14465,"허리케인":14466,"쿠파":14467,"131":14468,"창병":14469,"아이언맨":14470,"되살아나":14471,"하르":14472,"스타크":14473,"파파":14474,"ADV":14475,"'''":14476,"기마":14477,"일보":14478,"국력":14479,"손아":14480,"임상":14481,"아의":14482,"##연합":14483,"##사전":14484,"여고생":14485,"플래닛":14486,"어드밴스":14487,"평면":14488,"게임기":14489,"천도":14490,"##셔츠":14491,"라자":14492,"고폭탄":14493,"##카즈":14494,"End":14495,"퍼시픽":14496,"프론트":14497,"##그레":14498,"유하":14499,"방금":14500,"자주포":14501,"##날드":14502,"천적":14503,"시중":14504,"로만":14505,"VR":14506,"##rain":14507,"Ge":14508,"Di":14509,"피겨":14510,"쿠시":14511,"##큘라":14512,"위나라":14513,"함경":14514,"도리어":14515,"인내":14516,"독성":14517,"어우":14518,"라오":14519,"Air":14520,"쇼군":14521,"뵈":14522,"##tr":14523,"단골":14524,"마이너스":14525,"편대":14526,"세간":14527,"디에":14528,"불러들이":14529,"##서야":14530,"과부":14531,"남구":14532,"##투르":14533,"방황":14534,"##루살":14535,"군산":14536,"새로이":14537,"대명사":14538,"무성":14539,"입성":14540,"메라":14541,"고어":14542,"##루살렘":14543,"넓이":14544,"노조미":14545,"도도":14546,"명령어":14547,"성문":14548,"알고리즘":14549,"헬스":14550,"##oot":14551,"Mod":14552,"한심":14553,"줄곧":14554,"마사키":14555,"올라서":14556,"강유":14557,"##노미야":14558,"글러브":14559,"사부":14560,"군벌":14561,"if":14562,"전편":14563,"종일":14564,"마이트":14565,"야쿠자":14566,"##긍":14567,"그리스어":14568,"단조":14569,"교주":14570,"인프라":14571,"걸작":14572,"멀쩡히":14573,"뒤집히":14574,"이과":14575,"자민":14576,"표명":14577,"예술가":14578,"실험실":14579,"바흐":14580,"정인":14581,"경신":14582,"안나":14583,"##재판":14584,"무언":14585,"흡연":14586,"교란":14587,"##어먹":14588,"##의사":14589,"초사":14590,"드라큘라":14591,"서드":14592,"취직":14593,"위즈":14594,"포털":14595,"##ren":14596,"마커":14597,"피리":14598,"굴복":14599,"피코":14600,"킹스":14601,"에일리언":14602,"정유":14603,"이화":14604,"박주":14605,"착수":14606,"남용":14607,"관악":14608,"시립":14609,"우크":14610,"송도":14611,"솔로몬":14612,"col":14613,"담당자":14614,"요건":14615,"광신":14616,"욕하":14617,"##같이":14618,"체질":14619,"금전":14620,"작별":14621,"##라이나":14622,"단절":14623,"타케시":14624,"메스":14625,"샤크":14626,"덫":14627,"첨가":14628,"##UE":14629,"악장":14630,"카로":14631,"상반기":14632,"EMP":14633,"아이리스":14634,"우크라이나":14635,"지망":14636,"##려드":14637,"카스미":14638,"##55":14639,"##쿠로":14640,"예비군":14641,"부풀":14642,"집정":14643,"예루살렘":14644,"해운대":14645,"여의도":14646,"저격총":14647,"PVP":14648,"직관":14649,"천계":14650,"디디":14651,"왕궁":14652,"시드니":14653,"스플":14654,"레지스":14655,"관제":14656,"이치로":14657,"학번":14658,"##UR":14659,"옵티머스":14660,"원호":14661,"휴일":14662,"##웬":14663,"##데아":14664,"제후":14665,"성추":14666,"초원":14667,"추이":14668,"로딩":14669,"토오루":14670,"광석":14671,"미성년자":14672,"만류":14673,"##rist":14674,"night":14675,"주범":14676,"사교":14677,"비늘":14678,"매사":14679,"진흙":14680,"손녀":14681,"타노스":14682,"도미니":14683,"##ony":14684,"##ma":14685,"청색":14686,"카린":14687,"##무스":14688,"Sound":14689,"토착":14690,"사쿠라이":14691,"POP":14692,"⭧느냐는":14693,"애틀":14694,"Hy":14695,"지기":14696,"염소":14697,"키워드":14698,"회복력":14699,"화요일":14700,"총대":14701,"##중국":14702,"양도":14703,"제식":14704,"뛰쳐":14705,"##사우":14706,"문과":14707,"정중":14708,"연희":14709,"광저우":14710,"하세":14711,"불멸":14712,"메꾸":14713,"컨테이너":14714,"백합":14715,"무작정":14716,"부치":14717,"##세데스":14718,"김전":14719,"메르세데스":14720,"##iew":14721,"요동":14722,"고독":14723,"괴담":14724,"아역":14725,"프런트":14726,"거주지":14727,"DO":14728,"유소년":14729,"출퇴근":14730,"##콰":14731,"상수":14732,"리노":14733,"군중":14734,"블라디미르":14735,"진작":14736,"연구자":14737,"팔라딘":14738,"작아지":14739,"don":14740,"한모":14741,"##ope":14742,"벼슬":14743,"해커":14744,"행태":14745,"좌익수":14746,"유교":14747,"##데기":14748,"양면":14749,"##시계":14750,"조운":14751,"MASTER":14752,"##글리":14753,"빼돌리":14754,"노숙":14755,"대칭":14756,"오너":14757,"현명":14758,"요르":14759,"아산":14760,"성채":14761,"모터스":14762,"바주카":14763,"애틀랜":14764,"잉크":14765,"##수엘라":14766,"법무부":14767,"인테르":14768,"신디":14769,"발트":14770,"민족주의":14771,"시한":14772,"MD":14773,"눈ᄊ":14774,"고려대":14775,"EM":14776,"ㅋㅋ":14777,"나날":14778,"퍼스":14779,"유수":14780,"징병":14781,"##ana":14782,"유목":14783,"손바닥":14784,"미끄러지":14785,"반다이":14786,"아야카":14787,"게리온":14788,"후유증":14789,"빌헬":14790,"배지":14791,"툼":14792,"##리히":14793,"먹방":14794,"##atale":14795,"기와":14796,"##어찌":14797,"드라군":14798,"선비":14799,"골리":14800,"과실":14801,"카무이":14802,"제멋":14803,"교육부":14804,"조장":14805,"커리":14806,"데이비스":14807,"##던트":14808,"스코프":14809,"프레데":14810,"##메인":14811,"하야토":14812,"굳어지":14813,"Femme":14814,"##oon":14815,"베토벤":14816,"청량":14817,"로망":14818,"사업자":14819,"콜로니":14820,"효력":14821,"그닥":14822,"##제이":14823,"기한":14824,"SO":14825,"Cat":14826,"사에":14827,"시그마":14828,"칼럼":14829,"way":14830,"황족":14831,"##패스":14832,"액셀":14833,"명작":14834,"이마트":14835,"##ox":14836,"농어":14837,"BAS":14838,"이안":14839,"의거":14840,"빈사":14841,"어찌어찌":14842,"레이터":14843,"무어":14844,"##ield":14845,"대용":14846,"재팬":14847,"언행":14848,"마도사":14849,"브라더":14850,"금기":14851,"들려오":14852,"일부분":14853,"득점자":14854,"경인":14855,"박준":14856,"사우디아":14857,"##천동":14858,"얼핏":14859,"bl":14860,"내려지":14861,"피어":14862,"학업":14863,"텔레콤":14864,"섭외":14865,"가치관":14866,"##22":14867,"애당초":14868,"티코":14869,"애프":14870,"베르크":14871,"파고들":14872,"다나카":14873,"베네수엘라":14874,"역설":14875,"##먹이":14876,"EA":14877,"미토":14878,"##노이":14879,"1100":14880,"수산":14881,"##티어":14882,"매복":14883,"##안군":14884,"소심":14885,"##지원":14886,"우시":14887,"펄스":14888,"쟁탈":14889,"##무장":14890,"1932":14891,"##야샤":14892,"타협":14893,"극찬":14894,"이누야샤":14895,"WE":14896,"생사":14897,"흑백":14898,"경장":14899,"알코":14900,"각색":14901,"한몫":14902,"보태":14903,"성주":14904,"카탈":14905,"즐거":14906,"##의정":14907,"활주":14908,"친밀":14909,"##olog":14910,"알프레":14911,"트림":14912,"1931":14913,"그놈":14914,"피라미드":14915,"광학":14916,"1933":14917,"XP":14918,"수준급":14919,"민국":14920,"링컨":14921,"해인":14922,"초토":14923,"선체":14924,"아루":14925,"택배":14926,"미지수":14927,"보답":14928,"대잠":14929,"총통":14930,"폴더":14931,"겉보기":14932,"친위대":14933,"이윽":14934,"사바":14935,"이윽고":14936,"증원":14937,"껄":14938,"재혼":14939,"스루":14940,"##언정":14941,"확연히":14942,"##튠":14943,"패기":14944,"되돌아가":14945,"양념":14946,"창원시":14947,"일쑤":14948,"브릿지":14949,"조율":14950,"중앙선":14951,"광주광역시":14952,"강적":14953,"##변속기":14954,"##Fatale":14955,"아그":14956,"전리품":14957,"조선일보":14958,"설레":14959,"##맨더":14960,"FemmeFatale":14961,"With":14962,
[...]
