▁이 -0
▁1 -1
으로 -2
에서 -3
▁있 -4
▁2 -5
▁대 -6
▁그 -7
▁사 -8
이다 -9
▁지 -10
었다 -11
▁수 -12
▁시 -13
▁가 -14
▁20 -15
▁기 -16
▁전 -17
▁아 -18
▁하 -19
▁19 -20
▁있다 -21
▁다 -22
▁제 -23
했다 -24
하였 -25
▁일 -26
▁한 -27
▁정 -28
▁중 -29
▁주 -30
▁자 -31
하는 -32
▁것 -33
▁경 -34
▁인 -35
▁공 -36
▁유 -37
되었다 -38
▁위 -39
▁보 -40
하고 -41
▁부 -42
▁등 -43
하였다 -44
▁조 -45
▁3 -46
▁미 -47
하여 -48
▁선 -49
▁동 -50
▁나 -51
▁마 -52
▁모 -53
▁연 -54
▁개 -55
▁영 -56
▁의 -57
▁오 -58
으며 -59
▁소 -60
▁발 -61
▁구 -62
▁201 -63
▁고 -64
에는 -65
한다 -66
▁스 -67
▁세 -68
▁국 -69
▁비 -70
▁도 -71
▁상 -72
▁서 -73
▁후 -74
▁여 -75
▁관 -76
▁200 -77
▁성 -78
▁때 -79
▁해 -80
▁프 -81
▁신 -82
▁대한 -83
▁역 -84
▁4 -85
▁있는 -86
부터 -87
▁방 -88
▁" -89
▁바 -90
▁5 -91
▁생 -92
지만 -93
▁만 -94
▁또 -95
▁않 -96
되어 -97
▁무 -98
▁장 -99
▁통 -100
▁교 -101
▁남 -102
▁내 -103
까지 -104
▁현 -105
▁문 -106
에게 -107
▁같 -108
▁출 -109
▁결 -110
학교 -111
▁포 -112
▁우 -113
▁거 -114
적인 -115
국의 -116
▁진 -117
적으로 -118
▁원 -119
▁최 -120
▁불 -121
된다 -122
이라 -123
▁어 -124
▁작 -125
▁노 -126
▁알 -127
▁강 -128
▁당 -129
▁반 -130
▁파 -131
▁6 -132
▁분 -133
▁계 -134
▁리 -135
▁10 -136
▁따 -137
▁배 -138
들이 -139
▁받 -140
▁말 -141
▁없 -142
▁사용 -143
면서 -144
▁실 -145
년에 -146
▁두 -147
되었 -148
들은 -149
▁에 -150
▁단 -151
▁명 -152
▁예 -153
▁이후 -154
▁' -155
에서는 -156
▁7 -157
▁함 -158
▁안 -159
하기 -160
▁재 -161
▁8 -162
▁차 -163
▁로 -164
▁특 -165
▁설 -166
▁일본 -167
▁한다 -168
하게 -169
▁데 -170
▁요 -171
▁초 -172
▁종 -173
았다 -174
▁다음 -175
▁카 -176
였다 -177
▁군 -178
▁라 -179
▁독 -180
▁대한민 -181
00 -182
▁활 -183
으나 -184
▁9 -185
▁추 -186
리아 -187
▁199 -188
▁감 -189
▁그는 -190
▁김 -191
▁및 -192
▁많 -193
▁태 -194
스트 -195
▁타 -196
▁더 -197
▁되었다 -198
▁음 -199
▁입 -200
▁건 -201
▁행 -202
▁운 -203
▁매 -204
▁참 -205
▁형 -206
는데 -207
▁지역 -208
▁다른 -209
▁평 -210
주의 -211
▁과 -212
▁같은 -213
▁산 -214
▁양 -215
▁코 -216
▁그리 -217
▁18 -218
▁올 -219
▁미국 -220
▁위해 -221
이며 -222
▁프로 -223
▁크 -224
레이 -225
▁피 -226
▁12 -227
or -228
▁적 -229
들의 -230
▁열 -231
▁베 -232
▁왕 -233
▁본 -234
▁호 -235
▁목 -236
▁시작 -237
▁승 -238
▁북 -239
들을 -240
들어 -241
▁번 -242
▁때문 -243
▁화 -244
▁총 -245
라는 -246
▁회 -247
기도 -248
되는 -249
▁외 -250
▁임 -251
▁따라 -252
▁또한 -253
▁변 -254
▁그러 -255
▁각 -256
하며 -257
▁함께 -258
▁사람 -259
▁S -260
() -261
▁표 -262
▁속 -263
▁처 -264
▁11 -265
▁물 -266
▁달 -267
시아 -268
▁자신 -269
la -270
라고 -271
▁선수 -272
▁민 -273
▁약 -274
▁경우 -275
▁학 -276
▁직 -277
이나 -278
▁게 -279
▁새 -280
▁드 -281
▁영화 -282
▁간 -283
▁현재 -284
▁집 -285
▁세계 -286
▁메 -287
하지 -288
▁한국 -289
▁그의 -290
▁이름 -291
▁저 -292
▁기록 -293
▁A -294
기에 -295
▁f -296
▁198 -297
▁사이 -298
▁위치 -299
하다 -300
▁가장 -301
▁당시 -302
▁국가 -303
▁항 -304
▁하나 -305
▁존 -306
기를 -307
▁체 -308
되고 -309
▁레 -310
▁점 -311
에도 -312
스의 -313
▁때문에 -314
▁확 -315
▁박 -316
▁그러나 -317
▁것을 -318
▁F -319
▁토 -320
▁M -321
▁C -322
리는 -323
스는 -324
▁브 -325
▁뒤 -326
▁청 -327
▁했다 -328
▁것으로 -329
▁축 -330
▁조선 -331
▁복 -332
▁활동 -333
mu -334
▁for -335
▁투 -336
▁있으며 -337
▁필 -338
▁있었다 -339
▁천 -340
▁광 -341
▁의해 -342
mula -343
이라고 -344
일에 -345
▁것이 -346
지는 -347
▁formula -348
▁된다 -349
▁야 -350
▁디 -351
▁삼 -352
▁못 -353
▁역사 -354
▁그리고 -355
▁법 -356
▁합 -357
▁또는 -358
▁통해 -359
▁증 -360
▁철 -361
졌다 -362
▁프랑 -363
▁T -364
▁판 -365
▁치 -366
▁창 -367
▁금 -368
▁근 -369
▁대한민국 -370
▁언 -371
▁버 -372
했고 -373
▁15 -374
▁편 -375
▁살 -376
등학교 -377
▁첫 -378
▁많은 -379
리를 -380
▁플 -381
▁트 -382
▁심 -383
▁것이다 -384
▁197 -385
▁경기 -386
랜드 -387
▁돌 -388
▁애 -389
▁충 -390
▁페 -391
▁들어 -392
▁16 -393
▁아니 -394
▁황 -395
이라는 -396
하면서 -397
▁쓰 -398
▁높 -399
▁네 -400
하였고 -401
▁은 -402
▁하는 -403
▁다음과 -404
▁할 -405
▁가지 -406
▁완 -407
▁클 -408
▁대해 -409
는다 -410
▁다시 -411
▁서울 -412
▁대한민국의 -413
▁루 -414
▁있었 -415
이었다 -416
▁백 -417
▁뜻 -418
▁포함 -419
▁여러 -420
▁사회 -421
▁17 -422
▁시즌 -423
대로 -424
▁병 -425
▁196 -426
이는 -427
사를 -428
▁연구 -429
상을 -430
▁용 -431
er -432
▁순 -433
로서 -434
▁되 -435
▁패 -436
▁팀 -437
▁독일 -438
▁K -439
20 -440
▁죽 -441
개의 -442
▁큰 -443
이고 -444
▁D -445
▁B -446
▁권 -447
in -448
되었고 -449
▁모두 -450
▁히 -451
라이 -452
보다 -453
장을 -454
▁하였다 -455
성을 -456
▁I -457
위를 -458
▁모든 -459
▁채 -460
▁중국 -461
회의 -462
▁규 -463
지를 -464
▁취 -465
▁아이 -466
▁194 -467
▁친 -468
▁배우 -469
니아 -470
▁전쟁 -471
▁처음 -472
▁알려 -473
▁일부 -474
▁정부 -475
▁축구 -476
▁감독 -477
▁식 -478
▁논 -479
▁테 -480
대의 -481
▁제작 -482
▁도시 -483
자가 -484
▁이루 -485
이었 -486
▁구성 -487
▁정치 -488
▁대표 -489
▁위한 -490
▁등이 -491
▁뉴 -492
▁- -493
▁이용 -494
리에 -495
▁14 -496
년부터 -497
도의 -498
lt -499
▁허 -500
▁손 -501
▁등의 -502
했으며 -503
▁작품 -504
▁존재 -505
▁월 -506
▁영국 -507
▁끝 -508
▁자신의 -509
▁리그 -510
도로 -511
▁문제 -512
▁있어 -513
력을 -514
년에는 -515
gt -516
▁이상 -517
▁이어 -518
▁& -519
났다 -520
부분 -521
▁P -522
▁러 -523
▁길 -524
▁일반 -525
▁환 -526
▁프랑스 -527
거나 -528
이자 -529
▁인구 -530
▁캐 -531
▁즉 -532
▁것은 -533
on -534
km -535
리스 -536
▁동안 -537
▁개발 -538
▁13 -539
나라 -540
▁온 -541
▁L -542
▁국제 -543
시에 -544
기의 -545
▁나타 -546
▁앞 -547
▁195 -548
▁가능 -549
▁준 -550
▁맡 -551
▁이러 -552
▁사건 -553
▁게임 -554
▁걸 -555
년대 -556
▁같다 -557
▁이러한 -558
▁미국의 -559
▁중심 -560
통령 -561
▁새로 -562
▁접 -563
로는 -564
▁맞 -565
▁발견 -566
▁협 -567
▁주장 -568
기는 -569
▁농 -570
▁밀 -571
▁곳 -572
▁향 -573
군의 -574
▁갖 -575
▁이는 -576
▁하지만 -577
▁발표 -578
▁검 -579
들과 -580
▁줄 -581
▁방송 -582
위원 -583
▁별 -584
도록 -585
자의 -586
▁태어 -587
▁전투 -588
▁영향 -589
▁문화 -590
▁등을 -591
다는 -592
리카 -593
리가 -594
▁볼 -595
▁U -596
림픽 -597
되었으며 -598
▁대회 -599
000 -600
하면 -601
▁G -602
▁음악 -603
시키 -604
서는 -605
▁의미 -606
▁사망 -607
▁N -608
로부터 -609
▁잘 -610
▁2010 -611
기가 -612
▁키 -613
an -614
▁폭 -615
▁되어 -616
▁대부분 -617
▁귀 -618
▁지방 -619
이트 -620
▁육 -621
▁번째 -622
리그 -623
다고 -624
월에 -625
▁결과 -626
▁대통령 -627
스를 -628
▁이를 -629
▁섬 -630
▁관계 -631
▁담 -632
▁밝 -633
정을 -634
에서도 -635
▁홍 -636
▁공격 -637
▁대학 -638
▁막 -639
인의 -640
▁관련 -641
란드 -642
▁하고 -643
명의 -644
-1 -645
▁R -646
▁우승 -647
년까지 -648
자는 -649
사가 -650
▁효 -651
▁참여 -652
했던 -653
▁극 -654
▁193 -655
▁진행 -656
▁경제 -657
하였으며 -658
성이 -659
▁발생 -660
▁석 -661
▁프로그 -662
▁30 -663
와의 -664
세기 -665
자를 -666
▁H -667
들에게 -668
▁얻 -669
▁최초 -670
어진 -671
▁구조 -672
도를 -673
▁앨 -674
▁곡 -675
▁와 -676
▁날 -677
▁면 -678
리의 -679
디오 -680
▁특히 -681
▁E -682
▁블 -683
▁선거 -684
▁이에 -685
▁유럽 -686
이스 -687
▁설립 -688
▁헤 -689
▁교육 -690
▁발매 -691
쪽으로 -692
▁위치한 -693
▁절 -694
▁올림픽 -695
▁갈 -696
▁설치 -697
▁책 -698
▁암 -699
▁다양 -700
▁일어 -701
▁봉 -702
자로 -703
▁[ -704
르는 -705
대를 -706
▁글 -707
스터 -708
스가 -709
▁독립 -710
▁2008 -711
▁이전 -712
▁형태 -713
▁된 -714
▁러시아 -715
드는 -716
▁그녀 -717
과의 -718
▁새로운 -719
▁폐 -720
▁엔 -721
렸다 -722
▁시간 -723
▁생각 -724
▁참가 -725
▁측 -726
▁자유 -727
▁만들어 -728
▁사실 -729
▁같이 -730
요한 -731
▁인해 -732
▁질 -733
▁커 -734
▁기술 -735
▁부분 -736
▁좋 -737
▁지원 -738
▁소속 -739
도는 -740
▁등장 -741
▁받았다 -742
▁2011 -743
▁범 -744
가지 -745
번째 -746
▁니 -747
▁이탈 -748
▁이것 -749
en -750
▁2012 -751
사의 -752
▁슈 -753
▁중앙 -754
▁로마 -755
화국 -756
▁받아 -757
▁머 -758
▁침 -759
식을 -760
▁프로그램 -761
므로 -762
▁W -763
▁행정 -764
▁주로 -765
▁2009 -766
▁출신 -767
▁누 -768
▁2007 -769
▁골 -770
▁결정 -771
▁탄 -772
▁송 -773
▁있고 -774
▁수도 -775
▁탈 -776
▁음반 -777
▁2014 -778
▁계속 -779
라마 -780
리즈 -781
▁잡 -782
▁운영 -783
인이 -784
부의 -785
프트 -786
▁타이 -787
▁성공 -788
▁상태 -789
▁지정 -790
▁데뷔 -791
▁벌 -792
▁기준 -793
전을 -794
사는 -795
▁, -796
▁난 -797
르크 -798
ar -799
▁. -800
이션 -801
학자 -802
대학교 -803
비아 -804
에서의 -805
▁매우 -806
▁혼 -807
▁케 -808
he -809
▁있던 -810
▁주요 -811
명을 -812
▁생산 -813
▁2013 -814
다가 -815
▁않았다 -816
▁넘 -817
▁악 -818
기로 -819
▁이탈리아 -820
으로서 -821
▁쿠 -822
▁아버 -823
▁터 -824
▁급 -825
▁운동 -826
▁가지고 -827
▁몇 -828
▁고려 -829
▁0 -830
▁25 -831
▁라이 -832
대에 -833
▁생애 -834
▁일본의 -835
▁아니라 -836
이지 -837
장이 -838
▁돌아 -839
▁찾 -840
▁싱 -841
도가 -842
스타 -843
▁윤 -844
▁191 -845
▁차지 -846
▁2018 -847
▁조직 -848
▁만들 -849
▁아들 -850
▁2015 -851
▁시절 -852
▁들 -853
하기도 -854
▁여성 -855
처럼 -856
우스 -857
,000 -858
▁해당 -859
▁2016 -860
▁출연 -861
▁업 -862
왔다 -863
군은 -864
▁결국 -865
▁최고 -866
▁100 -867
▁계획 -868
했지만 -869
해서 -870
▁없는 -871
es -872
▁없다 -873
▁폴 -874
▁내용 -875
되지 -876
FA -877
▁스타 -878
▁한편 -879
▁팔 -880
▁데이 -881
▁따르 -882
▁방법 -883
권을 -884
대표 -885
▁전체 -886
명이 -887
▁2006 -888
하자 -889
원을 -890
화를 -891
▁떨 -892
수를 -893
▁이유 -894
원의 -895
간의 -896
수의 -897
사로 -898
운데 -899
▁아래 -900
▁않고 -901
▁개요 -902
장은 -903
스템 -904
인민 -905
스크 -906
냈다 -907
▁192 -908
▁앨범 -909
▁국민 -910
▁많이 -911
▁2017 -912
▁좌 -913
▁21 -914
▁가리 -915
일부터 -916
▁제공 -917
▁콘 -918
▁역할 -919
▁월드 -920
▁떠 -921
▁둘 -922
지의 -923
▁유명 -924
▁수상 -925
나는 -926
▁O -927
▁스페 -928
at -929
스와 -930
▁다양한 -931
남도 -932
▁후보 -933
▁힘 -934
▁대학교 -935
▁빠 -936
선의 -937
▁평가 -938
▁칼 -939
▁남아 -940
자인 -941
▁마이 -942
▁묘 -943
▁엘 -944
으로써 -945
▁인터 -946
초등학교 -947
am -948
▁가운데 -949
장으로 -950
음을 -951
▁몸 -952
▁J -953
어로 -954
부에 -955
_1 -956
▁헌 -957
▁정의 -958
▁출전 -959
▁하여 -960
▁정보 -961
▁잠 -962
대학 -963
▁과정 -964
지가 -965
진다 -966
▁거의 -967
▁컴 -968
▁빌 -969
▁드라마 -970
▁표현 -971
민주 -972
▁모습 -973
시의 -974
al -975
▁바이 -976
▁이루어 -977
스로 -978
운동 -979
▁생활 -980
▁마지 -981
지에 -982
가는 -983
였던 -984
전에 -985
성의 -986
했으나 -987
▁열린 -988
▁않는다 -989
▁특징 -990
하던 -991
수가 -992
▁각각 -993
▁연결 -994
▁공식 -995
▁얼 -996
▁t -997
▁격 -998
▁시리즈 -999
점을 -1000
인다 -1001
됐다 -1002
원이 -1003
▁2019 -1004
위원회 -1005
원은 -1006
▁레이 -1007
▁24 -1008
하려 -1009
머니 -1010
▁능 -1011
▁졸 -1012
▁이미 -1013
▁진출 -1014
▁영향을 -1015
사에 -1016
▁따르면 -1017
▁필요 -1018
으로부터 -1019
리고 -1020
▁시스템 -1021
▁높은 -1022
▁기능 -1023
▁따라서 -1024
니다 -1025
제로 -1026
▁마지막 -1027
어를 -1028
▁이름을 -1029
▁몰 -1030
이가 -1031
▁2005 -1032
이드 -1033
ic -1034
▁알려져 -1035
▁붙 -1036
▁공개 -1037
▁임명 -1038
▁녹 -1039
력이 -1040
텔레 -1041
어는 -1042
▁작은 -1043
▁23 -1044
▁직접 -1045
▁이야 -1046
21 -1047
▁보고 -1048
으로는 -1049
제를 -1050
▁인정 -1051
▁쇼 -1052
▁자연 -1053
▁인도 -1054
문화 -1055
▁대전 -1056
상의 -1057
▁센 -1058
▁민주 -1059
시켰 -1060
었고 -1061
▁지구 -1062
치는 -1063
▁인물 -1064
▁개최 -1065
▁시대 -1066
▁경상 -1067
▁2000 -1068
▁상황 -1069
BS -1070
인은 -1071
▁항공 -1072
▁뛰 -1073
▁22 -1074
▁추가 -1075
▁풍 -1076
▁퍼 -1077
▁브라 -1078
대한 -1079
해야 -1080
▁프리 -1081
군이 -1082
▁대신 -1083
▁오스트 -1084
▁분류 -1085
▁2004 -1086
지고 -1087
▁울 -1088
▁먹 -1089
▁유지 -1090
▁그리스 -1091
▁눈 -1092
▁그룹 -1093
▁않은 -1094
▁밴 -1095
비전 -1096
▁활약 -1097
▁아르 -1098
▁보여 -1099
▁발전 -1100
르트 -1101
▁티 -1102
수는 -1103
▁응 -1104
▁핵 -1105
위에 -1106
▁제국 -1107
들에 -1108
▁FC -1109
인을 -1110
▁홈 -1111
is -1112
선을 -1113
▁그가 -1114
▁되는 -1115
▁기타 -1116
▁관한 -1117
it -1118
갔다 -1119
▁초기 -1120
▁그것 -1121
▁목록 -1122
▁압 -1123
수로 -1124
트로 -1125
▁학교 -1126
▁노래 -1127
인민공 -1128
▁결혼 -1129
▁여자 -1130
▁모델 -1131
▁졸업 -1132
부를 -1133
▁있는데 -1134
▁후에 -1135
레스 -1136
▁건물 -1137
▁이론 -1138
▁사업 -1139
▁정도 -1140
▁변경 -1141
▁서로 -1142
부는 -1143
▁비롯 -1144
세의 -1145
▁크게 -1146
▁방식 -1147
▁기업 -1148
re -1149
10 -1150
북도 -1151
▁중요한 -1152
전에서 -1153
▁않았 -1154
있다 -1155
▁말한다 -1156
▁철도 -1157
▁부산 -1158
대는 -1159
▁플레이 -1160
▁역시 -1161
지로 -1162
ou -1163
▁희 -1164
▁기원 -1165
▁형성 -1166
▁28 -1167
▁건설 -1168
▁나라 -1169
▁V -1170
▁워 -1171
계를 -1172
▁26 -1173
▁공동 -1174
▁비판 -1175
▁2020 -1176
▁190 -1177
▁낮 -1178
▁현대 -1179
프리카 -1180
▁관리 -1181
일까지 -1182
문을 -1183
치를 -1184
▁뿐 -1185
킨다 -1186
▁태어났다 -1187
리오 -1188
전히 -1189
대가 -1190
]] -1191
원으로 -1192
▁군사 -1193
주는 -1194
▁요구 -1195
▁27 -1196
▁일으 -1197
▁중화 -1198
제가 -1199
운드 -1200
▁[[ -1201
▁거쳐 -1202
▁텔레 -1203
▁연합 -1204
▁지금 -1205
▁뜻은 -1206
장의 -1207
▁가진 -1208
▁하였 -1209
제의 -1210
▁색 -1211
광역 -1212
▁야구 -1213
▁노동 -1214
회를 -1215
▁시작했다 -1216
스탄 -1217
▁반대 -1218
임을 -1219
▁딸 -1220
군을 -1221
▁지도 -1222
▁콜 -1223
▁느 -1224
나다 -1225
▁기본 -1226
되면서 -1227
le -1228
▁클럽 -1229
▁실시 -1230
▁놓 -1231
상이 -1232
▁싱글 -1233
성은 -1234
▁원래 -1235
▁개인 -1236
▁사이에 -1237
▁경기도 -1238
▁만든 -1239
▁않는 -1240
▁배우이다 -1241
▁전통 -1242
특별 -1243
▁동시에 -1244
▁푸 -1245
▁어떤 -1246
▁이르 -1247
▁혹 -1248
▁긴 -1249
키는 -1250
▁2002 -1251
▁웨 -1252
▁맥 -1253
과는 -1254
▁학생 -1255
▁계약 -1256
이의 -1257
▁잉 -1258
▁휴 -1259
▁사랑 -1260
▁국가대표 -1261
▁지하 -1262
트는 -1263
▁민족 -1264
른다 -1265
▁자동 -1266
▁운행 -1267
장에 -1268
▁~ -1269
▁상대 -1270
▁역할을 -1271
▁종교 -1272
▁판매 -1273
상으로 -1274
거리 -1275
이었던 -1276
▁빈 -1277
자와 -1278
▁아닌 -1279
▁벨 -1280
▁지역의 -1281
▁서비 -1282
▁망 -1283
▁샤 -1284
▁승강 -1285
하였으나 -1286
▁2003 -1287
▁인간 -1288
단의 -1289
▁기간 -1290
▁소련 -1291
▁겸 -1292
정한 -1293
▁싸 -1294
관은 -1295
▁있다고 -1296
▁기반 -1297
▁명칭 -1298
▁위하여 -1299
체의 -1300
드의 -1301
하는데 -1302
▁다이 -1303
." -1304
▁이동 -1305
명은 -1306
학적 -1307
되며 -1308
▁전국 -1309
▁혁 -1310
▁정책 -1311
▁그래 -1312
▁최초의 -1313
▁견 -1314
드로 -1315
▁도쿄 -1316
서를 -1317
▁처음으로 -1318
이를 -1319
▁수행 -1320
군에 -1321
▁애니 -1322
소를 -1323
19 -1324
▁퇴 -1325
▁교황 -1326
▁도입 -1327
있는 -1328
명이다 -1329
▁여기 -1330
▁50 -1331
▁공간 -1332
▁특별 -1333
▁월드컵 -1334
▁의한 -1335
▁전문 -1336
이기도 -1337
▁엄 -1338
▁슬 -1339
구의 -1340
오는 -1341
피언 -1342
▁29 -1343
▁언어 -1344
장에서 -1345
▁보통 -1346
▁이때 -1347
독교 -1348
트의 -1349
린다 -1350
가와 -1351
트를 -1352
▁있을 -1353
▁궁 -1354
시마 -1355
호를 -1356
▁산업 -1357
물을 -1358
▁개의 -1359
▁이적 -1360
▁출시 -1361
▁지나 -1362
▁경력 -1363
▁기존 -1364
했는데 -1365
격을 -1366
▁훈 -1367
카이 -1368
▁전라 -1369
▁기준으로 -1370
역이다 -1371
호는 -1372
▁31 -1373
체를 -1374
▁가족 -1375
▁마을 -1376
▁달리 -1377
▁제외 -1378
50 -1379
▁이끌 -1380
▁넓 -1381
혔다 -1382
▁공연 -1383
▁텔레비전 -1384
▁비슷 -1385
스코 -1386
▁옮 -1387
▁주변 -1388
▁탑 -1389
회는 -1390
▁국내 -1391
▁과거 -1392
▁하며 -1393
고등학교 -1394
▁바로 -1395
연구 -1396
▁탐 -1397
도에 -1398
▁경찰 -1399
무를 -1400
중에 -1401
▁되고 -1402
▁영화이다 -1403
▁기관 -1404
▁뮤 -1405
세는 -1406
▁경기에서 -1407
▁연방 -1408
▁될 -1409
▁일반적으로 -1410
리와 -1411
▁소설 -1412
▁지배 -1413
스에 -1414
학과 -1415
▁어머니 -1416
적을 -1417
▁역임 -1418
드를 -1419
▁유일 -1420
BC -1421
사와 -1422
호로 -1423
▁변화 -1424
▁비교 -1425
▁c -1426
리로 -1427
▁FI -1428
▁가수 -1429
▁컴퓨 -1430
의를 -1431
▁모양 -1432
▁설명 -1433
▁노선 -1434
▁윌 -1435
▁뉴욕 -1436
▁아버지 -1437
▁태양 -1438
▁옥 -1439
동안 -1440
▁증가 -1441
▁지휘 -1442
▁적용 -1443
▁피해 -1444
▁챔 -1445
광역시 -1446
마다 -1447
st -1448
▁혹은 -1449
▁있다는 -1450
▁건축 -1451
위로 -1452
▁작업 -1453
시간 -1454
방송 -1455
▁이것은 -1456
▁환경 -1457
르게 -1458
▁받은 -1459
▁작곡 -1460
제는 -1461
년의 -1462
▁기독교 -1463
기관 -1464
시켰다 -1465
▁보내 -1466
▁너 -1467
▁중심으로 -1468
리지 -1469
하지만 -1470
▁선정 -1471
▁풀 -1472
▁흔 -1473
▁1990 -1474
상은 -1475
메이션 -1476
▁동일 -1477
▁그를 -1478
▁행동 -1479
▁: -1480
▁캐나다 -1481
▁확인 -1482
▁추정 -1483
▁규모 -1484
▁먼 -1485
.5 -1486
▁사고 -1487
-2 -1488
▁받았 -1489
쪽에 -1490
▁착 -1491
▁지지 -1492
▁2001 -1493
당의 -1494
▁자기 -1495
▁통합 -1496
어가 -1497
▁는 -1498
▁분야 -1499
▁종류 -1500
적은 -1501
▁어린 -1502
▁숙 -1503
정에 -1504
▁염 -1505
▁곧 -1506
▁밖 -1507
▁낙 -1508
단을 -1509
▁챔피언 -1510
경기 -1511
쳤다 -1512
어의 -1513
▁차량 -1514
▁때문이다 -1515
▁없이 -1516
인으로 -1517
체가 -1518
크로 -1519
인민공화국 -1520
▁앤 -1521
▁개념 -1522
야마 -1523
조의 -1524
▁찾아 -1525
mm -1526
▁가까 -1527
▁획 -1528
드리 -1529
▁우주 -1530
▁갑 -1531
▁받고 -1532
▁실패 -1533
▁떨어 -1534
▁득 -1535
기와 -1536
▁컴퓨터 -1537
▁오늘 -1538
▁담당 -1539
▁최대 -1540
부가 -1541
▁TV -1542
▁기념 -1543
종의 -1544
▁40 -1545
하거나 -1546
▁멤 -1547
▁보호 -1548
▁189 -1549
▁방향 -1550
관을 -1551
단은 -1552
▁되었고 -1553
▁어느 -1554
▁자신이 -1555
▁부르 -1556
▁충청 -1557
원에 -1558
▁대부분의 -1559
▁이런 -1560
성과 -1561
▁이와 -1562
▁활동을 -1563
.1 -1564
▁몽 -1565
이로 -1566
▁스페인 -1567
▁윈 -1568
▁속하는 -1569
▁방영 -1570
▁FIFA -1571
30 -1572
▁수록 -1573
▁올라 -1574
▁인구는 -1575
▁상당 -1576
▁열차 -1577
▁두고 -1578
▁국가대표팀 -1579
▁애니메이션 -1580
▁대체 -1581
▁이상의 -1582
스카 -1583
나무 -1584
▁늘 -1585
계의 -1586
et -1587
메리카 -1588
▁베이 -1589
했다고 -1590
el -1591
▁데이터 -1592
▁흑 -1593
▁반응 -1594
ion -1595
트리 -1596
글랜드 -1597
교육 -1598
▁과학 -1599
▁있지만 -1600
▁지정되었다 -1601
▁1, -1602
움을 -1603
자들은 -1604
▁/ -1605
▁넣 -1606
성에 -1607
▁기원전 -1608
▁그녀는 -1609
트남 -1610
치가 -1611
▁멤버 -1612
일에는 -1613
▁최종 -1614
일을 -1615
▁연주 -1616
포츠 -1617
▁교통 -1618
적이 -1619
세가 -1620
면에 -1621
▁선출 -1622
▁걸쳐 -1623
▁최근 -1624
렇게 -1625
▁나가 -1626
▁도로 -1627
▁조지 -1628
▁위원 -1629
시켜 -1630
▁런 -1631
▁부족 -1632
▁없었다 -1633
▁옛 -1634
▁대하여 -1635
▁솔 -1636
▁인천 -1637
▁선택 -1638
인이다 -1639
호선 -1640
가의 -1641
▁잔 -1642
심을 -1643
▁있어서 -1644
▁결승 -1645
ing -1646
▁있었던 -1647
▁더욱 -1648
▁형식 -1649
동에 -1650
겼다 -1651
▁다음을 -1652
▁흐 -1653
▁등에 -1654
▁논란 -1655
▁관할 -1656
▁공산 -1657
▁땅 -1658
▁효과 -1659
▁마르 -1660
▁조사 -1661
중학교 -1662
세를 -1663
으면 -1664
▁예정 -1665
▁자료 -1666
▁수는 -1667
▁하나이다 -1668
▁뛰어 -1669
▁대구 -1670
했을 -1671
▁동물 -1672
학을 -1673
▁언급 -1674
▁사상 -1675
▁서울특별 -1676
시는 -1677
▁크리스 -1678
▁입단 -1679
역을 -1680
ol -1681
▁1999 -1682
▁최초로 -1683
렀다 -1684
▁아시아 -1685
▁칸 -1686
▁이름은 -1687
화가 -1688
▁조건 -1689
널리 -1690
▁불가 -1691
▁하다 -1692
▁1998 -1693
▁시민 -1694
▁선언 -1695
▁잉글랜드 -1696
▁메이 -1697
▁등으로 -1698
om -1699
구에 -1700
프로 -1701
▁국립 -1702
한다는 -1703
▁평균 -1704
▁을 -1705
▁획득 -1706
▁정당 -1707
▁내려 -1708
시키는 -1709
▁에너 -1710
▁칭 -1711
amp -1712
▁시설 -1713
▁지역에 -1714
▁1980 -1715
▁물리 -1716
▁북한 -1717
▁가리킨다 -1718
스턴 -1719
▁맺 -1720
법을 -1721
▁우리 -1722
회에서 -1723
▁것이라고 -1724
이에 -1725
정은 -1726
▁보인다 -1727
▁구간 -1728
▁배경 -1729
소가 -1730
12 -1731
▁지속 -1732
▁유래 -1733
▁어려 -1734
이어 -1735
▁후반 -1736
▁명령 -1737
학의 -1738
▁흥 -1739
▁전기 -1740
구하고 -1741
스에서 -1742
▁연속 -1743
▁좋은 -1744
전은 -1745
▁그들의 -1746
▁고대 -1747
▁예술 -1748
▁선발 -1749
▁컨 -1750
▁유사 -1751
▁이해 -1752
▁예를 -1753
▁점령 -1754
명으로 -1755
구를 -1756
▁X -1757
라의 -1758
▁국회의 -1759
자들이 -1760
▁출판 -1761
.0 -1762
하도록 -1763
▁표준 -1764
▁대중 -1765
난다 -1766
덜란드 -1767
▁소비 -1768
▁거주 -1769
상에 -1770
정부 -1771
▁정규 -1772
정이 -1773
▁목표 -1774
개월 -1775
▁이들은 -1776
함으로써 -1777
▁m -1778
▁팬 -1779
▁익 -1780
▁전에 -1781
소는 -1782
▁자리 -1783
▁덴 -1784
▁개봉 -1785
▁징 -1786
진을 -1787
▁있게 -1788
일랜드 -1789
▁겨 -1790
체는 -1791
▁소유 -1792
라도 -1793
만이 -1794
▁은퇴 -1795
되었으나 -1796
모토 -1797
시대 -1798
▁잃 -1799
만을 -1800
▁움 -1801
▁왜 -1802
▁주민 -1803
레일 -1804
스티 -1805
▁구역 -1806
스키 -1807
▁정신 -1808
▁포르 -1809
내는 -1810
▁전자 -1811
▁작가 -1812
▁돈 -1813
비를 -1814
바이 -1815
▁세포 -1816
▁덕 -1817
▁명의 -1818
▁이유로 -1819
▁쌍 -1820
년간 -1821
▁실험 -1822
▁페르 -1823
▁베트남 -1824
▁영국의 -1825
▁네덜란드 -1826
▁이름으로 -1827
관이 -1828
▁밝혔다 -1829
▁분석 -1830
버스 -1831
▁모습을 -1832
지와 -1833
나이 -1834
▁웹 -1835
원에서 -1836
▁1997 -1837
▁알렉 -1838
선거 -1839
▁휘 -1840
과에 -1841
▁액 -1842
메달 -1843
▁구분 -1844
▁말했다 -1845
▁밤 -1846
소의 -1847
▁제품 -1848
전의 -1849
이란 -1850
▁사무 -1851
웠다 -1852
베르 -1853
▁o -1854
지방 -1855
이지만 -1856
회가 -1857
▁제한 -1858
▁선수이다 -1859
▁성장 -1860
었으며 -1861
60 -1862
▁강화 -1863
▁남자 -1864
▁승리 -1865
▁조약 -1866
▁불구하고 -1867
라스 -1868
▁홀 -1869
단이 -1870
▁치료 -1871
.2 -1872
로의 -1873
▁씨 -1874
▁드러 -1875
▁Y -1876
러스 -1877
정의 -1878
인데 -1879
랐다 -1880
지역 -1881
▁믿 -1882
▁설계 -1883
▁깊 -1884
▁서울특별시 -1885
▁맡았다 -1886
▁오늘날 -1887
골을 -1888
▁아프리카 -1889
단에 -1890
민주주의 -1891
▁소프트 -1892
▁하나의 -1893
▁사이의 -1894
▁거두 -1895
▁현재는 -1896
▁찬 -1897
▁1996 -1898
회에 -1899
스테 -1900
베이 -1901
금을 -1902
우는 -1903
▁사용하는 -1904
▁헌법 -1905
되기 -1906
▁헬 -1907
▁분리 -1908
▁서식 -1909
▁1995 -1910
▁육군 -1911
▁알려진 -1912
▁폴란드 -1913
드가 -1914
▁포함한 -1915
▁핀 -1916
ac -1917
▁하계 -1918
당은 -1919
▁크로 -1920
▁끌 -1921
▁그런 -1922
▁정확 -1923
월에는 -1924
부르크 -1925
▁언론 -1926
▁마음 -1927
▁아직 -1928
▁공화국 -1929
직을 -1930
▁하지 -1931
cm -1932
-0 -1933
들로 -1934
▁실제 -1935
▁이곳 -1936
▁경험 -1937
▁하이 -1938
▁프로젝 -1939
구는 -1940
▁의미한다 -1941
형을 -1942
▁가문 -1943
쪽으로는 -1944
▁아마 -1945
▁결합 -1946
▁그들은 -1947
▁방문 -1948
시코 -1949
▁제조 -1950
▁쓴 -1951
▁그림 -1952
부로 -1953
▁하나로 -1954
▁분포 -1955
아의 -1956
▁이듬 -1957
전이 -1958
자리 -1959
▁통과 -1960
월부터 -1961
으므로 -1962
지지 -1963
▁것에 -1964
산을 -1965
어서 -1966
▁런던 -1967
▁널리 -1968
치고 -1969
▁부여 -1970
계에 -1971
▁이사 -1972
▁비행 -1973
▁괴 -1974
11 -1975
▁단체 -1976
▁스포츠 -1977
_2 -1978
▁광주 -1979
▁주의 -1980
▁맨 -1981
▁제안 -1982
▁발달 -1983
▁비해 -1984
사카 -1985
40 -1986
▁지상 -1987
식은 -1988
▁세워 -1989
▁수준 -1990
▁기여 -1991
▁공립 -1992
▁완전히 -1993
▁이듬해 -1994
▁공항 -1995
▁중에 -1996
▁물질 -1997
▁복귀 -1998
장과 -1999
▁꽃 -2000
인과 -2001
▁요시 -2002
르의 -2003
트가 -2004
가를 -2005
▁여겨 -2006
▁중요 -2007
로를 -2008
▁슈퍼 -2009
▁UE -2010
주를 -2011
▁인터넷 -2012
▁예선 -2013
▁the -2014
▁불리 -2015
▁의하여 -2016
de -2017
루스 -2018
▁1970 -2019
톨릭 -2020
▁차례 -2021
▁위에 -2022
▁우승을 -2023
▁못했다 -2024
배우 -2025
식이 -2026
하의 -2027
▁움직 -2028
▁프랑스의 -2029
▁펼 -2030
지에서 -2031
스토 -2032
▁독일의 -2033
▁요청 -2034
▁현재의 -2035
▁멀 -2036
▁고등학교 -2037
▁UEFA -2038
관으로 -2039
▁회사 -2040
르고 -2041
▁멸 -2042
▁188 -2043
▁배치 -2044
TV -2045
▁때까지 -2046
▁1994 -2047
들도 -2048
▁외국 -2049
사업 -2050
구가 -2051
감을 -2052
il -2053
▁더불 -2054
▁자주 -2055
위가 -2056
▁제주 -2057
▁등과 -2058
▁사람이 -2059
▁확장 -2060
▁식민 -2061
▁통일 -2062
▁나온 -2063
15 -2064
▁전해 -2065
점이 -2066
▁정도로 -2067
신을 -2068
라인 -2069
▁연기 -2070
▁나머 -2071
▁이로 -2072
▁유전 -2073
웨어 -2074
국은 -2075
도와 -2076
▁바탕 -2077
▁접근 -2078
▁경쟁 -2079
▁브라질 -2080
▁더불어 -2081
위의 -2082
▁영토 -2083
위는 -2084
▁빛 -2085
▁파괴 -2086
▁비롯한 -2087
▁있도록 -2088
▁칠 -2089
▁몬 -2090
▁해석 -2091
▁마찬 -2092
▁개혁 -2093
▁갖고 -2094
▁오래 -2095
카와 -2096
▁마찬가지 -2097
▁사라 -2098
▁아시 -2099
▁깨 -2100
▁추진 -2101
ro -2102
▁오스트리아 -2103
▁밴드 -2104
▁KBS -2105
▁주연 -2106
조는 -2107
▁록 -2108
경을 -2109
▁삼성 -2110
문에 -2111
▁km -2112
▁정식 -2113
▁쉽 -2114
▁불교 -2115
as -2116
▁스스로 -2117
물의 -2118
▁사람들이 -2119
동을 -2120
▁나오 -2121
▁소재 -2122
▁선수로 -2123
▁혈 -2124
었던 -2125
▁않아 -2126
▁습 -2127
▁1992 -2128
▁감독의 -2129
아가 -2130
릭터 -2131
▁촉 -2132
▁품 -2133
디어 -2134
화국의 -2135
주에 -2136
▁패배 -2137
시를 -2138
▁이들 -2139
▁수용 -2140
규모 -2141
▁p -2142
선이 -2143
▁주인 -2144
▁지난 -2145
▁프레 -2146
▁달러 -2147
▁오른 -2148
▁유명한 -2149
▁필리 -2150
▁디자인 -2151
▁강원 -2152
▁스웨 -2153
▁가르 -2154
▁과정에서 -2155
철도 -2156
▁자치 -2157
▁특정 -2158
▁스테 -2159
로나 -2160
시즌 -2161
▁앙 -2162
▁짧 -2163
▁법률 -2164
습니다 -2165
▁빅 -2166
▁만나 -2167
▁작용 -2168
▁그대로 -2169
▁밝혀 -2170
받았다 -2171
▁60 -2172
일의 -2173
소년 -2174
▁of -2175
18 -2176
▁바뀌 -2177
▁존재한다 -2178
부에서 -2179
ig -2180
크의 -2181
▁선수권 -2182
▁잇 -2183
▁기초 -2184
레일리아 -2185
▁스트 -2186
군과 -2187
▁폐지 -2188
▁술 -2189
센터 -2190
▁제국의 -2191
▁윌리 -2192
ve -2193
▁스위 -2194
기술 -2195
멕시코 -2196
▁외교 -2197
▁강력 -2198
▁1960 -2199
되기도 -2200
사에서 -2201
▁b -2202
지게 -2203
국이 -2204
▁경우가 -2205
▁초등학교 -2206
▁캐릭터 -2207
▁초대 -2208
▁알고 -2209
▁s -2210
행을 -2211
▁십 -2212
선은 -2213
▁아카 -2214
없이 -2215
선에 -2216
▁되었 -2217
▁목적으로 -2218
형의 -2219
▁일어나 -2220
▁해결 -2221
▁자동차 -2222
▁많다 -2223
식의 -2224
▁가톨릭 -2225
▁가져 -2226
▁것이었다 -2227
▁1991 -2228
▁단순 -2229
▁이외 -2230
▁먼저 -2231
▁기록했다 -2232
▁관측 -2233
▁스웨덴 -2234
▁라디오 -2235
류의 -2236
많은 -2237
▁엔진 -2238
▁노르 -2239
력은 -2240
고를 -2241
디아 -2242
▁제시 -2243
▁삶 -2244
부와 -2245
▁유니 -2246
하라 -2247
웨이 -2248
▁부정 -2249
▁결성 -2250
▁그린 -2251
▁근처 -2252
16 -2253
▁상호 -2254
▁1993 -2255
속도로 -2256
이기 -2257
▁캠 -2258
크는 -2259
니는 -2260
▁거부 -2261
▁경영 -2262
▁이야기 -2263
▁그녀의 -2264
졌고 -2265
▁친구 -2266
종이다 -2267
▁일제 -2268
▁생성 -2269
▁들어가 -2270
프는 -2271
▁집합 -2272
인트 -2273
▁제작된 -2274
량이 -2275
▁미국에서 -2276
주로 -2277
▁여름 -2278
▁도착 -2279
자에 -2280
▁보다 -2281
▁조선민주주의 -2282
▁반란 -2283
▁불리는 -2284
하이 -2285
▁지진 -2286
자이다 -2287
▁가능하다 -2288
▁영어 -2289
▁에서 -2290
화의 -2291
한다고 -2292
▁다카 -2293
▁위험 -2294
▁상대로 -2295
아시아 -2296
▁있으나 -2297
13 -2298
▁놀 -2299
▁70 -2300
▁벤 -2301
▁아무 -2302
수한 -2303
하였는데 -2304
리에서 -2305
▁해안 -2306
▁구성되어 -2307
▁지역에서 -2308
지션 -2309
▁비슷한 -2310
▁성립 -2311
▁겪 -2312
▁교수 -2313
▁수많은 -2314
▁여기서 -2315
▁다만 -2316
▁임시 -2317
트워 -2318
▁오스트레일리아 -2319
▁디지 -2320
▁않다 -2321
▁투표 -2322
▁동맹 -2323
▁상징 -2324
▁한국의 -2325
▁통치 -2326
▁소개 -2327
▁이주 -2328
하다가 -2329
했다는 -2330
▁파견 -2331
간다 -2332
▁궤 -2333
▁엘리 -2334
▁주도 -2335
▁팀의 -2336
▁연극 -2337
▁살아 -2338
▁출생 -2339
왕의 -2340
하기로 -2341
▁때는 -2342
만의 -2343
▁윈도 -2344
▁조각 -2345
▁훈련 -2346
▁시도 -2347
▁의원 -2348
▁야마 -2349
량을 -2350
", -2351
▁황제 -2352
▁아일랜드 -2353
성으로 -2354
▁다르 -2355
▁준비 -2356
▁교회 -2357
▁활용 -2358
▁의하면 -2359
▁재판 -2360
▁것과 -2361
▁시행 -2362
정보 -2363
▁캘 -2364
과학 -2365
▁중간 -2366
▁문학 -2367
▁만에 -2368
▁공작 -2369
▁뇌 -2370
▁에이 -2371
ed -2372
평양 -2373
▁근거 -2374
대와 -2375
▁바꾸 -2376
▁사용한다 -2377
▁발행 -2378
▁오브 -2379
▁카를 -2380
▁스튜 -2381
▁곤 -2382
▁마찬가지로 -2383
▁나무 -2384
년을 -2385
▁지냈다 -2386
▁대응 -2387
나가 -2388
14 -2389
▁바르 -2390
함을 -2391
▁윌리엄 -2392
촬영 -2393
▁지하철 -2394
▁떨어진 -2395
80 -2396
▁흡 -2397
▁시기 -2398
▁승강장 -2399
▁기후 -2400
조를 -2401
▁방어 -2402
▁지역을 -2403
▁대표적인 -2404
▁붕 -2405
▁따른 -2406
▁1988 -2407
트에서 -2408
70 -2409
▁이렇게 -2410
▁보유 -2411
▁히로 -2412
화된 -2413
▁시험 -2414
▁르 -2415
관의 -2416
▁처리 -2417
▁번역 -2418
▁바다 -2419
교회 -2420
낸다 -2421
▁멕시코 -2422
▁형태로 -2423
업을 -2424
▁로스 -2425
시가 -2426
▁끝에 -2427
▁비디오 -2428
▁시작하였다 -2429
▁를 -2430
▁체포 -2431
▁대해서 -2432
▁등록 -2433
▁중단 -2434
▁미사 -2435
인들이 -2436
▁타이틀 -2437
NA -2438
▁지리 -2439
▁벽 -2440
▁이루어진 -2441
▁숨 -2442
▁이스 -2443
▁서비스 -2444
았고 -2445
▁꾸 -2446
▁회의 -2447
▁1. -2448
였고 -2449
버트 -2450
▁일을 -2451
어나 -2452
▁북쪽 -2453
▁사용된다 -2454
▁센터 -2455
▁가정 -2456
▁몇몇 -2457
▁규정 -2458
연합 -2459
▁남쪽 -2460
▁있었고 -2461
▁좋아 -2462
점으로 -2463
▁관련된 -2464
일은 -2465
▁유로 -2466
▁베르 -2467
▁안정 -2468
▁혁명 -2469
가이다 -2470
▁귀족 -2471
▁The -2472
▁이집 -2473
▁젊 -2474
면을 -2475
▁중에서 -2476
▁사용할 -2477
▁위해서 -2478
▁여객 -2479
▁있기 -2480
▁직후 -2481
소에 -2482
us -2483
티아 -2484
사회 -2485
▁파이 -2486
▁디지털 -2487
▁체결 -2488
크라 -2489
▁묘사 -2490
▁사진 -2491
▁지적 -2492
▁80 -2493
▁남부 -2494
▁알렉산 -2495
▁제기 -2496
▁1950 -2497
▁계열 -2498
로가 -2499
으면서 -2500
▁1989 -2501
▁다루 -2502
안을 -2503
▁해외 -2504
_3 -2505
작용 -2506
▁당선 -2507
가로 -2508
주시 -2509
▁중국의 -2510
치의 -2511
량은 -2512
▁2021 -2513
▁낳 -2514
▁종합 -2515
od -2516
ch -2517
오카 -2518
▁즉위 -2519
▁혐 -2520
임스 -2521
어졌다 -2522
▁정부는 -2523
워드 -2524
▁억 -2525
', -2526
회사 -2527
▁보존 -2528
▁이슬 -2529
▁얼마 -2530
▁금지 -2531
▁나머지 -2532
▁대사 -2533
▁뮤직 -2534
▁유대 -2535
생활 -2536
▁내각 -2537
▁그렇 -2538
▁살해 -2539
▁관광 -2540
▁하루 -2541
▁이름이 -2542
▁포르투 -2543
▁개통 -2544
당이 -2545
▁둔 -2546
리포 -2547
▁부른다 -2548
▁적이 -2549
▁대륙 -2550
▁류 -2551
▁계승 -2552
▁동생 -2553
물이 -2554
▁홍콩 -2555
▁달성 -2556
▁가능한 -2557
▁촬영 -2558
권의 -2559
비는 -2560
▁값 -2561
▁지명 -2562
▁나타나 -2563
▁펜 -2564
▁떠나 -2565
니스 -2566
국을 -2567
라우 -2568
and -2569
나라의 -2570
▁못한 -2571
▁완성 -2572
▁링 -2573
▁주인공 -2574
공항 -2575
▁있지 -2576
▁종료 -2577
산의 -2578
▁발사 -2579
단으로 -2580
미터 -2581
17 -2582
▁싶 -2583
였으며 -2584
▁간의 -2585
▁곳에 -2586
러운 -2587
▁스코 -2588
피아 -2589
▁표시 -2590
▁조성 -2591
자들의 -2592
▁취임 -2593
계가 -2594
치로 -2595
해졌다 -2596
수이다 -2597
▁정치적 -2598
소로 -2599
▁밑 -2600
▁폰 -2601
▁쌓 -2602
▁강한 -2603
ent -2604
▁대해서는 -2605
▁사망하였다 -2606
학생 -2607
▁보수 -2608
▁유일한 -2609
▁사후 -2610
▁본래 -2611
와는 -2612
▁의견 -2613
-3 -2614
▁멜 -2615
주교 -2616
▁년 -2617
▁전환 -2618
론을 -2619
하에 -2620
▁안전 -2621
▁승격 -2622
인지 -2623
▁꼬 -2624
▁못하고 -2625
▁1945 -2626
관리 -2627
시킨 -2628
▁충돌 -2629
력의 -2630
▁완전 -2631
▁경기를 -2632
▁물론 -2633
▁일어난 -2634
시키고 -2635
서로 -2636
당을 -2637
되자 -2638
▁수비 -2639
▁전달 -2640
▁남북 -2641
조가 -2642
▁옮겨 -2643
두고 -2644
롭게 -2645
▁후쿠 -2646
▁낮은 -2647
▁인민 -2648
▁천황 -2649
▁벗 -2650
▁합류 -2651
▁안에 -2652
나의 -2653
▁주목 -2654
▁굴 -2655
세에 -2656
▁표기 -2657
ra -2658
▁근무 -2659
▁32 -2660
▁것도 -2661
▁종목 -2662
▁죄 -2663
▁관계를 -2664
▁케이 -2665
▁미술 -2666
▁중의 -2667
시로 -2668
▁필요한 -2669
▁경상남도 -2670
▁인근 -2671
▁전략 -2672
계는 -2673
▁경상북도 -2674
려고 -2675
▁동쪽 -2676
▁평화 -2677
▁이래 -2678
내고 -2679
구역 -2680
▁아내 -2681
▁만들었다 -2682
▁미래 -2683
되었던 -2684
관에 -2685
력으로 -2686
▁해군 -2687
▁스토 -2688
▁영역 -2689
▁제거 -2690
▁인식 -2691
▁문제가 -2692
▁문제를 -2693
족의 -2694
▁사이에서 -2695
로로 -2696
▁반면 -2697
▁제도 -2698
승을 -2699
▁명예 -2700
▁186 -2701
미널 -2702
▁오후 -2703
먼트 -2704
문화재 -2705
▁델 -2706
상과 -2707
▁빨 -2708
▁중화인민공화국 -2709
요일 -2710
▁썼 -2711
▁각종 -2712
월까지 -2713
▁주는 -2714
.3 -2715
48 -2716
▁즐 -2717
▁네트워 -2718
▁비밀 -2719
ot -2720
신의 -2721
▁d -2722
▁생물 -2723
비가 -2724
▁베네 -2725
즈의 -2726
▁참여하였다 -2727
▁왼 -2728
량의 -2729
전쟁 -2730
▁녹음 -2731
▁보여주 -2732
▁헨 -2733
헝가 -2734
▁읽 -2735
종이 -2736
▁오사카 -2737
▁듣 -2738
▁나누 -2739
인들은 -2740
▁부모 -2741
분을 -2742
▁= -2743
원과 -2744
▁상업 -2745
산으로 -2746
▁통하여 -2747
▁a -2748
▁납 -2749
대회 -2750
▁이루어져 -2751
▁가까운 -2752
단체 -2753
석을 -2754
은행 -2755
▁MBC -2756
▁말을 -2757
전으로 -2758
▁만화 -2759
준다 -2760
그룹 -2761
▁이슬람 -2762
▁집중 -2763
▁이용하여 -2764
▁셀 -2765
▁수가 -2766
▁친일 -2767
▁위치하고 -2768
▁경우에는 -2769
과를 -2770
▁성격 -2771
▁위치해 -2772
▁최고의 -2773
메달을 -2774
메이 -2775
▁오르 -2776
▁가입 -2777
프가 -2778
un -2779
▁강조 -2780
▁공급 -2781
▁너무 -2782
파의 -2783
▁샌 -2784
분에 -2785
▁빼 -2786
▁포지션 -2787
▁위의 -2788
▁마이크로 -2789
▁주었다 -2790
적으로는 -2791
ow -2792
▁아우 -2793
2, -2794
25 -2795
▁전시 -2796
▁정착 -2797
▁카운 -2798
주가 -2799
만에 -2800
▁만들어진 -2801
▁뒤에 -2802
▁실제로 -2803
▁둘러 -2804
리어 -2805
▁기록을 -2806
로스 -2807
▁기획 -2808
▁아니다 -2809
▁187 -2810
▁전반 -2811
▁보이 -2812
▁북부 -2813
상에서 -2814
권이 -2815
지도 -2816
▁제목 -2817
기업 -2818
▁사실을 -2819
▁오스 -2820
▁내부 -2821
▁국회의원 -2822
▁전투에서 -2823
▁에드 -2824
▁맹 -2825
▁저항 -2826
해를 -2827
▁신문 -2828
동차 -2829
▁아키 -2830
가가 -2831
▁연장 -2832
▁만약 -2833
▁출신의 -2834
▁인한 -2835
▁사람은 -2836
년대에 -2837
▁바탕으로 -2838
▁기존의 -2839
▁마련 -2840
▁문서 -2841
▁정리 -2842
▁최소 -2843
▁던 -2844
화는 -2845
드와 -2846
▁부문 -2847
▁옆 -2848
▁건너 -2849
ct -2850
▁되었으며 -2851
고로 -2852
▁사회적 -2853
▁인디 -2854
▁젊은 -2855
▁사회주의 -2856
▁정부의 -2857
▁레코 -2858
▁의사 -2859
▁여전히 -2860
▁허용 -2861
▁서쪽 -2862
슨은 -2863
▁계산 -2864
점에서 -2865
적이고 -2866
▁실행 -2867
▁가는 -2868
▁전개 -2869
▁끼 -2870
년과 -2871
▁감소 -2872
▁마리아 -2873
▁35 -2874
▁이번 -2875
▁구조를 -2876
▁프로듀 -2877
▁넘어 -2878
▁갖추 -2879
▁그해 -2880
▁왔다 -2881
라노 -2882
교의 -2883
▁에스 -2884
▁혜 -2885
산업 -2886
▁건강 -2887
▁작성 -2888
▁확대 -2889
▁블랙 -2890
▁윈도우 -2891
▁사용하여 -2892
▁일반적인 -2893
▁1987 -2894
▁몽골 -2895
▁교체 -2896
질을 -2897
▁게이 -2898
▁신라 -2899
사이 -2900
리스트 -2901
▁적극 -2902
▁이후에 -2903
▁포르투갈 -2904
▁재직 -2905
▁대회에서 -2906
▁시대의 -2907
▁바람 -2908
▁터키 -2909
▁객 -2910
▁올랐다 -2911
호가 -2912
▁입학 -2913
▁기능을 -2914
▁무렵 -2915
▁뿐만 -2916
▁자체 -2917
▁유엔 -2918
▁사람을 -2919
FC -2920
했기 -2921
▁불린다 -2922
▁국방 -2923
세포 -2924
▁하기 -2925
▁사례 -2926
화에 -2927
문학 -2928
.. -2929
트라 -2930
▁영화배우 -2931
▁그려 -2932
▁무역 -2933
산은 -2934
▁유형 -2935
▁편집 -2936
▁사령 -2937
br -2938
자에게 -2939
▁불러 -2940
▁받아들 -2941
▁위협 -2942
▁만드는 -2943
▁국왕 -2944
▁n -2945
계에서 -2946
졌으며 -2947
▁뒷 -2948
▁아나 -2949
▁시기에 -2950
▁2, -2951
보다는 -2952
▁피아 -2953
▁범죄 -2954
▁관찰 -2955
▁1986 -2956
리포니아 -2957
▁채널 -2958
▁찰 -2959
▁겨울 -2960
▁나중에 -2961
시오 -2962
▁보도 -2963
▁자본 -2964
▁1984 -2965
▁생활을 -2966
▁전라남도 -2967
기고 -2968
▁그래서 -2969
▁옹 -2970
▁노력 -2971
라운드 -2972
▁제임스 -2973
사건 -2974
장이다 -2975
▁붕괴 -2976
▁전차 -2977
▁구단 -2978
▁채택 -2979
▁유리 -2980
▁출발 -2981
개발 -2982
의로 -2983
실을 -2984
래프트 -2985
▁점차 -2986
트에 -2987
▁성우 -2988
▁제정 -2989
▁제외한 -2990
되었는데 -2991
▁이란 -2992
▁사용되는 -2993
물로 -2994
▁일이 -2995
ur -2996
▁면적은 -2997
▁동료 -2998
▁충분 -2999
도시 -3000
im -3001
▁울산 -3002
선에서 -3003
ad -3004
이던 -3005
▁라이브 -3006
▁동계 -3007
▁춘 -3008
▁여행 -3009
▁항상 -3010
로운 -3011
.4 -3012
티브 -3013
오프 -3014
▁요리 -3015
▁컬 -3016
▁St -3017
르타 -3018
▁집단 -3019
▁판단 -3020
해의 -3021
라엘 -3022
났으며 -3023
▁감염 -3024
데미 -3025
▁합병 -3026
▁해체 -3027
문이 -3028
사령 -3029
▁원자 -3030
▁확보 -3031
▁외에도 -3032
▁측정 -3033
케이 -3034
▁민간 -3035
▁냉 -3036
24 -3037
▁죽음 -3038
▁장기 -3039
로서의 -3040
▁루이 -3041
▁마쓰 -3042
군으로 -3043
▁사람들은 -3044
영화 -3045
▁데이비 -3046
▁흰 -3047
세이 -3048
일러 -3049
id -3050
▁블루 -3051
▁스튜디오 -3052
선수 -3053
밖에 -3054
테인 -3055
▁신경 -3056
모리 -3057
세기에 -3058
▁장애 -3059
▁필리핀 -3060
▁계약을 -3061
▁보면 -3062
▁동부 -3063
라고도 -3064
▁고구 -3065
설을 -3066
았으며 -3067
▁척 -3068
일본 -3069
▁핀란드 -3070
▁매년 -3071
종은 -3072
▁구축 -3073
▁500 -3074
▁에피 -3075
▁남편 -3076
▁득점 -3077
▁봄 -3078
▁쉽게 -3079
면의 -3080
▁시작되었다 -3081
자치 -3082
당에 -3083
▁마사 -3084
▁다섯 -3085
▁끊 -3086
▁증거 -3087
▁책임 -3088
니어 -3089
ut -3090
▁캘리포니아 -3091
▁세르 -3092
대에서 -3093
▁엑 -3094
끄는 -3095
시대의 -3096
90 -3097
계로 -3098
레이션 -3099
▁쇠 -3100
국에 -3101
▁1985 -3102
신이 -3103
▁종종 -3104
▁발표했다 -3105
▁덴마 -3106
▁부근 -3107
세대 -3108
▁간주 -3109
정으로 -3110
▁파리 -3111
▁모스크 -3112
▁전사 -3113
▁있었지만 -3114
경제 -3115
▁등은 -3116
▁이승 -3117
라비아 -3118
하다고 -3119
▁수학 -3120
▁태평양 -3121
이라고도 -3122
▁경향 -3123
▁뒤를 -3124
▁90 -3125
▁공공 -3126
리기 -3127
▁증명 -3128
▁초반 -3129
▁수립 -3130
23 -3131
하려는 -3132
▁in -3133
▁침공 -3134
▁남성 -3135
▁해방 -3136
▁관심을 -3137
▁탑재 -3138
▁서부 -3139
즈는 -3140
▁자리를 -3141
▁꿈 -3142
▁강력한 -3143
▁주장했다 -3144
▁변호 -3145
▁잭 -3146
▁밖에 -3147
▁승리를 -3148
▁화학 -3149
▁그곳 -3150
▁이스라엘 -3151
▁인간의 -3152
력과 -3153
티는 -3154
um -3155
▁균 -3156
▁공격을 -3157
▁농업 -3158
키아 -3159
까지의 -3160
▁정보를 -3161
▁태풍 -3162
▁강원도 -3163
다이 -3164
▁헝가 -3165
▁소프트웨어 -3166
ir -3167
▁높이 -3168
▁수입 -3169
초등학교는 -3170
여자 -3171
▁인수 -3172
▁텍 -3173
▁하자 -3174
▁자신을 -3175
네시아 -3176
▁비용 -3177
▁등에서 -3178
▁아름 -3179
▁콩 -3180
▁방식으로 -3181
법에 -3182
▁얼굴 -3183
▁나폴 -3184
▁검은 -3185
▁역대 -3186
민족 -3187
항공 -3188
▁사용한 -3189
▁한다고 -3190
▁경우도 -3191
서에 -3192
▁어떻 -3193
.6 -3194
▁쪽 -3195
인에 -3196
틀랜드 -3197
셔널 -3198
당한 -3199
.7 -3200
개를 -3201
▁남동 -3202
로도 -3203
▁아랍 -3204
▁트리 -3205
▁회복 -3206
ver -3207
▁메이저 -3208
법원 -3209
▁특수 -3210
약을 -3211
▁LG -3212
▁떨어져 -3213
제에 -3214
▁정상 -3215
씨는 -3216
포르 -3217
▁왔 -3218
법은 -3219
▁연맹 -3220
▁없어 -3221
▁대규모 -3222
드에서 -3223
▁나카 -3224
류를 -3225
▁외부 -3226
▁회원 -3227
▁한다는 -3228
되었지만 -3229
▁털 -3230
▁시장 -3231
▁시청 -3232
자들을 -3233
▁가리키는 -3234
면에서 -3235
신은 -3236
시와 -3237
사키 -3238
▁알아 -3239
▁세운 -3240
티나 -3241
소에서 -3242
▁고전 -3243
▁평양 -3244
에게는 -3245
▁하게 -3246
▁좀 -3247
려는 -3248
▁불과 -3249
트와 -3250
▁아시안 -3251
▁잠시 -3252
▁흘 -3253
▁본선 -3254
▁당시의 -3255
▁중화민 -3256
▁마리 -3257
데스 -3258
다운 -3259
▁귀국 -3260
▁대형 -3261
▁주연으로 -3262
▁플로 -3263
▁족 -3264
식으로 -3265
▁하면서 -3266
▁선의 -3267
CA -3268
▁삼국 -3269
력에 -3270
▁둥 -3271
싱턴 -3272
▁인하여 -3273
▁원칙 -3274
▁1982 -3275
▁파일 -3276
▁갖춘 -3277
후의 -3278
대전 -3279
법의 -3280
붉은 -3281
▁대상 -3282
었는데 -3283
수와 -3284
▁길이 -3285
서관 -3286
▁중학교 -3287
▁대립 -3288
▁수정 -3289
받아 -3290
▁이끄는 -3291
▁목적 -3292
▁일종이다 -3293
▁짓 -3294
▁45 -3295
▁받는 -3296
▁기계 -3297
▁내에서 -3298
까지는 -3299
▁힘을 -3300
▁만족 -3301
▁셰 -3302
▁임명되었다 -3303
▁폭발 -3304
▁어떻게 -3305
▁말이다 -3306
▁숲 -3307
형은 -3308
▁개편 -3309
라가 -3310
▁조선민주주의인민공화국 -3311
박쥐 -3312
바르 -3313
어와 -3314
▁의해서 -3315
▁사람의 -3316
▁기억 -3317
▁섭 -3318
▁본관은 -3319
▁쉬 -3320
명한 -3321
▁고양 -3322
▁라틴 -3323
▁복잡 -3324
타이 -3325
▁토론 -3326
점에 -3327
정책 -3328
구로 -3329
차를 -3330
년이 -3331
▁근대 -3332
▁인사 -3333
▁태어난 -3334
▁가격 -3335
하고자 -3336
▁네트워크 -3337
터테인 -3338
▁비교적 -3339
마스 -3340
▁시내 -3341
▁설립된 -3342
▁충청남도 -3343
▁카메 -3344
▁팀은 -3345
▁과정을 -3346
22 -3347
▁롤 -3348
▁글로 -3349
▁발매되었다 -3350
▁뛰어난 -3351
▁은행 -3352
동의 -3353
▁편성 -3354
▁나뉘 -3355
▁잎 -3356
무원 -3357
▁행사 -3358
유럽 -3359
ay -3360
▁조정 -3361
면은 -3362
▁않을 -3363
▁통한 -3364
▁보이는 -3365
▁신설 -3366
▁이것이 -3367
▁인기를 -3368
▁전역 -3369
.8 -3370
▁죽은 -3371
▁편입 -3372
▁에너지 -3373
▁속에 -3374
권은 -3375
▁단백 -3376
었으나 -3377
▁식물 -3378
▁시대에 -3379
▁개선 -3380
▁쓰인다 -3381
▁저장 -3382
▁1983 -3383
▁버스 -3384
▁세이 -3385
드에 -3386
형이 -3387
인들의 -3388
▁도움을 -3389
보는 -3390
▁박물 -3391
▁본격 -3392
▁오리 -3393
▁홈런 -3394
▁포지션은 -3395
▁유도 -3396
경의 -3397
▁구체 -3398
공업 -3399
▁통신 -3400
▁마드리 -3401
▁문화재 -3402
▁대상으로 -3403
품을 -3404
▁암살 -3405
▁캄 -3406
이었고 -3407
▁재정 -3408
▁우선 -3409
▁이전에 -3410
브리 -3411
료를 -3412
▁구성된 -3413
▁띠 -3414
▁후손 -3415
프의 -3416
를린 -3417
▁탄생 -3418
종으로 -3419
경에 -3420
▁고구려 -3421
프리 -3422
▁창설 -3423
▁때에는 -3424
▁속에서 -3425
▁지역은 -3426
▁애플 -3427
▁참석 -3428
▁사실상 -3429
▁시의 -3430
도에서 -3431
em -3432
▁스피 -3433
동은 -3434
▁불가능 -3435
▁카이 -3436
분의 -3437
도르 -3438
점은 -3439
▁아카데미 -3440
▁있었으며 -3441
▁듀 -3442
어도 -3443
하나 -3444
▁핵심 -3445
▁아르헨 -3446
▁나오는 -3447
라크 -3448
에르 -3449
▁클래 -3450
▁전혀 -3451
▁형태의 -3452
▁설치되어 -3453
▁사는 -3454
▁열대 -3455
▁스파 -3456
▁중반 -3457
▁앞두고 -3458
겠다고 -3459
▁했지만 -3460
▁브랜드 -3461
▁심리 -3462
▁짧은 -3463
▁사용되었다 -3464
kg -3465
세계 -3466
▁잘못 -3467
료로 -3468
▁내용을 -3469
권에 -3470
수에 -3471
경찰 -3472
45 -3473
▁1972 -3474
▁외에 -3475
▁w -3476
▁설정 -3477
서의 -3478
▁공유 -3479
▁고향 -3480
음악 -3481
▁업무 -3482
▁등장하는 -3483
▁펠 -3484
문의 -3485
▁발견된다 -3486
주에서 -3487
▁답 -3488
조선 -3489
지기 -3490
미디 -3491
▁300 -3492
▁현실 -3493
▁흔히 -3494
었지만 -3495
▁협력 -3496
▁조금 -3497
룬다 -3498
용으로 -3499
▁짐 -3500
학년 -3501
▁부인 -3502
축구 -3503
▁모스크바 -3504
▁아주 -3505
▁다음은 -3506
▁수출 -3507
▁II -3508
같은 -3509
추어 -3510
▁1920 -3511
▁비난 -3512
▁위치한다 -3513
시킬 -3514
▁수여 -3515
▁확정 -3516
자이 -3517
스리그 -3518
▁역사상 -3519
예술 -3520
▁뉴스 -3521
▁묻 -3522
▁개봉한 -3523
차례 -3524
▁뿌 -3525
▁플랫 -3526
▁린 -3527
적이다 -3528
씨의 -3529
▁나서 -3530
받은 -3531
▁있었으나 -3532
함에 -3533
▁비율 -3534
▁보급 -3535
하려고 -3536
▁권한 -3537
▁1979 -3538
주와 -3539
협회 -3540
200 -3541
지면서 -3542
▁물러 -3543
서가 -3544
번의 -3545
체에 -3546
▁공부 -3547
▁베이징 -3548
유의 -3549
▁33 -3550
▁그것은 -3551
테르 -3552
▁추정된다 -3553
버그 -3554
▁갈등 -3555
▁워싱턴 -3556
▁숫 -3557
▁줄거리 -3558
▁시티 -3559
▁때에 -3560
▁요한 -3561
▁기사 -3562
▁다니 -3563
크라이나 -3564
▁유명하다 -3565
▁단일 -3566
▁문자 -3567
보를 -3568
▁하는데 -3569
▁장착 -3570
▁시각 -3571
▁버전 -3572
▁동일한 -3573
os -3574
▁프란 -3575
▁옷 -3576
▁오히 -3577
▁전후 -3578
▁나이 -3579
▁노예 -3580
▁로버트 -3581
▁예상 -3582
▁에피소 -3583
호의 -3584
▁선고 -3585
▁했고 -3586
▁왕국 -3587
▁1930 -3588
지원 -3589
▁그에 -3590
▁고정 -3591
▁뜻이 -3592
▁태어나 -3593
▁맛 -3594
다른 -3595
리케 -3596
▁북서 -3597
▁붉은 -3598
BO -3599
▁36 -3600
▁브리 -3601
▁항복 -3602
체로 -3603
▁자는 -3604
이었으나 -3605
미는 -3606
▁박사 -3607
▁경기에 -3608
▁심각 -3609
▁정도의 -3610
▁훨 -3611
▁초등학교이다 -3612
▁원작 -3613
▁조합 -3614
▁세계에서 -3615
▁나는 -3616
▁현재까지 -3617
▁되면서 -3618
문은 -3619
▁하였고 -3620
비의 -3621
.9 -3622
시설 -3623
▁개정 -3624
▁투자 -3625
▁180 -3626
▁되지 -3627
▁금융 -3628
▁신앙 -3629
로드 -3630
니의 -3631
▁광고 -3632
간에 -3633
▁오픈 -3634
가에 -3635
▁1981 -3636
▁출마 -3637
▁발생한 -3638
어져 -3639
의의 -3640
▁하늘 -3641
▁훨씬 -3642
▁가로 -3643
▁적은 -3644
▁1973 -3645
무라 -3646
▁오랜 -3647
았던 -3648
터는 -3649
▁튀 -3650
물은 -3651
보드 -3652
▁무장 -3653
▁투입 -3654
▁세웠다 -3655
▁있었는데 -3656
▁계급 -3657
▁북아 -3658
슈타 -3659
해진 -3660
▁함수 -3661
▁했으나 -3662
▁형제 -3663
▁기반으로 -3664
▁정복 -3665
▁머리 -3666
▁낭 -3667
기에는 -3668
하마 -3669
▁길이는 -3670
▁모리 -3671
▁정부가 -3672
스럽 -3673
▁수원 -3674
구와 -3675
소프트 -3676
▁율 -3677
▁타고 -3678
색을 -3679
체육 -3680
▁얻었다 -3681
교통 -3682
하다는 -3683
▁멸망 -3684
▁헤이 -3685
▁내에 -3686
35 -3687
▁국가의 -3688
▁보였다 -3689
▁추측 -3690
▁마이클 -3691
▁이중 -3692
▁교토 -3693
▁프로그램이다 -3694
▁한때 -3695
▁전설 -3696
▁판결 -3697
▁가능성이 -3698
▁이탈리아의 -3699
▁작전 -3700
▁차지했다 -3701
▁덮 -3702
▁솔로 -3703
어들 -3704
동이 -3705
▁논쟁 -3706
▁맡고 -3707
생의 -3708
▁제작에 -3709
▁무기 -3710
▁우크라이나 -3711
▁이끌고 -3712
중앙 -3713
▁창립 -3714
▁없고 -3715
27 -3716
▁반복 -3717
역으로 -3718
▁구별 -3719
조에 -3720
▁대항 -3721
▁욕 -3722
▁1940 -3723
26 -3724
▁넓은 -3725
▁첨 -3726
▁이다 -3727
▁롯 -3728
▁절대 -3729
▁원정 -3730
▁CD -3731
▁세우 -3732
▁주교 -3733
▁오히려 -3734
▁철학 -3735
아버 -3736
▁저지 -3737
다면 -3738
▁관심 -3739
안에 -3740
일이 -3741
▁1974 -3742
op -3743
▁러시아의 -3744
▁힐 -3745
▁아메리카 -3746
나이티 -3747
OS -3748
▁그에게 -3749
령을 -3750
▁공포 -3751
▁시즌을 -3752
▁찍 -3753
▁천문 -3754
자기 -3755
▁도움 -3756
▁만큼 -3757
▁서양 -3758
▁듯 -3759
▁요새 -3760
경기에 -3761
▁의료 -3762
비치 -3763
▁뜻을 -3764
▁결과를 -3765
▁확실 -3766
▁마침 -3767
인민공화국의 -3768
▁오토 -3769
▁점에서 -3770
▁앞서 -3771
언을 -3772
▁인공 -3773
▁일본에서 -3774
▁방출 -3775
▁니콜 -3776
▁시간이 -3777
▁융 -3778
▁스코틀랜드 -3779
제국 -3780
타를 -3781
▁철도역이다 -3782
▁e -3783
산이 -3784
나와 -3785
▁거절 -3786
▁제출 -3787
음에도 -3788
▁인터뷰 -3789
일로 -3790
▁청소년 -3791
▁킹 -3792
▁SBS -3793
▁38 -3794
▁지닌 -3795
▁스크 -3796
만은 -3797
소와 -3798
_4 -3799
▁전쟁이 -3800
당했다 -3801
ce -3802
리노 -3803
▁활발 -3804
국민 -3805
▁하드 -3806
▁세종 -3807
▁1948 -3808
▁청년 -3809
쿠라 -3810
▁베를린 -3811
역은 -3812
▁단백질 -3813
▁전용 -3814
일보 -3815
▁플랫폼 -3816
마이 -3817
▁나와 -3818
▁뽑 -3819
▁됐다 -3820
▁원주 -3821
▁계획을 -3822
▁시작한 -3823
▁1968 -3824
판을 -3825
받고 -3826
▁생겨 -3827
▁북동 -3828
▁1976 -3829
화로 -3830
▁식민지 -3831
28 -3832
시티 -3833
▁아침 -3834
▁산맥 -3835
석은 -3836
▁살고 -3837
▁이후에는 -3838
▁머물 -3839
차로 -3840
▁세인트 -3841
마의 -3842
화와 -3843
▁했으며 -3844
ag -3845
▁유나이티 -3846
리우 -3847
키스탄 -3848
플레이 -3849
▁거대한 -3850
▁통제 -3851
▁숭 -3852
리게 -3853
▁어렵 -3854
면이 -3855
▁끝나 -3856
▁은하 -3857
▁주식 -3858
▁이민 -3859
▁오전 -3860
▁1975 -3861
▁185 -3862
저우 -3863
▁건립 -3864
▁투수 -3865
▁팀을 -3866
▁래 -3867
사인 -3868
▁발표한 -3869
으로도 -3870
국가 -3871
▁지원을 -3872
▁삭 -3873
▁보는 -3874
▁타이완 -3875
네스 -3876
[] -3877
▁부활 -3878
ter -3879
이었으며 -3880
▁차이가 -3881
우리 -3882
▁공산주의 -3883
▁팀이 -3884
리아의 -3885
년에서 -3886
▁점을 -3887
재를 -3888
더라도 -3889
▁고등 -3890
▁대표팀 -3891
프레 -3892
▁뜻한다 -3893
세와 -3894
▁장악 -3895
▁사용하고 -3896
▁강제 -3897
▁기자 -3898
▁에어 -3899
▁각본 -3900
▁온라인 -3901
▁전쟁을 -3902
진은 -3903
▁합의 -3904
▁삼각 -3905
당과 -3906
병을 -3907
앤젤 -3908
▁비록 -3909
▁미디어 -3910
▁1978 -3911
경은 -3912
▁성질 -3913
▁겐 -3914
▁1971 -3915
29 -3916
▁통해서 -3917
국에서 -3918
ST -3919
▁대비 -3920
▁약간 -3921
▁음력 -3922
스러운 -3923
로그 -3924
▁육상 -3925
▁1963 -3926
술을 -3927
리트 -3928
▁이르는 -3929
▁붙여 -3930
▁양성 -3931
▁플라 -3932
익을 -3933
산에 -3934
▁이야기를 -3935
▁운용 -3936
▁트레이 -3937
안의 -3938
▁오래된 -3939
▁레드 -3940
▁아파 -3941
▁상당히 -3942
▁하나님 -3943
▁금속 -3944
만큼 -3945
치에 -3946
▁컵 -3947
▁이른 -3948
리즘 -3949
▁도달 -3950
nd -3951
법이 -3952
시스 -3953
에트 -3954
▁그것을 -3955
의회 -3956
▁건국 -3957
▁취급 -3958
▁응용 -3959
▁포함되어 -3960
이와 -3961
노동 -3962
단과 -3963
▁없다고 -3964
▁반영 -3965
렸고 -3966
▁병사 -3967
▁자격 -3968
지며 -3969
▁신인 -3970
게임 -3971
▁Z -3972
자들 -3973
▁이제 -3974
▁되면 -3975
▁남서 -3976
▁랭 -3977
야구 -3978
▁지낸 -3979
▁미나 -3980
▁로스앤젤 -3981
▁미드 -3982
▁청나라 -3983
▁지식 -3984
▁벨기에 -3985
▁취득 -3986
▁해당하는 -3987
▁이유는 -3988
류가 -3989
▁규칙 -3990
500 -3991
▁위해서는 -3992
형으로 -3993
지이다 -3994
▁약속 -3995
▁갤 -3996
▁출입 -3997
에게서 -3998
▁공화 -3999
▁1969 -4000
분이 -4001
▁통계 -4002
▁강의 -4003
▁건조 -4004
▁그런데 -4005
라를 -4006
증을 -4007
▁소수 -4008
▁의회 -4009
▁트랙 -4010
▁일으켰 -4011
▁처음에는 -4012
수록 -4013
▁주어 -4014
▁150 -4015
▁혼란 -4016
47 -4017
▁말레이 -4018
▁거래 -4019
▁체계 -4020
▁슬로 -4021
▁시간을 -4022
메리 -4023
▁속한다 -4024
연맹 -4025
지인 -4026
▁웨스트 -4027
세로 -4028
▁행성 -4029
▁아테 -4030
▁주고 -4031
▁생명 -4032
ri -4033
▁무엇 -4034
개가 -4035
▁대공 -4036
▁보조 -4037
▁댄 -4038
▁플레이오프 -4039
국제 -4040
▁사망했다 -4041
히는 -4042
론의 -4043
▁높아 -4044
▁호텔 -4045
▁미니 -4046
교를 -4047
▁간단 -4048
▁1946 -4049
▁보냈다 -4050
▁한번 -4051
▁이용한 -4052
▁코미디 -4053
▁독자 -4054
였으나 -4055
▁그레 -4056
▁반발 -4057
▁해서 -4058
▁동남 -4059
▁경계 -4060
▁방법을 -4061
▁보아 -4062
드시 -4063
▁백작 -4064
▁올리 -4065
크를 -4066
지자 -4067
▁부임 -4068
▁400 -4069
▁역을 -4070
▁잇는 -4071
마르 -4072
전문 -4073
▁코로나 -4074
▁전라북도 -4075
▁스티 -4076
선으로 -4077
▁v -4078
▁작품을 -4079
▁동의 -4080
▁트로 -4081
▁대성 -4082
▁프로젝트 -4083
러는 -4084
▁개시 -4085
누스 -4086
기에서 -4087
▁얻어 -4088
영은 -4089
왕이 -4090
음이 -4091
스케 -4092
▁거리 -4093
▁넘는 -4094
▁프리미 -4095
니아의 -4096
▁모여 -4097
▁포기 -4098
마트 -4099
생을 -4100
▁1964 -4101
석이 -4102
▁수사 -4103
▁하면 -4104
▁사건을 -4105
▁두었다 -4106
▁대략 -4107
▁관할한다 -4108
▁경주 -4109
▁빠른 -4110
▁벡 -4111
아이 -4112
▁노부 -4113
▁이용해 -4114
데이 -4115
▁상륙 -4116
▁영입 -4117
▁SK -4118
▁경성 -4119
▁렌 -4120
조사 -4121
▁써 -4122
▁명이 -4123
▁부상 -4124
▁좁 -4125
고는 -4126
▁분쟁 -4127
▁번째로 -4128
_5 -4129
▁베이스 -4130
▁공식적으로 -4131
▁롯데 -4132
▁이것을 -4133
▁인도네시아 -4134
▁국도 -4135
▁장식 -4136
▁후지 -4137
▁대수 -4138
미가 -4139
▁자이 -4140
▁켄 -4141
▁받지 -4142
▁히데 -4143
▁엔터테인 -4144
조합 -4145
▁흡수 -4146
기압 -4147
▁고용 -4148
▁부터 -4149
▁때부터 -4150
리나 -4151
▁문헌 -4152
▁발표하였다 -4153
▁의존 -4154
분류 -4155
▁알게 -4156
▁만주 -4157
차원 -4158
▁후에는 -4159
머스 -4160
▁방향으로 -4161
▁포위 -4162
번째로 -4163
통신 -4164
타는 -4165
모를 -4166
▁한반 -4167
▁그러한 -4168
▁In -4169
▁탈락 -4170
▁and -4171
▁34 -4172
▁공통 -4173
시킨다 -4174
▁시작하여 -4175
▁고속 -4176
▁논의 -4177
▁준우 -4178
▁중세 -4179
ation -4180
미의 -4181
▁활동하였다 -4182
▁도망 -4183
라와 -4184
▁도중 -4185
▁경기는 -4186
▁법칙 -4187
oc -4188
▁사태 -4189
▁프로세 -4190
▁곳에서 -4191
▁쫓 -4192
▁김영 -4193
▁박정 -4194
시에서 -4195
▁챔피언스리그 -4196
▁종류의 -4197
th -4198
▁기대 -4199
▁전주 -4200
▁이집트 -4201
▁명명 -4202
▁요소 -4203
▁불법 -4204
▁것처럼 -4205
▁하나는 -4206
▁유사한 -4207
▁수송 -4208
▁카르 -4209
전과 -4210
▁않았고 -4211
▁브루 -4212
36 -4213
▁국제공항 -4214
▁선보 -4215
▁수집 -4216
▁전공 -4217
igh -4218
▁라인 -4219
베르크 -4220
▁이들의 -4221
▁수상했다 -4222
▁시작으로 -4223
국으로 -4224
▁자살 -4225
▁전철 -4226
▁에도 -4227
▁탈출 -4228
▁도시로 -4229
▁집행 -4230
37 -4231
▁1977 -4232
물이다 -4233
▁1949 -4234
▁참전 -4235
▁보컬 -4236
미를 -4237
▁콘서 -4238
▁자녀 -4239
▁하위 -4240
티노 -4241
박물 -4242
▁보장 -4243
▁빠져 -4244
마을 -4245
▁총독 -4246
▁진입 -4247
▁총리 -4248
▁그레이 -4249
▁이뤄 -4250
아는 -4251
바라 -4252
▁논란이 -4253
▁기록하였다 -4254
뿐만 -4255
▁생긴 -4256
율을 -4257
▁g -4258
명에 -4259
▁기록한 -4260
▁데이비드 -4261
▁해에 -4262
페이 -4263
▁성적 -4264
▁학문 -4265
▁개최된 -4266
▁피아노 -4267
▁출연하였고 -4268
▁제이 -4269
▁역임했다 -4270
▁아들이 -4271
▁때의 -4272
▁특별한 -4273
▁라고 -4274
식에 -4275
▁검찰 -4276
고속도로 -4277
▁앞에 -4278
▁꼭 -4279
동으로 -4280
▁승인 -4281
▁요코 -4282
▁성인 -4283
▁각각의 -4284
종을 -4285
▁1962 -4286
▁벼 -4287
▁일정 -4288
▁채용 -4289
▁기술을 -4290
▁했던 -4291
학에서 -4292
▁받게 -4293
▁출신으로 -4294
▁공을 -4295
▁신성 -4296
▁헨리 -4297
행위 -4298
▁국무 -4299
▁이전의 -4300
▁강점 -4301
▁선수가 -4302
▁주둔 -4303
제와 -4304
차가 -4305
▁예측 -4306
▁보낸 -4307
▁지니 -4308
▁합격 -4309
▁피해를 -4310
▁FA -4311
▁창조 -4312
▁탁 -4313
르가 -4314
파는 -4315
▁저작 -4316
아서 -4317
터를 -4318
▁37 -4319
▁등급 -4320
▁공개된 -4321
라이언 -4322
▁가을 -4323
▁킬 -4324
▁장관 -4325
▁사운드 -4326
진의 -4327
▁마케 -4328
▁1967 -4329
▁대학교에서 -4330
되면 -4331
▁진압 -4332
▁활동했다 -4333
ER -4334
▁소녀 -4335
▁방사 -4336
미야 -4337
▁선교 -4338
▁진화 -4339
▁i -4340
▁지키 -4341
▁어떠 -4342
▁다르다 -4343
▁중이다 -4344
▁셋 -4345
▁달라 -4346
▁후속 -4347
하였지만 -4348
경이 -4349
▁군대를 -4350
▁차트 -4351
▁말았다 -4352
▁운동을 -4353
▁아사 -4354
▁출간 -4355
▁임진 -4356
론은 -4357
▁구속 -4358
공화국 -4359
▁챔피언십 -4360
해도 -4361
▁발매된 -4362
▁빠르게 -4363
▁사용되고 -4364
▁상승 -4365
▁오페 -4366
▁쥐 -4367
▁태어났으며 -4368
▁생존 -4369
▁소비에트 -4370
▁동원 -4371
▁리더 -4372
▁소년 -4373
98 -4374
▁천연 -4375
▁시카 -4376
▁사건이 -4377
통을 -4378
▁관료 -4379
▁소장 -4380
들이다 -4381
없는 -4382
▁열렸다 -4383
▁까 -4384
▁대기 -4385
리히 -4386
▁것이며 -4387
▁갈라 -4388
▁변환 -4389
현의 -4390
▁연출 -4391
▁콘스탄 -4392
ON -4393
▁서버 -4394
▁제대로 -4395
▁복합 -4396
▁왕국의 -4397
적의 -4398
▁저서 -4399
▁층 -4400
▁엠 -4401
▁지붕 -4402
▁나치 -4403
▁반드시 -4404
▁서비스를 -4405
▁깊은 -4406
▁돌아가 -4407
▁진보 -4408
▁합성 -4409
에만 -4410
▁연재 -4411
▁아미 -4412
▁장군 -4413
▁승진 -4414
▁불안 -4415
패를 -4416
▁능력을 -4417
▁목표로 -4418
▁US -4419
▁지어 -4420
▁동작 -4421
▁가서 -4422
▁내의 -4423
▁운전 -4424
▁스미 -4425
▁전파 -4426
▁발견된 -4427
▁라는 -4428
▁여기에 -4429
▁선거에서 -4430
공사 -4431
▁공군 -4432
▁주관 -4433
구에서 -4434
-20 -4435
▁최다 -4436
드라 -4437
▁위반 -4438
기간 -4439
프를 -4440
▁다수의 -4441
▁톰 -4442
조판 -4443
▁좌우 -4444
▁해양 -4445
▁아들로 -4446
▁PC -4447
▁둘째 -4448
▁창단 -4449
ap -4450
▁지급 -4451
▁평가를 -4452
차전 -4453
실은 -4454
리우스 -4455
▁농민 -4456
명과 -4457
▁끝난 -4458
▁이성 -4459
▁늦 -4460
▁남은 -4461
38 -4462
▁맞이 -4463
▁배출 -4464
▁마지막으로 -4465
▁존재하는 -4466
바로 -4467
▁파라 -4468
퍼드 -4469
▁역사적 -4470
브라 -4471
▁꺾 -4472
▁왼쪽 -4473
기까지 -4474
%, -4475
▁독특 -4476
곡을 -4477
▁성능 -4478
▁조별 -4479
학은 -4480
▁사법 -4481
▁포도 -4482
▁나타내는 -4483
▁틀 -4484
조로 -4485
▁차이 -4486
▁양자 -4487
▁정책을 -4488
▁알려졌다 -4489
▁이시 -4490
▁독립운동 -4491
▁세력 -4492
▁목소 -4493
안은 -4494
▁엄청 -4495
타르 -4496
터리 -4497
▁썼다 -4498
▁지방의 -4499
주의를 -4500
▁작품은 -4501
▁경우는 -4502
▁1966 -4503
▁특이 -4504
겠다는 -4505
▁변경되었다 -4506
▁쓰는 -4507
▁그와 -4508
▁지도자 -4509
▁차별 -4510
었다고 -4511
▁가졌다 -4512
▁음식 -4513
▁현역 -4514
질랜드 -4515
▁이후의 -4516
46 -4517
▁형태를 -4518
▁파악 -4519
▁이후로 -4520
▁치러 -4521
상태 -4522
▁맡아 -4523
95 -4524
면으로 -4525
방을 -4526
▁방영된 -4527
토리 -4528
▁군주 -4529
▁트랜 -4530
▁Q -4531
▁우려 -4532
▁받았고 -4533
▁의혹 -4534
▁학습 -4535
부인 -4536
장인 -4537
레오 -4538
▁레오 -4539
평가 -4540
▁어떠한 -4541
▁1965 -4542
▁인기 -4543
▁지냈 -4544
▁미야 -4545
▁조작 -4546
▁체코 -4547
▁잡아 -4548
▁덧 -4549
관계 -4550
선과 -4551
▁국회 -4552
디션 -4553
▁국경 -4554
▁향상 -4555
▁일부는 -4556
계획 -4557
▁검사 -4558
▁베스트 -4559
기념 -4560
▁KBO -4561
▁개신 -4562
▁반도 -4563
▁들어서 -4564
▁개발한 -4565
조직 -4566
▁신뢰 -4567
루는 -4568
리다 -4569
▁작품이다 -4570
▁되자 -4571
▁횡 -4572
▁흉 -4573
입니다 -4574
항을 -4575
▁시에 -4576
▁해산 -4577
▁않으며 -4578
요시 -4579
주의의 -4580
▁일찍 -4581
텐츠 -4582
▁교환 -4583
▁자신들의 -4584
▁스페인의 -4585
▁한국에서 -4586
▁미군 -4587
▁정확한 -4588
▁연구를 -4589
▁홋 -4590
▁풍부 -4591
▁켈 -4592
▁제외하고 -4593
▁빼앗 -4594
린은 -4595
세한 -4596
▁세르비아 -4597
▁계기로 -4598
▁노벨 -4599
▁시즌에 -4600
▁받을 -4601
▁제어 -4602
으니 -4603
▁전통적인 -4604
▁로스앤젤레스 -4605
▁연관 -4606
▁분열 -4607
▁보안 -4608
▁닥 -4609
▁택 -4610
▁상품 -4611
▁대부분은 -4612
▁그들이 -4613
▁민주당 -4614
크가 -4615
원이다 -4616
▁효율 -4617
지컬 -4618
섰다 -4619
▁헤르 -4620
▁없다는 -4621
들목 -4622
▁분할 -4623
으로서의 -4624
▁실질 -4625
▁오른쪽 -4626
사단 -4627
표를 -4628
▁생태 -4629
75 -4630
▁3, -4631
▁코드 -4632
▁것이라 -4633
겠다 -4634
▁글을 -4635
▁학위를 -4636
▁팝 -4637
ice -4638
▁조절 -4639
▁55 -4640
게는 -4641
▁리처 -4642
▁희망 -4643
▁1961 -4644
▁수영 -4645
▁하였으나 -4646
락을 -4647
토의 -4648
▁늘어 -4649
▁갖는 -4650
▁You -4651
▁아버지는 -4652
투스 -4653
▁점점 -4654
▁1000 -4655
▁예비 -4656
▁하였으며 -4657
est -4658
▁인접 -4659
▁삽 -4660
▁무덤 -4661
▁완공 -4662
AR -4663
▁지금의 -4664
ia -4665
▁김일 -4666
▁로켓 -4667
▁한정 -4668
▁급제 -4669
32 -4670
▁뉴질랜드 -4671
건을 -4672
▁테이 -4673
▁이룬다 -4674
▁니시 -4675
났고 -4676
▁오스만 -4677
되었을 -4678
▁이하 -4679
▁묶 -4680
복을 -4681
시험 -4682
일과 -4683
치아 -4684
▁사우 -4685
자료 -4686
▁페이 -4687
고의 -4688
▁마이크로소프트 -4689
▁회전 -4690
▁받는다 -4691
▁통산 -4692
▁대통령이 -4693
▁스탠 -4694
▁장치 -4695
▁학술 -4696
▁보관 -4697
스포 -4698
▁동성 -4699
마는 -4700
▁활성 -4701
▁되며 -4702
산화 -4703
민주당 -4704
▁연대 -4705
▁테러 -4706
▁마침내 -4707
▁페르시아 -4708
▁아라 -4709
▁릴 -4710
▁동아 -4711
▁명확 -4712
▁구현 -4713
신으로 -4714
▁둘러싸 -4715
류는 -4716
인도 -4717
해가 -4718
▁감독을 -4719
▁감독이 -4720
▁것이라는 -4721
사무 -4722
이므로 -4723
▁의미를 -4724
ak -4725
개혁 -4726
▁프로그램을 -4727
▁바라 -4728
▁출범 -4729
진이 -4730
▁올려 -4731
▁예수 -4732
▁위성 -4733
▁스위스 -4734
▁포함하고 -4735
▁올랐 -4736
소송 -4737
재판 -4738
▁사립 -4739
▁주장하였다 -4740
▁신청 -4741
사관 -4742
▁기록이 -4743
책을 -4744
산시 -4745
▁샤를 -4746
온은 -4747
토니 -4748
▁역이다 -4749
▁성을 -4750
▁단독 -4751
-4 -4752
화되어 -4753
art -4754
▁황금 -4755
▁이름의 -4756
▁2. -4757
▁나뉜 -4758
▁훗 -4759
▁도쿠 -4760
▁터미널 -4761
뮤니 -4762
▁나이로 -4763
▁지내 -4764
▁스프 -4765
▁반대로 -4766
▁사단 -4767
▁처형 -4768
천시 -4769
▁메시 -4770
▁이루어졌다 -4771
▁부산광역시 -4772
▁의무 -4773
▁김정 -4774
▁1919 -4775
▁느끼 -4776
▁완료 -4777
▁재배 -4778
코는 -4779
▁교육을 -4780
ie -4781
▁갔다 -4782
▁그렇게 -4783
▁새겨 -4784
▁경제적 -4785
▁마치 -4786
▁포함한다 -4787
92 -4788
사우 -4789
▁질병 -4790
▁영화는 -4791
▁빅토 -4792
▁하나인 -4793
▁문제로 -4794
그라 -4795
시리즈 -4796
▁간행 -4797
▁있음을 -4798
왕은 -4799
한국 -4800
연히 -4801
▁프로듀서 -4802
31 -4803
오스 -4804
▁말에 -4805
임이 -4806
▁시리아 -4807
▁쓸 -4808
▁함락 -4809
▁항성 -4810
▁모양의 -4811
▁1944 -4812
▁캔 -4813
▁형사 -4814
▁성향 -4815
방의 -4816
비스 -4817
▁스카 -4818
▁불렀다 -4819
▁지은 -4820
▁가스 -4821
▁일치 -4822
▁관계가 -4823
씨가 -4824
▁메인 -4825
하였던 -4826
레인 -4827
로마 -4828
▁개막 -4829
▁주전 -4830
▁대개 -4831
▁직업 -4832
▁조선의 -4833
니가 -4834
▁적절 -4835
▁취소 -4836
▁나왔다 -4837
현은 -4838
34 -4839
▁나타난다 -4840
▁아스 -4841
▁후기 -4842
▁프라 -4843
▁인지 -4844
▁인종 -4845
름을 -4846
보살 -4847
▁흘러 -4848
▁유행 -4849
▁작업을 -4850
부터는 -4851
행정 -4852
▁역은 -4853
판이 -4854
▁48 -4855
▁가나 -4856
들로부터 -4857
96 -4858
▁발굴 -4859
▁방법으로 -4860
등을 -4861
▁75 -4862
▁어린이 -4863
하였다고 -4864
▁충청북도 -4865
고기 -4866
▁연산 -4867
▁IS -4868
▁크고 -4869
드레 -4870
차는 -4871
▁포함하여 -4872
▁꼽 -4873
▁제작한 -4874
▁향해 -4875
▁1941 -4876
령이 -4877
▁공업 -4878
▁시위 -4879
▁거두었다 -4880
▁퀸 -4881
▁오랫 -4882
og -4883
▁영상 -4884
▁모아 -4885
▁덴마크 -4886
카이도 -4887
▁활동하고 -4888
▁마크 -4889
▁훌 -4890
이센 -4891
▁소송 -4892
▁알파 -4893
▁당시에는 -4894
개로 -4895
▁네이 -4896
▁안드로 -4897
▁등장인 -4898
▁그때 -4899
시키기 -4900
▁부르는 -4901
▁창원 -4902
올림픽 -4903
터의 -4904
에이 -4905
등의 -4906
사이트 -4907
▁샘 -4908
▁제공한다 -4909
공원 -4910
▁출장 -4911
▁극장 -4912
▁없으며 -4913
터가 -4914
▁훗날 -4915
천군 -4916
▁쳐 -4917
우주 -4918
▁근본 -4919
▁용어 -4920
▁중인 -4921
▁잉글랜드의 -4922
▁추천 -4923
들에서 -4924
▁부대 -4925
▁번의 -4926
▁쓰고 -4927
▁뜻으로 -4928
무부 -4929
▁후보로 -4930
각을 -4931
▁개입 -4932
했었다 -4933
▁음악을 -4934
▁주택 -4935
▁상당한 -4936
▁만들어졌다 -4937
▁누구 -4938
▁속한 -4939
▁분위 -4940
▁오랫동안 -4941
여서 -4942
메리칸 -4943
▁사람들의 -4944
▁뜻하는 -4945
▁고속도로 -4946
▁선정되었다 -4947
▁규모의 -4948
▁감독으로 -4949
▁목록이다 -4950
ly -4951
▁k -4952
▁순위 -4953
▁쓰이는 -4954
▁세계의 -4955
▁코파 -4956
색의 -4957
▁고문 -4958
▁역으로 -4959
▁합쳐 -4960
▁소속으로 -4961
▁지금까지 -4962
▁띄 -4963
▁DNA -4964
▁플래 -4965
▁Ch -4966
▁망명 -4967
▁당초 -4968
▁혐의로 -4969
▁텍사 -4970
▁편찬 -4971
체스터 -4972
▁예정이다 -4973
거운 -4974
교는 -4975
▁무너 -4976
▁사유 -4977
▁시작된 -4978
ne -4979
▁골든 -4980
▁주지 -4981
BA -4982
무늬 -4983
▁보병 -4984
▁지상역이다 -4985
▁저술 -4986
▁희생 -4987
▁1958 -4988
▁1947 -4989
-5 -4990
▁혼합 -4991
▁찰스 -4992
▁아르헨티나 -4993
▁아이돌 -4994
화되었다 -4995
주었다 -4996
▁빙 -4997
▁호는 -4998
▁해리 -4999
▁프로그래 -5000
64 -5001
▁출시되었다 -5002
▁행위 -5003
99 -5004
▁1956 -5005
▁프리미어 -5006
▁경우에 -5007
▁l -5008
레옹 -5009
▁와이 -5010
▁실현 -5011
▁내용은 -5012
▁다다 -5013
▁프린 -5014
▁명을 -5015
▁유기 -5016
;/ -5017
▁기둥 -5018
네이 -5019
▁밀도는 -5020
▁입장을 -5021
▁발견되었다 -5022
▁발발 -5023
▁왕조 -5024
동맹 -5025
였지만 -5026
▁미사일 -5027
AT -5028
쿠스 -5029
▁중화민국 -5030
▁언제 -5031
▁등장한다 -5032
▁픽 -5033
▁시작한다 -5034
화한 -5035
▁국민의 -5036
▁승객 -5037
▁접촉 -5038
▁침략 -5039
카는 -5040
▁처벌 -5041
ab -5042
기록 -5043
양을 -5044
왜란 -5045
▁화재 -5046
우의 -5047
▁이르러 -5048
▁계통 -5049
▁무시 -5050
▁가지는 -5051
▁아티 -5052
▁안에서 -5053
르기 -5054
▁공헌 -5055
▁마르크 -5056
미니 -5057
리그의 -5058
고가 -5059
▁마무 -5060
론이 -5061
▁안동 -5062
▁펼쳐 -5063
자들에게 -5064
▁방정 -5065
비로 -5066
▁고유 -5067
▁높이는 -5068
▁죽었다 -5069
자로서 -5070
▁Re -5071
▁화물 -5072
정과 -5073
▁자극 -5074
▁콤 -5075
▁확립 -5076
▁으로 -5077
성군 -5078
▁크로아 -5079
▁침입 -5080
우수 -5081
슨의 -5082
▁가치 -5083
IA -5084
▁졸업하고 -5085
중의 -5086
▁바깥 -5087
▁신호 -5088
▁지켜 -5089
루가 -5090
▁임대 -5091
▁확률 -5092
동과 -5093
▁일부를 -5094
▁1939 -5095
▁지시 -5096
▁골을 -5097
▁뚜 -5098
▁사임 -5099
▁단편 -5100
인들을 -5101
▁대한민국에서는 -5102
▁사냥 -5103
▁일어났다 -5104
총독 -5105
▁변화를 -5106
▁상위 -5107
▁길을 -5108
▁제일 -5109
이었지만 -5110
▁| -5111
ist -5112
로와 -5113
▁철수 -5114
▁받아들여 -5115
치게 -5116
1, -5117
▁섞 -5118
76 -5119
▁인권 -5120
▁논리 -5121
▁스마트 -5122
체와 -5123
내에 -5124
가타 -5125
▁AFC -5126
▁도와 -5127
▁나폴레옹 -5128
IV -5129
영의 -5130
식과 -5131
▁h -5132
▁군의 -5133
▁올렸다 -5134
39 -5135
▁새롭게 -5136
▁도요 -5137
▁긍 -5138
▁주최 -5139
▁임진왜란 -5140
se -5141
▁유일하게 -5142
▁정기 -5143
▁성적을 -5144
85 -5145
해져 -5146
▁독특한 -5147
라며 -5148
▁명칭은 -5149
▁뜨 -5150
▁일본에 -5151
▁이들을 -5152
▁촌 -5153
▁거듭 -5154
▁다운 -5155
트릭 -5156
▁곡을 -5157
▁조종 -5158
▁+ -5159
▁단위 -5160
▁앉 -5161
▁부분을 -5162
▁다스 -5163
되었다가 -5164
▁기울 -5165
▁변형 -5166
▁정지 -5167
▁심각한 -5168
▁특성 -5169
▁사용된 -5170
▁주어진 -5171
▁캐나다의 -5172
▁나들목 -5173
▁이기 -5174
▁작곡가 -5175
석의 -5176
▁뮤지컬 -5177
▁인구가 -5178
타운 -5179
▁가담 -5180
▁잡지 -5181
격한 -5182
▁진행되었다 -5183
▁단계 -5184
▁얻은 -5185
▁루이스 -5186
함과 -5187
▁기회를 -5188
▁묵 -5189
▁대리 -5190
ight -5191
▁임금 -5192
목록 -5193
▁가치가 -5194
▁진주 -5195
고등 -5196
안이 -5197
시장 -5198
파를 -5199
▁상황에서 -5200
▁분명 -5201
▁않게 -5202
86 -5203
▁1954 -5204
▁갔 -5205
▁곡은 -5206
▁브라운 -5207
▁저녁 -5208
▁후원 -5209
▁공연을 -5210
▁제공하는 -5211
▁대표하는 -5212
▁해당한다 -5213
▁구글 -5214
▁닌 -5215
디는 -5216
▁많아 -5217
▁후계 -5218
▁멀리 -5219
▁어려운 -5220
실의 -5221
디움 -5222
▁부상을 -5223
▁닛 -5224
베르트 -5225
▁개설 -5226
▁체제 -5227
▁받았으며 -5228
스럽게 -5229
▁노래를 -5230
▁부하 -5231
▁로드 -5232
▁드라이 -5233
▁지역으로 -5234
▁코르 -5235
▁정치인이다 -5236
▁놓고 -5237
▁한국어 -5238
역의 -5239
에른 -5240
야의 -5241
▁광복 -5242
▁영웅 -5243
▁1952 -5244
▁인쇄 -5245
▁가문의 -5246
층의 -5247
▁지위를 -5248
▁상태로 -5249
스트로 -5250
▁타임 -5251
AS -5252
▁전형 -5253
정치 -5254
▁총선 -5255
▁다케 -5256
▁상대적으로 -5257
▁매일 -5258
▁어디 -5259
학에 -5260
▁헝가리 -5261
▁소방 -5262
▁정비 -5263
... -5264
보고 -5265
▁노출 -5266
티오 -5267
▁미드필 -5268
▁to -5269
▁아테네 -5270
▁중에는 -5271
론에 -5272
▁유럽의 -5273
프랑 -5274
▁카드 -5275
양의 -5276
▁교향 -5277
▁등판 -5278
▁군이다 -5279
▁앞에서 -5280
▁이루고 -5281
▁금메달을 -5282
아르 -5283
▁어깨 -5284
▁포켓 -5285
연을 -5286
▁심지 -5287
자키 -5288
구이다 -5289
▁보았다 -5290
▁행동을 -5291
▁곽 -5292
구치 -5293
▁무한 -5294
관과 -5295
▁설립되었다 -5296
▁시나 -5297
▁인디언 -5298
▁사람들을 -5299
례를 -5300
카가 -5301
함이 -5302
▁재건 -5303
▁내셔널 -5304
▁따로 -5305
▁알바 -5306
▁다르게 -5307
▁선생 -5308
되는데 -5309
▁특정한 -5310
▁그래픽 -5311
▁도모 -5312
▁정차 -5313
생물 -5314
▁한글 -5315
▁나아가 -5316
▁시카고 -5317
-19 -5318
▁절반 -5319
▁폐쇄 -5320
▁자리잡 -5321
▁편이다 -5322
어야 -5323
강의 -5324
▁준다 -5325
▁장교 -5326
슬러 -5327
주의적 -5328
▁바뀌었다 -5329
▁공사 -5330
▁가와 -5331
▁내렸다 -5332
▁시상 -5333
▁나타내 -5334
▁활약을 -5335
▁녹색 -5336
▁연결하는 -5337
▁돕 -5338
▁앵 -5339
속에 -5340
▁시인 -5341
자유 -5342
▁학살 -5343
▁현상 -5344
▁상하이 -5345
▁리버 -5346
하지는 -5347
65 -5348
▁싱가 -5349
▁이혼 -5350
▁하에 -5351
▁유형문화재 -5352
베스 -5353
▁커뮤니 -5354
▁천주교 -5355
▁해야 -5356
▁일으키 -5357
▁만들고 -5358
VD -5359
▁득표 -5360
▁미드필더 -5361
법으로 -5362
▁벌어 -5363
▁장남 -5364
▁노스 -5365
혁명 -5366
▁피터 -5367
▁들고 -5368
▁나뉜다 -5369
▁사업을 -5370
▁연구에 -5371
▁여객철도 -5372
츠는 -5373
▁원소 -5374
▁다수 -5375
타의 -5376
▁랜 -5377
▁법정 -5378
포를 -5379
▁보유하고 -5380
▁조선시대 -5381
▁평안 -5382
▁효과를 -5383
▁추구 -5384
▁크기 -5385
▁맡은 -5386
데르 -5387
▁개조 -5388
▁영업 -5389
▁서울대학교 -5390
족이 -5391
▁상을 -5392
▁포항 -5393
▁타이거 -5394
▁투쟁 -5395
▁유한 -5396
▁돼 -5397
▁탈퇴 -5398
루를 -5399
▁팽 -5400
;, -5401
▁1959 -5402
▁한나라 -5403
미르 -5404
▁홍보 -5405
▁프로이센 -5406
▁다소 -5407
▁듣고 -5408
▁시리즈의 -5409
▁밝히 -5410
▁설치된 -5411
▁소련의 -5412
되었다고 -5413
▁단어 -5414
▁박정희 -5415
▁개신교 -5416
▁도시이다 -5417
▁라이트 -5418
▁관여 -5419
▁중부 -5420
▁아름다운 -5421
▁바이에른 -5422
파가 -5423
▁프랑크 -5424
▁원인 -5425
▁단지 -5426
▁동해 -5427
94 -5428
▁블라 -5429
▁김대 -5430
▁행렬 -5431
▁데뷔하였다 -5432
우가 -5433
▁설득 -5434
▁초기의 -5435
▁선전 -5436
▁일시 -5437
었기 -5438
▁64 -5439
▁더블 -5440
▁분노 -5441
▁통상 -5442
▁반란을 -5443
▁자이언 -5444
▁뮌 -5445
▁프로토 -5446
▁파트 -5447
▁대회에 -5448
▁다음의 -5449
키가 -5450
▁사망한 -5451
▁돈을 -5452
if -5453
ove -5454
▁관련이 -5455
▁발생하는 -5456
ess -5457
▁두려 -5458
▁전직 -5459
▁필요가 -5460
▁나고 -5461
▁시드 -5462
▁작품으로 -5463
동생 -5464
▁전력 -5465
▁주장한다 -5466
한의 -5467
▁경남 -5468
▁해상 -5469
▁시스템을 -5470
▁도시의 -5471
▁선수단 -5472
▁그로 -5473
하므로 -5474
▁떠났다 -5475
▁엄청난 -5476
▁160 -5477
▁대부분이 -5478
페르 -5479
▁징역 -5480
련의 -5481
속의 -5482
▁군인 -5483
▁존재하지 -5484
▁테스트 -5485
▁말레이시아 -5486
▁참여했다 -5487
레나 -5488
별로 -5489
▁앤드 -5490
▁레알 -5491
▁가진다 -5492
▁세력을 -5493
▁소멸 -5494
▁연예 -5495
▁미국과 -5496
▁1942 -5497
키의 -5498
피스 -5499
33 -5500
▁겹 -5501
▁춤 -5502
주고 -5503
ub -5504
▁의심 -5505
▁기다 -5506
▁주간 -5507
역이 -5508
▁에르 -5509
▁일컫 -5510
공의 -5511
카의 -5512
점의 -5513
▁자전 -5514
▁여겨진다 -5515
▁데에 -5516
▁공화국의 -5517
제도 -5518
▁나누어 -5519
▁부친 -5520
비에 -5521
▁궤도 -5522
▁사실이 -5523
강에 -5524
▁지금은 -5525
100 -5526
▁가이 -5527
에서만 -5528
▁적합 -5529
치지 -5530
▁투어 -5531
색으로 -5532
▁신학 -5533
▁오직 -5534
▁올림픽에 -5535
▁돌아와 -5536
▁운영하고 -5537
▁1943 -5538
▁도전 -5539
▁나타낸다 -5540
▁의도 -5541
▁벗어나 -5542
▁에드워드 -5543
가시 -5544
▁스케 -5545
▁김성 -5546
▁한일 -5547
▁역사를 -5548
▁참가했다 -5549
리며 -5550
▁수요 -5551
▁루마 -5552
루의 -5553
▁성공을 -5554
▁오프 -5555
▁120 -5556
리언 -5557
▁리처드 -5558
▁전까지 -5559
▁깃 -5560
▁해도 -5561
오의 -5562
▁곳으로 -5563
▁벌어진 -5564
▁NH -5565
대장 -5566
ine -5567
▁비상 -5568
시스코 -5569
타로 -5570
▁가게 -5571
물에 -5572
▁스키 -5573
▁내용이 -5574
▁루트 -5575
▁속의 -5576
▁프리드리 -5577
▁첼 -5578
▁몰아 -5579
마를 -5580
보호 -5581
▁파르 -5582
▁완전한 -5583
▁대통령의 -5584
코스 -5585
▁논문 -5586
▁세상을 -5587
자동차 -5588
▁대통령은 -5589
▁음반은 -5590
▁긍정 -5591
▁발언 -5592
▁파워 -5593
▁발탁 -5594
바일 -5595
▁집권 -5596
▁웅 -5597
족은 -5598
▁재개 -5599
▁1953 -5600
범위 -5601
▁살인 -5602
▁이로써 -5603
즈가 -5604
▁신체 -5605
▁나타나는 -5606
▁창작 -5607
▁필요하다 -5608
▁정권 -5609
▁밥 -5610
▁정교 -5611
▁화이트 -5612
▁비례 -5613
리안 -5614
▁전부 -5615
▁1955 -5616
▁프랭 -5617
문제 -5618
▁바닥 -5619
EC -5620
▁힌 -5621
후에 -5622
▁기록은 -5623
▁못하는 -5624
부대 -5625
▁시사 -5626
▁않지만 -5627
▁굳 -5628
공산 -5629
▁1936 -5630
78 -5631
다의 -5632
▁부담 -5633
▁선박 -5634
▁화성 -5635
망을 -5636
▁메이지 -5637
▁메달 -5638
▁병합 -5639
격으로 -5640
▁출연하였다 -5641
▁인용 -5642
▁갖추고 -5643
▁나타났다 -5644
▁못하였다 -5645
▁승려 -5646
▁연고 -5647
▁자리에 -5648
▁잠수 -5649
▁특징이다 -5650
▁임무 -5651
▁액션 -5652
소설 -5653
▁이름이다 -5654
토는 -5655
▁있었기 -5656
▁있었다고 -5657
등이 -5658
▁일어나는 -5659
▁전면 -5660
▁외국인 -5661
▁석유 -5662
▁빌보드 -5663
듯이 -5664
▁높다 -5665
▁39 -5666
▁크리 -5667
▁쓰여 -5668
▁정체 -5669
▁1910 -5670
었을 -5671
ue -5672
▁여섯 -5673
▁명단 -5674
라에 -5675
▁츠 -5676
▁패션 -5677
▁사마 -5678
▁대체로 -5679
▁천안 -5680
니스탄 -5681
▁포스트 -5682
pe -5683
▁민법 -5684
▁이른다 -5685
▁음반이다 -5686
▁디스 -5687
▁남아프리카 -5688
▁주장을 -5689
▁대장 -5690
거래 -5691
판은 -5692
▁점이 -5693
▁무게 -5694
▁문을 -5695
▁텍사스 -5696
▁맞아 -5697
▁즈 -5698
직에 -5699
▁AT -5700
▁쿠데 -5701
▁이끌었다 -5702
▁동안에 -5703
▁원주민 -5704
▁속해 -5705
틀러 -5706
▁SS -5707
▁분해 -5708
과정 -5709
▁세부 -5710
▁일정한 -5711
ive -5712
▁개칭 -5713
▁지지를 -5714
서와 -5715
▁동방 -5716
▁태국 -5717
▁보여준다 -5718
▁알고리즘 -5719
_6 -5720
왕을 -5721
▁구입 -5722
▁눈에 -5723
▁캠퍼 -5724
▁노르웨이 -5725
▁끌어 -5726
파로 -5727
▁왕이 -5728
▁큐 -5729
▁Th -5730
▁종사 -5731
▁즉시 -5732
▁사용하였다 -5733
독립 -5734
▁구매 -5735
▁전쟁의 -5736
감독 -5737
▁본질 -5738
▁로마의 -5739
▁조지아 -5740
▁1957 -5741
▁남쪽으로 -5742
▁느낌 -5743
▁순간 -5744
▁환승 -5745
▁바르셀 -5746
▁참가한 -5747
▁스티븐 -5748
▁세계적으로 -5749
▁가슴 -5750
▁닫 -5751
▁65 -5752
▁연습 -5753
▁부분이 -5754
▁이후에도 -5755
▁다리 -5756
▁얻을 -5757
▁전쟁에 -5758
▁책임을 -5759
▁조선총독 -5760
위와 -5761
▁도덕 -5762
남도의 -5763
그램 -5764
▁사우스 -5765
코의 -5766
▁기소 -5767
▁1900 -5768
행성 -5769
▁카운티 -5770
▁임의의 -5771
관에서 -5772
▁멘 -5773
▁김종 -5774
되어야 -5775
종합 -5776
▁티베 -5777
가인 -5778
▁부진 -5779
▁사건은 -5780
▁사용했다 -5781
▁되는데 -5782
▁핑 -5783
▁가수이다 -5784
▁선임 -5785
▁남겼다 -5786
장애 -5787
▁초에 -5788
▁말하는 -5789
=" -5790
▁공중 -5791
▁보건 -5792
▁탐사 -5793
▁게다가 -5794
▁넓이는 -5795
산과 -5796
▁위로 -5797
▁능력 -5798
▁대의 -5799
▁기록하며 -5800
▁권력 -5801
▁개체 -5802
만으로 -5803
▁전쟁에서 -5804
학자이다 -5805
느냐 -5806
평균 -5807
▁무사 -5808
▁호소 -5809
▁이전에는 -5810
▁복원 -5811
▁작동 -5812
▁수상하였다 -5813
▁아들인 -5814
▁짜 -5815
인에게 -5816
▁명나라 -5817
▁동북 -5818
▁양의 -5819
▁1914 -5820
▁전동차 -5821
▁다음날 -5822
▁후쿠오카 -5823
▁표면 -5824
▁명령을 -5825
처를 -5826
▁상황을 -5827
전투 -5828
호에 -5829
역에서 -5830
▁에피소드 -5831
▁빚 -5832
▁글로벌 -5833
▁지속적으로 -5834
학자들은 -5835
▁그것이 -5836
▁터널 -5837
BM -5838
년도 -5839
과대학 -5840
▁지니고 -5841
▁왕의 -5842
중학교는 -5843
▁영화배우이다 -5844
▁벡터 -5845
목을 -5846
▁일부가 -5847
사이다 -5848
▁이상이 -5849
백만 -5850
본부 -5851
▁바둑 -5852
영을 -5853
89 -5854
실이 -5855
▁이들이 -5856
▁만든다 -5857
▁방식을 -5858
▁비롯하여 -5859
레는 -5860
년부터는 -5861
▁동양 -5862
▁수의 -5863
IN -5864
평을 -5865
▁밀려 -5866
▁똑 -5867
▁농구 -5868
여래 -5869
▁전남 -5870
▁미쓰 -5871
▁수리 -5872
하시 -5873
공을 -5874
받는 -5875
▁곳이다 -5876
▁어머니는 -5877
미술 -5878
▁드래프트 -5879
▁로봇 -5880
▁연간 -5881
▁유효 -5882
▁의식 -5883
▁측면 -5884
▁파크 -5885
린의 -5886
더스 -5887
▁롱 -5888
▁보스 -5889
▁섬의 -5890
▁불렸다 -5891
중을 -5892
▁달려 -5893
마가 -5894
▁WW -5895
▁알레 -5896
▁완벽 -5897
▁만다 -5898
▁1938 -5899
▁IC -5900
▁방해 -5901
▁운영하는 -5902
▁돌려 -5903
활동을 -5904
▁만한 -5905
▁전북 -5906
▁화려 -5907
▁나온다 -5908
너스 -5909
▁복무 -5910
▁브레 -5911
▁사항 -5912
▁토론토 -5913
▁기록되어 -5914
▁암컷 -5915
▁북쪽으로 -5916
▁분야에서 -5917
▁의학 -5918
▁유치 -5919
▁권력을 -5920
클리 -5921
▁선출되었다 -5922
▁강릉 -5923
▁유학 -5924
▁자금 -5925
▁장수 -5926
▁세웠 -5927
▁여러가지 -5928
▁방지 -5929
학교를 -5930
▁47 -5931
만한 -5932
질이 -5933
▁없을 -5934
▁포켓몬 -5935
청은 -5936
▁추기 -5937
▁갑자기 -5938
▁상속 -5939
▁추가로 -5940
▁성경 -5941
튜브 -5942
▁부분은 -5943
계약 -5944
▁전송 -5945
▁미국은 -5946
▁힙 -5947
▁문제에 -5948
▁않으면 -5949
동물 -5950
▁번호는 -5951
슬링 -5952
▁싸움 -5953
▁책을 -5954
▁강등 -5955
▁공주 -5956
▁사퇴 -5957
▁이르렀다 -5958
▁협회 -5959
▁남아있 -5960
44 -5961
▁수석 -5962
▁올스타 -5963
▁지구의 -5964
▁위치를 -5965
우를 -5966
▁밝혀졌다 -5967
감이 -5968
▁서구 -5969
▁상태에서 -5970
▁크다 -5971
▁재학 -5972
▁올림픽에서 -5973
질의 -5974
▁복잡한 -5975
▁AP -5976
▁참고 -5977
환으로 -5978
호와 -5979
크래프트 -5980
▁46 -5981
▁초기에 -5982
▁1918 -5983
▁장비 -5984
사람 -5985
97 -5986
▁그리하여 -5987
니즘 -5988
중한 -5989
▁사용자 -5990
지마 -5991
▁맞서 -5992
all -5993
▁싸우 -5994
▁여성의 -5995
▁드래 -5996
▁화합 -5997
즈를 -5998
타마 -5999
▁스트리 -6000
▁서술 -6001
▁출전하여 -6002
츠의 -6003
▁1951 -6004
결승 -6005
▁차지하고 -6006
▁44 -6007
▁화산 -6008
베리아 -6009
▁크레 -6010
▁개별 -6011
▁내세 -6012
▁디스크 -6013
▁마무리 -6014
▁들어갔다 -6015
이치 -6016
▁끝내 -6017
▁대한민국에서 -6018
▁물을 -6019
▁비트 -6020
▁검토 -6021
▁토지 -6022
▁게임을 -6023
▁이른바 -6024
▁폴리 -6025
▁해발 -6026
▁프리드리히 -6027
▁받아들이 -6028
▁히로시마 -6029
▁대량 -6030
▁선포 -6031
다란 -6032
장관 -6033
▁1937 -6034
ID -6035
펙트 -6036
▁1932 -6037
▁청주 -6038
▁확산 -6039
했다가 -6040
▁란 -6041
▁뮌헨 -6042
▁포트 -6043
▁한자 -6044
달러 -6045
▁히트 -6046
되지만 -6047
중인 -6048
▁커버 -6049
▁아래와 -6050
ore -6051
our -6052
노스 -6053
▁이루는 -6054
▁발간 -6055
▁아이디 -6056
▁최우수 -6057
어버 -6058
▁내놓 -6059
▁말이 -6060
▁접한다 -6061
▁윗 -6062
모가 -6063
▁아오 -6064
▁후임 -6065
분으로 -6066
▁신화 -6067
▁이명 -6068
▁근처에 -6069
▁유나이티드 -6070
▁직원 -6071
사전 -6072
▁향토 -6073
▁되돌 -6074
▁HD -6075
포로 -6076
▁따서 -6077
▁암호 -6078
▁유배 -6079
▁덧붙 -6080
▁주기 -6081
▁꾸준 -6082
▁장소 -6083
▁조카 -6084
▁아메리칸 -6085
에선 -6086
▁나왔 -6087
▁십자 -6088
3, -6089
▁문제는 -6090
▁광범위 -6091
▁소식을 -6092
씨를 -6093
▁그곳에서 -6094
렸으며 -6095
▁1935 -6096
월의 -6097
▁없게 -6098
▁입장 -6099
▁재임 -6100
▁이웃 -6101
폴리스 -6102
▁당시에 -6103
▁오페라 -6104
▁이라크 -6105
▁보물 -6106
▁넷 -6107
양이 -6108
▁성남 -6109
▁직전 -6110
는지 -6111
주의자 -6112
▁입단하였다 -6113
▁고위 -6114
▁순환 -6115
▁연결되어 -6116
▁형식으로 -6117
강을 -6118
▁코치 -6119
▁핫 -6120
비시 -6121
열을 -6122
▁개방 -6123
발을 -6124
▁클레 -6125
▁엘리자 -6126
특별자치 -6127
▁자원 -6128
▁현지 -6129
▁경기장 -6130
▁달하는 -6131
기지 -6132
▁추방 -6133
렬한 -6134
▁일으켜 -6135
▁격파 -6136
▁배포 -6137
▁텐 -6138
▁스프링 -6139
▁왕조의 -6140
공간 -6141
▁일은 -6142
▁사전 -6143
집을 -6144
▁DVD -6145
▁조건을 -6146
▁방법은 -6147
▁영국에서 -6148
▁상실 -6149
▁개념을 -6150
▁곱 -6151
너는 -6152
▁갖는다 -6153
▁언덕 -6154
▁전투를 -6155
천만 -6156
아나 -6157
파와 -6158
비히 -6159
조건 -6160
87 -6161
▁하기도 -6162
조차 -6163
ell -6164
▁카라 -6165
▁필수 -6166
군에서 -6167
▁위에서 -6168
▁이온 -6169
▁항의 -6170
▁아버지의 -6171
스트라 -6172
▁무대 -6173
▁쌀 -6174
▁단순한 -6175
쥐는 -6176
▁기병 -6177
▁상관 -6178
▁폭탄 -6179
하여야 -6180
▁사랑을 -6181
형에 -6182
▁교류 -6183
▁내가 -6184
▁모바일 -6185
▁겉 -6186
▁대상이 -6187
▁유고 -6188
▁회장 -6189
법인 -6190
제르 -6191
율이 -6192
▁칼리 -6193
▁화장 -6194
가락 -6195
슬라 -6196
ul -6197
관광 -6198
친다 -6199
▁탄핵 -6200
▁하여금 -6201
▁인도의 -6202
▁전문가 -6203
▁했는데 -6204
본을 -6205
▁입고 -6206
파이 -6207
▁양쪽 -6208
▁지향 -6209
▁역임하였다 -6210
▁참여한 -6211
됨에 -6212
▁개국 -6213
▁태양의 -6214
▁충분히 -6215
IC -6216
▁탄압 -6217
보이 -6218
▁오키 -6219
▁사건으로 -6220
▁분기 -6221
▁수소 -6222
로에 -6223
목에 -6224
바는 -6225
▁체육 -6226
▁프라이 -6227
▁1933 -6228
▁사회의 -6229
▁계속해서 -6230
▁보편 -6231
▁미리 -6232
▁후인 -6233
비디오 -6234
▁개인의 -6235
름이 -6236
▁성직 -6237
▁오카 -6238
▁베어 -6239
았으나 -6240
▁최대의 -6241
하기를 -6242
▁갈색 -6243
▁서쪽으로 -6244
▁사람들에게 -6245
▁덜 -6246
▁거짓 -6247
이닝 -6248
▁골드 -6249
▁클라 -6250
▁쾌 -6251
▁독립을 -6252
되게 -6253
신문 -6254
▁흑인 -6255
▁바르셀로나 -6256
연대 -6257
▁업무를 -6258
▁고객 -6259
스팅 -6260
▁크루 -6261
▁신도 -6262
▁연료 -6263
▁가까이 -6264
▁특징을 -6265
야는 -6266
▁권리를 -6267
▁그들을 -6268
연의 -6269
▁동쪽으로 -6270
민의 -6271
▁수십 -6272
▁결의 -6273
▁분자 -6274
▁중학교이다 -6275
▁산화 -6276
▁나라의 -6277
▁명칭을 -6278
▁우리는 -6279
▁의미하는 -6280
나카 -6281
서양 -6282
▁가설 -6283
▁열차가 -6284
▁CP -6285
▁위상 -6286
▁좋지 -6287
▁1928 -6288
▁웨일 -6289
▁반응을 -6290
▁포함하는 -6291
▁몸을 -6292
▁알리 -6293
▁본격적으로 -6294
▁42 -6295
▁가상 -6296
▁위키 -6297
▁대표로 -6298
역에 -6299
즈니 -6300
이상 -6301
테이 -6302
▁재능 -6303
▁오다 -6304
▁마틴 -6305
▁우수 -6306
▁인천광역시 -6307
▁조선민주주의인민공화국의 -6308
비트 -6309
▁북아메리카 -6310
코프 -6311
▁마음을 -6312
▁앞으로 -6313
령의 -6314
▁도서관 -6315
AM -6316
베리 -6317
-10 -6318
ill -6319
▁1924 -6320
▁부동 -6321
▁억제 -6322
▁작사 -6323
되거나 -6324
▁단순히 -6325
▁돌아온 -6326
▁사건의 -6327
▁걸친 -6328
▁4, -6329
▁아래에 -6330
▁준우승 -6331
▁밝은 -6332
신인 -6333
ers -6334
▁노선을 -6335
▁삶을 -6336
▁별도의 -6337
▁웃 -6338
▁영화의 -6339
목으로 -6340
▁개척 -6341
▁행복 -6342
▁교회의 -6343
가능 -6344
마에 -6345
ain -6346
▁손을 -6347
▁영화제 -6348
▁제도를 -6349
▁상태를 -6350
▁넣어 -6351
▁스탈 -6352
▁스타디움 -6353
▁멈 -6354
▁기상 -6355
▁위원회 -6356
▁이어지는 -6357
투아 -6358
모는 -6359
▁발음 -6360
AN -6361
▁낸 -6362
▁출신이다 -6363
방향 -6364
▁엑스 -6365
▁재생 -6366
▁로렌 -6367
▁예산 -6368
우스는 -6369
▁가깝 -6370
▁입력 -6371
계와 -6372
리브 -6373
기인 -6374
▁마드리드 -6375
키퍼 -6376
The -6377
▁이재 -6378
▁멀티 -6379
▁비잔 -6380
▁차단 -6381
▁검색 -6382
▁고종 -6383
▁임무를 -6384
속은 -6385
클레 -6386
▁유통 -6387
43 -6388
차의 -6389
▁56 -6390
▁입법 -6391
였는데 -6392
▁보이지 -6393
▁포함된다 -6394
▁뻗 -6395
▁수컷 -6396
실로 -6397
▁영구 -6398
▁콘텐츠 -6399
▁상주 -6400
▁지불 -6401
▁집에 -6402
▁기본적으로 -6403
▁모토 -6404
미아 -6405
-6 -6406
▁출연했다 -6407
▁Al -6408
▁한성 -6409
▁일으켰다 -6410
안전 -6411
▁중추 -6412
▁토착 -6413
▁보험 -6414
환경 -6415
93 -6416
▁이벤 -6417
로서는 -6418
▁상대식 -6419
프란 -6420
당으로 -6421
88 -6422
▁서서 -6423
▁원인이 -6424
▁하인 -6425
▁인기가 -6426
슬로 -6427
▁해설 -6428
와이 -6429
▁자라 -6430
재로 -6431
▁장르 -6432
주의는 -6433
▁강남 -6434
▁백제 -6435
▁수술 -6436
▁칠레 -6437
국과 -6438
시스템 -6439
▁프로그래밍 -6440
▁박물관 -6441
▁정부에 -6442
군에게 -6443
▁도서 -6444
▁함경 -6445
▁세계대전 -6446
▁있으므로 -6447
▁Be -6448
▁아동 -6449
▁사람들 -6450
조참 -6451
해에 -6452
▁그렇다면 -6453
ard -6454
▁가난 -6455
▁며 -6456
▁역에서 -6457
▁보스턴 -6458
▁맨체스터 -6459
▁일련의 -6460
하를 -6461
▁실천 -6462
▁링크 -6463
▁아틀 -6464
▁콜롬 -6465
▁경기가 -6466
▁풋 -6467
같이 -6468
▁구멍 -6469
환을 -6470
▁하나가 -6471
노는 -6472
▁경향이 -6473
▁드물 -6474
▁사찰 -6475
▁팔레 -6476
드리아 -6477
▁이상을 -6478
▁양산 -6479
▁이즈 -6480
41 -6481
▁되기 -6482
▁게임의 -6483
층에 -6484
▁지중 -6485
▁예방 -6486
▁보여주는 -6487
브로 -6488
▁노동자 -6489
▁짝 -6490
구조 -6491
▁성공했다 -6492
end -6493
▁비판을 -6494
▁신의 -6495
▁상호작용 -6496
▁놓여 -6497
▁대부분을 -6498
▁식품 -6499
▁그녀가 -6500
▁파키스탄 -6501
프라 -6502
▁철거 -6503
▁메모리 -6504
▁1934 -6505
▁덩 -6506
▁이외에도 -6507
▁블록 -6508
▁일상 -6509
바의 -6510
▁용인 -6511
크스 -6512
▁꼬리 -6513
▁복음 -6514
▁결승전 -6515
▁거느 -6516
▁골키퍼 -6517
▁웹사이트 -6518
▁상하 -6519
▁자랑 -6520
▁아버지가 -6521
42 -6522
보험 -6523
▁원시 -6524
▁리그의 -6525
OR -6526
로지 -6527
▁3. -6528
▁크로아티아 -6529
미사 -6530
▁열매 -6531
▁모터 -6532
나르 -6533
▁초청 -6534
▁바이러스 -6535
▁고급 -6536
▁조선시대의 -6537
▁소프트웨 -6538
▁틈 -6539
▁공장 -6540
하기에 -6541
지면 -6542
▁뛰고 -6543
▁병원 -6544
석탑 -6545
▁이외의 -6546
▁주장하는 -6547
▁그라 -6548
▁남녀 -6549
▁대대 -6550
▁속도 -6551
▁안토니 -6552
▁최근에는 -6553
다시 -6554
침을 -6555
▁주력 -6556
▁현존 -6557
▁일종의 -6558
▁마주 -6559
▁공산당 -6560
▁편의 -6561
▁나뉘어 -6562
▁대다 -6563
▁사가 -6564
중이다 -6565
타카 -6566
▁청구 -6567
법과 -6568
용의 -6569
▁그러므로 -6570
▁인구의 -6571
▁카운티는 -6572
▁이익 -6573
▁전화 -6574
인가 -6575
▁호주 -6576
▁구성원 -6577
▁요코하마 -6578
▁개찰 -6579
▁말로 -6580
▁매장 -6581
▁주에 -6582
▁타격 -6583
리학 -6584
▁시작했고 -6585
용을 -6586
▁벼슬 -6587
크와 -6588
▁대법 -6589
우라 -6590
▁대동 -6591
▁사막 -6592
▁소득 -6593
▁홋카이도 -6594
유를 -6595
▁핸 -6596
▁개량 -6597
유가 -6598
힌다 -6599
▁위대한 -6600
프가니스탄 -6601
▁미국으로 -6602
▁배경으로 -6603
스피 -6604
치오 -6605
▁마감 -6606
▁오버 -6607
▁기도 -6608
공신 -6609
▁De -6610
▁본다 -6611
▁구성된다 -6612
▁수호 -6613
▁북미 -6614
성에서 -6615
타가 -6616
▁안내 -6617
▁줄어들 -6618
▁주된 -6619
▁명으로 -6620
▁젠 -6621
▁죽음을 -6622
▁톱 -6623
▁펑 -6624
▁이적하였다 -6625
리티 -6626
▁싱어 -6627
하라는 -6628
▁가마 -6629
▁가속 -6630
▁입은 -6631
▁남극 -6632
▁질량 -6633
▁이어서 -6634
▁올해의 -6635
▁아티스트 -6636
▁신고 -6637
▁\ -6638
중이 -6639
▁우리가 -6640
름은 -6641
▁특별히 -6642
프와 -6643
▁비공 -6644
▁이념 -6645
▁이용할 -6646
▁교차 -6647
▁진격 -6648
▁도쿠가와 -6649
릭스 -6650
▁변호사 -6651
▁작품의 -6652
▁그리스의 -6653
▁탓 -6654
▁열리는 -6655
▁집필 -6656
님의 -6657
보로 -6658
▁자매 -6659
▁권리 -6660
▁아리 -6661
▁원래는 -6662
슨이 -6663
▁강요 -6664
▁혼자 -6665
▁대화 -6666
▁혈액 -6667
브레 -6668
대문 -6669
▁엔터테인먼트 -6670
▁오는 -6671
▁드라마이다 -6672
IS -6673
▁MS -6674
발전 -6675
▁정치인 -6676
무네 -6677
절을 -6678
체인 -6679
▁감시 -6680
문이다 -6681
판에 -6682
▁진학 -6683
▁매주 -6684
▁랑 -6685
년경 -6686
▁보냈 -6687
▁대학의 -6688
▁소속의 -6689
사지 -6690
▁영양 -6691
▁주제 -6692
전자 -6693
ang -6694
지니아 -6695
▁적극적으로 -6696
▁대학교의 -6697
통합 -6698
▁Me -6699
▁뚜렷 -6700
▁포함되었다 -6701
▁백성 -6702
▁수도권 -6703
▁WWE -6704
▁준결승 -6705
왕후 -6706
▁수를 -6707
▁아마추어 -6708
49 -6709
니와 -6710
▁들면 -6711
55 -6712
▁x -6713
▁닉 -6714
▁경북 -6715
▁선호 -6716
▁셔 -6717
▁사도 -6718
▁힙합 -6719
▁싱가포르 -6720
▁정식으로 -6721
▁게임이다 -6722
원숭 -6723
▁쓰러 -6724
▁영토를 -6725
▁알렉산더 -6726
치와 -6727
▁우에 -6728
▁화가 -6729
▁가치를 -6730
▁할아버 -6731
▁OS -6732
▁부속 -6733
▁대원 -6734
▁소집 -6735
활동 -6736
▁일원 -6737
보다도 -6738
▁새끼 -6739
하에서 -6740
운동을 -6741
▁위치에 -6742
마뱀 -6743
▁담고 -6744
비와 -6745
▁까지 -6746
기이다 -6747
▁토너 -6748
_7 -6749
▁지칭 -6750
▁클리 -6751
▁홈런을 -6752
모의 -6753
▁행정구역 -6754
▁43 -6755
▁갖게 -6756
▁크라 -6757
령으로 -6758
▁공개되었다 -6759
심이 -6760
▁국정 -6761
▁1931 -6762
희는 -6763
천의 -6764
▁다큐 -6765
▁소리 -6766
드르 -6767
▁유력 -6768
드라마 -6769
▁구사 -6770
▁발레 -6771
▁초기에는 -6772
필드 -6773
▁소화 -6774
▁끝으로 -6775
플로 -6776
▁동서 -6777
에서부터 -6778
치기 -6779
▁일단 -6780
▁나고야 -6781
비행 -6782
▁필립 -6783
일리 -6784
현을 -6785
▁멸종 -6786
▁타워 -6787
▁후퇴 -6788
훈련 -6789
작으로 -6790
▁만들기 -6791
대신 -6792
▁콘스탄티노 -6793
등급 -6794
민은 -6795
▁번주 -6796
▁첫째 -6797
▁사건에 -6798
▁훌륭 -6799
식에서 -6800
▁자가 -6801
▁영화를 -6802
▁개명 -6803
▁관객 -6804
담을 -6805
카르 -6806
▁물려 -6807
▁감독은 -6808
보통 -6809
▁영향으로 -6810
▁군대 -6811
▁데이터를 -6812
▁정통 -6813
▁농촌 -6814
배를 -6815
사랑 -6816
▁부드 -6817
▁부르기도 -6818
▁인상 -6819
▁축소 -6820
향을 -6821
다이라 -6822
▁시가 -6823
▁집을 -6824
▁커다란 -6825
라면 -6826
의가 -6827
곡은 -6828
▁행정구 -6829
▁강하게 -6830
▁공원 -6831
결을 -6832
점과 -6833
▁목숨 -6834
▁재료 -6835
주의와 -6836
▁방송을 -6837
▁1929 -6838
로써 -6839
폴리 -6840
▁강을 -6841
▁근육 -6842
▁주재 -6843
▁의정부 -6844
▁이끌어 -6845
▁멜로 -6846
자이자 -6847
-7 -6848
란색 -6849
▁용어는 -6850
▁유전자 -6851
▁하느 -6852
▁1921 -6853
모델 -6854
체이다 -6855
▁기반을 -6856
▁발표된 -6857
▁보기 -6858
▁약탈 -6859
대부 -6860
▁연안 -6861
▁불가리아 -6862
ity -6863
▁센트 -6864
▁루마니아 -6865
함은 -6866
▁필라 -6867
▁부르고 -6868
율은 -6869
▁정수 -6870
▁r -6871
근혜 -6872
관계를 -6873
ew -6874
▁발휘 -6875
▁딜 -6876
▁붙어 -6877
오로 -6878
행이 -6879
▁사다 -6880
고리 -6881
▁집안 -6882
▁메탈 -6883
▁중성 -6884
▁600 -6885
▁이론을 -6886
▁아프가니스탄 -6887
면과 -6888
▁폭력 -6889
▁또다른 -6890
▁방언 -6891
▁새벽 -6892
▁발매한 -6893
물과 -6894
편의 -6895
▁대변 -6896
▁유적 -6897
▁메트로 -6898
▁살아남 -6899
▁상황에 -6900
▁심지어 -6901
▁넥 -6902
▁르네 -6903
▁혼인 -6904
버드 -6905
▁보르 -6906
▁산하 -6907
▁1925 -6908
▁명시 -6909
▁웨이 -6910
▁코너 -6911
권과 -6912
▁시조 -6913
▁스웨덴의 -6914
토미 -6915
▁당나라 -6916
▁열었다 -6917
▁몬테 -6918
▁게르 -6919
▁김해 -6920
▁1923 -6921
▁수준의 -6922
▁남아메리카 -6923
▁문재 -6924
▁공기 -6925
▁오이 -6926
▁처음에 -6927
▁늑 -6928
한다면 -6929
te -6930
▁쏘 -6931
▁대칭 -6932
▁막기 -6933
▁어두 -6934
▁연평균 -6935
▁정확히 -6936
▁구성하는 -6937
▁잠재 -6938
▁행위를 -6939
▁시모 -6940
▁나타난 -6941
▁가고 -6942
▁동반 -6943
베이스 -6944
살이 -6945
▁승부 -6946
▁실내 -6947
▁빅토리아 -6948
▁퀘 -6949
▁맺고 -6950
▁소스 -6951
▁곤충 -6952
▁카자 -6953
▁뮤직비디오 -6954
▁후에도 -6955
▁많았다 -6956
▁발전을 -6957
▁사이트 -6958
건의 -6959
▁세월 -6960
▁치렀다 -6961
청년 -6962
카드 -6963
▁레인 -6964
▁인터뷰에서 -6965
령은 -6966
▁상태가 -6967
문과 -6968
▁발표되었다 -6969
았는데 -6970
▁몸무 -6971
▁서명 -6972
대상 -6973
▁그럼 -6974
▁해협 -6975
▁미국인 -6976
▁반대하는 -6977
▁적도 -6978
호선의 -6979
졌던 -6980
▁성과 -6981
▁재산 -6982
▁종이 -6983
▁일본은 -6984
대사 -6985
▁영원 -6986
▁이은 -6987
▁파울 -6988
▁람 -6989
국인 -6990
▁호흡 -6991
라이터 -6992
그래 -6993
▁개장 -6994
▁그만 -6995
▁증언 -6996
▁트라 -6997
▁콘서트 -6998
▁가끔 -6999
▁오케 -7000
▁독재 -7001
▁마그 -7002
▁압도 -7003
▁허락 -7004
▁군사를 -7005
▁닮 -7006
주군 -7007
▁감정 -7008
▁판타 -7009
▁하던 -7010
▁170 -7011
▁옵 -7012
즈와 -7013
▁요금 -7014
▁미국에 -7015
▁전형적인 -7016
리코 -7017
포스 -7018
▁교사 -7019
▁스크린 -7020
임은 -7021
-8 -7022
트랙 -7023
▁민중 -7024
▁유발 -7025
▁제후 -7026
▁바이러 -7027
수도 -7028
▁트럼 -7029
▁유대인 -7030
경기에서 -7031
▁대선 -7032
▁섹 -7033
▁랩 -7034
▁관해 -7035
교도 -7036
년까지는 -7037
67 -7038
▁다이묘 -7039
▁본선에 -7040
▁세리에 -7041
up -7042
▁플로리다 -7043
AC -7044
▁) -7045
▁말라 -7046
▁회사의 -7047
티스 -7048
▁이미지 -7049
▁리그에서 -7050
▁de -7051
았지만 -7052
▁주변의 -7053
위원회는 -7054
▁관계에 -7055
▁보이고 -7056
▁도쿄도 -7057
밀한 -7058
청의 -7059
어에서 -7060
▁그려져 -7061
▁{ -7062
이면 -7063
합니다 -7064
▁800 -7065
▁사람이다 -7066
▁갤럭 -7067
▁비틀 -7068
▁소요 -7069
▁쇠퇴 -7070
▁서울시 -7071
▁마법 -7072
▁레지 -7073
▁발렌 -7074
▁올라가 -7075
▁뼈 -7076
▁않기 -7077
▁파생 -7078
▁1,000 -7079
▁동경 -7080
▁선조 -7081
▁착용 -7082
▁촉진 -7083
▁세계를 -7084
▁기여했다 -7085
자나 -7086
▁방송된 -7087
▁영향력을 -7088
▁전체를 -7089
▁동굴 -7090
▁철저 -7091
스트는 -7092
실에서 -7093
▁라이온 -7094
말로 -7095
odice -7096
ip -7097
각형 -7098
▁맺었다 -7099
▁안드로이드 -7100
▁구원 -7101
▁창당 -7102
적이며 -7103
▁참가하였다 -7104
층석탑 -7105
▁기하 -7106
▁특허 -7107
▁콜로 -7108
▁주목을 -7109
ED -7110
머리 -7111
▁좁은 -7112
세기의 -7113
▁극복 -7114
▁몸길 -7115
▁의견을 -7116
▁되기도 -7117
대원 -7118
▁영혼 -7119
▁땅을 -7120
▁부탁 -7121
▁황제의 -7122
▁목포 -7123
▁북극 -7124
까지도 -7125
당에서 -7126
론과 -7127
보기 -7128
오고 -7129
▁음성 -7130
▁콜롬비아 -7131
올린 -7132
▁41 -7133
하면서도 -7134
나마 -7135
▁안양 -7136
▁클라우 -7137
주년 -7138
▁허가 -7139
부장 -7140
▁도메 -7141
▁말해 -7142
▁서방 -7143
단에서 -7144
케이팅 -7145
▁관계는 -7146
도니아 -7147
상이다 -7148
▁가시 -7149
▁토마스 -7150
기능 -7151
▁동성애 -7152
니에 -7153
▁EP -7154
▁역사가 -7155
91 -7156
▁고안 -7157
소수 -7158
▁클로 -7159
아웃 -7160
▁감옥 -7161
졌으나 -7162
▁데뷔했다 -7163
▁않았지만 -7164
보의 -7165
해는 -7166
▁경유 -7167
▁지었다 -7168
류에 -7169
▁일곱 -7170
우스의 -7171
차에 -7172
토가 -7173
▁순서 -7174
▁운송 -7175
▁모습이 -7176
시대에 -7177
▁추산으로 -7178
▁체험 -7179
▁되었는데 -7180
▁법적 -7181
사이드 -7182
나를 -7183
▁명칭으로 -7184
토를 -7185
▁KT -7186
▁적응 -7187
▁1922 -7188
.' -7189
▁소형 -7190
▁건물은 -7191
▁나이에 -7192
▁소규모 -7193
▁후보가 -7194
티움 -7195
▁운항 -7196
▁삽입 -7197
▁영광 -7198
▁성과를 -7199
갔고 -7200
타와 -7201
▁시게 -7202
시스트 -7203
▁1912 -7204
이게 -7205
▁유용 -7206
ld -7207
▁발생하였다 -7208
▁든 -7209
됐고 -7210
족을 -7211
▁받으며 -7212
▁AC -7213
▁고고 -7214
▁무릎 -7215
▁입사 -7216
▁감사 -7217
▁단행 -7218
▁원하는 -7219
ong -7220
문으로 -7221
▁일으킨 -7222
▁현상을 -7223
중국 -7224
▁꺼 -7225
▁론 -7226
▁성격을 -7227
▁스트라이 -7228
▁했 -7229
▁힘들 -7230
▁현대의 -7231
▁중에서도 -7232
▁차트에서 -7233
OM -7234
▁잡고 -7235
68 -7236
▁남겨 -7237
▁스톤 -7238
▁와서 -7239
현이 -7240
▁에너지를 -7241
▁이어졌다 -7242
▁손에 -7243
▁수직 -7244
▁끈 -7245
석으로 -7246
신과 -7247
▁원년 -7248
되던 -7249
고에 -7250
▁뜻이다 -7251
▁지나지 -7252
본은 -7253
쳤고 -7254
총리 -7255
ss -7256
▁기부 -7257
▁러브 -7258
▁무산 -7259
▁다루는 -7260
위원회가 -7261
꼬리 -7262
영이 -7263
▁운동에 -7264
도서 -7265
디스 -7266
턴은 -7267
▁규슈 -7268
▁상태에 -7269
▁설립한 -7270
▁담은 -7271
▁없지만 -7272
나게 -7273
▁매니 -7274
▁발명 -7275
▁불렀 -7276
▁압축 -7277
▁비롯해 -7278
래의 -7279
▁이날 -7280
받침 -7281
▁추락 -7282
오가 -7283
▁세력이 -7284
호쿠 -7285
▁접속 -7286
어에 -7287
훼손 -7288
▁교수로 -7289
▁한반도 -7290
▁넘겨 -7291
▁SM -7292
▁노무 -7293
▁블라디 -7294
▁그들 -7295
▁포함된 -7296
▁거리에 -7297
▁과도 -7298
마저 -7299
▁전술 -7300
▁익스 -7301
▁1908 -7302
▁획득했다 -7303
▁죽자 -7304
▁야스 -7305
▁토벌 -7306
판의 -7307
▁Se -7308
▁대회는 -7309
▁부상으로 -7310
보병 -7311
▁전한 -7312
북도의 -7313
였다고 -7314
▁자체가 -7315
▁히어로 -7316
칭은 -7317
▁MV -7318
▁레이블 -7319
정도 -7320
▁모음 -7321
▁부유 -7322
▁그녀를 -7323
▁이었다 -7324
▁박근혜 -7325
계열 -7326
▁Sh -7327
▁구로 -7328
광역시의 -7329
▁탑승 -7330
▁화폐 -7331
▁동일본 -7332
▁폐지되었다 -7333
▁밀라노 -7334
▁정도이다 -7335
DP -7336
▁1906 -7337
내의 -7338
▁코믹 -7339
▁그랜드 -7340
▁공정 -7341
▁대해서도 -7342
러리 -7343
▁도움이 -7344
ction -7345
ind -7346
▁세워진 -7347
▁SC -7348
▁5, -7349
▁선형 -7350
당하고 -7351
▁망원 -7352
▁스토리 -7353
▁아르메 -7354
▁공무원 -7355
▁적어도 -7356
고자 -7357
률을 -7358
▁뱀 -7359
▁본명은 -7360
▁지원하는 -7361
▁모노 -7362
분은 -7363
▁반면에 -7364
▁동아시아 -7365
즈키 -7366
▁생기 -7367
av -7368
▁전망 -7369
클린 -7370
페이지 -7371
카스 -7372
프스 -7373
▁먹는다 -7374
▁삼았다 -7375
게이 -7376
센트 -7377
▁모험 -7378
토벤 -7379
▁페이스 -7380
▁1917 -7381
▁이세 -7382
▁당사 -7383
▁심장 -7384
▁싫 -7385
률이 -7386
▁시절에 -7387
역과 -7388
▁수백 -7389
▁우라 -7390
▁유아 -7391
프란시스코 -7392
▁이행 -7393
▁기본적인 -7394
애나 -7395
▁없었고 -7396
▁1927 -7397
▁st -7398
▁이정 -7399
▁codice -7400
▁수반 -7401
럼비아 -7402
▁석방 -7403
▁거리를 -7404
바다 -7405
▁JR -7406
니스트 -7407
▁의미가 -7408
터와 -7409
▁빌딩 -7410
▁심사 -7411
▁역의 -7412
▁예외 -7413
▁오리지 -7414
ES -7415
건설 -7416
▁주니어 -7417
▁하우스 -7418
스컵 -7419
▁고리 -7420
▁곳은 -7421
란다 -7422
오리 -7423
▁석사 -7424
▁윤치 -7425
▁아무런 -7426
▁아이스 -7427
▁지대 -7428
▁포유 -7429
이라며 -7430
▁앨런 -7431
▁데려 -7432
▁코스 -7433
▁그리스도 -7434
우에 -7435
바키아 -7436
▁등장인물 -7437
▁플루 -7438
▁국가가 -7439
▁주요한 -7440
▁1907 -7441
▁결승전에서 -7442
투표 -7443
▁라운드 -7444
▁뷰 -7445
▁퓨 -7446
▁섬에 -7447
▁앨범을 -7448
▁경전 -7449
▁아울 -7450
▁빨간 -7451
▁차지하였다 -7452
▁패러 -7453
성도 -7454
▁전작 -7455
▁주거 -7456
▁57 -7457
▁독점 -7458
▁서기 -7459
▁이르기까지 -7460
기구 -7461
ame -7462
▁맞춰 -7463
▁다큐멘 -7464
▁건담 -7465
▁중시 -7466
▁1926 -7467
령에 -7468
▁테마 -7469
▁수밖에 -7470
▁주변에 -7471
▁지역이 -7472
리케이션 -7473
▁툴 -7474
▁금강 -7475
▁상의 -7476
▁실업 -7477
▁토머스 -7478
널드 -7479
노의 -7480
▁사양 -7481
데스리가 -7482
인인 -7483
▁띤 -7484
▁히틀러 -7485
▁사로 -7486
▁장례 -7487
▁겨우 -7488
▁인물로 -7489
▁수감 -7490
▁유튜브 -7491
▁모양으로 -7492
▁유입 -7493
산에서 -7494
▁140 -7495
▁천체 -7496
▁휴대 -7497
이라면 -7498
▁이종 -7499
▁문화적 -7500
▁파트너 -7501
▁중국에서 -7502
▁재즈 -7503
건은 -7504
▁책은 -7505
▁있어야 -7506
▁자신은 -7507
▁꾸준히 -7508
치며 -7509
▁95 -7510
스티벌 -7511
되었다는 -7512
▁비정 -7513
▁테오 -7514
항은 -7515
스톤 -7516
재는 -7517
▁인증 -7518
자였던 -7519
▁그랑 -7520
▁무관 -7521
▁예로 -7522
▁연구는 -7523
▁남양 -7524
▁기능이 -7525
▁기동 -7526
AP -7527
용은 -7528
조와 -7529
주의에 -7530
▁메리 -7531
▁이하의 -7532
류와 -7533
▁등도 -7534
▁리드 -7535
▁창간 -7536
나라는 -7537
▁마치고 -7538
▁수록되어 -7539
▁이글 -7540
년만에 -7541
▁일본인 -7542
지구 -7543
▁살았다 -7544
▁단선 -7545
▁맞추 -7546
레이드 -7547
페이스 -7548
▁파티 -7549
▁라이벌 -7550
▁공간을 -7551
▁보이며 -7552
▁배열 -7553
▁트윈 -7554
자들과 -7555
▁돌아왔다 -7556
▁밸 -7557
▁급격 -7558
▁이어져 -7559
▁가쓰 -7560
▁계층 -7561
-15 -7562
에게도 -7563
연구소 -7564
▁유니버 -7565
▁발생한다 -7566
ant -7567
▁사촌 -7568
▁권한을 -7569
▁크로스 -7570
▁사람으로 -7571
83 -7572
마쓰 -7573
▁찬성 -7574
슬라비아 -7575
▁차지한다 -7576
ry -7577
집합 -7578
▁들여 -7579
ith -7580
▁실수 -7581
▁크기가 -7582
히로 -7583
▁오늘날의 -7584
ok -7585
▁유키 -7586
류로 -7587
유산 -7588
탄을 -7589
▁라이프 -7590
▁베토벤 -7591
▁거대 -7592
▁차지하는 -7593
▁첩 -7594
▁소리를 -7595
파에 -7596
리시 -7597
▁고통 -7598
▁모듈 -7599
카미 -7600
▁감각 -7601
▁거둔 -7602
▁성의 -7603
▁도중에 -7604
돌프 -7605
▁상무 -7606
끼리 -7607
▁에스파 -7608
▁걷 -7609
▁사형 -7610
트롤 -7611
▁중동 -7612
▁곧바로 -7613
▁대구광역시 -7614
▁계곡 -7615
▁탐험 -7616
▁브레이 -7617
▁리눅 -7618
▁종로 -7619
▁종교적 -7620
ob -7621
▁퀴 -7622
▁관하여 -7623
▁무리 -7624
이었는데 -7625
▁실제로는 -7626
▁1/ -7627
▁문신 -7628
▁평론 -7629
▁영국과 -7630
▁1905 -7631
ff -7632
교가 -7633
우고 -7634
▁샌프란시스코 -7635
보에 -7636
▁셋째 -7637
▁BBC -7638
▁명성을 -7639
▁가야 -7640
▁변화가 -7641
ik -7642
보가 -7643
실에 -7644
▁메르 -7645
▁예전 -7646
▁상황이 -7647
▁아웃 -7648
생활을 -7649
▁없었던 -7650
▁조기 -7651
▁졸업했다 -7652
▁테크 -7653
▁SN -7654
▁re -7655
▁닌텐 -7656
▁마라 -7657
▁역사는 -7658
▁크기는 -7659
마리 -7660
오와 -7661
타나 -7662
▁남해 -7663
▁삭제 -7664
▁쿼 -7665
월드 -7666
졌는데 -7667
▁전해진다 -7668
환은 -7669
▁에릭 -7670
▁하사 -7671
▁리이다 -7672
▁있다가 -7673
▁놀라 -7674
▁플레 -7675
▁싱어송 -7676
▁갱 -7677
▁광역 -7678
위에서 -7679
식이다 -7680
하르트 -7681
▁옮겼다 -7682
학회 -7683
▁내는 -7684
▁대학에서 -7685
황후 -7686
▁황태 -7687
노미야 -7688
▁못하게 -7689
루살 -7690
메르 -7691
▁면역 -7692
▁전투는 -7693
ck -7694
▁졸업한 -7695
▁납치 -7696
▁먹는 -7697
▁레코드 -7698
▁실시된 -7699
▁되찾 -7700
▁얻게 -7701
▁최상 -7702
▁트위 -7703
▁덕분에 -7704
▁들었다 -7705
▁음반을 -7706
▁아케 -7707
▁정부를 -7708
해지고 -7709
81 -7710
lu -7711
든지 -7712
▁배급 -7713
▁지표 -7714
▁추대 -7715
PS -7716
▁락 -7717
▁긴급 -7718
▁병력을 -7719
▁한국인 -7720
▁54 -7721
▁호남 -7722
▁불리며 -7723
지방법원 -7724
▁외계 -7725
▁별로 -7726
▁결과로 -7727
▁부처 -7728
▁매각 -7729
▁NHK -7730
▁참가하여 -7731
▁박쥐 -7732
▁합리 -7733
▁사이를 -7734
▁카메라 -7735
▁크기의 -7736
▁An -7737
▁무인 -7738
▁교향곡 -7739
▁브라질의 -7740
▁지역에서는 -7741
▁방위 -7742
▁이수 -7743
▁축제 -7744
병으로 -7745
르바 -7746
심의 -7747
▁합동 -7748
▁등장한 -7749
▁아래의 -7750
▁동영 -7751
▁서북 -7752
▁흰색 -7753
개국 -7754
one -7755
졌지만 -7756
편을 -7757
▁두드 -7758
리크 -7759
▁사과 -7760
▁바람에 -7761
실한 -7762
온의 -7763
족과 -7764
▁돌파 -7765
▁오염 -7766
▁사용하지 -7767
▁비로 -7768
▁타입 -7769
▁학사 -7770
▁이용하는 -7771
▁결심 -7772
▁중립 -7773
▁드래곤 -7774
▁마카 -7775
▁모래 -7776
▁살펴 -7777
▁순수 -7778
▁중지 -7779
▁크림 -7780
루살렘 -7781
▁웰 -7782
클럽 -7783
앨범 -7784
▁() -7785
▁레벨 -7786
▁갤럭시 -7787
▁오리지널 -7788
qu -7789
피를 -7790
▁만난 -7791
▁초상 -7792
▁하다가 -7793
구리 -7794
▁대단 -7795
▁왕립 -7796
▁대한제국 -7797
▁섬식 -7798
▁제네 -7799
▁도시를 -7800
▁입단했다 -7801
▁브로 -7802
▁크리스토 -7803
▁그럼에도 -7804
▁빗 -7805
▁동시 -7806
▁초래 -7807
우옌 -7808
▁풍부한 -7809
병원 -7810
▁사제 -7811
▁뚫 -7812
청이 -7813
▁거친 -7814
▁직무 -7815
iv -7816
▁고가 -7817
▁향년 -7818
▁베네치아 -7819
플러 -7820
▁빵 -7821
▁때마다 -7822
▁딱 -7823
복지 -7824
연은 -7825
▁곳을 -7826
▁펄 -7827
사상 -7828
▁걸려 -7829
▁붙잡 -7830
데이트 -7831
▁회색 -7832
화하는 -7833
루미 -7834
▁대만 -7835
▁110 -7836
▁적절한 -7837
▁효과가 -7838
▁역전 -7839
▁마스터 -7840
고등학교는 -7841
졌을 -7842
▁생각을 -7843
▁딴 -7844
▁시달 -7845
▁주말 -7846
률은 -7847
▁삼아 -7848
▁요미 -7849
▁대회이다 -7850
ate -7851
▁대승 -7852
▁오디션 -7853
▁Love -7854
▁칙 -7855
▁마시 -7856
▁브라이언 -7857
▁싱어송라이터 -7858
진흥 -7859
▁모로 -7860
▁유물 -7861
▁이지 -7862
▁되었다고 -7863
IT -7864
▁카페 -7865
▁개발을 -7866
▁방법이 -7867
▁세계적인 -7868
▁유인 -7869
▁지바 -7870
▁의거 -7871
▁입증 -7872
▁캡 -7873
펙트럼 -7874
▁버지니아 -7875
장군 -7876
▁사이클 -7877
소리 -7878
▁리듬 -7879
▁뤼 -7880
▁색깔 -7881
▁시를 -7882
▁옛날 -7883
▁참모 -7884
▁간섭 -7885
학과를 -7886
마루 -7887
▁습격 -7888
▁죽고 -7889
▁추적 -7890
챌린 -7891
▁작전을 -7892
▁아들이다 -7893
▁레닌 -7894
▁정권을 -7895
▁나이트 -7896
▁않았던 -7897
▁약간의 -7898
하겠다고 -7899
슬림 -7900
▁필요로 -7901
기획 -7902
▁인류 -7903
▁참조 -7904
▁획득하였다 -7905
▁중화인민공화국의 -7906
목은 -7907
▁게시 -7908
우치 -7909
이즈 -7910
▁올린 -7911
▁1904 -7912
▁때문이었다 -7913
▁해병 -7914
▁마쓰다이라 -7915
▁나의 -7916
▁모임 -7917
전에서는 -7918
팀이 -7919
▁밴드의 -7920
▁전승 -7921
▁공룡 -7922
▁의미로 -7923
▁집에서 -7924
▁다음으로 -7925
▁강수 -7926
▁프랑스는 -7927
300 -7928
▁가사 -7929
▁법무 -7930
도서관 -7931
▁명단에 -7932
▁연락 -7933
▁문화를 -7934
나고 -7935
▁세계에 -7936
단계 -7937
▁유닛 -7938
긴다 -7939
▁지질 -7940
▁국경을 -7941
재의 -7942
▁자전거 -7943
▁일어난다 -7944
▁제공하고 -7945
클라 -7946
▁규모가 -7947
ET -7948
▁흙 -7949
▁85 -7950
▁특성을 -7951
급의 -7952
▁수록곡 -7953
▁스페셜 -7954
▁클래식 -7955
자였다 -7956
▁것이고 -7957
▁밖으로 -7958
▁음악가 -7959
▁탄소 -7960
지기도 -7961
그로 -7962
들인 -7963
등에 -7964
▁유성 -7965
▁혁신 -7966
ord -7967
▁벨라 -7968
▁세우고 -7969
습을 -7970
▁사진을 -7971
▁가미 -7972
▁두려워 -7973
▁진출에 -7974
▁봉해졌다 -7975
방에 -7976
보면 -7977
▁폭격 -7978
▁한화 -7979
▁49 -7980
▁분산 -7981
▁않았으며 -7982
▁시간에 -7983
66 -7984
테스 -7985
_10 -7986
▁스마트폰 -7987
▁크리스티 -7988
▁변신 -7989
▁모습으로 -7990
▁램 -7991
▁근로 -7992
▁대지 -7993
▁물이 -7994
▁자세 -7995
자이너 -7996
모니 -7997
▁미분 -7998
▁전의 -7999
▁방향을 -8000
▁Go -8001
▁인텔 -8002
▁가능성을 -8003
▁운반 -8004
▁못한다 -8005
▁문화의 -8006
▁유럽에서 -8007
▁도시는 -8008
▁프랜 -8009
▁입었다 -8010
▁유고슬라비아 -8011
▁행정구역이다 -8012
▁관심이 -8013
바이러스 -8014
공학 -8015
사고 -8016
▁연설 -8017
▁외무 -8018
▁명칭이 -8019
▁공식적인 -8020
브를 -8021
음은 -8022
▁타원 -8023
▁입대 -8024
▁모델로 -8025
▁접하고 -8026
▁밀접 -8027
▁대회를 -8028
▁코리아 -8029
▁본토 -8030
▁일대 -8031
▁상영 -8032
▁스승 -8033
▁아나운 -8034
▁원자력 -8035
ast -8036
▁홀로 -8037
▁아우구 -8038
▁엔진을 -8039
▁뒤로 -8040
▁레이다 -8041
▁굽 -8042
▁가득 -8043
하였을 -8044
▁계기가 -8045
▁압박 -8046
▁퍼져 -8047
▁과거에 -8048
파크 -8049
▁기용 -8050
▁예루살렘 -8051
▁부분에 -8052
연한 -8053
전한 -8054
▁진단 -8055
▁길이가 -8056
▁말하며 -8057
▁커뮤니티 -8058
▁읍 -8059
▁전체적으로 -8060
▁설치되었다 -8061
▁수익 -8062
▁130 -8063
▁활동에 -8064
스포츠 -8065
▁총선에서 -8066
82 -8067
▁극단 -8068
▁기구 -8069
▁미치는 -8070
▁아직도 -8071
▁눈을 -8072
▁모르 -8073
▁미국이 -8074
▁이루어진다 -8075
체에서 -8076
하라고 -8077
▁들어간 -8078
▁자료를 -8079
글로 -8080
작가 -8081
화학 -8082
면서도 -8083
▁과학적 -8084
▁냈다 -8085
형과 -8086
▁소위 -8087
▁친선 -8088
▁프리미어리그 -8089
닉스 -8090
론적 -8091
▁막을 -8092
▁공동으로 -8093
둥이 -8094
시절 -8095
▁지원한다 -8096
▁타이틀을 -8097
ort -8098
▁신분 -8099
민이 -8100
회로 -8101
부사 -8102
▁산악 -8103
▁지정되어 -8104
더는 -8105
▁자유를 -8106
▁고립 -8107
▁청동 -8108
권으로 -8109
된다는 -8110
▁활동한 -8111
▁동기 -8112
▁장갑 -8113
속으로 -8114
고한 -8115
▁고교 -8116
▁구상 -8117
▁모순 -8118
▁옹호 -8119
▁전원 -8120
▁내용의 -8121
제품 -8122
▁우익 -8123
로미터 -8124
▁은퇴한 -8125
준은 -8126
초의 -8127
▁아베 -8128
년으로 -8129
84 -8130
▁범주 -8131
▁호르 -8132
▁다룬 -8133
▁비스 -8134
▁하노 -8135
▁서식지 -8136
▁이야기가 -8137
▁탱 -8138
▁뿐이다 -8139
▁작품이 -8140
▁다녔 -8141
▁지방에 -8142
런스 -8143
뱅크 -8144
▁선두 -8145
▁아비 -8146
▁우루 -8147
환의 -8148
▁못했고 -8149
등한 -8150
▁말은 -8151
▁현급 -8152
▁랭킹 -8153
▁앱 -8154
▁했다고 -8155
▁운동의 -8156
액을 -8157
▁계획은 -8158
▁흐르는 -8159
▁깊이 -8160
▁아니고 -8161
▁서식한다 -8162
바나 -8163
▁벗어 -8164
▁51 -8165
직에서 -8166
민족행위 -8167
▁가요 -8168
▁피렌 -8169
▁관련하여 -8170
▁날개 -8171
▁이명박 -8172
▁전염 -8173
▁동맹을 -8174
▁! -8175
현에 -8176
▁가공 -8177
▁MVP -8178
▁형성된 -8179
▁스펙트럼 -8180
▁센트럴 -8181
▁비잔티움 -8182
▁시대에는 -8183
▁돔 -8184
방이 -8185
▁간에 -8186
▁브라우 -8187
린이 -8188
의에 -8189
▁벌였다 -8190
▁고시 -8191
▁보인 -8192
▁두번째 -8193
▁보살 -8194
▁일환으로 -8195
간을 -8196
다니 -8197
▁개성 -8198
▁조약을 -8199
▁가라 -8200
▁존재를 -8201
▁업데이트 -8202
▁가해 -8203
경으로 -8204
▁경험을 -8205
▁영주 -8206
▁입문 -8207
나라를 -8208
▁부통령 -8209
▁지내고 -8210
▁지연 -8211
▁포맷 -8212
반의 -8213
▁찾는 -8214
미와 -8215
▁연계 -8216
▁점성 -8217
조판서 -8218
▁무슬림 -8219
아를 -8220
▁52 -8221
▁미네 -8222
▁분포한다 -8223
▁유지하고 -8224
77 -8225
▁애플리케이션 -8226
▁임신 -8227
▁전향 -8228
▁티베트 -8229
작을 -8230
아프리카 -8231
▁반사 -8232
▁퍼시 -8233
▁베이스볼 -8234
들과의 -8235
▁케이블 -8236
▁낱 -8237
▁성공적으로 -8238
▁역이 -8239
▁분야의 -8240
▁서일본 -8241
랑이 -8242
롤라 -8243
전기 -8244
▁이곳에 -8245
▁이적했다 -8246
▁메가 -8247
▁정류 -8248
▁챌린 -8249
▁기타리스트 -8250
▁가면 -8251
▁심한 -8252
▁쓴다 -8253
▁서쪽으로는 -8254
석에 -8255
▁사격 -8256
▁이라는 -8257
▁험 -8258
가루 -8259
음의 -8260
ure -8261
▁미얀 -8262
판으로 -8263
▁인간이 -8264
하가 -8265
▁애국 -8266
▁패턴 -8267
▁시호는 -8268
작은 -8269
타임 -8270
▁스타일 -8271
▁엘리자베스 -8272
▁료 -8273
병이 -8274
▁책봉 -8275
▁아울러 -8276
본이 -8277
커스 -8278
▁동치 -8279
▁원로 -8280
▁대학원 -8281
▁튜 -8282
▁활동이 -8283
▁왕위 -8284
▁제도의 -8285
▁발생했다 -8286
▁이곳에서 -8287
▁점은 -8288
▁호환 -8289
계올림픽 -8290
조약 -8291
▁66 -8292
▁SF -8293
▁HIV -8294
▁당선되었다 -8295
토스 -8296
▁전두 -8297
▁첫번째 -8298
▁DJ -8299
▁재발 -8300
▁남쪽으로는 -8301
▁네덜란드의 -8302
금은 -8303
중은 -8304
▁페이지 -8305
▁마르크스 -8306
▁당해 -8307
▁합계 -8308
▁빨리 -8309
▁자바 -8310
▁AS -8311
▁측은 -8312
▁스타크래프트 -8313
되었기 -8314
▁1896 -8315
▁무선 -8316
▁양식 -8317
▁결과는 -8318
▁미시 -8319
▁이치 -8320
▁내지 -8321
▁기록하고 -8322
▁내륙 -8323
▁계획이 -8324
▁고등학교이다 -8325
히고 -8326
▁어드 -8327
▁목숨을 -8328
▁UN -8329
▁아니었다 -8330
▁별도로 -8331
▁동쪽으로는 -8332
통일 -8333
▁발효 -8334
ock -8335
▁올림 -8336
▁결과적으로 -8337
▁오스트레일리아의 -8338
▁문화재자료 -8339
현악 -8340
▁국토 -8341
의원 -8342
▁남한 -8343
▁댄스 -8344
▁좌익 -8345
▁우리의 -8346
글라 -8347
▁김동 -8348
▁175 -8349
▁구간은 -8350
▁되었으나 -8351
함으로 -8352
금융 -8353
▁설이 -8354
▁승차 -8355
▁항구 -8356
Pa -8357
업이 -8358
으려 -8359
출을 -8360
미디어 -8361
▁결과가 -8362
▁시스템은 -8363
▁모양을 -8364
▁차이를 -8365
네는 -8366
마자 -8367
▁수천 -8368
▁간단한 -8369
▁관광객 -8370
▁스카이 -8371
▁짙 -8372
▁과학자 -8373
▁우수한 -8374
디의 -8375
칸센 -8376
▁성벽 -8377
▁없기 -8378
년은 -8379
말을 -8380
▁아트 -8381
재가 -8382
▁신장 -8383
▁옆에 -8384
▁루트비히 -8385
▁빌헬 -8386
▁야기 -8387
▁확인할 -8388
▁연애 -8389
▁일로 -8390
▁후기의 -8391
▁데뷔전을 -8392
▁하나님의 -8393
식물 -8394
▁거기 -8395
▁해제 -8396
유키 -8397
▁장편 -8398
▁당의 -8399
▁대조 -8400
▁선제 -8401
▁정벌 -8402
▁아들을 -8403
▁보좌 -8404
▁250 -8405
▁항공기 -8406
▁쏟 -8407
실록 -8408
▁배정 -8409
▁피난 -8410
▁시마 -8411
▁우승에 -8412
▁전체의 -8413
▁막대한 -8414
▁이외에 -8415
석과 -8416
수아 -8417
▁He -8418
▁잃고 -8419
▁나선 -8420
▁예능 -8421
▁들어와 -8422
▁자이언츠 -8423
▁잊 -8424
▁이토 -8425
▁선거에 -8426
▁막아 -8427
▁바티 -8428
▁발족 -8429
▁진술 -8430
▁결정했다 -8431
▁스틸 -8432
박물관 -8433
▁이스트 -8434
▁일본이 -8435
션을 -8436
유로 -8437
▁전임 -8438
▁결정을 -8439
▁학교를 -8440
왔고 -8441
▁고성 -8442
▁사령관 -8443
음에 -8444
▁My -8445
▁월간 -8446
▁폐기 -8447
백과 -8448
팩트 -8449
▁메디 -8450
산군 -8451
▁디젤 -8452
▁밀양 -8453
좌상 -8454
▁구마 -8455
▁경계를 -8456
▁낳았다 -8457
▁등이다 -8458
▁배제 -8459
소송법 -8460
▁그동안 -8461
ML -8462
악의 -8463
▁어릴 -8464
▁준공 -8465
▁이승만 -8466
▁일본어 -8467
스테이션 -8468
변을 -8469
▁정원 -8470
▁현의 -8471
▁노선이 -8472
▁간다 -8473
▁재단 -8474
▁리그에 -8475
▁얼마나 -8476
▁지어진 -8477
▁추가되었다 -8478
▁고베 -8479
▁모집 -8480
▁협상 -8481
▁이익을 -8482
▁국가에서 -8483
▁로빈 -8484
▁마천 -8485
▁데리고 -8486
▁위기에 -8487
▁톨 -8488
곡이 -8489
▁재위 -8490
▁호수 -8491
▁활약하였다 -8492
부문 -8493
▁후의 -8494
▁당했다 -8495
피는 -8496
▁버리고 -8497
▁요구하는 -8498
리타 -8499
수산 -8500
▁아가 -8501
▁용산 -8502
▁디자이너 -8503
▁간접 -8504
▁이오 -8505
▁주파 -8506
▁리가 -8507
▁백인 -8508
▁성균 -8509
▁이자 -8510
▁나라를 -8511
토시 -8512
▁구간이 -8513
▁지역과 -8514
트르 -8515
▁가질 -8516
▁쿠바 -8517
▁경력을 -8518
▁된다는 -8519
▁무료 -8520
▁미하 -8521
▁최신 -8522
디에 -8523
발의 -8524
▁초창 -8525
반을 -8526
▁대우 -8527
▁필라델 -8528
지대 -8529
▁여왕 -8530
▁적색 -8531
니까 -8532
지사 -8533
▁출현 -8534
▁통화 -8535
▁쪽으로 -8536
▁북쪽으로는 -8537
편이 -8538
▁ST -8539
▁브래 -8540
▁어항 -8541
▁아르메니아 -8542
용이 -8543
74 -8544
먼은 -8545
▁모니 -8546
▁사카 -8547
▁탕 -8548
▁빛을 -8549
▁훈련을 -8550
▁적을 -8551
▁현황 -8552
시켰고 -8553
▁독자적인 -8554
▁자손 -8555
▁담당하는 -8556
안군 -8557
터로 -8558
버스터 -8559
▁주장이 -8560
▁지방도 -8561
▁감독이다 -8562
▁찾을 -8563
▁힌두 -8564
▁천황의 -8565
▁싱글이다 -8566
▁북한의 -8567
▁열차는 -8568
▁떠난 -8569
▁최근에 -8570
▁미카 -8571
▁적대 -8572
▁힘이 -8573
그리 -8574
바야 -8575
▁스콧 -8576
▁휩 -8577
▁타운 -8578
▁히가시 -8579
▁기재 -8580
▁신사 -8581
▁황후 -8582
▁말하고 -8583
▁지역이다 -8584
▁쿨 -8585
▁콩고 -8586
▁돌아오 -8587
▁능력이 -8588
▁있으면 -8589
▁소속되어 -8590
과도 -8591
바시 -8592
▁서독 -8593
▁푸른 -8594
경기를 -8595
▁인물이다 -8596
▁많고 -8597
▁AM -8598
▁열어 -8599
▁청와 -8600
▁몰락 -8601
인들에게 -8602
청을 -8603
▁조용 -8604
▁시드니 -8605
라미 -8606
저는 -8607
블로 -8608
▁타율 -8609
▁노르웨 -8610
▁앨범은 -8611
인조 -8612
▁초점을 -8613
장한 -8614
▁항해 -8615
▁이복 -8616
▁일렉 -8617
안으로 -8618
▁깔 -8619
림을 -8620
▁영감을 -8621
OC -8622
▁수단 -8623
▁주제로 -8624
▁직접적인 -8625
▁출전했다 -8626
문관 -8627
오르 -8628
▁원래의 -8629
▁일원으로 -8630
▁순천 -8631
▁한양 -8632
▁아니며 -8633
편에 -8634
ime -8635
▁두산 -8636
▁야생 -8637
▁언어로 -8638
▁응우옌 -8639
▁자리에서 -8640
▁꺾고 -8641
▁충격 -8642
아와 -8643
▁급진 -8644
▁인근에 -8645
▁개최되었다 -8646
io -8647
▁흩 -8648
▁서브 -8649
됐으며 -8650
▁편지를 -8651
업에 -8652
▁끝났다 -8653
▁마리오 -8654
▁얇 -8655
우드 -8656
▁오렌 -8657
▁원형 -8658
▁개념은 -8659
▁테일러 -8660
하러 -8661
▁달아 -8662
▁마산 -8663
▁않도록 -8664
▁충분한 -8665
▁동남아시아 -8666
유는 -8667
코가 -8668
▁값을 -8669
▁발라 -8670
공이 -8671
연이 -8672
회와 -8673
▁여의 -8674
▁* -8675
▁Un -8676
세스 -8677
▁디즈니 -8678
▁이론은 -8679
▁믹 -8680
규칙 -8681
▁군대가 -8682
▁그룹의 -8683
목의 -8684
▁게임은 -8685
ib -8686
금이 -8687
중심 -8688
ack -8689
▁예언 -8690
▁주식회사 -8691
▁곁 -8692
▁대결 -8693
▁뒤인 -8694
▁전성 -8695
된다고 -8696
▁중심지 -8697
ge -8698
▁폼 -8699
밀리 -8700
▁대외 -8701
▁우리나라 -8702
▁하천 -8703
▁최종적으로 -8704
대학원 -8705
진과 -8706
▁연루 -8707
▁네이션 -8708
▁사적 -8709
▁곰 -8710
투쟁 -8711
후보 -8712
성한 -8713
▁두드러 -8714
주인 -8715
▁대로 -8716
▁법학 -8717
▁비평가 -8718
▁정도가 -8719
범죄 -8720
▁메모 -8721
▁젤 -8722
▁곳곳 -8723
▁왕실 -8724
▁굉 -8725
▁군대는 -8726
▁발전에 -8727
▁모델이다 -8728
▁못해 -8729
▁없애 -8730
▁문재인 -8731
▁해적 -8732
▁근거로 -8733
▁마케팅 -8734
▁사용을 -8735
▁신칸센 -8736
▁여동생 -8737
▁플라스 -8738
MS -8739
▁계열의 -8740
▁일본에서는 -8741
▁달의 -8742
▁비극 -8743
▁온도 -8744
▁적의 -8745
▁전투가 -8746
리자 -8747
▁나열 -8748
▁소나 -8749
▁페루 -8750
성이다 -8751
▁아파트 -8752
▁교과 -8753
해진다 -8754
▁어워드 -8755
▁중이던 -8756
군사 -8757
▁서남 -8758
▁700 -8759
▁자격을 -8760
▁있습니다 -8761
▁국가를 -8762
▁덴마크의 -8763
르와 -8764
▁말할 -8765
뉴스 -8766
다리 -8767
어스 -8768
▁불리기도 -8769
▁조선총독부 -8770
61 -8771
▁대답 -8772
▁보잉 -8773
▁비즈 -8774
▁목적은 -8775
▁1911 -8776
▁당한 -8777
▁사용해 -8778
▁슐 -8779
등록 -8780
란의 -8781
▁때도 -8782
▁여론 -8783
▁상태이다 -8784
커는 -8785
▁코치로 -8786
▁좋아하는 -8787
시타 -8788
▁제휴 -8789
▁보여주었다 -8790
▁현존하는 -8791
▁본격적인 -8792
▁겸임 -8793
▁쟁 -8794
공동 -8795
소한 -8796
▁이원 -8797
▁중력 -8798
▁착수 -8799
▁동지 -8800
▁주니 -8801
▁사로잡 -8802
▁잘못된 -8803
▁프로토콜 -8804
▁트레 -8805
▁않는다는 -8806
▁4. -8807
▁와카 -8808
▁하나를 -8809
건이 -8810
나미 -8811
번호 -8812
즈카 -8813
▁복수 -8814
▁지배를 -8815
▁한국에서는 -8816
▁머무 -8817
스테르 -8818
▁있다면 -8819
경과 -8820
▁포인 -8821
▁전투에 -8822
▁화려한 -8823
▁활성화 -8824
산맥 -8825
▁53 -8826
▁군을 -8827
져서 -8828
▁삶의 -8829
▁인조 -8830
▁착륙 -8831
교회의 -8832
명인 -8833
조정 -8834
프에 -8835
▁종전 -8836
▁시기의 -8837
▁y -8838
스틴 -8839
▁친척 -8840
▁후한 -8841
▁경고 -8842
▁주어졌다 -8843
▁결혼을 -8844
▁대신에 -8845
▁제국이 -8846
▁인생 -8847
▁연구가 -8848
▁젖 -8849
금의 -8850
분야 -8851
▁여덟 -8852
▁주립 -8853
▁해군의 -8854
▁사람에게 -8855
온다 -8856
▁임상 -8857
▁일본군 -8858
받지 -8859
▁구름 -8860
▁지목 -8861
▁머리를 -8862
▁불만을 -8863
▁지지하는 -8864
차별 -8865
▁취약 -8866
▁타카 -8867
디아라비아 -8868
도사 -8869
▁목격 -8870
▁하와이 -8871
▁후반에 -8872
적이었다 -8873
패로 -8874
▁사장 -8875
▁다이아 -8876
▁물리학 -8877
▁방식의 -8878
▁샬 -8879
역사 -8880
▁요소를 -8881
▁판타지 -8882
란을 -8883
증이 -8884
톤의 -8885
▁선진 -8886
▁이순 -8887
▁달러를 -8888
▁졸업하였다 -8889
ud -8890
▁번뇌 -8891
▁오세 -8892
▁카자흐 -8893
▁특수한 -8894
▁맡았으며 -8895
렸던 -8896
▁한강 -8897
▁가지게 -8898
▁시스템의 -8899
행은 -8900
▁남긴 -8901
▁원산 -8902
▁기술이 -8903
▁공략 -8904
▁말한 -8905
▁다음이 -8906
▁생각했다 -8907
▁윙 -8908
▁내내 -8909
▁약한 -8910
▁충남 -8911
▁기업의 -8912
있고 -8913
▁박영 -8914
▁언어를 -8915
▁전통적으로 -8916
즈에 -8917
▁에우 -8918
교로 -8919
▁무늬 -8920
▁부흥 -8921
▁산타 -8922
색이 -8923
▁빌리 -8924
▁구조의 -8925
ph -8926
고속 -8927
시피 -8928
▁엔터테인먼 -8929
▁북쪽에 -8930
▁시간은 -8931
▁역사적으로 -8932
▁아서 -8933
▁내부의 -8934
▁내장 -8935
▁한신 -8936
▁관점에서 -8937
▁남아있다 -8938
▁PS -8939
서이다 -8940
선수권 -8941
▁지중해 -8942
▁구체적인 -8943
▁발견했다 -8944
▁시작했으며 -8945
▁다가 -8946
▁게재 -8947
▁귀환 -8948
▁애틀 -8949
년대부터 -8950
▁사용자가 -8951
iz -8952
검찰 -8953
▁민주주의 -8954
수엘 -8955
▁실패했다 -8956
▁제약 -8957
▁충족 -8958
▁훌륭한 -8959
▁프로그램의 -8960
제이 -8961
팀인 -8962
▁미스 -8963
▁포크 -8964
▁이처럼 -8965
▁프레임 -8966
▁컸 -8967
▁로맨 -8968
▁때때 -8969
▁마친 -8970
▁주문 -8971
▁후보에 -8972
▁사이에는 -8973
▁조치 -8974
▁풋볼 -8975
위원회의 -8976
▁가능하게 -8977
▁항일 -8978
62 -8979
72 -8980
민당 -8981
쪽의 -8982
▁거슬러 -8983
▁포함해 -8984
▁맞는 -8985
▁술탄 -8986
▁커피 -8987
▁바꾸었다 -8988
▁다큐멘터리 -8989
▁서서히 -8990
▁응답 -8991
▁현상이 -8992
보통학교 -8993
▁말하였다 -8994
▁반환 -8995
▁맞게 -8996
▁비가 -8997
▁승리로 -8998
▁영화로 -8999
▁닐 -9000
관찰 -9001
이사 -9002
▁악화 -9003
▁평생 -9004
▁음반의 -9005
EN -9006
켰다 -9007
▁제국은 -9008
▁바이올린 -9009
렀고 -9010
▁58 -9011
▁구미 -9012
▁바가 -9013
▁복구 -9014
▁태조 -9015
▁피에르 -9016
▁방면 -9017
▁실용 -9018
곡으로 -9019
동에서 -9020
중에서 -9021
▁의원이 -9022
▁가즈 -9023
▁막부 -9024
▁밖의 -9025
▁오디오 -9026
▁김태 -9027
서에서 -9028
▁전쟁은 -9029
▁굵 -9030
과로 -9031
온이 -9032
▁기생 -9033
▁시대를 -9034
▁옐 -9035
▁수록된 -9036
▁일찍이 -9037
▁페스티벌 -9038
▁규제 -9039
▁섭취 -9040
▁칩 -9041
▁IP -9042
▁법원 -9043
▁주와 -9044
▁강점기 -9045
견을 -9046
병의 -9047
▁디아 -9048
▁손상 -9049
▁융합 -9050
▁88 -9051
▁무력 -9052
▁재무 -9053
시즌을 -9054
▁프로그램은 -9055
4, -9056
니를 -9057
저스 -9058
터에 -9059
▁무려 -9060
▁측근 -9061
진에 -9062
▁해임 -9063
태평양 -9064
▁연고로 -9065
▁위치하며 -9066
▁사우디아라비아 -9067
▁굿 -9068
플라 -9069
▁리얼 -9070
▁165 -9071
▁무대에 -9072
물질 -9073
▁목조 -9074
▁목적을 -9075
▁시작해 -9076
였기 -9077
▁베타 -9078
▁일부로 -9079
▁조사를 -9080
티에 -9081
▁착공 -9082
사추 -9083
직한 -9084
포는 -9085
▁서경 -9086
▁뒤에는 -9087
▁르네상 -9088
겼고 -9089
자이며 -9090
▁형태가 -9091
63 -9092
테쓰 -9093
백을 -9094
하니 -9095
▁마찰 -9096
▁시집 -9097
▁퇴각 -9098
▁마케도니아 -9099
▁대서양 -9100
▁조치를 -9101
▁치료를 -9102
기관이다 -9103
71 -9104
우와 -9105
▁자식 -9106
▁꾀 -9107
씨와 -9108
▁햄 -9109
작품 -9110
▁토마 -9111
▁하버드 -9112
색은 -9113
▁어두운 -9114
▁어렵다 -9115
▁현장 -9116
리스토 -9117
▁다루고 -9118
▁일관 -9119
▁방식은 -9120
▁성공적인 -9121
▁이영 -9122
▁민속 -9123
▁중계 -9124
▁희극 -9125
▁디비전 -9126
▁1909 -9127
론에서 -9128
▁본선의 -9129
▁유년 -9130
▁중앙에 -9131
▁친일반 -9132
▁1500 -9133
레의 -9134
:00 -9135
▁무라 -9136
▁피부 -9137
▁최후 -9138
▁트럭 -9139
▁정의할 -9140
▁제조업 -9141
▁항공모 -9142
개는 -9143
네의 -9144
▁99 -9145
▁교섭 -9146
▁저택 -9147
▁합법 -9148
▁라틴어 -9149
▁스파이 -9150
포트 -9151
▁레전 -9152
▁늘어나 -9153
▁곳이 -9154
르를 -9155
▁또다시 -9156
▁체제를 -9157
▁끝이 -9158
▁마음작용 -9159
▁활약하고 -9160
슨과 -9161
원의원 -9162
▁따르는 -9163
▁때때로 -9164
▁명예의 -9165
소스 -9166
▁드림 -9167
▁박탈 -9168
▁떼 -9169
미에 -9170
▁사상을 -9171
▁연구하는 -9172
▁샹 -9173
버러 -9174
천을 -9175
age -9176
▁이르고 -9177
▁가능하며 -9178
▁자유롭게 -9179
▁무신 -9180
라이트 -9181
▁대주교 -9182
분교 -9183
▁ISO -9184
▁유소년 -9185
▁방영되었다 -9186
▁위기 -9187
▁피에 -9188
내에서 -9189
69 -9190
▁병력 -9191
▁성은 -9192
▁집계 -9193
▁피고 -9194
누리 -9195
▁개원 -9196
케이션 -9197
형태 -9198
▁단층 -9199
▁연혁 -9200
▁이슈 -9201
▁노선은 -9202
▁미스터 -9203
▁철학자 -9204
▁토대로 -9205
▁부정적인 -9206
▁공용 -9207
▁추모 -9208
▁비공식 -9209
▁유니폼 -9210
수사 -9211
제프 -9212
초에 -9213
▁김용 -9214
▁동화 -9215
▁정찰 -9216
▁채로 -9217
▁최저 -9218
▁펜실 -9219
▁MC -9220
▁성질을 -9221
세츠 -9222
▁목록은 -9223
▁속도를 -9224
차전에서 -9225
▁규정하고 -9226
▁템 -9227
모로 -9228
브는 -9229
양군 -9230
▁세로 -9231
▁알라 -9232
렸을 -9233
측의 -9234
▁끊임 -9235
▁의장 -9236
▁쿠르 -9237
▁82 -9238
▁주한 -9239
▁프랑스에서 -9240
orld -9241
▁도로이다 -9242
반응 -9243
팀은 -9244
▁반지 -9245
▁남쪽에 -9246
▁한동안 -9247
▁바그 -9248
▁부패 -9249
▁중구 -9250
가스 -9251
오를 -9252
있으며 -9253
▁진정한 -9254
열이 -9255
▁죽을 -9256
▁제목으로 -9257
79 -9258
▁펴 -9259
▁들은 -9260
AD -9261
생산 -9262
▁기호 -9263
▁이마 -9264
▁각기 -9265
▁보상 -9266
라이더 -9267
▁약물 -9268
▁개발된 -9269
▁사용이 -9270
▁한국방송 -9271
▁회의에서 -9272
▁오가 -9273
▁캘리포니아주 -9274
▁얀 -9275
▁군사적 -9276
▁기록에 -9277
▁물리적 -9278
타케 -9279
▁전당 -9280
▁바위 -9281
▁털이 -9282
▁곡으로 -9283
▁관계로 -9284
▁면에서 -9285
▁선수이자 -9286
로동 -9287
▁세균 -9288
▁사육 -9289
▁안티 -9290
▁오고 -9291
사령부 -9292
▁운동이 -9293
▁조직의 -9294
▁근접 -9295
▁고조 -9296
▁이리 -9297
▁출력 -9298
▁발견되는 -9299
작전 -9300
▁아르헨티 -9301
두는 -9302
▁공무 -9303
▁차남 -9304
▁향한 -9305
▁과거의 -9306
▁무효 -9307
▁부품 -9308
▁리메이 -9309
철은 -9310
트리올 -9311
▁미나미 -9312
▁받기도 -9313
▁속도로 -9314
▁파리에서 -9315
II -9316
▁고도 -9317
▁흐름 -9318
▁흥행 -9319
▁김영삼 -9320
▁카이사 -9321
카를 -9322
▁진도 -9323
▁구조는 -9324
▁없으나 -9325
▁스테이지 -9326
해방 -9327
▁선을 -9328
▁수치 -9329
▁윤리 -9330
▁CPU -9331
▁버전은 -9332
▁빌헬름 -9333
▁포인트 -9334
여객 -9335
▁여수 -9336
▁주에서 -9337
▁보여주고 -9338
몬드 -9339
▁동메달을 -9340
츠와 -9341
츠키 -9342
▁갑작 -9343
▁무용 -9344
▁장면 -9345
▁흔들 -9346
▁득점을 -9347
▁신라의 -9348
▁구체적으로 -9349
▁동구 -9350
▁상임 -9351
▁포괄 -9352
▁학부 -9353
투아니아 -9354
인명 -9355
▁실험을 -9356
▁플레이어 -9357
▁필라델피아 -9358
공은 -9359
▁재편 -9360
▁훼손 -9361
▁연방의 -9362
코드 -9363
▁외의 -9364
▁사고로 -9365
▁오스트리아의 -9366
원군 -9367
▁도심 -9368
▁금메달 -9369
▁에스토 -9370
란이 -9371
▁MP -9372
▁팩 -9373
▁내외 -9374
▁복사 -9375
▁얻는 -9376
▁역과 -9377
▁그림을 -9378
님이 -9379
▁부른 -9380
▁양도 -9381
▁특급 -9382
▁Pro -9383
▁근처의 -9384
▁달러의 -9385
▁작품에 -9386
▁친일반민족행위 -9387
▁동독 -9388
▁보내는 -9389
년대에는 -9390
종과 -9391
▁세워졌다 -9392
▁롬 -9393
▁땅에 -9394
▁때로는 -9395
▁원리 -9396
▁사실은 -9397
아메리카 -9398
▁Ar -9399
▁둘은 -9400
▁화면 -9401
-21 -9402
int -9403
▁럭 -9404
홈런 -9405
▁사용하며 -9406
▁룩 -9407
금으로 -9408
상으로는 -9409
▁나가사키 -9410
▁대전광역시 -9411
과이 -9412
디가 -9413
았을 -9414
한을 -9415
▁점유 -9416
▁거기에 -9417
▁광범위한 -9418
▁몸무게는 -9419
아키 -9420
훈은 -9421
▁공학 -9422
▁반박 -9423
▁안타 -9424
▁거주하는 -9425
▁선언했다 -9426
▁얘 -9427
▁수신 -9428
▁스릴 -9429
▁우즈 -9430
▁찾아가 -9431
우며 -9432
▁길고 -9433
열의 -9434
▁꿈을 -9435
▁형식을 -9436
ov -9437
▁껍 -9438
수수 -9439
▁대폭 -9440
▁살던 -9441
▁심판 -9442
▁카탈 -9443
oy -9444
메라 -9445
▁오키나와 -9446
▁맡게 -9447
▁은메달을 -9448
▁건의 -9449
▁주축 -9450
▁학자 -9451
▁출시된 -9452
▁회사는 -9453
▁보충 -9454
▁부착 -9455
▁별의 -9456
▁보니 -9457
▁석조 -9458
▁사용하기 -9459
란트 -9460
해주 -9461
▁위안 -9462
▁의지 -9463
▁추증 -9464
▁왕으로 -9465
▁중심의 -9466
자원 -9467
주년을 -9468
▁소재로 -9469
▁한국에 -9470
▁황제가 -9471
▁공전 -9472
형이다 -9473
▁에스파냐 -9474
숙한 -9475
▁급속 -9476
▁사르 -9477
받는다 -9478
음으로 -9479
치면서 -9480
sp -9481
네스코 -9482
심한 -9483
▁자발 -9484
세에게 -9485
▁둘러싼 -9486
▁후보를 -9487
▁강이 -9488
▁낮아 -9489
▁무죄 -9490
▁캠페 -9491
▁부르며 -9492
▁창업 -9493
브리지 -9494
▁후지와 -9495
▁1915 -9496
▁알려지지 -9497
▁제주특별자치 -9498
그는 -9499
연속 -9500
▁침해 -9501
▁원자로 -9502
▁임명되어 -9503
her -9504
▁IT -9505
▁군은 -9506
▁뿌리 -9507
▁안의 -9508
스트의 -9509
▁폴란드의 -9510
▁라트 -9511
▁법을 -9512
▁석탄 -9513
▁진영 -9514
▁캄보 -9515
▁기온은 -9516
▁발매했다 -9517
▁모시 -9518
▁얻기 -9519
▁팽창 -9520
내셔널 -9521
스에게 -9522
▁네이버 -9523
▁몬트리올 -9524
▁68 -9525
▁모드 -9526
▁시로 -9527
▁다니엘 -9528
▁트라이 -9529
누엘 -9530
바흐 -9531
▁빛의 -9532
▁DS -9533
▁세대 -9534
▁의원은 -9535
▁특유의 -9536
간이 -9537
내기 -9538
▁공의 -9539
▁좋다 -9540
▁창시 -9541
▁아니면 -9542
▁일본으로 -9543
▁학생들이 -9544
▁왕위를 -9545
▁영국은 -9546
▁과학기술 -9547
▁곡의 -9548
▁기요 -9549
▁사직 -9550
▁신흥 -9551
강점 -9552
시민 -9553
▁급행 -9554
생으로 -9555
▁노래는 -9556
▁형식의 -9557
곡의 -9558
▁개업 -9559
▁싫어 -9560
▁침몰 -9561
▁케네 -9562
▁풀어 -9563
▁건너가 -9564
▁관통 -9565
▁시그 -9566
▁중순 -9567
자리에 -9568
▁특징은 -9569
▁도구 -9570
▁성공한 -9571
▁알바니아 -9572
▁베네수엘 -9573
▁이듬해인 -9574
OP -9575
매치 -9576
사항 -9577
▁실종 -9578
▁펀 -9579
불교 -9580
▁이바 -9581
▁멤버로 -9582
▁돌아갔다 -9583
▁서울에서 -9584
란은 -9585
주일 -9586
▁사기 -9587
▁정부와 -9588
▁3000 -9589
GC -9590
▁이인 -9591
예프 -9592
▁부천 -9593
▁전부터 -9594
▁그러자 -9595
▁원작으로 -9596
▁과정은 -9597
▁5000 -9598
▁따뜻 -9599
▁자율 -9600
▁전한다 -9601
▁민주화 -9602
▁1913 -9603
▁분광 -9604
▁이나 -9605
▁풀려 -9606
▁노력을 -9607
이었다고 -9608
스러 -9609
▁서머 -9610
▁수수 -9611
카라 -9612
▁감지 -9613
▁양키 -9614
리아는 -9615
어진다 -9616
▁안드레 -9617
▁소닉 -9618
▁끝나고 -9619
▁리버풀 -9620
▁발생할 -9621
▁아이를 -9622
런트 -9623
▁명문 -9624
▁지각 -9625
▁보스니아 -9626
▁토너먼트 -9627
▁시라 -9628
▁운행하는 -9629
터스 -9630
~19 -9631
▁유신 -9632
▁출토 -9633
▁전세계 -9634
▁진출하였다 -9635
미로 -9636
▁사료 -9637
▁시작하는 -9638
▁요르 -9639
▁클린 -9640
▁스리 -9641
▁셈 -9642
▁정확하게 -9643
▁장의 -9644
▁향을 -9645
▁스파르타 -9646
목이 -9647
위대 -9648
ian -9649
▁"" -9650
▁삼고 -9651
▁신용 -9652
▁된다고 -9653
▁배틀 -9654
▁사천 -9655
▁성씨 -9656
▁작고 -9657
▁캐스팅 -9658
스파 -9659
▁이광 -9660
▁하야 -9661
▁의견이 -9662
▁잠수함 -9663
▁삿 -9664
격이 -9665
▁개관 -9666
▁짓고 -9667
거는 -9668
▁필름 -9669
▁1.5 -9670
▁특이한 -9671
▁유출 -9672
▁증권 -9673
▁언제나 -9674
▁비슷하다 -9675
▁하인리히 -9676
▁물에 -9677
▁평행 -9678
▁들어가는 -9679
설이 -9680
ome -9681
▁링컨 -9682
▁배를 -9683
▁독일에서 -9684
▁번호 -9685
▁파운드 -9686
▁비즈니스 -9687
▁프랑스와 -9688
▁세미 -9689
▁줄어 -9690
▁하얀 -9691
중에는 -9692
능력 -9693
▁일조 -9694
▁차례로 -9695
경영 -9696
퍼스 -9697
-11 -9698
▁강경 -9699
▁김재 -9700
▁김진 -9701
▁쓰인 -9702
▁에디 -9703
▁경우를 -9704
▁인정받아 -9705
▁아폴 -9706
버는 -9707
▁하였는데 -9708
▁설립하였다 -9709
73 -9710
▁닿 -9711
▁발견한 -9712
▁일제강점 -9713
IM -9714
▁톈 -9715
▁72 -9716
▁교외 -9717
▁안산 -9718
▁1895 -9719
자연 -9720
▁창건 -9721
▁생기는 -9722
▁재산을 -9723
처리 -9724
▁기체 -9725
▁섬을 -9726
학위를 -9727
▁아틀레 -9728
▁생각된다 -9729
▁분데스리가 -9730
▁닥터 -9731
사추세츠 -9732
400 -9733
▁관직 -9734
▁컨트롤 -9735
▁이미지를 -9736
어이다 -9737
▁집으로 -9738
▁연속으로 -9739
,8 -9740
박스 -9741
티의 -9742
▁아이슬 -9743
▁정교회 -9744
▁조직을 -9745
~3 -9746
▁등재 -9747
▁건물을 -9748
▁모델을 -9749
▁점이다 -9750
▁제외하고는 -9751
▁조반 -9752
량으로 -9753
▁밴드는 -9754
▁시작되어 -9755
▁잃은 -9756
▁리눅스 -9757
▁분리되어 -9758
너의 -9759
▁PD -9760
▁고분 -9761
▁의병 -9762
▁일으키는 -9763
▁걱 -9764
▁도호쿠 -9765
▁전쟁으로 -9766
▁지속적인 -9767
▁홈페이지 -9768
▁디스플레이 -9769
▁달린 -9770
▁못할 -9771
pp -9772
▁텔 -9773
희의 -9774
▁명백 -9775
진으로 -9776
▁라이선 -9777
▁소속이다 -9778
▁제작되었다 -9779
,0 -9780
▁헐 -9781
번을 -9782
풍을 -9783
▁에버 -9784
▁지냈으며 -9785
▁함유 -9786
▁레이저 -9787
▁영역을 -9788
▁판결을 -9789
▁죽이고 -9790
레를 -9791
▁왕족 -9792
▁남부의 -9793
▁지금도 -9794
ire -9795
▁라스 -9796
▁호세 -9797
이라도 -9798
▁방송국 -9799
하였다는 -9800
스카야 -9801
번뇌 -9802
티모 -9803
▁스핀 -9804
ee -9805
▁객관 -9806
▁다중 -9807
▁당대 -9808
▁부과 -9809
?" -9810
▁페어 -9811
하우스 -9812
▁누르고 -9813
▁모두가 -9814
제국의 -9815
▁그렇지 -9816
▁운행을 -9817
▁일했다 -9818
▁정책에 -9819
▁어려움을 -9820
▁팔레스타 -9821
▁형법 -9822
▁이틀 -9823
▁중독 -9824
▁시기는 -9825
▁않았기 -9826
▁역임한 -9827
▁전에는 -9828
▁하거나 -9829
생이 -9830
인들 -9831
▁기록하여 -9832
적에 -9833
▁며칠 -9834
▁밝혔 -9835
▁서해 -9836
▁평등 -9837
-17 -9838
▁이화 -9839
OV -9840
▁이반 -9841
▁트레이드 -9842
▁사용될 -9843
▁허리케 -9844
▁분류된다 -9845
:1 -9846
▁알코 -9847
▁바꿔 -9848
점이다 -9849
▁거리가 -9850
▁우연히 -9851
트니 -9852
▁낙선 -9853
▁중심이 -9854
스부르크 -9855
▁컬럼비아 -9856
르노 -9857
초를 -9858
▁다녀 -9859
▁싶어 -9860
▁시즌에는 -9861
▁꽤 -9862
있던 -9863
▁번식 -9864
리면서 -9865
법인이다 -9866
러가 -9867
소방 -9868
층은 -9869
-12 -9870
▁두루 -9871
▁식별 -9872
▁독일은 -9873
기준 -9874
▁형태는 -9875
실과 -9876
▁59 -9877
▁갓 -9878
속을 -9879
아리 -9880
치료 -9881
▁느낀 -9882
▁신비 -9883
▁죄를 -9884
▁평소 -9885
가에서 -9886
지붕 -9887
▁약화 -9888
▁동물의 -9889
▁선거를 -9890
▁분배 -9891
▁제갈 -9892
▁좌파 -9893
▁대처 -9894
▁알제 -9895
▁친정 -9896
지나 -9897
▁화살 -9898
▁스릴러 -9899
무기 -9900
학교에 -9901
▁진출했다 -9902
민을 -9903
▁날짜 -9904
▁관현악 -9905
▁유네스코 -9906
선언 -9907
▁액체 -9908
으로의 -9909
▁지방에서 -9910
▁리스 -9911
▁써서 -9912
▁아즈 -9913
▁용이 -9914
▁의사를 -9915
▁외곽 -9916
▁촉구 -9917
▁고무 -9918
▁몰려 -9919
▁건물이 -9920
▁멕시코의 -9921
▁총선거 -9922
▁교구 -9923
▁미토 -9924
▁백악 -9925
▁염색 -9926
정부의 -9927
▁Con -9928
▁지명을 -9929
▁가벼 -9930
▁영남 -9931
▁아이템 -9932
▁설립했다 -9933
손은 -9934
▁추상 -9935
자본 -9936
▁관습 -9937
▁장난 -9938
▁체계를 -9939
▁뉴욕에서 -9940
책임 -9941
▁77 -9942
▁GT -9943
▁수평 -9944
롤라이나 -9945
▁시나리오 -9946
▁언더 -9947
▁엉 -9948
주곡 -9949
타니 -9950
▁on -9951
▁팀에 -9952
▁포로 -9953
▁할당 -9954
바이잔 -9955
▁식으로 -9956
기기 -9957
▁무소 -9958
▁안장 -9959
▁호칭 -9960
시까지 -9961
▁만화가 -9962
▁영향력 -9963
▁차지한 -9964
▁여기에는 -9965
▁이루었다 -9966
ace -9967
▁스쿨 -9968
▁목표를 -9969
▁일어날 -9970
▁퍼시픽 -9971
▁성립한다 -9972
▁프로야구 -9973
▁잦 -9974
마사 -9975
마치 -9976
범한 -9977
왕에 -9978
ber -9979
소이다 -9980
▁확인되었다 -9981
고도 -9982
▁고지 -9983
▁수렴 -9984
▁들어오 -9985
▁소수의 -9986
▁투르크 -9987
▁리메이크 -9988
수인 -9989
시노 -9990
▁해인 -9991
▁주제가 -9992
▁중기의 -9993
보도 -9994
▁지폐 -9995
▁차기 -9996
▁마이너 -9997
▁이력 -9998
▁나이지 -9999
▁트랜스 -10000
▁자신에게 -10001
▁원내 -10002
▁155 -10003
▁한계 -10004
▁분야에 -10005
양은 -10006
▁멈추 -10007
▁일에 -10008
▁후안 -10009
화하고 -10010
▁긍정적인 -10011
자도 -10012
▁있어서는 -10013
▁친일인명 -10014
마와 -10015
주식 -10016
▁불을 -10017
▁상원 -10018
▁145 -10019
▁검증 -10020
▁신하 -10021
▁회담 -10022
▁시작된다 -10023
▁광주광역시 -10024
▁아이슬란드 -10025
▁쫓겨 -10026
▁출전해 -10027
▁CE -10028
▁김포 -10029
▁위협을 -10030
제르바이잔 -10031
▁미치 -10032
▁애덤 -10033
단이다 -10034
▁맡았고 -10035
▁에티오 -10036
▁비례대표 -10037
에너 -10038
▁바실 -10039
▁스티브 -10040
▁관람 -10041
▁마오 -10042
▁아벨 -10043
▁출연한 -10044
▁활동은 -10045
사우루스 -10046
러의 -10047
▁바닷 -10048
▁전세 -10049
▁모델은 -10050
▁대통령을 -10051
▁조건으로 -10052
▁닭 -10053
파일 -10054
환이 -10055
▁내고 -10056
▁치열 -10057
▁과정에 -10058
▁하드웨어 -10059
▁대니 -10060
▁상세 -10061
▁나갔다 -10062
▁라이언 -10063
OL -10064
▁고발 -10065
▁고려의 -10066
▁맞추어 -10067
-16 -10068
ust -10069
!" -10070
▁전신 -10071
▁미국에서는 -10072
▁뜻의 -10073
▁외야 -10074
▁입체 -10075
▁전례 -10076
▁총괄 -10077
라리 -10078
전사 -10079
▁쉬운 -10080
▁영동 -10081
▁교도 -10082
▁내야 -10083
▁루스 -10084
슈타인 -10085
식품 -10086
투를 -10087
▁소총 -10088
▁향후 -10089
자리를 -10090
▁거주하고 -10091
도비 -10092
▁후일 -10093
분석 -10094
예를 -10095
▁요크 -10096
▁NC -10097
▁듯한 -10098
▁비단 -10099
▁숙종 -10100
▁어울 -10101
▁기념물 -10102
▁일어났 -10103
올로 -10104
▁동래 -10105
▁되었을 -10106
▁사회에 -10107
행의 -10108
▁내보 -10109
▁했다는 -10110
▁수행하는 -10111
▁준우승을 -10112
결합 -10113
▁주를 -10114
화하여 -10115
▁부문에 -10116
▁속도가 -10117
▁밟 -10118
권도 -10119
▁복지 -10120
▁국가에 -10121
▁칼리지 -10122
▁후쿠시마 -10123
AL -10124
고쿠 -10125
▁메타 -10126
▁종결 -10127
▁아래로 -10128
▁한국전쟁 -10129
▁것인 -10130
▁공직 -10131
▁건물의 -10132
▁스튜어 -10133
▁영화에 -10134
SS -10135
▁제수 -10136
학자인 -10137
▁국가대표팀의 -10138
받을 -10139
실험 -10140
▁구리 -10141
▁봉사 -10142
▁부를 -10143
▁식량 -10144
년간의 -10145
▁속으로 -10146
▁키프로 -10147
비나 -10148
▁엔지 -10149
▁종의 -10150
▁스피드 -10151
▁붓 -10152
자스 -10153
ite -10154
▁비서 -10155
▁수업 -10156
▁이노 -10157
▁공사가 -10158
pt -10159
▁광산 -10160
▁신생 -10161
▁편리 -10162
▁다음에 -10163
▁진행된 -10164
▁상징하는 -10165
▁기갑 -10166
▁김상 -10167
▁되었지만 -10168
▁둥근 -10169
▁여행을 -10170
▁비슷하게 -10171
▁레전드 -10172
사태 -10173
▁엘리베이 -10174
▁자본주의 -10175
천은 -10176
▁공채 -10177
▁쇼핑 -10178
▁중도 -10179
▁대회의 -10180
일드 -10181
▁바뀐 -10182
▁아세 -10183
하였기 -10184
▁간부 -10185
야가 -10186
▁매출 -10187
▁리비아 -10188
▁이곳은 -10189
▁걸어 -10190
▁게오 -10191
▁나아 -10192
▁장로 -10193
▁가난한 -10194
▁개혁을 -10195
▁만났다 -10196
공립 -10197
돌이 -10198
▁선교사 -10199
IP -10200
▁돌연 -10201
▁작센 -10202
▁조항 -10203
▁탓에 -10204
▁무거운 -10205
▁볼리 -10206
▁시는 -10207
▁마이크 -10208
▁움직이는 -10209
▁글리 -10210
▁열고 -10211
하겠다는 -10212
르지 -10213
해와 -10214
▁기지 -10215
▁끌려 -10216
▁범위 -10217
편으로 -10218
푸르트 -10219
▁작곡한 -10220
▁행성의 -10221
▁화제가 -10222
바닥 -10223
▁왕비 -10224
▁통근 -10225
▁기록된 -10226
시내 -10227
포의 -10228
타리오 -10229
호선은 -10230
▁실시간 -10231
▁오렌지 -10232
▁측면에서 -10233
▁전인 -10234
우주연 -10235
▁제품을 -10236
▁지어졌다 -10237
▁끓 -10238
▁훔 -10239
질은 -10240
▁쌓아 -10241
600 -10242
▁단종 -10243
▁로열 -10244
▁교수는 -10245
▁지점에 -10246
▁진나라 -10247
▁남아있는 -10248
▁강제로 -10249
산성 -10250
▁내린 -10251
▁누군 -10252
▁신속 -10253
▁급격히 -10254
▁지나치게 -10255
그레 -10256
▁FM -10257
▁계절 -10258
▁들이 -10259
▁버튼 -10260
십자 -10261
유적 -10262
.25 -10263
▁격퇴 -10264
▁은퇴를 -10265
▁어려움 -10266
▁자신과 -10267
▁동년 -10268
▁찾기 -10269
▁NBA -10270
▁개발에 -10271
▁공간의 -10272
▁애틀랜 -10273
▁63 -10274
철도의 -10275
▁도움으로 -10276
▁조상 -10277
▁시즌의 -10278
▁뿔 -10279
노프 -10280
▁소환 -10281
▁재활 -10282
▁소유하고 -10283
학이 -10284
▁군수 -10285
▁극히 -10286
▁숨겨 -10287
▁사랑의 -10288
▁1916 -10289
▁토니 -10290
▁결과에 -10291
▁라우 -10292
▁공동체 -10293
▁공화당 -10294
▁십자가 -10295
각이 -10296
석기 -10297
▁드럼 -10298
▁어휘 -10299
▁김대중 -10300
▁성모 -10301
▁통칭 -10302
▁해운 -10303
▁봐 -10304
▁김수 -10305
▁폐위 -10306
이었기 -10307
▁대학을 -10308
▁마음이 -10309
▁승강장은 -10310
▁손자 -10311
▁시칠 -10312
▁구조로 -10313
▁조문이다 -10314
▁거론 -10315
▁병행 -10316
로니 -10317
▁관중 -10318
▁군에 -10319
▁받기 -10320
베르토 -10321
▁받았으나 -10322
▁꼴 -10323
클랜드 -10324
▁코무네 -10325
결정 -10326
레아 -10327
질로 -10328
▁실린 -10329
▁미주 -10330
▁중소 -10331
▁보한다 -10332
▁있었다는 -10333
망이 -10334
크리 -10335
▁|| -10336
▁히데요 -10337
▁첨가 -10338
▁정이다 -10339
▁선수들이 -10340
▁지혜 -10341
▁전자기 -10342
▁설치류의 -10343
▁않았으나 -10344
▁이상으로 -10345
▁김기 -10346
▁채권 -10347
▁인물을 -10348
▁참여하여 -10349
▁전념 -10350
▁진동 -10351
▁참가하고 -10352
▁휠 -10353
▁의뢰 -10354
▁대법원 -10355
하였다가 -10356
▁앓 -10357
일간 -10358
▁선구 -10359
▁옷을 -10360
▁일도 -10361
▁증기 -10362
해왔다 -10363
▁노무현 -10364
▁HT -10365
▁리치 -10366
▁매카 -10367
▁IBM -10368
▁동명의 -10369
▁참가하는 -10370
▁강과 -10371
▁깨달 -10372
▁매개 -10373
▁전선 -10374
스트를 -10375
~20 -10376
▁시절부터 -10377
▁일시적으로 -10378
,5 -10379
▁막내 -10380
▁서사 -10381
▁신규 -10382
▁오하이 -10383
▁치러진 -10384
▁매사추세츠 -10385
빈은 -10386
음과 -10387
▁성당 -10388
원들이 -10389
하려면 -10390
▁기간에 -10391
▁나섰다 -10392
▁아버지와 -10393
소득 -10394
ies -10395
▁남원 -10396
▁신념 -10397
▁것에서 -10398
▁할리우 -10399
고래 -10400
턴의 -10401
▁부장 -10402
▁좌절 -10403
▁선거구 -10404
▁Wh -10405
▁전제 -10406
▁줄기 -10407
▁진짜 -10408
▁나타낼 -10409
▁활발한 -10410
▁왕자 -10411
▁니콜라 -10412
▁페르난 -10413
▁Te -10414
▁정렬 -10415
래스카 -10416
일에서 -10417
▁곡이다 -10418
▁나이가 -10419
▁문법 -10420
▁전체가 -10421
포가 -10422
▁실려 -10423
▁인플 -10424
▁해밀 -10425
▁페르디 -10426
▁플레이스테이션 -10427
▁찌 -10428
미국 -10429
운트 -10430
톨레 -10431
ran -10432
▁눈이 -10433
▁닛폰 -10434
▁로즈 -10435
▁오빠 -10436
▁장려 -10437
▁끝까지 -10438
HE -10439
길을 -10440
전도 -10441
해군 -10442
▁권위 -10443
▁소설을 -10444
▁에이스 -10445
▁작위를 -10446
▁아니지만 -10447
▁날아 -10448
기관으로 -10449
▁군단 -10450
▁힘입 -10451
▁성공하였다 -10452
▁모방 -10453
▁직선 -10454
▁일컫는 -10455
류이다 -10456
▁교수가 -10457
,7 -10458
서울 -10459
야를 -10460
_8 -10461
산면 -10462
▁전진 -10463
▁주석 -10464
▁헤드 -10465
때문에 -10466
원들은 -10467
해지는 -10468
▁드러나 -10469
▁주장하고 -10470
하우 -10471
▁손해 -10472
▁평택 -10473
▁아마도 -10474
▁휴스턴 -10475
▁학교에서 -10476
▁활약했다 -10477
감에 -10478
ark -10479
▁오오 -10480
▁치명 -10481
▁해주 -10482
▁생각하는 -10483
▁낼 -10484
▁노비 -10485
▁좌표 -10486
▁차가 -10487
▁시설이 -10488
문제연구 -10489
▁실질적인 -10490
▁아사히 -10491
▁나라에서 -10492
자책 -10493
▁개화 -10494
▁구조가 -10495
▁아제르바이잔 -10496
▁현저 -10497
▁새겨져 -10498
for -10499
▁th -10500
▁보전 -10501
▁쓰이고 -10502
▁중요하다 -10503
바스 -10504
▁왜냐 -10505
▁평창 -10506
▁라트비아 -10507
▁사헌 -10508
▁방법이다 -10509
대교 -10510
터미널 -10511
▁데이터베이스 -10512
▁임기 -10513
▁진정 -10514
▁영상을 -10515
란히 -10516
▁딸을 -10517
▁말기 -10518
인치 -10519
▁먹고 -10520
▁비오 -10521
시부터 -10522
_9 -10523
극장 -10524
쟁이 -10525
청에 -10526
▁소실 -10527
▁영의 -10528
▁조금씩 -10529
▁활약한 -10530
동시 -10531
▁소니 -10532
▁넣었다 -10533
셰비 -10534
▁아인 -10535
▁주소 -10536
▁피어 -10537
▁요소가 -10538
▁결혼했다 -10539
림이 -10540
서도 -10541
▁발원 -10542
▁이에야 -10543
▁스케이팅 -10544
목적 -10545
보안 -10546
주쿠 -10547
▁거행 -10548
▁계몽 -10549
▁곡이 -10550
▁굉장 -10551
▁CON -10552
▁공사를 -10553
▁별다른 -10554
▁등장했다 -10555
▁우승하였다 -10556
▁매달 -10557
▁목사 -10558
▁잭슨 -10559
▁여성이 -10560
▁레논 -10561
▁맞지 -10562
▁한미 -10563
▁관리하고 -10564
▁우울 -10565
▁유격 -10566
과정을 -10567
▁본사는 -10568
▁충격을 -10569
▁계획에 -10570
▁생각하고 -10571
▁춘천 -10572
▁연구소 -10573
무스 -10574
▁SP -10575
왔으며 -10576
▁각본을 -10577
▁그레고 -10578
▁대학에 -10579
▁참고로 -10580
▁관장 -10581
▁그중 -10582
▁놓은 -10583
▁주차 -10584
▁한쪽 -10585
▁부분적으로 -10586
풍의 -10587
회담 -10588
▁It -10589
▁쇼와 -10590
학적으로 -10591
안타 -10592
▁존중 -10593
▁해를 -10594
▁다리를 -10595
▁만나게 -10596
▁성균관 -10597
헤이 -10598
▁Co -10599
▁검은색 -10600
▁음악의 -10601
▁울산광역시 -10602
▁옌 -10603
채를 -10604
▁다항 -10605
▁부대를 -10606
▁담당하고 -10607
▁정부로부터 -10608
MA -10609
▁문장 -10610
대한민 -10611
▁게이트 -10612
▁교차로 -10613
▁웨일스 -10614
▁경비 -10615
▁프랭크 -10616
▁인정하지 -10617
각은 -10618
약품 -10619
▁개그 -10620
▁안쪽 -10621
▁정면 -10622
▁의회는 -10623
▁별칭 -10624
▁회고 -10625
▁운동은 -10626
▁일요일 -10627
구성 -10628
inc -10629
▁펜실베이 -10630
ft -10631
정당 -10632
▁섬은 -10633
▁하락 -10634
▁협의 -10635
▁조선인 -10636
니시 -10637
회장 -10638
▁물고 -10639
▁총재 -10640
사리 -10641
일체 -10642
▁비평 -10643
▁시흥 -10644
▁부동산 -10645
강전 -10646
브의 -10647
▁나쁜 -10648
▁학자들은 -10649
봉을 -10650
▁국방부 -10651
버스터미널 -10652
FM -10653
▁이진 -10654
▁평면 -10655
▁바꾸어 -10656
▁알렸다 -10657
▁중심기압 -10658
▁경기에서는 -10659
층이 -10660
▁LP -10661
▁딘 -10662
작의 -10663
▁바른 -10664
▁유언 -10665
통이 -10666
▁98 -10667
▁나눌 -10668
▁사토 -10669
년동안 -10670
짜리 -10671
▁구릉 -10672
▁배구 -10673
▁연호 -10674
고등학교를 -10675
▁보완 -10676
▁충주 -10677
마르크 -10678
시에는 -10679
▁서쪽에 -10680
▁양식을 -10681
nt -10682
카타 -10683
▁부적 -10684
▁육성 -10685
▁최후의 -10686
▁요미우리 -10687
려서 -10688
▁상상 -10689
렸으나 -10690
▁문서는 -10691
▁탈환 -10692
체제 -10693
▁코트 -10694
▁경험이 -10695
▁군대의 -10696
▁승인을 -10697
링은 -10698
▁만의 -10699
▁정리한 -10700
번에 -10701
▁불교의 -10702
▁영어로 -10703
포구 -10704
ile -10705
▁사이가 -10706
당하였다 -10707
▁멋 -10708
▁2.0 -10709
▁새누리 -10710
리라 -10711
▁트루 -10712
▁환원 -10713
▁부대는 -10714
▁프랑스어 -10715
▁솟 -10716
방은 -10717
▁시켜 -10718
▁장학 -10719
▁쓰였다 -10720
▁햇 -10721
▁야간 -10722
▁경제학 -10723
▁단위로 -10724
▁선수를 -10725
▁탤 -10726
벤처 -10727
▁상반 -10728
▁덧붙여 -10729
▁세계대 -10730
▁진출을 -10731
▁둘러싸고 -10732
▁진행된다 -10733
▁mm -10734
▁개발되었다 -10735
CD -10736
쥐과에 -10737
프랑스 -10738
▁거리는 -10739
▁인물이 -10740
리그에서 -10741
▁앨범이다 -10742
만원 -10743
번은 -10744
▁공인 -10745
▁길게 -10746
▁명에 -10747
▁몸에 -10748
▁칭호를 -10749
▁경부 -10750
▁보지 -10751
▁역설 -10752
▁규모는 -10753
▁마쳤다 -10754
▁아미노 -10755
▁일어나자 -10756
▁움직임 -10757
▁회사를 -10758
▁않았다고 -10759
▁발매하였다 -10760
ide -10761
▁출산 -10762
▁데뷔를 -10763
▁얻는다 -10764
▁여기에서 -10765
▁슬라 -10766
▁잃어버 -10767
▁준비를 -10768
▁이끈 -10769
화에서 -10770
▁부족한 -10771
▁사회를 -10772
▁정신적 -10773
▁지정된 -10774
말라 -10775
여성 -10776
전선 -10777
▁건물로 -10778
▁대상을 -10779
▁서식하는 -10780
▁성우이다 -10781
▁쥬 -10782
주기 -10783
차와 -10784
▁대웅 -10785
▁아예 -10786
▁코어 -10787
▁투구 -10788
▁고양이 -10789
▁물고기 -10790
▁요구했다 -10791
미쓰 -10792
▁관념 -10793
▁결정적인 -10794
▁이집트의 -10795
함의 -10796
▁시초 -10797
▁이라 -10798
▁우라늄 -10799
▁권고 -10800
▁라파 -10801
▁부부 -10802
▁초연 -10803
▁최근의 -10804
됨으로써 -10805
▁관할하는 -10806
▁모으 -10807
달라고 -10808
▁닌텐도 -10809
▁동쪽에 -10810
▁용어를 -10811
▁음식을 -10812
▁천문학 -10813
▁시점에서 -10814
▁그날 -10815
▁아부 -10816
▁억압 -10817
▁생겼다 -10818
xt -10819
▁kg -10820
▁두어 -10821
도마뱀 -10822
려면 -10823
년이다 -10824
ment -10825
▁귀중한 -10826
▁카자흐스탄 -10827
놓은 -10828
▁만남 -10829
▁전압 -10830
되지는 -10831
나우 -10832
시안 -10833
▁민사 -10834
▁행적 -10835
권에서 -10836
증으로 -10837
▁비용을 -10838
▁지적했다 -10839
▁로스앤젤레스에서 -10840
▁색을 -10841
위안 -10842
츠가 -10843
커니즘 -10844
▁저명한 -10845
▁대관 -10846
▁섬유 -10847
▁연결된 -10848
▁시절에는 -10849
▁댐 -10850
냈고 -10851
▁기름 -10852
▁깨닫 -10853
▁추출 -10854
통의 -10855
▁미노 -10856
스와의 -10857
▁감정을 -10858
▁사건이다 -10859
▁존재하며 -10860
▁중에서는 -10861
▁AK -10862
▁cm -10863
▁제사 -10864
▁초등 -10865
▁하나이며 -10866
▁왓 -10867
▁일본을 -10868
감과 -10869
서야 -10870
▁왕은 -10871
▁국가로 -10872
다지 -10873
미노 -10874
▁펼쳤다 -10875
라트 -10876
제한 -10877
▁산소 -10878
▁연세 -10879
▁오라 -10880
▁주류 -10881
▁배웠다 -10882
▁2,000 -10883
척의 -10884
▁중간에 -10885
▁시내버스 -10886
보건 -10887
▁유죄 -10888
인들과 -10889
▁밑에서 -10890
▁활동하는 -10891
▁갇 -10892
▁이긴 -10893
▁국가는 -10894
아일랜드 -10895
▁있으면서 -10896
박한 -10897
▁가짜 -10898
▁거제 -10899
▁구동 -10900
▁느껴 -10901
▁굉장히 -10902
▁비판했다 -10903
▁셸 -10904
▁턱 -10905
▁62 -10906
▁리틀 -10907
▁마루 -10908
지역의 -10909
▁기술의 -10910
▁시스템이 -10911
▁조선인민 -10912
▁엽 -10913
▁// -10914
▁담긴 -10915
▁송시 -10916
▁야당 -10917
게이머 -10918
▁생각해 -10919
▁생각한다 -10920
▁시작하였고 -10921
모와 -10922
작이 -10923
▁구는 -10924
▁낭만 -10925
▁최상위 -10926
▁추정되는 -10927
각의 -10928
놓고 -10929
가이자 -10930
공산당 -10931
▁초반에 -10932
▁기점으로 -10933
▁사라졌다 -10934
▁하더라도 -10935
녀를 -10936
▁기습 -10937
▁높고 -10938
▁시계 -10939
거리는 -10940
▁신호를 -10941
▁왜냐하면 -10942
나스 -10943
리야 -10944
▁해변 -10945
▁RNA -10946
▁승리한 -10947
▁호평을 -10948
▁하나였다 -10949
▁난징 -10950
▁아는 -10951
▁앨범의 -10952
▁제외하면 -10953
▁얻고 -10954
▁펜실베이니아 -10955
▁충북 -10956
▁통행 -10957
즈에서 -10958
시즘 -10959
▁AR -10960
▁부호 -10961
▁빠진 -10962
▁이산화 -10963
▁조명 -10964
▁카롤 -10965
▁사이드 -10966
▁선보였다 -10967
▁성별 -10968
▁총대 -10969
▁겪었다 -10970
▁시설을 -10971
▁대한민국에 -10972
이거나 -10973
▁기리기 -10974
멘트 -10975
찬을 -10976
이면서 -10977
▁자체는 -10978
▁갈아 -10979
▁김경 -10980
▁컬러 -10981
년대의 -10982
▁않는다고 -10983
구르 -10984
창을 -10985
▁상수 -10986
▁플랑 -10987
베트남 -10988
▁자금을 -10989
▁거느리고 -10990
▁변경하였다 -10991
▁디오 -10992
▁사원 -10993
▁쫓아 -10994
강에서 -10995
▁놓았다 -10996
▁마을의 -10997
▁인터페이스 -10998
가고 -10999
리조 -11000
▁고수 -11001
▁띠고 -11002
▁모형 -11003
▁학위 -11004
▁사무실은 -11005
▁아일랜드의 -11006
열대 -11007
▁이윤 -11008
채널 -11009
▁팀인 -11010
▁도착한 -11011
▁봤 -11012
루션 -11013
▁엔진은 -11014
▁지방을 -11015
▁인접한 -11016
대회에서 -11017
▁연령 -11018
▁블라디미르 -11019
강은 -11020
▁참여하는 -11021
릴라 -11022
▁도주 -11023
▁쇼군 -11024
▁찾아볼 -11025
▁프랑수아 -11026
▁옴 -11027
▁부수 -11028
▁초과 -11029
▁추격 -11030
▁협약 -11031
디나 -11032
▁종은 -11033
▁시즌이 -11034
▁오하이오 -11035
▁이야기는 -11036
네가 -11037
▁태종 -11038
▁더글 -11039
▁몰래 -11040
▁통틀 -11041
▁기반의 -11042
▁문화체육 -11043
현과 -11044
▁안보 -11045
▁지식을 -11046
▁테이블 -11047
▁이루어지고 -11048
▁단단 -11049
▁신이 -11050
▁신한 -11051
▁조달 -11052
▁채무 -11053
▁순수한 -11054
▁중국과 -11055
▁차원에서 -11056
▁월드컵에서 -11057
▁결론 -11058
▁순회 -11059
▁위임 -11060
▁125 -11061
▁기능은 -11062
르며 -11063
▁수동 -11064
ound -11065
▁생산하는 -11066
디언 -11067
▁난이 -11068
▁이론의 -11069
구나 -11070
▁내전 -11071
▁담겨 -11072
▁사이버 -11073
▁고려대학교 -11074
▁업그 -11075
▁투옥 -11076
▁파스 -11077
▁생각할 -11078
▁태도를 -11079
▁특징이 -11080
▁온타리오 -11081
▁대한민국은 -11082
▁서정 -11083
▁힘입어 -11084
▁무승 -11085
시키며 -11086
iver -11087
▁이벤트 -11088
▁철도의 -11089
▁돋 -11090
▁변수 -11091
▁설탕 -11092
▁림 -11093
연구원 -11094
▁KIA -11095
열은 -11096
효소 -11097
▁밑에 -11098
▁분화 -11099
▁소셜 -11100
▁밀접한 -11101
▁이래로 -11102
▁종으로 -11103
▁선수이며 -11104
만명 -11105
층을 -11106
택을 -11107
어지는 -11108
위원장 -11109
▁와중에 -11110
▁파이어 -11111
▁Le -11112
▁정사 -11113
▁토요 -11114
▁논문을 -11115
▁마을을 -11116
▁대신하여 -11117
갔으며 -11118
▁싱글로 -11119
▁장치를 -11120
국장 -11121
업은 -11122
외선 -11123
▁시장을 -11124
▁최적 -11125
▁105 -11126
▁전투기 -11127
▁평균자책 -11128
내어 -11129
ory -11130
▁의미의 -11131
▁사망하고 -11132
철의 -11133
크에 -11134
▁뜨거운 -11135
법제 -11136
▁내리 -11137
▁아름다 -11138
▁업적을 -11139
프로그램 -11140
▁67 -11141
▁매입 -11142
▁봉쇄 -11143
▁입자 -11144
방에서 -11145
▁의식을 -11146
▁넬 -11147
▁뉘 -11148
다르 -11149
are -11150
rom -11151
▁최하 -11152
▁북부의 -11153
▁최대한 -11154
박사 -11155
▁구제 -11156
▁위탁 -11157
▁청원 -11158
▁것보다 -11159
▁나눠 -11160
▁조르 -11161
가들은 -11162
▁자세한 -11163
▁자리잡고 -11164
부르 -11165
▁붙은 -11166
거리를 -11167
▁수술을 -11168
▁여름에 -11169
위원으로 -11170
▁마약 -11171
▁마하 -11172
▁법조 -11173
▁테레 -11174
▁주장한 -11175
▁전도 -11176
▁이어진 -11177
▁경과 -11178
▁기아 -11179
▁베니 -11180
▁일컬 -11181
▁환경을 -11182
▁베트남의 -11183
▁쉐 -11184
루와 -11185
▁밤에 -11186
왕으로 -11187
~5 -11188
▁결코 -11189
▁경사 -11190
▁출처 -11191
▁취재 -11192
▁코스타 -11193
▁팜 -11194
벌레 -11195
▁사사 -11196
▁시점 -11197
▁패키 -11198
▁민족문제연구 -11199
버리 -11200
왕조 -11201
▁카스 -11202
▁사람과 -11203
▁조건이 -11204
림의 -11205
▁산다 -11206
▁아담 -11207
▁이의 -11208
▁국소 -11209
▁대피 -11210
▁띤다 -11211
▁탐지 -11212
▁위기를 -11213
▁횟 -11214
가족 -11215
터널 -11216
평화 -11217
▁두개 -11218
▁명성 -11219
▁올바 -11220
▁잎은 -11221
▁바이오 -11222
▁학교에 -11223
▁스톡 -11224
▁칼라 -11225
▁기록하는 -11226
▁경상남도의 -11227
▁앉아 -11228
▁정한 -11229
▁런던에서 -11230
▁사이타마 -11231
선이다 -11232
▁시장에 -11233
▁관리하는 -11234
라기 -11235
▁시뮬 -11236
▁후궁 -11237
▁공로로 -11238
▁도시가 -11239
▁프로레 -11240
지방선거 -11241
도어 -11242
▁대책 -11243
▁재현 -11244
▁먹이를 -11245
▁시호를 -11246
▁배치되어 -11247
▁대회에서는 -11248
참모 -11249
▁시골 -11250
▁진군 -11251
▁표명 -11252
▁하마 -11253
▁힘든 -11254
나갔다 -11255
방으로 -11256
▁카를로 -11257
님을 -11258
준의 -11259
▁넣고 -11260
▁레바 -11261
▁미즈 -11262
▁슬로베 -11263
국사 -11264
플렉 -11265
▁의회의 -11266
▁설명했다 -11267
▁개교 -11268
▁크리스토퍼 -11269
▁프랑크푸르트 -11270
급을 -11271
도리 -11272
▁네오 -11273
▁드문 -11274
▁유래한 -11275
▁자연스럽게 -11276
차량 -11277
▁갈릴 -11278
▁지점 -11279
▁폭스 -11280
▁왕위에 -11281
▁위험한 -11282
▁조선로동 -11283
▁프로게이머 -11284
TS -11285
▁킨 -11286
증은 -11287
▁예배 -11288
▁지형 -11289
▁팔라 -11290
▁되돌아 -11291
▁회사가 -11292
▁직접적으로 -11293
▁문제의 -11294
▁편입되었다 -11295
▁로저 -11296
▁마츠 -11297
▁발을 -11298
▁순교 -11299
▁요약 -11300
면에는 -11301
▁그쳤다 -11302
▁일본과 -11303
▁자체를 -11304
▁것으로서 -11305
파르 -11306
▁성취 -11307
계승 -11308
▁한스 -11309
정에서 -11310
▁무기를 -11311
▁바티칸 -11312
▁$ -11313
로우 -11314
만여 -11315
▁신약 -11316
▁제트 -11317
▁화석 -11318
▁회계 -11319
▁도미니 -11320
▁캠퍼스 -11321
▁1894 -11322
▁대통령에 -11323
포드 -11324
▁모친 -11325
▁문명 -11326
▁이식 -11327
▁독립된 -11328
▁신설되었다 -11329
씨로 -11330
천이 -11331
해양 -11332
man -11333
▁가축 -11334
▁복제 -11335
▁신임 -11336
▁카타 -11337
▁소관의 -11338
▁장관을 -11339
▁근처에서 -11340
▁떠올 -11341
▁부딪 -11342
▁지고 -11343
▁그랜 -11344
▁국내외 -11345
▁제주도 -11346
▁궁극 -11347
▁애비 -11348
▁엄격한 -11349
▁오프닝 -11350
▁체포되어 -11351
▁시키 -11352
▁통일신 -11353
▁문화방송 -11354
▁리투아니아 -11355
신에 -11356
▁Sp -11357
▁시즈 -11358
본으로 -11359
▁부문에서 -11360
ng -11361
▁엿 -11362
마일 -11363
병은 -11364
종인 -11365
omp -11366
▁선사 -11367
▁이내 -11368
액은 -11369
▁숭배 -11370
▁제프 -11371
항으로 -11372
▁물질을 -11373
▁전통을 -11374
▁달성했다 -11375
▁불이 -11376
▁사자 -11377
▁가수로 -11378
▁외교관 -11379
▁잃었다 -11380
▁일컫는다 -11381
무역 -11382
▁비유 -11383
▁임용 -11384
원숭이 -11385
쳤으며 -11386
▁우주의 -11387
▁이후로는 -11388
▁존재했던 -11389
▁범유 -11390
▁영문 -11391
▁장성 -11392
▁허브 -11393
▁내부에 -11394
▁자신도 -11395
▁그리스어 -11396
▁도입되었다 -11397
▁실패하였다 -11398
▁말씀 -11399
▁지능 -11400
▁들어온 -11401
▁모르는 -11402
▁소속된 -11403
▁이름인 -11404
▁안성 -11405
▁희귀 -11406
▁줄여서 -11407
▁이후부터 -11408
▁지구에서 -11409
절한 -11410
칼라 -11411
▁구출 -11412
▁그냥 -11413
▁밀어 -11414
▁보일 -11415
▁인격 -11416
▁즉각 -11417
▁황해도 -11418
했습니다 -11419
▁포르투갈의 -11420
▁경로 -11421
▁이가 -11422
▁지휘관 -11423
▁자동으로 -11424
▁땄 -11425
누스는 -11426
▁감독과 -11427
▁경찰은 -11428
▁만나는 -11429
▁알코올 -11430
집이 -11431
▁성주 -11432
▁인문 -11433
▁진흥 -11434
자들에 -11435
▁실패로 -11436
족에 -11437
황을 -11438
▁앙리 -11439
▁측의 -11440
가지의 -11441
▁제국을 -11442
▁그룹이다 -11443
▁그리스도의 -11444
교에 -11445
사나 -11446
▁것인데 -11447
▁루이지 -11448
▁디자인을 -11449
▁상태였다 -11450
어요 -11451
연방 -11452
지휘 -11453
▁이케 -11454
▁통영 -11455
▁구간을 -11456
▁스미스 -11457
대책 -11458
방울 -11459
ert -11460
▁에밀 -11461
▁개발이 -11462
▁제안을 -11463
TA -11464
소녀 -11465
▁서재 -11466
▁야쿠 -11467
스트리 -11468
▁할머니 -11469
▁이어진다 -11470
글리 -11471
왕과 -11472
ial -11473
▁78 -11474
▁캠프 -11475
작이다 -11476
▁그러던 -11477
▁섬으로 -11478
▁시즌은 -11479
▁가마쿠라 -11480
▁디비시 -11481
▁뻗어 -11482
▁업체 -11483
▁재혼 -11484
▁제압 -11485
▁가지며 -11486
▁분명히 -11487
캐롤라이나 -11488
▁세션 -11489
프라이 -11490
▁모델이 -11491
-18 -11492
▁수습 -11493
▁유산 -11494
▁응원 -11495
크에서 -11496
▁다양하다 -11497
▁오바 -11498
▁호위 -11499
▁방식이 -11500
▁1890 -11501
▁# -11502
▁상용 -11503
▁짙은 -11504
▁부작용 -11505
▁함으로써 -11506
▁복귀하였다 -11507
▁출전하였다 -11508
기사 -11509
▁조리 -11510
▁초월 -11511
▁협박 -11512
▁북부에 -11513
▁참여하고 -11514
▁친일인명사전 -11515
▁톤 -11516
변이 -11517
열차 -11518
▁가죽 -11519
▁제사를 -11520
▁크리스마스 -11521
정원 -11522
ign -11523
▁믿고 -11524
▁태평 -11525
야만 -11526
▁간호 -11527
풍으로 -11528
▁받침 -11529
▁빈곤 -11530
군이다 -11531
▁교황의 -11532
▁가나가와 -11533
로이 -11534
스런 -11535
함마 -11536
▁영조 -11537
▁랜드 -11538
▁맥스 -11539
적이지 -11540
▁다룬다 -11541
▁직전에 -11542
순위 -11543
희가 -11544
▁강도 -11545
▁이룬 -11546
▁제노 -11547
▁축하 -11548
▁스스로를 -11549
애를 -11550
액의 -11551
▁골프 -11552
▁리우 -11553
▁춘추 -11554
▁블로그 -11555
▁세상에 -11556
▁있었을 -11557
▁장군의 -11558
▁캄보디아 -11559
▁is -11560
▁고쳐 -11561
주의가 -11562
▁설명한다 -11563
아파 -11564
총장 -11565
▁제독 -11566
▁요청을 -11567
▁질량은 -11568
▁시외 -11569
▁양주 -11570
▁연쇄 -11571
▁비로소 -11572
▁이유를 -11573
▁프레스 -11574
▁기록했고 -11575
훈장 -11576
▁고백 -11577
▁불어 -11578
▁어긋 -11579
등으로 -11580
사업을 -11581
▁환경에 -11582
위원회를 -11583
학교에서 -11584
▁기업이다 -11585
ich -11586
▁CF -11587
▁연기를 -11588
▁출전한 -11589
▁아시안컵 -11590
~4 -11591
레타 -11592
임에도 -11593
▁2.5 -11594
▁다음해 -11595
▁반해 -11596
▁일종으로 -11597
▁냉각 -11598
▁대거 -11599
▁발트 -11600
▁부의 -11601
▁구스타 -11602
욕을 -11603
▁수도인 -11604
결과 -11605
▁석가 -11606
▁적고 -11607
▁주가 -11608
▁언어의 -11609
▁선언하였다 -11610
TC -11611
▁냄 -11612
▁전체에 -11613
▁토요일 -11614
반은 -11615
코쿠 -11616
ond -11617
▁동명 -11618
▁마스 -11619
▁월드컵에 -11620
~2 -11621
▁스폰 -11622
▁증후 -11623
▁버전의 -11624
▁본인의 -11625
▁삼국지 -11626
▁주장은 -11627
▁아니라고 -11628
▁어머니의 -11629
▁프로그램이 -11630
▁뒤집 -11631
▁엄격 -11632
월과 -11633
act -11634
▁가도 -11635
▁컨셉 -11636
▁북쪽의 -11637
▁여부를 -11638
▁낱말 -11639
▁선이 -11640
▁일러 -11641
▁일리노 -11642
▁프톨레 -11643
서원 -11644
▁사모 -11645
▁아홉 -11646
▁이경 -11647
루미늄 -11648
▁규모로 -11649
▁브라우저 -11650
코르 -11651
▁76 -11652
▁96 -11653
▁김일성 -11654
푸스 -11655
▁61 -11656
▁했을 -11657
▁사고가 -11658
▁승부차 -11659
▁불평 -11660
▁하우 -11661
▁속도는 -11662
▁특징으로 -11663
먼드 -11664
▁la -11665
▁고체 -11666
▁누가 -11667
까지만 -11668
레스는 -11669
▁전속 -11670
▁진급 -11671
라에서 -11672
▁거기서 -11673
▁사회에서 -11674
법칙 -11675
선생 -11676
▁노리 -11677
▁로이 -11678
▁버려 -11679
▁쏟아 -11680
▁나오지 -11681
▁블랙홀 -11682
▁비난을 -11683
▁임시정부 -11684
신도 -11685
풍속 -11686
▁CR -11687
▁마우 -11688
▁입원 -11689
▁변화에 -11690
▁일이다 -11691
▁성분 -11692
▁오노 -11693
▁불리게 -11694
▁장거리 -11695
▁중국에 -11696
▁1898 -11697
▁경우에도 -11698
▁지방자치 -11699
▁이남 -11700
▁베네딕 -11701
▁어머니가 -11702
더니 -11703
판과 -11704
퍼는 -11705
ass -11706
▁부사 -11707
▁불편 -11708
▁불확 -11709
▁트래 -11710
▁요구를 -11711
▁황제로 -11712
운영 -11713
▁미루 -11714
▁역에 -11715
▁오를 -11716
▁합창 -11717
▁게르만 -11718
▁말기의 -11719
▁부유한 -11720
▁과거에는 -11721
▁에스토니아 -11722
▁악기 -11723
운동에 -11724
▁노란색 -11725
▁움직임을 -11726
정리 -11727
▁김현 -11728
▁롤링 -11729
▁상처 -11730
▁선물 -11731
일이다 -11732
▁배우로 -11733
▁등지에서 -11734
▁프로듀싱 -11735
덕션 -11736
▁공모 -11737
렸는데 -11738
▁차이는 -11739
▁표현을 -11740
▁프로리그 -11741
수용 -11742
악한 -11743
▁옥스 -11744
▁인근의 -11745
슬리 -11746
▁관련한 -11747
▁기록해 -11748
▁계속되었다 -11749
냐는 -11750
신경 -11751
▁난민 -11752
▁뉴저 -11753
▁도는 -11754
▁경신 -11755
▁넣은 -11756
▁바퀴 -11757
▁소매 -11758
▁지정하여 -11759
▁World -11760
▁가톨릭교회 -11761
국어 -11762
예정 -11763
▁노트 -11764
라이어 -11765
▁남부에 -11766
▁소행성 -11767
널티 -11768
▁에미 -11769
▁헤라 -11770
▁적극적인 -11771
▁됐 -11772
행에 -11773
▁공민 -11774
▁규격 -11775
▁상트 -11776
▁우편 -11777
행으로 -11778
▁느낌을 -11779
▁추기경 -11780
▁콘스탄티노폴리스 -11781
강이 -11782
미스 -11783
▁증손 -11784
▁편곡 -11785
▁피츠 -11786
▁문화체육관광 -11787
께서 -11788
즈로 -11789
▁아랫 -11790
박쥐는 -11791
현으로 -11792
▁오리콘 -11793
과학기술 -11794
금지 -11795
폭력 -11796
▁나눈 -11797
▁시와 -11798
▁천도 -11799
▁카트 -11800
▁평일 -11801
▁가리키 -11802
▁뛰어나 -11803
▁원인은 -11804
▁되었다가 -11805
▁프로젝트를 -11806
고와 -11807
▁제곱 -11808
▁존속 -11809
테르부르크 -11810
함수 -11811
▁직면 -11812
▁역사와 -11813
▁중단되었다 -11814
▁봉건 -11815
▁덤 -11816
▁실전 -11817
나라에 -11818
▁기간을 -11819
▁적합한 -11820
▁피해가 -11821
▁향하는 -11822
회의에서 -11823
▁주민들이 -11824
▁깎 -11825
▁펌 -11826
]], -11827
▁제도가 -11828
▁투표를 -11829
▁의미에서 -11830
보르 -11831
▁샘플 -11832
▁중기 -11833
lo -11834
매매 -11835
재단 -11836
▁책의 -11837
▁101 -11838
▁우즈베 -11839
DS -11840
강과 -11841
토르 -11842
▁be -11843
▁물건 -11844
▁처녀 -11845
▁터뜨 -11846
▁합작 -11847
암으로 -11848
▁기술은 -11849
▁획득한 -11850
▁승격되었다 -11851
▁뭉 -11852
▁SE -11853
▁미얀마 -11854
▁중의원 -11855
▁방식이다 -11856
▁테니스 -11857
▁밴드이다 -11858
▁카를로스 -11859
▁맏 -11860
방위 -11861
자르 -11862
지능 -11863
▁토르 -11864
▁폭넓 -11865
서비스 -11866
▁공격에 -11867
▁관리를 -11868
▁그래프 -11869
▁부분의 -11870
▁정도였다 -11871
루에 -11872
였을 -11873
집에 -11874
▁말의 -11875
▁보호를 -11876
▁속하며 -11877
▁시기를 -11878
▁어려워 -11879
▁유지하는 -11880
▁원수 -11881
▁제자 -11882
▁초록 -11883
▁결성된 -11884
▁정신을 -11885
▁대학교에 -11886
▁쇄 -11887
사기 -11888
팀의 -11889
▁거울 -11890
겼으며 -11891
▁10% -11892
▁난다 -11893
▁창의 -11894
▁런던의 -11895
▁최악의 -11896
▁물러났다 -11897
▁더불어민주당 -11898
▁쓰기 -11899
▁아기 -11900
불교의 -11901
▁회의를 -11902
▁타이틀곡 -11903
링을 -11904
측에 -11905
하임 -11906
▁등극 -11907
▁자문 -11908
바이트 -11909
▁아버지를 -11910
▁이름에서 -11911
▁가량 -11912
있었다 -11913
▁2-1 -11914
▁섬에서 -11915
▁팀으로 -11916
측은 -11917
기독교 -11918
▁교육과 -11919
▁나가는 -11920
▁성격이 -11921
▁성장을 -11922
▁종류가 -11923
▁체코슬로 -11924
Hz -11925
▁맑 -11926
감한 -11927
일으 -11928
▁데스 -11929
▁맥도 -11930
▁오쿠 -11931
▁인터내셔널 -11932
느러 -11933
평군 -11934
▁붙인 -11935
▁시트 -11936
▁총칭 -11937
▁민족의 -11938
▁기독교의 -11939
▁헌법재판 -11940
▁환경에서 -11941
림은 -11942
▁바꾼 -11943
▁문과에 -11944
▁카리브 -11945
▁크레이 -11946
▁광장 -11947
▁브뤼 -11948
▁숫자 -11949
▁신선 -11950
▁나폴리 -11951
▁본사를 -11952
▁중추원 -11953
▁시리즈를 -11954
가르 -11955
언어 -11956
▁라마 -11957
▁법인 -11958
▁빌려 -11959
▁관직을 -11960
국제공항 -11961
근은 -11962
발이 -11963
지리 -11964
키와 -11965
파인 -11966
▁구할 -11967
▁딸인 -11968
▁존경 -11969
▁터키의 -11970
aw -11971
▁단기 -11972
▁정밀 -11973
▁플러 -11974
▁우승한 -11975
▁자유주의 -11976
▁노르웨이의 -11977
▁에티오피아 -11978
교수 -11979
블리 -11980
▁두는 -11981
▁약력 -11982
▁적혀 -11983
▁지휘하는 -11984
▁존재가 -11985
천여 -11986
▁방패 -11987
▁커널 -11988
▁얹 -11989
▁네팔 -11990
▁부가 -11991
▁부서 -11992
▁서초 -11993
▁옹립 -11994
▁선정한 -11995
▁수상한 -11996
▁용도로 -11997
▁해상에서 -11998
▁결정되었다 -11999
▁봉안 -12000
▁용의 -12001
사령관 -12002
▁독일어 -12003
▁아래는 -12004
▁감행 -12005
검찰청 -12006
▁독일이 -12007
▁왕국을 -12008
노가 -12009
▁교역 -12010
▁기자회 -12011
▁중국어 -12012
▁확실히 -12013
▁메시지를 -12014
두를 -12015
버린 -12016
ens -12017
▁왕복 -12018
▁흥선 -12019
▁노동조합 -12020
LS -12021
감은 -12022
▁일명 -12023
▁컴퍼 -12024
▁흔한 -12025
▁기사를 -12026
▁인정하고 -12027
▁공익 -12028
▁신탁 -12029
▁위장 -12030
이어서 -12031
화이다 -12032
▁이유가 -12033
▁아야 -12034
▁이차 -12035
▁협상을 -12036
▁방송되었다 -12037
군단 -12038
네시 -12039
lic -12040
▁DC -12041
▁채워 -12042
▁마천루 -12043
▁않으나 -12044
동시지방선거 -12045
▁고민 -12046
▁안에는 -12047
▁평범한 -12048
▁부분으로 -12049
▁프톨레마이 -12050
대륙 -12051
술의 -12052
▁신중 -12053
▁자회사 -12054
▁시베리아 -12055
수리 -12056
천사 -12057
▁밀집 -12058
▁비주 -12059
▁많으며 -12060
▁선거는 -12061
래스 -12062
▁그룹은 -12063
셈부르크 -12064
▁1899 -12065
▁형성한다 -12066
값을 -12067
▁박스 -12068
▁사범 -12069
▁상장 -12070
▁필사 -12071
▁동아일보 -12072
▁기록하면서 -12073
IG -12074
거를 -12075
생명 -12076
▁고령 -12077
▁김규 -12078
▁디자 -12079
▁정무 -12080
▁지주 -12081
▁홈구 -12082
▁갈등을 -12083
반이 -12084
코와 -12085
표는 -12086
▁플랜 -12087
▁파이널 -12088
▁페널티 -12089
▁불러일으 -12090
OU -12091
문에서 -12092
▁말기에 -12093
▁진행되고 -12094
상규 -12095
시나 -12096
태후 -12097
▁상류 -12098
▁소금 -12099
▁쇼트 -12100
▁자선 -12101
▁페리 -12102
▁남쪽의 -12103
▁미국을 -12104
▁줄무늬 -12105
▁크리스티안 -12106
▁옳 -12107
▁SU -12108
▁만일 -12109
▁케냐 -12110
▁해소 -12111
▁몬스터 -12112
▁차량은 -12113
▁극동 -12114
▁펠리 -12115
▁항소 -12116
▁사생활 -12117
전문학교 -12118
▁중앙위원회 -12119
병에 -12120
타우 -12121
▁EC -12122
▁We -12123
▁날에 -12124
▁디렉 -12125
▁리뷰 -12126
▁유교 -12127
▁교육의 -12128
▁일하는 -12129
가요 -12130
대왕 -12131
협력 -12132
urn -12133
▁암시 -12134
▁척추 -12135
지는데 -12136
▁패배를 -12137
▁급제하여 -12138
▁정치인으로 -12139
▁아크 -12140
▁조언 -12141
▁축적 -12142
로부터의 -12143
▁끊임없이 -12144
LE -12145
라톱 -12146
▁래퍼 -12147
▁카디 -12148
파이어 -12149
▁벌어졌다 -12150
_11 -12151
▁김씨 -12152
▁여신 -12153
▁오타 -12154
▁축출 -12155
▁피신 -12156
▁뒷받침 -12157
▁전라도 -12158
▁학교의 -12159
▁설명하는 -12160
대학교에서 -12161
▁최연 -12162
▁차량을 -12163
량과 -12164
▁무상 -12165
▁시범 -12166
▁개념이 -12167
▁제목의 -12168
▁알루미늄 -12169
▁한국시리즈 -12170
나오 -12171
ype -12172
▁비자 -12173
▁핀란드의 -12174
열에 -12175
▁자택 -12176
▁호의 -12177
▁성공회 -12178
▁시위를 -12179
▁이론에 -12180
줬다 -12181
▁3.1 -12182
▁물질의 -12183
▁스탈린 -12184
▁주식회 -12185
▁지구와 -12186
▁존재하고 -12187
도바 -12188
ary -12189
▁당일 -12190
▁승계 -12191
감으로 -12192
▁민족주의 -12193
▁주민들은 -12194
▁미디 -12195
▁원더 -12196
▁자유로운 -12197
허가 -12198
▁견해 -12199
▁광둥 -12200
▁술을 -12201
▁레바논 -12202
▁올랐고 -12203
▁육군의 -12204
▁행사를 -12205
▁던져 -12206
▁양국 -12207
▁왕세 -12208
▁이준 -12209
▁다운로드 -12210
!! -12211
▁낸다 -12212
▁싶은 -12213
▁가지가 -12214
▁보유한 -12215
▁수학자 -12216
▁완벽한 -12217
▁자격으로 -12218
▁한나라당 -12219
궁의 -12220
▁정서 -12221
▁케임 -12222
▁광저우 -12223
▁독립적인 -12224
위인 -12225
지아 -12226
▁강연 -12227
▁나주 -12228
스키는 -12229
▁구마모토 -12230
인한 -12231
▁연금 -12232
▁비판이 -12233
▁국제적인 -12234
▁느꼈 -12235
▁양호 -12236
버렸다 -12237
스카르 -12238
▁르네상스 -12239
▁따온 -12240
▁목을 -12241
▁유동 -12242
▁중산 -12243
▁시리즈는 -12244
달아 -12245
▁카나 -12246
-200 -12247
▁차량이 -12248
▁그들에게 -12249
▁닦 -12250
인간 -12251
▁딸로 -12252
▁심의 -12253
▁하트 -12254
▁클래스 -12255
레가 -12256
▁누르 -12257
▁세속 -12258
▁일방 -12259
▁자오 -12260
▁미시간 -12261
▁별명을 -12262
▁시장에서 -12263
▁결혼하였다 -12264
장치 -12265
▁산란 -12266
▁해수 -12267
하자는 -12268
▁국립공 -12269
▁오피스 -12270
▁시즌이다 -12271
운을 -12272
▁가까워 -12273
▁추측된다 -12274
풍이 -12275
▁베드로 -12276
▁서유럽 -12277
▁통틀어 -12278
▁나머지는 -12279
▁정부에서 -12280
다드 -12281
▁기각 -12282
▁민영 -12283
▁중공 -12284
▁카우 -12285
▁퀘벡 -12286
▁헤비 -12287
▁버전이 -12288
티코 -12289
▁그루 -12290
▁사면 -12291
▁삼각형 -12292
▁철도가 -12293
▁출시한 -12294
근의 -12295
▁제니 -12296
▁중대 -12297
▁독일과 -12298
▁바오로 -12299
▁중화민국의 -12300
기나 -12301
▁CJ -12302
▁버렸다 -12303
▁이라고 -12304
▁1902 -12305
▁리오 -12306
▁어원 -12307
▁청춘 -12308
▁케빈 -12309
▁머물렀다 -12310
돌을 -12311
▁IM -12312
▁꽃은 -12313
▁리만 -12314
▁성서 -12315
▁수면 -12316
▁아이치 -12317
연료 -12318
폭탄 -12319
푸아 -12320
▁00 -12321
▁GS -12322
▁나올 -12323
▁동문 -12324
▁위치는 -12325
제작 -12326
ree -12327
▁마에 -12328
어지고 -12329
▁가벼운 -12330
검사 -12331
투자 -12332
▁대교 -12333
▁웹툰 -12334
▁자를 -12335
▁정해 -12336
▁달한다 -12337
▁잡았다 -12338
▁들어간다 -12339
분해 -12340
잡이 -12341
▁교전 -12342
▁단어는 -12343
▁마음에 -12344
▁헝가리의 -12345
▁5,000 -12346
▁발현 -12347
▁압둘 -12348
▁직결 -12349
▁쓰시마 -12350
▁회장을 -12351
산물 -12352
▁침투 -12353
▁New -12354
▁리그를 -12355
▁있기도 -12356
▁타격을 -12357
▁고구려의 -12358
▁형태이다 -12359
▁선거구이다 -12360
▁바빌 -12361
▁삼촌 -12362
▁스캔 -12363
▁종속 -12364
▁중일 -12365
▁그래미 -12366
▁목표는 -12367
▁일리노이 -12368
▁총대주교 -12369
▁얽 -12370
▁69 -12371
▁담배 -12372
▁연구의 -12373
▁장군이 -12374
▁니콜라이 -12375
▁별은 -12376
▁이천 -12377
▁주체 -12378
▁유로파 -12379
▁타이베이 -12380
ach -12381
out -12382
▁마인 -12383
▁물어 -12384
▁존스 -12385
▁니가타 -12386
▁아무도 -12387
▁역사에 -12388
갈색 -12389
피의 -12390
▁메소 -12391
▁어른 -12392
▁우호 -12393
▁것들이 -12394
▁브로드 -12395
▁설치한 -12396
▁장면을 -12397
무는 -12398
▁몸이 -12399
▁백색 -12400
▁양이 -12401
▁간단히 -12402
▁레슬링 -12403
▁역사의 -12404
▁이용한다 -12405
▁몫 -12406
▁소말 -12407
▁입성 -12408
▁3,000 -12409
위해 -12410
▁문예 -12411
▁분당 -12412
▁얻지 -12413
▁가족은 -12414
▁출신인 -12415
반도 -12416
학원 -12417
▁쓰지 -12418
▁나가노 -12419
▁지냈고 -12420
▁강수량은 -12421
▁떨어지는 -12422
▁아라비아 -12423
▁아리스토 -12424
▁처음부터 -12425
▁자치구 -12426
▁아래에서 -12427
영과 -12428
협의 -12429
▁벌인 -12430
▁문자를 -12431
대학교의 -12432
▁구분된다 -12433
무장 -12434
▁완화 -12435
동이다 -12436
▁아레나 -12437
▁일대를 -12438
▁아시카가 -12439
▁시리즈에서 -12440
▁틸 -12441
▁모나 -12442
▁수확 -12443
▁갈수록 -12444
▁역사적인 -12445
붙이 -12446
히메 -12447
▁만성 -12448
▁먹을 -12449
▁촉매 -12450
법이다 -12451
세기부터 -12452
▁엔지니어 -12453
▁페르디난 -12454
아들 -12455
net -12456
▁마일 -12457
▁쓰촨 -12458
▁정조 -12459
으려고 -12460
▁드러머 -12461
▁선수들을 -12462
▁알려지게 -12463
▁중요성을 -12464
미트 -12465
▁부지 -12466
▁오비 -12467
,9 -12468
▁꼭짓 -12469
▁있는지 -12470
▁고등학교를 -12471
미즈 -12472
트륨 -12473
▁vs -12474
▁교리 -12475
▁사슬 -12476
▁대표적 -12477
▁시칠리아 -12478
설은 -12479
루이스 -12480
▁뚜렷한 -12481
▁일으킬 -12482
▁종로구 -12483
OD -12484
▁본부 -12485
▁빛이 -12486
교육을 -12487
▁가족의 -12488
▁스트리트 -12489
▁맵 -12490
두로 -12491
산리 -12492
▁루터 -12493
▁수련 -12494
▁따른다 -12495
▁팀에서 -12496
▁협주곡 -12497
대손 -12498
_15 -12499
▁주사 -12500
▁포획 -12501
▁용어로 -12502
:0 -12503
▁JT -12504
▁마야 -12505
▁우르 -12506
▁워터 -12507
운동의 -12508
▁기초를 -12509
▁예술가 -12510
▁승강장이 -12511
▁추가적인 -12512
▁알려져있다 -12513
▁제주특별자치도 -12514
▁왈 -12515
▁캉 -12516
요의 -12517
웠고 -12518
칸의 -12519
hPa -12520
▁놀이 -12521
▁둥글 -12522
▁시바 -12523
▁추산 -12524
하로 -12525
▁농림 -12526
▁동국 -12527
▁사절 -12528
▁것임을 -12529
▁캔자스 -12530
엔터테인 -12531
커의 -12532
▁연꽃 -12533
▁특집 -12534
▁135 -12535
▁얼굴을 -12536
▁역임하고 -12537
본의 -12538
한테 -12539
▁노태 -12540
▁바나 -12541
▁유저 -12542
▁태극 -12543
▁표방 -12544
▁플라스틱 -12545
▁데뷔하였고 -12546
키를 -12547
▁대치 -12548
▁손꼽 -12549
▁선수는 -12550
리얼 -12551
시게 -12552
전차 -12553
황제 -12554
▁360 -12555
▁그다지 -12556
▁남기고 -12557
▁없었기 -12558
▁일본국 -12559
▁주도로 -12560
▁잡은 -12561
▁정말 -12562
▁수도원 -12563
▁조약에 -12564
▁피하기 -12565
▁프랑스에 -12566
▁결정하였다 -12567
ey -12568
문자 -12569
통제 -12570
품이 -12571
▁우드 -12572
▁존슨 -12573
▁안토니오 -12574
골로 -12575
▁Sc -12576
▁구단의 -12577
▁정해진 -12578
불을 -12579
▁국군 -12580
▁러셀 -12581
▁브란 -12582
▁생략 -12583
▁견해를 -12584
▁차량의 -12585
▁사망하자 -12586
▁아르헨티나의 -12587
판매 -12588
▁Am -12589
▁대합 -12590
▁중재 -12591
▁지위 -12592
해주는 -12593
▁경찰에 -12594
▁프로그램에 -12595
▁전국동시지방선거 -12596
기계 -12597
내며 -12598
▁비율은 -12599
▁음악에 -12600
▁즐겨 -12601
반에 -12602
사유 -12603
▁효소 -12604
▁더욱이 -12605
▁텍스트 -12606
▁발견하였다 -12607
이시 -12608
▁곳의 -12609
▁도미 -12610
▁여진 -12611
렸다고 -12612
▁게이지 -12613
▁정도를 -12614
▁나이지리아 -12615
홀름 -12616
▁달이 -12617
▁이관 -12618
영화제 -12619
▁1901 -12620
▁개발하고 -12621
길이 -12622
추는 -12623
▁때인 -12624
▁만세 -12625
▁변동 -12626
글라데 -12627
브리엘 -12628
주머니 -12629
▁한국은 -12630
▁메커니즘 -12631
우지 -12632
▁날카 -12633
▁발언을 -12634
▁비율이 -12635
▁시절의 -12636
▁프로레슬링 -12637
기니 -12638
종교 -12639
▁단축 -12640
▁재미 -12641
▁적지 -12642
▁피겨 -12643
▁호조 -12644
▁매니저 -12645
▁일대에 -12646
▁회사이다 -12647
▁룩셈부르크 -12648
공격 -12649
드릭 -12650
▁전역에 -12651
▁계획이다 -12652
단위 -12653
▁Su -12654
나가는 -12655
들과는 -12656
▁발렌시아 -12657
클로 -12658
ase -12659
▁사살 -12660
▁패한 -12661
▁협동 -12662
▁무대를 -12663
▁뮤지션 -12664
▁밖에도 -12665
▁언급한 -12666
▁전체적인 -12667
해온 -12668
▁Op -12669
▁김지 -12670
▁모서 -12671
▁무료로 -12672
▁사고를 -12673
▁연결된다 -12674
대구 -12675
▁대명 -12676
▁병역 -12677
▁입각 -12678
▁초신 -12679
▁밝히고 -12680
▁언어는 -12681
▁수에 -12682
▁에콰 -12683
▁고통을 -12684
▁문화가 -12685
▁바이킹 -12686
▁손가락 -12687
▁정보가 -12688
무가 -12689
CAF -12690
▁대안 -12691
▁북구 -12692
협의회 -12693
▁1-0 -12694
▁재능을 -12695
▁전력을 -12696
▁결정하는 -12697
▁솜 -12698
봉은 -12699
아스 -12700
▁국기 -12701
▁국영 -12702
▁내용으로 -12703
오나 -12704
▁균형 -12705
▁도카이 -12706
▁드물게 -12707
▁도시철도 -12708
▁자신들이 -12709
▁이스라엘의 -12710
쿠버 -12711
ost -12712
▁맥락 -12713
하자면 -12714
▁삿포로 -12715
▁트리플 -12716
량에 -12717
▁비타 -12718
▁철회 -12719
▁50% -12720
▁아열대 -12721
설에 -12722
위성 -12723
▁북방 -12724
▁각국의 -12725
▁개인이 -12726
▁공부를 -12727
▁가고시마 -12728
▁대통령으로 -12729
두에 -12730
마로 -12731
.5% -12732
▁중복 -12733
▁예수의 -12734
▁아케이드 -12735
▁슬로바키아 -12736
인권 -12737
▁배신 -12738
▁Man -12739
▁당연히 -12740
▁한성부 -12741
SP -12742
세트 -12743
자라고 -12744
층으로 -12745
▁강점기의 -12746
▁조선일보 -12747
요는 -12748
주택 -12749
ath -12750
▁담아 -12751
▁과정이 -12752
▁군대에 -12753
▁기존에 -12754
▁와이번 -12755
▁마블 -12756
▁맞은 -12757
▁밝힌 -12758
▁안나 -12759
시키지 -12760
▁1884 -12761
▁주장하며 -12762
▁할아버지 -12763
". -12764
모에 -12765
ont -12766
▁소지 -12767
▁포병 -12768
▁환상 -12769
정책을 -12770
▁대학생 -12771
▁병으로 -12772
▁살았던 -12773
▁손으로 -12774
▁올리고 -12775
▁가져왔다 -12776
▁사랑하는 -12777
년하 -12778
츠를 -12779
▁대가 -12780
▁죽이 -12781
▁캐서 -12782
▁총리가 -12783
▁취하고 -12784
팀을 -12785
한은 -12786
ect -12787
▁김창 -12788
▁왕을 -12789
▁자의 -12790
▁주행 -12791
▁사례가 -12792
▁쿠데타 -12793
▁결혼하여 -12794
▁목소리를 -12795
▁진행하고 -12796
▁규범 -12797
▁선종 -12798
▁지녔 -12799
▁하남 -12800
▁정치가 -12801
준비 -12802
푸르 -12803
▁금성 -12804
▁무성 -12805
공무원 -12806
▁대회가 -12807
▁되지만 -12808
▁무함마 -12809
▁밴드를 -12810
▁에디션 -12811
▁즉위한 -12812
▁현재에 -12813
▁포켓몬스터 -12814
▁CC -12815
▁성사 -12816
▁아나키 -12817
▁알렉산드로 -12818
것도 -12819
봉사 -12820
▁산출 -12821
▁콜린 -12822
▁핸드 -12823
리사 -12824
▁고래 -12825
▁발칸 -12826
▁이소 -12827
▁한인 -12828
▁사쿠라 -12829
▁안으로 -12830
▁전했다 -12831
▁프란츠 -12832
▁아버지인 -12833
▁벵 -12834
런은 -12835
정신 -12836
▁신축 -12837
▁분비 -12838
▁불상 -12839
▁수성 -12840
▁시종 -12841
도이다 -12842
▁태양을 -12843
▁중앙아시아 -12844
▁북위 -12845
▁일생 -12846
▁지키는 -12847
▁북아프리카 -12848
변에 -12849
사용 -12850
이야 -12851
▁군이 -12852
▁유학을 -12853
▁클라이 -12854
다를 -12855
▁고창 -12856
▁오지 -12857
▁하동 -12858
▁물러나 -12859
▁방문한 -12860
▁왕국은 -12861
▁유래된 -12862
▁위치하는 -12863
개와 -12864
▁세상 -12865
레이터 -12866
▁부근에 -12867
▁차이로 -12868
▁유사하다 -12869
sc -12870
화물 -12871
▁On -12872
▁다크 -12873
▁영등 -12874
▁점프 -12875
▁이란의 -12876
▁이루며 -12877
▁제국에 -12878
▁각자 -12879
▁김홍 -12880
▁보헤 -12881
▁부설 -12882
▁기회가 -12883
▁평가된다 -12884
루아 -12885
▁군산 -12886
▁기저 -12887
▁파나 -12888
▁함수의 -12889
▁방글라데 -12890
▁전역에서 -12891
▁알렉산드르 -12892
머는 -12893
보수 -12894
com -12895
▁산림 -12896
▁블루스 -12897
▁1903 -12898
▁드라이버 -12899
▁렉 -12900
인구 -12901
작곡 -12902
품의 -12903
▁브랜 -12904
▁파리의 -12905
역학 -12906
▁괴롭 -12907
▁응시 -12908
양으로 -12909
▁산하에 -12910
▁야마토 -12911
▁어려서 -12912
▁파일을 -12913
▁이루어지는 -12914
연수 -12915
운의 -12916
▁높게 -12917
▁중종 -12918
▁하시 -12919
▁들어갈 -12920
▁상태의 -12921
▁서울의 -12922
▁차례의 -12923
▁운행한다 -12924
▁표현하는 -12925
▁조선로동당 -12926
cc -12927
▁진공 -12928
만과 -12929
빌딩 -12930
▁까닭 -12931
▁슈팅 -12932
프레스 -12933
▁기초로 -12934
▁사람도 -12935
▁투어를 -12936
▁올림픽의 -12937
▁두께 -12938
▁미들 -12939
자라는 -12940
▁각본가 -12941
▁공간이 -12942
시청 -12943
집은 -12944
▁개종 -12945
▁극대 -12946
▁년에 -12947
▁세금 -12948
▁국제적 -12949
▁미시시피 -12950
▁글루 -12951
▁한층 -12952
▁저작권 -12953
▁스위스의 -12954
▁포스트시즌 -12955
▁콰 -12956
신학 -12957
▁소송을 -12958
▁조정에 -12959
MP -12960
▁랴 -12961
것을 -12962
▁기숙 -12963
▁생식 -12964
▁자국 -12965
▁점에 -12966
▁폭로 -12967
▁때에도 -12968
▁존재할 -12969
▁후보는 -12970
디를 -12971
▁그후 -12972
▁맞붙 -12973
▁퇴임 -12974
▁시즌에서 -12975
▁클라이언 -12976
샤바 -12977
심은 -12978
▁가계 -12979
▁대전이 -12980
▁점령한 -12981
▁실질적으로 -12982
하키 -12983
▁권장 -12984
▁같은해 -12985
▁게임이 -12986
▁Pr -12987
▁감안 -12988
▁다비 -12989
▁모은 -12990
▁무궁 -12991
▁실망 -12992
▁잡혀 -12993
▁동생인 -12994
▁불리고 -12995
기게 -12996
전시 -12997
증의 -12998
히토 -12999
▁86 -13000
▁선배 -13001
▁아소 -13002
▁의석 -13003
▁일체 -13004
▁경상도 -13005
▁뉴욕의 -13006
▁실시한 -13007
▁평가했다 -13008
▁붐 -13009
▁물의 -13010
▁발급 -13011
▁연상 -13012
▁문서를 -13013
▁승무원 -13014
▁몸길이는 -13015
더의 -13016
순환 -13017
온을 -13018
융합 -13019
▁불꽃 -13020
▁앞면 -13021
았다고 -13022
▁도요토미 -13023
▁연고지로 -13024
▁정의한다 -13025
OW -13026
네마 -13027
▁원을 -13028
▁해남 -13029
법에서 -13030
▁차지하며 -13031
▁해결하기 -13032
▁눌 -13033
믹스 -13034
▁구의 -13035
▁싸워 -13036
▁쓰레 -13037
▁온천 -13038
▁하라 -13039
▁경기의 -13040
▁다이어 -13041
▁마르코 -13042
▁근무했다 -13043
무로 -13044
주지 -13045
▁쳐들어 -13046
▁가옥 -13047
▁생리 -13048
▁엔딩 -13049
루에서 -13050
트로이트 -13051
▁라오 -13052
▁알을 -13053
▁나타낸 -13054
▁소설가 -13055
▁음악적 -13056
▁작용을 -13057
▁프란체 -13058
페테르부르크 -13059
▁지정되었다가 -13060
친구 -13061
행동 -13062
▁그릇 -13063
▁무지 -13064
▁배상 -13065
▁리더십 -13066
▁전두환 -13067
▁그레이트 -13068
▁부분에서 -13069
으로부터의 -13070
-9 -13071
주간 -13072
▁거북 -13073
▁세례 -13074
▁넘어가 -13075
▁대가로 -13076
▁성능을 -13077
▁담당했다 -13078
RA -13079
쪽은 -13080
▁소비자 -13081
▁음악은 -13082
▁제네바 -13083
▁제안했다 -13084
조한 -13085
▁꼭대 -13086
▁주오 -13087
▁체류 -13088
▁새겨진 -13089
▁진행되는 -13090
벽을 -13091
▁아타 -13092
▁지옥 -13093
스터는 -13094
▁기준을 -13095
▁압력을 -13096
▁스타리그 -13097
위기 -13098
▁인상을 -13099
▁조지프 -13100
들여 -13101
슬레 -13102
▁결선 -13103
▁더해 -13104
▁모용 -13105
▁무의 -13106
책으로 -13107
ream -13108
▁실패한 -13109
▁그렇지만 -13110
▁신부 -13111
▁이병 -13112
▁피트 -13113
▁표면에 -13114
▁결정된다 -13115
▁보호하기 -13116
빈의 -13117
양함 -13118
▁걱정 -13119
▁서포 -13120
▁죽어 -13121
▁하원 -13122
심에서 -13123
▁중반에 -13124
▁프랑스가 -13125
대대 -13126
집의 -13127
▁GP -13128
▁받았지만 -13129
▁지나면서 -13130
보와 -13131
서구 -13132
▁설도 -13133
▁해의 -13134
▁범위를 -13135
▁제도는 -13136
▁비밀리에 -13137
▁주어졌다고 -13138
▁횡단 -13139
나무는 -13140
사들이 -13141
▁이때부터 -13142
▁콜로라도 -13143
우기 -13144
▁가오 -13145
▁김제 -13146
▁증상 -13147
▁지장 -13148
▁해명 -13149
▁건축물 -13150
▁센다이 -13151
▁조선에 -13152
▁죽였다 -13153
▁청와대 -13154
▁드러났다 -13155
▁복귀했다 -13156
▁73 -13157
▁왜곡 -13158
▁이북 -13159
▁포장 -13160
▁효고 -13161
▁고유의 -13162
▁생산을 -13163
▁전하는 -13164
▁카스티 -13165
▁떨어졌다 -13166
▁볼리비아 -13167
바둑 -13168
브스 -13169
수소 -13170
▁AN -13171
▁조승 -13172
▁극장판 -13173
▁변화는 -13174
▁온도가 -13175
▁초창기 -13176
▁주어진다 -13177
▁사단법인이다 -13178
항의 -13179
▁개가 -13180
▁노선의 -13181
▁의미는 -13182
▁킴 -13183
▁국장 -13184
▁기하여 -13185
▁없어서 -13186
하루 -13187
▁대두 -13188
▁칸의 -13189
테이션 -13190
▁무조건 -13191
▁아미타 -13192
▁코드를 -13193
,6 -13194
▁97 -13195
▁시노 -13196
▁벼슬을 -13197
▁디트로이트 -13198
▁스코틀랜드의 -13199
당해 -13200
▁건륭 -13201
▁동행 -13202
▁민병 -13203
▁이데 -13204
전이다 -13205
▁결론을 -13206
▁확실한 -13207
세르 -13208
억원 -13209
팀에 -13210
▁감리 -13211
▁걸린 -13212
▁서적 -13213
▁선과 -13214
▁품고 -13215
▁경기로 -13216
▁그려진 -13217
브르 -13218
산동 -13219
테면 -13220
▁로버 -13221
▁씨의 -13222
▁절차 -13223
▁도널드 -13224
▁세력의 -13225
적으로도 -13226
▁1897 -13227
▁시대부터 -13228
▁Ne -13229
▁피로 -13230
▁수비수 -13231
;& -13232
받게 -13233
발사 -13234
업의 -13235
탄의 -13236
테크 -13237
▁돌입 -13238
▁시공 -13239
▁제작을 -13240
US -13241
▁뱅 -13242
▁고기 -13243
▁칼뱅 -13244
▁코코 -13245
▁편에 -13246
▁자료가 -13247
▁정권의 -13248
▁종교개혁 -13249
GA -13250
황이 -13251
▁등용 -13252
▁스태 -13253
▁잔류 -13254
▁저렴 -13255
▁포드 -13256
▁게임에 -13257
▁공격수 -13258
▁단어를 -13259
▁영화가 -13260
▁주목할 -13261
▁1800 -13262
따라 -13263
▁산의 -13264
▁일화 -13265
레스의 -13266
행위를 -13267
들에게는 -13268
▁예선에서 -13269
ii -13270
▁로그 -13271
그라드 -13272
는지는 -13273
▁미네소 -13274
▁산업의 -13275
▁학문을 -13276
▁1860 -13277
▁수준으로 -13278
▁형성하고 -13279
sh -13280
올라 -13281
왔던 -13282
▁막시 -13283
▁안치 -13284
▁유연 -13285
협회는 -13286
▁도입된 -13287
▁위험을 -13288
나서 -13289
너가 -13290
에의 -13291
킨스 -13292
▁쌓은 -13293
▁키워 -13294
lude -13295
▁다니는 -13296
▁원인을 -13297
▁설치하고 -13298
▁그레고리오 -13299
▁이루어지지 -13300
순은 -13301
여우 -13302
▁판례 -13303
▁호출 -13304
▁암호화 -13305
▁정치를 -13306
▁기어 -13307
▁루시 -13308
▁무슨 -13309
▁성숙 -13310
▁안테 -13311
▁기슭 -13312
▁탐색 -13313
회의원 -13314
▁새로이 -13315
▁크기를 -13316
co -13317
▁ID -13318
▁공손 -13319
▁퇴역 -13320
▁협정 -13321
▁생방송 -13322
▁전반에 -13323
▁필리프 -13324
▁혁명의 -13325
▁불가능한 -13326
타워 -13327
화점 -13328
▁74 -13329
▁오로 -13330
루스의 -13331
왕후의 -13332
▁영향이 -13333
▁입장에서 -13334
▁페이스북 -13335
쿠니 -13336
▁단절 -13337
▁포로로 -13338
▁대통령과 -13339
▁위원회의 -13340
▁설립되었으며 -13341
메드 -13342
해튼 -13343
▁사간 -13344
▁얼음 -13345
▁쪽은 -13346
▁운영을 -13347
▁이를테면 -13348
▁연세대학교 -13349
관련 -13350
돌은 -13351
운이 -13352
iss -13353
▁강희 -13354
▁구약 -13355
▁기증 -13356
▁번에 -13357
▁슈트 -13358
▁지수 -13359
▁관련해 -13360
▁작가의 -13361
▁증거가 -13362
▁건설되었다 -13363
▁도입하였다 -13364
▁만족시키는 -13365
▁쿤 -13366
아야 -13367
▁거뒀 -13368
▁공과 -13369
▁영산 -13370
▁테르 -13371
▁환자 -13372
▁말하면 -13373
▁언급했다 -13374
▁석탑 -13375
레이크 -13376
월에서 -13377
▁이곳을 -13378
▁룰 -13379
▁수축 -13380
▁창녕 -13381
▁900 -13382
▁나란히 -13383
▁학생들의 -13384
▁건축물이다 -13385
ake -13386
▁사정 -13387
▁간토 -13388
▁과일 -13389
▁깨끗 -13390
▁어둠 -13391
▁질환 -13392
▁크롬 -13393
루스는 -13394
▁본인이 -13395
old -13396
▁동위 -13397
▁세라 -13398
▁주위 -13399
▁키스 -13400
선수단 -13401
▁규정에 -13402
▁미래의 -13403
▁효과적으로 -13404
주자 -13405
▁스노 -13406
▁헬리 -13407
▁호응 -13408
▁하에서 -13409
GB -13410
OT -13411
국립 -13412
▁견제 -13413
▁끝날 -13414
▁남구 -13415
▁법의 -13416
▁서민 -13417
▁신조 -13418
▁판정 -13419
▁패럴 -13420
▁알프레 -13421
▁대표적으로 -13422
▁때문이라고 -13423
▁이탈리아에서 -13424
▁킥 -13425
생은 -13426
타입 -13427
▁87 -13428
▁검출 -13429
호선과 -13430
▁동안의 -13431
▁개인적인 -13432
▁프로덕션 -13433
▁함부르크 -13434
이후 -13435
칼리 -13436
▁아닐 -13437
▁서울대 -13438
▁대한민국과 -13439
애틀 -13440
타스 -13441
하이드 -13442
▁비판하였다 -13443
▁상트페테르부르크 -13444
링턴 -13445
▁81 -13446
▁CS -13447
▁급성 -13448
▁치른 -13449
▁데뷔한 -13450
▁미쳤다 -13451
▁유형의 -13452
▁조사에 -13453
▁최소한 -13454
▁문화체육관광부 -13455
교와 -13456
막을 -13457
체고 -13458
ick -13459
▁온대 -13460
▁이장 -13461
▁필드 -13462
차이나 -13463
▁섬이다 -13464
▁작업에 -13465
▁하이드 -13466
계급 -13467
주어 -13468
▁있거나 -13469
▁해마다 -13470
▁기록으로 -13471
▁대학교는 -13472
▁흥선대원 -13473
직의 -13474
학부 -13475
▁강은 -13476
▁본거 -13477
▁영지 -13478
계약을 -13479
브리아 -13480
▁경제의 -13481
▁공격하여 -13482
단지 -13483
준이 -13484
▁리베 -13485
▁무실 -13486
▁임관 -13487
▁지름 -13488
▁스페이스 -13489
표가 -13490
▁조립 -13491
웨이트 -13492
▁낳은 -13493
▁보드 -13494
▁유라 -13495
▁이산 -13496
▁충실 -13497
기록을 -13498
▁백제의 -13499
▁쌍둥이 -13500
▁1880 -13501
가수 -13502
내지 -13503
한이 -13504
혹한 -13505
▁가환 -13506
▁환영 -13507
▁20% -13508
▁뉴저지 -13509
▁더이상 -13510
RE -13511
근이 -13512
브루 -13513
체계 -13514
▁달걀 -13515
위원을 -13516
▁문화와 -13517
▁아름답 -13518
시켰으며 -13519
메다 -13520
발로 -13521
▁보성 -13522
▁선도 -13523
▁자크 -13524
▁장비를 -13525
▁대학교를 -13526
노에 -13527
▁미친 -13528
▁전지 -13529
▁조화 -13530
▁현금 -13531
▁히타 -13532
▁NGC -13533
▁되었던 -13534
▁의원을 -13535
▁제치고 -13536
랑을 -13537
▁강동 -13538
▁이태 -13539
▁기업인 -13540
▁이내에 -13541
▁접하며 -13542
독일 -13543
▁실력 -13544
▁유권 -13545
▁퍼포 -13546
품으로 -13547
▁도시에 -13548
▁송나라 -13549
▁요새를 -13550
▁이용객 -13551
▁예정이었으나 -13552
집단 -13553
▁김민 -13554
▁선생의 -13555
▁나중에는 -13556
▁드라이브 -13557
▁꿀 -13558
미한 -13559
통은 -13560
▁맺은 -13561
▁아바 -13562
▁리스트 -13563
▁모양이 -13564
▁연합군 -13565
▁정치에 -13566
▁주장에 -13567
발은 -13568
분과 -13569
▁가동 -13570
▁꽃이 -13571
▁말미 -13572
▁볼로 -13573
▁튀니 -13574
렸지만 -13575
▁설명할 -13576
▁아마존 -13577
▁주제를 -13578
▁중대한 -13579
▁겁 -13580
거진 -13581
컨대 -13582
ere -13583
▁강에 -13584
▁고사 -13585
▁나섰 -13586
▁불명 -13587
▁알지 -13588
▁평정 -13589
▁함대 -13590
▁회수 -13591
게이트 -13592
▁사업에 -13593
▁수행할 -13594
▁태국의 -13595
▁고려시대 -13596
▁.. -13597
▁가볍 -13598
▁간신 -13599
▁내무 -13600
▁충성 -13601
▁칭찬 -13602
▁격렬한 -13603
▁경계로 -13604
▁보다는 -13605
암은 -13606
야에 -13607
전략 -13608
티시 -13609
▁각색 -13610
▁김병 -13611
▁창출 -13612
▁교회를 -13613
▁지나는 -13614
▁천연기념 -13615
▁해당된다 -13616
St -13617
병과 -13618
인터 -13619
▁비치 -13620
▁수색 -13621
▁실버 -13622
▁사이토 -13623
▁낙동 -13624
▁니코 -13625
▁신정 -13626
▁위헌 -13627
▁건설을 -13628
▁지역구 -13629
▁삼층석탑 -13630
▁빔 -13631
티가 -13632
▁수료 -13633
▁카카 -13634
▁러시아는 -13635
MI -13636
에미 -13637
▁종족 -13638
▁청소 -13639
지역에 -13640
▁그러다가 -13641
▁올라간다 -13642
▁점령하고 -13643
▁진행했다 -13644
▁포기하고 -13645
캐슬 -13646
own -13647
▁권총 -13648
▁영국에 -13649
▁엮 -13650
변의 -13651
-14 -13652
끄러운 -13653
판에서 -13654
▁물건을 -13655
▁어드벤처 -13656
▁넓게 -13657
▁면적 -13658
▁위와 -13659
▁화강 -13660
되므로 -13661
▁뒤에도 -13662
▁수익을 -13663
▁커뮤니케이션 -13664
▁덮여 -13665
▁보게 -13666
천으로 -13667
터에서 -13668
▁산하의 -13669
▁스리랑 -13670
▁중점을 -13671
▁진출한 -13672
▁푸에르 -13673
▁통일신라 -13674
기자 -13675
락이 -13676
히데 -13677
▁진지 -13678
학교의 -13679
호선이 -13680
▁내려가 -13681
▁딸이다 -13682
▁볼셰비 -13683
▁출신이며 -13684
할때 -13685
▁부채 -13686
▁짐작 -13687
들보다 -13688
▁웨스턴 -13689
▁시작하면서 -13690
▁씌 -13691
났을 -13692
보니 -13693
▁들을 -13694
거리가 -13695
▁뒤이어 -13696
▁설치하여 -13697
▁취임하였다 -13698
린을 -13699
았기 -13700
▁가려 -13701
▁반공 -13702
▁정립 -13703
▁허위 -13704
▁경찰의 -13705
▁아스널 -13706
▁그로부터 -13707
▁대응하는 -13708
년하계올림픽 -13709
▁값이 -13710
▁공습 -13711
▁중장 -13712
▁탄도 -13713
▁방사성 -13714
▁BS -13715
▁듀얼 -13716
▁배가 -13717
▁여운 -13718
▁패널 -13719
▁30% -13720
▁위원장 -13721
▁투수가 -13722
되어있다 -13723
GM -13724
ix -13725
ork -13726
▁남게 -13727
▁영유 -13728
▁CEO -13729
▁마을에 -13730
▁목록에 -13731
▁비용이 -13732
▁스즈키 -13733
▁장군은 -13734
▁게임에서 -13735
▁단계에서 -13736
평론 -13737
▁성종 -13738
▁후임으로 -13739
공주 -13740
부상 -13741
▁Tr -13742
▁빈번 -13743
▁없었 -13744
▁입을 -13745
▁편지 -13746
▁크라이 -13747
▁프레데 -13748
▁2022 -13749
▁감마 -13750
▁동참 -13751
▁워너 -13752
▁이고 -13753
▁추첨 -13754
명에서 -13755
테스트 -13756
▁국왕의 -13757
▁음반으로 -13758
운다 -13759
▁유가 -13760
기관의 -13761
직으로 -13762
▁III -13763
▁동영상 -13764
▁친일파 -13765
▁시스템에 -13766
▁정치적인 -13767
나리 -13768
로프 -13769
살의 -13770
▁이닝 -13771
▁적다 -13772
▁헌정 -13773
사회의 -13774
▁열린다 -13775
▁재판을 -13776
▁휘하의 -13777
훈을 -13778
▁넘게 -13779
▁유벤 -13780
▁명이다 -13781
▁조직이 -13782
▁환자의 -13783
▁결정한다 -13784
▁도시에서 -13785
▁보도했다 -13786
직은 -13787
▁유러 -13788
▁탁월 -13789
사단은 -13790
▁경향을 -13791
▁고향인 -13792
▁행동에 -13793
▁받았다고 -13794
▁두꺼 -13795
▁병을 -13796
▁사관 -13797
▁온갖 -13798
▁투르 -13799
하기는 -13800
▁데스크 -13801
스페 -13802
유지 -13803
▁79 -13804
▁라그 -13805
▁벌금 -13806
▁열심 -13807
▁중서 -13808
업으로 -13809
CACAF -13810
▁구성되었다 -13811
항에 -13812
▁고인 -13813
키아의 -13814
▁끌었다 -13815
▁붙여진 -13816
▁아키텍 -13817
▁지도를 -13818
대학교는 -13819
▁공개했다 -13820
공연 -13821
날레 -13822
테는 -13823
▁LA -13824
▁치안 -13825
▁현악 -13826
되도록 -13827
▁지구를 -13828
▁부드러운 -13829
▁학생들은 -13830
초는 -13831
▁CN -13832
▁갱신 -13833
▁여우 -13834
▁자아 -13835
▁잘라 -13836
▁장흥 -13837
마스터 -13838
우스가 -13839
ence -13840
▁보여준 -13841
▁알리는 -13842
▁광양 -13843
▁구와 -13844
▁하차 -13845
▁GDP -13846
▁승강장을 -13847
▁드래프트에서 -13848
국적 -13849
▁어뢰 -13850
▁프렌 -13851
▁하부 -13852
크리트 -13853
▁시대가 -13854
▁질량이 -13855
▁의미하며 -13856
▁플레이어는 -13857
하와 -13858
히트 -13859
▁7, -13860
▁기회 -13861
▁기간은 -13862
▁똑같은 -13863
▁가브리엘 -13864
▁마을에서 -13865
▁위원회는 -13866
▁일렉트로 -13867
++ -13868
상업 -13869
플레 -13870
ear -13871
▁6, -13872
▁동점 -13873
▁땄다 -13874
▁발병 -13875
▁전격 -13876
안에서 -13877
클레오 -13878
▁평화를 -13879
▁시작하였으며 -13880
말에 -13881
편성 -13882
▁세네 -13883
▁아산 -13884
▁없던 -13885
▁집결 -13886
▁개념이다 -13887
▁되어있다 -13888
▁분위기를 -13889
▁독립운동가 -13890
코타 -13891
▁84 -13892
▁가네 -13893
▁메릴 -13894
▁조조 -13895
▁진을 -13896
▁판사 -13897
년대와 -13898
▁버전을 -13899
▁보내고 -13900
▁제기되었다 -13901
양성 -13902
철이 -13903
커가 -13904
▁수장 -13905
▁시립 -13906
▁이규 -13907
▁컴백 -13908
도르프 -13909
▁아돌프 -13910
MC -13911
루냐 -13912
▁Is -13913
▁길에 -13914
▁숙청 -13915
▁원의 -13916
▁가지의 -13917
▁파란색 -13918
▁No -13919
▁문인 -13920
▁콜라 -13921
▁다케다 -13922
▁모티브 -13923
▁인간을 -13924
TP -13925
카에 -13926
▁냄새 -13927
▁매매 -13928
학적인 -13929
▁다녔다 -13930
▁메달을 -13931
▁미술관 -13932
▁델라 -13933
▁성이 -13934
▁한해 -13935
▁센고쿠 -13936
▁인증을 -13937
▁개념으로 -13938
▁실시하고 -13939
간은 -13940
건축 -13941
니치 -13942
▁SD -13943
▁마녀 -13944
▁비영 -13945
▁소모 -13946
러시아 -13947
▁부대가 -13948
▁비행기 -13949
▁스테이 -13950
▁자기의 -13951
▁회사인 -13952
▁둘러싸여 -13953
▁아니라는 -13954
▁팰 -13955
피가 -13956
▁조세 -13957
▁소리가 -13958
▁등장하였다 -13959
FF -13960
▁마닐 -13961
받았고 -13962
▁사랑에 -13963
▁세워져 -13964
▁세이부 -13965
▁예이다 -13966
유도 -13967
호텔 -13968
▁예시 -13969
당하는 -13970
▁대표는 -13971
▁애비뉴 -13972
▁헌법에 -13973
▁나타내고 -13974
▁생물학적 -13975
벨라 -13976
이한 -13977
▁진실 -13978
▁화순 -13979
▁비하여 -13980
명이었다 -13981
▁미사일을 -13982
▁조별리그 -13983
광을 -13984
취를 -13985
▁유진 -13986
▁인명 -13987
▁대도시 -13988
▁불가능하다 -13989
나에 -13990
맥스 -13991
▁세비 -13992
▁이빨 -13993
▁제퍼 -13994
▁허가를 -13995
▁각지에서 -13996
▁허리케인 -13997
피에 -13998
▁71 -13999
▁발각 -14000
▁형상 -14001
현에서 -14002
▁것인지 -14003
▁공항은 -14004
▁가정에서 -14005
▁미네소타 -14006
복은 -14007
형사 -14008
▁경연 -14009
▁나를 -14010
▁다마 -14011
▁뽑아 -14012
▁오류 -14013
▁기여를 -14014
▁마다가 -14015
▁임명되었고 -14016
au -14017
노르 -14018
집행 -14019
형제 -14020
.11 -14021
▁국어 -14022
▁다테 -14023
▁믿는 -14024
▁앞장 -14025
▁반도체 -14026
▁점수를 -14027
▁적용되었다 -14028
▁쾰 -14029
▁배후 -14030
▁생체 -14031
▁측에 -14032
▁태백 -14033
▁건축가 -14034
▁선출된 -14035
규는 -14036
림과 -14037
지오 -14038
▁암흑 -14039
▁카사 -14040
▁하비 -14041
여명의 -14042
▁마오쩌 -14043
▁상황은 -14044
▁위험이 -14045
▁작업이 -14046
▁정권이 -14047
▁트로이 -14048
▁작가이다 -14049
▁과의 -14050
▁자생 -14051
▁천재 -14052
수에서 -14053
▁마르틴 -14054
▁야마구치 -14055
▁스튜디오에서 -14056
벌을 -14057
진보 -14058
▁사바 -14059
했음을 -14060
▁사전에 -14061
▁마가 -14062
▁입헌 -14063
▁종착 -14064
▁계약이 -14065
▁궤도를 -14066
▁모습은 -14067
▁시애틀 -14068
▁지구에 -14069
▁토지를 -14070
▁우승했다 -14071
▁경기장이다 -14072
▁출판되었다 -14073
▁밭 -14074
▁앰 -14075
▁돌을 -14076
▁윤보 -14077
▁애리조 -14078
▁저기압 -14079
▁전투의 -14080
▁클레멘 -14081
▁되었다는 -14082
▁선수로서 -14083
▁최대풍속 -14084
망의 -14085
▁들려 -14086
▁워크 -14087
▁지미 -14088
바야시 -14089
▁350 -14090
▁기업이 -14091
▁여우주연 -14092
▁관악 -14093
▁유의 -14094
▁외에는 -14095
▁일제의 -14096
▁사용하면 -14097
▁향토문화 -14098
▁시뮬레이션 -14099
염을 -14100
운은 -14101
효과 -14102
▁용병 -14103
▁원조 -14104
▁기관총 -14105
▁맨해튼 -14106
▁자세히 -14107
▁1885 -14108
▁낫 -14109
▁섀 -14110
_12 -14111
▁김옥 -14112
▁이타 -14113
번으로 -14114
▁청주시 -14115
▁표현한 -14116
▁이적하여 -14117
▁팔레스타인 -14118
토와 -14119
▁내정 -14120
▁정유 -14121
▁차용 -14122
▁별개의 -14123
▁연구와 -14124
▁잡아먹 -14125
▁현재도 -14126
절이 -14127
▁가열 -14128
▁모인 -14129
▁장미 -14130
▁통용 -14131
▁활발히 -14132
업과 -14133
창의 -14134
irl -14135
▁견인 -14136
▁키는 -14137
▁퇴적 -14138
▁동일하다 -14139
ox -14140
러드 -14141
물리 -14142
▁이방 -14143
▁시험을 -14144
▁아폴로 -14145
▁흔적이 -14146
▁사용되며 -14147
CC -14148
편은 -14149
형인 -14150
▁박지 -14151
▁세조 -14152
▁음료 -14153
▁국가와 -14154
▁꼽힌다 -14155
▁임명된 -14156
▁1870 -14157
▁합류했다 -14158
▁프로젝트의 -14159
마크 -14160
▁미셸 -14161
것으로 -14162
▁교수를 -14163
▁김정은 -14164
▁역까지 -14165
▁종교의 -14166
▁주머니 -14167
▁오클랜드 -14168
▁북아일랜드 -14169
▁89 -14170
▁가자 -14171
▁곡선 -14172
▁불태 -14173
▁성리 -14174
▁폭행 -14175
▁헬륨 -14176
▁황해 -14177
▁휴전 -14178
▁누구나 -14179
▁선수들 -14180
▁거부하고 -14181
▁연구에서 -14182
콜라 -14183
▁가문은 -14184
▁치열한 -14185
▁뷔 -14186
모스 -14187
있게 -14188
▁굵은 -14189
▁직장 -14190
▁표지 -14191
▁주위에 -14192
▁서식지는 -14193
▁때가 -14194
▁경찰이 -14195
▁어렸을 -14196
▁뾰 -14197
거의 -14198
부리 -14199
▁권유 -14200
▁나은 -14201
▁숨어 -14202
▁양반 -14203
▁태그 -14204
▁해고 -14205
▁회로 -14206
lass -14207
▁실력을 -14208
▁엔진이 -14209
▁릭 -14210
▁으 -14211
당인 -14212
▁상인 -14213
▁연수 -14214
▁파동 -14215
▁나라는 -14216
▁투수로 -14217
▁다이아몬드 -14218
출판 -14219
▁동인 -14220
▁취항 -14221
▁학원 -14222
▁히라 -14223
▁절차를 -14224
현대 -14225
▁명사 -14226
▁미터 -14227
▁제의 -14228
▁체인 -14229
▁NAS -14230
▁디비시온 -14231
▁딕 -14232
▁갑옷 -14233
▁개를 -14234
▁분출 -14235
▁앤더 -14236
▁전날 -14237
▁투명 -14238
사무소 -14239
▁이르렀 -14240
▁홍콩의 -14241
▁공격으로 -14242
▁케임브리지 -14243
▁난을 -14244
▁양을 -14245
▁줄여 -14246
▁지평 -14247
조에서 -14248
▁기반한 -14249
▁말까지 -14250
▁붙었다 -14251
▁시청률 -14252
▁것입니다 -14253
▁벨기에의 -14254
▁연합군의 -14255
▁인터페이 -14256
▁일어나고 -14257
▁클럽이다 -14258
▁샌드 -14259
▁시간의 -14260
▁이상한 -14261
▁콤팩트 -14262
▁연결되는 -14263
창은 -14264
▁별이 -14265
▁상해 -14266
▁회피 -14267
▁인류의 -14268
▁합스부르크 -14269
MB -14270
▁연못 -14271
▁확신 -14272
위이다 -14273
▁도마뱀 -14274
▁무대로 -14275
▁사거리 -14276
▁게임으로 -14277
include -14278
▁살려 -14279
▁상표 -14280
▁세기 -14281
▁오로지 -14282
덴부르크 -14283
▁방송되는 -14284
선수권대회 -14285
▁우즈베키스탄 -14286
복의 -14287
태를 -14288
트루 -14289
▁이룩 -14290
▁조광 -14291
루시아 -14292
석에서 -14293
▁형성되어 -14294
-13 -14295
▁가구 -14296
▁매체 -14297
▁몸의 -14298
▁빌라 -14299
▁피를 -14300
▁나오고 -14301
▁세력은 -14302
▁1871 -14303
▁오사카부 -14304
▁통합하여 -14305
▁김구 -14306
▁밀리 -14307
▁박람 -14308
▁차원 -14309
▁빨간색 -14310
▁주위를 -14311
▁진행하는 -14312
▁취임했다 -14313
롭고 -14314
중추 -14315
▁돌격 -14316
▁황족 -14317
▁가족과 -14318
▁가지로 -14319
▁길이의 -14320
▁요시노 -14321
▁컨트리 -14322
▁발생하여 -14323
능한 -14324
▁곤란 -14325
▁광명 -14326
▁둔다 -14327
▁상담 -14328
▁로마에 -14329
▁인디애나 -14330
▁CONCACAF -14331
▁감싸 -14332
▁고소 -14333
▁맞고 -14334
▁들어올 -14335
▁비주얼 -14336
▁집안의 -14337
▁최고인민 -14338
니오 -14339
▁드레 -14340
▁오크 -14341
▁이건 -14342
팀으로 -14343
▁가격이 -14344
▁문제와 -14345
▁간주된다 -14346
▁올랐으며 -14347
▁프로젝트는 -14348
번이 -14349
▁수녀 -14350
▁스텔 -14351
▁체크 -14352
▁스카우 -14353
▁여성을 -14354
▁카르타 -14355
령과 -14356
▁돌출 -14357
▁봉기 -14358
▁서원 -14359
▁실존 -14360
▁패전 -14361
▁시장의 -14362
▁이해할 -14363
▁전략을 -14364
▁회원국 -14365
▁방송되었던 -14366
도스 -14367
러브 -14368
록을 -14369
요를 -14370
처는 -14371
▁즈음 -14372
▁80% -14373
▁올바른 -14374
▁작성한 -14375
▁케네디 -14376
▁퍼포먼 -14377
▁기본으로 -14378
▁선수단은 -14379
▁GN -14380
▁누적 -14381
▁직할 -14382
▁터치 -14383
관계가 -14384
해졌고 -14385
▁구단은 -14386
▁위주로 -14387
▁닫힌 -14388
▁가사를 -14389
▁기술적 -14390
▁본래의 -14391
▁일대의 -14392
▁창원시 -14393
▁시즌부터 -14394
▁교양 -14395
▁보라 -14396
▁부도 -14397
▁자칭 -14398
▁사카이 -14399
▁중국은 -14400
ivers -14401
감의 -14402
군다 -14403
히코 -14404
col -14405
▁미라 -14406
▁베른 -14407
▁상응 -14408
▁손실 -14409
▁양육 -14410
▁조병 -14411
▁치세 -14412
타이드 -14413
▁리그인 -14414
▁불규칙 -14415
▁인정하는 -14416
▁세종특별자치 -14417
▁j -14418
▁썬 -14419
▁엇 -14420
랑은 -14421
비오 -14422
포와 -14423
▁박헌 -14424
▁부재 -14425
▁장을 -14426
▁공격해 -14427
▁기간이 -14428
▁반도의 -14429
▁스포르 -14430
▁카드를 -14431
▁정의된다 -14432
700 -14433
▁간선 -14434
▁기기 -14435
▁터보 -14436
▁USS -14437
▁마스크 -14438
▁방법에 -14439
▁선발로 -14440
위원회에 -14441
▁사용되지 -14442
▁음원 -14443
▁바꾸는 -14444
▁소련은 -14445
▁열매는 -14446
▁주도는 -14447
▁학생들을 -14448
개에 -14449
그의 -14450
카리 -14451
▁늑대 -14452
▁인간은 -14453
▁평론가 -14454
▁경기도의 -14455
▁로마에서 -14456
▁해체되었다 -14457
▁아리스토텔레 -14458
어리 -14459
직할 -14460
케는 -14461
▁궁궐 -14462
▁목성 -14463
▁아날 -14464
▁총장 -14465
▁혐의 -14466
▁103 -14467
▁구단이 -14468
▁태권도 -14469
러를 -14470
lat -14471
▁추종 -14472
▁태자 -14473
▁토끼 -14474
▁막부의 -14475
▁자란다 -14476
▁접근할 -14477
▁해군은 -14478
▁부근에서 -14479
▁IN -14480
▁끌고 -14481
▁데모 -14482
▁초빙 -14483
공으로 -14484
들었다 -14485
주이다 -14486
▁물질이 -14487
박쥐과에 -14488
▁은퇴했다 -14489
LA -14490
암의 -14491
토모 -14492
▁노인 -14493
▁데카 -14494
▁약혼 -14495
▁현행 -14496
▁혁명을 -14497
점인 -14498
▁삼척 -14499
▁스칸 -14500
▁건설된 -14501
▁관직에 -14502
▁부드럽 -14503
▁슬라브 -14504
▁안전한 -14505
▁올리는 -14506
▁제도에 -14507
▁중국인 -14508
▁노선이다 -14509
▁대대적인 -14510
▁유러피언 -14511
▁클라우드 -14512
메가 -14513
▁저널 -14514
케라톱 -14515
▁All -14516
▁소문이 -14517
▁제시한 -14518
▁공격했다 -14519
▁킬로미터 -14520
▁대북 -14521
▁대행 -14522
▁사리 -14523
▁원격 -14524
속에서 -14525
▁CBS -14526
▁묘사한 -14527
▁사건과 -14528
▁플래시 -14529
▁수단으로 -14530
az -14531
▁낚 -14532
아래 -14533
야와 -14534
▁돌로 -14535
▁만료 -14536
▁처분 -14537
▁치고 -14538
▁수학적 -14539
▁제한된 -14540
▁흐름을 -14541
▁가을에 -14542
▁갈등이 -14543
▁장소로 -14544
▁받으면서 -14545
▁유래했다 -14546
▁평안남도 -14547
▁기록되었다 -14548
▁면허 -14549
▁발의 -14550
▁함양 -14551
▁호프 -14552
▁논란을 -14553
▁동유럽 -14554
▁약칭 -14555
▁가져온 -14556
▁극심한 -14557
▁높이가 -14558
▁신화의 -14559
▁플라이 -14560
▁델타 -14561
▁올드 -14562
▁타당 -14563
▁도왔다 -14564
▁안티오 -14565
▁자랐다 -14566
▁용어이다 -14567
▁일이었다 -14568
액이 -14569
▁가맹 -14570
▁가솔 -14571
▁당원 -14572
▁동조 -14573
▁연소 -14574
▁차를 -14575
▁Mus -14576
▁따뜻한 -14577
▁뛰었다 -14578
▁모니터 -14579
▁붙였다 -14580
▁장애인 -14581
▁사람들과 -14582
▁노란 -14583
▁상경 -14584
▁주자 -14585
▁해저 -14586
개월간 -14587
이었을 -14588
학자이자 -14589
▁맘 -14590
어족 -14591
▁경에 -14592
▁불린 -14593
▁선비 -14594
티아의 -14595
▁균형을 -14596
▁그곳에 -14597
▁독일에 -14598
▁수도를 -14599
▁노래이다 -14600
▁필요성을 -14601
약한 -14602
▁전래 -14603
▁제너 -14604
▁펜싱 -14605
▁회화 -14606
론으로 -14607
제도를 -14608
▁with -14609
▁병원에서 -14610
▁알래스카 -14611
▁슬로베니아 -14612
▁헥 -14613
▁구해 -14614
▁요인 -14615
만명의 -14616
블랜드 -14617
▁5.1 -14618
▁브리튼 -14619
▁스테파 -14620
▁심리학 -14621
▁통치를 -14622
▁한국과 -14623
▁옥스퍼드 -14624
▁더불어민주 -14625
▁뻔 -14626
요리 -14627
파리 -14628
▁강진 -14629
▁업적 -14630
▁평을 -14631
▁나타나고 -14632
▁역사에서 -14633
▁항공모함 -14634
▁형성하는 -14635
▁프로그램으로 -14636
▁년간 -14637
자리의 -14638
▁EBS -14639
▁싸우는 -14640
▁정책은 -14641
▁코치를 -14642
들리 -14643
민과 -14644
안과 -14645
▁다를 -14646
▁않자 -14647
▁그룹이 -14648
▁바꾸고 -14649
▁완성된 -14650
네르 -14651
야스 -14652
티넘 -14653
▁공표 -14654
▁미션 -14655
▁One -14656
▁마라톤 -14657
▁에서는 -14658
▁살아있는 -14659
▁얕 -14660
세다 -14661
ife -14662
▁경작 -14663
▁고산 -14664
▁부시 -14665
▁나라가 -14666
▁대신해 -14667
▁자유형 -14668
▁종목은 -14669
▁책이다 -14670
주의적인 -14671
▁활동하다가 -14672
▁소통 -14673
아버지 -14674
▁동쪽의 -14675
EG -14676
▁웬 -14677
▁은거 -14678
▁하치 -14679
누스의 -14680
회의를 -14681
▁의무를 -14682
▁인테르 -14683
▁죽음의 -14684
▁현상은 -14685
▁실패하고 -14686
▁복용 -14687
년에도 -14688
자에서 -14689
ical -14690
▁그룹을 -14691
▁남북으로 -14692
▁사용하기도 -14693
▁팀과 -14694
▁철학적 -14695
난성 -14696
제학 -14697
▁공수 -14698
▁복소 -14699
▁작아 -14700
▁MTV -14701
▁지난날 -14702
▁고려하여 -14703
▁동일하게 -14704
▁오케스트라 -14705
궁을 -14706
나로 -14707
채가 -14708
▁삼중 -14709
▁카시 -14710
▁풍자 -14711
▁생겨났다 -14712
▁연기했다 -14713
감염 -14714
법상 -14715
채는 -14716
ild -14717
▁어쩔 -14718
밀하게 -14719
▁민간인 -14720
▁분리된 -14721
▁사라진 -14722
▁사태가 -14723
▁음반에 -14724
▁자체의 -14725
▁트럼프 -14726
▁하느님 -14727
▁방문하여 -14728
▁운영되고 -14729
▁이전까지 -14730
Co -14731
▁% -14732
화할 -14733
▁맞대 -14734
▁방침 -14735
▁앞의 -14736
▁종을 -14737
▁의혹이 -14738
람쥐 -14739
숙은 -14740
▁가늘 -14741
▁선로 -14742
▁예하 -14743
▁옵션 -14744
▁파산 -14745
▁디자인은 -14746
▁오늘날에는 -14747
▁샐 -14748
보리 -14749
전인 -14750
.2% -14751
_13 -14752
▁공신 -14753
▁서산 -14754
▁진해 -14755
대통령 -14756
▁가족을 -14757
▁소나타 -14758
▁순위를 -14759
▁파이터 -14760
▁10,000 -14761
▁싣 -14762
▁Ex -14763
▁맺어 -14764
▁배려 -14765
▁사서 -14766
▁성에 -14767
▁에게 -14768
▁지쿠 -14769
▁포착 -14770
▁THE -14771
▁분석을 -14772
▁손해배 -14773
▁전쟁과 -14774
▁시기에는 -14775
▁단식 -14776
▁배속 -14777
▁순조 -14778
▁이븐 -14779
▁결정에 -14780
공무 -14781
난을 -14782
▁83 -14783
▁대마 -14784
▁레온 -14785
▁요하 -14786
▁읽고 -14787
▁조류 -14788
▁표본 -14789
경찰서 -14790
▁전통적 -14791
▁은퇴하였다 -14792
나시 -14793
상도 -14794
▁kt -14795
▁반경 -14796
▁부각 -14797
▁충전 -14798
▁타협 -14799
스트가 -14800
킬로미터 -14801
▁애리조나 -14802
▁애틀랜타 -14803
FL -14804
삼존 -14805
▁명목 -14806
▁무척 -14807
심으로 -14808
▁레스토 -14809
▁박쥐의 -14810
▁의혹을 -14811
▁평안북도 -14812
기갑 -14813
노를 -14814
▁al -14815
▁뾰족 -14816
▁구간의 -14817
▁소련이 -14818
▁오르는 -14819
▁위에는 -14820
▁성적으로 -14821
▁요청했다 -14822
▁추구하는 -14823
는가 -14824
작인 -14825
청구 -14826
초로 -14827
▁감금 -14828
▁기단 -14829
▁아쿠 -14830
▁자산 -14831
▁성으로 -14832
▁에스페 -14833
▁연합의 -14834
▁관할했다 -14835
▁스트라이커 -14836
시한 -14837
▁불참 -14838
▁의결 -14839
▁최성 -14840
부에는 -14841
▁시리즈에 -14842
▁흠 -14843
사르 -14844
조각 -14845
트레 -14846
▁음향 -14847
▁키가 -14848
▁후세 -14849
▁긴테쓰 -14850
▁두개골 -14851
▁물체의 -14852
▁선택할 -14853
▁순으로 -14854
▁변경했다 -14855
루수 -14856
▁결별 -14857
▁오아 -14858
▁타케 -14859
▁생각이 -14860
▁쓰여진 -14861
▁와일드 -14862
▁도쿄에서 -14863
년동 -14864
렉션 -14865
업체 -14866
티드 -14867
▁'' -14868
▁되던 -14869
▁미만 -14870
▁청산 -14871
▁티켓 -14872
▁하반 -14873
연으로 -14874
▁가깝다 -14875
▁십자군 -14876
▁원나라 -14877
▁1600 -14878
▁도착했다 -14879
▁증가하고 -14880
▁김원 -14881
▁흥미 -14882
▁생산된 -14883
▁조성된 -14884
▁지원하고 -14885
린과 -14886
lay -14887
▁Ad -14888
▁협조 -14889
교에서 -14890
▁모두를 -14891
▁싸움을 -14892
▁않아서 -14893
▁이전부터 -14894
▁개봉되었다 -14895
oh -14896
놀이 -14897
망에 -14898
승의 -14899
▁긴장 -14900
▁피의 -14901
▁말부터 -14902
▁법무부 -14903
질러 -14904
▁식당 -14905
▁우정 -14906
▁품질 -14907
▁내리는 -14908
▁아이디얼 -14909
여자고등학교 -14910
풀이 -14911
ish -14912
▁93 -14913
▁내어 -14914
▁로얄 -14915
▁국민당 -14916
▁미주리 -14917
▁축구단 -14918
▁퐁 -14919
che -14920
▁겪고 -14921
▁리보 -14922
▁바우 -14923
▁세자 -14924
▁연인 -14925
▁히사 -14926
▁115 -14927
▁미치지 -14928
▁서쪽의 -14929
▁제목은 -14930
▁하워드 -14931
▁필리핀의 -14932
▁EU -14933
▁넷째 -14934
▁농장 -14935
▁전함 -14936
▁고대의 -14937
▁머리에 -14938
▁건물이다 -14939
▁기여하였다 -14940
~6 -14941
▁찐 -14942
리마 -14943
정상 -14944
▁공방 -14945
▁늦게 -14946
▁방화 -14947
▁전동 -14948
▁합친 -14949
▁무렵에 -14950
▁아이폰 -14951
▁중심에 -14952
계에서는 -14953
▁가르쳤다 -14954
▁유지하기 -14955
▁출연하여 -14956
▁클리블랜드 -14957
ll -14958
창한 -14959
▁남미 -14960
▁압력 -14961
▁최진 -14962
▁트렌 -14963
▁전기의 -14964
▁아무것도 -14965
▁야마가타 -14966
▁서울특별시의 -14967
": -14968
ah -14969
사한 -14970
시킴 -14971
장로 -14972
츠크 -14973
▁번성 -14974
▁신형 -14975
▁코카 -14976
차례의 -14977
▁남쪽은 -14978
▁판매를 -14979
▁기념하여 -14980
종에 -14981
▁92 -14982
▁경질 -14983
▁날이 -14984
▁독창 -14985
▁비엔 -14986
▁갈리아 -14987
▁방향에 -14988
▁주연을 -14989
▁하도록 -14990
▁수행한다 -14991
▁체포되었다 -14992
쉽게 -14993
▁명은 -14994
▁시어 -14995
▁유타 -14996
▁차체 -14997
▁탐구 -14998
리스는 -14999
탈리아 -15000
▁2-0 -15001
▁개인적 -15002
▁공간은 -15003
▁서울에 -15004
▁유럽과 -15005
▁젊은이 -15006
▁내용이다 -15007
법률 -15008
태는 -15009
ica -15010
▁공이 -15011
▁나루 -15012
▁동학 -15013
세기에는 -15014
리던 -15015
리온 -15016
▁대패 -15017
▁백두 -15018
▁전이 -15019
▁쾰른 -15020
정부는 -15021
▁못하여 -15022
▁성향의 -15023
▁열대폭 -15024
▁방면으로 -15025
▁체코슬로바키아 -15026
▁샀 -15027
▁5. -15028
▁고든 -15029
각형의 -15030
▁밴쿠버 -15031
▁솔로몬 -15032
▁선수들은 -15033
7, -15034
더를 -15035
~10 -15036
▁안도 -15037
▁서재필 -15038
▁코무네다 -15039
6, -15040
더가 -15041
하늘 -15042
▁격투 -15043
▁살라 -15044
▁시몬 -15045
▁원숭 -15046
▁의문 -15047
▁인산 -15048
▁제인 -15049
▁증대 -15050
▁한중 -15051
고에서 -15052
지었다 -15053
▁상관없이 -15054
▁신동 -15055
▁안드 -15056
▁청룡 -15057
▁타구 -15058
▁해가 -15059
▁확진 -15060
▁세포의 -15061
▁총리는 -15062
리니 -15063
절의 -15064
▁데서 -15065
▁서쪽은 -15066
▁조정의 -15067
▁오케스트 -15068
▁수여받았다 -15069
▁Cl -15070
▁방콕 -15071
▁중퇴 -15072
▁짧고 -15073
▁헬레 -15074
쪽에는 -15075
▁왔으며 -15076
▁저널리 -15077
▁클럽의 -15078
▁하루에 -15079
▁1200 -15080
▁부총 -15081
▁왼손 -15082
▁이현 -15083
▁즐길 -15084
▁취업 -15085
해야만 -15086
▁되도록 -15087
▁여파로 -15088
▁열차의 -15089
▁영국이 -15090
▁늘어났다 -15091
▁발견되지 -15092
묘한 -15093
▁고토 -15094
▁우회 -15095
▁쾌속 -15096
▁마누엘 -15097
▁앨범에 -15098
▁제국과 -15099
▁중국을 -15100
▁인공지능 -15101
독한 -15102
무의 -15103
▁리바 -15104
▁석회 -15105
▁우측 -15106
▁좌석 -15107
▁싸웠다 -15108
▁표현할 -15109
▁협력을 -15110
개국에서 -15111
▁위키백과 -15112
▁한편으로 -15113
▁효과적인 -15114
/0 -15115
EL -15116
▁맷 -15117
추진 -15118
▁용암 -15119
▁이씨 -15120
▁선수들의 -15121
▁영화제에서 -15122
▁나비 -15123
▁다툼 -15124
▁몽고 -15125
▁예는 -15126
라디오 -15127
▁지진이 -15128
▁했었다 -15129
▁100% -15130
▁압도적인 -15131
간지 -15132
▁요동 -15133
▁정선 -15134
▁죽인 -15135
▁춤을 -15136
▁동대문 -15137
▁지역인 -15138
박물관에 -15139
▁냈 -15140
전국 -15141
쿠르 -15142
연대는 -15143
▁일하고 -15144
▁바르샤바 -15145
▁연극배우 -15146
▁국가대표팀에 -15147
ax -15148
▁국적 -15149
▁아유 -15150
▁영지를 -15151
▁증상이 -15152
▁않았다는 -15153
▁전국적으로 -15154
심과 -15155
▁궁전 -15156
▁파기 -15157
티미터 -15158
▁나라에 -15159
▁내용에 -15160
▁달러에 -15161
▁내부에서 -15162
시인 -15163
타고 -15164
하르 -15165
▁SL -15166
▁계수 -15167
▁김유 -15168
▁노면 -15169
▁대각 -15170
▁유식 -15171
▁간신히 -15172
▁승리에 -15173
▁알파벳 -15174
▁앨범인 -15175
▁인접해 -15176
▁케이스 -15177
▁거부했다 -15178
▁관계없이 -15179
▁내에서는 -15180
▁판매하는 -15181
배가 -15182
▁글자 -15183
예정자 -15184
학교는 -15185
▁구하는 -15186
▁정도에 -15187
▁제출한 -15188
▁대한항공 -15189
▁수록되었다 -15190
-23 -15191
800 -15192
▁목판 -15193
▁바흐 -15194
▁주입 -15195
▁투항 -15196
▁파손 -15197
▁한명 -15198
▁권위를 -15199
▁도입한 -15200
▁토스카 -15201
▁아랍에미 -15202
▁명명되었다 -15203
▁모셔 -15204
▁일일 -15205
▁제임 -15206
▁치즈 -15207
▁혼성 -15208
비치는 -15209
▁원인으로 -15210
▁이용된다 -15211
농업 -15212
밀히 -15213
밴드 -15214
서스 -15215
일자 -15216
▁갤러 -15217
▁반격 -15218
▁시부 -15219
▁시정 -15220
▁이렇 -15221
▁입지 -15222
승으로 -15223
▁경쟁을 -15224
▁받아야 -15225
▁언론에 -15226
▁담당한다 -15227
▁과반 -15228
▁궁정 -15229
▁온건 -15230
▁조국 -15231
대회를 -15232
치에서 -15233
▁도덕적 -15234
▁바다에 -15235
▁제정된 -15236
▁발견하고 -15237
▁작품에서 -15238
▁주관하는 -15239
▁하였지만 -15240
pr -15241
월호 -15242
제곱 -15243
상규명 -15244
▁가르침 -15245
▁단독으로 -15246
▁에너지가 -15247
▁업그레이드 -15248
▁떡 -15249
▁다름 -15250
▁입양 -15251
년도에 -15252
▁남성의 -15253
▁무리를 -15254
▁정의는 -15255
▁지리적 -15256
▁헬리콥 -15257
년대까지 -15258
▁설명하고 -15259
럴드 -15260
위한 -15261
해석 -15262
▁셀레 -15263
▁절단 -15264
▁소나무 -15265
▁표현이 -15266
▁강조했다 -15267
▁극장에서 -15268
라니 -15269
▁것일 -15270
▁기수 -15271
▁박종 -15272
▁산지 -15273
▁투여 -15274
능력을 -15275
▁시도를 -15276
▁혼란을 -15277
▁최고인민회의 -15278
평의 -15279
▁경희 -15280
▁나노 -15281
▁미륵 -15282
▁미키 -15283
▁이송 -15284
▁전복 -15285
당하여 -15286
세였다 -15287
스키의 -15288
▁Mar -15289
▁1889 -15290
▁스톡홀름 -15291
ru -15292
나기 -15293
디와 -15294
▁부에 -15295
▁유혹 -15296
▁... -15297
▁그렸다 -15298
▁낳는다 -15299
▁심하게 -15300
▁죽음에 -15301
▁선수단이다 -15302
RT -15303
셨다 -15304
원자 -15305
준을 -15306
틴은 -15307
▁겹쳐 -15308
▁얇은 -15309
▁염기 -15310
▁전국의 -15311
▁조약이 -15312
축을 -15313
▁고쿠 -15314
▁몰수 -15315
▁벌여 -15316
▁헌신 -15317
▁경제는 -15318
▁당대의 -15319
▁독일인 -15320
▁떨어뜨 -15321
▁하느님의 -15322
▁종료되었다 -15323
트넘 -15324
▁드라 -15325
▁사쿠 -15326
▁씨앗 -15327
▁휩쓸 -15328
▁대화를 -15329
▁열심히 -15330
▁후지와라노 -15331
▁Bl -15332
▁개항 -15333
▁것의 -15334
▁바꿨 -15335
▁90% -15336
▁당하고 -15337
▁동쪽은 -15338
▁보고서 -15339
▁정의를 -15340
▁주도한 -15341
▁지키고 -15342
▁지키기 -15343
▁홍문관 -15344
▁효과는 -15345
터키 -15346
황의 -15347
▁리옹 -15348
▁프롤 -15349
▁가상의 -15350
▁똑같이 -15351
▁레이싱 -15352
▁무궁화 -15353
▁상처를 -15354
▁수도로 -15355
▁역할은 -15356
▁형성되었다 -15357
IL -15358
부아 -15359
졌기 -15360
.4% -15361
▁마셜 -15362
▁조형 -15363
▁초고 -15364
▁프론 -15365
하기가 -15366
▁대기업 -15367
▁아키타 -15368
▁노선으로 -15369
▁네이션스컵 -15370
알라 -15371
인당 -15372
▁인원 -15373
▁칼럼 -15374
▁토크 -15375
▁펑크 -15376
▁행진 -15377
▁논쟁이 -15378
▁목성의 -15379
▁시에서 -15380
▁하나다 -15381
▁진행하였다 -15382
데라 -15383
하겐 -15384
ous -15385
경기장 -15386
음보살 -15387
▁선수의 -15388
▁조반니 -15389
▁힘으로 -15390
▁임명하였다 -15391
▁축조 -15392
▁파인 -15393
▁힘썼 -15394
▁세금을 -15395
▁전당에 -15396
▁조직은 -15397
▁챌린지 -15398
증권 -15399
▁바에 -15400
▁정동 -15401
▁헬싱 -15402
▁화를 -15403
▁대대로 -15404
▁사상은 -15405
▁한계를 -15406
.6% -15407
▁다투 -15408
▁렌즈 -15409
▁막는 -15410
▁메뉴 -15411
▁문경 -15412
▁이득 -15413
▁하르 -15414
청에서 -15415
▁열차를 -15416
▁참여할 -15417
스퍼 -15418
토로 -15419
▁Sy -15420
▁그저 -15421
▁노조 -15422
▁대부 -15423
▁차출 -15424
▁몽골의 -15425
▁시간대 -15426
▁프레이 -15427
EM -15428
미나 -15429
미타 -15430
조부 -15431
▁광학 -15432
▁첨단 -15433
▁항목 -15434
▁장면이 -15435
아트 -15436
▁국유 -15437
▁선원 -15438
당이다 -15439
▁겉보기 -15440
▁그래도 -15441
▁출판된 -15442
▁정기적으로 -15443
결혼 -15444
락은 -15445
미래 -15446
척을 -15447
카쓰 -15448
▁강풍 -15449
▁구형 -15450
▁대영 -15451
▁장제 -15452
되어서 -15453
▁구역은 -15454
▁미하일 -15455
▁의사소 -15456
▁체계는 -15457
▁토리노 -15458
▁함경남도 -15459
성인 -15460
토록 -15461
합을 -15462
▁봄에 -15463
▁뉴캐슬 -15464
▁리그로 -15465
▁이름과 -15466
▁혐의를 -15467
▁수록예정자 -15468
▁거창 -15469
▁내걸 -15470
▁어찌 -15471
▁윌슨 -15472
정부가 -15473
only -15474
▁마이애 -15475
▁클레이 -15476
▁천문학자 -15477
▁사용되기도 -15478
지스 -15479
포에 -15480
▁김광 -15481
▁드는 -15482
▁점수 -15483
▁제대 -15484
로이드 -15485
▁대표가 -15486
▁발표하고 -15487
▁활동하며 -15488
여단 -15489
지지만 -15490
▁동등한 -15491
▁헌법을 -15492
▁활동하던 -15493
▁활발하게 -15494
술은 -15495
▁딸이 -15496
▁생일 -15497
▁다양체 -15498
▁반응이 -15499
▁패트릭 -15500
위원회에서 -15501
▁박사학위를 -15502
읍에 -15503
ern -15504
▁ch -15505
▁아빠 -15506
▁이겨 -15507
▁처럼 -15508
▁AKB -15509
▁규정을 -15510
▁음악과 -15511
▁자유의 -15512
▁장르의 -15513
▁천황이 -15514
▁컴퓨팅 -15515
웠던 -15516
▁개헌 -15517
▁경의 -15518
▁돌고 -15519
▁보석 -15520
▁인과 -15521
에너지 -15522
▁난카이 -15523
▁드디어 -15524
▁아이가 -15525
▁우려가 -15526
▁협정을 -15527
▁댓 -15528
다와 -15529
어인 -15530
▁아데 -15531
▁가리지 -15532
▁사항을 -15533
▁시작할 -15534
▁유리한 -15535
▁화학적 -15536
▁그룹으로 -15537
▁전반적인 -15538
▁프리메라 -15539
스기 -15540
▁수령 -15541
▁슬픔 -15542
▁저하 -15543
났지만 -15544
우스와 -15545
▁OST -15546
▁그보다 -15547
▁도로를 -15548
▁다양하게 -15549
▁선임되었다 -15550
버의 -15551
복음 -15552
▁소울 -15553
▁서울로 -15554
▁한국을 -15555
▁황제는 -15556
PC -15557
미네 -15558
정권 -15559
▁고원 -15560
▁관점 -15561
▁아프 -15562
▁천거 -15563
▁테무 -15564
▁건조한 -15565
▁영역에 -15566
▁1848 -15567
▁헤르체고 -15568
▁공백 -15569
▁김명 -15570
▁발해 -15571
▁선은 -15572
하게도 -15573
ance -15574
▁내각의 -15575
▁노래가 -15576
▁레드삭 -15577
▁자메이 -15578
▁만들었고 -15579
▁아날로그 -15580
조리 -15581
▁EX -15582
▁선행 -15583
▁세븐 -15584
▁짓는 -15585
▁출가 -15586
▁검사를 -15587
▁게릴라 -15588
▁교통의 -15589
▁반응은 -15590
공화국의 -15591
▁국무총리 -15592
▁패럴림픽 -15593
사범 -15594
row -15595
▁동네 -15596
▁카즈 -15597
▁호를 -15598
▁복소수 -15599
▁약속을 -15600
▁JTBC -15601
방정 -15602
▁벽돌 -15603
▁부합 -15604
▁세트 -15605
▁수필 -15606
▁음모 -15607
▁일괄 -15608
▁입주 -15609
▁축구를 -15610
받았으며 -15611
▁에스페란 -15612
▁운행하고 -15613
런의 -15614
▁공천 -15615
▁이완 -15616
▁중형 -15617
▁타자 -15618
▁회상 -15619
▁ATP -15620
▁불안정 -15621
▁서대문 -15622
▁영업을 -15623
▁호르몬 -15624
과정에서 -15625
▁그녀에게 -15626
▁스타일을 -15627
▁점령했다 -15628
▁베네수엘라 -15629
네티 -15630
세요 -15631
▁NT -15632
▁이언 -15633
▁재일 -15634
▁과도한 -15635
▁명확한 -15636
▁소피아 -15637
▁앤드루 -15638
▁일반화 -15639
▁친구인 -15640
▁주민들의 -15641
거가 -15642
복합 -15643
_14 -15644
▁AV -15645
▁복장 -15646
▁싸이 -15647
▁정작 -15648
▁추서 -15649
났는데 -15650
▁노르망 -15651
▁양식의 -15652
▁지휘를 -15653
▁페트로 -15654
▁스크린도 -15655
▁출발하여 -15656
-09 -15657
▁저격 -15658
▁비영리 -15659
▁식물의 -15660
▁왕실의 -15661
▁제품의 -15662
▁보존되어 -15663
경비 -15664
▁기고 -15665
▁랴오 -15666
▁방치 -15667
▁보증 -15668
▁각지의 -15669
▁마리의 -15670
▁모시고 -15671
▁목적이 -15672
▁전신인 -15673
▁총리를 -15674
▁플래티넘 -15675
수지 -15676
▁때려 -15677
▁페니 -15678
공사의 -15679
리그에 -15680
▁강남구 -15681
▁교회는 -15682
대한민국 -15683
스레 -15684
코딩 -15685
▁갖지 -15686
▁무작 -15687
가능한 -15688
▁함수를 -15689
▁간격으로 -15690
▁공격하는 -15691
▁정당이다 -15692
▁지도자로 -15693
비용 -15694
orn -15695
▁노이 -15696
▁잠정 -15697
▁장사 -15698
▁침묵 -15699
제에서 -15700
▁빅토르 -15701
▁신학자 -15702
▁프로모 -15703
▁해병대 -15704
▁캐나다에서 -15705
현실 -15706
▁먹이 -15707
▁앙골 -15708
▁차로 -15709
▁키르 -15710
▁휴식 -15711
갔다가 -15712
해지자 -15713
▁것이나 -15714
▁모리스 -15715
▁생긴다 -15716
▁수용할 -15717
▁엘리트 -15718
▁함수는 -15719
▁앗 -15720
극을 -15721
후가 -15722
▁모호 -15723
▁연봉 -15724
▁정성 -15725
▁코시 -15726
디자인 -15727
틀러는 -15728
▁라파엘 -15729
▁바뀌어 -15730
▁프로세서 -15731
ows -15732
▁SH -15733
▁격추 -15734
▁브룩 -15735
▁우아 -15736
▁카테 -15737
개국이 -15738
운동장 -15739
olog -15740
span -15741
▁언론인 -15742
▁유지할 -15743
▁작성된 -15744
▁사운드트랙 -15745
락의 -15746
▁공존 -15747
▁산둥 -15748
▁찬양 -15749
▁희곡 -15750
▁독일군 -15751
▁생겨난 -15752
▁z -15753
.1% -15754
▁모색 -15755
▁모자 -15756
▁집회 -15757
▁파란 -15758
▁형인 -15759
▁노래로 -15760
▁달라고 -15761
▁북쪽은 -15762
▁북한이 -15763
▁설립하여 -15764
▁프란체스코 -15765
공파 -15766
철학 -15767
ann -15768
oll -15769
▁요충 -15770
▁이모 -15771
▁코소 -15772
▁부모의 -15773
▁상업적 -15774
▁요제프 -15775
▁전략적 -15776
▁관해서는 -15777
▁1,500 -15778
▁소프트웨어를 -15779
▁모의 -15780
▁집어 -15781
▁매카트 -15782
▁명확히 -15783
▁작전에 -15784
▁포스터 -15785
▁콘크리트 -15786
교사 -15787
벨트 -15788
재산 -15789
컴퓨 -15790
▁병원에 -15791
▁아나톨 -15792
▁강조하는 -15793
▁세인트루이스 -15794
라드 -15795
부지 -15796
호르 -15797
▁이양 -15798
▁혼다 -15799
그룹의 -15800
테리아 -15801
▁단체의 -15802
▁면이다 -15803
버른 -15804
천년 -15805
▁가산 -15806
▁다윈 -15807
▁돼지 -15808
▁섬과 -15809
▁승점 -15810
▁평평 -15811
▁핑크 -15812
▁무소속 -15813
▁주위의 -15814
▁개발했다 -15815
▁작용하는 -15816
▁고아 -15817
▁바꿀 -15818
▁산이 -15819
▁인재 -15820
▁칸은 -15821
▁포스 -15822
버스는 -15823
▁개통되었다 -15824
▁고려시대의 -15825
치히 -15826
▁발령 -15827
▁점과 -15828
▁찍은 -15829
▁경로를 -15830
▁놀라운 -15831
▁대사관 -15832
▁참가할 -15833
▁발견되어 -15834
▁늙 -15835
▁홉 -15836
그러 -15837
니코 -15838
물인 -15839
키타 -15840
▁김형 -15841
시간이 -15842
위까지 -15843
테이너 -15844
▁대단히 -15845
▁대전의 -15846
▁미야기 -15847
▁아리아 -15848
▁그랑프리 -15849
▁청나라의 -15850
▁시즌에서는 -15851
▁한편으로는 -15852
▁쿡 -15853
기둥 -15854
련된 -15855
바퀴 -15856
.3% -15857
▁묶어 -15858
▁상급 -15859
▁스포 -15860
▁헤어 -15861
▁도로가 -15862
▁모로코 -15863
▁일본군의 -15864
노리 -15865
보장 -15866
ook -15867
▁매력 -15868
▁배수 -15869
▁철폐 -15870
저기압 -15871
▁부대의 -15872
▁사망자가 -15873
▁에콰도르 -15874
니라 -15875
▁매킨 -15876
▁수양 -15877
▁호크 -15878
▁마르티 -15879
▁암컷은 -15880
▁마오쩌둥 -15881
▁프랜시스 -15882
비서 -15883
▁MB -15884
▁강대 -15885
▁대왕 -15886
▁명인 -15887
▁상공 -15888
▁씨가 -15889
▁보낸다 -15890
▁여겼다 -15891
▁왕가의 -15892
▁청동기 -15893
▁기간동안 -15894
▁이용해서 -15895
▁받아들였다 -15896
▁아이스하키 -15897
onlyinclude -15898
.7% -15899
▁Ph -15900
▁국한 -15901
▁듣지 -15902
▁줄리 -15903
▁미군의 -15904
▁방안을 -15905
▁유닉스 -15906
▁알렉산드리아 -15907
절에 -15908
▁WH -15909
▁느린 -15910
▁적어 -15911
▁포터 -15912
▁현종 -15913
▁의지를 -15914
▁버전으로 -15915
▁붙여졌다 -15916
▁여겨졌다 -15917
▁한국철도 -15918
공작 -15919
아과 -15920
자고 -15921
▁루카 -15922
▁류큐 -15923
▁막스 -15924
▁따왔다 -15925
▁마을이 -15926
▁연이어 -15927
세기까지 -15928
▁입학하여 -15929
▁자료이다 -15930
▁데뷔하였으며 -15931
두의 -15932
▁성명 -15933
▁컴파 -15934
▁프란치 -15935
대학교를 -15936
▁대체되었다 -15937
▁실시되었다 -15938
/3 -15939
몽골 -15940
.8% -15941
▁블레 -15942
▁비전 -15943
▁중엽 -15944
▁출석 -15945
▁220 -15946
▁정책의 -15947
▁서비스가 -15948
▁시작하고 -15949
▁쉴 -15950
금과 -15951
등과 -15952
에스 -15953
초가 -15954
케의 -15955
▁별세 -15956
▁질문 -15957
당한다 -15958
▁ABC -15959
▁느끼고 -15960
▁단어가 -15961
▁전화를 -15962
▁처분을 -15963
▁후기에 -15964
▁출전하지 -15965
료는 -15966
복이 -15967
▁간략 -15968
▁값은 -15969
▁기해 -15970
▁입국 -15971
▁지출 -15972
▁기관차 -15973
▁분야를 -15974
▁원칙을 -15975
▁사용되어 -15976
▁이번에는 -15977
워서 -15978
▁감수 -15979
▁산성 -15980
▁상행 -15981
▁서임 -15982
▁전수 -15983
관계에 -15984
대학의 -15985
순위로 -15986
조참판 -15987
▁아이언 -15988
▁예컨대 -15989
▁무대에서 -15990
▁증가했다 -15991
▁캐릭터를 -15992
공화 -15993
▁가신 -15994
▁유목 -15995
▁도시인 -15996
▁서로의 -15997
▁부족으로 -15998
▁스튜어트 -15999
▁일어나지 -16000
디지 -16001
▁떠오 -16002
▁전전 -16003
▁클러 -16004
▁가로지 -16005
▁끼쳤다 -16006
▁의회에서 -16007
소비 -16008
▁극우 -16009
▁병이 -16010
▁선천 -16011
▁최강 -16012
가지가 -16013
만원을 -16014
▁가져다 -16015
▁금요일 -16016
▁득표율 -16017
▁사이로 -16018
▁의문을 -16019
▁전자의 -16020
▁흐르고 -16021
▁정치적으로 -16022
독을 -16023
▁un -16024
▁면이 -16025
▁무안 -16026
▁좌측 -16027
우리는 -16028
▁생성된 -16029
▁시에는 -16030
▁앨리스 -16031
▁유학생 -16032
▁해안에 -16033
▁카탈루냐 -16034
되나 -16035
섬의 -16036
▁선동 -16037
▁입구 -16038
▁자란 -16039
▁전무 -16040
▁죽게 -16041
▁허드 -16042
▁API -16043
▁마르세 -16044
▁부인은 -16045
▁에어로 -16046
▁장소에 -16047
▁영화에서 -16048
▁대한민국을 -16049
▁기인 -16050
▁베리 -16051
▁접한 -16052
▁카지 -16053
▁학과 -16054
▁항쟁 -16055
▁않아도 -16056
▁음반이 -16057
▁경상북도의 -16058
▁댈 -16059
균은 -16060
왕국 -16061
원인 -16062
유예 -16063
저의 -16064
충은 -16065
▁마애 -16066
▁전담 -16067
▁정읍 -16068
▁콘솔 -16069
각으로 -16070
▁손실을 -16071
▁않다고 -16072
▁어렵게 -16073
▁직위를 -16074
▁클럽인 -16075
▁NASA -16076
▁투수이다 -16077
▁경기장으로 -16078
부산 -16079
▁서귀 -16080
▁체조 -16081
▁트란 -16082
▁넘어서 -16083
▁인간과 -16084
▁충청도 -16085
▁있어서의 -16086
사도 -16087
▁우의 -16088
▁천천 -16089
▁고양시 -16090
▁소유한 -16091
▁정하는 -16092
▁시즈오카 -16093
방법 -16094
속도 -16095
▁금호 -16096
▁도래 -16097
▁동정 -16098
▁면제 -16099
▁채취 -16100
▁신화에 -16101
▁정하고 -16102
▁1883 -16103
▁영향력이 -16104
EE -16105
가게 -16106
바리 -16107
욱은 -16108
▁제천 -16109
화하기 -16110
▁대니얼 -16111
▁대표를 -16112
▁새끼를 -16113
▁피라미 -16114
▁협회의 -16115
▁공산당의 -16116
▁설치하였다 -16117
년제 -16118
_16 -16119
les -16120
▁국외 -16121
▁성곽 -16122
▁규모를 -16123
▁시장이 -16124
▁부르고뉴 -16125
▁여겨지고 -16126
▁중심지로 -16127
▁Gr -16128
▁김천 -16129
레이트 -16130
▁3.5 -16131
▁고문을 -16132
▁안정된 -16133
▁영국령 -16134
권에서는 -16135
▁국내에서 -16136
▁지원하기 -16137
▁습윤 -16138
▁이기고 -16139
▁코스타리카 -16140
▁토착종이다 -16141
▁( -16142
▁깜 -16143
격은 -16144
배의 -16145
불이 -16146
지정 -16147
▁PR -16148
▁간이 -16149
▁관동 -16150
▁살게 -16151
▁악의 -16152
▁주조 -16153
▁직통 -16154
▁포수 -16155
▁논쟁을 -16156
▁도메인 -16157
▁모른다 -16158
▁오카야마 -16159
▁만들어진다 -16160
8, -16161
노와 -16162
됐던 -16163
▁동력 -16164
▁원통 -16165
▁유해 -16166
▁쪽에 -16167
▁타지 -16168
▁하키 -16169
오스트 -16170
▁1.0 -16171
▁비롯된 -16172
▁수행했다 -16173
▁정상적인 -16174
나비 -16175
색과 -16176
월을 -16177
전달 -16178
▁AD -16179
▁경복 -16180
▁낙하 -16181
▁대역 -16182
▁맞춘 -16183
▁번영 -16184
▁사쓰 -16185
▁실재 -16186
정이다 -16187
▁노래의 -16188
▁방정식 -16189
▁자원을 -16190
▁전까지는 -16191
▁창설되었다 -16192
▁죠 -16193
것이 -16194
끄러 -16195
▁강간 -16196
▁백신 -16197
▁스와 -16198
▁접수 -16199
▁거두며 -16200
▁기법을 -16201
▁내리고 -16202
9, -16203
▁딥 -16204
▁숀 -16205
손의 -16206
키스 -16207
▁은혜 -16208
▁의령 -16209
▁장이 -16210
▁쿠빌 -16211
▁타르 -16212
▁70% -16213
▁가솔린 -16214
▁믿었다 -16215
▁소재의 -16216
▁오일러 -16217
▁표현은 -16218
좌를 -16219
▁공감 -16220
▁반전 -16221
▁시이다 -16222
▁유력한 -16223
▁증거를 -16224
▁카메룬 -16225
▁동치이다 -16226
▁안정적인 -16227
▁프랑스령 -16228
망은 -16229
ink -16230
▁보리 -16231
▁분지 -16232
제이다 -16233
▁곳곳에 -16234
▁되어야 -16235
▁시코쿠 -16236
▁튼 -16237
견이 -16238
공단 -16239
록은 -16240
▁군부 -16241
▁비늘 -16242
▁솟아 -16243
▁유료 -16244
▁혼동 -16245
퍼런스 -16246
▁파일럿 -16247
▁성장하였다 -16248
▁여객철도의 -16249
내가 -16250
전대 -16251
크레 -16252
▁반포 -16253
▁일기 -16254
슬레틱 -16255
▁구하기 -16256
▁목소리 -16257
▁의석을 -16258
▁행하는 -16259
▁사용자의 -16260
▁아프리카의 -16261
OK -16262
▁니혼 -16263
▁당주 -16264
▁야외 -16265
▁옮긴 -16266
▁일차 -16267
▁조인 -16268
부분에 -16269
▁공로를 -16270
▁남자가 -16271
▁헤이안 -16272
적이라고 -16273
▁선수였다 -16274
대성 -16275
▁농어 -16276
그리스 -16277
▁방사능 -16278
▁별자리 -16279
▁생명을 -16280
▁만들어져 -16281
▁형사소송법 -16282
▁구이 -16283
▁다듬 -16284
▁미소 -16285
▁사의 -16286
▁세레 -16287
▁견해가 -16288
▁규칙을 -16289
▁퍼스트 -16290
▁가나가와현 -16291
▁독립적으로 -16292
▁독자적으로 -16293
티를 -16294
▁노바 -16295
▁옥타 -16296
▁종군 -16297
헝가리 -16298
▁바다의 -16299
▁케이프 -16300
▁새누리당 -16301
▁쑤 -16302
바오 -16303
테의 -16304
▁김윤 -16305
▁김인 -16306
▁하프 -16307
는다는 -16308
▁친구가 -16309
▁활동의 -16310
▁1882 -16311
▁미래통합 -16312
▁스트라이크 -16313
EX -16314
배에 -16315
창이 -16316
▁간첩 -16317
▁냉전 -16318
▁로페 -16319
▁열을 -16320
▁대중의 -16321
▁양자로 -16322
▁원리를 -16323
▁프로그램인 -16324
방과 -16325
▁많지 -16326
▁언니 -16327
▁폭파 -16328
▁1-2 -16329
▁뉴욕주 -16330
▁대륙의 -16331
▁보내어 -16332
▁여지가 -16333
▁해밀턴 -16334
▁보호하는 -16335
▁프로듀서이다 -16336
부작 -16337
암아 -16338
▁BM -16339
▁CM -16340
▁극락 -16341
▁유비 -16342
운동이 -16343
▁공으로 -16344
▁글로브 -16345
▁남동생 -16346
▁따라서는 -16347
▁해당되는 -16348
조치 -16349
탄은 -16350
품은 -16351
ref -16352
▁경인 -16353
▁자서 -16354
▁죽기 -16355
▁첼시 -16356
▁페레 -16357
▁그것의 -16358
▁멜버른 -16359
▁영역에서 -16360
▁싼 -16361
▁느낄 -16362
▁자결 -16363
▁칼로 -16364
▁문화에 -16365
▁정상에 -16366
광이 -16367
메트 -16368
문서 -16369
출력 -16370
▁누이 -16371
▁폭풍 -16372
민스터 -16373
들이었다 -16374
설의 -16375
세손 -16376
순의 -16377
▁수락 -16378
▁오락 -16379
▁중합 -16380
▁경제를 -16381
▁너무나 -16382
▁미토콘 -16383
▁월요일 -16384
▁피해자 -16385
▁지배하는 -16386
말의 -16387
통상 -16388
▁글꼴 -16389
▁우파 -16390
▁차관 -16391
▁컸다 -16392
▁받았던 -16393
▁북유럽 -16394
▁수업을 -16395
▁왕국이 -16396
▁음악이 -16397
▁조직에 -16398
님은 -16399
여행 -16400
▁사탕 -16401
▁켈트 -16402
년경에 -16403
층에서 -16404
▁못했지만 -16405
▁룸 -16406
▁드리 -16407
▁모범 -16408
▁생겼 -16409
▁우치 -16410
▁조로 -16411
▁커리 -16412
▁구조와 -16413
▁배터리 -16414
▁샌디에 -16415
▁이론이 -16416
▁단체이다 -16417
▁올림피아 -16418
▁주인공으로 -16419
▁괄 -16420
궁에 -16421
▁고딕 -16422
▁예고 -16423
▁지류 -16424
익스피 -16425
▁치렀고 -16426
▁밝혀지지 -16427
▁키프로스 -16428
세키 -16429
▁고다 -16430
▁영장 -16431
사들은 -16432
집으로 -16433
▁구축함 -16434
▁마음의 -16435
▁질문에 -16436
스테르담 -16437
여자중학교 -16438
▁전반적으로 -16439
안보 -16440
지던 -16441
▁고흥 -16442
▁기와 -16443
▁매수 -16444
▁보강 -16445
▁에레 -16446
▁허리 -16447
르트의 -16448
▁달리는 -16449
▁정보는 -16450
▁최연소 -16451
▁패배한 -16452
ec -16453
▁찔 -16454
기며 -16455
마귀 -16456
바가 -16457
시다 -16458
파울 -16459
히지 -16460
▁OB -16461
▁모른 -16462
▁부평 -16463
▁소극 -16464
▁실무 -16465
▁우한 -16466
▁해부 -16467
▁여배우 -16468
▁물리치고 -16469
oo -16470
등은 -16471
랑의 -16472
▁강철 -16473
▁군정 -16474
▁아메 -16475
▁역도 -16476
▁장안 -16477
▁성향을 -16478
▁지닌다 -16479
▁컴퓨터를 -16480
▁개발하였다 -16481
▁발전하였다 -16482
▁므 -16483
먼의 -16484
시카 -16485
예가 -16486
▁En -16487
▁가타 -16488
▁더비 -16489
▁승무 -16490
▁와인 -16491
▁집정 -16492
나에서 -16493
내었다 -16494
▁발전소 -16495
▁산업은 -16496
▁수준을 -16497
▁용인시 -16498
▁종류는 -16499
▁미야자키 -16500
▁유지했다 -16501
▁통과하는 -16502
▁불분 -16503
▁해왕 -16504
▁히메 -16505
단했다 -16506
▁기록과 -16507
▁남았다 -16508
▁메시지 -16509
▁목록을 -16510
▁못했던 -16511
▁스트레 -16512
▁이사회 -16513
▁의미이다 -16514
▁하나로서 -16515
남부 -16516
승지 -16517
▁도네 -16518
▁수로 -16519
▁앞선 -16520
족으로 -16521
펜하겐 -16522
▁40% -16523
▁단계를 -16524
▁루돌프 -16525
▁방식에 -16526
▁체제로 -16527
▁행성이 -16528
▁전해지는 -16529
▁차지했고 -16530
스콘 -16531
▁연동 -16532
▁잃게 -16533
▁재외 -16534
▁쓰기도 -16535
▁일으킨다 -16536
▁탈락했다 -16537
수단 -16538
▁고이 -16539
▁보은 -16540
▁성전 -16541
▁스퀘 -16542
▁생전에 -16543
▁예전에 -16544
▁지구가 -16545
▁카이로 -16546
▁벨라루스 -16547
▁미드필더로 -16548
▁피아니스트 -16549
▁쟈 -16550
포시 -16551
▁가의 -16552
▁조슈 -16553
▁지극 -16554
▁파병 -16555
▁SNS -16556
▁수사를 -16557
▁어느날 -16558
▁실시하는 -16559
▁국회의원을 -16560
▁플레이어가 -16561
당할 -16562
.9% -16563
▁러일 -16564
▁서스 -16565
▁송신 -16566
▁잠깐 -16567
▁정전 -16568
▁평의 -16569
▁Sou -16570
▁int -16571
▁가족이 -16572
▁지상파 -16573
▁Your -16574
▁들어가게 -16575
세력 -16576
▁꿈꾸 -16577
▁장인 -16578
▁추억 -16579
▁피핀 -16580
일체유 -16581
▁단계에 -16582
▁은메달 -16583
▁자유당 -16584
▁결승전에 -16585
극의 -16586
불의 -16587
청과 -16588
▁GO -16589
▁김준 -16590
▁놓인 -16591
▁로비 -16592
▁감옥에 -16593
▁급속히 -16594
▁레오폴 -16595
▁이스탄 -16596
▁체제의 -16597
브가 -16598
타도 -16599
▁검거 -16600
▁겪은 -16601
▁그외 -16602
▁오해 -16603
▁공군의 -16604
▁비타민 -16605
▁후계자로 -16606
AI -16607
모어 -16608
▁공고 -16609
▁연립 -16610
클리드 -16611
▁기준이 -16612
▁선언을 -16613
▁아라곤 -16614
▁위치가 -16615
▁그레고리 -16616
와도 -16617
▁가중 -16618
▁관세 -16619
▁금산 -16620
▁루키 -16621
▁마린 -16622
▁새긴 -16623
▁정인 -16624
▁정자 -16625
▁초콜 -16626
▁포럼 -16627
▁문학의 -16628
▁활동과 -16629
▁옮겨졌다 -16630
▁진출한다 -16631
공과 -16632
름의 -16633
매김 -16634
옆면 -16635
▁교정 -16636
▁픽처 -16637
드리게 -16638
▁몬테네 -16639
▁자기가 -16640
▁진행을 -16641
▁클럽은 -16642
▁Wind -16643
고속도로의 -16644
▁겔 -16645
박이 -16646
비언 -16647
아마 -16648
우로 -16649
후는 -16650
▁91 -16651
▁소외 -16652
▁포토 -16653
역까지 -16654
▁1868 -16655
▁여겨지는 -16656
▁예전에는 -16657
▁담당하였다 -16658
TE -16659
▁첸 -16660
길에 -16661
길은 -16662
▁이누 -16663
▁작다 -16664
▁원정을 -16665
▁대항하여 -16666
▁설립되어 -16667
▁적용된다 -16668
▁효율적으로 -16669
경쟁 -16670
죄로 -16671
테른 -16672
▁공성 -16673
▁10, -16674
▁밖에서 -16675
▁본부를 -16676
▁사상의 -16677
▁산티아 -16678
▁활동했으며 -16679
정지 -16680
프턴 -16681
▁단원 -16682
▁악마 -16683
▁장덕 -16684
▁키보 -16685
선거구 -16686
▁가공의 -16687
▁단계로 -16688
▁도야마 -16689
▁측에서 -16690
▁역임했으며 -16691
료가 -16692
자금 -16693
훈이 -16694
▁송도 -16695
▁에른 -16696
▁파는 -16697
명이며 -16698
번이나 -16699
지거나 -16700
페스트 -16701
▁가이드 -16702
▁명령에 -16703
▁설일체유 -16704
▁확정되었다 -16705
▁FK -16706
▁미세 -16707
▁보복 -16708
▁적분 -16709
▁호쿠 -16710
▁교회가 -16711
▁빠졌다 -16712
▁용어가 -16713
▁학생이 -16714
퍼레이션 -16715
▁대항하는 -16716
지않 -16717
통치 -16718
표의 -16719
데이터 -16720
▁For -16721
▁신앙을 -16722
했음에도 -16723
그마 -16724
근을 -16725
디로 -16726
통과 -16727
▁신입 -16728
좌상은 -16729
▁영원히 -16730
▁전하고 -16731
▁증상을 -16732
▁결합하여 -16733
▁비판하는 -16734
▁쿠데타를 -16735
▁아프리카계 -16736
선형 -16737
▁돕는 -16738
▁블로 -16739
▁산호 -16740
▁조셉 -16741
▁기타를 -16742
▁외국어 -16743
▁카타르 -16744
▁판정을 -16745
▁학교는 -16746
▁Live -16747
▁기념하기 -16748
▁말미암아 -16749
▁인도네시아의 -16750
BL -16751
변호 -16752
▁8, -16753
▁이이 -16754
▁탄자 -16755
▁화엄 -16756
들처럼 -16757
하겠다 -16758
▁느끼는 -16759
▁동메달 -16760
▁본질적 -16761
▁차례에 -16762
▁것이므로 -16763
양과 -16764
처의 -16765
히게 -16766
ung -16767
▁나갈 -16768
▁오기 -16769
▁LED -16770
▁구성은 -16771
▁생활에 -16772
▁세우는 -16773
▁흐른다 -16774
도서관은 -16775
디나비아 -16776
▁프랑스를 -16777
▁홍콩에서 -16778
▁1: -16779
▁자작 -16780
▁가격은 -16781
▁근거가 -16782
▁다목적 -16783
▁볼티모 -16784
▁작업은 -16785
▁흥미를 -16786
강전에서 -16787
▁관련되어 -16788
▁불과하다 -16789
▁서울중앙 -16790
▁일제강점기 -16791
▁챙 -16792
막이 -16793
▁과테 -16794
▁럭비 -16795
▁사인 -16796
직하고 -16797
▁예선에 -16798
▁자료는 -16799
▁저항을 -16800
▁프랜차 -16801
▁나타나지 -16802
▁앨범으로 -16803
▁괌 -16804
▁닷 -16805
▁문하 -16806
▁바오 -16807
▁안토 -16808
▁조이 -16809
▁풍속 -16810
▁피오 -16811
슬라프 -16812
웨스트 -16813
▁대학은 -16814
▁메릴랜드 -16815
▁요구하였다 -16816
달의 -16817
유와 -16818
절로 -16819
▁서열 -16820
▁위촉 -16821
▁피할 -16822
▁연맹이 -16823
▁자라는 -16824
▁프리스 -16825
진상규명 -16826
▁프랑스로 -16827
▁공휴 -16828
▁넥센 -16829
▁닮은 -16830
▁좀더 -16831
궐선거 -16832
월드컵 -16833
▁세르게 -16834
▁주민의 -16835
노부 -16836
저를 -16837
줄기 -16838
▁지자 -16839
▁각자의 -16840
▁현장에서 -16841
▁찢 -16842
곡리 -16843
동성 -16844
미치 -16845
증에 -16846
▁비대 -16847
르트는 -16848
▁강화를 -16849
▁요시다 -16850
▁이론과 -16851
▁황제를 -16852
▁흩어져 -16853
지역에서 -16854
도상 -16855
루로 -16856
승은 -16857
▁산을 -16858
▁표를 -16859
▁3.0 -16860
▁그만큼 -16861
▁등에게 -16862
▁발달한 -16863
▁은하의 -16864
▁제이슨 -16865
▁아직까지 -16866
▁할리우드 -16867
누마 -16868
분열 -16869
용과 -16870
▁치는 -16871
▁통보 -16872
▁거리의 -16873
▁계획의 -16874
▁당국은 -16875
▁박사는 -16876
▁작품인 -16877
▁지시를 -16878
▁참석한 -16879
▁더글러스 -16880
▁컴퓨터의 -16881
~8 -16882
코를 -16883
lan -16884
▁불행 -16885
▁아와 -16886
▁카프 -16887
▁캐시 -16888
▁포식 -16889
색이다 -16890
▁뿌리를 -16891
▁유럽에 -16892
▁실시했다 -16893
▁유니버설 -16894
▁후반부터 -16895
산초등학교 -16896
▁광범위하게 -16897
▁헛 -16898
▁게리 -16899
▁공약 -16900
▁누나 -16901
▁모차 -16902
▁준수 -16903
▁해태 -16904
바이러 -16905
▁pro -16906
▁게이오 -16907
▁교회에 -16908
▁다나카 -16909
▁모르고 -16910
▁의원의 -16911
▁이바지 -16912
▁정당이 -16913
▁나카무라 -16914
▁시작되었고 -16915
▁랄 -16916
이론 -16917
▁계단 -16918
▁낮다 -16919
▁문과 -16920
▁염려 -16921
▁전미 -16922
▁징병 -16923
▁현직 -16924
▁곡들은 -16925
▁나이는 -16926
▁부근의 -16927
▁서양의 -16928
▁유니언 -16929
▁종래의 -16930
▁크리에 -16931
▁혁명이 -16932
▁Part -16933
▁공개적으로 -16934
례로 -16935
_21 -16936
칸옆면 -16937
▁국적을 -16938
▁동로마 -16939
▁법칙을 -16940
▁장소를 -16941
▁가르침을 -16942
▁프랭클린 -16943
양에 -16944
▁아다 -16945
▁휘말 -16946
▁사랑과 -16947
▁오리온 -16948
▁이론적 -16949
▁적었다 -16950
▁책에서 -16951
▁아이들을 -16952
▁영국으로 -16953
증과 -16954
▁연한 -16955
▁회귀 -16956
센터는 -16957
▁교육에 -16958
▁투자를 -16959
▁아오모리 -16960
▁어머니와 -16961
▁코펜하겐 -16962
나파 -16963
▁04 -16964
▁Br -16965
▁엄마 -16966
조사를 -16967
▁등판해 -16968
▁보이게 -16969
▁속이다 -16970
▁영어를 -16971
▁온도는 -16972
▁철저히 -16973
▁철학을 -16974
▁발표하여 -16975
딘은 -16976
라나 -16977
박을 -16978
티넨 -16979
▁은신 -16980
▁차츰 -16981
▁타는 -16982
▁하코 -16983
▁비중이 -16984
▁우루과이 -16985
▁패하였다 -16986
▁시리즈이다 -16987
▁아틀레티코 -16988
▁스크린도어가 -16989
CS -16990
군인 -16991
마케 -16992
있어 -16993
▁백과 -16994
▁법에 -16995
▁불변 -16996
▁이코 -16997
▁바탕에 -16998
▁찬사를 -16999
▁설립하고 -17000
_17 -17001
▁박성 -17002
▁상연 -17003
▁세바 -17004
▁실리 -17005
▁중수 -17006
▁보이스 -17007
▁어머니를 -17008
개미 -17009
광은 -17010
▁맛을 -17011
▁상법 -17012
▁송출 -17013
▁자회 -17014
▁잦은 -17015
▁털은 -17016
번호는 -17017
학과에 -17018
▁걸쳐서 -17019
▁공격은 -17020
▁사형을 -17021
▁시간과 -17022
▁주었고 -17023
▁비교하여 -17024
▁애슬레틱 -17025
▁이동하는 -17026
▁슛 -17027
고지 -17028
시브 -17029
심에 -17030
▁지오 -17031
▁토미 -17032
가지로 -17033
▁맡기도 -17034
▁문화는 -17035
▁의약품 -17036
▁자녀를 -17037
▁테네시 -17038
고등법원 -17039
▁브루클린 -17040
▁경기장에서 -17041
▁국가대표로 -17042
▁언급하였다 -17043
▁우크라이나의 -17044
AE -17045
~1 -17046
▁맬 -17047
군주 -17048
레니 -17049
▁말리 -17050
▁연희 -17051
▁전락 -17052
시켜야 -17053
▁불확실 -17054
▁사실에 -17055
▁오세아 -17056
▁배우이자 -17057
▁없었으며 -17058
리쿠 -17059
송의 -17060
-08 -17061
_20 -17062
gin -17063
ood -17064
▁무술 -17065
▁외래 -17066
▁폭이 -17067
▁공간에 -17068
▁주지사 -17069
▁직책을 -17070
▁파푸아 -17071
▁항복을 -17072
▁형식은 -17073
▁스타일의 -17074
▁완벽하게 -17075
▁콕 -17076
바위 -17077
천면 -17078
커를 -17079
▁정이 -17080
▁택시 -17081
▁공장을 -17082
▁나타날 -17083
▁다리가 -17084
▁서바이 -17085
▁안타를 -17086
▁자료에 -17087
▁주파수 -17088
▁러시아와 -17089
▁쿠웨이트 -17090
▁히어로즈 -17091
▁분리되었다 -17092
▁멍 -17093
사자 -17094
순이 -17095
▁본관 -17096
▁송파 -17097
▁신기 -17098
가들이 -17099
였다는 -17100
타나베 -17101
▁라오스 -17102
▁언어가 -17103
▁예로는 -17104
▁한다면 -17105
음으로써 -17106
러와 -17107
▁넣는 -17108
▁달고 -17109
▁부다 -17110
▁씨는 -17111
▁원활 -17112
▁재상 -17113
▁적게 -17114
▁총을 -17115
▁칭송 -17116
청소년 -17117
▁강의를 -17118
▁맡았던 -17119
▁중요하게 -17120
DA -17121
맨의 -17122
코로 -17123
토크 -17124
토프 -17125
▁커플 -17126
▁하니 -17127
▁급격한 -17128
▁언론의 -17129
▁사회민주 -17130
▁더빙 -17131
▁위그 -17132
▁후배 -17133
▁IOC -17134
▁다카라 -17135
▁연주를 -17136
하더라도 -17137
we -17138
보스 -17139
쉬는 -17140
주아 -17141
▁다발 -17142
▁안녕 -17143
▁인자 -17144
▁했기 -17145
겠지만 -17146
이트는 -17147
화되고 -17148
▁비교해 -17149
▁서로를 -17150
▁이르게 -17151
▁프란시스코 -17152
ai -17153
회원 -17154
▁고추 -17155
▁동등 -17156
▁하행 -17157
▁해역 -17158
▁가라앉 -17159
▁교사로 -17160
▁공장에서 -17161
▁국립공원 -17162
PG -17163
재와 -17164
ool -17165
▁맡는 -17166
분부터 -17167
▁단체인 -17168
▁무역을 -17169
▁선거인 -17170
▁행동이 -17171
▁라이선스 -17172
▁의과대학 -17173
▁인기있는 -17174
▁촛 -17175
샤오 -17176
▁김승 -17177
▁압록 -17178
▁한큐 -17179
▁홍수 -17180
미사일 -17181
▁나트륨 -17182
▁병력이 -17183
▁브뤼셀 -17184
▁일반적 -17185
▁제한을 -17186
▁피렌체 -17187
▁회사에 -17188
▁훈장을 -17189
▁현대자동차 -17190
녀의 -17191
상황 -17192
▁보령 -17193
▁여인 -17194
▁합천 -17195
▁작사가 -17196
▁줄리아 -17197
▁근본적인 -17198
▁기관이다 -17199
▁치명적인 -17200
번지 -17201
▁높여 -17202
▁세습 -17203
▁잡는 -17204
▁심리적 -17205
▁않다는 -17206
▁의회에 -17207
▁장점이 -17208
▁코드는 -17209
IR -17210
▁널 -17211
수입 -17212
▁군용 -17213
▁나미 -17214
▁온다 -17215
▁이메 -17216
▁상에서 -17217
▁알제리 -17218
▁전역을 -17219
▁1893 -17220
▁일본군은 -17221
▁유래하였다 -17222
니티 -17223
어사 -17224
▁경호 -17225
▁기법 -17226
▁말과 -17227
▁무언 -17228
▁경력이 -17229
▁계통의 -17230
▁로스쿨 -17231
▁몇몇의 -17232
▁모았다 -17233
▁시신은 -17234
▁존재로 -17235
▁지위에 -17236
이었다는 -17237
▁파견하여 -17238
▁이탈리아는 -17239
캠퍼 -17240
▁답변 -17241
▁정몽 -17242
▁클루 -17243
▁파고 -17244
▁상원의 -17245
▁요구에 -17246
▁천천히 -17247
▁스페인어 -17248
▁가면라이더 -17249
▁암스테르담 -17250
니언 -17251
심리 -17252
회관 -17253
▁격려 -17254
▁과장 -17255
▁요격 -17256
▁재팬 -17257
▁조롱 -17258
▁페로 -17259
▁해독 -17260
▁해피 -17261
▁느끼게 -17262
▁달했다 -17263
▁체제가 -17264
▁현대에 -17265
▁인도차이나 -17266
개씩 -17267
내려 -17268
다오 -17269
성장 -17270
▁도둑 -17271
▁월터 -17272
▁전구 -17273
▁지침 -17274
▁혐오 -17275
▁감염된 -17276
▁결혼한 -17277
▁사이먼 -17278
▁시절을 -17279
▁알렉스 -17280
▁왕조가 -17281
▁푸에르토리 -17282
▁스칸디나비아 -17283
살에 -17284
천과 -17285
▁설문 -17286
▁점거 -17287
▁중심을 -17288
▁들어왔다 -17289
▁갚 -17290
당시 -17291
링겐 -17292
하되 -17293
▁기뻐 -17294
▁김선 -17295
▁대출 -17296
▁반감 -17297
▁워드 -17298
▁자책 -17299
▁제로 -17300
▁Sch -17301
▁그리는 -17302
▁밝혀진 -17303
▁성명을 -17304
▁지방은 -17305
▁게오르크 -17306
▁방지하기 -17307
▁지역에는 -17308
▁코로나바이러스 -17309
▁퉁 -17310
마니 -17311
▁무서 -17312
▁봉화 -17313
▁상록 -17314
▁포털 -17315
으려는 -17316
▁그밖에 -17317
▁사망자 -17318
대리 -17319
컵을 -17320
▁읽는 -17321
▁집착 -17322
갔으나 -17323
미술관 -17324
▁준우승에 -17325
축제 -17326
▁에반 -17327
▁입수 -17328
로스의 -17329
▁450 -17330
▁작가가 -17331
▁책으로 -17332
▁학문적 -17333
시키는데 -17334
▁대중교통 -17335
▁들어오는 -17336
▁투표에서 -17337
▁효율적인 -17338
▁설계되었다 -17339
▁노스캐롤라이나 -17340
것은 -17341
바브 -17342
분한 -17343
▁면을 -17344
▁부당 -17345
▁싶다 -17346
▁파우 -17347
▁공격이 -17348
▁구성을 -17349
▁시신을 -17350
▁함대를 -17351
▁받았는데 -17352
▁전적으로 -17353
▁지칭하는 -17354
검은 -17355
▁규탄 -17356
▁나일 -17357
▁몸은 -17358
▁엔터 -17359
▁자카 -17360
▁재선 -17361
▁장기간 -17362
▁독일군의 -17363
▁스테이션 -17364
▁승리했다 -17365
선택 -17366
피오 -17367
▁그릴 -17368
▁농경 -17369
▁알폰 -17370
▁우세 -17371
▁함흥 -17372
문화의 -17373
▁요청에 -17374
▁귀국하여 -17375
▁문서이다 -17376
▁미쓰비시 -17377
▁공개하였다 -17378
51 -17379
티즌 -17380
피크 -17381
_18 -17382
▁관제 -17383
▁리에 -17384
▁산요 -17385
▁가문이 -17386
▁따르고 -17387
▁활용하여 -17388
▁팡 -17389
감사 -17390
르다 -17391
청장 -17392
▁사영 -17393
▁것과는 -17394
▁무엇이 -17395
▁안되는 -17396
▁침공을 -17397
▁클라크 -17398
▁포함되지 -17399
로워 -17400
승이 -17401
질에 -17402
훈의 -17403
▁양측 -17404
▁여부 -17405
▁1-1 -17406
▁가리는 -17407
▁강하다 -17408
▁계속된 -17409
▁산스크 -17410
▁질량을 -17411
▁전달하는 -17412
▁플랫폼을 -17413
▁히틀러는 -17414
강한 -17415
화문 -17416
▁at -17417
▁거인 -17418
▁났다 -17419
▁노후 -17420
▁수목 -17421
▁숨을 -17422
▁오산 -17423
▁인력 -17424
▁증폭 -17425
▁헌액 -17426
전에는 -17427
▁맞았다 -17428
▁중성자 -17429
▁거리에서 -17430
▁공화국이 -17431
▁살아남은 -17432
가며 -17433
비노 -17434
서비 -17435
▁94 -17436
▁도출 -17437
▁리조 -17438
▁것들을 -17439
▁미래에 -17440
공장 -17441
루엔 -17442
사적 -17443
아라 -17444
▁대포 -17445
▁불완 -17446
▁신원 -17447
▁육체 -17448
▁청계 -17449
▁퍼즐 -17450
▁광고를 -17451
▁비중을 -17452
▁캐서린 -17453
▁공간으로 -17454
모르 -17455
변속 -17456
아카 -17457
언론 -17458
▁암석 -17459
▁영천 -17460
▁축성 -17461
이트를 -17462
▁기관의 -17463
▁기관이 -17464
▁도르트 -17465
▁반란이 -17466
▁세네갈 -17467
▁운행이 -17468
▁증거는 -17469
▁패했다 -17470
▁핵융합 -17471
ublic -17472
▁계속되는 -17473
▁둘러싸인 -17474
▁분포하고 -17475
▁유아기를 -17476
▁진행한다 -17477
▁현대적인 -17478
▁제정되었다 -17479
나드 -17480
플래 -17481
▁산시 -17482
▁일리 -17483
놓았다 -17484
▁조선후 -17485
▁지내는 -17486
▁평가가 -17487
시키면서 -17488
▁문신이다 -17489
▁성씨이다 -17490
▁스페인은 -17491
▁콘서트를 -17492
▁선고받았다 -17493
▁향토문화유산 -17494
모노 -17495
서인 -17496
합성 -17497
활성 -17498
▁글렌 -17499
▁설비 -17500
▁직책 -17501
▁찾고 -17502
▁고유한 -17503
▁끌어들 -17504
▁당선된 -17505
▁매끄러운 -17506
인칭 -17507
▁도피 -17508
▁메카 -17509
▁별을 -17510
▁스킴 -17511
▁재난 -17512
나라가 -17513
▁Day -17514
▁경주시 -17515
▁과정의 -17516
▁먹이는 -17517
▁멤버가 -17518
▁사무를 -17519
▁위구르 -17520
▁대규모의 -17521
▁목소리가 -17522
▁사용하게 -17523
▁수행하고 -17524
▁아시아의 -17525
▁활동으로 -17526
▁채택되었다 -17527
득점 -17528
율과 -17529
임의 -17530
▁상기 -17531
▁지는 -17532
전까지 -17533
▁로마로 -17534
▁미루어 -17535
그라운드 -17536
▁것이지만 -17537
▁주인공이 -17538
▁프로세스 -17539
/4 -17540
EP -17541
NG -17542
▁뢰 -17543
타인 -17544
▁나우 -17545
▁모빌 -17546
▁목회 -17547
▁수복 -17548
▁얘기 -17549
▁원천 -17550
▁찰리 -17551
전부터 -17552
▁만난다 -17553
▁미래를 -17554
▁병사를 -17555
▁셰익스피 -17556
▁요하네스 -17557
▁미토콘드리아 -17558
남자 -17559
쾌한 -17560
패의 -17561
▁사슴 -17562
▁스텝 -17563
▁오디 -17564
▁재차 -17565
개이다 -17566
되다가 -17567
억원을 -17568
한국당 -17569
▁모델의 -17570
▁공항으로 -17571
▁입단하여 -17572
▁국제적으로 -17573
▁기성 -17574
▁보낼 -17575
▁오대 -17576
▁천왕 -17577
협회의 -17578
▁과학의 -17579
▁소식이 -17580
▁키예프 -17581
▁펠리페 -17582
▁발견되며 -17583
년동계올림픽 -17584
두가 -17585
사다 -17586
▁공적 -17587
▁기니 -17588
▁기쁨 -17589
▁위를 -17590
▁폐렴 -17591
국이다 -17592
달라는 -17593
▁원소의 -17594
▁케플러 -17595
▁데스크톱 -17596
▁잃어버린 -17597
옥은 -17598
워즈 -17599
짐에 -17600
-50 -17601
▁레일 -17602
▁맛이 -17603
▁모하 -17604
▁승용 -17605
▁황도 -17606
▁검찰은 -17607
▁대사헌 -17608
▁부르게 -17609
▁세상의 -17610
▁아브라 -17611
▁전원이 -17612
▁Girl -17613
▁시설관리 -17614
▁어항이다 -17615
▁움직임이 -17616
▁쪼 -17617
만년 -17618
손이 -17619
▁달에 -17620
▁맞춤 -17621
▁매직 -17622
▁볼프 -17623
▁어업 -17624
▁팔아 -17625
▁신주쿠 -17626
▁연설을 -17627
▁지붕은 -17628
▁철저한 -17629
▁총리로 -17630
▁6.25 -17631
▁동안에는 -17632
▁명확하게 -17633
▁야마모토 -17634
네를 -17635
녀가 -17636
동원 -17637
비안 -17638
사라 -17639
ade -17640
ave -17641
▁결핵 -17642
▁앤서 -17643
▁이회 -17644
▁저자 -17645
▁현을 -17646
대학을 -17647
▁내무부 -17648
▁생각한 -17649
▁전투로 -17650
▁접근을 -17651
▁항성의 -17652
▁성장했다 -17653
▁이해하는 -17654
▁측정하는 -17655
움이 -17656
질환 -17657
▁관상 -17658
▁밀란 -17659
▁전산 -17660
▁집단의 -17661
사회주의 -17662
▁1888 -17663
▁보이지만 -17664
▁일대에서 -17665
가미 -17666
공개 -17667
워크 -17668
하신 -17669
per -17670
▁SA -17671
▁각국 -17672
▁굴절 -17673
▁너머 -17674
▁돕기 -17675
▁성악 -17676
▁평민 -17677
▁그림은 -17678
▁반정부 -17679
▁별명이 -17680
▁비율을 -17681
▁인정을 -17682
▁효고현 -17683
방향으로 -17684
▁명령했다 -17685
▁소말리아 -17686
▁소설이다 -17687
▁심지어는 -17688
▁이론에서 -17689
▁추정하고 -17690
디드 -17691
몬트 -17692
함대 -17693
▁에마 -17694
▁영암 -17695
▁유희 -17696
▁이범 -17697
▁코호 -17698
기관이 -17699
프로세 -17700
▁순서로 -17701
▁여성은 -17702
▁장관이 -17703
▁거점으로 -17704
▁제작했다 -17705
"& -17706
개인 -17707
약이 -17708
요가 -17709
▁버마 -17710
▁탈취 -17711
투스는 -17712
▁자세를 -17713
▁팬들의 -17714
▁장소에서 -17715
▁증가하는 -17716
▁유래되었다 -17717
맥을 -17718
봉의 -17719
키에 -17720
해로 -17721
▁바와 -17722
▁복권 -17723
▁산에 -17724
▁접해 -17725
▁쳤다 -17726
분까지 -17727
▁성격의 -17728
▁성적이 -17729
사관학교 -17730
▁1892 -17731
든다 -17732
▁DF -17733
▁자제 -17734
▁재래 -17735
▁GNU -17736
▁없으므로 -17737
▁추정되며 -17738
ational -17739
▁Univers -17740
▁핼 -17741
네오 -17742
섬은 -17743
표로 -17744
호대 -17745
▁구한 -17746
▁아치 -17747
▁용서 -17748
강으로 -17749
연합회 -17750
▁3-1 -17751
▁브루스 -17752
▁수요가 -17753
▁행위는 -17754
▁도입했다 -17755
▁없었지만 -17756
▁이용되고 -17757
▁자리하고 -17758
▁프린스턴 -17759
▁동사 -17760
▁본인 -17761
land -17762
▁북서부 -17763
▁사업이 -17764
▁오이타 -17765
▁파나마 -17766
▁뿐이었다 -17767
▁클럽에서 -17768
▁필수적인 -17769
"() -17770
▁당진 -17771
▁신민 -17772
▁용도 -17773
▁원반 -17774
방송을 -17775
▁USB -17776
▁간사이 -17777
▁사회가 -17778
▁예선을 -17779
▁작전은 -17780
▁토너먼 -17781
▁미나모토 -17782
▁회장으로 -17783
▁산스크리트 -17784
뮤얼 -17785
바람 -17786
▁공명 -17787
▁바울 -17788
▁변광 -17789
▁인가 -17790
리스가 -17791
세포의 -17792
▁머리가 -17793
▁아들의 -17794
▁회장이 -17795
▁연합군은 -17796
▁승강장으로 -17797
다양 -17798
소시 -17799
원수 -17800
해질 -17801
현재 -17802
▁BC -17803
▁일요 -17804
▁주권 -17805
▁치환 -17806
당했고 -17807
자리는 -17808
▁2~3 -17809
▁기술과 -17810
▁중앙의 -17811
▁from -17812
▁벌어지는 -17813
자문 -17814
하길 -17815
▁때를 -17816
시켜서 -17817
▁기원은 -17818
▁북동부 -17819
▁자연의 -17820
▁콘테스트 -17821
▁네트워크를 -17822
5, -17823
▁CH -17824
▁배달 -17825
▁어우 -17826
▁충렬 -17827
▁하급 -17828
▁구조에 -17829
▁쌓았다 -17830
▁정보의 -17831
▁체결했다 -17832
▁필요하다고 -17833
오브 -17834
통에 -17835
ble -17836
▁도스 -17837
▁진한 -17838
▁청송 -17839
지라도 -17840
▁높았다 -17841
▁상태는 -17842
▁음반인 -17843
▁체결된 -17844
▁토트넘 -17845
▁국가보안 -17846
▁대한민국민 -17847
▁아카데미상 -17848
▁굶 -17849
달라 -17850
머가 -17851
위치 -17852
정류 -17853
▁간혹 -17854
▁길다 -17855
▁섭정 -17856
▁왕과 -17857
르타뉴 -17858
▁관료로 -17859
▁극도로 -17860
▁대사를 -17861
▁밀도가 -17862
▁부정적 -17863
▁역할로 -17864
▁참여를 -17865
▁패밀리 -17866
▁가와사키 -17867
▁지나가는 -17868
행과 -17869
▁고장 -17870
▁과연 -17871
▁남하 -17872
▁배운 -17873
▁음운 -17874
▁취한 -17875
▁후예 -17876
▁1,0 -17877
▁대전차 -17878
▁상소를 -17879
▁숫자는 -17880
▁진출할 -17881
▁하늘을 -17882
▁1876 -17883
▁에른스트 -17884
그가 -17885
기일 -17886
대군 -17887
호마 -17888
▁넓고 -17889
▁능동 -17890
▁디에 -17891
▁쏘아 -17892
▁임원 -17893
▁정제 -17894
▁측이 -17895
▁후진 -17896
로스는 -17897
▁두개의 -17898
▁의회가 -17899
▁활약으로 -17900
문트 -17901
비르 -17902
심사 -17903
▁급증 -17904
▁당황 -17905
▁미성 -17906
▁병자 -17907
▁자진 -17908
▁방송이 -17909
▁생산이 -17910
▁이해를 -17911
▁장치가 -17912
▁튀르크 -17913
▁장남으로 -17914
▁대한민국에는 -17915
▁So -17916
▁테라 -17917
▁홍성 -17918
두었다 -17919
▁240 -17920
▁나무를 -17921
▁아카이 -17922
▁주계열 -17923
▁초콜릿 -17924
▁지점에서 -17925
시경 -17926
▁국보 -17927
▁딸과 -17928
▁만드 -17929
▁화랑 -17930
▁가깝게 -17931
▁전기를 -17932
▁정의에 -17933
▁추가된 -17934
▁줄어들었다 -17935
문인 -17936
절은 -17937
제일 -17938
▁농부 -17939
▁늦은 -17940
▁리차 -17941
▁뱅크 -17942
▁생생 -17943
▁증진 -17944
▁카바 -17945
▁커서 -17946
▁그룹에 -17947
▁마카오 -17948
▁차세대 -17949
▁국가들은 -17950
▁프랑스군은 -17951
▁친일반민족행위진상규명 -17952
▁틴 -17953
방식 -17954
▁강행 -17955
▁당내 -17956
▁배에 -17957
▁바다를 -17958
▁서부의 -17959
▁시대는 -17960
▁시위가 -17961
▁연주자 -17962
▁종이다 -17963
▁측면을 -17964
▁반대하였다 -17965
▁예정이었다 -17966
▁마다가스카르 -17967
달마 -17968
료의 -17969
택은 -17970
▁모금 -17971
▁미에 -17972
▁번갈 -17973
▁색이 -17974
▁인형 -17975
▁타락 -17976
쳤으나 -17977
▁데이빗 -17978
▁브래드 -17979
ition -17980
▁1886 -17981
▁기록이다 -17982
구스 -17983
땃쥐 -17984
신앙 -17985
폐합 -17986
표준 -17987
▁물과 -17988
▁온라 -17989
▁정려 -17990
▁정적 -17991
▁도로는 -17992
▁가르치는 -17993
▁모습이다 -17994
▁분류한다 -17995
▁지나간다 -17996
▁제작하였다 -17997
▁` -17998
예수 -17999
직이 -18000
층과 -18001
히드 -18002
EST -18003
▁거점 -18004
▁법은 -18005
▁불필 -18006
▁사신 -18007
▁0.0 -18008
▁동부에 -18009
▁이름에 -18010
▁제안한 -18011
거리에서 -18012
▁익스플로 -18013
립트 -18014
좌의 -18015
처가 -18016
▁나간 -18017
▁노보 -18018
▁머신 -18019
▁소행 -18020
▁시직 -18021
▁양평 -18022
▁온난 -18023
▁청색 -18024
▁캄파 -18025
▁TBS -18026
▁행동은 -18027
▁1866 -18028
▁생각하자 -18029
▁경제적으로 -18030
▁프란치스코 -18031
▁다저 -18032
▁손잡 -18033
▁수교 -18034
라에몽 -18035
차전은 -18036
▁성남시 -18037
▁안전을 -18038
▁라이브러 -18039
▁아나운서 -18040
▁에너지의 -18041
오자 -18042
ons -18043
▁나뭇 -18044
▁신종 -18045
▁조현 -18046
▁나누는 -18047
▁아이콘 -18048
▁일주일 -18049
▁종교는 -18050
▁1861 -18051
▁가능성도 -18052
▁국가대표팀에서 -18053
슨을 -18054
제인 -18055
코토 -18056
▁공예 -18057
▁중등 -18058
▁천사 -18059
▁카툰 -18060
▁콜레 -18061
▁되므로 -18062
▁손상을 -18063
▁앵글로 -18064
▁채널을 -18065
▁무시하고 -18066
▁브르타뉴 -18067
▁씻 -18068
마라 -18069
▁리튬 -18070
▁보며 -18071
▁성폭 -18072
▁신진 -18073
▁피치 -18074
▁것이기 -18075
▁번째는 -18076
▁Tour -18077
▁니콜라스 -18078
▁율리우스 -18079
▁이용하고 -18080
▁포유류의 -18081
렌은 -18082
▁위생 -18083
▁이별 -18084
▁익산 -18085
▁길이를 -18086
▁머리카 -18087
▁성매매 -18088
▁우간다 -18089
▁줄이기 -18090
▁책임이 -18091
▁취임한 -18092
▁포유류 -18093
잉글랜드 -18094
▁대비하여 -18095
▁적용되는 -18096
▁중소기업 -18097
▁Inter -18098
▁싱어송라이터이다 -18099
., -18100
분간 -18101
일인 -18102
▁결핍 -18103
▁몰두 -18104
▁비어 -18105
▁중위 -18106
로니아 -18107
▁결합을 -18108
▁타인의 -18109
▁국회에서 -18110
▁도카이도 -18111
루이 -18112
정사 -18113
▁화해 -18114
라이드 -18115
▁Col -18116
▁같다고 -18117
▁기억을 -18118
▁예정인 -18119
▁원소는 -18120
▁자격이 -18121
대학으로 -18122
▁전해지고 -18123
▁애니메이션이다 -18124
리드 -18125
투르 -18126
항이 -18127
▁갈래 -18128
▁뉴턴 -18129
▁서인 -18130
▁순차 -18131
▁예멘 -18132
테스는 -18133
▁떠난다 -18134
▁뛰어넘 -18135
▁시기가 -18136
▁외부의 -18137
▁향상을 -18138
▁함경북도 -18139
▁개편되었다 -18140
ps -18141
대수 -18142
매를 -18143
제철 -18144
헤드 -18145
▁급히 -18146
▁대접 -18147
▁말고 -18148
▁우두 -18149
났으나 -18150
학으로 -18151
▁0.5 -18152
▁가지지 -18153
▁걸리는 -18154
▁두각을 -18155
▁리베르 -18156
▁밴드가 -18157
▁주제에 -18158
▁사용하던 -18159
▁아이치현 -18160
▁전라남도의 -18161
데자 -18162
▁고마 -18163
▁구호 -18164
▁수중 -18165
▁시속 -18166
▁조영 -18167
▁쪽이 -18168
▁청도 -18169
▁호랑 -18170
stem -18171
▁기여한 -18172
▁이같은 -18173
▁제한이 -18174
▁서비스는 -18175
▁존재했다 -18176
▁지명되었다 -18177
▁판매되었다 -18178
목과 -18179
▁갖춰 -18180
▁아흐 -18181
▁양대 -18182
▁여주 -18183
▁옥천 -18184
▁인적 -18185
▁작가로 -18186
▁탁월한 -18187
▁하겠다 -18188
▁분류하고 -18189
▁콘스탄티 -18190
▁룬 -18191
궤도 -18192
▁대덕 -18193
▁쉽다 -18194
▁자코 -18195
▁조에 -18196
▁소유의 -18197
▁소재한 -18198
▁조약으로 -18199
▁충청남도의 -18200
▁늪 -18201
▁룽 -18202
확인 -18203
▁감자 -18204
▁절벽 -18205
▁주세 -18206
▁한가 -18207
세이다 -18208
lack -18209
▁거쳤다 -18210
▁것인가 -18211
▁공세를 -18212
▁수원시 -18213
▁이사를 -18214
하리 -18215
▁ML -18216
▁번도 -18217
▁입는 -18218
▁퇴장 -18219
▁파벌 -18220
대회에 -18221
▁1.2 -18222
▁사후에 -18223
▁예술의 -18224
▁인물은 -18225
스케이팅 -18226
▁민족문제연구소의 -18227
약의 -18228
▁상소 -18229
▁신을 -18230
▁조회 -18231
▁즐거 -18232
베스트 -18233
▁교류를 -18234
▁남동쪽 -18235
▁방사선 -18236
▁연맹의 -18237
▁하노버 -18238
▁죽음으로 -18239
▁표기한다 -18240
맨스 -18241
탄이 -18242
▁단말 -18243
▁발동 -18244
▁선봉 -18245
▁아쉬 -18246
▁연안에 -18247
▁원칙에 -18248
▁있듯이 -18249
▁종류로 -18250
▁가르시아 -18251
▁덧붙였다 -18252
▁인도에서 -18253
▁아이디어를 -18254
질과 -18255
▁이항 -18256
▁하와 -18257
▁형용 -18258
기면서 -18259
세에서 -18260
▁가문을 -18261
▁단체는 -18262
▁새뮤얼 -18263
▁점성술 -18264
▁지원이 -18265
▁태생의 -18266
▁1850 -18267
▁국가대표팀은 -18268
수염 -18269
▁극한 -18270
▁다쓰 -18271
▁보자 -18272
▁부등 -18273
▁상이 -18274
▁샤이 -18275
▁셰이 -18276
▁단체가 -18277
▁비정상 -18278
▁출전을 -18279
▁학명은 -18280
▁구성하고 -18281
▁받아들이지 -18282
거스 -18283
포타 -18284
▁나지 -18285
▁날은 -18286
▁남인 -18287
▁마키 -18288
▁에두 -18289
▁정주 -18290
나가의 -18291
코리아 -18292
▁거뒀다 -18293
▁아들은 -18294
▁에이전 -18295
▁요르단 -18296
▁위치로 -18297
▁자료로 -18298
▁집합을 -18299
▁살펴보면 -18300
BI -18301
월이 -18302
▁정경 -18303
시간은 -18304
▁노선에 -18305
▁등지에 -18306
▁사람에 -18307
▁올리브 -18308
▁천황은 -18309
▁하이퍼 -18310
▁엑스박스 -18311
▁올스타전 -18312
▁파괴되었다 -18313
▁거칠 -18314
▁캐논 -18315
▁헌병 -18316
웠으며 -18317
▁108 -18318
▁엔진의 -18319
▁적외선 -18320
▁행복한 -18321
▁공화국은 -18322
▁브리티시 -18323
▁한국독립 -18324
께끼 -18325
늦게 -18326
▁개미 -18327
▁거룩 -18328
▁도사 -18329
▁부러 -18330
▁섞여 -18331
▁수산 -18332
▁읽을 -18333
▁청량 -18334
마리의 -18335
지역을 -18336
▁상파울 -18337
▁오스틴 -18338
▁지분을 -18339
민주연합 -18340
▁취득하였다 -18341
gr -18342
▁몹 -18343
라르 -18344
시기 -18345
▁군벌 -18346
▁다우 -18347
▁독서 -18348
▁동전 -18349
▁사와 -18350
▁세분 -18351
▁자민 -18352
▁칭기 -18353
▁한겨 -18354
살이풀 -18355
▁믿는다 -18356
▁성에서 -18357
▁운동과 -18358
법원에서 -18359
▁이베리아 -18360
▁이산화탄 -18361
▁하이브리 -18362
마켓 -18363
면적 -18364
칭을 -18365
▁띄는 -18366
▁민감 -18367
▁시오 -18368
▁팔작 -18369
▁포격 -18370
▁한달 -18371
▁허블 -18372
▁남편이 -18373
▁레인저 -18374
▁본인은 -18375
▁1887 -18376
▁거치면서 -18377
▁도미니카 -18378
gh -18379
아에 -18380
음반 -18381
지어 -18382
카쿠 -18383
ION -18384
▁Ro -18385
▁고트 -18386
▁남산 -18387
▁도리 -18388
▁미식 -18389
▁종신 -18390
▁방어를 -18391
▁버스를 -18392
▁성적은 -18393
▁오클라 -18394
▁위스콘 -18395
▁투쟁을 -18396
▁항공사 -18397
▁핵무기 -18398
▁1864 -18399
▁운행되고 -18400
▁윌리엄스 -18401
▁타이거즈 -18402
▁DD -18403
▁Ge -18404
▁pr -18405
▁불균 -18406
▁빅뱅 -18407
▁시크 -18408
▁쌍대 -18409
▁후작 -18410
미트리 -18411
▁신학적 -18412
▁적당한 -18413
▁조화를 -18414
▁초부터 -18415
지역으로 -18416
▁보호하고 -18417
여자대학교 -18418
▁취소되었다 -18419
RI -18420
▁꽂 -18421
기동 -18422
발생 -18423
살을 -18424
움의 -18425
전용 -18426
주사 -18427
▁귀속 -18428
▁남작 -18429
▁민정 -18430
▁성운 -18431
▁좌의 -18432
▁캐리 -18433
ject -18434
▁1,2 -18435
▁교황은 -18436
▁로베르 -18437
되었음을 -18438
▁주변에서 -18439
▁감상 -18440
▁예일 -18441
자리가 -18442
▁로맨틱 -18443
▁부모는 -18444
▁세월호 -18445
▁아내가 -18446
▁않았을 -18447
▁이동할 -18448
▁이제는 -18449
뮬러 -18450
배로 -18451
있지 -18452
처분 -18453
태가 -18454
학술 -18455
▁객체 -18456
▁당뇨 -18457
▁도이 -18458
▁물체 -18459
▁박상 -18460
▁지부 -18461
▁가능성 -18462
▁마스코 -18463
▁부부는 -18464
▁저지대 -18465
▁스트리밍 -18466
▁정보통신 -18467
▁증권거래 -18468
기하 -18469
백의 -18470
인산 -18471
척이 -18472
플리 -18473
_19 -18474
▁내며 -18475
▁복선 -18476
▁부파 -18477
▁이며 -18478
▁조계 -18479
디아의 -18480
시간에 -18481
▁남자의 -18482
▁노동당 -18483
▁미카엘 -18484
▁설계를 -18485
▁포로가 -18486
▁확인된 -18487
▁국민들의 -18488
▁기념하는 -18489
▁종목이다 -18490
아노 -18491
지부 -18492
▁공자 -18493
▁뚫고 -18494
▁알맞 -18495
▁애완 -18496
▁열려 -18497
▁이창 -18498
▁사업은 -18499
▁솔루션 -18500
▁자유와 -18501
▁정도는 -18502
▁제공할 -18503
▁대다수의 -18504
▁임명했다 -18505
▁한국프로 -18506
움과 -18507
▁시우 -18508
▁주먹 -18509
▁발전과 -18510
▁볼로냐 -18511
▁여자가 -18512
▁인해서 -18513
▁조약은 -18514
▁제시하였다 -18515
▁후쿠오카현 -18516
ike -18517
▁대도 -18518
▁만날 -18519
▁말도 -18520
▁식사 -18521
▁이봉 -18522
스터의 -18523
▁60% -18524
▁버린다 -18525
▁산맥의 -18526
▁수페르 -18527
▁이뤄진 -18528
▁이주한 -18529
▁직후에 -18530
▁보고서를 -18531
▁중앙정보 -18532
▁크리에이 -18533
▁현재까지도 -18534
2. -18535
바와 -18536
언스 -18537
오던 -18538
탑을 -18539
택이 -18540
▁분수 -18541
▁신천 -18542
▁채굴 -18543
▁코리 -18544
단에는 -18545
지느러 -18546
▁"20 -18547
▁건강한 -18548
▁동서로 -18549
▁마운트 -18550
▁없으면 -18551
▁전자는 -18552
▁카카오 -18553
▁Rock -18554
▁남베트남 -18555
▁스트레스 -18556
▁인정받았다 -18557
▁쿄 -18558
명도 -18559
서기 -18560
유전 -18561
▁끼고 -18562
▁명종 -18563
▁우월 -18564
▁자립 -18565
▁참수 -18566
▁네티즌 -18567
▁배치된 -18568
▁빠져나 -18569
▁설계된 -18570
▁아무리 -18571
데자네이 -18572
▁증가하였다 -18573
▁끄 -18574
▁마요 -18575
▁최장 -18576
▁3-0 -18577
▁공헌을 -18578
▁비스타 -18579
▁인물의 -18580
▁교회에서 -18581
▁컨테이너 -18582
▁시작되었으며 -18583
|| -18584
▁Do -18585
▁거세 -18586
▁우지 -18587
▁톈진 -18588
데스는 -18589
제도의 -18590
카에서 -18591
▁128 -18592
▁페미니 -18593
체육대회 -18594
▁1881 -18595
▁레스토랑 -18596
▁못하도록 -18597
▁없었다고 -18598
▁진출하여 -18599
▁쿠빌라이 -18600
▁테스트를 -18601
▁인플레이션 -18602
▁일반적이다 -18603
광의 -18604
조작 -18605
ics -18606
▁감찰 -18607
▁울릉 -18608
▁유역 -18609
▁임의 -18610
▁파주 -18611
레스트 -18612
▁Wii -18613
▁기대를 -18614
▁기초한 -18615
▁기호는 -18616
▁다시금 -18617
▁자국의 -18618
▁조사한 -18619
▁이어지고 -18620
기통 -18621
▁가토 -18622
▁날로 -18623
▁도루 -18624
▁마술 -18625
▁어리 -18626
▁위함 -18627
▁글자를 -18628
▁법원은 -18629
▁영원한 -18630
▁중요시 -18631
▁1872 -18632
▁연루되어 -18633
▁무산되었다 -18634
FI -18635
QL -18636
공관 -18637
장사 -18638
헌법 -18639
▁성도 -18640
▁월트 -18641
▁제재 -18642
▁풍경 -18643
▁그러다 -18644
▁왕조를 -18645
▁1830 -18646
▁달라진다 -18647
▁피츠버그 -18648
▁공헌하였다 -18649
남은 -18650
노미 -18651
외교 -18652
▁광물 -18653
▁네모 -18654
▁막대 -18655
▁신상 -18656
▁이브 -18657
▁일간 -18658
▁하타 -18659
▁공격할 -18660
▁서부에 -18661
▁연맹은 -18662
▁이사벨 -18663
▁존재는 -18664
▁지나면 -18665
▁국민투표 -18666
▁유명하며 -18667
▁주변에는 -18668
▁주전으로 -18669
▁립 -18670
년엔 -18671
륜구 -18672
합의 -18673
▁긴키 -18674
▁발기 -18675
▁번창 -18676
▁성북 -18677
▁자와 -18678
▁중원 -18679
▁편안 -18680
▁혼혈 -18681
▁대체할 -18682
▁데이브 -18683
▁아이의 -18684
▁정의된 -18685
▁화제를 -18686
▁고향으로 -18687
▁러시아에서 -18688
▁사이에서는 -18689
▁완성되었다 -18690
남에 -18691
초와 -18692
티와 -18693
▁과잉 -18694
▁예가 -18695
▁정재 -18696
▁주주 -18697
▁추존 -18698
▁카네 -18699
▁틈을 -18700
▁차트에 -18701
▁클린턴 -18702
▁팀이다 -18703
▁Comp -18704
▁이야기의 -18705
개소 -18706
배치 -18707
▁맥아 -18708
▁목재 -18709
▁무솔 -18710
▁베풀 -18711
▁습득 -18712
▁요절 -18713
년마다 -18714
정부를 -18715
▁군대와 -18716
▁유클리드 -18717
▁합류하여 -18718
▁거절하였다 -18719
▁영국에서는 -18720
▁쾨 -18721
▁미칠 -18722
▁산청 -18723
▁살짝 -18724
▁앞세 -18725
▁절망 -18726
▁직사 -18727
▁칼슘 -18728
▁무엇을 -18729
▁정당의 -18730
고등보통학교 -18731
바를 -18732
원칙 -18733
ier -18734
▁SV -18735
▁내포 -18736
단체의 -18737
▁끝나는 -18738
▁대의원 -18739
▁범유행 -18740
▁본부는 -18741
녀로 -18742
아지 -18743
▁아레 -18744
▁평탄 -18745
▁한림 -18746
왔으나 -18747
▁iOS -18748
▁경전철 -18749
▁떠나는 -18750
▁우루과 -18751
▁인터뷰를 -18752
데일 -18753
▁고생 -18754
▁상점 -18755
▁석불 -18756
▁신은 -18757
▁일식 -18758
▁친족 -18759
상태가 -18760
▁내린다 -18761
▁논의가 -18762
~7 -18763
선인 -18764
언은 -18765
▁묻혀 -18766
▁삼림 -18767
▁실각 -18768
프에서 -18769
▁각지에 -18770
▁게스트 -18771
▁마르셀 -18772
▁스칼라 -18773
▁시민의 -18774
▁영토로 -18775
▁날카로운 -18776
▁컴파일러 -18777
례가 -18778
빌리 -18779
후이 -18780
▁he -18781
▁문무 -18782
▁쉽지 -18783
▁안고 -18784
민들이 -18785
사에게 -18786
형문화재 -18787
▁시설관리자는 -18788
▁웨스트민스터 -18789
군도 -18790
▁단장 -18791
▁뒤의 -18792
▁모스 -18793
▁비는 -18794
▁상고 -18795
▁코린 -18796
▁포츠 -18797
바라키 -18798
보이는 -18799
부리그 -18800
▁기사가 -18801
▁즐기는 -18802
▁탤런트 -18803
▁혜택을 -18804
▁홈경기 -18805
여래좌상 -18806
[...]
