[UNK]	0
[CLS]	1
[SEP]	2
[PAD]	3
[MASK]	4
!	5
"	6
#	7
$	8
%	9
&	10
'	11
(	12
)	13
*	14
+	15
,	16
-	17
.	18
/	19
0	20
1	21
2	22
3	23
4	24
5	25
6	26
7	27
8	28
9	29
:	30
;	31
<	32
=	33
>	34
?	35
@	36
A	37
B	38
C	39
D	40
E	41
F	42
G	43
H	44
I	45
J	46
K	47
L	48
M	49
N	50
O	51
P	52
Q	53
R	54
S	55
T	56
U	57
V	58
W	59
X	60
Y	61
Z	62
[	63
\	64
]	65
^	66
_	67
`	68
a	69
b	70
c	71
d	72
e	73
f	74
g	75
h	76
i	77
j	78
k	79
l	80
m	81
n	82
o	83
p	84
q	85
r	86
s	87
t	88
u	89
v	90
w	91
x	92
y	93
z	94
{	95
|	96
}	97
~	98
	99
ᄀ	100
ᄁ	101
ᄂ	102
ᄃ	103
ᄄ	104
ᄅ	105
ᄆ	106
ᄇ	107
ᄈ	108
ᄉ	109
ᄊ	110
ᄋ	111
ᄌ	112
ᄍ	113
ᄎ	114
ᄏ	115
ᄐ	116
ᄑ	117
ᄒ	118
ᅡ	119
ᅢ	120
ᅣ	121
ᅤ	122
ᅥ	123
ᅦ	124
ᅧ	125
ᅨ	126
ᅩ	127
ᅪ	128
ᅫ	129
ᅬ	130
ᅭ	131
ᅮ	132
ᅯ	133
ᅰ	134
ᅱ	135
ᅲ	136
ᅳ	137
ᅴ	138
ᅵ	139
ᆨ	140
ᆩ	141
ᆪ	142
ᆫ	143
ᆬ	144
ᆭ	145
ᆮ	146
ᆯ	147
ᆰ	148
ᆱ	149
ᆲ	150
ᆳ	151
ᆴ	152
ᆵ	153
ᆶ	154
ᆷ	155
ᆸ	156
ᆹ	157
ᆺ	158
ᆻ	159
ᆼ	160
ᆽ	161
ᆾ	162
ᆿ	163
ᇀ	164
ᇁ	165
ᇂ	166
ㄱ	167
ㄲ	168
ㄳ	169
ㄴ	170
ㄵ	171
ㄶ	172
ㄷ	173
ㄸ	174
ㄹ	175
ㄺ	176
ㄻ	177
ㄼ	178
ㄽ	179
ㄾ	180
ㄿ	181
ㅀ	182
ㅁ	183
ㅂ	184
ㅃ	185
ㅄ	186
ㅅ	187
ㅆ	188
ㅇ	189
ㅈ	190
ㅉ	191
ㅊ	192
ㅋ	193
ㅌ	194
ㅍ	195
ㅎ	196
ㅏ	197
ㅐ	198
ㅑ	199
ㅒ	200
ㅓ	201
ㅔ	202
ㅕ	203
ㅖ	204
ㅗ	205
ㅘ	206
ㅙ	207
ㅚ	208
ㅛ	209
ㅜ	210
ㅝ	211
ㅞ	212
ㅟ	213
ㅠ	214
ㅡ	215
ㅢ	216
ㅣ	217
##A	218
##T	219
##S	220
##F	221
##C	222
##r	223
##e	224
##s	225
##k	226
##y	227
##ᅩ	228
##ᄋ	229
##ᅯ	230
##ᆫ	231
##ᄉ	232
##ᅡ	233
##ᆨ	234
##ᄒ	235
##t	236
##o	237
##p	238
##i	239
##a	240
##g	241
##l	242
##u	243
##W	244
##V	245
##ᅥ	246
##ᆸ	247
##ᄃ	248
##ᆼ	249
##I	250
##N	251
##R	252
##ᅧ	253
##ᆯ	254
##ᅵ	255
##ᄏ	256
##ᅮ	257
##ᄅ	258
##ᅦ	259
##ᅳ	260
##E	261
##B	262
##H	263
##U	264
##ᄇ	265
##ᆶ	266
##m	267
##d	268
##ᄁ	269
##ㅈ	270
##ᄂ	271
##ᄆ	272
##ᄀ	273
##D	274
##ᅣ	275
##0	276
##8	277
##9	278
##3	279
##6	280
##5	281
##7	282
##ᆷ	283
##ᄐ	284
##n	285
##h	286
##1	287
##b	288
##Y	289
##L	290
##c	291
##ᅴ	292
##ᇂ	293
##w	294
##f	295
##v	296
##ᅬ	297
##ᅪ	298
##ᅭ	299
##2	300
##ᆪ	301
##ᅢ	302
##ᆺ	303
##ᄌ	304
##q	305
##P	306
##ᄑ	307
##%	308
##~	309
##ᆾ	310
##Q	311
##ᅲ	312
##4	313
##ᄎ	314
##ᅱ	315
##X	316
##J	317
##z	318
##M	319
##O	320
##"	321
##|	322
##ᇀ	323
##x	324
##ㅒ	325
##ㅀ	326
##G	327
##ㅢ	328
##ㄱ	329
##ᅨ	330
##j	331
##K	332
##.	333
##?	334
##ᄈ	335
##ᆽ	336
##,	337
##ㅉ	338
##ᄄ	339
##ㅔ	340
##ㄻ	341
##ᆮ	342
##;	343
##ㅠ	344
##ㄾ	345
##ᆴ	346
##Z	347
##ㅌ	348
##ㅂ	349
##ᆭ	350
##!	351
##ᆰ	352
##ᆲ	353
##ᆻ	354
##ㅖ	355
##ㄳ	356
##ᅤ	357
##ᄍ	358
##ᅰ	359
##ᆹ	360
##<	361
##-	362
##{	363
##ᅫ	364
##ㅁ	365
##&	366
##ᄊ	367
##ㅚ	368
##ㄴ	369
##=	370
##ㅇ	371
##ᇁ	372
##_	373
##ᆬ	374
##ㅣ	375
##ㅋ	376
##ㅅ	377
##ᆿ	378
##ᆵ	379
##ㄽ	380
##ㅟ	381
##ㄹ	382
##`	383
##>	384
##ㅏ	385
##ㄵ	386
##^	387
##'	388
##/	389
##ㅡ	390
##ㅞ	391
##ᆩ	392
##ㅓ	393
##ㄶ	394
##ᆱ	395
##ㅍ	396
##\	397
##ㅎ	398
##ㅝ	399
##ㄲ	400
##(	401
##+	402
##@	403
##:	404
##ㅜ	405
##ㅐ	406
##ㅕ	407
##*	408
##ㅙ	409
##ㄺ	410
##ㅗ	411
##ㄷ	412
##ㅘ	413
##ᆳ	414
##[	415
##}	416
###	417
##ㅄ	418
##ㅛ	419
##ㅊ	420
##$	421
##ㄼ	422
##)	423
##ㄸ	424
##]	425
##ㅑ	426
##ㅆ	427
##ㄿ	428
##ㅃ	429
##	430
이	431
##ᅳᆫ	432
##ᅳᆯ	433
하	434
다	435
아	436
에	437
는	438
어	439
가	440
의	441
##ᅡᆫ	442
##이	443
##ᅡᆼ	444
##ᅥᆫ	445
을	446
##ᅧᆫ	447
##서	448
##ᅳᄅ	449
고	450
지	451
##ᅧᆼ	452
##리	453
##지	454
도	455
##ᅮᆫ	456
##다	457
를	458
은	459
시	460
##시	461
##ᅥᆼ	462
기	463
##스	464
##하	465
##ᅩᆼ	466
##ᅡᆯ	467
되	468
##ᅳ로	469
로	470
##ᅩᆨ	471
있	472
##ᅮᆯ	473
거	474
었	475
주	476
##ᅧᆨ	477
사	478
에서	479
##ᅡᆨ	480
으로	481
ᆫ다	482
보	483
##기	484
##나	485
##ᅳᆼ	486
았	487
나	488
##ᅥᆨ	489
##어	490
과	491
대	492
들	493
자	494
##가	495
마	496
수	497
##고	498
##ᅢᆼ	499
##ᅩᆫ	500
라	501
##ᅮᆨ	502
게	503
그	504
것	505
##도	506
##ᅥᆷ	507
일	508
##르	509
여	510
와	511
##라	512
모	513
##ᅯᆫ	514
##니	515
전	516
##드	517
##우	518
##ᅥᆯ	519
##사	520
##로	521
오	522
적	523
부	524
##장	525
##치	526
##요	527
바	528
면	529
##자	530
##대	531
##만	532
년	533
##트	534
##ᅦ이	535
만	536
스	537
##ᅳᆷ	538
미	539
정	540
화	541
조	542
##미	543
##화	544
##ᅧᆯ	545
상	546
유	547
##수	548
20	549
##인	550
##정	551
##아	552
##오	553
##ᅣᆼ	554
그ᄅ	555
공	556
비	557
##터	558
##는	559
##주	560
때	561
##상	562
##전	563
##ᅢᆨ	564
##히	565
위	566
##ᆫᄀ	567
중	568
경	569
##데	570
제	571
으	572
##게	573
##용	574
차	575
##력	576
##제	577
##키	578
##ᅥᆸ	579
##부	580
##ᅯᆯ	581
소	582
무	583
노	584
##성	585
##ᆯ리	586
없	587
##신	588
##ᅳᆨ	589
인	590
등	591
##문	592
성	593
세	594
##야	595
지만	596
##면	597
며	598
않	599
##마	600
##원	601
월	602
##과	603
에게	604
##동	605
##구	606
개	607
던	608
서	609
구	610
한	611
##격	612
타	613
##국	614
##타	615
리	616
내	617
201	618
동	619
피	620
장	621
##ᅵᆷ	622
방	623
선	624
##거	625
연	626
##비	627
후	628
##유	629
영	630
##ᅡ지	631
우	632
카	633
말	634
##러	635
요	636
발	637
##체	638
당	639
생	640
버	641
##소	642
안	643
야	644
##작	645
##간	646
더	647
치	648
는데	649
##무	650
##명	651
##래	652
##며	653
신	654
추	655
원	656
파	657
처	658
포	659
##일	660
##ᅳ리	661
회	662
##그	663
때문	664
명	665
##재	666
19	667
까지	668
강	669
아서	670
##보	671
해	672
##식	673
##들	674
##위	675
데	676
##티	677
##의	678
최	679
##00	680
문	681
##당	682
##후	683
매	684
아니	685
같	686
배	687
##카	688
##크	689
실	690
##음	691
번	692
##선	693
라고	694
받	695
##물	696
불	697
라는	698
##행	699
호	700
코	701
##교	702
##실	703
##즈	704
##능	705
레	706
결	707
##내	708
##학	709
##단	710
##역	711
##회	712
반	713
초	714
진	715
패	716
많	717
특	718
##디	719
나오	720
##한	721
##피	722
다고	723
역	724
작	725
##람	726
##모	727
##속	728
##토	729
##ᅦᆯ	730
으며	731
##임	732
계	733
##버	734
면서	735
드	736
##ᅦᆫ	737
단	738
##차	739
##려	740
##반	741
보이	742
##공	743
##점	744
분	745
##프	746
남	747
##루	748
##분	749
##계	750
##조	751
##산	752
국	753
그러	754
두	755
##생	756
경우	757
10	758
어서	759
##각	760
##록	761
니	762
##두	763
사용	764
현	765
출	766
##본	767
크	768
쓰	769
다는	770
물	771
공격	772
관	773
##연	774
##중	775
저	776
이후	777
그리	778
##진	779
##호	780
캐	781
예	782
##류	783
##태	784
자신	785
교	786
##안	787
알	788
못	789
감	790
학	791
통	792
점	793
재	794
##저	795
또	796
였	797
애	798
##관	799
편	800
##세	801
따	802
##른	803
##군	804
좋	805
##영	806
##ᅳᆯᄅ	807
사람	808
##코	809
##노	810
디	811
키	812
##해	813
입	814
##름	815
위하	816
##바	817
##금	818
정도	819
대하	820
##방	821
##법	822
##ᅮᆷ	823
##발	824
메	825
##적	826
##종	827
속	828
너	829
군	830
부터	831
형	832
함	833
설	834
##업	835
##습	836
##통	837
김	838
##포	839
참	840
가능	841
##승	842
외	843
##양	844
평	845
##ᅳ라	846
토	847
시키	848
##ᆫ국	849
##술	850
##매	851
다른	852
음	853
종	854
##브	855
##준	856
보다	857
##료	858
##파	859
##테	860
권	861
이나	862
승	863
12	864
##직	865
##와	866
##녀	867
##건	868
으나	869
죽	870
가지	871
##심	872
팀	873
##레	874
200	875
뒤	876
등장	877
##스트	878
직	879
살	880
##션	881
##투	882
는다	883
##입	884
본	885
아이	886
##론	887
11	888
히	889
루	890
##민	891
##표	892
용	893
그리고	894
판	895
버리	896
##경	897
##어지	898
확	899
하나	900
체	901
게임	902
시ᄌ	903
네	904
행	905
경기	906
변	907
운	908
심	909
돌	910
##운	911
..	912
잘	913
맞	914
##급	915
다가	916
만들	917
##판	918
##여	919
못하	920
박	921
끄	922
##약	923
채	924
##족	925
건	926
##er	927
##개	928
##석	929
사실	930
달	931
활	932
투	933
집	934
시간	935
##황	936
##령	937
##형	938
##량	939
##너	940
##설	941
##든	942
목	943
듯	944
양	945
##련	946
약	947
필	948
##출	949
각	950
날	951
##합	952
높	953
사이	954
##께	955
##향	956
테	957
##청	958
시작	959
표	960
##에	961
##추	962
##품	963
##현	964
일본	965
새	966
##복	967
##더	968
이상	969
##망	970
모습	971
이름	972
왕	973
##니다	974
##런	975
##것	976
태	977
간	978
##ᅳᆯ리	979
##츠	980
함께	981
존	982
순	983
##언	984
려	985
##외	986
##까	987
##지만	988
따르	989
##ᅳᆯ레이	990
베	991
상대	992
프로	993
##ᆨ터	994
독	995
증	996
한국	997
##어나	998
문제	999
15	1000
다시	1001
##울	1002
거나	1003
##머	1004
병	1005
천	1006
##네	1007
##란	1008
총	1009
손	1010
잡	1011
##환	1012
##in	1013
으면	1014
효	1015
하지만	1016
터	1017
##ᆯ라	1018
능	1019
##스터	1020
티	1021
생각	1022
별	1023
힘	1024
##독	1025
캐리	1026
##럼	1027
끝	1028
겠	1029
아야	1030
##송	1031
막	1032
또한	1033
##병	1034
항	1035
##ᅳ래	1036
##목	1037
인ᄀ	1038
폭	1039
##천	1040
스키	1041
가장	1042
복	1043
들어	1044
근	1045
광	1046
##배	1047
##험	1048
식	1049
당시	1050
##대로	1051
시즌	1052
플레이	1053
누	1054
삼	1055
완	1056
ᆫ데	1057
먹	1058
##막	1059
처럼	1060
싸	1061
캐릭터	1062
당하	1063
및	1064
18	1065
씨	1066
검	1067
##on	1068
능력	1069
산	1070
##랑	1071
스ᄐ	1072
ᆫ지	1073
##년	1074
##락	1075
모두	1076
아도	1077
상황	1078
백	1079
충	1080
쿠	1081
##색	1082
상태	1083
열	1084
길	1085
그렇	1086
임	1087
레이	1088
##쪽	1089
머	1090
##ᆫ계	1091
##ᅧᆸ	1092
##말	1093
모든	1094
##감	1095
##퍼	1096
추가	1097
금	1098
결국	1099
##립	1100
라이	1101
슈	1102
앞	1103
러	1104
세계	1105
##악	1106
커	1107
선수	1108
##an	1109
##초	1110
##담	1111
16	1112
##벨	1113
##or	1114
##ᆫ드	1115
스킬	1116
카드	1117
곡	1118
느	1119
##미지	1120
##살	1121
##탄	1122
업	1123
##결	1124
얼	1125
현재	1126
##등	1127
##ᅳᆸ	1128
##케	1129
합	1130
##쿠	1131
넘	1132
악	1133
##편	1134
다만	1135
많이	1136
##쟁	1137
ᆫ다는	1138
통하	1139
##메	1140
전투	1141
쉬	1142
효과	1143
##남	1144
다음	1145
30	1146
##근	1147
민	1148
급	1149
그러나	1150
눈	1151
존재	1152
##함	1153
지역	1154
##질	1155
13	1156
미국	1157
취	1158
시리	1159
여기	1160
언	1161
첫	1162
허	1163
##항	1164
청	1165
##접	1166
##냥	1167
14	1168
페	1169
199	1170
매우	1171
트	1172
##예	1173
법	1174
황	1175
##ar	1176
창	1177
##택	1178
이ᄇ	1179
습	1180
이러	1181
달리	1182
##ᅥᆯ어지	1183
북	1184
절	1185
17	1186
##절	1187
극	1188
##존	1189
대학	1190
##견	1191
얻	1192
그런	1193
엔	1194
골	1195
##처	1196
상당	1197
ᄇ니다	1198
레벨	1199
뜨	1200
##패	1201
기록	1202
##범	1203
##ᅮᆼ	1204
##he	1205
시리즈	1206
찾	1207
째	1208
스타	1209
괴	1210
##at	1211
프ᄅ	1212
이유	1213
인하	1214
철	1215
기술	1216
##움	1217
##집	1218
뿐	1219
다면	1220
물론	1221
무기	1222
바ᄁ	1223
엄	1224
##득	1225
어ᄄ	1226
그래	1227
이용	1228
##강	1229
의하	1230
여러	1231
##왕	1232
올리	1233
처음	1234
놓	1235
난	1236
자체	1237
##커	1238
부르	1239
팬	1240
방송	1241
곳	1242
100	1243
이것	1244
이런	1245
같이	1246
탈	1247
##별	1248
필요	1249
영화	1250
줄	1251
##템	1252
워	1253
실제	1254
##ᆨ스	1255
##워	1256
##널	1257
해당	1258
25	1259
들어가	1260
마법	1261
모르	1262
##은	1263
주인	1264
귀	1265
꼬	1266
##ᅳ러	1267
##열	1268
일반	1269
##탈	1270
ᆫ다고	1271
##끼	1272
어야	1273
돌아	1274
규	1275
거의	1276
역시	1277
바로	1278
리그	1279
학교	1280
혼	1281
범	1282
##거리	1283
나가	1284
잠	1285
사건	1286
##ᅳᆯ래	1287
##큼	1288
##곡	1289
##en	1290
다르	1291
이야	1292
특히	1293
관련	1294
유니	1295
기본	1296
##달	1297
##느	1298
2017	1299
붙	1300
##ᅦ인	1301
##착	1302
##박	1303
즉	1304
부분	1305
란	1306
##규	1307
위치	1308
피해	1309
류	1310
진행	1311
##ou	1312
겨	1313
래	1314
아무	1315
방어	1316
격	1317
2018	1318
밖	1319
탄	1320
##칭	1321
이야기	1322
빠	1323
##부분	1324
축	1325
대표	1326
담	1327
냐	1328
##창	1329
마지	1330
국가	1331
좀	1332
는지	1333
없이	1334
##례	1335
제작	1336
찌	1337
##찰	1338
활동	1339
인간	1340
##난	1341
팔	1342
싶	1343
동안	1344
##육	1345
밝	1346
작품	1347
알리	1348
걸	1349
웨	1350
글	1351
증가	1352
##때	1353
##변	1354
둘	1355
##페	1356
##괴	1357
풀	1358
##틀	1359
몬	1360
대부분	1361
준	1362
##롭	1363
쉽	1364
샤	1365
##al	1366
접	1367
비스	1368
마지막	1369
본인	1370
##찬	1371
몸	1372
자기	1373
##ᆯ러	1374
##ᅳ레	1375
2019	1376
지나	1377
##ᅳ레이	1378
일부	1379
##혼	1380
헤	1381
계속	1382
ᆫ가	1383
##활	1384
##글	1385
##렵	1386
##시아	1387
떨어지	1388
21	1389
암	1390
생기	1391
서울	1392
##ᇂ게	1393
블	1394
라면	1395
우리	1396
몇	1397
내용	1398
만큼	1399
##es	1400
##극	1401
##권	1402
주인공	1403
벌	1404
넣	1405
##률	1406
2016	1407
덕	1408
감독	1409
##희	1410
참고	1411
속도	1412
##ᅳ럽	1413
관계	1414
50	1415
##철	1416
##애	1417
##순	1418
어도	1419
##월	1420
맡	1421
##전히	1422
메이	1423
중국	1424
##없	1425
대신	1426
##ᆫ구	1427
##슨	1428
수준	1429
이전	1430
그냥	1431
##베	1432
##으	1433
타이	1434
##날	1435
쪽	1436
비슷	1437
어느	1438
나이	1439
으니	1440
##징	1441
##리아	1442
전쟁	1443
비하	1444
지금	1445
까	1446
##ᆫ급	1447
환	1448
강하	1449
희	1450
##턴	1451
##응	1452
만나	1453
성공	1454
22	1455
스토	1456
질	1457
울	1458
낮	1459
기준	1460
홍	1461
뛰	1462
논	1463
도시	1464
밝히	1465
인물	1466
이루	1467
짜	1468
습니다	1469
멀	1470
떠	1471
##ᅦ이션	1472
##불	1473
배우	1474
도록	1475
협	1476
##벌	1477
198	1478
상당히	1479
공격력	1480
그녀	1481
자리	1482
대한	1483
24	1484
##율	1485
최대	1486
##돌	1487
기사	1488
올라	1489
마다	1490
##랴	1491
##민국	1492
프리	1493
결과	1494
##온	1495
홈	1496
지원	1497
##ᆷ버	1498
그대로	1499
평가	1500
시절	1501
밀	1502
친	1503
##증	1504
너무	1505
빠르	1506
육	1507
뉴	1508
##ᅦᆫ트	1509
##략	1510
제외	1511
보스	1512
므로	1513
##it	1514
죽이	1515
몰	1516
연구	1517
##씨	1518
온	1519
##버지	1520
의미	1521
망	1522
##할	1523
나타	1524
실제로	1525
##ᆯ로	1526
##축	1527
##백	1528
로서	1529
측	1530
이미	1531
소속	1532
##북	1533
봉	1534
승리	1535
칼	1536
직접	1537
##블	1538
전체	1539
2015	1540
##책	1541
영상	1542
대한민국	1543
보내	1544
향	1545
23	1546
어렵	1547
원래	1548
유닛	1549
퍼	1550
체력	1551
##귀	1552
여자	1553
##을	1554
##부터	1555
##굴	1556
언급	1557
그것	1558
대로	1559
##획	1560
드라	1561
##념	1562
묘	1563
개발	1564
데미지	1565
##광	1566
멤버	1567
##ing	1568
유저	1569
갖	1570
##ᅦ이지	1571
##st	1572
맨	1573
##le	1574
플	1575
머리	1576
##학교	1577
##ic	1578
휴	1579
이동	1580
##가지	1581
##앙	1582
슬	1583
마음	1584
설정	1585
##라지	1586
40	1587
싸우	1588
정보	1589
책	1590
##라이	1591
##다가	1592
ᆫ다면	1593
씩	1594
문서	1595
방법	1596
컨	1597
선택	1598
애니	1599
차이	1600
깨	1601
님	1602
##re	1603
##ᆷ피	1604
##늘	1605
과거	1606
##ᆫ경	1607
쇼	1608
##찌	1609
가까	1610
몬스터	1611
듣	1612
##운드	1613
센	1614
츠	1615
왜	1616
불리	1617
##평	1618
출연	1619
성우	1620
송	1621
##몬	1622
친구	1623
포함	1624
파이	1625
소리	1626
##욱	1627
돈	1628
침	1629
##dd	1630
빼	1631
석	1632
##닝	1633
농	1634
갑	1635
뜻	1636
뭐	1637
압	1638
크리	1639
탑	1640
거리	1641
든	1642
##짜	1643
대상	1644
##누	1645
설명	1646
엄청	1647
혹	1648
사회	1649
##총	1650
바람	1651
플레이어	1652
장면	1653
##딩	1654
힘들	1655
마리	1656
우승	1657
최고	1658
다니	1659
여성	1660
##봉	1661
버전	1662
사랑	1663
##ᅦ이스	1664
링	1665
어리	1666
바뀌	1667
답	1668
아버지	1669
##웅	1670
갈	1671
##침	1672
마이	1673
동시	1674
공식	1675
##팅	1676
유명	1677
시대	1678
스럽	1679
2014	1680
##켓	1681
발생	1682
##슬	1683
영향	1684
사망	1685
주로	1686
어떠	1687
꽤	1688
즈	1689
대회	1690
려고	1691
프랑	1692
##주의	1693
남자	1694
궁	1695
층	1696
색	1697
결정	1698
조금	1699
발매	1700
26	1701
주장	1702
출신	1703
아이템	1704
##ff	1705
초반	1706
000	1707
역사	1708
걸리	1709
섬	1710
나라	1711
빠지	1712
인터	1713
일어나	1714
학생	1715
전부	1716
버스	1717
##ᅦ일	1718
공개	1719
28	1720
푸	1721
##쉬	1722
운영	1723
서로	1724
유지	1725
콘	1726
오르	1727
오래	1728
스토리	1729
##밀	1730
##el	1731
27	1732
대사	1733
구성	1734
스ᄑ	1735
##염	1736
##갑	1737
파괴	1738
제대로	1739
##am	1740
정부	1741
스ᄏ	1742
방식	1743
음악	1744
쏘	1745
강화	1746
자주	1747
31	1748
중요	1749
아직	1750
후반	1751
이때	1752
##쁘	1753
모드	1754
나타나	1755
또는	1756
노래	1757
월드	1758
the	1759
정치	1760
##델	1761
과정	1762
형태	1763
최종	1764
새롭	1765
독일	1766
역할	1767
억	1768
시스	1769
끼	1770
좌	1771
휘	1772
최초	1773
대전	1774
##벽	1775
딜	1776
르	1777
착	1778
뽀	1779
찍	1780
##필	1781
쓰이	1782
##플	1783
이벤트	1784
##라도	1785
엘	1786
누구	1787
##ᆫ스	1788
##om	1789
##머니	1790
강력	1791
아래	1792
정말	1793
변경	1794
회복	1795
케	1796
움	1797
##얼	1798
##먹	1799
##확	1800
기존	1801
##곤	1802
싱	1803
바이	1804
볼	1805
잔	1806
그런데	1807
##잡	1808
##럽	1809
##우스	1810
영국	1811
라도	1812
보통	1813
드래	1814
비교	1815
느끼	1816
##아가	1817
##ᅡᆯ리	1818
폐	1819
마찬	1820
마찬가지	1821
이기	1822
소환	1823
##la	1824
어떤	1825
조선	1826
##었	1827
##ᅦ이트	1828
정신	1829
먼	1830
당연	1831
##측	1832
특성	1833
인기	1834
##is	1835
엄청나	1836
성능	1837
##컬	1838
늘	1839
확률	1840
속성	1841
마을	1842
##프트	1843
##번	1844
행동	1845
##이도	1846
##훈	1847
바꾸	1848
앨	1849
2013	1850
다이	1851
슈퍼	1852
오히	1853
노선	1854
모양	1855
##덕	1856
이제	1857
오히려	1858
올	1859
##ᅳ루	1860
클리	1861
풍	1862
##풍	1863
가깝	1864
자유	1865
아들	1866
##맨	1867
교육	1868
197	1869
발견	1870
##트리	1871
차량	1872
##억	1873
라인	1874
##퇴	1875
##휘	1876
짓	1877
29	1878
사라지	1879
수록	1880
끌	1881
##너지	1882
게다가	1883
술	1884
32	1885
하이	1886
부족	1887
특수	1888
##et	1889
이번	1890
00	1891
대학교	1892
확인	1893
성격	1894
끝나	1895
내리	1896
문화	1897
프랑스	1898
트리	1899
윤	1900
유일	1901
활약	1902
차지	1903
##손	1904
흑	1905
##ol	1906
2012	1907
장비	1908
관리	1909
##써	1910
##ion	1911
##혀	1912
아예	1913
##ᅳ라이	1914
영웅	1915
응	1916
일단	1917
입장	1918
구하	1919
녹	1920
액	1921
생산	1922
맞추	1923
따라	1924
시스템	1925
빛	1926
이렇게	1927
##지어	1928
제국	1929
흔	1930
맵	1931
훈	1932
숨	1933
##폭	1934
고등	1935
뽑	1936
##웨	1937
##림	1938
##숙	1939
돌아오	1940
에피	1941
들어오	1942
먼저	1943
심지어	1944
득	1945
프로ᄀ	1946
##ᅦ임	1947
경찰	1948
반대	1949
##답	1950
##디오	1951
계획	1952
주변	1953
거기	1954
운동	1955
2010	1956
데이	1957
앨범	1958
##던	1959
자동	1960
어요	1961
##골	1962
획	1963
완전히	1964
조건	1965
드러	1966
우주	1967
기간	1968
##엇	1969
##ᅢᆼ크	1970
##새	1971
애니ᄆ	1972
난이도	1973
사진	1974
부대	1975
##옥	1976
적용	1977
발동	1978
개인	1979
기능	1980
##ow	1981
지구	1982
뮤	1983
건물	1984
60	1985
감소	1986
위원	1987
잃	1988
##nd	1989
km	1990
##멸	1991
##20	1992
축구	1993
자세	1994
에이	1995
##통령	1996
블ᄅ	1997
##il	1998
떠나	1999
##ig	2000
##므로	2001
어디	2002
그루	2003
중심	2004
으로서	2005
모델	2006
##ed	2007
##튼	2008
실패	2009
견	2010
지키	2011
그래서	2012
##져	2013
##곳	2014
혹은	2015
중앙	2016
던지	2017
선거	2018
라며	2019
드리	2020
현대	2021
35	2022
회사	2023
덕분	2024
##ᆼ장	2025
돌아가	2026
초기	2027
세트	2028
##ᅩᆾ	2029
전혀	2030
얼굴	2031
##롯	2032
##먼	2033
작가	2034
바다	2035
시기	2036
듀	2037
표현	2038
국내	2039
##탁	2040
원작	2041
##충	2042
민주	2043
대통령	2044
패배	2045
##클	2046
##웃	2047
물리	2048
처리	2049
데ᄇ	2050
순간	2051
TV	2052
열리	2053
크로	2054
하루	2055
동일	2056
모으	2057
곤	2058
지속	2059
드라마	2060
반응	2061
지방	2062
##익	2063
무엇	2064
얼마	2065
##뢰	2066
날리	2067
##버스	2068
도움	2069
더라도	2070
인정	2071
참여	2072
맥	2073
기관	2074
출시	2075
##ᅳ램	2076
애니메이션	2077
##니아	2078
칸	2079
명칭	2080
##ac	2081
판매	2082
담당	2083
데뷔	2084
##as	2085
오브	2086
##엘	2087
꾸	2088
##없이	2089
퇴	2090
##BS	2091
##압	2092
정확	2093
##나마	2094
요구	2095
획득	2096
196	2097
땅	2098
##룡	2099
굉장	2100
생활	2101
그렇게	2102
of	2103
헌	2104
시점	2105
컴	2106
2011	2107
설치	2108
밖에	2109
작중	2110
넘어	2111
다양	2112
발표	2113
##슈	2114
트ᄅ	2115
후보	2116
##ᆫ과	2117
게이	2118
##객	2119
그룹	2120
상승	2121
##끔	2122
##아내	2123
진출	2124
선발	2125
아군	2126
구조	2127
기억	2128
롭	2129
항목	2130
Lv	2131
영어	2132
클	2133
만화	2134
가격	2135
움직	2136
탐	2137
단계	2138
족	2139
##소드	2140
그림	2141
밤	2142
특별	2143
##들이	2144
올라가	2145
마스터	2146
실력	2147
##ve	2148
그나마	2149
##놓	2150
핵	2151
랑	2152
으므로	2153
세이	2154
##죄	2155
량	2156
##싸	2157
##균	2158
조차	2159
아마	2160
다며	2161
턴	2162
##스ᄐ	2163
세우	2164
이거	2165
01	2166
##욕	2167
드래곤	2168
야구	2169
빌	2170
킹	2171
##채	2172
았었	2173
졸	2174
시장	2175
덱	2176
맛	2177
수비	2178
낙	2179
The	2180
미치	2181
죠	2182
가족	2183
사고	2184
##비스	2185
아주	2186
범위	2187
##찮	2188
특징	2189
밀리	2190
연기	2191
##넷	2192
려는	2193
##소리	2194
경제	2195
시청	2196
방향	2197
##뜨리	2198
대체	2199
딸	2200
오리	2201
패치	2202
##ᆨ트	2203
경험	2204
계약	2205
고려	2206
퀘	2207
프	2208
##ot	2209
남기	2210
한테	2211
숙	2212
지니	2213
벨	2214
확실	2215
참가	2216
국제	2217
딱	2218
디자	2219
에피소드	2220
500	2221
발사	2222
세대	2223
어머니	2224
폭발	2225
묘사	2226
아르	2227
로부터	2228
##스티	2229
##덤	2230
주의	2231
프로그램	2232
고등학교	2233
80	2234
무시	2235
믿	2236
활용	2237
2000	2238
굴	2239
어떻게	2240
피하	2241
라서	2242
상위	2243
결혼	2244
##ᆫ격	2245
##이드	2246
##으키	2247
비판	2248
목적	2249
##효	2250
더욱	2251
준비	2252
유리	2253
##탕	2254
##못	2255
중간	2256
나무	2257
##밍	2258
심하	2259
각각	2260
##ad	2261
쿨	2262
보호	2263
37	2264
러시아	2265
45	2266
펼	2267
묻	2268
챔피	2269
버프	2270
##맹	2271
이ᄁ	2272
클ᄅ	2273
런	2274
라운드	2275
굉장히	2276
이미지	2277
##렌	2278
패턴	2279
##인트	2280
히로	2281
##혹	2282
이어지	2283
위험	2284
##스타	2285
진짜	2286
국민	2287
옆	2288
참조	2289
내려	2290
빈	2291
꿈	2292
대미지	2293
생명	2294
조직	2295
조사	2296
죄	2297
단순	2298
혼자	2299
듯이	2300
싸움	2301
과학	2302
여담	2303
약하	2304
어ᄍ	2305
이루어지	2306
꺼	2307
전하	2308
나쁘	2309
스피	2310
타입	2311
다루	2312
##뷰	2313
흡	2314
##드리	2315
염	2316
소모	2317
세력	2318
현실	2319
파워	2320
St	2321
안타	2322
ᆯ지	2323
시도	2324
노리	2325
제공	2326
##씬	2327
욕	2328
주요	2329
가리	2330
구간	2331
흥	2332
율	2333
194	2334
불구	2335
거치	2336
할	2337
전문	2338
지하	2339
유럽	2340
일으키	2341
연속	2342
웃	2343
##칙	2344
부산	2345
세기	2346
##머지	2347
나머지	2348
순위	2349
논란	2350
돕	2351
조합	2352
한정	2353
포인트	2354
괘	2355
사실상	2356
헬	2357
린	2358
케이	2359
약간	2360
##아오	2361
클래	2362
동료	2363
##id	2364
70	2365
뛰어나	2366
분위	2367
성장	2368
훨	2369
##스크	2370
09	2371
##궁	2372
##갈	2373
##섭	2374
##ay	2375
##스로	2376
무장	2377
여전히	2378
바라	2379
디자인	2380
##냐	2381
징	2382
즐	2383
분위기	2384
당연히	2385
취급	2386
항공	2387
출전	2388
아라	2389
##트로	2390
90	2391
이해	2392
으면서	2393
론	2394
학년	2395
얘	2396
일정	2397
규모	2398
##린	2399
등급	2400
##혁	2401
싫	2402
훨씬	2403
FC	2404
##ER	2405
지도	2406
투수	2407
소설	2408
한편	2409
예정	2410
운행	2411
블랙	2412
성적	2413
##협	2414
##나라	2415
인구	2416
읽	2417
부상	2418
쌍	2419
기대	2420
자연	2421
옥	2422
엔딩	2423
기타	2424
익	2425
그래도	2426
마치	2427
삼성	2428
벽	2429
폴	2430
계열	2431
mm	2432
똑	2433
02	2434
괜	2435
해결	2436
2009	2437
03	2438
사업	2439
가져	2440
##ch	2441
스테이지	2442
향하	2443
센터	2444
##킹	2445
어두	2446
기에	2447
##혜	2448
방면	2449
연결	2450
미션	2451
300	2452
콤	2453
플래	2454
가스	2455
엘리	2456
방영	2457
최근	2458
의견	2459
튀	2460
##낌	2461
연합	2462
수정	2463
##짝	2464
짧	2465
##us	2466
48	2467
변화	2468
도망	2469
종류	2470
자면	2471
##ir	2472
##빈	2473
ᆯ까	2474
그거	2475
이탈	2476
곧	2477
표기	2478
잘못	2479
률	2480
칭	2481
전용	2482
태어나	2483
배치	2484
##받	2485
05	2486
털	2487
195	2488
추정	2489
33	2490
이르	2491
for	2492
터지	2493
퀘스트	2494
2008	2495
이라	2496
탓	2497
발전	2498
##다리	2499
벗	2500
##척	2501
소녀	2502
##프리	2503
##혈	2504
36	2505
##엄	2506
##폰	2507
08	2508
대화	2509
변하	2510
거대	2511
정상	2512
직업	2513
##완	2514
끊	2515
안정	2516
척	2517
07	2518
움직이	2519
##ur	2520
도중	2521
언제	2522
죽음	2523
엔진	2524
충분	2525
올라오	2526
스스로	2527
큐	2528
종료	2529
##ᅳ르	2530
작전	2531
##참	2532
넘어가	2533
##티브	2534
##파이	2535
스카	2536
수상	2537
챔피언	2538
펼치	2539
세상	2540
품	2541
나중	2542
옵	2543
##둥	2544
십	2545
붙이	2546
##같	2547
독립	2548
일행	2549
비행	2550
쓰러	2551
요소	2552
##샤	2553
나누	2554
##ᅳ레이드	2555
캠	2556
느낌	2557
속하	2558
##볼	2559
##취	2560
수도	2561
마저	2562
녀	2563
당신	2564
##검	2565
HP	2566
굳	2567
벌어지	2568
벌이	2569
로보	2570
##액	2571
보상	2572
에너지	2573
##륙	2574
##ᆩ이	2575
지내	2576
방어력	2577
무리	2578
달성	2579
비롯	2580
전설	2581
팩	2582
##..	2583
공연	2584
##od	2585
미사	2586
만드	2587
06	2588
력	2589
동물	2590
솔	2591
배틀	2592
##BC	2593
부활	2594
특정	2595
관하	2596
장착	2597
훈련	2598
절대	2599
렌	2600
th	2601
##센	2602
지지	2603
졸업	2604
##텐	2605
철도	2606
전기	2607
다리	2608
요리	2609
##자기	2610
##im	2611
기업	2612
##암	2613
위기	2614
포켓	2615
##길	2616
넓	2617
지휘	2618
행정	2619
싱글	2620
번역	2621
번호	2622
근접	2623
더불	2624
제목	2625
돌리	2626
점수	2627
건설	2628
빨	2629
04	2630
만약	2631
관심	2632
틀	2633
아이돌	2634
으ᄅ	2635
미래	2636
##어들	2637
황제	2638
내부	2639
스페	2640
남성	2641
##렬	2642
스코	2643
반면	2644
따라서	2645
득점	2646
##un	2647
충격	2648
##ut	2649
신경	2650
##겁	2651
SK	2652
시험	2653
전차	2654
##뉴	2655
군사	2656
목소리	2657
가르	2658
거두	2659
##틴	2660
##ᆯ레	2661
목표	2662
삭	2663
홈런	2664
소재	2665
인사	2666
덤	2667
뚜	2668
전사	2669
2007	2670
크리스	2671
##데이트	2672
업데이트	2673
정체	2674
바르	2675
멸	2676
브	2677
you	2678
공간	2679
##지션	2680
똑같	2681
가끔	2682
저지	2683
무대	2684
카이	2685
픽	2686
어찌	2687
시설	2688
놀	2689
사이트	2690
타격	2691
셈	2692
로마	2693
오늘	2694
34	2695
뒷	2696
꽃	2697
##인물	2698
##즘	2699
##컵	2700
##흥	2701
배경	2702
쥬	2703
빅	2704
링크	2705
랜	2706
지정	2707
장소	2708
각성	2709
전작	2710
찬	2711
마르	2712
서비스	2713
공중	2714
##트라	2715
빙	2716
최소	2717
##큐	2718
항상	2719
부여	2720
##다니	2721
##ro	2722
냉	2723
교체	2724
그만	2725
파티	2726
##닉	2727
전국	2728
맹	2729
분노	2730
베이	2731
##폐	2732
생존	2733
으려	2734
작곡	2735
혀	2736
북한	2737
얘기	2738
넘기	2739
등장인물	2740
켄	2741
정식	2742
예상	2743
##수록	2744
스포	2745
자랑	2746
##알	2747
의원	2748
으로써	2749
작업	2750
높이	2751
##란드	2752
록	2753
##붙	2754
도로	2755
잉	2756
포켓몬	2757
사냥	2758
##디어	2759
##쇄	2760
분류	2761
종족	2762
벤	2763
늘어나	2764
이끌	2765
##엽	2766
##층	2767
인도	2768
악마	2769
##ag	2770
##igh	2771
소개	2772
야마	2773
##ᅳᆯ레	2774
38	2775
##너스	2776
올림피	2777
아키	2778
쌓	2779
겸	2780
##ver	2781
##레이	2782
단체	2783
혈	2784
애초	2785
제한	2786
인터뷰	2787
괜찮	2788
ᆯ로	2789
가수	2790
필드	2791
##ec	2792
##리스	2793
홀	2794
결승	2795
##동안	2796
cm	2797
판정	2798
롯	2799
기계	2800
이어	2801
클리어	2802
75	2803
연출	2804
목록	2805
각종	2806
외국	2807
하늘	2808
컵	2809
이외	2810
타카	2811
명령	2812
한ᄀ	2813
정하	2814
##ent	2815
##ᅪᆯ	2816
2006	2817
제일	2818
초등	2819
기체	2820
병력	2821
지상	2822
깊	2823
카운	2824
재미	2825
로봇	2826
개념	2827
스타일	2828
아카	2829
##보이	2830
트위	2831
가운	2832
55	2833
페이	2834
놀라	2835
전반	2836
확정	2837
기동	2838
in	2839
##콘	2840
교통	2841
옛	2842
션	2843
정작	2844
옷	2845
##꾸	2846
##촌	2847
193	2848
##허	2849
건담	2850
레어	2851
비용	2852
퀴	2853
별로	2854
파일	2855
왼	2856
##ak	2857
료	2858
##이트	2859
화력	2860
장갑	2861
올림픽	2862
수행	2863
브ᄅ	2864
몽	2865
니까	2866
군대	2867
드러나	2868
사항	2869
가운데	2870
갖추	2871
표시	2872
크기	2873
##뮤	2874
따로	2875
인식	2876
시티	2877
행위	2878
사격	2879
수치	2880
경쟁	2881
2020	2882
사거리	2883
납	2884
to	2885
##um	2886
브라	2887
##최	2888
누르	2889
##쉽	2890
기반	2891
변신	2892
갑자기	2893
저항	2894
감정	2895
',	2896
##쿄	2897
나름	2898
포지션	2899
비밀	2900
잇	2901
##젝트	2902
진화	2903
이탈리아	2904
완전	2905
평균	2906
뇌	2907
왕국	2908
단점	2909
보유	2910
집중	2911
살리	2912
인천	2913
스티	2914
코미	2915
교수	2916
##셉	2917
근처	2918
##짓	2919
통합	2920
기회	2921
병원	2922
vs	2923
폰	2924
직전	2925
던전	2926
노력	2927
특이	2928
냐고	2929
임무	2930
띄	2931
##아들이	2932
##러스	2933
의식	2934
자원	2935
전자	2936
##쓰	2937
느리	2938
어쩌	2939
국회	2940
설립	2941
탈출	2942
스태	2943
놈	2944
##화국	2945
정의	2946
오버	2947
쯤	2948
압도	2949
##ST	2950
오른	2951
혁	2952
레인	2953
##빠	2954
이닝	2955
옮	2956
월드컵	2957
부모	2958
촬	2959
단어	2960
때리	2961
부정	2962
환경	2963
##em	2964
##앗	2965
고양	2966
마시	2967
현상	2968
##ub	2969
정리	2970
사례	2971
잠시	2972
떨	2973
사정	2974
##비아	2975
판단	2976
효율	2977
시전	2978
다크	2979
제품	2980
이쪽	2981
##겨	2982
더니	2983
##튜	2984
펜	2985
밑	2986
극장	2987
치명	2988
스위	2989
본래	2990
아파	2991
##ᆯ링	2992
라이브	2993
##낙	2994
나서	2995
주제	2996
##말로	2997
무슨	2998
촬영	2999
##000	3000
삭제	3001
신ᄀ	3002
붕	3003
##리오	3004
사무	3005
의외	3006
주문	3007
위원회	3008
전력	3009
가문	3010
ㅏㅆ	3011
##윤	3012
상관	3013
겪	3014
동생	3015
##븐	3016
고속	3017
컬	3018
##어로	3019
원인	3020
대구	3021
##묘	3022
여행	3023
물건	3024
옮기	3025
주민	3026
지배	3027
제거	3028
발언	3029
강제	3030
키우	3031
##헌	3032
소련	3033
연습	3034
치료	3035
병사	3036
포기	3037
위력	3038
요시	3039
롤	3040
도전	3041
##무리	3042
전개	3043
2005	3044
##르트	3045
아스	3046
기다리	3047
이하	3048
골드	3049
역대	3050
책임	3051
새로	3052
해군	3053
##째	3054
중학교	3055
기념	3056
##요일	3057
도입	3058
정책	3059
앞서	3060
완성	3061
웹	3062
오스	3063
복귀	3064
##싱	3065
실험	3066
##ight	3067
화면	3068
42	3069
##렉	3070
려면	3071
유사	3072
고정	3073
도쿄	3074
공주	3075
살인	3076
루트	3077
의사	3078
모이	3079
음식	3080
41	3081
##학생	3082
##랜드	3083
##좌	3084
노트	3085
##야마	3086
별명	3087
파트	3088
차원	3089
직후	3090
선생	3091
끝내	3092
이적	3093
뿌	3094
히어로	3095
레드	3096
불가	3097
##링	3098
다수	3099
셋	3100
버티	3101
##ᆯ린	3102
사기	3103
중반	3104
##ᅳ림	3105
멘	3106
39	3107
받아들이	3108
잡히	3109
##섯	3110
티어	3111
전략	3112
숨기	3113
어둠	3114
에게서	3115
분명	3116
밴드	3117
마나	3118
붉	3119
공동	3120
도착	3121
2004	3122
히트	3123
무려	3124
미니	3125
쫓	3126
꼭	3127
##모토	3128
가치	3129
##특	3130
접근	3131
언어	3132
녀석	3133
짐	3134
제도	3135
일러	3136
EX	3137
LG	3138
은데	3139
빌리	3140
정당	3141
컴ᄑ	3142
으로부터	3143
회피	3144
텔	3145
ㅓㅆ	3146
추천	3147
타임	3148
조종	3149
고자	3150
나이트	3151
정규	3152
텐	3153
사상	3154
대기	3155
브리	3156
점프	3157
예전	3158
반드	3159
##ce	3160
살아	3161
확장	3162
아파트	3163
신체	3164
빨리	3165
##숨	3166
셰	3167
##그레이드	3168
업그레이드	3169
쥐	3170
마사	3171
구매	3172
##AR	3173
줄이	3174
연장	3175
롯데	3176
리더	3177
자료	3178
시민	3179
로드	3180
랭크	3181
이곳	3182
반드시	3183
폭탄	3184
##os	3185
투표	3186
탈락	3187
꾼	3188
타이틀	3189
인터넷	3190
##밥	3191
장치	3192
부탁	3193
##프리카	3194
앙	3195
학원	3196
단지	3197
완벽	3198
라이트	3199
미사일	3200
종교	3201
##리어	3202
44	3203
##찍	3204
우선	3205
##ri	3206
소유	3207
형식	3208
해외	3209
고대	3210
닌	3211
낫	3212
##시마	3213
##AN	3214
구역	3215
장점	3216
사령	3217
##친	3218
최강	3219
힐	3220
심각	3221
산업	3222
##듀	3223
아내	3224
##벤	3225
##ula	3226
Ch	3227
금지	3228
늦	3229
##ON	3230
수마	3231
##셀	3232
##역시	3233
탱	3234
추측	3235
버그	3236
실시	3237
No	3238
자마	3239
위키	3240
마무리	3241
##ap	3242
43	3243
99	3244
이라고	3245
대장	3246
##홍	3247
##몇	3248
클럽	3249
몇몇	3250
공포	3251
가사	3252
##나이	3253
하드	3254
##ᆨ정	3255
노동	3256
콜	3257
##and	3258
2002	3259
연재	3260
흐	3261
##걸	3262
이사	3263
구분	3264
복수	3265
취하	3266
st	3267
##ᅳᆯ랜드	3268
검사	3269
범죄	3270
톤	3271
합류	3272
점점	3273
덜	3274
달러	3275
즐기	3276
브래	3277
서버	3278
가드	3279
다소	3280
조정	3281
##아하	3282
요청	3283
로스	3284
행사	3285
##이치	3286
차례	3287
드로	3288
form	3289
옵션	3290
##탑	3291
떡	3292
##ᆫ간	3293
재료	3294
보병	3295
그야	3296
밥	3297
##ᅳᆯ린	3298
조작	3299
선정	3300
선언	3301
수많	3302
마법사	3303
##텔	3304
전통	3305
택	3306
교회	3307
잭	3308
입히	3309
타자	3310
걱정	3311
프로젝트	3312
kg	3313
##쳐	3314
그리스	3315
종종	3316
개그	3317
47	3318
스포츠	3319
46	3320
##빙	3321
데이터	3322
51	3323
191	3324
##첩	3325
좋아하	3326
컴퓨	3327
개월	3328
암살	3329
부하	3330
##듬	3331
광고	3332
형제	3333
열차	3334
formula	3335
채우	3336
템	3337
##르크	3338
성향	3339
##ᆨ시	3340
대중	3341
개최	3342
##십	3343
평범	3344
폼	3345
자마자	3346
KBS	3347
코스	3348
##ᆯ리스	3349
아쉽	3350
##조건	3351
숲	3352
그야말로	3353
실점	3354
포스	3355
모자	3356
한계	3357
스페인	3358
구단	3359
고르	3360
칠	3361
##죽	3362
채널	3363
##맞	3364
뻔	3365
대결	3366
설계	3367
##ter	3368
거부	3369
언론	3370
##버리	3371
코드	3372
아무리	3373
보조	3374
##아보	3375
워낙	3376
디스	3377
생물	3378
다행	3379
통신	3380
##맥	3381
비중	3382
전화	3383
종합	3384
행성	3385
기지	3386
컴퓨터	3387
민족	3388
멜	3389
##털	3390
and	3391
##셜	3392
맺	3393
한글	3394
무한	3395
투입	3396
개봉	3397
해석	3398
##럭	3399
값	3400
무조건	3401
캡	3402
##아지	3403
본격	3404
영혼	3405
블루	3406
정확히	3407
뉴스	3408
연주	3409
냐는	3410
굳이	3411
운용	3412
트로	3413
##ul	3414
MA	3415
평소	3416
실수	3417
엑스	3418
회장	3419
원정	3420
광주	3421
##덴	3422
##IN	3423
지적	3424
박사	3425
##ᆸ히	3426
소년	3427
##타임	3428
##ᆺ자	3429
지명	3430
와중	3431
##무라	3432
인상	3433
1000	3434
위협	3435
2003	3436
줄어들	3437
##ᆯ리아	3438
미드	3439
멋	3440
##ᅳᆯ링	3441
젊	3442
회의	3443
상징	3444
충분히	3445
##꽃	3446
##op	3447
등록	3448
##몽	3449
##ᆺ수	3450
는가	3451
사태	3452
집단	3453
대형	3454
가정	3455
대응	3456
대비	3457
쓸	3458
보너스	3459
터미	3460
아웃	3461
카메	3462
자동차	3463
소비	3464
앤	3465
엠	3466
##ck	3467
전원	3468
공사	3469
보컬	3470
##라인	3471
체제	3472
페르	3473
시청자	3474
%,	3475
다운	3476
데스	3477
뚫	3478
태양	3479
##되	3480
특유	3481
희생	3482
150	3483
오프	3484
조각	3485
먹이	3486
##드로	3487
개조	3488
가면	3489
무사	3490
65	3491
##FA	3492
혐	3493
샷	3494
군단	3495
##ation	3496
빵	3497
편성	3498
뿌리	3499
네이	3500
도망치	3501
봉인	3502
깔	3503
을지	3504
리어	3505
여름	3506
MBC	3507
마력	3508
흉	3509
##니스	3510
SP	3511
통과	3512
##ᆫ만	3513
일종	3514
##스케	3515
기자	3516
떠오	3517
##ra	3518
##려가	3519
트레이	3520
일러스트	3521
192	3522
잊	3523
육군	3524
프레	3525
##콩	3526
##펜	3527
혜	3528
발음	3529
##자리	3530
장군	3531
##꼬	3532
공항	3533
##돈	3534
##녕	3535
생성	3536
벗어나	3537
얼마나	3538
##의원	3539
시나	3540
분리	3541
##셔	3542
로써	3543
방문	3544
64	3545
오리지	3546
##있	3547
II	3548
##오스	3549
##젤	3550
가하	3551
드러내	3552
##ᅦ이크	3553
##꺼	3554
고양이	3555
하야	3556
촉	3557
장르	3558
동맹	3559
빼앗	3560
장기	3561
간단	3562
함정	3563
##줄	3564
반복	3565
##칸	3566
ㅏ서	3567
서술	3568
##튜브	3569
튜	3570
소식	3571
앉	3572
의도	3573
##려오	3574
##넘	3575
아프	3576
사쿠	3577
분야	3578
디지	3579
근데	3580
갤러	3581
52	3582
가ᄇ	3583
불과	3584
##깨	3585
합치	3586
전환	3587
유튜브	3588
랭	3589
바닥	3590
영입	3591
안전	3592
경기도	3593
그때	3594
치르	3595
브레이	3596
괴물	3597
저격	3598
제안	3599
##텐츠	3600
흡수	3601
데리	3602
점령	3603
You	3604
##ᅧ보	3605
의지	3606
##깐	3607
밸	3608
윈	3609
는다는	3610
예선	3611
그라	3612
##리카	3613
초대	3614
루이	3615
필살	3616
최후	3617
##니티	3618
따지	3619
400	3620
##시스	3621
개선	3622
공략	3623
유도	3624
화염	3625
##남도	3626
##빛	3627
락	3628
숫자	3629
독자	3630
오토	3631
전술	3632
##art	3633
코치	3634
미리	3635
그저	3636
방해	3637
##님	3638
주력	3639
원하	3640
액션	3641
확보	3642
외모	3643
##ᆫ광	3644
인원	3645
가져오	3646
평화	3647
매일	3648
트래	3649
##풀	3650
진입	3651
터미널	3652
이론	3653
규정	3654
관통	3655
VS	3656
클래스	3657
수사	3658
라디오	3659
찾아오	3660
장난	3661
##런스	3662
넥	3663
49	3664
들리	3665
##나가	3666
이치	3667
투자	3668
##빌	3669
느냐	3670
승부	3671
컨셉	3672
##니까	3673
눈물	3674
체육	3675
목숨	3676
형성	3677
지나가	3678
적극	3679
패러	3680
인류	3681
##ᅳ레스	3682
방패	3683
AP	3684
56	3685
상자	3686
비트	3687
##핑	3688
음반	3689
몹	3690
모험	3691
시내	3692
사과	3693
아름	3694
겹	3695
왼쪽	3696
부수	3697
적절	3698
흐르	3699
한국어	3700
계기	3701
보도	3702
2001	3703
함대	3704
구축	3705
떼	3706
서브	3707
##동생	3708
거짓	3709
저지르	3710
##팔	3711
##엔	3712
##ᆫ공	3713
랍	3714
살아남	3715
의심	3716
ᆫ지라	3717
파라	3718
약점	3719
##롱	3720
챙	3721
쳐	3722
예술	3723
공화국	3724
들이	3725
역전	3726
##ᅳᆺ	3727
궤	3728
인형	3729
##퀴	3730
기원	3731
53	3732
오리지널	3733
54	3734
비디오	3735
##페이지	3736
작성	3737
자라	3738
완료	3739
##모리	3740
...	3741
공부	3742
##논	3743
수리	3744
은퇴	3745
솔로	3746
코어	3747
회전	3748
쓰러지	3749
단순히	3750
풀리	3751
닉	3752
대단	3753
질문	3754
In	3755
걸치	3756
PC	3757
편집	3758
황금	3759
닮	3760
끌어	3761
민주당	3762
마침	3763
뮤직	3764
훌	3765
날개	3766
##ᅳ래프트	3767
##바이	3768
핑	3769
홈페이지	3770
덩	3771
착용	3772
필수	3773
##시브	3774
트랙	3775
상대방	3776
멈	3777
보수	3778
꾸준	3779
85	3780
해제	3781
오ᄑ	3782
##옷	3783
##삼	3784
##토리	3785
엄마	3786
아프리카	3787
드라이	3788
경상	3789
##ia	3790
사단	3791
습격	3792
장관	3793
편하	3794
1990	3795
현장	3796
사장	3797
비난	3798
포르	3799
희망	3800
코스트	3801
##흐	3802
걷	3803
원거리	3804
##ill	3805
스트리	3806
청소	3807
수원	3808
##ie	3809
재판	3810
선보이	3811
분석	3812
하위	3813
카페	3814
명중	3815
테러	3816
에스	3817
아시아	3818
퓨	3819
진정	3820
더블	3821
무력	3822
선물	3823
##RA	3824
인지	3825
성인	3826
수호	3827
ST	3828
어라	3829
##로드	3830
삶	3831
##덜	3832
모티브	3833
##IA	3834
비고	3835
스파이	3836
콩	3837
확실히	3838
랄	3839
아름답	3840
행복	3841
경계	3842
부리	3843
저주	3844
감안	3845
중단	3846
태도	3847
##몰	3848
가슴	3849
190	3850
##ik	3851
마크	3852
카즈	3853
임명	3854
남편	3855
공원	3856
기획	3857
꼴	3858
##라스	3859
쿄	3860
에이스	3861
지식	3862
관광	3863
##나다	3864
표정	3865
허용	3866
승강	3867
스마	3868
쿨타임	3869
장애	3870
무섭	3871
수단	3872
지나치	3873
오른쪽	3874
탑재	3875
바탕	3876
본선	3877
멈추	3878
딱히	3879
제시	3880
친하	3881
상처	3882
소프트	3883
주도	3884
##무원	3885
당장	3886
59	3887
망하	3888
롱	3889
##연히	3890
처치	3891
##북도	3892
의문	3893
영역	3894
유래	3895
기점	3896
유우	3897
테마	3898
소울	3899
고통	3900
테크	3901
리스	3902
보급	3903
미야	3904
##ab	3905
컷	3906
베르	3907
직원	3908
불명	3909
날아가	3910
비싸	3911
아요	3912
돌파	3913
##울리	3914
기어	3915
멀티	3916
##ᆫ관	3917
베이스	3918
위주	3919
##닥	3920
갈리	3921
작용	3922
고유	3923
##루스	3924
주목	3925
제압	3926
대답	3927
챙기	3928
120	3929
58	3930
##워드	3931
##뉘	3932
잠깐	3933
##마스	3934
주연	3935
을까	3936
카운터	3937
여부	3938
엉	3939
제기	3940
순서	3941
측면	3942
꺼내	3943
체계	3944
도서	3945
##춘	3946
##est	3947
멀리	3948
탯	3949
57	3950
후지	3951
업무	3952
우수	3953
진영	3954
박스	3955
부인	3956
##th	3957
텔레	3958
MP	3959
퍼지	3960
문명	3961
텍	3962
카메라	3963
패스	3964
횟수	3965
드립	3966
후속	3967
멸망	3968
통일	3969
온라인	3970
##all	3971
버튼	3972
공장	3973
낳	3974
시나리오	3975
지점	3976
거주	3977
케이스	3978
갱	3979
관ᄀ	3980
귀족	3981
나뉘	3982
##ea	3983
66	3984
95	3985
셔	3986
코너	3987
문자	3988
당선	3989
고서	3990
##ᆸ터	3991
##쇠	3992
내려가	3993
##뇌	3994
겨우	3995
협력	3996
특기	3997
차별	3998
##푸	3999
계산	4000
소수	4001
펀	4002
지옥	4003
댓	4004
눈치	4005
약속	4006
듀얼	4007
널	4008
삼국	4009
최악	4010
브로	4011
건너	4012
춤	4013
뉴욕	4014
달라지	4015
테이	4016
에어	4017
Sh	4018
시체	4019
연계	4020
조지	4021
##잔	4022
ᆯ수록	4023
딜러	4024
##머리	4025
은행	4026
##붙이	4027
뱀	4028
##로스	4029
크로스	4030
Lo	4031
블레이	4032
##ct	4033
늘리	4034
살해	4035
가볍	4036
ddd	4037
나타내	4038
유키	4039
on	4040
개편	4041
상하	4042
오후	4043
가져가	4044
1999	4045
##다르	4046
융	4047
Re	4048
붕괴	4049
배신	4050
제로	4051
틈	4052
가로	4053
게시	4054
대놓	4055
자격	4056
혁명	4057
자치	4058
매치	4059
웨이	4060
군주	4061
부담	4062
##픽	4063
##라이더	4064
110	4065
덴	4066
##ddd	4067
ㅓ서	4068
dddddd	4069
Sp	4070
자이	4071
컨트로	4072
미스	4073
게이지	4074
1998	4075
##랄	4076
##AL	4077
해금	4078
겨울	4079
국회의원	4080
어울리	4081
견제	4082
증거	4083
레이저	4084
외부	4085
##핀	4086
최대한	4087
군인	4088
장전	4089
교사	4090
필살기	4091
##AT	4092
62	4093
출발	4094
진실	4095
제조	4096
자살	4097
핵심	4098
##PS	4099
##레이션	4100
정권	4101
##워하	4102
어린	4103
대원	4104
##륭	4105
여왕	4106
전장	4107
드물	4108
궁극	4109
미군	4110
##OR	4111
중화	4112
균	4113
연방	4114
용병	4115
##니어	4116
마왕	4117
아메	4118
섭	4119
로켓	4120
귀엽	4121
##릉	4122
니코	4123
아침	4124
댄스	4125
옹	4126
##VE	4127
거절	4128
충전	4129
##아리	4130
룰	4131
한화	4132
타이밍	4133
출생	4134
봄	4135
가르치	4136
유용	4137
공산	4138
##드라	4139
체인	4140
SS	4141
일본어	4142
기분	4143
##쇼	4144
SBS	4145
미나	4146
이성	4147
나카	4148
커뮤	4149
조준	4150
##달리	4151
만족	4152
충돌	4153
고급	4154
브랜드	4155
도구	4156
단위	4157
취소	4158
블로	4159
애매	4160
는다고	4161
스피드	4162
부진	4163
##를	4164
거래	4165
넷	4166
##ate	4167
스킨	4168
##사카	4169
##라리	4170
수학	4171
흔히	4172
##ess	4173
피해자	4174
##컨	4175
극장판	4176
Th	4177
##터리	4178
##ell	4179
카르	4180
61	4181
토스	4182
반란	4183
제주	4184
무게	4185
##광역시	4186
발휘	4187
세계관	4188
얼음	4189
##ard	4190
##킨	4191
##읍	4192
76	4193
교환	4194
플라	4195
##래도	4196
끼리	4197
어떻	4198
장수	4199
파악	4200
##멘	4201
후반부	4202
자고	4203
##ang	4204
단독	4205
마츠	4206
아무래도	4207
겹치	4208
인생	4209
모션	4210
레전	4211
홍콩	4212
막히	4213
패시브	4214
공통	4215
##IC	4216
스파	4217
##톤	4218
근무	4219
판타	4220
삽	4221
##ue	4222
자르	4223
신화	4224
비록	4225
격투	4226
아머	4227
##레스	4228
한자	4229
우려	4230
##ant	4231
하트	4232
##ack	4233
순수	4234
몰리	4235
##ers	4236
따위	4237
프라	4238
피아	4239
Al	4240
NP	4241
77	4242
##두르	4243
구입	4244
정령	4245
파이터	4246
##ine	4247
88	4248
공군	4249
1997	4250
##다수	4251
운전	4252
72	4253
등등	4254
혼란	4255
쿼	4256
계급	4257
자식	4258
가입	4259
수입	4260
##하라	4261
스코어	4262
닥터	4263
##심히	4264
빔	4265
내주	4266
회수	4267
##어내	4268
권력	4269
경력	4270
본부	4271
핀	4272
채용	4273
지시	4274
##세이	4275
공작	4276
근거	4277
젠	4278
커버	4279
탄생	4280
개시	4281
생일	4282
밸런스	4283
해방	4284
비율	4285
누리	4286
##흑	4287
외치	4288
쪼	4289
기절	4290
##촉	4291
건강	4292
지하철	4293
##아나	4294
언니	4295
##웨이	4296
용도	4297
갓	4298
남부	4299
꾸준히	4300
##가락	4301
병기	4302
모리	4303
표준	4304
갤러리	4305
BG	4306
ㅕ서	4307
타워	4308
에리	4309
실질	4310
돌격	4311
지대	4312
##ok	4313
좁	4314
##OS	4315
##스탄	4316
납치	4317
증명	4318
메리	4319
스테	4320
아사	4321
협회	4322
반영	4323
홍보	4324
지급	4325
##피아	4326
무너지	4327
##둑	4328
대공	4329
강조	4330
긴	4331
잖	4332
입학	4333
be	4334
오오	4335
업체	4336
##멀	4337
불안	4338
말리	4339
랜덤	4340
373	4341
FI	4342
노르	4343
윙	4344
유형	4345
왕자	4346
외교	4347
요원	4348
##디션	4349
경영	4350
or	4351
온가	4352
##유키	4353
대륙	4354
감염	4355
경향	4356
쏟	4357
98	4358
제이	4359
fff	4360
온갖	4361
훌륭	4362
광역	4363
감사	4364
페이스	4365
CD	4366
gt	4367
연대	4368
마녀	4369
트라	4370
실행	4371
맡기	4372
장식	4373
##솔	4374
문학	4375
##ive	4376
패러디	4377
##젠	4378
울트라	4379
기독	4380
서포	4381
덮	4382
스펙	4383
메탈	4384
물질	4385
600	4386
원수	4387
주어지	4388
아리	4389
없애	4390
ㅓ야	4391
내놓	4392
입단	4393
##오리	4394
재생	4395
가까이	4396
##헨	4397
##크래프트	4398
아나	4399
스페셜	4400
화살	4401
추진	4402
주년	4403
어차	4404
찾아가	4405
집안	4406
내내	4407
설득	4408
대다수	4409
계승	4410
1996	4411
찌르	4412
선배	4413
정지	4414
승강장	4415
살짝	4416
사카	4417
어차피	4418
부문	4419
폐지	4420
##ast	4421
캐나다	4422
##고기	4423
PS	4424
고기	4425
##AS	4426
영원	4427
와이	4428
대놓고	4429
##들리	4430
이슬	4431
신문	4432
##어리	4433
1995	4434
베트	4435
밟	4436
짜리	4437
보물	4438
낭	4439
적당	4440
지우	4441
브라지	4442
크루	4443
##메달	4444
킥	4445
오류	4446
신뢰	4447
사전	4448
##바로	4449
##멍	4450
이렇	4451
연예	4452
작사	4453
즉시	4454
기기	4455
흘리	4456
##즈키	4457
##uby	4458
",	4459
전선	4460
당황	4461
##ED	4462
미소	4463
내려오	4464
함선	4465
괴롭	4466
##tt	4467
##휴	4468
##다지	4469
고민	4470
68	4471
뒤집	4472
페이지	4473
##ee	4474
폭풍	4475
쇠	4476
브라질	4477
등판	4478
은근	4479
스트라이	4480
lt	4481
오픈	4482
800	4483
소문	4484
짝	4485
헤이	4486
탑승	4487
헤드	4488
명예	4489
열심히	4490
상품	4491
화장	4492
입수	4493
레전드	4494
오프닝	4495
필리	4496
별도	4497
갑옷	4498
경유	4499
심리	4500
시행	4501
파리	4502
경기장	4503
령	4504
단일	4505
##거나	4506
63	4507
##시오	4508
마이크	4509
의회	4510
##렴	4511
1980	4512
변호	4513
통제	4514
마련	4515
라스	4516
늑	4517
랩	4518
##아먹	4519
##카와	4520
공유	4521
댓글	4522
반격	4523
##ong	4524
틱	4525
##AM	4526
ruby	4527
운명	4528
가면라이더	4529
정류	4530
응원	4531
캔	4532
##세우	4533
레오	4534
후쿠	4535
한때	4536
커뮤니티	4537
신청	4538
쓰레	4539
트위터	4540
격파	4541
라이벌	4542
사령관	4543
##ort	4544
김성	4545
그레이	4546
주전	4547
갤	4548
고전	4549
기독교	4550
출판	4551
공기	4552
습득	4553
이승	4554
##웨어	4555
가이	4556
##납	4557
컨트롤	4558
중계	4559
깃	4560
편의	4561
퀄	4562
##ith	4563
하수	4564
수업	4565
심장	4566
##랗	4567
오해	4568
처하	4569
불만	4570
신고	4571
마인	4572
마주	4573
두산	4574
울산	4575
71	4576
##if	4577
74	4578
관객	4579
외국인	4580
##ᆮ히	4581
카나	4582
정말로	4583
보정	4584
푸르	4585
주위	4586
##ly	4587
러브	4588
##fff	4589
건축	4590
##아버지	4591
##나무	4592
##피스	4593
출장	4594
##트ᄅ	4595
....	4596
용어	4597
MV	4598
랜드	4599
##ld	4600
그곳	4601
전달	4602
닿	4603
73	4604
여론	4605
셀	4606
67	4607
메이저	4608
ffffff	4609
민간	4610
사운드	4611
절반	4612
조치	4613
묵	4614
가리키	4615
##티컬	4616
고치	4617
지형	4618
가토	4619
갈등	4620
##딘	4621
여신	4622
##도우	4623
붙잡	4624
임시	4625
무적	4626
##ᆯ릭	4627
##학자	4628
재능	4629
챠	4630
가득	4631
아오	4632
요새	4633
전함	4634
전공	4635
##겨나	4636
둥	4637
압박	4638
NC	4639
##ain	4640
리버	4641
별개	4642
엔터	4643
초월	4644
##ist	4645
96	4646
카라	4647
알렉	4648
쌓이	4649
오로	4650
종점	4651
연구소	4652
네이버	4653
##묵	4654
##쥐	4655
스튜	4656
1994	4657
##ind	4658
안드로	4659
북쪽	4660
전형	4661
추적	4662
팝	4663
메가	4664
TH	4665
그다지	4666
메타	4667
신세	4668
시각	4669
아시	4670
지ᄏ	4671
180	4672
탁	4673
##ᆷ프	4674
컨텐츠	4675
남쪽	4676
##돌리	4677
제하	4678
무르	4679
늑대	4680
보장	4681
발매되	4682
이란	4683
써	4684
AC	4685
돌진	4686
##크리	4687
시야	4688
소멸	4689
##서트	4690
판타지	4691
쉐	4692
81	4693
AT	4694
##팩	4695
결승전	4696
전시	4697
널리	4698
클라	4699
타점	4700
든지	4701
다행히	4702
파이어	4703
곰	4704
일부러	4705
무지	4706
##럿	4707
##따	4708
##per	4709
동기	4710
##더스	4711
불꽃	4712
그만큼	4713
##가와	4714
따오	4715
동네	4716
환자	4717
##듀서	4718
프로듀서	4719
##ps	4720
강원	4721
##지컬	4722
##EN	4723
서부	4724
여동생	4725
문제점	4726
흔하	4727
적히	4728
화려	4729
화이트	4730
##츠키	4731
쓰러뜨리	4732
그림자	4733
께	4734
선호	4735
왕조	4736
동원	4737
이마	4738
폭력	4739
##놈	4740
상향	4741
아티	4742
우스	4743
지켜보	4744
파이널	4745
물러	4746
회원	4747
대만	4748
##깝	4749
뛰어	4750
본명	4751
치명타	4752
유비	4753
유로	4754
북부	4755
맞서	4756
아가	4757
##EC	4758
자는	4759
신라	4760
소드	4761
78	4762
잉ᄀ	4763
클로	4764
##툰	4765
##식간	4766
91	4767
##크로	4768
맘	4769
##OL	4770
##콤	4771
수요	4772
순식간	4773
##어스	4774
연상	4775
무난	4776
##텀	4777
종이	4778
##ew	4779
도서관	4780
##ᅫ지	4781
##ᅥᆷ프	4782
향상	4783
전역	4784
메시	4785
매력	4786
학과	4787
차트	4788
전적	4789
틀리	4790
변형	4791
##캐	4792
엑	4793
최상	4794
헨	4795
전방	4796
부품	4797
##팡	4798
성과	4799
지르	4800
84	4801
CP	4802
체포	4803
영토	4804
일상	4805
수집	4806
크리티컬	4807
암흑	4808
전투력	4809
게이트	4810
##사키	4811
코믹스	4812
테스트	4813
시드	4814
팅	4815
영업	4816
##LC	4817
##ᆷ치	4818
킬	4819
마술	4820
me	4821
인수	4822
아우	4823
토모	4824
##ry	4825
수용	4826
조절	4827
저런	4828
##ᅥᆼ이	4829
파견	4830
플로	4831
드디어	4832
오랜	4833
현지	4834
폭격	4835
복잡	4836
학살	4837
유전	4838
복장	4839
##려움	4840
오빠	4841
82	4842
대우	4843
바라보	4844
떡밥	4845
릭	4846
##lo	4847
입력	4848
구현	4849
편지	4850
##껏	4851
##융	4852
개통	4853
생명력	4854
호환	4855
키리	4856
97	4857
니시	4858
추락	4859
신인	4860
사자	4861
천사	4862
도달	4863
아무런	4864
고향	4865
콜라	4866
동부	4867
닌자	4868
사토	4869
토리	4870
네덜	4871
청년	4872
네덜란드	4873
86	4874
##찾	4875
창작	4876
반지	4877
밴	4878
경비	4879
점차	4880
작동	4881
맞이	4882
콘서트	4883
연관	4884
프레임	4885
교황	4886
##일랜드	4887
한국인	4888
쓰레기	4889
수송	4890
출현	4891
노예	4892
그치	4893
스톤	4894
기초	4895
바이오	4896
낚	4897
덧	4898
짱	4899
모바	4900
추격	4901
해설	4902
아트	4903
it	4904
해체	4905
69	4906
객	4907
##퍼스	4908
다시피	4909
몰래	4910
달하	4911
##어버리	4912
조용	4913
구도	4914
충청	4915
묶	4916
##ᅦᆯ라	4917
의상	4918
심판	4919
엘프	4920
##밀리	4921
간격	4922
공급	4923
녹음	4924
##노스	4925
키스	4926
나루	4927
##ᅳ름	4928
is	4929
주먹	4930
아무것	4931
##모로	4932
##히로	4933
식물	4934
막장	4935
시위	4936
조성	4937
NPC	4938
겟	4939
##ᆷ새	4940
##헤	4941
프리미	4942
전투기	4943
조조	4944
퀸	4945
사쿠라	4946
둘러	4947
##IT	4948
제자	4949
연사	4950
마스	4951
##둥이	4952
돌아다니	4953
수술	4954
무효	4955
썰	4956
스마트	4957
연애	4958
검색	4959
슬롯	4960
실드	4961
만든	4962
##ᆫ트	4963
감시	4964
##타로	4965
스카이	4966
레스	4967
US	4968
그래픽	4969
일제	4970
블록	4971
꼬리	4972
##오프	4973
아이스	4974
법원	4975
동쪽	4976
##특별	4977
찰	4978
마리오	4979
경험치	4980
구체	4981
MS	4982
##ᅦ이터	4983
고교	4984
룬	4985
옛날	4986
놓치	4987
까다	4988
알아	4989
##오카	4990
An	4991
통상	4992
총기	4993
김정	4994
뼈	4995
##보내	4996
범인	4997
룡	4998
구속	4999
긍	5000
베트남	5001
라이더	5002
진지	5003
##ust	5004
마리아	5005
신분	5006
대립	5007
신규	5008
장교	5009
은하	5010
연락	5011
카미	5012
어깨	5013
국립	5014
예외	5015
##주시	5016
쿠키	5017
앵	5018
250	5019
KT	5020
강의	5021
##어도	5022
인근	5023
춘	5024
입구	5025
탱크	5026
##칠	5027
지도자	5028
신성	5029
뷰	5030
다섯	5031
차단	5032
규칙	5033
글자	5034
##50	5035
되찾	5036
불편	5037
대대	5038
##뜩	5039
메카	5040
이랑	5041
디아	5042
마도	5043
평타	5044
창조	5045
요정	5046
언제나	5047
바보	5048
박살	5049
코인	5050
##ᆼ이	5051
안습	5052
총선	5053
유희	5054
모바일	5055
동작	5056
##도로	5057
토론	5058
후기	5059
전라	5060
##비전	5061
##홀	5062
여러모로	5063
환상	5064
189	5065
거짓말	5066
##디아	5067
노출	5068
이리	5069
기여	5070
의료	5071
##파이어	5072
권총	5073
세월	5074
이래	5075
소총	5076
##럴	5077
접하	5078
이득	5079
에드	5080
농구	5081
어택	5082
##즌	5083
##자키	5084
일원	5085
자이언	5086
무료	5087
신호	5088
가시	5089
블레이드	5090
202	5091
서쪽	5092
##영상	5093
이날	5094
1992	5095
##버트	5096
부위	5097
굽	5098
출처	5099
음성	5100
정복	5101
개혁	5102
미술	5103
폭주	5104
극단	5105
잠수	5106
고생	5107
##깔	5108
띄우	5109
92	5110
##옹	5111
헌터	5112
##BO	5113
##ore	5114
##ᅢᆼ이	5115
##저히	5116
간부	5117
겉	5118
Ar	5119
참전	5120
##레나	5121
반발	5122
전직	5123
교전	5124
고용	5125
투어	5126
대체로	5127
양산	5128
일자	5129
보석	5130
고문	5131
폴란드	5132
대량	5133
연도	5134
상점	5135
83	5136
하고	5137
글로	5138
렙	5139
라이프	5140
제법	5141
호평	5142
상상	5143
제어	5144
사마	5145
동영상	5146
길이	5147
수영	5148
마루	5149
정류장	5150
승격	5151
전대	5152
Te	5153
출력	5154
소화	5155
##보드	5156
겐	5157
사양	5158
##ᆸ스	5159
합격	5160
89	5161
기습	5162
잖아	5163
휘두르	5164
터치	5165
##FF	5166
101	5167
93	5168
1993	5169
공학	5170
잉글랜드	5171
반하	5172
지휘관	5173
북미	5174
De	5175
MAX	5176
제작진	5177
태우	5178
기병	5179
윌리	5180
촌	5181
##렘	5182
득표	5183
중대	5184
쟈	5185
94	5186
요괴	5187
합성	5188
미디어	5189
##크스	5190
깎	5191
다이아	5192
머신	5193
환승	5194
인증	5195
##다이	5196
법률	5197
##타인	5198
com	5199
79	5200
끼치	5201
메인	5202
적어도	5203
샘	5204
탄약	5205
브루	5206
조심	5207
가량	5208
박근	5209
런던	5210
##일드	5211
회차	5212
구출	5213
띠	5214
매니	5215
요즘	5216
탱커	5217
##FC	5218
파일럿	5219
의혹	5220
##ᆨ시코	5221
원소	5222
re	5223
활성	5224
동방	5225
유령	5226
포탑	5227
하수인	5228
노멀	5229
삼진	5230
침공	5231
믹	5232
다면서	5233
분기	5234
87	5235
디지털	5236
의무	5237
이재	5238
마이클	5239
##란색	5240
톱	5241
개정	5242
서양	5243
멋지	5244
알파	5245
가톨릭	5246
묘지	5247
인공	5248
가게	5249
홀로	5250
볼넷	5251
훔치	5252
이슬람	5253
똑같이	5254
네임	5255
첨	5256
사이드	5257
가속	5258
결성	5259
##one	5260
실리	5261
예비	5262
단ᄀ	5263
대략	5264
스웨	5265
학자	5266
On	5267
이자	5268
히데	5269
블러	5270
패널	5271
##쩡	5272
경고	5273
레인저	5274
##우드	5275
계정	5276
보고	5277
##폼	5278
##se	5279
축제	5280
리아	5281
##ip	5282
쾌	5283
헌법	5284
전면	5285
이내	5286
아일랜드	5287
##둔	5288
##AC	5289
부부	5290
AI	5291
앱	5292
DJ	5293
특화	5294
##RE	5295
익숙	5296
용사	5297
상호	5298
어지	5299
캐스	5300
나아가	5301
블리	5302
횡	5303
었었	5304
이시	5305
갤럭	5306
##ere	5307
##먼트	5308
문장	5309
그로	5310
바이러스	5311
메모리	5312
도망가	5313
워치	5314
근육	5315
대항	5316
람	5317
불법	5318
넘치	5319
##PG	5320
##닫	5321
어째	5322
BGM	5323
MC	5324
슛	5325
플레이오프	5326
베스트	5327
어둡	5328
오가	5329
SN	5330
자매	5331
유행	5332
묻히	5333
한방	5334
개체	5335
켜	5336
##ity	5337
도발	5338
##리티	5339
냐며	5340
쿠로	5341
타케	5342
어린이	5343
##붕	5344
들어서	5345
##ath	5346
고지	5347
김영	5348
삐	5349
##녁	5350
핫	5351
##창기	5352
보안	5353
핸드	5354
육성	5355
##조리	5356
##넣	5357
예측	5358
빛나	5359
예고	5360
신기	5361
소닉	5362
빗	5363
제임	5364
자금	5365
갤럭시	5366
총리	5367
루시	5368
으니까	5369
겁	5370
일시	5371
##컷	5372
슈트	5373
스크리	5374
검찰	5375
취임	5376
멕시코	5377
형사	5378
FIFA	5379
터키	5380
마냥	5381
정면	5382
결론	5383
사제	5384
길드	5385
##브리	5386
##end	5387
국방	5388
웬만	5389
차리	5390
리스트	5391
대리	5392
스톰	5393
고백	5394
1991	5395
##끄럽	5396
루타	5397
구멍	5398
파크	5399
식사	5400
움직임	5401
불러	5402
마구	5403
아기	5404
리치	5405
세이브	5406
스미	5407
호텔	5408
곧바로	5409
##컴	5410
레이스	5411
상업	5412
앞두	5413
이명	5414
감옥	5415
여유	5416
!!	5417
##펙트	5418
저장	5419
번개	5420
절망	5421
찾아보	5422
개방	5423
제임스	5424
부서	5425
진심	5426
원자	5427
투구	5428
사이즈	5429
구원	5430
대가	5431
유대	5432
볼트	5433
초창기	5434
여지	5435
플랫	5436
세르	5437
THE	5438
700	5439
타마	5440
FA	5441
##고리	5442
피부	5443
너무나	5444
바위	5445
배차	5446
##륜	5447
##워크	5448
##요시	5449
박정	5450
청소년	5451
오랫	5452
팀원	5453
흥행	5454
둔	5455
ㅕㅆ	5456
강철	5457
럭	5458
바치	5459
카타	5460
리ᄆ	5461
콜로	5462
착각	5463
좌우	5464
##특별시	5465
전철	5466
1988	5467
파트너	5468
발달	5469
##티나	5470
세포	5471
리메이크	5472
MVP	5473
소형	5474
아끼	5475
##페인	5476
처벌	5477
그동안	5478
서울특별시	5479
이즈	5480
떠오르	5481
현역	5482
레이드	5483
##구리	5484
신설	5485
긍정	5486
##ᅳ러지	5487
아빠	5488
##쾌	5489
주식	5490
융합	5491
##데스	5492
훗	5493
##네스	5494
주간	5495
망치	5496
외계	5497
##로나	5498
분량	5499
차라리	5500
프라이	5501
정착	5502
Ro	5503
위장	5504
물러나	5505
잦	5506
미카	5507
##OT	5508
인정받	5509
돼지	5510
반사	5511
챕터	5512
합의	5513
##디언	5514
드ᄅ	5515
랭킹	5516
내성	5517
인미	5518
##성기	5519
식민	5520
봇	5521
목격	5522
인연	5523
누적	5524
커지	5525
사우	5526
협박	5527
전문가	5528
내장	5529
장악	5530
단장	5531
게스트	5532
의뢰	5533
화학	5534
빌드	5535
알레	5536
에다	5537
CC	5538
방지	5539
에서부터	5540
포스트	5541
펠	5542
곁	5543
섞	5544
브레이크	5545
잡지	5546
박근혜	5547
Wh	5548
대지	5549
해병	5550
영향력	5551
공지	5552
크라	5553
논리	5554
방출	5555
안드로이드	5556
동의	5557
태그	5558
국왕	5559
방사	5560
는다면	5561
AK	5562
##삭	5563
시즈	5564
깨지	5565
타이거	5566
먹히	5567
조약	5568
뭉	5569
각자	5570
그대	5571
꺾	5572
몰아	5573
떠올리	5574
요코	5575
배트	5576
한번	5577
룸	5578
괴롭히	5579
관할	5580
저녁	5581
펴	5582
지능	5583
##ect	5584
멍	5585
DLC	5586
골든	5587
야스	5588
하필	5589
국군	5590
칭하	5591
htt	5592
라면서	5593
대폭	5594
Se	5595
1970	5596
흠	5597
의존	5598
최소한	5599
양쪽	5600
놀이	5601
아크	5602
으려고	5603
호주	5604
손가락	5605
토르	5606
Le	5607
악역	5608
마침내	5609
스프리	5610
스턴	5611
스리	5612
동화	5613
연맹	5614
과목	5615
변호사	5616
실버	5617
공무원	5618
유치	5619
'.	5620
이지	5621
후속작	5622
막차	5623
기구	5624
수련	5625
수수	5626
본작	5627
그럼	5628
무역	5629
소지	5630
섞이	5631
He	5632
면역	5633
소원	5634
보관	5635
오랫동안	5636
무덤	5637
PD	5638
빡	5639
샌	5640
##톱	5641
##age	5642
오사카	5643
웹툰	5644
주말	5645
역임	5646
##IS	5647
귀신	5648
육체	5649
연인	5650
기원전	5651
al	5652
혐의	5653
해리	5654
스튜디오	5655
썩	5656
내구	5657
명중률	5658
확대	5659
재산	5660
카오스	5661
접촉	5662
호감	5663
어쨌	5664
불교	5665
노부	5666
다가오	5667
적대	5668
kt	5669
##구치	5670
##잡이	5671
대처	5672
깜	5673
네트	5674
명성	5675
플라이	5676
써먹	5677
강남	5678
태평	5679
익스	5680
계단	5681
올해	5682
전후	5683
비행기	5684
Go	5685
연료	5686
예능	5687
정비	5688
Me	5689
오카	5690
출마	5691
통치	5692
씌	5693
간혹	5694
슈팅	5695
딘	5696
테일	5697
윌	5698
팔리	5699
오늘날	5700
합체	5701
트레이드	5702
화제	5703
##트리아	5704
컬러	5705
모모	5706
예쁘	5707
정치인	5708
마키	5709
부장	5710
정원	5711
섀	5712
칼리	5713
퀄리티	5714
흐름	5715
개성	5716
츄	5717
ᆫ다며	5718
소장	5719
로즈	5720
리드	5721
시마	5722
안내	5723
놀랍	5724
학부	5725
오전	5726
게시판	5727
뺏	5728
GT	5729
놓이	5730
준수	5731
휴대	5732
접속	5733
저그	5734
더라	5735
수익	5736
권리	5737
1989	5738
떨어	5739
KIA	5740
권한	5741
빚	5742
특집	5743
패하	5744
연극	5745
##og	5746
외형	5747
금융	5748
##ake	5749
##ide	5750
##어나오	5751
박물	5752
하우스	5753
험	5754
선전	5755
허리	5756
김태	5757
새벽	5758
##오르	5759
고마	5760
상당수	5761
윌리엄	5762
톰	5763
##OM	5764
Be	5765
피격	5766
이집	5767
My	5768
초간	5769
주기	5770
카스	5771
이집트	5772
WW	5773
무렵	5774
따라가	5775
공공	5776
##미야	5777
뻐	5778
##흡	5779
누나	5780
담기	5781
굴리	5782
환영	5783
편곡	5784
페이즈	5785
일기	5786
130	5787
최다	5788
둘째	5789
시계	5790
금속	5791
포르투	5792
갇히	5793
꼽히	5794
소스	5795
알아보	5796
##려주	5797
나치	5798
넉	5799
AR	5800
메르	5801
##ss	5802
고구	5803
원칙	5804
킨	5805
##바라	5806
##윈	5807
결합	5808
SC	5809
##ark	5810
림	5811
##ime	5812
숭	5813
깨닫	5814
연타	5815
##ire	5816
알렉산	5817
할아버지	5818
치우	5819
SM	5820
편입	5821
식당	5822
리얼	5823
유물	5824
개입	5825
한동안	5826
문재	5827
캠퍼스	5828
기도	5829
인조	5830
매직	5831
어른	5832
뜬	5833
렛	5834
##세스	5835
웅	5836
주사	5837
거인	5838
188	5839
전신	5840
으러	5841
소중	5842
아니면	5843
극복	5844
wh	5845
116	5846
블로그	5847
시선	5848
성립	5849
영문	5850
바리	5851
##칼	5852
##듭	5853
my	5854
Su	5855
딩	5856
##ES	5857
정찰	5858
사도	5859
은근히	5860
회상	5861
헤비	5862
정글	5863
기사단	5864
##스턴	5865
SD	5866
협상	5867
ㅓ도	5868
아바	5869
캐스팅	5870
메뉴	5871
궤도	5872
흘	5873
뜯	5874
스웨덴	5875
지진	5876
##ID	5877
##그마	5878
시내버스	5879
##셰	5880
팬덤	5881
Tr	5882
음원	5883
부디	5884
유이	5885
는지라	5886
대개	5887
작곡가	5888
손해	5889
데모	5890
##ite	5891
##던가	5892
익히	5893
대충	5894
구나	5895
튀어나오	5896
독특	5897
재단	5898
수십	5899
동굴	5900
브레	5901
전진	5902
트레	5903
##다랗	5904
우위	5905
더더	5906
별다르	5907
안티	5908
복무	5909
##아시아	5910
무겁	5911
보라	5912
고수	5913
민주주의	5914
용기	5915
우라	5916
식량	5917
##부르크	5918
털리	5919
트럭	5920
160	5921
뱅	5922
젤	5923
교차	5924
종목	5925
이익	5926
해안	5927
##회사	5928
처형	5929
##ound	5930
##맨드	5931
조언	5932
일찍	5933
멀쩡	5934
SR	5935
클래식	5936
과제	5937
리듬	5938
이끄	5939
세이버	5940
드레	5941
위상	5942
##iv	5943
원본	5944
더더욱	5945
##ᆺ지	5946
HD	5947
''	5948
##가스	5949
커맨드	5950
펀치	5951
신비	5952
빼앗기	5953
##베르	5954
타인	5955
박물관	5956
까다롭	5957
##미니	5958
힙	5959
신부	5960
##가미	5961
##iz	5962
##OP	5963
삼국지	5964
##쳐지	5965
훗날	5966
##ge	5967
##마디	5968
증언	5969
해적	5970
머무	5971
천재	5972
멘탈	5973
날짜	5974
허나	5975
절대로	5976
적군	5977
##가리	5978
IC	5979
자국	5980
마비	5981
꽂	5982
일격	5983
살아가	5984
신앙	5985
위원장	5986
구사	5987
##OW	5988
갈수록	5989
노인	5990
재미있	5991
각본	5992
무릎	5993
코우	5994
중독	5995
하얗	5996
느라	5997
##큐어	5998
##가시	5999
기적	6000
재정	6001
죄다	6002
세종	6003
주포	6004
집행	6005
양성	6006
슬로	6007
스승	6008
철학	6009
하락	6010
참석	6011
마이너	6012
지위	6013
##바르	6014
고리	6015
캠페인	6016
과연	6017
비례	6018
정수	6019
호수	6020
예산	6021
결코	6022
모자라	6023
국적	6024
적응	6025
패션	6026
호위	6027
교류	6028
관중	6029
크리스마스	6030
작화	6031
##렛	6032
한참	6033
탄창	6034
깡	6035
매체	6036
##팀	6037
이중	6038
##덩이	6039
##LL	6040
열쇠	6041
안경	6042
히메	6043
##ome	6044
활발	6045
시아	6046
데이비	6047
경기력	6048
Gr	6049
##갛	6050
##쩍	6051
펫	6052
내세우	6053
원주	6054
어다	6055
선출	6056
투명	6057
십자	6058
툴	6059
##테르	6060
해상	6061
바퀴	6062
with	6063
냥	6064
우연히	6065
김종	6066
루수	6067
체크	6068
##BA	6069
희귀	6070
명단	6071
비추	6072
녹색	6073
##프레	6074
##UN	6075
충성	6076
구리	6077
화성	6078
##리그	6079
진보	6080
곽	6081
미안	6082
스타크래프트	6083
으라	6084
왈	6085
피스	6086
##ᆫ교	6087
데려오	6088
##슬리	6089
새기	6090
이영	6091
칭찬	6092
개수	6093
사막	6094
개막	6095
첫차	6096
주일	6097
##리스트	6098
##플레이	6099
##아웃	6100
결말	6101
IS	6102
위대	6103
행적	6104
헝	6105
전성기	6106
##몬드	6107
미츠	6108
모래	6109
렉	6110
제정	6111
의대	6112
당일	6113
기르	6114
인지도	6115
흔적	6116
1987	6117
상급	6118
기종	6119
챌린	6120
흔들리	6121
후방	6122
업적	6123
오스트리아	6124
de	6125
미터	6126
강점	6127
BE	6128
px	6129
임대	6130
상성	6131
140	6132
##ᆫ군	6133
##스키	6134
농담	6135
어지간	6136
김동	6137
포로	6138
웃음	6139
##ᆫ지	6140
사유	6141
계통	6142
##핵	6143
대수	6144
켈	6145
##블리	6146
도우	6147
##MA	6148
Pr	6149
버스터	6150
재현	6151
대학원	6152
취미	6153
면적	6154
무작	6155
매년	6156
##ord	6157
스프링	6158
어쨌든	6159
Love	6160
비상	6161
오직	6162
토끼	6163
어려움	6164
체육관	6165
클릭	6166
안ᄀ	6167
##려나	6168
울리	6169
심사	6170
##ud	6171
일반인	6172
포항	6173
##스라	6174
고스트	6175
피니	6176
펑	6177
개량	6178
사후	6179
신장	6180
거점	6181
프리큐어	6182
세인	6183
첼	6184
생존자	6185
유적	6186
이정	6187
##값	6188
남북	6189
어마	6190
강도	6191
헛	6192
기아	6193
자책	6194
과장	6195
새끼	6196
ch	6197
본체	6198
으시	6199
모조리	6200
##양함	6201
자본	6202
자극	6203
괴수	6204
예수	6205
이주	6206
##코드	6207
부지	6208
닥	6209
가을	6210
##mp	6211
사라	6212
##케이	6213
파츠	6214
##사자	6215
화물	6216
##데미	6217
스탠	6218
##10	6219
로우	6220
부작	6221
저작	6222
전멸	6223
##일러	6224
돋	6225
##ame	6226
맥스	6227
기용	6228
소위	6229
UE	6230
선고	6231
##멜	6232
##ance	6233
아메리카	6234
캡틴	6235
시달리	6236
연금	6237
추구	6238
기울	6239
아티스트	6240
SKT	6241
##ax	6242
##카드	6243
클레	6244
미라	6245
인격	6246
흥미	6247
자세히	6248
an	6249
##치기	6250
가짜	6251
출입	6252
행하	6253
##ᆼ기	6254
판매량	6255
JR	6256
공세	6257
##ure	6258
아카데미	6259
뮈	6260
유나이	6261
유니폼	6262
꽈	6263
불타	6264
##ix	6265
기ᄈ	6266
900	6267
일치	6268
차기	6269
GS	6270
승점	6271
채택	6272
포격	6273
##뜻	6274
공룡	6275
일방	6276
단편	6277
유나이티	6278
취향	6279
아미	6280
##ick	6281
소송	6282
##mer	6283
스마트폰	6284
도주	6285
포드	6286
덧붙이	6287
탈퇴	6288
코코	6289
부자	6290
일본인	6291
##ice	6292
막대	6293
사형	6294
무라	6295
연패	6296
##지로	6297
할머니	6298
기량	6299
색깔	6300
타율	6301
칩	6302
피아노	6303
##깥	6304
바깥	6305
로고	6306
귀찮	6307
##our	6308
제작자	6309
로그	6310
잘리	6311
한마디	6312
Bo	6313
유통	6314
건조	6315
코리아	6316
상실	6317
타선	6318
화장실	6319
드라이브	6320
구경	6321
후계	6322
생겨나	6323
영구	6324
치유	6325
아즈	6326
##이즈	6327
집어	6328
라이온	6329
몽골	6330
측정	6331
EP	6332
닭	6333
노벨	6334
##나미	6335
식민지	6336
내지	6337
비주	6338
##아다니	6339
미루	6340
요금	6341
햄	6342
##시로	6343
##맛	6344
자전	6345
보존	6346
1986	6347
거듭	6348
##시타	6349
날아오	6350
다름	6351
선택지	6352
##룩	6353
쌍둥이	6354
인민공	6355
초코	6356
잠재	6357
1960	6358
아이콘	6359
가요	6360
OST	6361
상인	6362
무방	6363
커피	6364
레디	6365
찢	6366
빨갛	6367
##켄	6368
쵸	6369
훼	6370
강요	6371
##코토	6372
레이더	6373
메시지	6374
인민공화국	6375
KO	6376
##{{	6377
Un	6378
간신	6379
언스	6380
초보	6381
##고속	6382
이슈	6383
통산	6384
사신	6385
팽	6386
동력	6387
가상	6388
고도	6389
박히	6390
릴	6391
Ex	6392
포수	6393
어드	6394
가루	6395
김민	6396
##티아	6397
신사	6398
도끼	6399
##얄	6400
넥센	6401
조연	6402
색상	6403
등지	6404
피터	6405
다치	6406
##AD	6407
캐논	6408
명확	6409
오타	6410
##듈	6411
몰락	6412
연승	6413
##qu	6414
주택	6415
화재	6416
사원	6417
여객	6418
##멘트	6419
루카	6420
교장	6421
네트워크	6422
주소	6423
조이	6424
타락	6425
곡명	6426
귀환	6427
##스트레이	6428
##oc	6429
어스	6430
베네	6431
냄새	6432
안타깝	6433
{{{	6434
외전	6435
즐겁	6436
콜라보	6437
구르	6438
##반도	6439
유희왕	6440
모토	6441
나포	6442
터뜨리	6443
제갈	6444
실망	6445
판결	6446
##80	6447
이브	6448
소라	6449
##시스트	6450
남녀	6451
칭호	6452
##카리	6453
GB	6454
대선	6455
찾아내	6456
담배	6457
경로	6458
##ᆫ색	6459
수장	6460
둘러싸	6461
##러지	6462
UEFA	6463
마린	6464
##스틱	6465
항공기	6466
펄	6467
이터	6468
스페이스	6469
광역시	6470
핏	6471
위반	6472
레알	6473
깔끔	6474
매니저	6475
비치	6476
포르투갈	6477
DS	6478
고구려	6479
타수	6480
연합군	6481
186	6482
##own	6483
그레	6484
sh	6485
이민	6486
##ys	6487
반동	6488
아마도	6489
##그리	6490
라인업	6491
CPU	6492
##노우	6493
혐오	6494
##나카	6495
브라이	6496
교실	6497
스터	6498
영주	6499
##플레	6500
그만두	6501
항복	6502
법인	6503
백성	6504
##든가	6505
너희	6506
관찰	6507
오라	6508
복지	6509
뿔	6510
타운	6511
잠수함	6512
##ber	6513
미스터	6514
단단	6515
비서	6516
주역	6517
주자	6518
적합	6519
캠프	6520
벼	6521
배터리	6522
쟁	6523
스와	6524
낚시	6525
매장	6526
수류	6527
시노	6528
거미	6529
We	6530
관람	6531
붓	6532
##ᅳ란	6533
AM	6534
릿	6535
커다랗	6536
예시	6537
유효	6538
강원도	6539
##렁	6540
커리어	6541
드래프트	6542
##괄	6543
순환	6544
데드	6545
흘러	6546
히어로즈	6547
##저스	6548
105	6549
끊기	6550
벌레	6551
공성	6552
공업	6553
##av	6554
아쿠	6555
##OC	6556
트라이	6557
흑인	6558
하단	6559
인치	6560
유학	6561
##쌍	6562
이스라	6563
읍	6564
##데이	6565
승객	6566
고개	6567
##old	6568
예언	6569
용량	6570
##정부	6571
김재	6572
동성	6573
.."	6574
고작	6575
본사	6576
##땅	6577
상단	6578
##큰	6579
승률	6580
국경	6581
##일보	6582
##지마	6583
추억	6584
소프트웨어	6585
CF	6586
면모	6587
천만	6588
마약	6589
엿	6590
포위	6591
튕기	6592
휴식	6593
서구	6594
티켓	6595
꾸미	6596
관측	6597
LI	6598
철수	6599
수출	6600
일대	6601
플리	6602
그러니까	6603
첩	6604
##긋	6605
##orld	6606
##랑이	6607
플레	6608
도적	6609
곤란	6610
중립	6611
자폭	6612
카운트	6613
생략	6614
개국	6615
표지	6616
적당히	6617
##섬	6618
수류탄	6619
인디	6620
립	6621
터널	6622
상술	6623
##곱	6624
턱	6625
변환	6626
음모	6627
조별	6628
클랜	6629
마드리	6630
기생	6631
좌석	6632
허가	6633
합병	6634
다름없	6635
블라	6636
베리	6637
##ᆫ결	6638
추종	6639
##위대	6640
형상	6641
윗	6642
고맙	6643
소대	6644
대인	6645
곱	6646
사이버	6647
실전	6648
##늬	6649
##김	6650
치루	6651
정기	6652
후술	6653
아랍	6654
문구	6655
김대	6656
내전	6657
마드리드	6658
통계	6659
1984	6660
디스크	6661
더럽	6662
보험	6663
발리	6664
인종	6665
차이점	6666
메달	6667
마디	6668
##머스	6669
프린	6670
##ont	6671
1985	6672
글로벌	6673
연예인	6674
근본	6675
최신	6676
복구	6677
##려들	6678
지경	6679
언더	6680
액티브	6681
웬	6682
입지	6683
사명	6684
타로	6685
187	6686
서포터	6687
증오	6688
SH	6689
지뢰	6690
후손	6691
함수	6692
이스라엘	6693
스트라이크	6694
후배	6695
용서	6696
아시안	6697
에르	6698
구석	6699
성남	6700
오크	6701
3000	6702
똥	6703
사정거리	6704
위성	6705
일족	6706
시너지	6707
꼽	6708
크리스탈	6709
오마	6710
떨어뜨리	6711
AD	6712
##ies	6713
허락	6714
LC	6715
기숙	6716
고위	6717
더러	6718
스틸	6719
DF	6720
급격	6721
자막	6722
그랜드	6723
즉위	6724
모노	6725
끈	6726
휩	6727
리타	6728
숙련	6729
논의	6730
하차	6731
전주	6732
부각	6733
텔레비전	6734
공방	6735
lo	6736
KBO	6737
행보	6738
어뢰	6739
미묘	6740
경주	6741
굿	6742
이수	6743
토벌	6744
들키	6745
쓸모	6746
모니	6747
감각	6748
##죠	6749
발행	6750
해피	6751
데려가	6752
네요	6753
##타이	6754
언덕	6755
서식	6756
It	6757
왕위	6758
##lay	6759
연령	6760
특전	6761
얀	6762
XX	6763
준우	6764
중첩	6765
태평양	6766
부딪	6767
뻗	6768
취약	6769
가만	6770
뜬금	6771
구글	6772
후원	6773
게리	6774
오랜만	6775
제약	6776
쿼터	6777
블러드	6778
루나	6779
##어마	6780
아츠	6781
노동자	6782
##ᆯ드	6783
무척	6784
정화	6785
침략	6786
저렴	6787
간신히	6788
##자드	6789
총알	6790
기관총	6791
##OD	6792
침입	6793
##하면	6794
눈치채	6795
##쓸	6796
세븐	6797
MF	6798
루비	6799
간접	6800
일본군	6801
생년	6802
파르	6803
##US	6804
아르헨	6805
방어구	6806
히나	6807
워커	6808
흡혈	6809
분쟁	6810
씹	6811
법정	6812
입대	6813
알아내	6814
제트	6815
헬기	6816
학습	6817
혹시	6818
##겐	6819
균형	6820
전이	6821
드럼	6822
놀리	6823
맛있	6824
가동	6825
찍히	6826
아테	6827
CV	6828
##말리	6829
사귀	6830
이스	6831
진압	6832
강자	6833
다지	6834
카카	6835
산하	6836
WWE	6837
.....	6838
##PM	6839
아르헨티나	6840
##ann	6841
잡아먹	6842
곳곳	6843
찬스	6844
공용	6845
텍스트	6846
소방	6847
평생	6848
양자	6849
머무르	6850
여우	6851
##넬	6852
분열	6853
네오	6854
NE	6855
아이언	6856
SE	6857
어마어마	6858
주차	6859
트랜스	6860
모시	6861
드롭	6862
자이언츠	6863
크ᄅ	6864
##40	6865
관점	6866
중세	6867
구슬	6868
신전	6869
동인	6870
약화	6871
악당	6872
금방	6873
정차	6874
아포	6875
나리	6876
125	6877
##pe	6878
##첨	6879
깨어나	6880
저러	6881
이토	6882
잡아내	6883
거울	6884
##30	6885
##뚱	6886
포트	6887
애정	6888
부적	6889
지리	6890
페널	6891
결심	6892
경상북도	6893
딜링	6894
반전	6895
제작사	6896
격추	6897
옳	6898
내보내	6899
제출	6900
상기	6901
##네임	6902
성당	6903
앨리스	6904
##sh	6905
크레	6906
라기	6907
연고	6908
보호막	6909
your	6910
이혼	6911
되돌리	6912
통화	6913
크림	6914
스팀	6915
노스	6916
가라	6917
토너	6918
##NA	6919
호흡	6920
표면	6921
폐쇄	6922
코르	6923
##배우	6924
뎀	6925
사령부	6926
아저	6927
금액	6928
##블린	6929
인민	6930
결전	6931
구축함	6932
엘리트	6933
아저씨	6934
간주	6935
##마크	6936
히토	6937
악화	6938
저택	6939
보완	6940
뮤지컬	6941
##픔	6942
미즈	6943
창원	6944
구름	6945
이식	6946
리온	6947
##크라	6948
인권	6949
얻어	6950
스캐	6951
지라	6952
뽑히	6953
충실	6954
##VD	6955
채팅	6956
스크린	6957
헤어지	6958
썬	6959
불사	6960
CJ	6961
김현	6962
선거구	6963
착하	6964
멜로	6965
AS	6966
용인	6967
상관없	6968
##츄	6969
더군	6970
##눈	6971
참모	6972
전파	6973
초록	6974
열매	6975
갈라	6976
주둔	6977
##라이트	6978
지불	6979
DE	6980
인용	6981
하루카	6982
유력	6983
##은행	6984
암시	6985
대왕	6986
천안	6987
##ᆯ라이	6988
##ng	6989
프란	6990
##io	6991
긴장	6992
정예	6993
##키아	6994
교과	6995
분해	6996
물리치	6997
##올리	6998
##천시	6999
묘하	7000
해치	7001
흩	7002
빠져	7003
토니	7004
딴	7005
동양	7006
유발	7007
문재인	7008
서서	7009
보건	7010
존재감	7011
헨리	7012
성별	7013
공정	7014
##뛰	7015
우에	7016
##셋	7017
경남	7018
체결	7019
릴리	7020
로리	7021
시인	7022
남아	7023
배포	7024
학력	7025
상세	7026
소유자	7027
낮추	7028
##ᆫ가	7029
엮이	7030
수석	7031
커플	7032
후계자	7033
;&	7034
악기	7035
끔	7036
언젠가	7037
답변	7038
드라이버	7039
마주치	7040
걸어	7041
짜증	7042
상영	7043
시라	7044
##oo	7045
토너먼트	7046
에요	7047
원리	7048
수호자	7049
안기	7050
재밌	7051
도둑	7052
전승	7053
로이	7054
엑스트라	7055
악명	7056
행운	7057
호기	7058
개설	7059
로버트	7060
170	7061
이듬	7062
##뜨	7063
도박	7064
Pro	7065
리오	7066
구미	7067
본관	7068
천하	7069
뜨겁	7070
업로드	7071
잔뜩	7072
미쿠	7073
기인	7074
선두	7075
견디	7076
기숙사	7077
##틱	7078
##싱턴	7079
##월일	7080
##ave	7081
씬	7082
뱀파이어	7083
양식	7084
실종	7085
쏟아지	7086
교도	7087
중량	7088
에다가	7089
지팡	7090
##포트	7091
요인	7092
테라	7093
백인	7094
##걸이	7095
쭉	7096
탐험	7097
##LE	7098
정황	7099
부임	7100
임신	7101
난입	7102
중력	7103
아동	7104
처분	7105
대책	7106
임금	7107
동점	7108
##스럽	7109
비아	7110
LV	7111
관리자	7112
캐스터	7113
미키	7114
디지몬	7115
큐브	7116
심심	7117
##번트	7118
건드리	7119
만남	7120
방송국	7121
that	7122
논문	7123
야생	7124
칼날	7125
UP	7126
항의	7127
관계자	7128
생년월일	7129
해명	7130
백작	7131
시카	7132
유독	7133
탄환	7134
분명히	7135
##센트	7136
베타	7137
##우마	7138
호칭	7139
##슬링	7140
복합	7141
##베이	7142
도루	7143
서번트	7144
카와	7145
닫	7146
금메달	7147
말투	7148
윈도우	7149
##ION	7150
동명	7151
은신	7152
생명체	7153
조리	7154
진주	7155
문단	7156
자녀	7157
##ream	7158
와일드	7159
할인	7160
법칙	7161
수백	7162
가방	7163
패키	7164
##엣	7165
다이아몬드	7166
려던	7167
발렌	7168
ED	7169
1500	7170
여야	7171
단축	7172
뿜	7173
절차	7174
모데	7175
정통	7176
잃어버리	7177
EN	7178
해골	7179
분신	7180
외계인	7181
무관	7182
영광	7183
기상	7184
루이스	7185
운동장	7186
하향	7187
지치	7188
온도	7189
시합	7190
라틴	7191
이듬해	7192
주술	7193
닛	7194
분대	7195
인력	7196
프로필	7197
리뷰	7198
##ond	7199
##릿	7200
창고	7201
1982	7202
##스틴	7203
->	7204
##드레	7205
딜레이	7206
부스터	7207
##펴보	7208
살펴보	7209
이온	7210
##갈리	7211
끔찍	7212
##어하	7213
광장	7214
로얄	7215
기름	7216
플래시	7217
그르	7218
도라	7219
미네	7220
##팩트	7221
##iss	7222
Com	7223
5000	7224
왠지	7225
막내	7226
사살	7227
부ᄃ	7228
의학	7229
기둥	7230
헐	7231
장시	7232
창설	7233
뛰어넘	7234
보드	7235
전동	7236
니스	7237
레지	7238
건국	7239
성질	7240
전북	7241
밍	7242
셜	7243
##메이	7244
한쪽	7245
유인	7246
공허	7247
체험	7248
레딧	7249
장인	7250
부사	7251
퇴장	7252
그렇지만	7253
물고기	7254
유격	7255
존경	7256
집착	7257
민첩	7258
커녕	7259
##태우	7260
두르	7261
울프	7262
우정	7263
##운서	7264
삽입	7265
디젤	7266
##탐	7267
아나운서	7268
걸맞	7269
상식	7270
##에르	7271
참가자	7272
아키라	7273
승자	7274
1950	7275
##즐	7276
공산당	7277
##카이	7278
##IP	7279
##ᅳᆯ란	7280
##11	7281
깔리	7282
창단	7283
요약	7284
휘말리	7285
시상	7286
감지	7287
시원	7288
작년	7289
진학	7290
시공	7291
모터	7292
솜	7293
조기	7294
증상	7295
그램	7296
전제	7297
마블	7298
독재	7299
수면	7300
감추	7301
##다나	7302
1983	7303
하츠	7304
애플	7305
의장	7306
불펜	7307
##60	7308
학기	7309
출구	7310
##ian	7311
복제	7312
??	7313
by	7314
그린	7315
##비치	7316
##소녀	7317
부드럽	7318
오디션	7319
##도르	7320
he	7321
싫어하	7322
나츠	7323
웨스트	7324
샌드	7325
우르	7326
유산	7327
께서	7328
힐러	7329
비전	7330
덩치	7331
##커스	7332
##이어	7333
철저	7334
선제	7335
헤어	7336
발굴	7337
가공	7338
BL	7339
하이퍼	7340
단원	7341
투스	7342
스위스	7343
유전자	7344
##ᆺ갈리	7345
스폰	7346
&#	7347
반박	7348
##유럽	7349
go	7350
그럭	7351
엔젤	7352
트럼프	7353
맷	7354
여주	7355
항구	7356
탕	7357
타석	7358
리스크	7359
미만	7360
##세대	7361
돌입	7362
##저럭	7363
웃기	7364
안녕	7365
갑작	7366
코트	7367
중형	7368
스쿨	7369
사인	7370
콘텐츠	7371
##티스	7372
스위치	7373
펼쳐지	7374
꼼	7375
비주얼	7376
꿀	7377
다카	7378
그럭저럭	7379
싹	7380
사법	7381
주니어	7382
##쟁이	7383
노바	7384
##팬	7385
기운	7386
##Hz	7387
슬래	7388
통로	7389
##베스	7390
준우승	7391
배정	7392
##TV	7393
돔	7394
수명	7395
##던지	7396
마스크	7397
사용자	7398
대거	7399
어필	7400
이드	7401
출격	7402
휘하	7403
기재	7404
라니	7405
상륙	7406
라이플	7407
##게임	7408
논쟁	7409
웨이브	7410
럼	7411
눕	7412
나마	7413
정교	7414
이펙트	7415
본진	7416
단행	7417
대조	7418
자전거	7419
앗	7420
가죽	7421
##투스	7422
배트맨	7423
보충	7424
토마	7425
팟	7426
##ory	7427
딕	7428
신도	7429
깨달	7430
트루	7431
처지	7432
훈장	7433
호소	7434
##TE	7435
##우리	7436
시리아	7437
회담	7438
식품	7439
스트레스	7440
격차	7441
속이	7442
국장	7443
축복	7444
빅토	7445
인질	7446
백제	7447
##ace	7448
##rom	7449
코미디	7450
Co	7451
##올	7452
##늄	7453
##세서	7454
실책	7455
##틀러	7456
폴리	7457
근대	7458
완결	7459
위안	7460
Bl	7461
옹호	7462
학문	7463
파편	7464
##카이도	7465
태국	7466
케인	7467
평양	7468
지사	7469
공화	7470
히라	7471
유기	7472
싸이	7473
마우스	7474
##레이터	7475
;&#	7476
경전	7477
공립	7478
##누스	7479
갈아	7480
워싱턴	7481
팬텀	7482
오키	7483
트리플	7484
부근	7485
적중	7486
DVD	7487
##필더	7488
##필드	7489
승인	7490
미드필더	7491
Br	7492
원문	7493
토지	7494
침묵	7495
소음	7496
피우	7497
마케	7498
메이드	7499
##부로	7500
소요	7501
기갑	7502
기동성	7503
##끈	7504
경직	7505
플래그	7506
Or	7507
##무시	7508
중국어	7509
세부	7510
##뚝	7511
##oth	7512
두들	7513
와타	7514
근거리	7515
뱅크	7516
치킨	7517
축하	7518
배출	7519
##ows	7520
내각	7521
막판	7522
결투	7523
경상남도	7524
신나	7525
보이스	7526
##산시	7527
복선	7528
오염	7529
솔직	7530
파동	7531
방위	7532
##MP	7533
연습생	7534
마감	7535
부실	7536
동계	7537
남매	7538
리카	7539
수능	7540
디즈	7541
내일	7542
삼각	7543
루스	7544
간단히	7545
##ᅲᆷ	7546
오니	7547
차체	7548
과학자	7549
급하	7550
후퇴	7551
동급	7552
튼	7553
기후	7554
##잠	7555
고객	7556
임기	7557
날카	7558
##TS	7559
철거	7560
줍	7561
밀어	7562
센스	7563
넘버	7564
##빵	7565
슬라이	7566
우세	7567
##먼스	7568
헝가리	7569
무작위	7570
수급	7571
망가지	7572
왜곡	7573
무인	7574
상담	7575
학위	7576
손상	7577
롬	7578
카를	7579
##화점	7580
국정	7581
노조	7582
한반도	7583
괜히	7584
지향	7585
규격	7586
스케	7587
영지	7588
##IG	7589
장거리	7590
바쁘	7591
##든지	7592
##ᆫ들	7593
야수	7594
안개	7595
##셔널	7596
램	7597
CG	7598
약탈	7599
이글	7600
마법소녀	7601
일당	7602
##다보	7603
중시	7604
기세	7605
하마	7606
질리	7607
##주교	7608
무사히	7609
##그나	7610
##aw	7611
##스리	7612
끼우	7613
선행	7614
185	7615
##하마	7616
토크	7617
라라	7618
요한	7619
유성	7620
날카롭	7621
##텐도	7622
닌텐도	7623
패키지	7624
##그라	7625
##에이	7626
최상위	7627
##딱	7628
멜로디	7629
장탄	7630
킬러	7631
싱크	7632
과도	7633
시신	7634
콰	7635
##포르	7636
미나미	7637
##경기	7638
야구장	7639
##몸	7640
간간	7641
신발	7642
대포	7643
세인트	7644
양상	7645
##ᆻ다	7646
록맨	7647
성전	7648
##ale	7649
SNS	7650
출루	7651
즈음	7652
카츠	7653
프리미엄	7654
지칭	7655
외과	7656
타쿠	7657
그날	7658
골키	7659
변수	7660
개발자	7661
##아키	7662
PV	7663
스트리트	7664
주류	7665
##ike	7666
대치	7667
독일군	7668
개별	7669
뭉치	7670
페이스북	7671
후자	7672
##하시	7673
무산	7674
특별히	7675
더군다나	7676
여러분	7677
영원히	7678
임팩트	7679
장사	7680
사키	7681
##밋	7682
전망	7683
초인	7684
1945	7685
##틀랜드	7686
입주	7687
Cl	7688
챌린지	7689
물체	7690
집권	7691
##아이	7692
벙	7693
##겹	7694
업계	7695
바디	7696
농업	7697
모로	7698
For	7699
무시무시	7700
군수	7701
부착	7702
원조	7703
흰색	7704
데이비드	7705
동남	7706
##야수	7707
암살자	7708
첼시	7709
매번	7710
RPG	7711
나미	7712
틸	7713
왜냐	7714
청주	7715
만주	7716
계시	7717
##OU	7718
중복	7719
브라운	7720
시비	7721
##자와	7722
Dr	7723
질병	7724
오이	7725
손실	7726
야마토	7727
최적	7728
악몽	7729
##바닥	7730
서서히	7731
필리핀	7732
##ep	7733
선조	7734
취득	7735
##irl	7736
##man	7737
피트	7738
##우치	7739
폭행	7740
핑크	7741
동아리	7742
##ach	7743
##ile	7744
175	7745
동경	7746
수비력	7747
리프	7748
1981	7749
슬프	7750
Sc	7751
인방	7752
BB	7753
호랑이	7754
##여객	7755
골키퍼	7756
OP	7757
부동	7758
해양	7759
올스타	7760
서클	7761
어이	7762
여인	7763
구별	7764
102	7765
##공항	7766
잠입	7767
사리	7768
헤르	7769
117	7770
지팡이	7771
##ᆯ레스	7772
꿰	7773
나르	7774
이와	7775
고장	7776
진격	7777
인피	7778
파생	7779
##12	7780
Team	7781
106	7782
며칠	7783
배역	7784
끌려가	7785
잎	7786
교토	7787
룩	7788
##VA	7789
LA	7790
몫	7791
해킹	7792
물량	7793
##철도	7794
##ink	7795
플러스	7796
Sk	7797
선임	7798
일람	7799
제독	7800
상한	7801
리라	7802
델	7803
퍼포	7804
의외로	7805
사회주의	7806
굵	7807
##둘	7808
Mo	7809
체인지	7810
퍼포먼스	7811
ᆯ게	7812
감싸	7813
페널티	7814
직장	7815
GP	7816
합계	7817
권위	7818
중장	7819
가만히	7820
국당	7821
기호	7822
##데드	7823
레코드	7824
공수	7825
청와	7826
DD	7827
마물	7828
틴	7829
무술	7830
ᄇ시오	7831
115	7832
댄	7833
응용	7834
##어놓	7835
메이커	7836
김경	7837
해내	7838
세팅	7839
사립	7840
캐릭	7841
데이트	7842
코난	7843
팡	7844
원형	7845
제네	7846
이웃	7847
평점	7848
이종	7849
약물	7850
가디언	7851
기동전	7852
주행	7853
귀국	7854
언데드	7855
신입	7856
최우	7857
연산	7858
##ial	7859
스펠	7860
FM	7861
##승부	7862
나비	7863
풋	7864
청와대	7865
건네	7866
은지	7867
밀도	7868
투쟁	7869
캄	7870
개장	7871
##토스	7872
##킥	7873
##ish	7874
엘리자	7875
장로	7876
국어	7877
당대	7878
에릭	7879
SU	7880
파란색	7881
1979	7882
서기	7883
냐면	7884
후임	7885
여전	7886
에디	7887
긴급	7888
집합	7889
UN	7890
라우	7891
##슴	7892
만만	7893
웰	7894
배달	7895
엔드	7896
카트	7897
징역	7898
챔피언십	7899
억지로	7900
스파이더	7901
프로토	7902
포즈	7903
오스만	7904
선사	7905
테츠	7906
합리	7907
쇼핑	7908
##앉	7909
개신교	7910
분포	7911
권장	7912
뽑아내	7913
김상	7914
기장	7915
행방	7916
추방	7917
##ower	7918
택시	7919
저하	7920
천연	7921
다가가	7922
박지	7923
공백	7924
회색	7925
감동	7926
##네시아	7927
안양	7928
전무	7929
해산	7930
일화	7931
궁금	7932
##뇨	7933
프리미어	7934
연구원	7935
독점	7936
증폭	7937
##플리	7938
신자	7939
수동	7940
즉사	7941
모스크	7942
확산	7943
##II	7944
명의	7945
관여	7946
야간	7947
Bla	7948
면허	7949
주관	7950
교단	7951
여학생	7952
공인	7953
방치	7954
재회	7955
임의	7956
모집	7957
폐기	7958
유미	7959
듀오	7960
##하르트	7961
빌딩	7962
##오루	7963
대단히	7964
조상	7965
혼돈	7966
잠들	7967
라이너	7968
만일	7969
명백	7970
##GE	7971
전남	7972
썬더	7973
##블로	7974
프레이	7975
코멘트	7976
##ᆯ로그	7977
감상	7978
아레나	7979
캘리	7980
바둑	7981
성경	7982
렌즈	7983
쌀	7984
##운동	7985
버섯	7986
사무소	7987
택하	7988
CH	7989
매출	7990
도마	7991
##늦	7992
분당	7993
we	7994
캐치	7995
고블린	7996
자비	7997
피닉스	7998
스즈	7999
끊임	8000
발목	8001
토시	8002
돌연	8003
BS	8004
##IM	8005
출간	8006
조명	8007
타이거즈	8008
장미	8009
처참	8010
Ne	8011
추리	8012
##!!	8013
불량	8014
Star	8015
##콜	8016
벨트	8017
오메	8018
부서지	8019
광산	8020
닐	8021
깜짝	8022
광선	8023
뒤지	8024
승무원	8025
김기	8026
전라남도	8027
구성원	8028
드루	8029
포켓몬스터	8030
비웃	8031
##벌레	8032
스테이	8033
세리	8034
시트	8035
상관없이	8036
복원	8037
뚫리	8038
PR	8039
해머	8040
우월	8041
고소	8042
실장	8043
ID	8044
##언스	8045
우주선	8046
고로	8047
##벳	8048
질투	8049
히가시	8050
목사	8051
쿠라	8052
스타디	8053
되게	8054
우유	8055
통틀	8056
하인	8057
평일	8058
만지	8059
계수	8060
간호	8061
기쁘	8062
지연	8063
난사	8064
와카	8065
##번에	8066
##히코	8067
배급	8068
##쿠라	8069
Wind	8070
미국인	8071
버드	8072
수색	8073
화산	8074
벌리	8075
##라기	8076
350	8077
라이온즈	8078
닝	8079
유출	8080
협정	8081
##느리	8082
##99	8083
유언	8084
##벅	8085
파이트	8086
수립	8087
탐정	8088
엄격	8089
시외	8090
조롱	8091
up	8092
풍부	8093
무스	8094
##전자	8095
붐	8096
스탠드	8097
짤	8098
자꾸	8099
운수	8100
서포트	8101
LP	8102
재학	8103
파멸	8104
심의	8105
DC	8106
골렘	8107
한두	8108
우익	8109
##카락	8110
국무	8111
산맥	8112
War	8113
##잘	8114
머리카락	8115
메이플	8116
fe	8117
체감	8118
And	8119
정발	8120
뤼	8121
시바	8122
의자	8123
호시	8124
젤리	8125
검술	8126
온천	8127
##체스터	8128
도저히	8129
##ass	8130
슬리	8131
텟	8132
당사자	8133
청구	8134
치열	8135
나기	8136
모험가	8137
말ᄊ	8138
합동	8139
육상	8140
토미	8141
##타카	8142
알라	8143
포장	8144
치즈	8145
국제공항	8146
뒤늦	8147
사이코	8148
##ms	8149
반부	8150
##me	8151
키타	8152
시사	8153
중지	8154
360	8155
스텝	8156
Man	8157
레일	8158
소용	8159
실내	8160
이라크	8161
오로지	8162
다운로드	8163
본토	8164
##춤	8165
112	8166
마코토	8167
권유	8168
축소	8169
기력	8170
로빈	8171
특급	8172
조용히	8173
극도	8174
에픽	8175
아쉬	8176
규제	8177
디즈니	8178
승진	8179
배수	8180
##gh	8181
따뜻	8182
트릭	8183
우치	8184
##CG	8185
세라	8186
낙하	8187
비명	8188
루머	8189
##브라	8190
##가드	8191
108	8192
루크	8193
##도리	8194
##뮬	8195
러시	8196
All	8197
페리	8198
묶이	8199
AKB	8200
나노	8201
티아	8202
##tle	8203
하계	8204
니아	8205
##pp	8206
##ble	8207
##amp	8208
충청남도	8209
반감	8210
아지	8211
톨	8212
범죄자	8213
지인	8214
바르셀	8215
루피	8216
오락	8217
출범	8218
바르셀로나	8219
##를린	8220
비유	8221
우즈	8222
##ft	8223
지목	8224
여섯	8225
수직	8226
베이징	8227
안쪽	8228
토큰	8229
##농	8230
탐지	8231
단종	8232
오우	8233
##ᆯ러스	8234
기리	8235
뮌	8236
일요일	8237
103	8238
프렌	8239
수월	8240
려다	8241
경북	8242
세금	8243
폭파	8244
황후	8245
능력자	8246
전당	8247
##궐	8248
##슬라	8249
붙잡히	8250
협의	8251
바니	8252
꼬이	8253
크리스티	8254
리즈	8255
어시스트	8256
##yle	8257
스타디움	8258
서머	8259
##70	8260
실은	8261
이글스	8262
여파	8263
##ous	8264
중순	8265
물품	8266
직선	8267
막아내	8268
##려받	8269
미르	8270
실현	8271
배제	8272
조우	8273
##사이	8274
모임	8275
##now	8276
베테	8277
##atch	8278
##sp	8279
신학	8280
넘어지	8281
리버풀	8282
카구	8283
불행	8284
분산	8285
##틀리	8286
##졸	8287
##튀	8288
부딪히	8289
당당	8290
조커	8291
One	8292
넘어서	8293
타르	8294
아가씨	8295
다스	8296
Mar	8297
에미	8298
모듈	8299
##orm	8300
수염	8301
미미	8302
생전	8303
손자	8304
드림	8305
김해	8306
평론	8307
얻어맞	8308
프래	8309
캐시	8310
토키	8311
유의	8312
신용	8313
김진	8314
New	8315
To	8316
##뚜	8317
ON	8318
명문	8319
퍼부	8320
엑시	8321
거북	8322
기묘	8323
추세	8324
드론	8325
바론	8326
여고	8327
무승부	8328
조르	8329
ex	8330
체중	8331
막상	8332
낙선	8333
##스티벌	8334
나루토	8335
나요	8336
진상	8337
페스티벌	8338
수비수	8339
IN	8340
경악	8341
살아나	8342
토요일	8343
던가	8344
BR	8345
맥주	8346
하프	8347
##민주	8348
천문	8349
까이	8350
Part	8351
스미스	8352
수습	8353
엽	8354
태풍	8355
가난	8356
더빙	8357
채보	8358
KR	8359
기수	8360
##나오	8361
##구나	8362
두렵	8363
마카	8364
연봉	8365
함락	8366
김용	8367
Gam	8368
할로	8369
##쿨	8370
강등	8371
##렐라	8372
파울	8373
비극	8374
센서	8375
강사	8376
시로	8377
알바	8378
되살	8379
SF	8380
주최	8381
후회	8382
패전	8383
힙합	8384
홋	8385
##ING	8386
대성	8387
극히	8388
##슬러	8389
집어넣	8390
잠실	8391
비틀	8392
산탄	8393
고속도로	8394
CS	8395
좌절	8396
대시	8397
적자	8398
ᆫ다거나	8399
엄밀	8400
국판	8401
듀스	8402
명목	8403
까마	8404
배려	8405
동반	8406
팁	8407
타일	8408
둠	8409
엎	8410
끓	8411
훼손	8412
꽉	8413
인접	8414
유망	8415
노가	8416
실시간	8417
개척	8418
코마	8419
##ment	8420
철권	8421
리가	8422
기부	8423
PP	8424
##방송	8425
에로	8426
에반	8427
사무실	8428
##ae	8429
바스	8430
소니	8431
빨간	8432
도리	8433
반짝	8434
케이블	8435
야쿠	8436
주체	8437
늙	8438
##64	8439
원시	8440
하여	8441
128	8442
뻥	8443
스티븐	8444
압력	8445
상반	8446
고증	8447
모스	8448
장탄수	8449
꼬마	8450
캣	8451
##더라	8452
샤이	8453
젖	8454
스테이션	8455
##불명	8456
유재	8457
스핀	8458
혜택	8459
투척	8460
도장	8461
신속	8462
포탄	8463
닉네임	8464
바지	8465
인자	8466
##ase	8467
혈액	8468
쳐들	8469
호남	8470
중화민국	8471
##사기	8472
배드	8473
코믹	8474
우드	8475
농장	8476
마땅	8477
아이러	8478
각지	8479
##ree	8480
장성	8481
다투	8482
이타	8483
##앤	8484
되돌	8485
##사리	8486
재개	8487
조카	8488
역습	8489
주교	8490
걸즈	8491
고시	8492
음료	8493
유니크	8494
휴가	8495
벤치	8496
히틀러	8497
##잎	8498
반도	8499
##밭	8500
암호	8501
쇼크	8502
구조물	8503
달려가	8504
짙	8505
##저리	8506
구장	8507
날씨	8508
샷건	8509
때려	8510
변동	8511
번지	8512
총장	8513
En	8514
캘리포	8515
##킷	8516
네티	8517
쿤	8518
확장팩	8519
퍼즐	8520
얽	8521
##노리	8522
##어트	8523
제갈량	8524
그라운드	8525
시상식	8526
짐작	8527
1978	8528
인과	8529
질서	8530
1973	8531
ᄇ니까	8532
오페	8533
근원	8534
챔	8535
믹스	8536
레온	8537
JT	8538
함부로	8539
트로피	8540
해병대	8541
동해	8542
##ᅥ하	8543
기뻐하	8544
어쩌면	8545
184	8546
사퇴	8547
거론	8548
오브젝트	8549
##렐	8550
##az	8551
##거지	8552
여의	8553
##듯	8554
##bo	8555
대행	8556
캘리포니아	8557
보라색	8558
슬라	8559
제치	8560
찬성	8561
라즈	8562
첫째	8563
갈색	8564
짐승	8565
AN	8566
상사	8567
가담	8568
깊이	8569
베기	8570
각오	8571
인재	8572
##버그	8573
##토니	8574
##앞	8575
##놀	8576
사로	8577
World	8578
##ason	8579
양손	8580
구동	8581
##AY	8582
111	8583
##러그	8584
##케이션	8585
그랑	8586
샵	8587
쿠데	8588
220	8589
여럿	8590
안심	8591
호불	8592
##iki	8593
호불호	8594
퇴각	8595
무용	8596
백화점	8597
껍	8598
최저	8599
##베리	8600
혁신	8601
거칠	8602
사야	8603
공감	8604
갚	8605
183	8606
크레이	8607
강림	8608
##구장	8609
메트로	8610
키보드	8611
정반	8612
##돌이	8613
결제	8614
지수	8615
##키스탄	8616
킷	8617
##클ᄅ	8618
감수	8619
JP	8620
##저기	8621
오더	8622
카리	8623
포스터	8624
##테이	8625
돌보	8626
동서	8627
프린세스	8628
말기	8629
트레이너	8630
진급	8631
거든	8632
마계	8633
전날	8634
계층	8635
베어스	8636
리미	8637
고무	8638
할리	8639
네티즌	8640
원더	8641
알렉스	8642
시그	8643
동아	8644
##라드	8645
##ear	8646
So	8647
중동	8648
경호	8649
빨간색	8650
나스	8651
대령	8652
특별시	8653
피로	8654
동행	8655
산타	8656
흡사	8657
##hen	8658
후반기	8659
하하	8660
빠져나가	8661
##끗	8662
장례	8663
##클리	8664
셔틀	8665
노란색	8666
##스트라	8667
여기저기	8668
중부	8669
장난감	8670
마오	8671
240	8672
평하	8673
흔들	8674
사관	8675
막강	8676
타이탄	8677
수지	8678
비비	8679
리처	8680
##MS	8681
뜬금없이	8682
신선	8683
##ᆯ릿	8684
당기	8685
sp	8686
세뇌	8687
핀란드	8688
학생회	8689
가두	8690
##키스	8691
아베	8692
##are	8693
휠	8694
포획	8695
드레스	8696
밀어내	8697
견해	8698
려다가	8699
FW	8700
베를린	8701
탐색	8702
두들기	8703
헬리	8704
차갑	8705
여서	8706
요미	8707
##빨	8708
보좌	8709
유혹	8710
GO	8711
깎이	8712
매주	8713
선수단	8714
날뛰	8715
##릇	8716
양반	8717
교복	8718
패밀리	8719
유입	8720
봉쇄	8721
국도	8722
ᆯ려	8723
페어	8724
영감	8725
우호	8726
강렬	8727
원곡	8728
스코틀랜드	8729
연쇄	8730
뮌헨	8731
상주	8732
입자	8733
##직자	8734
케이드	8735
##차기	8736
1974	8737
돋보이	8738
워크	8739
방송사	8740
무공	8741
문화재	8742
프랑스어	8743
생체	8744
끌리	8745
재건	8746
tv	8747
클론	8748
우측	8749
박쥐	8750
소재지	8751
트라우마	8752
마일	8753
비기	8754
도어	8755
역명	8756
점유	8757
운송	8758
토대	8759
렐	8760
##이너	8761
콤비	8762
방탄	8763
경찰서	8764
아이러니	8765
드로우	8766
##케이드	8767
위로	8768
왕실	8769
결계	8770
김준	8771
와인	8772
서바이	8773
잭슨	8774
후미	8775
흙	8776
박살나	8777
약자	8778
신중	8779
공격수	8780
무실	8781
결혼식	8782
부시	8783
세로	8784
##ᆺ불	8785
http	8786
수여	8787
##하나	8788
침대	8789
지부	8790
1972	8791
연금술	8792
##기에	8793
복사	8794
##90	8795
##ven	8796
래퍼	8797
트윈스	8798
##ife	8799
포터	8800
##아치	8801
관료	8802
화폐	8803
제물	8804
도덕	8805
전락	8806
비스트	8807
집회	8808
기스	8809
통칭	8810
바나	8811
https	8812
##싸움	8813
윈드	8814
쇄	8815
로이드	8816
완공	8817
튼튼	8818
트랩	8819
첸	8820
토하	8821
##ade	8822
허무	8823
장판	8824
프라임	8825
순양함	8826
엔지	8827
리안	8828
홀리	8829
밀려나	8830
##AP	8831
Wi	8832
취업	8833
##베이터	8834
역량	8835
디시	8836
스즈키	8837
선장	8838
소금	8839
콘솔	8840
폭스	8841
탐사	8842
##박스	8843
라마	8844
세자	8845
덴마크	8846
영양	8847
출혈	8848
##펠	8849
강경	8850
디오	8851
우회	8852
쓸데	8853
##껍	8854
빈도	8855
탭	8856
나아지	8857
##act	8858
도감	8859
MB	8860
##웰	8861
글씨	8862
~!	8863
##데레	8864
##ai	8865
대타	8866
일곱	8867
홀드	8868
##ank	8869
아바타	8870
##깨비	8871
##gin	8872
도트	8873
연설	8874
이순	8875
억제	8876
여단	8877
간섭	8878
%/	8879
관통력	8880
상무	8881
공대	8882
낭비	8883
do	8884
코스ᄐ	8885
단행본	8886
##aby	8887
히든	8888
루프	8889
부작용	8890
노무	8891
메이지	8892
오노	8893
모형	8894
신데	8895
창문	8896
104	8897
영화제	8898
청나라	8899
승차	8900
##out	8901
전동차	8902
인도네시아	8903
책임지	8904
소통	8905
법무	8906
Fate	8907
no	8908
트레일러	8909
##흔	8910
전격	8911
침투	8912
성씨	8913
술사	8914
손꼬	8915
재직	8916
태클	8917
오지	8918
페미니	8919
워크래프트	8920
하스	8921
넘어오	8922
제니	8923
당초	8924
매니아	8925
한창	8926
다큐	8927
커스ᄐ	8928
1975	8929
쿠데타	8930
커스텀	8931
라크	8932
마피아	8933
##lect	8934
시카고	8935
신데렐라	8936
실상	8937
히로시	8938
LIVE	8939
간간히	8940
부재	8941
##트리스	8942
##른바	8943
형편	8944
백업	8945
제재	8946
파밍	8947
페인	8948
123	8949
설령	8950
손오	8951
출산	8952
라가	8953
우루	8954
성실	8955
손쉽	8956
깃발	8957
끊임없이	8958
##ET	8959
범용	8960
##에른	8961
##우트	8962
딸리	8963
공산주의	8964
장애물	8965
을수록	8966
스나이	8967
##드ᄅ	8968
경연	8969
강간	8970
김일	8971
스트라이커	8972
##oll	8973
큰	8974
NH	8975
우승자	8976
끌어들이	8977
김지	8978
전향	8979
소득	8980
##륨	8981
시호	8982
스타리그	8983
검증	8984
조종사	8985
##UM	8986
##모스	8987
토요	8988
중점	8989
Up	8990
이른바	8991
품질	8992
왕비	8993
OS	8994
노르웨이	8995
여타	8996
카자	8997
1976	8998
라스트	8999
are	9000
근접전	9001
소나	9002
말레이	9003
클라이	9004
변이	9005
항해	9006
외곽	9007
III	9008
##ork	9009
렉스	9010
##천군	9011
크라이	9012
다스리	9013
스피릿	9014
파도	9015
성분	9016
강릉	9017
최선	9018
원주민	9019
정석	9020
마산	9021
사악	9022
사사	9023
대접	9024
혈통	9025
##렷	9026
섀도우	9027
모니터	9028
그러므로	9029
##추어	9030
발명	9031
따라오	9032
판사	9033
유료	9034
##바야	9035
Do	9036
단기	9037
##ary	9038
이어받	9039
하급	9040
구상	9041
특공	9042
선박	9043
리코	9044
리모	9045
카더라	9046
Oh	9047
제왕	9048
공통점	9049
왜냐하면	9050
검열	9051
##닌	9052
광물	9053
##way	9054
하반	9055
티스	9056
전생	9057
왼손	9058
포도	9059
스텔	9060
##페이	9061
끌어올리	9062
뉘	9063
##루션	9064
동전	9065
입문	9066
119	9067
##와라	9068
키라	9069
브라이언	9070
유연	9071
트리거	9072
벨기에	9073
천천	9074
##스톤	9075
중상	9076
맞붙	9077
명분	9078
자네	9079
탄핵	9080
##ey	9081
##ich	9082
명사	9083
공헌	9084
고종	9085
장남	9086
전송	9087
원장	9088
사로잡	9089
##께끼	9090
135	9091
수수께끼	9092
급행	9093
소모량	9094
중심지	9095
109	9096
단검	9097
##슈타인	9098
##모함	9099
초콜릿	9100
중고	9101
김수	9102
박정희	9103
미지	9104
바이에른	9105
초상	9106
우울	9107
코스튬	9108
중기	9109
지선	9110
##저우	9111
##타입	9112
ES	9113
중위	9114
트롤	9115
확신	9116
대변	9117
##으로	9118
##플링	9119
올바르	9120
Mk	9121
공단	9122
입증	9123
으려는	9124
베테랑	9125
일체	9126
한나라	9127
모스크바	9128
잔인	9129
##능력	9130
##키리	9131
한나라당	9132
관우	9133
벅	9134
이스트	9135
엘리베이터	9136
검토	9137
오페라	9138
시모	9139
저자	9140
수인	9141
마틴	9142
시게	9143
Ad	9144
잉여	9145
예약	9146
시온	9147
단발	9148
조국	9149
부패	9150
질주	9151
친절	9152
불태우	9153
손오공	9154
대법	9155
아이디어	9156
lv	9157
부유	9158
땅볼	9159
##샷	9160
대동	9161
메일	9162
긁	9163
꿈꾸	9164
힌	9165
##벤처	9166
교리	9167
all	9168
##동자	9169
Day	9170
어드벤처	9171
씌우	9172
강호	9173
발판	9174
보스턴	9175
아스카	9176
성배	9177
##헬	9178
터스	9179
유망주	9180
천황	9181
콘스탄	9182
AFC	9183
##어드	9184
케빈	9185
시외버스	9186
곡인	9187
스태프	9188
도쿠	9189
부속	9190
퀵	9191
##스레	9192
이병	9193
스트로	9194
##다운	9195
천천히	9196
nd	9197
체코	9198
버스트	9199
렘	9200
압축	9201
##하루	9202
충족	9203
학사	9204
##지르	9205
##pt	9206
고는	9207
182	9208
##orn	9209
##크림	9210
과자	9211
카카오	9212
흩어지	9213
이현	9214
메리트	9215
비리	9216
니혼	9217
카시	9218
굴욕	9219
구독	9220
무제	9221
##넌	9222
도깨비	9223
그릇	9224
갑작스럽	9225
쓰리	9226
##ᅦ이머	9227
프로게이머	9228
분할	9229
올드	9230
동정	9231
손님	9232
오메가	9233
강전	9234
화상	9235
군부	9236
자제	9237
연수	9238
나폴레	9239
루마	9240
토마스	9241
아아	9242
친분	9243
어색	9244
후일	9245
대박	9246
지붕	9247
히스	9248
위엄	9249
민중	9250
싱가	9251
싱가포르	9252
항공모함	9253
에버	9254
디자이너	9255
기하	9256
평등	9257
마트	9258
##가루	9259
기차	9260
존스	9261
121	9262
홋카이도	9263
치카	9264
미궁	9265
레이디	9266
이모	9267
나폴레옹	9268
마운	9269
지력	9270
##스트레일리아	9271
고고	9272
삼성전자	9273
라그나	9274
1971	9275
쯔	9276
땡	9277
일관	9278
발레	9279
머니	9280
Windows	9281
##톡	9282
##의자	9283
##네마	9284
왕복	9285
얇	9286
레이블	9287
박살내	9288
와이번	9289
달아나	9290
FF	9291
이오	9292
동구	9293
테이블	9294
폭격기	9295
스택	9296
너머	9297
에이지	9298
머물	9299
145	9300
사체	9301
사촌	9302
극대	9303
##네이	9304
107	9305
맹세	9306
디펜	9307
망명	9308
##ᆯ프	9309
톡	9310
="	9311
이경	9312
현금	9313
RA	9314
기울이	9315
열정	9316
이틀	9317
찰스	9318
엑시즈	9319
광기	9320
합작	9321
1977	9322
진에	9323
점검	9324
강점기	9325
지오	9326
대전차	9327
##ah	9328
김포	9329
엔트리	9330
##EM	9331
터트리	9332
##루미	9333
그립	9334
하이라이트	9335
카리스	9336
여포	9337
질량	9338
유탄	9339
창립	9340
쫓겨나	9341
DP	9342
변태	9343
종결	9344
썸	9345
##사스	9346
원숭이	9347
후드	9348
촉수	9349
으라고	9350
하사	9351
작위	9352
##군가	9353
마타	9354
ML	9355
고집	9356
AA	9357
퍼스트	9358
##very	9359
##ᅳ롤	9360
신동	9361
자율	9362
리퍼	9363
##uck	9364
화해	9365
저기	9366
마술사	9367
일가	9368
보고서	9369
리틀	9370
조화	9371
재배	9372
존중	9373
누군가	9374
본질	9375
그레이트	9376
독일어	9377
##렇	9378
##첼	9379
표절	9380
##막지	9381
사족	9382
무지막지	9383
챔프	9384
춥	9385
총합	9386
오렌	9387
외우	9388
원전	9389
츠카	9390
ne	9391
천장	9392
잊히	9393
선교	9394
이대로	9395
IT	9396
공신	9397
평행	9398
엔지니어	9399
보르	9400
구로	9401
br	9402
석유	9403
쳐들어	9404
중거리	9405
자존	9406
감탄	9407
브라더스	9408
이이	9409
전라북도	9410
피카	9411
##ph	9412
Sw	9413
DPS	9414
젬	9415
자책점	9416
면하	9417
BPM	9418
게이머	9419
JTBC	9420
소집	9421
정사	9422
지분	9423
##아들	9424
진단	9425
물자	9426
란스	9427
210	9428
스포일러	9429
김유	9430
메카닉	9431
카마	9432
봉사	9433
노무현	9434
연간	9435
해소	9436
178	9437
인칭	9438
카레	9439
##ero	9440
꺼리	9441
몸통	9442
스가	9443
1969	9444
떨치	9445
과일	9446
##자치	9447
113	9448
유가	9449
쿠스	9450
스티브	9451
관장	9452
리처드	9453
".	9454
대위	9455
유격수	9456
어나	9457
교과서	9458
파랗	9459
무실점	9460
교차로	9461
##ool	9462
타구	9463
사수	9464
서적	9465
동속	9466
검정	9467
노가다	9468
165	9469
##바나	9470
오스트레일리아	9471
광명	9472
브레이커	9473
마유	9474
1968	9475
하치	9476
맨체스터	9477
동대	9478
솟	9479
1963	9480
냉정	9481
데빌	9482
주식회사	9483
임하	9484
철저히	9485
##ical	9486
총독	9487
토트	9488
쨩	9489
불쌍	9490
빙판	9491
명시	9492
출판사	9493
시골	9494
손꼽히	9495
NBA	9496
부원	9497
프랜	9498
러스	9499
힘입	9500
입사	9501
필름	9502
주축	9503
장타	9504
##urn	9505
부산광역시	9506
아깝	9507
가구	9508
착륙	9509
##퍼드	9510
겜	9511
백만	9512
##ype	9513
다니엘	9514
Ph	9515
병역	9516
블리자드	9517
탄압	9518
실체	9519
슬픔	9520
##ARD	9521
부천	9522
Con	9523
2021	9524
말씀	9525
에드워드	9526
아ᄐ	9527
윤리	9528
모순	9529
##anc	9530
주사위	9531
호의	9532
##센스	9533
스노우	9534
매각	9535
##ᆺ속	9536
고아	9537
광경	9538
마당	9539
지장	9540
깨끗	9541
유치원	9542
터보	9543
미오	9544
매드	9545
섹	9546
불능	9547
##프라	9548
마인드	9549
닦	9550
스폰서	9551
페스	9552
목걸이	9553
지로	9554
카지	9555
{{{#	9556
어벤	9557
전지	9558
부스트	9559
라이언	9560
##은색	9561
155	9562
서열	9563
레이어	9564
완화	9565
겸하	9566
지혜	9567
제리	9568
용산	9569
Cr	9570
변장	9571
##ung	9572
참사	9573
평론가	9574
엄연히	9575
줄기	9576
유니버스	9577
날아다니	9578
이라도	9579
내버리	9580
물어	9581
멍청	9582
OVA	9583
수천	9584
김승	9585
울트라맨	9586
크래	9587
답답	9588
##멧	9589
명명	9590
우타	9591
문양	9592
나나	9593
하나하나	9594
보편	9595
개명	9596
122	9597
Qu	9598
서류	9599
트윗	9600
상금	9601
납득	9602
미러	9603
엘레	9604
초청	9605
워프	9606
##항공	9607
배구	9608
모델링	9609
씨앗	9610
외국어	9611
평상	9612
시뮬	9613
Station	9614
181	9615
레인지	9616
프로그래	9617
##업자	9618
압권	9619
TVA	9620
이노	9621
뚜렷	9622
치안	9623
##지아	9624
열혈	9625
가설	9626
중구	9627
144	9628
정문	9629
난무	9630
친척	9631
##테일	9632
진동	9633
펠리	9634
취재	9635
닥치	9636
집계	9637
디바	9638
중원	9639
박수	9640
엘리자베스	9641
##소년	9642
본능	9643
수위	9644
##시피	9645
LO	9646
발키리	9647
고사	9648
향후	9649
##ww	9650
앓	9651
절친	9652
좌익	9653
KOF	9654
재앙	9655
일리	9656
철갑	9657
마케팅	9658
자산	9659
서명	9660
주석	9661
리나	9662
헷갈리	9663
성명	9664
클린	9665
오죽	9666
우연	9667
녹화	9668
고등학생	9669
##끼리	9670
이케	9671
##iver	9672
도심	9673
케이크	9674
애칭	9675
무늬	9676
##잉	9677
초능력	9678
##부지	9679
비우	9680
소생	9681
작정	9682
어나더	9683
at	9684
패자	9685
서방	9686
쫒	9687
쿵	9688
국토	9689
햇	9690
사연	9691
사직	9692
시조	9693
덤비	9694
##DD	9695
신하	9696
곤충	9697
어이없	9698
152	9699
서울대	9700
일렉	9701
아리아	9702
테스	9703
시어	9704
드래곤볼	9705
유아	9706
용암	9707
골프	9708
love	9709
##쥬	9710
결의	9711
로프	9712
아마추어	9713
경부	9714
실용	9715
액체	9716
학대	9717
##마르	9718
실사	9719
##폭탄	9720
##ens	9721
경사	9722
산소	9723
국방부	9724
정성	9725
발발	9726
호크	9727
멋대로	9728
자사	9729
쿠니	9730
마그	9731
표적	9732
츠바	9733
as	9734
워터	9735
편리	9736
벙커	9737
사우스	9738
좌측	9739
플ᄅ	9740
##ost	9741
스카우트	9742
민간인	9743
도색	9744
##이동	9745
TR	9746
이태	9747
##드러지	9748
자칭	9749
##ᆫ즈	9750
##테이션	9751
자아	9752
침몰	9753
114	9754
엄밀히	9755
##ᆺ말	9756
워즈	9757
마하	9758
주머니	9759
사투	9760
일커	9761
마음대로	9762
스케일	9763
이소	9764
##워즈	9765
##ence	9766
1930	9767
일컫	9768
다케	9769
##흉	9770
라이즈	9771
거지	9772
wiki	9773
몰살	9774
##마리	9775
박성	9776
롤러	9777
만점	9778
인성	9779
미성	9780
##려워하	9781
IM	9782
##nt	9783
변명	9784
##밤	9785
의정부	9786
이대	9787
직책	9788
##띠	9789
때로	9790
##마루	9791
##켈	9792
개교	9793
초록색	9794
망토	9795
알아채	9796
개구리	9797
##변이	9798
돌연변이	9799
from	9800
초점	9801
항모	9802
##ise	9803
루리	9804
옥상	9805
습니까	9806
각도	9807
코토	9808
각인	9809
법사	9810
웜	9811
##int	9812
리본	9813
##시스코	9814
##이나	9815
기질	9816
파운드	9817
모음	9818
텍사스	9819
이누	9820
신지	9821
1920	9822
##리나	9823
원피스	9824
템플	9825
마모	9826
아자	9827
스컬	9828
179	9829
방학	9830
포크	9831
##뱅	9832
만능	9833
이념	9834
고의	9835
정밀	9836
달려들	9837
!"	9838
발급	9839
##AK	9840
유스	9841
통째	9842
풍기	9843
죄책	9844
등극	9845
학급	9846
##타운	9847
Super	9848
이원	9849
포탈	9850
매달리	9851
에디션	9852
MG	9853
##하여	9854
비키	9855
Fr	9856
격려	9857
1940	9858
이명박	9859
BJ	9860
can	9861
이어서	9862
##oy	9863
##지능	9864
로라	9865
용자	9866
인공지능	9867
임진	9868
동성애	9869
조항	9870
아담	9871
방심	9872
포병	9873
슈퍼맨	9874
미인	9875
혼인	9876
정신력	9877
이빨	9878
www	9879
##ign	9880
발탁	9881
##떨어지	9882
##젤레스	9883
적절히	9884
CM	9885
선동	9886
오렌지	9887
엉망	9888
관직	9889
종영	9890
##클레	9891
##카르	9892
인벤	9893
연전	9894
##ans	9895
극한	9896
협동	9897
바쿠	9898
177	9899
북아	9900
마찰	9901
안동	9902
기소	9903
대역	9904
멧	9905
제사	9906
들여	9907
남동생	9908
##레인	9909
죄책감	9910
소비자	9911
##과이	9912
튜버	9913
에도	9914
추후	9915
네이션	9916
리사	9917
호러	9918
##ug	9919
포착	9920
최순	9921
Dream	9922
헬멧	9923
펌프	9924
풍선	9925
##팽	9926
정반대	9927
트릴	9928
부러지	9929
갯	9930
게르	9931
다거나	9932
##바이트	9933
장벽	9934
##바야시	9935
아케이드	9936
공속	9937
감당	9938
덮치	9939
124	9940
은폐	9941
##전차	9942
블럭	9943
##이치로	9944
억울	9945
1967	9946
##야스	9947
금강	9948
농민	9949
선로	9950
너스	9951
저서	9952
닷	9953
##베트	9954
커스	9955
갱신	9956
이진	9957
고가	9958
원로	9959
반경	9960
127	9961
다시금	9962
아이디	9963
##글링	9964
마에	9965
USB	9966
흘러가	9967
킴	9968
유진	9969
그해	9970
아무튼	9971
오른손	9972
교역	9973
타츠	9974
협조	9975
페어리	9976
뛰어들	9977
정점	9978
오다	9979
용이	9980
씻	9981
도약	9982
예의	9983
##트론	9984
##짱	9985
아사히	9986
부동산	9987
아쿠아	9988
신곡	9989
해운	9990
시오	9991
this	9992
##IR	9993
내기	9994
다비	9995
시시	9996
##나베	9997
##뒤	9998
페르시아	9999
펭	10000
1200	10001
퍽	10002
중국인	10003
##코트	10004
##vel	10005
분홍	10006
트윈	10007
대차	10008
쉴드	10009
타치	10010
마라	10011
450	10012
잔혹	10013
시타	10014
고발	10015
맞히	10016
카운티	10017
부채	10018
연동	10019
왕족	10020
##이크	10021
기본기	10022
사나	10023
녹이	10024
피오	10025
##철수	10026
욕설	10027
독립운동	10028
ᆫ데다	10029
##셈	10030
##질랜드	10031
컴백	10032
##지사	10033
ERA	10034
##ode	10035
군요	10036
시크리	10037
민감	10038
유카	10039
뉴질랜드	10040
출동	10041
교도소	10042
초과	10043
크래프트	10044
아메리	10045
누스	10046
절벽	10047
##툼	10048
선원	10049
카테	10050
##uk	10051
옴	10052
##VER	10053
지역구	10054
##빡	10055
비단	10056
##쭉	10057
호드	10058
시크릿	10059
네크로	10060
수신	10061
수감	10062
무도	10063
후쿠오카	10064
사방	10065
어ᄊ	10066
침착	10067
사무라이	10068
서리	10069
Fl	10070
발각	10071
방침	10072
스토어	10073
밭	10074
감자	10075
덩어리	10076
Pl	10077
후유	10078
회관	10079
청춘	10080
우마	10081
대세	10082
뺏기	10083
툰	10084
물려받	10085
팔라	10086
젼	10087
보강	10088
Ver	10089
스로	10090
련	10091
대피	10092
베스	10093
##역사	10094
연이	10095
##나기	10096
제의	10097
CE	10098
##생활	10099
얹	10100
그러면	10101
쿠마	10102
구형	10103
급격히	10104
키미	10105
스케이	10106
##바지	10107
강민	10108
게끔	10109
EC	10110
종전	10111
철도역	10112
진에어	10113
부스	10114
디스플레이	10115
EXP	10116
##텍	10117
연소	10118
카리스마	10119
재즈	10120
style	10121
내외	10122
함장	10123
측근	10124
얽히	10125
##민주당	10126
발전소	10127
방사능	10128
##헤이	10129
스탈리	10130
로렌	10131
꾀	10132
스쿼	10133
코스프레	10134
코노	10135
애인	10136
가마	10137
실존	10138
그란	10139
선포	10140
아울	10141
레나	10142
유재석	10143
##ier	10144
마야	10145
아랫	10146
##블ᄅ	10147
신한	10148
궁합	10149
가위	10150
퇴치	10151
반성	10152
판도	10153
아비	10154
강대	10155
현자	10156
카쿠	10157
리바	10158
격렬	10159
기법	10160
분자	10161
워리어	10162
Sch	10163
가오	10164
예방	10165
김구	10166
잔류	10167
나인	10168
##페이스	10169
##구미	10170
Girl	10171
당국	10172
Season	10173
두드러지	10174
사물	10175
##뱃	10176
인문	10177
##틈	10178
1962	10179
##ash	10180
징계	10181
IP	10182
오퍼	10183
러쉬	10184
이윤	10185
미아	10186
박자	10187
##속기	10188
왕가	10189
문신	10190
##렉션	10191
ar	10192
자이언트	10193
근로	10194
La	10195
이놈	10196
DM	10197
모욕	10198
전담	10199
화기	10200
약혼	10201
강타	10202
NO	10203
겔	10204
반역	10205
162	10206
흡혈귀	10207
카피	10208
유동	10209
이단	10210
선지	10211
정조	10212
흑마	10213
tr	10214
사치	10215
중견	10216
118	10217
종로	10218
흥분	10219
왕후	10220
##공사	10221
친애	10222
지루	10223
비오	10224
화석	10225
WC	10226
시종	10227
점심	10228
쿠바	10229
퀴즈	10230
쿠리	10231
불러오	10232
고립	10233
피자	10234
제주도	10235
벗기	10236
노아	10237
기동력	10238
카네	10239
분배	10240
##reat	10241
1966	10242
##IX	10243
아처	10244
넬	10245
벨라	10246
유우키	10247
잠기	10248
돌려주	10249
타리	10250
이용자	10251
명나라	10252
위쪽	10253
부가	10254
레이싱	10255
단백	10256
##ib	10257
황당	10258
타이어	10259
경성	10260
계곡	10261
벌써	10262
이행	10263
##꿈	10264
김치	10265
314	10266
자존심	10267
학술	10268
##치아	10269
##뱀	10270
생김새	10271
제노	10272
##슐	10273
스나이퍼	10274
한하	10275
태생	10276
탈환	10277
##usic	10278
월간	10279
Max	10280
##끄	10281
##사랑	10282
중소	10283
피지컬	10284
남동	10285
##탐정	10286
우두	10287
관문	10288
스모	10289
##시고	10290
실적	10291
로스트	10292
모나	10293
한양	10294
망설	10295
##딸	10296
750	10297
입시	10298
##방울	10299
1964	10300
##폴	10301
바시	10302
토우	10303
건지	10304
금요일	10305
대검	10306
노랗	10307
뚱	10308
고인	10309
골치	10310
그간	10311
팔레	10312
안무	10313
능가	10314
적시타	10315
불길	10316
##수리	10317
스프	10318
Vol	10319
TS	10320
사와	10321
뱅가드	10322
숙소	10323
소서	10324
유고	10325
##트릭	10326
DNA	10327
그쪽	10328
여태	10329
정전	10330
토트넘	10331
라미	10332
오케	10333
내셔널	10334
얼티	10335
##프로	10336
급속	10337
스파이더맨	10338
Ed	10339
아오이	10340
천상	10341
##}}	10342
--	10343
궁전	10344
시범	10345
중재	10346
요격	10347
호리	10348
##ose	10349
ld	10350
사지	10351
할로윈	10352
통솔	10353
레아	10354
모종	10355
칼라	10356
성사	10357
대학생	10358
코파	10359
중도	10360
나이프	10361
사슬	10362
탈취	10363
스피어	10364
진술	10365
스타즈	10366
##트럴	10367
갈라지	10368
로키	10369
AV	10370
존슨	10371
부끄럽	10372
에메	10373
까마귀	10374
직위	10375
한꺼	10376
치이	10377
섬기	10378
한꺼번에	10379
##닛	10380
소소	10381
우지	10382
입원	10383
두려워하	10384
괴인	10385
과시	10386
나이츠	10387
##보기	10388
황태	10389
도르	10390
amp	10391
욕망	10392
계절	10393
##렙	10394
발하	10395
불참	10396
##서스	10397
##시대	10398
청하	10399
Col	10400
거세	10401
혼합	10402
##부키	10403
##킬	10404
##te	10405
야당	10406
so	10407
생태	10408
기껏	10409
##미터	10410
오만	10411
학년도	10412
항공사	10413
GM	10414
비자	10415
저글링	10416
점멸	10417
HE	10418
건너가	10419
질환	10420
미정	10421
##사르	10422
마기	10423
일지	10424
극심	10425
뷔	10426
다녀	10427
##ail	10428
##msys	10429
페르소	10430
##ition	10431
ldmsys	10432
원판	10433
간판	10434
케리	10435
모빌	10436
테리	10437
천국	10438
충청북도	10439
스탭	10440
이별	10441
테르	10442
도대	10443
필사	10444
얼리	10445
과금	10446
욱	10447
rd	10448
보로	10449
박진	10450
Night	10451
각국	10452
잼	10453
##구니	10454
욕심	10455
BC	10456
차장	10457
히드라	10458
얄	10459
마르코	10460
상냥	10461
나들	10462
강인	10463
not	10464
조립	10465
레버	10466
##우라	10467
시안	10468
회로	10469
##당초	10470
앨런	10471
미녀	10472
고추	10473
헤라	10474
나들목	10475
스타트	10476
리버스	10477
##워프	10478
##IL	10479
달려오	10480
이사장	10481
김주	10482
뻘	10483
아케	10484
단자	10485
스매	10486
승패	10487
지지율	10488
##랭	10489
요코하마	10490
암컷	10491
공국	10492
##당기	10493
##히토	10494
##ild	10495
##무지	10496
얌	10497
하여금	10498
168	10499
일일	10500
김광	10501
페르소나	10502
오토바이	10503
Let	10504
수소	10505
툭	10506
안토니	10507
지크	10508
물약	10509
도미	10510
쑤	10511
병행	10512
희생자	10513
디아블로	10514
고이	10515
오사	10516
키요	10517
하지	10518
학회	10519
피난	10520
ᆯ래	10521
##티노	10522
단백질	10523
굶	10524
상부	10525
난민	10526
스크롤	10527
##ody	10528
돌려	10529
로비	10530
바텀	10531
만렙	10532
테니스	10533
갸	10534
등재	10535
목욕	10536
##깃	10537
사탕	10538
빙결	10539
Black	10540
어원	10541
펑크	10542
##바리	10543
159	10544
들르	10545
일환	10546
코끼리	10547
밀리언	10548
신작	10549
무녀	10550
스윙	10551
##세지	10552
이승만	10553
미노	10554
도배	10555
퍼펙트	10556
BD	10557
토라	10558
평택	10559
춤추	10560
말레이시아	10561
라인하르트	10562
부처	10563
아마존	10564
일어	10565
인쇄	10566
리자	10567
내밀	10568
여주인	10569
사이클	10570
해변	10571
##진호	10572
##클린	10573
해역	10574
오즈	10575
파고	10576
아인	10577
신생	10578
화신	10579
금발	10580
무지개	10581
부친	10582
환생	10583
가이드	10584
대니	10585
둥지	10586
덥	10587
##빗	10588
삿	10589
마도카	10590
가해	10591
파스	10592
##딴	10593
직행	10594
1948	10595
mar	10596
스트ᄅ	10597
##ough	10598
마쓰	10599
응답	10600
해전	10601
발사기	10602
아메리칸	10603
국기	10604
##브로	10605
진흥	10606
엉덩이	10607
맑	10608
##롤	10609
삼키	10610
AF	10611
##톨	10612
늪	10613
MM	10614
절단	10615
1944	10616
미소녀	10617
세례	10618
아무렇	10619
도대체	10620
모의	10621
무능	10622
1965	10623
성벽	10624
OG	10625
부제	10626
히사	10627
##33	10628
##모습	10629
명장	10630
쿠르	10631
두껍	10632
맛보	10633
##타리	10634
유머	10635
중공	10636
일조	10637
로스앤	10638
로스앤젤레스	10639
퓨전	10640
스텔스	10641
섬멸	10642
노부나가	10643
충남	10644
석사	10645
유엔	10646
방언	10647
프랑크	10648
회계	10649
간지	10650
불상	10651
스쿼드	10652
노릇	10653
아카네	10654
##멘터리	10655
주저	10656
RE	10657
섭취	10658
울음	10659
와이번스	10660
수중	10661
아유	10662
수아	10663
약체	10664
필라	10665
4000	10666
눈앞	10667
Op	10668
##gr	10669
데몬	10670
일명	10671
대국	10672
조수	10673
좌파	10674
전임	10675
빅토리아	10676
사임	10677
카일	10678
고래	10679
동상	10680
집필	10681
객관	10682
출석	10683
##aster	10684
ㅔ요	10685
사르	10686
접수	10687
빌보드	10688
##스르	10689
공교	10690
외야수	10691
##app	10692
마을버스	10693
그리스도	10694
메디	10695
##orts	10696
평상시	10697
목포	10698
확립	10699
두루	10700
비평	10701
인피니티	10702
이나마	10703
선회	10704
사이토	10705
대안	10706
##성군	10707
그리핀	10708
뾰	10709
대승	10710
##겔	10711
연세대	10712
성지	10713
유메	10714
##uc	10715
보살	10716
##ᆫ규	10717
뺘	10718
쿄코	10719
베이비	10720
이카	10721
##벼	10722
꺼지	10723
사천	10724
교향	10725
에코	10726
드워프	10727
애용	10728
혼혈	10729
1946	10730
걸어가	10731
##고속도로	10732
십자군	10733
아수	10734
##스트로	10735
신관	10736
##은이	10737
아니하	10738
공동체	10739
워드	10740
이계	10741
주공	10742
PK	10743
다큐멘터리	10744
주입	10745
##ᅩᆯ	10746
어제	10747
##시티	10748
루미	10749
장본	10750
해고	10751
알렉산더	10752
이니	10753
무자	10754
옐로	10755
서울시	10756
최상급	10757
보우	10758
컨디션	10759
츤	10760
그랑프리	10761
코레	10762
동북	10763
놔	10764
위시	10765
휴게	10766
스카웃	10767
김대중	10768
##CE	10769
이무	10770
주파	10771
챔스	10772
제발	10773
스기	10774
셀레	10775
##ject	10776
대면	10777
en	10778
편의점	10779
스타워즈	10780
껍질	10781
평판	10782
교대	10783
##OO	10784
EXT	10785
##ᆸ트	10786
탄소	10787
침해	10788
..?	10789
카토	10790
블라디	10791
득표율	10792
비로	10793
가령	10794
##ari	10795
단련	10796
줄리	10797
폭로	10798
프랭크	10799
math	10800
낯	10801
믿음	10802
카게	10803
아리스	10804
자력	10805
컴뱃	10806
전도	10807
방안	10808
댐	10809
면제	10810
수컷	10811
퍼시	10812
##긋나	10813
민폐	10814
##랜	10815
집사	10816
엇	10817
le	10818
휴대폰	10819
AL	10820
리리	10821
흑막	10822
라비	10823
진도	10824
테이프	10825
우미	10826
CR	10827
독백	10828
정답	10829
아쉬움	10830
크롬	10831
히로시마	10832
솔저	10833
정서	10834
숙청	10835
소마	10836
섬광	10837
아르바이트	10838
EZ	10839
리프트	10840
두려움	10841
막부	10842
##프란	10843
성대	10844
뻔하	10845
리부	10846
타우	10847
##각형	10848
와타나베	10849
구호	10850
달콤	10851
원한	10852
밈	10853
큐어	10854
경제학	10855
항성	10856
##스카	10857
원자력	10858
##iel	10859
감성	10860
떠돌	10861
팜	10862
단서	10863
강동	10864
지각	10865
냉장	10866
남학생	10867
공명	10868
##퍼니	10869
관광객	10870
##미르	10871
151	10872
홈경기	10873
##리얼	10874
둥글	10875
찬양	10876
하와	10877
보복	10878
격퇴	10879
138	10880
Gu	10881
신념	10882
스틱	10883
배리	10884
신조	10885
으려면	10886
SA	10887
던지라	10888
가해자	10889
장본인	10890
티저	10891
광복	10892
남양	10893
개업	10894
320	10895
하도	10896
172	10897
GSL	10898
눈동자	10899
은메달	10900
적이	10901
##애나	10902
점하	10903
타카하시	10904
권하	10905
정우	10906
휴먼	10907
벡터	10908
수성	10909
##오피스	10910
상시	10911
남한	10912
가이아	10913
##TA	10914
김병	10915
천주교	10916
ATK	10917
살아오	10918
##ats	10919
순천	10920
불화	10921
##도전	10922
##ye	10923
지면	10924
의의	10925
강아지	10926
어벤져	10927
단역	10928
보직	10929
우기	10930
EU	10931
##eah	10932
##바람	10933
클레이	10934
동아시아	10935
##디스	10936
개막전	10937
자루	10938
주한	10939
315	10940
수라	10941
시네마	10942
1961	10943
##총장	10944
천지	10945
##부인	10946
컬렉션	10947
노비	10948
풍경	10949
GD	10950
서바이벌	10951
일각	10952
배후	10953
테레	10954
걸음	10955
##중간	10956
얼티밋	10957
투고	10958
##운수	10959
고난	10960
트이	10961
TOP	10962
Mag	10963
오공	10964
158	10965
균열	10966
동사	10967
어기	10968
대교	10969
찔리	10970
내정	10971
그리하여	10972
라이드	10973
샹	10974
CL	10975
표기법	10976
트러	10977
상원	10978
재질	10979
도스	10980
##다드	10981
탁월	10982
다녀오	10983
깃털	10984
흑역사	10985
카사	10986
손잡이	10987
가왕	10988
악행	10989
캡슐	10990
무한도전	10991
##맨스	10992
통보	10993
##이센	10994
마미	10995
무신	10996
스톡	10997
시련	10998
추모	10999
스칼	11000
로맨스	11001
AB	11002
민병	11003
NT	11004
##쑤	11005
물리학	11006
##꿉	11007
여수	11008
치고	11009
ver	11010
리믹스	11011
수확	11012
로제	11013
카이저	11014
흉내	11015
스파크	11016
동메달	11017
내면	11018
일산	11019
숭배	11020
나란	11021
루마니아	11022
UC	11023
##oh	11024
##eth	11025
이순신	11026
충고	11027
표식	11028
##ron	11029
동이	11030
박스오피스	11031
소꿉	11032
쿠사	11033
으리	11034
슬라이드	11035
제대	11036
##성이	11037
독보	11038
결과물	11039
병살	11040
금고	11041
##ings	11042
아이즈	11043
주차장	11044
이호	11045
김일성	11046
히카	11047
청사	11048
유마	11049
구제	11050
아스트	11051
##내리	11052
##메리카	11053
사범	11054
신상	11055
제인	11056
어판	11057
이세	11058
볶	11059
매그	11060
그레이드	11061
건립	11062
레이지	11063
176	11064
공로	11065
도요	11066
컴퍼니	11067
방정	11068
크라운	11069
다저스	11070
딥	11071
삽질	11072
지미	11073
will	11074
간파	11075
운반	11076
펌	11077
Is	11078
ME	11079
재수	11080
예고편	11081
리플레	11082
테오	11083
보가	11084
겨루	11085
##짤	11086
##떡	11087
직무	11088
##느님	11089
##로우	11090
병과	11091
계략	11092
저항력	11093
테란	11094
호응	11095
발톱	11096
##inal	11097
궁수	11098
군데	11099
심정	11100
##==	11101
126	11102
차림	11103
신임	11104
1949	11105
오로치	11106
로크	11107
정의당	11108
마수	11109
안드레	11110
랴	11111
주의자	11112
Am	11113
과격	11114
대명	11115
완벽히	11116
하느님	11117
자작	11118
기온	11119
폴아웃	11120
승려	11121
상어	11122
친일	11123
우두머리	11124
이점	11125
10000	11126
식스	11127
몸매	11128
보루	11129
Don	11130
문법	11131
팍	11132
감금	11133
유라	11134
서원	11135
타스	11136
갈기	11137
##ult	11138
크로우	11139
라이트닝	11140
무선	11141
바이킹	11142
응급	11143
코로나	11144
테크노	11145
154	11146
사망자	11147
like	11148
레시피	11149
LE	11150
패왕	11151
세르비아	11152
총사	11153
쫓기	11154
흉악	11155
WH	11156
방울	11157
스치	11158
맷집	11159
{{{-	11160
KB	11161
뒤쪽	11162
풀려나	11163
Time	11164
리볼	11165
132	11166
##총리	11167
##MAN	11168
주황	11169
##핏	11170
전법	11171
총선거	11172
법안	11173
유해	11174
드루이드	11175
무비	11176
도사	11177
긋	11178
웨폰	11179
거꾸	11180
김성근	11181
표하	11182
습하	11183
짬	11184
레슬링	11185
##러브	11186
센트럴	11187
아테나	11188
new	11189
##넛	11190
##덕션	11191
성폭	11192
##런트	11193
##빨리	11194
성직자	11195
강서	11196
##13	11197
멸종	11198
응시	11199
##저래	11200
스크래	11201
지배자	11202
##마치	11203
빗나가	11204
이즈미	11205
강습	11206
천체	11207
스파르	11208
저승	11209
이래저래	11210
반기	11211
218	11212
완성도	11213
이용객	11214
테크닉	11215
이리저리	11216
르노	11217
Mi	11218
피드	11219
장신구	11220
##GA	11221
니트	11222
로열	11223
코디	11224
떨구	11225
국민당	11226
난리	11227
##ov	11228
취지	11229
##oul	11230
슌	11231
퉁	11232
급식	11233
충격파	11234
##18	11235
상의	11236
라이징	11237
##낭	11238
##곰	11239
손목	11240
하우	11241
선봉	11242
리츠	11243
##조합	11244
이영호	11245
탐구	11246
유신	11247
노라	11248
키노	11249
당나라	11250
짝사랑	11251
더미	11252
지터	11253
##ob	11254
제너	11255
핑계	11256
태조	11257
전염	11258
리우스	11259
야망	11260
미남	11261
프린스	11262
##나르	11263
과언	11264
블랙홀	11265
트론	11266
유능	11267
후반전	11268
어드배	11269
고조	11270
##ould	11271
이쿠	11272
행진	11273
##전사	11274
통틀어	11275
156	11276
##보우	11277
마가	11278
..!	11279
iOS	11280
##트랙	11281
무궁	11282
Ser	11283
마마	11284
##친구	11285
뢰	11286
one	11287
카제	11288
164	11289
##alk	11290
버거	11291
미세	11292
진하	11293
##렉터	11294
##처럼	11295
엮	11296
##tern	11297
##yn	11298
재벌	11299
##레븐	11300
숙련도	11301
139	11302
배율	11303
나란히	11304
필두	11305
김윤	11306
렀다	11307
모에	11308
##활약	11309
보트	11310
놔두	11311
얼라이	11312
ᆫ가요	11313
유카리	11314
##15	11315
능하	11316
몰려오	11317
시간대	11318
이인	11319
##up	11320
##라미	11321
구청	11322
153	11323
조던	11324
매기	11325
하츠네	11326
아호	11327
먼지	11328
벚	11329
교정	11330
저격수	11331
Gaming	11332
하나님	11333
##reak	11334
무슬리	11335
반장	11336
콜롬	11337
감기	11338
공격기	11339
거꾸로	11340
커플링	11341
무슬림	11342
양심	11343
합법	11344
초등학생	11345
나열	11346
김두	11347
이광	11348
##고사	11349
##der	11350
##able	11351
GK	11352
오키나	11353
하드웨어	11354
동지	11355
##ᆼ가	11356
샤를	11357
##제스	11358
접전	11359
ᆫ듯	11360
리터	11361
전두	11362
청장	11363
엉뚱	11364
하비	11365
성숙	11366
세미	11367
최하	11368
스탈린	11369
후면	11370
누이	11371
지성	11372
상공	11373
오바	11374
148	11375
디비전	11376
가히	11377
신주	11378
Car	11379
맞먹	11380
##ions	11381
##ᅮᆨ스	11382
허브	11383
인천광역시	11384
##사고	11385
연달	11386
탄막	11387
범하	11388
실업	11389
셋째	11390
니콜라	11391
##엘라	11392
스케줄	11393
표창	11394
동등	11395
Your	11396
얼라이언스	11397
마티	11398
타키	11399
단의	11400
벌금	11401
주유	11402
##문화	11403
167	11404
ᆫ단	11405
볼드	11406
고우	11407
김선	11408
냉장고	11409
스마일	11410
쟁이	11411
##널드	11412
대등	11413
맞대	11414
203	11415
북서	11416
봉하	11417
배열	11418
달인	11419
지표	11420
몰아넣	11421
##바스	11422
쫓아내	11423
황혼	11424
프로덕션	11425
어긋나	11426
##쿠스	11427
애국	11428
데미	11429
SSR	11430
창작물	11431
##타니	11432
##백과	11433
##주의자	11434
##PA	11435
사료	11436
무색	11437
1958	11438
브라우	11439
가나	11440
1941	11441
음향	11442
174	11443
오역	11444
주술사	11445
야마모토	11446
승급	11447
##왜	11448
영화배우	11449
##ull	11450
휴스턴	11451
도모	11452
##시다	11453
공모	11454
무죄	11455
갈구	11456
꾸리	11457
사야카	11458
##프란시스코	11459
샌프란시스코	11460
어그	11461
전례	11462
라틴어	11463
##재기	11464
진로	11465
##뼈	11466
##스텔	11467
종말	11468
여주인공	11469
se	11470
유타	11471
타당	11472
아수라	11473
노하	11474
동년	11475
시끄럽	11476
##뱉	11477
Min	11478
설탕	11479
법학	11480
깨우	11481
버블	11482
번식	11483
##ᅰ어	11484
처녀	11485
앞세우	11486
무안	11487
RO	11488
##셉트	11489
시뮬레이션	11490
142	11491
자키	11492
##니코	11493
밀라	11494
통행	11495
지지자	11496
바이크	11497
##상가	11498
LTE	11499
광범	11500
레이븐	11501
##차리	11502
굳히	11503
영등	11504
##껑	11505
문헌	11506
일러스트레이	11507
사내	11508
헤드샷	11509
빈약	11510
인명	11511
##타르	11512
염색	11513
스페인어	11514
쳐들어오	11515
카인	11516
주가	11517
순간이동	11518
##무네	11519
163	11520
혼동	11521
코프	11522
원화	11523
런처	11524
과감	11525
박탈	11526
가라앉	11527
한층	11528
##기업	11529
배상	11530
수령	11531
맹활약	11532
토비	11533
레인보우	11534
##넨	11535
생각나	11536
득실	11537
이오리	11538
차일드	11539
프로이센	11540
##ube	11541
##ECT	11542
일련	11543
러너	11544
비즈	11545
아슬	11546
마스코트	11547
꼴찌	11548
1954	11549
우편	11550
염두	11551
BGA	11552
레바	11553
리볼버	11554
##아티아	11555
제자리	11556
졸업식	11557
크로아티아	11558
강수	11559
월요일	11560
네스	11561
안보	11562
##ll	11563
전학	11564
have	11565
애완	11566
플레임	11567
후쿠시마	11568
사가	11569
pr	11570
태권	11571
회견	11572
##보라	11573
맥락	11574
제지	11575
콜레	11576
단식	11577
찰나	11578
설마	11579
황실	11580
out	11581
레슨	11582
절정	11583
음력	11584
밀레	11585
오리온	11586
수하	11587
##퉁	11588
기관포	11589
페미니즘	11590
대목	11591
연막	11592
능숙	11593
른	11594
발현	11595
대외	11596
득표수	11597
크리스토	11598
장례식	11599
상속	11600
약칭	11601
이만	11602
##스티스	11603
##ICE	11604
##랄드	11605
내ᄈ	11606
스캔	11607
초상화	11608
환호	11609
카렌	11610
안제	11611
단총	11612
연고지	11613
사소	11614
NM	11615
복음	11616
토론토	11617
대군	11618
파우	11619
143	11620
밀어붙이	11621
137	11622
공고	11623
인텔	11624
대법원	11625
죄수	11626
부호	11627
##물리	11628
앞면	11629
당원	11630
미트	11631
한강	11632
무너	11633
무너뜨리	11634
##크리트	11635
소우	11636
따내	11637
시흥	11638
너클	11639
오피	11640
릴리스	11641
##로그	11642
방벽	11643
공짜	11644
쳐다보	11645
투사	11646
##베르트	11647
창당	11648
313	11649
현직	11650
노골	11651
격하	11652
혹평	11653
Sum	11654
##겸	11655
무단	11656
솔직히	11657
망설이	11658
##바루	11659
평창	11660
다지만	11661
흐리	11662
내뱉	11663
한정판	11664
소꿉친구	11665
사당	11666
박종	11667
펙	11668
양국	11669
빙의	11670
북동	11671
차분	11672
왓	11673
HS	11674
인체	11675
외관	11676
ALL	11677
플라스틱	11678
오비	11679
경찰청	11680
꿇	11681
가미	11682
자포	11683
두뇌	11684
무식	11685
CN	11686
IV	11687
추출	11688
##ᅳ레이크	11689
랜서	11690
이력	11691
##귄	11692
치마	11693
##소수	11694
베어	11695
1943	11696
십자가	11697
230	11698
이준	11699
전반기	11700
앵커	11701
반란군	11702
알아차리	11703
바티	11704
오딘	11705
아테네	11706
태자	11707
뮤지션	11708
##대사	11709
델타	11710
지요	11711
북구	11712
순찰	11713
맹독	11714
남미	11715
난투	11716
오케스트라	11717
프로스트	11718
기술력	11719
푼	11720
우산	11721
157	11722
관계없이	11723
해상도	11724
몰아내	11725
##모어	11726
강탈	11727
오쿠	11728
극악	11729
브레스	11730
133	11731
숙주	11732
ᆯ까요	11733
##FL	11734
기이	11735
슬슬	11736
키드	11737
공자	11738
거스르	11739
바비	11740
미시	11741
갈리아	11742
오프라	11743
un	11744
출제	11745
146	11746
팬티	11747
129	11748
##박이	11749
극우	11750
뚝	11751
잔해	11752
윈터	11753
확고	11754
구독자	11755
세키	11756
##더슨	11757
000000	11758
플레이버	11759
1942	11760
광범위	11761
별칭	11762
지극	11763
프레스	11764
##곧	11765
청룡	11766
화약	11767
##STER	11768
비참	11769
제프	11770
173	11771
시에	11772
나카무라	11773
카오루	11774
BO	11775
워너	11776
##결승	11777
미하	11778
종사	11779
설비	11780
진구	11781
##탱	11782
박명	11783
달래	11784
힌트	11785
키즈	11786
##ᆺ대	11787
경선	11788
##드리히	11789
채찍	11790
여장	11791
리뉴	11792
리셋	11793
##천사	11794
기쁨	11795
클리셰	11796
원년	11797
폐허	11798
margin	11799
##맷	11800
섹스	11801
실바	11802
수영복	11803
know	11804
서치	11805
카테고리	11806
오디오	11807
연안	11808
멘붕	11809
전수	11810
해태	11811
##무게	11812
호출	11813
텔레포트	11814
몸무게	11815
후대	11816
칠레	11817
폴리스	11818
팀장	11819
##MAX	11820
끓이	11821
set	11822
##무이	11823
방화	11824
##DX	11825
나락	11826
생물학	11827
##룬	11828
청원	11829
##날두	11830
OF	11831
호날두	11832
통증	11833
기행	11834
공습	11835
공천	11836
136	11837
Play	11838
##블레	11839
리베	11840
생애	11841
BT	11842
사나이	11843
##믹	11844
팩션	11845
파랑	11846
시초	11847
##ica	11848
정교회	11849
CB	11850
##che	11851
체스	11852
##소총	11853
Of	11854
서장	11855
애쉬	11856
태종	11857
##ock	11858
히카루	11859
우크라	11860
라시	11861
번갈	11862
포니	11863
미모	11864
##생기	11865
얼터	11866
As	11867
la	11868
개판	11869
##풀이	11870
망상	11871
##YP	11872
증기	11873
제조사	11874
메세지	11875
빈번	11876
저조	11877
Red	11878
아노	11879
##회장	11880
럭키	11881
Type	11882
BM	11883
하의	11884
##제국	11885
양대	11886
##14	11887
불문	11888
##산역	11889
오른팔	11890
애쓰	11891
일러스트레이터	11892
잠그	11893
조력	11894
심화	11895
복도	11896
클라우드	11897
149	11898
버터	11899
대패	11900
정준	11901
바인	11902
혼다	11903
라이센스	11904
우파	11905
박영	11906
브루스	11907
친정	11908
산탄총	11909
##에몽	11910
##전설	11911
치바	11912
교육청	11913
유선	11914
바나나	11915
때려잡	11916
##ᅨᆫ	11917
트랜스포	11918
넓히	11919
킬로	11920
샤오	11921
BA	11922
성규	11923
포맷	11924
오키나와	11925
##ict	11926
미끼	11927
범주	11928
##17	11929
라파	11930
스ᄂ	11931
심야	11932
134	11933
1900	11934
슬라임	11935
마니	11936
1956	11937
미숙	11938
인터페이스	11939
미도리	11940
맞물리	11941
경지	11942
해독	11943
##지않	11944
가의	11945
스나	11946
TP	11947
입국	11948
전류	11949
냉동	11950
가혹	11951
지주	11952
진리	11953
목재	11954
DI	11955
##ster	11956
레슬러	11957
신세계	11958
책상	11959
공손	11960
퍼센트	11961
##ange	11962
나사	11963
##ater	11964
대사관	11965
EV	11966
개미	11967
부흥	11968
운항	11969
가로막	11970
거느리	11971
밧	11972
깡패	11973
뫼	11974
진짜로	11975
##티넘	11976
김천	11977
플래티넘	11978
슈가	11979
바그	11980
비꼬	11981
왕관	11982
High	11983
태미	11984
##이스	11985
슬램	11986
사일	11987
##ons	11988
캇	11989
##모니	11990
##뿔	11991
무수	11992
구마	11993
##메라	11994
로그인	11995
자부	11996
열세	11997
파손	11998
심히	11999
파괴력	12000
트레이닝	12001
제이슨	12002
장갑차	12003
pro	12004
중후	12005
앞뒤	12006
##레슬링	12007
오세	12008
땀	12009
분쇄	12010
달라	12011
교양	12012
스매시	12013
불쾌	12014
초래	12015
개개	12016
자켓	12017
무명	12018
feat	12019
진형	12020
요우	12021
입법	12022
TE	12023
찰리	12024
원망	12025
프로그래밍	12026
NEW	12027
미들	12028
수시로	12029
섹시	12030
외면	12031
프로레슬링	12032
페이크	12033
재림	12034
슬러그	12035
축구단	12036
##왜란	12037
악곡	12038
임진왜란	12039
##ple	12040
보디	12041
증인	12042
중급	12043
열기	12044
랜스	12045
싱어	12046
경질	12047
칙	12048
방정식	12049
퇴역	12050
쇼트	12051
사천왕	12052
전두환	12053
##넉	12054
지난	12055
스바루	12056
##콕	12057
시집	12058
주고	12059
모어	12060
%.	12061
뒷면	12062
콕	12063
##슬란	12064
싣	12065
연말	12066
##니스트	12067
147	12068
스팅	12069
공과	12070
져	12071
골목	12072
비로소	12073
Light	12074
##차례	12075
아래쪽	12076
패스트	12077
닫히	12078
미식	12079
박해	12080
호프	12081
##나리	12082
자회사	12083
퓨처	12084
상대식	12085
심상	12086
클러	12087
AE	12088
생선	12089
안철수	12090
앰	12091
꽁	12092
##주군	12093
##무늬	12094
폐선	12095
280	12096
세일러	12097
배우자	12098
실로	12099
##세서리	12100
최정	12101
엄폐	12102
2500	12103
ᆯ라	12104
소령	12105
##카미	12106
제우스	12107
헐크	12108
##바다	12109
하지메	12110
가브리	12111
저스티스	12112
드리블	12113
오프라인	12114
MO	12115
수용소	12116
선인	12117
GHz	12118
철갑탄	12119
##텍스	12120
착지	12121
직통	12122
##ᆫ티	12123
메구미	12124
Gen	12125
아랑	12126
웨일	12127
옌	12128
관절	12129
222	12130
나뭇	12131
차관	12132
마켓	12133
토막	12134
##to	12135
CO	12136
의아	12137
격리	12138
테일러	12139
히나타	12140
##구역	12141
편견	12142
##토랑	12143
##니즘	12144
##의회	12145
실천	12146
레스토랑	12147
##에트	12148
굴러	12149
플루	12150
따라잡	12151
~"	12152
수다	12153
더구나	12154
보잉	12155
세츠	12156
##툴	12157
강세	12158
수상자	12159
1939	12160
음색	12161
불리우	12162
##더기	12163
배속	12164
김연	12165
##CC	12166
개그맨	12167
was	12168
라임	12169
파이프	12170
What	12171
제단	12172
소행	12173
미쓰	12174
메테	12175
플랜	12176
면접	12177
꼼수	12178
템포	12179
감행	12180
레규	12181
프로세서	12182
배신자	12183
용의자	12184
##산동	12185
복용	12186
##고래	12187
거르	12188
Kor	12189
##지오	12190
166	12191
라든가	12192
로지	12193
미호	12194
증권	12195
고음	12196
원종	12197
연기력	12198
1959	12199
##컨드	12200
물어보	12201
반론	12202
도쿠가와	12203
지문	12204
##ics	12205
1936	12206
타고	12207
야전	12208
프랜차	12209
명탐정	12210
세컨드	12211
동조	12212
섬유	12213
인트	12214
소설가	12215
롤링	12216
일삼	12217
냉기	12218
두목	12219
##사관	12220
신칸	12221
준공	12222
술집	12223
하후	12224
탈당	12225
우물	12226
재임	12227
##ACK	12228
화소	12229
Heart	12230
율리	12231
##투아	12232
산화	12233
러닝	12234
레프	12235
공영	12236
Tw	12237
유즈	12238
종착	12239
조교	12240
소노	12241
스콧	12242
프랜차이즈	12243
##les	12244
플로리	12245
케리건	12246
미수	12247
내역	12248
역학	12249
LOVE	12250
필터	12251
웨인	12252
oh	12253
1955	12254
GPU	12255
삼촌	12256
미스터리	12257
##ex	12258
##사와	12259
기피	12260
뱃	12261
병종	12262
##BM	12263
이아	12264
트랜스포머	12265
모함	12266
##어붙	12267
어벤져스	12268
퍼붓	12269
랙	12270
체격	12271
아이스크림	12272
지그	12273
거니	12274
펭귄	12275
낡	12276
투신	12277
NHK	12278
AG	12279
##쫓	12280
하카	12281
투성이	12282
에그	12283
##데르	12284
반환	12285
아이폰	12286
찌질	12287
전광	12288
성기	12289
위키백과	12290
어린아이	12291
Mr	12292
파문	12293
##니스탄	12294
신칸센	12295
책략	12296
동문	12297
루키	12298
콘셉트	12299
토가	12300
채취	12301
사모	12302
기술자	12303
Blo	12304
동호	12305
재활	12306
둘러싸이	12307
PL	12308
하이브리	12309
경보	12310
호무	12311
속편	12312
영등포	12313
참으로	12314
이방	12315
시가	12316
그제	12317
물가	12318
야마다	12319
하이브리드	12320
##lass	12321
전열	12322
테일즈	12323
가르침	12324
##브러	12325
솔라	12326
장학	12327
##16	12328
인구수	12329
푹	12330
특훈	12331
부도	12332
##테스	12333
응하	12334
냉각	12335
봉기	12336
##드리아	12337
레귤러	12338
자질	12339
반군	12340
FPS	12341
주되	12342
랏	12343
틀어	12344
MK	12345
##AND	12346
깃들	12347
부당	12348
##두리	12349
##무실	12350
준결승	12351
장편	12352
방호	12353
TO	12354
스트리밍	12355
최대치	12356
쫓아가	12357
방송인	12358
좌표	12359
##권자	12360
마의	12361
##아슬	12362
아슬아슬	12363
##ᅣᆯ	12364
하리	12365
말년	12366
Par	12367
라구	12368
보행	12369
정형	12370
##전트	12371
소사	12372
메우	12373
##nder	12374
##플러스	12375
##규모	12376
인사이드	12377
스크립트	12378
로테이션	12379
모던	12380
1952	12381
쐐	12382
패드	12383
상행	12384
time	12385
포식	12386
뇌물	12387
적립	12388
서민	12389
수량	12390
가와	12391
소시	12392
소매	12393
##교통	12394
악하	12395
전반전	12396
공존	12397
범행	12398
ll	12399
330	12400
되살리	12401
수도원	12402
내뿜	12403
라바	12404
##더링	12405
하반기	12406
엣지	12407
##좀	12408
270	12409
사슴	12410
캔디	12411
카즈야	12412
##ors	12413
Fe	12414
##볼루션	12415
교통사고	12416
륙	12417
패닉	12418
얼어붙	12419
노래방	12420
도청	12421
##ME	12422
단과	12423
도호	12424
더하	12425
접어들	12426
표본	12427
죠죠	12428
신수	12429
쥰	12430
김도	12431
LED	12432
카니	12433
정계	12434
불가리아	12435
경과	12436
오타쿠	12437
속력	12438
유대인	12439
서해	12440
몹시	12441
스텔라	12442
페니	12443
담임	12444
직속	12445
중년	12446
어미	12447
뱉	12448
끝장	12449
스윕	12450
카우	12451
캐슬	12452
태극	12453
여배우	12454
순정	12455
뚜껑	12456
매지	12457
입양	12458
에메랄드	12459
발라드	12460
멋있	12461
교섭	12462
테러리스트	12463
함성	12464
우체	12465
파키스탄	12466
출고	12467
디렉터	12468
1947	12469
GTA	12470
파격	12471
동로	12472
원고	12473
##단지	12474
저거	12475
필립	12476
춘천	12477
#!	12478
솜씨	12479
##대기	12480
이에	12481
225	12482
평안	12483
모양새	12484
Good	12485
얕	12486
두근	12487
##콥터	12488
전속	12489
르네	12490
거품	12491
심문	12492
박상	12493
맴	12494
방공	12495
직격	12496
##트라이	12497
상쇄	12498
스퀘어	12499
짤리	12500
영동	12501
우상	12502
곡선	12503
재빨리	12504
저희	12505
사교	12506
무고	12507
##테리	12508
발간	12509
현존	12510
세스	12511
Per	12512
##뿌	12513
유지비	12514
적색	12515
현황	12516
서두르	12517
따돌리	12518
다이노스	12519
프리드리히	12520
사투리	12521
##딕	12522
핸드폰	12523
쓰러트리	12524
멜론	12525
##ᆫ각	12526
##수수	12527
바닷	12528
##스타인	12529
영남	12530
로저	12531
자각	12532
##려보	12533
순교	12534
광대	12535
쥬얼	12536
배리어	12537
호구	12538
호스	12539
단말	12540
자칫	12541
산악	12542
하행	12543
##글라스	12544
오락실	12545
##무기	12546
시가지	12547
스파이크	12548
프랑스군	12549
마초	12550
카를로스	12551
베일	12552
월등	12553
신흥	12554
벚꽃	12555
다기	12556
어워드	12557
##ᆺ집	12558
##파리	12559
앤디	12560
SL	12561
am	12562
##HT	12563
사탄	12564
텀	12565
넉넉	12566
성서	12567
털어놓	12568
석상	12569
발렌타인	12570
쎄	12571
하시	12572
신병	12573
보리	12574
적재	12575
레즈	12576
260	12577
스내	12578
급히	12579
마신	12580
라프	12581
##eep	12582
우천	12583
1800	12584
격전	12585
선진	12586
래스터	12587
쏠	12588
유나	12589
바닐라	12590
요미우리	12591
유니콘	12592
미유키	12593
##윽	12594
MSL	12595
##뚫	12596
메이트	12597
타이완	12598
더욱이	12599
##프ᄅ	12600
선우	12601
구절	12602
부관	12603
1919	12604
리바운드	12605
홀딩	12606
본의	12607
줌	12608
호투	12609
실력자	12610
브이	12611
휩싸	12612
IIDX	12613
몰아붙이	12614
고산	12615
##ᆯ리언	12616
하라	12617
호박	12618
새우	12619
부사관	12620
공약	12621
추궁	12622
중학생	12623
불신	12624
아홉	12625
##ott	12626
브랜	12627
블래	12628
받치	12629
원내	12630
호르	12631
즉각	12632
프로모	12633
심연	12634
질풍	12635
비타	12636
간호사	12637
야만	12638
기함	12639
상용	12640
차용	12641
핸들	12642
미티	12643
Kn	12644
쳐내	12645
ab	12646
정정	12647
상장	12648
신정	12649
달ᄀ	12650
일례	12651
유니온	12652
0900	12653
퐁	12654
남작	12655
군림	12656
소실	12657
징크스	12658
Li	12659
로스터	12660
ㅓㅆ었	12661
눈빛	12662
이례	12663
시부	12664
꿰뚫	12665
증발	12666
카이사르	12667
부류	12668
냅	12669
선형	12670
유방	12671
장원	12672
운석	12673
##메다	12674
EBS	12675
단정	12676
고분	12677
적성	12678
다중	12679
카탈	12680
wid	12681
브레인	12682
유정	12683
포워드	12684
프로토타입	12685
Wii	12686
##문트	12687
에바	12688
ᆯ려고	12689
츤데레	12690
텅	12691
##수아	12692
타고나	12693
도시락	12694
##메스	12695
최우수	12696
프롤로그	12697
소리치	12698
This	12699
근력	12700
안성	12701
ㅏ야	12702
호그	12703
드레드	12704
훈훈	12705
미로	12706
설화	12707
여관	12708
성비	12709
ᆯ지라도	12710
하와이	12711
악령	12712
조준경	12713
##산물	12714
축적	12715
픽셀	12716
##IV	12717
길거리	12718
헬리콥터	12719
구타	12720
##자동	12721
유무	12722
양보	12723
지름	12724
유승	12725
회귀	12726
더라면	12727
Baby	12728
##25	12729
##IK	12730
소규모	12731
본가	12732
카디	12733
라던가	12734
후루	12735
망원	12736
남서	12737
##anna	12738
허위	12739
격투기	12740
기관차	12741
##두사	12742
##파크	12743
루루	12744
자본주의	12745
깽	12746
교훈	12747
트러블	12748
실정	12749
진수	12750
제보	12751
페르난	12752
전산	12753
농사	12754
켈리	12755
정재	12756
습관	12757
HARD	12758
Sm	12759
바오	12760
불평	12761
미ᄁ	12762
존대	12763
일레븐	12764
럴	12765
ONE	12766
스토커	12767
탄탄	12768
동요	12769
떄	12770
충북	12771
서정	12772
유코	12773
빈틈	12774
히데요시	12775
루터	12776
킹덤	12777
1953	12778
대중교통	12779
스콜	12780
에필로그	12781
서태	12782
자문	12783
게임즈	12784
밀집	12785
중성	12786
샤워	12787
##델피아	12788
필라델피아	12789
GN	12790
##포드	12791
민정	12792
##넘기	12793
1938	12794
리키	12795
심리학	12796
##other	12797
총괄	12798
관념	12799
원작자	12800
Rock	12801
송출	12802
격침	12803
##행위	12804
첫날	12805
169	12806
프렌즈	12807
us	12808
회화	12809
단속	12810
줄어드	12811
##19	12812
박용	12813
청산	12814
석방	12815
구두	12816
##바키아	12817
빌라	12818
##세포	12819
미팅	12820
책정	12821
독서	12822
뽐	12823
리부트	12824
550	12825
야외	12826
만료	12827
만루	12828
자격증	12829
##똑	12830
##앙스	12831
총회	12832
장풍	12833
width	12834
선대	12835
고토	12836
말미	12837
양측	12838
파벌	12839
수수료	12840
##팍	12841
수평	12842
##icro	12843
Live	12844
밀어주	12845
##케인	12846
고든	12847
수복	12848
요시다	12849
일품	12850
리조	12851
김원	12852
생산량	12853
병장	12854
라나	12855
노트북	12856
Ac	12857
##토르	12858
특이점	12859
온몸	12860
유유	12861
술탄	12862
뉘앙스	12863
보증	12864
##ins	12865
죄송	12866
내수	12867
황태자	12868
여권	12869
히카리	12870
멀리서	12871
리우	12872
##ᆷ마	12873
할리우드	12874
##oss	12875
미니언	12876
##ru	12877
DB	12878
희대	12879
결사	12880
연금술사	12881
##크라이	12882
동래	12883
그리드	12884
대마	12885
##하이	12886
좁히	12887
미라이	12888
결함	12889
페이커	12890
##미스	12891
레이트	12892
여당	12893
니카	12894
가창	12895
왕좌	12896
독수리	12897
우가	12898
장동	12899
핸	12900
완구	12901
의석	12902
교내	12903
혜성	12904
에밀리	12905
##받침	12906
하부	12907
성수	12908
헥	12909
글리	12910
유배	12911
협약	12912
##노스케	12913
자니	12914
요하	12915
윌슨	12916
쇠퇴	12917
나고	12918
cc	12919
고스	12920
살피	12921
교시	12922
은혜	12923
후안	12924
홈즈	12925
OK	12926
연의	12927
호세	12928
##gain	12929
##ction	12930
Blue	12931
##턱	12932
정체불명	12933
경쟁자	12934
잊어버리	12935
Dark	12936
##EL	12937
버릇	12938
누명	12939
재위	12940
1957	12941
배송	12942
도라에몽	12943
사안	12944
제작비	12945
고성	12946
체형	12947
KTX	12948
원활	12949
가축	12950
갈아타	12951
초교	12952
##플리케이션	12953
우루과이	12954
대진	12955
오리진	12956
아르카	12957
무사시	12958
저술	12959
메모	12960
라오	12961
서대	12962
텍스	12963
##0000	12964
짚	12965
""	12966
전세	12967
보구	12968
켄지	12969
방과	12970
게시물	12971
토마토	12972
자크	12973
편안	12974
셰프	12975
진행자	12976
천마	12977
강팀	12978
로브	12979
주거	12980
로컬	12981
Champ	12982
자발	12983
말소	12984
환수	12985
더비	12986
##툭	12987
말아먹	12988
비토	12989
예배	12990
소비에트	12991
속박	12992
수강	12993
특허	12994
포대	12995
으리라	12996
원흉	12997
격기	12998
경순	12999
##na	13000
발차기	13001
분기점	13002
RC	13003
오시	13004
편찬	13005
피에	13006
빠뜨리	13007
Im	13008
주파수	13009
실루	13010
유비트	13011
분장	13012
Sun	13013
##ood	13014
첨단	13015
##agon	13016
쫓아오	13017
브론즈	13018
##UT	13019
캐스트	13020
유로파	13021
진군	13022
진정하	13023
##자재	13024
타다	13025
트로이	13026
게릴라	13027
탯이	13028
##그루	13029
넥서스	13030
바이올린	13031
++	13032
##어쓰	13033
친목	13034
OCG	13035
모친	13036
##ᆯ리티	13037
닉스	13038
돌아보	13039
Can	13040
직결	13041
일일이	13042
장제스	13043
##통수	13044
블레	13045
스케이팅	13046
포럼	13047
프랭	13048
리액	13049
아까	13050
랩터	13051
Bat	13052
해적단	13053
선곡	13054
깨알	13055
상가	13056
##스티니	13057
수녀	13058
MHz	13059
back	13060
타카시	13061
환사	13062
자손	13063
슬퍼	13064
니나	13065
요리사	13066
##ky	13067
북극	13068
연루	13069
코즈	13070
DR	13071
유영	13072
205	13073
##토리얼	13074
쓸데없이	13075
##훼	13076
재무	13077
센티	13078
클립	13079
##버드	13080
매달	13081
찢어지	13082
경감	13083
미성년	13084
통수	13085
용감	13086
기획사	13087
키트	13088
마차	13089
정동	13090
본성	13091
튜토리얼	13092
이창	13093
##놀이	13094
주고받	13095
달라붙	13096
na	13097
박재	13098
미즈키	13099
열람	13100
열악	13101
무제한	13102
기성	13103
수식	13104
불어	13105
후지와라	13106
데스티니	13107
##꼴	13108
Summer	13109
대출	13110
금색	13111
RP	13112
##코스	13113
단선	13114
권능	13115
모범	13116
니코니코	13117
##일으키	13118
요시노	13119
##ty	13120
불러일으키	13121
플레어	13122
김명	13123
##irst	13124
셰이	13125
분홍색	13126
야마구치	13127
##사벽	13128
넘사벽	13129
배기	13130
매수	13131
명곡	13132
##DS	13133
민영	13134
야심	13135
농촌	13136
당주	13137
살상	13138
연하	13139
브레이브	13140
##기지	13141
자판	13142
산책	13143
빅토르	13144
저것	13145
도검	13146
##ady	13147
##코프	13148
목동	13149
양키스	13150
##무소	13151
야시	13152
##land	13153
Korea	13154
밀치	13155
흠좀	13156
흠좀무	13157
대대로	13158
Music	13159
탄도	13160
원천	13161
헌신	13162
##소스	13163
제스	13164
피치	13165
중추	13166
항아리	13167
창세	13168
동족	13169
하워드	13170
##박히	13171
비시	13172
강유	13173
스파르타	13174
##듣	13175
그래프	13176
서초	13177
아울러	13178
오디	13179
##드립	13180
남발	13181
##드르	13182
자처	13183
레이첼	13184
레이너	13185
휴게소	13186
함재기	13187
엘리스	13188
발광	13189
##저드	13190
소극	13191
BEMAN	13192
타나카	13193
세레	13194
라트	13195
루이지	13196
병합	13197
급기	13198
줄줄	13199
1914	13200
행렬	13201
어느새	13202
라드	13203
아제	13204
개칭	13205
토이	13206
노동당	13207
코지	13208
계란	13209
프리즘	13210
도마뱀	13211
무진	13212
귀하	13213
안산	13214
합하	13215
카타르	13216
기괴	13217
슈터	13218
필연	13219
빼내	13220
베이스볼	13221
험하	13222
강행	13223
반대편	13224
잠재력	13225
셸	13226
합당	13227
임원	13228
##누르	13229
BEMANI	13230
장안	13231
파산	13232
실무	13233
##현우	13234
악의	13235
만행	13236
화내	13237
일렉트로	13238
엿보	13239
##OID	13240
감전	13241
토로	13242
루팡	13243
나레이션	13244
Fire	13245
##석민	13246
무상	13247
다이스케	13248
설상가	13249
리턴	13250
윌리엄스	13251
프로모션	13252
설상가상	13253
제휴	13254
##현진	13255
금호	13256
글래	13257
##마당	13258
인어	13259
성모	13260
재난	13261
OB	13262
now	13263
쪼개	13264
학점	13265
쩔	13266
교관	13267
솔리	13268
김형	13269
댄서	13270
##숍	13271
성균관	13272
##커녕	13273
밀란	13274
유난	13275
650	13276
야기	13277
하원	13278
살인마	13279
##셸	13280
##니시	13281
음악가	13282
힐링	13283
정벌	13284
펜듈	13285
펜듈럼	13286
창업	13287
##킨스	13288
조직원	13289
211	13290
주심	13291
실습	13292
손톱	13293
목적지	13294
마운트	13295
화합	13296
대각	13297
문고	13298
북방	13299
입체	13300
이질	13301
위탁	13302
복면	13303
아타	13304
총격	13305
후궁	13306
슬퍼하	13307
시코	13308
악어	13309
차선	13310
포토	13311
##ium	13312
지온	13313
광속	13314
##곡동	13315
청동	13316
호기심	13317
여정	13318
평원	13319
달걀	13320
휩싸이	13321
정립	13322
폭동	13323
늦추	13324
쐐기	13325
친화	13326
세션	13327
농락	13328
##테이너	13329
후예	13330
귀중	13331
듀크	13332
치사	13333
##쉐	13334
피에르	13335
GG	13336
점사	13337
Life	13338
CA	13339
서독	13340
뒤통수	13341
진나라	13342
##혁명	13343
계열사	13344
가성	13345
육지	13346
사다	13347
3164	13348
##즈카	13349
##ush	13350
냉전	13351
해수	13352
STR	13353
고령	13354
재판소	13355
로코	13356
##메어	13357
양호	13358
퓨리	13359
##기사	13360
소동	13361
한발	13362
반항	13363
실명	13364
문어	13365
성도	13366
박찬	13367
Ma	13368
분화	13369
피카츄	13370
##ount	13371
##ᆯ럿	13372
스냅	13373
마요	13374
어설프	13375
가급	13376
모닝	13377
스캔들	13378
까닭	13379
But	13380
숙이	13381
세탁	13382
리엘	13383
염려	13384
별점	13385
1951	13386
동탁	13387
호노	13388
Just	13389
##프스	13390
똑똑	13391
어퍼	13392
로저스	13393
증가량	13394
풍속	13395
204	13396
##멋	13397
뭔	13398
자수	13399
총재	13400
프런	13401
한탄	13402
돌이	13403
숀	13404
코리	13405
진성	13406
투니	13407
월급	13408
내륙	13409
동체	13410
준하	13411
##ᅥᆫ지	13412
대상자	13413
쓸어버리	13414
페루	13415
창시	13416
네이트	13417
진료	13418
스킵	13419
아토	13420
선제골	13421
연회	13422
불로	13423
##따르	13424
DX	13425
##CH	13426
나이트메어	13427
고속도	13428
지극히	13429
네코	13430
대공포	13431
사로잡히	13432
시몬	13433
플로리다	13434
선방	13435
Ste	13436
##때로	13437
끌어내	13438
이복	13439
우아	13440
day	13441
레기	13442
##년기	13443
향기	13444
한숨	13445
Sy	13446
##ger	13447
##르기	13448
프로리그	13449
사면	13450
박경	13451
##퍼런스	13452
FFF	13453
하타	13454
pt	13455
남극	13456
감히	13457
개개인	13458
##덮	13459
Dance	13460
##주리	13461
에스파	13462
사찰	13463
강연	13464
캐리어	13465
마운드	13466
드릴	13467
박명수	13468
일본식	13469
공익	13470
개연	13471
해임	13472
행방불명	13473
끼어들	13474
츠바사	13475
파장	13476
출근	13477
##저것	13478
이것저것	13479
할당	13480
현상금	13481
FB	13482
상표	13483
야드	13484
한도	13485
발칸	13486
Gold	13487
여친	13488
홍성	13489
석탄	13490
나폴리	13491
CON	13492
지상파	13493
실루엣	13494
국산	13495
호로	13496
Grand	13497
주황색	13498
적료	13499
네놈	13500
이노우	13501
스퍼	13502
##블릿	13503
스완	13504
서지	13505
테루	13506
##아라	13507
지휘자	13508
Pre	13509
오의	13510
회고	13511
저상	13512
Ev	13513
민법	13514
##티콘	13515
기복	13516
음주	13517
1600	13518
콘티	13519
신대	13520
광전사	13521
VOC	13522
구단주	13523
블루스	13524
효소	13525
##ne	13526
암울	13527
##ally	13528
HK	13529
아프가	13530
채집	13531
##ution	13532
이속	13533
망가	13534
괄	13535
시간표	13536
LCK	13537
따라다니	13538
예언자	13539
성체	13540
슬로우	13541
대주	13542
아르메	13543
기타리스트	13544
##준표	13545
괴상	13546
차후	13547
괴력	13548
아줌마	13549
난감	13550
##pr	13551
지중	13552
화자	13553
번트	13554
일식	13555
대표작	13556
피고	13557
관동	13558
스네이크	13559
##트니	13560
##징어	13561
영진	13562
매너	13563
##빼	13564
전교	13565
접점	13566
구급	13567
파수	13568
파업	13569
열등	13570
수락	13571
반짝이	13572
get	13573
통신사	13574
##힐	13575
세일	13576
카이토	13577
부여받	13578
사우루스	13579
화나	13580
##마침	13581
논하	13582
샘플	13583
##클럽	13584
외롭	13585
다짐	13586
내걸	13587
##그룹	13588
##미즈	13589
TW	13590
Over	13591
##궤	13592
대본	13593
##보그	13594
##얼거리	13595
케이지	13596
목요일	13597
코다	13598
군복	13599
이변	13600
콘크리트	13601
꽂히	13602
부평	13603
교직	13604
투하	13605
셉	13606
1937	13607
카르마	13608
램프	13609
##사이드	13610
리마	13611
##ator	13612
훅	13613
브란	13614
ARM	13615
추기	13616
매스	13617
포효	13618
호쿠	13619
경찰관	13620
정확도	13621
아틀레	13622
정세	13623
정자	13624
신축	13625
때마침	13626
딸기	13627
##룸	13628
beat	13629
젝	13630
##장난	13631
해치우	13632
출루율	13633
미사키	13634
출연진	13635
소피아	13636
고질	13637
전리	13638
박치기	13639
애시	13640
러셀	13641
합창	13642
일어서	13643
한스	13644
가브리엘	13645
아이유	13646
쫄	13647
매출액	13648
무궁화	13649
UF	13650
##체스	13651
변질	13652
ᆫ들	13653
외래	13654
금화	13655
차종	13656
샐러	13657
##베르토	13658
리에	13659
부과	13660
선구	13661
뷰티	13662
홍진호	13663
DJMAX	13664
서인	13665
##봇	13666
행정부	13667
예지	13668
회오리	13669
##air	13670
각기	13671
클레어	13672
자진	13673
연발	13674
Sec	13675
코바야시	13676
비장	13677
어리석	13678
##그레	13679
##ᅥ리	13680
남아프리카	13681
일진	13682
퇴출	13683
등교	13684
tvN	13685
픽업	13686
대부	13687
챌린저	13688
처절	13689
시치	13690
크루즈	13691
대쉬	13692
일절	13693
최영	13694
##네이터	13695
##얀	13696
개인전	13697
베네치아	13698
코카	13699
백신	13700
세세	13701
파인	13702
고요	13703
##토시	13704
##르드	13705
출중	13706
##삐	13707
피츠	13708
아카리	13709
##엎	13710
교향곡	13711
아프가니스탄	13712
##나드	13713
그려	13714
BBC	13715
동창	13716
Out	13717
캉	13718
지침	13719
조영	13720
커비	13721
영리	13722
사극	13723
접근성	13724
느니	13725
고릴라	13726
한성	13727
마누	13728
태수	13729
우습	13730
신원	13731
만세	13732
쾨	13733
뺨	13734
##inc	13735
광부	13736
점거	13737
간선	13738
상류	13739
##히트	13740
헤매	13741
회심	13742
간략	13743
경매	13744
뽐내	13745
수험	13746
경희	13747
코요	13748
딱딱	13749
검은색	13750
이은	13751
##아스	13752
##축구	13753
##장이	13754
체이	13755
영조	13756
완수	13757
##언트	13758
밋	13759
부대원	13760
스피커	13761
컨트롤러	13762
##로이드	13763
풍자	13764
##ᆯ렛	13765
##츠카	13766
달빛	13767
샨	13768
상체	13769
리티	13770
다이너	13771
양주	13772
El	13773
Dis	13774
but	13775
아드	13776
책임자	13777
Win	13778
가소	13779
전년	13780
##흙	13781
미판	13782
사이보그	13783
##꿈치	13784
케이트	13785
사스케	13786
강판	13787
유난히	13788
에티	13789
##동원	13790
타니	13791
상하이	13792
수요일	13793
저렇게	13794
VOCAL	13795
조형	13796
##펑	13797
군함	13798
베이더	13799
총열	13800
빅뱅	13801
은밀	13802
캐서	13803
##...	13804
뒤덮	13805
이용해	13806
리플렉	13807
용맹	13808
천공	13809
##라노	13810
후문	13811
ᆫ다던가	13812
계좌	13813
콜드	13814
콜롬비아	13815
##바시	13816
##휴일	13817
총사령	13818
연구실	13819
소수자	13820
##ART	13821
백색	13822
촉진	13823
##펄	13824
천둥	13825
카구라	13826
미술관	13827
UI	13828
소감	13829
잔디	13830
##use	13831
평민	13832
벵	13833
바우	13834
라자	13835
고속버스	13836
몬테	13837
sc	13838
케로	13839
정크	13840
6000	13841
##앵	13842
런닝	13843
##수스	13844
미코토	13845
못지않	13846
자신감	13847
여더	13848
조제	13849
##터스	13850
Mon	13851
장신	13852
예명	13853
스플리	13854
혹사	13855
노려보	13856
##베이스	13857
기밀	13858
웨어	13859
HG	13860
워낙에	13861
제다이	13862
김두한	13863
##칼리	13864
영장	13865
##ring	13866
##쩌	13867
성형	13868
안면	13869
슬ᄅ	13870
민원	13871
앙리	13872
중견수	13873
판권	13874
##XT	13875
페이트	13876
##로니	13877
man	13878
차남	13879
비즈니스	13880
~~	13881
##LS	13882
매칭	13883
이야말로	13884
레이나	13885
Af	13886
조류	13887
역과	13888
오인	13889
이동하	13890
퓨어	13891
레몬	13892
권고	13893
장기간	13894
비요	13895
카가미	13896
힘쓰	13897
우와	13898
Power	13899
막아	13900
태블릿	13901
학계	13902
다툼	13903
대문	13904
함포	13905
샴	13906
사출	13907
##여지	13908
##ina	13909
##대교	13910
튜닝	13911
Res	13912
애드	13913
철회	13914
정렬	13915
매개	13916
스님	13917
샤프	13918
##관총	13919
체리	13920
집결	13921
임관	13922
우체국	13923
내야수	13924
아폴로	13925
뽕	13926
정거	13927
소절	13928
형편없	13929
망령	13930
380	13931
퀄컴	13932
매진	13933
발전기	13934
기합	13935
At	13936
호전	13937
도피	13938
섀도	13939
리전	13940
무효화	13941
##소문	13942
건전	13943
OPS	13944
패미	13945
베인	13946
}}}	13947
바주	13948
##ᅡᆼ스	13949
피스트	13950
혈액형	13951
지자	13952
퇴사	13953
경쟁력	13954
여덟	13955
노엘	13956
256	13957
키무라	13958
입술	13959
추첨	13960
나고야	13961
직구	13962
똘	13963
SCP	13964
NG	13965
욕구	13966
캐서린	13967
유서	13968
전전	13969
이성계	13970
조달	13971
제라	13972
Fem	13973
강성	13974
금성	13975
국사	13976
##범죄	13977
당첨	13978
저리	13979
자취	13980
베니	13981
때때로	13982
동갑	13983
카지노	13984
##하하	13985
공휴일	13986
동참	13987
속공	13988
##포스	13989
##스ᄅ	13990
농협	13991
섬세	13992
볼리	13993
아카이	13994
존속	13995
볼륨	13996
##맥스	13997
맏	13998
페가	13999
타치바나	14000
##ᅢ신	14001
총탄	14002
김영삼	14003
어쌔신	14004
자카	14005
립스	14006
코시	14007
증후	14008
##ittle	14009
무빙	14010
타국	14011
영미	14012
쑥	14013
적발	14014
sm	14015
경량	14016
##베리아	14017
##아르	14018
초고	14019
유포	14020
김택	14021
Fi	14022
서사	14023
MR	14024
옵티	14025
오징어	14026
직역	14027
제르	14028
무소	14029
색채	14030
성역	14031
아르메니아	14032
MX	14033
##심장	14034
악용	14035
채소	14036
명대사	14037
페더	14038
궤적	14039
가호	14040
방어선	14041
집중력	14042
여사	14043
내구력	14044
공성전	14045
부추	14046
건재	14047
화가	14048
허공	14049
가급적	14050
여진	14051
코이	14052
대인배	14053
Sing	14054
카노	14055
조력자	14056
조그마	14057
낙인	14058
거제	14059
본국	14060
##부시	14061
##베르크	14062
1910	14063
FL	14064
##숨에	14065
단숨에	14066
노기	14067
마에다	14068
아부	14069
장병	14070
저널	14071
##ERO	14072
츠나	14073
SG	14074
카즈마	14075
##싹	14076
##de	14077
##긴	14078
광탈	14079
##be	14080
넥슨	14081
피드백	14082
gr	14083
궁지	14084
##페르	14085
횡단	14086
고안	14087
러시아어	14088
젊은이	14089
허구	14090
##흘	14091
부식	14092
갈래	14093
##ello	14094
이우	14095
베토	14096
괴리	14097
공방전	14098
재고	14099
##트릭스	14100
정거장	14101
사육	14102
타나	14103
MT	14104
가명	14105
태세	14106
##reen	14107
SV	14108
쿠루	14109
##ual	14110
피라미	14111
김정은	14112
억지	14113
피처	14114
창의	14115
비니	14116
승천	14117
IG	14118
적진	14119
생산력	14120
족장	14121
견인	14122
세조	14123
##대부	14124
예장	14125
근성	14126
로사	14127
무전	14128
증세	14129
튀기	14130
##라비아	14131
막바지	14132
기미	14133
복싱	14134
서진	14135
절규	14136
##ᅳ레이트	14137
정명	14138
##코어	14139
줄거리	14140
돌격소총	14141
뒤이	14142
통용	14143
군사력	14144
소용돌이	14145
하임	14146
노이즈	14147
휴전	14148
주재	14149
MLB	14150
##바퀴	14151
동인지	14152
데우스	14153
Pv	14154
모방	14155
포지	14156
꺾이	14157
디펜스	14158
후후	14159
Rem	14160
라지만	14161
돌아서	14162
맥도	14163
건축물	14164
서킷	14165
표방	14166
에우	14167
##프레스	14168
윈스	14169
카오리	14170
Ep	14171
가뜩	14172
친선	14173
추적자	14174
역병	14175
##ational	14176
원격	14177
999	14178
연예계	14179
대파	14180
타시	14181
군기	14182
##ᆫ근	14183
돌려보내	14184
어인	14185
수군	14186
##riend	14187
##af	14188
발상	14189
아이작	14190
히토미	14191
##ars	14192
카바	14193
파이브	14194
##bs	14195
신주쿠	14196
리트	14197
두부	14198
설계도	14199
결장	14200
출몰	14201
루카스	14202
Vo	14203
소진	14204
깊숙	14205
카에	14206
둘러보	14207
##IE	14208
가뜩이나	14209
초당	14210
슈퍼스타	14211
므	14212
정은	14213
홍준표	14214
##해군	14215
양파	14216
모호	14217
스타팅	14218
이선	14219
발악	14220
급기야	14221
숏	14222
##ivers	14223
주방	14224
##퇴근	14225
수비진	14226
증후군	14227
노드	14228
테이크	14229
네모	14230
폭포	14231
트렌	14232
자유자재	14233
길들이	14234
인벤토리	14235
조폭	14236
이화	14237
VOCALOID	14238
##ᅳᆯ랜	14239
양현	14240
IDOL	14241
그려지	14242
리쿠	14243
악랄	14244
꽝	14245
초선	14246
오로라	14247
판서	14248
럼블	14249
포트리스	14250
##르르	14251
박격	14252
고양시	14253
Leg	14254
King	14255
수원시	14256
상임	14257
블래스트	14258
##에이터	14259
중전차	14260
애교	14261
고원	14262
연호	14263
김희	14264
풋볼	14265
베가	14266
부럽	14267
##회의	14268
미야자키	14269
##돌프	14270
마이어	14271
병단	14272
실황	14273
깽판	14274
HT	14275
핵무기	14276
YOU	14277
BF	14278
강변	14279
자유주의	14280
벽돌	14281
just	14282
시스터	14283
히노	14284
이치고	14285
무림	14286
아몬	14287
##쏠	14288
제시카	14289
태그팀	14290
엄지	14291
에이전트	14292
상회	14293
##외선	14294
물들	14295
표출	14296
세나	14297
징징	14298
쏠쏠	14299
분경	14300
응원가	14301
코타로	14302
추기경	14303
콘테	14304
억압	14305
##SS	14306
일자리	14307
School	14308
##MC	14309
지령	14310
신시	14311
왠만	14312
운운	14313
Miss	14314
선도	14315
##클레스	14316
김창	14317
마테	14318
CEO	14319
키사	14320
랜턴	14321
1935	14322
팔찌	14323
##atic	14324
간행	14325
##질기	14326
밉	14327
인맥	14328
UFC	14329
진가	14330
Rec	14331
레니	14332
삼거리	14333
GR	14334
대제	14335
끈질기	14336
##일본	14337
바루	14338
유토	14339
what	14340
사사키	14341
배분	14342
수고	14343
옥타	14344
츠루	14345
고베	14346
재사	14347
경유지	14348
???	14349
##니클	14350
##카즈	14351
스티커	14352
##토미	14353
극소수	14354
뒷받침	14355
밀접	14356
1918	14357
치명상	14358
##ern	14359
소피	14360
##첸	14361
티베트	14362
마르크스	14363
다단	14364
자바	14365
벅스	14366
포고	14367
##itch	14368
코스타	14369
조지아	14370
당분	14371
알고리	14372
이노우에	14373
##ts	14374
장타율	14375
빨강	14376
베드	14377
STER	14378
별자리	14379
1934	14380
운동가	14381
반갑	14382
레스터	14383
본디	14384
Che	14385
허리케인	14386
쿠파	14387
131	14388
창병	14389
##브레	14390
아이언맨	14391
되살아나	14392
하르	14393
스타크	14394
ADV	14395
파파	14396
'''	14397
기마	14398
일보	14399
국력	14400
손아	14401
임상	14402
이과	14403
아의	14404
##연합	14405
##사전	14406
여고생	14407
플래닛	14408
어드밴스	14409
평면	14410
게임기	14411
천도	14412
##셔츠	14413
고폭탄	14414
아다	14415
End	14416
퍼시픽	14417
프론트	14418
유하	14419
방금	14420
자주포	14421
천적	14422
##날드	14423
시중	14424
로만	14425
VR	14426
##rain	14427
Ge	14428
Di	14429
피겨	14430
쿠시	14431
##큘라	14432
이가	14433
위나라	14434
함경	14435
도리어	14436
인내	14437
독성	14438
어우	14439
Air	14440
쇼군	14441
뵈	14442
##tr	14443
단골	14444
포레	14445
마이너스	14446
데카	14447
편대	14448
세간	14449
디에	14450
##ᆺ이	14451
불러들이	14452
##서야	14453
과부	14454
남구	14455
##투르	14456
방황	14457
미스트	14458
##루살	14459
군산	14460
사하	14461
새로이	14462
대명사	14463
무성	14464
입성	14465
메라	14466
고어	14467
##루살렘	14468
넓이	14469
노조미	14470
도도	14471
명령어	14472
성문	14473
알고리즘	14474
헬스	14475
##oot	14476
Mod	14477
한심	14478
줄곧	14479
마사키	14480
올라서	14481
##노미야	14482
글러브	14483
사부	14484
군벌	14485
if	14486
전편	14487
정유	14488
여도	14489
종일	14490
마이트	14491
야쿠자	14492
그리스어	14493
단조	14494
교주	14495
인프라	14496
걸작	14497
멀쩡히	14498
뒤집히	14499
자민	14500
표명	14501
예술가	14502
실험실	14503
안나	14504
정인	14505
##재판	14506
무언	14507
흡연	14508
교란	14509
##어먹	14510
##의사	14511
초사	14512
드라큘라	14513
서드	14514
취직	14515
위즈	14516
포털	14517
##ren	14518
마커	14519
피리	14520
굴복	14521
피코	14522
에일리언	14523
뇨	14524
박주	14525
착수	14526
남용	14527
관악	14528
시립	14529
경신	14530
송도	14531
솔로몬	14532
col	14533
담당자	14534
킹스	14535
요건	14536
광신	14537
욕하	14538
##같이	14539
체질	14540
금전	14541
작별	14542
단절	14543
타케시	14544
샤크	14545
덫	14546
첨가	14547
##UE	14548
메스	14549
악장	14550
카로	14551
상반기	14552
EMP	14553
아이리스	14554
##크라이나	14555
우크라이나	14556
지망	14557
##려드	14558
카스미	14559
##55	14560
##쿠로	14561
예비군	14562
부풀	14563
집정	14564
##콰	14565
예루살렘	14566
해운대	14567
여의도	14568
저격총	14569
PVP	14570
천계	14571
디디	14572
왕궁	14573
시드니	14574
##긍	14575
관제	14576
이치로	14577
학번	14578
##UR	14579
옵티머스	14580
원호	14581
휴일	14582
##데아	14583
제후	14584
성추	14585
초원	14586
로딩	14587
추이	14588
토오루	14589
광석	14590
미성년자	14591
만류	14592
##rist	14593
night	14594
주범	14595
비늘	14596
매사	14597
진흙	14598
손녀	14599
타노스	14600
도미니	14601
##ony	14602
##ma	14603
청색	14604
카린	14605
Sound	14606
토착	14607
사쿠라이	14608
POP	14609
느냐는	14610
Hy	14611
지기	14612
염소	14613
키워드	14614
회복력	14615
화요일	14616
총대	14617
##중국	14618
##드래	14619
양도	14620
제식	14621
뛰쳐	14622
배지	14623
##사우	14624
문과	14625
정중	14626
연희	14627
광저우	14628
하세	14629
불멸	14630
메꾸	14631
컨테이너	14632
백합	14633
해커	14634
무작정	14635
부치	14636
##세데스	14637
김전	14638
메르세데스	14639
##iew	14640
쿠노	14641
요동	14642
고독	14643
괴담	14644
아역	14645
프런트	14646
거주지	14647
DO	14648
유소년	14649
출퇴근	14650
상수	14651
리노	14652
군중	14653
블라디미르	14654
진작	14655
연구자	14656
팔라딘	14657
작아지	14658
don	14659
한모	14660
##ope	14661
벼슬	14662
행태	14663
좌익수	14664
유교	14665
##데기	14666
양면	14667
##시계	14668
조운	14669
##ᅳᆯ래시	14670
MASTER	14671
빼돌리	14672
노숙	14673
대칭	14674
오너	14675
현명	14676
요르	14677
아산	14678
노이	14679
성채	14680
애ᄐ	14681
모터스	14682
바주카	14683
잉크	14684
##수엘라	14685
법무부	14686
인테르	14687
발트	14688
신디	14689
민족주의	14690
시한	14691
MD	14692
눈ᄊ	14693
고려대	14694
EM	14695
ㅋㅋ	14696
나날	14697
유수	14698
직관	14699
징병	14700
##ana	14701
유목	14702
손바닥	14703
미끄러지	14704
반다이	14705
커리	14706
아야카	14707
게리온	14708
후유증	14709
빌헬	14710
툼	14711
먹방	14712
##atale	14713
##리히	14714
기와	14715
##어찌	14716
드라군	14717
##즈루	14718
선비	14719
카트리	14720
골리	14721
애틀랜	14722
과실	14723
카무이	14724
제멋	14725
교육부	14726
조장	14727
데이비스	14728
##던트	14729
스코프	14730
프레데	14731
##메인	14732
하야토	14733
굳어지	14734
##교육	14735
퍼스	14736
Femme	14737
##oon	14738
베토벤	14739
청량	14740
로망	14741
사업자	14742
샬	14743
콜로니	14744
효력	14745
그닥	14746
기한	14747
SO	14748
Cat	14749
사에	14750
시그마	14751
칼럼	14752
way	14753
황족	14754
##패스	14755
액셀	14756
명작	14757
이마트	14758
##ox	14759
농어	14760
BAS	14761
이안	14762
의거	14763
빈사	14764
어찌어찌	14765
레이터	14766
무어	14767
##ield	14768
대용	14769
재팬	14770
언행	14771
마도사	14772
라지	14773
브라더	14774
금기	14775
들려오	14776
일부분	14777
득점자	14778
경인	14779
피어	14780
박준	14781
사우디아	14782
##천동	14783
얼핏	14784
bl	14785
내려지	14786
##클랜드	14787
학업	14788
텔레콤	14789
섭외	14790
가치관	14791
##22	14792
애당초	14793
티코	14794
애프	14795
베르크	14796
파고들	14797
##덩	14798
다나카	14799
베네수엘라	14800
역설	14801
##먹이	14802
EA	14803
미토	14804
##노이	14805
1100	14806
수산	14807
매복	14808
##안군	14809
우시	14810
소심	14811
펄스	14812
쟁탈	14813
##무장	14814
1932	14815
##야샤	14816
타협	14817
설레	14818
극찬	14819
스위트	14820
이누야샤	14821
WE	14822
생사	14823
흑백	14824
경장	14825
알코	14826
각색	14827
한몫	14828
보태	14829
성주	14830
즐거	14831
##의정	14832
활주	14833
친밀	14834
##olog	14835
알프레	14836
트림	14837
1931	14838
그놈	14839
피라미드	14840
광학	14841
1933	14842
XP	14843
수준급	14844
민국	14845
링컨	14846
해인	14847
초토	14848
선체	14849
아루	14850
택배	14851
미지수	14852
대잠	14853
보답	14854
총통	14855
폴더	14856
겉보기	14857
친위대	14858
이윽	14859
사바	14860
이윽고	14861
증원	14862
껄	14863
재혼	14864
##언정	14865
확연히	14866
##튠	14867
로드리	14868
패기	14869
되돌아가	14870
양념	14871
창원시	14872
일쑤	14873
클리ᄇ	14874
브릿지	14875
조율	14876
중앙선	14877
광주광역시	14878
강적	14879
##변속기	14880
스루	14881
##무스	14882
##Fatale	14883
전리품	14884
조선일보	14885
##맨더	14886
FemmeFatale	14887
대두	14888
With	14889
반말	14890
든가	14891
병살타	14892
Hard	14893
자연스레	14894
Run	14895
다던가	14896
스테이트	14897
사위	14898
빅터	14899
효과음	14900
위화	14901
카도	14902
외출	14903
안토니오	14904
다정	14905
마모루	14906
건의	14907
시력	14908
미타	14909
바하	14910
##퀄	14911
피곤	14912
참패	14913
##돼지	14914
XXX	14915
자잘	14916
쾌속	14917
지중해	14918
다인	14919
김전일	14920
부회장	14921
마징가	14922
추석	14923
두께	14924
임용	14925
복종	14926
CT	14927
가든	14928
칭송	14929
##제이	14930
##AA	14931
연비	14932
인테	14933
후타	14934
탈옥	14935
번영	14936
##쿠버	14937
낯설	14938
엇갈리	14939
수작	14940
무찌	14941
성폭행	14942
미디	14943
340	14944
토머스	14945
부화	14946
클리블랜드	14947
Not	14948
정장	14949
겨누	14950
중령	14951
커브	14952
전념	14953
폭발물	14954
진공	14955
탤	14956
봉황	14957
이스터	14958
App	14959
카가	14960
직감	14961
신이치	14962
셜록	14963
가솔린	14964
안테	14965
승기	14966
넵	14967
손흥	14968
##elf	14969
Rev	14970
슈타인	14971
가산	14972
여건	14973
##암동	14974
입맛	14975
추대	14976
니콜	14977
##ouse	14978
도전자	14979
RS	14980
설득력	14981
말장난	14982
프랑켄	14983
소이	14984
살라	14985
1928	14986
##선거	14987
제정신	14988
214	14989
캡콤	14990
##사의	14991
기병대	14992
CCTV	14993
식신	14994
스폰지	14995
동봉	14996
송구	14997
흑화	14998
압살	14999
아그	15000
RG	15001
충주	15002
환원	15003
무찌르	15004
도널드	15005
호대	15006
토탈	15007
성공회	15008
셀프	15009
제이스	15010
##웬	15011
dis	15012
##라이어	15013
씁	15014
부츠	15015
명인	15016
채무	15017
##저트	15018
술법	15019
예리	15020
키퍼	15021
악세	15022
난전	15023
Da	15024
바늘	15025
치중	15026
꼭두	15027
미셸	15028
환각	15029
체조	15030
게재	15031
손흥민	15032
사용법	15033
무의	15034
든든	15035
쓸모없	15036
들이대	15037
박격포	15038
외무	15039
듀엣	15040
아지트	15041
서문	15042
##ᆨ션	15043
송이	15044
쇼핑몰	15045
##75	15046
VIP	15047
가출	15048
뾰족	15049
##텁	15050
##무니	15051
장래	15052
시동	15053
조세	15054
쓸데없	15055
이ᄆ	15056
의병	15057
페로	15058
접시	15059
안도	15060
서식지	15061
순진	15062
##레이드	15063
##그러지	15064
육식	15065
충성심	15066
키리토	15067
마포	15068
경위	15069
##투수	15070
SHOW	15071
피신	15072
좀처럼	15073
미라클	15074
유감	15075
##거진	15076
쇼코	15077
재사용	15078
종자	15079
재해	15080
바이스	15081
카세	15082
협곡	15083
반칙	15084
스왑	15085
분사	15086
고장나	15087
마작	15088
삼각형	15089
메테오	15090
##아아	15091
서면	15092
광양	15093
도호쿠	15094
##니치	15095
안치	15096
완전체	15097
공채	15098
위생	15099
선발투수	15100
##마사	15101
아종	15102
변종	15103
아즈사	15104
##득점	15105
상권	15106
선진국	15107
진과	15108
릉	15109
걸어오	15110
사우디아라비아	15111
UM	15112
시궁	15113
계보	15114
육박	15115
Elect	15116
하코	15117
임창	15118
아치	15119
관습	15120
마음껏	15121
꾀하	15122
사각	15123
서북	15124
기만	15125
물려주	15126
윈스턴	15127
시구	15128
허세	15129
RAW	15130
어처	15131
북유럽	15132
온화	15133
##츠루	15134
바흐	15135
트린	15136
시위대	15137
리포트	15138
초식	15139
##방향	15140
빌미	15141
혼종	15142
불가사의	15143
폭사	15144
co	15145
##ORE	15146
미츠루	15147
Ke	15148
141	15149
She	15150
학창	15151
웨이트	15152
310	15153
##컨대	15154
대강	15155
동국	15156
##슬로	15157
뒤틀리	15158
만회	15159
사마의	15160
순조	15161
호노카	15162
체가	15163
8000	15164
제비	15165
모라	15166
잠복	15167
스플래시	15168
##투표	15169
결별	15170
격돌	15171
프레디	15172
작살	15173
액세서리	15174
##we	15175
저번	15176
##ecial	15177
##쿤	15178
가가	15179
과다	15180
최전	15181
석궁	15182
버지	15183
홈구장	15184
백미	15185
도르트	15186
동물원	15187
에리카	15188
연주자	15189
현행	15190
제구	15191
향수	15192
입학식	15193
늘어지	15194
구자	15195
철학자	15196
사과문	15197
패트릭	15198
벡	15199
대여	15200
Get	15201
낙원	15202
입당	15203
김혜	15204
협의회	15205
사다리	15206
존댓말	15207
앞쪽	15208
발산	15209
렴	15210
만두	15211
퍼뜨리	15212
수법	15213
정적	15214
뮬	15215
##조각	15216
탄종	15217
풀백	15218
오미	15219
단테	15220
대관	15221
##요환	15222
홍대	15223
틀어지	15224
가물	15225
본문	15226
##asy	15227
제이크	15228
기요	15229
호스트	15230
##ane	15231
하이드	15232
포르노	15233
라거나	15234
##66	15235
수렴	15236
승부차기	15237
콜라보레이션	15238
불사조	15239
레고	15240
앨리	15241
넘쳐	15242
샌디	15243
##ᆺ거리	15244
평정	15245
##its	15246
DT	15247
Ang	15248
스크래치	15249
애플리케이션	15250
world	15251
상정	15252
##미아	15253
블레이즈	15254
사설	15255
치아	15256
##28	15257
비석	15258
임요환	15259
수레	15260
와우	15261
정제	15262
어처구니	15263
비정	15264
오리콘	15265
시엘	15266
##치오	15267
콧	15268
무자비	15269
1924	15270
정류소	15271
##미사	15272
열풍	15273
까먹	15274
타라	15275
김인	15276
유죄	15277
왼팔	15278
##히사	15279
최면	15280
white	15281
크로니클	15282
당당히	15283
듀티	15284
엑소	15285
480	15286
스튜어트	15287
대담	15288
김세	15289
속삭	15290
송병	15291
설사	15292
학파	15293
식별	15294
소인	15295
베라	15296
##짜기	15297
기각	15298
##먼드	15299
순교자	15300
차세대	15301
강당	15302
볼텍스	15303
거물	15304
분수	15305
##EX	15306
양동	15307
재선	15308
느냐고	15309
촉구	15310
제이드	15311
안장	15312
##ze	15313
밸리	15314
손수	15315
SW	15316
영분	15317
알루미	15318
앞장	15319
침체	15320
007	15321
##용차	15322
원동	15323
가까스로	15324
밀라노	15325
박병	15326
수배	15327
더스트	15328
0000	15329
Cy	15330
다이브	15331
한조	15332
대전광역시	15333
탐욕	15334
추산	15335
시애	15336
부합	15337
아픔	15338
부추기	15339
하드코어	15340
틀림	15341
영락	15342
헤딩	15343
네메	15344
정시	15345
ᆫ다면서	15346
되돌아오	15347
선공	15348
##원수	15349
열받	15350
##크로스	15351
대변인	15352
니키	15353
스칼렛	15354
##무진	15355
##포로	15356
우익수	15357
콘스탄티노	15358
su	15359
##ness	15360
망원경	15361
난동	15362
베른	15363
720	15364
주주	15365
사이퍼	15366
가네	15367
기총	15368
착공	15369
플랫폼	15370
어비스	15371
전태	15372
에덴	15373
타지	15374
Song	15375
##지대	15376
목성	15377
프리즈	15378
흘러나오	15379
Big	15380
다이어트	15381
거스	15382
애리	15383
Comm	15384
시저	15385
호조	15386
휩쓸	15387
나지	15388
발렌시아	15389
국무총리	15390
##24	15391
자위대	15392
비약	15393
편제	15394
합방	15395
Back	15396
선명	15397
##인간	15398
처단	15399
클로즈	15400
동포	15401
##appy	15402
주작	15403
데이빗	15404
도르트문트	15405
420	15406
폿	15407
팔꿈치	15408
강남구	15409
정무	15410
Arm	15411
류현진	15412
##매매	15413
마더	15414
##도니아	15415
선교사	15416
##즈마	15417
시애틀	15418
의미심장	15419
디트로	15420
디트로이트	15421
서점	15422
교구	15423
광화	15424
검찰청	15425
빌헬름	15426
유한	15427
레트	15428
커먼	15429
승계	15430
품종	15431
황자	15432
화수	15433
삽화	15434
##스란	15435
매트	15436
방대	15437
망자	15438
익스프레스	15439
##ny	15440
유쾌	15441
김미	15442
출입구	15443
화장품	15444
이산	15445
격노	15446
동대문	15447
코이치	15448
##제리	15449
대한항공	15450
오버로드	15451
매거진	15452
조선인	15453
자라나	15454
항로	15455
목표물	15456
##ke	15457
교감	15458
##벨트	15459
##평가	15460
리젠	15461
랫	15462
히로유키	15463
특권	15464
창출	15465
Order	15466
유명세	15467
##제품	15468
괴로	15469
늘어놓	15470
두텁	15471
##RAM	15472
##부리	15473
##마이	15474
##sc	15475
신민	15476
##슬라비아	15477
유고슬라비아	15478
##바ᄁ	15479
적정	15480
##부대	15481
1929	15482
떠들	15483
으라는	15484
대각선	15485
##모자	15486
바바	15487
룽	15488
1911	15489
##픈	15490
부두	15491
##틱스	15492
빡빡	15493
마고	15494
민병대	15495
카야	15496
포화	15497
역기	15498
로마자	15499
와이드	15500
후일담	15501
알루미늄	15502
대장군	15503
Skill	15504
리액션	15505
게ᄋ	15506
기라	15507
젤다	15508
스케치	15509
미련	15510
나우	15511
단신	15512
센트	15513
전복	15514
##쓸리	15515
꼭대기	15516
서재	15517
정현	15518
송파	15519
휩쓸리	15520
방랑	15521
야하	15522
##네트	15523
커네	15524
인디언	15525
con	15526
주군	15527
>,	15528
##35	15529
이따	15530
김준호	15531
대머리	15532
법령	15533
국수	15534
KS	15535
플러그	15536
에니	15537
배척	15538
유추	15539
선천	15540
벌칙	15541
집정관	15542
독재자	15543
서커스	15544
농부	15545
##chor	15546
스탠다드	15547
웨일스	15548
주성	15549
매입	15550
씁쓸	15551
TB	15552
나주	15553
##평군	15554
케네	15555
프리스트	15556
리조트	15557
태연	15558
사이오	15559
##그램	15560
퇴근	15561
안드로메다	15562
산지	15563
첩보	15564
아벨	15565
허영	15566
클락	15567
차출	15568
인즈	15569
UR	15570
발효	15571
겸임	15572
1925	15573
시즈카	15574
아론	15575
문의	15576
열전	15577
가제	15578
지아	15579
Every	15580
페인트	15581
사토시	15582
자택	15583
브뤼	15584
과반	15585
행선	15586
캬	15587
##느니	15588
좀비	15589
##let	15590
토네이	15591
토네이도	15592
세균	15593
버금	15594
노후	15595
새해	15596
수분	15597
일직	15598
토의	15599
졸개	15600
무협	15601
정규군	15602
김정일	15603
연기자	15604
즘	15605
##실히	15606
당분간	15607
오재	15608
보유자	15609
PSP	15610
cl	15611
듬	15612
다라	15613
##발리	15614
투르	15615
서경	15616
윤종	15617
크루세이	15618
##카스	15619
분교	15620
##각시	15621
##드릭	15622
국정원	15623
조회	15624
디테일	15625
입상	15626
병영	15627
장단	15628
난폭	15629
##UC	15630
모티	15631
경이	15632
내년	15633
태고	15634
##AG	15635
양아치	15636
##예프	15637
운전자	15638
##니트	15639
짤방	15640
영화판	15641
석화	15642
리히	15643
That	15644
구이	15645
##파니	15646
비행선	15647
##빠르	15648
사상자	15649
나나미	15650
위조	15651
알코올	15652
어휘	15653
가즈	15654
속옷	15655
총사령관	15656
상대편	15657
마늘	15658
수반	15659
왕녀	15660
난해	15661
1917	15662
성추행	15663
커터	15664
##자카	15665
성취	15666
느긋	15667
qu	15668
208	15669
화랑	15670
해협	15671
빡세	15672
이에야스	15673
활주로	15674
간식	15675
내려놓	15676
##눅스	15677
동거	15678
가차	15679
단거리	15680
##양군	15681
지독	15682
전염병	15683
생리	15684
치타	15685
##패드	15686
추월	15687
##작전	15688
##타자	15689
합산	15690
조비	15691
노랑	15692
##페스트	15693
심포	15694
헌데	15695
공병	15696
괴도	15697
상경	15698
갈고리	15699
펜스	15700
선발전	15701
프랭클린	15702
##폴리스	15703
te	15704
지체	15705
온전히	15706
라운	15707
춘추	15708
자석	15709
마장	15710
TCG	15711
인민군	15712
신종	15713
##비우스	15714
시노부	15715
비숍	15716
샤아	15717
복권	15718
홍수	15719
자부심	15720
단말기	15721
개화	15722
박세	15723
숙종	15724
거슬리	15725
212	15726
켄타	15727
마는	15728
서부터	15729
츠카사	15730
리눅스	15731
공직	15732
출세	15733
역전승	15734
해저	15735
마그마	15736
원산	15737
비욘	15738
##정역	15739
카트라이	15740
##애미	15741
세이부	15742
##나가와	15743
관광지	15744
유행어	15745
##bps	15746
Des	15747
스트라	15748
올라타	15749
마이애미	15750
이어인	15751
동남아시아	15752
대적	15753
교재	15754
제멋대로	15755
Har	15756
##운전	15757
위임	15758
##바위	15759
##ert	15760
갑판	15761
교원	15762
비밀리	15763
콩고	15764
초급	15765
잔당	15766
토요타	15767
##ious	15768
##정동	15769
불운	15770
낭만	15771
나츠미	15772
##끝	15773
FX	15774
등산	15775
영기	15776
171	15777
##ient	15778
라이터	15779
NL	15780
Top	15781
앞마당	15782
끊이	15783
왕따	15784
##옌	15785
게이밍	15786
타쿠미	15787
구세	15788
항쟁	15789
235	15790
튜너	15791
자아내	15792
##괘	15793
모건	15794
요일	15795
##단체	15796
올리버	15797
침식	15798
체이스	15799
##net	15800
판본	15801
연방군	15802
채굴	15803
크롤	15804
능동	15805
##모사	15806
스펙터	15807
GL	15808
아델	15809
파열	15810
자의	15811
영창	15812
개종	15813
850	15814
유체	15815
Tri	15816
누마	15817
##위치	15818
심부	15819
법조	15820
의리	15821
##비히	15822
EXH	15823
##유산	15824
크리스토퍼	15825
중얼거리	15826
야채	15827
##노기	15828
##ret	15829
사절	15830
255	15831
이제동	15832
1927	15833
조슈	15834
FR	15835
이관	15836
조인	15837
농도	15838
##ideo	15839
눌	15840
후작	15841
NS	15842
..'	15843
패거리	15844
악보	15845
리오스	15846
오드	15847
어중간	15848
일선	15849
직계	15850
키메라	15851
푸드	15852
쏠리	15853
마츠모토	15854
관대	15855
근래	15856
가변	15857
플레이트	15858
##튀기	15859
들려주	15860
장녀	15861
레이크	15862
일찍이	15863
비대	15864
백악	15865
법정동	15866
클라이언트	15867
##넓	15868
##ᆫ곡	15869
구치	15870
래스	15871
##pl	15872
뻥튀기	15873
주임	15874
RF	15875
한가	15876
해밀	15877
줄리아	15878
알아듣	15879
##호도	15880
##olution	15881
떨어트리	15882
##둘기	15883
신한은행	15884
Amer	15885
골대	15886
헌병	15887
는군	15888
공전	15889
중산	15890
와일드카드	15891
미완	15892
내심	15893
최진	15894
매트릭스	15895
어로	15896
쉘	15897
어지간히	15898
햇빛	15899
왕건	15900
##토록	15901
Em	15902
초동	15903
용품	15904
206	15905
스플릿	15906
##주곡	15907
투기	15908
트리오	15909
연평	15910
특출	15911
유니버	15912
이의	15913
상고	15914
이승엽	15915
애틀랜타	15916
와이어	15917
부메	15918
인스	15919
나탈	15920
자며	15921
안중	15922
PO	15923
텐션	15924
##ᆼ크	15925
유세	15926
DEF	15927
드레이크	15928
##IST	15929
모기	15930
##겨지	15931
LCD	15932
작렬	15933
##자스	15934
off	15935
##스트ᄅ	15936
삿포로	15937
럽	15938
##나들	15939
##co	15940
경호원	15941
##버릇	15942
소량	15943
리브	15944
##ERS	15945
서스	15946
각본가	15947
버디	15948
오아	15949
정직	15950
가메	15951
##비언	15952
바트	15953
리바이	15954
사역	15955
면은	15956
커트	15957
성남시	15958
알파벳	15959
중공업	15960
구애	15961
이지스	15962
우로	15963
벨벳	15964
켄이치	15965
333	15966
거듭나	15967
게르만	15968
장학금	15969
쭈	15970
주스	15971
유민	15972
Act	15973
프라이즈	15974
기통	15975
사비	15976
##니지	15977
요지	15978
진해	15979
UFO	15980
부메랑	15981
요크	15982
원제	15983
##ᆷ비	15984
가쿠	15985
정경	15986
후려	15987
드리프트	15988
##인드	15989
치부	15990
데뷔작	15991
209	15992
무로	15993
두드리	15994
카터	15995
메아리	15996
버니	15997
청주시	15998
##ful	15999
##밟	16000
엘런	16001
##mania	16002
ve	16003
판도라	16004
에프	16005
절묘	16006
데이브	16007
부딪치	16008
290	16009
Pe	16010
##라이터	16011
지바	16012
kn	16013
기겁	16014
LS	16015
케르	16016
우메	16017
메소	16018
줄줄이	16019
꼭두각시	16020
##르바	16021
남원	16022
이신	16023
피크	16024
##츠라	16025
작물	16026
무난히	16027
튜브	16028
KG	16029
##노프	16030
코지마	16031
저렇	16032
여리	16033
리투아	16034
햄버	16035
토템	16036
암석	16037
리투아니아	16038
동선	16039
##피어	16040
정종	16041
소아	16042
소음기	16043
##ner	16044
##ham	16045
##고쿠	16046
뇌격	16047
TD	16048
형법	16049
##사우루스	16050
특공대	16051
토와	16052
##틀링	16053
주름	16054
푸른	16055
인기투표	16056
Bar	16057
Fre	16058
215	16059
받침	16060
진전	16061
고모	16062
선풍	16063
##어들이	16064
친근	16065
오바마	16066
파드	16067
가창력	16068
트레이서	16069
데프	16070
##힘	16071
성녀	16072
외야	16073
단단히	16074
##캐슬	16075
세단	16076
치밀	16077
Ext	16078
##로프	16079
소중히	16080
##조선	16081
비틀즈	16082
루즈	16083
런닝맨	16084
AMD	16085
시정	16086
이민자	16087
##슘	16088
시궁창	16089
가로지르	16090
자드	16091
God	16092
자연수	16093
데일리	16094
Str	16095
1926	16096
생계	16097
통역	16098
데스크	16099
희미	16100
송곳	16101
나루호도	16102
되려	16103
레미	16104
다이묘	16105
항우	16106
뉴캐슬	16107
브로드	16108
독립운동가	16109
##숭	16110
##ning	16111
동산	16112
GDP	16113
괴멸	16114
탈리	16115
나가사키	16116
브라우저	16117
때우	16118
Hot	16119
팩토리	16120
Bea	16121
재상	16122
가중	16123
Ab	16124
경관	16125
밀러	16126
##ERT	16127
STAR	16128
##캐스트	16129
오마주	16130
규명	16131
RAM	16132
anchor	16133
덩크	16134
위화감	16135
우투	16136
어린애	16137
마드	16138
음양	16139
##ump	16140
아우구	16141
샤이닝	16142
가세	16143
##서리	16144
클라우	16145
나츠키	16146
Char	16147
노사	16148
항소	16149
전폭	16150
성종	16151
##렉트	16152
자정	16153
보전	16154
고스란	16155
고스란히	16156
김제	16157
러블리	16158
버금가	16159
'-	16160
케네디	16161
다구	16162
ᆯ지도	16163
##ward	16164
레비	16165
심심찮	16166
마카오	16167
Met	16168
Rain	16169
심슨	16170
시발	16171
##day	16172
정진	16173
점포	16174
Sil	16175
소셜	16176
초중	16177
every	16178
주시	16179
대의	16180
서남	16181
중소기업	16182
마천	16183
공시	16184
최성	16185
헛소리	16186
ᆯ게요	16187
알맞	16188
##ATION	16189
위인	16190
인장	16191
갭	16192
데이즈	16193
FN	16194
##여행	16195
금하	16196
경상도	16197
무심	16198
아이리	16199
랄까	16200
탄수	16201
제레	16202
평지	16203
오일	16204
최적화	16205
동유럽	16206
간장	16207
산호	16208
시르	16209
투여	16210
**	16211
뮤즈	16212
만화가	16213
해결책	16214
수리검	16215
영재	16216
체류	16217
want	16218
이시다	16219
성령	16220
로페	16221
##상스	16222
이목	16223
재화	16224
FE	16225
이분	16226
White	16227
##88	16228
비하인드	16229
Inf	16230
옥스	16231
헤라클레스	16232
로버	16233
##곡리	16234
랜디	16235
찬사	16236
최우선	16237
신촌	16238
1400	16239
단다	16240
헌납	16241
yout	16242
세무	16243
팔레스타인	16244
채권	16245
##트럼	16246
셔츠	16247
경의	16248
심플	16249
미얀	16250
인피니트	16251
##트림	16252
##하늘	16253
기판	16254
대리인	16255
수주	16256
ᄇ시다	16257
문호	16258
##매니아	16259
카자흐	16260
제각	16261
발도	16262
십상	16263
##내기	16264
바사	16265
수료	16266
유우야	16267
이송	16268
본ᄀ	16269
계승자	16270
사생활	16271
젯	16272
코나미	16273
KD	16274
포이	16275
로니	16276
명품	16277
북두	16278
루드	16279
충동	16280
성동	16281
바람직	16282
선하	16283
군단장	16284
수영장	16285
안테나	16286
조승	16287
세토	16288
현수	16289
역관	16290
앤더슨	16291
퀑	16292
김태균	16293
down	16294
최재	16295
긴장감	16296
more	16297
탬	16298
멸자	16299
과잉	16300
황무지	16301
오덕	16302
May	16303
빈스	16304
불분	16305
버지니아	16306
길목	16307
애리조	16308
##대표	16309
건너편	16310
##리안	16311
정연	16312
207	16313
마케도니아	16314
그물	16315
키바	16316
감속	16317
스트레이트	16318
이치카	16319
Pop	16320
잔여	16321
한인	16322
찾아다니	16323
IDOLM	16324
다이렉트	16325
주부	16326
도보	16327
개틀링	16328
권역	16329
##살이	16330
오퍼레이터	16331
발령	16332
로로	16333
##푸스	16334
##ᆯ트	16335
여행자	16336
근로자	16337
Master	16338
청문	16339
주권	16340
장막	16341
저스틴	16342
내무	16343
##소통	16344
흑룡	16345
배럴	16346
터무니	16347
대한제국	16348
##대군	16349
의류	16350
휘둘	16351
##켜	16352
의사소통	16353
하렘	16354
##son	16355
지자체	16356
코로	16357
한결	16358
창세기	16359
하데스	16360
편집자	16361
분과	16362
영국인	16363
며느리	16364
##드래곤	16365
투항	16366
##뮤직	16367
##au	16368
부녀	16369
서울역	16370
유부	16371
##ANC	16372
체로	16373
PA	16374
외교관	16375
자음	16376
우사	16377
##oud	16378
과하	16379
농어촌	16380
냐면서	16381
병맛	16382
박기	16383
머들	16384
볼프	16385
심리전	16386
##트르	16387
##ves	16388
아르테	16389
익명	16390
사단장	16391
##지리아	16392
단연	16393
감도	16394
나이지리아	16395
포유	16396
##피탈	16397
몸체	16398
앞장서	16399
Game	16400
시크	16401
대입	16402
초연	16403
숙명	16404
나기사	16405
##밖	16406
공석	16407
불분명	16408
##엠	16409
이범	16410
이라든가	16411
무언가	16412
지갑	16413
대도	16414
##실록	16415
노동조합	16416
멧돼지	16417
무법	16418
사시	16419
여객철도	16420
OR	16421
사병	16422
##밑	16423
촛불	16424
플라워	16425
전과	16426
로자	16427
스펙트럼	16428
나시	16429
는데도	16430
충실히	16431
수년	16432
##뚤	16433
수뇌	16434
안식	16435
분전	16436
161	16437
경희대	16438
미분	16439
##마츠	16440
they	16441
끝판	16442
감시자	16443
##지물	16444
1922	16445
사카모토	16446
##ift	16447
경시	16448
티탄	16449
송라이터	16450
행동력	16451
몰아치	16452
뛰어다니	16453
여대	16454
체급	16455
란트	16456
보단	16457
만화책	16458
재빠르	16459
##블랑	16460
리비아	16461
엠파이어	16462
##ship	16463
즉석	16464
전용기	16465
명확히	16466
서유럽	16467
호타	16468
스패	16469
##ape	16470
애프터	16471
COM	16472
동독	16473
너구리	16474
쿠미	16475
라데	16476
유시	16477
제품군	16478
##부짖	16479
성검	16480
울부짖	16481
중심부	16482
Are	16483
한중	16484
카에데	16485
신령	16486
##감치	16487
랄프	16488
GAM	16489
기공	16490
그토록	16491
##원군	16492
##갱	16493
오반	16494
공적	16495
##찌감치	16496
피고인	16497
조로	16498
치세	16499
체르	16500
미하일	16501
##떼	16502
들통	16503
경합	16504
리언	16505
1923	16506
##ᅪᆫ	16507
열렬	16508
슬레이	16509
지출	16510
체내	16511
세츠나	16512
TN	16513
행각	16514
WAR	16515
기생충	16516
국물	16517
절약	16518
역전패	16519
간편	16520
터리	16521
1921	16522
고갈	16523
자재	16524
구만	16525
##현동	16526
TG	16527
외래어	16528
스노	16529
김택용	16530
##lock	16531
좌석버스	16532
아란	16533
레베	16534
##ᆺ빛	16535
불가피	16536
카트라이더	16537
크러	16538
차마	16539
반자동	16540
##그로	16541
메커	16542
산출	16543
##꿀	16544
요양	16545
몸집	16546
트레인	16547
Bu	16548
맞춤	16549
민지	16550
가야	16551
무네	16552
Bra	16553
##또	16554
ᆫ대	16555
나데	16556
520	16557
후하	16558
only	16559
시세	16560
로미	16561
언론사	16562
마오쩌	16563
마오쩌둥	16564
##ien	16565
뿜어내	16566
마우	16567
##도사	16568
멱	16569
시프트	16570
익스트림	16571
천문학	16572
Yeah	16573
부설	16574
명하	16575
버즈	16576
경전철	16577
마비노기	16578
애덤	16579
DA	16580
아만	16581
체하	16582
의약	16583
단번에	16584
ㅏ요	16585
##less	16586
필기	16587
준장	16588
쿼드	16589
오스카	16590
이장	16591
비둘기	16592
##ize	16593
##교도	16594
특색	16595
news	16596
학부모	16597
소망	16598
짓밟	16599
크림슨	16600
##산면	16601
말라	16602
폐하	16603
도타	16604
순순	16605
##뿌리	16606
##zy	16607
음식점	16608
루시퍼	16609
Cont	16610
##LD	16611
마취	16612
완패	16613
절감	16614
##니케이션	16615
메이크	16616
이트	16617
솔리드	16618
피니시	16619
리시	16620
헤더	16621
성급	16622
피버	16623
커뮤니케이션	16624
오스틴	16625
pl	16626
티나	16627
터미네이터	16628
걸스	16629
신공	16630
하얀색	16631
등용	16632
제네시스	16633
##EE	16634
프란츠	16635
##형제	16636
캐로	16637
탤런트	16638
밴시	16639
예하	16640
산산	16641
Hea	16642
창간	16643
서약	16644
케어	16645
트레버	16646
##돔	16647
##플러	16648
기린	16649
욘	16650
제명	16651
치소	16652
인분	16653
##45	16654
월터	16655
르네상스	16656
임페	16657
항속	16658
장대	16659
활기	16660
##led	16661
##고루	16662
유스케	16663
##omb	16664
일갈	16665
섹터	16666
강령	16667
전투원	16668
자치구	16669
아세	16670
당근	16671
포괄	16672
극동	16673
궁정	16674
##준호	16675
비범	16676
붙여지	16677
콘테스트	16678
일생	16679
영화관	16680
남아공	16681
다마	16682
구스타	16683
설문	16684
무패	16685
급여	16686
붉은색	16687
종로구	16688
운임	16689
##똥	16690
간첩	16691
##도스	16692
구비	16693
치키	16694
급제	16695
##렁이	16696
위태	16697
독설	16698
포진	16699
독도	16700
단간	16701
##기어	16702
댈러스	16703
출생지	16704
재차	16705
##ited	16706
Project	16707
교직원	16708
##HD	16709
##법인	16710
그지	16711
락스	16712
팀킬	16713
헤지	16714
온게임	16715
온게임넷	16716
##마드	16717
와타루	16718
7000	16719
세련	16720
리포	16721
배고	16722
##람쥐	16723
민속	16724
##문화재	16725
노마	16726
은가	16727
복부	16728
Joh	16729
회자	16730
##조작	16731
다이스	16732
##ALL	16733
Off	16734
자위	16735
온전	16736
Battle	16737
불허	16738
##마트	16739
이상민	16740
TEC	16741
응징	16742
생포	16743
힘겹	16744
붕대	16745
1912	16746
읊	16747
척하	16748
TF	16749
노스케	16750
불안감	16751
플라잉	16752
정선	16753
선상	16754
이유로	16755
멀린	16756
스릴러	16757
다트	16758
우동	16759
메츠	16760
계약자	16761
순순히	16762
팰	16763
백지	16764
##ita	16765
승부조작	16766
유다	16767
빼놓	16768
다이빙	16769
눈부시	16770
발자	16771
회유	16772
이어폰	16773
##준혁	16774
JC	16775
##소타	16776
성유	16777
선별	16778
Open	16779
##ORM	16780
톡톡	16781
##ton	16782
원상	16783
반죽	16784
태후	16785
DDR	16786
~'	16787
정국	16788
협공	16789
조나	16790
성품	16791
빵빵	16792
##29	16793
이로	16794
노브	16795
순차	16796
천연가스	16797
wiz	16798
칸나	16799
Sky	16800
돌풍	16801
지못	16802
지못미	16803
패미컴	16804
##낮	16805
우이	16806
Moon	16807
나뭇잎	16808
조니	16809
전투복	16810
브리핑	16811
##장구	16812
휘둘리	16813
헤일	16814
번거	16815
......	16816
조부	16817
##웹	16818
221	16819
##ENT	16820
날아오르	16821
BASIC	16822
이석	16823
연장전	16824
노원	16825
기염	16826
알비	16827
관건	16828
미네소타	16829
소주	16830
##선스	16831
일직선	16832
777	16833
얀데레	16834
##메르	16835
스몰	16836
맞대결	16837
good	16838
##23	16839
스켈	16840
카르타	16841
힌두	16842
저력	16843
타츠야	16844
라리	16845
전라도	16846
하늘색	16847
##row	16848
##27	16849
레코	16850
1300	16851
아쉬워하	16852
##촬	16853
야자	16854
섭정	16855
꼼짝	16856
##슬란드	16857
외침	16858
짤막	16859
매도	16860
급진	16861
##개골	16862
아틀	16863
네타	16864
##푼	16865
차크라	16866
카즈키	16867
감염자	16868
Like	16869
다듬	16870
##com	16871
##위원	16872
남짓	16873
내려찍	16874
아이슬란드	16875
체구	16876
머스	16877
무모	16878
성원	16879
마코	16880
라이선스	16881
청취	16882
초회	16883
수족	16884
WCS	16885
##ling	16886
벌어들이	16887
라든지	16888
소탕	16889
희박	16890
경비원	16891
김현수	16892
Special	16893
##즐리	16894
엠블ᄅ	16895
화속	16896
2022	16897
조개	16898
오모	16899
음란	16900
순항	16901
흉터	16902
여느	16903
성가시	16904
갱단	16905
마자	16906
졸지	16907
##의지	16908
beatmania	16909
니즘	16910
방어전	16911
개드립	16912
##타기	16913
네메시스	16914
Bad	16915
류지	16916
눈썹	16917
탈탈	16918
##클라	16919
도메인	16920
노프	16921
샌드박스	16922
아틀라스	16923
재주	16924
비서관	16925
강호동	16926
##교회	16927
짊	16928
톱니	16929
누락	16930
검거	16931
관현	16932
이나즈마	16933
막말	16934
둔화	16935
낙하산	16936
중사	16937
음모론	16938
루리웹	16939
경영학	16940
디에고	16941
하천	16942
TT	16943
티셔츠	16944
탈주	16945
일정량	16946
산체스	16947
업자	16948
악인	16949
이북	16950
릭스	16951
통학	16952
데이터베이스	16953
Soul	16954
합금	16955
바이올렛	16956
##일관	16957
파병	16958
치과	16959
백수	16960
쪽지	16961
다이크	16962
넵튠	16963
밝혀	16964
추위	16965
부상자	16966
팽창	16967
졸리	16968
Med	16969
코팅	16970
뭣	16971
사납	16972
파나	16973
세이지	16974
는구나	16975
##rop	16976
멕	16977
미달	16978
모치	16979
주립	16980
급상	16981
ᆫ다든가	16982
탈것	16983
프라이드	16984
성범죄	16985
특촬	16986
착취	16987
원로원	16988
사죄	16989
##브러리	16990
타가	16991
벤츠	16992
브래드	16993
사오	16994
213	16995
드래곤즈	16996
##방식	16997
##더리	16998
##미리	16999
임프	17000
거창	17001
반대쪽	17002
##어내리	17003
이천	17004
##ᆫ강	17005
이시카와	17006
크레이지	17007
막아서	17008
지폐	17009
마호	17010
호라이	17011
진행하	17012
##UB	17013
칠흑	17014
연화	17015
박태	17016
서스펜	17017
형벌	17018
end	17019
Po	17020
##vent	17021
마사무네	17022
앵글	17023
티타	17024
Hey	17025
over	17026
정관	17027
피쳐	17028
눕히	17029
환불	17030
생방송	17031
대지진	17032
FBI	17033
##산리	17034
픽처	17035
이메일	17036
##line	17037
일간	17038
##ute	17039
Now	17040
WOR	17041
무당	17042
일파	17043
조현	17044
반납	17045
자기장	17046
Dragon	17047
성희	17048
Bur	17049
여하	17050
223	17051
찜	17052
##play	17053
유노	17054
빽	17055
죄인	17056
명백히	17057
our	17058
사카이	17059
##xt	17060
파기	17061
폴라	17062
철벽	17063
275	17064
바래	17065
밀양	17066
스피리	17067
밸브	17068
가주	17069
해프	17070
드미	17071
히코	17072
햄버거	17073
전갈	17074
어우러지	17075
메커니즘	17076
이도	17077
벨리	17078
스탠딩	17079
바실리	17080
부통령	17081
##드류	17082
baby	17083
관용	17084
막스	17085
자자	17086
파괴자	17087
정부군	17088
##가요	17089
래쉬	17090
##stem	17091
001	17092
밝혀내	17093
니즈	17094
#,	17095
울버	17096
이바	17097
신봉	17098
##oney	17099
세속	17100
옥수수	17101
Eng	17102
에테르	17103
미유	17104
양지	17105
장동민	17106
넘쳐나	17107
거머	17108
매점	17109
순례	17110
이끌리	17111
버퍼	17112
치히로	17113
대장장이	17114
##관계	17115
미카엘	17116
베풀	17117
fl	17118
성운	17119
반달	17120
왕립	17121
급습	17122
##맵	17123
햐	17124
원나라	17125
##뜸	17126
1907	17127
##방사기	17128
헬로	17129
화염방사기	17130
하시모토	17131
##96	17132
만장	17133
연성	17134
민심	17135
팬클럽	17136
스탠스	17137
수차례	17138
폭군	17139
자선	17140
일찌감치	17141
구루	17142
본드	17143
액트	17144
ac	17145
신탁	17146
쌔	17147
영령	17148
손책	17149
깁	17150
에로게	17151
비행장	17152
개관	17153
아카기	17154
Way	17155
레닌	17156
##소니	17157
쩌	17158
코브라	17159
일개	17160
올리브	17161
##아내리	17162
제너럴	17163
민사	17164
세비	17165
급증	17166
강서구	17167
인승	17168
결선	17169
##규어	17170
##두근	17171
종속	17172
슬쩍	17173
노보	17174
Alb	17175
##FFF	17176
조원	17177
##IGHT	17178
골리앗	17179
결단	17180
외환	17181
패권	17182
수당	17183
##미츠	17184
타오르	17185
원어	17186
일컬	17187
##eng	17188
설립자	17189
써니	17190
해프닝	17191
수납	17192
엠마	17193
##닥치	17194
see	17195
라이브러리	17196
마리사	17197
볼일	17198
겸비	17199
1905	17200
관전	17201
황소	17202
암기	17203
펠트	17204
미처	17205
케니	17206
카논	17207
연대기	17208
행군	17209
테슬라	17210
##벅지	17211
새신	17212
포자	17213
디비	17214
설교	17215
마레	17216
##lt	17217
문성	17218
승하	17219
럭스	17220
껴	17221
수퍼	17222
번번	17223
참모총장	17224
##파르	17225
제국주의	17226
구스	17227
티모	17228
갈아입	17229
DAY	17230
튀김	17231
러시아군	17232
아득	17233
골짜기	17234
빈센트	17235
뒤쳐지	17236
태백	17237
슬라이딩	17238
##나우	17239
Int	17240
송신	17241
365	17242
고하	17243
Cent	17244
오주	17245
조문	17246
방관	17247
린다	17248
max	17249
레그	17250
악질	17251
속사	17252
##ᆯ린더	17253
미나토	17254
Comp	17255
현무	17256
증진	17257
향년	17258
초전	17259
전령	17260
일괄	17261
쓸쓸	17262
희생양	17263
Match	17264
모리스	17265
부기	17266
트리스	17267
앤드류	17268
타케루	17269
##툭튀	17270
##시즘	17271
##라트	17272
선글라스	17273
본거	17274
##홍철	17275
박민	17276
골고루	17277
##영향	17278
수송선	17279
모로코	17280
코일	17281
료마	17282
클로버	17283
Ass	17284
##ᆺ소리	17285
거행	17286
극성	17287
샤르	17288
갑툭튀	17289
216	17290
대구광역시	17291
최형	17292
두개골	17293
백두	17294
##26	17295
지탱	17296
보급품	17297
바깥쪽	17298
##짖	17299
제드	17300
변모	17301
블루투스	17302
반주	17303
총구	17304
명장면	17305
검출	17306
구라	17307
탄두	17308
"'	17309
사생	17310
미용	17311
하남	17312
거니와	17313
물음	17314
아이오	17315
Yes	17316
불거지	17317
초필	17318
충무	17319
욕먹	17320
템플러	17321
##드루	17322
자결	17323
명실	17324
데니스	17325
밴쿠버	17326
본거지	17327
##건설	17328
##스탕스	17329
370	17330
레지스탕스	17331
좆	17332
왕성	17333
언락	17334
아데	17335
다량	17336
동아일보	17337
마공	17338
막론	17339
내리치	17340
리더십	17341
say	17342
시베리아	17343
블랑	17344
NAS	17345
최하위	17346
여명	17347
행세	17348
Fla	17349
증강	17350
사업가	17351
레프트	17352
right	17353
알제리	17354
이남	17355
자판기	17356
복식	17357
스투	17358
메두사	17359
재규어	17360
변함	17361
이문	17362
매지컬	17363
격납	17364
암흑기	17365
재발	17366
사주	17367
서유	17368
푸른색	17369
수속	17370
라일	17371
미공	17372
덕택	17373
정대	17374
##독부	17375
정주	17376
토토	17377
만년	17378
코칭	17379
kr	17380
매매	17381
양육	17382
##열차	17383
크루세이더	17384
홰	17385
소란	17386
경전차	17387
ᆫ다든지	17388
해발	17389
마르티	17390
텐더	17391
세레나	17392
한복	17393
##ude	17394
교제	17395
##혀가	17396
포상	17397
메르시	17398
##맹이	17399
전위	17400
CIA	17401
##원지	17402
잡혀가	17403
##천리	17404
장기전	17405
Ook	17406
##내셔널	17407
부르크	17408
인터내셔널	17409
라파엘	17410
사파이어	17411
##디우스	17412
샬로	17413
좌완	17414
거머쥐	17415
광동	17416
하버드	17417
미코	17418
PvP	17419
포레스트	17420
이달	17421
한미	17422
##ata	17423
잠식	17424
레오나	17425
##ᆺ밤	17426
베이커	17427
SUP	17428
에어컨	17429
에노	17430
[...]
