[UNK]	0
[CLS]	1
[SEP]	2
[PAD]	3
[MASK]	4
!	5
"	6
#	7
$	8
%	9
&	10
'	11
(	12
)	13
*	14
+	15
,	16
-	17
.	18
/	19
0	20
1	21
2	22
3	23
4	24
5	25
6	26
7	27
8	28
9	29
:	30
;	31
<	32
=	33
>	34
?	35
@	36
A	37
B	38
C	39
D	40
E	41
F	42
G	43
H	44
I	45
J	46
K	47
L	48
M	49
N	50
O	51
P	52
Q	53
R	54
S	55
T	56
U	57
V	58
W	59
X	60
Y	61
Z	62
[	63
\	64
]	65
^	66
_	67
`	68
a	69
b	70
c	71
d	72
e	73
f	74
g	75
h	76
i	77
j	78
k	79
l	80
m	81
n	82
o	83
p	84
q	85
r	86
s	87
t	88
u	89
v	90
w	91
x	92
y	93
z	94
{	95
|	96
}	97
~	98
	99
ᄀ	100
ᄁ	101
ᄂ	102
ᄃ	103
ᄄ	104
ᄅ	105
ᄆ	106
ᄇ	107
ᄈ	108
ᄉ	109
ᄊ	110
ᄋ	111
ᄌ	112
ᄍ	113
ᄎ	114
ᄏ	115
ᄐ	116
ᄑ	117
ᄒ	118
ᅡ	119
ᅢ	120
ᅣ	121
ᅤ	122
ᅥ	123
ᅦ	124
ᅧ	125
ᅨ	126
ᅩ	127
ᅪ	128
ᅫ	129
ᅬ	130
ᅭ	131
ᅮ	132
ᅯ	133
ᅰ	134
ᅱ	135
ᅲ	136
ᅳ	137
ᅴ	138
ᅵ	139
ᆨ	140
ᆩ	141
ᆪ	142
ᆫ	143
ᆬ	144
ᆭ	145
ᆮ	146
ᆯ	147
ᆰ	148
ᆱ	149
ᆲ	150
ᆳ	151
ᆴ	152
ᆵ	153
ᆶ	154
ᆷ	155
ᆸ	156
ᆹ	157
ᆺ	158
ᆻ	159
ᆼ	160
ᆽ	161
ᆾ	162
ᆿ	163
ᇀ	164
ᇁ	165
ᇂ	166
ㄱ	167
ㄲ	168
ㄳ	169
ㄴ	170
ㄵ	171
ㄶ	172
ㄷ	173
ㄸ	174
ㄹ	175
ㄺ	176
ㄻ	177
ㄼ	178
ㄽ	179
ㄾ	180
ㄿ	181
ㅀ	182
ㅁ	183
ㅂ	184
ㅃ	185
ㅄ	186
ㅅ	187
ㅆ	188
ㅇ	189
ㅈ	190
ㅉ	191
ㅊ	192
ㅋ	193
ㅌ	194
ㅍ	195
ㅎ	196
ㅏ	197
ㅐ	198
ㅑ	199
ㅒ	200
ㅓ	201
ㅔ	202
ㅕ	203
ㅖ	204
ㅗ	205
ㅘ	206
ㅙ	207
ㅚ	208
ㅛ	209
ㅜ	210
ㅝ	211
ㅞ	212
ㅟ	213
ㅠ	214
ㅡ	215
ㅢ	216
ㅣ	217
##S	218
##K	219
##a	220
##t	221
##f	222
##l	223
##y	224
##e	225
##r	226
##n	227
##o	228
##ᅨ	229
##ᄉ	230
##ᅥ	231
##ᅦ	232
##ᄅ	233
##ᅳ	234
##ᄏ	235
##ᅩ	236
##ᄇ	237
##ᅵ	238
##ᄎ	239
##I	240
##A	241
##L	242
##O	243
##G	244
##U	245
##E	246
##v	247
##s	248
##i	249
##u	250
##c	251
##d	252
##b	253
##k	254
##ᅢ	255
##ᆫ	256
##ᄋ	257
##ᅡ	258
##ᄃ	259
##T	260
##P	261
##h	262
##7	263
##4	264
##0	265
##ᄁ	266
##ᆯ	267
##+	268
##}	269
##_	270
##{	271
##ᆼ	272
##ᄌ	273
##ᅣ	274
##ᆨ	275
##ᆷ	276
##ᅧ	277
##m	278
##ᅮ	279
##ᄆ	280
##p	281
##x	282
##ᄂ	283
##w	284
##9	285
##1	286
##3	287
##ㅒ	288
##ㄼ	289
##ᅲ	290
##D	291
##N	292
##Y	293
##g	294
##V	295
##5	296
##8	297
##ᄍ	298
##ᄒ	299
##ᄐ	300
##ᄀ	301
##ᅪ	302
##ᅱ	303
##2	304
##6	305
##ᅬ	306
##z	307
##C	308
##j	309
##ᆸ	310
##ᄑ	311
##q	312
##B	313
##M	314
##R	315
##H	316
##ᄄ	317
##J	318
##X	319
##Z	320
##ᆺ	321
##ㅕ	322
##ㅁ	323
##ᅴ	324
##ㄷ	325
##ㅇ	326
##ㅎ	327
##ㅅ	328
##ᅯ	329
##ᄊ	330
##!	331
##"	332
##,	333
##ᅭ	334
##.	335
##W	336
##-	337
##F	338
##ㅠ	339
##ㅍ	340
##]	341
##ᆻ	342
##ᆶ	343
##ᄈ	344
##ᅤ	345
##ㅓ	346
##ᅫ	347
##ᆮ	348
###	349
##%	350
##$	351
##^	352
##ᇁ	353
##ᅰ	354
##ㅞ	355
##ᆩ	356
##ᆹ	357
##ᆪ	358
##ᆾ	359
##>	360
##ᆭ	361
##ᇂ	362
##ㄲ	363
##[	364
##ᆿ	365
##ᆳ	366
##ᆬ	367
##*	368
##ㄱ	369
##?	370
##=	371
##ᆴ	372
##ㅗ	373
##ㅌ	374
##ㅔ	375
##ㄾ	376
##ㅝ	377
##ᇀ	378
##ㄿ	379
##ㅙ	380
##ㅆ	381
##ㄴ	382
##ㅣ	383
##ㅡ	384
##ㅛ	385
##/	386
##ᆱ	387
##\	388
##ㅂ	389
##ᆽ	390
##ㅐ	391
##ㅋ	392
##<	393
##:	394
##@	395
##'	396
##ㅊ	397
##ㅈ	398
##;	399
##~	400
##Q	401
##ㅘ	402
##ᆵ	403
##ㅃ	404
##ㄹ	405
##ᆲ	406
##ᆰ	407
##ㄽ	408
##ㅏ	409
##|	410
##ㅢ	411
##ㄶ	412
##)	413
##ㄸ	414
##&	415
##ㄵ	416
##ㅚ	417
##(	418
##ㄺ	419
##ㅑ	420
##ㅄ	421
##ㅜ	422
##ㅉ	423
##ㅖ	424
##ㄳ	425
##ㅟ	426
##ㅀ	427
##ㄻ	428
##`	429
##	430
이	431
##ᅳᆫ	432
##ᅳᆯ	433
하	434
다	435
아	436
에	437
는	438
어	439
가	440
의	441
##ᅡᆫ	442
##이	443
##ᅡᆼ	444
##ᅥᆫ	445
##ᅧᆫ	446
을	447
##서	448
##ᅳᄅ	449
고	450
지	451
##ᅧᆼ	452
##리	453
##지	454
도	455
##ᅮᆫ	456
##다	457
를	458
은	459
시	460
##시	461
##ᅥᆼ	462
기	463
##스	464
##하	465
##ᅩᆼ	466
##ᅡᆯ	467
되	468
##ᅳ로	469
로	470
##ᅩᆨ	471
있	472
##ᅮᆯ	473
거	474
었	475
주	476
##ᅧᆨ	477
사	478
에서	479
##ᅡᆨ	480
으로	481
ᆫ다	482
보	483
##기	484
았	485
##나	486
##ᅳᆼ	487
##ᅥᆨ	488
나	489
과	490
##어	491
대	492
들	493
자	494
##가	495
수	496
마	497
##고	498
##ᅢᆼ	499
##ᅩᆫ	500
##ᅮᆨ	501
라	502
게	503
그	504
것	505
##도	506
여	507
일	508
##르	509
##ᅥᆷ	510
와	511
##라	512
##ᅯᆫ	513
모	514
##니	515
전	516
##드	517
##ᅥᆯ	518
##우	519
##사	520
##로	521
적	522
오	523
부	524
##치	525
##장	526
##요	527
바	528
##자	529
면	530
년	531
##대	532
##만	533
##트	534
##ᅦ이	535
스	536
만	537
##ᅳᆷ	538
미	539
정	540
화	541
조	542
##미	543
##화	544
##ᅧᆯ	545
20	546
상	547
유	548
##수	549
##아	550
##정	551
##인	552
##ᅣᆼ	553
##오	554
공	555
비	556
##터	557
그ᄅ	558
##는	559
##주	560
##상	561
때	562
##전	563
##ᅢᆨ	564
위	565
##히	566
##ᆫᄀ	567
중	568
제	569
경	570
##데	571
으	572
##게	573
##용	574
차	575
##제	576
##부	577
##ᅯᆯ	578
##력	579
##키	580
##ᅥᆸ	581
소	582
무	583
##성	584
##ᆯ리	585
노	586
세	587
인	588
##ᅳᆨ	589
없	590
##신	591
등	592
성	593
##문	594
##야	595
지만	596
##면	597
며	598
월	599
##마	600
않	601
##원	602
##구	603
##과	604
개	605
##동	606
던	607
에게	608
서	609
구	610
한	611
##국	612
##격	613
타	614
##타	615
리	616
내	617
동	618
201	619
피	620
선	621
장	622
##ᅵᆷ	623
방	624
연	625
##거	626
##비	627
후	628
##유	629
영	630
우	631
##ᅡ지	632
발	633
카	634
말	635
##러	636
요	637
##체	638
당	639
생	640
##소	641
버	642
##작	643
야	644
안	645
##간	646
더	647
##며	648
치	649
##래	650
##명	651
##무	652
신	653
는데	654
19	655
추	656
포	657
파	658
원	659
처	660
##일	661
##ᅳ리	662
명	663
회	664
##그	665
##재	666
까지	667
때문	668
강	669
해	670
##보	671
##식	672
아서	673
##위	674
##들	675
##의	676
##00	677
##티	678
데	679
최	680
##당	681
##후	682
문	683
같	684
##카	685
매	686
##크	687
배	688
아니	689
##음	690
실	691
번	692
##선	693
##물	694
받	695
##행	696
라고	697
호	698
코	699
불	700
##교	701
라는	702
##학	703
##회	704
##역	705
##즈	706
##실	707
결	708
##단	709
레	710
##능	711
##내	712
반	713
초	714
진	715
많	716
##한	717
##디	718
패	719
특	720
##피	721
역	722
작	723
으며	724
다고	725
##토	726
##모	727
나오	728
##속	729
##람	730
##ᅦᆯ	731
##임	732
계	733
##반	734
##ᅦᆫ	735
##버	736
단	737
면서	738
##차	739
##공	740
드	741
##려	742
분	743
보이	744
##점	745
##프	746
국	747
##계	748
남	749
##산	750
##루	751
##분	752
##조	753
두	754
##생	755
그러	756
10	757
경우	758
##록	759
##각	760
사용	761
출	762
##두	763
어서	764
현	765
니	766
##본	767
크	768
관	769
##연	770
물	771
다는	772
쓰	773
##중	774
저	775
공격	776
##진	777
이후	778
##호	779
예	780
##류	781
그리	782
교	783
##안	784
캐	785
였	786
##태	787
통	788
알	789
자신	790
감	791
학	792
또	793
재	794
못	795
점	796
##관	797
애	798
##저	799
##른	800
따	801
##세	802
##군	803
편	804
##영	805
##코	806
##ᅳᆯᄅ	807
좋	808
##노	809
사람	810
디	811
위하	812
##해	813
키	814
##바	815
##름	816
입	817
대하	818
##방	819
##금	820
##발	821
##ᅮᆷ	822
##법	823
정도	824
군	825
메	826
##적	827
##종	828
속	829
부터	830
형	831
설	832
너	833
함	834
##업	835
##통	836
##포	837
참	838
##습	839
김	840
##ᅳ라	841
##양	842
가능	843
외	844
평	845
##승	846
토	847
음	848
##매	849
다른	850
##ᆫ국	851
##술	852
시키	853
종	854
##브	855
##파	856
##료	857
##준	858
권	859
##테	860
보다	861
이나	862
12	863
##직	864
승	865
##와	866
##녀	867
200	868
가지	869
##건	870
##레	871
으나	872
##심	873
팀	874
죽	875
##스트	876
직	877
뒤	878
##션	879
살	880
등장	881
##투	882
##입	883
##표	884
는다	885
##론	886
11	887
본	888
아이	889
##민	890
히	891
루	892
용	893
##경	894
판	895
그리고	896
확	897
##어지	898
체	899
시ᄌ	900
하나	901
네	902
행	903
운	904
게임	905
버리	906
변	907
경기	908
심	909
##운	910
돌	911
##여	912
##급	913
..	914
잘	915
만들	916
맞	917
다가	918
##판	919
건	920
##약	921
박	922
##족	923
못하	924
끄	925
채	926
##er	927
##석	928
##개	929
활	930
달	931
투	932
사실	933
##령	934
집	935
##형	936
##설	937
시간	938
##황	939
##량	940
##너	941
목	942
##든	943
양	944
약	945
##련	946
##출	947
##합	948
필	949
듯	950
사이	951
각	952
##향	953
##께	954
높	955
테	956
시작	957
날	958
표	959
##현	960
##청	961
##품	962
##에	963
일본	964
##추	965
새	966
##망	967
간	968
##ᅳᆯ리	969
태	970
왕	971
##더	972
이름	973
##복	974
##츠	975
이상	976
##것	977
함께	978
##런	979
모습	980
존	981
##니다	982
따르	983
베	984
##언	985
순	986
##외	987
려	988
프로	989
독	990
##까	991
##ᅳᆯ레이	992
##지만	993
증	994
상대	995
##어나	996
15	997
##ᆨ터	998
한국	999
문제	1000
##네	1001
##울	1002
##란	1003
##머	1004
천	1005
총	1006
다시	1007
거나	1008
병	1009
##in	1010
##환	1011
손	1012
효	1013
잡	1014
##독	1015
##ᆯ라	1016
티	1017
으면	1018
터	1019
하지만	1020
##스터	1021
능	1022
생각	1023
별	1024
힘	1025
##럼	1026
또한	1027
캐리	1028
인ᄀ	1029
##송	1030
끝	1031
##병	1032
항	1033
아야	1034
가장	1035
막	1036
##ᅳ래	1037
겠	1038
##목	1039
복	1040
##천	1041
폭	1042
근	1043
광	1044
##배	1045
##험	1046
스키	1047
들어	1048
식	1049
및	1050
시즌	1051
당시	1052
플레이	1053
누	1054
삼	1055
##대로	1056
완	1057
18	1058
##막	1059
산	1060
ᆫ데	1061
먹	1062
##on	1063
처럼	1064
싸	1065
당하	1066
캐릭터	1067
씨	1068
검	1069
스ᄐ	1070
##년	1071
##랑	1072
능력	1073
##락	1074
모두	1075
ᆫ지	1076
쿠	1077
##쪽	1078
##색	1079
열	1080
백	1081
충	1082
임	1083
상황	1084
아도	1085
상태	1086
길	1087
##립	1088
##ᅧᆸ	1089
##ᆫ계	1090
모든	1091
레이	1092
그렇	1093
머	1094
##퍼	1095
##or	1096
금	1097
##감	1098
세계	1099
선수	1100
러	1101
슈	1102
##말	1103
추가	1104
##악	1105
##ᆫ드	1106
앞	1107
라이	1108
##an	1109
##초	1110
16	1111
결국	1112
커	1113
곡	1114
##담	1115
##결	1116
현재	1117
##벨	1118
##탄	1119
##살	1120
느	1121
합	1122
카드	1123
##등	1124
##미지	1125
스킬	1126
##쿠	1127
##ᅳᆸ	1128
업	1129
##케	1130
다음	1131
얼	1132
통하	1133
##쟁	1134
##편	1135
##메	1136
지역	1137
악	1138
넘	1139
##함	1140
미국	1141
##근	1142
민	1143
다만	1144
ᆫ다는	1145
많이	1146
전투	1147
그러나	1148
##남	1149
30	1150
##질	1151
쉬	1152
효과	1153
급	1154
존재	1155
눈	1156
13	1157
취	1158
첫	1159
199	1160
언	1161
여기	1162
시리	1163
페	1164
허	1165
청	1166
##항	1167
14	1168
##접	1169
트	1170
법	1171
매우	1172
##냥	1173
##예	1174
북	1175
##ar	1176
황	1177
##택	1178
창	1179
이러	1180
대학	1181
이ᄇ	1182
17	1183
##견	1184
##존	1185
##절	1186
절	1187
##ᅥᆯ어지	1188
습	1189
달리	1190
째	1191
뜨	1192
극	1193
기록	1194
골	1195
엔	1196
프ᄅ	1197
##처	1198
얻	1199
##he	1200
의하	1201
##범	1202
그런	1203
##ᅮᆼ	1204
철	1205
상당	1206
##패	1207
##at	1208
인하	1209
스타	1210
시리즈	1211
찾	1212
레벨	1213
##집	1214
기술	1215
ᄇ니다	1216
##강	1217
괴	1218
이유	1219
##움	1220
##득	1221
뿐	1222
여러	1223
처음	1224
올리	1225
바ᄁ	1226
다면	1227
어ᄄ	1228
무기	1229
엄	1230
이용	1231
영화	1232
물론	1233
그래	1234
##왕	1235
##별	1236
##커	1237
부르	1238
놓	1239
난	1240
방송	1241
자체	1242
곳	1243
100	1244
탈	1245
이것	1246
팬	1247
해당	1248
같이	1249
##템	1250
필요	1251
줄	1252
##ᆨ스	1253
##널	1254
워	1255
이런	1256
##워	1257
실제	1258
##은	1259
25	1260
##탈	1261
일반	1262
규	1263
##열	1264
들어가	1265
귀	1266
##ᅳ러	1267
모르	1268
꼬	1269
주인	1270
마법	1271
ᆫ다고	1272
리그	1273
거의	1274
돌아	1275
##끼	1276
어야	1277
학교	1278
역시	1279
혼	1280
##ᅳᆯ래	1281
범	1282
바로	1283
사건	1284
##곡	1285
##달	1286
##en	1287
잠	1288
나가	1289
##거리	1290
관련	1291
특히	1292
다르	1293
위치	1294
이야	1295
##큼	1296
##ᅦ인	1297
##규	1298
유니	1299
##착	1300
기본	1301
축	1302
2017	1303
부분	1304
즉	1305
##느	1306
붙	1307
대표	1308
류	1309
##박	1310
국가	1311
란	1312
진행	1313
##ou	1314
피해	1315
겨	1316
래	1317
##부분	1318
제작	1319
2018	1320
##칭	1321
탄	1322
격	1323
방어	1324
아무	1325
밖	1326
이야기	1327
담	1328
빠	1329
##례	1330
##창	1331
마지	1332
활동	1333
동안	1334
냐	1335
##찰	1336
는지	1337
없이	1338
알리	1339
##육	1340
좀	1341
팔	1342
##난	1343
찌	1344
인간	1345
작품	1346
웨	1347
밝	1348
##변	1349
글	1350
##롭	1351
걸	1352
증가	1353
대부분	1354
싶	1355
##ᆼᄀ	1356
##페	1357
##시아	1358
일부	1359
##때	1360
접	1361
준	1362
##al	1363
둘	1364
##틀	1365
샤	1366
풀	1367
##ᅳ레	1368
몬	1369
마지막	1370
쉽	1371
비스	1372
##찬	1373
헤	1374
2019	1375
##ᆯ러	1376
##혼	1377
몸	1378
지나	1379
##ᅳ레이	1380
암	1381
본인	1382
계속	1383
자기	1384
##활	1385
21	1386
##es	1387
##렵	1388
감독	1389
ᆫ가	1390
블	1391
서울	1392
떨어지	1393
몇	1394
우리	1395
생기	1396
##ᇂ게	1397
##권	1398
라면	1399
내용	1400
##애	1401
관계	1402
만큼	1403
##베	1404
2016	1405
중국	1406
벌	1407
맡	1408
##률	1409
##철	1410
##순	1411
##희	1412
넣	1413
50	1414
##ᅳ럽	1415
주인공	1416
##리아	1417
속도	1418
##월	1419
덕	1420
##슨	1421
이전	1422
##전히	1423
참고	1424
메이	1425
어도	1426
대신	1427
##ᆫ구	1428
##날	1429
##으	1430
수준	1431
전쟁	1432
##없	1433
타이	1434
나이	1435
##징	1436
쪽	1437
그냥	1438
비슷	1439
어느	1440
환	1441
##ᆫ급	1442
##응	1443
##턴	1444
질	1445
으니	1446
기준	1447
비하	1448
지금	1449
희	1450
성공	1451
22	1452
까	1453
198	1454
대한	1455
도시	1456
강하	1457
만나	1458
홍	1459
협	1460
##민국	1461
이루	1462
스토	1463
논	1464
낮	1465
울	1466
##ᅦ이션	1467
도록	1468
밝히	1469
뛰	1470
멀	1471
떠	1472
인물	1473
짜	1474
##불	1475
그녀	1476
배우	1477
##율	1478
##벌	1479
결과	1480
24	1481
자리	1482
최대	1483
연구	1484
프리	1485
##온	1486
##증	1487
지원	1488
습니다	1489
##돌	1490
##랴	1491
뉴	1492
상당히	1493
밀	1494
기사	1495
공격력	1496
올라	1497
마다	1498
평가	1499
홈	1500
##괴	1501
##ᆷ버	1502
친	1503
시절	1504
육	1505
##it	1506
그대로	1507
##할	1508
빠르	1509
##략	1510
대한민국	1511
온	1512
나타	1513
의미	1514
너무	1515
##ᅦᆫ트	1516
##버지	1517
몰	1518
제외	1519
므로	1520
보스	1521
##씨	1522
##축	1523
죽이	1524
##ᆯ로	1525
망	1526
측	1527
##백	1528
로서	1529
##부터	1530
소속	1531
##극	1532
칼	1533
전체	1534
실제로	1535
##책	1536
##북	1537
향	1538
##블	1539
23	1540
봉	1541
보내	1542
2015	1543
이미	1544
승리	1545
직접	1546
##을	1547
퍼	1548
개발	1549
원래	1550
여자	1551
영상	1552
그것	1553
##획	1554
드라	1555
어렵	1556
##념	1557
언급	1558
유닛	1559
체력	1560
000	1561
묘	1562
##ᅳᆯ라	1563
##st	1564
##ing	1565
대로	1566
##광	1567
##굴	1568
##le	1569
갖	1570
##앙	1571
##ic	1572
##학교	1573
멤버	1574
휴	1575
포함	1576
##ᆫ경	1577
맨	1578
데미지	1579
##ᅦ이지	1580
##ᆷ피	1581
이동	1582
책	1583
머리	1584
##귀	1585
유저	1586
정보	1587
##가지	1588
40	1589
마음	1590
방법	1591
##라지	1592
쇼	1593
설정	1594
##re	1595
싸우	1596
문서	1597
##늘	1598
컨	1599
선택	1600
애니	1601
뜻	1602
과거	1603
차이	1604
씩	1605
ᆫ다면	1606
##다가	1607
센	1608
출연	1609
##평	1610
깨	1611
님	1612
##운드	1613
가까	1614
불리	1615
츠	1616
##찌	1617
농	1618
석	1619
듣	1620
침	1621
송	1622
왜	1623
사회	1624
몬스터	1625
##몬	1626
파이	1627
친구	1628
성우	1629
발매	1630
##욱	1631
돈	1632
소리	1633
##누	1634
##닝	1635
압	1636
설명	1637
우승	1638
크리	1639
빼	1640
갑	1641
여성	1642
대상	1643
##dd	1644
거리	1645
탑	1646
혹	1647
뭐	1648
발생	1649
##총	1650
든	1651
최고	1652
마리	1653
##봉	1654
##짜	1655
동시	1656
##딩	1657
시대	1658
엄청	1659
##ᅦ이스	1660
플레이어	1661
바람	1662
다니	1663
장면	1664
아버지	1665
공식	1666
링	1667
어리	1668
마이	1669
버전	1670
힘들	1671
사망	1672
프랑	1673
사랑	1674
대회	1675
갈	1676
##침	1677
영향	1678
바뀌	1679
##주의	1680
답	1681
유명	1682
##웅	1683
2014	1684
##팅	1685
주로	1686
스럽	1687
##켓	1688
결정	1689
또는	1690
주장	1691
층	1692
역사	1693
즈	1694
어떠	1695
색	1696
남자	1697
출신	1698
려고	1699
구성	1700
26	1701
꽤	1702
##la	1703
정부	1704
인터	1705
일어나	1706
조금	1707
푸	1708
콘	1709
운영	1710
학생	1711
오르	1712
유지	1713
공개	1714
나라	1715
28	1716
음악	1717
버스	1718
##ff	1719
걸리	1720
##염	1721
초반	1722
아이템	1723
빠지	1724
스ᄑ	1725
오래	1726
##ᅦ일	1727
섬	1728
서로	1729
정치	1730
중요	1731
독일	1732
전부	1733
##밀	1734
새롭	1735
27	1736
대사	1737
방식	1738
##쉬	1739
과정	1740
스ᄏ	1741
the	1742
시스	1743
##델	1744
스토리	1745
월드	1746
##el	1747
노래	1748
파괴	1749
나타나	1750
31	1751
형태	1752
르	1753
##갑	1754
억	1755
최초	1756
강화	1757
자주	1758
역할	1759
제대로	1760
슬	1761
후반	1762
쏘	1763
이때	1764
아직	1765
영국	1766
최종	1767
##쁘	1768
좌	1769
대전	1770
모드	1771
휘	1772
##럽	1773
##ᆫ스	1774
##슬	1775
##am	1776
##필	1777
##om	1778
##벽	1779
아래	1780
끼	1781
케	1782
착	1783
쓰이	1784
##머니	1785
##우스	1786
변경	1787
엘	1788
딜	1789
찍	1790
바이	1791
뽀	1792
##라도	1793
강력	1794
폐	1795
누구	1796
##확	1797
이벤트	1798
움	1799
##얼	1800
기존	1801
회복	1802
잔	1803
볼	1804
정말	1805
##잡	1806
##곤	1807
197	1808
조선	1809
##측	1810
비교	1811
##먹	1812
보통	1813
##is	1814
그런데	1815
드래	1816
라도	1817
##ᅡᆯ리	1818
느끼	1819
어떤	1820
마을	1821
마찬	1822
마찬가지	1823
##아가	1824
##플	1825
이기	1826
##었	1827
##ᅦ이트	1828
인기	1829
##프트	1830
정신	1831
먼	1832
특성	1833
##컬	1834
발견	1835
소환	1836
노선	1837
앨	1838
행동	1839
다이	1840
당연	1841
성능	1842
늘	1843
엄청나	1844
2013	1845
##번	1846
##ᅳ루	1847
확률	1848
교육	1849
올	1850
속성	1851
##덕	1852
바꾸	1853
풍	1854
##훈	1855
슈퍼	1856
##트리	1857
아들	1858
모양	1859
자유	1860
##퇴	1861
프랑스	1862
##이도	1863
##풍	1864
오히	1865
이제	1866
클리	1867
차량	1868
대학교	1869
가깝	1870
오히려	1871
29	1872
##휘	1873
라인	1874
##너지	1875
##맨	1876
하이	1877
차지	1878
##억	1879
##et	1880
부족	1881
끌	1882
문화	1883
짓	1884
사라지	1885
32	1886
수록	1887
술	1888
확인	1889
특수	1890
##손	1891
##ᅳ라이	1892
##ol	1893
활약	1894
윤	1895
게다가	1896
이번	1897
생산	1898
내리	1899
트리	1900
관리	1901
##ion	1902
유일	1903
시스템	1904
끝나	1905
녹	1906
00	1907
2012	1908
##써	1909
성격	1910
##웨	1911
응	1912
제국	1913
##글	1914
흑	1915
따라	1916
액	1917
장비	1918
##디오	1919
고등	1920
##혀	1921
훈	1922
입장	1923
구하	1924
흔	1925
영웅	1926
맞추	1927
아예	1928
선거	1929
빛	1930
일단	1931
축구	1932
프로ᄀ	1933
이렇게	1934
데이	1935
##지어	1936
##림	1937
##폭	1938
숨	1939
득	1940
##숙	1941
계획	1942
운동	1943
맵	1944
돌아오	1945
반대	1946
뽑	1947
##골	1948
2010	1949
202	1950
획	1951
에피	1952
경찰	1953
##ᅦ임	1954
들어오	1955
주변	1956
먼저	1957
기간	1958
우주	1959
자동	1960
##던	1961
심지어	1962
##답	1963
앨범	1964
##라이	1965
위원	1966
개인	1967
km	1968
기능	1969
완전히	1970
조건	1971
##통령	1972
그루	1973
플	1974
##새	1975
거기	1976
중심	1977
적용	1978
건물	1979
애니ᄆ	1980
##nd	1981
지구	1982
드러	1983
부대	1984
뮤	1985
##ow	1986
사진	1987
##엇	1988
##ᅢᆼ크	1989
##옥	1990
감소	1991
어요	1992
##il	1993
모델	1994
60	1995
떠나	1996
으로서	1997
난이도	1998
##ig	1999
에이	2000
잃	2001
중앙	2002
발동	2003
##멸	2004
열리	2005
블ᄅ	2006
##ed	2007
현대	2008
##곳	2009
견	2010
회사	2011
초기	2012
자세	2013
##튼	2014
실패	2015
##므로	2016
지방	2017
궁	2018
어디	2019
시기	2020
대통령	2021
참여	2022
혹은	2023
##니아	2024
설치	2025
##져	2026
##먼	2027
196	2028
지키	2029
데ᄇ	2030
35	2031
그래서	2032
표현	2033
##롯	2034
드리	2035
작가	2036
던지	2037
드라마	2038
민주	2039
돌아가	2040
##충	2041
라며	2042
바다	2043
물리	2044
다양	2045
국내	2046
##ᅩᆾ	2047
덕분	2048
##ᅳ램	2049
세트	2050
크로	2051
듀	2052
##ᆼ장	2053
얼굴	2054
##탁	2055
전혀	2056
데뷔	2057
TV	2058
기관	2059
반응	2060
동일	2061
지속	2062
출시	2063
##익	2064
패배	2065
맥	2066
##웃	2067
처리	2068
칸	2069
##엘	2070
인정	2071
원작	2072
발표	2073
곤	2074
하루	2075
##압	2076
판매	2077
도움	2078
순간	2079
##ac	2080
모으	2081
획득	2082
##뢰	2083
##슈	2084
##as	2085
애니메이션	2086
그룹	2087
퇴	2088
얼마	2089
무엇	2090
of	2091
구조	2092
헌	2093
##버스	2094
명칭	2095
담당	2096
요구	2097
더라도	2098
후보	2099
날리	2100
##BS	2101
컴	2102
정확	2103
오브	2104
생활	2105
2011	2106
##이드	2107
꾸	2108
트ᄅ	2109
##룡	2110
특별	2111
##없이	2112
땅	2113
##ᆫ과	2114
진출	2115
##나마	2116
##클	2117
시점	2118
그렇게	2119
넘어	2120
굉장	2121
롭	2122
밖에	2123
선발	2124
탐	2125
족	2126
작중	2127
단계	2128
게이	2129
##균	2130
영어	2131
상승	2132
국제	2133
##아내	2134
기억	2135
움직	2136
##끔	2137
만화	2138
경제	2139
핵	2140
가격	2141
그림	2142
아군	2143
##ve	2144
항목	2145
##비스	2146
##들이	2147
Lv	2148
밤	2149
빌	2150
##죄	2151
##스ᄐ	2152
올라가	2153
##소드	2154
세우	2155
##욕	2156
마스터	2157
The	2158
아마	2159
랑	2160
##싸	2161
시장	2162
실력	2163
##놓	2164
세이	2165
량	2166
그나마	2167
미치	2168
으므로	2169
졸	2170
가족	2171
참가	2172
로부터	2173
특징	2174
야구	2175
수비	2176
대체	2177
다며	2178
조차	2179
낙	2180
계약	2181
##채	2182
벨	2183
았었	2184
턴	2185
킹	2186
사고	2187
방향	2188
프	2189
##ᆨ트	2190
이거	2191
드래곤	2192
딸	2193
01	2194
##넷	2195
경험	2196
고려	2197
2000	2198
려는	2199
범위	2200
러시아	2201
죠	2202
아르	2203
연기	2204
아주	2205
##ot	2206
오리	2207
덱	2208
프로그램	2209
밀리	2210
맛	2211
##뜨리	2212
시청	2213
디자	2214
##소리	2215
남기	2216
##스티	2217
숙	2218
##찮	2219
##객	2220
세대	2221
묘사	2222
퀘	2223
어머니	2224
500	2225
패치	2226
지니	2227
확실	2228
발사	2229
한테	2230
고등학교	2231
결혼	2232
주의	2233
폭발	2234
믿	2235
##으키	2236
에피소드	2237
80	2238
딱	2239
##덤	2240
활용	2241
##맹	2242
굴	2243
각각	2244
목적	2245
피하	2246
비판	2247
##ᆫ격	2248
보호	2249
무시	2250
##효	2251
어떻게	2252
##ad	2253
##렌	2254
더욱	2255
##탕	2256
준비	2257
상위	2258
이ᄁ	2259
##밍	2260
제공	2261
중간	2262
유리	2263
##ᆼ글	2264
세기	2265
라서	2266
나무	2267
클ᄅ	2268
런	2269
이어지	2270
##못	2271
주요	2272
조사	2273
37	2274
챔피	2275
심하	2276
45	2277
과학	2278
194	2279
조직	2280
인구	2281
유럽	2282
##스타	2283
국민	2284
쿨	2285
위험	2286
펼	2287
이미지	2288
묻	2289
빈	2290
라운드	2291
히로	2292
패턴	2293
##혹	2294
버프	2295
##인트	2296
굉장히	2297
##드리	2298
이루어지	2299
염	2300
내려	2301
옆	2302
단순	2303
전하	2304
참조	2305
진짜	2306
St	2307
생명	2308
죄	2309
전문	2310
꿈	2311
다루	2312
가리	2313
시도	2314
스피	2315
##뷰	2316
거치	2317
세력	2318
흡	2319
꺼	2320
##칙	2321
듯이	2322
약하	2323
대미지	2324
혼자	2325
싸움	2326
일으키	2327
구간	2328
불구	2329
지하	2330
##씬	2331
율	2332
연속	2333
현실	2334
##머지	2335
나머지	2336
나쁘	2337
어ᄍ	2338
여담	2339
할	2340
타입	2341
파워	2342
욕	2343
노리	2344
흥	2345
ᆯ지	2346
for	2347
안타	2348
소모	2349
출전	2350
돕	2351
##id	2352
린	2353
##갈	2354
부산	2355
케이	2356
헬	2357
##스크	2358
성장	2359
순위	2360
조합	2361
규모	2362
클래	2363
웃	2364
약간	2365
논란	2366
동료	2367
70	2368
한정	2369
포인트	2370
사실상	2371
항공	2372
##아오	2373
지도	2374
괘	2375
훨	2376
##궁	2377
여전히	2378
디자인	2379
뛰어나	2380
기타	2381
##트로	2382
운행	2383
##ay	2384
##냐	2385
아라	2386
론	2387
##섭	2388
##스로	2389
##혁	2390
폴	2391
분위	2392
바라	2393
##린	2394
연결	2395
이해	2396
무장	2397
이탈	2398
90	2399
09	2400
한편	2401
##나라	2402
195	2403
FC	2404
소설	2405
##협	2406
자연	2407
학년	2408
분위기	2409
훨씬	2410
예정	2411
취급	2412
으면서	2413
성적	2414
일정	2415
옥	2416
부상	2417
쌍	2418
당연히	2419
등급	2420
사업	2421
블랙	2422
2009	2423
투수	2424
얘	2425
##ER	2426
튀	2427
센터	2428
즐	2429
태어나	2430
읽	2431
마치	2432
싫	2433
02	2434
##ch	2435
벽	2436
기대	2437
해결	2438
향하	2439
변화	2440
플래	2441
mm	2442
익	2443
연합	2444
징	2445
삼성	2446
##킹	2447
계열	2448
가져	2449
엔딩	2450
가스	2451
##us	2452
##프리	2453
엘리	2454
그래도	2455
최근	2456
##혜	2457
추정	2458
300	2459
똑	2460
2008	2461
이르	2462
방영	2463
##빈	2464
##ir	2465
콤	2466
발전	2467
괜	2468
03	2469
방면	2470
어두	2471
스테이지	2472
짧	2473
률	2474
수정	2475
칭	2476
기에	2477
종류	2478
의견	2479
##받	2480
48	2481
곧	2482
미션	2483
이라	2484
배치	2485
##낌	2486
##엄	2487
표기	2488
도망	2489
33	2490
##짝	2491
잘못	2492
##혈	2493
전용	2494
자면	2495
##폰	2496
##척	2497
ᆯ까	2498
털	2499
##ᅳ르	2500
독립	2501
##다리	2502
그거	2503
36	2504
정상	2505
벗	2506
##ur	2507
05	2508
속하	2509
척	2510
터지	2511
작전	2512
소녀	2513
수상	2514
탓	2515
퀘스트	2516
거대	2517
안정	2518
대화	2519
엔진	2520
변하	2521
철도	2522
품	2523
직업	2524
수도	2525
종료	2526
나중	2527
08	2528
끊	2529
##완	2530
움직이	2531
충분	2532
죽음	2533
요소	2534
스스로	2535
스카	2536
챔피언	2537
##티브	2538
도중	2539
큐	2540
십	2541
##샤	2542
언제	2543
캠	2544
##파이	2545
##참	2546
비행	2547
##취	2548
##륙	2549
07	2550
##액	2551
올라오	2552
에너지	2553
세상	2554
넘어가	2555
펼치	2556
기업	2557
##암	2558
나누	2559
붙이	2560
관하	2561
옵	2562
공연	2563
##볼	2564
동물	2565
특정	2566
##둥	2567
지내	2568
건설	2569
비롯	2570
지지	2571
달성	2572
##같	2573
##ᅳ레이드	2574
##od	2575
일행	2576
느낌	2577
쓰러	2578
로보	2579
##텐	2580
벌이	2581
행정	2582
렌	2583
벌어지	2584
녀	2585
##BC	2586
훈련	2587
전기	2588
마저	2589
싱글	2590
당신	2591
보상	2592
만드	2593
솔	2594
HP	2595
##센	2596
굳	2597
전설	2598
무리	2599
미사	2600
##ᆩ이	2601
졸업	2602
팩	2603
##검	2604
력	2605
장착	2606
##im	2607
남성	2608
요리	2609
신경	2610
다리	2611
방어력	2612
##..	2613
부활	2614
배틀	2615
지휘	2616
절대	2617
06	2618
##ᆯ레	2619
로마	2620
넓	2621
위기	2622
황제	2623
관심	2624
군사	2625
th	2626
##자기	2627
따라서	2628
내부	2629
##틴	2630
반면	2631
포켓	2632
번역	2633
제목	2634
##길	2635
##렬	2636
스코	2637
틀	2638
##뉴	2639
미래	2640
번호	2641
2007	2642
##ut	2643
공간	2644
더불	2645
거두	2646
##un	2647
스페	2648
목표	2649
서비스	2650
##어들	2651
돌리	2652
빨	2653
점수	2654
만약	2655
득점	2656
으ᄅ	2657
##컵	2658
바르	2659
근접	2660
시험	2661
전국	2662
아이돌	2663
가르	2664
04	2665
전차	2666
브	2667
마르	2668
소재	2669
충격	2670
##층	2671
의원	2672
##지션	2673
##란드	2674
크리스	2675
SK	2676
시설	2677
멸	2678
오늘	2679
인사	2680
목소리	2681
뚜	2682
삭	2683
홈런	2684
전사	2685
##즘	2686
무대	2687
정체	2688
카이	2689
34	2690
덤	2691
##데이트	2692
사이트	2693
##겁	2694
인도	2695
업데이트	2696
지정	2697
작업	2698
픽	2699
저지	2700
분류	2701
##흥	2702
뒷	2703
올림피	2704
작곡	2705
베이	2706
놀	2707
빅	2708
you	2709
배경	2710
장소	2711
찬	2712
똑같	2713
가끔	2714
최소	2715
도로	2716
타격	2717
##큐	2718
##ro	2719
꽃	2720
##트라	2721
부여	2722
랜	2723
스포	2724
셈	2725
어찌	2726
##인물	2727
교체	2728
혈	2729
록	2730
쥬	2731
링크	2732
으로써	2733
공중	2734
항상	2735
##폐	2736
##쇄	2737
##촌	2738
생존	2739
혀	2740
##디어	2741
벤	2742
냉	2743
북한	2744
높이	2745
전작	2746
##닉	2747
각성	2748
맹	2749
##알	2750
##다니	2751
파티	2752
이끌	2753
켄	2754
예상	2755
단체	2756
그만	2757
분노	2758
정식	2759
193	2760
##ᅳᆯ레	2761
으려	2762
넘기	2763
야마	2764
제한	2765
가수	2766
##수록	2767
##붙	2768
##레이	2769
##ver	2770
등장인물	2771
겸	2772
##igh	2773
##ec	2774
사냥	2775
얘기	2776
##ag	2777
포켓몬	2778
자랑	2779
아키	2780
##리스	2781
홀	2782
결승	2783
38	2784
컵	2785
##엽	2786
2020	2787
소개	2788
늘어나	2789
2006	2790
올림픽	2791
cm	2792
목록	2793
외국	2794
종족	2795
##ent	2796
쌓	2797
인터뷰	2798
기계	2799
이어	2800
악마	2801
##너스	2802
깊	2803
##동안	2804
이탈리아	2805
개념	2806
명령	2807
수행	2808
##이트	2809
필드	2810
75	2811
가운	2812
초등	2813
교통	2814
스위	2815
아카	2816
##ᅪᆯ	2817
애초	2818
롯	2819
이외	2820
괜찮	2821
ᆯ로	2822
판정	2823
타카	2824
스타일	2825
기반	2826
연출	2827
정하	2828
각종	2829
in	2830
하늘	2831
병력	2832
지상	2833
클리어	2834
몽	2835
로봇	2836
브ᄅ	2837
군대	2838
한ᄀ	2839
55	2840
##콘	2841
##보이	2842
##허	2843
제일	2844
트위	2845
전반	2846
페이	2847
기체	2848
비용	2849
퀴	2850
카운	2851
션	2852
확정	2853
놀라	2854
가운데	2855
재미	2856
기동	2857
설립	2858
크기	2859
옛	2860
왼	2861
##최	2862
옷	2863
##화국	2864
##뮤	2865
##ak	2866
표시	2867
인식	2868
파일	2869
브라	2870
##꾸	2871
경쟁	2872
갖추	2873
행위	2874
료	2875
건담	2876
정작	2877
##쿄	2878
사항	2879
평균	2880
시티	2881
레어	2882
##um	2883
통합	2884
교수	2885
별로	2886
##젝트	2887
장갑	2888
to	2889
드러나	2890
빙	2891
화력	2892
포지션	2893
##쓰	2894
납	2895
##비아	2896
뇌	2897
수치	2898
코미	2899
니까	2900
정의	2901
왕국	2902
사격	2903
따로	2904
잇	2905
근처	2906
완전	2907
스티	2908
병원	2909
싱	2910
진화	2911
저항	2912
감정	2913
',	2914
월드컵	2915
국회	2916
폰	2917
보유	2918
누르	2919
집중	2920
사거리	2921
노력	2922
환경	2923
혁	2924
전자	2925
비밀	2926
갑자기	2927
인천	2928
##러스	2929
##쉽	2930
변신	2931
기회	2932
42	2933
##짓	2934
##아들이	2935
임무	2936
##셉	2937
나름	2938
의식	2939
살리	2940
자원	2941
고양	2942
단점	2943
직전	2944
특이	2945
정리	2946
띄	2947
옮	2948
##em	2949
부정	2950
제품	2951
스태	2952
단어	2953
오버	2954
부모	2955
vs	2956
현상	2957
탈출	2958
던전	2959
촬	2960
느리	2961
오른	2962
냐고	2963
위원회	2964
사례	2965
##ST	2966
##ula	2967
어쩌	2968
압도	2969
마시	2970
놈	2971
이닝	2972
펜	2973
레인	2974
##빠	2975
치료	2976
쯤	2977
소련	2978
##앗	2979
주제	2980
효율	2981
판단	2982
##ub	2983
##튜	2984
잠시	2985
플라	2986
때리	2987
극장	2988
떨	2989
사정	2990
##ᆯ링	2991
2005	2992
아파	2993
밑	2994
##르트	2995
다크	2996
라이브	2997
사무	2998
촬영	2999
시전	3000
##겨	3001
본래	3002
지배	3003
##헌	3004
컬	3005
원인	3006
나서	3007
오스	3008
이쪽	3009
가문	3010
더니	3011
치명	3012
겪	3013
form	3014
##리오	3015
신ᄀ	3016
정책	3017
제거	3018
주민	3019
요시	3020
유사	3021
도입	3022
대구	3023
옮기	3024
ㅏㅆ	3025
##000	3026
##낙	3027
##렉	3028
##븐	3029
여행	3030
전력	3031
무슨	3032
##윤	3033
##랜드	3034
동생	3035
밴드	3036
##말로	3037
192	3038
삭제	3039
고속	3040
주문	3041
상관	3042
공동	3043
##묘	3044
기념	3045
실험	3046
##싱	3047
도쿄	3048
강제	3049
해군	3050
웹	3051
의외	3052
아스	3053
책임	3054
롤	3055
formula	3056
중학교	3057
병사	3058
##어로	3059
포기	3060
키우	3061
##째	3062
역대	3063
의사	3064
연습	3065
물건	3066
복귀	3067
이하	3068
##무리	3069
발언	3070
새로	3071
전개	3072
도전	3073
##야마	3074
완성	3075
##ight	3076
언어	3077
음식	3078
##요일	3079
클	3080
##ᆯ린	3081
골드	3082
앞서	3083
고정	3084
기다리	3085
위력	3086
이적	3087
2004	3088
살인	3089
으로부터	3090
##링	3091
41	3092
차원	3093
##좌	3094
공주	3095
모이	3096
파트	3097
접근	3098
다수	3099
직후	3100
화면	3101
려면	3102
확장	3103
루트	3104
제도	3105
텔	3106
##섯	3107
##ᅳ림	3108
중반	3109
##학생	3110
불가	3111
전략	3112
39	3113
뿌	3114
받아들이	3115
레드	3116
정당	3117
도착	3118
음반	3119
멘	3120
노트	3121
끝내	3122
별명	3123
컴ᄑ	3124
##모토	3125
셰	3126
가치	3127
선생	3128
셋	3129
사상	3130
##프리카	3131
히어로	3132
브리	3133
텐	3134
사기	3135
정규	3136
버티	3137
분명	3138
에게서	3139
붉	3140
고자	3141
미니	3142
산업	3143
히트	3144
숨기	3145
##특	3146
잡히	3147
꼭	3148
빌리	3149
쫓	3150
타임	3151
티어	3152
시민	3153
짐	3154
어둠	3155
##ce	3156
마나	3157
연장	3158
투표	3159
무려	3160
구역	3161
LG	3162
대기	3163
마사	3164
조종	3165
신체	3166
종교	3167
장치	3168
줄이	3169
소유	3170
일러	3171
##os	3172
자료	3173
나이트	3174
추천	3175
아파트	3176
쥐	3177
ㅓㅆ	3178
녀석	3179
EX	3180
은데	3181
회피	3182
노동	3183
반드	3184
살아	3185
고대	3186
이곳	3187
구매	3188
점프	3189
형식	3190
##르크	3191
##ᅳᆯ린	3192
예전	3193
##숨	3194
##AR	3195
##ri	3196
로드	3197
빨리	3198
인터넷	3199
닌	3200
리더	3201
##시마	3202
타이틀	3203
##그레이드	3204
업그레이드	3205
라이트	3206
탈락	3207
사령	3208
롯데	3209
##셀	3210
폭탄	3211
반드시	3212
해외	3213
44	3214
##리어	3215
##듀	3216
##친	3217
단지	3218
꾼	3219
##ᅳᆯ랜드	3220
교회	3221
아내	3222
앙	3223
미사일	3224
랭크	3225
##벤	3226
금지	3227
학원	3228
Ch	3229
우선	3230
##찍	3231
수마	3232
완벽	3233
부탁	3234
심각	3235
달러	3236
##밥	3237
힐	3238
클럽	3239
##AN	3240
이사	3241
2002	3242
실시	3243
이라고	3244
##역시	3245
##맥	3246
범죄	3247
장점	3248
검사	3249
낫	3250
191	3251
합류	3252
흐	3253
늦	3254
##ON	3255
##나이	3256
추측	3257
구분	3258
콜	3259
##ap	3260
43	3261
최강	3262
##and	3263
##몇	3264
몇몇	3265
선정	3266
99	3267
조정	3268
브래	3269
로스	3270
공포	3271
대장	3272
가사	3273
전통	3274
데이터	3275
##되	3276
차례	3277
##홍	3278
마무리	3279
취하	3280
열차	3281
요청	3282
행사	3283
No	3284
##텔	3285
위키	3286
버그	3287
프로젝트	3288
그리스	3289
하드	3290
탱	3291
종종	3292
톤	3293
자마	3294
덜	3295
##ᆫ간	3296
선언	3297
구단	3298
스포츠	3299
연재	3300
점점	3301
대중	3302
##듬	3303
스페인	3304
복수	3305
##ᆨ정	3306
st	3307
수많	3308
즐기	3309
컴퓨	3310
개최	3311
개월	3312
##걸	3313
다소	3314
서버	3315
##이치	3316
잭	3317
##탑	3318
재료	3319
설계	3320
보병	3321
##아하	3322
가드	3323
드로	3324
옵션	3325
##십	3326
46	3327
조작	3328
형제	3329
47	3330
폼	3331
밥	3332
kg	3333
51	3334
##ᆨ시	3335
광고	3336
떡	3337
택	3338
민족	3339
생물	3340
##ᆯ리스	3341
##털	3342
##첩	3343
##쳐	3344
그야	3345
입히	3346
타자	3347
마법사	3348
##덴	3349
암살	3350
걱정	3351
부하	3352
거부	3353
좋아하	3354
포스	3355
언론	3356
채우	3357
KBS	3358
##ter	3359
코스	3360
개그	3361
템	3362
멜	3363
연주	3364
숲	3365
채널	3366
성향	3367
컴퓨터	3368
맺	3369
and	3370
해석	3371
통신	3372
디스	3373
칠	3374
보조	3375
코드	3376
자마자	3377
평범	3378
고르	3379
한계	3380
모자	3381
뉴스	3382
값	3383
종합	3384
##죽	3385
##ᆯ리아	3386
##조건	3387
실점	3388
전화	3389
##셜	3390
아쉽	3391
기지	3392
개봉	3393
행성	3394
회의	3395
그야말로	3396
##맞	3397
블루	3398
회장	3399
2003	3400
##버리	3401
##아보	3402
52	3403
대결	3404
뻔	3405
트로	3406
##ul	3407
박사	3408
##럭	3409
##FA	3410
투입	3411
아무리	3412
지적	3413
비중	3414
엑스	3415
워낙	3416
지명	3417
가정	3418
다행	3419
원정	3420
본격	3421
운용	3422
한글	3423
미드	3424
캡	3425
자동차	3426
##아지	3427
광주	3428
위협	3429
무한	3430
정확히	3431
집단	3432
영혼	3433
소년	3434
소비	3435
인상	3436
등록	3437
실수	3438
##ᆸ히	3439
무조건	3440
##ᆺ자	3441
##op	3442
%,	3443
##무라	3444
MA	3445
##IN	3446
젊	3447
평소	3448
냐는	3449
##ᅳᆯ링	3450
상징	3451
페르	3452
1000	3453
굳이	3454
대응	3455
공사	3456
카메	3457
앤	3458
줄어들	3459
생성	3460
##타임	3461
와중	3462
##니스	3463
##빙	3464
##몽	3465
##드로	3466
대형	3467
체제	3468
##ck	3469
대비	3470
충분히	3471
통과	3472
멋	3473
##꽃	3474
혐	3475
사태	3476
태양	3477
##ation	3478
는가	3479
##의원	3480
##ᆺ수	3481
보컬	3482
조각	3483
엠	3484
아웃	3485
편성	3486
먹이	3487
클라	3488
##자리	3489
##콩	3490
쓸	3491
군단	3492
여름	3493
65	3494
다운	3495
전원	3496
보너스	3497
프레	3498
육군	3499
##셔	3500
150	3501
분리	3502
데스	3503
터미	3504
이론	3505
공항	3506
희생	3507
오프	3508
##펜	3509
개조	3510
형성	3511
분야	3512
시청자	3513
방문	3514
뿌리	3515
네이	3516
##ra	3517
뚫	3518
촉	3519
무사	3520
혜	3521
일종	3522
흉	3523
MBC	3524
특유	3525
기자	3526
빵	3527
도망치	3528
가면	3529
제안	3530
고양이	3531
샷	3532
리어	3533
을지	3534
##돈	3535
장군	3536
SP	3537
동맹	3538
깔	3539
치르	3540
트레이	3541
봉인	3542
마력	3543
##려가	3544
##스케	3545
떠오	3546
디지	3547
벗어나	3548
##칸	3549
64	3550
II	3551
##오스	3552
##꼬	3553
##젤	3554
전환	3555
##ᆫ만	3556
잊	3557
발음	3558
일러스트	3559
로써	3560
오리지	3561
장기	3562
##녕	3563
가하	3564
얼마나	3565
반복	3566
시나	3567
장르	3568
##ᅦ이크	3569
드러내	3570
점령	3571
아프	3572
안전	3573
##리카	3574
의도	3575
##라인	3576
튜	3577
##튜브	3578
##줄	3579
##꺼	3580
간단	3581
##있	3582
You	3583
하야	3584
경기도	3585
소식	3586
ㅏ서	3587
루이	3588
윈	3589
예선	3590
불과	3591
빼앗	3592
##넘	3593
랭	3594
유튜브	3595
서술	3596
가ᄇ	3597
그라	3598
##깨	3599
개선	3600
합치	3601
앉	3602
함정	3603
유도	3604
사쿠	3605
바닥	3606
##려오	3607
흡수	3608
영입	3609
##시스	3610
##텐츠	3611
초대	3612
##남도	3613
공화국	3614
갤러	3615
브레이	3616
평화	3617
그때	3618
근데	3619
##엔	3620
데리	3621
##흐	3622
##니티	3623
##art	3624
400	3625
코치	3626
규정	3627
트래	3628
괴물	3629
는다는	3630
##ᅧ보	3631
의지	3632
오토	3633
저격	3634
투자	3635
락	3636
기원	3637
독자	3638
라디오	3639
비디오	3640
숫자	3641
밸	3642
확보	3643
예술	3644
전술	3645
##깐	3646
##ᆫ공	3647
액션	3648
최후	3649
원하	3650
수사	3651
방해	3652
가져오	3653
진입	3654
##님	3655
이치	3656
따지	3657
매일	3658
##풀	3659
##빛	3660
필살	3661
공략	3662
49	3663
##ᅳ레스	3664
화염	3665
미리	3666
2001	3667
##빌	3668
주력	3669
인원	3670
클래스	3671
##나가	3672
그저	3673
인류	3674
은퇴	3675
적극	3676
외모	3677
보도	3678
56	3679
관통	3680
##런스	3681
걸치	3682
비트	3683
흐르	3684
시내	3685
장난	3686
승부	3687
##핑	3688
찾아오	3689
들리	3690
터미널	3691
넥	3692
체육	3693
지나가	3694
적절	3695
궤	3696
VS	3697
모험	3698
왼쪽	3699
목숨	3700
패러	3701
AP	3702
계기	3703
컨셉	3704
눈물	3705
포르	3706
느냐	3707
In	3708
아름	3709
##니까	3710
구축	3711
방패	3712
1990	3713
상자	3714
겹	3715
작성	3716
자라	3717
파라	3718
##팔	3719
회전	3720
완료	3721
주연	3722
뮤직	3723
공부	3724
사과	3725
부수	3726
##루스	3727
##동생	3728
트랙	3729
몹	3730
##롱	3731
한국어	3732
편집	3733
54	3734
장관	3735
함대	3736
의심	3737
거짓	3738
아프리카	3739
53	3740
분석	3741
솔로	3742
서브	3743
##논	3744
떼	3745
##모리	3746
살아남	3747
##퀴	3748
오리지널	3749
저지르	3750
랍	3751
##바이	3752
수리	3753
보수	3754
질문	3755
들이	3756
##ᅳᆺ	3757
닉	3758
PC	3759
역전	3760
민주당	3761
단순히	3762
에스	3763
약점	3764
챙	3765
인형	3766
필수	3767
아시아	3768
ᆫ지라	3769
##페이지	3770
코어	3771
오ᄑ	3772
경상	3773
마침	3774
임명	3775
황금	3776
덩	3777
##ia	3778
...	3779
끌어	3780
190	3781
쓰러지	3782
##나다	3783
핑	3784
청소	3785
재판	3786
훌	3787
풀리	3788
날개	3789
닮	3790
장애	3791
대단	3792
85	3793
사단	3794
착용	3795
##덜	3796
성인	3797
스트리	3798
##토리	3799
해제	3800
중단	3801
멈	3802
##삼	3803
경계	3804
##ᅳ래프트	3805
꾸준	3806
##ie	3807
##ill	3808
홈페이지	3809
드라이	3810
쳐	3811
비난	3812
현장	3813
승강	3814
작용	3815
##시브	3816
소프트	3817
하위	3818
상대방	3819
삶	3820
엄마	3821
##옷	3822
희망	3823
사장	3824
콩	3825
습격	3826
베르	3827
테러	3828
허용	3829
자치	3830
수원	3831
인지	3832
걷	3833
선보이	3834
퓨	3835
공원	3836
진정	3837
편하	3838
관과	3839
코스트	3840
##로드	3841
더블	3842
유래	3843
제시	3844
원거리	3845
무력	3846
카페	3847
지식	3848
선물	3849
수호	3850
영역	3851
##RA	3852
마크	3853
스마	3854
남편	3855
기획	3856
랄	3857
가슴	3858
주도	3859
ST	3860
명중	3861
수단	3862
바탕	3863
##IA	3864
##몰	3865
아름답	3866
##북도	3867
스파이	3868
##ik	3869
어라	3870
부리	3871
오른쪽	3872
태도	3873
본선	3874
촌	3875
모티브	3876
거주	3877
행복	3878
미야	3879
##무원	3880
탑재	3881
확실히	3882
비고	3883
저주	3884
카즈	3885
감안	3886
직원	3887
리스	3888
체계	3889
측면	3890
쿄	3891
에이스	3892
##워드	3893
꼴	3894
59	3895
지나치	3896
롱	3897
멈추	3898
궁ᄀ	3899
표정	3900
도서	3901
텔레	3902
##ab	3903
무섭	3904
주목	3905
쿨타임	3906
잉	3907
돌파	3908
테크	3909
상처	3910
고통	3911
의문	3912
베이스	3913
##마스	3914
##ᆫ관	3915
친하	3916
##est	3917
제기	3918
나타내	3919
보급	3920
고유	3921
딱히	3922
테마	3923
뉴욕	3924
##연히	3925
##뉘	3926
72	3927
처치	3928
업무	3929
기점	3930
당장	3931
지점	3932
공장	3933
소울	3934
58	3935
망하	3936
협력	3937
유우	3938
##닥	3939
텍	3940
여부	3941
멀티	3942
후지	3943
갈리	3944
120	3945
##울리	3946
기어	3947
불명	3948
부인	3949
컷	3950
##th	3951
낳	3952
##이언	3953
비싸	3954
##춘	3955
57	3956
62	3957
대답	3958
온라인	3959
순서	3960
통일	3961
문자	3962
날아가	3963
##푸	3964
카메라	3965
위주	3966
아요	3967
퍼지	3968
멀리	3969
귀족	3970
우수	3971
연방	3972
후속	3973
널	3974
조지	3975
##all	3976
제압	3977
계산	3978
챙기	3979
박스	3980
잠깐	3981
브로	3982
소수	3983
나뉘	3984
을까	3985
카운터	3986
꺼내	3987
문명	3988
당선	3989
MP	3990
##ea	3991
진영	3992
멸망	3993
66	3994
1999	3995
차별	3996
##잔	3997
95	3998
건너	3999
패스	4000
갱	4001
은행	4002
탯	4003
##ᆼ괴	4004
횟수	4005
관ᄀ	4006
셔	4007
버튼	4008
##뇌	4009
엉	4010
약속	4011
테이	4012
혁명	4013
케이스	4014
시나리오	4015
펀	4016
드립	4017
Lo	4018
내려가	4019
제조	4020
Sh	4021
랩	4022
##로스	4023
##쇠	4024
가로	4025
##ct	4026
국회의원	4027
코너	4028
융	4029
에어	4030
Re	4031
덴	4032
고서	4033
오후	4034
1998	4035
겨우	4036
살해	4037
붕괴	4038
춤	4039
달라지	4040
지옥	4041
자격	4042
특기	4043
댓	4044
삼국	4045
눈치	4046
상하	4047
최악	4048
듀얼	4049
뱀	4050
크로스	4051
on	4052
증거	4053
##붙이	4054
연계	4055
개편	4056
외부	4057
##머리	4058
ᆯ수록	4059
늘리	4060
시체	4061
유키	4062
균	4063
가볍	4064
블레이	4065
딜러	4066
##픽	4067
아메	4068
##다르	4069
군인	4070
##핀	4071
웨이	4072
섭	4073
##니어	4074
Sp	4075
겨울	4076
군주	4077
게시	4078
핵심	4079
정권	4080
틈	4081
의회	4082
공산	4083
gt	4084
가져가	4085
어린	4086
매치	4087
중화	4088
##랄	4089
ddd	4090
제로	4091
부담	4092
교사	4093
배신	4094
미군	4095
##레이션	4096
110	4097
출발	4098
미스	4099
나카	4100
컨트로	4101
##쇼	4102
대놓	4103
출생	4104
##AT	4105
게이지	4106
옹	4107
##AL	4108
레이저	4109
ㅓ서	4110
자살	4111
니코	4112
단위	4113
##스탄	4114
드물	4115
진실	4116
##ddd	4117
dddddd	4118
어울리	4119
##학자	4120
견제	4121
해금	4122
충돌	4123
미나	4124
##PS	4125
최대한	4126
##릉	4127
아침	4128
대원	4129
브랜드	4130
##륭	4131
##워하	4132
거절	4133
##드라	4134
장전	4135
여왕	4136
궁극	4137
봄	4138
가르치	4139
##OR	4140
도구	4141
필살기	4142
전장	4143
충전	4144
댄스	4145
홍콩	4146
커뮤	4147
Th	4148
##아리	4149
로켓	4150
거래	4151
유용	4152
카르	4153
SS	4154
용병	4155
이성	4156
룰	4157
만족	4158
##VE	4159
반란	4160
취소	4161
부문	4162
SBS	4163
lt	4164
귀엽	4165
##멘	4166
##ess	4167
##달리	4168
##사카	4169
마왕	4170
넷	4171
체인	4172
##ate	4173
피아	4174
한화	4175
고급	4176
##터리	4177
##를	4178
일본어	4179
##킨	4180
닥터	4181
부진	4182
타이밍	4183
는다고	4184
##ard	4185
표준	4186
기분	4187
##ell	4188
블로	4189
흔히	4190
##광역시	4191
##컨	4192
스피드	4193
교환	4194
61	4195
협회	4196
##톤	4197
조준	4198
피해자	4199
발매되	4200
Al	4201
1997	4202
근무	4203
##레스	4204
##전자	4205
남부	4206
76	4207
프라	4208
애매	4209
제주	4210
##읍	4211
무게	4212
단독	4213
##ang	4214
##ue	4215
##메달	4216
스킨	4217
공군	4218
토스	4219
공통	4220
얼음	4221
##ers	4222
신화	4223
비록	4224
##ant	4225
파악	4226
극장판	4227
마츠	4228
##웨이	4229
발휘	4230
우려	4231
판타	4232
삽	4233
수입	4234
비율	4235
권력	4236
세계관	4237
핀	4238
유형	4239
스파	4240
장수	4241
##IC	4242
건강	4243
개시	4244
자르	4245
어떻	4246
끼리	4247
경력	4248
인생	4249
##ine	4250
겹치	4251
가입	4252
본부	4253
자고	4254
##ack	4255
##래도	4256
##하라	4257
한자	4258
후반부	4259
순수	4260
근거	4261
공작	4262
막히	4263
레전	4264
계급	4265
모션	4266
##세이	4267
FI	4268
77	4269
젠	4270
하트	4271
커버	4272
아무래도	4273
물질	4274
88	4275
혼란	4276
지시	4277
패시브	4278
구입	4279
격투	4280
몰리	4281
외교	4282
##촉	4283
##다수	4284
아머	4285
쿼	4286
감염	4287
입단	4288
##두르	4289
지하철	4290
자식	4291
따위	4292
모리	4293
해방	4294
NP	4295
파이터	4296
연대	4297
기독	4298
탄생	4299
##OS	4300
##젠	4301
노르	4302
카라	4303
정령	4304
캐나다	4305
지대	4306
증명	4307
회수	4308
##어내	4309
강조	4310
##피아	4311
등등	4312
채용	4313
빔	4314
스테	4315
반영	4316
내주	4317
업체	4318
생일	4319
##심히	4320
긴	4321
스코어	4322
에리	4323
##흑	4324
누리	4325
메리	4326
홍보	4327
용도	4328
입학	4329
아사	4330
##가락	4331
##아나	4332
실질	4333
경영	4334
승강장	4335
##ok	4336
좁	4337
##헨	4338
갓	4339
폐지	4340
밸런스	4341
외치	4342
ㅕ서	4343
꾸준히	4344
타워	4345
##둑	4346
대륙	4347
1996	4348
문학	4349
언니	4350
납치	4351
쪼	4352
경향	4353
CD	4354
불안	4355
지급	4356
##ive	4357
기절	4358
병기	4359
be	4360
무너지	4361
오오	4362
덮	4363
갤러리	4364
대공	4365
실행	4366
윙	4367
돌격	4368
말리	4369
왕자	4370
트라	4371
##디션	4372
BG	4373
1995	4374
주어지	4375
1980	4376
장식	4377
##라리	4378
98	4379
추진	4380
요원	4381
제이	4382
아리	4383
##솔	4384
베트	4385
페이스	4386
출판	4387
##멀	4388
브라지	4389
감사	4390
광역	4391
##고기	4392
잖	4393
or	4394
신문	4395
##유키	4396
",	4397
필리	4398
랜덤	4399
373	4400
훌륭	4401
메탈	4402
600	4403
스펙	4404
온가	4405
계승	4406
쏟	4407
파리	4408
아나	4409
수학	4410
맡기	4411
재생	4412
주년	4413
시행	4414
원수	4415
온갖	4416
##라이더	4417
사카	4418
브라질	4419
통제	4420
마녀	4421
정지	4422
fff	4423
##ast	4424
가까이	4425
스튜	4426
낭	4427
내내	4428
집안	4429
고기	4430
없애	4431
설득	4432
울트라	4433
내놓	4434
패러디	4435
건축	4436
##오리	4437
단일	4438
기독교	4439
스페셜	4440
대다수	4441
마이크	4442
쇠	4443
작사	4444
심리	4445
사전	4446
##들리	4447
서포	4448
##AS	4449
ㅓ야	4450
용어	4451
헤이	4452
와이	4453
화살	4454
##멍	4455
찾아가	4456
전선	4457
관광	4458
공유	4459
신뢰	4460
경기장	4461
##트ᄅ	4462
오픈	4463
명예	4464
상품	4465
##카와	4466
크루	4467
북쪽	4468
##크래프트	4469
##어리	4470
별도	4471
후쿠	4472
즉시	4473
영원	4474
찌르	4475
오류	4476
기기	4477
##웨어	4478
선배	4479
어차	4480
이슬	4481
##휴	4482
PS	4483
짜리	4484
##바로	4485
살짝	4486
령	4487
폭풍	4488
##ee	4489
남쪽	4490
밟	4491
연예	4492
킥	4493
##즈키	4494
어차피	4495
지우	4496
##렴	4497
68	4498
적당	4499
등판	4500
##ED	4501
800	4502
가리키	4503
괴롭	4504
전달	4505
페이지	4506
대놓고	4507
화장	4508
짝	4509
보물	4510
내려오	4511
변호	4512
마련	4513
이렇	4514
##ᆸ터	4515
헤드	4516
미소	4517
흘리	4518
고전	4519
63	4520
스트라이	4521
라스	4522
##tt	4523
##ong	4524
탑승	4525
뒤집	4526
소문	4527
고민	4528
당황	4529
공기	4530
함선	4531
##uby	4532
그곳	4533
##다지	4534
경유	4535
##시오	4536
오프닝	4537
캔	4538
틱	4539
은근	4540
레오	4541
열심히	4542
가토	4543
##AM	4544
늑	4545
레전드	4546
커뮤니티	4547
입수	4548
외국인	4549
갤	4550
민간	4551
갑옷	4552
신청	4553
사령관	4554
심장	4555
가이	4556
##ᆯ릭	4557
한때	4558
정류	4559
##아먹	4560
##ort	4561
##ith	4562
운명	4563
##if	4564
반격	4565
##거나	4566
신고	4567
##세우	4568
엔터	4569
그레이	4570
조치	4571
아시	4572
##도우	4573
##ly	4574
트위터	4575
임시	4576
사운드	4577
##딘	4578
##납	4579
셀	4580
수업	4581
74	4582
댓글	4583
연구소	4584
1994	4585
##ᆮ히	4586
71	4587
응원	4588
알렉	4589
이승	4590
푸르	4591
격파	4592
가면라이더	4593
처하	4594
깃	4595
##나무	4596
김성	4597
##ld	4598
불만	4599
ruby	4600
쓰레	4601
라이벌	4602
##ᆷ프	4603
마주	4604
마인	4605
##랗	4606
82	4607
중계	4608
편의	4609
##아버지	4610
갈등	4611
컨트롤	4612
환자	4613
67	4614
절반	4615
습득	4616
울산	4617
73	4618
주위	4619
오해	4620
랜드	4621
러브	4622
관객	4623
##피스	4624
잉ᄀ	4625
두산	4626
하수	4627
퀄	4628
카나	4629
메이저	4630
북부	4631
요새	4632
닿	4633
보정	4634
여론	4635
널리	4636
출장	4637
##ain	4638
MV	4639
정말로	4640
지형	4641
##ist	4642
전공	4643
대만	4644
유로	4645
고치	4646
서부	4647
팝	4648
##겨나	4649
전시	4650
회원	4651
아오	4652
묵	4653
결승전	4654
##크리	4655
수용	4656
보장	4657
시각	4658
우스	4659
##fff	4660
여신	4661
주전	4662
리버	4663
안드로	4664
....	4665
이란	4666
180	4667
차트	4668
##ind	4669
96	4670
붙잡	4671
재능	4672
가득	4673
압박	4674
##가와	4675
메타	4676
별개	4677
ffffff	4678
전형	4679
추적	4680
왕조	4681
슬라	4682
탁	4683
영토	4684
##티컬	4685
쌓이	4686
소멸	4687
무르	4688
챠	4689
##서트	4690
무적	4691
NC	4692
##쥐	4693
전함	4694
종점	4695
##묵	4696
AT	4697
##듀서	4698
프로듀서	4699
##더스	4700
초월	4701
오로	4702
운전	4703
종이	4704
네이버	4705
판타지	4706
TH	4707
81	4708
흔하	4709
아티	4710
##돌리	4711
전역	4712
폭력	4713
메가	4714
동기	4715
도서관	4716
체포	4717
헨	4718
늑대	4719
AC	4720
제하	4721
녹음	4722
선호	4723
그다지	4724
##per	4725
쉐	4726
신세	4727
##팩	4728
지ᄏ	4729
컨텐츠	4730
아우	4731
시야	4732
타점	4733
따오	4734
곰	4735
화이트	4736
##따	4737
##지컬	4738
변형	4739
써	4740
파이어	4741
돌진	4742
개통	4743
##ew	4744
인수	4745
네덜	4746
네덜란드	4747
물러	4748
##ps	4749
강원	4750
든지	4751
##크로	4752
무지	4753
향상	4754
동원	4755
메시	4756
##럿	4757
##EN	4758
91	4759
맞서	4760
##사키	4761
이마	4762
여동생	4763
클로	4764
공급	4765
동부	4766
다행히	4767
수요	4768
일부러	4769
불꽃	4770
동네	4771
화려	4772
78	4773
아가	4774
동쪽	4775
##툰	4776
신라	4777
조절	4778
성과	4779
께	4780
파이널	4781
도달	4782
##EC	4783
적히	4784
##츠키	4785
##ᅫ지	4786
그만큼	4787
수집	4788
시드	4789
##놈	4790
문제점	4791
그림자	4792
본명	4793
테스트	4794
파견	4795
##융	4796
##콤	4797
학과	4798
자는	4799
복잡	4800
플로	4801
##어스	4802
지켜보	4803
뛰어	4804
##일랜드	4805
쓰러뜨리	4806
##ᅥᆷ프	4807
상향	4808
##려움	4809
##캐	4810
유비	4811
현지	4812
엑	4813
오랜	4814
연상	4815
##깝	4816
84	4817
기초	4818
소드	4819
일상	4820
니시	4821
##OL	4822
영업	4823
치명타	4824
##텀	4825
연관	4826
식물	4827
맘	4828
틀리	4829
매력	4830
##식간	4831
부품	4832
전적	4833
##ry	4834
최상	4835
암흑	4836
순식간	4837
폭격	4838
편지	4839
##lo	4840
##팡	4841
팅	4842
무난	4843
달하	4844
작동	4845
전방	4846
학살	4847
토리	4848
구현	4849
CP	4850
##퍼스	4851
게이트	4852
지르	4853
교황	4854
시위	4855
점차	4856
92	4857
법원	4858
토모	4859
97	4860
아트	4861
맞이	4862
킬	4863
##헤	4864
콘서트	4865
##ᅥᆼ이	4866
릭	4867
##LC	4868
코믹스	4869
노예	4870
대우	4871
신인	4872
지도자	4873
##ᆷ치	4874
세포	4875
해체	4876
바이오	4877
청년	4878
프레임	4879
충청	4880
전투력	4881
86	4882
수송	4883
객	4884
마술	4885
둘러	4886
me	4887
크리티컬	4888
사자	4889
입력	4890
복장	4891
고향	4892
오빠	4893
국립	4894
바라보	4895
사토	4896
호환	4897
추락	4898
서쪽	4899
콜라	4900
밴	4901
프리미	4902
수술	4903
기여	4904
모바	4905
스톤	4906
저런	4907
드디어	4908
##찾	4909
그치	4910
##밀리	4911
##ᅳ름	4912
키리	4913
반지	4914
경비	4915
69	4916
천사	4917
한국인	4918
##껏	4919
##오카	4920
창작	4921
덧	4922
찰	4923
조성	4924
아무런	4925
레스	4926
간격	4927
키스	4928
떡밥	4929
스마트	4930
##ᅦᆯ라	4931
189	4932
생명력	4933
출현	4934
마스	4935
##ᆫ트	4936
닌자	4937
##노스	4938
베트남	4939
심판	4940
##베이	4941
An	4942
폴란드	4943
해설	4944
추격	4945
##비전	4946
제자	4947
쓰레기	4948
꼬리	4949
블록	4950
조용	4951
전투기	4952
묶	4953
낚	4954
짱	4955
##오프	4956
뼈	4957
인근	4958
구체	4959
개혁	4960
##히로	4961
만든	4962
##둥이	4963
아이스	4964
##어버리	4965
it	4966
검색	4967
긍	4968
US	4969
몰래	4970
퀸	4971
의상	4972
고용	4973
##IT	4974
is	4975
감시	4976
다시피	4977
##ᆷ새	4978
##ᆼ이	4979
의료	4980
일제	4981
그래픽	4982
구도	4983
아무것	4984
엘프	4985
규칙	4986
사쿠라	4987
주먹	4988
겟	4989
##디아	4990
나루	4991
##모로	4992
구속	4993
접하	4994
무효	4995
썰	4996
1992	4997
##주시	4998
은하	4999
장교	5000
마리오	5001
후기	5002
다섯	5003
스카이	5004
신호	5005
조조	5006
막장	5007
연애	5008
##버트	5009
NPC	5010
돌아다니	5011
마리아	5012
통상	5013
토론	5014
##타로	5015
일원	5016
연사	5017
슬롯	5018
##ust	5019
신성	5020
실드	5021
룬	5022
MS	5023
대립	5024
대대	5025
뷰	5026
김정	5027
고교	5028
에드	5029
알아	5030
춘	5031
차단	5032
강의	5033
전라	5034
길이	5035
신규	5036
신분	5037
##어도	5038
놓치	5039
연락	5040
##홀	5041
앵	5042
어깨	5043
##보내	5044
##특별	5045
까다	5046
옛날	5047
총기	5048
진지	5049
예외	5050
잉글랜드	5051
범인	5052
카미	5053
노출	5054
경험치	5055
룡	5056
250	5057
이래	5058
##칠	5059
미술	5060
런던	5061
윌리	5062
##옹	5063
창조	5064
입구	5065
##럴	5066
디아	5067
##보드	5068
투어	5069
라이더	5070
모바일	5071
되찾	5072
KT	5073
글자	5074
정복	5075
부위	5076
동작	5077
득표	5078
탱크	5079
농구	5080
##도로	5081
쿠키	5082
불편	5083
##50	5084
1993	5085
메카	5086
환상	5087
글로	5088
가시	5089
디지털	5090
##ore	5091
요정	5092
앞두	5093
제어	5094
승격	5095
활성	5096
학자	5097
전직	5098
무료	5099
굽	5100
마도	5101
언제나	5102
이랑	5103
양산	5104
겐	5105
##뜩	5106
소총	5107
##자키	5108
브루	5109
미디어	5110
바보	5111
코인	5112
이리	5113
고문	5114
고생	5115
Ar	5116
##파이어	5117
평타	5118
음성	5119
유희	5120
권총	5121
박살	5122
De	5123
거짓말	5124
##타인	5125
안습	5126
헌법	5127
##즌	5128
세월	5129
총선	5130
합성	5131
##BO	5132
잠수	5133
##ᆸ스	5134
출처	5135
여러모로	5136
극단	5137
자이언	5138
##영상	5139
이득	5140
##크스	5141
공학	5142
참전	5143
대량	5144
침공	5145
라이프	5146
대체로	5147
법률	5148
이슬람	5149
블레이드	5150
##FC	5151
반발	5152
어택	5153
이날	5154
##깔	5155
83	5156
상호	5157
##ᆨ시코	5158
수영	5159
일자	5160
##레나	5161
소화	5162
겉	5163
가톨릭	5164
##다이	5165
89	5166
스웨	5167
사마	5168
교전	5169
인증	5170
간부	5171
##ᅢᆼ이	5172
헌터	5173
보고	5174
##저히	5175
Te	5176
샘	5177
출력	5178
북미	5179
상상	5180
호평	5181
정류장	5182
93	5183
띄우	5184
중대	5185
폭주	5186
환승	5187
보석	5188
마루	5189
합격	5190
연도	5191
상점	5192
동영상	5193
하고	5194
101	5195
사양	5196
의무	5197
개정	5198
사우	5199
톱	5200
총리	5201
알파	5202
94	5203
##렘	5204
렙	5205
띠	5206
79	5207
기병	5208
적어도	5209
결성	5210
유대	5211
아일랜드	5212
re	5213
지휘관	5214
서양	5215
마이클	5216
제법	5217
가량	5218
전대	5219
터치	5220
원소	5221
첨	5222
인공	5223
반하	5224
##FF	5225
On	5226
기습	5227
다이아	5228
끼치	5229
근육	5230
예비	5231
분기	5232
휘두르	5233
머신	5234
매니	5235
태우	5236
##일드	5237
잖아	5238
##란색	5239
제작진	5240
메인	5241
com	5242
FIFA	5243
##one	5244
실리	5245
87	5246
동방	5247
이재	5248
이자	5249
MAX	5250
대략	5251
##우드	5252
사이드	5253
요괴	5254
쟈	5255
구출	5256
깎	5257
가속	5258
앱	5259
믹	5260
홀로	5261
경고	5262
탄약	5263
##se	5264
바이러스	5265
조심	5266
##폼	5267
의혹	5268
이시	5269
묘지	5270
파일럿	5271
세르	5272
##둔	5273
유령	5274
삼진	5275
박근	5276
회차	5277
AI	5278
전면	5279
부부	5280
요즘	5281
히데	5282
어린이	5283
##AC	5284
##브리	5285
가게	5286
1991	5287
대항	5288
##ip	5289
포탑	5290
##먼트	5291
탱커	5292
플랫	5293
횡	5294
축제	5295
화학	5296
리아	5297
단ᄀ	5298
제임	5299
이내	5300
발달	5301
다면서	5302
베스트	5303
멋지	5304
갤럭	5305
패널	5306
노멀	5307
하수인	5308
지진	5309
상업	5310
##워크	5311
나아가	5312
람	5313
계정	5314
똑같이	5315
훔치	5316
개체	5317
예측	5318
취임	5319
문장	5320
볼넷	5321
블러	5322
##ere	5323
자금	5324
현역	5325
그로	5326
보안	5327
불법	5328
플레이오프	5329
멕시코	5330
오가	5331
##로나	5332
##컷	5333
쾌	5334
네임	5335
국방	5336
원자	5337
정착	5338
##ity	5339
레인저	5340
슈트	5341
캐스	5342
고지	5343
었었	5344
DJ	5345
호텔	5346
##쩡	5347
메모리	5348
핫	5349
자매	5350
유행	5351
어둡	5352
##RE	5353
특화	5354
스미	5355
블리	5356
익숙	5357
##PG	5358
MC	5359
제임스	5360
##닫	5361
청소년	5362
##ath	5363
용사	5364
갤럭시	5365
묻히	5366
##녁	5367
아기	5368
결론	5369
빗	5370
워치	5371
어지	5372
SN	5373
들어서	5374
일시	5375
넘치	5376
파크	5377
스튜디오	5378
인미	5379
도망가	5380
핸드	5381
##붕	5382
스크리	5383
김영	5384
형사	5385
대리	5386
타케	5387
검찰	5388
슛	5389
신설	5390
어째	5391
무역	5392
##라스	5393
저장	5394
##end	5395
피부	5396
구멍	5397
BGM	5398
움직임	5399
##고리	5400
리스트	5401
##창기	5402
육성	5403
삐	5404
켜	5405
##리티	5406
예고	5407
쿠로	5408
1970	5409
도발	5410
한방	5411
연맹	5412
소닉	5413
빛나	5414
##네스	5415
리치	5416
신기	5417
개방	5418
FA	5419
사제	5420
##넣	5421
루시	5422
부서	5423
스리	5424
##요시	5425
냐며	5426
1988	5427
카타	5428
불러	5429
##ᅱᆫ	5430
주식	5431
##조리	5432
##끄럽	5433
식민	5434
식사	5435
##티나	5436
겁	5437
합의	5438
조약	5439
콜로	5440
펠	5441
정면	5442
레이스	5443
길드	5444
##컴	5445
관할	5446
긍정	5447
역임	5448
으니까	5449
감옥	5450
고백	5451
파트너	5452
대가	5453
차리	5454
700	5455
구원	5456
오랫	5457
스톰	5458
루타	5459
마냥	5460
곧바로	5461
마구	5462
타마	5463
프라이	5464
이명	5465
결합	5466
전철	5467
바치	5468
웬만	5469
##륜	5470
바위	5471
여지	5472
Ro	5473
세이브	5474
방출	5475
찾아보	5476
##데스	5477
동의	5478
여유	5479
럭	5480
박정	5481
##코드	5482
인정받	5483
##펙트	5484
투구	5485
전문가	5486
##페인	5487
초창기	5488
볼트	5489
##ᅳ러지	5490
소형	5491
절망	5492
처벌	5493
알레	5494
번개	5495
!!	5496
진심	5497
THE	5498
사이즈	5499
방지	5500
주간	5501
둔	5502
강철	5503
이즈	5504
오늘날	5505
통치	5506
잡지	5507
ㅕㅆ	5508
기구	5509
배차	5510
융합	5511
국왕	5512
반사	5513
너무나	5514
훗	5515
물러나	5516
좌우	5517
흥행	5518
누적	5519
리ᄆ	5520
##성기	5521
팀원	5522
돼지	5523
포스트	5524
의존	5525
방사	5526
장악	5527
##특별시	5528
##구리	5529
##디언	5530
영향력	5531
착각	5532
떠오르	5533
리메이크	5534
위장	5535
MVP	5536
##ect	5537
##쾌	5538
그동안	5539
정치인	5540
목격	5541
외계	5542
드ᄅ	5543
미카	5544
네트	5545
기원전	5546
에서부터	5547
서울특별시	5548
아끼	5549
아빠	5550
레이드	5551
랭킹	5552
호주	5553
망치	5554
분량	5555
##트리아	5556
내성	5557
Wh	5558
커지	5559
봇	5560
내장	5561
크라	5562
잦	5563
안드로이드	5564
##OT	5565
꺾	5566
차라리	5567
논리	5568
면역	5569
곁	5570
의뢰	5571
인연	5572
단장	5573
해병	5574
챕터	5575
시즈	5576
룸	5577
대지	5578
혐의	5579
CC	5580
브레이크	5581
게스트	5582
야스	5583
협박	5584
유치	5585
섞	5586
요코	5587
칭하	5588
Se	5589
국군	5590
##삭	5591
양쪽	5592
에다	5593
저녁	5594
He	5595
빌드	5596
포르투	5597
지능	5598
태그	5599
마침내	5600
샌	5601
확대	5602
보관	5603
변호사	5604
골든	5605
Le	5606
공지	5607
각자	5608
타이거	5609
박근혜	5610
불교	5611
펴	5612
AK	5613
는다면	5614
동화	5615
윌리엄	5616
스프리	5617
태평	5618
공무원	5619
깨지	5620
토르	5621
최소한	5622
괴롭히	5623
권리	5624
아크	5625
칼리	5626
떠올리	5627
오사카	5628
손가락	5629
Me	5630
무덤	5631
멍	5632
놀이	5633
접촉	5634
재산	5635
뭉	5636
그대	5637
먹히	5638
몰아	5639
한번	5640
배트	5641
오랫동안	5642
박물	5643
터키	5644
대폭	5645
1989	5646
후속작	5647
으려고	5648
해리	5649
188	5650
라면서	5651
흠	5652
DLC	5653
윌	5654
##톱	5655
##부르크	5656
이지	5657
수수	5658
하필	5659
스턴	5660
htt	5661
##age	5662
Go	5663
출마	5664
과목	5665
실버	5666
##IS	5667
공공	5668
전후	5669
소장	5670
노부	5671
연료	5672
팔리	5673
악역	5674
오전	5675
주말	5676
소지	5677
올해	5678
오카	5679
섞이	5680
하우스	5681
##구치	5682
금융	5683
이집	5684
소원	5685
본작	5686
이집트	5687
리드	5688
'.	5689
PD	5690
익스	5691
연인	5692
명성	5693
웹툰	5694
수련	5695
권한	5696
막차	5697
그럼	5698
딘	5699
흐름	5700
al	5701
육체	5702
패하	5703
수익	5704
비행기	5705
##og	5706
적대	5707
귀신	5708
빡	5709
주기	5710
계단	5711
정비	5712
다가오	5713
학부	5714
붕	5715
대처	5716
예능	5717
##바라	5718
##흡	5719
알렉산	5720
##잡이	5721
호수	5722
정원	5723
##섬	5724
나치	5725
시마	5726
썩	5727
내구	5728
##아시아	5729
강남	5730
로즈	5731
##미야	5732
무렵	5733
스웨덴	5734
금속	5735
트레이드	5736
놓이	5737
깜	5738
부장	5739
연극	5740
컬러	5741
##ide	5742
선출	5743
톰	5744
휴대	5745
명중률	5746
kt	5747
원칙	5748
호감	5749
카오스	5750
어쨌	5751
Be	5752
My	5753
씌	5754
슈팅	5755
안내	5756
소스	5757
마키	5758
해안	5759
테일	5760
합체	5761
선전	5762
간혹	5763
GT	5764
접속	5765
숭	5766
섀	5767
편입	5768
써먹	5769
카스	5770
##회사	5771
화제	5772
시계	5773
캠퍼스	5774
놀랍	5775
##ime	5776
허리	5777
##세스	5778
최다	5779
빚	5780
예쁘	5781
츄	5782
##ake	5783
개성	5784
모모	5785
뻐	5786
##스턴	5787
##셰	5788
협상	5789
ᆫ다며	5790
준수	5791
##ark	5792
130	5793
교차	5794
담기	5795
##OM	5796
메르	5797
일기	5798
개입	5799
험	5800
떨어	5801
퀄리티	5802
##ss	5803
##오르	5804
둘째	5805
새벽	5806
종목	5807
##베르	5808
특집	5809
궤도	5810
게시판	5811
Su	5812
브레	5813
작곡가	5814
##윈	5815
SC	5816
킨	5817
박물관	5818
KIA	5819
##칼	5820
##ire	5821
뺏	5822
상당수	5823
김태	5824
편곡	5825
더라	5826
##어나오	5827
외형	5828
기도	5829
저그	5830
스위스	5831
환영	5832
성립	5833
인조	5834
꼽히	5835
림	5836
따라가	5837
고마	5838
고구	5839
갇히	5840
누나	5841
복무	5842
민주주의	5843
##듭	5844
유물	5845
SM	5846
##려주	5847
할아버지	5848
AR	5849
전신	5850
##바르	5851
굴리	5852
독특	5853
알아보	5854
주사	5855
피격	5856
초간	5857
재단	5858
이익	5859
깨닫	5860
WW	5861
##가리	5862
웅	5863
한동안	5864
이끄	5865
Tr	5866
식당	5867
페이즈	5868
젤	5869
지위	5870
사도	5871
극복	5872
수십	5873
헤비	5874
딩	5875
넉	5876
##무르	5877
치우	5878
재정	5879
이ᄉ	5880
##ID	5881
##ᆺ지	5882
바리	5883
트레	5884
##ES	5885
우라	5886
어른	5887
시선	5888
철학	5889
매직	5890
회상	5891
116	5892
##ite	5893
데이비	5894
##ge	5895
리얼	5896
정찰	5897
HD	5898
wh	5899
160	5900
블로그	5901
위상	5902
연타	5903
##iv	5904
으러	5905
소중	5906
거인	5907
영문	5908
SD	5909
아니면	5910
슬로	5911
흘	5912
무겁	5913
처형	5914
양성	5915
##ound	5916
기사단	5917
캐스팅	5918
식량	5919
뜬	5920
##그마	5921
##가스	5922
메뉴	5923
동굴	5924
정글	5925
대개	5926
데모	5927
용기	5928
오스트리아	5929
my	5930
문재	5931
면적	5932
비례	5933
안티	5934
부디	5935
익히	5936
시내버스	5937
일찍	5938
트럭	5939
고리	5940
전진	5941
리듬	5942
##가시	5943
은근히	5944
뜯	5945
##다랗	5946
손해	5947
뱅	5948
클래식	5949
우위	5950
참석	5951
ㅓ도	5952
음원	5953
조언	5954
팬덤	5955
집행	5956
힙	5957
유이	5958
과제	5959
구나	5960
튀어나오	5961
둥	5962
보라	5963
신앙	5964
##미니	5965
고수	5966
위원장	5967
아바	5968
별다르	5969
는지라	5970
##mp	5971
해상	5972
##던가	5973
##iz	5974
대충	5975
IC	5976
플라이	5977
훗날	5978
타인	5979
각본	5980
원본	5981
드레	5982
더더	5983
증언	5984
자국	5985
##테르	5986
노인	5987
렛	5988
SR	5989
신부	5990
이중	5991
세이버	5992
털리	5993
측정	5994
마비	5995
날짜	5996
##OP	5997
신비	5998
##가미	5999
예산	6000
헝	6001
##맨드	6002
빼앗기	6003
멀쩡	6004
##쳐지	6005
펀치	6006
##플레이	6007
''	6008
중독	6009
##슬리	6010
매체	6011
세종	6012
적응	6013
더더욱	6014
무릎	6015
살아가	6016
##리스트	6017
구사	6018
멘탈	6019
커맨드	6020
까다롭	6021
천재	6022
1987	6023
캠페인	6024
원주	6025
이주	6026
미터	6027
##마디	6028
적군	6029
해적	6030
##렛	6031
삼국지	6032
##OW	6033
국적	6034
교류	6035
제정	6036
절대로	6037
꽂	6038
Gr	6039
허나	6040
패션	6041
갈수록	6042
##ome	6043
크리스마스	6044
하락	6045
임대	6046
대학원	6047
스승	6048
일격	6049
활발	6050
재미있	6051
##큐어	6052
기적	6053
##ᆫ교	6054
정수	6055
녹색	6056
툴	6057
코우	6058
하얗	6059
마이너	6060
관중	6061
결코	6062
느라	6063
##ᆫ군	6064
##프레	6065
위대	6066
화성	6067
IS	6068
구리	6069
명단	6070
매년	6071
시아	6072
히메	6073
주포	6074
대수	6075
##팀	6076
##BA	6077
##핵	6078
죄다	6079
호위	6080
##덩이	6081
아미	6082
십자	6083
UE	6084
과연	6085
##스키	6086
작화	6087
개막	6088
진보	6089
with	6090
##데미	6091
##ud	6092
de	6093
켈	6094
투명	6095
충성	6096
##케이	6097
계통	6098
모자라	6099
어다	6100
Love	6101
포로	6102
##LL	6103
내세우	6104
탄창	6105
한참	6106
열쇠	6107
##몬드	6108
깡	6109
어려움	6110
##반도	6111
새기	6112
체크	6113
왈	6114
##갛	6115
바퀴	6116
희귀	6117
주일	6118
몽골	6119
##에이	6120
곽	6121
피스	6122
김종	6123
Pr	6124
우연히	6125
세인	6126
펫	6127
1960	6128
칭찬	6129
안경	6130
유적	6131
루수	6132
남북	6133
사후	6134
##UN	6135
사막	6136
냥	6137
아카데미	6138
경기력	6139
데려오	6140
비추	6141
흔적	6142
개수	6143
140	6144
##쩍	6145
자본	6146
채택	6147
모래	6148
##아웃	6149
##티아	6150
##블리	6151
기르	6152
##ord	6153
자극	6154
후방	6155
업적	6156
렉	6157
흔들리	6158
예수	6159
아메리카	6160
미츠	6161
화물	6162
으라	6163
비상	6164
전성기	6165
이영	6166
당일	6167
미안	6168
피아노	6169
일치	6170
사유	6171
##리그	6172
첼	6173
심사	6174
강점	6175
펑	6176
행적	6177
결말	6178
스타크래프트	6179
스프링	6180
보존	6181
##MA	6182
인민공	6183
신장	6184
오직	6185
부지	6186
첫차	6187
상급	6188
이정	6189
강도	6190
인지도	6191
##ᆫ지	6192
재현	6193
기종	6194
울리	6195
선고	6196
아티스트	6197
김동	6198
단편	6199
개량	6200
BE	6201
인민공화국	6202
주택	6203
##려나	6204
사라	6205
피니	6206
무작	6207
농담	6208
부작	6209
기울	6210
도우	6211
챌린	6212
안ᄀ	6213
출입	6214
추구	6215
거점	6216
기아	6217
취미	6218
가을	6219
웃음	6220
토끼	6221
과장	6222
##값	6223
스탠	6224
저작	6225
##사자	6226
포항	6227
상성	6228
클레	6229
자책	6230
버스터	6231
관찰	6232
고스트	6233
어지간	6234
포르투갈	6235
식민지	6236
합병	6237
px	6238
클릭	6239
1986	6240
생존자	6241
일반인	6242
네트워크	6243
어쨌든	6244
행하	6245
소위	6246
유나이	6247
소송	6248
새끼	6249
##멜	6250
##ure	6251
프리큐어	6252
맥스	6253
ch	6254
##일러	6255
헛	6256
유나이티	6257
##ance	6258
본체	6259
경로	6260
##our	6261
로우	6262
의대	6263
건조	6264
##스트레이	6265
어마	6266
##깥	6267
바깥	6268
닥	6269
##카드	6270
으시	6271
##mer	6272
스마트폰	6273
무라	6274
공룡	6275
기용	6276
##ix	6277
##양함	6278
연금	6279
괴수	6280
모조리	6281
시달리	6282
판매량	6283
흥미	6284
##ick	6285
포드	6286
EP	6287
Bo	6288
##ice	6289
막대	6290
##뜻	6291
체육관	6292
차기	6293
돋	6294
영구	6295
공세	6296
탈퇴	6297
파츠	6298
상실	6299
잠재	6300
자세히	6301
덧붙이	6302
전멸	6303
후계	6304
##이즈	6305
가짜	6306
이스라	6307
an	6308
기ᄈ	6309
일본인	6310
인격	6311
UEFA	6312
코코	6313
##치기	6314
미라	6315
##켄	6316
캡틴	6317
사형	6318
유통	6319
국경	6320
포격	6321
JR	6322
타율	6323
베네	6324
##ax	6325
유니폼	6326
186	6327
제작자	6328
칩	6329
고도	6330
아즈	6331
GS	6332
코리아	6333
900	6334
도주	6335
로고	6336
터널	6337
연패	6338
##ᆼ기	6339
부자	6340
불타	6341
일방	6342
꽈	6343
승점	6344
피터	6345
색상	6346
자전	6347
SKT	6348
Un	6349
생겨나	6350
판결	6351
색깔	6352
상인	6353
관측	6354
둘러싸	6355
명확	6356
노벨	6357
할머니	6358
취향	6359
팽	6360
드라이브	6361
##룩	6362
로그	6363
릴	6364
햄	6365
이민	6366
가상	6367
통산	6368
##지로	6369
항공기	6370
메시지	6371
요금	6372
커피	6373
레이더	6374
기량	6375
화장실	6376
##시타	6377
거듭	6378
잘리	6379
##나미	6380
치유	6381
선거구	6382
닭	6383
비주	6384
화재	6385
나포	6386
쌍둥이	6387
내지	6388
구경	6389
강요	6390
언스	6391
귀찮	6392
라이온	6393
여객	6394
##oc	6395
한마디	6396
##시로	6397
등지	6398
타선	6399
미루	6400
모토	6401
훼	6402
레디	6403
집어	6404
##AD	6405
이스라엘	6406
##맛	6407
Ex	6408
##시스트	6409
##아다니	6410
쵸	6411
가요	6412
어드	6413
동력	6414
루카	6415
초코	6416
오타	6417
위반	6418
사원	6419
소프트웨어	6420
신사	6421
##멘트	6422
##qu	6423
그레	6424
칭호	6425
수출	6426
비치	6427
##스틱	6428
날아오	6429
찢	6430
가루	6431
아마도	6432
##ᆫ색	6433
이슈	6434
사신	6435
아이콘	6436
다름	6437
187	6438
빨갛	6439
##듈	6440
##코토	6441
선택지	6442
주소	6443
승객	6444
포수	6445
OST	6446
다치	6447
##10	6448
순환	6449
고개	6450
트라이	6451
간신	6452
김민	6453
어스	6454
터뜨리	6455
몰락	6456
레알	6457
##own	6458
##괄	6459
##고속	6460
무방	6461
초보	6462
조이	6463
KO	6464
박히	6465
대선	6466
조연	6467
##크라	6468
연합군	6469
양자	6470
이브	6471
##얄	6472
##{{	6473
영주	6474
브라이	6475
스페이스	6476
##ber	6477
펄	6478
도끼	6479
교장	6480
귀환	6481
##데이	6482
수장	6483
남녀	6484
담배	6485
광역시	6486
매장	6487
적합	6488
즐겁	6489
연승	6490
##나카	6491
냄새	6492
구르	6493
함수	6494
GB	6495
캐논	6496
##80	6497
본사	6498
##러지	6499
넥센	6500
We	6501
소라	6502
타락	6503
서식	6504
복지	6505
##ys	6506
실망	6507
1984	6508
동성	6509
콜라보	6510
외전	6511
매니저	6512
DS	6513
타운	6514
항복	6515
##20	6516
이터	6517
텔레비전	6518
##ᅳ란	6519
안타깝	6520
뿔	6521
찾아내	6522
고구려	6523
미스터	6524
흑인	6525
곡명	6526
##카리	6527
캠프	6528
제갈	6529
배터리	6530
핏	6531
백성	6532
스터	6533
비서	6534
{{{	6535
마린	6536
라인업	6537
개국	6538
유희왕	6539
##av	6540
##곱	6541
통계	6542
단단	6543
인치	6544
유효	6545
스와	6546
변환	6547
그만두	6548
교실	6549
잠수함	6550
아랍	6551
1985	6552
아시안	6553
예시	6554
AM	6555
타수	6556
##노우	6557
붓	6558
발행	6559
커리어	6560
혐오	6561
##플레	6562
공업	6563
간주	6564
깔끔	6565
##정부	6566
일대	6567
법인	6568
주자	6569
반동	6570
쟁	6571
sh	6572
오라	6573
철수	6574
천만	6575
인종	6576
벼	6577
마드리	6578
CPU	6579
정기	6580
포위	6581
##ame	6582
주역	6583
중립	6584
에르	6585
레코드	6586
##orld	6587
유학	6588
##겐	6589
##old	6590
용량	6591
블라	6592
서구	6593
시노	6594
논의	6595
읍	6596
드래프트	6597
데드	6598
허가	6599
인디	6600
105	6601
관람	6602
릿	6603
플리	6604
노동자	6605
표지	6606
너희	6607
글로벌	6608
마드리드	6609
조별	6610
낚시	6611
플레	6612
##든가	6613
커다랗	6614
##저스	6615
##OC	6616
거미	6617
후손	6618
기생	6619
##일보	6620
흘러	6621
턱	6622
수류	6623
마약	6624
내전	6625
김재	6626
립	6627
예언	6628
끊기	6629
##지마	6630
히어로즈	6631
첩	6632
아쿠	6633
베리	6634
공성	6635
##쌍	6636
##렁	6637
##머스	6638
벌레	6639
하단	6640
즉위	6641
위성	6642
사이버	6643
##큰	6644
상단	6645
##랑이	6646
휴식	6647
티켓	6648
##NA	6649
복구	6650
##늬	6651
디스크	6652
곱	6653
연령	6654
음모	6655
구글	6656
##땅	6657
보험	6658
메달	6659
생략	6660
CF	6661
##위대	6662
##lay	6663
##김	6664
꾸미	6665
2021	6666
LI	6667
승률	6668
.."	6669
고위	6670
태평양	6671
##긋	6672
고작	6673
엿	6674
곤란	6675
분쟁	6676
근본	6677
##ont	6678
윗	6679
면모	6680
좌석	6681
추억	6682
형상	6683
##ies	6684
도적	6685
김대	6686
감각	6687
급격	6688
발리	6689
튕기	6690
이수	6691
문구	6692
표면	6693
카운트	6694
차이점	6695
최신	6696
추종	6697
준우	6698
후원	6699
얀	6700
그러니까	6701
그랜드	6702
적당히	6703
자폭	6704
중세	6705
수류탄	6706
##ᆫ결	6707
클랜	6708
소대	6709
AD	6710
언덕	6711
사명	6712
##타이	6713
파르	6714
상술	6715
대인	6716
치루	6717
경주	6718
아르헨	6719
It	6720
프린	6721
실전	6722
모노	6723
모니	6724
왕위	6725
마디	6726
언더	6727
학습	6728
관점	6729
허락	6730
성남	6731
다름없	6732
끈	6733
고맙	6734
KBO	6735
정차	6736
더럽	6737
연예인	6738
스틸	6739
입지	6740
굿	6741
타로	6742
후술	6743
오마	6744
균형	6745
웬	6746
SH	6747
일족	6748
제약	6749
꼽	6750
3000	6751
구석	6752
오크	6753
전주	6754
아르헨티나	6755
##려들	6756
후배	6757
휩	6758
용서	6759
분열	6760
지뢰	6761
##그리	6762
떨어뜨리	6763
지리	6764
뻗	6765
지경	6766
액티브	6767
DF	6768
증오	6769
취약	6770
스트라이크	6771
기숙	6772
체결	6773
서포터	6774
똥	6775
##죠	6776
토벌	6777
크리스탈	6778
폐쇄	6779
게리	6780
하차	6781
공방	6782
침략	6783
리타	6784
코르	6785
숙련	6786
진압	6787
전이	6788
더러	6789
머무르	6790
시너지	6791
데려가	6792
사정거리	6793
자막	6794
침입	6795
산하	6796
행보	6797
제출	6798
미묘	6799
lo	6800
주차	6801
금메달	6802
해피	6803
부각	6804
어뢰	6805
저렴	6806
포트	6807
이스	6808
법정	6809
부딪	6810
쓸모	6811
##ᆯ드	6812
일본군	6813
입대	6814
들키	6815
간접	6816
아츠	6817
XX	6818
분해	6819
텍스트	6820
LC	6821
##넬	6822
이듬	6823
워커	6824
인민	6825
제트	6826
드럼	6827
##하면	6828
무척	6829
특전	6830
트랜스	6831
정화	6832
루비	6833
##키아	6834
##OD	6835
중첩	6836
네요	6837
##마크	6838
루나	6839
노스	6840
##US	6841
약화	6842
블러드	6843
아테	6844
호흡	6845
평생	6846
##ann	6847
기관총	6848
쿼터	6849
가만	6850
간신히	6851
소방	6852
세븐	6853
##쓸	6854
총알	6855
##어마	6856
논문	6857
오랜만	6858
유발	6859
다지	6860
연고	6861
뜬금	6862
##자드	6863
가동	6864
##말리	6865
인권	6866
알아내	6867
CV	6868
이토	6869
사령부	6870
눈치채	6871
MF	6872
생년	6873
신전	6874
통화	6875
크ᄅ	6876
##첨	6877
거울	6878
히나	6879
잡아먹	6880
##틱	6881
헬기	6882
경상북도	6883
크레	6884
씹	6885
찍히	6886
NE	6887
흡혈	6888
카카	6889
악화	6890
여우	6891
크림	6892
공용	6893
곳곳	6894
로버트	6895
프란	6896
동인	6897
방어구	6898
나리	6899
아포	6900
모시	6901
사귀	6902
SE	6903
놀리	6904
남아	6905
이혼	6906
다카	6907
##pe	6908
전파	6909
혹시	6910
인용	6911
네오	6912
강자	6913
125	6914
##PM	6915
결심	6916
토너	6917
지불	6918
부적	6919
아이언	6920
성당	6921
##40	6922
맛있	6923
뮤지컬	6924
보건	6925
찬스	6926
자이언츠	6927
##sh	6928
저택	6929
공정	6930
WWE	6931
윈도우	6932
.....	6933
악당	6934
자녀	6935
이듬해	6936
페널	6937
헨리	6938
스캐	6939
드롭	6940
구슬	6941
중력	6942
어마어마	6943
주둔	6944
성별	6945
아동	6946
반전	6947
히토	6948
앨리스	6949
가라	6950
애정	6951
미즈	6952
깨어나	6953
제작사	6954
암시	6955
요인	6956
##30	6957
금방	6958
내보내	6959
갈라	6960
보완	6961
상기	6962
##뚱	6963
이식	6964
스크린	6965
구름	6966
복합	6967
##io	6968
잡아내	6969
저러	6970
금액	6971
되돌리	6972
수석	6973
##VD	6974
엘리트	6975
격추	6976
AS	6977
참모	6978
양식	6979
시상	6980
토니	6981
온도	6982
긴장	6983
옳	6984
En	6985
##올	6986
##블린	6987
##네임	6988
스팀	6989
시카	6990
멜로	6991
라기	6992
용인	6993
딜링	6994
##싱턴	6995
##픔	6996
##은행	6997
1950	6998
원리	6999
리온	7000
구미	7001
##네이	7002
시인	7003
악기	7004
배포	7005
라틴	7006
1982	7007
이온	7008
보호막	7009
충실	7010
구축함	7011
your	7012
물리치	7013
후계자	7014
뎀	7015
아저	7016
로이	7017
##천시	7018
헤어지	7019
##츄	7020
아저씨	7021
교과	7022
유력	7023
##눈	7024
CJ	7025
백작	7026
결전	7027
지라	7028
뽑히	7029
동양	7030
우에	7031
썬	7032
김현	7033
낮추	7034
토너먼트	7035
사인	7036
부임	7037
착하	7038
대왕	7039
의학	7040
개설	7041
##올리	7042
##배우	7043
초록	7044
##셋	7045
절차	7046
불사	7047
얻어	7048
흩	7049
천안	7050
;&	7051
채팅	7052
딴	7053
로리	7054
유전자	7055
백인	7056
임신	7057
릴리	7058
DE	7059
상세	7060
서서	7061
상관없	7062
열매	7063
Pro	7064
시라	7065
기상	7066
더군	7067
소유자	7068
해치	7069
야생	7070
임금	7071
##oo	7072
##라이트	7073
빠져	7074
하루카	7075
상영	7076
170	7077
##뛰	7078
교도	7079
본관	7080
베타	7081
정예	7082
증상	7083
##슬링	7084
루이스	7085
탐험	7086
##센트	7087
공산당	7088
비아	7089
호기	7090
뜨겁	7091
드라이버	7092
1983	7093
창원	7094
묘하	7095
답변	7096
안기	7097
전승	7098
실종	7099
기인	7100
법칙	7101
##에르	7102
선두	7103
존재감	7104
코미디	7105
학력	7106
##ᆫ가	7107
마주치	7108
끔	7109
동명	7110
도둑	7111
수백	7112
커플	7113
광장	7114
견디	7115
언젠가	7116
걸어	7117
방송국	7118
##ave	7119
업로드	7120
##뜨	7121
창설	7122
도박	7123
악명	7124
리뷰	7125
항의	7126
##스틴	7127
엮이	7128
##비치	7129
발렌	7130
웨스트	7131
처분	7132
뱀파이어	7133
Com	7134
문재인	7135
테라	7136
천하	7137
짜증	7138
강원도	7139
중량	7140
##포트	7141
대책	7142
행운	7143
수호자	7144
엑스트라	7145
관리자	7146
조리	7147
동점	7148
에요	7149
##ream	7150
관계자	7151
재밌	7152
모터	7153
##드레	7154
##도르	7155
닫	7156
패키	7157
애플	7158
미키	7159
분명히	7160
##ond	7161
기숙사	7162
##LE	7163
##스럽	7164
만남	7165
의장	7166
씬	7167
미쿠	7168
쏟아지	7169
승인	7170
##누스	7171
생명체	7172
다이아몬드	7173
##메이	7174
정통	7175
전동	7176
진주	7177
닛	7178
인력	7179
잔뜩	7180
##팡이	7181
##걸이	7182
##월일	7183
that	7184
기둥	7185
와일드	7186
에다가	7187
큐브	7188
카와	7189
1500	7190
정황	7191
토지	7192
호칭	7193
물고기	7194
여야	7195
캐스터	7196
##를린	7197
단축	7198
농업	7199
부ᄃ	7200
칼날	7201
쭉	7202
##ᅳᆯ란	7203
기름	7204
난입	7205
##엣	7206
모데	7207
##iss	7208
디지몬	7209
건국	7210
유산	7211
##ION	7212
건드리	7213
LV	7214
UP	7215
무관	7216
기후	7217
##IP	7218
니스	7219
##번트	7220
##우마	7221
폴리	7222
심심	7223
감지	7224
성질	7225
그린	7226
리오	7227
도루	7228
창단	7229
레지	7230
미네	7231
잃어버리	7232
유독	7233
창고	7234
할인	7235
문단	7236
생년월일	7237
부사	7238
지치	7239
해명	7240
투스	7241
은신	7242
탄환	7243
려던	7244
EN	7245
가방	7246
ED	7247
##팩트	7248
학위	7249
영광	7250
보드	7251
말투	7252
참가자	7253
서번트	7254
논쟁	7255
출구	7256
##탐	7257
##필더	7258
막내	7259
미드필더	7260
외계인	7261
삽입	7262
##펴보	7263
살펴보	7264
운동장	7265
##ian	7266
시공	7267
하향	7268
유기	7269
해골	7270
내각	7271
뿜	7272
부근	7273
프로필	7274
##갈리	7275
5000	7276
상륙	7277
##유럽	7278
분신	7279
우르	7280
식품	7281
플래시	7282
존경	7283
유인	7284
시합	7285
항구	7286
밍	7287
##릿	7288
헐	7289
경남	7290
주술	7291
분대	7292
한쪽	7293
복제	7294
장인	7295
가공	7296
미만	7297
끔찍	7298
도라	7299
발굴	7300
비전	7301
사살	7302
##태우	7303
장시	7304
그르	7305
##어하	7306
레딧	7307
셜	7308
그램	7309
콘텐츠	7310
조기	7311
부드럽	7312
사법	7313
부스터	7314
유격	7315
진학	7316
##티스	7317
우정	7318
울프	7319
뛰어넘	7320
준우승	7321
정교	7322
주니어	7323
딜레이	7324
디젤	7325
->	7326
로얄	7327
요약	7328
##투스	7329
그렇지만	7330
왠지	7331
코트	7332
아키라	7333
전제	7334
##이어	7335
수면	7336
승자	7337
퇴장	7338
손상	7339
밀도	7340
두르	7341
집착	7342
탕	7343
독재	7344
##늄	7345
태국	7346
선제	7347
통로	7348
대조	7349
공허	7350
민첩	7351
오디션	7352
시리아	7353
솜	7354
상식	7355
##커스	7356
##운서	7357
2022	7358
스위치	7359
아나운서	7360
마블	7361
걸맞	7362
##TV	7363
샌드	7364
체험	7365
휘말리	7366
by	7367
##즐	7368
동계	7369
학기	7370
깔리	7371
##카이	7372
워싱턴	7373
##베스	7374
감추	7375
헝가리	7376
분포	7377
##텐도	7378
닌텐도	7379
##60	7380
시원	7381
he	7382
##셔널	7383
BL	7384
학문	7385
작년	7386
수명	7387
Br	7388
헤어	7389
스쿨	7390
하츠	7391
Co	7392
과학자	7393
##세대	7394
훈장	7395
커녕	7396
##다나	7397
호소	7398
께서	7399
불펜	7400
##ᆺ갈리	7401
철저	7402
싫어하	7403
##우리	7404
루스	7405
전북	7406
빅토	7407
마케	7408
돔	7409
갑작	7410
힐러	7411
근대	7412
단원	7413
반박	7414
회담	7415
##소녀	7416
나츠	7417
맷	7418
보충	7419
여주	7420
국장	7421
하이퍼	7422
배정	7423
슬래	7424
이드	7425
방위	7426
자전거	7427
??	7428
공화	7429
노바	7430
공립	7431
덩치	7432
트럼프	7433
##팬	7434
##rom	7435
##ory	7436
##틀러	7437
사용자	7438
스폰	7439
go	7440
중형	7441
엔젤	7442
비주얼	7443
질병	7444
펼쳐지	7445
옹호	7446
##ace	7447
스트레스	7448
기재	7449
111	7450
배출	7451
라니	7452
Bl	7453
돌입	7454
단행	7455
고객	7456
트루	7457
타석	7458
##Hz	7459
럼	7460
지사	7461
휘하	7462
히라	7463
오키	7464
안녕	7465
격차	7466
평양	7467
##쟁이	7468
&#	7469
기운	7470
185	7471
꿀	7472
토마	7473
깨달	7474
마스크	7475
1945	7476
그럭	7477
대거	7478
리스크	7479
삼각	7480
##카이도	7481
##세서	7482
가죽	7483
##필드	7484
##포르	7485
웃기	7486
경전	7487
꼼	7488
딕	7489
싹	7490
##던지	7491
눕	7492
##저럭	7493
백제	7494
임기	7495
팟	7496
본진	7497
소요	7498
앗	7499
세부	7500
인질	7501
데이비드	7502
출격	7503
웨이브	7504
오염	7505
철거	7506
나마	7507
위안	7508
그럭저럭	7509
##레이터	7510
속이	7511
신도	7512
어필	7513
##TE	7514
DVD	7515
처지	7516
마감	7517
마우스	7518
케인	7519
요한	7520
기갑	7521
##oth	7522
경상남도	7523
하마	7524
미나미	7525
배트맨	7526
영지	7527
축복	7528
Or	7529
##산시	7530
##게임	7531
파편	7532
라이플	7533
##주교	7534
하계	7535
파동	7536
이펙트	7537
뱅크	7538
나미	7539
한반도	7540
디즈	7541
축하	7542
실책	7543
동남	7544
##틀랜드	7545
헤르	7546
중국어	7547
트리플	7548
완결	7549
소음	7550
콰	7551
##ᅲᆷ	7552
장거리	7553
##me	7554
##뚝	7555
롬	7556
과도	7557
피우	7558
해양	7559
개별	7560
후퇴	7561
지향	7562
##ᆯ레스	7563
변수	7564
차체	7565
##하마	7566
침묵	7567
갈아	7568
원문	7569
팬텀	7570
보이스	7571
1981	7572
리카	7573
복선	7574
와타	7575
##ows	7576
##부로	7577
외과	7578
토크	7579
싸이	7580
세인트	7581
;&#	7582
구별	7583
물체	7584
라우	7585
군수	7586
적중	7587
##MP	7588
골키	7589
메이드	7590
날카	7591
약탈	7592
사회주의	7593
상담	7594
오니	7595
막판	7596
치킨	7597
플래그	7598
우세	7599
##TS	7600
스트리트	7601
취득	7602
##끈	7603
무인	7604
경직	7605
기동성	7606
##스리	7607
스케	7608
오이	7609
후자	7610
시신	7611
필리핀	7612
간단히	7613
남매	7614
카를	7615
##먼스	7616
##ᆫ들	7617
왜곡	7618
연습생	7619
약물	7620
손실	7621
노조	7622
결투	7623
튼	7624
##무시	7625
내일	7626
근거리	7627
솔직	7628
모로	7629
브라운	7630
부실	7631
두들	7632
무작위	7633
램	7634
성전	7635
신나	7636
집합	7637
규격	7638
##잠	7639
1979	7640
지칭	7641
주류	7642
부착	7643
집권	7644
수능	7645
동급	7646
급하	7647
흰색	7648
##화점	7649
국정	7650
선행	7651
개발자	7652
##빵	7653
날카롭	7654
중시	7655
패키지	7656
##뇨	7657
##ᆻ다	7658
넘버	7659
센스	7660
멜로디	7661
##IG	7662
밀어	7663
##aw	7664
교토	7665
만주	7666
##ale	7667
이와	7668
줍	7669
수급	7670
독일군	7671
CG	7672
제네	7673
바쁘	7674
야수	7675
전망	7676
골키퍼	7677
망가지	7678
Sc	7679
그날	7680
유전	7681
캄	7682
유성	7683
##그나	7684
##다보	7685
질리	7686
안개	7687
파생	7688
##경기	7689
킬러	7690
최상위	7691
피트	7692
일당	7693
특별히	7694
##딱	7695
무산	7696
영화제	7697
라라	7698
신발	7699
최적	7700
양상	7701
기세	7702
For	7703
카츠	7704
##든지	7705
##아키	7706
원조	7707
무사히	7708
캘리	7709
괜히	7710
서기	7711
베를린	7712
즈음	7713
##ike	7714
끼우	7715
대포	7716
##하시	7717
모스크	7718
틸	7719
싱크	7720
마법소녀	7721
프리미엄	7722
사키	7723
##야수	7724
##네시아	7725
##몸	7726
타쿠	7727
##ep	7728
잎	7729
업계	7730
SNS	7731
##자와	7732
간간	7733
틴	7734
선조	7735
##ach	7736
Cl	7737
여러분	7738
##man	7739
##공항	7740
출루	7741
이웃	7742
야구장	7743
청주	7744
##겹	7745
페이스북	7746
이글	7747
장탄	7748
리프	7749
##아이	7750
주행	7751
Dr	7752
영원히	7753
대치	7754
응용	7755
175	7756
바디	7757
권위	7758
진격	7759
뭉치	7760
왜냐	7761
##irl	7762
기호	7763
입주	7764
록맨	7765
첼시	7766
##ile	7767
##밋	7768
Mo	7769
부동	7770
장사	7771
PV	7772
델	7773
##OU	7774
룩	7775
계시	7776
서서히	7777
임팩트	7778
##플리	7779
협정	7780
중복	7781
RPG	7782
동경	7783
시비	7784
해산	7785
##바닥	7786
호랑이	7787
여인	7788
더군다나	7789
선임	7790
야마토	7791
102	7792
핑크	7793
폭행	7794
챌린지	7795
투쟁	7796
원형	7797
당대	7798
며칠	7799
초인	7800
암살자	7801
##둘	7802
벙	7803
매번	7804
후임	7805
프리미어	7806
관여	7807
직장	7808
올스타	7809
무시무시	7810
106	7811
117	7812
세리	7813
최우	7814
GP	7815
플러스	7816
귀국	7817
풋	7818
연산	7819
나르	7820
챔피언십	7821
프로토	7822
악몽	7823
개신교	7824
사리	7825
오스만	7826
##토스	7827
FM	7828
개장	7829
##ink	7830
OP	7831
연구원	7832
슬프	7833
고장	7834
신자	7835
확산	7836
추방	7837
BB	7838
##ial	7839
서클	7840
##철도	7841
댄	7842
동아리	7843
##하르트	7844
천연	7845
몫	7846
Sk	7847
사립	7848
합계	7849
잠입	7850
어이	7851
엘리자	7852
수비력	7853
끌려가	7854
퍼포	7855
도마	7856
##우치	7857
퍼포먼스	7858
꿰	7859
수립	7860
##그라	7861
페널티	7862
합리	7863
인방	7864
구성원	7865
LA	7866
지팡이	7867
제독	7868
웰	7869
##ish	7870
115	7871
공수	7872
중장	7873
에릭	7874
무술	7875
징역	7876
##여객	7877
권장	7878
조상	7879
인피	7880
선사	7881
팡	7882
##VA	7883
리라	7884
성경	7885
주관	7886
배역	7887
굵	7888
해킹	7889
긴급	7890
UN	7891
Team	7892
감싸	7893
상한	7894
수동	7895
배급	7896
Bla	7897
히가시	7898
체인지	7899
독점	7900
이종	7901
돌연	7902
##승부	7903
물량	7904
장로	7905
CH	7906
파란색	7907
임의	7908
메이커	7909
에디	7910
기동전	7911
폐기	7912
데이트	7913
DD	7914
의외로	7915
나비	7916
국어	7917
국당	7918
김경	7919
가디언	7920
ᆯ게	7921
##킥	7922
청와	7923
하인	7924
SU	7925
회색	7926
닐	7927
저하	7928
미국인	7929
가만히	7930
사무소	7931
##콜	7932
ᄇ시오	7933
풍부	7934
##슴	7935
##데드	7936
##어놓	7937
신입	7938
해내	7939
일람	7940
##II	7941
쌀	7942
##ower	7943
출간	7944
평점	7945
마물	7946
스펠	7947
김상	7948
건네	7949
##쿠라	7950
엔드	7951
세팅	7952
코난	7953
모집	7954
조명	7955
쇼핑	7956
프레이	7957
복원	7958
렌즈	7959
은지	7960
Ne	7961
배달	7962
캐릭	7963
##앉	7964
##운동	7965
청와대	7966
시트	7967
언데드	7968
카트	7969
야간	7970
면허	7971
공백	7972
스타디	7973
명백	7974
공인	7975
지연	7976
포즈	7977
스파이더	7978
바둑	7979
안양	7980
화산	7981
광산	7982
전라남도	7983
##슬라	7984
여전	7985
토시	7986
증폭	7987
뤼	7988
교단	7989
라이너	7990
전무	7991
만만	7992
일화	7993
##IM	7994
테츠	7995
유미	7996
목사	7997
냐면	7998
행방	7999
육상	8000
억지로	8001
감동	8002
만일	8003
다가가	8004
와카	8005
택시	8006
듀오	8007
간호	8008
명의	8009
기장	8010
빌딩	8011
뽑아내	8012
재회	8013
엄격	8014
이라크	8015
방치	8016
박지	8017
아레나	8018
##블로	8019
끊임	8020
승무원	8021
여학생	8022
스즈	8023
##GE	8024
벨트	8025
분당	8026
즉사	8027
장미	8028
Star	8029
택하	8030
자비	8031
##오루	8032
감상	8033
궁금	8034
혼돈	8035
시사	8036
평일	8037
BS	8038
잠들	8039
우주선	8040
피닉스	8041
썬더	8042
대단히	8043
페리	8044
발목	8045
버섯	8046
신학	8047
매출	8048
우즈	8049
산맥	8050
스테이	8051
규제	8052
##벳	8053
유출	8054
##ᆯ로그	8055
계수	8056
불량	8057
광선	8058
무스	8059
알라	8060
##늦	8061
타이거즈	8062
추리	8063
캐치	8064
##키스탄	8065
통틀	8066
천문	8067
청구	8068
드루	8069
우유	8070
부서지	8071
수색	8072
오메	8073
김기	8074
닝	8075
we	8076
##99	8077
슬리	8078
국무	8079
포켓몬스터	8080
쿠라	8081
코멘트	8082
DC	8083
고소	8084
##벌레	8085
수비수	8086
베이징	8087
##라기	8088
And	8089
ID	8090
뮌	8091
350	8092
고블린	8093
깜짝	8094
All	8095
PR	8096
우월	8097
##브라	8098
국제공항	8099
##타카	8100
뒤지	8101
재학	8102
되게	8103
치즈	8104
##!!	8105
처참	8106
벌리	8107
상관없이	8108
우익	8109
해머	8110
Wind	8111
##느리	8112
실장	8113
출범	8114
##히코	8115
Man	8116
본토	8117
버드	8118
붐	8119
합동	8120
배수	8121
축소	8122
시상식	8123
실내	8124
시바	8125
기쁘	8126
##체스터	8127
War	8128
##ass	8129
뚫리	8130
바르셀	8131
만지	8132
포장	8133
안쪽	8134
질투	8135
바르셀로나	8136
혈액	8137
고로	8138
##농	8139
비웃	8140
심의	8141
유언	8142
조롱	8143
스탠드	8144
##번에	8145
다운로드	8146
톨	8147
라이온즈	8148
탐정	8149
승진	8150
레일	8151
난사	8152
디즈니	8153
당사자	8154
니아	8155
세라	8156
운수	8157
##벅	8158
파이트	8159
토미	8160
중지	8161
호시	8162
수직	8163
온천	8164
LP	8165
##gh	8166
##11	8167
세금	8168
협의	8169
로빈	8170
여섯	8171
리가	8172
치열	8173
스타디움	8174
기리	8175
태풍	8176
에픽	8177
따뜻	8178
##카락	8179
##잘	8180
평론	8181
##ib	8182
##뮬	8183
##pp	8184
머리카락	8185
##춤	8186
108	8187
자꾸	8188
360	8189
말ᄊ	8190
충청남도	8191
짤	8192
스미스	8193
파멸	8194
up	8195
의자	8196
서포트	8197
112	8198
##orm	8199
한두	8200
캘리포	8201
권유	8202
fe	8203
##ft	8204
실현	8205
체감	8206
아지	8207
골렘	8208
##졸	8209
젤리	8210
극도	8211
키타	8212
##민주	8213
압력	8214
소용	8215
##사이	8216
시외	8217
나기	8218
스텝	8219
인접	8220
우치	8221
##이나	8222
크리스티	8223
정발	8224
오로지	8225
기력	8226
뒤늦	8227
검술	8228
전당	8229
여파	8230
황후	8231
##틀리	8232
도저히	8233
티아	8234
탐지	8235
타르	8236
텟	8237
모험가	8238
##닌	8239
특급	8240
트릭	8241
1978	8242
##tle	8243
스테이션	8244
New	8245
사이코	8246
루크	8247
손자	8248
낙하	8249
One	8250
캘리포니아	8251
나노	8252
모임	8253
조용히	8254
마코토	8255
반부	8256
배제	8257
##도리	8258
프래	8259
##ous	8260
##앤	8261
메이플	8262
비유	8263
러시	8264
오락	8265
##ᆯ러스	8266
##스티벌	8267
페스티벌	8268
분산	8269
103	8270
아쉬	8271
단종	8272
미르	8273
지인	8274
지목	8275
직선	8276
SF	8277
물품	8278
마카	8279
루머	8280
Mar	8281
반감	8282
##CG	8283
묶이	8284
비명	8285
범죄자	8286
전남	8287
우드	8288
신용	8289
엽	8290
스티븐	8291
중순	8292
에미	8293
일요일	8294
맥주	8295
프렌	8296
AKB	8297
서머	8298
가난	8299
리즈	8300
어시스트	8301
모듈	8302
##려받	8303
##sp	8304
조르	8305
강등	8306
붙잡히	8307
주최	8308
1973	8309
주교	8310
폭파	8311
케이블	8312
오우	8313
바니	8314
넘어서	8315
##amp	8316
알바	8317
동반	8318
##가드	8319
토큰	8320
함락	8321
하프	8322
##now	8323
힙합	8324
##ms	8325
##ment	8326
재개	8327
리버풀	8328
미미	8329
이글스	8330
드림	8331
려다	8332
기부	8333
센서	8334
생전	8335
루피	8336
캐시	8337
##70	8338
꼬이	8339
거북	8340
조커	8341
수월	8342
##yle	8343
실은	8344
농장	8345
To	8346
부딪히	8347
추세	8348
불행	8349
무승부	8350
강사	8351
##atch	8352
파울	8353
베테	8354
다스	8355
유의	8356
184	8357
스핀	8358
토키	8359
암호	8360
조우	8361
홋	8362
낙선	8363
젖	8364
##튀	8365
막아내	8366
체중	8367
넘어지	8368
명문	8369
능력자	8370
타일	8371
인자	8372
IN	8373
고속도로	8374
김진	8375
카구	8376
김해	8377
기수	8378
할로	8379
ex	8380
수염	8381
좌절	8382
비틀	8383
토요일	8384
중부	8385
연봉	8386
Part	8387
당당	8388
비극	8389
원시	8390
##뚜	8391
대성	8392
드론	8393
아가씨	8394
신속	8395
개척	8396
명목	8397
ON	8398
시로	8399
중화민국	8400
여고	8401
소니	8402
적자	8403
바스	8404
깊이	8405
##쿨	8406
기묘	8407
모스	8408
김용	8409
얻어맞	8410
진상	8411
빨간	8412
퍼부	8413
##나오	8414
수습	8415
더빙	8416
훼손	8417
CS	8418
음료	8419
128	8420
끓	8421
조카	8422
##슬러	8423
구조물	8424
입자	8425
BR	8426
나요	8427
##케이션	8428
패전	8429
두렵	8430
엑시	8431
주체	8432
오페	8433
바론	8434
쿤	8435
실시간	8436
살아나	8437
후회	8438
막상	8439
경악	8440
도리	8441
극히	8442
엄밀	8443
야쿠	8444
##hen	8445
KR	8446
Gam	8447
고시	8448
에로	8449
던가	8450
##렐라	8451
183	8452
히틀러	8453
##ING	8454
코마	8455
되살	8456
##구나	8457
까이	8458
믹스	8459
각지	8460
영감	8461
변동	8462
##ree	8463
억제	8464
산탄	8465
혜택	8466
1974	8467
채보	8468
하여	8469
쿠데	8470
유망	8471
##ae	8472
대시	8473
##ase	8474
나루토	8475
배드	8476
##킷	8477
듀스	8478
집어넣	8479
에반	8480
혁신	8481
상반	8482
까마	8483
PP	8484
리처	8485
배려	8486
인과	8487
엎	8488
샤이	8489
총장	8490
질서	8491
팁	8492
##어트	8493
##64	8494
장성	8495
##스트라	8496
잠실	8497
둠	8498
경북	8499
##버그	8500
되돌	8501
World	8502
캣	8503
구동	8504
재건	8505
ᆫ다거나	8506
국판	8507
꽉	8508
복사	8509
번지	8510
휴가	8511
코믹	8512
도장	8513
구장	8514
핀란드	8515
##놀	8516
바지	8517
1972	8518
늙	8519
노가	8520
##렐	8521
호남	8522
선수단	8523
날씨	8524
다투	8525
꼬마	8526
찬성	8527
철권	8528
반짝	8529
##밭	8530
포탄	8531
견해	8532
말기	8533
계층	8534
해병대	8535
벤치	8536
얽	8537
이타	8538
그랑	8539
##거지	8540
대행	8541
마땅	8542
##불명	8543
쳐들	8544
지수	8545
카리	8546
##베리	8547
##az	8548
##기에	8549
고증	8550
##사리	8551
스코틀랜드	8552
투척	8553
첫째	8554
사퇴	8555
동해	8556
##방송	8557
닉네임	8558
아이러	8559
천황	8560
유재	8561
수여	8562
뻥	8563
크레이	8564
장탄수	8565
##노리	8566
그라운드	8567
갈색	8568
짙	8569
##더라	8570
사무실	8571
##클리	8572
메트로	8573
트로피	8574
퍼즐	8575
##이너	8576
레온	8577
역습	8578
껍	8579
쇼크	8580
가담	8581
달려가	8582
##잎	8583
운송	8584
걸즈	8585
##테이	8586
제치	8587
근원	8588
할리	8589
##저리	8590
거론	8591
유니크	8592
JT	8593
중동	8594
사로	8595
동행	8596
##빨	8597
공격수	8598
프랑스어	8599
수지	8600
네티	8601
장례	8602
샷건	8603
##ear	8604
때려	8605
동서	8606
최저	8607
짐작	8608
ᄇ니까	8609
산타	8610
##클ᄅ	8611
거칠	8612
감수	8613
확장팩	8614
##ᅥ하	8615
기뻐하	8616
AN	8617
키보드	8618
휠	8619
동아	8620
여의	8621
##ason	8622
제갈량	8623
##펠	8624
라즈	8625
첸	8626
유입	8627
부시	8628
보라색	8629
220	8630
##12	8631
평하	8632
빨간색	8633
공감	8634
1975	8635
뮌헨	8636
So	8637
챔	8638
무용	8639
함부로	8640
상사	8641
세자	8642
인재	8643
돌보	8644
어쩌면	8645
피로	8646
##듯	8647
포스터	8648
고무	8649
##라드	8650
래퍼	8651
노란색	8652
마일	8653
나스	8654
잭슨	8655
짐승	8656
오브젝트	8657
##구장	8658
퇴각	8659
백화점	8660
##러그	8661
##AY	8662
GO	8663
리미	8664
재직	8665
여럿	8666
샵	8667
영양	8668
왕실	8669
특별시	8670
매주	8671
가구	8672
아베	8673
덴마크	8674
보좌	8675
갚	8676
##돌이	8677
마오	8678
대령	8679
##토니	8680
##MS	8681
인도네시아	8682
##직자	8683
결제	8684
진급	8685
##앞	8686
각오	8687
1976	8688
사관	8689
엔지	8690
베기	8691
알렉스	8692
기스	8693
##are	8694
소재지	8695
베어스	8696
양손	8697
패밀리	8698
안심	8699
전날	8700
정반	8701
헬리	8702
시그	8703
반도	8704
##끗	8705
JP	8706
세로	8707
##iki	8708
페어	8709
와인	8710
장난감	8711
호불	8712
호불호	8713
강림	8714
원더	8715
탐색	8716
경호	8717
사야	8718
상주	8719
셔틀	8720
후반기	8721
비기	8722
##웰	8723
##사기	8724
완공	8725
트레이너	8726
240	8727
드레스	8728
여단	8729
차갑	8730
관료	8731
킷	8732
오더	8733
연쇄	8734
도덕	8735
흔들	8736
요미	8737
포도	8738
포획	8739
모형	8740
메이지	8741
신선	8742
카자	8743
시카고	8744
##차기	8745
##저기	8746
##ᆯ릿	8747
프린세스	8748
##키스	8749
워크	8750
당기	8751
도어	8752
빠져나가	8753
네티즌	8754
연설	8755
봉쇄	8756
##ng	8757
흡사	8758
마계	8759
문화재	8760
비비	8761
거든	8762
토대	8763
지부	8764
우호	8765
##케이드	8766
생체	8767
가두	8768
역명	8769
##bo	8770
국도	8771
탐사	8772
밀어내	8773
화폐	8774
타이탄	8775
sp	8776
막강	8777
점유	8778
라마	8779
##베이터	8780
##ife	8781
여기저기	8782
하하	8783
쇄	8784
유혹	8785
결혼식	8786
역량	8787
##박스	8788
우측	8789
##gin	8790
루프	8791
학생회	8792
여서	8793
세뇌	8794
집회	8795
양반	8796
##ven	8797
강렬	8798
소금	8799
##슈타인	8800
뜬금없이	8801
렐	8802
콘솔	8803
OS	8804
끌리	8805
디오	8806
려다가	8807
말레이	8808
클론	8809
시모	8810
FW	8811
출산	8812
##스트레일리아	8813
케이드	8814
쿠데타	8815
벨기에	8816
두들기	8817
경찰서	8818
신중	8819
흙	8820
##껍	8821
##AP	8822
방탄	8823
약자	8824
깎이	8825
날뛰	8826
##릇	8827
방송사	8828
무실	8829
교복	8830
성분	8831
tv	8832
다큐	8833
원곡	8834
서바이	8835
청나라	8836
##륨	8837
후미	8838
우회	8839
돋보이	8840
콤비	8841
선박	8842
##ade	8843
침대	8844
부작용	8845
ᆯ려	8846
Wi	8847
무공	8848
모스크바	8849
일곱	8850
기차	8851
트라우마	8852
빈도	8853
위로	8854
바나	8855
박쥐	8856
간섭	8857
법무	8858
중심지	8859
AFC	8860
발명	8861
트윈스	8862
노르웨이	8863
공산주의	8864
폭스	8865
프라임	8866
아이디어	8867
전동차	8868
김준	8869
스즈키	8870
우루	8871
원주민	8872
제물	8873
##에른	8874
통칭	8875
소득	8876
아이러니	8877
##90	8878
윈드	8879
침투	8880
포터	8881
##ᆺ불	8882
변이	8883
##하나	8884
출혈	8885
로이드	8886
트랩	8887
##act	8888
당초	8889
연금술	8890
힌	8891
취업	8892
홀리	8893
NH	8894
드로우	8895
##ank	8896
전락	8897
결계	8898
창문	8899
튼튼	8900
리안	8901
밀려나	8902
##out	8903
비스트	8904
소통	8905
강경	8906
##천군	8907
박살나	8908
품질	8909
토하	8910
http	8911
중점	8912
MB	8913
오노	8914
104	8915
##싸움	8916
##아치	8917
상무	8918
탭	8919
##른바	8920
노무	8921
소나	8922
##ork	8923
콘스탄	8924
##lect	8925
##oll	8926
선장	8927
크라이	8928
체코	8929
글씨	8930
판사	8931
123	8932
허무	8933
순양함	8934
이순	8935
단행본	8936
부재	8937
저자	8938
장판	8939
항해	8940
https	8941
디시	8942
##지르	8943
##헬	8944
##와라	8945
아바타	8946
히로시	8947
도쿠	8948
제재	8949
##우트	8950
코스ᄐ	8951
전향	8952
##aby	8953
Do	8954
홀드	8955
명명	8956
기하	8957
손꼬	8958
발레	8959
1971	8960
##렷	8961
혈통	8962
명사	8963
##드ᄅ	8964
독일어	8965
하스	8966
이른바	8967
책임지	8968
강간	8969
성씨	8970
검토	8971
##흔	8972
리코	8973
다스리	8974
낭비	8975
도감	8976
나아지	8977
##깨비	8978
공대	8979
##ET	8980
대타	8981
##데레	8982
쓸데	8983
##ich	8984
입증	8985
##ai	8986
분할	8987
조종사	8988
외곽	8989
구상	8990
시호	8991
오지	8992
검증	8993
##루션	8994
페인	8995
도트	8996
Up	8997
전송	8998
찰스	8999
승차	9000
장남	9001
스트라이커	9002
티스	9003
신데	9004
##ey	9005
이스트	9006
바이에른	9007
1977	9008
~!	9009
라가	9010
공헌	9011
토요	9012
##트리스	9013
페미니	9014
마틴	9015
라크	9016
트레일러	9017
단기	9018
관통력	9019
##ary	9020
%/	9021
큰	9022
한창	9023
경연	9024
히든	9025
do	9026
모니터	9027
깃발	9028
##추어	9029
III	9030
장애물	9031
끌어들이	9032
왕비	9033
광물	9034
우승자	9035
전격	9036
오페라	9037
김일	9038
끊임없이	9039
대법	9040
백업	9041
싱가	9042
브라이언	9043
태클	9044
싱가포르	9045
유연	9046
넘어오	9047
루마	9048
Fate	9049
제니	9050
##way	9051
마피아	9052
부유	9053
오스트레일리아	9054
진단	9055
사사	9056
질량	9057
술사	9058
no	9059
실상	9060
##페이	9061
매니아	9062
그러므로	9063
엘리베이터	9064
김지	9065
182	9066
신데렐라	9067
성실	9068
을수록	9069
워크래프트	9070
시게	9071
형편	9072
LIVE	9073
라스트	9074
커스ᄐ	9075
보고서	9076
커스텀	9077
대변	9078
강릉	9079
우울	9080
부패	9081
파도	9082
렉스	9083
간간히	9084
입문	9085
교리	9086
##바야	9087
충족	9088
##스톤	9089
딸리	9090
손오	9091
스나이	9092
##저우	9093
최선	9094
범용	9095
손쉽	9096
고고	9097
동전	9098
135	9099
설령	9100
학사	9101
재배	9102
니콜라	9103
중기	9104
리모	9105
왜냐하면	9106
파밍	9107
원장	9108
검열	9109
이어받	9110
유료	9111
대동	9112
박정희	9113
고종	9114
Ad	9115
119	9116
##UM	9117
레이블	9118
창립	9119
연간	9120
확신	9121
사로잡	9122
천천	9123
ES	9124
여타	9125
특공	9126
##프라	9127
대접	9128
하반	9129
사악	9130
are	9131
히스	9132
올바르	9133
존스	9134
탄핵	9135
자네	9136
보스턴	9137
하급	9138
나폴레	9139
압축	9140
초상	9141
키라	9142
##넌	9143
Day	9144
일체	9145
109	9146
스피릿	9147
뉘	9148
스타리그	9149
급행	9150
1969	9151
마산	9152
스텔	9153
근접전	9154
중위	9155
맞붙	9156
중상	9157
섀도우	9158
##플링	9159
단백	9160
1968	9161
스트로	9162
예약	9163
지선	9164
공통점	9165
나폴레옹	9166
왼손	9167
끌어올리	9168
토마스	9169
평등	9170
Oh	9171
카시	9172
따라오	9173
정석	9174
##벤처	9175
명분	9176
제왕	9177
일관	9178
어드벤처	9179
##orn	9180
##타입	9181
초콜릿	9182
한나라	9183
쿠스	9184
##pt	9185
중고	9186
##모스	9187
한나라당	9188
시온	9189
미지	9190
전생	9191
부속	9192
조국	9193
석유	9194
벅	9195
디자이너	9196
김수	9197
##께끼	9198
수수께끼	9199
으려는	9200
잔인	9201
카더라	9202
강전	9203
트리거	9204
렘	9205
##으로	9206
케빈	9207
트롤	9208
##모함	9209
곡인	9210
불태우	9211
마운	9212
공단	9213
##첼	9214
##동자	9215
저기	9216
구독	9217
본질	9218
지붕	9219
##사스	9220
이현	9221
천천히	9222
얇	9223
##어드	9224
단검	9225
흩어지	9226
베테랑	9227
올드	9228
Mk	9229
터스	9230
##의자	9231
소모량	9232
강호	9233
군부	9234
수인	9235
친절	9236
엔지니어	9237
##능력	9238
꿈꾸	9239
리처드	9240
스태프	9241
코스튬	9242
##가루	9243
보르	9244
망명	9245
##ᆯ프	9246
잉여	9247
민중	9248
라이언	9249
메일	9250
질주	9251
머물	9252
##퍼드	9253
긁	9254
121	9255
##키리	9256
동구	9257
발판	9258
단발	9259
홋카이도	9260
관우	9261
에버	9262
all	9263
연수	9264
갑작스럽	9265
손오공	9266
이병	9267
선교	9268
아스카	9269
##샷	9270
사촌	9271
동정	9272
화상	9273
카카오	9274
씌우	9275
치카	9276
##하루	9277
유망주	9278
145	9279
마트	9280
땅볼	9281
비리	9282
br	9283
이오	9284
주식회사	9285
성배	9286
톡	9287
1963	9288
그릇	9289
기울이	9290
총독	9291
##크림	9292
니혼	9293
lv	9294
##스레	9295
이틀	9296
##다운	9297
과자	9298
손님	9299
무제	9300
퀵	9301
쯔	9302
고는	9303
굴욕	9304
후일	9305
버스트	9306
이모	9307
너머	9308
nd	9309
##네마	9310
레이디	9311
테이블	9312
쓰리	9313
자제	9314
친분	9315
소집	9316
107	9317
##ᅦ이머	9318
프로게이머	9319
전라북도	9320
##ah	9321
메리트	9322
도깨비	9323
리퍼	9324
하사	9325
##iver	9326
삼성전자	9327
폭격기	9328
오메가	9329
열정	9330
="	9331
머니	9332
아ᄐ	9333
얼라	9334
합작	9335
##톡	9336
극대	9337
178	9338
맹세	9339
현금	9340
달아나	9341
명시	9342
##루미	9343
교차로	9344
작위	9345
Windows	9346
어색	9347
항공모함	9348
위엄	9349
자율	9350
브라더스	9351
RA	9352
평행	9353
김포	9354
IT	9355
에드워드	9356
아아	9357
강점기	9358
지오	9359
왕복	9360
단백질	9361
쫓겨나	9362
춥	9363
FF	9364
미궁	9365
그레이트	9366
종결	9367
땡	9368
조화	9369
디펜	9370
지력	9371
스택	9372
##ph	9373
엔트리	9374
퍼스트	9375
##글라	9376
에이지	9377
라그나	9378
원숭이	9379
ML	9380
필름	9381
이경	9382
화해	9383
점검	9384
서명	9385
165	9386
리틀	9387
마타	9388
구로	9389
##EM	9390
존중	9391
백만	9392
##ᅳ롤	9393
Sw	9394
시외버스	9395
대박	9396
윤리	9397
천장	9398
박살내	9399
썸	9400
##uck	9401
오렌	9402
스티브	9403
카리스	9404
지분	9405
자책점	9406
가설	9407
대전차	9408
와이번	9409
후드	9410
일가	9411
평론가	9412
광기	9413
완화	9414
AA	9415
프랜	9416
신동	9417
봉사	9418
그립	9419
DP	9420
화석	9421
출판사	9422
하이라이트	9423
분자	9424
감자	9425
##urn	9426
진에	9427
계곡	9428
피카	9429
##군가	9430
물자	9431
유치원	9432
터트리	9433
정사	9434
인칭	9435
과일	9436
촉수	9437
변태	9438
섹	9439
서적	9440
으라고	9441
공신	9442
젬	9443
매각	9444
엑시즈	9445
고집	9446
유탄	9447
다니엘	9448
사체	9449
1930	9450
여포	9451
대위	9452
보편	9453
카마	9454
##소년	9455
##ool	9456
원전	9457
##아들	9458
스가	9459
시골	9460
자존	9461
##ero	9462
면하	9463
누군가	9464
113	9465
관장	9466
마술사	9467
초점	9468
Con	9469
표절	9470
".	9471
러스	9472
츠카	9473
잊히	9474
해소	9475
Ph	9476
교과서	9477
입사	9478
ne	9479
병역	9480
맨체스터	9481
181	9482
사족	9483
유가	9484
몸통	9485
이이	9486
진동	9487
카레	9488
탄압	9489
하치	9490
총합	9491
프로그래	9492
JTBC	9493
노무현	9494
##바나	9495
플ᄅ	9496
##렇	9497
수천	9498
##ical	9499
외우	9500
꺼리	9501
210	9502
무실점	9503
지역구	9504
쳐들어	9505
자산	9506
감탄	9507
챔프	9508
김유	9509
란스	9510
줄기	9511
착륙	9512
1920	9513
이대로	9514
산소	9515
##막지	9516
무지막지	9517
##anc	9518
경사	9519
주축	9520
게이머	9521
마케팅	9522
떨치	9523
NBA	9524
서열	9525
사수	9526
중거리	9527
모순	9528
광명	9529
터보	9530
서방	9531
BPM	9532
Cr	9533
솟	9534
임하	9535
파랗	9536
손꼽히	9537
펠리	9538
도심	9539
페스	9540
스포일러	9541
검정	9542
뚜렷	9543
실체	9544
친척	9545
DPS	9546
개명	9547
부원	9548
초청	9549
메카닉	9550
전지	9551
유격수	9552
155	9553
타구	9554
힘입	9555
부천	9556
선로	9557
국방부	9558
지혜	9559
토트	9560
##젤레스	9561
말씀	9562
179	9563
마유	9564
표적	9565
액체	9566
##마르	9567
동대	9568
철저히	9569
카지	9570
고아	9571
##ung	9572
어나	9573
슬픔	9574
브레이커	9575
발발	9576
호의	9577
1940	9578
깨끗	9579
테스	9580
##은색	9581
결의	9582
##ype	9583
부산광역시	9584
닦	9585
제리	9586
향후	9587
##센스	9588
냉정	9589
배구	9590
장타	9591
동속	9592
##켈	9593
데빌	9594
시뮬	9595
노가다	9596
Qu	9597
엘리자베스	9598
성명	9599
지로	9600
122	9601
152	9602
일리	9603
로프	9604
##업자	9605
용산	9606
불쌍	9607
빙판	9608
사우스	9609
불능	9610
##변이	9611
돌연변이	9612
겸하	9613
마당	9614
144	9615
동성애	9616
파운드	9617
매드	9618
미오	9619
쨩	9620
##ARD	9621
겜	9622
곤충	9623
지장	9624
스노우	9625
at	9626
이노	9627
일렉	9628
마인드	9629
주석	9630
블리자드	9631
##ᆺ속	9632
1967	9633
서류	9634
북아	9635
모델링	9636
참사	9637
##ens	9638
이케	9639
우타	9640
중구	9641
집계	9642
엘레	9643
유니버스	9644
레이어	9645
때로	9646
골프	9647
외국어	9648
그해	9649
광경	9650
고사	9651
치안	9652
스폰서	9653
에도	9654
슬라이	9655
크래	9656
아깝	9657
목걸이	9658
앓	9659
벨라	9660
발탁	9661
클린	9662
##very	9663
다케	9664
비우	9665
##멧	9666
##질랜드	9667
미러	9668
마하	9669
변장	9670
##지아	9671
실용	9672
뉴질랜드	9673
기질	9674
마그	9675
씨앗	9676
문양	9677
모음	9678
부스트	9679
상금	9680
김승	9681
어벤	9682
사직	9683
아마추어	9684
민간인	9685
자이	9686
내버리	9687
##ence	9688
##드러지	9689
중원	9690
##시피	9691
amp	9692
유아	9693
취재	9694
케이크	9695
텍사스	9696
기소	9697
##카르	9698
무늬	9699
##항공	9700
시어	9701
좌익	9702
정문	9703
{{{#	9704
##시스코	9705
아리아	9706
워터	9707
트윗	9708
학대	9709
수위	9710
주사위	9711
##ost	9712
날아다니	9713
박수	9714
울트라맨	9715
멍청	9716
엄연히	9717
워프	9718
##상시	9719
OVA	9720
애칭	9721
##끼리	9722
재앙	9723
이라도	9724
근로	9725
닥치	9726
##테일	9727
나나	9728
시조	9729
Station	9730
누스	9731
답답	9732
리나	9733
물어	9734
이빨	9735
우연	9736
질환	9737
레인지	9738
하나하나	9739
녹화	9740
정점	9741
자사	9742
납득	9743
LO	9744
포크	9745
예의	9746
소비자	9747
본능	9748
햇	9749
절친	9750
스카우트	9751
##nt	9752
국토	9753
이소	9754
쿠니	9755
서울대	9756
신하	9757
from	9758
고등학생	9759
직책	9760
디바	9761
##타운	9762
저서	9763
각도	9764
##ble	9765
열혈	9766
이태	9767
게르	9768
TVA	9769
난무	9770
압권	9771
좌측	9772
##ise	9773
Fr	9774
소생	9775
철갑	9776
네이션	9777
편리	9778
경부	9779
##int	9780
##ww	9781
as	9782
##베트	9783
##클레	9784
관직	9785
쿵	9786
발키리	9787
워즈	9788
##테이션	9789
패자	9790
##부지	9791
초능력	9792
주머니	9793
정밀	9794
일커	9795
일컫	9796
KOF	9797
실사	9798
혼인	9799
헷갈리	9800
라이즈	9801
용암	9802
침몰	9803
##팽	9804
호크	9805
정성	9806
114	9807
자칭	9808
오죽	9809
##과이	9810
조항	9811
작정	9812
이념	9813
개교	9814
남동	9815
어나더	9816
##폭탄	9817
드래곤볼	9818
농민	9819
##DD	9820
##마리	9821
페르시아	9822
TR	9823
만점	9824
장벽	9825
##려워하	9826
의정부	9827
쫒	9828
자아	9829
IM	9830
##쥬	9831
##흉	9832
##지능	9833
인공지능	9834
덤비	9835
##ans	9836
##ign	9837
사연	9838
##뱅	9839
도색	9840
이원	9841
love	9842
아메리	9843
스케일	9844
발급	9845
어이없	9846
미성	9847
유스	9848
##띠	9849
반경	9850
##ᆫ즈	9851
교역	9852
##워즈	9853
177	9854
##밤	9855
당국	9856
예방	9857
멋대로	9858
가마	9859
대역	9860
츠바	9861
원로	9862
##이동	9863
엄밀히	9864
포병	9865
롤러	9866
중국인	9867
벙커	9868
아자	9869
##리나	9870
거지	9871
사투	9872
웜	9873
박성	9874
마음대로	9875
DNA	9876
아담	9877
코토	9878
재즈	9879
임진	9880
CM	9881
1962	9882
##미터	9883
학급	9884
에디션	9885
개구리	9886
이어서	9887
몰살	9888
이대	9889
##ᆺ말	9890
리본	9891
변명	9892
인성	9893
비키	9894
킴	9895
옥상	9896
##ug	9897
##야스	9898
고가	9899
안동	9900
마찰	9901
##레인	9902
습니까	9903
마모	9904
Super	9905
MG	9906
고의	9907
템플	9908
제사	9909
##민주당	9910
이누	9911
초록색	9912
wiki	9913
##oy	9914
알아채	9915
##AK	9916
포착	9917
오렌지	9918
협동	9919
망토	9920
신지	9921
아케이드	9922
펌프	9923
##마루	9924
갱신	9925
도르	9926
방학	9927
Dream	9928
각인	9929
죄책	9930
루리	9931
초과	9932
팔레	9933
격려	9934
튜버	9935
1966	9936
124	9937
매달리	9938
부채	9939
법사	9940
##셈	9941
항모	9942
남동생	9943
민감	9944
명나라	9945
이명박	9946
툰	9947
로라	9948
극한	9949
##하여	9950
시오	9951
127	9952
선동	9953
스컬	9954
풍기	9955
혼합	9956
디스플레이	9957
만능	9958
피오	9959
용이	9960
아사히	9961
바쿠	9962
카운티	9963
등극	9964
독립운동	9965
멧	9966
미인	9967
달려들	9968
부동산	9969
닷	9970
수신	9971
통째	9972
마라	9973
너스	9974
1964	9975
겔	9976
다비	9977
원피스	9978
##바야시	9979
CE	9980
수감	9981
이진	9982
!"	9983
##자치	9984
##지사	9985
##텍	9986
적절히	9987
커스	9988
비평	9989
들여	9990
풍선	9991
##떨어지	9992
BJ	9993
연소	9994
마에	9995
리사	9996
can	9997
오다	9998
종영	9999
선포	10000
죄책감	10001
덮치	10002
포탈	10003
아비	10004
코파	10005
슈퍼맨	10006
베스	10007
금강	10008
추후	10009
용자	10010
방심	10011
정신력	10012
대피	10013
카테	10014
USB	10015
헬멧	10016
교도소	10017
시시	10018
로렌	10019
쿠바	10020
협조	10021
www	10022
발전소	10023
유진	10024
후쿠오카	10025
호러	10026
유엔	10027
연전	10028
##이치로	10029
부러지	10030
##이크	10031
엉망	10032
450	10033
고발	10034
갯	10035
유고	10036
인벤	10037
##뱀	10038
감당	10039
종전	10040
아이디	10041
도약	10042
기법	10043
스케이	10044
다시금	10045
선원	10046
정반대	10047
은폐	10048
##바이트	10049
신곡	10050
연동	10051
Pl	10052
##vel	10053
학술	10054
##코트	10055
내셔널	10056
씻	10057
비단	10058
뛰어들	10059
트윈	10060
팔라	10061
억울	10062
##치아	10063
오른손	10064
스토어	10065
스탈리	10066
##IR	10067
##나베	10068
최순	10069
트릴	10070
##툼	10071
해운	10072
다거나	10073
블럭	10074
##전차	10075
##트론	10076
대차	10077
##철수	10078
왕족	10079
흘러가	10080
스로	10081
분홍	10082
옴	10083
##ode	10084
##페이스	10085
컴백	10086
급격히	10087
IP	10088
덩어리	10089
잔혹	10090
this	10091
##뒤	10092
공속	10093
타츠	10094
방침	10095
시타	10096
물려받	10097
##폴	10098
철도역	10099
경성	10100
위쪽	10101
아울	10102
우마	10103
절벽	10104
##uk	10105
련	10106
아쿠아	10107
밭	10108
내기	10109
##글링	10110
##쭉	10111
두드러지	10112
보강	10113
아무튼	10114
Sch	10115
페어리	10116
##렉션	10117
타치	10118
##생활	10119
빌보드	10120
부스	10121
아인	10122
크래프트	10123
녹이	10124
EC	10125
제의	10126
출동	10127
득표율	10128
##짱	10129
구형	10130
고립	10131
퍽	10132
사나	10133
Ver	10134
##ier	10135
유카	10136
발각	10137
욕설	10138
서리	10139
##크릿	10140
유동	10141
청춘	10142
쉴드	10143
학회	10144
사방	10145
##VER	10146
맞히	10147
##궐	10148
오케	10149
얽히	10150
왕가	10151
후유	10152
그러면	10153
162	10154
공동체	10155
사슬	10156
무도	10157
잔류	10158
사무라이	10159
##프로	10160
생태	10161
격렬	10162
시크릿	10163
ERA	10164
인문	10165
기본기	10166
침착	10167
##헤이	10168
측근	10169
연이	10170
군요	10171
쿠마	10172
La	10173
내외	10174
ᆫ데다	10175
사물	10176
Girl	10177
##블ᄅ	10178
##빡	10179
##속기	10180
코노	10181
##ash	10182
진술	10183
게끔	10184
네크로	10185
꾀	10186
비오	10187
호드	10188
##바지	10189
어ᄊ	10190
회관	10191
##나기	10192
대세	10193
##reat	10194
얹	10195
실존	10196
그란	10197
수소	10198
##구미	10199
아랫	10200
분배	10201
마야	10202
리바	10203
키미	10204
나인	10205
강대	10206
젼	10207
##역사	10208
뺏기	10209
선지	10210
카네	10211
##우라	10212
강민	10213
우크라	10214
문신	10215
1200	10216
야당	10217
바시	10218
현자	10219
궁전	10220
방사능	10221
넬	10222
이행	10223
정조	10224
레이싱	10225
ar	10226
118	10227
이단	10228
미아	10229
카리스마	10230
신한	10231
약혼	10232
박자	10233
전담	10234
##트럴	10235
Season	10236
애인	10237
탄소	10238
레나	10239
왕후	10240
함장	10241
##usic	10242
퇴치	10243
징계	10244
부가	10245
스쿼	10246
제주도	10247
##롤	10248
쿠리	10249
##트릭	10250
월간	10251
반성	10252
중재	10253
style	10254
직위	10255
모욕	10256
NO	10257
카쿠	10258
태생	10259
고이	10260
이윤	10261
워리어	10262
카피	10263
반역	10264
EXP	10265
판도	10266
사치	10267
DM	10268
가위	10269
존슨	10270
로스앤	10271
로스앤젤레스	10272
테르	10273
진에어	10274
강타	10275
흥분	10276
Col	10277
오퍼	10278
계절	10279
가오	10280
코스프레	10281
제노	10282
중소	10283
1965	10284
러쉬	10285
상부	10286
tr	10287
인쇄	10288
##뱃	10289
타이어	10290
잠기	10291
타리	10292
유재석	10293
이용자	10294
##꿈	10295
노아	10296
마쓰	10297
김구	10298
화기	10299
칼라	10300
충청북도	10301
스모	10302
##틈	10303
탈환	10304
궁합	10305
물리학	10306
모나	10307
급속	10308
종로	10309
자이언트	10310
지루	10311
WC	10312
갈라지	10313
스프	10314
뷔	10315
1948	10316
##스르	10317
Vol	10318
##te	10319
한양	10320
우지	10321
암컷	10322
중견	10323
시종	10324
앨런	10325
벗기	10326
말레이시아	10327
건너가	10328
##IX	10329
점심	10330
피자	10331
아처	10332
750	10333
오사	10334
정전	10335
이놈	10336
##공사	10337
돌려주	10338
금요일	10339
불러오	10340
Ed	10341
흑마	10342
도미	10343
흡혈귀	10344
##수리	10345
##사르	10346
일환	10347
##딸	10348
안토니	10349
중도	10350
입원	10351
비자	10352
기동력	10353
친애	10354
##ose	10355
##슐	10356
퀴즈	10357
우두	10358
Max	10359
항공사	10360
1944	10361
유우키	10362
##ail	10363
Night	10364
회로	10365
로스트	10366
은메달	10367
난민	10368
노랗	10369
사임	10370
##끄	10371
##티노	10372
관문	10373
실적	10374
등재	10375
한하	10376
능가	10377
314	10378
공국	10379
고인	10380
부처	10381
황당	10382
시범	10383
마르코	10384
##방울	10385
호리	10386
김치	10387
레아	10388
생김새	10389
안무	10390
청하	10391
자존심	10392
방언	10393
입시	10394
학년도	10395
동메달	10396
황태	10397
섬기	10398
피지컬	10399
섭취	10400
##사랑	10401
벌써	10402
라미	10403
사지	10404
대검	10405
두려워하	10406
방정	10407
AV	10408
스나이퍼	10409
TS	10410
성사	10411
##탐정	10412
로키	10413
숙소	10414
천상	10415
망설	10416
적시타	10417
사와	10418
조립	10419
##랭	10420
막부	10421
코로나	10422
##보기	10423
건지	10424
--	10425
치이	10426
대학생	10427
극심	10428
골치	10429
뚱	10430
##닛	10431
그간	10432
욕망	10433
##시고	10434
##ition	10435
응답	10436
토트넘	10437
요격	10438
불길	10439
168	10440
##ild	10441
1946	10442
석사	10443
잼	10444
GM	10445
테리	10446
욱	10447
불참	10448
프랑크	10449
스타즈	10450
탈취	10451
##킬	10452
##서스	10453
거세	10454
에메	10455
해역	10456
차장	10457
스파이더맨	10458
아오이	10459
쿠르	10460
오만	10461
얼티	10462
아메리칸	10463
각국	10464
뱅가드	10465
과시	10466
통솔	10467
##톨	10468
까마귀	10469
##바리	10470
절단	10471
확립	10472
할로윈	10473
##시대	10474
여태	10475
나이프	10476
그쪽	10477
발하	10478
펑크	10479
##부키	10480
피난	10481
스피어	10482
소서	10483
모종	10484
사르	10485
Black	10486
스타트	10487
페르소	10488
159	10489
HE	10490
부끄럽	10491
나이츠	10492
보로	10493
한꺼	10494
헤라	10495
희생자	10496
한꺼번에	10497
다녀	10498
필사	10499
천국	10500
##구니	10501
BC	10502
Let	10503
이별	10504
요코하마	10505
##}}	10506
대안	10507
so	10508
하여금	10509
ld	10510
레버	10511
필라	10512
신생	10513
박진	10514
##클린	10515
미정	10516
간판	10517
파스	10518
경제학	10519
국기	10520
고추	10521
얼리	10522
소소	10523
아마존	10524
케리	10525
##히토	10526
부친	10527
기껏	10528
나들	10529
괴인	10530
사이클	10531
이사장	10532
##렙	10533
테니스	10534
강인	10535
일지	10536
모빌	10537
시안	10538
나들목	10539
아케	10540
마기	10541
##IL	10542
해변	10543
얄	10544
원판	10545
로비	10546
일조	10547
저글링	10548
##맨스	10549
점멸	10550
##멘터리	10551
스탭	10552
Op	10553
로맨스	10554
병행	10555
어원	10556
##타리	10557
##당기	10558
욕심	10559
집필	10560
##ody	10561
도대	10562
##msys	10563
이승만	10564
1961	10565
ldmsys	10566
토우	10567
과금	10568
rd	10569
사탕	10570
대니	10571
김주	10572
가이드	10573
미노	10574
들르	10575
목욕	10576
단자	10577
미녀	10578
##겔	10579
히드라	10580
not	10581
상냥	10582
스매	10583
리버스	10584
##성군	10585
##깃	10586
페르소나	10587
얌	10588
코끼리	10589
키요	10590
김광	10591
툭	10592
##워프	10593
평택	10594
지지율	10595
교향	10596
달려오	10597
토라	10598
블라디	10599
두껍	10600
##뼈	10601
주한	10602
성벽	10603
굶	10604
사망자	10605
##미르	10606
승패	10607
쑤	10608
회계	10609
오토바이	10610
히사	10611
가해	10612
메디	10613
##무지	10614
##당초	10615
##브로	10616
항성	10617
사이토	10618
뻘	10619
진도	10620
하지	10621
돌려	10622
그리스도	10623
오즈	10624
삼키	10625
고래	10626
일일	10627
스윙	10628
갸	10629
세례	10630
##gr	10631
지크	10632
멸종	10633
둥지	10634
빅토리아	10635
스트ᄅ	10636
수컷	10637
삿	10638
스크롤	10639
다큐멘터리	10640
주파	10641
중공	10642
파고	10643
광범	10644
ᆯ래	10645
늪	10646
디아블로	10647
BD	10648
신작	10649
##ough	10650
##딴	10651
##빗	10652
덥	10653
유머	10654
전도	10655
여주인	10656
동사	10657
직행	10658
프랭크	10659
##uc	10660
물약	10661
AF	10662
춤추	10663
##각형	10664
객관	10665
해전	10666
엉덩이	10667
맑	10668
바텀	10669
전임	10670
침해	10671
댐	10672
수중	10673
##스카	10674
만렙	10675
##ᆫ규	10676
내밀	10677
환생	10678
조수	10679
##세지	10680
퍼펙트	10681
믿음	10682
동북	10683
무녀	10684
밀리언	10685
그랑프리	10686
좌파	10687
동상	10688
빙결	10689
라인하르트	10690
부제	10691
##진호	10692
##프란	10693
리자	10694
##퍼니	10695
도배	10696
화신	10697
보살	10698
정서	10699
일어	10700
##33	10701
##ᆼ객	10702
퓨전	10703
마도카	10704
아유	10705
##스트로	10706
##메리카	10707
MM	10708
해고	10709
대승	10710
무지개	10711
북서	10712
맛보	10713
세르비아	10714
원자력	10715
상원	10716
금발	10717
GD	10718
루마니아	10719
진흥	10720
모의	10721
무능	10722
mar	10723
알렉산더	10724
껍질	10725
발사기	10726
접수	10727
지각	10728
벡터	10729
도요	10730
외야수	10731
노부나가	10732
십자군	10733
RE	10734
테이프	10735
출석	10736
##시티	10737
주저	10738
수아	10739
4000	10740
김대중	10741
워드	10742
불상	10743
##모습	10744
스텔스	10745
두루	10746
##app	10747
목포	10748
간지	10749
미소녀	10750
개업	10751
명장	10752
##aster	10753
관광객	10754
울음	10755
1949	10756
섬멸	10757
뾰	10758
에코	10759
스쿼드	10760
리프트	10761
약체	10762
도대체	10763
138	10764
노릇	10765
아무렇	10766
카토	10767
아리스	10768
주입	10769
이니	10770
연세대	10771
크롬	10772
동아시아	10773
셀레	10774
방안	10775
팜	10776
##은이	10777
서울시	10778
줄리	10779
##애나	10780
베이비	10781
아카네	10782
##이센	10783
OG	10784
휴게	10785
일명	10786
운반	10787
Is	10788
구호	10789
en	10790
대국	10791
눈앞	10792
하와	10793
무자	10794
151	10795
두려움	10796
둥글	10797
면제	10798
혼혈	10799
공교	10800
교대	10801
성지	10802
카일	10803
코레	10804
퍼시	10805
##ᆸ트	10806
공명	10807
##ari	10808
샹	10809
공로	10810
북동	10811
##CE	10812
타우	10813
##orts	10814
와이번스	10815
이카	10816
아니하	10817
선회	10818
스기	10819
##ject	10820
데몬	10821
비로	10822
평판	10823
사천	10824
폭로	10825
##벼	10826
마을버스	10827
걸어가	10828
##총장	10829
천주교	10830
신념	10831
ㅔ요	10832
평상시	10833
AL	10834
옐로	10835
컬렉션	10836
172	10837
뺘	10838
보우	10839
##랜	10840
루미	10841
인피니티	10842
히로시마	10843
이나마	10844
보복	10845
위시	10846
꺼지	10847
그리핀	10848
##고속도로	10849
유메	10850
격퇴	10851
PK	10852
아수	10853
노비	10854
숙청	10855
광범위	10856
쿄코	10857
드워프	10858
대사관	10859
##OO	10860
대면	10861
신관	10862
휴대폰	10863
이계	10864
##디스	10865
배리	10866
가령	10867
낯	10868
컨디션	10869
어제	10870
애용	10871
Gu	10872
CR	10873
집사	10874
주공	10875
남양	10876
라비	10877
##긋나	10878
풍경	10879
무신	10880
가해자	10881
편의점	10882
##ᅩᆯ	10883
큐어	10884
정우	10885
EU	10886
장본	10887
숭배	10888
최상급	10889
158	10890
le	10891
이무	10892
리부	10893
카사	10894
##아티아	10895
츤	10896
크로아티아	10897
스타워즈	10898
소마	10899
스카웃	10900
컴퍼니	10901
SA	10902
놔	10903
뢰	10904
신조	10905
Am	10906
천체	10907
##iel	10908
밈	10909
##TA	10910
컴뱃	10911
우미	10912
단련	10913
제발	10914
와타나베	10915
단서	10916
성대	10917
챔스	10918
스틱	10919
스칼	10920
불화	10921
감성	10922
자력	10923
엇	10924
남한	10925
레슬링	10926
찬양	10927
##다드	10928
리리	10929
##리얼	10930
수성	10931
달콤	10932
##0000	10933
320	10934
EXT	10935
##부인	10936
테오	10937
##oh	10938
트러	10939
..?	10940
카게	10941
휴먼	10942
냉장	10943
##잉	10944
김병	10945
떠돌	10946
Time	10947
정답	10948
math	10949
일련	10950
으려면	10951
##ye	10952
클레이	10953
독백	10954
원한	10955
테레	10956
민폐	10957
광복	10958
아르바이트	10959
아쉬움	10960
섬광	10961
Mag	10962
솔저	10963
홈경기	10964
흑막	10965
구제	10966
권하	10967
기온	10968
랴	10969
강동	10970
티저	10971
점하	10972
효소	10973
EZ	10974
법안	10975
뻔하	10976
수확	10977
주차장	10978
스톡	10979
시네마	10980
제인	10981
건립	10982
가이아	10983
남학생	10984
추모	10985
도스	10986
대교	10987
상시	10988
##eth	10989
지면	10990
상어	10991
뒤쪽	10992
보직	10993
타카하시	10994
무선	10995
##ings	10996
서바이벌	10997
##쿠스	10998
##ats	10999
균열	11000
표기법	11001
하도	11002
하우	11003
176	11004
##조합	11005
라이드	11006
개막전	11007
장본인	11008
눈동자	11009
나란	11010
안드레	11011
AB	11012
통보	11013
던지라	11014
민병	11015
Don	11016
신임	11017
사범	11018
적이	11019
일각	11020
##오피스	11021
살아오	11022
##ron	11023
이점	11024
TOP	11025
의의	11026
배후	11027
트이	11028
딥	11029
지미	11030
리믹스	11031
단역	11032
우기	11033
GSL	11034
UC	11035
센트럴	11036
대명	11037
걸음	11038
어기	11039
강아지	11040
투고	11041
내정	11042
승려	11043
자루	11044
주의자	11045
청사	11046
문헌	11047
315	11048
CL	11049
카이저	11050
수라	11051
탁월	11052
오공	11053
쿠사	11054
순천	11055
손잡이	11056
천지	11057
고난	11058
##바람	11059
깃털	11060
##eah	11061
아이즈	11062
ATK	11063
##덕션	11064
##트랙	11065
##낭	11066
어벤져	11067
내면	11068
재질	11069
NT	11070
전염	11071
유라	11072
문법	11073
얼티밋	11074
다녀오	11075
로제	11076
실업	11077
그리하여	11078
직무	11079
탐구	11080
무슬리	11081
김일성	11082
무슬림	11083
일산	11084
126	11085
찔리	11086
##쑤	11087
제대	11088
캡슐	11089
여수	11090
유해	11091
국민당	11092
##로우	11093
##중간	11094
결과물	11095
시련	11096
충남	11097
##도전	11098
##내리	11099
##운수	11100
슬라이드	11101
가나	11102
마미	11103
이호	11104
볶	11105
타스	11106
미세	11107
악행	11108
밀라	11109
##ult	11110
154	11111
##총리	11112
##마치	11113
1958	11114
으리	11115
펌	11116
응급	11117
블랙홀	11118
동이	11119
##꿉	11120
성직자	11121
132	11122
이순신	11123
염색	11124
스파크	11125
ver	11126
흉내	11127
자작	11128
표식	11129
금고	11130
히카	11131
식스	11132
##성이	11133
164	11134
흑역사	11135
총사	11136
충고	11137
신상	11138
##나르	11139
크라운	11140
로크	11141
치고	11142
총선거	11143
박스오피스	11144
소꿉	11145
로열	11146
독보	11147
ME	11148
발톱	11149
테크노	11150
보트	11151
하나님	11152
이세	11153
1941	11154
정의당	11155
서원	11156
친일	11157
아스트	11158
예고편	11159
병살	11160
리터	11161
##inal	11162
##ov	11163
무한도전	11164
유마	11165
피드	11166
리우스	11167
라틴어	11168
프린스	11169
다저스	11170
고조	11171
호응	11172
레이지	11173
토론토	11174
어판	11175
합법	11176
습하	11177
보가	11178
표하	11179
will	11180
감금	11181
iOS	11182
심정	11183
풀려나	11184
팍	11185
비즈	11186
겨루	11187
그레이드	11188
무비	11189
매그	11190
재수	11191
르노	11192
##ᅮᆨ스	11193
병과	11194
가왕	11195
콜롬	11196
계략	11197
지지자	11198
당나라	11199
간파	11200
##느님	11201
샤를	11202
도사	11203
new	11204
궁수	11205
KB	11206
마가	11207
차림	11208
과격	11209
군데	11210
1954	11211
##떡	11212
우두머리	11213
성폭	11214
바이킹	11215
강수	11216
##널드	11217
LE	11218
하느님	11219
리플레	11220
동등	11221
주황	11222
##런트	11223
삽질	11224
저항력	11225
라이트닝	11226
렀다	11227
Mi	11228
퉁	11229
보루	11230
이즈미	11231
##넛	11232
성숙	11233
방울	11234
##짤	11235
완벽히	11236
WH	11237
니트	11238
배열	11239
테란	11240
##oul	11241
쫓기	11242
가미	11243
강서	11244
방정식	11245
폴아웃	11246
몸매	11247
156	11248
139	11249
##GA	11250
갈기	11251
사료	11252
유신	11253
매기	11254
##alk	11255
태조	11256
##==	11257
거꾸	11258
스탈린	11259
안보	11260
취지	11261
거스르	11262
행진	11263
스파르	11264
Ser	11265
인천광역시	11266
구청	11267
긋	11268
지표	11269
통틀어	11270
크로우	11271
진하	11272
##tern	11273
아호	11274
오로치	11275
like	11276
허브	11277
##yn	11278
##바스	11279
하드웨어	11280
전법	11281
스치	11282
##ob	11283
Your	11284
리볼	11285
응시	11286
하비	11287
리츠	11288
##타르	11289
강습	11290
218	11291
153	11292
흉악	11293
레시피	11294
제너	11295
##러브	11296
##드리히	11297
##up	11298
패왕	11299
손목	11300
2023	11301
##엘라	11302
지배자	11303
Car	11304
##핏	11305
##빨리	11306
스크래	11307
세미	11308
프로덕션	11309
아테나	11310
마수	11311
맷집	11312
##MAN	11313
오키나	11314
저승	11315
생물학	11316
{{{-	11317
발현	11318
번식	11319
이용객	11320
프로이센	11321
청장	11322
##베르트	11323
##렉터	11324
##주의자	11325
나란히	11326
드루이드	11327
김성근	11328
슌	11329
##넨	11330
공모	11331
무색	11332
먼지	11333
테크닉	11334
마티	11335
##활약	11336
상공	11337
웨폰	11338
장신구	11339
른	11340
코디	11341
##곰	11342
후쿠시마	11343
지터	11344
상의	11345
태권	11346
이인	11347
교정	11348
빗나가	11349
동지	11350
완성도	11351
##프란시스코	11352
미시	11353
반기	11354
이쿠	11355
야망	11356
샌프란시스코	11357
##ᆼ가	11358
더미	11359
##ould	11360
선봉	11361
디비전	11362
노라	11363
급식	11364
트론	11365
이리저리	11366
##타니	11367
버거	11368
어드배	11369
##저래	11370
148	11371
유능	11372
##제스	11373
맥락	11374
##reak	11375
봉하	11376
이래저래	11377
키노	11378
벌금	11379
지성	11380
충격파	11381
##ions	11382
짬	11383
누이	11384
난리	11385
셋째	11386
라이징	11387
후면	11388
섬유	11389
레바	11390
김윤	11391
마마	11392
떨구	11393
짝사랑	11394
핑계	11395
##라미	11396
전두	11397
##보우	11398
설탕	11399
오바	11400
후반전	11401
동년	11402
##리히	11403
167	11404
브라우	11405
##der	11406
엮	11407
나열	11408
카제	11409
재벌	11410
법학	11411
##13	11412
미남	11413
신주	11414
163	11415
코프	11416
필두	11417
양심	11418
이영호	11419
##able	11420
킬로	11421
우편	11422
##레븐	11423
표창	11424
상속	11425
##18	11426
142	11427
음향	11428
Fl	11429
감기	11430
one	11431
174	11432
대법원	11433
김선	11434
초등학생	11435
과언	11436
이광	11437
능하	11438
워너	11439
##크리트	11440
전례	11441
무궁	11442
시간대	11443
조던	11444
맞대	11445
모에	11446
거꾸로	11447
##친구	11448
##처럼	11449
접전	11450
통행	11451
##사고	11452
1943	11453
##전사	11454
##고사	11455
##이언스	11456
..!	11457
종말	11458
203	11459
벚	11460
복음	11461
시뮬레이션	11462
양국	11463
ᆫ가요	11464
숙련도	11465
##ᅰ어	11466
커플링	11467
휴스턴	11468
네스	11469
무죄	11470
범하	11471
놔두	11472
##로그	11473
##차리	11474
배상	11475
몰려오	11476
오케스트라	11477
최하	11478
저격수	11479
김두	11480
도모	11481
박탈	11482
유카리	11483
배율	11484
스페인어	11485
타키	11486
##왜	11487
##스텔	11488
반장	11489
연달	11490
혼동	11491
사가	11492
애국	11493
공격기	11494
파우	11495
하츠네	11496
야마모토	11497
당원	11498
##무네	11499
Gaming	11500
스케줄	11501
볼드	11502
##문화	11503
GK	11504
타당	11505
추출	11506
크리스토	11507
1942	11508
자키	11509
##결승	11510
고우	11511
엉뚱	11512
ᆫ단	11513
부호	11514
유타	11515
##백과	11516
통증	11517
종사	11518
스마일	11519
오역	11520
10000	11521
##ull	11522
##기업	11523
단의	11524
SSR	11525
##15	11526
어긋나	11527
쫓아내	11528
대등	11529
맞먹	11530
##ll	11531
ᆫ듯	11532
주유	11533
가히	11534
##니코	11535
데미	11536
꾸리	11537
##룬	11538
##셉트	11539
얼라이언스	11540
수도원	11541
냉장고	11542
##시다	11543
장례식	11544
콜레	11545
137	11546
쟁이	11547
맹활약	11548
프레스	11549
사내	11550
처녀	11551
Min	11552
수령	11553
TP	11554
진로	11555
절정	11556
143	11557
1956	11558
se	11559
플라스틱	11560
달인	11561
몰아넣	11562
연안	11563
미하	11564
버블	11565
탄막	11566
인명	11567
황실	11568
CN	11569
황혼	11570
무안	11571
창당	11572
카인	11573
단식	11574
RO	11575
대외	11576
pr	11577
##투아	11578
앞세우	11579
가라앉	11580
창작물	11581
회견	11582
약칭	11583
시끄럽	11584
주가	11585
일러스트레이	11586
##터스	11587
굳히	11588
칠레	11589
월요일	11590
스캔	11591
##니즘	11592
시에	11593
여주인공	11594
제자리	11595
노하	11596
숙주	11597
연고지	11598
마스코트	11599
주술사	11600
염두	11601
##FL	11602
한층	11603
초상화	11604
##껑	11605
생애	11606
승급	11607
역학	11608
범주	11609
정교회	11610
바이크	11611
깨우	11612
##니스탄	11613
##재기	11614
음력	11615
아수라	11616
갈구	11617
##상가	11618
157	11619
밀레	11620
산화	11621
수하	11622
원화	11623
쳐들어오	11624
사야카	11625
빈약	11626
##뱉	11627
원년	11628
이준	11629
애완	11630
인텔	11631
어그	11632
사소	11633
릴리스	11634
현직	11635
##더슨	11636
바비	11637
영등	11638
차일드	11639
태자	11640
레인보우	11641
레이븐	11642
##ube	11643
토비	11644
전학	11645
##랄드	11646
증기	11647
LTE	11648
제지	11649
과감	11650
바티	11651
펙	11652
인체	11653
##보라	11654
능숙	11655
##모어	11656
오리온	11657
미트	11658
##퉁	11659
죄수	11660
구마	11661
왓	11662
플레임	11663
NM	11664
공고	11665
129	11666
순간이동	11667
아슬	11668
##ECT	11669
득실	11670
IV	11671
런처	11672
러너	11673
안제	11674
졸업식	11675
헤드샷	11676
have	11677
꼴찌	11678
오디오	11679
레슨	11680
사우루스	11681
##크라이	11682
시흥	11683
외관	11684
리볼버	11685
한강	11686
오비	11687
대군	11688
무너	11689
무너뜨리	11690
앞면	11691
이오리	11692
찰나	11693
평창	11694
133	11695
클라우드	11696
델타	11697
생각나	11698
흐리	11699
별칭	11700
out	11701
잔해	11702
오피	11703
연막	11704
오쿠	11705
제프	11706
갈리아	11707
##ICE	11708
남미	11709
이만	11710
##물리	11711
사당	11712
관계없이	11713
초래	11714
##소수	11715
유대인	11716
카렌	11717
투사	11718
기관포	11719
해상도	11720
BGA	11721
관절	11722
축구단	11723
몰아내	11724
싱어	11725
페미니즘	11726
대목	11727
환호	11728
Sum	11729
146	11730
알아차리	11731
세키	11732
이력	11733
베어	11734
##ᅳ레이크	11735
호프	11736
##스티스	11737
반란군	11738
가와	11739
무단	11740
노골	11741
설마	11742
박종	11743
섹스	11744
1939	11745
##니스트	11746
득표수	11747
마니	11748
격하	11749
뮤지션	11750
내ᄈ	11751
경찰청	11752
밀어붙이	11753
소우	11754
두뇌	11755
136	11756
따내	11757
230	11758
순찰	11759
313	11760
전반기	11761
십자가	11762
북구	11763
173	11764
공습	11765
청룡	11766
단총	11767
방벽	11768
폴리스	11769
체스	11770
한정판	11771
라시	11772
입법	11773
HS	11774
혹평	11775
리베	11776
확고	11777
후대	11778
목재	11779
차분	11780
##탱	11781
자포	11782
너클	11783
극우	11784
쳐다보	11785
##의회	11786
##바루	11787
##ica	11788
un	11789
망설이	11790
##대사	11791
##이스	11792
공짜	11793
우산	11794
기이	11795
1959	11796
화약	11797
꿇	11798
##에트	11799
경선	11800
자회사	11801
브레스	11802
앵커	11803
소꿉친구	11804
기술력	11805
내뱉	11806
파키스탄	11807
##박이	11808
솔직히	11809
푼	11810
지요	11811
오프라	11812
키드	11813
나카무라	11814
프로그래밍	11815
구독자	11816
##제국	11817
##회장	11818
##믹	11819
1900	11820
다지만	11821
웨일	11822
치마	11823
호출	11824
##che	11825
빙의	11826
기쁨	11827
ALL	11828
BM	11829
Play	11830
태종	11831
인터페이스	11832
영화배우	11833
쇼트	11834
##ᅨᆫ	11835
As	11836
방화	11837
아래쪽	11838
##맷	11839
설비	11840
끓이	11841
공자	11842
무식	11843
1955	11844
아테네	11845
##티넘	11846
플래티넘	11847
BO	11848
랜서	11849
##드리아	11850
지주	11851
플루	11852
오딘	11853
표본	11854
프로스트	11855
149	11856
##ict	11857
친정	11858
빈번	11859
닫히	11860
##무게	11861
지극	11862
입국	11863
몸무게	11864
1936	11865
전류	11866
강탈	11867
실바	11868
##뿔	11869
키즈	11870
난투	11871
바그	11872
비참	11873
폐허	11874
뚝	11875
우파	11876
##토랑	11877
제조사	11878
번갈	11879
레스토랑	11880
##세포	11881
진구	11882
ᆯ까요	11883
맹독	11884
오키나와	11885
동로	11886
카테고리	11887
공천	11888
성규	11889
134	11890
##슬란	11891
극악	11892
브루스	11893
남서	11894
바인	11895
도쿠가와	11896
##곧	11897
라파	11898
출제	11899
슬슬	11900
000000	11901
팬티	11902
Red	11903
달래	11904
아노	11905
시초	11906
##ᆺ대	11907
가로막	11908
카오루	11909
미들	11910
리뉴	11911
전수	11912
##ock	11913
##콕	11914
팀장	11915
##블레	11916
칙	11917
넓히	11918
서장	11919
해태	11920
채찍	11921
플레이버	11922
##STER	11923
set	11924
##YP	11925
박명	11926
BT	11927
힌트	11928
심화	11929
혼다	11930
뫼	11931
##날두	11932
##천사	11933
얼터	11934
경보	11935
포니	11936
호날두	11937
프리드리히	11938
la	11939
샤오	11940
사나이	11941
부흥	11942
수영복	11943
##모니	11944
##ater	11945
서치	11946
공과	11947
OF	11948
CB	11949
하의	11950
찰리	11951
여장	11952
know	11953
미쓰	11954
저조	11955
리셋	11956
퍼센트	11957
클리셰	11958
파랑	11959
진리	11960
나사	11961
CO	11962
포맷	11963
운항	11964
수용소	11965
147	11966
EV	11967
##DX	11968
잠그	11969
미모	11970
##무이	11971
망상	11972
대패	11973
##주군	11974
margin	11975
##ons	11976
멘붕	11977
히카루	11978
가혹	11979
텔레포트	11980
##IV	11981
유선	11982
1952	11983
##ange	11984
##MAX	11985
##ᆼ귄	11986
나락	11987
Of	11988
콕	11989
##풀이	11990
수상자	11991
##ster	11992
청원	11993
애쉬	11994
오세	11995
##스타인	11996
High	11997
Type	11998
가의	11999
해독	12000
럭키	12001
밧	12002
##생기	12003
일러스트레이터	12004
##소총	12005
양대	12006
스ᄂ	12007
박영	12008
1947	12009
복도	12010
테일러	12011
라이센스	12012
퇴역	12013
팩션	12014
장갑차	12015
바나나	12016
박해	12017
클러	12018
불문	12019
무수	12020
거느리	12021
재임	12022
애쓰	12023
조력	12024
##사관	12025
슬램	12026
심야	12027
실천	12028
냉동	12029
아이폰	12030
##산역	12031
##데르	12032
##카미	12033
BA	12034
소행	12035
파손	12036
불가리아	12037
오른팔	12038
둘러싸이	12039
치바	12040
가브리	12041
개판	12042
##무늬	12043
시집	12044
정준	12045
교육청	12046
메세지	12047
##겸	12048
선형	12049
Light	12050
준결승	12051
생선	12052
곡선	12053
뒷면	12054
맞물리	12055
롤링	12056
스콧	12057
공손	12058
왕관	12059
##전설	12060
ᆯ라	12061
지자	12062
##왜란	12063
교양	12064
산탄총	12065
##to	12066
임진왜란	12067
pro	12068
소매	12069
미도리	12070
플로리	12071
소령	12072
제이슨	12073
개미	12074
트랜스포	12075
미숙	12076
##에몽	12077
경지	12078
미스터리	12079
스나	12080
##ple	12081
열세	12082
불쾌	12083
분쇄	12084
보디	12085
##PA	12086
미끼	12087
배속	12088
율리	12089
경질	12090
차관	12091
배우자	12092
##14	12093
슈가	12094
앰	12095
책상	12096
Gen	12097
무명	12098
자부	12099
페니	12100
##나리	12101
##교통	12102
때려잡	12103
증권	12104
루키	12105
##지않	12106
증인	12107
종착	12108
TE	12109
레슬러	12110
신세계	12111
슬라임	12112
로지	12113
##바다	12114
166	12115
모어	12116
트레이닝	12117
사일	12118
복용	12119
개개	12120
##BM	12121
AG	12122
플랜	12123
김천	12124
옌	12125
Heart	12126
랙	12127
땀	12128
연말	12129
격리	12130
악곡	12131
비로소	12132
편견	12133
NEW	12134
앞뒤	12135
어워드	12136
로그인	12137
상대식	12138
주고	12139
##메라	12140
##ics	12141
280	12142
깡패	12143
##레슬링	12144
전두환	12145
재림	12146
지난	12147
패스트	12148
싣	12149
달라	12150
봉기	12151
프랜차	12152
캇	12153
비꼬	12154
파괴력	12155
필터	12156
하이브리	12157
진짜로	12158
프로레슬링	12159
스매시	12160
외면	12161
태미	12162
##차례	12163
##테스	12164
퓨처	12165
기행	12166
하이브리드	12167
랜스	12168
What	12169
##17	12170
프로세서	12171
수시로	12172
##규모	12173
반환	12174
원망	12175
빌라	12176
##고래	12177
##넉	12178
중급	12179
요우	12180
시가	12181
라임	12182
심히	12183
스트리밍	12184
##권자	12185
중후	12186
좌표	12187
섹시	12188
보잉	12189
AE	12190
수다	12191
열기	12192
안철수	12193
프랜차이즈	12194
소설가	12195
##les	12196
feat	12197
##구역	12198
포식	12199
MO	12200
미식	12201
심상	12202
자켓	12203
was	12204
스팅	12205
진형	12206
오프라인	12207
스바루	12208
실로	12209
##세서리	12210
글리	12211
마켓	12212
파이프	12213
레프	12214
사천왕	12215
제우스	12216
페이크	12217
르네	12218
##즈카	12219
삼촌	12220
1919	12221
웨인	12222
제단	12223
직통	12224
동조	12225
##ᆫ티	12226
반군	12227
%.	12228
Tw	12229
강세	12230
##산동	12231
골목	12232
준공	12233
져	12234
Kor	12235
슬러그	12236
##CC	12237
폐선	12238
최정	12239
222	12240
야전	12241
선인	12242
장학	12243
Blo	12244
꽁	12245
탈당	12246
감행	12247
##nder	12248
세일러	12249
##지오	12250
가르침	12251
메구미	12252
사모	12253
냉각	12254
드리블	12255
용의자	12256
러닝	12257
뮈	12258
GHz	12259
템포	12260
NHK	12261
##텍스	12262
보행	12263
Fe	12264
카우	12265
음색	12266
##브러	12267
하리	12268
##툴	12269
하지메	12270
면접	12271
필립	12272
조교	12273
동문	12274
장편	12275
##더기	12276
##ex	12277
적색	12278
엄폐	12279
소노	12280
착지	12281
야마다	12282
아랑	12283
저스티스	12284
원종	12285
토막	12286
김연	12287
따라잡	12288
재활	12289
헐크	12290
얕	12291
히나타	12292
소시	12293
성기	12294
타고	12295
나뭇	12296
이아	12297
입양	12298
산악	12299
지문	12300
##수수	12301
우물	12302
신칸	12303
불리우	12304
개그맨	12305
지그	12306
##lass	12307
철갑탄	12308
기피	12309
공영	12310
##대기	12311
굴러	12312
의아	12313
술집	12314
말년	12315
메테	12316
##컨드	12317
DI	12318
Par	12319
세컨드	12320
속편	12321
~"	12322
1953	12323
##사와	12324
도호	12325
더구나	12326
세츠	12327
채취	12328
인트	12329
##전트	12330
일삼	12331
거르	12332
소사	12333
반론	12334
기술자	12335
정계	12336
미수	12337
미호	12338
콘셉트	12339
GPU	12340
위키백과	12341
##ACK	12342
호스	12343
PL	12344
망원	12345
꼼수	12346
##ᅣᆯ	12347
화소	12348
레규	12349
##두리	12350
배신자	12351
모함	12352
TO	12353
고음	12354
랏	12355
Mr	12356
라구	12357
##교육	12358
아이스크림	12359
부당	12360
명탐정	12361
방송인	12362
##ors	12363
하카	12364
응하	12365
LOVE	12366
라바	12367
낡	12368
연기력	12369
주되	12370
내역	12371
체격	12372
신칸센	12373
라든가	12374
두목	12375
푹	12376
##쫓	12377
뱃	12378
이에	12379
펭귄	12380
토가	12381
물가	12382
호르	12383
##바키아	12384
단과	12385
발라드	12386
이방	12387
교섭	12388
평안	12389
하후	12390
time	12391
발간	12392
유즈	12393
솔라	12394
원고	12395
물어보	12396
##어붙	12397
카니	12398
서해	12399
파문	12400
냉기	12401
케리건	12402
부도	12403
전광	12404
프랑스군	12405
Good	12406
고분	12407
거니	12408
뇌물	12409
경과	12410
스크립트	12411
투신	12412
에그	12413
정형	12414
##콥터	12415
##딕	12416
픽셀	12417
트랜스포머	12418
모던	12419
현존	12420
oh	12421
춘천	12422
투성이	12423
어린아이	12424
전열	12425
버터	12426
캔디	12427
고산	12428
륙	12429
330	12430
심문	12431
퍼붓	12432
동호	12433
스퀘어	12434
카탈	12435
자질	12436
LED	12437
접어들	12438
기관차	12439
어벤져스	12440
270	12441
쐐	12442
병종	12443
##무실	12444
책략	12445
여배우	12446
화합	12447
패드	12448
어미	12449
축적	12450
사슴	12451
##수아	12452
그제	12453
로저	12454
##AND	12455
MK	12456
##무기	12457
공존	12458
중성	12459
디렉터	12460
수량	12461
영등포	12462
찌질	12463
1938	12464
레즈	12465
범행	12466
교통사고	12467
마의	12468
메우	12469
Live	12470
테일즈	12471
참으로	12472
더하	12473
성서	12474
2500	12475
최우수	12476
하부	12477
전속	12478
##좀	12479
대중교통	12480
하반기	12481
##더링	12482
방호	12483
틀어	12484
거품	12485
호무	12486
다중	12487
윈터	12488
도청	12489
구절	12490
보리	12491
Per	12492
태극	12493
카를로스	12494
최대치	12495
쫓아가	12496
테러리스트	12497
레귤러	12498
비타	12499
인사이드	12500
특훈	12501
직속	12502
깃들	12503
캐슬	12504
로테이션	12505
광대	12506
심리학	12507
FPS	12508
특허	12509
악하	12510
엣지	12511
##아슬	12512
아슬아슬	12513
우체	12514
전반전	12515
순교	12516
##볼루션	12517
상행	12518
속력	12519
##플러스	12520
되살리	12521
##ME	12522
몹시	12523
##트라이	12524
##파리	12525
석방	12526
신수	12527
더욱이	12528
소규모	12529
협약	12530
1957	12531
김도	12532
하시	12533
##프스	12534
소실	12535
음악가	12536
총회	12537
방공	12538
세스	12539
얼어붙	12540
패닉	12541
225	12542
요미우리	12543
담임	12544
뚜껑	12545
내뿜	12546
적립	12547
스텔라	12548
영남	12549
무고	12550
즉각	12551
##16	12552
솜씨	12553
중년	12554
SL	12555
불신	12556
##단지	12557
오타쿠	12558
우상	12559
남작	12560
죠죠	12561
ll	12562
유방	12563
라트	12564
라프	12565
시가지	12566
##테리	12567
인구수	12568
서민	12569
현황	12570
파벌	12571
바닷	12572
총괄	12573
##뿌	12574
쥰	12575
카즈야	12576
에메랄드	12577
생산량	12578
뱉	12579
단말	12580
신흥	12581
스윕	12582
순정	12583
상쇄	12584
서두르	12585
파격	12586
출고	12587
저술	12588
부류	12589
영동	12590
멋있	12591
##프ᄅ	12592
자본주의	12593
노래방	12594
##턱	12595
사탄	12596
하와이	12597
스파이크	12598
박상	12599
홀딩	12600
끝장	12601
재빨리	12602
아홉	12603
##eep	12604
##글라스	12605
베일	12606
신병	12607
상장	12608
##ᆫ각	12609
함성	12610
간호사	12611
매지	12612
두근	12613
앤디	12614
카디	12615
루터	12616
블래	12617
260	12618
모양새	12619
자문	12620
퐁	12621
저거	12622
##포드	12623
하라	12624
GTA	12625
수평	12626
텀	12627
스내	12628
프로모	12629
차용	12630
마초	12631
혜성	12632
달ᄀ	12633
This	12634
Sm	12635
Wii	12636
따돌리	12637
석상	12638
직격	12639
#!	12640
##ott	12641
다기	12642
멜론	12643
##코프	12644
다이노스	12645
브랜	12646
적재	12647
소비에트	12648
페르난	12649
저희	12650
신정	12651
카이사르	12652
원내	12653
Rock	12654
""	12655
##플리케이션	12656
상용	12657
호구	12658
##HT	12659
자각	12660
장원	12661
##윽	12662
사투리	12663
헬리콥터	12664
am	12665
핸드폰	12666
짤리	12667
##때로	12668
##문트	12669
급히	12670
오ᄏ	12671
메이트	12672
벚꽃	12673
유지비	12674
하행	12675
지름	12676
줌	12677
로스터	12678
유나	12679
쎄	12680
예배	12681
GN	12682
여관	12683
배리어	12684
발렌타인	12685
월등	12686
쓰러트리	12687
선진	12688
##델피아	12689
쥬얼	12690
필라델피아	12691
고토	12692
아제	12693
오락실	12694
증발	12695
새우	12696
##메스	12697
하원	12698
##산물	12699
이례	12700
##려보	12701
##하이	12702
##ᆺ집	12703
1800	12704
털어놓	12705
Kn	12706
시부	12707
프로토타입	12708
넉넉	12709
미ᄁ	12710
쇠퇴	12711
리조	12712
켈리	12713
Li	12714
양측	12715
자칫	12716
래스터	12717
호투	12718
허위	12719
휩싸	12720
미티	12721
부사관	12722
EBS	12723
유정	12724
##두사	12725
브레인	12726
브이	12727
만료	12728
ab	12729
바닐라	12730
주거	12731
행렬	12732
격전	12733
양보	12734
핸들	12735
##받침	12736
윌슨	12737
선우	12738
부관	12739
우천	12740
공약	12741
유니콘	12742
군림	12743
할리우드	12744
여권	12745
쏠	12746
ㅓㅆ었	12747
선대	12748
마신	12749
야만	12750
정정	12751
포워드	12752
미유키	12753
회화	12754
설화	12755
바오	12756
관념	12757
중학생	12758
##ᆯ리언	12759
미로	12760
##파크	12761
도마뱀	12762
결함	12763
호박	12764
##뚫	12765
리바운드	12766
추궁	12767
실력자	12768
아르메	12769
구타	12770
유니온	12771
풍속	12772
농사	12773
적성	12774
본의	12775
##드르	12776
가축	12777
에바	12778
단정	12779
후루	12780
습관	12781
받치	12782
MSL	12783
밀집	12784
술탄	12785
169	12786
##메다	12787
Baby	12788
타고나	12789
몰아붙이	12790
야외	12791
길거리	12792
유로파	12793
텅	12794
기함	12795
피에	12796
노동당	12797
냅	12798
서정	12799
안성	12800
일례	12801
진수	12802
편찬	12803
IIDX	12804
리키	12805
쳐내	12806
심연	12807
히데요시	12808
호세	12809
자발	12810
세션	12811
##행위	12812
재무	12813
##토르	12814
유무	12815
동요	12816
질풍	12817
게임즈	12818
징크스	12819
그래프	12820
운석	12821
근력	12822
눈빛	12823
##anna	12824
꿰뚫	12825
ᆯ지라도	12826
유승	12827
RC	12828
니카	12829
유배	12830
송출	12831
격투기	12832
주파수	12833
도시락	12834
럴	12835
ㅏ야	12836
의석	12837
소리치	12838
0900	12839
##other	12840
DB	12841
교훈	12842
##자동	12843
불평	12844
##케인	12845
요시다	12846
정재	12847
호그	12848
리우	12849
Ac	12850
우루과이	12851
고든	12852
악령	12853
조준경	12854
민정	12855
드레드	12856
##ᆯ리티	12857
본가	12858
프롤로그	12859
카타르	12860
탄탄	12861
##IK	12862
실정	12863
스콜	12864
츤데레	12865
ᆯ려고	12866
단속	12867
##ins	12868
악어	12869
베르크	12870
##팍	12871
헥	12872
일레븐	12873
성비	12874
훈훈	12875
더라면	12876
구두	12877
후안	12878
##icro	12879
레이트	12880
바이올린	12881
서태	12882
책정	12883
트러블	12884
wid	12885
전산	12886
제보	12887
청산	12888
킹덤	12889
##oss	12890
##크라이나	12891
우크라이나	12892
회귀	12893
깽	12894
550	12895
루루	12896
Blue	12897
요하	12898
독서	12899
유코	12900
여당	12901
미팅	12902
포럼	12903
수수료	12904
스케이팅	12905
Can	12906
대출	12907
서독	12908
후지와라	12909
아프가	12910
##ction	12911
라던가	12912
첫날	12913
블레	12914
ONE	12915
##ru	12916
청동	12917
재판소	12918
자격증	12919
원작자	12920
분화	12921
연루	12922
말미	12923
황태자	12924
us	12925
##일으키	12926
빈틈	12927
불러일으키	12928
##버드	12929
1914	12930
특이점	12931
타다	12932
수복	12933
중추	12934
밀란	12935
스토커	12936
자손	12937
##미스	12938
존대	12939
HARD	12940
재위	12941
샤워	12942
독수리	12943
줄어드	12944
개칭	12945
보증	12946
##ood	12947
에필로그	12948
촉진	12949
##기지	12950
Dark	12951
##훼	12952
떄	12953
##르기	12954
김원	12955
박용	12956
동래	12957
##코스	12958
경쟁자	12959
자크	12960
##넘기	12961
프렌즈	12962
배송	12963
1951	12964
##똑	12965
##세기	12966
리부트	12967
##gain	12968
할당	12969
내수	12970
격침	12971
뽐	12972
에밀리	12973
트로이	12974
핸	12975
농촌	12976
라나	12977
Sun	12978
만루	12979
성수	12980
야시	12981
왕좌	12982
맴	12983
라오	12984
가창	12985
노트북	12986
편안	12987
##앙스	12988
병장	12989
첨단	12990
##na	12991
##19	12992
로브	12993
##소스	12994
대진	12995
정동	12996
그리드	12997
프랭	12998
장풍	12999
북극	13000
셰이	13001
유유	13002
##ᆷ마	13003
진군	13004
살피	13005
요시노	13006
OK	13007
좁히	13008
원활	13009
온몸	13010
기타리스트	13011
은혜	13012
멀리서	13013
사안	13014
고스	13015
장동	13016
##킨스	13017
히카리	13018
진행자	13019
밀어주	13020
비토	13021
사다	13022
분기점	13023
Music	13024
##land	13025
일품	13026
우가	13027
결사	13028
##EL	13029
해저	13030
오시	13031
메모	13032
센티	13033
야마구치	13034
야기	13035
아틀레	13036
총재	13037
서대	13038
입체	13039
남아프리카	13040
마차	13041
모친	13042
홈즈	13043
Im	13044
대마	13045
연금술사	13046
더비	13047
cc	13048
##25	13049
뉘앙스	13050
죄송	13051
병합	13052
지중	13053
아프가니스탄	13054
width	13055
장제스	13056
원천	13057
완구	13058
토마토	13059
로컬	13060
자니	13061
키트	13062
헌신	13063
민영	13064
당주	13065
##꼴	13066
빅토르	13067
베른	13068
희대	13069
파산	13070
교내	13071
텍스	13072
셰프	13073
##ty	13074
##노스케	13075
진정하	13076
수녀	13077
아르카	13078
KTX	13079
윌리엄스	13080
누명	13081
미라이	13082
연의	13083
체형	13084
제작비	13085
상가	13086
게릴라	13087
피치	13088
미니언	13089
##DS	13090
짚	13091
페이커	13092
##셸	13093
고성	13094
친화	13095
방과	13096
갈아타	13097
교시	13098
제휴	13099
게시물	13100
말소	13101
아울러	13102
캐스트	13103
빠뜨리	13104
때때로	13105
나고	13106
수강	13107
MHz	13108
정체불명	13109
열악	13110
##UT	13111
##irst	13112
셸	13113
잊어버리	13114
본성	13115
오리진	13116
에티	13117
폭동	13118
피에르	13119
##agon	13120
Bat	13121
버릇	13122
페루	13123
하워드	13124
산책	13125
수식	13126
무사시	13127
##ky	13128
내륙	13129
매달	13130
오디	13131
닉스	13132
실루	13133
비시	13134
켄지	13135
도라에몽	13136
으리라	13137
포대	13138
Life	13139
보구	13140
용감	13141
실무	13142
속박	13143
요리사	13144
Champ	13145
유영	13146
클립	13147
BBC	13148
루이지	13149
아르메니아	13150
##자재	13151
초교	13152
천마	13153
DR	13154
##놀이	13155
++	13156
205	13157
분장	13158
마운트	13159
배기	13160
강팀	13161
기획사	13162
일렉트로	13163
기성	13164
##아스	13165
안산	13166
##통수	13167
환수	13168
돌아보	13169
휴게소	13170
글래	13171
단선	13172
미성년	13173
해임	13174
##툭	13175
성균관	13176
주고받	13177
##어쓰	13178
##ady	13179
니나	13180
해수	13181
대대로	13182
직결	13183
타카시	13184
모범	13185
불어	13186
재난	13187
브론즈	13188
육지	13189
격기	13190
Korea	13191
고령	13192
경순	13193
발차기	13194
박재	13195
원흉	13196
분홍색	13197
쫓아오	13198
제스	13199
창업	13200
말아먹	13201
일일이	13202
찢어지	13203
Summer	13204
경감	13205
Fire	13206
1937	13207
베이스볼	13208
임원	13209
연하	13210
매수	13211
선곡	13212
슬퍼	13213
유비트	13214
열람	13215
반대편	13216
아까	13217
발광	13218
야심	13219
라드	13220
##아르	13221
플로리다	13222
back	13223
##무소	13224
양키스	13225
김명	13226
넥서스	13227
목동	13228
탯이	13229
##ium	13230
##스티니	13231
리액	13232
살상	13233
금색	13234
탄도	13235
OCG	13236
달라붙	13237
RP	13238
자판	13239
정벌	13240
총격	13241
석탄	13242
환사	13243
친목	13244
깨알	13245
##토리얼	13246
엘리스	13247
잠재력	13248
냉전	13249
코지	13250
백신	13251
##따르	13252
통수	13253
포토	13254
##니시	13255
##궤	13256
플레어	13257
블루스	13258
##혁명	13259
쓸데없이	13260
후궁	13261
Ma	13262
권능	13263
튜토리얼	13264
무진	13265
프로모션	13266
차선	13267
스파르타	13268
목적지	13269
니코니코	13270
미즈키	13271
토이	13272
계란	13273
항아리	13274
무제한	13275
세레	13276
창시	13277
베네치아	13278
파업	13279
##ount	13280
여정	13281
합당	13282
달걀	13283
자처	13284
소극	13285
필연	13286
na	13287
동족	13288
평원	13289
합하	13290
댄서	13291
Sy	13292
장안	13293
데스티니	13294
##베르크	13295
명곡	13296
진료	13297
김형	13298
일자리	13299
솔리	13300
성모	13301
##커녕	13302
650	13303
이창	13304
매개	13305
부과	13306
시코	13307
충북	13308
레이첼	13309
토로	13310
무상	13311
피츠	13312
아타	13313
브레이브	13314
##사벽	13315
넘사벽	13316
에스파	13317
도검	13318
귀하	13319
##박히	13320
##숍	13321
타나카	13322
실습	13323
개인전	13324
##퍼런스	13325
행정부	13326
회고	13327
저것	13328
빼내	13329
밀치	13330
비즈니스	13331
저널	13332
서초	13333
정립	13334
금호	13335
문고	13336
강행	13337
##듣	13338
성도	13339
나폴리	13340
마요	13341
북방	13342
CA	13343
남발	13344
급기	13345
스캔들	13346
레이너	13347
숀	13348
흠좀	13349
흠좀무	13350
##테이너	13351
엿보	13352
##ush	13353
OB	13354
코즈	13355
강유	13356
귀중	13357
대각	13358
리턴	13359
악의	13360
##쉐	13361
이복	13362
하타	13363
이질	13364
샘플	13365
##그루	13366
##현우	13367
후예	13368
조직원	13369
교관	13370
슈터	13371
증후	13372
##드립	13373
어느새	13374
몬테	13375
기괴	13376
줄줄	13377
사면	13378
위탁	13379
네이트	13380
##누르	13381
고속도	13382
쪼개	13383
쐐기	13384
만행	13385
브란	13386
호기심	13387
쩔	13388
프리즘	13389
함재기	13390
소동	13391
쾨	13392
리마	13393
험하	13394
로코	13395
학점	13396
BEMAN	13397
##플라	13398
계열사	13399
##사이드	13400
코리	13401
늦추	13402
듀크	13403
적료	13404
야드	13405
광속	13406
해적단	13407
남극	13408
다이스케	13409
시몬	13410
치사	13411
상류	13412
설상가	13413
Just	13414
루팡	13415
설상가상	13416
스냅	13417
인어	13418
부여받	13419
나레이션	13420
휩싸이	13421
감전	13422
주심	13423
파인	13424
##ne	13425
##석민	13426
한스	13427
211	13428
콘크리트	13429
##곡동	13430
BEMANI	13431
힐링	13432
Ste	13433
화내	13434
선구	13435
시간표	13436
지휘자	13437
##ger	13438
##현진	13439
##마당	13440
자수	13441
유난	13442
역과	13443
상표	13444
레기	13445
타이완	13446
피카츄	13447
까닭	13448
파장	13449
모닝	13450
반항	13451
살인마	13452
화자	13453
프런	13454
##OID	13455
손톱	13456
##베이스	13457
now	13458
##주리	13459
러셀	13460
204	13461
문어	13462
대상자	13463
박찬	13464
뒤통수	13465
피고	13466
슬퍼하	13467
연회	13468
퓨리	13469
시치	13470
로저스	13471
이우	13472
사찰	13473
공익	13474
동체	13475
드릴	13476
영장	13477
우아	13478
아토	13479
FB	13480
강연	13481
음주	13482
##ᆯ럿	13483
펜듈	13484
펜듈럼	13485
세탁	13486
사로잡히	13487
지온	13488
##베르토	13489
But	13490
진나라	13491
지침	13492
교향곡	13493
성체	13494
염려	13495
GG	13496
서인	13497
양호	13498
복면	13499
##트니	13500
선제골	13501
벵	13502
Pre	13503
바우	13504
실명	13505
##pr	13506
Ev	13507
##얀	13508
어퍼	13509
슬로우	13510
##기사	13511
농락	13512
##ution	13513
가성	13514
CON	13515
돌이	13516
박경	13517
호노	13518
점사	13519
민법	13520
##블릿	13521
##년기	13522
준하	13523
숙이	13524
똑똑	13525
##CH	13526
불로	13527
투니	13528
Gold	13529
수락	13530
미술관	13531
네코	13532
Out	13533
뷰티	13534
콘티	13535
한탄	13536
##멋	13537
지상파	13538
3164	13539
리엘	13540
발칸	13541
어설프	13542
램프	13543
가급	13544
##메어	13545
STR	13546
영리	13547
##체스	13548
지극히	13549
끌어내	13550
Over	13551
출근	13552
##ᅥᆫ지	13553
선방	13554
DX	13555
경찰관	13556
한도	13557
한발	13558
월급	13559
동탁	13560
##덮	13561
가브리엘	13562
조류	13563
별점	13564
망가	13565
캉	13566
주재	13567
스킵	13568
Dance	13569
진성	13570
주황색	13571
책임자	13572
##룸	13573
서지	13574
채집	13575
일본식	13576
합창	13577
증후군	13578
권고	13579
Grand	13580
뭔	13581
##ally	13582
신대	13583
대표작	13584
대공포	13585
이노우	13586
##ator	13587
증가량	13588
##징어	13589
셉	13590
1600	13591
##앵	13592
마누	13593
쓸어버리	13594
day	13595
개개인	13596
라자	13597
시미	13598
관동	13599
##산화	13600
캐리어	13601
정렬	13602
구급	13603
##inc	13604
가소	13605
스완	13606
예언자	13607
호로	13608
괄	13609
세일	13610
sc	13611
스퍼	13612
코다	13613
나이트메어	13614
대주	13615
마운드	13616
홍성	13617
##GC	13618
각기	13619
통신사	13620
내걸	13621
향기	13622
정자	13623
부평	13624
한숨	13625
테루	13626
행방불명	13627
감히	13628
호쿠	13629
프로리그	13630
논하	13631
기복	13632
콜롬비아	13633
UF	13634
pt	13635
##로이드	13636
구단주	13637
개연	13638
예명	13639
끼어들	13640
실루엣	13641
##토시	13642
현상금	13643
저상	13644
변질	13645
투하	13646
HK	13647
전년	13648
친선	13649
샨	13650
##클럽	13651
FFF	13652
일식	13653
츠바사	13654
신축	13655
##air	13656
젝	13657
Sec	13658
여친	13659
##펄	13660
##저것	13661
이것저것	13662
스네이크	13663
대본	13664
외래	13665
##아라	13666
전교	13667
리히	13668
장기간	13669
고요	13670
고안	13671
박명수	13672
목요일	13673
정확도	13674
교직	13675
신원	13676
여진	13677
##수스	13678
추기	13679
소피아	13680
리에	13681
정세	13682
차후	13683
##나드	13684
##칼리	13685
암울	13686
따라다니	13687
훅	13688
매스	13689
열등	13690
상하이	13691
매너	13692
괴상	13693
전세	13694
네놈	13695
지자체	13696
조영	13697
오의	13698
##준표	13699
앙리	13700
El	13701
소수자	13702
조달	13703
군복	13704
번트	13705
케이지	13706
차남	13707
출연진	13708
접근성	13709
Dis	13710
외롭	13711
tvN	13712
광전사	13713
get	13714
화나	13715
코카	13716
접점	13717
VOC	13718
##퇴근	13719
아줌마	13720
이속	13721
##마침	13722
##ᅳᆯ랜	13723
반짝이	13724
캐서	13725
샐러	13726
##티콘	13727
괴력	13728
샤프	13729
콜드	13730
풍자	13731
##빼	13732
난감	13733
1910	13734
한성	13735
검은색	13736
추첨	13737
학계	13738
여더	13739
TW	13740
전리	13741
퇴출	13742
컨트롤러	13743
차종	13744
다짐	13745
출루율	13746
영진	13747
이변	13748
대부	13749
비장	13750
이동하	13751
크루즈	13752
##ina	13753
철회	13754
미사키	13755
애시	13756
##바시	13757
백색	13758
ARM	13759
간선	13760
건축물	13761
케이트	13762
##얼거리	13763
때마침	13764
카이토	13765
어리석	13766
카르마	13767
클레어	13768
##ᅥ리	13769
완수	13770
##흙	13771
##쩌	13772
##보그	13773
픽업	13774
금화	13775
##베리아	13776
꽂히	13777
볼리	13778
##삐	13779
사육	13780
자진	13781
Mon	13782
동창	13783
이은	13784
조제	13785
최영	13786
딸기	13787
알고리	13788
베토	13789
밀접	13790
총사령	13791
ᆫ들	13792
고질	13793
아드	13794
Af	13795
시정	13796
경매	13797
##꿈치	13798
##로니	13799
beat	13800
Win	13801
수험	13802
타니	13803
포효	13804
##ᆯ렛	13805
##장난	13806
체이	13807
간략	13808
리티	13809
예지	13810
군함	13811
##펑	13812
세세	13813
코바야시	13814
화가	13815
##축구	13816
영조	13817
일어서	13818
만세	13819
해치우	13820
##라비아	13821
매출액	13822
잔디	13823
##휴일	13824
##use	13825
점거	13826
등교	13827
무궁화	13828
##네이터	13829
웨어	13830
일절	13831
At	13832
박치기	13833
Power	13834
계좌	13835
아이유	13836
조형	13837
스피커	13838
도피	13839
##봇	13840
딱딱	13841
쫄	13842
크리에이	13843
연발	13844
횡단	13845
경희	13846
서진	13847
느니	13848
예술가	13849
코시	13850
일진	13851
그려	13852
양주	13853
간행	13854
여덟	13855
기밀	13856
커비	13857
SV	13858
1935	13859
성형	13860
출중	13861
연구실	13862
사극	13863
샴	13864
마르크스	13865
은밀	13866
욕구	13867
아카리	13868
고릴라	13869
러시아어	13870
회오리	13871
Fla	13872
홍진호	13873
밋	13874
##라노	13875
처절	13876
알코	13877
태수	13878
파수	13879
UI	13880
고원	13881
아부	13882
힘쓰	13883
DJMAX	13884
6000	13885
뺨	13886
리트	13887
부대원	13888
강판	13889
##스ᄅ	13890
평민	13891
##엎	13892
츠나	13893
대쉬	13894
서사	13895
존속	13896
태블릿	13897
카가미	13898
##츠카	13899
빅뱅	13900
캐서린	13901
Res	13902
임관	13903
##장이	13904
용맹	13905
휴전	13906
##힐	13907
소감	13908
베니	13909
##ring	13910
헤매	13911
우와	13912
다이너	13913
뒤덮	13914
##여지	13915
금성	13916
1934	13917
아폴로	13918
스님	13919
안면	13920
경쟁력	13921
정거	13922
챌린저	13923
뽐내	13924
므	13925
갈래	13926
회심	13927
##동원	13928
자신감	13929
천공	13930
but	13931
상체	13932
체리	13933
집결	13934
##프레스	13935
##트릭스	13936
우습	13937
슬ᄅ	13938
수요일	13939
레몬	13940
내야수	13941
판권	13942
##돌프	13943
비요	13944
코요	13945
달빛	13946
##...	13947
입술	13948
모방	13949
총열	13950
베이더	13951
##그룹	13952
데이비스	13953
미코토	13954
장신	13955
##맥스	13956
매칭	13957
##ART	13958
1918	13959
유난히	13960
##르드	13961
패미	13962
Fi	13963
타시	13964
아카이	13965
이용해	13966
혈액형	13967
미판	13968
스플리	13969
민원	13970
애드	13971
사이보그	13972
케로	13973
##범죄	13974
다툼	13975
오인	13976
##대부	13977
##첸	13978
256	13979
견인	13980
우체국	13981
##포스	13982
채소	13983
전전	13984
후문	13985
천둥	13986
##ittle	13987
티베트	13988
김영삼	13989
##LS	13990
man	13991
페이트	13992
카바	13993
유서	13994
저렇게	13995
공휴일	13996
페더	13997
카구라	13998
대문	13999
380	14000
모호	14001
리플렉	14002
##ᅡᆼ스	14003
바주	14004
##de	14005
##XT	14006
정크	14007
ᆫ다던가	14008
##ational	14009
시드니	14010
여사	14011
자유주의	14012
VOCAL	14013
뇨	14014
오징어	14015
이야말로	14016
발트	14017
Sing	14018
퇴사	14019
런닝	14020
원격	14021
##관총	14022
조지아	14023
Rem	14024
매진	14025
풋볼	14026
상임	14027
레이나	14028
쇼군	14029
악장	14030
튀기	14031
##소문	14032
강성	14033
무소	14034
못지않	14035
평면	14036
혹사	14037
리전	14038
초고	14039
튜닝	14040
##외선	14041
자카	14042
방어선	14043
퓨어	14044
중견수	14045
유소년	14046
##부시	14047
카지노	14048
MR	14049
독성	14050
알고리즘	14051
상수	14052
##be	14053
노려보	14054
김두한	14055
호전	14056
함포	14057
CEO	14058
##대교	14059
비니	14060
제다이	14061
젊은이	14062
막아	14063
워낙에	14064
창의	14065
피드백	14066
하임	14067
FL	14068
유포	14069
볼륨	14070
자바	14071
사출	14072
MX	14073
인프라	14074
##페르	14075
섬세	14076
기미	14077
맏	14078
바흐	14079
경량	14080
국사	14081
이성계	14082
피처	14083
색채	14084
~~	14085
동참	14086
제르	14087
뒷받침	14088
##ello	14089
로만	14090
건전	14091
제라	14092
피스트	14093
소절	14094
노엘	14095
양파	14096
LCK	14097
낙인	14098
##ivers	14099
영미	14100
퀄컴	14101
EM	14102
베인	14103
OPS	14104
적발	14105
본국	14106
재고	14107
연구자	14108
형편없	14109
뽕	14110
사스케	14111
코이	14112
정은	14113
부식	14114
궤적	14115
gr	14116
##루살	14117
페가	14118
망령	14119
그리스어	14120
키무라	14121
자취	14122
하르	14123
##루살렘	14124
줄거리	14125
로사	14126
직구	14127
고속버스	14128
섀도	14129
카노	14130
총탄	14131
##ual	14132
##흘	14133
무효화	14134
타국	14135
에우	14136
기합	14137
자민	14138
발전기	14139
부추	14140
정거장	14141
허구	14142
저리	14143
맥도	14144
가명	14145
립스	14146
출퇴근	14147
똘	14148
HT	14149
Rec	14150
}}}	14151
##긴	14152
공방전	14153
가호	14154
동갑	14155
장병	14156
애ᄐ	14157
MT	14158
대칭	14159
폭포	14160
뒤이	14161
쿠루	14162
군사력	14163
SCP	14164
핵무기	14165
##reen	14166
농협	14167
나고야	14168
당첨	14169
Fem	14170
타치바나	14171
마에다	14172
타나	14173
코스타	14174
운동가	14175
피라미	14176
악용	14177
허공	14178
공성전	14179
노이즈	14180
성역	14181
애틀랜	14182
sm	14183
무빙	14184
쑥	14185
##하하	14186
속공	14187
신시	14188
족장	14189
정명	14190
SG	14191
##ᅢ신	14192
어쌔신	14193
직역	14194
##해군	14195
거제	14196
표방	14197
##바퀴	14198
벽돌	14199
옵티	14200
집중력	14201
트렌	14202
##브레	14203
김정은	14204
수군	14205
김택	14206
식별	14207
메스	14208
##ern	14209
복싱	14210
##심장	14211
퍼스	14212
빌헬	14213
조그마	14214
태세	14215
넥슨	14216
판서	14217
마이어	14218
루카스	14219
##af	14220
King	14221
실험실	14222
궁지	14223
조력자	14224
선도	14225
건재	14226
가급적	14227
포지	14228
유하	14229
##ox	14230
##회의	14231
노기	14232
명대사	14233
강변	14234
##숨에	14235
단숨에	14236
예루살렘	14237
##ERO	14238
세조	14239
노드	14240
랩터	14241
서킷	14242
내구력	14243
테이크	14244
첨가	14245
결장	14246
억압	14247
##싹	14248
통용	14249
억지	14250
두부	14251
대인배	14252
시립	14253
소용돌이	14254
##ars	14255
표명	14256
블래스트	14257
아이작	14258
##riend	14259
생산력	14260
레니	14261
연예계	14262
이화	14263
주방	14264
노이	14265
카즈마	14266
Ep	14267
마테	14268
적진	14269
##코어	14270
세나	14271
뵈	14272
##bs	14273
##롤라	14274
증세	14275
수원시	14276
막바지	14277
괴리	14278
분경	14279
역병	14280
발상	14281
신주쿠	14282
##ᆫ근	14283
##ᅳ레이트	14284
##토미	14285
미야자키	14286
광탈	14287
에이전트	14288
승천	14289
베드	14290
윈스	14291
MLB	14292
지중해	14293
군기	14294
숏	14295
999	14296
돌려보내	14297
##연합	14298
디펜스	14299
IG	14300
집정	14301
초당	14302
돌아서	14303
예장	14304
게임기	14305
무전	14306
콘테	14307
##ts	14308
초선	14309
서식지	14310
깊숙	14311
블라디미르	14312
이선	14313
School	14314
단절	14315
꺾이	14316
프론트	14317
세균	14318
파이브	14319
근성	14320
대제	14321
고양시	14322
슈퍼스타	14323
동인지	14324
아다	14325
요르	14326
데우스	14327
소진	14328
히토미	14329
히노	14330
베가	14331
고베	14332
배지	14333
돌격소총	14334
절규	14335
Ge	14336
Leg	14337
End	14338
대파	14339
김창	14340
Pv	14341
길들이	14342
둘러보	14343
단조	14344
##노미야	14345
수비진	14346
후후	14347
##itch	14348
##IE	14349
바루	14350
포고	14351
1933	14352
추적자	14353
삼거리	14354
어인	14355
무성	14356
김희	14357
박격	14358
피리	14359
카오리	14360
추기경	14361
라지만	14362
남용	14363
Miss	14364
엄지	14365
##SS	14366
##클레스	14367
출몰	14368
##메인	14369
##악기	14370
##rist	14371
양현	14372
허리케인	14373
지령	14374
가뜩	14375
급기야	14376
Di	14377
홍준표	14378
미토	14379
카로	14380
매사	14381
1932	14382
스타팅	14383
그려지	14384
리쿠	14385
설계도	14386
함경	14387
임상	14388
기마	14389
1931	14390
##tr	14391
##atic	14392
착수	14393
카에	14394
요건	14395
성문	14396
##사전	14397
대명사	14398
데카	14399
표출	14400
민족주의	14401
시스터	14402
자유자재	14403
131	14404
벅스	14405
네모	14406
VR	14407
포트리스	14408
레스터	14409
별자리	14410
사사키	14411
제시카	14412
퍼시픽	14413
##일본	14414
쿠시	14415
상회	14416
소피	14417
입성	14418
꽝	14419
베토벤	14420
조폭	14421
발악	14422
##질기	14423
YOU	14424
파파	14425
가뜩이나	14426
배분	14427
UFC	14428
경신	14429
중전차	14430
광학	14431
오로라	14432
유토	14433
병단	14434
##날드	14435
옥타	14436
##카즈	14437
인벤토리	14438
Air	14439
부럽	14440
아몬	14441
끈질기	14442
광부	14443
악랄	14444
IDOL	14445
BF	14446
##르르	14447
##ma	14448
이노우에	14449
just	14450
실황	14451
애교	14452
이과	14453
양도	14454
피겨	14455
천도	14456
토착	14457
환원	14458
도미니	14459
흡연	14460
럼블	14461
아의	14462
극소수	14463
이가	14464
##투르	14465
인맥	14466
1928	14467
물들	14468
디에	14469
스티커	14470
초원	14471
GR	14472
다단	14473
솔로몬	14474
VOCALOID	14475
##수엘라	14476
포레	14477
##rain	14478
어드밴스	14479
##의사	14480
위즈	14481
티코	14482
쿠파	14483
##콰	14484
스타크	14485
사부	14486
사하	14487
품종	14488
깽판	14489
##쏠	14490
외무	14491
밉	14492
무림	14493
##oot	14494
연호	14495
빨강	14496
##니클	14497
헬스	14498
사우디아	14499
장타율	14500
선비	14501
인테르	14502
팔찌	14503
쏠쏠	14504
세간	14505
정유	14506
진가	14507
클라이	14508
천적	14509
츠루	14510
징징	14511
랜턴	14512
모터스	14513
수고	14514
응원가	14515
과부	14516
시중	14517
코타로	14518
당분	14519
이치고	14520
일보	14521
무어	14522
교란	14523
올라서	14524
Mod	14525
교육부	14526
태그팀	14527
운운	14528
안나	14529
##재판	14530
커리	14531
UM	14532
왠만	14533
플래닛	14534
새로이	14535
##ony	14536
명령어	14537
치명상	14538
경유지	14539
##셔츠	14540
what	14541
군벌	14542
##노이	14543
키사	14544
넓이	14545
여고생	14546
도도	14547
인내	14548
징병	14549
##ope	14550
##ren	14551
킹스	14552
본디	14553
재사	14554
col	14555
되살아나	14556
염소	14557
손아	14558
불러들이	14559
편대	14560
Che	14561
포털	14562
내려지	14563
총대	14564
메라	14565
아이언맨	14566
남구	14567
자주포	14568
???	14569
송도	14570
STER	14571
if	14572
Sound	14573
마커	14574
정인	14575
서드	14576
베네수엘라	14577
Hy	14578
걸작	14579
국력	14580
다나카	14581
스코프	14582
반갑	14583
피코	14584
단골	14585
ADV	14586
툼	14587
고어	14588
유목	14589
비늘	14590
##큘라	14591
미스트	14592
관제	14593
창병	14594
거주지	14595
방금	14596
방황	14597
금전	14598
종일	14599
샤크	14600
군중	14601
##ᆺ이	14602
취직	14603
철학자	14604
굴복	14605
초사	14606
도리어	14607
고폭탄	14608
알프레	14609
어우	14610
여도	14611
미끄러지	14612
전편	14613
예비군	14614
'''	14615
사교	14616
유수	14617
학업	14618
밀라노	14619
마이너스	14620
마사키	14621
두께	14622
담당자	14623
글러브	14624
교주	14625
왕궁	14626
##중국	14627
##쿠버	14628
진흙	14629
##던트	14630
뒤집히	14631
##사우	14632
위나라	14633
부풀	14634
노조미	14635
재팬	14636
무언	14637
국산	14638
마이트	14639
유교	14640
해인	14641
##서야	14642
제후	14643
상반기	14644
작별	14645
정중	14646
디디	14647
줄곧	14648
##슬라비아	14649
유고슬라비아	14650
야쿠자	14651
민국	14652
지기	14653
손녀	14654
DO	14655
부치	14656
##안군	14657
Vo	14658
진공	14659
토머스	14660
한심	14661
각색	14662
리노	14663
요동	14664
체질	14665
##원군	14666
치아	14667
알코올	14668
역설	14669
연주자	14670
추이	14671
프레데	14672
법무부	14673
##어먹	14674
원호	14675
##olog	14676
드라큘라	14677
광석	14678
사업자	14679
##iew	14680
타케시	14681
##덩	14682
컨테이너	14683
라지	14684
청색	14685
##UE	14686
에일리언	14687
광저우	14688
관습	14689
반다이	14690
박주	14691
미성년자	14692
노숙	14693
멀쩡히	14694
조장	14695
이치로	14696
##세데스	14697
휴일	14698
메르세데스	14699
안토니오	14700
##ana	14701
지망	14702
우시	14703
##무스	14704
덫	14705
황족	14706
##같이	14707
아이리스	14708
POP	14709
슈타인	14710
앞쪽	14711
카트리	14712
천계	14713
##데기	14714
프런트	14715
성추	14716
##UR	14717
아역	14718
직관	14719
광신	14720
##55	14721
여의도	14722
##쿠로	14723
육식	14724
연희	14725
만류	14726
서북	14727
샬	14728
문과	14729
의거	14730
화요일	14731
해커	14732
번영	14733
욕하	14734
벼슬	14735
재선	14736
양면	14737
##긍	14738
게재	14739
##AA	14740
사바	14741
##려드	14742
군산	14743
효력	14744
농도	14745
즐거	14746
##데아	14747
하세	14748
아치	14749
현명	14750
잉크	14751
학번	14752
카린	14753
전념	14754
EMP	14755
MD	14756
눈ᄊ	14757
망원경	14758
피어	14759
불멸	14760
가솔린	14761
카스미	14762
옵티머스	14763
주범	14764
토오루	14765
##드래	14766
해운대	14767
작아지	14768
로딩	14769
손바닥	14770
사쿠라이	14771
PVP	14772
고독	14773
저격총	14774
느냐는	14775
애플리케이션	14776
성채	14777
리투아	14778
고려대	14779
리투아니아	14780
night	14781
SO	14782
쿠노	14783
득점자	14784
유죄	14785
##의정	14786
플랫폼	14787
##ield	14788
타노스	14789
신디	14790
나날	14791
성주	14792
부회장	14793
경인	14794
친위대	14795
타협	14796
괴담	14797
칼럼	14798
재혼	14799
애프	14800
하이드	14801
뛰쳐	14802
##슬로	14803
회복력	14804
로망	14805
과실	14806
기한	14807
##제이	14808
타지	14809
사우디아라비아	14810
제식	14811
금기	14812
메꾸	14813
활주	14814
백합	14815
흑백	14816
레이터	14817
Cat	14818
행태	14819
CT	14820
후유증	14821
시한	14822
스테이트	14823
엇갈리	14824
링컨	14825
도널드	14826
##변속기	14827
오너	14828
삼각형	14829
매복	14830
이안	14831
친밀	14832
겉보기	14833
##즈루	14834
빼돌리	14835
트림	14836
##미아	14837
청량	14838
Not	14839
기와	14840
사위	14841
With	14842
하야토	14843
무작정	14844
App	14845
스루	14846
로드리	14847
조운	14848
다정	14849
수분	14850
좌익수	14851
한모	14852
don	14853
아산	14854
콜로니	14855
바주카	14856
##oon	14857
생사	14858
##거진	14859
게리온	14860
진작	14861
나우	14862
대용	14863
김전	14864
아야카	14865
골리	14866
##ᅳᆯ래시	14867
XP	14868
굳어지	14869
팔라딘	14870
대두	14871
일부분	14872
키워드	14873
임용	14874
사에	14875
##무장	14876
##패스	14877
제멋	14878
1924	14879
피라미드	14880
극찬	14881
펄스	14882
MASTER	14883
##천동	14884
빅터	14885
클리ᄇ	14886
먹방	14887
조율	14888
건의	14889
시그마	14890
스위트	14891
빌헬름	14892
총통	14893
이윽	14894
추대	14895
가치관	14896
이윽고	14897
선체	14898
박준	14899
되돌아가	14900
EA	14901
WE	14902
BAS	14903
ㅋㅋ	14904
양념	14905
텔레콤	14906
설레	14907
농어	14908
시력	14909
##시계	14910
가든	14911
가가	14912
안테	14913
##ouse	14914
##atale	14915
카무이	14916
미셸	14917
Run	14918
##어찌	14919
재해	14920
폴더	14921
way	14922
복종	14923
Hard	14924
브릿지	14925
브라더	14926
미타	14927
카세	14928
체조	14929
섭외	14930
니콜	14931
드라군	14932
시위대	14933
변종	14934
Femme	14935
인테	14936
보태	14937
광주광역시	14938
분사	14939
다인	14940
교구	14941
파고들	14942
이마트	14943
들려오	14944
그닥	14945
칭송	14946
1100	14947
조선일보	14948
RS	14949
빈사	14950
쟁탈	14951
액셀	14952
340	14953
아루	14954
가산	14955
중령	14956
초토	14957
언행	14958
##돼지	14959
참패	14960
탤	14961
클리블랜드	14962
부화	14963
소심	14964
벡	14965
##elf	14966
살라	14967
바하	14968
Rev	14969
낯설	14970
무찌	14971
명작	14972
##its	14973
보답	14974
##마사	14975
출입구	14976
얼핏	14977
마도사	14978
그놈	14979
##먹이	14980
어찌어찌	14981
성공회	14982
창원시	14983
1929	14984
추산	14985
대잠	14986
외출	14987
페로	14988
데이빗	14989
조세	14990
성폭행	14991
이ᄆ	14992
경장	14993
애당초	14994
위생	14995
서문	14996
폭발물	14997
한몫	14998
호대	14999
촉구	15000
미디	15001
##니치	15002
정장	15003
넵	15004
중앙선	15005
택배	15006
승부차기	15007
##튠	15008
도호쿠	15009
기요	15010
아종	15011
##레이드	15012
카도	15013
미지수	15014
확연히	15015
##야샤	15016
##언스	15017
이누야샤	15018
Da	15019
후타	15020
기병대	15021
뾰족	15022
전리품	15023
채무	15024
협곡	15025
협의회	15026
수렴	15027
버지	15028
##퀄	15029
수준급	15030
XXX	15031
일쑤	15032
학파	15033
투르	15034
HG	15035
무찌르	15036
껄	15037
##언정	15038
쾌속	15039
아그	15040
커브	15041
피신	15042
##맨더	15043
##방향	15044
의병	15045
##치오	15046
자연스레	15047
강적	15048
셀프	15049
여건	15050
연비	15051
바이스	15052
##라이어	15053
피곤	15054
마모루	15055
병살타	15056
스튜어트	15057
카자흐	15058
214	15059
셜록	15060
정적	15061
탈옥	15062
##먼드	15063
캡콤	15064
동남아시아	15065
위화	15066
패기	15067
종자	15068
효과음	15069
쇼핑몰	15070
안도	15071
봉황	15072
##저트	15073
Get	15074
접시	15075
추석	15076
설득력	15077
##Fatale	15078
다던가	15079
프랑켄	15080
소이	15081
명인	15082
CCTV	15083
FemmeFatale	15084
반말	15085
바늘	15086
든가	15087
수작	15088
동국	15089
겨누	15090
시구	15091
무의	15092
장래	15093
카가	15094
도전자	15095
진과	15096
듀엣	15097
가로지르	15098
서면	15099
##암동	15100
자잘	15101
근로자	15102
마징가	15103
단층	15104
예리	15105
공채	15106
이스터	15107
경위	15108
초식	15109
동물원	15110
콘스탄티노	15111
꾀하	15112
김전일	15113
신이치	15114
본문	15115
##ane	15116
선진국	15117
패트릭	15118
충주	15119
dis	15120
부츠	15121
직감	15122
입당	15123
릉	15124
##텁	15125
과다	15126
손흥	15127
광양	15128
박격포	15129
Elect	15130
입맛	15131
선교사	15132
대관	15133
물려주	15134
키퍼	15135
승기	15136
1925	15137
##ᆨ션	15138
환각	15139
정제	15140
동봉	15141
토탈	15142
##사의	15143
말장난	15144
141	15145
결별	15146
발효	15147
계보	15148
온화	15149
송구	15150
웨일스	15151
시동	15152
Song	15153
홈구장	15154
사각	15155
사용법	15156
제정신	15157
스폰지	15158
식신	15159
북유럽	15160
충성심	15161
##we	15162
제이스	15163
안치	15164
현행	15165
케네	15166
Ke	15167
이관	15168
하코	15169
순진	15170
꼭두	15171
분수	15172
##75	15173
기각	15174
수반	15175
##매매	15176
##득점	15177
쓸모없	15178
목성	15179
흑화	15180
순조	15181
익스프레스	15182
치중	15183
모라	15184
VIP	15185
가출	15186
오미	15187
특권	15188
알루미	15189
든든	15190
She	15191
씁	15192
압살	15193
발산	15194
유감	15195
타라	15196
손흥민	15197
마포	15198
##마이	15199
반칙	15200
##제리	15201
룽	15202
홍수	15203
포르노	15204
밸리	15205
안장	15206
유한	15207
들이대	15208
샌디	15209
아지트	15210
8000	15211
##무니	15212
310	15213
##미사	15214
대변인	15215
RG	15216
bl	15217
난전	15218
악세	15219
212	15220
발렌시아	15221
쓸데없	15222
대여	15223
앨리	15224
산지	15225
프레디	15226
송이	15227
윈스턴	15228
상권	15229
기만	15230
##컨대	15231
레트	15232
좀처럼	15233
쇼코	15234
착공	15235
액세서리	15236
SHOW	15237
구자	15238
침체	15239
##슘	15240
아즈사	15241
##투수	15242
1911	15243
니키	15244
##ecial	15245
퍼뜨리	15246
사다리	15247
호스트	15248
미라클	15249
완전체	15250
리포트	15251
육박	15252
향수	15253
집정관	15254
뮬	15255
생리	15256
술법	15257
트린	15258
스왑	15259
고장나	15260
매거진	15261
co	15262
레고	15263
빌미	15264
제비	15265
법령	15266
잠복	15267
##asy	15268
차세대	15269
키리토	15270
선발투수	15271
최전	15272
학창	15273
뒤틀리	15274
마작	15275
재사용	15276
걸어오	15277
메테오	15278
콧	15279
##MC	15280
가물	15281
콜라보레이션	15282
창출	15283
##그러지	15284
시애	15285
사설	15286
리조트	15287
수법	15288
호조	15289
대담	15290
체가	15291
마음껏	15292
비정	15293
만회	15294
##제품	15295
##아아	15296
웨이트	15297
시궁	15298
도르트	15299
에리카	15300
대강	15301
허세	15302
작물	15303
임창	15304
##히사	15305
정무	15306
불가사의	15307
어처	15308
##히트	15309
평정	15310
풀백	15311
렴	15312
Back	15313
가네	15314
설사	15315
격돌	15316
주주	15317
##츠루	15318
상정	15319
##부리	15320
엑소	15321
영락	15322
##눅스	15323
김인	15324
RAW	15325
최면	15326
##투표	15327
##ORE	15328
비석	15329
혼종	15330
1917	15331
##주곡	15332
수레	15333
##쿤	15334
성취	15335
폭사	15336
미츠루	15337
단테	15338
베라	15339
과반	15340
농부	15341
오리콘	15342
호노카	15343
편제	15344
콩고	15345
제이크	15346
##조각	15347
김혜	15348
##지대	15349
삽화	15350
##ze	15351
사마의	15352
제구	15353
##폴리스	15354
탐욕	15355
##나가와	15356
저번	15357
##원수	15358
Ang	15359
Big	15360
##66	15361
석궁	15362
아세	15363
Comm	15364
원동	15365
앞장	15366
시애틀	15367
##도니아	15368
작살	15369
1927	15370
입학식	15371
꼭대기	15372
스플래시	15373
순교자	15374
늘어지	15375
부합	15376
백미	15377
틀어지	15378
Cy	15379
DT	15380
알루미늄	15381
선천	15382
운전자	15383
480	15384
리눅스	15385
##용차	15386
디트로	15387
사과문	15388
디트로이트	15389
만두	15390
교감	15391
가즈	15392
자택	15393
##크로스	15394
##ᆺ거리	15395
암석	15396
포화	15397
광화	15398
시엘	15399
소인	15400
애리	15401
부두	15402
홍대	15403
720	15404
world	15405
스크래치	15406
존댓말	15407
지바	15408
팔레스타인	15409
악보	15410
공직	15411
탄종	15412
부추기	15413
낙원	15414
##유산	15415
SW	15416
거물	15417
승계	15418
##벨트	15419
검찰청	15420
선명	15421
##짜기	15422
##ness	15423
해협	15424
넘쳐	15425
와우	15426
무자비	15427
매입	15428
불사조	15429
##요환	15430
틀림	15431
다라	15432
##그램	15433
라거나	15434
방대	15435
##양군	15436
##라이터	15437
수배	15438
크로니클	15439
동포	15440
양동	15441
열풍	15442
##웬	15443
블레이즈	15444
항로	15445
겸임	15446
##ke	15447
대전광역시	15448
인민군	15449
강당	15450
##EX	15451
신민	15452
사상자	15453
느냐고	15454
민병대	15455
개종	15456
화장품	15457
황자	15458
##트럼	15459
스칼렛	15460
##ton	15461
007	15462
어처구니	15463
젤다	15464
##포로	15465
팔꿈치	15466
다이어트	15467
정시	15468
차출	15469
##카스	15470
왼팔	15471
가까스로	15472
Every	15473
하드코어	15474
김세	15475
임요환	15476
전복	15477
white	15478
되돌아오	15479
아픔	15480
전염병	15481
##옌	15482
##평군	15483
프리즈	15484
더스트	15485
국무총리	15486
듀티	15487
420	15488
손수	15489
su	15490
서점	15491
목표물	15492
당당히	15493
제이드	15494
##ny	15495
와이드	15496
조선인	15497
속삭	15498
매트	15499
투여	15500
파열	15501
까먹	15502
정류소	15503
휩쓸	15504
Arm	15505
스릴러	15506
영분	15507
볼텍스	15508
아우구	15509
##예프	15510
##패드	15511
송병	15512
스케치	15513
거스	15514
사절	15515
박병	15516
아벨	15517
0000	15518
첩보	15519
##sc	15520
##appy	15521
난동	15522
로마자	15523
구이	15524
에덴	15525
인디언	15526
커네	15527
자위대	15528
다이브	15529
con	15530
유니버	15531
즘	15532
흘러나오	15533
위임	15534
##평가	15535
##페스트	15536
비대	15537
That	15538
##비히	15539
우익수	15540
##지리아	15541
적정	15542
네메	15543
나이지리아	15544
대장군	15545
나지	15546
헤딩	15547
바바	15548
스트라	15549
GDP	15550
한조	15551
##선거	15552
ᆫ다면서	15553
마더	15554
김미	15555
선공	15556
도르트문트	15557
해밀	15558
사이퍼	15559
##부대	15560
심부	15561
TB	15562
이민자	15563
위조	15564
괴로	15565
행선	15566
두텁	15567
커먼	15568
자라나	15569
마고	15570
강남구	15571
어비스	15572
가제	15573
분교	15574
이에야스	15575
게ᄋ	15576
열받	15577
나주	15578
유쾌	15579
기총	15580
바트	15581
##28	15582
처단	15583
플러그	15584
지아	15585
##무진	15586
##인간	15587
시저	15588
유체	15589
##틱스	15590
폿	15591
메커	15592
비약	15593
체르	15594
모티	15595
페인트	15596
서커스	15597
Har	15598
클로즈	15599
유명세	15600
스펙트럼	15601
전태	15602
합방	15603
원산	15604
망자	15605
##픈	15606
동대문	15607
에니	15608
어휘	15609
코이치	15610
격노	15611
대한항공	15612
심포	15613
##드릭	15614
화수	15615
배척	15616
##쓸리	15617
카야	15618
Amer	15619
주작	15620
##작전	15621
##네트	15622
휩쓸리	15623
총사령관	15624
##UC	15625
의미심장	15626
대각선	15627
##파니	15628
##RAM	15629
##노프	15630
류현진	15631
랫	15632
레이크	15633
노후	15634
입상	15635
독재자	15636
동거	15637
떠들	15638
KS	15639
센트	15640
##바ᄁ	15641
히로유키	15642
##24	15643
이따	15644
클락	15645
##ᆷ비	15646
오버로드	15647
주성	15648
qu	15649
보유자	15650
Order	15651
정현	15652
서재	15653
UR	15654
으라는	15655
캬	15656
아론	15657
주군	15658
토의	15659
매트릭스	15660
요크	15661
리젠	15662
방랑	15663
신종	15664
##애미	15665
늘어놓	15666
국수	15667
능동	15668
마이애미	15669
##노기	15670
##발리	15671
프랭클린	15672
침식	15673
Des	15674
1926	15675
##35	15676
모건	15677
마늘	15678
##모자	15679
활주로	15680
미련	15681
서경	15682
유추	15683
송파	15684
발령	15685
경이	15686
역기	15687
크리스토퍼	15688
낭만	15689
안드로메다	15690
상경	15691
단신	15692
빡빡	15693
소셜	15694
야하	15695
미얀	15696
##니지	15697
프리스트	15698
대머리	15699
조회	15700
사토시	15701
후일담	15702
숙종	15703
##AG	15704
새해	15705
퇴근	15706
기라	15707
리액션	15708
정규군	15709
##비우스	15710
마카오	15711
채굴	15712
Skill	15713
내려놓	15714
관광지	15715
무협	15716
라운	15717
Pe	15718
치타	15719
출세	15720
가변	15721
사비	15722
올리버	15723
일직	15724
비밀리	15725
김정일	15726
토요타	15727
스탠다드	15728
나가사키	15729
케네디	15730
문의	15731
태연	15732
시즈카	15733
##니트	15734
복권	15735
벌칙	15736
브로드	15737
씁쓸	15738
병영	15739
합산	15740
지체	15741
김준호	15742
인즈	15743
##운전	15744
버금	15745
일찍이	15746
토네이	15747
토네이도	15748
허영	15749
단말기	15750
>,	15751
산호	15752
##chor	15753
게이밍	15754
단거리	15755
당분간	15756
##자스	15757
개화	15758
춘추	15759
인스	15760
선발전	15761
비행선	15762
마는	15763
PSP	15764
카트라이	15765
열전	15766
메소	15767
공병	15768
사이오	15769
##실히	15770
te	15771
자석	15772
누마	15773
장학금	15774
중산	15775
디테일	15776
좀비	15777
##각시	15778
옥스	15779
장단	15780
윤종	15781
##트르	15782
##비언	15783
온전히	15784
소아	15785
추월	15786
교원	15787
##ious	15788
208	15789
성추행	15790
오재	15791
무로	15792
Tri	15793
졸개	15794
속옷	15795
송라이터	15796
크루세이	15797
난폭	15798
란트	15799
푸드	15800
간식	15801
듬	15802
장녀	15803
튜브	15804
Act	15805
##느니	15806
##위치	15807
##넓	15808
리브	15809
235	15810
와이어	15811
왕녀	15812
마장	15813
커터	15814
NS	15815
##자카	15816
판본	15817
항쟁	15818
국정원	15819
조비	15820
연평	15821
##즈마	15822
Top	15823
상대편	15824
난해	15825
GL	15826
애틀랜타	15827
느긋	15828
##타자	15829
어로	15830
눌	15831
서스	15832
자부심	15833
영화판	15834
석화	15835
펜스	15836
교재	15837
태고	15838
상고	15839
게르만	15840
공전	15841
노랑	15842
후작	15843
세이부	15844
##빠르	15845
Em	15846
사역	15847
##ert	15848
갈고리	15849
##pl	15850
피크	15851
양아치	15852
시노부	15853
지독	15854
나나미	15855
짤방	15856
박세	15857
다이묘	15858
서부터	15859
케르	15860
이어인	15861
171	15862
##스트ᄅ	15863
##net	15864
가차	15865
플레이트	15866
##이언트	15867
RF	15868
##정동	15869
법조	15870
Str	15871
클라이언트	15872
850	15873
이의	15874
##괘	15875
비숍	15876
내년	15877
초급	15878
수산	15879
연기자	15880
1922	15881
마그마	15882
비틀즈	15883
자의	15884
##상스	15885
##피어	15886
아델	15887
괴도	15888
갑판	15889
에프	15890
##단체	15891
구세	15892
알파벳	15893
빡세	15894
조슈	15895
항소	15896
주권	15897
##ient	15898
화랑	15899
줄리아	15900
##힘	15901
끊이	15902
##co	15903
주스	15904
대적	15905
라이터	15906
가쿠	15907
##개골	15908
비욘	15909
가메	15910
##olution	15911
역전승	15912
위저	15913
찬사	15914
1923	15915
켄타	15916
초연	15917
헌데	15918
체이스	15919
각본가	15920
동독	15921
카터	15922
데이브	15923
관대	15924
##ᆼ크	15925
트리오	15926
제멋대로	15927
소량	15928
츠카사	15929
거슬리	15930
나탈	15931
모기	15932
야채	15933
직계	15934
밀러	15935
TCG	15936
불운	15937
올라타	15938
##르바	15939
데스크	15940
잔당	15941
FX	15942
샤아	15943
프라이즈	15944
##바위	15945
클라우	15946
유행어	15947
스펙터	15948
조인	15949
주임	15950
햇빛	15951
헌병	15952
##끝	15953
오드	15954
##정역	15955
오아	15956
255	15957
UFO	15958
FR	15959
##고쿠	15960
리오스	15961
##bps	15962
자아내	15963
이송	15964
크롤	15965
##둘기	15966
보전	15967
용품	15968
##ᆫ곡	15969
근래	15970
안중	15971
##IST	15972
투기	15973
영창	15974
포유	15975
의리	15976
래스	15977
##ret	15978
206	15979
일선	15980
유세	15981
미완	15982
정경	15983
쉘	15984
천문학	15985
나츠미	15986
타쿠미	15987
중공업	15988
앞마당	15989
영기	15990
미분	15991
노사	15992
요일	15993
##모사	15994
##푸스	15995
성남시	15996
cl	15997
진전	15998
왕따	15999
중심부	16000
편집자	16001
NL	16002
수년	16003
형법	16004
와일드카드	16005
'-	16006
동유럽	16007
들려주	16008
브라우저	16009
튜너	16010
버디	16011
왕립	16012
##ideo	16013
해결책	16014
로페	16015
구치	16016
데프	16017
Ab	16018
LCD	16019
##ner	16020
쏠리	16021
드레이크	16022
중얼거리	16023
골대	16024
등산	16025
청주시	16026
데뷔작	16027
최진	16028
가중	16029
요지	16030
독립운동가	16031
##서리	16032
법정동	16033
호우	16034
1921	16035
마츠모토	16036
Bea	16037
럽	16038
연방군	16039
신한은행	16040
##나들	16041
삿포로	16042
메커니즘	16043
주름	16044
기통	16045
서남	16046
##로프	16047
정직	16048
..'	16049
LS	16050
앤더슨	16051
커트	16052
EXH	16053
생계	16054
키메라	16055
외교관	16056
면은	16057
한가	16058
디비	16059
루즈	16060
이제동	16061
##ful	16062
왕건	16063
오일	16064
패거리	16065
떨어트리	16066
초동	16067
##토록	16068
ve	16069
어중간	16070
구애	16071
리비아	16072
노동조합	16073
거듭나	16074
Fre	16075
데일리	16076
PO	16077
우로	16078
버니	16079
부르크	16080
오바마	16081
##그로	16082
내무	16083
알아듣	16084
경호원	16085
God	16086
한인	16087
off	16088
세단	16089
선하	16090
경관	16091
파드	16092
290	16093
Bar	16094
Met	16095
##튀기	16096
평지	16097
##ham	16098
텐션	16099
내심	16100
두드리	16101
스플릿	16102
##스란	16103
벨벳	16104
333	16105
Sil	16106
리바이	16107
특출	16108
체류	16109
Hot	16110
##ward	16111
##소통	16112
불분	16113
뻥튀기	16114
는군	16115
우메	16116
고모	16117
특공대	16118
##ning	16119
영국인	16120
209	16121
의사소통	16122
부메	16123
작렬	16124
어지간히	16125
미하일	16126
자며	16127
유민	16128
##호도	16129
지출	16130
규명	16131
##ERS	16132
##겨지	16133
이승엽	16134
포괄	16135
원제	16136
##캐슬	16137
과잉	16138
드리프트	16139
##캐스트	16140
쭈	16141
DEF	16142
중소기업	16143
##son	16144
힌두	16145
대한제국	16146
이지스	16147
##사우루스	16148
산출	16149
성종	16150
215	16151
레미	16152
시르	16153
마천	16154
말라	16155
치부	16156
재상	16157
항우	16158
엘런	16159
##버릇	16160
AMD	16161
##어들이	16162
Inf	16163
관악	16164
볼프	16165
##밟	16166
정진	16167
메아리	16168
부딪치	16169
뉴캐슬	16170
본ᄀ	16171
켄이치	16172
팽창	16173
희미	16174
##day	16175
로버	16176
정종	16177
진해	16178
우즈베	16179
대리인	16180
의류	16181
##조선	16182
##인드	16183
인장	16184
부메랑	16185
Char	16186
애덤	16187
팩토리	16188
나시	16189
수영장	16190
단단히	16191
여리	16192
채권	16193
##mania	16194
러시아군	16195
Rain	16196
대의	16197
불분명	16198
판도라	16199
자정	16200
이신	16201
선풍	16202
##츠라	16203
꼭두각시	16204
후려	16205
통역	16206
토와	16207
탄수	16208
친근	16209
TD	16210
푸른	16211
버지니아	16212
##틀링	16213
레비	16214
송곳	16215
RAM	16216
궁정	16217
받침	16218
1912	16219
자치구	16220
햄버	16221
코지마	16222
증원	16223
바람직	16224
절묘	16225
자연수	16226
마우	16227
줄줄이	16228
kn	16229
수료	16230
동선	16231
White	16232
Ext	16233
무난히	16234
주립	16235
동산	16236
토템	16237
재화	16238
척추	16239
마케도니아	16240
##교도	16241
가창력	16242
기겁	16243
치밀	16244
##let	16245
##뮤직	16246
저렇	16247
##au	16248
탈리	16249
경상도	16250
이분	16251
의약	16252
도보	16253
충동	16254
김제	16255
만화가	16256
가세	16257
##ATION	16258
우투	16259
최성	16260
뇌격	16261
소음기	16262
로니	16263
경의	16264
##마드	16265
외야	16266
##렉트	16267
주시	16268
##ERT	16269
전폭	16270
성녀	16271
두개골	16272
바사	16273
익명	16274
##선스	16275
소중히	16276
##숭	16277
최적화	16278
자드	16279
서유럽	16280
##생물	16281
급여	16282
르네상스	16283
인기투표	16284
제레	16285
안테나	16286
마드	16287
수주	16288
세토	16289
발도	16290
코나미	16291
헤라클레스	16292
창간	16293
버즈	16294
트레이서	16295
애리조	16296
음양	16297
##마트	16298
여행자	16299
Are	16300
괴멸	16301
시발	16302
##oud	16303
뮤즈	16304
마취	16305
젯	16306
갭	16307
May	16308
KD	16309
그물	16310
알맞	16311
간장	16312
포이	16313
오마주	16314
사생활	16315
성령	16316
기판	16317
자음	16318
시궁창	16319
다구	16320
심슨	16321
FE	16322
되려	16323
라이선스	16324
##곡리	16325
STAR	16326
건너편	16327
FN	16328
주부	16329
##ump	16330
셔츠	16331
비평가	16332
Pop	16333
분과	16334
나루호도	16335
세무	16336
데이즈	16337
최우선	16338
버금가	16339
피고인	16340
1400	16341
초중	16342
잔여	16343
점포	16344
런닝맨	16345
다마	16346
루드	16347
금하	16348
랜디	16349
공시	16350
심플	16351
프란츠	16352
샤이닝	16353
배럴	16354
저스틴	16355
탬	16356
명확히	16357
영재	16358
고스란	16359
##대표	16360
헌납	16361
이치카	16362
이시다	16363
고스란히	16364
이트	16365
이목	16366
때우	16367
권역	16368
투항	16369
덩크	16370
무심	16371
현수	16372
기생충	16373
노프	16374
##대군	16375
스노	16376
207	16377
데이터베이스	16378
아이리	16379
창세기	16380
트레인	16381
무네	16382
계승자	16383
나츠키	16384
위화감	16385
위인	16386
어린애	16387
##여행	16388
anchor	16389
마오쩌	16390
마오쩌둥	16391
최재	16392
청문	16393
성동	16394
제품군	16395
러블리	16396
##살이	16397
빈스	16398
##트림	16399
only	16400
want	16401
down	16402
##플러	16403
군단장	16404
헛소리	16405
앞장서	16406
##실록	16407
ᆯ지도	16408
이시카와	16409
##메르	16410
**	16411
다이렉트	16412
every	16413
##하늘	16414
##도스	16415
유다	16416
심심찮	16417
시크	16418
긴장감	16419
##니케이션	16420
아르테	16421
PA	16422
안식	16423
##EE	16424
로로	16425
신촌	16426
##내기	16427
키바	16428
커뮤니케이션	16429
##22	16430
대도	16431
치세	16432
비하인드	16433
ᆯ게요	16434
북서쪽	16435
공석	16436
고갈	16437
##88	16438
경시	16439
맞춤	16440
급진	16441
##ᆯ트	16442
제각	16443
월터	16444
우사	16445
랄까	16446
인피니트	16447
##ves	16448
##ᅪᆫ	16449
북두	16450
단다	16451
감도	16452
정연	16453
리언	16454
##엠	16455
Game	16456
역관	16457
Master	16458
##떼	16459
도메인	16460
자재	16461
감속	16462
161	16463
##리안	16464
##밑	16465
공적	16466
##산면	16467
며느리	16468
##슬란드	16469
조부	16470
##ape	16471
ᄇ시다	16472
장막	16473
체로	16474
문호	16475
수리검	16476
애프터	16477
스트레이트	16478
슬레이	16479
##마츠	16480
yout	16481
아이슬란드	16482
멧돼지	16483
경합	16484
간첩	16485
##블랑	16486
Joh	16487
황무지	16488
유부	16489
사단장	16490
로자	16491
길목	16492
대입	16493
##매니아	16494
##켜	16495
##게이	16496
OR	16497
more	16498
사시	16499
원로원	16500
TN	16501
##HD	16502
찾아다니	16503
여객철도	16504
라리	16505
##석기	16506
유우야	16507
터무니	16508
Open	16509
개틀링	16510
절약	16511
남원	16512
오스틴	16513
플라워	16514
김태균	16515
요양	16516
Cont	16517
##less	16518
체내	16519
사카모토	16520
극동	16521
구스타	16522
리시	16523
오덕	16524
제명	16525
##드래곤	16526
라데	16527
국물	16528
민속	16529
오퍼레이터	16530
몸체	16531
퀑	16532
Bu	16533
멸자	16534
한결	16535
열렬	16536
쿼드	16537
##피탈	16538
전과	16539
급제	16540
하렘	16541
##밖	16542
펠트	16543
조니	16544
휘둘	16545
심리전	16546
IDOLM	16547
과하	16548
무언가	16549
카트라이더	16550
기압	16551
부녀	16552
흑룡	16553
조로	16554
명하	16555
박기	16556
레코	16557
스패	16558
구스	16559
숙명	16560
랄프	16561
경전철	16562
##ien	16563
설문	16564
##ift	16565
하데스	16566
기공	16567
##소타	16568
COM	16569
서울역	16570
Hea	16571
가야	16572
지갑	16573
호타	16574
##도사	16575
무법	16576
사병	16577
이범	16578
혈관	16579
##zy	16580
불가피	16581
체하	16582
모로코	16583
제네시스	16584
단연	16585
체급	16586
절감	16587
해발	16588
they	16589
만화책	16590
##ANC	16591
수뇌	16592
충실히	16593
일생	16594
촛불	16595
케어	16596
엠파이어	16597
경희대	16598
##ᆫ강	16599
운임	16600
몸집	16601
농어촌	16602
end	16603
분전	16604
언론사	16605
##ship	16606
머들	16607
나기사	16608
즉석	16609
냐면서	16610
하천	16611
부설	16612
정선	16613
병맛	16614
##돔	16615
ᆫ대	16616
티탄	16617
미네소타	16618
강령	16619
간편	16620
오스카	16621
##푼	16622
이라든가	16623
발병	16624
콘테스트	16625
##지물	16626
520	16627
회자	16628
준장	16629
오반	16630
쿠미	16631
##뚤	16632
유시	16633
한중	16634
레베	16635
복부	16636
명품	16637
예하	16638
TG	16639
통근	16640
DA	16641
이장	16642
몰아치	16643
여대	16644
##파르	16645
뛰어다니	16646
##led	16647
감시자	16648
선별	16649
모리스	16650
는데도	16651
##현동	16652
로미	16653
##부짖	16654
울부짖	16655
섭정	16656
아란	16657
전용기	16658
터리	16659
탤런트	16660
##갱	16661
그토록	16662
너구리	16663
외래어	16664
보단	16665
##감치	16666
##lock	16667
##위원	16668
##찌감치	16669
행동력	16670
칼리지	16671
##ize	16672
영화관	16673
신령	16674
재빠르	16675
아만	16676
발자	16677
##형제	16678
비둘기	16679
Bra	16680
톱니	16681
후하	16682
막스	16683
관용	16684
행각	16685
걸스	16686
##LD	16687
활기	16688
헤더	16689
시프트	16690
성검	16691
붙여지	16692
NG	16693
특색	16694
민지	16695
정착지	16696
크러	16697
들통	16698
GAM	16699
반죽	16700
역전패	16701
댈러스	16702
티나	16703
반자동	16704
연장전	16705
pl	16706
멱	16707
조나	16708
온전	16709
리포	16710
카르타	16711
카에데	16712
머스	16713
나데	16714
끝판	16715
다이빙	16716
익스트림	16717
차마	16718
폐하	16719
필기	16720
##또	16721
노마	16722
시세	16723
##법인	16724
메이크	16725
Moon	16726
기린	16727
서약	16728
순차	16729
음식점	16730
무패	16731
노스케	16732
장대	16733
솔리드	16734
Like	16735
등용	16736
세츠나	16737
WAR	16738
설립자	16739
소망	16740
##omb	16741
1907	16742
구만	16743
자선	16744
세속	16745
##ited	16746
임페	16747
헤일	16748
##뿌리	16749
Yeah	16750
##ᆺ빛	16751
맞대결	16752
Bad	16753
욘	16754
Project	16755
성급	16756
피버	16757
치소	16758
김택용	16759
짓밟	16760
컬럼	16761
Off	16762
세련	16763
단번에	16764
옥수수	16765
좌석버스	16766
##꿀	16767
종속	16768
하얀색	16769
학부모	16770
위태	16771
크림슨	16772
##미리	16773
ㅏ요	16774
다트	16775
콜리	16776
뿜어내	16777
news	16778
##오피아	16779
피니시	16780
에티오피아	16781
트레버	16782
생포	16783
재차	16784
완패	16785
##ita	16786
1905	16787
전투원	16788
헤지	16789
붉은색	16790
##45	16791
천연가스	16792
Sky	16793
##준호	16794
당근	16795
##교회	16796
대지진	16797
Med	16798
선상	16799
산산	16800
마비노기	16801
정국	16802
태후	16803
순순	16804
백지	16805
교직원	16806
레닌	16807
메츠	16808
우이	16809
독도	16810
패미컴	16811
토사	16812
출생지	16813
이유로	16814
다이스	16815
도타	16816
검거	16817
마르티	16818
자위	16819
포진	16820
직면	16821
알비	16822
##똥	16823
##릭	16824
구비	16825
##열차	16826
터미네이터	16827
플라잉	16828
7000	16829
부통령	16830
남아공	16831
전라도	16832
Now	16833
섹터	16834
루시퍼	16835
원나라	16836
항속	16837
##row	16838
##부르	16839
노브	16840
마자	16841
치키	16842
Comp	16843
TF	16844
락스	16845
소주	16846
##람쥐	16847
밴시	16848
성품	16849
##즐리	16850
인분	16851
신공	16852
막시	16853
##렁이	16854
유스케	16855
조개	16856
비범	16857
치과	16858
결선	16859
##고루	16860
회유	16861
Battle	16862
코팅	16863
##ute	16864
바실리	16865
서스펜	16866
배고	16867
칸나	16868
드미	16869
이북	16870
아이오	16871
스몰	16872
감염자	16873
수족	16874
불허	16875
##소니	16876
검출	16877
##ALL	16878
일갈	16879
이상민	16880
221	16881
이탈리아어	16882
##문화재	16883
읊	16884
원상	16885
팰	16886
성유	16887
불안감	16888
브래드	16889
Way	16890
계약자	16891
이메일	16892
착취	16893
##브러리	16894
관현	16895
와타루	16896
척하	16897
##낮	16898
부상자	16899
브리핑	16900
##vent	16901
JC	16902
독설	16903
응징	16904
자기장	16905
##기어	16906
##조작	16907
눈부시	16908
그지	16909
청취	16910
1300	16911
단간	16912
관세	16913
벨리	16914
지폐	16915
우동	16916
야자	16917
돌풍	16918
사업가	16919
연대기	16920
일간	16921
희박	16922
멀린	16923
장려	16924
밝혀	16925
종로구	16926
Soul	16927
업자	16928
경영학	16929
힘겹	16930
체구	16931
비행장	16932
은가	16933
##내셔널	16934
정부군	16935
인터내셔널	16936
정관	16937
승부조작	16938
기염	16939
##stem	16940
협공	16941
Special	16942
##드류	16943
over	16944
팀킬	16945
노원	16946
릭스	16947
빈센트	16948
붕대	16949
알제리	16950
세비	16951
폴라	16952
##준혁	16953
순순히	16954
아틀	16955
파병	16956
Po	16957
TEC	16958
이로	16959
남짓	16960
전투복	16961
온게임	16962
온게임넷	16963
##ENT	16964
이바	16965
눈썹	16966
##장구	16967
빼놓	16968
777	16969
다발	16970
순례	16971
이어폰	16972
소탕	16973
##시온	16974
번거	16975
비서관	16976
화합물	16977
벤츠	16978
아데	16979
개관	16980
디에고	16981
엘라	16982
벌어들이	16983
FBI	16984
BASIC	16985
모치	16986
DDR	16987
톡톡	16988
신탁	16989
누락	16990
##rop	16991
사카이	16992
다듬	16993
픽처	16994
##96	16995
노보	16996
산체스	16997
스켈	16998
휘둘리	16999
##ORM	17000
wiz	17001
~'	17002
태백	17003
순항	17004
빵빵	17005
마코	17006
TT	17007
산림	17008
솔루션	17009
니즘	17010
날아오르	17011
졸리	17012
##관계	17013
바이올렛	17014
일직선	17015
##ling	17016
##xt	17017
음란	17018
합금	17019
아틀라스	17020
##com	17021
오모	17022
네타	17023
프라이드	17024
플랑	17025
지못	17026
흉터	17027
지못미	17028
반대쪽	17029
하늘색	17030
Alb	17031
음모론	17032
타츠야	17033
미얀마	17034
경비원	17035
바깥쪽	17036
초회	17037
멕	17038
꼼짝	17039
매도	17040
앵글	17041
낙하산	17042
하버드	17043
파나	17044
외침	17045
......	17046
여느	17047
무모	17048
올리브	17049
송신	17050
갱단	17051
크레이지	17052
성원	17053
##웹	17054
튀김	17055
관건	17056
밝혀내	17057
밸브	17058
급증	17059
얀데레	17060
good	17061
아쉬워하	17062
저력	17063
213	17064
성범죄	17065
##산리	17066
짤막	17067
양육	17068
티타	17069
둔화	17070
설교	17071
탈주	17072
나뭇잎	17073
Cent	17074
##촬	17075
형벌	17076
호라이	17077
##oney	17078
북동쪽	17079
엠블ᄅ	17080
카즈키	17081
무당	17082
##의지	17083
피쳐	17084
반납	17085
재주	17086
양지	17087
덮이	17088
미코	17089
타가	17090
##드루	17091
박민	17092
전위	17093
티셔츠	17094
진행하	17095
류지	17096
향년	17097
고고학	17098
Bur	17099
중사	17100
한족	17101
김현수	17102
하시모토	17103
깁	17104
차크라	17105
성운	17106
##타기	17107
라이브러리	17108
이달	17109
에테르	17110
방어전	17111
내려찍	17112
조현	17113
라든지	17114
파기	17115
악인	17116
추위	17117
스피리	17118
지도부	17119
성가시	17120
통학	17121
외환	17122
히코	17123
275	17124
짊	17125
막말	17126
##어내리	17127
세이지	17128
만장	17129
WCS	17130
린다	17131
언론인	17132
샌드박스	17133
다이크	17134
1908	17135
##가타	17136
인승	17137
연화	17138
앤드류	17139
마호	17140
헬로	17141
##UB	17142
졸지	17143
##ude	17144
이남	17145
드래곤즈	17146
화속	17147
평의회	17148
박태	17149
백수	17150
223	17151
재발	17152
아날	17153
시베리아	17154
추상	17155
사납	17156
탈탈	17157
네메시스	17158
##line	17159
거행	17160
일정량	17161
##트루	17162
신봉	17163
거창	17164
일파	17165
##방식	17166
사죄	17167
샤르	17168
beatmania	17169
성희	17170
강호동	17171
본거	17172
친왕	17173
명백히	17174
카자흐스탄	17175
개드립	17176
급상	17177
넵튠	17178
ac	17179
미카엘	17180
블랑	17181
Dragon	17182
쪽지	17183
##eng	17184
제너럴	17185
데니스	17186
##play	17187
사오	17188
반달	17189
거머	17190
유노	17191
장지	17192
미달	17193
이나즈마	17194
Hey	17195
NAS	17196
##핍	17197
급습	17198
밴쿠버	17199
환불	17200
울버	17201
참모총장	17202
루리웹	17203
수퍼	17204
구라	17205
증진	17206
티모	17207
WOR	17208
니즈	17209
민사	17210
죄인	17211
##미츠	17212
분비	17213
대구광역시	17214
##일관	17215
뭣	17216
본거지	17217
저명	17218
이천	17219
마사무네	17220
베풀	17221
는구나	17222
빽	17223
생방송	17224
이끌리	17225
수차례	17226
특촬	17227
아랍어	17228
막아서	17229
추론	17230
투르크	17231
임프	17232
탈것	17233
##lt	17234
제국주의	17235
여하	17236
조문	17237
구루	17238
레그	17239
Eng	17240
밀양	17241
전갈	17242
이도	17243
부피	17244
ᆫ다든가	17245
패권	17246
눕히	17247
칠흑	17248
Int	17249
코로	17250
our	17251
##고스	17252
황소	17253
##뜸	17254
고하	17255
초전	17256
##시즘	17257
365	17258
일컬	17259
가주	17260
햄버거	17261
연성	17262
레프트	17263
001	17264
##나우	17265
스투	17266
극성	17267
자자	17268
##틸	17269
어우러지	17270
해프	17271
증강	17272
쿠퍼	17273
엠마	17274
강서구	17275
바래	17276
본드	17277
사서	17278
다량	17279
유역	17280
코일	17281
##ᆯ린더	17282
스탠딩	17283
햐	17284
##맵	17285
팬클럽	17286
##23	17287
변모	17288
버퍼	17289
현무	17290
승하	17291
돌기	17292
복식	17293
지탱	17294
##독부	17295
민심	17296
보스니아	17297
리더십	17298
래쉬	17299
매점	17300
행군	17301
##규어	17302
처방	17303
미유	17304
부기	17305
Ass	17306
수당	17307
철벽	17308
폐위	17309
정주	17310
테슬라	17311
쌔	17312
시연	17313
자결	17314
일괄	17315
액트	17316
베이커	17317
슬라이딩	17318
가신	17319
##가요	17320
반주	17321
파괴자	17322
대장장이	17323
포자	17324
코브라	17325
결단	17326
호르몬	17327
##27	17328
마레	17329
중의원	17330
사주	17331
퇴임	17332
폭군	17333
##ata	17334
넘쳐나	17335
치히로	17336
baby	17337
사이먼	17338
케니	17339
##벅지	17340
충무	17341
IF	17342
조원	17343
생식	17344
드러머	17345
일찌감치	17346
#,	17347
감마	17348
원어	17349
##두근	17350
일개	17351
미용	17352
스탠스	17353
전령	17354
##방사기	17355
370	17356
화염방사기	17357
수납	17358
장동민	17359
라파엘	17360
아카기	17361
##닥치	17362
관전	17363
부적절	17364
광동	17365
겸비	17366
##스코	17367
자가	17368
만년	17369
왕세	17370
동아일보	17371
미처	17372
머무	17373
하남	17374
래리	17375
토토	17376
골짜기	17377
쩌	17378
왕성	17379
국내외	17380
방사선	17381
해지	17382
속사	17383
두각	17384
럭스	17385
"'	17386
영령	17387
문성	17388
##아내리	17389
##영향	17390
보급품	17391
에로게	17392
오주	17393
골리앗	17394
Last	17395
손책	17396
트리스	17397
see	17398
카논	17399
해프닝	17400
##IGHT	17401
##ius	17402
라일	17403
Yes	17404
사생	17405
##디우스	17406
암기	17407
##짖	17408
최하위	17409
밀가루	17410
Best	17411
아디	17412
만성	17413
근위	17414
타오르	17415
뒤쳐지	17416
총애	17417
슬쩍	17418
미나토	17419
부전	17420
##FFF	17421
번번	17422
탄두	17423
희생양	17424
써니	17425
클로버	17426
##원지	17427
란다	17428
블루투스	17429
[...]
