[UNK]
[CLS]
[SEP]
[PAD]
[MASK]
!
"
#
$
%
&
'
(
)
*
+
,
-
.
/
0
1
2
3
4
5
6
7
8
9
:
;
<
=
>
?
@
A
B
C
D
E
F
G
H
I
J
K
L
M
N
O
P
Q
R
S
T
U
V
W
X
Y
Z
[
\
]
^
_
`
a
b
c
d
e
f
g
h
i
j
k
l
m
n
o
p
q
r
s
t
u
v
w
x
y
z
{
|
}
~

ᄀ
ᄁ
ᄂ
ᄃ
ᄄ
ᄅ
ᄆ
ᄇ
ᄈ
ᄉ
ᄊ
ᄋ
ᄌ
ᄍ
ᄎ
ᄏ
ᄐ
ᄑ
ᄒ
ᅡ
ᅢ
ᅣ
ᅤ
ᅥ
ᅦ
ᅧ
ᅨ
ᅩ
ᅪ
ᅫ
ᅬ
ᅭ
ᅮ
ᅯ
ᅰ
ᅱ
ᅲ
ᅳ
ᅴ
ᅵ
ᆨ
ᆩ
ᆪ
ᆫ
ᆬ
ᆭ
ᆮ
ᆯ
ᆰ
ᆱ
ᆲ
ᆳ
ᆴ
ᆵ
ᆶ
ᆷ
ᆸ
ᆹ
ᆺ
ᆻ
ᆼ
ᆽ
ᆾ
ᆿ
ᇀ
ᇁ
ᇂ
ㄱ
ㄲ
ㄳ
ㄴ
ㄵ
ㄶ
ㄷ
ㄸ
ㄹ
ㄺ
ㄻ
ㄼ
ㄽ
ㄾ
ㄿ
ㅀ
ㅁ
ㅂ
ㅃ
ㅄ
ㅅ
ㅆ
ㅇ
ㅈ
ㅉ
ㅊ
ㅋ
ㅌ
ㅍ
ㅎ
ㅏ
ㅐ
ㅑ
ㅒ
ㅓ
ㅔ
ㅕ
ㅖ
ㅗ
ㅘ
ㅙ
ㅚ
ㅛ
ㅜ
ㅝ
ㅞ
ㅟ
ㅠ
ㅡ
ㅢ
ㅣ
##S
##K
##a
##t
##f
##l
##y
##e
##r
##n
##o
##ᅨ
##ᄉ
##ᅥ
##ᅦ
##ᄅ
##ᅳ
##ᄏ
##ᅩ
##ᄇ
##ᅵ
##ᄎ
##I
##A
##L
##O
##G
##U
##E
##v
##s
##i
##u
##c
##d
##b
##k
##ᅢ
##ᆫ
##ᄋ
##ᅡ
##ᄃ
##T
##P
##h
##7
##4
##0
##ᄁ
##ᆯ
##+
##}
##_
##{
##ᆼ
##ᄌ
##ᅣ
##ᆨ
##ᆷ
##ᅧ
##m
##ᅮ
##ᄆ
##p
##x
##ᄂ
##w
##9
##1
##3
##ㅒ
##ㄼ
##ᅲ
##D
##N
##Y
##g
##V
##5
##8
##ᄍ
##ᄒ
##ᄐ
##ᄀ
##ᅪ
##ᅱ
##2
##6
##ᅬ
##z
##C
##j
##ᆸ
##ᄑ
##q
##B
##M
##R
##H
##ᄄ
##J
##X
##Z
##ᆺ
##ㅕ
##ㅁ
##ᅴ
##ㄷ
##ㅇ
##ㅎ
##ㅅ
##ᅯ
##ᄊ
##!
##"
##,
##ᅭ
##.
##W
##-
##F
##ㅠ
##ㅍ
##]
##ᆻ
##ᆶ
##ᄈ
##ᅤ
##ㅓ
##ᅫ
##ᆮ
###
##%
##$
##^
##ᇁ
##ᅰ
##ㅞ
##ᆩ
##ᆹ
##ᆪ
##ᆾ
##>
##ᆭ
##ᇂ
##ㄲ
##[
##ᆿ
##ᆳ
##ᆬ
##*
##ㄱ
##?
##=
##ᆴ
##ㅗ
##ㅌ
##ㅔ
##ㄾ
##ㅝ
##ᇀ
##ㄿ
##ㅙ
##ㅆ
##ㄴ
##ㅣ
##ㅡ
##ㅛ
##/
##ᆱ
##\
##ㅂ
##ᆽ
##ㅐ
##ㅋ
##<
##:
##@
##'
##ㅊ
##ㅈ
##;
##~
##Q
##ㅘ
##ᆵ
##ㅃ
##ㄹ
##ᆲ
##ᆰ
##ㄽ
##ㅏ
##|
##ㅢ
##ㄶ
##)
##ㄸ
##&
##ㄵ
##ㅚ
##(
##ㄺ
##ㅑ
##ㅄ
##ㅜ
##ㅉ
##ㅖ
##ㄳ
##ㅟ
##ㅀ
##ㄻ
##`
##
이
##ᅳᆫ
##ᅳᆯ
하
다
아
에
는
어
가
의
##ᅡᆫ
##이
##ᅡᆼ
##ᅥᆫ
##ᅧᆫ
을
##서
##ᅳᄅ
고
지
##ᅧᆼ
##리
##지
도
##ᅮᆫ
##다
를
은
시
##시
##ᅥᆼ
기
##스
##하
##ᅩᆼ
##ᅡᆯ
되
##ᅳ로
로
##ᅩᆨ
있
##ᅮᆯ
거
었
주
##ᅧᆨ
사
에서
##ᅡᆨ
으로
ᆫ다
보
##기
았
##나
##ᅳᆼ
##ᅥᆨ
나
과
##어
대
들
자
##가
수
마
##고
##ᅢᆼ
##ᅩᆫ
##ᅮᆨ
라
게
그
것
##도
여
일
##르
##ᅥᆷ
와
##라
##ᅯᆫ
모
##니
전
##드
##ᅥᆯ
##우
##사
##로
적
오
부
##치
##장
##요
바
##자
면
년
##대
##만
##트
##ᅦ이
스
만
##ᅳᆷ
미
정
화
조
##미
##화
##ᅧᆯ
20
상
유
##수
##아
##정
##인
##ᅣᆼ
##오
공
비
##터
그ᄅ
##는
##주
##상
때
##전
##ᅢᆨ
위
##히
##ᆫᄀ
중
제
경
##데
으
##게
##용
차
##제
##부
##ᅯᆯ
##력
##키
##ᅥᆸ
소
무
##성
##ᆯ리
노
세
인
##ᅳᆨ
없
##신
등
성
##문
##야
지만
##면
며
월
##마
않
##원
##구
##과
개
##동
던
에게
서
구
한
##국
##격
타
##타
리
내
동
201
피
선
장
##ᅵᆷ
방
연
##거
##비
후
##유
영
우
##ᅡ지
발
카
말
##러
요
##체
당
생
##소
버
##작
야
안
##간
더
##며
치
##래
##명
##무
신
는데
19
추
포
파
원
처
##일
##ᅳ리
명
회
##그
##재
까지
때문
강
해
##보
##식
아서
##위
##들
##의
##00
##티
데
최
##당
##후
문
같
##카
매
##크
배
아니
##음
실
번
##선
##물
받
##행
라고
호
코
불
##교
라는
##학
##회
##역
##즈
##실
결
##단
레
##능
##내
반
초
진
많
##한
##디
패
특
##피
역
작
으며
다고
##토
##모
나오
##속
##람
##ᅦᆯ
##임
계
##반
##ᅦᆫ
##버
단
면서
##차
##공
드
##려
분
보이
##점
##프
국
##계
남
##산
##루
##분
##조
두
##생
그러
10
경우
##록
##각
사용
출
##두
어서
현
니
##본
크
관
##연
물
다는
쓰
##중
저
공격
##진
이후
##호
예
##류
그리
교
##안
캐
였
##태
통
알
자신
감
학
또
재
못
점
##관
애
##저
##른
따
##세
##군
편
##영
##코
##ᅳᆯᄅ
좋
##노
사람
디
위하
##해
키
##바
##름
입
대하
##방
##금
##발
##ᅮᆷ
##법
정도
군
메
##적
##종
속
부터
형
설
너
함
##업
##통
##포
참
##습
김
##ᅳ라
##양
가능
외
평
##승
토
음
##매
다른
##ᆫ국
##술
시키
종
##브
##파
##료
##준
권
##테
보다
이나
12
##직
승
##와
##녀
200
가지
##건
##레
으나
##심
팀
죽
##스트
직
뒤
##션
살
등장
##투
##입
##표
는다
##론
11
본
아이
##민
히
루
용
##경
판
그리고
확
##어지
체
시ᄌ
하나
네
행
운
게임
버리
변
경기
심
##운
돌
##여
##급
..
잘
만들
맞
다가
##판
건
##약
박
##족
못하
끄
채
##er
##석
##개
활
달
투
사실
##령
집
##형
##설
시간
##황
##량
##너
목
##든
양
약
##련
##출
##합
필
듯
사이
각
##향
##께
높
테
시작
날
표
##현
##청
##품
##에
일본
##추
새
##망
간
##ᅳᆯ리
태
왕
##더
이름
##복
##츠
이상
##것
함께
##런
모습
존
##니다
따르
베
##언
순
##외
려
프로
독
##까
##ᅳᆯ레이
##지만
증
상대
##어나
15
##ᆨ터
한국
문제
##네
##울
##란
##머
천
총
다시
거나
병
##in
##환
손
효
잡
##독
##ᆯ라
티
으면
터
하지만
##스터
능
생각
별
힘
##럼
또한
캐리
인ᄀ
##송
끝
##병
항
아야
가장
막
##ᅳ래
겠
##목
복
##천
폭
근
광
##배
##험
스키
들어
식
및
시즌
당시
플레이
누
삼
##대로
완
18
##막
산
ᆫ데
먹
##on
처럼
싸
당하
캐릭터
씨
검
스ᄐ
##년
##랑
능력
##락
모두
ᆫ지
쿠
##쪽
##색
열
백
충
임
상황
아도
상태
길
##립
##ᅧᆸ
##ᆫ계
모든
레이
그렇
머
##퍼
##or
금
##감
세계
선수
러
슈
##말
추가
##악
##ᆫ드
앞
라이
##an
##초
16
결국
커
곡
##담
##결
현재
##벨
##탄
##살
느
합
카드
##등
##미지
스킬
##쿠
##ᅳᆸ
업
##케
다음
얼
통하
##쟁
##편
##메
지역
악
넘
##함
미국
##근
민
다만
ᆫ다는
많이
전투
그러나
##남
30
##질
쉬
효과
급
존재
눈
13
취
첫
199
언
여기
시리
페
허
청
##항
14
##접
트
법
매우
##냥
##예
북
##ar
황
##택
창
이러
대학
이ᄇ
17
##견
##존
##절
절
##ᅥᆯ어지
습
달리
째
뜨
극
기록
골
엔
프ᄅ
##처
얻
##he
의하
##범
그런
##ᅮᆼ
철
상당
##패
##at
인하
스타
시리즈
찾
레벨
##집
기술
ᄇ니다
##강
괴
이유
##움
##득
뿐
여러
처음
올리
바ᄁ
다면
어ᄄ
무기
엄
이용
영화
물론
그래
##왕
##별
##커
부르
놓
난
방송
자체
곳
100
탈
이것
팬
해당
같이
##템
필요
줄
##ᆨ스
##널
워
이런
##워
실제
##은
25
##탈
일반
규
##열
들어가
귀
##ᅳ러
모르
꼬
주인
마법
ᆫ다고
리그
거의
돌아
##끼
어야
학교
역시
혼
##ᅳᆯ래
범
바로
사건
##곡
##달
##en
잠
나가
##거리
관련
특히
다르
위치
이야
##큼
##ᅦ인
##규
유니
##착
기본
축
2017
부분
즉
##느
붙
대표
류
##박
국가
란
진행
##ou
피해
겨
래
##부분
제작
2018
##칭
탄
격
방어
아무
밖
이야기
담
빠
##례
##창
마지
활동
동안
냐
##찰
는지
없이
알리
##육
좀
팔
##난
찌
인간
작품
웨
밝
##변
글
##롭
걸
증가
대부분
싶
##ᆼᄀ
##페
##시아
일부
##때
접
준
##al
둘
##틀
샤
풀
##ᅳ레
몬
마지막
쉽
비스
##찬
헤
2019
##ᆯ러
##혼
몸
지나
##ᅳ레이
암
본인
계속
자기
##활
21
##es
##렵
감독
ᆫ가
블
서울
떨어지
몇
우리
생기
##ᇂ게
##권
라면
내용
##애
관계
만큼
##베
2016
중국
벌
맡
##률
##철
##순
##희
넣
50
##ᅳ럽
주인공
##리아
속도
##월
덕
##슨
이전
##전히
참고
메이
어도
대신
##ᆫ구
##날
##으
수준
전쟁
##없
타이
나이
##징
쪽
그냥
비슷
어느
환
##ᆫ급
##응
##턴
질
으니
기준
비하
지금
희
성공
22
까
198
대한
도시
강하
만나
홍
협
##민국
이루
스토
논
낮
울
##ᅦ이션
도록
밝히
뛰
멀
떠
인물
짜
##불
그녀
배우
##율
##벌
결과
24
자리
최대
연구
프리
##온
##증
지원
습니다
##돌
##랴
뉴
상당히
밀
기사
공격력
올라
마다
평가
홈
##괴
##ᆷ버
친
시절
육
##it
그대로
##할
빠르
##략
대한민국
온
나타
의미
너무
##ᅦᆫ트
##버지
몰
제외
므로
보스
##씨
##축
죽이
##ᆯ로
망
측
##백
로서
##부터
소속
##극
칼
전체
실제로
##책
##북
향
##블
23
봉
보내
2015
이미
승리
직접
##을
퍼
개발
원래
여자
영상
그것
##획
드라
어렵
##념
언급
유닛
체력
000
묘
##ᅳᆯ라
##st
##ing
대로
##광
##굴
##le
갖
##앙
##ic
##학교
멤버
휴
포함
##ᆫ경
맨
데미지
##ᅦ이지
##ᆷ피
이동
책
머리
##귀
유저
정보
##가지
40
마음
방법
##라지
쇼
설정
##re
싸우
문서
##늘
컨
선택
애니
뜻
과거
차이
씩
ᆫ다면
##다가
센
출연
##평
깨
님
##운드
가까
불리
츠
##찌
농
석
듣
침
송
왜
사회
몬스터
##몬
파이
친구
성우
발매
##욱
돈
소리
##누
##닝
압
설명
우승
크리
빼
갑
여성
대상
##dd
거리
탑
혹
뭐
발생
##총
든
최고
마리
##봉
##짜
동시
##딩
시대
엄청
##ᅦ이스
플레이어
바람
다니
장면
아버지
공식
링
어리
마이
버전
힘들
사망
프랑
사랑
대회
갈
##침
영향
바뀌
##주의
답
유명
##웅
2014
##팅
주로
스럽
##켓
결정
또는
주장
층
역사
즈
어떠
색
남자
출신
려고
구성
26
꽤
##la
정부
인터
일어나
조금
푸
콘
운영
학생
오르
유지
공개
나라
28
음악
버스
##ff
걸리
##염
초반
아이템
빠지
스ᄑ
오래
##ᅦ일
섬
서로
정치
중요
독일
전부
##밀
새롭
27
대사
방식
##쉬
과정
스ᄏ
the
시스
##델
스토리
월드
##el
노래
파괴
나타나
31
형태
르
##갑
억
최초
강화
자주
역할
제대로
슬
후반
쏘
이때
아직
영국
최종
##쁘
좌
대전
모드
휘
##럽
##ᆫ스
##슬
##am
##필
##om
##벽
아래
끼
케
착
쓰이
##머니
##우스
변경
엘
딜
찍
바이
뽀
##라도
강력
폐
누구
##확
이벤트
움
##얼
기존
회복
잔
볼
정말
##잡
##곤
197
조선
##측
비교
##먹
보통
##is
그런데
드래
라도
##ᅡᆯ리
느끼
어떤
마을
마찬
마찬가지
##아가
##플
이기
##었
##ᅦ이트
인기
##프트
정신
먼
특성
##컬
발견
소환
노선
앨
행동
다이
당연
성능
늘
엄청나
2013
##번
##ᅳ루
확률
교육
올
속성
##덕
바꾸
풍
##훈
슈퍼
##트리
아들
모양
자유
##퇴
프랑스
##이도
##풍
오히
이제
클리
차량
대학교
가깝
오히려
29
##휘
라인
##너지
##맨
하이
차지
##억
##et
부족
끌
문화
짓
사라지
32
수록
술
확인
특수
##손
##ᅳ라이
##ol
활약
윤
게다가
이번
생산
내리
트리
관리
##ion
유일
시스템
끝나
녹
00
2012
##써
성격
##웨
응
제국
##글
흑
따라
액
장비
##디오
고등
##혀
훈
입장
구하
흔
영웅
맞추
아예
선거
빛
일단
축구
프로ᄀ
이렇게
데이
##지어
##림
##폭
숨
득
##숙
계획
운동
맵
돌아오
반대
뽑
##골
2010
202
획
에피
경찰
##ᅦ임
들어오
주변
먼저
기간
우주
자동
##던
심지어
##답
앨범
##라이
위원
개인
km
기능
완전히
조건
##통령
그루
플
##새
거기
중심
적용
건물
애니ᄆ
##nd
지구
드러
부대
뮤
##ow
사진
##엇
##ᅢᆼ크
##옥
감소
어요
##il
모델
60
떠나
으로서
난이도
##ig
에이
잃
중앙
발동
##멸
열리
블ᄅ
##ed
현대
##곳
견
회사
초기
자세
##튼
실패
##므로
지방
궁
어디
시기
대통령
참여
혹은
##니아
설치
##져
##먼
196
지키
데ᄇ
35
그래서
표현
##롯
드리
작가
던지
드라마
민주
돌아가
##충
라며
바다
물리
다양
국내
##ᅩᆾ
덕분
##ᅳ램
세트
크로
듀
##ᆼ장
얼굴
##탁
전혀
데뷔
TV
기관
반응
동일
지속
출시
##익
패배
맥
##웃
처리
칸
##엘
인정
원작
발표
곤
하루
##압
판매
도움
순간
##ac
모으
획득
##뢰
##슈
##as
애니메이션
그룹
퇴
얼마
무엇
of
구조
헌
##버스
명칭
담당
요구
더라도
후보
날리
##BS
컴
정확
오브
생활
2011
##이드
꾸
트ᄅ
##룡
특별
##없이
땅
##ᆫ과
진출
##나마
##클
시점
그렇게
넘어
굉장
롭
밖에
선발
탐
족
작중
단계
게이
##균
영어
상승
국제
##아내
기억
움직
##끔
만화
경제
핵
가격
그림
아군
##ve
항목
##비스
##들이
Lv
밤
빌
##죄
##스ᄐ
올라가
##소드
세우
##욕
마스터
The
아마
랑
##싸
시장
실력
##놓
세이
량
그나마
미치
으므로
졸
가족
참가
로부터
특징
야구
수비
대체
다며
조차
낙
계약
##채
벨
았었
턴
킹
사고
방향
프
##ᆨ트
이거
드래곤
딸
01
##넷
경험
고려
2000
려는
범위
러시아
죠
아르
연기
아주
##ot
오리
덱
프로그램
밀리
맛
##뜨리
시청
디자
##소리
남기
##스티
숙
##찮
##객
세대
묘사
퀘
어머니
500
패치
지니
확실
발사
한테
고등학교
결혼
주의
폭발
믿
##으키
에피소드
80
딱
##덤
활용
##맹
굴
각각
목적
피하
비판
##ᆫ격
보호
무시
##효
어떻게
##ad
##렌
더욱
##탕
준비
상위
이ᄁ
##밍
제공
중간
유리
##ᆼ글
세기
라서
나무
클ᄅ
런
이어지
##못
주요
조사
37
챔피
심하
45
과학
194
조직
인구
유럽
##스타
국민
쿨
위험
펼
이미지
묻
빈
라운드
히로
패턴
##혹
버프
##인트
굉장히
##드리
이루어지
염
내려
옆
단순
전하
참조
진짜
St
생명
죄
전문
꿈
다루
가리
시도
스피
##뷰
거치
세력
흡
꺼
##칙
듯이
약하
대미지
혼자
싸움
일으키
구간
불구
지하
##씬
율
연속
현실
##머지
나머지
나쁘
어ᄍ
여담
할
타입
파워
욕
노리
흥
ᆯ지
for
안타
소모
출전
돕
##id
린
##갈
부산
케이
헬
##스크
성장
순위
조합
규모
클래
웃
약간
논란
동료
70
한정
포인트
사실상
항공
##아오
지도
괘
훨
##궁
여전히
디자인
뛰어나
기타
##트로
운행
##ay
##냐
아라
론
##섭
##스로
##혁
폴
분위
바라
##린
연결
이해
무장
이탈
90
09
한편
##나라
195
FC
소설
##협
자연
학년
분위기
훨씬
예정
취급
으면서
성적
일정
옥
부상
쌍
당연히
등급
사업
블랙
2009
투수
얘
##ER
튀
센터
즐
태어나
읽
마치
싫
02
##ch
벽
기대
해결
향하
변화
플래
mm
익
연합
징
삼성
##킹
계열
가져
엔딩
가스
##us
##프리
엘리
그래도
최근
##혜
추정
300
똑
2008
이르
방영
##빈
##ir
콤
발전
괜
03
방면
어두
스테이지
짧
률
수정
칭
기에
종류
의견
##받
48
곧
미션
이라
배치
##낌
##엄
표기
도망
33
##짝
잘못
##혈
전용
자면
##폰
##척
ᆯ까
털
##ᅳ르
독립
##다리
그거
36
정상
벗
##ur
05
속하
척
터지
작전
소녀
수상
탓
퀘스트
거대
안정
대화
엔진
변하
철도
품
직업
수도
종료
나중
08
끊
##완
움직이
충분
죽음
요소
스스로
스카
챔피언
##티브
도중
큐
십
##샤
언제
캠
##파이
##참
비행
##취
##륙
07
##액
올라오
에너지
세상
넘어가
펼치
기업
##암
나누
붙이
관하
옵
공연
##볼
동물
특정
##둥
지내
건설
비롯
지지
달성
##같
##ᅳ레이드
##od
일행
느낌
쓰러
로보
##텐
벌이
행정
렌
벌어지
녀
##BC
훈련
전기
마저
싱글
당신
보상
만드
솔
HP
##센
굳
전설
무리
미사
##ᆩ이
졸업
팩
##검
력
장착
##im
남성
요리
신경
다리
방어력
##..
부활
배틀
지휘
절대
06
##ᆯ레
로마
넓
위기
황제
관심
군사
th
##자기
따라서
내부
##틴
반면
포켓
번역
제목
##길
##렬
스코
틀
##뉴
미래
번호
2007
##ut
공간
더불
거두
##un
스페
목표
서비스
##어들
돌리
빨
점수
만약
득점
으ᄅ
##컵
바르
근접
시험
전국
아이돌
가르
04
전차
브
마르
소재
충격
##층
의원
##지션
##란드
크리스
SK
시설
멸
오늘
인사
목소리
뚜
삭
홈런
전사
##즘
무대
정체
카이
34
덤
##데이트
사이트
##겁
인도
업데이트
지정
작업
픽
저지
분류
##흥
뒷
올림피
작곡
베이
놀
빅
you
배경
장소
찬
똑같
가끔
최소
도로
타격
##큐
##ro
꽃
##트라
부여
랜
스포
셈
어찌
##인물
교체
혈
록
쥬
링크
으로써
공중
항상
##폐
##쇄
##촌
생존
혀
##디어
벤
냉
북한
높이
전작
##닉
각성
맹
##알
##다니
파티
이끌
켄
예상
단체
그만
분노
정식
193
##ᅳᆯ레
으려
넘기
야마
제한
가수
##수록
##붙
##레이
##ver
등장인물
겸
##igh
##ec
사냥
얘기
##ag
포켓몬
자랑
아키
##리스
홀
결승
38
컵
##엽
2020
소개
늘어나
2006
올림픽
cm
목록
외국
종족
##ent
쌓
인터뷰
기계
이어
악마
##너스
깊
##동안
이탈리아
개념
명령
수행
##이트
필드
75
가운
초등
교통
스위
아카
##ᅪᆯ
애초
롯
이외
괜찮
ᆯ로
판정
타카
스타일
기반
연출
정하
각종
in
하늘
병력
지상
클리어
몽
로봇
브ᄅ
군대
한ᄀ
55
##콘
##보이
##허
제일
트위
전반
페이
기체
비용
퀴
카운
션
확정
놀라
가운데
재미
기동
설립
크기
옛
왼
##최
옷
##화국
##뮤
##ak
표시
인식
파일
브라
##꾸
경쟁
갖추
행위
료
건담
정작
##쿄
사항
평균
시티
레어
##um
통합
교수
별로
##젝트
장갑
to
드러나
빙
화력
포지션
##쓰
납
##비아
뇌
수치
코미
니까
정의
왕국
사격
따로
잇
근처
완전
스티
병원
싱
진화
저항
감정
',
월드컵
국회
폰
보유
누르
집중
사거리
노력
환경
혁
전자
비밀
갑자기
인천
##러스
##쉽
변신
기회
42
##짓
##아들이
임무
##셉
나름
의식
살리
자원
고양
단점
직전
특이
정리
띄
옮
##em
부정
제품
스태
단어
오버
부모
vs
현상
탈출
던전
촬
느리
오른
냐고
위원회
사례
##ST
##ula
어쩌
압도
마시
놈
이닝
펜
레인
##빠
치료
쯤
소련
##앗
주제
효율
판단
##ub
##튜
잠시
플라
때리
극장
떨
사정
##ᆯ링
2005
아파
밑
##르트
다크
라이브
사무
촬영
시전
##겨
본래
지배
##헌
컬
원인
나서
오스
이쪽
가문
더니
치명
겪
form
##리오
신ᄀ
정책
제거
주민
요시
유사
도입
대구
옮기
ㅏㅆ
##000
##낙
##렉
##븐
여행
전력
무슨
##윤
##랜드
동생
밴드
##말로
192
삭제
고속
주문
상관
공동
##묘
기념
실험
##싱
도쿄
강제
해군
웹
의외
아스
책임
롤
formula
중학교
병사
##어로
포기
키우
##째
역대
의사
연습
물건
복귀
이하
##무리
발언
새로
전개
도전
##야마
완성
##ight
언어
음식
##요일
클
##ᆯ린
골드
앞서
고정
기다리
위력
이적
2004
살인
으로부터
##링
41
차원
##좌
공주
모이
파트
접근
다수
직후
화면
려면
확장
루트
제도
텔
##섯
##ᅳ림
중반
##학생
불가
전략
39
뿌
받아들이
레드
정당
도착
음반
멘
노트
끝내
별명
컴ᄑ
##모토
셰
가치
선생
셋
사상
##프리카
히어로
브리
텐
사기
정규
버티
분명
에게서
붉
고자
미니
산업
히트
숨기
##특
잡히
꼭
빌리
쫓
타임
티어
시민
짐
어둠
##ce
마나
연장
투표
무려
구역
LG
대기
마사
조종
신체
종교
장치
줄이
소유
일러
##os
자료
나이트
추천
아파트
쥐
ㅓㅆ
녀석
EX
은데
회피
노동
반드
살아
고대
이곳
구매
점프
형식
##르크
##ᅳᆯ린
예전
##숨
##AR
##ri
로드
빨리
인터넷
닌
리더
##시마
타이틀
##그레이드
업그레이드
라이트
탈락
사령
롯데
##셀
폭탄
반드시
해외
44
##리어
##듀
##친
단지
꾼
##ᅳᆯ랜드
교회
아내
앙
미사일
랭크
##벤
금지
학원
Ch
우선
##찍
수마
완벽
부탁
심각
달러
##밥
힐
클럽
##AN
이사
2002
실시
이라고
##역시
##맥
범죄
장점
검사
낫
191
합류
흐
늦
##ON
##나이
추측
구분
콜
##ap
43
최강
##and
##몇
몇몇
선정
99
조정
브래
로스
공포
대장
가사
전통
데이터
##되
차례
##홍
마무리
취하
열차
요청
행사
No
##텔
위키
버그
프로젝트
그리스
하드
탱
종종
톤
자마
덜
##ᆫ간
선언
구단
스포츠
연재
점점
대중
##듬
스페인
복수
##ᆨ정
st
수많
즐기
컴퓨
개최
개월
##걸
다소
서버
##이치
잭
##탑
재료
설계
보병
##아하
가드
드로
옵션
##십
46
조작
형제
47
폼
밥
kg
51
##ᆨ시
광고
떡
택
민족
생물
##ᆯ리스
##털
##첩
##쳐
그야
입히
타자
마법사
##덴
암살
걱정
부하
거부
좋아하
포스
언론
채우
KBS
##ter
코스
개그
템
멜
연주
숲
채널
성향
컴퓨터
맺
and
해석
통신
디스
칠
보조
코드
자마자
평범
고르
한계
모자
뉴스
값
종합
##죽
##ᆯ리아
##조건
실점
전화
##셜
아쉽
기지
개봉
행성
회의
그야말로
##맞
블루
회장
2003
##버리
##아보
52
대결
뻔
트로
##ul
박사
##럭
##FA
투입
아무리
지적
비중
엑스
워낙
지명
가정
다행
원정
본격
운용
한글
미드
캡
자동차
##아지
광주
위협
무한
정확히
집단
영혼
소년
소비
인상
등록
실수
##ᆸ히
무조건
##ᆺ자
##op
%,
##무라
MA
##IN
젊
평소
냐는
##ᅳᆯ링
상징
페르
1000
굳이
대응
공사
카메
앤
줄어들
생성
##타임
와중
##니스
##빙
##몽
##드로
대형
체제
##ck
대비
충분히
통과
멋
##꽃
혐
사태
태양
##ation
는가
##의원
##ᆺ수
보컬
조각
엠
아웃
편성
먹이
클라
##자리
##콩
쓸
군단
여름
65
다운
전원
보너스
프레
육군
##셔
150
분리
데스
터미
이론
공항
희생
오프
##펜
개조
형성
분야
시청자
방문
뿌리
네이
##ra
뚫
촉
무사
혜
일종
흉
MBC
특유
기자
빵
도망치
가면
제안
고양이
샷
리어
을지
##돈
장군
SP
동맹
깔
치르
트레이
봉인
마력
##려가
##스케
떠오
디지
벗어나
##칸
64
II
##오스
##꼬
##젤
전환
##ᆫ만
잊
발음
일러스트
로써
오리지
장기
##녕
가하
얼마나
반복
시나
장르
##ᅦ이크
드러내
점령
아프
안전
##리카
의도
##라인
튜
##튜브
##줄
##꺼
간단
##있
You
하야
경기도
소식
ㅏ서
루이
윈
예선
불과
빼앗
##넘
랭
유튜브
서술
가ᄇ
그라
##깨
개선
합치
앉
함정
유도
사쿠
바닥
##려오
흡수
영입
##시스
##텐츠
초대
##남도
공화국
갤러
브레이
평화
그때
근데
##엔
데리
##흐
##니티
##art
400
코치
규정
트래
괴물
는다는
##ᅧ보
의지
오토
저격
투자
락
기원
독자
라디오
비디오
숫자
밸
확보
예술
전술
##깐
##ᆫ공
액션
최후
원하
수사
방해
가져오
진입
##님
이치
따지
매일
##풀
##빛
필살
공략
49
##ᅳ레스
화염
미리
2001
##빌
주력
인원
클래스
##나가
그저
인류
은퇴
적극
외모
보도
56
관통
##런스
걸치
비트
흐르
시내
장난
승부
##핑
찾아오
들리
터미널
넥
체육
지나가
적절
궤
VS
모험
왼쪽
목숨
패러
AP
계기
컨셉
눈물
포르
느냐
In
아름
##니까
구축
방패
1990
상자
겹
작성
자라
파라
##팔
회전
완료
주연
뮤직
공부
사과
부수
##루스
##동생
트랙
몹
##롱
한국어
편집
54
장관
함대
의심
거짓
아프리카
53
분석
솔로
서브
##논
떼
##모리
살아남
##퀴
오리지널
저지르
랍
##바이
수리
보수
질문
들이
##ᅳᆺ
닉
PC
역전
민주당
단순히
에스
약점
챙
인형
필수
아시아
ᆫ지라
##페이지
코어
오ᄑ
경상
마침
임명
황금
덩
##ia
...
끌어
190
쓰러지
##나다
핑
청소
재판
훌
풀리
날개
닮
장애
대단
85
사단
착용
##덜
성인
스트리
##토리
해제
중단
멈
##삼
경계
##ᅳ래프트
꾸준
##ie
##ill
홈페이지
드라이
쳐
비난
현장
승강
작용
##시브
소프트
하위
상대방
삶
엄마
##옷
희망
사장
콩
습격
베르
테러
허용
자치
수원
인지
걷
선보이
퓨
공원
진정
편하
관과
코스트
##로드
더블
유래
제시
원거리
무력
카페
지식
선물
수호
영역
##RA
마크
스마
남편
기획
랄
가슴
주도
ST
명중
수단
바탕
##IA
##몰
아름답
##북도
스파이
##ik
어라
부리
오른쪽
태도
본선
촌
모티브
거주
행복
미야
##무원
탑재
확실히
비고
저주
카즈
감안
직원
리스
체계
측면
쿄
에이스
##워드
꼴
59
지나치
롱
멈추
궁ᄀ
표정
도서
텔레
##ab
무섭
주목
쿨타임
잉
돌파
테크
상처
고통
의문
베이스
##마스
##ᆫ관
친하
##est
제기
나타내
보급
고유
딱히
테마
뉴욕
##연히
##뉘
72
처치
업무
기점
당장
지점
공장
소울
58
망하
협력
유우
##닥
텍
여부
멀티
후지
갈리
120
##울리
기어
불명
부인
컷
##th
낳
##이언
비싸
##춘
57
62
대답
온라인
순서
통일
문자
날아가
##푸
카메라
위주
아요
퍼지
멀리
귀족
우수
연방
후속
널
조지
##all
제압
계산
챙기
박스
잠깐
브로
소수
나뉘
을까
카운터
꺼내
문명
당선
MP
##ea
진영
멸망
66
1999
차별
##잔
95
건너
패스
갱
은행
탯
##ᆼ괴
횟수
관ᄀ
셔
버튼
##뇌
엉
약속
테이
혁명
케이스
시나리오
펀
드립
Lo
내려가
제조
Sh
랩
##로스
##쇠
가로
##ct
국회의원
코너
융
에어
Re
덴
고서
오후
1998
겨우
살해
붕괴
춤
달라지
지옥
자격
특기
댓
삼국
눈치
상하
최악
듀얼
뱀
크로스
on
증거
##붙이
연계
개편
외부
##머리
ᆯ수록
늘리
시체
유키
균
가볍
블레이
딜러
##픽
아메
##다르
군인
##핀
웨이
섭
##니어
Sp
겨울
군주
게시
핵심
정권
틈
의회
공산
gt
가져가
어린
매치
중화
##랄
ddd
제로
부담
교사
배신
미군
##레이션
110
출발
미스
나카
컨트로
##쇼
대놓
출생
##AT
게이지
옹
##AL
레이저
ㅓ서
자살
니코
단위
##스탄
드물
진실
##ddd
dddddd
어울리
##학자
견제
해금
충돌
미나
##PS
최대한
##릉
아침
대원
브랜드
##륭
##워하
거절
##드라
장전
여왕
궁극
봄
가르치
##OR
도구
필살기
전장
충전
댄스
홍콩
커뮤
Th
##아리
로켓
거래
유용
카르
SS
용병
이성
룰
만족
##VE
반란
취소
부문
SBS
lt
귀엽
##멘
##ess
##달리
##사카
마왕
넷
체인
##ate
피아
한화
고급
##터리
##를
일본어
##킨
닥터
부진
타이밍
는다고
##ard
표준
기분
##ell
블로
흔히
##광역시
##컨
스피드
교환
61
협회
##톤
조준
피해자
발매되
Al
1997
근무
##레스
##전자
남부
76
프라
애매
제주
##읍
무게
단독
##ang
##ue
##메달
스킨
공군
토스
공통
얼음
##ers
신화
비록
##ant
파악
극장판
마츠
##웨이
발휘
우려
판타
삽
수입
비율
권력
세계관
핀
유형
스파
장수
##IC
건강
개시
자르
어떻
끼리
경력
인생
##ine
겹치
가입
본부
자고
##ack
##래도
##하라
한자
후반부
순수
근거
공작
막히
레전
계급
모션
##세이
FI
77
젠
하트
커버
아무래도
물질
88
혼란
지시
패시브
구입
격투
몰리
외교
##촉
##다수
아머
쿼
감염
입단
##두르
지하철
자식
따위
모리
해방
NP
파이터
연대
기독
탄생
##OS
##젠
노르
카라
정령
캐나다
지대
증명
회수
##어내
강조
##피아
등등
채용
빔
스테
반영
내주
업체
생일
##심히
긴
스코어
에리
##흑
누리
메리
홍보
용도
입학
아사
##가락
##아나
실질
경영
승강장
##ok
좁
##헨
갓
폐지
밸런스
외치
ㅕ서
꾸준히
타워
##둑
대륙
1996
문학
언니
납치
쪼
경향
CD
불안
지급
##ive
기절
병기
be
무너지
오오
덮
갤러리
대공
실행
윙
돌격
말리
왕자
트라
##디션
BG
1995
주어지
1980
장식
##라리
98
추진
요원
제이
아리
##솔
베트
페이스
출판
##멀
브라지
감사
광역
##고기
잖
or
신문
##유키
",
필리
랜덤
373
훌륭
메탈
600
스펙
온가
계승
쏟
파리
아나
수학
맡기
재생
주년
시행
원수
온갖
##라이더
사카
브라질
통제
마녀
정지
fff
##ast
가까이
스튜
낭
내내
집안
고기
없애
설득
울트라
내놓
패러디
건축
##오리
단일
기독교
스페셜
대다수
마이크
쇠
작사
심리
사전
##들리
서포
##AS
ㅓ야
용어
헤이
와이
화살
##멍
찾아가
전선
관광
공유
신뢰
경기장
##트ᄅ
오픈
명예
상품
##카와
크루
북쪽
##크래프트
##어리
별도
후쿠
즉시
영원
찌르
오류
기기
##웨어
선배
어차
이슬
##휴
PS
짜리
##바로
살짝
령
폭풍
##ee
남쪽
밟
연예
킥
##즈키
어차피
지우
##렴
68
적당
등판
##ED
800
가리키
괴롭
전달
페이지
대놓고
화장
짝
보물
내려오
변호
마련
이렇
##ᆸ터
헤드
미소
흘리
고전
63
스트라이
라스
##tt
##ong
탑승
뒤집
소문
고민
당황
공기
함선
##uby
그곳
##다지
경유
##시오
오프닝
캔
틱
은근
레오
열심히
가토
##AM
늑
레전드
커뮤니티
입수
외국인
갤
민간
갑옷
신청
사령관
심장
가이
##ᆯ릭
한때
정류
##아먹
##ort
##ith
운명
##if
반격
##거나
신고
##세우
엔터
그레이
조치
아시
##도우
##ly
트위터
임시
사운드
##딘
##납
셀
수업
74
댓글
연구소
1994
##ᆮ히
71
응원
알렉
이승
푸르
격파
가면라이더
처하
깃
##나무
김성
##ld
불만
ruby
쓰레
라이벌
##ᆷ프
마주
마인
##랗
82
중계
편의
##아버지
갈등
컨트롤
환자
67
절반
습득
울산
73
주위
오해
랜드
러브
관객
##피스
잉ᄀ
두산
하수
퀄
카나
메이저
북부
요새
닿
보정
여론
널리
출장
##ain
MV
정말로
지형
##ist
전공
대만
유로
고치
서부
팝
##겨나
전시
회원
아오
묵
결승전
##크리
수용
보장
시각
우스
##fff
여신
주전
리버
안드로
....
이란
180
차트
##ind
96
붙잡
재능
가득
압박
##가와
메타
별개
ffffff
전형
추적
왕조
슬라
탁
영토
##티컬
쌓이
소멸
무르
챠
##서트
무적
NC
##쥐
전함
종점
##묵
AT
##듀서
프로듀서
##더스
초월
오로
운전
종이
네이버
판타지
TH
81
흔하
아티
##돌리
전역
폭력
메가
동기
도서관
체포
헨
늑대
AC
제하
녹음
선호
그다지
##per
쉐
신세
##팩
지ᄏ
컨텐츠
아우
시야
타점
따오
곰
화이트
##따
##지컬
변형
써
파이어
돌진
개통
##ew
인수
네덜
네덜란드
물러
##ps
강원
든지
##크로
무지
향상
동원
메시
##럿
##EN
91
맞서
##사키
이마
여동생
클로
공급
동부
다행히
수요
일부러
불꽃
동네
화려
78
아가
동쪽
##툰
신라
조절
성과
께
파이널
도달
##EC
적히
##츠키
##ᅫ지
그만큼
수집
시드
##놈
문제점
그림자
본명
테스트
파견
##융
##콤
학과
자는
복잡
플로
##어스
지켜보
뛰어
##일랜드
쓰러뜨리
##ᅥᆷ프
상향
##려움
##캐
유비
현지
엑
오랜
연상
##깝
84
기초
소드
일상
니시
##OL
영업
치명타
##텀
연관
식물
맘
틀리
매력
##식간
부품
전적
##ry
최상
암흑
순식간
폭격
편지
##lo
##팡
팅
무난
달하
작동
전방
학살
토리
구현
CP
##퍼스
게이트
지르
교황
시위
점차
92
법원
토모
97
아트
맞이
킬
##헤
콘서트
##ᅥᆼ이
릭
##LC
코믹스
노예
대우
신인
지도자
##ᆷ치
세포
해체
바이오
청년
프레임
충청
전투력
86
수송
객
마술
둘러
me
크리티컬
사자
입력
복장
고향
오빠
국립
바라보
사토
호환
추락
서쪽
콜라
밴
프리미
수술
기여
모바
스톤
저런
드디어
##찾
그치
##밀리
##ᅳ름
키리
반지
경비
69
천사
한국인
##껏
##오카
창작
덧
찰
조성
아무런
레스
간격
키스
떡밥
스마트
##ᅦᆯ라
189
생명력
출현
마스
##ᆫ트
닌자
##노스
베트남
심판
##베이
An
폴란드
해설
추격
##비전
제자
쓰레기
꼬리
블록
조용
전투기
묶
낚
짱
##오프
뼈
인근
구체
개혁
##히로
만든
##둥이
아이스
##어버리
it
검색
긍
US
몰래
퀸
의상
고용
##IT
is
감시
다시피
##ᆷ새
##ᆼ이
의료
일제
그래픽
구도
아무것
엘프
규칙
사쿠라
주먹
겟
##디아
나루
##모로
구속
접하
무효
썰
1992
##주시
은하
장교
마리오
후기
다섯
스카이
신호
조조
막장
연애
##버트
NPC
돌아다니
마리아
통상
토론
##타로
일원
연사
슬롯
##ust
신성
실드
룬
MS
대립
대대
뷰
김정
고교
에드
알아
춘
차단
강의
전라
길이
신규
신분
##어도
놓치
연락
##홀
앵
어깨
##보내
##특별
까다
옛날
총기
진지
예외
잉글랜드
범인
카미
노출
경험치
룡
250
이래
##칠
미술
런던
윌리
##옹
창조
입구
##럴
디아
##보드
투어
라이더
모바일
되찾
KT
글자
정복
부위
동작
득표
탱크
농구
##도로
쿠키
불편
##50
1993
메카
환상
글로
가시
디지털
##ore
요정
앞두
제어
승격
활성
학자
전직
무료
굽
마도
언제나
이랑
양산
겐
##뜩
소총
##자키
브루
미디어
바보
코인
이리
고문
고생
Ar
##파이어
평타
음성
유희
권총
박살
De
거짓말
##타인
안습
헌법
##즌
세월
총선
합성
##BO
잠수
##ᆸ스
출처
여러모로
극단
자이언
##영상
이득
##크스
공학
참전
대량
침공
라이프
대체로
법률
이슬람
블레이드
##FC
반발
어택
이날
##깔
83
상호
##ᆨ시코
수영
일자
##레나
소화
겉
가톨릭
##다이
89
스웨
사마
교전
인증
간부
##ᅢᆼ이
헌터
보고
##저히
Te
샘
출력
북미
상상
호평
정류장
93
띄우
중대
폭주
환승
보석
마루
합격
연도
상점
동영상
하고
101
사양
의무
개정
사우
톱
총리
알파
94
##렘
렙
띠
79
기병
적어도
결성
유대
아일랜드
re
지휘관
서양
마이클
제법
가량
전대
터치
원소
첨
인공
반하
##FF
On
기습
다이아
끼치
근육
예비
분기
휘두르
머신
매니
태우
##일드
잖아
##란색
제작진
메인
com
FIFA
##one
실리
87
동방
이재
이자
MAX
대략
##우드
사이드
요괴
쟈
구출
깎
가속
앱
믹
홀로
경고
탄약
##se
바이러스
조심
##폼
의혹
이시
묘지
파일럿
세르
##둔
유령
삼진
박근
회차
AI
전면
부부
요즘
히데
어린이
##AC
##브리
가게
1991
대항
##ip
포탑
##먼트
탱커
플랫
횡
축제
화학
리아
단ᄀ
제임
이내
발달
다면서
베스트
멋지
갤럭
패널
노멀
하수인
지진
상업
##워크
나아가
람
계정
똑같이
훔치
개체
예측
취임
문장
볼넷
블러
##ere
자금
현역
그로
보안
불법
플레이오프
멕시코
오가
##로나
##컷
쾌
네임
국방
원자
정착
##ity
레인저
슈트
캐스
고지
었었
DJ
호텔
##쩡
메모리
핫
자매
유행
어둡
##RE
특화
스미
블리
익숙
##PG
MC
제임스
##닫
청소년
##ath
용사
갤럭시
묻히
##녁
아기
결론
빗
워치
어지
SN
들어서
일시
넘치
파크
스튜디오
인미
도망가
핸드
##붕
스크리
김영
형사
대리
타케
검찰
슛
신설
어째
무역
##라스
저장
##end
피부
구멍
BGM
움직임
##고리
리스트
##창기
육성
삐
켜
##리티
예고
쿠로
1970
도발
한방
연맹
소닉
빛나
##네스
리치
신기
개방
FA
사제
##넣
루시
부서
스리
##요시
냐며
1988
카타
불러
##ᅱᆫ
주식
##조리
##끄럽
식민
식사
##티나
겁
합의
조약
콜로
펠
정면
레이스
길드
##컴
관할
긍정
역임
으니까
감옥
고백
파트너
대가
차리
700
구원
오랫
스톰
루타
마냥
곧바로
마구
타마
프라이
이명
결합
전철
바치
웬만
##륜
바위
여지
Ro
세이브
방출
찾아보
##데스
동의
여유
럭
박정
##코드
인정받
##펙트
투구
전문가
##페인
초창기
볼트
##ᅳ러지
소형
절망
처벌
알레
번개
!!
진심
THE
사이즈
방지
주간
둔
강철
이즈
오늘날
통치
잡지
ㅕㅆ
기구
배차
융합
국왕
반사
너무나
훗
물러나
좌우
흥행
누적
리ᄆ
##성기
팀원
돼지
포스트
의존
방사
장악
##특별시
##구리
##디언
영향력
착각
떠오르
리메이크
위장
MVP
##ect
##쾌
그동안
정치인
목격
외계
드ᄅ
미카
네트
기원전
에서부터
서울특별시
아끼
아빠
레이드
랭킹
호주
망치
분량
##트리아
내성
Wh
커지
봇
내장
크라
잦
안드로이드
##OT
꺾
차라리
논리
면역
곁
의뢰
인연
단장
해병
챕터
시즈
룸
대지
혐의
CC
브레이크
게스트
야스
협박
유치
섞
요코
칭하
Se
국군
##삭
양쪽
에다
저녁
He
빌드
포르투
지능
태그
마침내
샌
확대
보관
변호사
골든
Le
공지
각자
타이거
박근혜
불교
펴
AK
는다면
동화
윌리엄
스프리
태평
공무원
깨지
토르
최소한
괴롭히
권리
아크
칼리
떠올리
오사카
손가락
Me
무덤
멍
놀이
접촉
재산
뭉
그대
먹히
몰아
한번
배트
오랫동안
박물
터키
대폭
1989
후속작
으려고
해리
188
라면서
흠
DLC
윌
##톱
##부르크
이지
수수
하필
스턴
htt
##age
Go
출마
과목
실버
##IS
공공
전후
소장
노부
연료
팔리
악역
오전
주말
소지
올해
오카
섞이
하우스
##구치
금융
이집
소원
본작
이집트
리드
'.
PD
익스
연인
명성
웹툰
수련
권한
막차
그럼
딘
흐름
al
육체
패하
수익
비행기
##og
적대
귀신
빡
주기
계단
정비
다가오
학부
붕
대처
예능
##바라
##흡
알렉산
##잡이
호수
정원
##섬
나치
시마
썩
내구
##아시아
강남
로즈
##미야
무렵
스웨덴
금속
트레이드
놓이
깜
부장
연극
컬러
##ide
선출
톰
휴대
명중률
kt
원칙
호감
카오스
어쨌
Be
My
씌
슈팅
안내
소스
마키
해안
테일
합체
선전
간혹
GT
접속
숭
섀
편입
써먹
카스
##회사
화제
시계
캠퍼스
놀랍
##ime
허리
##세스
최다
빚
예쁘
츄
##ake
개성
모모
뻐
##스턴
##셰
협상
ᆫ다며
준수
##ark
130
교차
담기
##OM
메르
일기
개입
험
떨어
퀄리티
##ss
##오르
둘째
새벽
종목
##베르
특집
궤도
게시판
Su
브레
작곡가
##윈
SC
킨
박물관
KIA
##칼
##ire
뺏
상당수
김태
편곡
더라
##어나오
외형
기도
저그
스위스
환영
성립
인조
꼽히
림
따라가
고마
고구
갇히
누나
복무
민주주의
##듭
유물
SM
##려주
할아버지
AR
전신
##바르
굴리
독특
알아보
주사
피격
초간
재단
이익
깨닫
WW
##가리
웅
한동안
이끄
Tr
식당
페이즈
젤
지위
사도
극복
수십
헤비
딩
넉
##무르
치우
재정
이ᄉ
##ID
##ᆺ지
바리
트레
##ES
우라
어른
시선
철학
매직
회상
116
##ite
데이비
##ge
리얼
정찰
HD
wh
160
블로그
위상
연타
##iv
으러
소중
거인
영문
SD
아니면
슬로
흘
무겁
처형
양성
##ound
기사단
캐스팅
식량
뜬
##그마
##가스
메뉴
동굴
정글
대개
데모
용기
오스트리아
my
문재
면적
비례
안티
부디
익히
시내버스
일찍
트럭
고리
전진
리듬
##가시
은근히
뜯
##다랗
손해
뱅
클래식
우위
참석
ㅓ도
음원
조언
팬덤
집행
힙
유이
과제
구나
튀어나오
둥
보라
신앙
##미니
고수
위원장
아바
별다르
는지라
##mp
해상
##던가
##iz
대충
IC
플라이
훗날
타인
각본
원본
드레
더더
증언
자국
##테르
노인
렛
SR
신부
이중
세이버
털리
측정
마비
날짜
##OP
신비
##가미
예산
헝
##맨드
빼앗기
멀쩡
##쳐지
펀치
##플레이
''
중독
##슬리
매체
세종
적응
더더욱
무릎
살아가
##리스트
구사
멘탈
커맨드
까다롭
천재
1987
캠페인
원주
이주
미터
##마디
적군
해적
##렛
삼국지
##OW
국적
교류
제정
절대로
꽂
Gr
허나
패션
갈수록
##ome
크리스마스
하락
임대
대학원
스승
일격
활발
재미있
##큐어
기적
##ᆫ교
정수
녹색
툴
코우
하얗
마이너
관중
결코
느라
##ᆫ군
##프레
위대
화성
IS
구리
명단
매년
시아
히메
주포
대수
##팀
##BA
##핵
죄다
호위
##덩이
아미
십자
UE
과연
##스키
작화
개막
진보
with
##데미
##ud
de
켈
투명
충성
##케이
계통
모자라
어다
Love
포로
##LL
내세우
탄창
한참
열쇠
##몬드
깡
어려움
##반도
새기
체크
왈
##갛
바퀴
희귀
주일
몽골
##에이
곽
피스
김종
Pr
우연히
세인
펫
1960
칭찬
안경
유적
루수
남북
사후
##UN
사막
냥
아카데미
경기력
데려오
비추
흔적
개수
140
##쩍
자본
채택
모래
##아웃
##티아
##블리
기르
##ord
자극
후방
업적
렉
흔들리
예수
아메리카
미츠
화물
으라
비상
전성기
이영
당일
미안
피아노
일치
사유
##리그
첼
심사
강점
펑
행적
결말
스타크래프트
스프링
보존
##MA
인민공
신장
오직
부지
첫차
상급
이정
강도
인지도
##ᆫ지
재현
기종
울리
선고
아티스트
김동
단편
개량
BE
인민공화국
주택
##려나
사라
피니
무작
농담
부작
기울
도우
챌린
안ᄀ
출입
추구
거점
기아
취미
가을
웃음
토끼
과장
##값
스탠
저작
##사자
포항
상성
클레
자책
버스터
관찰
고스트
어지간
포르투갈
식민지
합병
px
클릭
1986
생존자
일반인
네트워크
어쨌든
행하
소위
유나이
소송
새끼
##멜
##ure
프리큐어
맥스
ch
##일러
헛
유나이티
##ance
본체
경로
##our
로우
의대
건조
##스트레이
어마
##깥
바깥
닥
##카드
으시
##mer
스마트폰
무라
공룡
기용
##ix
##양함
연금
괴수
모조리
시달리
판매량
흥미
##ick
포드
EP
Bo
##ice
막대
##뜻
체육관
차기
돋
영구
공세
탈퇴
파츠
상실
잠재
자세히
덧붙이
전멸
후계
##이즈
가짜
이스라
an
기ᄈ
일본인
인격
UEFA
코코
##치기
미라
##켄
캡틴
사형
유통
국경
포격
JR
타율
베네
##ax
유니폼
186
제작자
칩
고도
아즈
GS
코리아
900
도주
로고
터널
연패
##ᆼ기
부자
불타
일방
꽈
승점
피터
색상
자전
SKT
Un
생겨나
판결
색깔
상인
관측
둘러싸
명확
노벨
할머니
취향
팽
드라이브
##룩
로그
릴
햄
이민
가상
통산
##지로
항공기
메시지
요금
커피
레이더
기량
화장실
##시타
거듭
잘리
##나미
치유
선거구
닭
비주
화재
나포
쌍둥이
내지
구경
강요
언스
귀찮
라이온
여객
##oc
한마디
##시로
등지
타선
미루
모토
훼
레디
집어
##AD
이스라엘
##맛
Ex
##시스트
##아다니
쵸
가요
어드
동력
루카
초코
오타
위반
사원
소프트웨어
신사
##멘트
##qu
그레
칭호
수출
비치
##스틱
날아오
찢
가루
아마도
##ᆫ색
이슈
사신
아이콘
다름
187
빨갛
##듈
##코토
선택지
주소
승객
포수
OST
다치
##10
순환
고개
트라이
간신
김민
어스
터뜨리
몰락
레알
##own
##괄
##고속
무방
초보
조이
KO
박히
대선
조연
##크라
연합군
양자
이브
##얄
##{{
영주
브라이
스페이스
##ber
펄
도끼
교장
귀환
##데이
수장
남녀
담배
광역시
매장
적합
즐겁
연승
##나카
냄새
구르
함수
GB
캐논
##80
본사
##러지
넥센
We
소라
타락
서식
복지
##ys
실망
1984
동성
콜라보
외전
매니저
DS
타운
항복
##20
이터
텔레비전
##ᅳ란
안타깝
뿔
찾아내
고구려
미스터
흑인
곡명
##카리
캠프
제갈
배터리
핏
백성
스터
비서
{{{
마린
라인업
개국
유희왕
##av
##곱
통계
단단
인치
유효
스와
변환
그만두
교실
잠수함
아랍
1985
아시안
예시
AM
타수
##노우
붓
발행
커리어
혐오
##플레
공업
간주
깔끔
##정부
일대
법인
주자
반동
쟁
sh
오라
철수
천만
인종
벼
마드리
CPU
정기
포위
##ame
주역
중립
에르
레코드
##orld
유학
##겐
##old
용량
블라
서구
시노
논의
읍
드래프트
데드
허가
인디
105
관람
릿
플리
노동자
표지
너희
글로벌
마드리드
조별
낚시
플레
##든가
커다랗
##저스
##OC
거미
후손
기생
##일보
흘러
턱
수류
마약
내전
김재
립
예언
끊기
##지마
히어로즈
첩
아쿠
베리
공성
##쌍
##렁
##머스
벌레
하단
즉위
위성
사이버
##큰
상단
##랑이
휴식
티켓
##NA
복구
##늬
디스크
곱
연령
음모
구글
##땅
보험
메달
생략
CF
##위대
##lay
##김
꾸미
2021
LI
승률
.."
고위
태평양
##긋
고작
엿
곤란
분쟁
근본
##ont
윗
면모
좌석
추억
형상
##ies
도적
김대
감각
급격
발리
튕기
이수
문구
표면
카운트
차이점
최신
추종
준우
후원
얀
그러니까
그랜드
적당히
자폭
중세
수류탄
##ᆫ결
클랜
소대
AD
언덕
사명
##타이
파르
상술
대인
치루
경주
아르헨
It
프린
실전
모노
모니
왕위
마디
언더
학습
관점
허락
성남
다름없
끈
고맙
KBO
정차
더럽
연예인
스틸
입지
굿
타로
후술
오마
균형
웬
SH
일족
제약
꼽
3000
구석
오크
전주
아르헨티나
##려들
후배
휩
용서
분열
지뢰
##그리
떨어뜨리
지리
뻗
지경
액티브
DF
증오
취약
스트라이크
기숙
체결
서포터
똥
##죠
토벌
크리스탈
폐쇄
게리
하차
공방
침략
리타
코르
숙련
진압
전이
더러
머무르
시너지
데려가
사정거리
자막
침입
산하
행보
제출
미묘
lo
주차
금메달
해피
부각
어뢰
저렴
포트
이스
법정
부딪
쓸모
##ᆯ드
일본군
입대
들키
간접
아츠
XX
분해
텍스트
LC
##넬
이듬
워커
인민
제트
드럼
##하면
무척
특전
트랜스
정화
루비
##키아
##OD
중첩
네요
##마크
루나
노스
##US
약화
블러드
아테
호흡
평생
##ann
기관총
쿼터
가만
간신히
소방
세븐
##쓸
총알
##어마
논문
오랜만
유발
다지
연고
뜬금
##자드
가동
##말리
인권
알아내
CV
이토
사령부
눈치채
MF
생년
신전
통화
크ᄅ
##첨
거울
히나
잡아먹
##틱
헬기
경상북도
크레
씹
찍히
NE
흡혈
카카
악화
여우
크림
공용
곳곳
로버트
프란
동인
방어구
나리
아포
모시
사귀
SE
놀리
남아
이혼
다카
##pe
전파
혹시
인용
네오
강자
125
##PM
결심
토너
지불
부적
아이언
성당
##40
맛있
뮤지컬
보건
찬스
자이언츠
##sh
저택
공정
WWE
윈도우
.....
악당
자녀
이듬해
페널
헨리
스캐
드롭
구슬
중력
어마어마
주둔
성별
아동
반전
히토
앨리스
가라
애정
미즈
깨어나
제작사
암시
요인
##30
금방
내보내
갈라
보완
상기
##뚱
이식
스크린
구름
복합
##io
잡아내
저러
금액
되돌리
수석
##VD
엘리트
격추
AS
참모
양식
시상
토니
온도
긴장
옳
En
##올
##블린
##네임
스팀
시카
멜로
라기
용인
딜링
##싱턴
##픔
##은행
1950
원리
리온
구미
##네이
시인
악기
배포
라틴
1982
이온
보호막
충실
구축함
your
물리치
후계자
뎀
아저
로이
##천시
헤어지
##츄
아저씨
교과
유력
##눈
CJ
백작
결전
지라
뽑히
동양
우에
썬
김현
낮추
토너먼트
사인
부임
착하
대왕
의학
개설
##올리
##배우
초록
##셋
절차
불사
얻어
흩
천안
;&
채팅
딴
로리
유전자
백인
임신
릴리
DE
상세
서서
상관없
열매
Pro
시라
기상
더군
소유자
해치
야생
임금
##oo
##라이트
빠져
하루카
상영
170
##뛰
교도
본관
베타
정예
증상
##슬링
루이스
탐험
##센트
공산당
비아
호기
뜨겁
드라이버
1983
창원
묘하
답변
안기
전승
실종
기인
법칙
##에르
선두
존재감
코미디
학력
##ᆫ가
마주치
끔
동명
도둑
수백
커플
광장
견디
언젠가
걸어
방송국
##ave
업로드
##뜨
창설
도박
악명
리뷰
항의
##스틴
엮이
##비치
발렌
웨스트
처분
뱀파이어
Com
문재인
테라
천하
짜증
강원도
중량
##포트
대책
행운
수호자
엑스트라
관리자
조리
동점
에요
##ream
관계자
재밌
모터
##드레
##도르
닫
패키
애플
미키
분명히
##ond
기숙사
##LE
##스럽
만남
의장
씬
미쿠
쏟아지
승인
##누스
생명체
다이아몬드
##메이
정통
전동
진주
닛
인력
잔뜩
##팡이
##걸이
##월일
that
기둥
와일드
에다가
큐브
카와
1500
정황
토지
호칭
물고기
여야
캐스터
##를린
단축
농업
부ᄃ
칼날
쭉
##ᅳᆯ란
기름
난입
##엣
모데
##iss
디지몬
건국
유산
##ION
건드리
LV
UP
무관
기후
##IP
니스
##번트
##우마
폴리
심심
감지
성질
그린
리오
도루
창단
레지
미네
잃어버리
유독
창고
할인
문단
생년월일
부사
지치
해명
투스
은신
탄환
려던
EN
가방
ED
##팩트
학위
영광
보드
말투
참가자
서번트
논쟁
출구
##탐
##필더
막내
미드필더
외계인
삽입
##펴보
살펴보
운동장
##ian
시공
하향
유기
해골
내각
뿜
부근
프로필
##갈리
5000
상륙
##유럽
분신
우르
식품
플래시
존경
유인
시합
항구
밍
##릿
헐
경남
주술
분대
한쪽
복제
장인
가공
미만
끔찍
도라
발굴
비전
사살
##태우
장시
그르
##어하
레딧
셜
그램
콘텐츠
조기
부드럽
사법
부스터
유격
진학
##티스
우정
울프
뛰어넘
준우승
정교
주니어
딜레이
디젤
->
로얄
요약
##투스
그렇지만
왠지
코트
아키라
전제
##이어
수면
승자
퇴장
손상
밀도
두르
집착
탕
독재
##늄
태국
선제
통로
대조
공허
민첩
오디션
시리아
솜
상식
##커스
##운서
2022
스위치
아나운서
마블
걸맞
##TV
샌드
체험
휘말리
by
##즐
동계
학기
깔리
##카이
워싱턴
##베스
감추
헝가리
분포
##텐도
닌텐도
##60
시원
he
##셔널
BL
학문
작년
수명
Br
헤어
스쿨
하츠
Co
과학자
##세대
훈장
커녕
##다나
호소
께서
불펜
##ᆺ갈리
철저
싫어하
##우리
루스
전북
빅토
마케
돔
갑작
힐러
근대
단원
반박
회담
##소녀
나츠
맷
보충
여주
국장
하이퍼
배정
슬래
이드
방위
자전거
??
공화
노바
공립
덩치
트럼프
##팬
##rom
##ory
##틀러
사용자
스폰
go
중형
엔젤
비주얼
질병
펼쳐지
옹호
##ace
스트레스
기재
111
배출
라니
Bl
돌입
단행
고객
트루
타석
##Hz
럼
지사
휘하
히라
오키
안녕
격차
평양
##쟁이
&#
기운
185
꿀
토마
깨달
마스크
1945
그럭
대거
리스크
삼각
##카이도
##세서
가죽
##필드
##포르
웃기
경전
꼼
딕
싹
##던지
눕
##저럭
백제
임기
팟
본진
소요
앗
세부
인질
데이비드
출격
웨이브
오염
철거
나마
위안
그럭저럭
##레이터
속이
신도
어필
##TE
DVD
처지
마감
마우스
케인
요한
기갑
##oth
경상남도
하마
미나미
배트맨
영지
축복
Or
##산시
##게임
파편
라이플
##주교
하계
파동
이펙트
뱅크
나미
한반도
디즈
축하
실책
동남
##틀랜드
헤르
중국어
트리플
완결
소음
콰
##ᅲᆷ
장거리
##me
##뚝
롬
과도
피우
해양
개별
후퇴
지향
##ᆯ레스
변수
차체
##하마
침묵
갈아
원문
팬텀
보이스
1981
리카
복선
와타
##ows
##부로
외과
토크
싸이
세인트
;&#
구별
물체
라우
군수
적중
##MP
골키
메이드
날카
약탈
사회주의
상담
오니
막판
치킨
플래그
우세
##TS
스트리트
취득
##끈
무인
경직
기동성
##스리
스케
오이
후자
시신
필리핀
간단히
남매
카를
##먼스
##ᆫ들
왜곡
연습생
약물
손실
노조
결투
튼
##무시
내일
근거리
솔직
모로
브라운
부실
두들
무작위
램
성전
신나
집합
규격
##잠
1979
지칭
주류
부착
집권
수능
동급
급하
흰색
##화점
국정
선행
개발자
##빵
날카롭
중시
패키지
##뇨
##ᆻ다
넘버
센스
멜로디
##IG
밀어
##aw
교토
만주
##ale
이와
줍
수급
독일군
CG
제네
바쁘
야수
전망
골키퍼
망가지
Sc
그날
유전
캄
유성
##그나
##다보
질리
안개
파생
##경기
킬러
최상위
피트
일당
특별히
##딱
무산
영화제
라라
신발
최적
양상
기세
For
카츠
##든지
##아키
원조
무사히
캘리
괜히
서기
베를린
즈음
##ike
끼우
대포
##하시
모스크
틸
싱크
마법소녀
프리미엄
사키
##야수
##네시아
##몸
타쿠
##ep
잎
업계
SNS
##자와
간간
틴
선조
##ach
Cl
여러분
##man
##공항
출루
이웃
야구장
청주
##겹
페이스북
이글
장탄
리프
##아이
주행
Dr
영원히
대치
응용
175
바디
권위
진격
뭉치
왜냐
##irl
기호
입주
록맨
첼시
##ile
##밋
Mo
부동
장사
PV
델
##OU
룩
계시
서서히
임팩트
##플리
협정
중복
RPG
동경
시비
해산
##바닥
호랑이
여인
더군다나
선임
야마토
102
핑크
폭행
챌린지
투쟁
원형
당대
며칠
초인
암살자
##둘
벙
매번
후임
프리미어
관여
직장
올스타
무시무시
106
117
세리
최우
GP
플러스
귀국
풋
연산
나르
챔피언십
프로토
악몽
개신교
사리
오스만
##토스
FM
개장
##ink
OP
연구원
슬프
고장
신자
확산
추방
BB
##ial
서클
##철도
댄
동아리
##하르트
천연
몫
Sk
사립
합계
잠입
어이
엘리자
수비력
끌려가
퍼포
도마
##우치
퍼포먼스
꿰
수립
##그라
페널티
합리
인방
구성원
LA
지팡이
제독
웰
##ish
115
공수
중장
에릭
무술
징역
##여객
권장
조상
인피
선사
팡
##VA
리라
성경
주관
배역
굵
해킹
긴급
UN
Team
감싸
상한
수동
배급
Bla
히가시
체인지
독점
이종
돌연
##승부
물량
장로
CH
파란색
임의
메이커
에디
기동전
폐기
데이트
DD
의외로
나비
국어
국당
김경
가디언
ᆯ게
##킥
청와
하인
SU
회색
닐
저하
미국인
가만히
사무소
##콜
ᄇ시오
풍부
##슴
##데드
##어놓
신입
해내
일람
##II
쌀
##ower
출간
평점
마물
스펠
김상
건네
##쿠라
엔드
세팅
코난
모집
조명
쇼핑
프레이
복원
렌즈
은지
Ne
배달
캐릭
##앉
##운동
청와대
시트
언데드
카트
야간
면허
공백
스타디
명백
공인
지연
포즈
스파이더
바둑
안양
화산
광산
전라남도
##슬라
여전
토시
증폭
뤼
교단
라이너
전무
만만
일화
##IM
테츠
유미
목사
냐면
행방
육상
억지로
감동
만일
다가가
와카
택시
듀오
간호
명의
기장
빌딩
뽑아내
재회
엄격
이라크
방치
박지
아레나
##블로
끊임
승무원
여학생
스즈
##GE
벨트
분당
즉사
장미
Star
택하
자비
##오루
감상
궁금
혼돈
시사
평일
BS
잠들
우주선
피닉스
썬더
대단히
페리
발목
버섯
신학
매출
우즈
산맥
스테이
규제
##벳
유출
##ᆯ로그
계수
불량
광선
무스
알라
##늦
타이거즈
추리
캐치
##키스탄
통틀
천문
청구
드루
우유
부서지
수색
오메
김기
닝
we
##99
슬리
국무
포켓몬스터
쿠라
코멘트
DC
고소
##벌레
수비수
베이징
##라기
And
ID
뮌
350
고블린
깜짝
All
PR
우월
##브라
국제공항
##타카
뒤지
재학
되게
치즈
##!!
처참
벌리
상관없이
우익
해머
Wind
##느리
실장
출범
##히코
Man
본토
버드
붐
합동
배수
축소
시상식
실내
시바
기쁘
##체스터
War
##ass
뚫리
바르셀
만지
포장
안쪽
질투
바르셀로나
혈액
고로
##농
비웃
심의
유언
조롱
스탠드
##번에
다운로드
톨
라이온즈
탐정
승진
레일
난사
디즈니
당사자
니아
세라
운수
##벅
파이트
토미
중지
호시
수직
온천
LP
##gh
##11
세금
협의
로빈
여섯
리가
치열
스타디움
기리
태풍
에픽
따뜻
##카락
##잘
평론
##ib
##뮬
##pp
머리카락
##춤
108
자꾸
360
말ᄊ
충청남도
짤
스미스
파멸
up
의자
서포트
112
##orm
한두
캘리포
권유
fe
##ft
실현
체감
아지
골렘
##졸
젤리
극도
키타
##민주
압력
소용
##사이
시외
나기
스텝
인접
우치
##이나
크리스티
정발
오로지
기력
뒤늦
검술
전당
여파
황후
##틀리
도저히
티아
탐지
타르
텟
모험가
##닌
특급
트릭
1978
##tle
스테이션
New
사이코
루크
손자
낙하
One
캘리포니아
나노
모임
조용히
마코토
반부
배제
##도리
프래
##ous
##앤
메이플
비유
러시
오락
##ᆯ러스
##스티벌
페스티벌
분산
103
아쉬
단종
미르
지인
지목
직선
SF
물품
마카
루머
Mar
반감
##CG
묶이
비명
범죄자
전남
우드
신용
엽
스티븐
중순
에미
일요일
맥주
프렌
AKB
서머
가난
리즈
어시스트
모듈
##려받
##sp
조르
강등
붙잡히
주최
1973
주교
폭파
케이블
오우
바니
넘어서
##amp
알바
동반
##가드
토큰
함락
하프
##now
힙합
##ms
##ment
재개
리버풀
미미
이글스
드림
려다
기부
센서
생전
루피
캐시
##70
꼬이
거북
조커
수월
##yle
실은
농장
To
부딪히
추세
불행
무승부
강사
##atch
파울
베테
다스
유의
184
스핀
토키
암호
조우
홋
낙선
젖
##튀
막아내
체중
넘어지
명문
능력자
타일
인자
IN
고속도로
김진
카구
김해
기수
할로
ex
수염
좌절
비틀
토요일
중부
연봉
Part
당당
비극
원시
##뚜
대성
드론
아가씨
신속
개척
명목
ON
시로
중화민국
여고
소니
적자
바스
깊이
##쿨
기묘
모스
김용
얻어맞
진상
빨간
퍼부
##나오
수습
더빙
훼손
CS
음료
128
끓
조카
##슬러
구조물
입자
BR
나요
##케이션
패전
두렵
엑시
주체
오페
바론
쿤
실시간
살아나
후회
막상
경악
도리
극히
엄밀
야쿠
##hen
KR
Gam
고시
에로
던가
##렐라
183
히틀러
##ING
코마
되살
##구나
까이
믹스
각지
영감
변동
##ree
억제
산탄
혜택
1974
채보
하여
쿠데
유망
##ae
대시
##ase
나루토
배드
##킷
듀스
집어넣
에반
혁신
상반
까마
PP
리처
배려
인과
엎
샤이
총장
질서
팁
##어트
##64
장성
##스트라
잠실
둠
경북
##버그
되돌
World
캣
구동
재건
ᆫ다거나
국판
꽉
복사
번지
휴가
코믹
도장
구장
핀란드
##놀
바지
1972
늙
노가
##렐
호남
선수단
날씨
다투
꼬마
찬성
철권
반짝
##밭
포탄
견해
말기
계층
해병대
벤치
얽
이타
그랑
##거지
대행
마땅
##불명
쳐들
지수
카리
##베리
##az
##기에
고증
##사리
스코틀랜드
투척
첫째
사퇴
동해
##방송
닉네임
아이러
천황
유재
수여
뻥
크레이
장탄수
##노리
그라운드
갈색
짙
##더라
사무실
##클리
메트로
트로피
퍼즐
##이너
레온
역습
껍
쇼크
가담
달려가
##잎
운송
걸즈
##테이
제치
근원
할리
##저리
거론
유니크
JT
중동
사로
동행
##빨
공격수
프랑스어
수지
네티
장례
샷건
##ear
때려
동서
최저
짐작
ᄇ니까
산타
##클ᄅ
거칠
감수
확장팩
##ᅥ하
기뻐하
AN
키보드
휠
동아
여의
##ason
제갈량
##펠
라즈
첸
유입
부시
보라색
220
##12
평하
빨간색
공감
1975
뮌헨
So
챔
무용
함부로
상사
세자
인재
돌보
어쩌면
피로
##듯
포스터
고무
##라드
래퍼
노란색
마일
나스
잭슨
짐승
오브젝트
##구장
퇴각
백화점
##러그
##AY
GO
리미
재직
여럿
샵
영양
왕실
특별시
매주
가구
아베
덴마크
보좌
갚
##돌이
마오
대령
##토니
##MS
인도네시아
##직자
결제
진급
##앞
각오
1976
사관
엔지
베기
알렉스
기스
##are
소재지
베어스
양손
패밀리
안심
전날
정반
헬리
시그
반도
##끗
JP
세로
##iki
페어
와인
장난감
호불
호불호
강림
원더
탐색
경호
사야
상주
셔틀
후반기
비기
##웰
##사기
완공
트레이너
240
드레스
여단
차갑
관료
킷
오더
연쇄
도덕
흔들
요미
포도
포획
모형
메이지
신선
카자
시카고
##차기
##저기
##ᆯ릿
프린세스
##키스
워크
당기
도어
빠져나가
네티즌
연설
봉쇄
##ng
흡사
마계
문화재
비비
거든
토대
지부
우호
##케이드
생체
가두
역명
##bo
국도
탐사
밀어내
화폐
타이탄
sp
막강
점유
라마
##베이터
##ife
여기저기
하하
쇄
유혹
결혼식
역량
##박스
우측
##gin
루프
학생회
여서
세뇌
집회
양반
##ven
강렬
소금
##슈타인
뜬금없이
렐
콘솔
OS
끌리
디오
려다가
말레이
클론
시모
FW
출산
##스트레일리아
케이드
쿠데타
벨기에
두들기
경찰서
신중
흙
##껍
##AP
방탄
약자
깎이
날뛰
##릇
방송사
무실
교복
성분
tv
다큐
원곡
서바이
청나라
##륨
후미
우회
돋보이
콤비
선박
##ade
침대
부작용
ᆯ려
Wi
무공
모스크바
일곱
기차
트라우마
빈도
위로
바나
박쥐
간섭
법무
중심지
AFC
발명
트윈스
노르웨이
공산주의
폭스
프라임
아이디어
전동차
김준
스즈키
우루
원주민
제물
##에른
통칭
소득
아이러니
##90
윈드
침투
포터
##ᆺ불
변이
##하나
출혈
로이드
트랩
##act
당초
연금술
힌
취업
홀리
NH
드로우
##ank
전락
결계
창문
튼튼
리안
밀려나
##out
비스트
소통
강경
##천군
박살나
품질
토하
http
중점
MB
오노
104
##싸움
##아치
상무
탭
##른바
노무
소나
##ork
콘스탄
##lect
##oll
선장
크라이
체코
글씨
판사
123
허무
순양함
이순
단행본
부재
저자
장판
항해
https
디시
##지르
##헬
##와라
아바타
히로시
도쿠
제재
##우트
코스ᄐ
전향
##aby
Do
홀드
명명
기하
손꼬
발레
1971
##렷
혈통
명사
##드ᄅ
독일어
하스
이른바
책임지
강간
성씨
검토
##흔
리코
다스리
낭비
도감
나아지
##깨비
공대
##ET
대타
##데레
쓸데
##ich
입증
##ai
분할
조종사
외곽
구상
시호
오지
검증
##루션
페인
도트
Up
전송
찰스
승차
장남
스트라이커
티스
신데
##ey
이스트
바이에른
1977
~!
라가
공헌
토요
##트리스
페미니
마틴
라크
트레일러
단기
관통력
##ary
%/
큰
한창
경연
히든
do
모니터
깃발
##추어
III
장애물
끌어들이
왕비
광물
우승자
전격
오페라
김일
끊임없이
대법
백업
싱가
브라이언
태클
싱가포르
유연
넘어오
루마
Fate
제니
##way
마피아
부유
오스트레일리아
진단
사사
질량
술사
no
실상
##페이
매니아
그러므로
엘리베이터
김지
182
신데렐라
성실
을수록
워크래프트
시게
형편
LIVE
라스트
커스ᄐ
보고서
커스텀
대변
강릉
우울
부패
파도
렉스
간간히
입문
교리
##바야
충족
##스톤
딸리
손오
스나이
##저우
최선
범용
손쉽
고고
동전
135
설령
학사
재배
니콜라
중기
리모
왜냐하면
파밍
원장
검열
이어받
유료
대동
박정희
고종
Ad
119
##UM
레이블
창립
연간
확신
사로잡
천천
ES
여타
특공
##프라
대접
하반
사악
are
히스
올바르
존스
탄핵
자네
보스턴
하급
나폴레
압축
초상
키라
##넌
Day
일체
109
스피릿
뉘
스타리그
급행
1969
마산
스텔
근접전
중위
맞붙
중상
섀도우
##플링
단백
1968
스트로
예약
지선
공통점
나폴레옹
왼손
끌어올리
토마스
평등
Oh
카시
따라오
정석
##벤처
명분
제왕
일관
어드벤처
##orn
##타입
초콜릿
한나라
쿠스
##pt
중고
##모스
한나라당
시온
미지
전생
부속
조국
석유
벅
디자이너
김수
##께끼
수수께끼
으려는
잔인
카더라
강전
트리거
렘
##으로
케빈
트롤
##모함
곡인
불태우
마운
공단
##첼
##동자
저기
구독
본질
지붕
##사스
이현
천천히
얇
##어드
단검
흩어지
베테랑
올드
Mk
터스
##의자
소모량
강호
군부
수인
친절
엔지니어
##능력
꿈꾸
리처드
스태프
코스튬
##가루
보르
망명
##ᆯ프
잉여
민중
라이언
메일
질주
머물
##퍼드
긁
121
##키리
동구
발판
단발
홋카이도
관우
에버
all
연수
갑작스럽
손오공
이병
선교
아스카
##샷
사촌
동정
화상
카카오
씌우
치카
##하루
유망주
145
마트
땅볼
비리
br
이오
주식회사
성배
톡
1963
그릇
기울이
총독
##크림
니혼
lv
##스레
이틀
##다운
과자
손님
무제
퀵
쯔
고는
굴욕
후일
버스트
이모
너머
nd
##네마
레이디
테이블
쓰리
자제
친분
소집
107
##ᅦ이머
프로게이머
전라북도
##ah
메리트
도깨비
리퍼
하사
##iver
삼성전자
폭격기
오메가
열정
="
머니
아ᄐ
얼라
합작
##톡
극대
178
맹세
현금
달아나
명시
##루미
교차로
작위
Windows
어색
항공모함
위엄
자율
브라더스
RA
평행
김포
IT
에드워드
아아
강점기
지오
왕복
단백질
쫓겨나
춥
FF
미궁
그레이트
종결
땡
조화
디펜
지력
스택
##ph
엔트리
퍼스트
##글라
에이지
라그나
원숭이
ML
필름
이경
화해
점검
서명
165
리틀
마타
구로
##EM
존중
백만
##ᅳ롤
Sw
시외버스
대박
윤리
천장
박살내
썸
##uck
오렌
스티브
카리스
지분
자책점
가설
대전차
와이번
후드
일가
평론가
광기
완화
AA
프랜
신동
봉사
그립
DP
화석
출판사
하이라이트
분자
감자
##urn
진에
계곡
피카
##군가
물자
유치원
터트리
정사
인칭
과일
촉수
변태
섹
서적
으라고
공신
젬
매각
엑시즈
고집
유탄
다니엘
사체
1930
여포
대위
보편
카마
##소년
##ool
원전
##아들
스가
시골
자존
##ero
면하
누군가
113
관장
마술사
초점
Con
표절
".
러스
츠카
잊히
해소
Ph
교과서
입사
ne
병역
맨체스터
181
사족
유가
몸통
이이
진동
카레
탄압
하치
총합
프로그래
JTBC
노무현
##바나
플ᄅ
##렇
수천
##ical
외우
꺼리
210
무실점
지역구
쳐들어
자산
감탄
챔프
김유
란스
줄기
착륙
1920
이대로
산소
##막지
무지막지
##anc
경사
주축
게이머
마케팅
떨치
NBA
서열
사수
중거리
모순
광명
터보
서방
BPM
Cr
솟
임하
파랗
손꼽히
펠리
도심
페스
스포일러
검정
뚜렷
실체
친척
DPS
개명
부원
초청
메카닉
전지
유격수
155
타구
힘입
부천
선로
국방부
지혜
토트
##젤레스
말씀
179
마유
표적
액체
##마르
동대
철저히
카지
고아
##ung
어나
슬픔
브레이커
발발
호의
1940
깨끗
테스
##은색
결의
##ype
부산광역시
닦
제리
향후
##센스
냉정
배구
장타
동속
##켈
데빌
시뮬
노가다
Qu
엘리자베스
성명
지로
122
152
일리
로프
##업자
용산
불쌍
빙판
사우스
불능
##변이
돌연변이
겸하
마당
144
동성애
파운드
매드
미오
쨩
##ARD
겜
곤충
지장
스노우
at
이노
일렉
마인드
주석
블리자드
##ᆺ속
1967
서류
북아
모델링
참사
##ens
이케
우타
중구
집계
엘레
유니버스
레이어
때로
골프
외국어
그해
광경
고사
치안
스폰서
에도
슬라이
크래
아깝
목걸이
앓
벨라
발탁
클린
##very
다케
비우
##멧
##질랜드
미러
마하
변장
##지아
실용
뉴질랜드
기질
마그
씨앗
문양
모음
부스트
상금
김승
어벤
사직
아마추어
민간인
자이
내버리
##ence
##드러지
중원
##시피
amp
유아
취재
케이크
텍사스
기소
##카르
무늬
##항공
시어
좌익
정문
{{{#
##시스코
아리아
워터
트윗
학대
수위
주사위
##ost
날아다니
박수
울트라맨
멍청
엄연히
워프
##상시
OVA
애칭
##끼리
재앙
이라도
근로
닥치
##테일
나나
시조
Station
누스
답답
리나
물어
이빨
우연
질환
레인지
하나하나
녹화
정점
자사
납득
LO
포크
예의
소비자
본능
햇
절친
스카우트
##nt
국토
이소
쿠니
서울대
신하
from
고등학생
직책
디바
##타운
저서
각도
##ble
열혈
이태
게르
TVA
난무
압권
좌측
##ise
Fr
소생
철갑
네이션
편리
경부
##int
##ww
as
##베트
##클레
관직
쿵
발키리
워즈
##테이션
패자
##부지
초능력
주머니
정밀
일커
일컫
KOF
실사
혼인
헷갈리
라이즈
용암
침몰
##팽
호크
정성
114
자칭
오죽
##과이
조항
작정
이념
개교
남동
어나더
##폭탄
드래곤볼
농민
##DD
##마리
페르시아
TR
만점
장벽
##려워하
의정부
쫒
자아
IM
##쥬
##흉
##지능
인공지능
덤비
##ans
##ign
사연
##뱅
도색
이원
love
아메리
스케일
발급
어이없
미성
유스
##띠
반경
##ᆫ즈
교역
##워즈
177
##밤
당국
예방
멋대로
가마
대역
츠바
원로
##이동
엄밀히
포병
롤러
중국인
벙커
아자
##리나
거지
사투
웜
박성
마음대로
DNA
아담
코토
재즈
임진
CM
1962
##미터
학급
에디션
개구리
이어서
몰살
이대
##ᆺ말
리본
변명
인성
비키
킴
옥상
##ug
##야스
고가
안동
마찰
##레인
습니까
마모
Super
MG
고의
템플
제사
##민주당
이누
초록색
wiki
##oy
알아채
##AK
포착
오렌지
협동
망토
신지
아케이드
펌프
##마루
갱신
도르
방학
Dream
각인
죄책
루리
초과
팔레
격려
튜버
1966
124
매달리
부채
법사
##셈
항모
남동생
민감
명나라
이명박
툰
로라
극한
##하여
시오
127
선동
스컬
풍기
혼합
디스플레이
만능
피오
용이
아사히
바쿠
카운티
등극
독립운동
멧
미인
달려들
부동산
닷
수신
통째
마라
너스
1964
겔
다비
원피스
##바야시
CE
수감
이진
!"
##자치
##지사
##텍
적절히
커스
비평
들여
풍선
##떨어지
BJ
연소
마에
리사
can
오다
종영
선포
죄책감
덮치
포탈
아비
코파
슈퍼맨
베스
금강
추후
용자
방심
정신력
대피
카테
USB
헬멧
교도소
시시
로렌
쿠바
협조
www
발전소
유진
후쿠오카
호러
유엔
연전
##이치로
부러지
##이크
엉망
450
고발
갯
유고
인벤
##뱀
감당
종전
아이디
도약
기법
스케이
다시금
선원
정반대
은폐
##바이트
신곡
연동
Pl
##vel
학술
##코트
내셔널
씻
비단
뛰어들
트윈
팔라
억울
##치아
오른손
스토어
스탈리
##IR
##나베
최순
트릴
##툼
해운
다거나
블럭
##전차
##트론
대차
##철수
왕족
흘러가
스로
분홍
옴
##ode
##페이스
컴백
급격히
IP
덩어리
잔혹
this
##뒤
공속
타츠
방침
시타
물려받
##폴
철도역
경성
위쪽
아울
우마
절벽
##uk
련
아쿠아
밭
내기
##글링
##쭉
두드러지
보강
아무튼
Sch
페어리
##렉션
타치
##생활
빌보드
부스
아인
크래프트
녹이
EC
제의
출동
득표율
##짱
구형
고립
퍽
사나
Ver
##ier
유카
발각
욕설
서리
##크릿
유동
청춘
쉴드
학회
사방
##VER
맞히
##궐
오케
얽히
왕가
후유
그러면
162
공동체
사슬
무도
잔류
사무라이
##프로
생태
격렬
시크릿
ERA
인문
기본기
침착
##헤이
측근
연이
군요
쿠마
La
내외
ᆫ데다
사물
Girl
##블ᄅ
##빡
##속기
코노
##ash
진술
게끔
네크로
꾀
비오
호드
##바지
어ᄊ
회관
##나기
대세
##reat
얹
실존
그란
수소
##구미
아랫
분배
마야
리바
키미
나인
강대
젼
##역사
뺏기
선지
카네
##우라
강민
우크라
문신
1200
야당
바시
현자
궁전
방사능
넬
이행
정조
레이싱
ar
118
이단
미아
카리스마
신한
약혼
박자
전담
##트럴
Season
애인
탄소
레나
왕후
함장
##usic
퇴치
징계
부가
스쿼
제주도
##롤
쿠리
##트릭
월간
반성
중재
style
직위
모욕
NO
카쿠
태생
고이
이윤
워리어
카피
반역
EXP
판도
사치
DM
가위
존슨
로스앤
로스앤젤레스
테르
진에어
강타
흥분
Col
오퍼
계절
가오
코스프레
제노
중소
1965
러쉬
상부
tr
인쇄
##뱃
타이어
잠기
타리
유재석
이용자
##꿈
노아
마쓰
김구
화기
칼라
충청북도
스모
##틈
탈환
궁합
물리학
모나
급속
종로
자이언트
지루
WC
갈라지
스프
뷔
1948
##스르
Vol
##te
한양
우지
암컷
중견
시종
앨런
벗기
말레이시아
건너가
##IX
점심
피자
아처
750
오사
정전
이놈
##공사
돌려주
금요일
불러오
Ed
흑마
도미
흡혈귀
##수리
##사르
일환
##딸
안토니
중도
입원
비자
기동력
친애
##ose
##슐
퀴즈
우두
Max
항공사
1944
유우키
##ail
Night
회로
로스트
은메달
난민
노랗
사임
##끄
##티노
관문
실적
등재
한하
능가
314
공국
고인
부처
황당
시범
마르코
##방울
호리
김치
레아
생김새
안무
청하
자존심
방언
입시
학년도
동메달
황태
섬기
피지컬
섭취
##사랑
벌써
라미
사지
대검
두려워하
방정
AV
스나이퍼
TS
성사
##탐정
로키
숙소
천상
망설
적시타
사와
조립
##랭
막부
코로나
##보기
건지
--
치이
대학생
극심
골치
뚱
##닛
그간
욕망
##시고
##ition
응답
토트넘
요격
불길
168
##ild
1946
석사
잼
GM
테리
욱
불참
프랑크
스타즈
탈취
##킬
##서스
거세
에메
해역
차장
스파이더맨
아오이
쿠르
오만
얼티
아메리칸
각국
뱅가드
과시
통솔
##톨
까마귀
##바리
절단
확립
할로윈
##시대
여태
나이프
그쪽
발하
펑크
##부키
피난
스피어
소서
모종
사르
Black
스타트
페르소
159
HE
부끄럽
나이츠
보로
한꺼
헤라
희생자
한꺼번에
다녀
필사
천국
##구니
BC
Let
이별
요코하마
##}}
대안
so
하여금
ld
레버
필라
신생
박진
##클린
미정
간판
파스
경제학
국기
고추
얼리
소소
아마존
케리
##히토
부친
기껏
나들
괴인
사이클
이사장
##렙
테니스
강인
일지
모빌
시안
나들목
아케
마기
##IL
해변
얄
원판
로비
일조
저글링
##맨스
점멸
##멘터리
스탭
Op
로맨스
병행
어원
##타리
##당기
욕심
집필
##ody
도대
##msys
이승만
1961
ldmsys
토우
과금
rd
사탕
대니
김주
가이드
미노
들르
목욕
단자
미녀
##겔
히드라
not
상냥
스매
리버스
##성군
##깃
페르소나
얌
코끼리
키요
김광
툭
##워프
평택
지지율
교향
달려오
토라
블라디
두껍
##뼈
주한
성벽
굶
사망자
##미르
승패
쑤
회계
오토바이
히사
가해
메디
##무지
##당초
##브로
항성
사이토
뻘
진도
하지
돌려
그리스도
오즈
삼키
고래
일일
스윙
갸
세례
##gr
지크
멸종
둥지
빅토리아
스트ᄅ
수컷
삿
스크롤
다큐멘터리
주파
중공
파고
광범
ᆯ래
늪
디아블로
BD
신작
##ough
##딴
##빗
덥
유머
전도
여주인
동사
직행
프랭크
##uc
물약
AF
춤추
##각형
객관
해전
엉덩이
맑
바텀
전임
침해
댐
수중
##스카
만렙
##ᆫ규
내밀
환생
조수
##세지
퍼펙트
믿음
동북
무녀
밀리언
그랑프리
좌파
동상
빙결
라인하르트
부제
##진호
##프란
리자
##퍼니
도배
화신
보살
정서
일어
##33
##ᆼ객
퓨전
마도카
아유
##스트로
##메리카
MM
해고
대승
무지개
북서
맛보
세르비아
원자력
상원
금발
GD
루마니아
진흥
모의
무능
mar
알렉산더
껍질
발사기
접수
지각
벡터
도요
외야수
노부나가
십자군
RE
테이프
출석
##시티
주저
수아
4000
김대중
워드
불상
##모습
스텔스
두루
##app
목포
간지
미소녀
개업
명장
##aster
관광객
울음
1949
섬멸
뾰
에코
스쿼드
리프트
약체
도대체
138
노릇
아무렇
카토
아리스
주입
이니
연세대
크롬
동아시아
셀레
방안
팜
##은이
서울시
줄리
##애나
베이비
아카네
##이센
OG
휴게
일명
운반
Is
구호
en
대국
눈앞
하와
무자
151
두려움
둥글
면제
혼혈
공교
교대
성지
카일
코레
퍼시
##ᆸ트
공명
##ari
샹
공로
북동
##CE
타우
##orts
와이번스
이카
아니하
선회
스기
##ject
데몬
비로
평판
사천
폭로
##벼
마을버스
걸어가
##총장
천주교
신념
ㅔ요
평상시
AL
옐로
컬렉션
172
뺘
보우
##랜
루미
인피니티
히로시마
이나마
보복
위시
꺼지
그리핀
##고속도로
유메
격퇴
PK
아수
노비
숙청
광범위
쿄코
드워프
대사관
##OO
대면
신관
휴대폰
이계
##디스
배리
가령
낯
컨디션
어제
애용
Gu
CR
집사
주공
남양
라비
##긋나
풍경
무신
가해자
편의점
##ᅩᆯ
큐어
정우
EU
장본
숭배
최상급
158
le
이무
리부
카사
##아티아
츤
크로아티아
스타워즈
소마
스카웃
컴퍼니
SA
놔
뢰
신조
Am
천체
##iel
밈
##TA
컴뱃
우미
단련
제발
와타나베
단서
성대
챔스
스틱
스칼
불화
감성
자력
엇
남한
레슬링
찬양
##다드
리리
##리얼
수성
달콤
##0000
320
EXT
##부인
테오
##oh
트러
..?
카게
휴먼
냉장
##잉
김병
떠돌
Time
정답
math
일련
으려면
##ye
클레이
독백
원한
테레
민폐
광복
아르바이트
아쉬움
섬광
Mag
솔저
홈경기
흑막
구제
권하
기온
랴
강동
티저
점하
효소
EZ
법안
뻔하
수확
주차장
스톡
시네마
제인
건립
가이아
남학생
추모
도스
대교
상시
##eth
지면
상어
뒤쪽
보직
타카하시
무선
##ings
서바이벌
##쿠스
##ats
균열
표기법
하도
하우
176
##조합
라이드
개막전
장본인
눈동자
나란
안드레
AB
통보
던지라
민병
Don
신임
사범
적이
일각
##오피스
살아오
##ron
이점
TOP
의의
배후
트이
딥
지미
리믹스
단역
우기
GSL
UC
센트럴
대명
걸음
어기
강아지
투고
내정
승려
자루
주의자
청사
문헌
315
CL
카이저
수라
탁월
오공
쿠사
순천
손잡이
천지
고난
##바람
깃털
##eah
아이즈
ATK
##덕션
##트랙
##낭
어벤져
내면
재질
NT
전염
유라
문법
얼티밋
다녀오
로제
실업
그리하여
직무
탐구
무슬리
김일성
무슬림
일산
126
찔리
##쑤
제대
캡슐
여수
유해
국민당
##로우
##중간
결과물
시련
충남
##도전
##내리
##운수
슬라이드
가나
마미
이호
볶
타스
미세
악행
밀라
##ult
154
##총리
##마치
1958
으리
펌
응급
블랙홀
동이
##꿉
성직자
132
이순신
염색
스파크
ver
흉내
자작
표식
금고
히카
식스
##성이
164
흑역사
총사
충고
신상
##나르
크라운
로크
치고
총선거
박스오피스
소꿉
로열
독보
ME
발톱
테크노
보트
하나님
이세
1941
정의당
서원
친일
아스트
예고편
병살
리터
##inal
##ov
무한도전
유마
피드
리우스
라틴어
프린스
다저스
고조
호응
레이지
토론토
어판
합법
습하
보가
표하
will
감금
iOS
심정
풀려나
팍
비즈
겨루
그레이드
무비
매그
재수
르노
##ᅮᆨ스
병과
가왕
콜롬
계략
지지자
당나라
간파
##느님
샤를
도사
new
궁수
KB
마가
차림
과격
군데
1954
##떡
우두머리
성폭
바이킹
강수
##널드
LE
하느님
리플레
동등
주황
##런트
삽질
저항력
라이트닝
렀다
Mi
퉁
보루
이즈미
##넛
성숙
방울
##짤
완벽히
WH
니트
배열
테란
##oul
쫓기
가미
강서
방정식
폴아웃
몸매
156
139
##GA
갈기
사료
유신
매기
##alk
태조
##==
거꾸
스탈린
안보
취지
거스르
행진
스파르
Ser
인천광역시
구청
긋
지표
통틀어
크로우
진하
##tern
아호
오로치
like
허브
##yn
##바스
하드웨어
전법
스치
##ob
Your
리볼
응시
하비
리츠
##타르
강습
218
153
흉악
레시피
제너
##러브
##드리히
##up
패왕
손목
2023
##엘라
지배자
Car
##핏
##빨리
스크래
세미
프로덕션
아테나
마수
맷집
##MAN
오키나
저승
생물학
{{{-
발현
번식
이용객
프로이센
청장
##베르트
##렉터
##주의자
나란히
드루이드
김성근
슌
##넨
공모
무색
먼지
테크닉
마티
##활약
상공
웨폰
장신구
른
코디
##곰
후쿠시마
지터
상의
태권
이인
교정
빗나가
동지
완성도
##프란시스코
미시
반기
이쿠
야망
샌프란시스코
##ᆼ가
더미
##ould
선봉
디비전
노라
급식
트론
이리저리
##타니
버거
어드배
##저래
148
유능
##제스
맥락
##reak
봉하
이래저래
키노
벌금
지성
충격파
##ions
짬
누이
난리
셋째
라이징
후면
섬유
레바
김윤
마마
떨구
짝사랑
핑계
##라미
전두
##보우
설탕
오바
후반전
동년
##리히
167
브라우
##der
엮
나열
카제
재벌
법학
##13
미남
신주
163
코프
필두
양심
이영호
##able
킬로
우편
##레븐
표창
상속
##18
142
음향
Fl
감기
one
174
대법원
김선
초등학생
과언
이광
능하
워너
##크리트
전례
무궁
시간대
조던
맞대
모에
거꾸로
##친구
##처럼
접전
통행
##사고
1943
##전사
##고사
##이언스
..!
종말
203
벚
복음
시뮬레이션
양국
ᆫ가요
숙련도
##ᅰ어
커플링
휴스턴
네스
무죄
범하
놔두
##로그
##차리
배상
몰려오
오케스트라
최하
저격수
김두
도모
박탈
유카리
배율
스페인어
타키
##왜
##스텔
반장
연달
혼동
사가
애국
공격기
파우
하츠네
야마모토
당원
##무네
Gaming
스케줄
볼드
##문화
GK
타당
추출
크리스토
1942
자키
##결승
고우
엉뚱
ᆫ단
부호
유타
##백과
통증
종사
스마일
오역
10000
##ull
##기업
단의
SSR
##15
어긋나
쫓아내
대등
맞먹
##ll
ᆫ듯
주유
가히
##니코
데미
꾸리
##룬
##셉트
얼라이언스
수도원
냉장고
##시다
장례식
콜레
137
쟁이
맹활약
프레스
사내
처녀
Min
수령
TP
진로
절정
143
1956
se
플라스틱
달인
몰아넣
연안
미하
버블
탄막
인명
황실
CN
황혼
무안
창당
카인
단식
RO
대외
pr
##투아
앞세우
가라앉
창작물
회견
약칭
시끄럽
주가
일러스트레이
##터스
굳히
칠레
월요일
스캔
##니즘
시에
여주인공
제자리
노하
숙주
연고지
마스코트
주술사
염두
##FL
한층
초상화
##껑
생애
승급
역학
범주
정교회
바이크
깨우
##니스탄
##재기
음력
아수라
갈구
##상가
157
밀레
산화
수하
원화
쳐들어오
사야카
빈약
##뱉
원년
이준
애완
인텔
어그
사소
릴리스
현직
##더슨
바비
영등
차일드
태자
레인보우
레이븐
##ube
토비
전학
##랄드
증기
LTE
제지
과감
바티
펙
인체
##보라
능숙
##모어
오리온
미트
##퉁
죄수
구마
왓
플레임
NM
공고
129
순간이동
아슬
##ECT
득실
IV
런처
러너
안제
졸업식
헤드샷
have
꼴찌
오디오
레슨
사우루스
##크라이
시흥
외관
리볼버
한강
오비
대군
무너
무너뜨리
앞면
이오리
찰나
평창
133
클라우드
델타
생각나
흐리
별칭
out
잔해
오피
연막
오쿠
제프
갈리아
##ICE
남미
이만
##물리
사당
관계없이
초래
##소수
유대인
카렌
투사
기관포
해상도
BGA
관절
축구단
몰아내
싱어
페미니즘
대목
환호
Sum
146
알아차리
세키
이력
베어
##ᅳ레이크
호프
##스티스
반란군
가와
무단
노골
설마
박종
섹스
1939
##니스트
득표수
마니
격하
뮤지션
내ᄈ
경찰청
밀어붙이
소우
두뇌
136
따내
230
순찰
313
전반기
십자가
북구
173
공습
청룡
단총
방벽
폴리스
체스
한정판
라시
입법
HS
혹평
리베
확고
후대
목재
차분
##탱
자포
너클
극우
쳐다보
##의회
##바루
##ica
un
망설이
##대사
##이스
공짜
우산
기이
1959
화약
꿇
##에트
경선
자회사
브레스
앵커
소꿉친구
기술력
내뱉
파키스탄
##박이
솔직히
푼
지요
오프라
키드
나카무라
프로그래밍
구독자
##제국
##회장
##믹
1900
다지만
웨일
치마
호출
##che
빙의
기쁨
ALL
BM
Play
태종
인터페이스
영화배우
쇼트
##ᅨᆫ
As
방화
아래쪽
##맷
설비
끓이
공자
무식
1955
아테네
##티넘
플래티넘
BO
랜서
##드리아
지주
플루
오딘
표본
프로스트
149
##ict
친정
빈번
닫히
##무게
지극
입국
몸무게
1936
전류
강탈
실바
##뿔
키즈
난투
바그
비참
폐허
뚝
우파
##토랑
제조사
번갈
레스토랑
##세포
진구
ᆯ까요
맹독
오키나와
동로
카테고리
공천
성규
134
##슬란
극악
브루스
남서
바인
도쿠가와
##곧
라파
출제
슬슬
000000
팬티
Red
달래
아노
시초
##ᆺ대
가로막
카오루
미들
리뉴
전수
##ock
##콕
팀장
##블레
칙
넓히
서장
해태
채찍
플레이버
##STER
set
##YP
박명
BT
힌트
심화
혼다
뫼
##날두
##천사
얼터
경보
포니
호날두
프리드리히
la
샤오
사나이
부흥
수영복
##모니
##ater
서치
공과
OF
CB
하의
찰리
여장
know
미쓰
저조
리셋
퍼센트
클리셰
파랑
진리
나사
CO
포맷
운항
수용소
147
EV
##DX
잠그
미모
##무이
망상
대패
##주군
margin
##ons
멘붕
히카루
가혹
텔레포트
##IV
유선
1952
##ange
##MAX
##ᆼ귄
나락
Of
콕
##풀이
수상자
##ster
청원
애쉬
오세
##스타인
High
Type
가의
해독
럭키
밧
##생기
일러스트레이터
##소총
양대
스ᄂ
박영
1947
복도
테일러
라이센스
퇴역
팩션
장갑차
바나나
박해
클러
불문
무수
거느리
재임
애쓰
조력
##사관
슬램
심야
실천
냉동
아이폰
##산역
##데르
##카미
BA
소행
파손
불가리아
오른팔
둘러싸이
치바
가브리
개판
##무늬
시집
정준
교육청
메세지
##겸
선형
Light
준결승
생선
곡선
뒷면
맞물리
롤링
스콧
공손
왕관
##전설
ᆯ라
지자
##왜란
교양
산탄총
##to
임진왜란
pro
소매
미도리
플로리
소령
제이슨
개미
트랜스포
미숙
##에몽
경지
미스터리
스나
##ple
열세
불쾌
분쇄
보디
##PA
미끼
배속
율리
경질
차관
배우자
##14
슈가
앰
책상
Gen
무명
자부
페니
##나리
##교통
때려잡
증권
루키
##지않
증인
종착
TE
레슬러
신세계
슬라임
로지
##바다
166
모어
트레이닝
사일
복용
개개
##BM
AG
플랜
김천
옌
Heart
랙
땀
연말
격리
악곡
비로소
편견
NEW
앞뒤
어워드
로그인
상대식
주고
##메라
##ics
280
깡패
##레슬링
전두환
재림
지난
패스트
싣
달라
봉기
프랜차
캇
비꼬
파괴력
필터
하이브리
진짜로
프로레슬링
스매시
외면
태미
##차례
##테스
퓨처
기행
하이브리드
랜스
What
##17
프로세서
수시로
##규모
반환
원망
빌라
##고래
##넉
중급
요우
시가
라임
심히
스트리밍
##권자
중후
좌표
섹시
보잉
AE
수다
열기
안철수
프랜차이즈
소설가
##les
feat
##구역
포식
MO
미식
심상
자켓
was
스팅
진형
오프라인
스바루
실로
##세서리
글리
마켓
파이프
레프
사천왕
제우스
페이크
르네
##즈카
삼촌
1919
웨인
제단
직통
동조
##ᆫ티
반군
%.
Tw
강세
##산동
골목
준공
져
Kor
슬러그
##CC
폐선
최정
222
야전
선인
장학
Blo
꽁
탈당
감행
##nder
세일러
##지오
가르침
메구미
사모
냉각
드리블
용의자
러닝
뮈
GHz
템포
NHK
##텍스
보행
Fe
카우
음색
##브러
하리
##툴
하지메
면접
필립
조교
동문
장편
##더기
##ex
적색
엄폐
소노
착지
야마다
아랑
저스티스
원종
토막
김연
따라잡
재활
헐크
얕
히나타
소시
성기
타고
나뭇
이아
입양
산악
지문
##수수
우물
신칸
불리우
개그맨
지그
##lass
철갑탄
기피
공영
##대기
굴러
의아
술집
말년
메테
##컨드
DI
Par
세컨드
속편
~"
1953
##사와
도호
더구나
세츠
채취
인트
##전트
일삼
거르
소사
반론
기술자
정계
미수
미호
콘셉트
GPU
위키백과
##ACK
호스
PL
망원
꼼수
##ᅣᆯ
화소
레규
##두리
배신자
모함
TO
고음
랏
Mr
라구
##교육
아이스크림
부당
명탐정
방송인
##ors
하카
응하
LOVE
라바
낡
연기력
주되
내역
체격
신칸센
라든가
두목
푹
##쫓
뱃
이에
펭귄
토가
물가
호르
##바키아
단과
발라드
이방
교섭
평안
하후
time
발간
유즈
솔라
원고
물어보
##어붙
카니
서해
파문
냉기
케리건
부도
전광
프랑스군
Good
고분
거니
뇌물
경과
스크립트
투신
에그
정형
##콥터
##딕
픽셀
트랜스포머
모던
현존
oh
춘천
투성이
어린아이
전열
버터
캔디
고산
륙
330
심문
퍼붓
동호
스퀘어
카탈
자질
LED
접어들
기관차
어벤져스
270
쐐
병종
##무실
책략
여배우
화합
패드
어미
축적
사슴
##수아
그제
로저
##AND
MK
##무기
공존
중성
디렉터
수량
영등포
찌질
1938
레즈
범행
교통사고
마의
메우
Live
테일즈
참으로
더하
성서
2500
최우수
하부
전속
##좀
대중교통
하반기
##더링
방호
틀어
거품
호무
다중
윈터
도청
구절
보리
Per
태극
카를로스
최대치
쫓아가
테러리스트
레귤러
비타
인사이드
특훈
직속
깃들
캐슬
로테이션
광대
심리학
FPS
특허
악하
엣지
##아슬
아슬아슬
우체
전반전
순교
##볼루션
상행
속력
##플러스
되살리
##ME
몹시
##트라이
##파리
석방
신수
더욱이
소규모
협약
1957
김도
하시
##프스
소실
음악가
총회
방공
세스
얼어붙
패닉
225
요미우리
담임
뚜껑
내뿜
적립
스텔라
영남
무고
즉각
##16
솜씨
중년
SL
불신
##단지
오타쿠
우상
남작
죠죠
ll
유방
라트
라프
시가지
##테리
인구수
서민
현황
파벌
바닷
총괄
##뿌
쥰
카즈야
에메랄드
생산량
뱉
단말
신흥
스윕
순정
상쇄
서두르
파격
출고
저술
부류
영동
멋있
##프ᄅ
자본주의
노래방
##턱
사탄
하와이
스파이크
박상
홀딩
끝장
재빨리
아홉
##eep
##글라스
베일
신병
상장
##ᆫ각
함성
간호사
매지
두근
앤디
카디
루터
블래
260
모양새
자문
퐁
저거
##포드
하라
GTA
수평
텀
스내
프로모
차용
마초
혜성
달ᄀ
This
Sm
Wii
따돌리
석상
직격
#!
##ott
다기
멜론
##코프
다이노스
브랜
적재
소비에트
페르난
저희
신정
카이사르
원내
Rock
""
##플리케이션
상용
호구
##HT
자각
장원
##윽
사투리
헬리콥터
am
핸드폰
짤리
##때로
##문트
급히
오ᄏ
메이트
벚꽃
유지비
하행
지름
줌
로스터
유나
쎄
예배
GN
여관
배리어
발렌타인
월등
쓰러트리
선진
##델피아
쥬얼
필라델피아
고토
아제
오락실
증발
새우
##메스
하원
##산물
이례
##려보
##하이
##ᆺ집
1800
털어놓
Kn
시부
프로토타입
넉넉
미ᄁ
쇠퇴
리조
켈리
Li
양측
자칫
래스터
호투
허위
휩싸
미티
부사관
EBS
유정
##두사
브레인
브이
만료
ab
바닐라
주거
행렬
격전
양보
핸들
##받침
윌슨
선우
부관
우천
공약
유니콘
군림
할리우드
여권
쏠
ㅓㅆ었
선대
마신
야만
정정
포워드
미유키
회화
설화
바오
관념
중학생
##ᆯ리언
미로
##파크
도마뱀
결함
호박
##뚫
리바운드
추궁
실력자
아르메
구타
유니온
풍속
농사
적성
본의
##드르
가축
에바
단정
후루
습관
받치
MSL
밀집
술탄
169
##메다
Baby
타고나
몰아붙이
야외
길거리
유로파
텅
기함
피에
노동당
냅
서정
안성
일례
진수
편찬
IIDX
리키
쳐내
심연
히데요시
호세
자발
세션
##행위
재무
##토르
유무
동요
질풍
게임즈
징크스
그래프
운석
근력
눈빛
##anna
꿰뚫
ᆯ지라도
유승
RC
니카
유배
송출
격투기
주파수
도시락
럴
ㅏ야
의석
소리치
0900
##other
DB
교훈
##자동
불평
##케인
요시다
정재
호그
리우
Ac
우루과이
고든
악령
조준경
민정
드레드
##ᆯ리티
본가
프롤로그
카타르
탄탄
##IK
실정
스콜
츤데레
ᆯ려고
단속
##ins
악어
베르크
##팍
헥
일레븐
성비
훈훈
더라면
구두
후안
##icro
레이트
바이올린
서태
책정
트러블
wid
전산
제보
청산
킹덤
##oss
##크라이나
우크라이나
회귀
깽
550
루루
Blue
요하
독서
유코
여당
미팅
포럼
수수료
스케이팅
Can
대출
서독
후지와라
아프가
##ction
라던가
첫날
블레
ONE
##ru
청동
재판소
자격증
원작자
분화
연루
말미
황태자
us
##일으키
빈틈
불러일으키
##버드
1914
특이점
타다
수복
중추
밀란
스토커
자손
##미스
존대
HARD
재위
샤워
독수리
줄어드
개칭
보증
##ood
에필로그
촉진
##기지
Dark
##훼
떄
##르기
김원
박용
동래
##코스
경쟁자
자크
##넘기
프렌즈
배송
1951
##똑
##세기
리부트
##gain
할당
내수
격침
뽐
에밀리
트로이
핸
농촌
라나
Sun
만루
성수
야시
왕좌
맴
라오
가창
노트북
편안
##앙스
병장
첨단
##na
##19
로브
##소스
대진
정동
그리드
프랭
장풍
북극
셰이
유유
##ᆷ마
진군
살피
요시노
OK
좁히
원활
온몸
기타리스트
은혜
멀리서
사안
고스
장동
##킨스
히카리
진행자
밀어주
비토
사다
분기점
Music
##land
일품
우가
결사
##EL
해저
오시
메모
센티
야마구치
야기
아틀레
총재
서대
입체
남아프리카
마차
모친
홈즈
Im
대마
연금술사
더비
cc
##25
뉘앙스
죄송
병합
지중
아프가니스탄
width
장제스
원천
완구
토마토
로컬
자니
키트
헌신
민영
당주
##꼴
빅토르
베른
희대
파산
교내
텍스
셰프
##ty
##노스케
진정하
수녀
아르카
KTX
윌리엄스
누명
미라이
연의
체형
제작비
상가
게릴라
피치
미니언
##DS
짚
페이커
##셸
고성
친화
방과
갈아타
교시
제휴
게시물
말소
아울러
캐스트
빠뜨리
때때로
나고
수강
MHz
정체불명
열악
##UT
##irst
셸
잊어버리
본성
오리진
에티
폭동
피에르
##agon
Bat
버릇
페루
하워드
산책
수식
무사시
##ky
내륙
매달
오디
닉스
실루
비시
켄지
도라에몽
으리라
포대
Life
보구
용감
실무
속박
요리사
Champ
유영
클립
BBC
루이지
아르메니아
##자재
초교
천마
DR
##놀이
++
205
분장
마운트
배기
강팀
기획사
일렉트로
기성
##아스
안산
##통수
환수
돌아보
휴게소
글래
단선
미성년
해임
##툭
성균관
주고받
##어쓰
##ady
니나
해수
대대로
직결
타카시
모범
불어
재난
브론즈
육지
격기
Korea
고령
경순
발차기
박재
원흉
분홍색
쫓아오
제스
창업
말아먹
일일이
찢어지
Summer
경감
Fire
1937
베이스볼
임원
연하
매수
선곡
슬퍼
유비트
열람
반대편
아까
발광
야심
라드
##아르
플로리다
back
##무소
양키스
김명
넥서스
목동
탯이
##ium
##스티니
리액
살상
금색
탄도
OCG
달라붙
RP
자판
정벌
총격
석탄
환사
친목
깨알
##토리얼
엘리스
잠재력
냉전
코지
백신
##따르
통수
포토
##니시
##궤
플레어
블루스
##혁명
쓸데없이
후궁
Ma
권능
튜토리얼
무진
프로모션
차선
스파르타
목적지
니코니코
미즈키
토이
계란
항아리
무제한
세레
창시
베네치아
파업
##ount
여정
합당
달걀
자처
소극
필연
na
동족
평원
합하
댄서
Sy
장안
데스티니
##베르크
명곡
진료
김형
일자리
솔리
성모
##커녕
650
이창
매개
부과
시코
충북
레이첼
토로
무상
피츠
아타
브레이브
##사벽
넘사벽
에스파
도검
귀하
##박히
##숍
타나카
실습
개인전
##퍼런스
행정부
회고
저것
빼내
밀치
비즈니스
저널
서초
정립
금호
문고
강행
##듣
성도
나폴리
마요
북방
CA
남발
급기
스캔들
레이너
숀
흠좀
흠좀무
##테이너
엿보
##ush
OB
코즈
강유
귀중
대각
리턴
악의
##쉐
이복
하타
이질
샘플
##그루
##현우
후예
조직원
교관
슈터
증후
##드립
어느새
몬테
기괴
줄줄
사면
위탁
네이트
##누르
고속도
쪼개
쐐기
만행
브란
호기심
쩔
프리즘
함재기
소동
쾨
리마
험하
로코
학점
BEMAN
##플라
계열사
##사이드
코리
늦추
듀크
적료
야드
광속
해적단
남극
다이스케
시몬
치사
상류
설상가
Just
루팡
설상가상
스냅
인어
부여받
나레이션
휩싸이
감전
주심
파인
##ne
##석민
한스
211
콘크리트
##곡동
BEMANI
힐링
Ste
화내
선구
시간표
지휘자
##ger
##현진
##마당
자수
유난
역과
상표
레기
타이완
피카츄
까닭
파장
모닝
반항
살인마
화자
프런
##OID
손톱
##베이스
now
##주리
러셀
204
문어
대상자
박찬
뒤통수
피고
슬퍼하
연회
퓨리
시치
로저스
이우
사찰
공익
동체
드릴
영장
우아
아토
FB
강연
음주
##ᆯ럿
펜듈
펜듈럼
세탁
사로잡히
지온
##베르토
But
진나라
지침
교향곡
성체
염려
GG
서인
양호
복면
##트니
선제골
벵
Pre
바우
실명
##pr
Ev
##얀
어퍼
슬로우
##기사
농락
##ution
가성
CON
돌이
박경
호노
점사
민법
##블릿
##년기
준하
숙이
똑똑
##CH
불로
투니
Gold
수락
미술관
네코
Out
뷰티
콘티
한탄
##멋
지상파
3164
리엘
발칸
어설프
램프
가급
##메어
STR
영리
##체스
지극히
끌어내
Over
출근
##ᅥᆫ지
선방
DX
경찰관
한도
한발
월급
동탁
##덮
가브리엘
조류
별점
망가
캉
주재
스킵
Dance
진성
주황색
책임자
##룸
서지
채집
일본식
합창
증후군
권고
Grand
뭔
##ally
신대
대표작
대공포
이노우
##ator
증가량
##징어
셉
1600
##앵
마누
쓸어버리
day
개개인
라자
시미
관동
##산화
캐리어
정렬
구급
##inc
가소
스완
예언자
호로
괄
세일
sc
스퍼
코다
나이트메어
대주
마운드
홍성
##GC
각기
통신사
내걸
향기
정자
부평
한숨
테루
행방불명
감히
호쿠
프로리그
논하
기복
콜롬비아
UF
pt
##로이드
구단주
개연
예명
끼어들
실루엣
##토시
현상금
저상
변질
투하
HK
전년
친선
샨
##클럽
FFF
일식
츠바사
신축
##air
젝
Sec
여친
##펄
##저것
이것저것
스네이크
대본
외래
##아라
전교
리히
장기간
고요
고안
박명수
목요일
정확도
교직
신원
여진
##수스
추기
소피아
리에
정세
차후
##나드
##칼리
암울
따라다니
훅
매스
열등
상하이
매너
괴상
전세
네놈
지자체
조영
오의
##준표
앙리
El
소수자
조달
군복
번트
케이지
차남
출연진
접근성
Dis
외롭
tvN
광전사
get
화나
코카
접점
VOC
##퇴근
아줌마
이속
##마침
##ᅳᆯ랜
반짝이
캐서
샐러
##티콘
괴력
샤프
콜드
풍자
##빼
난감
1910
한성
검은색
추첨
학계
여더
TW
전리
퇴출
컨트롤러
차종
다짐
출루율
영진
이변
대부
비장
이동하
크루즈
##ina
철회
미사키
애시
##바시
백색
ARM
간선
건축물
케이트
##얼거리
때마침
카이토
어리석
카르마
클레어
##ᅥ리
완수
##흙
##쩌
##보그
픽업
금화
##베리아
꽂히
볼리
##삐
사육
자진
Mon
동창
이은
조제
최영
딸기
알고리
베토
밀접
총사령
ᆫ들
고질
아드
Af
시정
경매
##꿈치
##로니
beat
Win
수험
타니
포효
##ᆯ렛
##장난
체이
간략
리티
예지
군함
##펑
세세
코바야시
화가
##축구
영조
일어서
만세
해치우
##라비아
매출액
잔디
##휴일
##use
점거
등교
무궁화
##네이터
웨어
일절
At
박치기
Power
계좌
아이유
조형
스피커
도피
##봇
딱딱
쫄
크리에이
연발
횡단
경희
서진
느니
예술가
코시
일진
그려
양주
간행
여덟
기밀
커비
SV
1935
성형
출중
연구실
사극
샴
마르크스
은밀
욕구
아카리
고릴라
러시아어
회오리
Fla
홍진호
밋
##라노
처절
알코
태수
파수
UI
고원
아부
힘쓰
DJMAX
6000
뺨
리트
부대원
강판
##스ᄅ
평민
##엎
츠나
대쉬
서사
존속
태블릿
카가미
##츠카
빅뱅
캐서린
Res
임관
##장이
용맹
휴전
##힐
소감
베니
##ring
헤매
우와
다이너
뒤덮
##여지
금성
1934
아폴로
스님
안면
경쟁력
정거
챌린저
뽐내
므
갈래
회심
##동원
자신감
천공
but
상체
체리
집결
##프레스
##트릭스
우습
슬ᄅ
수요일
레몬
내야수
판권
##돌프
비요
코요
달빛
##...
입술
모방
총열
베이더
##그룹
데이비스
미코토
장신
##맥스
매칭
##ART
1918
유난히
##르드
패미
Fi
타시
아카이
이용해
혈액형
미판
스플리
민원
애드
사이보그
케로
##범죄
다툼
오인
##대부
##첸
256
견인
우체국
##포스
채소
전전
후문
천둥
##ittle
티베트
김영삼
##LS
man
페이트
카바
유서
저렇게
공휴일
페더
카구라
대문
380
모호
리플렉
##ᅡᆼ스
바주
##de
##XT
정크
ᆫ다던가
##ational
시드니
여사
자유주의
VOCAL
뇨
오징어
이야말로
발트
Sing
퇴사
런닝
원격
##관총
조지아
Rem
매진
풋볼
상임
레이나
쇼군
악장
튀기
##소문
강성
무소
못지않
평면
혹사
리전
초고
튜닝
##외선
자카
방어선
퓨어
중견수
유소년
##부시
카지노
MR
독성
알고리즘
상수
##be
노려보
김두한
호전
함포
CEO
##대교
비니
제다이
젊은이
막아
워낙에
창의
피드백
하임
FL
유포
볼륨
자바
사출
MX
인프라
##페르
섬세
기미
맏
바흐
경량
국사
이성계
피처
색채
~~
동참
제르
뒷받침
##ello
로만
건전
제라
피스트
소절
노엘
양파
LCK
낙인
##ivers
영미
퀄컴
EM
베인
OPS
적발
본국
재고
연구자
형편없
뽕
사스케
코이
정은
부식
궤적
gr
##루살
페가
망령
그리스어
키무라
자취
하르
##루살렘
줄거리
로사
직구
고속버스
섀도
카노
총탄
##ual
##흘
무효화
타국
에우
기합
자민
발전기
부추
정거장
허구
저리
맥도
가명
립스
출퇴근
똘
HT
Rec
}}}
##긴
공방전
가호
동갑
장병
애ᄐ
MT
대칭
폭포
뒤이
쿠루
군사력
SCP
핵무기
##reen
농협
나고야
당첨
Fem
타치바나
마에다
타나
코스타
운동가
피라미
악용
허공
공성전
노이즈
성역
애틀랜
sm
무빙
쑥
##하하
속공
신시
족장
정명
SG
##ᅢ신
어쌔신
직역
##해군
거제
표방
##바퀴
벽돌
옵티
집중력
트렌
##브레
김정은
수군
김택
식별
메스
##ern
복싱
##심장
퍼스
빌헬
조그마
태세
넥슨
판서
마이어
루카스
##af
King
실험실
궁지
조력자
선도
건재
가급적
포지
유하
##ox
##회의
노기
명대사
강변
##숨에
단숨에
예루살렘
##ERO
세조
노드
랩터
서킷
내구력
테이크
첨가
결장
억압
##싹
통용
억지
두부
대인배
시립
소용돌이
##ars
표명
블래스트
아이작
##riend
생산력
레니
연예계
이화
주방
노이
카즈마
Ep
마테
적진
##코어
세나
뵈
##bs
##롤라
증세
수원시
막바지
괴리
분경
역병
발상
신주쿠
##ᆫ근
##ᅳ레이트
##토미
미야자키
광탈
에이전트
승천
베드
윈스
MLB
지중해
군기
숏
999
돌려보내
##연합
디펜스
IG
집정
초당
돌아서
예장
게임기
무전
콘테
##ts
초선
서식지
깊숙
블라디미르
이선
School
단절
꺾이
프론트
세균
파이브
근성
대제
고양시
슈퍼스타
동인지
아다
요르
데우스
소진
히토미
히노
베가
고베
배지
돌격소총
절규
Ge
Leg
End
대파
김창
Pv
길들이
둘러보
단조
##노미야
수비진
후후
##itch
##IE
바루
포고
1933
추적자
삼거리
어인
무성
김희
박격
피리
카오리
추기경
라지만
남용
Miss
엄지
##SS
##클레스
출몰
##메인
##악기
##rist
양현
허리케인
지령
가뜩
급기야
Di
홍준표
미토
카로
매사
1932
스타팅
그려지
리쿠
설계도
함경
임상
기마
1931
##tr
##atic
착수
카에
요건
성문
##사전
대명사
데카
표출
민족주의
시스터
자유자재
131
벅스
네모
VR
포트리스
레스터
별자리
사사키
제시카
퍼시픽
##일본
쿠시
상회
소피
입성
꽝
베토벤
조폭
발악
##질기
YOU
파파
가뜩이나
배분
UFC
경신
중전차
광학
오로라
유토
병단
##날드
옥타
##카즈
인벤토리
Air
부럽
아몬
끈질기
광부
악랄
IDOL
BF
##르르
##ma
이노우에
just
실황
애교
이과
양도
피겨
천도
토착
환원
도미니
흡연
럼블
아의
극소수
이가
##투르
인맥
1928
물들
디에
스티커
초원
GR
다단
솔로몬
VOCALOID
##수엘라
포레
##rain
어드밴스
##의사
위즈
티코
쿠파
##콰
스타크
사부
사하
품종
깽판
##쏠
외무
밉
무림
##oot
연호
빨강
##니클
헬스
사우디아
장타율
선비
인테르
팔찌
쏠쏠
세간
정유
진가
클라이
천적
츠루
징징
랜턴
모터스
수고
응원가
과부
시중
코타로
당분
이치고
일보
무어
교란
올라서
Mod
교육부
태그팀
운운
안나
##재판
커리
UM
왠만
플래닛
새로이
##ony
명령어
치명상
경유지
##셔츠
what
군벌
##노이
키사
넓이
여고생
도도
인내
징병
##ope
##ren
킹스
본디
재사
col
되살아나
염소
손아
불러들이
편대
Che
포털
내려지
총대
메라
아이언맨
남구
자주포
???
송도
STER
if
Sound
마커
정인
서드
베네수엘라
Hy
걸작
국력
다나카
스코프
반갑
피코
단골
ADV
툼
고어
유목
비늘
##큘라
미스트
관제
창병
거주지
방금
방황
금전
종일
샤크
군중
##ᆺ이
취직
철학자
굴복
초사
도리어
고폭탄
알프레
어우
여도
미끄러지
전편
예비군
'''
사교
유수
학업
밀라노
마이너스
마사키
두께
담당자
글러브
교주
왕궁
##중국
##쿠버
진흙
##던트
뒤집히
##사우
위나라
부풀
노조미
재팬
무언
국산
마이트
유교
해인
##서야
제후
상반기
작별
정중
디디
줄곧
##슬라비아
유고슬라비아
야쿠자
민국
지기
손녀
DO
부치
##안군
Vo
진공
토머스
한심
각색
리노
요동
체질
##원군
치아
알코올
역설
연주자
추이
프레데
법무부
##어먹
원호
##olog
드라큘라
광석
사업자
##iew
타케시
##덩
컨테이너
라지
청색
##UE
에일리언
광저우
관습
반다이
박주
미성년자
노숙
멀쩡히
조장
이치로
##세데스
휴일
메르세데스
안토니오
##ana
지망
우시
##무스
덫
황족
##같이
아이리스
POP
슈타인
앞쪽
카트리
천계
##데기
프런트
성추
##UR
아역
직관
광신
##55
여의도
##쿠로
육식
연희
만류
서북
샬
문과
의거
화요일
해커
번영
욕하
벼슬
재선
양면
##긍
게재
##AA
사바
##려드
군산
효력
농도
즐거
##데아
하세
아치
현명
잉크
학번
카린
전념
EMP
MD
눈ᄊ
망원경
피어
불멸
가솔린
카스미
옵티머스
주범
토오루
##드래
해운대
작아지
로딩
손바닥
사쿠라이
PVP
고독
저격총
느냐는
애플리케이션
성채
리투아
고려대
리투아니아
night
SO
쿠노
득점자
유죄
##의정
플랫폼
##ield
타노스
신디
나날
성주
부회장
경인
친위대
타협
괴담
칼럼
재혼
애프
하이드
뛰쳐
##슬로
회복력
로망
과실
기한
##제이
타지
사우디아라비아
제식
금기
메꾸
활주
백합
흑백
레이터
Cat
행태
CT
후유증
시한
스테이트
엇갈리
링컨
도널드
##변속기
오너
삼각형
매복
이안
친밀
겉보기
##즈루
빼돌리
트림
##미아
청량
Not
기와
사위
With
하야토
무작정
App
스루
로드리
조운
다정
수분
좌익수
한모
don
아산
콜로니
바주카
##oon
생사
##거진
게리온
진작
나우
대용
김전
아야카
골리
##ᅳᆯ래시
XP
굳어지
팔라딘
대두
일부분
키워드
임용
사에
##무장
##패스
제멋
1924
피라미드
극찬
펄스
MASTER
##천동
빅터
클리ᄇ
먹방
조율
건의
시그마
스위트
빌헬름
총통
이윽
추대
가치관
이윽고
선체
박준
되돌아가
EA
WE
BAS
ㅋㅋ
양념
텔레콤
설레
농어
시력
##시계
가든
가가
안테
##ouse
##atale
카무이
미셸
Run
##어찌
재해
폴더
way
복종
Hard
브릿지
브라더
미타
카세
체조
섭외
니콜
드라군
시위대
변종
Femme
인테
보태
광주광역시
분사
다인
교구
파고들
이마트
들려오
그닥
칭송
1100
조선일보
RS
빈사
쟁탈
액셀
340
아루
가산
중령
초토
언행
##돼지
참패
탤
클리블랜드
부화
소심
벡
##elf
살라
바하
Rev
낯설
무찌
명작
##its
보답
##마사
출입구
얼핏
마도사
그놈
##먹이
어찌어찌
성공회
창원시
1929
추산
대잠
외출
페로
데이빗
조세
성폭행
이ᄆ
경장
애당초
위생
서문
폭발물
한몫
호대
촉구
미디
##니치
정장
넵
중앙선
택배
승부차기
##튠
도호쿠
기요
아종
##레이드
카도
미지수
확연히
##야샤
##언스
이누야샤
Da
후타
기병대
뾰족
전리품
채무
협곡
협의회
수렴
버지
##퀄
수준급
XXX
일쑤
학파
투르
HG
무찌르
껄
##언정
쾌속
아그
커브
피신
##맨더
##방향
의병
##치오
자연스레
강적
셀프
여건
연비
바이스
##라이어
피곤
마모루
병살타
스튜어트
카자흐
214
셜록
정적
탈옥
##먼드
캡콤
동남아시아
위화
패기
종자
효과음
쇼핑몰
안도
봉황
##저트
Get
접시
추석
설득력
##Fatale
다던가
프랑켄
소이
명인
CCTV
FemmeFatale
반말
바늘
든가
수작
동국
겨누
시구
무의
장래
카가
도전자
진과
듀엣
가로지르
서면
##암동
자잘
근로자
마징가
단층
예리
공채
이스터
경위
초식
동물원
콘스탄티노
꾀하
김전일
신이치
본문
##ane
선진국
패트릭
충주
dis
부츠
직감
입당
릉
##텁
과다
손흥
광양
박격포
Elect
입맛
선교사
대관
물려주
키퍼
승기
1925
##ᆨ션
환각
정제
동봉
토탈
##사의
말장난
141
결별
발효
계보
온화
송구
웨일스
시동
Song
홈구장
사각
사용법
제정신
스폰지
식신
북유럽
충성심
##we
제이스
안치
현행
케네
Ke
이관
하코
순진
꼭두
분수
##75
기각
수반
##매매
##득점
쓸모없
목성
흑화
순조
익스프레스
치중
모라
VIP
가출
오미
특권
알루미
든든
She
씁
압살
발산
유감
타라
손흥민
마포
##마이
반칙
##제리
룽
홍수
포르노
밸리
안장
유한
들이대
샌디
아지트
8000
##무니
310
##미사
대변인
RG
bl
난전
악세
212
발렌시아
쓸데없
대여
앨리
산지
프레디
송이
윈스턴
상권
기만
##컨대
레트
좀처럼
쇼코
착공
액세서리
SHOW
구자
침체
##슘
아즈사
##투수
1911
니키
##ecial
퍼뜨리
사다리
호스트
미라클
완전체
리포트
육박
향수
집정관
뮬
생리
술법
트린
스왑
고장나
매거진
co
레고
빌미
제비
법령
잠복
##asy
차세대
키리토
선발투수
최전
학창
뒤틀리
마작
재사용
걸어오
메테오
콧
##MC
가물
콜라보레이션
창출
##그러지
시애
사설
리조트
수법
호조
대담
체가
마음껏
비정
만회
##제품
##아아
웨이트
시궁
도르트
에리카
대강
허세
작물
임창
##히사
정무
불가사의
어처
##히트
평정
풀백
렴
Back
가네
설사
격돌
주주
##츠루
상정
##부리
엑소
영락
##눅스
김인
RAW
최면
##투표
##ORE
비석
혼종
1917
##주곡
수레
##쿤
성취
폭사
미츠루
단테
베라
과반
농부
오리콘
호노카
편제
콩고
제이크
##조각
김혜
##지대
삽화
##ze
사마의
제구
##폴리스
탐욕
##나가와
저번
##원수
Ang
Big
##66
석궁
아세
Comm
원동
앞장
시애틀
##도니아
작살
1927
입학식
꼭대기
스플래시
순교자
늘어지
부합
백미
틀어지
Cy
DT
알루미늄
선천
운전자
480
리눅스
##용차
디트로
사과문
디트로이트
만두
교감
가즈
자택
##크로스
##ᆺ거리
암석
포화
광화
시엘
소인
애리
부두
홍대
720
world
스크래치
존댓말
지바
팔레스타인
악보
공직
탄종
부추기
낙원
##유산
SW
거물
승계
##벨트
검찰청
선명
##짜기
##ness
해협
넘쳐
와우
무자비
매입
불사조
##요환
틀림
다라
##그램
라거나
방대
##양군
##라이터
수배
크로니클
동포
양동
열풍
##웬
블레이즈
항로
겸임
##ke
대전광역시
인민군
강당
##EX
신민
사상자
느냐고
민병대
개종
화장품
황자
##트럼
스칼렛
##ton
007
어처구니
젤다
##포로
팔꿈치
다이어트
정시
차출
##카스
왼팔
가까스로
Every
하드코어
김세
임요환
전복
white
되돌아오
아픔
전염병
##옌
##평군
프리즈
더스트
국무총리
듀티
420
손수
su
서점
목표물
당당히
제이드
##ny
와이드
조선인
속삭
매트
투여
파열
까먹
정류소
휩쓸
Arm
스릴러
영분
볼텍스
아우구
##예프
##패드
송병
스케치
거스
사절
박병
아벨
0000
첩보
##sc
##appy
난동
로마자
구이
에덴
인디언
커네
자위대
다이브
con
유니버
즘
흘러나오
위임
##평가
##페스트
비대
That
##비히
우익수
##지리아
적정
네메
나이지리아
대장군
나지
헤딩
바바
스트라
GDP
한조
##선거
ᆫ다면서
마더
김미
선공
도르트문트
해밀
사이퍼
##부대
심부
TB
이민자
위조
괴로
행선
두텁
커먼
자라나
마고
강남구
어비스
가제
분교
이에야스
게ᄋ
열받
나주
유쾌
기총
바트
##28
처단
플러그
지아
##무진
##인간
시저
유체
##틱스
폿
메커
비약
체르
모티
페인트
서커스
Har
클로즈
유명세
스펙트럼
전태
합방
원산
망자
##픈
동대문
에니
어휘
코이치
격노
대한항공
심포
##드릭
화수
배척
##쓸리
카야
Amer
주작
##작전
##네트
휩쓸리
총사령관
##UC
의미심장
대각선
##파니
##RAM
##노프
류현진
랫
레이크
노후
입상
독재자
동거
떠들
KS
센트
##바ᄁ
히로유키
##24
이따
클락
##ᆷ비
오버로드
주성
qu
보유자
Order
정현
서재
UR
으라는
캬
아론
주군
토의
매트릭스
요크
리젠
방랑
신종
##애미
늘어놓
국수
능동
마이애미
##노기
##발리
프랭클린
침식
Des
1926
##35
모건
마늘
##모자
활주로
미련
서경
유추
송파
발령
경이
역기
크리스토퍼
낭만
안드로메다
상경
단신
빡빡
소셜
야하
미얀
##니지
프리스트
대머리
조회
사토시
후일담
숙종
##AG
새해
퇴근
기라
리액션
정규군
##비우스
마카오
채굴
Skill
내려놓
관광지
무협
라운
Pe
치타
출세
가변
사비
올리버
일직
비밀리
김정일
토요타
스탠다드
나가사키
케네디
문의
태연
시즈카
##니트
복권
벌칙
브로드
씁쓸
병영
합산
지체
김준호
인즈
##운전
버금
일찍이
토네이
토네이도
허영
단말기
>,
산호
##chor
게이밍
단거리
당분간
##자스
개화
춘추
인스
선발전
비행선
마는
PSP
카트라이
열전
메소
공병
사이오
##실히
te
자석
누마
장학금
중산
디테일
좀비
##각시
옥스
장단
윤종
##트르
##비언
온전히
소아
추월
교원
##ious
208
성추행
오재
무로
Tri
졸개
속옷
송라이터
크루세이
난폭
란트
푸드
간식
듬
장녀
튜브
Act
##느니
##위치
##넓
리브
235
와이어
왕녀
마장
커터
NS
##자카
판본
항쟁
국정원
조비
연평
##즈마
Top
상대편
난해
GL
애틀랜타
느긋
##타자
어로
눌
서스
자부심
영화판
석화
펜스
교재
태고
상고
게르만
공전
노랑
후작
세이부
##빠르
Em
사역
##ert
갈고리
##pl
피크
양아치
시노부
지독
나나미
짤방
박세
다이묘
서부터
케르
이어인
171
##스트ᄅ
##net
가차
플레이트
##이언트
RF
##정동
법조
Str
클라이언트
850
이의
##괘
비숍
내년
초급
수산
연기자
1922
마그마
비틀즈
자의
##상스
##피어
아델
괴도
갑판
에프
##단체
구세
알파벳
빡세
조슈
항소
주권
##ient
화랑
줄리아
##힘
끊이
##co
주스
대적
라이터
가쿠
##개골
비욘
가메
##olution
역전승
위저
찬사
1923
켄타
초연
헌데
체이스
각본가
동독
카터
데이브
관대
##ᆼ크
트리오
제멋대로
소량
츠카사
거슬리
나탈
모기
야채
직계
밀러
TCG
불운
올라타
##르바
데스크
잔당
FX
샤아
프라이즈
##바위
클라우
유행어
스펙터
조인
주임
햇빛
헌병
##끝
오드
##정역
오아
255
UFO
FR
##고쿠
리오스
##bps
자아내
이송
크롤
##둘기
보전
용품
##ᆫ곡
근래
안중
##IST
투기
영창
포유
의리
래스
##ret
206
일선
유세
미완
정경
쉘
천문학
나츠미
타쿠미
중공업
앞마당
영기
미분
노사
요일
##모사
##푸스
성남시
cl
진전
왕따
중심부
편집자
NL
수년
형법
와일드카드
'-
동유럽
들려주
브라우저
튜너
버디
왕립
##ideo
해결책
로페
구치
데프
Ab
LCD
##ner
쏠리
드레이크
중얼거리
골대
등산
청주시
데뷔작
최진
가중
요지
독립운동가
##서리
법정동
호우
1921
마츠모토
Bea
럽
연방군
신한은행
##나들
삿포로
메커니즘
주름
기통
서남
##로프
정직
..'
LS
앤더슨
커트
EXH
생계
키메라
외교관
면은
한가
디비
루즈
이제동
##ful
왕건
오일
패거리
떨어트리
초동
##토록
ve
어중간
구애
리비아
노동조합
거듭나
Fre
데일리
PO
우로
버니
부르크
오바마
##그로
내무
알아듣
경호원
God
한인
off
세단
선하
경관
파드
290
Bar
Met
##튀기
평지
##ham
텐션
내심
두드리
스플릿
##스란
벨벳
333
Sil
리바이
특출
체류
Hot
##ward
##소통
불분
뻥튀기
는군
우메
고모
특공대
##ning
영국인
209
의사소통
부메
작렬
어지간히
미하일
자며
유민
##호도
지출
규명
##ERS
##겨지
이승엽
포괄
원제
##캐슬
과잉
드리프트
##캐스트
쭈
DEF
중소기업
##son
힌두
대한제국
이지스
##사우루스
산출
성종
215
레미
시르
마천
말라
치부
재상
항우
엘런
##버릇
AMD
##어들이
Inf
관악
볼프
##밟
정진
메아리
부딪치
뉴캐슬
본ᄀ
켄이치
팽창
희미
##day
로버
정종
진해
우즈베
대리인
의류
##조선
##인드
인장
부메랑
Char
애덤
팩토리
나시
수영장
단단히
여리
채권
##mania
러시아군
Rain
대의
불분명
판도라
자정
이신
선풍
##츠라
꼭두각시
후려
통역
토와
탄수
친근
TD
푸른
버지니아
##틀링
레비
송곳
RAM
궁정
받침
1912
자치구
햄버
코지마
증원
바람직
절묘
자연수
마우
줄줄이
kn
수료
동선
White
Ext
무난히
주립
동산
토템
재화
척추
마케도니아
##교도
가창력
기겁
치밀
##let
##뮤직
저렇
##au
탈리
경상도
이분
의약
도보
충동
김제
만화가
가세
##ATION
우투
최성
뇌격
소음기
로니
경의
##마드
외야
##렉트
주시
##ERT
전폭
성녀
두개골
바사
익명
##선스
소중히
##숭
최적화
자드
서유럽
##생물
급여
르네상스
인기투표
제레
안테나
마드
수주
세토
발도
코나미
헤라클레스
창간
버즈
트레이서
애리조
음양
##마트
여행자
Are
괴멸
시발
##oud
뮤즈
마취
젯
갭
May
KD
그물
알맞
간장
포이
오마주
사생활
성령
기판
자음
시궁창
다구
심슨
FE
되려
라이선스
##곡리
STAR
건너편
FN
주부
##ump
셔츠
비평가
Pop
분과
나루호도
세무
데이즈
최우선
버금가
피고인
1400
초중
잔여
점포
런닝맨
다마
루드
금하
랜디
공시
심플
프란츠
샤이닝
배럴
저스틴
탬
명확히
영재
고스란
##대표
헌납
이치카
이시다
고스란히
이트
이목
때우
권역
투항
덩크
무심
현수
기생충
노프
##대군
스노
207
데이터베이스
아이리
창세기
트레인
무네
계승자
나츠키
위화감
위인
어린애
##여행
anchor
마오쩌
마오쩌둥
최재
청문
성동
제품군
러블리
##살이
빈스
##트림
only
want
down
##플러
군단장
헛소리
앞장서
##실록
ᆯ지도
이시카와
##메르
**
다이렉트
every
##하늘
##도스
유다
심심찮
시크
긴장감
##니케이션
아르테
PA
안식
##EE
로로
신촌
##내기
키바
커뮤니케이션
##22
대도
치세
비하인드
ᆯ게요
북서쪽
공석
고갈
##88
경시
맞춤
급진
##ᆯ트
제각
월터
우사
랄까
인피니트
##ves
##ᅪᆫ
북두
단다
감도
정연
리언
##엠
Game
역관
Master
##떼
도메인
자재
감속
161
##리안
##밑
공적
##산면
며느리
##슬란드
조부
##ape
ᄇ시다
장막
체로
문호
수리검
애프터
스트레이트
슬레이
##마츠
yout
아이슬란드
멧돼지
경합
간첩
##블랑
Joh
황무지
유부
사단장
로자
길목
대입
##매니아
##켜
##게이
OR
more
사시
원로원
TN
##HD
찾아다니
여객철도
라리
##석기
유우야
터무니
Open
개틀링
절약
남원
오스틴
플라워
김태균
요양
Cont
##less
체내
사카모토
극동
구스타
리시
오덕
제명
##드래곤
라데
국물
민속
오퍼레이터
몸체
퀑
Bu
멸자
한결
열렬
쿼드
##피탈
전과
급제
하렘
##밖
펠트
조니
휘둘
심리전
IDOLM
과하
무언가
카트라이더
기압
부녀
흑룡
조로
명하
박기
레코
스패
구스
숙명
랄프
경전철
##ien
설문
##ift
하데스
기공
##소타
COM
서울역
Hea
가야
지갑
호타
##도사
무법
사병
이범
혈관
##zy
불가피
체하
모로코
제네시스
단연
체급
절감
해발
they
만화책
##ANC
수뇌
충실히
일생
촛불
케어
엠파이어
경희대
##ᆫ강
운임
몸집
농어촌
end
분전
언론사
##ship
머들
나기사
즉석
냐면서
하천
부설
정선
병맛
##돔
ᆫ대
티탄
미네소타
강령
간편
오스카
##푼
이라든가
발병
콘테스트
##지물
520
회자
준장
오반
쿠미
##뚤
유시
한중
레베
복부
명품
예하
TG
통근
DA
이장
몰아치
여대
##파르
뛰어다니
##led
감시자
선별
모리스
는데도
##현동
로미
##부짖
울부짖
섭정
아란
전용기
터리
탤런트
##갱
그토록
너구리
외래어
보단
##감치
##lock
##위원
##찌감치
행동력
칼리지
##ize
영화관
신령
재빠르
아만
발자
##형제
비둘기
Bra
톱니
후하
막스
관용
행각
걸스
##LD
활기
헤더
시프트
성검
붙여지
NG
특색
민지
정착지
크러
들통
GAM
반죽
역전패
댈러스
티나
반자동
연장전
pl
멱
조나
온전
리포
카르타
카에데
머스
나데
끝판
다이빙
익스트림
차마
폐하
필기
##또
노마
시세
##법인
메이크
Moon
기린
서약
순차
음식점
무패
노스케
장대
솔리드
Like
등용
세츠나
WAR
설립자
소망
##omb
1907
구만
자선
세속
##ited
임페
헤일
##뿌리
Yeah
##ᆺ빛
맞대결
Bad
욘
Project
성급
피버
치소
김택용
짓밟
컬럼
Off
세련
단번에
옥수수
좌석버스
##꿀
종속
하얀색
학부모
위태
크림슨
##미리
ㅏ요
다트
콜리
뿜어내
news
##오피아
피니시
에티오피아
트레버
생포
재차
완패
##ita
1905
전투원
헤지
붉은색
##45
천연가스
Sky
##준호
당근
##교회
대지진
Med
선상
산산
마비노기
정국
태후
순순
백지
교직원
레닌
메츠
우이
독도
패미컴
토사
출생지
이유로
다이스
도타
검거
마르티
자위
포진
직면
알비
##똥
##릭
구비
##열차
터미네이터
플라잉
7000
부통령
남아공
전라도
Now
섹터
루시퍼
원나라
항속
##row
##부르
노브
마자
치키
Comp
TF
락스
소주
##람쥐
밴시
성품
##즐리
인분
신공
막시
##렁이
유스케
조개
비범
치과
결선
##고루
회유
Battle
코팅
##ute
바실리
서스펜
배고
칸나
드미
이북
아이오
스몰
감염자
수족
불허
##소니
검출
##ALL
일갈
이상민
221
이탈리아어
##문화재
읊
원상
팰
성유
불안감
브래드
Way
계약자
이메일
착취
##브러리
관현
와타루
척하
##낮
부상자
브리핑
##vent
JC
독설
응징
자기장
##기어
##조작
눈부시
그지
청취
1300
단간
관세
벨리
지폐
우동
야자
돌풍
사업가
연대기
일간
희박
멀린
장려
밝혀
종로구
Soul
업자
경영학
힘겹
체구
비행장
은가
##내셔널
정부군
인터내셔널
정관
승부조작
기염
##stem
협공
Special
##드류
over
팀킬
노원
릭스
빈센트
붕대
알제리
세비
폴라
##준혁
순순히
아틀
파병
Po
TEC
이로
남짓
전투복
온게임
온게임넷
##ENT
이바
눈썹
##장구
빼놓
777
다발
순례
이어폰
소탕
##시온
번거
비서관
화합물
벤츠
아데
개관
디에고
엘라
벌어들이
FBI
BASIC
모치
DDR
톡톡
신탁
누락
##rop
사카이
다듬
픽처
##96
노보
산체스
스켈
휘둘리
##ORM
wiz
~'
태백
순항
빵빵
마코
TT
산림
솔루션
니즘
날아오르
졸리
##관계
바이올렛
일직선
##ling
##xt
음란
합금
아틀라스
##com
오모
네타
프라이드
플랑
지못
흉터
지못미
반대쪽
하늘색
Alb
음모론
타츠야
미얀마
경비원
바깥쪽
초회
멕
꼼짝
매도
앵글
낙하산
하버드
파나
외침
......
여느
무모
올리브
송신
갱단
크레이지
성원
##웹
튀김
관건
밝혀내
밸브
급증
얀데레
good
아쉬워하
저력
213
성범죄
##산리
짤막
양육
티타
둔화
설교
탈주
나뭇잎
Cent
##촬
형벌
호라이
##oney
북동쪽
엠블ᄅ
카즈키
무당
##의지
피쳐
반납
재주
양지
덮이
미코
타가
##드루
박민
전위
티셔츠
진행하
류지
향년
고고학
Bur
중사
한족
김현수
하시모토
깁
차크라
성운
##타기
라이브러리
이달
에테르
방어전
내려찍
조현
라든지
파기
악인
추위
스피리
지도부
성가시
통학
외환
히코
275
짊
막말
##어내리
세이지
만장
WCS
린다
언론인
샌드박스
다이크
1908
##가타
인승
연화
앤드류
마호
헬로
##UB
졸지
##ude
이남
드래곤즈
화속
평의회
박태
백수
223
재발
아날
시베리아
추상
사납
탈탈
네메시스
##line
거행
일정량
##트루
신봉
거창
일파
##방식
사죄
샤르
beatmania
성희
강호동
본거
친왕
명백히
카자흐스탄
개드립
급상
넵튠
ac
미카엘
블랑
Dragon
쪽지
##eng
제너럴
데니스
##play
사오
반달
거머
유노
장지
미달
이나즈마
Hey
NAS
##핍
급습
밴쿠버
환불
울버
참모총장
루리웹
수퍼
구라
증진
티모
WOR
니즈
민사
죄인
##미츠
분비
대구광역시
##일관
뭣
본거지
저명
이천
마사무네
베풀
는구나
빽
생방송
이끌리
수차례
특촬
아랍어
막아서
추론
투르크
임프
탈것
##lt
제국주의
여하
조문
구루
레그
Eng
밀양
전갈
이도
부피
ᆫ다든가
패권
눕히
칠흑
Int
코로
our
##고스
황소
##뜸
고하
초전
##시즘
365
일컬
가주
햄버거
연성
레프트
001
##나우
스투
극성
자자
##틸
어우러지
해프
증강
쿠퍼
엠마
강서구
바래
본드
사서
다량
유역
코일
##ᆯ린더
스탠딩
햐
##맵
팬클럽
##23
변모
버퍼
현무
승하
돌기
복식
지탱
##독부
민심
보스니아
리더십
래쉬
매점
행군
##규어
처방
미유
부기
Ass
수당
철벽
폐위
정주
테슬라
쌔
시연
자결
일괄
액트
베이커
슬라이딩
가신
##가요
반주
파괴자
대장장이
포자
코브라
결단
호르몬
##27
마레
중의원
사주
퇴임
폭군
##ata
넘쳐나
치히로
baby
사이먼
케니
##벅지
충무
IF
조원
생식
드러머
일찌감치
#,
감마
원어
##두근
일개
미용
스탠스
전령
##방사기
370
화염방사기
수납
장동민
라파엘
아카기
##닥치
관전
부적절
광동
겸비
##스코
자가
만년
왕세
동아일보
미처
머무
하남
래리
토토
골짜기
쩌
왕성
국내외
방사선
해지
속사
두각
럭스
"'
영령
문성
##아내리
##영향
보급품
에로게
오주
골리앗
Last
손책
트리스
see
카논
해프닝
##IGHT
##ius
라일
Yes
사생
##디우스
암기
##짖
최하위
밀가루
Best
아디
만성
근위
타오르
뒤쳐지
총애
슬쩍
미나토
부전
##FFF
번번
탄두
희생양
써니
클로버
##원지
란다
블루투스
나선
216
마리사
갈아입
한미
아득
신약
CIA
새신
##천리
max
껴
자백
야구단
DAY
카멜
포상
##ated
오카다
볼일
수송선
악질
명실
Show
방관
빈곤
##ᆺ밤
압둘
거머쥐
##브ᄅ
미공
교제
찜
##디난
연합국
좌완
오피스
컨퍼런스
구실
쓸쓸
코칭
원자로
##스탕스
레지스탕스
이문
선역
멜리
텐더
포레스트
여명
재규어
총구
막론
타케루
유족
편도
골고루
전문학교
나카노
Nor
##ᆺ소리
불거지
왕정
백두
원반
최형
물류
례
책봉
료마
슬러
드래그
마운틴
##red
수혜
##이즈미
소란
Match
이강
제드
저축
격납
보호자
Christ
매매
440
적도
메두사
선글라스
##클론
right
행세
##툭튀
지질
푸른색
앤드
##ets
거니와
해밀턴
에노
제곱
골수
내리치
플레인
##홍철
물음
경전차
인제
좆
네로
갑툭튀
에어컨
크리에이터
세가
개찰
##푸르트
Sur
변함
##III
절제
암흑기
say
##공주
자판기
매지컬
프리드
자유당
비타민
언락
명장면
공안
##데라
##혀가
템플러
Down
명은
초필
동맹군
Mir
서유
리비
리벤
욕먹
마공
##건설
견고
잡혀가
잠식
크루세이더
세레나
크리스티안
파비
정보원
정대
베레
##ara
얼룩
소나타
수속
동하
본뜨
##럴드
SUP
덕택
무안타
하키
한복
감찰
조선소
최장
납품
동성애자
ᆫ다든지
kr
사파이어
배급사
##ric
석가
어지럽
아츠시
도입부
메르시
XY
Art
이터널
상승세
##맹이
가르시아
의존도
수전
통찰
화질
아이젠
카메오
스케이트
##ely
장기전
포식자
PvP
짊어지
노태우
로맨
문인
##뜯
소나무
잘생기
##큐버스
Ook
오보
미약
##폴리
홰
불발
##거스
헤븐
자치령
슬로건
한국군
케로로
에러
몽땅
회원국
시오리
Core
보름
팰리스
거미줄
명왕
레오나
장담
분출
틈새
골격
##29
##산군
함유
시어터
쟁탈전
보좌관
오클랜드
사력
덤벼
결투장
급상승
반려
쌩
공중전
First
소름
적기
수뇌부
호화
시종일관
화판
연못
##일기
날라
샬로
크로노스
박차
TWICE
-.
하반신
바드
확진
횡령
배반
퍼트
또래
간직
시라이
보이드
NAT
자멸
남동쪽
하인리히
##76
엎드리
How
승낙
변속기
누님
MI
##ux
##ᆫ권
현질
If
우대
Mark
거유
난장
##cl
##페어
##ga
오산
정몽
성단
예매
##44
캄보
부러
Ap
필적
pe
이규
his
신격
젓
정윤
위아
다이어
쌍용
there
기어이
카프
##통일
Tour
대북
##지리
키치
필승
몰입
Never
철퇴
폰트
잽
순삭
알프레드
좌상
프론티
BRV
창시자
떨리
알바니아
레바논
깜빡
슬립
사드
츠바키
악수
프론티어
오자
##ley
컬링
장자
##늠
라르
난징
쌈
크리드
에어리어
조공
혼나
바이퍼
이조
시미즈
tw
판과
잔재
저항군
Sam
제동
##매치
무서
피그
노획
백룡
퇴마
슬래시
##HC
시녀
##천역
악영향
아레스
후카
바운드
피칭
도네
모탈
##부수
원성
##udio
Free
가넷
난쟁이
데스매치
테츠야
스맥
센트리
발해
##26
아리사
이반
승승
첨부
##임수
보리스
츠치
소모품
페달
스맥다운
신빙
묵직
이바라
주화
##ther
판명
각별
제복
HOT
조승
카툰
micro
시술
근방
얌전
Pol
어선
비열
뛰어내리
삼국사기
어웨이
남산
##영수
쿠도
열광
활발히
이를
백과
특출나
파주
클라크
김소
##테면
태양계
적시
상서
남서쪽
페라리
아와
투표율
이를테면
RPM
##시장
공황
토바
무방비
들여오
아날로그
축출
서태지
재래
##세우스
허벅지
이형
1906
##사관학교
219
##UST
부토
우즈베키스탄
Na
##나시
루돌프
허술
엘소드
액수
##스부르크
커맨더
속주
RT
##hy
##INE
재결
베아
950
터프
잠자
다크니스
##NG
비운
바그너
##ᅳ러미
who
뜬공
용인시
이니셜
수박
골절
##work
가늠
쿠폰
낱
충공
웨딩
아스타
지명타자
##KO
식인
블리츠
got
아로
톰슨
문관
##OCK
##ird
토코
린치
Side
롤리
##메이션
대영
##총독부
조선총독부
여운
끊어지
##꼼
동결
##ᆯ로지
Cor
그제서야
Will
용왕
어쩌다
수제
id
고뇌
팝픈
팝픈뮤직
##멈
탐험가
##erm
잠정
닛산
##85
베끼
임페리얼
가무
ᆫ답
후리
재보
톈
금서
라다
아돌프
맨날
재미없
킬로미터
간절
위안부
##토니아
민트
훈련소
540
곁들이
마라톤
Sim
동급생
9000
NA
우디
밤중
큰일
급속도
픽처스
물결
곧장
구미호
대나무
소홀
##ᆯ리온
건축가
City
KN
말살
반도체
히이
라카
전자기
약수
머릿속
라티
인플레
하이브
켈트
낙동
중론
면도
소폭
##니르
군세
올레
마토
##지기
즐거움
Magic
김호
전황
이대호
아유미
저음
광화문
화전
외장
인테리어
시리우스
활약상
틀어막
GPS
퍼플
##보살
파탄
교명
페미니스트
페드로
클럭
##ERF
환산
빅토리
티거
복각
송나라
발사체
캄보디아
미움
내쫓
치프
남친
알몸
푸쉬
무리수
미워하
중화기
시속
노블
Great
겉모습
미완성
RED
주루
뛰어오르
하쿠
다채
타원
나오키
스트림
페이퍼
로어
영수
해부
키쿠
에이미
지하실
416
상소
섣
궤멸
체크카드
시커
feel
##데오
혈압
넷째
벼락
후려치
##캣
동남아
FFFFFF
##yes
KA
퍼니
오도
유창
남인
##플렉스
전우
안톤
김신
펩
케미
뚱뚱
##러기
전쟁터
245
다비드
개헌
쿡
스턴트
사학
재일
독단
금곡
덩달
마키나
투수진
##충류
정승
나리타
사복
프리킥
Fall
##란트
검도
사우디
##ris
공민
송병구
오레
허니
노선도
북아메리카
개리
선후
##황후
넬슨
매그넘
단타
##rew
이룩
스쿠
통영
##덱스
수사관
##다듬
##ᆼ스
후사
포섭
질질
##ᆷ핑
Cap
##짚
ᆫ데다가
이롭
##사람
곡사
Track
##하임
서동
오아시스
전곡
##오버
사쿠야
전패
천왕
규율
병신
Come
화룡
##전쟁
패트리
참수
멘토
로렌스
##가르드
옵스
해설자
오데
##분투
홉
몸싸움
미니게임
앉히
엑셀
화끈
지상군
Perf
di
선율
밧줄
족보
흡입
##깽
##토모
공연장
청문회
로토
Happy
##ᅡ지마
자행
일기토
부우
##월드
지석
##요리
거액
출국
##삭스
그분
형주
십상
GX
##que
신년
##트리올
성희롱
KCC
##니컬
직진
한눈
##거래
현종
PM
yeah
##ision
##tain
몬트리올
검색어
그러다가
토카
##게스
소방서
엠블럼
##ᅳᆯ렌
증대
EB
##이인
갑주
코러스
김한
234
퇴직
대구경
Edition
사적
##ᅦ이터
애니메이터
Party
엄폐물
주지
AW
개더링
트라웃
##소년단
글ᄊ
끝없이
미상
아재
성시
HR
적어지
Net
충원
웍스
스커
코퍼
보이즈
조짐
##로이
진범
##벡
온건
##부사
방망
조각상
윤성
빙하
옴니
도래
우여
야말로
경비병
벤트
##UL
세바스
배틀필드
깍
##쌀
기증
내공
249
090
Boy
브뤼
girl
리제
약사
##UK
아소
걷어
하강
야인
티라노
야마자키
이석
마크로스
PT
김하
김은
BP
황폐
226
랍시고
카츠키
YG
이쁘
1913
두근두근
Final
가맹
차우
관현악
풀이
우선시
초계
끌어오
끌어당기
짱구
향토
고아원
##폴트
##뭉
부록
이어주
BMW
브리지
##str
호모
카르텔
Univers
정치가
##ᆫ광
##엉
편향
호라이즌
어려
목조
화보
대주교
샌드위치
위닝
의뢰인
동명이인
ABC
##고생
##BOX
미식축구
발족
열대
효용
험악
비룡
410
로스쿨
시프
##블렘
##프레이
분양
217
망각
엠블렘
##플레이션
자릿수
방탄소년단
평준
삽입곡
충공깽
포구
볼티
실감
굴러가
야구부
##ᆺ코
쥬라기
능욕
메탈기어
프로토콜
바알
숙지
플랜트
Club
숫
John
야스오
엑스맨
호족
업종
혼잡
##코스터
토드
##슬쩍
곧이어
동률
유승민
소양
##레톤
##aka
버겁
매끄럽
평야
콩두
이츠키
그리폰
다다
슈테
경멸
life
최원
Stage
##럭스
파커
초딩
싱크로
롤러코스터
시우
디럭스
슬로바키아
벨라루스
SEED
스켈레톤
김시
비잔
신천
판단력
프랑크푸르트
박병호
##트레
도봉
퍼블리
안젤리
잔존
난장판
허다
Sl
꾹
##타마
투영
비야
발열
매료
아야노
남아메리카
요가
거라
철자
Angel
Little
치하
토우마
모차
유권자
1909
##높
##길이
기금
내용물
IMF
어시
기교
##헤치
노미야
백병
황색
염증
기념일
호각
항일
Spring
발포
군청
흉기
다다르
피노
문경
들어올리
물러서
트렌드
##젓
압승
카자마
우먼
순회
뮐러
예민
악평
짜이
ISO
코바
사냥터
트랜
블로킹
##ords
make
셰리
수만
스테이크
##ism
궁궐
샬롯
Break
린이
독살
맥시
##ONE
##ASS
괄호
양방향
233
옅
적과
카츠라
슈리
RR
겁쟁이
강대국
신태
1915
서신
신진
##곡절
바티칸
요르단
메가트론
##네이션
cont
무함
디바이
파라오
우여곡절
##보스
티르
그레이브
히브리
##arius
RX
초음
##레즈
RB
##람회
##관리
배수량
다그
보성
오리지날
텐트
니퍼
##att
갈비
표준어
PH
코미디언
Fly
##서니
##ival
part
귤
##리즘
점치
환율
유상
생몰
##ross
중대장
##와르
소대장
계약서
Class
버크
경부선
WHIP
의약품
이보
자서
소품
산전
센고쿠
슬라이더
고체
발기
##재욱
228
원사
##ader
우울증
옥타브
사요
##모델
경순양함
피렌
미네랄
방영일
초라
로젠
최연
인삼
##95
조동
미도
예컨대
엘더스
글래스
연마
BW
##글리
동그라
분지
악단
월등히
fl
##ause
포커
과열
황해
억양
##바인
운하
Girls
모금
컬럼비아
구가
224
im
스팟
##ama
##팔로
모하
한승
여중
ff
천진
북위
기하학
애시당초
수목
약품
클러치
##신기
용호
##ague
서주
속임수
보그
##OWN
375
Mer
라이토
##데시
빨아들이
Swe
잡아
고철
##제프
ER
캠핑
별거
시칠리아
Legend
##블루
1904
치토
MY
레티
익산
제주특별
##IME
##자치도
제주특별자치도
애니플러스
양말
중순양함
##츰
에마
교황청
진기
미우
취항
루기
마석
차오르
튀르크
편애
폭넓
받아치
루가
견습
공평
검기
##uch
##하니
팻
징집
칼질
아르타
##구멍
구식
##걸음
는커녕
서산
용납
승용차
##슐리
예비역
실탄
레인저스
초구
교무실
협주곡
아누
##느러미
피파
교화
##해야
평이
벳
##ital
연합회
크로스오버
##대왕
##도어
줄무늬
어르
은색
광해군
잔소리
도요토미
틀림없
##21
##르바이
##매김
has
##83
##쑥
식용
북벌
흥하
##르바이잔
##장치
##말라
경대
허약
헌트
신승
히다
인원수
##베트남
자리매김
우등
엘릭
SKE
숨지
실록
역전재판
하자드
사춘
염동
##아오르
마사토
아제르바이잔
포메이션
390
젠지
세터
매튜
캔자스
숙박
Take
라몬
##테라
낙서
사이비
머독
몰두
##ubl
수송기
##꼽
알렉산드로
설진
기울어지
스트레인
무예
레볼루션
겨냥
길래
공식전
1916
시메
##마니
데르
티격
컵스
지식인
스테판
시급
임재
통치자
보류
반공
출진
##네즈
천자
모자이크
Mem
요법
집요
띵
##미트
세계수
바이트
수학자
추축
녹스
최형우
비방
##넌트
돗
위저드
TBS
복수심
주지사
##레인저
NFL
시부야
aqu
##모트
김규
라디
강희
목장
##날리
니콜라스
##IVE
우루스
야나기
거래소
대니얼
반입
오정
만우
광폭
파충류
301
##뻔
개표
셔먼
노미
227
분파
청자
전압
APC
오거
시트콤
코우지
고참
힘내
헤엄
##불리
흑색
심복
'~
인계
전주시
##피온
Ind
파지
주선
어설트
는다며
착안
파워레인저
의결
허물
가도
미시마
김구라
##헤드
하동
fr
헤이세이
음료수
이면
개전
Cry
만악
EXO
박원
이븐
담보
화성시
점성
거든요
치솟
내비치
강국
조슈아
폭언
마이티
사춘기
하모니
강정
Hol
##티티
켓
위아래
마사히로
품목
폄
##시간
정찰기
코요미
누비
웨스턴
숨결
무함마드
명지
윤종신
again
초심
펠릭스
##스타일
호위함
키사라기
프로세스
빙글
스틸러스
1700
##식물
컴파
##르슈
위드
콴
;/
지원군
출연자
성소
박하
never
냉혹
램지
주조
차고
##교사
굉
##ler
증식
슈타
낙양
중종
국보
##샤인
모사
내분
##십자
증표
성우진
윤영
린드
만우절
인턴
동시대
정설
코네
##body
키시
##enc
시제
슴
레이카
조그맣
에라
성매매
러스트
미공개
하로
대기실
은신처
통폐
자객
봄버
##사태
우왕
악연
512
미스테리
heart
PRO
계엄
카오
니르
프렌드
호문
교묘
종파
올인
크레인
##그래
기권
##조림
##ople
CGV
휴지
문예
맹렬
코만
역도
코니
##ura
울산광역시
em
사츠키
한판
토치
##칼리버
##지우
##전함
##apan
우려먹
알라딘
경복
요령
건대
활력
쇼타
클레멘
##ino
##정리
재계
귀속
Gl
이여
머큐
mA
올림
뺑
규슈
애착
제때
글루
Ho
타도
눈보라
푸시
동맹국
다나
이베
##라이어티
건너오
향신
버라이어티
악세사리
노홍철
임정
프레드
xx
기념관
비견
기념비
나크
오베
나오미
시티즌
고야
소외
가온
각광
펠레
폐업
괴이
에버튼
땜
동탄
교외
크리스티나
고온
라이엇
Gal
다테
ad
고트
##뉴스
##주니어
Cal
##스기
총수
##oun
단결
##팽이
사무총장
루시안
가계
오컬
ㅕ야
염기
오우거
sk
에디터
정민
더듬
지평
사칭
##iny
##펠러
마방
##샘
##포동
이크
이리스
전조
Real
Rad
스미레
Sn
은빛
공소
크류
##훈련
볶음
Aut
오승
넷플리
쾌락
넷플릭스
제천
##AE
닛폰
서대문
FO
도가
대련
##세움
백스
뜻밖
정치력
Sou
##너드
011
셴
대성공
##드라인
타쿠야
페가수스
##카지마
정박
원가
스냅드래곤
OO
교통부
북아프리카
수첩
근황
저상버스
오현
재기
외지
##푸르
뻔뻔
김종국
간과
치환
테드
자오
유키노
공모전
정근
##상부
경비대
오사무
상층
트리니티
##ᆷ없이
껌
조반
틈타
뱌
흰
뜸
사각형
반쪽
큐트
통폐합
철혈
빈민
릴레이
표류
스스
맹수
정명훈
모용
분광
풀타임
##by
##전대
실물
bo
##츠리
예거
##irect
제네레이션
근교
##빠지
##가키
돌변
모차르트
인가
독소
뜬금없
ㅏ라
싯
투자자
##IO
나성
루트비히
DSP
동자
계주
양양
교량
탄산
EPL
오라클
##UD
방콕
쌍검
도맡
##lex
관람객
MUS
대서
그랜트
피렌체
오컬트
##TH
가비
야요
Who
##줄기
나카지마
콜린
샛
억누르
조경
김장
순전히
뜯어
아틀란
껄끄럽
##ations
가늘
도키
로더
비어
무트
매크로
담원
231
숙제
유니버설
Album
des
자물
투덜
급감
쿄스케
비터
브록
얍
박동
손발
걷어차
컬트
OM
When
에너
공표
도넛
무마
독일인
747
서강
거침
세네
입점
252
##메이트
설리
취리히
둔기
관행
238
에스토니아
##lection
가장자리
here
그늘
##유예
탁구
Je
타사
##마을
종양
아이파크
폐인
##aker
바닷가
##ᅥᆯ트
뉴타입
Feel
##78
매춘
김종민
어썰트
친일파
전광판
서스펜션
자물쇠
올려
카즈미
##REME
방아
꼬시
엥
내레이션
명제
단호
담그
데미안
##gy
기니
어려우
극하
다이노
카스티
##DDR
##티시
퍼레이드
신해
##소연
전구
꼬박
대항전
Mbps
일면
연정
##뮬러
브리튼
합숙
식구
잔치
인기가요
계몽
##ᆸ실
닷컴
성북
아오키
ᆫ답시고
중용
출토
사고방식
사이다
라이덴
bb
min
고군
선샤인
새턴
Mac
##ᆺ값
##anger
~?
둘째치
하가
가열
츠네
430
Single
Park
당부
암묵
체이서
고영
개요
국지
가락
유괴
등기
아카이브
##onder
장시간
단국
완주
naver
피아니스트
이따금
벗겨지
일전
야요이
\]
##떠
##구르
세이야
GTX
##BY
공무
##후미
합격자
광년
젠더
이완
하르트
선단
엄연
떠나가
이슬람교
영도
코스모스
뿌요
##동물
봉건
아라시
타카히로
번성
꽃잎
우스개
추격전
when
특혜
신뢰도
Blood
프레데터
타이베이
금정
엣
코라
상역
진중
역적
이코
열강
질책
수비대
비르
안주
조건부
기형
부ᄁ
조만
세이프
여차
국한
서바이버
재편
외동
합스부르크
환장
원정대
농성
송곳니
Ret
수교
일렉트릭
let
풍습
똑바로
지효
캅
넥스트
다리우스
aquarius
일루
선량
그랜
섬뜩
카리브
Hi
류우
깐
피의자
라이스
##ᅳ레드
마스터즈
백종
SMG
기시
사회학
카디널
하즈
어진
Du
NORM
열도
데이지
양분
Inv
카모
아키타
엑스포
플리트
노노
구기
gu
요절
##36
뒤서
##arth
##TC
지저
숙적
피시
짝퉁
CBS
강급
|[
수없이
히타
트롤링
##바뀌
##우옌
테두리
주변인
굴절
기대감
아구
뒤바뀌
스타킹
팔다리
Ag
돌려받
촉매
원료
그딴
테디
mAh
##48
우라늄
##vil
이언
닳
공예
소자
실권
음절
업소
툭하면
##산부
금단
워스
##raft
카라스
카니발
##ya
방주
이동기
앙상
##RO
집게
총무
탄력
즌
나자
마커스
우의
##진우
샤이니
Val
파헤치
함부르크
##프로스
오기
any
도면
##수원
무례
레타
손길
조례
신스
NORMAL
서라
별장
페르디난
포커스
로빈슨
Ult
수양
전범
격분
로켓단
Fun
만신
공구
세습
##eek
Esp
프로테
음파
JYP
버팔로
웬디
나츠메
명심
사이클론
항공대
애꾸
터너
껍데기
##나르도
Mix
##라트
##콥
Hero
##나타
##노트
마일리
ap
공문
작센
불러내
아드리
홍익
##닷
차츰
밝기
##사노
폭투
광란
완승
프리퀄
래빗
play
우터
사타
차차
매카
평온
##ONG
##로니카
멱살
이서
거처
진명
츳코
스프레이
타카오
롱주
Tech
분실
코비
자일
##ather
EXTREME
주점
조시
판다
신노스케
##설수
걔
이효
의과
한국식
개머리
배당
##다주
사보
형용
왕권
육신
플롯
면담
서슴
역행
투지
지원자
뭉개
팽팽
인플레이션
치요
아라비아
여제
직사
자서전
실컷
관내
##테르담
냅다
236
##uture
Dec
Say
##게이트
달려드
근육질
무서워하
이국
중수
코스모
Sweet
##ball
##하키
성화
스펜
##뇽
hp
후추
뜯어내
마리나
부대장
레베카
금천
##알라
예선전
향신료
타깃
야유
코아
쿠보
교육감
아틀란티스
##제비
루팅
앞부분
주유소
Kim
계책
어쩐지
경계선
문화유산
##날레
시게루
##리학
비지
생생
머큐리
##98
##정사
홀수
SNK
피어스
키네
##ouble
을시
작자
독창
눈길
802
클라라
red
돌고래
낙사
수식어
##뽀
말뚝
##방지
파라과이
Sol
대첩
백웅
윤지
WWF
실린더
반열
굳건
위그
뒤따르
돼지고기
보크
##혐
리플
피쉬
##볼트
Space
감격
##매기
나토
티오
만연
레터
천안시
하야테
##공격
실격
애호
로드리게스
도카이
마르크
텝
물리학자
장문
충당
공판
포뮬러
순종
한문
하룻밤
주둔지
이다
워킹
##비슷
강북
금세
혹독
가우스
265
보살피
이광수
속출
베가스
이견
##ena
묘소
은혼
장민
국영
저질
##태격
티격태격
성물
##콧
KE
짓거리
##ocal
010
QP
수로
경제력
##ours
뒤집어쓰
힌두교
껴안
수트
스무
232
인위
루디
가우
화순
##병기
크래시
호크스
어떡
다람쥐
바카
돌출
돌이키
월트
한류
발진
종식
STA
KBL
승승장구
제련
##암리
다케다
##떨
Def
서큐버스
메모리얼
Beat
some
##so
보아
변기
원안
격납고
결번
열화
대장간
왼발
놀러
엄하
난데
지네
치어리
통통
클리프
장이
은근슬쩍
##뚜기
고딕
##숲
매혹
뒤떨어지
윤석민
사들이
악재
need
스콜피온
NASA
##피드
##더리
##더미
맥도날드
##노부
USS
자습
비화
어정
야권
잘나
격변
스트롱
Home
들이닥치
##지부
미우라
관례
정신병
##샤바
신야
잭스
반년
전면전
IBM
코타
요요
최승
판례
트란
##thing
클라이맥스
횃불
##틀린
이연
진ᄀ
를르슈
리저
스탠리
조련
제이미
뉴이
이라든지
꼼꼼
스메
특례
##ement
510
햄튼
그레이스
정액
알렌
불륜
분단
특별자치
특별자치시
나돌
유품
안방
심해
명절
외할
##ta
3500
개머리판
##배기
##onna
황녀
나니
실기
변칙
##브르
내신
메기
변속
로아
희소
결속
대덕
스에
Story
대항해
PG
피통
##태인
##ᅥᆼ크
된
한없이
후진
이불
설날
노리코
##34
고라
눈여
에비
복판
동일본
640
앳
곡물
언뜻
스트링
##걱
사루
사념
노련
총체
료코
인디애나
Dest
컨버
응우옌
앙쥬
##HN
태반
컨트리
셧
알렉산드르
댁
##더스트
딱지
세카
브리스
전시회
옐로우
난도
them
한테서
연장선
남코
색소
끌어안
우치하
Pa
유네스
코피
재탕
손대
마르셀
디스코
니콜라이
최준
##욕장
Orig
GC
SB
기색
##마르크
명계
페라
홍차
프리랜
##une
몽환
빗대
프리랜서
다의
##로리
국외
풀어내
밀수
하네
단수
레드삭스
캘리포니아주
##위원회
왕세자
렬
쟤
아멜
마네
레이브
딜런
견주
일제히
체코슬로
##ANCED
체코슬로바키아
오소
타타
기껏해야
##바탕
##ways
##ML
로밍
야가미
하루히
이윤열
프랑켄슈타인
시영
수렵
원군
랠리
##조사
항만
앞머리
305
##ider
컷인
조나단
##사무소
외상
325
클레오
청량리
디나
독주
Pla
인신
산산조각
쓸리
불명예
##rough
가닥
초밥
편차
##ano
마니아
SUV
Bro
르블랑
흑발
히로미
모국
다르크
유린
엽기
##눌
김건
와해
메사
ma
리얼리티
히데키
분담
직렬
레테
her
자그마
사이키
훌쩍
성자
파피
굴림
WORLD
Zero
강좌
발자국
Ry
내던지
몰아가
##ait
웅장
##카타
서초구
내치
깨뜨리
폐교
실비아
속죄
##출력
길가
셰퍼드
우니
강지
순화
친숙
조병
파미
겐지
사일런트
제각각
협업
이케다
##hammer
마음먹
스캇
이리야
비문
신재
GOT
영정
##닿
라오스
안즈
##뉴얼
이부키
장영
##와일
납부
고프
위축
차오
백악
엘사
신영
Japan
KC
부포
##투사
다이애나
슬라브
##UG
자하
꼬맹이
수프
미야코
##bal
양조
러프
Young
무토
희한
내려치
;,
선호도
낙태
고압
동떨어지
국문
러시아인
쥴
ADVANCED
에인
얼른
동향
야오
효고
##eter
벽화
옹립
연막탄
분하
종업
등록금
칵
포박
족족
불어넣
무궁화호
Kill
피셔
공격진
팔아먹
홍련
Storm
쿠즈
통솔력
라키
포세이
칼데아
파이팅
포세이돈
봉투
읽히
왓슨
다던
정변
##세요
밀리터리
들이받
LOL
!!!
표지판
노화
##위성
##입구역
리차
교포
수기
옐
심볼
에지
안영
푸딩
##ANG
##츈
아라이
인대
권력자
헤비급
기조
황룡
이모티콘
자궁
모란
김우
은둔
카나코
살포
찬란
##self
고비
도하
우한
토성
코퍼레이션
마즈
첩자
일회
한라
장발
급수
황산
몰려들
뫼비우스
##신문
##코르
사이타마
볼프강
클러스터
프로페
병풍
폭죽
1896
로디
요나
##ands
조라
역마
쇼우
글로브
##DER
필리프
상디
번쩍
로건
위계
메릴
포도주
노우
잠자리
클래시
클로드
상병
수모
현저히
덴마
##브론
간수
육아
치료제
ATP
##und
슐
봉화
피츠버그
Stri
목격자
치우치
대방
동강
철구
##arm
아스가르드
이재명
PERF
##뽕
자초
TC
she
모색
##iful
람보
이브스
유가족
ph
신예
EL
Jo
셀러
Gun
부어
이사벨
여객기
밀짚
더욱더
굶주리
Fight
고쿠
초신
뒤엎
다는데
재킷
Dead
피스톨
유대교
##Pa
각주
달랑
-!
##묻
못생기
##ene
243
행정동
가뭄
##light
##끌
갉
김홍
금빛
앞당기
우소
쿠루미
셀렉
Wanna
사옥
##elie
중앙일보
공용어
정근우
파오
##경민
양천
포터블
볼티모어
기폭
보위
##에스
공의회
호루스
주저앉
줄리엣
떠넘기
짭
625
가희
중남
중앙아시아
##ection
물어뜯
동호회
##jo
에볼루션
고척
노무라
감명
승선
괴짜
어류
평시
LCS
비닐
오줌
리디
##oup
섬머
##osh
560
NATO
쏙
##TER
소굴
청각
마츠다
##그레
하구
징수
하야시
DL
짠
파나마
엑스칼리버
아이덴
터빈
아이덴티티
##ral
마성
반신
한신
묵묵
땅굴
Apple
Line
마로
발랄
생소
Lee
강민호
포츈
침범
붕어
갈망
괴로워하
질럿
마개
간담
판교
노지
동백
##루냐
입각
헬싱
익사
피지
한겨
방탄복
클린턴
국공
경기관총
FS
치아키
##센터
미나모토
AAA
Hel
에리스
총점
229
MAD
토리노
아인슈타인
##진구
공조
##펫
##ume
bit
자동변속기
가요제
슬하
아키코
로미오
##현수
앤서니
수호신
660
이회
기로
당내
안파
볼리비아
##ᅪᆨ
미적
경산
Death
마구잡이
도자기
거란
정오
클로이
Friend
뒤쫓
절실
소고
There
김학
##팝
루시아
구매자
신문사
737
Champion
장화
방수
니스트
스텐
##ASY
BLACK
목욕탕
Road
의인
##ᆯ림
##보레
블러디
유흥
결핍
##바꿈
이건
드로이드
페르난도
요네
천리
1895
플린
토모코
##회전
허정
개인차
정상급
오하
증차
케일
아사쿠라
도핑
미니건
Intern
핑거
산란
환기
##AF
보헤
충신
카밀
##lease
척도
알려주
허드
##65
어업
지마
단도
##다이스
폐기물
담장
정가
##란다
라벨
부양
쿠페
임종
Tom
##ᆯ론
##그ᄅ
##산성
최민
뜯기
res
이클리
비들
잔잔
이클립스
sec
이매
경원
about
게이츠
신교
미역
저속
에그맨
바바리
##err
약혼자
##니발
전경
스도
정훈
급소
동두
헐리
대격
불굴
넛
##레오
프루
캡쳐
과부하
남방
프롬
블룸
시그널
펌웨어
연행
패트
##덕이
펀드
##OK
직종
아미노
히키
하오
무리뉴
Green
어항
강과
티비
박진영
파운
2400
태극기
사이렌
조성주
페널티가
상반신
선구자
바운
바가지
아오바
엘더
자연히
주제가
거주자
명동
마담
264
NXT
안대
백호
##ortex
아이스하키
##깊
존기
결정력
헌정
##77
##노세
이하일
SUPER
사토미
용족
바퀴벌레
심부름
유네스코
없음
입찰
주리
계룡
워페어
심영
대물
노을
공격대
유희열
콜로세움
DIO
자상
객차
MIX
바르샤바
얌전히
래더
지방도
튀르
##리카와
프라모델
탄자
소각
건달
##드런
호적
##ines
ATM
##PN
속아
커밍
거주민
디언
나즈
조셉
불계
their
불량배
학명
본대
##학생회
칩셋
도살
권혁
##벌이
궁중
노장
선거법
안팎
사파
비나
구룡
##무로
타케우치
유주
##zz
연구회
농경
힛
샘플링
##비어
시공간
종사자
아카시
망신
아키텍
##ATE
프로그래머
아키텍처
다분
화이
피르
##웨이트
정준하
##자락
##티지
프리티
##utiful
유티
매뉴얼
GE
여군
후원자
##ha
비료
두어
303
제타
밑바닥
League
사변
공양
나오토
모니카
조예
##윤수
미행
수축
##베다
원만
포이즌
도지
태아
느슨
페널티킥
IEM
패럴
혹시나
##ᆺ감
맥크리
##uss
노하우
양현종
Que
XBOX
노다
그리워하
황인
래디
친족
##rol
장정
##나크
차르
제조업
분대장
름
구레
come
전보
한큐
765
Warhammer
내포
251
##다이라
슬럼프
로맨틱
원통
아귀
사이코패스
##간다
완투
왜구
사오리
253
##ible
피콜로
미츠키
참치
관리인
모서리
조종당
놀림
성산
IR
해트
박람회
들어맞
쾌적
백설
##에리
선더
세르게이
쿠웨이트
글렌
양정
백마
net
거들
모태
신학교
받들
투혼
상록
한나
캐롤라
판독
조계
병자
##신저
혈연
유적지
명상
원동력
명실상부
지겹
모성
근친
프랑스인
덤블
239
탐지기
백종원
##얹
성악
끼얹
##융합
부착물
공산주의자
모조
알마
샤인
과거사
앙상블
##대장
총학생회
효자
##ODE
##ᆯ른
경화
몸값
가차없이
핵융합
엑스박스
Mal
환관
늄
460
연어
포신
페퍼
컬쳐
티아라
EXTRA
브룩
라울
##마이트
체면
사운드트랙
##수아비
루니
허수아비
슈퍼주니어
지니어스
모나코
요제프
보통학교
서자
양의지
북경
규범
316
휘발
##라잇
덜하
흉노
집어던지
##펀
얏
##췌
개찰구
##인더
중퇴
이산화
교활
유파
237
피사
감리
##ORA
세분
남대
제니퍼
원내대표
은인
무구
구내
우에노
호시노
다우
##기둥
노어
세리카
청혼
삭스
부팅
##윗
니케
레진
김남
리빌
연두
순발
케이스케
원대
너비
김응
스트레인지
트와일
##플라이
트와일라잇
어머
민수
드래건
살인범
성의
타코
아우르
밀짚모자
탈락자
하피
가관
위크
장작
파스타
씨름
-,
적외선
창법
백악관
순발력
스타더스트
충청도
아놀드
##키오
AO
##성장
디셉
사벨
들러
당뇨
골문
NV
##백호
위스
핍
뎁
사이킥
데스노트
콘스탄티
##페르노
노기자카
낙동강
Tra
시진
대대장
르브론
룰렛
로트
뱃지
눌리
Pass
고창
개소
살벌
##VEL
코만도
지간
인페르노
대함
궁예
픽션
##그러
분투
살육
타이가
니지
군포
뒤돌
항전
짝수
보육
국악
알렉산드리아
실례
##저지
김문
##INAL
깨달음
비호
소니아
양수
장난치
태권도
후타바
구와
죠셉
##꼬리
지난해
##vy
아코
굽히
건만
황천
올림피아
##ᅳ라드
어야지
린스
번들
랜드마크
##송이
긍지
거북이
레츠
크랭크
Champions
퀀
오트
반반
엔도
바로잡
MTV
신룡
원점
제아
풍미
가격대
다자
보람
##ames
242
네이션스
##퐁
##독스
##창민
OC
한니발
정신기
사토루
아즈텍
숙부
##ental
TEAM
팥
완력
."
어부
노역
양재
##베니아
##가짐
##누마
힐러리
이방원
한수
분식
아이카
프리덤
##트륨
불곰
속국
한겨레
천수
뉴저지
수이
##사상
타츠미
바사라
기업인
디스트로
##츠미
느와르
반대파
하세가와
그릴
종회
스코어링
##ᆫ그라드
호른
501
##ground
냉철
아키야마
연산군
니라
펑펑
파우스트
거하
미화
아이코
과대
##END
경도
##총사
Full
보안관
은총
코사
사나다
##썩
노카
허접
안건
##OUR
의기
액스
bla
248
니까요
두루마리
발주
레이서
슬로베니아
아브라
##ily
##즉
쿠토
맨서
아사미
헤드폰
천성
저편
베로니카
와이파이
OT
버들
안락
물방울
뛰쳐나가
소프
비누
호라
럿
트로트
가발
문파
244
DH
##바흐
끝마치
구청장
라트비아
어정쩡
유이치
발당
##리아스
##퓨
충이
석조
광교
와라
방글라
계투
##해머
탈바꿈
사카키
브렛
방글라데시
노티
Games
디스트로이어
딤
##ience
하산
금상
프랑코
강수량
칠곡
##세인
거시
냄비
코쿠
hats
명치
옆집
<<
켄트
북동부
의구
파란
범퇴
루시우
##ᅢᆨ스
호가
김상수
플루토
이비
스니
그렌
성계
통조림
영화상
nm
자급
Bet
투옥
방위군
애원
낙타
Set
혐한
다이너마이트
XC
도화
시브
안산시
번화
청계
구마모토
유목민
아르테미스
##gg
##체어
김보
쌍방울
제네바
##ology
##대상
명맥
샬럿
떠다니
농어촌버스
Mad
##iet
남해
알프스
베티
잇따르
##셀러
에델
니티
몸길이
농림
석탑
EXPERT
호도
팬더
조준기
시즈오카
스구
델라
##awn
사스
프랑수아
Long
헤카
##워지
##mas
울릉
##에이고
샌디에이고
무법자
구덩이
파치
신검
공포증
휠체어
불어나
덤벼들
FT
Ra
위법
양평
케냐
곧잘
per
손잡
스노우볼
##GP
고귀
##aser
하나같이
폭락
압수
서커
훈련장
요술
##랑카
뉴턴
라피
##빙글
스레드
##reet
설치류
빙글빙글
포옹
군용
이동한
징벌
파라다이스
레전더리
혼내
풍요
시빌
라쿠
##아프
훤
##훤
성폭력
hatsan
hPa
안구
돌발
탈영
송지
웬리
다급
아샤
경주시
##페리
앤트
메이스
크리스틴
잠재우
야쿠르트
바오로
##??
##짐
소림
##스티아
시즈쿠
포제
##ouch
노동력
##OSS
요도
##래스카
##밍고
함량
TSM
##우먼
선점
남궁
들어주
큼
##br
이큐
외교부
위용
통장
패러독스
고층
볼링
무기고
Ele
##제르
커널
황재
##스텐
취역
밀크
에콰
라흐
서귀
##illa
메이크업
에콰도르
##74
##고르
샤먼
하체
모선
히로키
전산망
NR
실크
탑승자
재판부
WCW
의구심
문하
스타터
유공
##보잡
국교
사냥감
쾰른
나약
키프로스
왕창
##onic
휴양
내림
pop
##84
리만
규탄
##할시
레일건
방아쇠
##이라
사구
##네시
듣보잡
흑기사
##프리트
변조
530
촌장
##ttack
아우라
미겔
오두
발작
아서스
초빙
##함수
##UND
Her
##드라이
유투
승마
타이머
SKY
MAN
유구
빙ᄀ
역부
알래스카
켐
대통령령
방전
##leep
리어스
##렌스
##ᆺ자루
Pack
학군
연장자
출소
참호
심도
고구마
##ormal
울타리
위너스
레토
Dem
사샤
신의
##햄
모세
차징
##IDE
##빔
브루노
##ᅴ우
내비
살림
단기간
동진
실재
짜장
윤상
into
뿌리치
떄문
쁘
MUSIC
난데없이
재결합
##볶이
뼈아프
동복
당진
##ISS
Glo
Tem
마츠리
246
퓨처스
GAME
기약
통지
System
대림
##절로
습지
##ka
지단
진위
가위바위
가위바위보
츠지
재생성
해안가
무의미
도류
##화물
##야구
괴뢰
예견
행크
이시스
제위
강압
1080
254
해리슨
아그니
##잖
최유
콥
무가
연꽃
증축
##말리아
Ah
라멘
핵폭탄
카이바
유형문화재
쉐보레
고군분투
재량
구토
op
녕
로메
권속
Step
부조리
재우
묘비
left
위급
##원장
##집합
이바라키
요코야마
sw
실세
치어리더
long
침수
필립스
부잣집
##전력
우리나라
백병전
##노버
입석
프라이스
블링
후세
##니엄
##워키
##yo
오구
이사회
선취
장진
##erry
약초
##폭풍
보조금
텃
두세
양팔
화교
데비
니어
네기
USA
알버트
총칭
레이팅
이스탄
저절로
##너티브
얼터너티브
이스탄불
특검
라이저
##꺼이
가타
##도시
##ESS
분당선
저기압
등대
방한
##OWER
##마음
쳇
##메트
알트
감축
어쿠
은평
레너드
금수
##꽁
김봉
권투
항마
Call
기일
노년
신변
##빼미
##ting
재물
속초
산물
##box
바벨
비겁
아브
##ots
매리
Ant
도난
정산
촉한
빠져나오
이타치
쟝
미켈
카루
역장
승조
어르신
##자유
Die
문건
블리치
wanna
##이야
초조
기념물
GU
아모
위선
뉴비
쳐들어가
진풍
윤회
Mil
##ᅪᆼ
##조부
삼가
김광현
교배
비스마르크
친부
Stand
마부
군장
구축전차
##ki
##자위대
##코리아
##퀸
외화
토양
무라카미
##za
오성
복서
약탈자
디바이스
##get
동방신기
SDRAM
갑작스레
자형
영덕
배고프
##솥
코드네임
##바라기
황궁
에뮬
환술
요시카
왜냐면
VI
주춤
##enn
바닥나
Gener
만담
앤드루
고글
서투르
판넬
신세기
미흡
재판관
##go
##86
중전
한국사
난간
불상사
종업원
위스키
타오
남다르
박건
승자전
Eur
시디
림프
태초
엔리
스톨
로베르토
만물
달력
구세주
어의
조미
어감
Spe
자이로
거너
맥아
##클라
자경
적분
차질
푸틴
릴리즈
##괭이
##비지
실증
박승
튀니지
오피셜
샐러드
오랑
봉지
NCT
마누엘
지드
디어
토기
다이나
케이티
호타루
반디
반찬
계양
액자
삼총사
페러
been
관상
총검
근소
빨래
##흠
##임새
금물
헤치
표범
방망이
AH
306
##덩어리
수완
##본부
애벌레
##ander
Hell
바야
쿠지
##ents
드럼매니아
##지부지
285
흐지부지
소송법
우에다
유틸리티
GA
이양
조끼
요충
이블
##ᅳ라이즈
폄하
##ied
진이
신혼
페미
워해머
##찔
Del
의복
미주
세손
초안
브금
야마시타
모모코
비주류
세밀
커튼
포르쉐
뒷담
번복
크툴
666
크툴루
개원
지금껏
가져다주
겁먹
자대
짬뽕
NMB
포천
배틀로
미야모토
영월
추력
##버섯
변호인
##저곳
이곳저곳
브라이트
##궐선거
North
재보궐선거
도산
불시
스톱
##갈색
오토봇
Chap
화살표
카나타
오사카부
스크랩
하운드
안착
법제
콜트
보수당
에스파냐
##슬ᄅ
기꺼이
동위
##천년
##hem
##튬
Key
et
월화
선착
watch
사채
동치
레논
성불
영사
Cha
크라이시스
시경
동차
려나
엄호
##BT
야미
민망
사무엘
시발점
Brave
아레
새천년
천문학자
주희
빗자루
구위
외로
벌집
카미조
TRA
트램
적의
리옹
노르망
마일리지
UK
980
약국
연장포
카미야
크레용
그지없
연구생
거리낌
큐라
##녹
##화당
리세
미생물
문무
Direct
대금
쿠사나기
다물
모레
애슐리
손질
262
말단
##ense
뛰어가
맹독충
어쿠스틱
데일
##St
##32
##꼬박
1899
꼬박꼬박
호밍
레퀴
##차원
양복
철제
##블러
Level
산성
##풋
북아일랜드
반역자
밀레니엄
다승
가나가와
질타
질소
University
##ove
속칭
선종
맨손
시험장
벤처
유키코
이홍
해남
번역본
##uth
신인왕
박지성
쏴
스필
서고
구금
도로시
넋
프로파
아즈마
섹션
쫒아
Heaven
카디널스
가람
기저
성행
극명
247
흥국
스펜서
디멘
허준
앙고
##드라마
디멘션
po
보옥
전근
##my
싸그리
단군
도우미
수두
외주
바이어
에인절
하층
서든
코그
메로
이세이
도인
유년기
##에타
음주운전
연평균
사계
단추
##ures
##드기
인더스
동면
김재환
에토
눈알
부끄러
시멘트
카메룬
스테미
다네
비관
군정
올빼미
후쿠다
톡톡히
남색
카나메
Cortex
자명
달구
귀걸이
기아스
nb
중랑
타카미
##테르부르크
MOV
무형
밀워키
그렉
상류층
아람
##루이
리그베다
1903
코코로
충실하
name
Inc
헤엄치
ㅓ요
911
유토피아
카빈
##윅
쉼
졸지에
어학
소거
불릿
몽키
윈도
사카가미
##39
상동
경음
트립
멸시
포스코
블로우
미소년
소켓
적잖
공손찬
이신형
LM
방향키
##IF
##플린
유의미
역부족
ah
수진
말버릇
##IAL
신천지
마귀
그래미
둘레
센다이
인조인간
부적합
박찬호
나코
까칠
조광
모여
오열
선술
신명
엘렌
넘어뜨리
##효과
##테인
주특
스칸
주특기
포톤
회식
근위대
숄
아발
가옥
경마
차명
판자
단락
와드
오션
공관
잠적
부사장
룩셈
곡괭이
##irc
객실
로이스
소행성
설원
레오나르도
그레고리
하교
##로트
이나바
직설
떡볶이
##치히
순양
LPDDR
세비야
룩셈부르크
수조
석회
스리랑카
##OTH
##샹
인산
메즈
총신
성대모사
서귀포
간결
한자어
키쿠치
공물
굼
##바드
470
셔터
대법관
수병
파출
편파
이상일
##ella
대의원
지만은
해롭
관련자
마르틴
##ember
과묵
크나크
가샤
안ᄃ
보컬로이드
##프레소
후크
혼용
노이드
##일치
역동
take
##궂
야루
송정
블랭크
생물체
로바
모교
제퍼
문체
펜타
Hello
##yr
성가
관성
전기톱
시라이시
##WAR
발성
손견
잠잠
축전
Port
전고
현관
음역
Again
mg
다방
스타스
팍팍
나래
정품
메이슨
쇄도
color
Mel
##나멀
머나멀
퀼
##보리
##aph
공범
발버
특무
활로
##ates
구스타프
도안
패망
외로움
구인
크루저
한림
호신
20000
Mnet
##ILL
승수
덩굴
환승역
쿼터백
디바인
시이
심경
희극
재수없
본점
린네
그람
마츠이
역이
308
모의고사
Mach
리지
콘스
헤르메스
##뚤어지
연휴
말려들
레반
##va
남주
애기
혼수
의왕
군마
##umb
Shad
##사슬
인술
니치
어는
구작
디노
가로채
몰아주
결집
암스
펜싱
명언
강가
아미타
율리우스
BMS
요금제
Dig
cr
##ᆼ아
능선
마땅히
서해안
렴구
다짜
##고짜
다짜고짜
필명
마르세
680
HKT
로마인
그리스인
Rep
인공위성
게오르
발단
호송
옆구리
종반
레이코
탈피
EASY
알폰
걸어다니
황금기
뒤섞이
부조
커크
이륙
형체
사미
장창
절도
묵시
카트리지
심기
##ince
위니
##톨레
모면
우후
##쓸이
##뿐
최용
용접
짧아지
건국대
##LA
서ᄑ
241
몽고
Tim
박석민
결정타
비키니
전권
단체전
은어
##해지
TECHN
나연
알로
나진
호아
열등감
##미사일
Only
야사
실화
후지타
마진
던데
카탈루냐
이희
##ᆨ스피어
컨설
문학상
팟캐스트
아약
##도현
한기
버트
구원자
김연아
##티움
304
마이크로
쓰레기통
셰익스피어
##공화당
현세
쿠우
민주공화당
브렌
카르타고
##국적
파시즘
백발
LB
##pm
파가
이마이
경쾌
을까요
외견
철폐
홍문
룰루
겨자
베이시스트
핸디
드레이
유유히
QS
비행단
영산
망언
하락세
무용지물
마샤
문정
노르망디
##WA
##위안
샤우
##ids
브루클린
sa
타란
영예
명랑
디온
에보
에레
에미야
적국
서일본
카푸
ROX
데인
카키
##ometh
수학여행
자립
버나
네버
순번
알아주
상아
해바라기
홈플러스
산업단지
레퀴엠
은화
키아
착시
원심
푸에르
수도사
포르투갈어
시국
추앙
케이틀린
##미디어
상응
저스트
영천
아이린
덮개
##룰
항문
출입문
Days
Jack
보어
요마
군량
절판
부담감
Fil
jp
증설
Lun
박인
##ility
송파구
아과
조디
##딜
확충
미네르바
김유진
HIV
##BE
일병
본업
신경전
##razy
dr
강기
종용
말썽
가고
전소
##생명
블라인
Network
대소
오와
버저
점장
드미트리
배달부
대열
##구려
처장
집행유예
인시
인척
번역가
환상향
고찰
아이패드
난관
바로크
토모야
수잔
아일
바빌
구명
##플로
구판
천차
Gh
번작
직급
손색
311
리벤지
유화
내란
길티
유리창
단축키
밤하늘
알렉산드로스
rem
부의
아키하
Inter
마조
##사병
관음
##합중국
케이타
##iri
랜딩
하디
관구
##워커
##껄
유에
탄피
iP
만인
징표
흉부
에스프레소
적나라
최태
!!"
신형
위구르
패퇴
군자
양날
볼드모트
ser
헤임
미륵
신창
머피
울림
카카오톡
##bit
대종
미어
김강
베누
조종석
EE
주니치
강시
백상
##unk
헤이즈
KGC
##94
시니어
일침
어윤수
숨통
비축
치즈루
색적
아약스
궐
도굴
야타
##보트
뒷부분
에밀리아
ZZ
참신
퀘벡
아나스타
둔갑
제츠
##국수
디저트
평평
양궁
자가용
원서
앰프
마이스터
맹장
켄시로
템페스트
Wr
매화
병음
##파치
##atter
Cup
기나
중증
ᆯ세
백조
풍성
위압
월광
변방
잡음
퇴화
중성자
도부
타카기
김해시
MiG
##cess
타무라
쾌감
사이퍼즈
도출
미합중국
솔러
구구
동맥
엘다
기동대
김기태
장흥
김성현
브랜든
제라드
용시
문항
##피디아
디폴트
비등
키르
순하
##그라운드
오지환
라사
중파
리토
##윙
디셉티콘
이덕
##어머니
개중
불빛
제이콥
##ald
1890
망가뜨리
토목
종신
##ᆯ라이
편집장
스카이워커
오나라
진홍
정신줄
##고로
##부상
쟈니
##ether
##에나
위키피디아
객체
역순
House
##add
사냥개
빙그레
한술
태사
302
짜내
##uman
선동열
독신
##십리
##ORPG
##ips
당과
능통
미야기
미노루
해수욕장
세타
리허
##펙터
복음서
##ᆷ돌
노량
##als
날라가
호이
패티
노쇠
반포
##양이
정치학
Winter
ㅋㅋㅋ
울버린
라칸
전단
Esports
bet
오심
피에로
리크
신차
이용규
럭비
Year
놋
구약
본심
콤플렉스
아캄
아리마
샌즈
안드레아스
획기
판타스틱
미츠루기
##공업
학설
티타늄
##벙
##TN
오릭스
싹쓸이
여래
부트
미카도
북서부
More
##ᆺ가
구부
슬기
look
유골
ᆯ지언정
##닭
로케
세주
데어
이용한
범퍼
도나
기뢰
발췌
최단
귀가
안양시
After
간담회
Kar
LF
##uj
유예
전액
##ᅳᆯ렉스
컴플렉스
자속
윳
불의
##산업
맨몸
좌천
숟
웅진
메신저
건방지
##평동
비정규
수난
레일리
시설물
무수히
시들
노하라
강우
##샵
렌더링
정태
만수
동형
우진
헬레나
미니맵
도레
필리스
꾸짖
무스메
"...
Under
접착
헤일로
##수단
##전생
삼척
무기력
##ico
셔플
여신전생
소용없
모독
윅
렀
창건
타마키
Burst
간사이
깨물
아린
##더지
영등포구
별반
윤보
기상청
쑨
##우로스
적장
##메드
송창
아나토
쿠르드
##마이오스
##갱이
고졸
몬스터즈
관심사
WA
사본
신통
학장
담담
콜럼
스터디
이공
맛집
Sports
로시
타일러
저우
객원
Enter
가독
해마
칸자키
##lin
##커버리
마그네
뒤흔
산요
##esh
두꺼
마음가짐
죄악
사업소
우스갯소리
##헐
따름
종래
##AKA
##르도
매듭
리차드
장윤
키카
아이비
누드
에르난
패자전
지코
##진보
온의
꿍
도란
와다
중생
가마쿠라
기나길
##뱅이
도원
강구
체자
##orce
걸림돌
630
도교
오유
겸손
합성수
사생아
이너
하류
수갑
내지르
행선지
##기니
타파
헌팅
##emy
장로회
손아귀
자장
미마
달팽이
알리스타
##도르프
에반스
##카르타
방청
처칠
##영웅
필멸
베르나
소고기
배양
초판
##레로
think
섣불리
Snow
로군
선데이
프로펠러
스크림
은지원
틀어박히
키예프
플러그인
이프
점프ᄅ
점프력
바크
힘드
낌
제패
작품상
자림
밤새
Va
들뜨
단면
싸구려
stay
귀인
##odu
에스퍼
주박
##코인
순천시
손아섭
칠드런
관중석
##ved
보나
윽
구설수
장조
농산물
스러
##거슨
아나키
맥스웰
전래
오펜
신음
바꿔
올라프
육탄
탐험대
웰스
굵직
nbsp
도선
영의정
격발
잡아먹히
공생
불경
외양
토리코
INT
대모
박용택
##하고
음질
##경찰
긴밀
쿠미코
기물
수문
전업
성조
키타로
이름값
2100
##기수
분개
케스
헬레
타이거스
제레미
토레스
산동
갖가지
Knight
GF
어김
도합
현은
송광
1901
준결승전
Mc
그래피
오른발
속속
권수
슈우
사인회
자야
화풍
##oph
서프라이즈
수심
계약금
심포니
게일
믿기
뒷모습
크랙
공화정
불계승
차근
음표
네온
주세
소말리아
##활성
푸치
액세스
FD
##72
고동
스사노
원투
종군
근간
테레비
에루
music
기승
드링크
다양체
남양주시
엘레나
쇼트트랙
##XX
미혼
복숭아
대참
간사
무한히
코너킥
우르스
수회
발화
승화
제리코
뻑
##ᆯ리우스
##일비
불씨
혈전
유폐
골머리
빙빙
관청
바빌론
##기념
연필
생도
신학자
산드라
##남동
API
수은
##사업
프리츠
따라붙
##폭력
##내티
펠리페
신시내티
##진창
착오
대망
##호마
웨스
요시코
근거지
광명시
도태
##적으로
저버리
760
DEX
무신론
Lost
Gra
사선
##혜진
공기업
990
Anim
두들겨
were
##리아나
슈퍼볼
에인절스
색기
비잔티움
데릭
카가미네
##거시
쟁취
침략자
주이
트렁크
##눕
다이나미
올가
다이나믹
공상
다이버
##VEN
전서
전처
IB
##촨
즉흥
히데오
Rob
결여
삭감
번외
쇠사슬
##othing
로카
##해하
##진보당
교의
##테리아
네프
탈모
나이스
##팔구
이징
##굽
공민왕
형용사
파천
명소
투게
조만간
출항
빼먹
공백기
미국식
십중
##촌동
하야미
아편
착탄
1902
SSD
플릭
십중팔구
##ᆯ리니
승전
잔상
오키타
기전
소파
원체
사이언스
축물
송시
초토화
개인기
염라
신기록
마제
##현실
증정
꼰
개당
내력
강풍
베이컨
##REAM
천년기
##isode
기고
총살
니깐
##ury
붉히
일그러지
##아프리카
선승
남하
용역
티온
##ori
둘러대
소시지
Ice
어다가
까치
윤치
##zer
안상
밀착
사마귀
주상
실각
현저
직경
##림동
파밀리아
투게더
의성
모루
식이
뜻대로
쑹
정호
칼로리
They
960
나뭇가지
아흐
속마음
하청
일류
엉망진창
해리스
처자
눈매
마사유키
묵인
라모스
오토메
핸들링
Cur
Kiss
##ELL
보일러
경부고속도로
민영화
사울
매월
서현
백두산
블라인드
##ney
##ving
후우
##갈이
CLG
Micro
유세이
염원
와스
최경
반증
캐쉬
잡담
석판
홀로그램
레코딩
Imp
보주
장료
발터
개정안
장만
딛
샌드백
사나에
바닷물
RGB
브론
Vir
나가토
610
NCR
부천시
295
##IKA
##어처
미개
비이
포그
길쭉
배틀로얄
카이지
미니어처
LPL
유타카
마포구
시식
아머드
브렉
한바탕
영통
귀도
굴곡
김동현
산재
깡통
어김없이
VC
증손
##겨우
온리
퍼거슨
Spir
Arc
아톰
철판
모니터링
황도
은지라
재방송
논산
속수
2200
차량기지
1898
알론
##파르트
##글러브
골든글러브
파프
킬링
길동
생활관
후지와라노
##fore
수순
불복
히터
팝콘
우에스기
면세
서건
메피스
승산
정복자
특별법
555
현혹
페네
가톨릭교회
침입자
야만인
him
하복
후견
주택가
허드슨
봉신
악녀
TA
파주시
##태현
애비
포르테
%]
##기구
404
빈자리
##구석
통곡
아이샤
페트로
뿅
번번히
유모
김무
트랭크
보드게임
##37
발가락
프린터
##프레이즈
보령
일주
##천면
##코타
식단
580
Sal
놓아
떠도
유병
피날레
요스케
날렵
플라스
렐름
xC
Pan
거장
즈이
강력히
책임감
봄이
험난
뺨치
발버둥
자갈
합세
점원
권법
문화방송
##ITE
대작
사이조
독사
아리랑
진구지
찝
총대주교
면회
컬처
##omething
일신
킵
황건
사산
핫토리
##YS
동당
우버
##세어
405
납작
체온
##시아키
PPV
From
##자마
영종
레저
초소
266
죠타
블레이크
만찬
엘리엇
880
스테레오
지스
앵무
##꾼
Roy
1860
~.
영연
출품
빠름
쇠약
비웃음
##mon
서영
점막
초유
##해튼
코스타리카
하진
번뇌
박제
조선왕
Ann
용산구
다목
상선
병실
시마즈
테레사
Secret
TL
##ᆺ가루
##륵
김범
외인
정공
공언
열폭
Reg
Ha
##나스
마사시
세네갈
##92
보더
범람
HL
용문
별세
혁명군
대전차포
Nat
은거
미자
무투
합성어
세바스찬
당도
재야
Remix
도미니카
이리나
사유리
박현
몰이
##덕지
맘대로
채색
투창
타임스
MMORPG
문선
천정
달리기
난이
질투심
고국
강승
002
교통국
동양인
경복궁
game
바레
소질
장보
강의실
부지기수
캐치프레이즈
마유미
요충지
##치우
영력
dream
vol
쿰
미스틱
경작
아오야마
아우구스
영유
카봇
##듐
##WS
도용
정읍
제철
발암
기모
말다
독고
스테인
1897
##만화
비너스
##히드
야크
##차림
폐차
퇴진
##order
간간이
##부림
당파
놀래
##INK
490
해답
습성
##....
America
안데르
광자
유니코드
갈아엎
시뮬레이터
볼로
근사
네이밍
오닐
살라딘
일구
미제
구걸
포티
제이나
안티오
흩뿌리
역이용
돛
##82
공파
박형
글라스
##ARK
점령지
png
##컥
자만
자타
위세
##일체
top
Dan
##31
명색
뱃속
퍼블
남양주
파출소
##반구
코마츠
실태
폼페이
어드밴티
어드밴티지
Band
도무지
기흥
속기
태화
##걸스
카를로
Hun
짖
연무
판인
425
폭염
##aking
stop
의논
부총리
상국
무참
탐사선
달마
파이크
시코쿠
키보
본연
윤정
탯은
가부
개기
변덕
쇠고기
수두룩
ed
언리얼
345
##엔드
나팔
##테라스
검문
알레르기
##그라들
다희
나트륨
대천사
마르쿠스
플라자
흐ᄐ
걍
여력
원탑
##베로스
##캐피탈
엔지니어링
가고시마
모녀
중개
소미
머스키
온통
체육복
드나들
##ANCE
성룡
박한
역사학
##erson
카밀라
##GO
동학
##급수
건과
색다르
부자연
이라던가
톱니바퀴
war
캐롤
##츠크
포스팅
중무장
양세
풍신
수시
##스턴트
PE
기민
국과
통나무
루갈
독실
토론회
쭉쭉
타노
더글라스
ACT
신분증
브레멘
Ob
마두
성욕
쟁쟁
당수
왕도
하이스
과반수
사커
명종
##중심
악취
##광이
##쿨루스
갉아먹
Wol
지프
전일
공격자
열중
크라켄
되풀이
와시
애니맥스
혈족
더럽히
여하튼
FINAL
away
인스턴트
##무트
##브스
아마테라스
지민
마킹
구획
##바겐
악귀
피부색
노토
##구름
속보
튠
Why
Dri
로터스
김대엽
가젯
페르시
중기관총
종착역
부풀리
저쪽
쑤시
대학살
사회당
현대캐피탈
자우
시계탑
Plus
무효표
쿠로사키
By
위너
카시오
포츠
머슬
##브리지
만장일치
blo
미첼
소관
신타로
##메리
응모
##con
오거리
레이다
노면
데저트
실과
##디나
올리비아
활기차
##미온
법규
광신도
JAP
과천
##트페
상트페
교인
##병원
소방관
상트페테르부르크
Fant
blue
IZ
캘
쿠가
격자
초심자
##URE
##ks
의역
다이고
JB
수훈
무더기
연옥
권영
매그너스
췌
겨우겨우
가인
810
속삭임
Easy
Normal
결탁
두꺼비
light
##부진
박성준
미노리
##터지
##ᆸ쓰
##다발
우방
창녕
탄식
유리카
찢기
김주찬
LR
대보
유혈
##순환
무릅쓰
햄스터
문도
##코지
##협회
심신
080
SNH
##ublic
반월
우주인
해결사
강남역
자작곡
하노버
고해
일색
담아내
퇴학
1894
엎치
오치
명수
##공원
맨해튼
넥타이
고분군
로하
소정
288
아키토
HA
비일비
택지
비일비재
XI
da
타루
##타니아
특대
재외
산적
마사루
##저버
사이언
BEST
고심
정파
##반짝
박소
견훤
옵저버
뚜벅
회랑
폭우
스페이
훈련병
반짝반짝
입김
뒤편
탈레
세이렌
str
518
당선자
속삭이
초장
퍼스널
서건창
얼떨
염색체
GRE
경치
플로우
##라면
모기업
리알
원탁
박헌
고려사
변함없
화사
명부
재촉
##ison
570
글로리
지청
기계식
##뚝뚝
끝장내
사흘
막사
사치코
봉우리
272
한진
왕래
퇴적
상급자
지름길
작명
근현
드리스
##외과
이그
경례
재력
프톨레
display
프톨레마이오스
무뚝뚝
루주
유키오
노틸러스
마노
상봉
절멸
질식
엎어지
매개체
had
도련
진통
일일히
무표
연격
##파시
삼림
840
모지
들여다보
##기스
방진
야지
##ato
005
동그랗
다재
수서
한동
##감독
##쿠사
윗부분
add
트럼
소변
##에미리
색감
##스탱
부엌
고강
항시
검투사
칠성
PERFECT
##도바
정미
영애
비스타
디아스
아랍에미리
아랍에미리트
연립
땅콩
기대치
짤짤
패스트볼
GIR
##38
연명
##즙
출가
리아스
GEN
Here
cod
다윗
천룡
긴토
레이더스
민요
이한
석재
모뎀
강진
현란
권선
잡아가
창구
Series
부의장
스포츠카
진풍경
Cla
을래
치수
아이치
평가전
혼잣말
780
KV
질색
##불복
칵테일
##MI
볼거리
리허설
소다
항체
법관
PTS
##게티
복불복
아키오
배신감
##OLD
프랜시스
하노이
비드
##umber
크래쉬
AJ
퀘이크
프라하
내무부
주정
국철
식칼
금나라
오오타
##wn
사민
드가
극단주의
상층부
##케이크
##씌우
하퍼
참혹
마르세유
초승
보컬리스트
지노
문희
##연의
손패
트렉
Div
Video
would
하긴
자생
게인
청순
321
이해도
MSI
데바
##차근
용지
출자
International
차근차근
토에이
박희
수백만
bu
286
임창용
##높이
수긍
재경기
미치광이
프란치
FK
내쉬
##무책
휘감
코앞
함양
##orry
스커트
##페리온
레거시
재조
산토스
화분
국제선
##ctor
##피오
척탄
클라인
쉔
일판
국유
병법
힘차
페트
특강
재연
용액
송은
##idae
숱
결점
주제곡
EF
진시
##모으
단언
15000
작성자
##키치
슈마
미스코리아
톈진
천명
심상정
af
모닝구
숟가락
출정
학실
벽면
##길동
고루
금주
401
번화가
지안
조엘
유야
비활성
메오
드래고
행지
텔레파시
무턱
토레
문화사
Lu
##덱
순이
299
리니어
발송
##벗
간헐
오가타
중독자
##테이커
Dav
Force
대성당
재계약
후한
너트
체의
조선족
620
두건
산티아
##ATA
기득
공학부
##피언
분분
편히
용신
아라타
음식물
블라드
언더테이커
매사추
##세츠
녹아내리
메피스토
JK
소스케
신현
물의
도성
기프트
오븐
ro
장현
연합뉴스
첼로
에고
서연
매사추세츠
##hed
고드
걸레
합창단
대주자
가트
기단
파마
향교
꽃피
##블레스
탈진
비트코인
둔하
이랜드
당직
칸국
미사토
머스킷
원단
쓰다듬
MED
##댕
유년
판박이
312
픽시
탐탁
관찰사
모티프
응수
지구력
이해관계
##ITY
국방군
이근
마상
매킨
페르난데스
MOD
Ta
아네
조쉬
ACE
려니
윤석
##미안
우노
##las
카이로
맹공
##덴부르크
코우타
속수무책
##hn
누설
번호판
동호인
Future
발라
발의
변화구
증명서
##다능
유자
##카가
금광
폭스바겐
괌
다재다능
에밀
노론
진사
##amb
테크놀로지
산티아고
펭
마나카
영영
명함
메드
백혈
파티마
비안
##젠더
안드레아
##fl
##ᆷ스
애도
히트맨
위문
함교
춘천시
가쓰
비엔
예감
승룡
걸프
창조주
지선버스
총독부
UB
고저
교파
완장
난조
왈츠
불타오르
##대신
이동해
쿠타
2600
언어학
이수근
der
캥
카코
직함
GIT
인양
진언
접목
멀록
쥐어
먹잇감
까맣
강박
코소
용돈
레이튼
일리노이
Mor
pre
리빙
치에
복량
오재원
JAPAN
한지
##비행
Queen
Old
벨로
SPEC
만주국
##지옥
이경규
후부키
독하
몸소
링고
영웅전설
##득이
수용체
xB
두더지
주문서
스파이럴
##현희
복역
##acy
하코다
가망
청도
SHD
Ber
Fin
의수
장검
##루가
허점
웨이드
센토
중공군
Pat
##ror
스물
미신
토도
아랑전설
새천년민주당
##진군
해파리
문종
건반
총력
335
플랭크
##마키
야키
교부
맞닿
퍼트리
die
안달
##방위
채광
이봉
헥터
##권력
##ᅳᆯ라호마
타쿠마
오클라호마
니퍼트
mod
열망
##any
355
820
용기사
제논
후세인
죽전
벤자
Fore
로데
타개
채식
막대기
RES
Work
일축
오ᄅ
깔보
천문대
##기리
307
STAGE
##tm
정열
영암
홍명
케라
행정학
빌리지
!!!!
프란시스
자폐
동거리
Exper
Plan
반야
보건소
##넨탈
시에라
싸늘
출장소
공리
본전
육수
왜건
##고양이
계파
플랑크
연약
몽둥이
호문쿨루스
아냐
기류
자카르타
##만별
버마
국부
필로
수아레스
천차만별
마셜
여과
화단
뎃
곤도
플라톤
차례차례
기내
자메이
국세
박철
천호
엘튼
357
자메이카
##RC
오대
##석희
류큐
##글러스
삼국지연의
조선왕조
사황
자퇴
제수
불스
편법
토아
심층
검법
논외
칸트
Er
만기
성신
than
크레이그
Ill
녜
수거
##irth
화원
컨벤
##친왕
무턱대
더글러스
곡사포
##TLE
델리
어쨌거나
ㅕ야지
상이
##아부
구수
처우
##read
루이즈
GITAD
퇴원
발군
특사
##파트라
클레오파트라
화음
리보
용광
시리얼
아리스토
중학
대표자
녹슬
블랙리스트
전화기
아자르
##면체
피안
장터
##분별
광둥
##els
숙성
네이비
##티아스
하하하
레기온
장단점
MOVIE
유실
한상
코린
독립군
Look
초승달
JD
el
타순
테크니컬
초신성
er
바짝
리콜
준이치
카우보이
전량
그레이엄
정윤종
묵묵히
말다툼
짤짤이
아타리
거진
라타
힘껏
OGN
리포터
메트
무표정
ZERO
라메
장강
송환
나성범
VT
##iant
외벽
##스트롱
비법
건들
린코
최지
ᆫ다던지
성리학
개소리
포포
영업소
글꼴
얀다
boy
우키
셋쇼
##맞춤
Championship
셋쇼마루
스타인
##크레
간토
민선
쏟아부
일수
강물
청라
정실
역세
##핑크
##cal
호머
Dyn
라세
##화기
##강하
발사관
엉터리
##ues
##46
수저
신안
##테크
중남미
원주시
접대
거만
찹
불패
페티
묶음
방사성
Give
공직자
##마다
효종
암스트롱
플러
##cher
카카시
##WC
에른
면사무소
연중
포항시
다키
라이프치히
무인역
선후배
Roll
미요시
세공
##그라드
로도스
카다
태안
마다가스
밥값
묵시록
황야
휴재
##필레이션
컴필레이션
옷차림
Aq
could
다느니
이설
의용
마동
남경
히미
##드름
##어가
수세
피타
스털
급강하
다윈
다국적
##수소
용모
소인수
무턱대고
자조
잣대
오영
빠트리
꾸역
710
다레
지류
##나츠
자코
리파
반문
총액
옥토
셔틀버스
청취자
조나라
##진영
오르페
##ular
최전방
##랙
세실
##토프
멩스
몬드
보보
마아
오수
타미
드라고
브래들리
소비량
암스테르담
알람
애너
##ican
와트
철강
육군사관학교
##셰비
##form
부차
##무쌍
궁녀
계급장
강경파
만하
호두
호연
후시
히치
태엽
아마노
메인보드
여수시
황재균
까발리
망나
경찰차
##아떨어지
본기
횡포
뛰쳐나오
역공
프리스
도수
화승
구시
##토크
##itt
셀카
적재량
코즈믹
즙
##ᅳ렁
##자원
제끼
무분별
로또
전학생
개항
아미노산
마그나
리자드
양덕
메이든
사무국
광주시
하울
파사
필하
##icle
##otion
아케치
도카이도
##부치
낱말
김하성
power
침실
앙코르
고함
지략
사노
GITADORA
how
주신
비슈
##상어
##박사
346
##메탈
황급
쉽사리
sy
일설
추태
섬광탄
##지먼트
끼이
##쓰기
매니지먼트
유례
피력
야포
##실베이
펜실베이
고의로
펜실베이니아
FOR
요직
코랄
낙점
구급차
소르
을지언정
컨벤션
주안
##가르트
코볼트
열연
나지완
추축국
오두막
애런
구조대
##덥
추증
달달
지지부진
발명품
피난민
See
##킴
선녀
는데요
추존
원초
##두고
각하
칭기
rec
유관
치매
##sy
우레
휴고
징병제
내막
문수
삼중
CI
##iw
밀폐
핵전쟁
유도탄
거구
ᆫ다던
모카
화포
세바
더디
결렬
심취
영화사
##몬트
##ava
youtu
징ᄀ
자해
마중
강백호
베이직
파이어볼
Another
시비르
부비
틈틈
상륙작전
알베르토
전미
온난
촉발
아폴론
남동부
통행료
칙령
우성
반향
폭약
276
구미시
Make
##LY
꼬꼬
지원금
뉴올리
펀딩
놀이터
이경우
Ever
일라이
만다
지검
애증
떡칠
BLUE
##side
##대원군
세심
후열
##노르
양민
art
벤자민
아나킨
격상
맹주
##ender
식감
청부
접선
친동생
게으르
##핀스
코딩
백석
이제야
##달리스트
##네이루
##QU
내시
정찰병
구릉
큐티
##꿍
리서
왕전
유시민
사조
배낭
예금
아시카가
카츠라기
최연성
Mind
동티
손승
스털링
후륜
룻
중일
금연
핥
찬탈
에두
고상
호쾌
##ami
세미나
회고록
모여들
하양
노먼
홍지
high
Fort
##워스
츠요시
스탬프
##elieve
남송
아야메
충만
아우디
나루미
콜렉션
이철
번안
군국
달서
클라리
끊임없
페일
##레일
도그
방통
모체
한국전력
##뿔소
대서양
Wonder
지브리
변론
웡
케이코
장승
야마가타
##스름
속곡
##달프
##원숭이
깁슨
가나가와현
##EP
레브
##적거리
커티스
세이라
리거
메들리
속내
완치
쿠쿠
하이트
트랙터
670
매카트니
오야
학도
##여래
음악중심
##혜원
전국구
갱생
칭기즈
가전
구문
##버른
관철
김밥
970
김민철
김포시
여실히
큐리
Aqours
San
ml
##주석
판별
실리콘
쾌거
##SH
258
브리오
관입
교신
군도
함종
론도
황금색
아득히
양부
급조
션트
어니스트
참판
페페
롭스
얽매
동해선
##쏘
학관
전임자
치욕
940
안젤라
을려
주괴
평택시
배회
슈츠
절로
소유주
##캡
버클리
##산맥
ARC
##엉이
이교도
무루
역인
##불사
동일시
샌더스
TFT
시역
디그
뒷목
단가
효도
감독관
송금
Player
고흥
무드
방독
파블로
희곡
퍼니셔
MH
##vice
마오카
치치
대혁명
##ddy
더라고
IOC
Squ
무쌍
포틀랜드
##포인트
비교적
추진력
org
우치다
애호가
PTSD
##가나
제프리
최동
포위망
257
경제학자
에드가
동귀
##프스키
술래
##uh
동군
예식
독스
터틀
흥덕
385
Hz
np
상습
슈이치
##ote
지지층
인내심
Sea
영생
에이핑크
시바타
WIN
시일
원유
##예스
나가노
말미암
이그니스
루미너스
Pal
선의
파로
간소
##hes
키네시스
CU
RNG
슬링
바이저
온천욕
##비티
본즈
씨족
여객선
넘버링
TBD
##비나
탈리스
직장인
애드온
상계
비취
말싸움
파훼
러커
Ben
안마
반점
선제공격
INF
##크루
성호
한껏
생모
707
지산
하녀
매물
직권
its
의례
쿠와
철인
under
##시원
##재주
진열
펀트
Ka
세제
자유민주
##ICK
전태양
연유
루아
규합
사대부
수혈
건너뛰
조석
치닫
실마리
모모카
솟아오르
##사탕
반일
이정훈
기네스
##민턴
팬서
신해철
알론소
부름
서운
카톡
시작점
극회
흥선
##ellow
부이
탈의
클루
승하차
과외
만리
##맞추
-'
길리
선악
263
Card
525
급속히
디비시온
성왕
##발트
설명서
브롤
##tus
##니파
멜라
##레마
왜성
최종병기
리오넬
##기름
리버티
Trans
주성욱
흐트러지
어메이
정영
유원지
이승기
배드민턴
##슬레
대양
라이오
Emp
Id
서예
##ᆼ굴
헤아리
떠돌이
기어코
무전기
pla
산스
##ffer
배웅
베스트셀러
왼손잡이
오호
국민회
헬렌
촌은
덴오
무도회
총격전
Beautiful
##고치
##버무리
##바오
꿋
##샨
멜버른
카나에
930
사가라
축구팀
미카사
콘도
레즈비언
맥아더
##호크
심재
스토크
맹목
이시이
헛되
기입
세군
발걸음
얼버무리
APK
분탕
종주
히요리
ㅏㅆ었
비올레
마틸
일렉트로닉
효고현
사피
##ories
골밑
듀란
오블리
소박
장항
호미
궁이
키리시마
거룩
조난
##거미
우림
##93
캐럴
독음
요시히로
##ᆺ수염
미즈노
아연
파즈
산정
전문점
창립자
고착
수의
후신
복속
아스널
통신망
단시간
건륭
##쿠르
Ko
신참
단맛
스타드
잉카
##유리
##라이즈
##OME
조연상
서툴
장합
국면
##iness
프로그레
아르마
치료법
은하영웅
은하영웅전설
글레이
273
1880
True
컴파일
BY
##빅
요루
데코
양해
4500
니시노
프란시스코
잡졸
돌림
한양대
무진장
마역
당혹
코스케
낌새
우승컵
스푼
Bus
미학
방계
금동
##스티안
츳코미
나일
유충
생쥐
##곡역
소매치기
얼떨결
정년
판테
GSM
로페즈
병아리
민자
액정
마르스
이승현
불꽃놀이
퓌
노블레스
김갑
급사
승리자
성년
필리아
폴로
애니멀
이슈타르
Christmas
아누비스
데꿀
울트론
##ific
데꿀멍
낙후
##PGA
송은범
관저
아주머니
730
팔레트
수표
학우
토종
탯을
트랜스젠더
##ollow
아워
##디슨
류노스케
크론
소화기
시보
##가야
야영
번주
증류
궁을
여진족
KM
농지
주현
장도
해일
캐넌
##처리
블락
각성기
경영자
%~
UD
곶
죽창
석권
Head
딴지
##press
도형
##미남
호나우
국호
오퍼레이션
Want
hello
수력
방종
배타
##회원
김부
귄
알아들
비정규직
##쯔
대합실
자유민주당
즐비
프로그레시브
선례
영차
배너
##저찌
희석
국내선
어찌저찌
타바
##카운
종언
즉발
##oto
밥상
bbq
성교
불도
베리아
##컬레이터
에스컬레이터
시스터즈
된장
들러붙
미치루
타카야마
다마스
검진
백야
에리나
마닐라
Ve
다항
비결
##막이
좌회전
잔느
##ask
전반부
청동기
결방
진루
형광
민회
그루브
덜덜
오블리비언
장구
맥기
##겹살
박지원
유러
유표
리딩
파니
묘역
오르간
폐렴
324
군부대
뒤덮이
##ih
도이
로커
대꾸
##벌리
시어머니
Sub
Tur
이학
자청
미비
으세요
##부아르
소연
문대
##실신
##민정
황선
헤로
핀치
은커녕
상도
유리코
커넥트
프레이야
##po
포가
##북자
수리비
##reas
경의선
판테온
월경
회생
에린
인파
주창
소치
장렬
효능
떡실신
Earth
SI
YTN
방귀
발끈
야코
논평
푸르지오
다카라
인문학
데프콘
네츠
가르드
##ister
Av
하버
본교
유랑
프리트
아르고
나탈리
황급히
AGE
상세히
유러피언
파시스트
##ᆸ스키
이즈모
공대공
지난번
시판
요란
산군
친아버지
죠니
조직력
잉어
스테파
부러뜨리
ha
흥원
링크스
투표수
고사하고
##화학
세시
독침
항법
402
운동회
메디치
레노
디펜더
행진곡
케임
이펙터
주영
유즈키
종국
헤이안
야인시대
Dam
사표
위업
청담
골판
스핑
개척자
볼드체
보시
모처럼
종단
양각
캠벨
카타리나
시럽
##미나
으뜸
##해방
##금속
라이어
농가
꿋꾸
비행사
리라는
나나세
남서부
연예대상
Group
시흥시
대참사
에테
##마차
영판
김사
##ones
몰타
283
Street
카산
초석
완충
유사시
오시리스
스팸
민경
노시
반다
군가
정맥
유강
삼겹살
##쿠젠
##큘
타임즈
식도
핸드볼
Two
소티
##ini
star
폭주족
SPECIAL
도지사
베네딕
아탈
자스
픽스
##유행
진주시
##YY
투석기
##요한
피플
킬리
집시
슈퍼컵
율법
아라키
쥬리
경쟁사
웅덩이
##ives
탈레반
du
대죄
남군
284
토미노
뱌쿠
정략
그로기
##ress
주마
양극
ᆯ려면
친선경기
youtube
Vi
아스트라
9999
얻어먹
고룡
무위
동종
입소
독가스
지저분
어메이징
구야
독기
보호법
무한대
트라이얼
시이나
미주리
뽀삐
피로도
##port
구박
참회
TOUR
태커
프리스타일
플로어
MSM
앵그리
대식
##onight
러버
##난방
마리카
스위칭
글쎄
##미경
총동원
극락
영연방
숱하
화강
벌벌
세인트루
인민해방
인민해방군
유루
피살
최현
넘나들
보헤미아
라쿠텐
LD
##bow
카본
yul
오송
파스칼
뉴올리언스
정찬
선미
버로우
흠집
코모
맞아떨어지
숙달
전망대
에이즈
자시
##얗
261
277
뽀뽀
323
386
시현
조서
타이트
004
gonna
쓰시마
Electr
##scape
송시열
트럼펫
독려
쫓아다니
수동변속기
{{{#!
등신
타의
유우나
##잭
##ja
결산
트레이스
덴버
키릴
비비안
아우구스투스
피어나
국소
베오
손익
벌점
김유신
##재호
예보
팀워크
송강
마리코
크로즈
##ada
마안
용법
고지대
고관
정색
리플레이
포세
##팜
양학
김민성
Burn
##CO
미형
습기
맞춤법
Techn
기침
바타
##상하
두고
##락스
원산지
프란치스코
방독면
등짝
유럽연합
ep
데포르
소문나
기차역
다카라즈카
기척
##닐
야후
마사미
##bert
초음파
수스
소국
피폭
더치
결판
발표회
##닥뜨리
VF
이산
미스티
정강
오르내리
##roid
Shadow
두고두고
로다
##어사
강화도
마요이
NBC
맞닥뜨리
흔드
통찰력
리븐
##현상
##드레드
포인
박보
마나미
시타델
##afe
자외선
정월
해괴
달렉
병들
유라시아
##MM
자파
니다
윤서
영웅전
SSS
여태껏
귀순
##AMP
870
박원순
휘발유
부다
렐리아
켄치
유희관
크리스티아
깊숙히
카스티야
XL
피스톤
백승
케이프
멍청이
차우찬
러일
혹자
알비온
영하
하기
도플
인코
다운타운
LoL
Intel
부군
바렛
개근
294
하물
##코비치
##lad
민주자유
벅차
Global
민주자유당
대청
대손
백동
랴오
sky
##캉
전의
추하
##누이
노르드
햇살
##HS
플라밍고
티라노사우루스
KK
##디트
물들이
금괴
##탄두
후지이
닭고기
플릿
대문자
VOD
야성
##aint
오락가락
##ker
이등
찻
후폭풍
엄친
딜레마
codice
여간
모피
조아
누에
임박
구력
타블로
파급
##당당
##토메
꿀리
오디세이
캔자스시티
Hal
주거지
사간
식탁
북스
밋밋
방랑자
##비안
병마
앞날
황위
정규직
불로불사
YES
##크ᄅ
노크
민가
번거롭
-.-
추악
아니마
##태자
네드
##uts
비서실
한식
터득
녹턴
테이머
Reb
령우
##제철
으르렁
Fro
수액
전군
내통
진천
코코아
근본주의
정몽주
이딴
영상물
가루다
아만다
OFF
부영
앙드레
아발론
지양
상전
키오
274
발사대
지하철역
##APP
##셰비키
##홀름
정준영
did
노회
##토쿠
맨션
케이이치
부지런
ind
무디
감화
메노
항변
##쿵
요시유키
Chapter
TK
##ken
시테
##타스
커서
엘자
이색
전상
정병
동고
코에이
920
이지선
김동준
카탈로그
클로즈업
Tok
디안
명목상
사이타마현
원킬
밟히
이택
빅스
리의
##oman
015
이정현
Silver
재원
참배
복직
완행
서사시
##뎅이
##맡
##와트
##껍질
Hand
오차
##무사
용검
사쿠마
모터쇼
TECHNIKA
플란
양키
끝자락
보디가드
강신
살생
왕릉
조지프
이왕
테마파크
노원구
옴니버스
무반
신우
파이퍼
중서
소체
권세
양준혁
선왕
제퍼슨
예프
멸칭
호수비
옥스퍼드
데크
병조
267
050
녹색당
정단
키코
군의
외딴
중흥
탄성
Studio
##펜하
Leader
신동엽
재조명
안일
현대인
공수부대
모질
호지
테트라
##천후
##ative
위례
판국
통합진보당
화염병
##97
거성
피나
파쿠
잿
HC
이부
실효
순혈
창녀
하루하루
Dep
쌤
##시설
비버
맞은
부산시
338
해동
김나
##쿠니
냉소
스위프트
##꽝
오선
##히메
총평
악동
황보
화물선
곱하
##jor
라이노
Cost
work
전란
나잇
타카다
김태원
Double
JO
요셉
꼬드기
CHA
미케
반정부
##먼지
료타
동력원
수색대
이회창
척탄병
추신
구강
선덕
박선
곡식
담화
히데아키
Water
##쓰럽
나침
려는데
세르히
Cloud
동갑내기
무심코
터무니없
노포
##포츠
금산
난타
271
알렉세이
하후돈
Hor
Pur
야고
현과
학비
##ior
미발
상환
당사
금사
샤드
중앙부
덜렁
Second
##갱어
도플갱어
조군
성나
바티스타
맞은편
Us
커세어
##베라
국제법
마쿠
연작
##골목
리턴즈
##앵글
##KE
김석
와카야마
먀
금리
청정
침례
268
miss
어가
주구장
항생
폴드
뻔히
주구장창
Oper
##나물
칼슘
베일리
마천루
##츠로
작업장
셧아웃
가꾸
갔다
지법
리무진
##애자
왜군
세기말
소지품
갔다오
지느러미
우러
신드
휘장
003
핵미사일
수집가
스즈카
법조인
kW
에무
효성
법대
2800
HERO
보패
치진
##ery
글귀
여호
이종범
지크프리트
AU
대웅
문맥
친히
Cho
특촬물
얽매이
하찮
##티엄
펜티엄
호흡기
이범호
신일본
##쿠보
Ju
오웬
등불
##바꾸
스티어
레스큐
##YO
경춘
임성
미확
비빔
.?
리츠코
영락없
Bill
바네
미온
타령
실베
##ASH
트라이앵글
##Boy
츠노
여성향
##충전
##젤로
노자
##마켓
각개
젊음
강정호
경차
단풍
니켈
변변
아웃사이
Radio
아웃사이더
Know
마세
악세서리
##ating
성장기
1889
하물며
공법
세피
##슈타
415
롯데월드
교도관
기슭
다현
매립
백정
빼어나
##꼭
##부쿠로
한일
무한정
다든가
고노
외판
코메
고우키
로터
##니카
##보성
반미
투병
쇼타로
##던스
거침없이
재충전
손주
아츠코
big
##KA
하중
부득이
리퀴
국명
리미터
점성술
최수
불고기
머금
황교
궁사
모더
위자
마사코
미군정
서강대
##퀀
##cy
냅두
Gre
PART
어태
##미널
내키
알베르
슈투
하이데
헬름
아슈
영식
관서
##홈
음독
박력
준말
착실
마틸다
헉
청송
신겐
Thank
Vita
거실
학당
슈미트
##stal
유일무이
##OTHER
Ki
이발
표차
값싸
장부
감차
스탈
렌지
그레고
동대구
287
through
뼈대
싸이코
공덕
##전등
해법
서른
카림
배재
국민정부
맥시멈
===
치곤
##ael
이능
금제
태양광
반지름
역사가
널널
1870
아케미
아트로
로엔
아유무
##만장
##카이저
MOM
시무
##공산
축약
켄신
이끼
여초
포용
##네그로
어림
자유도
퇴계
옥시
의무병
석가모니
##하타
##거품
김풍
휘어지
김정우
신앙심
치장
부르주
475
퀸시
브루드
South
Right
경기병
베히
순욱
수풀
중문
탈선
하이스쿨
Vers
문득
##텔레스
블로거
개정판
다로
패튼
딧
할퀴
##iko
조리개
꽁꽁
MAR
불후
체인지업
Sign
Walk
강석
박대
중간중간
기하급수
아드리아
포에
##역학
아야네
Wel
조민
티라
몰카
블럼
응원단
##uff
스테파니
주사기
리암
메뚜기
수원역
마츠오카
루시드
##사건
코야마
현충
박이
관계없
징조
##67
조전
소독
성좌
##버러
##퉁이
괴한
핏줄
가평
피조
풀어놓
폭풍우
리네
변국
##imate
끌어내리
세인트루이스
이레
제제
현생
항렬
DOS
DREAM
상작
318
디나모
##기아
나방
바키
소타
##타리오
카스트
저해
투아
다이쇼
순양전함
리튬
알토
Sin
##하트
요트
저수
산개
항공편
정의감
740
Sa
##과학
교문
머스탱
친자
아리스토텔레스
시퀀
수건
천인
야쿠모
안치홍
Land
기우
소이치로
##hel
묘호
빵집
Mid
이찬
라던지
모텔
레이프
TUN
홀더
꼭지
브뤼셀
##대전
미에
혈투
위도
갬
톳
액터
LIG
헥토르
대주주
+,
VV
환시
흑자
무지하
맴돌
Born
Cross
칫
남베트남
식욕
##usion
Qual
##uz
라네
무속
입안
##개발
별빛
Where
바꿔치기
RW
give
월남
타이라
590
경향신문
EDG
꼬치
모이라
##ters
오프사이드
아차
##다임
##나도
날조
츠키
지팡
뭇
노구
##딩크
살인자
조소
막심
답니다
끌려오
휴식기
에른스트
##이츠
극작
패러다임
아낌
절기
엘리시
수줍
라엘
알콜
##바도르
네빌
지배하
##axy
Jr
Lab
개의
병무
309
##stic
연선
현도
악순환
이웃집
매섭
결실
##꾸러기
로버츠
Electrical
유생
난방
친형
뻗치
부녀자
보훈
전회
우완
안재
교동
직류
관리국
IL
도매
호퍼
XG
히지
아오모리
대마초
일회용
신랑
완파
암살단
디스토
쇠뇌
카스가
케임브리지
호동
잡이
축산
조승우
##도록
우도
신오
루도
259
다이몬
##ANT
지와
지병
발원
Pres
길버트
불사신
Speed
XIII
조식
성심
서핑
양산시
##ces
개역
필중
기념품
##킨슨
Original
아나톨리아
마무
실프
노벨상
마정
라브
아프간
##come
스모크
애덤스
##티에
불변
쇼고
이효리
유급
피넛
연신
계명
퇴위
후쿠오카현
시진핑
에르난데스
황건적
나침반
포교
히딩크
too
롯데마트
의문점
Some
오명
동질
##빌라이
고승
시의
동태
샤라
송영
282
몽크
##꾸역
신궁
레인즈
꾸역꾸역
보이콧
##왕후
당뇨병
Forever
TM
바레인
연시
김효
해산물
이방인
##수선
##정보
공론
소하
타에
샤론
온실
숍
자유투
타케다
라치오
이태양
주치
강현
##북면
힐데
원더걸스
떄문에
불출
승상
##ora
켄타로
노량진
Mill
##fer
가역
핏빛
취약점
run
Circ
바일
말벌
역수
황성
최전선
세리아
리니
촘
역경
본색
int
신조어
"-
West
##챙이
야노
##버스터
그러다
전사자
##뇰
리베로
현수막
가모
중보
배꼽
진우
샐리
청록
나카타
플로라
모비스
버틀러
김옥
팝업
키리코
인건
근절
급부상
END
짜장면
##냉
식수
##막히
압구
넥톤
조타
단두
##바바
음유
첫눈
육손
집단군
1884
알렉산드라
노도
플레이스
환전
보상금
프레시
묵살
Collection
god
나베
외삼
으려다
야마노
협력자
라일라
이스타
그레인
위헌
세하
파쇄
애드립
승단
는다거나
별관
미치코
이치현
히다카
여몽
일장
성내
리호
##창호
갈레
##raw
사법부
미시시피
채무자
오리아나
문물
##셔리
##ji
신판
317
##akes
연주회
Shin
럭셔리
류중
탐내
옆면
네덜란드어
##here
이족
질기
밸류
read
호그와트
Extra
비위
이병규
몬테네그로
FP
가뿐
시편
일기장
리시버
VOL
##당선
##호테
##세르크
체스터
신대륙
신계
레게
아야세
브라보
닉슨
KL
가파르
노총
##디부아르
토고
갑각
모자르
##셔스
초대장
저작물
코트디부아르
Episode
잡아당기
##yl
수려
빠짐없이
지구인
##돈나
대원군
뷰어
미추
##마타
나경
##키드
민스
중요도
제스처
화풀이
무득점
강태
모노레일
##뷔
대작전
캐터
기관지
오스트리
니시무라
##큘럼
원석
입헌
Wild
호건
스탄
오카베
콘스탄티노폴리스
거사
유종
불순
존엄
크로마
칸타
십이
오오츠카
브로드웨이
불시착
Award
size
##vin
배설
##공신
티엘
검단
물러가
정우람
더위
네스트
가입자
김성주
##ipp
카게야마
#==
COL
pack
장모
임지
끈끈
할로우
두근거리
라운지
수혜자
이마스
도저
머리띠
답장
356
모리슨
LT
도킹
들판
리도
안쓰럽
탁자
TRPG
##차지
전말
적출
장권
픽시브
경영진
해적선
가디
장태
##live
##쩔
수경
##평리
전근대
에어로
조진
서한
##실험
재지
휴학
커리큘럼
로치
원샷
역겹
298
미하엘
279
올랜
펜던트
선지자
Dynam
video
##데자
코보
골자
오카야마
스톡홀름
경색
해시
악성
온타리오
little
로베르
신보
카와이
JS
Pet
POWER
htm
성찬
친딸
창업주
치토세
Iron
OL
car
가극
정희
안목
누카
가속도
아트록스
##HO
유장
카파
마사오
청소부
리서치
생화학
혹성
핵탄두
보관소
기정사
##고비나
부심
비무장
##체고비나
물병
정상인
수십만
기정사실
하아
고배
카잔
속어
티티
차이나
스컴
쩔쩔
기말
명회
약관
백금
향로
한성부
도다
로랑
서천
피폐
키츠
검수
느닷
##ese
##받아치
보수주의
바운스
인덕
외고
양승
씹히
리우데자
American
리우데자네이루
이혜
가나다
탈북자
##캐롤라
블리스
SoC
##UMI
흉내내
컨버터
##캐롤라이나
PRE
Ray
들먹이
리그컵
기모노
##고시
동과
장차
준코
##edia
##벼락
전병
상심
##노동
009
굴러다니
사대
선양
데블
##승지
확연
Prot
꼰대
RNA
friend
##ios
배영수
갈매기
##트라인
아키모토
수호천사
청탁
백과사전
##유사
포우
코크
캐피탈
김천시
건널
프로즌
##처치
##깨우
건널목
점퍼
##저냥
함흥
외신
테트리스
스타이
후쿠이
댄싱
하라다
KG
발길
레더
식초
대표단
폐역
##자치단체
##부패
Chall
이와타
전뇌
개사
후렴
278
296
부정부패
매몰
춘향
류중일
may
##깍
일깨우
조중
##날린
##드레날린
미성숙
##볕
하후연
세르히오
다와
부왕
파이로
낙오
Fa
이카리
지회
##사쿠
강선
종장
Child
승조원
유익
위배
289
레버쿠젠
하코다테
둑
아보
론드
##라시
장마
칼초
헬륨
Gar
도야마
기가
성정
콧수염
저전
스핑크스
제미니
문산
속담
910
와카바
문호준
다든지
##공학
##태평
주먹밥
TNA
아라드
1885
##IZ
##FE
씽
홍시
스포르
올랜도
##스토
동음
선인장
Eyes
절충
김재호
카운트다운
비올라
##cc
인부
성토
269
comp
역주
혹한
마스터스
룸메이트
라던
바젤
이동국
앙헬
조총
물기
리스본
이성열
연산자
##**
명반
그냥저냥
스토킹
민병헌
경시청
골판지
File
고열
평형
탈리아
짜르
##웃음
융통
black
##ko
하태
도당
카이사
people
네이마르
문지기
쇼지
윤희
런들
Inst
작사가
Lord
공권력
차역
##비에
곤잘
나위
바케
경종
##물질
이베이
컴팩
과소
아르토
카즈토
mon
모랄
쓰촨
알베르트
이봐
빨아먹
금강산
숯
조규
치노
급작
방문객
턱없이
##oid
오목
##비츠
순애
간청
협소
2024
##메이커
Hall
WBC
구전
리소스
급박
국가원수
##풍선
아카데미상
수필
소포
구파
처박히
심성
손재주
020
오카자키
##주얼
푸아
헌제
장원준
페르디난트
공보
인편
타테
비행대
리카르도
소바
우표
교통카드
sur
전가
증서
듄
##aki
##REAK
안무가
보름달
이데아
부엉이
개굴
패링
걸출
센텀
##aeb
뒤흔들
미확인
기급
##하우스
소신
CONC
##por
유달리
##유희
광원
월계
##두라스
온두라스
##라도나
스기타
에이리
찰지
어벤저스
지파
##닉스
소코
##타나
민물
프리깃
교육학
단체장
오승환
Lim
에트
대들
##사메
오파
차인
야훼
호실
참새
채영
나이키
Mich
mind
느림
고명
전입
전희
붙들
지휘부
베르나르
드락
은닉
참작
루체
귀여
휴즈
츠츠
내리막
Ze
카슈
캐주얼
금관
나이토
칼집
돌격대
##이어티
Plat
아드레날린
행정관
그나
유두
훌린
쾌활
고환
시아파
COST
대항해시대
##aa
##와키
급전
깨부수
감염증
미적분
앵무새
RM
fun
사하라
중합
버질
렉터
##심원
직각
히마
새뮤
슈와
2300
EG
제창
소풍
장경
호죠
재치
NFC
지반
학동
형량
용수
교육자
336
Arch
동반자
조반니
##IVER
자영
당구
남초
##행성
키라리
메키
몸담
사형수
텃밭
다혈
병약
몰수
##삼키
소대원
스완지
RK
che
그럴
장어
김도우
운전석
신분당선
정전식
친환경
##들레
예우
쿠소
##andy
##멜로
소사이어티
##쭈
##일점
하이드로
하루나
정용
상명
레우스
페레
008
엄정
니시키
Vf
록스
2030
백운
아킬레스
실패작
집어삼키
용가
농축
기능사
아키하바라
=,
방조
후마
##연기
예절
일본도
곡예
##ᆷ픽
답하
루스벨트
LH
수현
방도
폭발력
박민우
압록
빌더
베르디
홀딩스
콜린스
바움
##제트
협찬
ElectricalBoy
##꺽
치비
솔트
삑
전년도
TER
폭장
##lear
매니악
스턴스
미라쥬
마쓰다이라
원균
탐방
##그래피
로베르트
국고
히비
박시
Ban
Mart
속셈
게임차
백모
나치오
플렉스
강병
초롱
남장
산불
츠구미
링링
마사지
메르스
수감자
##끓
인회
산신
혼령
벤제
MCU
아랑곳
군의관
가레스
고액
조안
양질
격화
득점력
이주민
Rh
공제
포춘
##추리
##맞이
고고학자
조인성
mag
위버
입담
순경
레이건
돈독
##istory
def
벼랑
선취점
의향
외질
##뿍
##불교
하이드라
총기류
외동딸
후견인
##빽
판치
##추얼
##ᆫ스키
품위
파레
##레프
##개토
접종
##폭스
굴하
숭실
##스톱
위연
물거품
투데이
극치
곤봉
브리기
444
그럴싸
가논
경무
룩스
반투
충전기
측정기
다혈질
집념
배기량
DRA
지존
로한
황충
책사
아마게
이케부쿠로
##파인더
마음속
아라곤
대법원장
빽빽
시퀀스
도일
외가
산역
궁기
주나라
##동사
서너
안시
##놀림
망정
띄어쓰
둔감
ass
구심
281
컨설팅
벤제마
지에
카락스
쿠치
펜리
브리타니아
fire
par
일과
부응
저마다
민호
빙자
##를로
에디슨
흥선대원군
항생제
imp
니이
앞바다
690
용기병
하카타
에타
사부로
벤투
##자르
변성
광개토
웨슬리
토모미
##ISE
##LV
체벌
APEX
##이야기
Bas
##ᆺ물
가용
마론
데우
국화
감점
닷지
서성
명가
종가
목판
006
핀잔
##xy
이티
시찰
와리오
영과
핵실험
골목길
모국어
wr
하즈키
도축
사륜
조재
다이어리
자료실
지리산
하일
산양
297
양구
합전
에이트
팩터
EXE
곰팡이
보면
부축
##힌
명과
호국
코뿔소
접합
##rie
이로하
뤄
도재욱
오스트
유현
북측
패럴리
도탄
수화
쿠다
##ising
384
레드불
326
음양사
독약
##cept
Bon
게스
니모
멤
font
안위
권외
레이즈
Ball
동공
초성
식히
폴리곤
권위주의
관악구
히이라기
Dist
WD
지어
노파
파하
군무
빛깔
쥐어짜
##56
적수
노현
한데
##받이
콤비네이션
김유정
나탈리아
안지
증산
##쿠마
급급
지리학
##ii
##대성
천거
열거
히로아키
주먹질
RD
의태
라피스
리피
홍천
##르기스
OH
구포
혹여
잇달
읍내
Round
sing
깁스
형질
외손
스카프
호소다
이데오
채태인
철기
##ᆷ피스
406
770
고세이
랜더
##드롬
가와사키
새뮤얼
지탄
스네이
##인명
타크
카즈오
##mar
##리지
트집
##ddle
냉면
드니
육전
익룡
대관식
미덕
정모
차녀
창백
순정만화
적설
장고
와이즈
박정현
헤르체고비나
Royal
##스라
대권
라플라
정판
##아채
##토무
현우
양력
##ouri
낙엽
낚아채
요금소
리벨리온
슈가맨
##TO
면전
조스
차수
피디
비대칭
수족관
스테파노
TJ
##ᆫ시
보노
스벤
키르기스
독학
피조물
Wo
아틀리
교우
sub
##ᆯ리나
카발
신마
코오
리자몽
흐릿
\[
어조
만치
코츠
초속
임파
##reme
쿨러
##vers
복합체
사절단
로큰
내디
워렌
홍백
생활비
브리티시
성전환
Guard
우현
##즈미
##른베르크
츠시
##브리아
마가렛
단두대
마돈나
영세
##호란
삼성그룹
still
토벌전
GDI
전준
데니
##푸리
이와테
일말
카포
온과
319
프시
부여군
닛타
알폰소
브리기테
Our
##ault
하소연
비보
아마미
##oke
익스플로
아울렛
익스플로러
할애
KAC
은발
##타주
테네시
손전등
앙숙
헤비메탈
Parad
마샬
##BL
자괴
노로
##inity
탄광
접히
##ᆫ구동
코노미
보이저
예멘
빚어지
김재현
HMS
기선
주무
상큼
음차
Nav
오현민
ft
이지만
화법
##acle
Cast
가곡
휴머
책자
옥황
where
마르크스주의
two
모래시계
경춘선
도큐
무왕
아무로
샐러리
박건우
카산드라
##of
페터
포니테일
함경남도
사이좋
매킨토시
mac
군소
292
하이바라
파우더
Bell
아칸
##ener
윤하
##스트림
Stop
토모에
꿰차
요오
안부
군락
김철
합본
입장권
##iec
스몬
노상
니시오
옥좌
레스테
보안법
에뮬레이터
박헌영
HAPP
Luc
##ugh
티미
요시타카
히토시
약혼녀
내재
우타이
메구
음직
종시
아야지
아킬레
교통수단
도미노
고춧가루
비탄
포경
파스텔
봉선
히라가나
rpm
그리움
카세트
만신창
스며
정청
입금
샤프트
강릉시
박해민
헐리우드
군비
임산부
##잔치
하여튼
제원
롤스터
##min
1850
난항
홍설
860
히타치
전초
상연
선라이즈
강룡
멤피스
컵라면
옮겨
센티넬
관현악단
카고
루브
산둥
덕수
요시키
##땀
Far
에렌
고바야시
거상
보궐
##여왕
##푸드
하등
라벤
무주
##민당
녹아들
혈청
ret
비수
독식
티치
삼국유사
유공자
VII
식료
투덜거리
철조
30000
sl
##이시
종북
박은
목회
엿보이
지소
사디
코버
군관
삼지
떠맡
볼셰비키
듬뿍
first
tell
나트
적병
##ᆯ리스크
##츠바
베츠
켜지
오벨리스크
장량
요시아키
대야
와전
세관
간디
씨스타
##아넘기
##악단
##ᆯ로기
Style
항해사
이데올로기
내동
폭렬
||
의정
유리아
공해
##데우스
역린
골인
흑사병
도노
만월
무브
페스트
음악실
패럴림픽
으레
낚이
네즈
Stars
은유
행패
심수
합참
석양
참모장
tri
##피카
잔나
연대장
마스미
글로리아
강동구
VO
초이스
팔콘
##alth
국민학교
이치노세
피오나
로큰롤
Alex
##똘
주니
##미즈
요츠바
##락부
품격
유키나
람다
서장훈
온건파
##ever
미연
리링
신월
니노
블린
버나드
##모프
금품
환하
##샤오
LEVEL
사우론
Ur
라보
더그
중재자
제군
야라
산청
겸직
스테로이드
크리에이티브
은사
수나라
##르츠
무희
타트
용마
돌프
그래비티
결정체
포부
##레알
색인
이씨
라그
번즈
용해
투석
약소
밥줄
ref
포도당
화정
인품
등부
신랄
휘청
그로스
화강암
아난
디브
외식
루츠
연주가
del
남우
히루
##배추
백자
담론
##iter
##찌개
무인기
FU
Jump
도토리
타이푼
Golden
##스트리
들끓
피라
장서
영걸
##코로
함의
네이팜
간선버스
후훗
송창식
상파
커쇼
언동
이바지
아산시
매디슨
집무실
잡다
쿠르트
욱일기
열람실
요이치
배짱
덕아웃
아탈란
바네사
무브먼트
bec
##인구
넘나드
염화
##바이크
real
선제후
##제일
아방
수포
신이치로
약학
폭정
곤살
##gar
고출력
프리뷰
어리둥
벤쳐
트래픽
Mob
어리둥절
HO
중신
장외
네리
343
타카유키
##닥거리
아뢰
##자루
진서
분별
논술
Ref
NEXT
보내오
잔기
풍족
기간제
app
##기병
투시
커즈
머릿수
어퍼컷
콜럼버스
##가면
팀플레이
Conc
예배당
젓가락
제니스
장년
완다
앞발
516
뜰
레카
순결
##orrow
찬반
830
호쿠토
고물
타박
배합
##석탑
충렬
해안선
부르주아
Got
##ba
자구
구례
포리
토호
exp
마다가스카르
극비
아사노
올려놓
대당
증감
준주
스스무
정순
호성
교지
살의
총상
징후
##층석탑
Dear
문턱
레퍼
점진
##애플
헤르만
Code
##ᆯ리즘
토니아
꽃미남
오카모토
아지므로
##akao
서당
코고로
계량
군신
황정
헷
친위
카미유
가맹점
가브
노안
노와
리신
##영화
북송
아라카와
지상주의
##랄라
와일리
명문가
깅
소작
재석
군산시
셰필드
MSX
Ti
지피
킬라
활자
떠돌아다니
이간
만무
카요
신족
예종
천억
##걸리
겹쳐지
토스카
해적판
자책골
padd
##ㅋㅋ
베개
광휘
##ste
양성소
얕보
어대
##리쿠
수증
노니
실신
코스터
##루크
병동
재판장
시한부
대연
전유
인덱스
산수
3200
엉성
Mini
영능
##파스
판문
##ᅳ랜드
ᆫ데요
##예술
촬영장
하비에르
##43
라헬
여분
리니지
나단
적벽
선과
##슝
롤백
블록버스터
삥
트레저
곤잘레스
성행위
데자
불우
판금
##덧
찬물
양산박
영남대
안중근
OUT
비뉴
스파게티
##trl
##스태
일차
오에
페그
291
트리스탄
크로커
모리타
Engine
Ros
~!!
##73
훙
then
실종자
##ternal
##나항공
화형
제노스
언저리
아시아나항공
스트릭
장타력
##uke
모우
설욕
331
트래비스
엔드게임
##under
성진
##레온
양아버지
세계사
1001
일단락
힐다
칼리스타
소희
##핸드
외톨
케모
수성구
서유기
암드
##ARE
펠로
1888
키노시타
Flash
고을
중의
##연구
폐해
렌치
Rap
오존
작열
북해
허리띠
1871
##ᆫ견
레다
815
유성구
라미아
##랜더
꺄
도제
기주
만석
성관
우시오
쿠빌라이
351
앙골라
컴팩트
##게일
노점
군체
##패닉
벌목
##글거리
회사원
아카바
히스패닉
안드레이
전등
박테리아
육사
검사장
STX
낭독
##ucky
섬멸전
Attack
적십자
내다보
불합
류승
억류
늘어
졸전
파피루스
펜리르
교가
위기감
콘스탄티노플
코소보
##주머니
포카
식판
축조
##갈기
대졸
##드랑
##uel
노모
구지
우발
익주
에스페
장충
버진
레이버
습도
##못하
느닷없이
##문고
원당
현악
점토
난바
망전
늘이
pp
성상
선화
임계
이브라
갈증
김수현
html
Face
##kn
수구
명기
덕양
육탄전
##AV
##ule
고티
##치산
창세
뉴타운
322
705
485
김영철
이지영
남녀공학
통계학
##ought
네이션스컵
other
대란
마라도나
경은
하수구
타계
아서라도
최충
채권자
스트레
악덕
##슛
제트기
나바
무카이
발드
매표
북대
Princ
잽싸
가결
##보르
깨우치
바쿠간
아하
남도
루퍼
서양인
얄짤
얄짤없
MIN
선입
커드
취침
느릿
영유권
나영
영제
봉승
묠
533
멍하니
손승락
크리스티아누
Away
점착
계산기
Chaos
황교안
Pri
의형제
##소디
특명
342
쥬스
중추원
?"
안가
사용량
골반
흐트
435
브로스
##눈물
그리스도교
background
카멜레온
간절히
염라대왕
레퍼토리
##GN
과세
윔
발부
##소득
파내
최윤
레비아
애절
활짝
양주시
베르트
충칭
뮤츠
아키즈키
상점가
레비아탄
Fair
GOLD
명군
배팅
용례
오버래
공사장
잦아지
재건축
생몰년
애꿎
Tell
라간
##트가르트
정평
철창
쇼팽
요하네스
Galaxy
쁘띠
슈투트가르트
도민
응축
설레발
##bat
곤경
시망
바바라
윤과
요기
레모
양배추
타이르
울먹이
419
카시와
블레어
소홀히
인코딩
must
##ᆺ사
##천하
답례
찬드라
##hone
이츠카
부교
공터
종편
히가
홍길동
##훈장
스트립
song
und
##케이트
국인
열량
개최지
성전사
단짝
터로
음악회
이요
부탄
노이어
잡스
##enz
집안일
헬리오스
포인터
사철
##사유
릴리아
연개
403
칼리파
윤곽
Wave
act
왕왕
중국식
##iam
##ique
개점
말풍선
무라사키
DN
~,
##sung
바울
세크
허기
망고
야구팀
미야비
사마소
상상력
쟁점
기부금
정조준
휴게실
후루카와
TNT
BAT
자성
바스크
Yo
##ORY
히메네스
윤성환
Ak
책장
##eca
아킬레우스
WOW
##42
세그
쉬프
골동
준위
이끌어내
키라라
영자
애와
천신
기관사
재정부
NTR
자업자
후각
백기
갈림
쑨원
군국주의
자업자득
WS
에치
파타
캐내
히바
행실
극렬
송승
요격기
로킹
서막
청중
염보성
나카야마
조용필
친일인명
친일인명사전
매국
역자
심혈
칼뱅
록키
플립
평안북도
모치즈키
'"
거병
무정부
야근
재심
양서
총학
절박
2025
퇴색
콩트
양성자
부랴
쿠션
허스키
흔쾌
국민은행
캣츠
Crazy
피눈물
연임
칼레
빛내
미카미
##berg
나나코
경성부
함경북도
Ven
성덕
출도
낙관
뒷이야기
아리안
과도기
이택근
Lady
노심
니토
##세다
스탑
505
오피스텔
성북구
padding
난국
드리우
삼국전
line
##Force
타전
카베
엔투스
염주
꿈속
##ript
뉘른베르크
비사
표제
야구팬
보병대
랩소디
CAN
##찜
이직
도독
##피크
메다
이동식
412
##셔닝
우스꽝
클로저
787
포지셔닝
PVE
##도그
미라지
성냥
매터
접두사
다카하시
##dom
도파
빈유
렌트
뒷골목
구자욱
hellojo
절개
어딨
대리석
조선왕조실록
휙
세그먼트
참의원
북로
##박쥐
##ota
무소속
;;
free
장석
박광
급유
안타까
가부장
소학교
성군
랄라
ND
모략
모드레드
비준
번리
형평
료우
김종필
예수회
여차하면
IX
코에
친아들
##itter
##olding
외삼촌
Count
##땡
도륙
마흐
두리
삼보
산도
검객
난립
##탈출
##amu
##채기
##abe
빗발
야스히로
은평구
LW
이항
팔콤
395
탈리야
성동구
HYP
Lin
##HA
연제
니트로
백악기
몸부림
버추얼
328
쬐
되도록
퀘이
후지모토
공작원
가독성
npc
애완견
지고
단판
에어리얼
Low
시문
신구
잿빛
러니
텍스처
우솝
Dawn
GUMI
사별
##무제
##ima
컨셉트
겁나
always
렛츠
하하하하
외할아버지
fall
다빈
마리우스
##omet
밀림
부다페스트
break
남만
내려다보
내려앉
비공
원이
최병
##합성
좌지우
기타프리
원정군
코코넛
과감히
##ruct
파올로
좌지우지
기타프릭스
상쾌
서안
복병
샤나
신경질
##토리코
##체스코
막시밀리
극작가
MID
카ᄑ
간만
HTML
박주영
아퀴
시물
주종
참견
갖은
MBT
EVER
OZ
Wal
어렴
네라
레이아웃
세계선
도로공사
515
##pha
##cat
캐럿
선거관리
가라테
평안남도
히지카타
선거관리위원회
border
##라토
적개
비츠
미나모토노
고성군
은의
타타르
부르고
혼신
상영관
이준석
class
이권
무쇠
선수상
곡도
찌푸리
##뿌요
뿌요뿌요
푸에르토리코
GV
find
스ᄅ
기근
타니아
낸시
형무소
관찰자
골칫거리
Element
스칸디나
갈림길
스칸디나비아
현지인
BN
lea
호통
음정
박서
앞지르
##ITION
김정민
로리콘
year
한시
##후무
참관
현대차
공주시
전무후무
ESC
스파르탄
파인애플
도레미
방청객
Train
미란다
리야
##통행
퇴보
뿔뿔
모하메드
David
비만
요안
##그네
목도
간다르
눈덩이
옥타비아
Point
추신수
간다르바
앞길
서로마
쌍방
어버
##다스
모씨
##사항
문전
라일리
겨울철
live
사만
오답
노코
역효과
극진
헨더슨
ACL
흩날리
제너레이션
고성능
핍박
##ᆻ다가
고속철도
메디컬
##mo
##FS
에세이
수역
체공
유민상
리시브
교보
환희
##ffect
달성군
훼이크
거제시
##전드
역모
점액
외척
민생
스펀지
빅리그
탯에
Tig
Vis
설산
새하
왕십리
심리학자
선풍기
##려내
##려먹
식충
홍석
다니까
하이네
브리즈
넨
다리아
지층
플레잉
홍주
학살자
Adren
하숙
난파
기업가
##제르맹
Machine
화백
비술
##의식
번뜩
독차지
클라우스
서양식
이코마
사그라들
일인
등수
영매
##렉스
쿠로다
이매진
그레고리오
생제르맹
반시
음각
익산시
얹히
부평구
흔쾌히
ROCK
정일
##티보
배영
##파람
투박
판매고
399
쟌
##USH
슬리퍼
Evil
쑥대
##aeboo
Ring
##/-
경품
##극상
Bul
DG
##브라이
관공
정과
장광
진부
본방
슈티
##롄
오리엔
mp
웁
손보
특수전
밤낮
project
dark
유학생
연세
회송
문부
평신
떠나보내
수도회
지상전
##꽂
show
다원
적반
정육
철원
암약
이지훈
엇비슷
리퀴드
팽이
자학
세레스
던컨
신스케
시가전
##태평양
Caeboo
Lea
소냐
해왕
아야코
혁명가
구치소
XM
ㅠㅠ
가타카
차도
솥
음운
##unt
고위직
프란체스코
아낌없이
문답
토프
손등
카와사키
재래식
##하장
부검
비클
회선
항공전
유영혁
괴로움
해부학
Fest
아이튜
근세
깨트리
옷장
섀시
뜯어먹
아이튠즈
Hon
##스윙
공경
타현
남조
사우전드
##크라테스
응급실
##sm
##뻑
우트
현기
프로야구
호스팅
서대문구
##ᆸ니다
사속
대미
왁
릴라
후송
니카이도
지부장
협동조합
Block
사세
수유
한남
타비
버벅
레시
군악
349
타카라
##팔트
MIT
라쿤
유림
청천
클링
kill
어군
사아
모코
오행
화웨이
##즈컨
##악산
활동가
전시관
소방차
플랑드르
눈여기
Bang
치기
강재
예기
루지
503
풍조
##cho
##몽골
블리즈컨
이스즈
도살자
##스태프
##89
종과
샐
재단법인
마일즈
경보병
도니
은월
조잡
선식
##러레이터
멥
더니만
언어유희
액셀러레이터
"~
##브롤
하바
##붐
##두스
##중력
502
질감
5500
나카가와
숙련자
head
와세다
적폐
부고
노루
레조
패주
아이라
##런타인
밸런타인
무솔리니
HAPPY
새하얗
##87
주얼
히포
침울
감소량
##eck
아스팔트
1882
볼로냐
부르고뉴
LUK
심지
341
##GM
유학자
성탄
장유
직물
아우레
케르베로스
성부
산장
신청서
영문학
의술
알프
##분해
콩쿠르
아브라함
노즈
성황
##소프트
##코스트
허망
광역버스
TIME
정봉
반가
외대
벡스
부산대
##oday
루이지애나
폼페이우스
##카운터
Rel
해충
계진
아마데우스
##idge
경산시
내보이
##티넨탈
폭소
철근
컨티넨탈
Stud
070
페이탈
후쿠시마현
FTA
Son
비노
경미
군종
완봉
범상
섭리
지우개
가오슝
##지휘
사헌
박문
금새
접미사
친모
타입문
솟구치
가이드북
대국민
TI
고충
천주
허탈
아키히토
짜릿
슬림
발명가
안타까워하
도금
성간
야로
##era
송현
숙녀
inline
바스트
위촉
피즈
최인
##캅
##급부
팔랑
팔아넘기
353
부담없이
United
이만수
서랍
국문학
이채
오작
무츠키
치켜
키요시
복위
반대급부
낙랑
##팔이
##지방
야르
체념
자치체
관군
균등
스트로스
최준석
핸디캡
#.
이두
소카
장호
당해
##포타
터닝
오리사
나무라
아파치
인드라
##내미
Log
오동
알카
##새끼
맺히
Book
구로구
Missouri
아틀리에
비앙
이시하라
1887
call
##lish
신드롬
##버니
까스
돈벌이
헛스윙
보르도
쿠니오
Armor
사오토메
인카운터
백련
강화군
프티
박정석
기욤
신태일
##만큼
세도
청렴
마시멜로
들여보내
##RS
밀키
##트라이트
코칭스태프
##모닉
생각없이
인도인
툭툭
win
나체
마경
모반
세베
추노
교구장
설전
293
판매자
이호준
##gu
네거
민진
괴성
##apon
덮밥
공공연
ever
##47
잣
##만고
등반
존칭
아야토
금과
##묻히
파묻히
##은성
##트롤
스포트라이트
잇세
##쇼프
##핌
아어
검호
사업장
수선
##장군
개심
터전
##ᆫ스케
다이얼
지형지물
꿀벌
묠니르
Bal
유약
매미
쿠엔
류세이
윤용
브로커
호크아이
필하모닉
Jun
##르겐
비조
양원
이자벨
무참히
다항식
##곶
리샤
신림
배성
잡아오
난처
떠안
출입국
무라타
미세먼지
Wall
보두
인비
영성
안토
포물
창업자
운전사
메소포타
메소포타미아
DIS
테임
##넴
편승
옥천
카시와기
SAM
하극상
여가
처사
금남
브라우닝
스자
##IDIA
오비완
사헌부
##교동
독과
임수
##난만
환마
르마
교통량
MBN
진시황
의제
챔버
완만
Any
Box
GBA
거포
디오스
음침
신호장
프로페서
##쿼
에스텔
라테
우메다
패딩
입회
기억력
배틀러
조리법
쾅
만주족
##earch
##comm
Honey
고단
기신
새미
베니스
안정환
뒷문
should
요람
얼추
드러눕
염구
플라스마
비티
외도
필히
백귀
떠받
뇌신
천진난만
##랭이
##sw
후치
해경
왕징
MAG
최신작
##서기
차태현
알테
재봉
쿨라
사카타
이소룡
기막히
아자젤
Mat
개고생
##멘토
뉴이스트
마름
송수
뉴욕주
이재원
영수증
Paul
Kh
유원
코덱
두스
폭뢰
##탄올
##암역
비아냥
##NER
가렌
봉고
마스다
아나스타샤
적반하장
상해
프랑스ᄅ
땅바닥
미카즈키
프랑스령
Deep
적법
한영
최규
넴
##페아
486
##ole
후천
레리
입장료
337
혈기
컴퓨팅
시원찮
Ca
Ham
Lie
돌핀스
검지
짐바
개막식
고담
훔
발루
원예
반목
승소
태왕
손석희
오버히트
보관함
경전선
정성훈
마르티네스
아류
부로
상극
발신
단파
김덕
암모
숨어들
헌혈
##나잇
성곽
집행자
##ubeat
주워
비프
삼미
먹거리
030
Please
노히트
복고
측량
웬만큼
데스크톱
PUB
사니
직할시
헤메
카이리
##aken
##anced
SY
##성어
##무가
단양
동두천
Jour
dam
인포
번창
##모르
북상
기억나
죠지
떡하니
옹주
1893
교향악단
뷰티풀
##soft
자프
수재
생수
성시경
숄더
IW
리메
풍운
##ira
번역기
##죽이
다그치
Pf
고각
오물
루치아
불합격
##ᆼ클
원스
강용
고등교육
Kr
hel
고현
자지
신서
##테우스
타이타
찬가
##RAS
쿵푸
뜯어보
에페
보검
완강
왔다가
호되
455
##ident
왔다갔다
Sat
대판
티타임
##겨보
안전장치
야간전
보행자
카시오페아
Jin
##gn
유압
방비
베데스
삼위
Stay
할배
셰어
1892
에스페란
베데스다
ET
eyes
예스
요시오
핫도그
골프장
연두색
Soc
모비
신아
나오코
##금니
악사
Alt
이재용
빠져들
후임자
뒷담화
소명
방선
관두
꼬집
훈족
훈독
1886
스타스크림
역주행
##멜라
수륙
데메
송하
아르티
소개팅
1883
사발
위클리
매운
재가
키야마
살인죄
##ᆫ들러
브르
사림
미진
##마쓰
단죄
연출가
사상가
병무청
Touch
##시네마
노에
추장
고질라
둥둥
스프링필드
view
기출
녹차
퀴어
에스테
도미닉
압록강
삼위일체
Dom
VP
keep
##EG
압박감
깎아내리
정착민
카도카와
진경
구국
니화
앰버
입부
##콘신
앙심
해독제
위스콘신
청양
벌처
찬밥
브링
스칼라
SideM
탄자니아
비슈누
ZEX
훑
군위
외편
창천
헤헤
착실히
이승환
시사회
세실리아
분가
##매장
임동
Records
시차
미조
세차
##티드
코사카
##연장
재작
종묘
티파니
술자리
가로우
공군기지
대공국
##iano
만신창이
##르모
상법
요긴
매시
패니
휘파람
노르만
##헴
언더그라운드
##ook
마창
구종
프로메
이블린
석기
빙고
신기루
명성황후
대교구
UAE
바텐
미후
타잔
평탄
유니언
택틱스
윙크
1891
발레리
연수원
커넥션
PASS
상비
동수
##식스
코펜하
키호
패스트푸드
코펜하겐
이름표
민나
켄터
SPOT
Ghost
소도
심시티
엄중
류이치
벌크
아리엘
이명기
Spirit
!'
Tor
부락
회군
티안
삼양
취사
허허
##amond
번역자
아드리안
일렬
와치
바토리
상설
##붓
우군
양평군
테라스
노비타
김명운
뵙
##tainment
RTS
}{
##OB
대정
니엘
삭발
##iving
Asia
도겸
라이카
##베레
염료
리베라
##LT
오드리
토야마
권익
감독상
최고령
여름철
에리코
허영무
Five
##를리
의령
삼층석탑
육안
타나토스
클레멘스
Wake
home
##ua
소오
##성사
강퇴
눈뜨
전기철도
미레이
무정
충주시
절도사
자연사
NHL
광동어
아웅
대생
유착
데시
코이즈미
루블
극상
최신형
우월주의
Digital
부역
면목
고은
건장
고득점
해주
##선언
변혁
364
이민호
다드
고카이저
유색
경구
개런
키친
12000
루소
다이치
421
클린업
찝찌
##가을
모병
율리아
제과
태산
절연
출고가
찝찝
갤리
추서
바이마르
슈퍼카
Yout
##orean
댄디
퉁퉁
도가니
하미
파벨
레라
누아
##함대
울라
하이스트
낙뢰
부산물
##imes
라라라
Doctor
전준우
Turn
이운
개경
서빙
예문
##투리
백경
풀럼
덕선
설과
창피
##착륙
펜타곤
사문
존나
슈즈
트윙클
부채꼴
응급처치
HYPER
거금
모멘트
문란
배추
##모비스
현대모비스
연락처
대뜸
##모음
감량
메시아
##곡면
뒷심
신용카드
bad
비크
후아
실에
관도
팔달
르망
##aper
NX
##브웨
오래가
##콘서트
Sword
고난도
NVIDIA
Tit
모후
챗
봉천
캡처
이주하
##63
##뜰
##ᅳ럼
정철
행인
타이베리
332
잉글리
샤를로트
갈비뼈
타이베리움
National
수질
전출
급성장
눈꽃
중앙은행
으려던
롤랜드
##트럭
PSY
그럴싸하
한별
파베
결핵
베크
토모카즈
jubeat
엠버
경리
무등
광운
지배인
김민우
벵거
카론
완도
352
털털
##ACE
EDGE
중장거리
김선빈
아다치
스구루
라니까
현시
##민호
네크론
피노키오
PX
##nam
출사
##복지부
봉안
윤동
##린내
그레이브즈
Talk
전능
##포화
식기
나타샤
##덜랜드
est
어금니
고타
자인
알리사
하루미
포가튼
연초
카무
##카테
손짓
##itz
##스타파
료스케
얻어터지
리저브
용광로
##OG
미각
우화
결석
##분열
##멓
붙히
제작소
올랭
견학
코토미
유강남
노진
서곡
피임
디미
아이바
죄목
369
엄격히
HM
수열
용하
염체
CDMA
히라노
양천구
East
Name
인솔
##카라
##코니
허경민
범실
동작구
기품
##장소
무우
외박
유기체
웜홀
##시게
연심
start
바그다드
jpg
SUN
사파리
한잔
메틸
##누키
##roy
추계
호호
초절
룹
태상
##lash
fuck
주원
우열
학벌
외눈
힉스
리모컨
발할라
애국심
울릉도
기혼
##르카
최남
예린
창가
랑그리
펌핑
랑그릿사
Bel
DU
고학
일순
서럽
##룽
##ergy
쿠로사와
시원시원
상한선
IA
kHz
동글
하이에나
381
종교인
Vict
사성
서산시
울분
마음씨
신속히
이가라시
고미
연혁
불황
애드리
냉방
프렌치
흥국생명
sn
마빈
##onely
벤피카
이재호
block
카롤
##여대
##ination
##ural
피아트
rad
지브롤
329
여전사
ESPN
이병렬
부원군
Monster
Perfect
지브롤터
로타
사레
으으
김광석
금기시
Java
전인
##키호테
불새
베다
돈키호테
##ogle
캄파
닐슨
이대형
true
유폭
무과
당명
호오
입소문
탄지
낙법
크랩
Samsung
메릴랜드
##68
지껄
##국사
따스
누더기
혼재
찌들
박종훈
경단
렝가
김관
슈바르
타이치
334
헤이븐
썰매
우회전
##orning
눔
[...]
