[PAD]
[UNK]
[BOS]
[EOS]
[CLS]
[SEP]
[MASK]
▁▃
▁ㅇ
▁ㅇㅡ
▁ㄷ
▁.
▁ㄱ
▁ㅇㅔ
ㅡㄴ
▁ㄴ
▁ㅇㅡㄹ
▁ㅇㅢ
▁ㄷㅏ
▁ㄴㅡㄴ
▁ㄹ
▁이
▁,
▁하
▁ㅎ
▁ㅇㅣ
ㅏㄴ
▁ㅇㅡㄴ
ㅡㄹ
ㅅㅓ
▁1
▁ㄹㅡㄹ
▁ㅇㅓ
▁ㄱㅗ
▁년
▁ㅎㅏㄴ
▁ㅇㅡㄹㅗ
▁ㅇㅔㅅㅓ
▁2
▁ㄱㅏ
▁있
▁ㄹㅗ
▁되
▁ㅇㅕ
▁대
▁사
▁ㅇㅓㅆ
▁ㅎㅐ
ㄷㅏ
ㅁㅕ
▁그
ㅈㅣ
▁일
▁시
▁ㄱㅘ
▁지
▁들
▁수
▁ㅎㅐㅆ
▁기
▁전
▁적
▁ㅇㅕㅆ
▁ㅇㅘ
▁20
▁아
▁ㄷㅗ
▁ㅇㅣㄴ
▁가
▁월
▁제
▁ㅁㅕ
▁19
▁ㄷㅚ
▁정
▁다
▁주
▁ㅂ
▁중
▁자
▁ㅈㅣ
ㅏㄹ
▁공
▁ㄷㅚㄴ
▁경
▁개
▁인
ㅎㅐ
ㅓㄴ
▁ㄱㅣ
▁것
▁세
▁유
▁3
▁"
▁조
▁부
▁등
▁ㄱㅔ
▁선
▁성
▁스
▁ㅎㅏㄴㄷㅏ
▁연
▁미
▁동
▁보
▁마
▁위
▁상
▁ㅇㅏ
▁소
▁오
▁한
▁영
▁고
▁구
▁ㅁ
▁국
▁모
ㄱㅗ
▁도
▁발
▁비
ㅎㅏㄴ
▁201
▁'
ㅕㅆ
▁나
▁여
▁4
▁서
▁후
▁ㅈ
▁명
▁신
▁ㅅ
▁ㄹㅏ
ㅣㄴ
▁프
▁5
▁관
▁ㅁㅕㄴ
▁역
▁때
▁200
▁장
▁-
▁방
▁의
▁ㄷㅓㄴ
▁교
ㅜㅌ
▁만
▁문
▁ㅎㅏㄹ
▁리
▁해
▁ㄲ
▁차
ㅜㅌㅓ
▁바
▁우
▁무
▁생
▁계
▁현
▁원
▁분
▁군
▁포
▁노
▁화
▁6
▁당
ㅏㅈㅣ
▁ㅇㅡㅁㅕ
▁또
▁않
▁학
▁남
▁결
▁작
▁ㅇㅏㅆ
▁같
▁ㄲㅏㅈㅣ
▁출
ㄱㅔ
▁ㅇㅔㄱㅔ
▁내
▁파
ㅏㄴㅡㄴ
▁진
ㅗㅇ
▁ㄷㅐ
▁강
▁단
▁최
▁번
▁어
▁7
ㅜㄴ
▁받
▁반
▁10
▁8
ㄹㄹ
▁ㄴㅏ
▁호
▁ㄷㅚㄴㄷㅏ
▁회
▁배
ㅁㅏㄴ
▁초
▁거
▁데
▁안
▁형
▁ㅈㅣㅁㅏㄴ
▁예
▁카
▁실
▁재
▁에
▁말
▁불
▁ㅂㅜㅌㅓ
▁ㅇㅟ
▁ㄸ
▁없
▁로
▁두
ㄷㅔ
▁사용
▁종
▁9
ㅇㅡ
▁타
▁미국
▁라
▁ㄹㅏㄱㅗ
▁특
▁이후
▁ㄹㅏㄴㅡㄴ
▁요
▁과
▁통
▁설
▁함
▁ㅌ
▁ㅁㅏㄴ
▁ㅁㅕㄴㅅㅓ
▁일본
▁코
▁운
▁산
▁ㄴㅡㄴㄷㅔ
▁권
▁활
▁감
▁독
민국
ㅇㅡㅁㅕ
▁레
▁행
▁대한
▁ㅈㅏ
▁다음
▁왕
▁추
▁김
▁음
▁베
▁지역
▁대한민국
▁크
▁양
▁199
▁민
▁평
▁더
▁및
ㅇㅓ
▁ㅂㅗ
ㄱㅏ
ㅓㄹ
▁많
▁매
▁입
▁참
▁피
▁12
▁경기
▁ㄷㅐㅎㅏㄴ
▁간
▁18
ㅈㅣㄴ
▁승
▁목
▁ㄷㅏㄱㅗ
▁프로
▁대학
▁다른
리아
▁건
▁;
00
▁총
스트
▁그리
ㅓㄴㅏ
▁ㅇㅟㅎㅐ
▁북
▁S
▁집
▁알
▁)
or
▁법
▁외
▁11
▁체
▁때문
▁각
▁트
▁시작
▁천
▁ㅇㅣㄹ
▁드
▁표
▁직
▁임
▁변
ㄴㅡㄴ
▁ㅋ
▁토
▁본
▁사람
▁&
▁A
▁(
▁그러
▁팀
▁선수
▁물
▁처
▁메
▁속
▁함께
▁또한
▁점
▁한국
▁투
▁박
▁ㅊ
▁항
▁청
▁브
▁세계
▁ㄸㅏㄹ
▁영화
▁저
▁사이
▁광
▁게
▁자신
▁C
ㅈㅕ
ㄹㅕ
la
▁M
▁용
▁판
▁ㅇㅗ
▁국가
▁약
▁태
▁ㅅㅣ
▁경우
▁디
▁달
▁기록
▁야
▁T
▁복
▁f
▁F
▁축
▁현재
▁하나
시아
▁이름
▁존
▁활동
▁편
▁198
▁ㄷㅏㄴㅡㄴ
▁확
▁당시
▁위치
▁삼
▁가장
▁네
▁열
ㅣㄴㄷㅏ
▁철
▁테
▁ㄸㅏㄹㅏ
▁ㅇㅏㄹ
주의
▁_
▁ㅈㅣㄴ
▁조선
▁가지
▁버
▁학교
▁리그
▁필
▁그러나
▁15
▁올
▁ㅌㅗㅇ
▁ㅇㅣㄴㅏ
▁증
▁플
▁페
▁금
ㅈㅕㅆ
▁째
▁뒤
▁루
▁for
▁대표
▁백
▁언
▁창
mu
▁ㅅㅓ
레이
▁역사
▁ㅇㅢㅎㅐ
▁식
mula
▁연구
▁치
▁formula
ㅣㄹ
▁16
▁근
▁병
▁프랑
ㅇㅡㄴ
▁또는
ㅂㅜㅌㅓ
▁심
▁그리고
▁/
▁사회
▁합
▁ㅌㅗㅇㅎㅐ
ㅐㅇ
▁황
▁규
▁애
▁D
▁시즌
▁0
ㅇㅡㄴㅏ
▁m
▁살
ㅇㅑ
▁충
▁17
▁순
ㅜㄹ
▁클
▁[
▁첫
▁]
▁따
▁B
▁197
ㅗㄱ
랜드
▁완
▁히
▁중국
▁아니
▁ㅆ
▁협
▁다시
▁ㅅㅣㅋ
▁ㄷㅗㄹ
▁시대
▁정부
▁프랑스
▁:
▁서울
▁패
▁K
ㅇㅜㄴ
▁영국
▁I
학교
▁ㄷㅐㅎㅐ
▁ㅎㅏ
▁높
▁k
▁은
▁도시
▁만들
▁전쟁
▁여러
▁뜻
▁포함
▁채
▁문화
▁196
▁독일
▁14
ㅎㅐㅆ
▁ㄹㅗㅅㅓ
▁아이
▁~
▁대회
▁키
er
▁ㅇㅡㄴㅏ
ㅐㄹ
▁ㄴㅡㄴㄷㅏ
▁축구
▁면
▁g
▁13
▁P
▁뉴
▁정치
▁ㅂㅏ
▁ㄷㅏㄱㅏ
ㅊㅕ
▁가능
▁위원
▁ㅋㅡㄴ
▁곡
▁모두
in
▁별
▁ㅂㅗㅇ
▁환
▁모든
▁동안
ㅜㄹㄹ
▁감독
▁문제
▁이상
▁방송
▁ㅂㅗㄷㅏ
▁쓰
▁구성
▁손
▁배우
▁194
▁친
▁개발
▁L
▁l
▁석
▁일부
▁논
▁지방
▁길
▁사건
▁처음
▁제작
▁대학교
▁ㅁㅗ
▁허
▁ㅇㅏㄹㄹㅕ
▁ㅇㅟㅎㅏㄴ
▁취
▁죽
▁검
▁%
▁국제
ㅇㅘ
ㅇㅏ
▁러
▁작품
▁농
▁ㅍ
▁관계
라이
▁캐
▁ㅇㅕㅆㅇㅡㅁㅕ
▁이용
▁세기
▁골
▁ㄷㅚㄹ
▁시간
▁니
▁게임
ㅓㅁ
ㅇㅝ
ㄱㅕ
▁새
▁일반
▁교육
▁G
▁씨
▁존재
▁인구
▁운동
ㅓㄴㅏㅆ
▁폭
▁정도
▁N
▁주장
▁급
▁음악
▁gt
▁즉
▁곳
▁효
니아
on
▁티
▁km
▁경제
▁195
▁ㄷㅡㄹ
▁ㅎㅏㅁ
▁중심
▁육
리스
▁ㄹㅕ
▁섬
▁ㄱㅓㄴㅏ
▁lt
▁R
▁이러
▁돌
▁선거
▁극
▁U
▁전투
▁ㄷㅙ
▁쿠
▁30
▁블
▁절
ㅐㅆ
▁ㅁㅏ
▁발견
▁날
▁민주
▁ㅎㅐㅆㅇㅡㅁㅕ
통령
이스
▁귀
▁기술
▁H
화국
부분
▁E
▁측
ㅐㄴ
▁홍
▁발표
▁글
▁맡
▁ㄱㅓ
ㅏㅆ
▁결과
▁암
▁구조
▁올림
▁밀
▁영향
▁ㅂㅗㄴ
▁ㄷㅗㄹㅗㄱ
▁시키
▁막
▁아들
▁터
▁엔
▁사망
▁책
▁의미
▁2010
▁우승
▁공격
▁ㄹㅗㅂㅜㅌㅓ
▁ㅌㅐㅇ
▁대통령
ㅇㅕ
▁과정
▁대부분
an
ㄷㅏㄴㅡㄴ
▁케
▁관련
▁올림픽
▁슈
▁라이
▁질
▁송
000
▁지원
▁프로그
▁앨
리카
▁잘
▁업
▁향
▁ㅁㅗㅅ
▁접
▁담
▁발생
▁ㅇㅗㄹㄹ
▁끝
ㄷㅗ
▁참여
ㅆㅓ
▁193
▁헤
▁유럽
▁중앙
▁준
▁봉
▁앞
▁진행
지만
▁행정
▁최초
란드
▁독립
ㅇㅗ
20
▁c
▁얻
▁범
ㅗㅇㅜㄴ
▁자유
▁25
▁결정
▁W
▁부분
▁설립
▁특히
▁제국
▁형태
▁고등
▁ㄷㅙㅆ
▁다양
▁ㅅㅔ
▁폐
▁못
ㅁㅕㄴ
▁악
▁탄
▁ㅇㅓㅅㅓ
▁상태
▁하지만
나라
▁발매
▁탈
▁설치
▁이전
버지
▁온
▁러시아
▁스타
▁누
▁2008
▁소속
▁좌
▁사실
▁초등
▁침
▁ㅇㅡㅁ
▁ㅅㅐㄹ
▁센
▁잡
▁21
디오
우스
▁ㅅㅐㄹㅗㅇㅜㄴ
▁르
ㅓㅆ
▁같이
▁그녀
▁로마
▁줄
▁ㅇㅡㄹㅗㅅㅓ
▁타이
▁ㅇㅣㄴㅎㅐ
▁조직
▁프로그램
▁인민
▁참가
▁나라
▁여성
▁폴
▁생각
▁맞
▁갖
▁등장
▁정보
▁주로
▁2011
▁2012
▁필요
▁ㅃ
▁싱
▁이탈
▁주요
▁혼
▁관리
▁운영
▁ㅇㅕㄹㄹ
▁출신
▁이것
▁기준
▁생산
▁계획
▁머
▁좋
en
▁2009
▁100
▁기관
ㅓㄴㅏㄴ
▁중요
▁위원회
▁2014
▁윤
▁지정
▁2007
▁여자
ㅇㅓㅈㅣㄴ
▁상대
▁음반
▁t
▁성공
▁바이
▁계속
▁시절
▁이루
▁국민
▁콘
▁a
▁데이
▁O
▁데뷔
▁매우
▁2013
▁ㅎㅐㅅㅓ
▁철도
▁갈
▁레이
▁과학
▁대전
리즈
▁사업
▁시스
▁해당
▁발전
he
▁생활
▁이탈리아
▁방법
프트
▁칼
▁팔
▁고려
▁ㅂㅜㄹㄹ
▁와
르크
▁아버지
스터
▁몇
▁커
▁자리
▁191
▁따르
▁생애
ㅡㄹㅗ
▁초기
▁묘
▁2015
라마
▁23
▁2018
▁24
ar
▁월드
▁내용
이션
레스
▁ㅊㅓㄹ
▁ㅊㅓㄹㅓㅁ
▁헌
▁앨범
▁000
▁출연
▁차지
▁2016
▁억
▁보이
▁최고
▁쇼
▁인도
▁후보
▁그룹
남도
▁시리즈
▁능
▁ㅇㅑ
▁결국
▁마이
▁평가
ㄺㅎ
▁J
es
▁엘
▁아래
▁22
▁전체
▁회사
▁그리스
ㅇㅗㄴ
▁이유
▁방식
이트
▁2006
FA
▁한편
▁고등학교
▁우리
▁격
▁인간
▁ㅈㅕㅆ
비아
▁수상
▁192
▁스페
▁2017
▁분류
▁인터
▁연합
▁시기
▁ㅌㅐㅇㅓㄴㅏㅆ
▁공식
▁층
▁풍
▁개요
▁항공
▁제공
▁ㅇㅕㅆㅇㅡㄴㅏ
▁드라마
▁ㅂㅏㄺㅎ
▁역할
▁의원
▁컴
▁시스템
운데
▁정의
▁못하
▁많이
▁기업
▁군사
▁제도
▁조사
▁ㅂㅓㄹ
▁ㄱㅏㄹ
▁빌
▁ㄹㅏㄴ
▁가운데
▁얼
▁워
▁몸
▁출전
▁유명
▁민족
ㅏㄴㄷㅏ
▁기능
ㄴㅎㅏㄴ
▁교회
▁반대
▁거의
ㅇㅘㅆ
▁ㅂㅗㄹ
▁s
▁ㄷㅡㄹㅇㅓ
▁지구
비스
▁ㅇㅡㄹㅗㅆㅓ
▁텔
▁현대
▁언어
▁표현
▁ㄱㅓㄹ
▁색
▁대신
▁유지
▁목록
▁개인
▁ㅎㅐㅇㅑ
▁대상
▁ㅇㅡㄹㅗㅂㅜㅌㅓ
▁잠
▁홈
▁특별
▁이론
▁동시
▁26
at
▁자연
▁규모
▁!
▁모습
▁응
야기
ㅌㅏㄴ
▁프리
▁공개
▁노동
▁류
▁이미
▁이르
▁야구
▁지도
▁연결
▁ㄴㅏㅌㅏㄴ
▁승리
▁ㅇㅏㄴ
▁녹
ㅡㄴㄷㅏ
ㄴㅣ
▁28
▁마지
▁2019
ㅜㄴㄷㅏ
▁특징
▁진출
▁27
▁단체
▁각각
▁정책
▁브라
▁인정
▁목적
▁여기
▁상황
▁졸
▁산업
▁인물
▁V
▁웨
ㅇㅎㅏㄴ
▁핵
▁시장
▁ㅅㅣㅋㅕㅆ
▁2005
▁2000
▁마지막
▁기원
▁ㄱㅡㄹ
▁플레이
▁울
▁수도
▁ㄱㅏㅈㅣㄴ
ㅊㅕㅆ
▁아르
▁임명
▁난
ㄱㅏㅆ
▁족
▁전문
ㅂㄴㅣ
▁이야기
▁기간
ㄷㅡㄹ
북도
머니
▁희
▁구역
▁ㅇㅏㄹㄹㅕㅈㅕ
▁직접
어지
al
ic
▁ㄴㅐ
▁모델
▁ㅇㅘㅆ
▁혁
스크
▁경상
▁힘
▁압
▁서로
▁계약
▁오스트
▁밴
ㄱㅕㅆ
▁ㅎㅐㅆㅇㅡㄴㅏ
▁불리
▁추가
▁ㅇㅕㄹㄹㅣㄴ
▁건설
▁공동
▁먹
▁ㅇㅣㄹㅇ
▁개최
▁FC
▁콜
▁2004
BS
▁눈
▁경찰
▁형성
▁공간
▁사상
▁결혼
▁샤
▁건물
ㅂㄴㅣㄷㅏ
▁자동
▁노선
▁찾
▁변화
▁기타
▁푸
▁50
▁활약
▁ㄱㅘㄴㅎㅏㄴ
▁스페인
▁훈
▁TV
▁31
▁ㅂㅗㅇㅕ
▁노래
▁변경
▁넘
▁부산
학자
▁국회
▁29
ㅇㅣㄴ
▁그것
▁거리
▁교수
▁칸
▁ㅇㅡㅁㅕㄴ
▁뿐
is
▁졸업
▁ㄴㅏㄴ
▁공화국
it
▁의하
이드
▁완전
▁텔레
▁b
▁벨
re
이지
▁너
ㅇㅕㅆ
▁마을
▁궁
▁ㄴㅣ
▁망
▁인민공
▁퍼
▁경력
▁부르
▁인민공화국
▁ㅅㅔㅇㅝ
▁클럽
▁사랑
▁ㄸㅓㄹ
비전
▁휴
▁비롯
▁역시
ㄷㅡㄴ
▁2020
▁190
▁비판
ㅇㅓㅈㅕ
▁서비스
▁학생
▁둘
▁맥
ou
▁ㅂㅣ
▁볼
▁실제
어나
▁최대
▁소설
운드
▁보통
▁요구
▁슬
▁보호
▁잉
▁ㄱㅔㅆ
▁지금
▁가수
▁중학교
프리카
대로
▁우주
▁론
▁기본
▁중화
▁의회
ㅎㅏㄴㄷㅏ
▁탑
거리
▁전국
▁종교
▁낮
ㅇㅎㅐ
▁나타
▁지지
▁속하
▁자기
르트
▁다이
▁지하
▁판매
▁ㅈㅓ
▁없이
▁싱글
▁ㄱㅓㅊㅕ
▁실시
▁전통
▁차이
▁시설
▁혹
▁황제
▁ㄱㅜ
역시
▁퇴
▁밴드
▁기반
▁따라
▁나이
▁달리
▁ㅎㅏㄴㄷㅏㄴㅡㄴ
▁옥
▁원래
▁견
ㅈㅏ
▁ㅇㅗㄴ
▁2002
▁탐
▁어떤
▁세력
▁운행
로스
▁명칭
▁환경
▁교통
▁위하
▁가족
▁자료
▁몰
▁설명
▁40
▁경기도
▁딸
▁소련
▁뮤
▁ㅁㅗㅅㅎㅐㅆ
▁ㄷㅗㄹㅇㅏ
스탄
▁ㅇㅣㄹㅜ
▁월드컵
▁전기
▁센터
▁공연
▁2003
▁수행
▁회의
▁겸
▁ㅇㅏㄴㅣㄴ
▁ㄴㅗ
▁그래
▁애니
▁전자
ㄹㄹㅕ
▁승강
러스
▁모양
▁부대
▁밖
▁도쿄
▁ㄷㅐㅎㅐㅅㅓ
나다
▁컵
▁분야
▁기독
▁기념
▁예술
▁이동
▁교황
▁통합
▁나오
▁득
▁사고
mp
▁도입
▁텔레비전
le
▁작업
▁놓
▁행동
▁남자
▁동물
▁ㅈㅓㄴ
▁연방
▁선정
▁염
▁차량
ㅊㅣㄴ
▁ㅇㅢㅎㅏㄴ
▁능력
▁따라서
▁소프트
▁작용
▁출시
▁바로
▁문학
▁=
▁벌
▁할
▁군대
스타
▁ㄱㅓㄴ
의원
ㄲㅏ
너지
▁숙
▁증가
▁행위
▁기독교
▁형식
▁전라
▁방향
▁기존
▁도로
▁확인
▁지휘
▁작가
▁남쪽
▁효과
▁혁명
▁국내
▁과거
▁십
▁북쪽
▁작곡
▁이때
ㅣㅁ
▁제외
▁ㅅㅏㄹ
▁비슷
▁승강장
▁ㅁㅡㄹㅗ
ㅇㅎㅐㅆ
▁빈
▁FI
▁챔
▁컴퓨
▁주변
▁윌
▁어머니
▁낙
▁왕국
▁캐나다
▁몽
▁종류
▁태양
▁열차
ㅡㅁ
▁사무
▁유일
▁비교
▁정당
▁역임
▁ㅎㅏㄴㄷㅏㄱㅗ
▁뉴욕
▁착
▁이적
▁ㅂㅜㄹ
▁남부
리오
BC
ㅜㅁ
▁솔
▁높이
▁협회
▁적용
▁혹은
▁지배
▁스포
▁ㅆㅡ
ㄱㅣㄴ
▁흥
▁메이
▁공산
▁반응
▁성장
자리
▁추정
▁ㅅㅗㄱ
▁챔피
▁담당
▁시민
▁건축
▁동일
▁흐
▁개념
▁이사
▁런
▁1990
▁육군
▁대사
▁장관
▁ㄷㅏㄹ
▁즈
▁이끌
▁2001
▁인기
▁넓
▁획
▁홀
▁스트
▁ㅈㅜ
▁X
▁세포
▁베이
▁버스
▁ㅁㅗㅇ
▁ㅅㅣㅋㅕ
▁갑
▁윈
▁컴퓨터
▁동쪽
메이션
▁공사
▁징
ㄴㅏㄴ
▁데이터
▁멤
▁오늘
▁구간
▁p
▁쪽
▁품
▁디자
▁에너지
▁마음
▁곧
▁사단
▁상당
▁맨
▁예정
▁연기
▁크기
ㅣㅋ
▁액
▁작전
▁돈
▁조건
▁조지
▁흑
▁대하
▁민주주의
▁189
▁마르
▁차례
▁실패
▁넣
▁록
▁서쪽
▁ㅁㅏㄴㄷㅡㄴ
▁엄
▁버전
▁자체
ㄹㅣㄴ
▁FIFA
▁애니메이션
▁율
▁나가
▁어느
▁땅
▁잔
▁d
▁충청
▁다르
▁컨
▁특정
▁선언
▁이런
ㅇㅡㅋ
▁고대
▁피해
▁덕
드리
▁연주
▁체제
▁수록
▁ㅇㅟㅎㅐㅅㅓ
카이
▁부족
▁연속
▁쌍
▁방영
버스
▁선택
▁페르
▁ㅁㅏㄷㅏ
▁결승
▁규정
▁ㄱㅏㄹㅣㅋ
▁내부
▁멤버
▁국립
el
▁해군
▁공항
▁개혁
▁대체
▁ㄹㅓ
et
루스
▁아시아
▁정신
▁속도
▁조약
웨어
▁단계
▁대구
▁북부
가지
▁헌법
▁최종
▁명령
▁왜
▁풀
ion
▁연대
글랜드
▁들어
▁기원전
▁포르
▁선출
▁ㅂㅏㄺㅎㅕㅆ
▁영어
▁ㅈㅣㄴㅐㅆ
▁분석
▁가치
▁ㄴㅡㄴㅈㅣ
▁지명
▁자치
▁크리스
▁설계
▁인천
▁옛
트남
▁물질
▁치료
▁로스
▁출판
▁입단
▁물리
▁최근
▁친구
▁ㄱㅓㄹㅊㅕ
ㅓㅇㅜㄴ
▁체계
▁ㅇㅗㄻ
ing
▁의사
▁논란
▁소비
▁관할
▁이어
▁ㅇㅣㄹㅇㅡㅋ
▁달러
▁강화
▁비행
ㅈㅣㄴㄷㅏ
시마
▁척
▁ㅅㅐㅇ
▁ㅇㅔㄴ
▁더욱
ㅈㅊ
▁밤
▁집단
▁평균
▁팬
▁북한
▁1999
▁대중
ol
▁ㅂㅏㄲ
메리카
▁스포츠
▁표준
▁걸
▁후반
라스
▁배치
▁술
21
▁엔진
▁법원
▁잉글랜드
▁제품
▁언급
▁부문
▁익
▁하이
▁ㅂㅗㅇㅣㄴㄷㅏ
▁관심
▁현상
▁1998
▁Y
▁실험
▁헬
▁챔피언
▁함수
▁머리
▁조정
▁o
널리
▁벤
렇게
▁예선
▁개월
▁먼
▁확장
▁스테
스코
▁씩
▁획득
▁파리
▁공원
▁1980
▁선발
▁유사
▁쥐
▁요소
▁분리
▁처리
▁주도
ㅂㅎ
▁부상
▁목표
▁지속
▁배경
디어
▁당하
▁재판
▁cm
▁ㅊㅣㄹ
▁통일
▁60
▁하계
리지
▁뛰
▁자동차
▁ㄱㅏㄹㅣㅋㅣㄴㄷㅏ
▁베르
▁문자
▁주민
▁35
▁편성
▁흔
▁유래
▁소유
▁시도
▁이해
▁ㅈㅜㄹ
▁ㅇㅓㅇㅑ
▁정규
▁겨
▁마리
▁구단
▁외국
▁가리
▁맺
▁장군
▁도움
▁ㄱㅣㄴ
▁링
▁칭
▁에스
▁지나
▁주인
▁거주
▁시험
▁점령
ㅇㅓㅈㅕㅆ
▁공립
▁행사
ㅇㅔ
▁기사
▁디자인
▁나무
▁요시
▁원자
▁통신
▁mm
▁ㄹㅕㄱㅗ
▁ㄱㅗㅈㅏ
▁원인
▁꽃
▁네덜
▁네덜란드
▁파이
▁언론
▁ㅇㅣㅁ
▁안정
▁학자
▁캠
▁결합
▁동맹
▁투표
▁n
▁웹
▁준비
▁느
▁사령
▁수준
▁본선
▁혈
▁베트남
▁개봉
▁장치
▁고속
▁불교
▁일종
▁앤
▁아프리카
▁붙
▁용어
광역시
▁앙
om
젝트
▁알렉
▁은퇴
▁불구
야마
▁성적
▁깊
▁1997
나무
▁촉
▁ㄷㅔ
▁구분
일랜드
▁비디오
▁길이
▁제조
▁책임
▁아마
▁방문
▁문서
▁싸
▁사진
▁정권
▁유전
▁바르
ㅈㅣㄹ
▁가정
ㅝㅆ
▁광주
▁신문
▁휘
▁가문
st
▁요리
▁해석
▁ㅂㅣㅎㅐ
▁ㅇㅣㄴㄷㅔ
▁ㄱㅏㅆ
▁칠
▁경험
▁믿
▁ㄲㅡ
▁폴란드
▁정리
▁ㄴㅐㄹ
▁amp
▁정확
▁그림
▁평화
▁일제
▁핀
▁The
▁1996
▁왕조
▁1995
ㅇㅓㅆ
▁오늘날
▁서식
▁32
메달
▁분포
▁추진
▁면적
▁ㅇㅗㄹㄹㅏㅆ
▁밝
▁통과
▁프로젝트
▁찬
▁입장
▁방어
▁경영
▁부인
▁런던
▁슈퍼
▁ㄹㅕㄴㅡㄴ
▁ㄷㅏㅁㅕㄴ
▁종합
▁ㅁㅓㄴ
스턴
▁덴
▁ㅇㅏㄹㄹㅕㅈㅣㄴ
▁70
▁거두
▁아직
▁빛
▁부여
▁만화
▁경쟁
▁통치
▁멸
▁ㄴㅏㅁ
▁ㅅㅡ
▁쉽
스로
▁빠
인트
▁병원
▁인터넷
▁신라
▁몬
▁발달
▁경기장
▁영역
▁프레
▁주제
특별
▁이곳
▁폐지
▁노력
▁훈련
▁츠
▁부정
▁500
▁움
▁민주당
▁보도
웨이
▁습
▁그런
▁미사
▁널리
▁이듬
▁파괴
▁총리
레일
▁생물
am
▁미술
▁ㅍㅕ
▁제주
▁제안
▁서부
▁멀
▁국회의원
▁도서
▁the
▁80
▁회장
▁복귀
ㅎㅏㄹ
▁식민
▁철학
리트
▁오르
▁일어나
▁번호
라인
▁법률
▁빅
▁외교
▁야마
▁기여
▁정상
▁완전히
▁삼성
▁세대
▁궤
▁요청
▁188
▁주연
▁행성
ㄴㄷㅏ
▁값
▁무기
▁동부
▁남성
▁ㄴㅏㅇㅗㄴ
▁이듬해
▁라디오
▁소재
▁경계
▁UE
▁1970
▁연맹
▁자주
▁인식
▁잃
il
▁+
▁무대
▁투수
▁수용
▁ㅇㅕㄱㅕ
▁금지
▁등록
▁ㅂㅜㅌ
▁폰
▁1994
▁제한
▁UEFA
톨릭
▁지진
▁업무
▁표기
ㅏㄱㅗ
ac
▁연구소
▁괴
▁접근
▁발사
▁영토
▁더불
▁노르
▁아시
▁박물
▁지도자
▁바탕
▁뇌
▁결성
▁성격
▁ㄹㅜ
▁득점
머지
▁나머지
▁스스로
▁거부
▁KBS
▁상호
▁지대
▁반면
ㄹㅗ
▁뉴스
▁아일랜드
▁수학
▁ㅇㅣㄹㅇㅓㄴㅏㄴ
▁린
▁강원
▁정식
▁조각
▁트리
▁오스
▁의식
▁보수
▁은행
▁펜
▁기초
▁주의
▁벽
▁필리
▁마찬
▁마찬가지
▁오래
ro
▁1992
▁ㄷㅏㅇㅎㅐㅆ
▁가톨릭
▁공작
▁캐릭
토리
▁임시
시코
▁다수
▁아카
▁스웨
▁45
▁박사
▁다리
▁화학
▁ㄱㅏㄲㅏ
▁장애
요일
▁ㅈㅓㄴㅎㅐ
▁패배
임스
▁검사
▁바다
▁해결
▁소리
▁죽음
▁장소
▁차트
ed
▁36
▁브라질
워드
▁차원
모토
▁of
▁그대로
▁이스
▁초대
▁박물관
▁ㅅㅡㄹ
▁긴
▁활용
▁마이크
▁실제로
▁ㄹㅗㅆㅓ
▁유니
▁총선
▁꼬
▁스위
▁카드
▁짧
▁유로
▁ㅅㅡㅂㄴㅣㄷㅏ
▁캐릭터
▁관측
▁윌리
▁ㅋㅓ
▁기구
▁계열
▁여행
▁순위
아가
▁식물
▁묘사
▁안전
▁ㅇㅗㄹㄹㅏ
▁인사
▁강력
▁오브
▁바뀌
▁표시
▁제시
▁단순
▁집합
▁1960
▁에이
▁소프트웨어
▁지리
▁일정
▁ㄸㅟ
ig
▁무역
▁이외
로나
▁권력
▁여름
▁파일
▁멕
▁연극
▁스웨덴
▁회원
▁기계
▁1991
▁곤
▁디지
▁ㅊㅏ
▁지적
부르크
▁쓰이
▁위험
트리
▁삶
▁오스트리아
▁반란
▁히로
레일리아
▁먼저
▁붕
▁ㄲㅡㅌ
▁1993
▁조성
▁33
▁발행
▁아무
▁형제
▁보다
▁중간
▁잇
▁관광
▁기자
▁개국
▁ㅂㅏㄺㅎㅕ
▁근처
▁흡
▁중단
▁협력
▁스코
▁시행
▁뮤직
▁기획
▁여객
▁ㄷㅡㄴ
베이
ㅏㄹㅡㄴ
트로
ㅐㄴㄷㅏ
▁지하철
소년
▁도착
▁량
▁외부
▁스튜
▁투자
▁ㅁㅏㄴㄴ
▁사이트
사카
▁소개
od
배우
▁윈도
▁렌
▁번역
워크
나이
▁코드
▁단어
▁다만
▁ㅁㅣ
▁전시
▁",
▁나타나
버트
▁유형
▁연장
니스
▁186
ve
▁해안
특별시
▁카이
▁하루
▁후기
▁성립
▁ㅊㅣ
as
▁확대
▁ㅈㅣㄴㅏㄴ
▁혜
▁근거
▁세상
▁서울특별시
▁상징
▁죄
▁통하
▁파견
▁오스트레일리아
▁혐
ㅇㅣㄴㄷㅏ
▁공장
▁본부
▁위기
▁보유
▁내각
무원
▁수많
▁기후
▁제기
▁겪
▁생성
주시
▁케이
▁ㅉ
▁양식
▁감소
▁네트
▁다카
▁지식
▁옹
▁보존
▁?
▁극장
▁태평
▁수사
지션
▁지상
▁균
▁전략
▁멜
▁촬
▁귀족
▁윌리엄
▁떠
▁유대
▁특수
▁나타내
▁경상남도
▁상업
▁ㄷㅜ
▁멕시코
▁달성
▁특성
▁경상북도
▁h
▁대응
▁1988
▁바꾸
▁출생
▁187
▁ㅋㅔ
▁ㅆㅏ
▁영상
▁ㅇㅣㄴㅈㅣ
▁원소
▁ㄸㅓㄹㅇㅓㅈㅣㄴ
▁완성
▁유리
▁캘
▁동생
▁디지털
▁단위
▁ㅅㅔㅇㅝㅆ
▁미래
▁촬영
▁ㄸㅏㄹㅡㄴ
▁님
▁당선
▁ㅁㅜ
▁이렇게
▁이슬
▁계승
▁ㅂㅗㅇㅕㅆ
▁굴
▁촌
▁학위
아시아
▁ㄴㅐㄹㅕ
▁시티
▁체포
▁34
티아
▁근무
▁식민지
▁타이틀
ㄱㅏㄴ
▁젊
가리
▁종목
회사
▁률
▁전달
▁그렇
▁자본
▁권리
▁생명
▁38
▁수비
id
▁이집
▁이집트
▁ㅇㅓㄹㅕ
▁올리
▁코치
▁체결
▁ㅇㅣㄹㅜㅇㅓㅈㅣㄴ
▁시청
▁듀
▁옆
▁측정
▁설정
▁판단
▁ㅇㅓㄹㅣㄴ
▁나중
▁직후
▁싶
▁90
▁ㅇㅏㅍ
▁승격
▁마사
▁소수
▁몇몇
가와
▁정치인
▁ㅆㅡㄴ
▁보내
▁2021
▁ㅇㅣㄹㅏㄱㅗ
▁문화재
▁크로
▁알렉산
▁대륙
▁48
ㄹㅕㅆ
▁라인
▁주식
▁맹
▁국왕
▁ㄷㅐㄹㅗ
모리
▁전환
▁ㅇㅡㅁㅡㄹㅗ
▁1989
▁채널
▁ㅁㅗㅅㅎㅏㄴ
▁1950
▁아내
▁개정
▁스키
▁도서관
▁헨
▁관찰
▁이주
▁미군
ㄹㅏ
▁깨
NA
▁본관
us
▁톤
▁의견
ec
▁신경
▁개통
▁포르투
▁세르
▁다루
▁청년
▁녹음
▁지위
▁엘리
ㅇㅝㅆ
▁시위
▁납
▁홍콩
▁결승전
▁낳
▁제정
▁텍
▁밑
▁해외
▁',
▁은하
▁얼마
▁종료
▁취임
▁새로
▁ㅈㅜㄴ
and
▁ㅂㅜㄹㅡㄴㄷㅏ
▁동계
▁미사일
▁ㄴㅡㄹ
▁헝
▁범죄
▁즉위
▁주인공
▁계산
디아
▁ㄴㅓㅁ
▁ㅇㅗㄹ
▁사회주의
▁교체
▁음식
▁예수
▁ㅇㅏㅅㅓ
스티
▁충돌
▁후쿠
▁아키
▁신학
▁300
코드
▁남북
ad
▁천황
▁셀
▁장기
▁e
교회
▁전차
▁발매되
▁개선
▁주목
▁비용
▁MBC
▁ㄸㅟㅇ
▁자격
▁수정
▁ㅈㅏㄹ
▁사후
ㅓㅅ
▁춘
▁제임스
▁바이러스
▁ㅃㅜㄴ
▁ㄱㅏㅇㅎㅏㄴ
▁원정
▁|
▁건강
▁공급
▁스티
▁계기
▁1945
▁본래
▁소장
▁비밀
ent
전히
▁ㅅㅏ
▁가격
▁네트워크
▁ㅎㅑ
스카
▁궤도
▁명단
▁전라남도
▁만드
▁공부
▁심리
▁컬
▁ㅈㅕ
▁펠
▁ㅂㅗㄴㅐㅆ
▁물론
▁부모
▁합류
▁라운드
▁제거
▁자원
▁늘
▁카운
▁농업
▁이래
▁홈런
▁명예
▁셰
▁객
▁체육
▁성우
▁집중
▁각종
▁거대
▁시내
50
▁감염
▁입학
▁에드
▁증명
▁오후
▁작성
▁ㅇㅡㅁㅕㄴㅅㅓ
▁ㅅㅣㅋㅣㄴ
▁가입
▁인근
▁듣
▁천문
▁ㅁㅏㅈ
▁군인
▁전사
▁소송
▁ㅇㅗㄻㄱㅕ
▁이슬람
▁국경
▁저항
▁베네
▁학문
▁공군
피아
▁측면
티나
▁미디어
▁통제
베르
▁가리키
▁강조
▁왼
▁피아
▁병력
▁끌
▁터미
▁인수
▁ㅆㅓㅆ
▁신호
동안
니어
▁세이
▁울산
▁나누
▁블랙
▁이번
▁찰
▁터키
▁광고
▁플로
▁ㄱㅏㅈㅊ
▁ㄷㅡ
▁실행
▁St
▁ㄱㅏㄲㅏㅇㅜㄴ
▁움직
리포
▁너무
ㅇㅣ
▁질량
▁해방
▁만약
ot
▁콩
▁포지션
▁마치
▁엑
▁변호
▁기회
▁정착
▁병사
▁무장
ㄷㅇㅏ
도로
▁ㅇㅣㄹㅜㅇㅓㅈㅕ
▁냉
▁겨울
▁오른
▁터미널
▁최소
▁ㄱㅏㅈㅕ
▁노동자
ㄱㅏㄴㄷㅏ
▁읽
▁놀
▁비트
▁전반
▁제목
철도
ㅎㅕ
▁금융
▁x
un
드로
▁약간
▁아우
▁몽골
▁강원도
▁태평양
▁유도
▁편집
▁37
ow
▁국방
▁ㅍㅕㄹ
▁마리아
▁바람
▁ㅁㅔ
▁마쓰
▁ㄱㅏㅈㅕㅆ
▁다니
▁in
▁잎
▁고전
▁쇠
▁환자
▁사례
▁전개
▁들어가
▁ㄷㅏㄹㄹ
▁ㅇㅣㄴㅎㅏㄴ
▁혐의
스키
▁지점
▁재산
ㅂㅗ
▁도중
▁허용
▁표면
▁ㄴㅏㅇㅘㅆ
▁마련
▁근대
▁카르
오카
▁재정
▁합병
소리
▁충분
▁밀도
▁무렵
▁래
▁가스
▁인디
▁힐
▁학년
▁이하
▁전력
▁헝가리
▁만나
▁짓
▁1987
▁오사카
▁민간
▁윈도우
▁선수단
▁현실
▁가르
▁라이브
▁포르투갈
▁여전히
▁유엔
ra
▁붕괴
▁등급
▁계급
▁모리
▁전역
▁뒷
▁샌
▁킹
▁그해
▁루이
▁양성
▁범위
▁w
▁대수
▁41
▁갖추
▁령
▁숲
▁원칙
▁재직
마크
▁51
▁강제
▁조치
▁공공
▁털
ㅇㅛ
▁엔터
ㅜㄹㄹㅓㅆ
▁보고
▁꼬리
▁성질
▁적극
▁롤
▁위협
▁수입
▁충청남도
ㅇㅣㄹ
▁동료
▁1986
▁공주
▁군주
▁임무
▁인하
▁온도
▁전선
▁이미지
▁ㅂㅜㄹㄹㅣㄴㄷㅏ
▁영화배우
▁스튜디오
▁논문
▁1984
▁토론
▁대대
ㅇㅜㄹ
▁캘리포
▁업체
▁위원장
▁승인
▁공업
▁지내
▁클라
▁대학원
▁봄
▁구축
▁양자
▁상하
▁거래
ㄱㅏㄹ
▁오리
▁미치
▁위성
▁고구
▁수립
▁교사
▁출발
▁회복
▁점차
▁ㅂㅏㄷㅇㅏ
▁수단
▁잭
▁ㅈㅜㄴㄷㅏ
▁확보
▁섭
▁성인
▁항상
테르
▁신화
▁다섯
▁핀란드
▁역대
▁필리핀
▁캘리포니아
▁공산당
▁후지
▁아시안
▁증거
▁ㅂㅏㄷㅇㅏㄷㅡㄹ
▁채택
▁스타일
ch
▁드래
▁장비
▁규칙
마스
▁의료
▁강의
▁잡지
▁전하
▁ㄷㅓㄹ
바이
ur
▁그래서
▁시인
▁남아
▁첨
주교
▁합의
고리
▁ㅊㅏㅈ
▁39
▁폭발
▁ㄹㅏㅁㅕ
▁스파
▁나카
▁에피
▁기대
▁만족
▁이스라
▁부근
▁얼굴
▁모스크
▁답
▁ㄷㅚㅁ
▁개편
ㄷㅏㄹ
▁ㄷㅏㄴ
▁꿈
▁스위스
▁선생
▁남편
▁ㄴㅐㅆ
▁진화
▁400
▁일원
▁매년
▁이승
▁불가
▁장면
▁기지
▁경향
▁욕
▁대기
로드
▁1985
▁이스라엘
▁64
▁군단
▁대형
▁II
▁ㅈㅔ
▁토지
▁가사
▁ㅅㅐ
▁해체
▁통계
▁분자
▁스리
▁끼
▁강점
▁태풍
▁아메리카
▁게이
▁종이
▁간주
▁롭
데미
▁아주
ut
▁경주
▁종종
▁캄
▁어린
▁아나
ㅏㄷㅗ
▁띠
▁귀국
▁붉
▁기억
백질
▁서양
우드
▁ㅅㅓㄴ
▁조합
▁낭
▁항성
키아
레이드
▁아랍
▁알리
▁수원
▁꾸
▁성과
▁의학
▁ㅂㅜㄹㄹㅓㅆ
▁버리
고기
▁청소년
▁이제
▁감정
▁확실
▁i
▁폼
▁스피
▁ㄴㅡ
▁쉬
▁클래
▁ㄱㅡㄹㅕ
▁사항
▁좀
▁초반
▁ㅇㅔㄱㅔㅅㅓ
▁레코드
▁보장
▁향상
▁43
um
▁대장
▁삼국
▁ㅇㅕㄹㄹㅕㅆ
▁투어
▁그곳
▁탑재
▁침공
▁장식
▁ㅇㅣㄹㅇㅓㄴㅏㅆ
▁어떻
▁아카데미
▁짐
▁소년
▁고양
▁융
▁틀
▁카메
▁LG
▁자금
▁ㅎㅐㄷㅗ
▁세우
오프
▁메이저
▁만큼
▁랭
▁란
▁나폴
▁청나라
▁ㅈㅗ
오스
▁평양
▁켄
▁불과
▁고구려
▁선고
보드
요시
▁42
▁ㅌㅐㅇㅓㄴㅏㄴ
▁나치
▁중화민국
▁신앙
▁ㄸㅓㄹㅇㅓㅈㅕ
▁남동
라비아
▁대립
▁ㅂㅗㄴㅐ
▁보병
▁단백질
▁줄거리
라노
ir
ver
▁전설
▁라틴
ㅏㅈㅕ
▁우선
▁독자
▁잠시
네스
▁ㄱㅡ
▁확정
타인
▁고문
▁br
▁숭
▁만주
틀랜드
▁빠르
▁박쥐
▁55
▁선거구
▁단지
▁스케
▁신설
▁1982
▁모르
▁맛
▁살해
운동
▁카운티
소드
네시아
▁차별
▁지시
▁우수
▁스카
▁복잡
▁이끄
▁구체
▁ㅅㅔㅇㅜㄴ
▁판결
▁철도역
▁의장
▁ㅇㅢㅎㅐㅅㅓ
▁탄생
▁ㄸㅏㄹㅏㅅㅓ
▁육상
에르
▁비율
▁전화
▁검찰
▁예상
▁성당
▁창설
▁함대
im
다이
▁광역시
▁온라인
FC
▁삭
▁브랜드
▁편입
일러
▁법인
▁왕위
▁재단
▁44
▁ㅇㅏㄹㄹㅕㅈㅕㅆ
▁마크
ㅅㅓㅆ
▁솔로
▁덴마크
트라
누스
▁수출
▁저서
▁1983
▁ㄷㅏㅇㅎㅏㄴ
▁브리
▁ㄸㅟㅇㅓㄴㅏㄴ
▁공유
▁동의
하라
▁ㄴㅑ
이크
▁킬
▁유학
▁세종
▁고향
▁강점기
▁ㄱㅏㅈㅊㅜㄴ
▁보급
ㅇㅡㄹ
▁반도
의회
▁47
▁나뉘
싱턴
▁ㄱㅡㄹㅣㄴ
▁참석
▁ㅆㅡㅇㅣㄴㄷㅏ
▁ㅁㅜㄹㄹ
▁노예
▁핵심
▁전후
▁집행
▁ㅅㅣㅋㅣㄹ
▁Z
▁마드리
CA
▁하늘
▁암살
▁애플
▁ㅌㅗㅇㅎㅏㄴ
▁고정
▁협상
ay
반도
▁이루어지
없이
▁마드리드
▁사전
▁ㄴㅏㅇㅘ
▁법칙
▁본격
▁보안
▁ㅎㅏㅂ
▁듯
▁저장
▁후손
▁ㄱㅓㄴㄴ
▁이란
▁회전
▁ㅎㅐㅆㅇㅓㅆ
▁롯
▁이성
비드
▁중반
▁사우
▁ㄴㅔ
▁ㅇㅗㄹㄹㅕㅆ
▁의무
▁헤이
▁오픈
▁아르헨
▁플랫
▁논리
▁주교
▁대비
▁관료
▁권한
▁카를
퍼스
▁자세
▁184
▁75
각형
▁전용
▁산맥
▁대항
레이션
▁ㅂㅜㄹㄹㅓ
▁숫
▁순서
▁연고
▁까
▁사라
▁180
▁이익
▁상품
▁전혀
셔널
▁하위
▁v
▁앞두
▁베를
▁공학
▁중세
▁유적
▁옷
▁베이스
▁1972
▁아르헨티나
▁ㄹㅣ
▁플레이오프
▁지키
▁ㅊㅏㅈㅇㅏ
▁단일
문화
▁어린이
▁시각
▁공기
원군
▁갈등
▁ㅈㅣㄴㅏ
▁직원
리스트
▁인상
▁로버트
▁에피소드
▁말기
▁1920
▁ㄷㅜㄴ
어들
▁아스
▁켈
▁46
▁프란
터리
▁의도
▁CD
▁조금
ㅇㅏㄴ
▁ㅇㅔㅅㅓㄴ
▁보조
▁을
▁스크
▁중심지
▁운전
▁창조
▁떨
으키
▁ㅎㅡㄹ
▁아파
▁공포
▁잘못
▁협정
▁아미
▁ㄹㅏㅁㅕㄴ
▁ㅂㅜ
▁흔히
▁변호사
▁공무원
▁요한
▁원리
▁워싱턴
▁인권
▁빨
▁효소
▁비난
▁수여
▁성경
▁글로
▁1979
▁원주
▁하드
리어
▁ㄷㅡㅅ
▁별도
▁레드
▁텐
▁셋
▁정복
▁튀
ㅁㅏ
▁In
퍼드
▁전라북도
▁작곡가
ㅕㄴ
▁투입
▁1930
▁엠
정부
▁ㄴㅡㄲ
▁교류
▁파크
▁우크
▁장착
▁오히
▁소식
▁쌓
▁벡
▁논쟁
▁방면
▁kg
▁드러
▁본인
사키
▁현장
▁빙
무라
▁건국
▁공화
▁논의
▁심각
▁ㅍㅓ
▁어떻게
▁원작
▁호텔
▁항복
ㄹㄹㅕㅆ
▁1981
▁플라
▁ㄴㅗㅎ
▁ㅈㅓㅂ
▁1973
▁150
▁강하
10
▁공산주의
▁아침
▁훨
▁중부
▁숨
▁교토
os
▁출마
▁ㅈㅜㄱ
▁건조
▁헨리
▁마이클
▁인류
▁금메달
▁노스
▁유전자
▁운용
▁무리
▁요새
▁세인트
▁사태
▁투쟁
▁훨씬
▁코미
▁에어
▁오토
▁창립
▁니콜
▁연합군
▁합성
▁연산
▁오랜
▁코스
▁로드
▁오른쪽
▁김정
▁예산
▁추측
▁멸망
▁절대
▁플레이어
▁산하
▁금속
▁방출
▁태국
▁1940
▁끊
▁릴
▁한때
▁인정받
30
▁인공
ter
▁서기
▁왼쪽
em
▁노르웨이
▁모스크바
▁구별
▁메시
▁복합
▁북서
▁ㅂㅣㄴ
▁형사
▁베이징
▁1974
BO
▁주위
일보
▁미니
▁트랙
▁사령관
▁스코틀랜드
▁효율
▁일으키
▁해양
▁각본
▁제자
시스
▁185
▁반복
▁오히려
▁인종
카와
▁전철
▁오전
▁블루
▁연관
▁정비
▁입자
▁사법
▁열리
▁ㅂㅐㅇ
▁제출
▁해상
젤레스
▁출장
▁노부
▁숫자
▁댄
▁집안
▁델
▁주기
▁ㄴㅐㄹㅕㅆ
▁신체
▁베를린
▁군수
▁보험
▁SBS
▁웨스트
▁슬로
▁마침
▁분쟁
▁54
▁인터뷰
▁중대
머스
▁목사
▁포위
▁하나님
▁인조
나이티
▁흡수
라크
▁탁
듀서
▁프로듀서
▁유나이티
▁축제
ㄹㅓ
▁디스
▁1948
▁이민
▁거절
▁수송
▁이어지
▁ㄹㅏㅇ
▁소방
▁시점
▁ㅂㅜㄹㄹㅕㅆ
▁포기
▁구속
▁취급
▁소녀
▁1968
▁자이
▁ㅅㅣㅋㅣㄴㄷㅏ
▁활발
▁관점
도르
▁ㄷㅔㄹ
▁1976
▁북동
▁개시
▁ㄸㅏ
▁명성
다리
▁건립
▁보스
▁우스
▁전공
▁출입
▁파라
▁ㅂㅏㄲㅇㅔ
▁고용
▁갤
▁견해
op
▁지니
▁직업
▁사령부
▁가로
▁ㅂㅜㅌㅇㅕ
▁진보
▁1975
▁프라
▁ㅌㅗㅇㅎㅐㅅㅓ
▁경성
▁ㅈㅣㅋ
▁한국어
데스
▁응용
▁활성
▁히데
▁부활
▁빼
▁ㄷㅡㄹㅇㅓㄱㅏㅆ
서트
▁국도
▁주택
▁생기
▁성능
▁학습
▁신성
▁불법
▁읍
다가
▁동원
▁장악
▁주전
▁ㄹㅏㄷㅗ
▁농민
▁어렵
▁ㄴㅐㄴ
▁죽이
▁영화제
ㅡㅁㄷㅏ
▁소스
▁ㅇㅏㄹㅡㅁㄷㅏ
▁취득
▁여부
▁ㅅㅗㄱㅎㅏㄴㄷㅏ
▁음력
▁정체
▁일치
▁비록
▁명명
▁56
▁직전
▁총독
ag
▁고유
▁보컬
▁유물
▁후원
쿠라
▁전부
▁1978
▁폭력
▁1971
▁52
▁포도
▁ㄴㅏㄹ
▁Q
▁국장
▁이기
▁1963
▁미드
▁한자
리케
▁여객철도
▁대리
▁ㄷㅓㄹㅏㄷㅗ
▁연료
▁혼란
에트
키스탄
▁천체
어스
▁항공기
▁선교
▁문헌
▁코미디
▁65
▁약속
▁편지
▁시리아
▁타이완
세이
▁49
▁그리스도
▁닌
▁교차
▁브레
▁상당히
▁ㅎㅐㅈㅕㅆ
▁임금
▁ㅈㅣㄴㄷㅏ
산시
▁수술
메리
ce
자기
▁주관
▁도달
▁떠나
▁팝
▁관직
▁북아
▁로스앤
▁로스앤젤레스
▁백제
▁제어
▁본사
릭스
▁일대
▁미나
▁철수
▁반영
▁아테
▁화물
▁예비
기에
▁수집
▁취하
▁상륙
▁테러
▁넷
▁둥
▁무엇
▁1969
▁대화
▁ㅈㅣㄴㅐㄴ
▁ㅇㅐㄴ
▁도구
▁주간
▁스마
▁의존
노스
▁영업
▁ㅇㅣㄹㅇㅡㅋㅕㅆ
▁고종
▁교환
▁179
▁ㄷㅏㅁㅕ
▁캠퍼스
▁콘서트
▁00
▁학술
▁십자
▁계통
OS
▁장교
▁전파
▁프로세
▁항구
▁증상
▁아사
▁그런데
ㅓㅈㅣㄴ
▁내리
▁보관
▁해산
▁정지
▁데이비드
▁재료
▁ㅆㅡㄹ
▁학부
▁롯데
▁정원
▁구성원
▁자살
▁ㄸㅓㄴㅏㅆ
▁53
▁사운드
아내
▁전문가
▁프리미
▁톰
▁상승
▁모드
▁연재
▁하우스
▁개체
▁주식회사
▁..
▁코로나
▁스미
▁1946
▁방사
▁영향력
▁백작
▁SK
▁판서
▁부임
▁박정
공항
▁핑
▁살인
▁반발
▁허가
oc
▁ㄹㅗㅇㅜㄴ
▁거기
▁발언
▁간단
▁영입
프리
▁김영
▁공통
▁진입
▁리스
▁헤르
▁ㄱㅓㄷ
▁질병
▁ㅁㅓㅁ
▁불상
▁겐
▁ㅍㅣ
▁망명
▁제일
▁ㅃㅏㄹㅡㄴ
이어
▁사유
▁위반
▁접하
▁ㄲㅡㅌㄴ
▁파트
▁1964
▁신분
▁안타
▁외국인
병대
▁99
▁니시
▁브루
▁뿌
▁기도
미터
▁절차
▁화성
▁베스트
▁보건
▁한반도
▁리더
▁에도
▁US
▁시호
▁참전
ㅓㅇ
▁감사
▁인도네시아
▁사장
▁저작
▁학원
▁자녀
▁벨기에
ri
▁미터
▁대략
▁서버
▁랜
▁포트
ㅈㅜㄴㄷㅏ
▁변형
▁고리
ㅅㅡㄹ
▁소비에트
▁그레
▁탈락
▁변환
▁창단
▁꼭
▁바라
▁시카
▁충청북도
▁페이
▁횡
▁조작
▁진압
▁트랜
▁58
▁폴리
▁피아노
▁스토
▁승진
▁마케
▁통상
▁ㄹㅔ
▁가을
▁탈출
▁1000
▁부장
하마
정식
▁픽
▁PC
▁and
▁학회
▁스프
▁ㄱㅏㄴ
▁채용
▁아라
▁국제공항
▁복무
▁루이스
ㅏㅈㅕㅆ
▁식품
▁임대
▁청구
▁요인
▁주년
▁현역
▁신청
▁말레이
▁콤
▁ㅇㅏㅇㅑ
▁공동체
▁문장
▁저지
▁지붕
▁요코
▁작사
▁기하
▁분열
▁ㅂㅏㄹ
▁ㅇㅛ
▁이중
▁라이트
▁고도
▁동남
▁ㅅㅡㄹㅓㅇㅜㄴ
▁생태
▁방송국
▁찍
▁장수
▁트라
저우
ation
아들
▁합격
▁기호
▁1977
▁큐
▁조절
▁벼
▁연출
▁트로
▁ㄱㅓㄴㄴㅓ
▁예측
▁탄소
▁ㄷㅡㄹㅇㅓㄱㅏ
▁FA
▁화면
▁민법
▁수영
▁포로
▁학과
아버지
▁1949
천군
▁임의
▁신인
igh
로그
▁엑스
▁지급
▁친일
▁막부
▁국무
▁택
▁흐르
크스
▁부부
카이도
▁기법
▁특이
▁위상
▁이치
▁장르
▁취소
▁카메라
▁88
려움
▁누구
▁오페
▁동작
▁메모리
▁상원
▁ㅇㅣㄹㅝ
▁앵
▁62
성군
▁레스
▁1962
▁참고
▁전동
▁서식지
▁ㅂㅗㄴㅐㄴ
▁수소
▁출간
▁실수
▁정기
▁황금
▁광장
▁배출
▁선전
▁수리
▁독립운동
▁스토리
드시
▁코파
문화재
▁레오
▁화재
타르
▁개조
▁선조
▁먹이
▁생존
▁처형
▁방지
▁1967
▁남서
▁ㅅㅣㅁ
브리
▁Ch
▁주둔
▁기체
▁이승만
▁스럽
ㅅㅓㄴ
▁ㄴㅡㄴㄱㅏ
▁57
▁흑인
▁도전
▁연안
▁왕자
▁좁
▁현지
▁어떠
▁호수
▁로켓
▁롱
▁서구
▁일본군
▁이시
▁임진
▁공정
▁흉
▁콘스탄
▁오스만
라드
에이
포르
▁경로
▁동성
▁서원
▁농구
▁ㄴㅜ
▁루트
천시
▁달하
▁크리
▁고지
▁You
바르
▁방정식
▁히트
▁ㄴㅏㄱㅏㅆ
▁ㅆㅓ
▁천연
▁ㅌㅐㅇㅓㄴㅏㅆㅇㅡㅁㅕ
▁ㅇㅣㅂㄴㅣㄷㅏ
▁제대로
▁희망
▁반드시
▁등지
▁의혹
▁싸움
▁여단
아오
▁동기
▁성향
▁ㄴㅏㅌㅏㄴㅏㅆ
▁좌우
▁ㄴㅏㅁㄱㅕㅆ
▁ㄷㅚㄴㄷㅏㄴㅡㄴ
인물
먼트
▁분명
▁동아
▁무덤
▁전주
비치
▁진주
ㅟㄴㄷㅏ
nd
▁노벨
▁터널
▁톱
▁그레이
▁181
▁타임
▁스탠
▁미국인
▁시드
▁인지
▁압력
ㄱㅣㄹ
더스
▁전면
▁파악
▁둘째
▁이온
▁한계
▁목소리
▁내전
▁법정
▁전형
▁신뢰
▁코르
▁짜
베스
▁유기
▁ㄷㅜㄹㄹㅓㅆ
▁66
▁1966
라이언
▁독특
티브
▁녹색
▁ㅊㅣㄹㅓㅆ
▁r
바라
▁에르
ST
▁개신
▁해리
▁처벌
▁ㅇㅣㄴㄱㅏ
▁범주
▁글자
▁비평
▁물체
▁%,
▁체코
▁유행
▁홋
ON
▁삽
▁68
▁ㅁㅗㅇㅏ
▁즐
▁아동
▁별명
▁아파트
ㄹㄹㅣㄴ
▁ㅁㅗㅇㅕ
▁복지
▁1965
▁순환
▁매일
▁뿌리
▁리처
▁61
▁부사
▁분할
▁오프
방송
▁ㅊㅟ
▁추구
▁방해
▁돌아가
▁KBO
▁아프
ㅇㅗㄹ
▁모형
▁ㅁㅗㄹ
▁밥
▁평등
▁퀸
▁ㅂㅘ
▁분해
▁183
▁타격
▁실질
▁우려
▁클레
▁집권
▁바둑
▁구하
▁간행
치아
▁구현
▁알렉산드
▁ㅌㅏ
질랜드
▁화산
이치
▁뉴질랜드
ㅏㅈㅣㄴ
▁던
▁김일
▁마르크
▁광복
▁한정
ER
▁싸우
르타
▁희생
▁부진
▁묵
▁일찍
▁찰스
피스
▁맞이
▁닥
▁풍부
▁뮤지
▁최다
▁첼
▁ㄲㅡㅌㄴㅏㄴ
art
유럽
ㅅㅔ
▁나들
▁사립
▁플래
▁완료
▁웅
▁가상
텐츠
▁시조
▁마시
▁ㅂㅓㄹㅕㅆ
▁ㅇㅣㄹㅜㄴㄷㅏ
▁ㅈㅓㅇㅎㅐ
▁일식
▁아리
▁1961
▁벡터
디션
▁800
▁86
▁파르
▁마침내
▁사원
▁테이
▁물리학
▁ㅁㅏㄴㄴㅏ
▁마법
▁ㅈㅣㄴㅣㄴ
▁대개
▁손자
▁통산
▁대법
▁사냥
▁분위
▁근본
▁악기
▁레인
▁의지
▁전원
▁ㅎㅑㅇㅎㅐ
▁중기
▁점점
▁호주
▁확산
▁오페라
▁가까
▁캔
▁일본인
▁분기
▁600
▁120
투스
믹스
▁사형
▁올라
▁출범
▁나들목
▁부하
ice
▁웨이
▁판사
▁향하
▁갈색
▁흰
▁알파
▁프린
사자
est
▁회담
▁창원
▁가시
▁영웅
▁유치
▁충격
▁IS
▁여론
▁완공
▁시카고
▁리가
▁기둥
▁명확
▁개입
▁샘
은행
▁교향
▁ㄴㅏㅌㅏㄴㅏㄴㄷㅏ
▁저술
ia
▁단독
▁훗
▁날개
▁카라
▁대공
▁무게
▁가나
▁맞추
▁사임
▁포인트
▁모토
▁인접
▁메리
▁악화
▁훌
▁발굴
▁이자
▁ㅇㅡㄹㅕ
▁적절
리히
▁인증
▁편찬
▁ㅁㅏㅈㅊ
▁늦
▁98
▁조별
▁사마
▁1919
▁닛
▁순간
▁홍보
▁제이
틀러
▁문명
사스
▁상위
▁꺾
▁무시
▁의심
▁ㄴㅏㅆ
▁뚜
TV
▁조종
▁ㅅㅐㅇㄱㅕ
▁ㄷㅚㄴㄷㅏㄱㅗ
ap
▁re
▁명나라
▁함락
▁탐사
AR
▁기기
▁렀
▁등장인물
▁성분
▁끝나
▁당초
▁밝히
▁연간
▁도쿠
▁자극
▁서명
▁순수
▁징역
▁곽
▁접촉
▁득표
▁연구원
▁멘
▁각지
ak
▁그때
▁새롭
▁1944
ㅁㅊ
▁느끼
▁추천
▁임기
우리
▁모임
▁사정
▁ㄷㅏㅁ
▁이닝
▁드라이
▁구원
민주
▁넓이
▁학살
▁입법
▁그라
버그
▁스마트
▁ㅃㅏㅈㅕ
ㅓㄴㅏㄹ
▁독일군
▁태도
▁올해
▁63
▁행렬
라이나
▁ㅇㅗㄹㄹㅕ
▁95
일리
▁포항
▁ㅅㅣㄴ
▁DNA
▁고속도로
연히
▁링크
▁변수
▁사실상
▁골든
▁1941
▁뱅
▁팽
▁동서
▁세르비아
▁개막
▁프리미어
ㅂㅗㅇ
▁루스
▁ㄱㅗㄴ
▁아티
▁실현
▁ㄸㅓㄴㅏ
▁심사
메이
▁74
▁정하
▁ㄷㅗㅇㅘ
▁59
▁네이
▁등판
▁예전
학생
▁락
▁자전
러리
▁재배
▁한국인
▁경전
▁공헌
▁균형
ct
▁벗
▁프로그래
▁혼합
▁바위
▁오랫
▁기온
▁확률
▁보고서
▁백성
▁Lo
▁ㅌㅐㅇㅓㄴㅏ
▁ㅅㅐㄱㅕ
무부
▁언제
▁페르시아
▁ㅇㅕㅇㅑ
▁공로
▁수석
▁감시
▁튜
▁커뮤
▁닉
▁178
▁매장
ㅎㅐㅈㅕㅆ
▁방위
▁개신교
ㅎㅣㄴ
ul
▁앤드
▁ㅂㅓㅅ
▁떨어지
▁대선
▁침략
▁긍
▁시사
숭이
▁출력
▁분위기
▁영지
▁ㅈㅡㄹ
▁IC
▁훗날
▁양쪽
▁급제
▁흐름
▁오랫동안
대부
코스
▁왕실
▁프라이
▁72
▁이라크
▁춤
▁단편
▁무사
▁미쓰
▁안드로
▁승부
▁대량
▁커뮤니
▁지형
▁특별시
▁추산
▁텍사스
▁ㅎㅏㄴㄷㅏㅁㅕㄴ
▁82
▁재건
▁160
▁1947
▁랜드
이너
▁SS
▁1958
▁76
▁원형
▁그래픽
▁에드워드
▁ㅎㅏㅂㅊㅕ
ㅝㄴ
▁권위
▁다케
▁뮤지컬
▁미야
▁피터
▁리처드
▁신부
▁안토
▁줄기
▁내려
▁ㅇㅓㄹㅕㅇㅜㄴ
ㅇㅡㅁ
▁복원
▁점수
ㄱㅓㅇㅜㄴ
▁확립
▁ㄱㅕ
▁1956
▁to
▁마무
▁여왕
▁동명
▁발발
▁아이돌
▁프랑크
▁시상
ie
▁석유
▁저녁
▁자라
▁타자
▁가와
▁ㅋㅡㄹ
▁ㅇㅔㅅㅓㅂㅜㅌㅓ
리노
▁멀리
▁일상
▁경남
▁제사
▁ㅍㅏㄹ
▁ㅋㅣ
▁승객
ㄱㅎㅏㄴ
▁AFC
▁77
▁비상
▁파워
▁복수
▁테스트
▁입력
▁침입
▁브라운
▁리버
▁도요
▁;/
▁보물
▁복음
▁작위
▁데스
▁ㅍㅐ
▁교구
▁포켓
▁ㅅㅗㄱㅎㅏㄴ
▁수익
▁과학자
▁개설
▁업적
▁1939
▁가설
ㄹㄹㅏ
메리칸
▁타워
▁바깥
▁연예
▁Th
▁기소
▁안동
▁창작
▁혁신
▁더블
▁잠수
▁정수
▁한글
▁민중
▁ㅂㅏㄷㅇㅏㄷㅡㄹㅇㅕ
▁가공
▁67
▁암호
레옹
레나
▁본질
ud
일스
▁계층
▁힌
▁사자
▁ㅂㅏㄺㅎㅕㅈㅕㅆ
▁일시
▁나폴레옹
▁당국
▁와이
og
▁어깨
▁폭탄
▁그렇게
▁소득
에른
▁시마
▁신고
▁자식
IA
▁동양
왜란
▁ㅊㅓ
▁임진왜란
▁심지
이센
▁평론
▁병합
▁85
ㅅㅜㄹ
▁축구단
ist
▁사제
▁움직이
▁다운
▁대왕
▁ㅂㅓㄹㅇㅕㅆ
▁공중
▁신자
▁발음
보이
▁어디
▁빌보드
▁ㅊㅣㄴ
▁부지
▁주최
ly
▁빅토
▁후계
th
▁후속
마니아
▁력
레인
▁인쇄
▁폐쇄
▁훈장
▁도모
▁우라
▁움직임
▁진단
▁ㄱㅏㅈㅣㄴㄷㅏ
▁가량
▁자이언
▁1954
▁가담
▁보상
▁내셔널
▁고통
▁노출
▁국기
체스터
▁고기
▁구글
아티아
▁크로아티아
▁ㄷㅗㄹㅇㅏㅇㅘㅆ
▁돕
▁산화
▁동방
▁쌀
▁ㅎㅣㅁ
▁ㅇㅏㅍㅅㅓ
▁총회
▁ㅇㅏㄹㅡㅁㄷㅏㅇㅜㄴ
▁국정
▁실력
▁평안
ight
▁참모
BA
▁96
▁생물학
▁73
▁매체
▁1952
▁누르
▁대지
▁Al
▁탱
▁박정희
▁비서
▁인용
▁전신
▁라스
▁람
조합
▁아트
▁가이
▁세리
▁DV
▁결론
타이
▁오카
▁행복
▁뷰
▁포스트
▁다소
▁도덕
▁무한
▁상관
▁레알
▁아테네
▁교리
▁김대
▁로봇
▁타운
▁이혼
▁탈퇴
▁부담
▁역학
▁작동
▁조조
▁81
▁예방
▁피해자
▁수도원
▁ㅁㅏㄴㄷㅡㄹ
마르
▁화이트
▁비례
▁*
▁따로
▁심장
▁젠
▁뤼
▁78
▁대성
▁뮌
ㅂㅎㅕ
▁최후
▁중력
▁환승
ㅂㅗㄹ
▁뽑
▁수요
▁인생
▁절반
▁셔
너스
▁스타디
▁바이에른
바로
하여
▁화합
AS
▁지향
▁타이거
▁묻
▁ㄱㅣㅇㅔ
▁기상
▁재학
▁ㄴㅏㄴㅟㄴㄷㅏ
▁ㄲㅣ
AT
▁끝내
▁ㅂㅔ
▁규제
▁불만
시오
▁화장
▁장남
▁김성
▁포스
▁센트
▁손상
▁블라
터스
▁가까이
필더
▁질환
▁총장
토스
▁미드필더
▁전투기
▁개방
▁심판
▁유통
▁지사
ess
▁전남
ㅁㅊㅓㅇ
▁ㅇㅓㅁㅊㅓㅇ
▁메달
▁천안
세포
▁액션
▁청주
▁하인
클리
▁ㄱㅘㄴ
▁바닥
▁아웃
▁마무리
▁여섯
▁사무소
▁국군
▁그린
▁ㅇㅗㄻㄱㅕㅆ
▁약물
▁ㄴㅡㄴㄷㅏㄴㅡㄴ
▁91
▁ㅁㅐ
▁주력
▁피부
▁ㄴㅏㅌㅏㄴㅐㄴㄷㅏ
의정
▁메시지
▁골드
▁패션
▁71
▁검토
▁벌이
▁연습
▁콘스탄티
▁긍정
▁피하
▁보르
▁전직
▁1959
▁산소
▁모바
▁기리
▁빌딩
▁선박
▁202
▁AT
▁진정
▁이명
▁가마
▁황후
▁처분
▁햄
▁Li
스트라
▁상실
▁NH
▁백만
▁유산
▁혼인
▁녀
직자
▁결의
▁통화
자치
▁당나라
▁사우스
▁신사
▁관여
▁ㅊㅕ
▁호소
▁깃
▁;,
▁글로벌
쿠스
▁세부
▁프로이센
▁인원
▁177
▁심지어
▁디아
▁분노
▁대책
▁소멸
▁말레이시아
▁윗
▁가요
▁설득
IV
▁ㅇㅓㅁㅊㅓㅇㄴㅏㄴ
▁ㅅㅏㄴ
가락
▁문신
▁ㄴㅏㅇㅏ
▁가슴
▁디스크
▁ㄷㅓ
▁오직
▁하원
ㅊㅣㄹ
▁위대
▁승려
▁동해
▁요금
▁1942
▁홋카이도
▁ㅅㅐㅇㄱㅣㄴ
▁ㅇㅣㅇㅓㅈㅕㅆ
나가
▁덜
ㄹㅣㄹ
▁쿠데
▁조지아
▁창당
▁위키
▁구매
▁시나
▁왕비
▁퀴
▁김일성
▁상역
▁앉
▁적합
ub
▁페이지
▁잭슨
▁크루
ㄱㅣㄴㄷㅏ
드리히
▁곱
ㅏㅁ
리학
▁87
▁개성
▁선임
▁억제
▁모바일
▁ㅇㅕㄱㅕㅈㅣㄴㄷㅏ
▁쾌
▁비치
▁ㅅㅟ
▁띄
▁AP
▁ㄲㅡㄹ
▁1943
미야
▁사격
▁음악가
▁일기
▁st
▁사도
▁일컫
▁테크
▁불안
▁야스
▁일본어
▁조카
▁싱가
▁주석
▁ㄴㅏㅇㅗㄴㄷㅏ
▁크로스
▁1955
▁싱가포르
▁쿠데타
▁ㄷㅗㄹㅇㅏㅇㅘ
▁톨
▁필드
▁거듭
▁좌상
▁진영
▁전당
▁159
▁드래프트
▁프리드리히
▁ㅇㅕㅆㅇㅡㄹ
▁일체
▁프랭
가니
▁700
▁어려움
▁알고리
▁무료
▁타인
▁84
▁카스
▁ㅅㅓㄴㅂㅗㅇ
▁1953
ab
▁원년
▁스타디움
ㅂㅎㅕㅆ
▁ㅈㅜㅇㅓㅈㅣㄴ
▁발탁
▁상속
▁챔피언십
▁ㅂㅓㄹㅇㅓㅈㅣㄴ
미르
▁루마니아
▁힙
▁1936
▁부산광역시
▁ㅇㅣㄹㅡㄴㄷㅏ
▁ㅇㅜㅁ
▁유고
▁세자
▁본명
▁천주교
▁보살
▁테마
▁이와
▁티베
▁덮
▁김종
데이
▁Re
▁기동
▁폭격
▁왕후
▁즉시
▁토론토
▁알고리즘
▁후쿠오카
유산
▁궁전
▁독재
▁여우
▁콘텐츠
▁ㄲㅔ
▁막대
▁1910
▁사무실
▁깊이
▁ㅈㅕㅆㅇㅡㅁㅕ
▁누리
아들이
▁발명
▁연설
▁\
▁용도
▁메이지
ine
▁전동차
▁부동
▁ㅂㅓㅅㅇ
▁딘
▁ㅂㅗㄴㄷㅏ
▁각국
▁태조
▁대체로
▁리드
▁97
▁딜
▁사양
▁ㅆㅡㅇㅕ
▁정차
▁검색
▁구입
▁전북
▁1900
▁스티븐
▁학사
구리
▁ㄱㅏㄹㅡ
▁유형문화재
▁ㄷㅔㄴ
▁원주민
▁음성
▁ㅇㅓㄷㅗ
▁히틀러
리나
▁진격
원경
주군
▁오이
▁휴대
▁추방
시스코
▁느낌
▁수호
▁주소
▁대우
▁사기
▁남아프리카
▁1957
▁영양
▁아메리칸
▁ㅅㅗㄱㅎㅐ
▁이즈
▁자국
▁전술
▁조상
ew
▁DVD
▁개칭
▁세트
▁ㄴㅓㅁㅇㅓ
▁초점
▁포켓몬
▁신장
래프트
▁ㅌㅗ
▁강릉
제국
베르트
▁필수
▁동북
▁최우
란색
▁수업
머리
미니
▁불가리아
▁전송
▁ㅂㅗㅇㅕㅈㅜㄴㄷㅏ
▁알바
▁광범
▁코리아
▁스미스
▁이마
ㅎㅕㅆ
▁인디언
ue
▁핫
▁69
▁ㅂㅕ
▁급격
▁1914
▁92
▁미리
▁완벽
▁덩
▁클로
▁섹
히로
▁넥
▁사과
구치
독부
▁노트
▁게다가
▁개량
EC
▁유효
▁렀다
▁바르셀
▁오키
▁원수
▁바르셀로나
▁서술
리그
▁펑
▁도마
▁질문
▁천만
로지
▁WW
▁라이프
지사
▁연락
▁늑
▁선형
▁ㅈㅏㄴㅡㄴ
▁션
▁고급
▁미술관
▁에서
▁재즈
▁커버
▁림
▁신도
▁랑
▁만든
▁ㅎㅐㅇㅎㅐ
▁똑
▁101
▁라틴어
▁스탈
▁마르크스
▁후임
총리
▁상인
▁소비자
▁1938
▁립
▁스프링
▁부위
▁이내
▁주니어
▁="
▁배포
▁물건
▁랩
▁ㅇㅘㅅㅓ
자키
▁고시
▁화려
ㅊㅏ
▁닥터
▁그만
▁손실
▁01
▁운항
▁저자
▁실천
▁주체
▁ㄷㅡㅅㅇㅣ
▁ㄹㅕㅁㅕㄴ
산화
▁HD
▁부친
▁ㅍㅕㄹㅊㅕ
▁윙
▁ㄱㅣㄹ
▁빌리
오르
▁1918
▁ㄴㅡㄴㅑ
▁언덕
▁석사
▁블록
▁알레
▁사퇴
▁상주
▁소형
▁안드
▁시내버스
▁언스
▁화석
▁마스터
▁의문
ㅂㅜㅌ
▁백인
▁고위
▁연평
▁갑자기
▁이념
ㄸㅡㄹ
▁암컷
▁일련
▁국적
비히
▁웰
▁ㅅㅜㅁ
▁추기
▁상수
▁자본주의
여금
▁방언
▁집회
▁대만
▁개별
▁정교회
▁ㅁㅏㄴㄴㅏㅆ
▁감각
▁게르
▁반사
▁미스
BM
▁해발
ㄷㅏㄹㅏㄴ
민주당
펙트
▁풋
▁경비
ㄱㅎㅕ
ㄹㄹㅓ
▁올스타
▁묶
▁고객
ㅢㄴ
▁차단
▁매치
▁1951
▁ㄱㅘㄴㅎㅐ
▁짝
▁영주
▁계곡
▁경제학
▁분화
▁탄압
▁화폐
▁선포
▁실업
필드
▁미시
총독부
▁조선총독부
▁on
▁거짓
▁ㅅㅐㅇㄱㅕㅆ
▁노리
▁1937
▁89
▁1932
▁용인
▁프랑스군
▁뮌헨
▁우크라
▁격파
▁받아들이
바키아
ㅜㄹㄹㅓ
▁구상
▁당원
▁화제
▁재개
▁크라
▁마틴
▁엘리자
▁항공사
▁후계자
ㅊㅣㄴㄷㅏ
▁93
▁변하
▁퀘
▁칭호
▁182
▁기부
▁이웃
▁이스트
▁ㅎㅏㅂㄴㅣㄷㅏ
▁진학
▁체험
▁찬성
▁시트
무늬
▁싱어
▁클리
▁회로
▁추기경
▁첩
저스
브라
▁면역
▁1935
▁수치
▁질서
▁비행기
ect
▁다스
▁고양이
▁곡선
▁비스
▁파티
▁흰색
ㅇㅜㅁ
▁광범위
▁사찰
▁항의
▁내놓
▁트레이드
▁공신
▁자산
▁ㅈㅓㅂㅎㅏㄴㄷㅏ
▁Be
▁발간
어로
가시
▁겉
▁증언
▁ㅍㅜㄹ
▁촉진
▁아티스트
▁세월
ㅅㅜㄹㅗㄱ
▁클래식
▁꾸준
▁설치류
▁마루
사전
▁구멍
▁오버
▁타율
▁로렌
▁소화
▁극단
▁개척
동생
▁중추
▁가속
▁남기
▁법학
▁운송
▁히어로
▁ㄴㅡㄹㅇ
▁반지
▁줄이
▁유배
▁습격
▁지수
▁쿨
▁쿼
▁보편
▁영원
▁남녀
하이
▁OS
▁분교
▁전망
▁허락
▁전적
런스
▁성남
▁시모
ore
▁수백
▁양산
▁94
▁소위
슈타인
▁축소
벤트
▁ㅁㅜㄴ
▁탕
▁ㅇㅣㄹㅇㅡㅋㅕ
▁탄핵
▁직무
▁대법원
다수
our
▁목성
▁물고기
▁팩
센트
IN
▁아오
▁툴
▁ㅈㅣㄹ
추어
ell
▁잠수함
▁강남
▁동화
▁쟁
▁원시
▁거치
▁약화
▁티베트
리우스
▁핸
▁프랑스어
▁1933
▁소집
▁CP
ㄴㅏ
른바
▁FM
▁대칭
▁ㅈㅗㅊㅏ
▁베리
▁그리하여
▁조항
▁충분히
도사
▁료
▁프로그래밍
슬링
▁무용
▁수십
▁이른바
▁하여금
▁멀티
▁익스
▁ㅊㅐㅇ
▁선호
▁혼자
돼지
▁영구
▁오가
▁군부
▁콜로
▁ㅇㅓㄷ
▁주일
▁돌아오
▁줄어들
▁고교
▁1928
닉스
프레
▁누스
▁정류
ers
▁칠레
▁정통
ㅈㅣㄱ
▁ㄷㅏㅇㅎㅐ
▁ㅆㅡㅇㅕㅆ
사이
▁간부
▁당신
▁이행
▁ㄷㅓㅅ
공사
▁치르
▁개명
▁대로
▁시신
▁국토
▁댄스
ID
▁실내
▁형상
▁동경
▁발레
▁판정
▁ㄷㅗㄹㅇㅏㅇㅗㄴ
▁재능
▁펀
▁09
▁자매
▁해제
▁손해
▁메트로
▁79
▁브로
▁진실
▁콜롬
▁사이드
▁1924
▁부속
뜨리
▁액체
▁태종
▁04
▁지불
▁토마스
▁사막
ㄴㅐㅆ
▁자이언츠
▁조기
드라
▁토대
▁펼
▁개장
▁뼈
▁이재
▁110
▁단순히
▁ㅇㅡㄴㅣ
과이
▁웃
▁입대
▁ㅇㅣㅇㅓㅈㅣㄴ
▁지중
end
▁토너
▁강전
▁종사
▁합동
▁원자력
▁이벤트
코프
▁빼앗
▁열매
▁파키스탄
▁전제
▁정면
▁오류
▁08
▁ㄹㅣㅇ
▁늑대
페이스
▁구름
▁170
▁아마추어
ill
▁김해
▁지표
▁플로리
▁주문
▁프로토
▁대승
▁분산
▁ㄱㅓㄹㅊㅣㄴ
▁경고
▁코너
▁퓨
▁유아
▁스카이
▁빚
▁러브
▁안티
▁상대식
▁서방
▁비잔
▁하와
▁의정부
▁Co
▁가난
▁놀이
▁동굴
▁무력
▁토착
▁안토니
▁룸
▁틴
▁성서
▁재생
▁회색
▁양국
▁엄격
▁MS
▁장점
▁투스
▁베네치아
▁로즈
ㅋㅡㅁ
▁존스
▁총재
▁당대
▁보스턴
▁수컷
▁ㅈㅜㅇㅓㅈㅕㅆ
▁법안
베리아
어도
ain
▁ㄸㅓㄴㅏㄴ
▁자랑
▁스크린
▁밀리
▁배열
▁호흡
성기
▁초상
테스
▁강도
▁중동
▁가깝
▁오케
▁들어오
티스
▁행적
▁흔적
▁세로
▁소문
▁일단
▁편의
AN
▁{
ard
▁봉기
▁스톤
▁ㅇㅜ
▁평면
▁맨체스터
▁젤
▁우에
▁ㅎㅢㄴ
공업
▁다큐
▁북미
▁인민군
▁83
야스
ㄴㅏㅆ
▁힙합
▁De
레오
▁토너먼트
▁쏘
조선
▁동지
▁대가
▁요코하마
▁메탈
▁주재
▁행하
▁중계
▁판타
▁메르
▁장로
▁빵
▁레닌
▁재임
▁야당
▁강요
▁스케이
데르
▁ㄷㅓㅅㅂㅜㅌ
▁경북
▁페리
▁ㅅㅔㅇㅝㅈㅕㅆ
▁추적
▁대원
▁쿠바
▁밸
▁선로
▁대사관
▁혈액
▁철거
▁1934
▁나이트
▁개찰
▁마감
▁국방부
▁ㅁㅏㄴㅋㅡㅁ
▁살아
▁포드
▁한성
즈니
▁근육
▁안쪽
▁구사
▁주자
▁카리
제르
▁벼슬
▁ㄴㅏㅅㅓㅆ
▁중지
▁풍속
▁농장
▁장례
▁발전소
▁입구
▁코어
▁르네
▁해설
▁관계자
▁할아버지
▁탓
세대
▁ㅅㅗ
키퍼
▁뱀
▁글리
▁페이스
▁동구
▁본토
▁함경
▁경찰서
▁골키퍼
아르
▁스탈린
▁ㄴㅗㅎㅇㅕ
베르크
▁안내
▁화합물
위대
ㅓㅈㅕㅆ
▁접속
▁농촌
▁도쿠가와
▁노동당
▁아프가니
▁현존
▁닐
▁관객
▁철학자
▁흘
▁시계
유키
▁심리학
▁광산
▁역전
고속
크래프트
▁증권
▁리스트
▁사망자
▁오염
ㅎㅏㅁ
므로
▁거점
ㄲㅡㄹ
▁곤충
▁선물
▁130
ne
▁Me
▁모노
▁식량
▁항해
▁ㅇㅜㅁㅈㅣㄱ
▁복사
▁대동
▁레지
▁ㅇㅝㄴ
▁정조
▁정확히
▁부작
▁토머스
무르
▁사카
▁유키
▁조문
▁남극
▁계수
▁부호
우치
▁ㅎㅔ
▁재판소
▁동메달
▁폭풍
▁독점
▁부처
▁드물
▁ㅁㅏㄹ
▁Sh
▁필립
▁종전
▁합리
▁140
▁그러므로
▁그리스어
▁훼
▁이정
레아
▁문재
▁중성
▁테르
▁알렉산더
▁대결
▁초청
▁대다수
▁비중
▁돔
▁세금
▁아프가니스탄
▁김구
레이크
▁ㅌㅏㄴ
▁휘하
▁은메달
▁히로시마
▁ㅎㅟ
▁클래스
▁특별히
▁윤리
▁WWE
▁유대인
OR
▁새끼
▁칼리지
▁아과
▁석방
사르
▁필라
▁교향곡
▁펄
▁자유주의
돌프
▁멸종
▁박근
▁원조
▁매주
▁파울
▁체육관
▁로맨
▁새벽
▁대한제국
▁ST
▁부품
▁경사
ㅇㅔㄷㅗ
▁구로
AM
▁진동
▁ㄴㅏㅃ
▁th
▁성명
▁훌륭
▁위안
▁아비
▁유력
▁타카
▁그래프
▁ㄴㅗㅍ
베리
▁미카
안군
▁ㅁㅣㄹㄹㅕ
all
▁1931
▁마그
▁ㅍㅕㄹㅊㅕㅆ
▁아이스
▁ㅂㅗㅇㅎㅐㅈㅕㅆ
▁간격
▁아틀
▁캠프
▁힘들
▁일곱
클린
▁금강
▁캡
사관
ㄷㅏㄴ
▁트랜스
▁꾼
나르
느님
▁감옥
▁타점
▁기생
▁타원
▁존슨
▁하느님
▁ㄷㅏㄹㄹㅕ
▁강등
▁코트
▁뚜렷
▁문법
▁An
▁기병
ang
▁연호
▁명시
▁특허
▁대변
▁첫째
ㅎㅇㅏ
▁공세
▁스트라이
▁인터페이스
▁후퇴
▁지칭
▁ㄱㅏㄴㄷㅏ
▁좌파
▁해협
▁250
▁도메
▁네이션
▁지휘관
▁버지
▁비즈
▁교도
▁뻗
▁단장
▁공룡
▁집필
▁1921
▁평론가
▁ㅋㅓㄷㅏㄹㅏㄴ
ㅇㅣㅁ
▁극복
▁목포
▁유발
▁고고
▁가구
▁사관
▁스테이션
게이
▁cod
▁다다
▁마라
▁무늬
▁소요
▁킬로
▁176
▁갤럭
▁덕분
▁동반
▁닮
▁키스
▁박스
▁수반
생활
▁매니
시스트
▁동성애
▁ㅅㅠ
▁협약
▁김대중
▁ㅂㅐㅇㅝㅆ
밀리
▁목숨
▁칙
▁05
▁조화
▁1929
ss
산물
▁숙종
▁하버
▁삼각
▁타입
▁ㅇㅗㄹㅡㄴ
둥이
▁ㄷㅟ
▁약탈
마이
▁건담
▁일환
▁착용
▁수비수
▁틱
▁바이올
널드
▁미분
▁구리
ㅇㅕㅅㅓ
▁라트
▁원장
▁입사
▁지부
▁샤를
▁갤럭시
▁de
▁성씨
▁연계
▁의석
▁y
▁AC
▁연상
▁영혼
▁운동가
미아
▁비하
▁롬
▁발렌
▁설비
▁근로
▁데리
▁중립
▁ㄸㅓ
수량
▁발휘
베이스
▁1923
▁램
▁쯤
▁기갑
▁섬유
▁이수
▁ㄴㅡㄴㄷㅏㄱㅗ
▁경유
▁공국
▁플로리다
▁07
▁빠지
▁1925
▁임신
▁망원경
페인
ity
▁서적
▁도호
▁압축
▁불화
키스
투아
▁과일
▁추락
▁웨일스
▁성직자
▁안드로이드
▁옮
▁모험
▁영감
타카
▁첸
▁다이묘
▁SC
▁레벨
▁진흥
▁박근혜
▁ㅋㅗ
▁요원
▁남아메리카
▁트레이
▁변신
▁유가
▁동인
▁라이온
▁선교사
▁캘리포니아주
니즘
▁연평균
▁얀
▁살아남
▁고분
▁삭제
▁우드
▁채권
▁갱
▁장갑
▁관리자
▁지역구
▁모음
ㅜㅇㅜㄴ
일본
▁가끔
▁제약
▁영광
▁번지
▁ㅎㅡㄴ
무게
▁민속
▁몸무게
▁북서쪽
▁유비
▁유성
▁프로세서
▁악장
▁어원
▁ㅇㅕㅆㅇㅡㅁ
▁똑같
▁페루
▁소설가
카스
▁교과
▁수직
▁진술
▁추대
▁딱
▁시게
▁161
▁그랜드
▁변동
▁하와이
ff
▁일자
▁EP
▁수명
▁돌파
▁명사
대문
▁필름
up
느리
▁복구
▁모로
▁음모
▁카자
▁압도
▁주류
▁ㅁㅏㅈㅅㅓ
▁어워드
▁잠재
프란
▁기관차
▁프레임
▁쫓
▁사당
▁결심
▁수상자
▁파트너
▁빅토리아
▁북극
▁청동
▁중시
▁ㅈㅣㅋㅕ
▁ㄷㅗㄹㅇㅏㄱㅏㅆ
▁곰
▁마주
행성
▁ㄲㅗ
▁파생
▁단선
▁이조
▁레이블
▁수장
▁엽
▁서인
▁철저
▁KT
▁쇠퇴
▁삼각형
▁가톨릭교회
스팅
▁175
▁사거리
▁어항
▁홀로
▁모시
▁도마뱀
▁종로
슬리
▁ㅁㅔㅇㅣㄴ
▁틸
▁칼리
▁동일본
▁ㄱㅡㄹㅕㅈㅕ
▁ㄴㅏㅇㅏㄱㅏ
▁규슈
▁트럼
▁ㅇㅣㄹㅏㄴ
▁바오
▁이날
▁부탁
▁피트
▁건축물
애나
▁최상
▁나폴리
ㅊㅣ
즈키
▁북아메리카
▁도어
▁랭킹
▁평생
▁파운드
▁향토
▁황태
▁각자
▁크레
멘트
부사
▁리치
▁무릎
메니아
▁유역
ㅓㅈㅕ
▁자치구
▁My
▁여인
▁왕가
▁전승
▁노무
▁지연
▁엘리자베스
▁준우
▁투구
▁벨라
▁1922
▁고안
▁codice
▁SM
▁유용
▁ㅋㅜ
▁화가
▁버지니아
▁부유
▁직선
▁ㅁㅗㅅㅎㅏㄴㄷㅏ
▁나서
▁무인
▁ㄴㅓㅁㄱㅕ
타운
▁아기
▁리아
▁부서
IS
오리
▁중구
▁침해
▁노비
▁토벌
▁문인
▁1912
▁아르메니아
▁올라가
▁""
▁공격수
▁국민당
▁JR
▁연령
▁단행
라이터
▁모니
▁모래
▁납치
▁직위
눅스
▁구미
▁패턴
▁건너
▁간섭
▁무산
▁인천광역시
ㅇㄱ
▁봉사
▁색상
▁표지
▁다양체
ㅇㅎㅏㄹ
▁루트비히
▁왈
▁적응
▁리눅스
▁지중해
▁MV
▁관하
▁인력
▁포유
ㅁㅏㅇ
▁모듈
▁스케이팅
▁베타
▁윤치
▁항목
▁드리
▁사토
▁수지
▁퍼시
▁164
▁탐험
▁동아시아
▁06
▁고르
▁상처
▁Go
▁주사
▁Love
ip
▁출현
▁교차로
▁릭
▁며
▁교역
▁매각
▁이종
▁마카
▁하사
ant
ong
▁옵
양군
▁배상
▁삽입
▁연소
▁블라디
지마
▁글씨
▁영조
▁ㄴㅏㅁㄱㅕ
▁토르
▁베토
▁상무
ED
ld
▁실점
▁ㅇㅗㄹㄹㅣㄴ
▁뜨
▁전향
▁시상식
▁돼지
▁플레
▁부동산
▁헤드
▁1908
▁렉
▁호조
▁과도
▁커피
▁제주도
슬로
▁시아
▁연금
▁패러
▁장사
멘터리
▁굿
▁ㄷㅗㅁㅏㅇ
▁자책
▁참조
▁ㅅㅔㄴ
▁남동쪽
▁03
▁육성
▁조명
▁크림
▁태자
도니아
▁히가시
▁둔
▁1917
OM
▁기종
▁사촌
▁옮기
▁에스파
▁1906
▁외계
▁SN
▁목조
▁배급
▁체인
▁기하학
▁인자
야수
▁정서
▁밀라노
▁관중
▁명문
▁비전
몬드
▁종족
▁폐기
▁입문
▁호르
▁시외
▁ㄴㅏㅌㅏㄴㅏㄴ
▁안양
▁전작
영상
이즈
보살
▁동사
▁통로
▁표본
▁우익
▁럭
▁옹호
▁적어도
▁유인
▁보통학교
ㄷㅏㄹㅡㄴ
▁무선
▁이토
▁정자
▁몬테
▁사이클
▁1927
▁산타
▁앨런
av
▁앱
다드
▁과장
▁의병
▁창간
▁송라이터
▁라우
▁자전거
▁대행
▁북동쪽
▁노인
▁보좌
▁스와
▁ㅅㅔㅇㅝㅈㅣㄴ
▁선제
▁트윈
▁다큐멘터리
▁산악
▁준우승
▁기압
▁내장
▁모자
▁안보
▁유신
▁포크
플레이
▁1907
▁1926
티움
▁정류장
▁유닛
▁사라지
▁오리지
▁별로
▁디즈니
▁최우수
▁유입
▁ㅁㅏㅈㅓ
▁슐
▁사신
▁협의회
▁흙
튜브
▁산지
▁예외
▁탑승
▁스페셜
▁ㄱㅏㅂ
AC
▁노조
▁비틀
▁ㅇㅣㄹㅇㅡㅋㅣㄴ
▁수감
▁왕립
▁우크라이나
ㅏㅈㅣㄴㄷㅏ
▁168
▁기아
▁석조
페이지
▁ㅁㅏㅈㅊㅝ
▁BBC
▁베토벤
▁묘지
▁드래곤
▁PD
▁ㅎㅐㅈㅣㄴ
▁자문
▁틈
▁때로
▁상영
▁호남
▁He
▁아가
▁연고지
▁유튜브
스토
▁급속
▁하천
슬라
▁번식
▁스틸
▁시에
▁주거
▁상하이
▁ㅎㅑㅇㅎㅏㄴ
▁광역
▁카페
런트
▁ㅃㅏㄹ
다이라
▁독일어
ind
▁Sp
▁아무런
▁데이터베이스
▁에릭
▁라이벌
▁대교
▁진지
▁버그
▁할리
se
▁대안
▁사료
▁색깔
▁점성
▁정사
▁합계
▁겨우
▁커뮤니티
무네
▁선진
로프
▁아울
▁지바
▁문하
▁제후
▁홈페이지
▁세조
▁자바
브스
▁ㅈㅝㅆ
▁ㄱㅡㄹㅓㅁ
▁ㅇㅠ
ame
▁룩
텐도
▁흥미
▁닌텐도
생물
▁좌익
▁NHK
▁민족주의
▁지름
총장
▁원로
▁ㄴㅏㅌㅏㄴㅏ
▁요미
▁ㄱㅏㄹㄹ
프란시스코
세스
▁특급
라지
▁대조
▁방안
▁분배
▁수수
▁콩고
▁꾸준히
▁리듬
▁상세
▁증기
▁품질
▁166
▁162
▁샌프란시스코
▁레이스
▁1905
▁꼽
▁엄마
▁떼
▁문화유산
▁레이다
▁들어서
▁ㅇㅣㄹㅇㅓㄴㅏㄴㄷㅏ
ort
▁반환
▁와카
▁운명
▁원산
▁칭하
▁151
ry
▁트럭
▁아크
▁주한
▁모집
▁스승
▁비평가
▁십자군
▁마일
▁가쓰
스티벌
▁진도
▁가르치
▁칩
▁굳
▁주의자
▁재무
▁ㅂㅓㄴ
▁ㅇㅣㅇㅓㅈㅕ
▁라마
▁역과
▁출산
▁현황
나카
▁페스티벌
ith
▁02
▁조선인
다니
▁모터
▁신비
▁협의
▁셋째
▁리얼
스케
▁비단
▁펼치
ES
▁일행
▁주말
▁유고슬
▁유고슬라비아
▁목격
▁주파
▁ㄱㅡㅊㅕㅆ
▁이오
▁곧바로
▁스피드
▁굽
▁구마
▁도리
▁158
▁묘소
▁한나라
엘라
▁크리스토
▁렌즈
▁야생
▁정계
▁오리지널
▁가미
▁단층
▁배정
▁보전
▁플루
▁ㄱㅔㄴ
▁소니
▁오디션
▁한나라당
▁||
어트
▁둘러
▁ㅈㅓㄴㅎㅐㅈㅣㄴㄷㅏ
▁문과
▁한화
▁옛날
▁남서쪽
▁스테이지
▁템
▁상소
▁입증
▁수천
결승
프스
▁토니
▁직장
▁이리
▁동전
▁무관
▁미네
▁문제점
▁운반
▁복제
▁사면
▁기점
▁되찾
▁동영상
▁급행
▁도심
▁출판사
리케이션
▁브라이언
▁적색
▁디자이너
▁챌
▁마스
▁서북
▁기용
▁긴급
▁인텔
▁케이블
ok
▁Un
교육
▁동치
▁아서
▁인치
▁합작
▁ㄱㅓㅊㅣㄴ
▁쿠르
회의
▁배제
▁지질
▁호환
▁지휘자
▁걷
▁베이스볼
▁예언
▁알라
▁폭스
▁프랜
▁ㅇㅕㅅㅓ
▁연주자
▁판타지
▁마케도니아
▁번주
▁기념물
▁당사자
▁교전
▁우르
▁단종
해군
▁신임
▁향년
▁콜롬비아
러지
▁비즈니스
▁부패
▁사직
▁ㅆㅡㄴㄷㅏ
▁ㅇㅣㄹㅜㅇㅓㅈㅣㄴㄷㅏ
▁ㄱㅡㄹㅓㅁㅇㅔㄷㅗ
▁회원국
▁초래
루살
▁예술가
▁모순
▁ㅁㅗㄴ
▁ㅍㅣㅎㅐ
▁겹
▁개수
▁오다
▁좌석
▁ㄴㅐㄴㄷㅏ
▁가하
▁미만
▁정교
▁ㅇㅣㄹㅇㅓㄴㅏ
루살렘
▁하드웨어
▁빗
▁기름
▁기재
▁용기
▁도메인
프라
▁선사
▁ㄹㅏㄱ
qu
▁수면
▁집계
▁가게
▁역명
▁오타
▁평소
▁포맷
▁165
▁마쓰다이라
▁AM
▁관장
▁트레
▁파나
▁센트럴
▁ㅁㅜㄷ
▁스펙트
▁콘스탄티노
▁서경
모니
▁154
▁내륙
▁자회사
▁1904
▁신용
▁ㅎㅡㄹㄹㅓ
▁ㅁㅏㄴㄴㅏㄴ
경기
▁의거
▁ㄷㅏㄴㅕㅆ
ord
▁석탑
▁항일
▁무신
▁왕족
▁과제
▁연애
▁넘어
▁스펙트럼
▁Wh
▁심하
▁Se
PS
▁엉
▁걸리
▁이력
문학
▁임상
▁파동
▁신하
▁압박
▁자사
ob
▁권고
▁여동생
▁이지
▁전염
▁여신
▁챌린
▁이명박
▁DJ
▁용산
식물
▁장편
▁마케팅
▁예루살렘
▁계단
▁SF
▁싫
▁사르
▁아인
▁ㄱㅓㄹㄹㅕ
▁ㅅㅓㄴㅂㅗㅇㅕㅆ
IC
▁163
▁900
▁발효
▁167
▁혜성
▁스마트폰
아보
우옌
▁차관
가스
페이
ate
▁무슬
▁이글
▁그랑
▁대단
▁스쿨
ㅗㅊ
▁부수
▁훼손
▁바이올린
▁게시
▁비아
▁서브
▁사범
디스
▁조류
▁156
▁상임
▁받침
▁우루
▁노무현
▁크리스티
▁교섭
▁미얀
▁얼음
ㅂㅓㄹ
▁팅
▁끼리
▁부흥
▁차체
▁식사
▁리투아
▁무슬림
▁리투아니아
▁행정부
▁비잔티움
아하
운서
▁디비전
▁쇼군
▁저기
▁진상
▁서울시
▁분지
▁아나운서
▁AS
▁규격
▁예능
ㅟㄴ
▁니스
▁부리
▁ㄱㅗㅅㅓ
마치
▁조국
▁타마
▁밀접
▁비로
▁착륙
▁ㅁㅏㅊㅕㅆ
▁피스
▁ㄷㅓㅍ
▁샹
껍질
▁한양
▁성공회
▁간접
▁지주
랑이
커스
▁UN
▁ㅁㅗㅅㅎㅐ
▁정벌
▁ㅍㅓㅈㅕ
▁고립
▁친정
▁애국
▁ㅁㅓㅁㅜㄹㄹㅓㅆ
카르
▁도망
▁아베
▁우지
▁구장
▁바그
▁오케스트라
▁낱
▁하트
▁옌
▁월간
▁점유
ㄷㅚ
▁무라
잡이
▁피렌
▁와중
▁융합
ET
로디
▁출구
리크
▁충남
▁브라우
▁아이디
▁좋아하
▁주립
▁바티
▁뱅크
▁제네
▁학파
▁부통령
ast
▁참판
▁선두
▁용량
킨스
▁페어
▁하노
▁거인
▁요크
▁일요일
▁스타크래프트
▁ㄷㅡㄹㅇㅓㄱㅏㄴ
▁ㅆㅏㅇㅝㅆ
▁몰락
럼비아
▁소나
▁농도
▁진나라
예프
▁김동
▁귀환
▁두산
▁맥스
▁굉
▁이에
▁최신
▁지장
▁벌어지
▁시체
▁쿠스
▁투명
▁개발자
들리
▁샬
▁공과
▁MVP
▁야기
▁흥행
▁ㄷㅜㄹㄹㅓㅆㅏ
▁발족
부인
▁강연
▁완화
▁위주
데이트
▁중국어
길이
▁사리
▁다이아
▁스트리트
▁알바니아
▁139
▁성종
▁마천
▁업데이트
▁애플리케이션
▁DS
▁대령
▁충성
아지
▁전지
▁미나미
트롤
▁HIV
▁부자
▁전이
▁ㄷㅏㄹㅜㄴ
▁보드
▁145
▁마리오
if
▁고조
▁공용
▁서열
▁물려
▁빨리
▁아세
▁응우옌
▁이슈
▁피렌체
▁디젤
▁측근
▁시드니
▁킬로미터
▁착수
AD
▁경선
▁서일본
▁ㅅㅏㄹㅏㅈㅕㅆ
▁기타리스트
▁ㅂㅓㄹㅇㅓㅈㅕㅆ
주곡
레이터
트랙
▁검증
▁해인
▁게이트
▁주머니
▁준결승
랑크
ive
▁관찰사
▁ㅅㅣㅁㅎㅏㄴ
▁아이디어
▁가득
▁수산
▁히라
란트
▁사명
▁전두
▁중도
▁구동
수아
▁마산
▁형법
IT
▁턴
▁사바
▁요미우리
▁넬
▁디오
▁부도
▁아종
▁해전
▁험
▁전류
악기
▁공전
▁규명
▁부시
▁테오
▁174
▁관광객
츠키
▁ㅇㅏㄹㄹㅕㅆ
카드
▁전임
▁석탄
▁붓
▁몸길이
ack
ure
▁지각
리티
트니
▁권유
▁수학자
▁IP
▁인과
▁연수
▁중독
▁소송법
▁관습
▁플라스
▁좌표
▁1896
토미
▁천문학
▁로빈
ㅅㅣㄴ
▁자율
▁소재지
▁실용
루미
▁Ar
▁노동조합
▁청와
▁판매량
▁스콧
▁우즈
▁피에르
▁마운
▁메디
▁여덟
▁정찰
▁책봉
▁사인
▁뷔
균관
아리
▁쇼핑
ㄹㄹㅏㅆ
▁옐
▁신칸
▁세례
▁호평
▁존경
iv
▁백신
▁오렌
▁통행
▁청와대
▁붙이
▁섞
ock
▁성벽
▁수신
▁전장
▁친선
▁ㅋㅏㄴ
▁저기압
▁5000
▁피난
▁ㅈㅏㅁㅕㄴ
▁꼴
▁152
▁조용
▁ㄷㅡㄹㅇㅓㅇㅘ
▁행진
▁프로세스
▁전진
ck
▁닫
▁미하
사기
▁문재인
▁복소
▁회수
▁ㅉㅣ
▁드러내
▁상상
▁염색
▁테일러
▁짙
▁악마
▁신전
▁157
▁시외버스
▁ㅇㅓㄹㅣㄹ
▁련
▁구제
▁취약
▁폴리스
▁전문학교
▁비극
▁카시
문관
▁자손
▁연구자
가루
▁미스터
▁관념
혁명
▁과목
▁MP
▁대외
▁지분
▁카나
▁ㄴㅜㄹ
▁급진
▁킨
▁장성
▁유년
▁준공
▁한강
▁할당
ㅇㅓㄴ
▁얼마나
▁금성
▁로고
▁동남아시아
▁빌헬
▁유출
▁루터
▁무효
▁밀양
▁창업
▁쇄
창기
▁관현
▁마찰
▁번뇌
▁식당
▁퇴각
▁파스
▁독립운동가
▁아울러
▁믿음
▁일화
▁적대
▁제휴
▁해임
▁뿔
외선
▁루수
▁고개
▁ㄴㅐㅅㅔ
▁메가
▁ㄷㅗㄹㄹㅕ
▁힌두
▁신칸센
▁ㅂㅣㄹ
▁ㅂㅏㄴ
▁히스
수수
▁가즈
▁국어
▁응답
▁승차
▁에티
12
전자
▁장인
▁하버드
포스
▁김용
▁j
일드
▁서독
▁시집
메르
▁마오
▁ㄱㅏㅈㅣㄹ
▁나미
▁상류
▁이순
니스트
붙이
▁ㅉㅗㅊ
▁성균관
▁소금
▁희극
▁프로토콜
▁연루
▁105
▁쥬
산군
▁매출
델피아
▁필라델피아
▁PS
▁동위
▁중점
▁소총
폴리스
▁외무
▁소닉
▁충족
▁패전
하르트
▁1500
▁3000
▁노드
▁성전
▁소지
▁ㄱㅓㅅㅡㄹ
악단
▁ㅍㅏ
▁저택
▁항공모
자와
▁박영
▁이노
▁125
▁MC
▁와인
▁젖
▁우정
▁청사
ㅜㄹㄹㅕ
▁1911
▁ㄷㅡㄹㅓㄴ
▁매개
▁146
▁사사
▁오클
▁아즈
원숭이
▁남인
▁예배
▁Le
▁추모
▁단점
▁성모
▁제트
▁ㄱㅜㄴ
ㅇㅓㅈㅣㄹ
▁조언
▁편곡
▁참가자
팩트
▁얇
▁서서
▁하마
ㄱㅜㄴ
▁술탄
▁여수
▁주권
▁원나라
▁보잉
▁천사
▁ㅂㅘㅆ
▁ㄴㅏㄱㅏ
ㅂㅗㄴ
one
▁남양
▁민국
▁환원
ML
▁강사
▁개원
▁증후
▁우주선
▁법령
▁Pro
▁포장
▁153
▁단원
네이
▁반격
라트
▁착공
▁패스
▁초창기
▁회계
▁고무
▁회화
▁ㄷㅙㅆㅇㅡㅁㅕ
▁곳곳
▁환상
▁ㅂㅕㄴ
▁자책점
▁고원
▁윌슨
▁ㄱㅣㅇㅜㄹ
▁회견
▁지지자
ime
ㅂㅎㅣㄴ
▁내내
▁나열
▁카자흐
AP
▁유언
서양
▁배구
▁일렉
상스
▁찌
▁연인
▁조르
▁리메
▁별자리
고속도로
▁점프
▁카트
▁미얀마
▁친척
▁셈
▁앞서
▁이복
▁특유
▁빌헬름
▁여래
▁지목
▁103
▁닭
▁고베
▁근접
▁따위
▁후자
OC
▁개업
▁소관
▁출입구
▁ㄸㅓㄹㅇㅓㅈㅕㅆ
▁오키나
▁디비
▁인격
제프
토시
▁석가
▁순천
▁기장
▁이어서
▁양상
▁일관
▁민사
▁ㅊㅏㄴ
▁대답
▁내지
▁클린
▁사지
▁공략
▁채무
▁유해
▁최적
▁오디오
▁북동부
▁비틀즈
▁정치가
▁룰
▁공인
▁진리
▁강수량
▁삿
노리
▁우편
▁인형
리언
▁위장
▁컨트롤
te
즈카
▁이원
▁보충
▁실종
▁이이
▁이글스
▁제의
▁토크
▁협동
▁ㅇㅓㄴ
▁나리
▁눈물
▁매력
▁중장
▁해역
동물
소스
▁허브
대군
▁공자
▁항공모함
▁취재
▁베르크
기니
▁매사
▁벗어나
어리
▁선원
▁주파수
Pa
▁레전
▁증후군
▁사우디아
▁ISO
▁으
▁게재
▁카타
▁155
▁ㅇㅣㄱ
▁상자
▁토리
▁오렌지
▁ㅇㅑㄱㅎㅏㄴ
▁별개
▁사가
▁ㄷㅚㄷㅗ
▁머물
▁전례
▁굵
받침
▁미소
▁버튼
▁민영
▁유격
▁이영
▁아군
▁테스
▁시립
항공
▁각기
▁합법
▁트라이
▁겸임
▁호칭
▁르네상스
▁ㄱㅓㄷㅜㄴ
▁사물
▁늘어나
▁승무원
▁각본가
마사
▁금액
▁법무
▁중종
io
▁ㄸㅡ
▁Con
▁배틀
▁#
▁스터
▁담배
▁유교
▁스파이
플러
▁Bo
▁연도
▁즐기
▁둘러싸
▁ㅇㅠㅎㅏㄴ
▁격렬
▁이인
▁평행
▁아리스
▁동등
▁성주
▁캐스팅
노프
▁108
▁히데요시
▁아바
▁나고
▁아케
▁모으
▁자발
▁사다
▁일족
▁캠페인
때로
시온
ber
▁상장
▁생일
▁이바
▁밭
▁ㅋㅓㅆ
▁포수
▁고체
ㅅㅣ
▁세균
▁레이저
▁서해
▁에이스
▁이슬람교
▁끈
▁치세
▁전두환
▁ㄹㅏㄹ
▁영동
▁나고야
▁일찍이
▁드라이브
pe
▁IT
▁앞면
▁콜라
▁해운
▁생명체
▁복장
▁에디
▁퍼시픽
▁감지
▁서서히
▁고발
▁던지
▁ㅇㅓㄷㅜㅇㅜㄴ
▁화살
▁토요일
▁ㄱㅓㅅㅡㄹㄹㅓ
▁브래
시티
퍼니
▁만세
▁때때로
▁상대방
▁시청자
모어
▁궁정
▁외곽
▁하우
라이트
▁사우디아라비아
▁메타
▁야간
▁골프
▁연혁
▁호세
▁교단
▁추격
▁가계
▁교장
▁1909
▁향후
▁ㅁㅏㅌ
▁이사장
▁트럼프
▁최저
가타
▁박탈
▁ㅎㅏㄴㄷㅔ
▁멈
▁어드
▁홍수
▁ㅈㅏㄱㅗ
▁크리스마스
ge
▁건의
▁메인
▁상부
▁입상
▁트위
▁아우구
▁태어나
ㅂㅎㅣㄴㄷㅏ
베이터
▁하인리히
▁무려
▁ㄷㅡㄹㅇㅕ
러미
화점
▁기금
▁김영삼
행위
▁댐
▁방침
▁속성
▁가르침
▁ㅈㅏㅁㅏ
▁ㅂㅓㄹㅣㄴ
구장
▁김태
▁개찰구
▁일생
▁외국어
▁유니폼
산리
▁긴장
▁초연
칠리아
산면
▁발현
▁ㅁㅏㅊㅣㄴ
▁ㅇㅣㄹㅡㄴ
▁앙리
▁중재
▁전도
▁시라
▁단기
집합
▁명의
▁수성
▁128
▁레전드
▁다중
▁톈
▁건축가
▁개관
▁물자
▁네이버
람회
▁리오
▁슬라
▁피고
▁지나가
▁ㄴㅏㅁㄱㅣㄴ
▁사이버
▁하이드
라미
▁부착
▁트루
▁102
▁149
▁ㅈㅏㅁㅏㅈㅏ
▁얘
▁대주교
▁송나라
▁포도주
▁보스니아
▁남한
▁전대
▁제작자
▁Bl
▁세미
▁텍스트
▁GT
▁정밀
▁캄보
▁아미노
▁운동장
▁섭취
▁안장
▁팽창
▁유소년
▁주지사
▁여진
▁취지
▁고가
▁존중
▁짜리
▁셸
▁가라
▁직책
▁굉장
▁에스파냐
▁기수
▁예시
▁대군
▁발원
▁기다리
▁자유당
▁ㅍㅜㄹㅡㄴ
▁ㄱㅏㅁ
▁컬러
▁ㅎㅓㄴ
트릭
▁숭배
▁포괄
▁계절
▁여주
▁토스
▁지나치
▁조리
▁중국인
iz
▁ㅁㅜㄹㄹㅓㄴㅏㅆ
▁강경
▁객관
▁향교
▁원자로
▁키프
▁입체
▁후안
DP
▁딩
▁쉐
▁시오
먼드
▁오키나와
▁고래
▁문양
▁팔레스
우라
▁계몽
▁촉구
▁차남
▁갓
나리
▁고사
▁낙선
orld
백과
▁병역
▁사절
▁탐지
▁블루스
age
▁동독
▁수평
▁통칭
▁최소한
▁여의
▁태생
▁룽
▁서사
▁턱
서리
▁토마
▁가져
▁음원
▁청장
▁스릴
▁추상
▁CPU
▁손가락
▁로프
▁경과
▁센서
▁에우
▁디스플레이
▁$
▁대니
▁볼리
▁패하
ㅜㅁㅕ
▁북방
ㅈㅜㄴ
수엘라
▁머신
▁원하
▁정말
▁그랑프리
▁리메이크
▁겔
▁프랭크
▁조반
▁아미타
▁ㅎㅡ
▁진군
차례
▁무죄
▁ㅁㅣㄹ
▁수군
▁시그
▁심의
▁침몰
▁147
▁충주
▁효력
노부
▁마하
▁명목
▁어업
▁팜
석기
▁엘리베이터
▁난민
▁전함
▁ㄷㅜㅇㄱ
▁마비
▁왜성
ㄲㅇㅕ
▁김진
▁저명
▁협조
▁127
▁171
▁제곱
▁종결
▁알코
▁hPa
워하
▁김재
▁ㅈㅜㄱㅇㅕㅆ
ik
▁경부
▁원고
▁후일
▁타이거즈
▁대처
▁수렴
▁스핀
ㄷㅓㄴ
▁노란색
▁로맨스
▁1915
▁모스
▁수동
포트
▁베네수엘라
▁라파
▁트윈스
▁신흥
▁윌리엄스
▁반박
▁부천
▁케네
▁세계관
▁투르크
▁추증
▁언론인
자스
EN
▁분광
▁주축
ㅓㅇㅝ
▁ㅋㅣㄹ
▁ㅂㅜㄹㅡㄴ
▁김수
▁전성기
▁1913
▁코프
▁동년
▁북구
▁옥스
▁그동안
▁타르
▁이어받
▁ㅇㅏㄷㅗ
▁부과
▁창시
ㄷㅚㄴ
▁풍경
▁시공
▁문학상
▁테니스
▁언제나
▁프레스
▁인재
▁황해
▁이민자
▁나가사키
▁al
▁개미
▁기습
▁탈환
▁닿
▁공직
▁출토
▁상당수
▁원반
▁위키백과
▁천문학자
기지
▁동력
▁따뜻
▁ㄱㅏㅈㅕㅇㅘㅆ
와라
▁보리
▁창건
트리올
▁몬트리올
▁SP
▁ㄲㅔㅅㅓ
▁뚫
▁드러나
▁ㄷㅏㄹㄹㅣㄴ
▁동당
▁차종
▁청원
▁강과
▁광년
▁아폴
▁ㅇㅓㅇㅛ
▁Tr
▁아사히
▁ㅇㅔㄷㅏ
▁네이션스
▁결선
무기
▁섭정
▁북서부
▁ㅁㅣㅊㅕㅆ
창군
▁대역
▁링컨
▁별칭
▁169
▁캄보디아
▁이틀
▁ㄱㅓㄹㄹ
▁스파르타
▁팔레스타인
sp
▁둘레
▁바흐
▁주차
▁ㅂㅜㄴ
▁ㅅㅟㅇㅜㄴ
▁정무
▁걱
▁동래
▁유수
▁아이템
▁대포
▁재미
▁태수
▁라이언
▁식별
▁적자
▁나주
▁유연
▁고백
▁수령
▁엔지
▁ㅂㅕㄹ
▁대제
▁카탈
▁이진
▁도호쿠
▁ㄷㅡㄴㅈㅣ
▁끊임
자치도
▁제주특별
▁제주특별자치도
▁온천
▁차기
▁ㄱㅏㄹㅡㅊㅕㅆ
포구
▁풋볼
MS
▁딴
▁광부
▁큰
▁신세
▁사회학
▁자기장
▁1895
선거
▁언더
▁후대
▁비문
▁총괄
▁북위
▁지폐
네스코
태우
▁영리
▁무제
▁남원
▁번영
▁리버풀
▁NC
▁135
▁베어스
▁141
▁초상화
▁ㅈㅓㄴㅎㅏㄴㄷㅏ
▁장학
▁폐위
▁후세
▁ㄷㅔㄹㅕ
▁다운로드
리에
▁ㅃㅗ
공신
▁날짜
▁대위
▁멈추
▁어스
명사전
▁무상
▁양주
▁총선거
▁한동안
▁ㄷㅜㄹㄹㅓㅆㅏㄴ
▁교원
▁거느리
▁십자가
▁하부
▁법제
▁삼진
▁조달
▁아틀레
▁해병대
▁탤
평군
ust
▁바실
▁여파
그라드
▁서울대
▁수용소
벌레
보기
키지
▁소환
▁휴전
▁111
▁관람
▁국사
▁소실
▁첨가
▁중소
▁컴퍼니
▁기요
▁원내
▁장미
▁제수
선스
▁위임
▁144
▁ㅂㅓㄹㅕ
▁CE
▁오빠
▁명백
▁미즈
▁서머
▁중순
▁신중
▁카리브
▁CO
▁인산
▁파업
박쥐
▁걱정
▁정전
▁천도
▁119
▁ㅍㅏㄴ
니치
GC
ep
▁불편
▁의상
▁휴식
▁이광
▁신학자
▁리어
▁민회
▁ㅇㅕㄱㅕㅆ
ib
▁더글
▁충실
크리트
▁스릴러
▁모방
▁ㅂㅗㅇㅣㄴ
▁고민
▁김포
▁당일
▁함유
▁내외
▁다니엘
▁스티브
▁문화방송
▁ㅈㅣㄴㅐㅆㅇㅡㅁㅕ
ian
▁선구
▁쇼트
루션
int
▁루시
▁TO
▁도스
▁실전
▁요르
▁TH
▁귀중
▁지능
▁172
▁두루
라이더
▁아레나
▁컬럼비아
▁드럼
▁소통
▁해수
리케인
케이션
▁시나리오
▁교양
▁연세대
푸스
▁케이스
▁ㄷㅜㅇㄱㅡㄴ
▁신학교
▁ㅆㅓㅅㅓ
▁ㅈㅏㄹㅏㅆ
그로
▁관통
▁총사
▁라이선스
▁간호
▁평야
▁엔지니어
▁허리케인
릴라
▁It
▁슈트
▁외교관
▁ㅈㅓㅇㅎㅏㄴ
▁공모
▁바퀴
▁병조
▁오세
▁정렬
누엘
ome
▁김상
▁증진
▁할리우드
▁꽤
▁선종
▁장난
ire
▁며칠
▁신탁
▁좌절
▁배신
▁신기
▁초과
▁항소
▁아이슬
▁유니버
▁카이사르
▁ㅆㅡㅇㅣㄴ
라리
▁격투
▁미토
▁약칭
▁총대
▁테레
▁106
▁유네스코
페르
▁We
▁마인
▁베드
▁연패
▁진짜
▁편리
▁스페이스
▁껍질
▁아벨
▁NBA
▁마이너
▁매카
▁미주
▁우연히
▁영남
▁평범
▁케네디
▁룡
▁쿤
▁공채
▁바치
▁에버
▁영장
▁낱말
▁콘크리트
▁그루
▁서남
▁표명
▁구조물
▁ㄱㅡㄹㅕㅆ
시로
▁역설
▁장려
▁겸하
▁인연
▁바이오
▁승점
▁의의
▁에스토
▁ㄴㅏㄴㄷㅏ
▁마츠
▁보완
▁지혜
▁평일
▁ㅎㅡㅌ
▁아이슬란드
러드
▁공의회
▁도주
▁부재
▁중량
▁ㅇㅜㄹ
▁니콜라
▁돌연
▁등재
▁애덤
▁콰
▁기울
▁열대
▁차이점
▁ㄷㅡㄹㅇㅓㅇㅗㄴ
치오
▁고수
▁오비
▁제갈
▁도라
▁묘역
▁합창
▁해변
▁덤
▁애틀
▁업계
▁전압
▁탱크
블로
▁공단
▁포격
내셔널
▁인터내셔널
▁부채
▁입지
▁치열
▁페르난
▁책임자
▁양도
▁장안
▁한성부
▁도르
▁발트
▁우라늄
▁단식
▁배터리
▁나스
▁레바
▁친일인
▁파이어
▁황태자
▁친일인명사전
▁오사
▁방패
▁생전
▁ㄷㅡㄹㅇㅓㅇㅘㅆ
▁바리
▁첼시
▁프랑수아
▁ㄷㅗㅇㅘㅆ
ere
ude
▁로열
▁ㅇㅣㄹㅇㅓㄴㅏㄹ
▁마약
주의자
▁스페인어
세츠
실록
말라
▁봉쇄
▁라이온즈
▁교외
▁파장
▁횟
▁투르
▁에스토니아
▁불명
▁통근
▁매사추
▁동문
▁호위
▁바라보
▁매사추세츠
▁신속
▁호프
▁ㅂㅓㅅㅇㅓㄴㅏ
의자
▁암석
▁주행
▁협주곡
▁대전광역시
유행
▁HT
▁상담
▁오피스
야시
▁다항
▁사슬
▁재위
▁충북
▁물러
▁상서
▁일조
오피아
▁리비아
▁에티오피아
ide
▁치즈
▁하락
▁DC
▁개그
▁슬로바키아
▁낭만
▁유동
ment
▁닝
▁생식
▁신생
▁여지
▁탈당
제리
▁고령
▁김기
▁시흥
▁어휘
ace
▁오노
▁지선
바이잔
▁CON
▁ㅁㅜㄱㅓㅇㅜㄴ
▁그로
▁특집
중국
▁우울
▁해소
▁대웅
▁서정
▁아드
▁위탁
▁추세
▁중심부
▁ㄴㅏㅃㅡㄴ
▁ㅂㅓㄹㅣㄴㄷㅏ
▁".
▁청하
▁물리학자
▁명제
▁응원
▁소유자
▁우루과이
번스
▁시선
IM
▁가면
▁기인
▁현금
▁육지
▁추출
아이
▁돌리
▁조연
▁아제르
▁중추원
▁친왕
▁평택
ㄹㄹㅓㅆ
▁실시간
▁퍼센트
▁닛폰
▁도루
▁의뢰
▁출처
▁병행
▁호기
▁아제르바이잔
▁ㅅㅜㅁㄱㅕ
▁패키지
▁국무총리
▁객체
마드
▁성운
▁시초
▁ㄴㅐㄹㅣㄴ
▁즈음
▁구이
▁바닷
▁얘기
▁푼
▁극동
▁부적
▁밟
하면
▁창고
▁나이지
▁노부나가
▁나이지리아
위원
▁브라우저
▁순회
▁지류
▁136
▁ㄷㅏㄹㅡㄴ
▁박해
▁전라도
▁구도
▁신념
▁휴스턴
▁1916
▁ㅃㅏㅈㅕㅆ
▁포터
▁쌍둥이
▁구호
▁바스
▁세션
▁입당
▁작센
▁결혼식
▁이사회
▁ㅊㅣㄹㅓ
▁고소
▁동상
▁허리
▁148
▁ㅂㅏㄲㅝ
▁우세
바다
석탑
▁실리
▁의약
▁중위
▁딕
▁막내
▁ㄱㅏㅎㅐ
층석탑
▁IBM
▁리틀
▁말리
▁워드
▁스튜어트
▁솜
▁수습
면체
▁신규
▁실장
▁펌
승지
▁격퇴
▁애틀랜
▁닷
▁되게
▁해적
▁서재
▁저하
▁급격히
▁산림
▁냉각
▁분당
▁안성
▁이세
▁138
시피
▁거론
▁경연
▁극히
▁깨달
▁백색
▁아마도
▁면허
▁도장
▁원숭이
▁LP
▁성숙
▁해밀
▁라이브러리
▁la
▁시즈
▁시칠리아
아나
▁대의원
▁가동
▁인플
▁택시
▁신한
▁데이비스
▁앓
▁옴
▁전념
▁삼국지
타로
▁만남
▁탐구
▁백화점
▁후쿠시마
▁잦
▁니아
▁반감
▁회고
▁감리
▁동점
▁주이
▁평원
▁비리
▁대표작
▁테이블
▁최상위
▁반경
▁사헌
▁현종
▁360
고쿠
▁기단
▁이식
▁코무네
▁ㅅㅏㄴㄷㅏ
▁게르만
▁도미
▁리우스
▁스톡
▁환영
▁ㅇㅔㄹ
▁라트비아
▁ㅈㅓㄴㅎㅐㅆ
람쥐
▁최악
▁토성
▁한스
▁한쪽
▁횟수
▁ㄴㅓ
푸르트
▁고성
▁치명
▁혈통
▁모니터
양함
▁오해
▁반도체
▁중성자
▁ㅂㅜㅌㅇㅕㅆ
대신
▁구릉
▁ㅈㅓㄴㅎㅏㄴ
토모
▁En
▁사우루스
데시
▁트래
▁104
▁그램
▁야구장
▁영의정
▁페르디
▁부당
▁피에
▁후방
타나
▁가짜
▁성체
▁오바
▁칼라
▁ㄱㅏㅂㅕ
cl
리니
▁그날
▁산란
▁ㄴㅏㅌㅏㄴㅐㄹ
▁공천
▁상공
▁임용
▁주가
▁ㅊㅣㄹㅓㅈㅣㄴ
▁아부
▁재현
▁춘추
▁플랜
▁ㅃㅐㅇ
▁거행
▁발해
▁복선
▁뢰
▁기어
▁레논
▁음료
▁잔류
▁순교
▁사헌부
▁거제
▁여당
▁팔라
하시
▁성취
베르토
▁대학생
타고
▁없애
▁춘천
래스카
▁ㅅㅣㄹ
▁ㅇㅕㄱㅕㅈㅕㅆ
▁AK
▁시바
▁109
▁다스리
▁방송사
마쓰
▁비시
▁주주
▁증대
▁힘입
▁Mar
▁명령어
▁스트레스
▁랄
▁릉
▁견제
▁나비
▁피츠
회장
▁루프
▁휠
스틴
▁우위
▁적분
▁품종
▁현저
은색
▁왜냐
▁폭동
▁폭행
▁교황청
▁맵
▁차장
▁이에야스
여래
▁고인
▁고치
▁목판
▁한인
▁제독
▁축적
▁열정
▁ㅅㅐㄱㅕㅈㅕ
▁공수
▁플라이
글리
브레
▁매입
▁아홉
살이
▁AR
▁CS
▁송시
▁123
▁주역
▁축하
곡리
▁육체
▁이윤
▁정점
▁ㄱㅚ
▁분비
▁수련
▁하워드
▁호랑이
▁ㅂㅕㄹㄷㅏㄹㅡㄴ
▁킥
▁카자흐스탄
▁다발
▁사모
▁유한
▁이케
▁터치
▁ㅇㅑㄱ
▁충전
▁광학
▁아담
▁모이
▁억압
▁통증
▁히어로즈
▁주름
▁해명
권자
헤이
▁기적
▁바나
란히
▁소매
▁연합회
차기
▁관구
▁공산주의자
▁다이아몬드
AL
은이
▁경관
▁래퍼
▁법조
▁팡
▁햇
라클
▁요하
실베이
실베이니아
▁신조
▁펜실베이니아
▁ㄷㅣ
▁광물
러스트
ies
▁왓
▁Op
▁드로
▁암시
▁규범
▁처녀
더슨
▁벌금
▁청춘
ㅀㅇㅓ
▁사업자
포드
▁히메
▁부르크
▁생산량
▁ㅁㅗㅅㅎㅏㄹ
법인
▁리우
▁상용
▁ㄱㅘㄴㅎㅐㅅㅓ
▁마야
▁남동부
▁ㄷㅏㅅㅡㄹ
바시
▁목재
▁베스
▁존속
▁상점
▁컴파
▁CC
▁염기
▁143
▁태양계
▁ㄴㅏㄴㅜㄹ
▁살리
▁펑크
▁룬
▁상반
▁ㄴㅔㄴ
▁박람회
▁ㅅㅣㄹㄹㅕ
▁자민
▁소나타
▁너비
▁아예
▁무지
▁블로그
▁가죽
▁제프
▁티스
▁경상도
▁동아일보
▁성사
▁신주
브리지
▁공습
▁보석
▁사육
▁신약
▁이화
▁ㄴㅗㄹㄹㅏ
▁ㄷㅓㅅㅂㅜㅌㅇㅕ
▁공관
▁노바
▁적당
▁분기점
▁종로구
▁롤링
▁ㅌㅓㄴ
▁평의회
ile
▁국소
▁부설
▁조세
▁토모
▁라오스
▁가군
▁김경
▁부제
▁ㄴㅗㄹ
▁조선일보
▁운하
▁태권
▁비자
▁우유
▁유로파
▁친일파
▁근교
▁레일
▁왜곡
▁블라디미르
▁헤비
▁알코올
▁상단
▁서진
연합
▁이타
▁ㄷㅜㄹㅕ
▁ㅃㅏㅈㅣㄴ
▁잊
▁허위
▁황실
▁ㅂㅜㄷㅡㄹ
▁동국
▁나트
ㄷㅡㄹㅇㅕ
▁날씨
▁공익
▁말라
▁맥락
▁몰리
▁비유
▁RNA
▁범인
▁설탕
▁통영
▁ㄴㅡㄹㅇㅓㄴㅏㅆ
▁경보
▁ㅁㅗㅇㅏㅆ
산동
▁마디
▁소셜
▁협박
레기
▁Pr
▁유죄
▁굉장히
▁트위터
▁ㄲㅡㄹㅇㅓ
▁상사
▁확신
▁col
▁ㄱㅏㄷ
▁시골
비나
수리
ite
▁인체
▁제재
▁112
▁ㅇㅝㄴㅎㅐㅆ
▁인문
▁대폭
▁성단
▁신민
▁플러스
▁전자기
▁ㄸㅡㄱㅓㅇㅜㄴ
▁Te
▁맥주
▁카롤
▁ㅊㅕㅆ
▁브라더스
▁미르
▁미션
▁시어
▁루이지
▁장거리
▁ㄷㅏㄹㅎㅐㅆ
xt
▁구출
▁깨닫
▁누이
▁우승자
▁왜냐하면
달리
▁아랍어
▁중의원
▁카를로스
▁흠
기업
▁누나
▁성별
▁포럼
▁양키스
▁시베리아
▁CF
▁근원
▁경찰청
▁키프로스
도바
▁믹스
▁법무부
▁나르
▁연쇄
▁히사
도리
의장
▁보증
▁창원시
▁필터
▁126
▁뛰어나
▁이순신
▁ㄱㅜㅎㅐ
▁ㅅㅗㄱㅎㅐㅆ
▁깔
▁거북
▁실체
▁자선
▁개교
▁당주
▁언니
▁우호
▁107
▁단단
▁수법
▁핸드
▁이산화
스부르크
▁교과서
▁탐사선
랑카
▁가마쿠라
ㅈㅣㅁ
▁117
▁SE
▁신선
▁갈라
▁구축함
▁결함
▁탐색
▁다크
▁빨간
▁소원
▁거울
▁일방
▁희생자
▁ㄴㅡㄲㅕ
()
고래
▁빈곤
▁입원
▁후사
▁냉전
아다니
▁ㄷㅡㄹㅓㄴㅏㅆ
▁양측
ath
▁인명
ound
▁ㄷㅜㄷㅡㄹ
▁ㅇㅣㄱㅣㄴ
▁곡인
▁조종사
ft
나스
단체
▁몰래
▁제니
▁ㅈㅏㄹㅏㄴ
▁is
▁천장
▁KIA
▁공방
▁샘플
▁수색
▁이브
▁투옥
▁후궁
ㅣㄹㅏ
▁할머니
그레이드
▁쏟
▁자아
▁지평
▁교정
▁이경
▁게스트
▁살아가
▁세라
▁350
▁수용체
▁ㅂㅏㄷㅇㅏㄷㅡㄹㅇㅕㅆ
▁제대
▁삼층석탑
▁ㅂㅣㄹㄹㅕ
▁업그레이드
▁퐁
▁문예
승부
▁네스
▁승계
▁송시열
ㅇㅏㄴㅐㅆ
▁철회
▁com
▁고속도
▁도마뱀붙이
OL
다지
▁신시
▁ㅊㅏㅈㅇㅏㅂㅗㄹ
▁ㅆㅗ
▁칭찬
▁그만두
▁물리치
▁통틀
▁핵무기
▁데모
▁줄무늬
▁클라우드
▁성도
▁판본
▁ㄷㅡㅁ
▁대웅전
▁삼성전자
▁ㅅㅐㅇㄱㅕㄴㅏㅆ
▁IM
▁상표
▁진공
▁맘
갈색
▁도청
▁말씀
▁극장판
▁근로자
▁테이프
크라
▁결코
▁옆면
▁워터
베니아
▁아카데미상
▁요약
▁내려오
▁라이너
▁일반인
▁CR
▁세속
▁173
▁나아가
▁ㄷㅏㅁㄱㅕ
▁ㅂㅏㄹㅡㄴ
▁ㄷㅏㅁㄱㅣㄴ
▁헥
끼리
ond
▁문구
▁키우
▁해고
▁고고학
▁연합국
ㄷㅣ
수소
▁궁극
▁방화
▁121
▁알제리
▁Am
▁LC
▁스캔
▁아야
▁진급
▁포병
▁브로드
▁사생활
▁슬로베니아
마루
▁화장실
▁ㅂㅏㄴㅎㅐ
로니
▁ㅌㅓ
▁일가
▁항쟁
▁113
▁137
▁멜로디
▁킴
▁가축
▁그냥
▁김현
▁만일
▁펠리
▁기업인
▁ㄷㅏㄴㅕ
▁ㄸㅣㄴㄷㅏ
무스
시타
지붕
▁치안
▁1894
▁ㅇㅘㅆㅇㅡㅁㅕ
박스
▁대명
▁드레
▁비르
▁약력
▁ㄴㅏㄴㅝ
▁ㄱㅓㄴㄴㅓㄱㅏ
▁공백
▁레온
▁바우
▁끄
▁냄
조부
▁ㄷㅜㄹ
▁빨간색
▁프랑크푸르트
ov
ory
▁타당
▁몬스터
▁ㅎㅣㅁㄷㅡㄴ
▁지미
▁카카
▁화해
▁캐시
▁시뮬
▁제인
▁최강
▁게이지
▁도미니
▁바티칸
▁ㄹㅐ
▁말년
▁ㄷㅏㄹㅇㅏㄴ
▁z
▁헐
▁왕복
▁초월
▁둥지
게이머
▁바오로
▁프로게이머
축구
톨레
▁SU
▁무어
▁럼
▁농림
▁야쿠
ㅜㄹㅕ
▁ㄴㅗㄴ
▁오프닝
▁총독부
▁코스타
▁ㅇㅣㅇㅓㅈㅣㄴㄷㅏ
규모
man
▁미키
▁원전
▁피오
리안
▁계정
▁용병
▁적도
▁물려받
▁공민
▁구절
▁옵션
아프리카
▁사상자
▁야마토
▁ㄱㅓㅊㅕㅆ
로이
▁군정
▁요동
▁혈관
린스
▁먼지
▁서민
▁크리스토퍼
블리
▁기질
▁필리프
▁대피
▁학명
▁남서부
▁사쿠라
▁주어지
▁최대한
▁커뮤니케이션
대기
▁가루
▁내정
▁학계
▁World
iver
▁ㅁㅏㅅ
▁가장자리
▁ㅎㅐㅈㅕ
퍼런스
▁극심
▁즉각
▁횡단
▁뒷면
▁욕구
▁곤란
▁정세
▁그랜
▁돌격
셰비
▁개종
▁성문
▁124
아키
▁ㅂㅜㅌㅇㅣㄴ
▁로이
▁국내외
▁침투
▁독일인
▁배후
▁곁
▁모친
ㅌㅏ
▁자비
▁하동
▁1890
▁관세
▁평정
▁파이널
겨나
▁On
▁외모
▁우파
▁체크
프레스
▁ㅅㅕㅆ
▁탤런트
▁프로덕
▁강서
▁서초
▁미루
▁브리지
▁New
▁로우
▁땃
▁제압
▁트로이
줄기
▁데르
▁이드
▁분명히
▁오리콘
▁뉘
▁EC
▁풍자
▁계열사
▁드라이버
IP
▁러시
▁징계
▁초록
▁자연수
▁륙
▁감자
▁내주
▁디렉
▁체조
ich
▁고장
▁챌린지
드르
▁be
▁관음
▁봉건
▁설화
▁ㄸㅏㅆ
ㄱㅎㅣㄴ
▁SD
▁vs
▁그치
▁매매
▁선비
▁부작용
▁ㄷㅓㄴㅈㅕ
▁뉴턴
▁정변
▁ㅈㅜㄹㅇㅕㅅㅓ
▁쾌속
▁아름
지스
▁괴물
▁이소
▁114
▁검찰청
▁블랙홀
▁ㄷㅏㄹㅜㄴㄷㅏ
▁미노
▁베니
▁연이
▁예조
▁유저
▁소규모
▁맑
▁정주
▁베네딕
▁플래시
대원군
▁방사선
ial
▁그대
▁대거
▁김정일
▁매니저
▁알루미
▁므
렉스
▁태극
▁코믹스
▁사로
▁영산
▁자음
▁아랫
▁컨셉
▁태그
▁학업
▁안토니오
먼스
▁공감
▁경신
▁이준
▁자오
▁ㄴㅜㄱㅏ
hn
▁퇴임
▁ㄹㅠ
▁캔자스
▁ㄷㅡㅁㅜㄴ
▁시정
▁지침
▁ㄱㅕㅂ
ㅌㅔ
▁군중
▁답변
▁양호
▁요정
▁팔리
▁컷
황후
▁Sc
▁어미
ign
▁가드
▁에미
▁조부
▁중형
▁ㅂㅗㅇㅣㄹ
▁악단
▁자택
▁115
▁구스타
▁벵
▁빔
▁김규
▁스칼
▁운수
▁앵글
▁이남
▁118
▁시위대
저지
▁통치자
▁연승
타리오
▁공조
▁비로소
▁세이브
▁윤치호
▁ㄱㅗㅊㅕ
▁`
조건
▁체스
▁원로원
TS
▁비주
▁과반
▁변이
▁하프
보르
▁진사
▁일리노
▁대부
▁생체
▁저널
▁남미
▁ㅁㅔㄴ
▁종착
▁주부
▁물러나
▁일리노이
닐라
▁로그
▁용이
▁키르
▁혜택
▁크리스티안
하루
▁증손
▁하르
▁헬리
▁무승부
▁우즈베
▁믹
▁동정
▁땃쥐
▁지인
▁취업
▁경찰관
▁승부차기
▁구와
▁카우
▁커널
▁흔하
▁1898
ㅇㅗㄴㄷㅏ
기념
문트
▁숙청
▁퍼지
▁뉴저지
▁레바논
▁마력
▁만료
▁재상
▁넘어가
▁힌두교
▁남구
▁ㅋㅣㄴ
고스
▁기각
▁밝기
▁본국
마이오스
▁GP
▁극작
▁맥도
▁서자
▁종속
▁미하일
▁소방서
▁모로코
▁ㄴㅏㅇㅗㄹ
▁소모
▁밀집
▁외관
▁파란색
함수
▁GS
▁미세
▁헬기
▁바빌
▁빌라
바닥
▁축출
▁통보
교도
▁순조
▁우측
▁ㅍㅜㄹㄹ
▁ㄲㅏ
▁뇌물
▁III
▁반지름
▁ㅇㅓㄹㅕㅆ
벨트
펴보
▁스폰
▁전년
▁직면
▁코카
▁필사
▁ㅇㅓㅉ
▁살펴보
▁성리학
▁왕세
▁웨스턴
▁체코슬로
▁체코슬로바키아
▁렐
▁ㅈㅛ
▁선도
▁한족
▁리뷰
▁솟
▁사적
▁희귀
▁쯔
미사
히코
▁예고
ph
쟁이
▁ㅁㅓ
▁관제
▁웹툰
▁ㅇㅣㄲ
▁레슬링
▁스크립
▁붐
▁그레고
▁디비시온
▁프로덕션
시즘
▁케빈
▁범유행
속기
▁기증
▁연예인
▁가옥
▁배수
▁척추
▁천재
타니
▁서신
▁지출
▁케냐
▁호출
▁129
▁시가지
▁캉
▁무성
▁카디
ㄷㅜㄴ
▁젊은이
레타
▁발급
▁종래
▁대변인
▁의약품
▁알루미늄
▁광해군
틱스
화물
▁패럴
▁화력
테르부르크
▁ㄷㅡㄹㅇㅓㄱㅏㄴㄷㅏ
▁맏
슬러
▁말미
▁모나
▁승자
▁임원
▁파산
▁외야수
▁로비
▁발병
▁봉안
▁페널
ㅇㅓㅅㅓ
▁ㅇㅣㄲㅡㄴ
▁ㄷㅜㄹㅕㅇㅝ
▁Ne
▁스타리그
▁센티
▁재혼
▁컴백
▁개막전
▁옳
▁등기
▁ㅇㅡㄴㄷㅔ
▁워크
▁중산
▁창출
▁ㅎㅏㄴㅌㅔ
▁부스
▁요건
▁응시
▁켈리
▁폭넓
▁ㄷㅏㄹㅎㅏㄴㄷㅏ
치기
▁난징
▁실망
▁어른
▁핑크
▁1899
▁벨라루스
▁글루
▁부의장
▁원천
▁재선
▁첨단
▁연산자
▁총사령
▁무명
▁마운트
▁사위
▁저주
▁전속
▁중공
▁지우
▁세이부
개미
그리
▁부피
▁성폭
▁지옥
▁청산
▁케임
▁사용자
▁러셀
▁미들
▁예하
▁토양
▁회관
▁브리튼
TA
코딩
타리
▁싸이
▁총칭
▁천문대
▁확실히
▁사본
▁장례식
▁키보드
▁일컬
▁기술자
▁플라스틱
rom
▁웬
▁황족
우트
▁커지
▁뒷받침
▁ㅈㅗㅎㅇㅏ
▁드림
▁오오
▁워너
▁스트리
▁토끼
▁희곡
▁ㄷㅓㄴㅣ
포로
▁유진
▁ch
▁유방
▁각도
▁남작
▁토미
▁ㄱㅜㅎㅏㄹ
수록
▁감행
▁안테
느러미
▁ㅎㅡㄴㅎㅏㄴ
▁괘
도스
▁구경
▁벽돌
▁시범
▁142
▁공리
▁양반
▁오크
▁옹립
▁혼동
▁ㅈㅓㄱㅎㅕ
MA
▁ID
▁거래소
▁ㄲㅣㅊㅕㅆ
▁조지프
▁ㄸㅏㄹㅡㄴㄷㅏ
로우
▁설교
▁ㅎㅣㅁㅆㅓ
▁덧
▁퉁
버리
▁독서
▁리프
▁사간
▁소생
▁교통국
ens
▁대치
▁폭포
▁월요일
토르
▁감마
▁만성
▁대패
▁벨트
파이어
▁타임스
▁프란츠
▁제국주의
pp
▁학기
셰비키
방송공사
진군
▁BS
▁CJ
▁공적
▁병기
▁유라
▁ㄱㅏㅇㅎㅐ
▁닦
▁광둥
▁채소
▁화자
▁아리아
ction
▁ㅇㅓㄹㅕㅇㅝ
urn
▁신원
▁형조
▁도카이
타주
▁무함
▁피겨
▁화상
▁프톨레
▁더글러스
▁ㄷㅜㄴㄷㅏ
▁프톨레마이오스
▁가야
▁정성
▁룩셈
▁본문
▁시코
▁중복
lan
▁스턴
▁ㅅㅔㄹ
▁마르티
▁룩셈부르크
럴드
▁JT
▁김지
▁수분
▁트리플
▁온타리오
아먹
▁보위
▁의자
▁Man
▁ㅇㅣㅀㅇㅓ
▁ㅇㅣㅀㅇㅓㅂㅓㄹ
▁체류
▁대서양
▁부여받
ert
▁끊임없이
▁발리
▁제네바
글라
▁마녀
▁시가
▁영문
▁왼손
▁청주시
브르
▁자크
▁축물
롤라이나
▁밍
▁선배
▁금요일
▁스즈키
샤바
▁서류
▁그래미
▁점성술
▁콕
▁서장
▁촉매
▁코시
덩이
▁동네
▁정적
▁피신
▁플랫폼
▁게리
▁선행
▁유체
▁광주광역시
▁익스프레스
▁동학
▁1902
▁간선
▁물품
▁발기
▁함정
두리
▁기사단
천리
▁명종
▁혐오
▁다항식
▁호르몬
▁ㄱㅓㄹㄹㅕㅆ
▁ㅇㅚ
▁간토
▁기차
▁늘리
▁니코
▁포획
ㅆㅏㄴ
▁보이스
▁표기법
▁''
▁가환
▁깃발
▁엔딩
▁정려
▁표적
▁강변
▁국영
▁독성
▁ㅉㅗㅊㄱㅕ
▁ㄱㅏㅂㅕㅇㅜㄴ
크로
▁버드
▁우체
▁초신
▁스위치
▁러시아어
▁준결승전
▁ㅂㅜㄹㅡㄹ
▁몫
▁그릇
▁ㄴㅡㄲㅕㅆ
그룹
▁단절
▁영등
▁서유럽
▁ㄸㅏㅇㅗㄴ
▁ㅇㅣㄹㅜㄴ
lic
▁사슴
▁관광지
▁마스크
▁바깥쪽
▁지식인
▁수확
▁위쪽
▁타케
▁코끼리
aw
ㅏㅅ
▁나노
▁약자
▁ㅇㅓㅇ
▁머무르
▁메커
▁치아
▁소나무
▁ㅊㅐㅇㅝ
▁매수
▁ㅊㅏㅈㅇㅏㄱㅏ
▁기니
▁원종
▁해밀턴
▁광명
▁동행
▁세비
▁정립
▁판례
▁갈수록
▁ㅇㅣㄱㅕㅆ
▁갈릴
▁참의
▁아이오
ys
ach
▁불꽃
▁연꽃
▁정동
▁ㅍㅣㄹ
폴리
▁개소
▁면제
▁부가
▁상금
▁슈팅
▁입각
▁주조
▁검열
▁대합
▁성지
▁전방
▁조립
▁채우
▁탄도
▁비석
ㅐㄹㅕ
▁ㄴㅏㅅㅓㄴ
▁하단
▁비행장
▁아돌프
짓점
▁고아
▁복용
▁역량
▁기숙
▁대손
▁마블
▁입국
▁꼭짓점
▁부회장
▁단축
▁보복
▁소시
▁염증
▁퀘벡
▁크롬
▁이용자
TC
▁강동
▁실버
▁원료
▁뮤지션
▁이단
▁헌신
레슬링
▁ㅅㅓㅁ
▁연기자
▁ㅈㅔㅎㅏㄴ
카가
텍처
▁갱신
▁산출
▁색채
▁쓰촨
▁울프
▁입성
▁고양시
▁아키텍처
▁박지
▁아산
▁열도
▁하치
▁간단히
LS
디나
타임
▁직결
▁코코
▁1901
▁포켓몬스터
▁No
▁광대
▁브뤼
▁에디션
▁패밀리
구르
▁염색체
out
▁드라
▁커스
▁삿포로
▁토착종
▁페널티
ㅎㅇㅏㅆ
▁페르디난
▁ㅆㅏㅎㅇㅏㅆ
▁민감
▁생생
▁임관
▁체르
▁특권
▁폭격기
▁스텔
▁습지
▁쿄
미트
테인
▁단의
▁대두
▁보트
▁드러머
국사
▁극대
▁누적
▁서문
▁압둘
▁축조
▁표방
▁매카트니
LE
▁꾀
▁권총
▁이현
나우
피어
▁ㅅㅑ
▁생략
▁제로
▁프로레슬링
링턴
▁공명
▁어류
모스
▁수축
▁일산
▁카미
▁사이토
▁영국인
어내
자르
▁레즈
▁분수
▁리더십
▁요르단
▁ㄲㅜㅁㅕ
IG
▁공예
▁호모
▁케임브리지
▁김창
▁라그
▁천하
▁아라비아
루아
▁페니
▁ㄷㅏㄷ
▁ㅅㅡㄴ
▁경성부
▁ㅇㅣㄹㅇㅡㅋㅣㄹ
▁낫
▁안경
▁자작
▁바이킹
▁ㄴㅏㄱㅏㄹ
▁울산광역시
▁여운
▁메커니즘
아웃
▁소말
▁실적
▁도요토미
ug
▁렘
▁아브
▁오쿠
▁정문
▁사회당
▁례
▁차르
▁화강
▁kt
▁고산
▁체중
▁하비
▁언어학
▁발렌시아
▁ㄱㅏㄲㅏㅇㅝ
▁ㄷㅏㅇㅎㅏㄴㄷㅏ
▁동조
▁원본
▁터보
▁특색
▁광저우
▁ㅍㅐㅎㅐㅆ
▁알렉산드르
▁무궁
▁보헤
▁학대
▁쓰레기
▁아리스토
▁아시카가
▁옥스퍼드
▁ㅇㅓㄹㅕㅅㅓ
▁MB
▁이태
▁그다지
파르
▁비타
▁조이
▁갈리아
▁사업가
▁이병
▁조수
▁퇴역
▁노태우
▁장기간
▁트로피
▁홈구장
▁ㄴㅜㄱㅜㄴ
▁섹스
▁어둠
▁회상
기스
▁선동
▁제치
▁카프
▁토기
▁All
▁개인전
쿠버
펜하
▁교대
▁다마
▁불신
▁크레이
▁기르
테르담
▁134
▁쟈
▁마우
▁질소
▁파이터
카미
▁연봉
노미야
ype
▁개화
▁현은
라이어
▁방송인
▁두께
▁조형
▁전염병
▁피고인
▁아인슈타인
올로
▁스님
▁원더
▁취항
ㄴㅎㅏㄴㄷㅏ
▁알렉산드리아
▁Cl
▁EX
▁THE
▁당연히
▁푸에르
▁무함마드
▁검출
▁김제
▁어뢰
▁ㅈㅓㅇㅎㅐㅈㅣㄴ
ke
대장
▁공고
▁루타
▁ㅇㅕㄴ
▁만주국
▁지도부
▁1903
정리
ase
▁공황
▁드레스
▁모서리
▁ㅍㅐㅎㅏㄴ
그라
카타
퀘어
▁반공
▁릿
그래
▁패널
▁AN
▁가역
▁전위
▁좌측
▁토요
▁헌정
베트남
▁ㅂㅓㄹㅇㅣㄴ
사리
하키
▁강간
▁명하
▁모모
▁삼촌
▁배우자
▁이성계
▁야마구치
그레
▁노보
▁마키
▁미륵
사이드
▁방글라
▁컨트리
▁1884
▁방글라데시
▁기분
▁아폴로
방울
▁구형
▁물가
▁직경
▁파병
▁쓰시마
리코
▁김홍
▁와일드
처스
▁Gr
▁각색
▁남매
▁단면
▁에콰
▁취미
▁코믹
▁미시시피
▁에콰도르
▁이관
▁하리
▁One
천사
▁로저
▁상고
▁우치
▁인질
▁캐서
▁함선
역학
CAF
▁정유
▁LA
▁동이
▁둥글
▁슬라브
▁세키
▁회피
▁히타
▁기념관
▁그레이트
▁대구광역시
▁실재
▁정선
▁기념비
▁더욱이
▁앰
▁데카
▁밀란
▁토시
▁1800
▁군산
▁장벽
▁조승
▁복합체
라이언트
가와현
▁신도비
▁아나키
▁ㄲㅡㄹㄹㅕ
▁ㄸㅏㅇㅘㅆ
▁염소
▁진전
▁오사카부
▁와이번스
ㄷㅡㄹㅇㅕㅆ
▁발칸
▁의결
▁ㄷㅏㅇㅜㄴ
▁ㅃㅐㅇㅏㅅ
▁ㅎㅏㄹㅈㅣ
▁클라이언트
▁네오
▁준주
▁중령
▁클라이
▁아미노산
▁ㅈㅣㄴㅕㅆ
불교
히토
▁강대
▁실무
▁우회
▁마르틴
▁프란체
▁히로시
▁중앙아시아
나미
▁구스
▁군함
▁상트
▁에밀
▁프레드
▁ㄷㅡㄹㅇㅓㄱㅏㄹ
▁농부
▁상응
▁도널드
▁콤팩트
▁북아프리카
네마
▁IN
11
▁경작
▁퇴적
▁티코
▁니콜라이
▁샌디
▁추첨
가르
▁}
니시
▁CN
▁간신
▁대문
▁음향
▁조반니
▁분량
ㄹㅣㅁ
▁복소수
▁충청도
▁미라
▁소자
▁유부
▁이북
▁전구
▁진료
▁마르코
▁무너지
▁ㅅㅏㄹㅍ
▁ㅂㅏㄺㅎㅣㄴ
▁효고
▁꼭대기
ree
▁곡물
▁구약
▁도선
▁상가
간지
▁달걀
▁카사
▁팰
번뇌
▁관절
▁비뉴
▁철폐
테이션
▁ㄴㅓㄼ
▁선우
▁추론
▁팟
사우
▁공약
▁당수
▁심화
▁쥐과
▁소행성
▁일자리
▁기저
▁종말
▁갤러리
▁총대주교
파리
▁까닭
▁뒤집
▁무슨
▁분출
▁민간인
pt
포터
▁가산
▁상경
▁유대교
▁전시회
ary
▁GO
▁거짓말
▁데스크
▁방사성
ass
▁가열
▁가오
▁한층
▁다케다
▁꿀
▁Ad
▁건륭
▁교량
▁권장
▁러스
▁브란
▁신축
▁용서
▁전복
▁침체
▁득표율
▁카스티
ㅔㄴ
act
▁델타
▁돌기
▁정화
▁하차
▁뉴욕주
▁대성당
▁소수자
▁스토어
사업
▁Br
▁ㄲㅐ
▁가신
▁대출
▁뒤쪽
▁반전
벤처
산성
▁감안
▁격차
▁해남
▁활주
▁흥선
▁ㅍㅣㄴ
▁가브리
▁with
▁ㅆㅏㅇㅝ
▁어드벤처
▁강희
▁모리스
▁ㅁㅗㄹㅡㄴㄷㅏ
▁수목
▁교도소
▁마가
▁막스
▁시야
▁자형
▁진행자
▁일렉트로
구역
▁견인
▁궁중
▁급수
▁냄새
▁상법
▁ㅇㅡㄹㅕㄱㅗ
산맥
▁복권
▁우물
▁장자
▁반군
▁샌드
▁이반
▁116
▁220
▁지지율
개골
▁등용
▁로라
▁볼리비아
▁ㅂㅜㄷㅡㄹㅓㅇㅜㄴ
▁창녕
▁칼뱅
▁현감
▁거주지
▁기관총
▁남동생
▁ㅈㅡㄹㄱㅕ
▁절단
몰로지
▁인테르
▁페이스북
▁깨끗
▁카를로
▁1860
ark
▁경인
▁민정
▁버마
▁체력
▁폭로
▁스트라이크
▁ㅅㅣㅋㅕㅆㅇㅡㅁㅕ
▁연대기
▁스크립트
▁글래
▁기슭
▁디트로
▁마카오
▁포스터
▁디트로이트
▁갈래
▁발령
▁접수
기념물
▁버클리
▁ㄷㅗㄹㅇㅏㄱㅏ
▁마니
▁농사
▁무로
▁애리
▁올드
▁일파
▁ㅅㅐㄱㅕㅈㅣㄴ
▁다가
▁맞붙
▁세바
▁1897
▁Ex
▁낙동
▁신정
▁오로
▁중원
ream
▁홉
곡동
▁후반기
▁나루
▁평창
▁떡
▁단행본
▁중공업
▁카타르
▁대관
▁찰리
▁후작
▁가의
▁리만
▁태백
▁모티브
▁애칭
▁종파
▁ㅈㅏㅁ
▁사카이
▁일부분
▁홍문관
▁보성
▁상트페
▁상트페테르부르크
▁벽화
▁아소
▁쿠니
▁타우
▁솔루션
▁북경
▁전격
▁강남구
나드
▁리조
▁장제
▁ㅇㅗㄹㄹㅏㄱㅏㄴㄷㅏ
▁과실
▁동형
▁왕정
▁입주
▁적군
▁안산
▁ㄹㅠㄴ
▁아름답
▁캐서린
▁바르샤바
▁전산
▁학력
▁죠
▁델라
▁르노
▁브랜
▁미네소
▁속편
▁카즈
▁합당
▁ㄱㅡㄹㅕㅈㅣㄴ
거진
츠크
푸르
▁사살
▁ㅇㅗㄴㄷㅏ
▁ㅈㅏㅂㅎㅕ
▁수중
▁제작사
▁경제학자
▁애틀랜타
▁셜
▁Is
▁공손
▁돌입
▁서리
▁수료
▁호쿠
▁휴가
ㅂㅏㄹㅡㄴ
▁한국방송공사
▁넘기
▁저렴
▁효종
▁교육청
▁청소
▁팔레
▁공용어
▁클라크
▁섀
리즘
반구
▁;&
▁con
▁가가
▁스퀘어
▁ㅈㅜㅇㅓㅈㅣㄴㄷㅏ
▁리히
▁무술
▁집결
▁알프레
▁유닉스
세기
▁신동
▁프렌
▁확진
▁가져오
▁1880
▁ㅁㅜㄹㄹㅣ
부리
▁BM
▁소행
▁이빨
▁122
▁안드레아
▁깎
▁고토
▁느리
▁분파
▁정경
▁쥐속
▁타협
▁마라톤
▁함부르크
▁ㄷㅏㄹㅡㄹ
니지
▁보강
▁빈도
▁숙주
▁연동
▁창의
▁아마존
▁옥수수
▁ㅅㅕ
▁갑옷
▁경위
▁노이
▁청색
스카르
▁그림자
도비
iss
▁김민
ㅁㅏㄹ
▁게릴라
▁이주하
▁일러스트
▁파라과이
올리
피언
▁세네
▁설립자
▁ㄱㅓㄷㅝㅆ
▁브룩
▁블리
▁나란히
▁새로이
▁2022
▁랴
▁슛
퍼슨
▁고추
▁마당
▁동요
▁루크
▁막시
▁예명
▁오락
▁천연기념물
UR
▁강풍
▁듀얼
▁석회
▁열심
▁유령
▁극작가
ii
다르
▁군청
▁입양
케이
콥터
▁ES
▁강철
▁석불
▁이데
▁장원
▁133
▁ㄴㅡㄲㅣㄴ
▁그레고리오
기구
▁어로
▁재해
▁출석
▁ㅇㅡㄹㄲㅏ
네시
▁메릴
▁몰아내
ake
▁등극
▁짐작
▁NGC
▁++
▁용암
▁이언
▁프롤
▁호응
ㅇㅡㄴㅣ
▁ㅇㅕㅆㅇㅡㅁㅡㄹㅗ
푸아
▁스노
▁ㅇㅕㄹㄹㅣㄴㄷㅏ
▁더비
▁무스
▁두개골
▁ㅈㅏㄹㄹㅏ
▁교육부
▁키예프
▁ㅊㅣㄹㅡㄴ
▁수녀
▁약하
▁원격
▁확고
▁경쟁력
▁ㅅㅏㄹㄹㅕ
▁기성
▁엘리트
▁이용객
▁마애
▁이장
▁지청
▁추종
▁해부
▁지방산
▁사무총장
▁흥선대원군
▁랍
타케
해튼
▁극도
▁번성
▁유스
▁제왕
▁화순
▁소령
▁위생
▁유정
자치시
▁CEO
▁사로잡
▁특별자치시
▁안치
▁타지
▁기상청
▁DM
▁대국
▁연못
▁요법
▁우상
▁워치
▁윤보
▁재난
▁현행
캐롤라이나
▁ㅂㅗㅇㅎㅐ
▁선장
▁자카
▁콘테
▁그렇지만
▁스트라이커
▁격자
▁메라
▁몽고
▁ㄸㅏㄹㅏㅆ
▁ㅂㅜㅌㅇㅕㅈㅣㄴ
old
▁아치
▁ㄲㅡㄶ
▁이동하
▁반역
▁이득
▁장단
▁종점
▁진수
▁파우
▁함양
HO
타마
▁심야
▁제리
▁Mus
▁미생물
▁인프라
▁포도당
사관학교
▁결제
▁국유
▁농어
▁일괄
▁ㅈㅣㅋㅕㅆ
▁ㅇㅗㄻㄱㅕㅈㅕㅆ
GA
세우
▁가볍
▁개항
▁결핍
▁모용
▁어리
▁자결
▁정관
다운
▁가네
▁니카
ㄸㅏㄹ
own
▁Ro
▁빛나
▁이규
▁헬륨
▁CBS
▁대지진
▁법정동
▁시뮬레이션
▁울리
▁쑤
▁감동
▁도사
▁명분
▁펜싱
▁파이프
▁스리랑카
▁프랭클린
▁가도
▁스로
▁아스널
▁앨리스
▁위나라
▁자치체
▁ㅁㅗㄹㄹㅕ
▁ㄷㅚㄴㄷㅏㅁㅕㄴ
거래
ork
▁암흑
▁파문
▁제조업
▁평민
▁무궁화
ㄸㅡㄹㅕㅆ
렉션
▁성령
▁자생
▁탁월
▁ㅅㅣㅋㅣㅁ
▁국악
▁겉보기
▁ㅎㅏㄴㅈㅣ
ㄲㅡㄹㅓㅇㅜㄴ
▁조계
▁아래쪽
▁그레고리
▁ㅎㅐㅈㅣㄴㄷㅏ
▁툰
미스
▁GDP
▁ㅇㅏㄴㅣ
▁ㄷㅓㅍㅇㅕ
▁ㅅㅣㅁㅎㅐ
에미
▁NE
▁만년
▁문경
▁아데
▁정인
▁아니하
lo
멘스
삭스
파크
▁온갖
▁대사헌
▁마우스
▁무조건
▁ㄱㅓㄹㄹㅣㄴ
▁수년
▁스태
▁모터스
버러
▁듀오
▁루비
▁미셸
▁부조
▁132
▁선거법
▁동성애자
▁얹
위성
ick
▁까지
▁불행
▁자르
▁ㅎㅏㄱㅗ
▁삼국사기
▁ㅇㅏㄴㅣㄹ
▁아이스하키
▁PR
▁가타
▁타석
▁쾰
▁ㅈㅝ
▁시종
▁장흥
▁총무
▁인디애나
▁동참
▁베른
▁속주
ㅇㅑㄴ
▁후속작
▁낙하
▁리모
▁빈번
▁복음서
▁or
▁주화
▁퇴장
스기
원장
▁상연
▁조병
▁주지
위원회
림픽
▁상기
▁신상
▁정국
▁센고쿠
▁그리스인
▁CONCA
울리
▁ㄹㅑ
▁글로브
변이
헌영
▁수심
▁시국
▁초원
▁돌연변이
Hz
▁대각
▁라오
▁시애
▁장대
▁표창
▁호족
▁비주얼
▁보헤미아
▁CONCACAF
▁국당
▁단과
▁매거진
라기
미즈
▁제너
▁른
▁구니
▁아쿠
▁황도
ence
ㅂㄴㅣㄲㅏ
ㄷㅐ
▁ㅌㅟ
▁광양
▁현직
브리아
▁대성전
ix
마리
보내
타이드
▁통틀어
clude
메다
▁공파
▁총기
▁ㅂㅜㅌㅈㅏ
▁국수
▁김병
▁맹세
▁발각
▁이모
▁마다가
▁카바
바야시
▁애리조
▁오클랜드
▁쓸
▁초고
▁pro
▁기병대
▁댓
벨라
▁부드
▁양육
▁미주리
▁SL
▁난이
▁저격
▁피로
▁시애틀
▁자세히
▁저널리
▁타이베이
▁합스부르크
▁짱
할시
▁소울
▁투항
플로
홀름
▁계시
▁낮추
▁로리
▁재질
▁쳐
공산
▁호의
ance
▁마르크스주의
▁숀
▁관동
▁페로
▁농산물
▁맨해튼
▁선보이
▁요제프
▁ㅅㅔㅇㅝㅈㅕ
EM
루냐
▁복식
▁청동기
▁ㅁㅣㅊㅣㄴ
▁ㄷㅜㄹㄹㅓㅆㅏㅇㅕ
▁엥
를테
ear
▁비늘
를테면
▁이를테면
▁극락
▁아빠
▁티켓
▁소피아
▁볼셰비키
▁패럴림픽
▁낚
▁감금
▁우즈베키스탄
▁ㅂㅜㅌㅇㅕㅈㅕㅆ
▁ㅉㅏ
▁김옥
▁내면
▁민요
▁반성
▁수교
▁의과
▁활주로
▁1885
▁GN
▁Ph
▁개헌
▁공표
▁밀러
▁배속
▁이븐
▁포고
▁중앙부
십자
▁리터
▁매직
▁세븐
▁실존
▁ㄷㅡㄹㅓㄴㅏㄴ
▁즘
▁수염
▁야구단
▁창시자
▁ㅂㅓ
▁퍼포
▁1870
▁ㅇㅗㄹㅂㅏㄹㅡㄴ
티시
▁바디
▁NAS
▁스폰서
▁ㅁㅗㅇㅡㄴ
▁제동
▁호리
▁오로지
▁퍼포먼스
쩌둥
▁감수
▁생계
▁세손
▁트리니
▁마오쩌둥
파이
▁입수
▁청자
▁예선전
▁유권자
▁리바
▁머스
▁원심
▁우체국
관리
▁un
▁경질
▁왜구
▁To
▁우아
▁240
▁450
▁1871
▁평안남도
▁ㅁㅗㅇㅣㄴ
제이
▁참사
▁테일
ㄹㅇㅏ
테리아
▁프랜시스
▁ㄴㅏㄱㅏㄴㄷㅏ
▁돌출
▁벤치
▁대장군
▁하노이
▁ㄴㅑㄴㅡㄴ
▁네이션스컵
▁ㄴㅜㄱㅜㄴㄱㅏ
지오
▁중상
▁내려가
▁볼프
▁붙잡
▁카터
▁학설
▁ㄲㅗㅂㅎㅣㄴㄷㅏ
OV
▁내성
▁신종
▁오라
▁전날
▁파인
▁활발히
▁꺼
▁뾰
irl
▁관행
텔레스
▁갈리
▁유료
▁증인
▁마닐라
▁프레이
▁중서
▁청룡
▁맷
▁역도
▁중생
▁화랑
lass
▁뛰어
▁지성
▁함자
▁해저
▁로렌스
▁ㅅㅏㄹㅇㅏ
▁쿡
테쓰
▁뉴클
▁알아
▁실험실
▁편집자
▁1600
▁평안북도
ild
▁AD
▁남용
▁반하
▁앞쪽
▁이양
▁수원시
▁ㅎㅏㅇㅑㄴ
▁각성
▁당내
▁콜레
▁파나마
▁USS
▁ㅉㅣㄴ
▁내무부
▁알래스카
▁분과
▁수인
▁유러
▁출가
▁카니
등식
컨대
▁CM
▁고쿠
▁로페
▁생선
▁시리
▁흉노
▁아리스토텔레스
▁개개
▁놀라
▁트릭
▁양성자
▁프라하
▁프로리그
▁문고
▁위스
▁테라
▁퍼스
▁빅토르
ection
▁ㅇㅡㄹㅈㅣ
맥스
ans
▁루카
▁시합
▁호크
▁다람쥐
▁유치원
▁브레이크
▁상급
▁요지
▁자칭
▁휴게
▁알렉스
▁앤더슨
▁능선
▁성실
▁다나카
▁ㅈㅜㄷㅚㄴ
▁ㅋㅐ
▁구청
▁궁궐
▁박헌영
▁러시아인
▁ㅈㅜㄹㅇㅕ
▁ㅈㅏㄹㅏㄴㄷㅏ
사상
▁무척
▁정제
▁퍼스트
▁1200
▁유러피언
▁교실
▁나선
▁리비
▁이룩
▁이완
▁ㄴㅓㄹ
▁ㅇㅣㅅ
▁ㄲㅡㅌㄴㅏㅆ
▁화기
▁역사가
▁ㅂㅜㄹㄹㅣㄴ
▁독도
▁부각
▁케라
▁국보
▁다투
▁친분
▁올림피아
▁돌려
▁조광
▁조례
▁아무것
▁왕세자
▁ㅇㅗㄹㄹㅏㅆㅇㅡㅁㅕ
▁Sy
▁동로
▁경영자
▁케이프
ㅇㅡㅁㅡㄹㅗ
▁시중
▁칼럼
▁동유럽
▁반란군
▁오른손
▁ㄱㅓㄴㅡㄹ
▁오미
▁케인
▁신문사
ㄲㅇㅣㄴ
ㅏㅈㅣㄹ
▁ㅅㅣㄷㅏ
▁ㄹㅕㄷㅓㄴ
▁마다가스카르
▁사쿠
▁초빙
▁동물원
▁only
▁구마모토
메스
체고
▁서산
▁재외
▁지쿠
▁김정은
▁루돌프
▁시달리
체고비나
무소
올라
▁섬세
▁성화
▁EBS
▁레이싱
▁앤드루
▁돌보
▁몸통
▁이방
▁차용
▁한미
▁미군정
▁강령
▁징병
▁평형
▁부드럽
▁봉수
▁약혼
▁공민왕
▁다저스
ivers
▁뉴클레오
▁ㄴㅏㅌㅏㄴㅐㄴ
ish
▁경시
▁김원
▁농경
▁메카
▁칙령
▁통용
▁ㅅㅐㅇㄱㅣㄴㄷㅏ
▁배려
▁재활
▁밴쿠버
OD
▁대본
▁바트
▁송도
▁신발
▁통역
▁허드
▁윤보선
GM
▁관문
▁수필
▁김규식
▁유년기
▁클레이
▁헬리콥터
▁괄
환경
▁가솔
▁에프
▁영예
▁창문
▁특전
▁동대문
▁레이크
바흐
▁전래
▁절망
▁주입
▁탑신
▁하류
▁MTV
▁부원군
▁생겨나
▁ㄴㅓㅁㅇㅓㄱㅏㅆ
통일
▁극한
▁로얄
▁포식
▁예정자
ㅐㄱ
▁경희
▁나우
▁메뉴
▁일당
▁총애
▁정의당
▁친위대
▁Jo
▁독창
▁지오
▁총통
▁커플
▁비타민
▁성남시
▁크라이
코토
▁ㅊㅏㄹ
▁예수회
▁위너스
▁해리슨
▁ㄴㅡㄴㄷㅏㅁㅕㄴ
▁남산
▁되돌
▁마술
▁산호
▁처하
▁리조트
▁ㄴㅏㅌㅏㄴㅐㅆ
어사
▁NT
▁명소
▁시노
▁욕망
▁카테
▁케플러
▁경호
▁나인
▁시부
▁편제
▁포착
▁호스
▁솔로몬
▁겁
▁ex
▁ㅎㅜ
▁검정
▁제노
▁진해
▁ㅇㅓㄹㅕㅇㅝㅆ
토랑
▁갑작
▁보행
▁아날
▁찬양
▁하반
▁대대로
▁사각형
▁레스토랑
▁담보
▁안녕
▁엮
▁도교
▁보라
▁카지
▁제퍼슨
▁컴퓨팅
▁유혹
▁파도
▁하키
▁고속버스
RA
▁돋
oun
▁대북
▁모의
▁시몬
▁실정
▁화엄
▁얕
원수
▁당연
▁마차
▁뾰족
▁플라톤
매매
▁관청
▁모호
▁사역
▁소극
▁소음
▁아키라
▁싣
천면
▁남해
▁맞대
▁스가
▁테리
▁대합실
▁클린턴
▁해리스
▁광도
▁추이
▁브루스
EL
▁뻔
라니
lat
▁가맹
▁천왕
▁긴테쓰
fe
에스
지르
are
▁수양
▁찬사
▁침묵
▁ㅇㅓㅉㅓㄹ
▁보로
▁블레
▁블로
▁황소
▁스톡홀름
▁ㄷㅡㄴㄷㅏ
az
신문
▁씨앗
▁지로
▁푸르
▁효자
지로
▁Fr
▁국공
▁드미
▁불변
▁자제
▁최진
ical
▁스테파
▁북아일랜드
▁허정
▁서재필
▁오리온
EG
▁다테
▁선천
▁이렇
▁전한
▁방어선
▁알프스
▁요시다
▁ㅌㅣ
▁가늘
▁김유
▁마켓
▁이점
▁프론
▁ㄷㅏㄱ
▁바이트
▁아나톨
▁@
지능
히트
▁무실
▁주임
▁캐롤
▁ㅆㅏㅎ
▁인공지능
▁ㄴㅐㄹㅕㅈㅕㅆ
▁sc
▁드루
▁럭비
▁리보
▁박종
▁폭파
▁개구리
▁리프트
▁총사령관
include
블랜드
나오
러브
▁도둑
▁만장
▁본성
▁수복
▁제물
▁분류군
▁넷째
▁색소
▁ABC
▁ㅇㅣㅈ
▁ㅍㅕㄴ
▁결별
▁채취
▁타스
▁ㅎㅏㅇ
▁피라미
▁샐
▁별세
▁화약
▁ㅌㅡㄴ
▁보수당
▁아키타
TP
▁":
▁CH
▁스텝
▁어군
▁카피
▁클리블랜드
정원
▁엄밀
덴부르크
창호
▁DD
▁전담
▁포토
대표
▁AV
▁고든
▁로버
▁모어
▁영유
▁원통
▁정거
▁나트륨
▁마천루
▁토스카
▁함경남도
▁전무
▁투자자
▁프린스
▁넘치
▁벤처
▁천국
▁210
▁비밀리
▁릴리
▁초신성
▁ㄷㅚㄷㅗㄹㅇㅏ
▁ㅆㅡㅇㅕㅈㅣㄴ
▁리사
▁야전
▁퇴직
▁가이드
▁ㄹㅏㅅㅓ
▁ㅅㅣㄹㄹㅣㄴ
놀이
▁구두
▁마셜
▁슬픔
▁내야수
▁타이거스
▁ㅎㅑㅇㅎㅐㅆ
▁콘스탄티노폴리스
▁쾰른
▁로드리
▁선구자
▁자치주
▁잡아먹
▁방콕
▁소중
▁극우
▁동향
▁웨인
▁유선
▁제명
▁치과
▁ㅅㅏㅆ
▁서대문
▁알파벳
▁ㅇㅗㄹㄹㅏㄱㅏㅆ
란토
사고
▁백두
▁약사
▁정형
▁차출
▁켈트
▁대원군
▁휩
카리
▁노론
▁리베
▁메이커
▁ㅇㅏㄹㅇㅏ
▁로크
▁묘비
▁실권
▁위그
▁안테나
▁추리
▁ATP
▁ㅈㅜㄱㅇㅣㄴ
▁펌프
▁경전철
▁동시대
▁유아기
▁김형
▁왕권
▁장시
▁천거
▁파손
▁유격수
▁ㅂㅗㄴㄸ
메드
▁종식
▁중합
공산당
▁ㅅㅓㄹ
▁주차장
▁가브리엘
▁피아니스트
▁멧
▁삼림
▁아이폰
▁타이어
▁튀르크
▁ㅇㅣㄱㅕ
FL
대사
▁구실
▁미수
▁플리
▁ㄱㅕㄴ
▁적외선
▁ㅇㅏㄹㅡㅁㄷㅏㅇㅜㅁ
▁봇
언스
▁밸리
▁여유
▁일리
▁형질
클레
▁강렬
▁목회
▁야드
▁톈진
▁헬싱
▁드디어
▁용인시
▁정부군
▁ㅎㅏㅂㅊㅣㄴ
수스
▁감상
▁맞서
▁이의
▁ㄸㅓㅇㅗ
암동
휴일
ica
▁감찰
▁마에
▁상행
▁스칸
▁가락
▁감성
▁유목
▁임정
▁연극배우
▁ㄴㅏㄱㅏㄴ
소통
▁간첩
▁그저
▁불참
▁사방
▁사설
▁친족
▁딥
충류
▁ㄱㅏㅈㅕㅇㅗㄴ
대교
▁매트
해살이
▁ㅌㅡㄹ
▁ㅈㅕㅅㅓ
▁콘테스트
▁헤르체고비나
▁구내
▁방치
▁삽화
▁마누엘
▁소말리아
ey
캐슬
티넘
▁끼치
▁리본
▁악보
▁애정
▁왕건
▁준수
▁칸국
▁캐리
▁플래티넘
▁he
▁ㅎㅣ
▁공존
▁실록
와라노
▁연산군
▁프레데
▁의사소통
▁후지와라노
▁ㅈㅡㄹㄱㅣㄹ
군다
▁고딕
▁산성
▁송신
▁여권
▁연말
▁예약
▁운임
▁절정
▁스트로
▁1889
▁브루클린
60
▁끓
지기
▁비엔
▁사탕
▁삼존
▁불량
▁슬하
▁외형
▁전전
▁지자
▁직통
테이너
tern
▁간신히
▁ㄹㅕㄷㅏ
합성
▁시네마
▁열심히
▁나카무라
▁니혼
▁라자
▁모하
▁서임
▁치환
▁가솔린
▁화강암
▁스카우트
▁늙
▁건전
▁라리
▁로트
▁마땅
▁모금
▁본작
▁의류
▁집정
▁쿠퍼
▁기관지
▁두려움
▁목요일
▁발라드
▁ㄹㅓㅅㅓ
▁ㅇㅣㄲㅡㄹ
▁가나가와현
▁대영
▁징수
▁무형
▁하시
▁해독
▁AKB
▁말미암
▁메디치
▁브레이
▁엔트리
▁오바마
▁ㄱㅣㄷㅏ
▁ㅂㅗㄴㅐㄴㄷㅏ
▁김준
▁봉화
▁중퇴
▁피지
▁For
▁패트릭
▁ㅂㅏㄲㅟㄴ
sh
망디
▁반포
▁베트
▁사서
▁삼중
▁시크
▁이송
▁처지
▁OST
▁ㄱㅜㄷ
▁라이더
▁ㄱㅏㄹㅗ
▁ㅇㅣㄹㅝㅈㅕㅆ
▁멍
난성
▁백과
▁영정
▁So
▁ㅊㅟㅎㅐㅆ
바나
▁다윈
▁메소
▁요충
▁뉴캐슬
AF
위안
▁유희
▁토트
▁Com
부로
천동
▁pr
▁격리
▁모색
▁비야
▁로마인
▁ㅅㅏㄹㅏㅈㅣㄴ
▁금호
▁리옹
▁야시
▁작물
▁트렌
▁한중
▁해태
▁피라미드
▁ㅂㅏㄲㅝㅆ
▁ㅂㅓㄹㅇㅕ
bo
가미
▁볼트
▁은거
▁인가
▁하야
▁생존자
IL
▁송출
▁호대
▁츄
유예
▁우림
▁종자
▁항만
▁Ma
▁유의
▁정작
▁기숙사
▁낙동강
▁스타트
애미
▁공소
▁도피
▁비준
▁똑같이
▁Part
▁ㄱㅏㄹㅕ
▁마이애미
▁훙
▁Mo
▁도래
▁요격
▁투여
도르프
▁장학금
▁지상파
▁프란체스코
▁헛
프로
▁수락
▁클러
▁후배
추부사
▁카카오
교통
부르
▁앙골
▁음운
▁공휴일
▁토리노
▁Live
▁미야자키
▁ㄴㅏㄹㅇㅏ
▁ㅇㅑㄱㅎㅐ
풀이
▁김명
▁열강
▁중수
▁일본국
▁자유민주당
▁EU
▁거미
▁들이
▁주계
▁정종
▁Sou
에미리트
▁ㅎㅣㅁㅆㅓㅆ
▁아랍에미리트
▁잠정
▁병자
▁의령
▁정읍
▁페트
▁1848
▁ㄷㅡㄹㅓㄴㅐㅆ
▁벅
드레
▁공성
▁반기
▁벨리
▁서태
▁양심
▁워즈
▁한신
바이트
▁어시스트
▁거란
▁어찌
▁원군
▁천주
▁여배우
▁튀니지
▁JTBC
▁프랑스인
▁비추
▁연정
▁광복군
▁ㅁㅓㅁㅊ
▁프랑스령
▁ㄱㅗㅊㅕㅆ
▁ㄴㅗㄹㄹㅏㅇㅜㄴ
▁급여
▁기이
▁모욕
▁성곽
▁ㅈㅣㄴㅣㄴㄷㅏ
EE
▁평판
클리드
▁미야기
▁센티미터
나마
▁격추
▁순종
▁암스
▁Col
▁ㅁㅗㅅㅕ
▁유니버설
uc
화문
▁귀신
▁김광
▁인칭
▁자서
▁포털
마르크
▁에스페
▁티아
▁대리인
▁에이즈
▁보수주의
▁카탈루냐
▁ㅃㅏㄹㄱㅏㄴ
ㅂㅆ
에몽
▁금산
▁워커
▁레이더
▁마이어
의사
▁교의
▁굴절
▁무과
▁습윤
▁응급
▁탄약
▁대승불교
도라
▁"&
▁랴오
▁익숙
▁만화가
▁ㅇㅣㄹㅝㅈㅣㄴ
▁무네
▁조인
▁국제법
▁마법사
▁줄기세포
▁ㄸㅟㅇㅓㄴㅏㅆ
▁캅
▁매킨
▁해피
▁대법관
▁카스티야
간다
관계
▁문집
하이오
▁API
▁검은색
▁여의도
▁레드삭스
▁오하이오
▁쌍대
▁진로
▁코리
▁ㄱㅕㅁ
▁모건
▁유식
▁교통부
▁사운드트랙
ann
▁류큐
▁배분
▁사쓰
▁평평
▁정거장
▁패러디
거스
▁바지
▁볼로
▁자명
▁우루스
▁지배자
▁ㅇㅣㄹㅇㅡㅋㅣㄴㄷㅏ
▁니키
▁음절
페스트
▁ㅈㅔㄴ
▁Time
▁부합
▁줄리
레스트
▁시코쿠
메니
▁EM
▁여사
▁재팬
▁추력
▁혼다
파니아
▁int
지부
lay
▁BC
▁권역
▁수로
▁한림
▁아이즈
row
▁공대
▁공영
▁국한
▁꼽히
▁그라운드
▁기전
▁김인
▁리카
▁여고
▁재일
▁총격
olog
▁SNS
▁바그너
ㄹㅣㄴㄷㅏ
브로
▁댄서
▁동진
▁비정
▁안개
▁점포
▁추억
▁대단히
▁레이트
▁부총리
▁정치학
▁하노버
▁ㅎㅟㅂㅆ
▁아날로그
ㅇㅎㅏㄴㄷㅏ
▁ㅅㅣㅋㅕㅅㅓ
▁비토
ous
▁베어
▁비대
▁사민
▁산둥
▁업자
▁명확히
OP
▁검거
▁국외
▁라르
▁로키
▁사수
▁치카
▁대니얼
▁프란치
ㅈㅣㄹㄹㅓ
자루
orn
ows
▁고생
▁메일
▁설문
▁실증
▁오만
▁방사능
▁가혹
▁도박
▁동산
▁지법
지아
현동
▁근사
▁종군
▁시멘트
▁ㄴㅜㄹㅕㅆ
서스
▁GB
▁고로
▁골격
▁부다
▁절벽
▁제위
▁특화
▁하행
▁커리어
용차
▁ㄷㅏㅇ
▁그랜트
▁초콜
▁ㅈㅕㅆㅇㅡㄴㅏ
▁우한
▁헬레
프랑크
▁고인돌
▁카메룬
▁ㄴㅡㄹㅣㄴ
▁남군
▁다치
▁단결
▁대마
▁선명
▁용액
▁클라우
▁ㅂㅏㄹㅏ
▁문단
▁방대
▁셀레
▁관현악단
▁경복
▁연립
▁오디
▁케르
▁합치
▁법원장
▁페트로
▁ㅂㅏㄲㅜㄹ
▁곶
▁글꼴
▁Bla
▁노르망디
▁ㅍㅜㄹㄹㅕㄴ
▁깜
시노
정동
▁국교
▁남방
▁마테
▁부평
▁최선
드리아
▁Your
▁ㅅㅣㅋㅕㅇㅑ
▁앗
▁관상
▁모세
▁무안
▁범행
▁신곡
▁종양
▁라인업
▁제우스
버른
제품
▁보령
▁타락
▁편견
▁항체
span
▁131
▁ㅅㅓㅆ
▁ㄹㅏㄱㅣ
ㅟㄹ
거지
▁ㄸㅢ
▁가쿠
▁소외
▁황색
▁대나무
▁저지대
▁파일럿
▁onlyinclude
▁GM
▁가중
▁단군
▁하코
▁형벌
▁체인지
▁NASA
▁촛
▁가고
▁간략
▁모빌
▁후진
메이카
▁정보원
▁자메이카
▁쾨
칼리
▁선봉
▁수식
▁은혜
▁콘솔
▁Sch
▁예컨대
으로
▁교부
▁봉인
▁사림
▁어긋
▁외치
▁중소기업
▁1883
▁라디
▁라바
▁모범
▁숙부
▁절감
▁영화상
틀리
▁at
▁녕
▁객차
▁김윤
▁무작
▁속력
▁재편
▁중엽
▁원산지
▁ㅅㅐㅇㄱㅕㄴㅏㄴ
토프
▁사학
▁산요
▁공화정
▁제이슨
▁u
센스
▁기세
▁노면
▁전보
른스트
▁라파엘
▁연구회
▁줄리아
지리
amp
▁리즈
▁야외
▁연희
▁판소리
▁가토
▁다툼
▁도키
▁리마
▁서귀
▁피리
▁홀리
▁전반기
▁ㅈㅓㅂㅎㅏㄴ
▁공무
▁녹화
▁램프
▁발상
▁큐브
▁에이전
▁기량
▁코소
▁국정원
▁달라지
▁ㅇㅣㅀㅇㅓㅂㅓㄹㅣㄴ
▁욱
워스
▁SA
▁다듬
▁식스
▁엔드
▁유공
▁유우
▁적료
▁플러
▁할인
네그로
▁해상도
▁보루
▁하남
▁ref
▁고분군
▁ㄸㅐㄹㅕ
▁교향악단
▁유클리드
80
▁열전
▁항우
▁부상자
▁스칼라
▁ㅍㅏㄹㄹㅕㅆ
CC
▁안방
▁위조
빌라이
▁비서관
히사
ood
▁Ge
▁기와
▁조교
▁흘러
티모어
▁북유럽
▁텍사스주
ink
▁고의
▁병마
▁안나
▁카마
▁멋
려가
ern
▁스루
▁씨족
▁외래
▁이터
▁자수
▁탄자
스트리
▁ㅂㅏㅊㅕㅆ
▁Or
▁꿈꾸
▁사영
▁온난
▁이회
▁지석
▁멜버른
▁연장전
▁ㅋㅣㅇㅝ
▁ㄱㅓㄹㅊㅕㅅㅓ
▁가우
▁분단
▁상어
▁송파
▁수위
▁다이어
▁선진국
▁스캔들
▁Wind
돌이
프턴
▁RS
▁도네
▁콜럼
▁노벨상
▁위구르
▁프로모
▁1882
RT
▁계주
▁세습
▁헤이안
에고
치히
▁위로
▁통신사
데라
▁우산
▁지극
▁피치
▁다이노스
II
▁콥
▁펴
들이
화학
▁OB
▁RP
▁간사
▁관례
▁단속
▁대인
▁요양
▁카네
ost
▁tv
▁족보
▁함량
ㄱㅓㄴ
▁토마토
▁프로그래머
▁ㄷㅏㄹㄹㅏㅆ
US
▁결사
▁관악
▁왕궁
▁요절
▁파벌
▁너무나
▁대좌
▁동적
▁부교
▁정반
▁표정
▁ㅂㅏㄲㅜㄴ
▁거성
▁내일
▁시안
▁군사력
▁아이언
▁카스트
40
▁단정
▁루키
▁성원
▁월터
▁유생
▁재래
▁330
▁ㄷㅜㄲ
▁ㄸㅣㄴ
▁해안선
ㅎㅐㅅㅓ
▁ㅇㅗㄹㄹㅏㄱㅏ
▁강행
▁북군
▁사안
▁유서
▁주선
▁회귀
▁야마가타
▁새우
▁정정
▁최영
▁Day
▁ㅇㅓㅄ
▁미토콘
▁산티아
▁관계없이
▁ㄱㅕㅂㅊㅕ
▁미토콘드리아
팡이
협회
▁배달
▁장덕
▁천수
▁내세우
▁고흥
▁급증
▁선대
▁정은
▁올리브
▁중공군
▁히브리
▁Girl
▁La
▁내력
▁법관
▁정월
▁항원
▁기념일
▁영원히
▁파시즘
▁필립스
▁쿠빌라이
융합
▁동포
▁부왕
▁성동
▁출자
▁협업
▁시즈오카
▁고노
▁랭크
▁평지
스탄불
▁대상자
▁대표자
▁폐기물
▁ㅂㅜㄷㅣ
▁미스터리
▁이스탄불
▁ㄴㅡㄲㅣㄹ
▁ㄷㅏㄹㅇㅏㄴㅏㅆ
▁ㅇㅞ
▁내걸
▁덮개
▁리믹스
▁뫼
▁몰타
▁부파
▁지켜
▁직속
▁항로
▁독수리
▁사이타마
▁어파
▁우시
▁우월
▁종영
▁데니스
▁부르주
▁사업소
▁슈퍼컵
▁핵융합
▁효고현
포시
호란
▁상록
▁서면
▁수열
▁식용
▁몹
▁단말
▁빙하
▁잠깐
▁조셉
▁LED
▁단체전
▁해운대
▁FK
▁남하
▁아목
▁조슈
▁지르
▁형편
▁ㅂㅣㅊ
▁레오폴
▁어울리
▁프랜차
▁호스트
▁ㅅㅔㅇㅛ
▁컨트롤러
▁ㅎㅡㄹㅡㄴㄷㅏ
▁렛
게스
▁발동
▁주창
▁무실점
▁ㄴㅗㅎㅇㅣㄴ
▁냥
나기
여객
▁러일
▁소프
▁타수
▁후예
오르크
▁4000
▁사회민주당
OT
▁군벌
▁노사
▁보름
▁스콜
▁제천
▁테네시
▁ㅂㅣㅎㅐㅅㅓ
서니
oll
▁강당
▁넬슨
▁대진
▁산시
▁증폭
▁켄트
▁피드
▁서사시
▁ㅇㅗㄻㄱㅣㄴ
▁맡기
▁번창
▁양보
▁ㅅㅕㄴ
▁1868
▁컨테이너
해자
▁사치
▁신입
▁태후
▁오스틴
▁오일러
▁ㅁㅜㄷㅎㅕㅆ
▁관목
▁규탄
▁버터
▁사천
▁떠오르
▁안티오
▁아케이드
▁프랜차이즈
▁괌
▁아유
▁염려
▁위력
▁여성주의
▁교직
▁내분
▁알아보
▁고트
▁금전
▁딜런
▁라미
▁분사
▁양수
▁제단
▁법조인
▁앙골라
▁제갈량
▁휴게소
본부
▁매리
▁전수
▁ㅎㅜㅁ
▁메릴랜드
▁ㅅㅏㅇㅎㅐ
▁과테
▁라카
▁성악
▁증오
▁ㅁㅜㄹ
▁베이커
▁과테말라
▁능동
▁시비
▁해치
▁급속히
▁배역
▁오아
▁전세
▁점거
▁퍼즐
▁하의
▁각료
▁농지
▁밀레
▁수다
▁호아
▁320
▁경주시
▁파푸아
히드
▁국철
▁습관
▁영덕
▁일각
▁절제
▁접종
▁청계
▁ㅈㅏㄴ
▁로마자
▁가고시마
▁ㅆㅏㅇㅜㄴ
▁공안
▁야마모토
▁너머
웨이트
펜하겐
▁new
▁발전기
▁레인저스
▁코펜하겐
▁몬테네그로
▁암스테르담
▁안무
▁저조
▁척도
▁초안
▁축전
▁카세
▁베르나르
바오
▁박성
▁외과
▁정령
▁ㄴㅓㄴ
▁대명사
▁우의정
ㄷㅡㄹㅇㅓ
▁노후
▁데드
▁받들
▁생리
▁컨설
▁타리
▁뛰어들
▁사이먼
걸이
게임
▁고온
▁넥센
▁우연
▁이항
▁지난
▁헌장
▁복음주의
▁ㅈㅜㄹㅇㅓ
ㅇㅣㄹㅇㅡㅋ
▁ㅇㅏㅆㅇㅓㅆ
▁ㅂㅜㄹㄹㅓㅇㅣㄹㅇㅡㅋ
▁TR
▁바울
▁우왕
▁이메
▁잔인
▁치하
▁요충지
▁지붕돌
▁산티아고
▁프란시스코
▁ㅊㅣㄹㅓㅈㅕㅆ
웍스
▁거처
▁수량
▁장병
▁정몽
▁종신
▁출동
▁치유
▁편향
▁ㅍㅣㅎㅏㄹ
▁에스페란토
▁후쿠오카현
▁복종
▁피우
▁ㄴㅜㄴ
▁이바지
▁코스타리카
▁늪
독립
▁DF
▁배드
▁세련
▁양대
ㄲㅡㅁ
19
▁뭉
▁성산
▁소아
▁주심
▁ㄱㅔㄲㅡㅁ
ㅏㄹㅗㅇㅜㄴ
LA
les
▁꾀하
▁다우
▁브릿
▁자진
▁자서전
▁마이크로
ㅁㅗ
▁도상
▁상국
▁서스
▁서주
▁영월
▁ㄹㅓㄴ
▁ㅇㅓㅄㅇ
▁루이지애나
▁김선
▁조영
▁차선
▁충렬
▁피핀
▁서바이
▁신주쿠
▁좌의정
▁화장품
디나비아
▁스칸디나비아
gr
어넣
▁대도
▁사비
▁위촉
▁이아
▁그만큼
▁위안부
▁주계열
▁놈
▁네티
▁샤프
▁슈테
▁톰슨
▁페더
▁end
▁수요일
▁요하네스
▁쿠웨이트
▁ㄷㅡㄹㅣㅁ
▁ㅊㅟㅎㅏㄴ
▁ㅂㅗㅇㅕㅈㅜㄴ
ung
▁천마
▁헌터
ㅈㅜㄹ
▁포르노
퍼레이션
▁이탈리아어
▁슌
▁은신
▁철강
▁동맹국
▁ㅇㅟㅎㅏㅁ
▁ㄲㅡㅌㄴㅏㄹ
꼬리
▁소대
▁순차
▁자재
▁청도
▁추서
▁거지
▁리코
▁축산
▁"()
▁결과물
▁텔레콤
▁가면라이더
▁ㅎㅡㅌㅇㅓㅈㅕ
익스
▁NP
▁정재
▁타일
토리코
▁도자기
▁에른스트
▁le
▁모차
▁영암
▁직행
▁김옥균
▁서해안
▁맬
▁결핵
▁고이
▁온대
▁타로
▁피크
▁해왕
라이드
▁ㄷㅏㅇㅎㅏㄹ
▁김승
▁대청
▁전락
▁카툰
▁하타
▁브뤼셀
▁시트콤
▁ㅅㅐㄱㅣㄴ
▁갯
▁촐
▁고집
▁대덕
▁문무
▁주성
▁충무
▁부르고
ㅈㅕㅅㅓ
▁Comp
ㄴㅏㄱㅏㅆ
▁육군사관학교
OW
▁톡
공주
레드
우에
▁노아
▁배양
▁함흥
▁후유
▁교육자
▁철저히
▁게오르크
▁니콜라스
▁긴밀
▁리튬
▁문종
▁압록
▁전학
▁준장
▁칭송
▁탈취
▁203
▁데이브
▁유적지
▁컬렉션
▁트리오
▁colspan
니파
▁대종
▁대차
▁차츰
▁첼로
▁측량
▁초콜릿
단지
▁by
▁레프
▁바비
▁오하
▁코네
로이드
▁데일리
▁케이크
▁푸에르토리코
▁격려
▁낚시
▁박상
▁원활
▁재발
▁짐승
▁글래스
▁로스쿨
▁도카이도
▁ㄴㅗㅍㅇㅕㅆ
▁기쁨
▁스킴
▁아흐
▁앤디
▁집착
▁기업가
▁1893
▁ㅁㅏㄴㄴㅏㄴㄷㅏ
셀러
업자
gin
▁Fe
▁공양
▁미성
▁페오
▁폐렴
▁한큐
▁280
▁장로교
▁지리학
▁ㄴㅗㅍㅇㅕ
▁ㅇㅓㅆㅇㅓㅆ
상시
eth
▁내무
▁온화
▁헤로
▁흡사
▁흥분
▁ㅈㅓㅇㅎㅐㅆ
▁도우
▁백악
▁조니
▁하급
▁막판
▁선인
▁심포
▁학장
▁아라곤
▁윗부분
▁펠릭스
▁플랑크
▁해안가
▁플로리다주
▁ㅇㅕㄴㅎㅏㄴ
▁갚
▁혀
▁관성
▁김치
▁조제
▁ㅇㅕㅅ
▁생리학
▁접어들
▁지바현
▁ㄴㅏㅌㅏㄴㅏㄹ
세유
▁영천
▁월트
▁천천
▁IOC
▁어웨이
IR
▁과시
▁도출
▁스포르
▁천안시
▁가르시아
ㅂㅘ
티에
▁AB
▁금동
▁반동
▁아와
▁우두
▁유족
ㅅㅓㄹ
▁도야마
▁ㄱㅏㅎㅐㅆ
몬트
바리
▁도이
▁주세
▁침례
▁TBS
▁노미야
▁민병대
▁비스타
▁함경북도
▁ㅂㅜㄷㅣㅈ
▁핼
▁관우
▁입헌
▁칼슘
루이스
▁논리학
▁유학자
▁프리스
▁Univers
▁ㅇㅘㅆㅇㅡㄴㅏ
북구
▁에로
▁점검
ㅃㅡㄴ
▁천천히
▁Rock
▁핏
▁까마
▁림프
▁마트
▁숨기
▁심부
▁제철
▁조롱
▁특기
▁탄자니아
계승
▁발목
▁심상
▁애인
▁유영
▁한문
▁Rec
▁국제선
▁로베르
▁지켜보
▁ㄴㅏㄹㅋ
▁부르고뉴
들러
▁간직
▁버러
▁소동
▁아츠
▁유포
▁이황
▁서초구
▁픽처스
▁과잉
▁위즈
▁전미
▁Sup
▁게오르
▁발사체
▁사상가
익스피어
▁ㄷㅏㅅㅡㄹㅕㅆ
▁가부
▁귀속
▁공방전
▁동맹군
▁셰익스피어
oth
▁겹치
▁상정
▁소사
▁우울증
▁하이퍼
▁ㅅㅡㄹㅓㄴ
▁ㄱㅟ
▁대주
▁마타
▁버섯
▁심문
▁용품
▁중고
▁녹색당
▁조선왕
▁미나모토
▁참모총장
▁Su
▁라흐
▁세레
▁톱니
▁휴양
▁고려사
▁더블린
▁인플레이션
▁펫
▁공법
▁구금
▁구독
▁구치
▁미츠
▁위계
▁재차
▁특사
▁순양함
▁가와사키
국적
▁명인
▁쇠고기
▁인공위성
▁IV
▁견고
▁김천
▁무단
▁한번
▁서포터
▁수나라
▁카운트
ㅗㄴㅡㄴ
▁중앙은행
▁ㅅㅏㄹㅍㅕ
▁ㄷㅗㄹㅗㄴㅡㄴ
태평
▁강성
▁배리
▁청량
▁황산
민스터
▁도르트
▁어긋나
▁찾아내
▁ㅂㅏㄺㅎㅕㅈㅣㄴ
▁당뇨
▁명부
▁불경
▁아메
▁악곡
▁에바
▁웃음
▁자립
▁장녀
▁파편
▁강화도
▁절도사
▁ㅁㅐㄲㅡㄹㅓㅇㅜㄴ
▁고스
▁메틸
▁스투
▁이우
▁경계선
▁성매매
▁데스크톱
폭탄
mer
▁물결
▁시속
▁에마
▁이바라
▁평안도
▁헤라클
▁ㅂㅗㄴㅐㄹ
▁ㅈㅓㅈㅣㄹ
▁미아
▁슈타
▁슬램
▁조현
▁직계
▁풍습
▁현판
로니아
▁스탠드
▁차세대
▁ㅊㅟㅎㅐ
▁박테리아
▁ㄱㅏㅈㅕㄷㅏ
▁노랑
▁대접
▁연회
▁제창
▁230
▁GNU
▁율리우스
그마
▁CG
▁나뭇
▁노프
▁원유
▁주먹
▁USB
▁산스크
▁러시아군
▁산스크리트
▁Do
▁무르
▁살라
▁축성
▁코호
▁피사
▁다이빙
▁1892
▁상관없이
▁펩
비안
유사
▁코사
▁베르타
▁마르세유
▁프레임워크
연수
자동
트르
▁견디
▁공시
▁데미
▁라드
▁소용
▁옥타
▁이범
▁Car
▁스탠리
▁1888
▁ㄲㅡㅌㄴㅐㅆ
▁ㄷㅏㄷㅎㅣㄴ
▁뮐
네임
헤드
▁면모
▁사변
▁이은
비크
▁발자
▁산수
▁유무
▁자코
▁장래
▁재앙
▁합하
▁향기
▁아브라
▁리차
▁불사
▁시우
▁울릉
▁형용
▁ㄷㅗㅇ
▁금나라
▁로이드
ublic
▁ㄷㅜㄹㄹㅓㅆㅏㅇㅣㄴ
▁계량
▁과연
▁닉슨
▁불계승
▁서기관
▁세비야
▁수차례
▁케이트
▁from
▁ㄷㅏㅁㅕㄴㅅㅓ
▁ㄷㅓㅅㅂㅜㅌㅇㅕㅆ
ah
▁푹
▁Sw
▁강진
▁계보
▁라즈
▁애초
▁에반
▁하임
미디어
▁관현악
▁세네갈
▁허드슨
▁ㄱㅓㅅㅔ
▁미식
▁사키
▁어의
▁펠트
▁문자열
▁펠리페
▁대중교통
▁볼티모어
▁덱
쓰기
연의
▁ar
▁동종
▁반주
▁배기
▁카야
▁퇴위
▁로빈슨
▁ㄷㅡㄹㅇㅓㅅㅓㅆ
▁ㅂㅓㅅㅇㅓㄴㅏㄴ
둘기
▁감싸
▁거룩
▁모던
▁수력
▁순례
▁터지
▁ㄸㅓㄴㅏㄴㄷㅏ
▁사커
▁이봉
▁소학교
▁유전학
▁좌표계
보리
티노
▁농축
▁변종
▁이나
▁포츠
▁대공국
▁활동가
▁ㅈㅓㅂㅎㅐ
ron
▁머니
▁복싱
▁청송
▁애덤스
▁조승우
▁ㅂㅏㄹㄹㅏ
AE
철수
코르
홍색
▁대금
▁불러
▁붕어
▁페스
▁ㄱㅏㅌ
▁해결책
▁1876
사태
▁납부
▁맥아
▁메스
▁시문
▁이산
▁펀드
▁게시판
▁고려대
▁볼로냐
▁참의원
▁후원자
DA
▁뱃
▁서예
▁재결
▁우에스기
▁프린스턴
▁알렉산드로스
▁당황
▁선양
▁아디
▁약점
▁카레
▁토이
▁다카라
▁대전차
▁레이디
▁보좌관
▁아무리
▁펭
네트
라호
▁co
▁박수
▁부류
▁해병
▁주니치
로쿠
▁군데
▁너스
▁니켈
▁도제
▁새뮤
▁채색
ㅂㅎㅏㄴ
▁두려
▁사간원
▁프리미엄
▁ㅇㅡㄹㅕㄴㅡㄴ
▁노스캐롤라이나
뮬러
큐어
▁구문
▁군관
▁낙양
▁본체
▁스모
▁임계
▁죄수
▁파파
▁브래드
▁사절단
▁나름
▁두드
▁레버
▁미미
▁부양
▁Gre
▁바이어
▁이즈미
ational
▁웨스트민스터
광성
▁도하
▁라시
▁물류
▁중일
▁통폐
▁필하
▁교구장
▁민영화
▁북조선
▁올리버
▁용의자
▁장난감
▁토트넘
▁1866
암리
▁ML
▁댓글
▁도약
▁마구
▁바시
▁박자
▁수하
▁신진
▁에리
▁ㅊㅜㄹ
▁사단장
▁집행유예
▁경무
▁긴키
▁깃털
▁백자
▁유능
▁앤서니
▁ㅎㅜㅎㅏㄴ
분열
▁SH
▁구르
▁송환
▁이호
▁전권
▁중개
리카락
른베르크
▁1886
▁ㅇㅕㄷㅗ
▁ㅋㅓㅅㅓ
▁머리카락
▁SV
▁마린
▁알폰
▁애슬
▁오메
▁제르
▁조개
▁초전
▁간사이
▁스테판
▁장제스
▁wh
▁사내
▁실각
▁익명
▁베이비
▁구스타프
▁브리티시
▁두각
▁산청
▁습득
▁여건
▁유머
▁일진
▁260
▁이어주
▁전주시
▁ㅁㅗㄹㄹㅏㅆ
ble
▁간혹
▁광선
▁레트
▁앨리
▁오지
▁바람직
▁코소보
▁페미니
▁Tour
▁ㅍㅓㅈㅕㅆ
슈타
우회
▁로브
▁모라
▁생모
▁손녀
▁유다
▁작중
▁저우
▁조소
▁경영학
▁독립군
▁조나라
▁프란치스코
EST
▁원상
르타뉴
▁갑작스
▁브르타뉴
▁페르난도
▁베이시스트
▁ㄴㅐㄹㅣㄴㄷㅏ
꿈치
▁무수
▁아자
▁요괴
▁천지
▁프루
▁270
▁구획
▁발의
▁산물
▁완도
▁촛불
▁출혈
▁쿼크
▁행방
land
▁스테이
▁스테인
짜기
▁마티
▁엘런
▁차수
▁펠로
▁포탄
▁보안법
▁통폐합
▁돌아다니
레시
▁KB
▁번갈
▁파커
▁삼각주
▁역사학
▁1887
▁베네딕토
▁ㅎㅐㄴㅐㅆ
너드
하임
▁덩어리
▁장애물
▁1861
▁ㄱㅣㅎㅐ
▁대한항공
▁배척
▁빅뱅
▁세분
▁타구
▁현과
▁Wii
▁모나코
▁바로크
▁도미니카
▁모차르트
▁Dream
▁삼국지연의
▁마나
▁성기
▁위시
▁사쓰마
▁축구팀
▁코스트
▁재단법인
▁뭐
▁여타
▁지아
▁근거지
▁새뮤얼
ition
▁가로지르
▁프로모션
AI
▁동창
▁외환
▁지면
▁포화
▁합천
▁홍성
▁강서구
▁부분군
▁홈경기
▁1850
▁Life
클라
ult
▁강세
▁경매
▁내포
▁오일
▁생성물
▁화요일
▁유니버스
▁비지
▁올레
▁자판
▁공연장
▁해석학
▁마르쿠스
▁카르타고
▁RT
▁it
▁무자
▁완결
브리드
▁개정안
▁컨텐츠
▁드미트리
▁ㅇㅕㄹㄹㅕ
orm
▁Up
▁가닥
▁놓이
▁도성
▁세무
▁오대
▁음주
▁정예
▁피닉스
▁ㄱㅏㄹㄹㅏㅈㅕ
▁렙
코타
▁AG
▁남조
▁모국
▁복위
▁증세
▁직사
▁홀딩
▁당선자
▁요금소
린트
즐리
▁TC
▁배트
▁오산
▁접합
▁뛰어넘
▁보너스
▁센다이
▁집정관
니오
▁저축
▁토목
▁편안
▁표절
스코트
▁보살상
▁선제골
제비
▁급히
▁모닝
▁몰두
▁이별
▁자궁
라호마
▁아카이
▁낭만주의
▁오클라호마
▁에두
▁자릿
▁환관
▁노동력
▁프랑코
아메리카
▁하이브리드
▁댈
동자
직경
▁앵커
▁유타
▁ㅅㅗㄴ
▁가해자
▁ㅍㅕㅇㅎㅐㅆ
▁Ed
▁경건
▁고창
▁버크
▁위패
▁이누
▁시직경
▁신세계
▁클레멘스
라르
▁기밀
▁다행
▁삭스
▁필연
▁히토
▁가라앉
▁헤라클레스
▁ㄷㅏㄹㄹㅏㅈㅣㄴㄷㅏ
왕후
▁교지
▁패권
솔리니
▁스트리밍
▁오스트리
▁ㄱㅏㅈㅊㅝ
▁ㅂㅐㅇㅜㄴ
▁관내
▁동차
▁만점
▁말단
▁왕관
▁워킹
▁단거리
▁1864
▁Open
콘신
▁"-
▁ㄴㅛ
▁암모
▁애완
▁1830
▁석가모니
▁위스콘신
▁ㅇㅣㄴㅎㅐㅅㅓ
▁돗
열차
▁예의
▁파직
▁음악원
▁재판부
▁도라에몽
▁여호
▁전교
▁백악기
▁카이로
EP
예술
타입
ton
▁공판
▁광업
▁대강
▁뒤늦
▁리트
▁양현
▁혼혈
▁후세인
▁마을버스
▁컴파일러
▁도르트문트
진우
▁en
▁가독
▁관용
▁근래
▁매달
▁스몰
▁평탄
▁허블
▁감리교
라이어티
▁미네소타
▁ㄴㅏㄴㅜㄴ
▁버라이어티
디슨
▁발톱
▁승단
▁잔디
▁장전
▁카와
▁네티즌
▁데이빗
▁크리에이
▁다카라즈카
▁마요
▁방공
▁쓰루
▁재벌
▁홈즈
▁사나이
▁황해도
▁아이디얼
▁이시카와
▁ㅁㅏㄴㄴㅏㄹ
▁배아
▁불분
▁수이
▁아편
▁정황
▁추존
▁현미
▁흘리
▁격투기
▁관련자
▁재판관
해살이풀
▁백업
▁하얀
▁주나라
▁ㄱㅕㄴㄷ
달마
클럽
▁매스
▁매진
▁민물
▁스기
▁푸아
바도르
▁ㅅㅓㄲㅇㅕ
▁깁
▁캣
▁an
▁등등
▁뷰티
▁스윙
▁조경
▁라치오
▁로맨틱
▁유전체
▁1881
ION
ave
▁선율
▁황자
▁난이도
▁남베트남
두르
▁객원
▁러닝
▁벌레
▁소라
▁승하
▁양조
▁응하
▁청문
▁침대
▁헌납
▁iOS
▁두려워하
▁트레이닝
께끼
플린
▁Ab
▁기고
▁까마귀
▁수수께끼
브웨
▁다비
▁보정
▁알맞
▁야망
▁잠실
▁전리
▁코난
▁트란
▁무작위
▁행정동
▁피츠버그
리쿠
▁구례
▁남송
▁도산
▁목욕
▁아타
▁조심
▁캐스트
▁Music
TE
▁그란
▁기통
▁세간
▁왕성
▁짐바
ject
▁롬바르
▁모멘트
▁반대파
▁외무부
▁1872
▁ㅇㅘㄹㅏ
▁리에
▁생도
▁아이콘
▁ㄱㅏㅆㅇㅡㅁㅕ
다오
▁XP
▁군세
▁승지
▁오우
▁재고
▁코뮌
올로기
▁기획사
▁대표단
▁압록강
▁루스벨트
▁이데올로기
▁루나
▁별장
▁산기
▁용사
▁쿠로
▁흑백
▁농어촌
▁이메일
▁ㅁㅜㅅㅓ
▁부다페스트
▁레비
▁발포
▁베일
▁부실
▁양면
▁의례
▁지경
▁여학생
▁제프리
▁합창단
▁ㅈㅣㄴㅏㄱㅏㄴㄷㅏ
▁ㄴㅏㄹㅋㅏㄹㅗㅇㅜㄴ
▁닌자
▁반죽
▁복직
▁캐피
▁콘티
▁통지
▁750
ㄱㅅㅡㄹ
▁훔
나파
덕왕
렌스
리드
▁BL
▁김희
▁미상
▁부전
▁어촌
▁토로
▁투하
▁판관
▁화성시
▁쵸
▁킷
ics
▁if
▁국호
▁불타
▁삼척
▁종업
ㅍㅡㄴ
▁대교구
▁파충류
▁부르주아
▁세계유산
▁ㄷㅜㄹㄹㅓ
▁교제
▁극찬
▁리브
▁메츠
▁원동
▁직관
▁태우
▁파기
리아스
▁라이스
쿠니
▁곡면
▁곱셈
▁이례
▁파주
▁노르드
▁범죄자
▁ㅋㅔㅇㅣ
▁ㅇㅏㅍㅅㅓㄴ
뛰기
성경
▁경도
▁닛산
▁상파
▁시원
▁신봉
▁ㅂㅔㄹ
▁마르셀
▁1863
▁무솔리니
▁ㄱㅏㅌㅇㅣ
▁ㅁㅣㅊㅣㄹ
▁당과
▁샤이
▁진흙
▁탄산
▁다시금
▁도망치
▁밀가루
▁HTML
▁ㅊㅏㄱㅏ
▁ㄷㅡㄹㅓㄴㅏ
▁ㅃㅗㅂㅎㅕㅆ
화경
ier
▁Sm
▁가곡
▁경량
▁괘불
▁꼬마
▁내재
▁발산
▁북벌
▁이니
▁정명
▁파열
변속기
▁다비드
▁슬로건
ool
▁금고
▁배향
▁익산
▁중랑
▁취향
▁친밀
부아르
▁승용차
▁화학자
루크
림사
▁순항
ㅈㅏㄱㅅㅡㄹ
▁가든
▁가비
▁주고
▁해킹
태평양
▁개체군
▁무로마치
QL
▁고모
▁나탈
▁브렌
▁계승자
▁ㅁㅜㄷㅎㅕ
평리
▁AL
▁병단
▁살짝
▁인위
▁종묘
ㅗㅈㅏ
▁Don
▁참가국
▁취리히
▁코호몰로지
ru
▁엡
▁단국
▁레아
▁엄청
▁인제
▁켄터
▁탐정
▁호크스
▁ㅈㅜㄱㅇㅕ
▁te
▁계좌
▁납작
▁당진
▁의용
▁입시
슬라프
▁초록색
▁ㅂㅜㄹㅌ
▁유라시아
▁ㅈㅓㄴㅎㅐㅈㅕㅆ
데자
바인
워즈
▁대의
▁두어
▁루즈
▁복역
▁승상
▁불분명
▁작품상
데자네이
▁1873
▁ㄱㅚㄹㅗ
▁세르게이
▁ㅅㅏㄹㅗㅈㅏ
비오
che
▁단조
▁덴쇼
▁섬기
▁오트
▁클릭
▁햇빛
▁타임즈
번에
어드
▁가두
▁조장
▁페인
▁공통점
▁국민회
▁1865
▁교통사고
▁ㄸㅓㄹㅇㅓㅈㅣㄴㄷㅏ
▁튼
▁교동
▁매립
▁완비
▁장쑤
▁조시
▁태아
▁피카
▁ㄹㅏㅁ
▁시간대
▁청년회
▁하얀색
▁ㅇㅏㄴㅣㄴㄱㅏ
ise
▁ㅇㅖ
▁감추
▁경마
▁모란
▁위법
▁을사
▁코마
▁킹스
▁여진족
▁폼페이
▁샵
타스
ode
▁서지
▁에치
▁작년
▁잡히
▁팔작
▁와이드
▁항아리
▁ㅇㅓㄺㅎ
▁ㅇㅕㄹㄹㅣㄹ
▁계엄
▁과다
▁도도
▁옹주
▁왓슨
▁IMF
▁그나마
▁챌린저
▁탐험가
▁마스코트
▁열렬
▁외상
▁픽셀
▁경복궁
▁오카야마
▁ㄲㅡㅌㄴㅏㄴㄷㅏ
▁거꾸
▁양궁
▁충당
▁페라
▁하스
▁해시
▁제너럴
▁1891
▁ㅁㅏㅌㄱㅕㅆ
▁ㅇㅕㅆㅇㅡㅁㅇㅡㄹ
리야
▁PM
▁몸돌
▁착취
▁한창
▁허목
▁안산시
▁야쿠르트
데자네이루
▁리우데자네이루
시대
▁걸작
▁등단
▁티모
▁알아내
▁유니언
▁ㅈㅣㄴㅎㅏㄴ
더지
매김
▁거스
▁구강
▁단자
▁대목
▁봉황
▁슈고
▁요즘
▁조공
▁처방
▁캐치
stem
▁몰도바
▁박영효
▁Night
▁ㅂㅣㅆㅏㄴ
바지
▁반항
▁법전
▁세단
▁쇼크
▁다국적
▁생화학
▁제조사
▁조선소
▁크루즈
▁아비달마
▁아오모리
▁ㄷㅜㄲㅓㅇㅜㄴ
▁려
▁도봉
▁루피
▁리자
▁야심
▁입술
▁합금
▁발기인
린더
미쓰
▁경지
▁라크
▁모함
▁최장
▁피셔
▁시티즌
▁지자체
▁찾아가
▁공군기지
▁ㄴㅡㄹㄹㅕ
UC
친왕
쿠르
▁MA
▁부에
▁분경
▁산책
▁신대
▁포대
▁혈압
▁고성군
▁우간다
▁온타리오주
단위
사화
인구
▁--
▁NS
▁매도
▁사드
▁적발
▁촉발
▁카슈
이스케
플렉스
▁공식전
▁세군다
▁종사자
훈장
▁버펄
▁볼넷
▁증발
▁현무
합중국
▁승정원
▁앤드류
▁자리매김
▁씻
▁맞춤
▁우마
▁철종
▁타도
▁필두
▁해부학
▁조선왕조
▁손꼽
▁주저
▁후한
▁발가락
▁켄터키
▁ㄱㅏㄹㅣㅋㅕ
▁ㅇㅣㄹㅝㅈㅣ
▁과격
▁란스
▁미인
▁불로
▁채굴
ㄹㅗㄱ
▁650
▁제작진
▁짐바브웨
NG
동맹
참찬
▁MM
▁반점
▁거꾸로
레타리아
▁ㄷㅏㄹㄹㅏ
▁프롤레타리아
▁마모
▁무고
▁스킬
▁증강
▁진원
▁스코어
ㅓㅇㅜㅁ
▁Good
▁두드러지
▁이바라키
▁베스트셀러
ai
▁괜
레반
▁AI
▁굴복
▁시진
▁어는
▁연행
▁체내
▁캐논
▁키즈
▁헌병
▁현도
▁Black
ank
▁강호
▁고마
▁라면
▁소작
▁여대
▁유태
▁헤어
ower
▁ㅂㅔㄴ
▁릴레이
▁연출가
상어
▁qu
▁반론
▁오즈
▁자켓
▁접전
▁직교
▁ㄲㅡㄴ
▁다마스
▁스테이트
▁콧
▁터빈
▁튼튼
▁파랑
▁Can
▁노르만
▁종업원
▁포항시
▁삼국유사
▁사이타마현
▁샨
▁간판
▁기묘
▁네임
▁농성
▁도발
▁박진
▁용감
▁ret
▁댈러스
▁백악관
▁ㅇㅏㅍㄷㅜㄴ
▁국부
▁스톰
▁위헌
▁적정
ㅂㅗㄴㅐㅆ
▁ㄱㅏㅂㅈㅏㄱㅅㅡㄹ
고르
▁NAD
▁트로트
▁미합중국
▁ㅁㅜㄹㄹㅓㄴㅏㄴ
킨슨
포타
▁산신
▁조준
▁투신
▁550
▁수시로
▁테무르
70
▁믈
무제
▁El
▁당당
▁대담
▁리키
▁문정
▁병과
▁열쇠
▁저해
▁횡령
▁반정부
▁자외선
▁자유형
▁ㄷㅡㄹㄹㅕ
DS
▁교서
▁들리
▁사교
▁신의
▁온건
▁행보
▁흡연
▁ㅁㅓㅅ
▁용산구
▁이성질
▁하반기
▁1862
▁ㄱㅓㅊㅕㅅㅓ
내티
려들
세다
티야
▁걸프
▁무도
▁변증
▁수퍼
▁연달
▁휩쓸
▁미카엘
▁받침돌
포타미아
▁신시내티
▁메소포타미아
▁q
펠러
▁분별
▁전멸
▁티저
▁히노
▁타이탄
내리
▁Qu
▁길드
▁내란
▁내역
▁사하
▁아델
▁양양
▁완수
▁장신
▁조어
▁증식
▁활자
타나베
▁Ser
▁ㅋㅓㅈㅕㅆ
▁ㅅㅜㅁㄱㅕㅈㅣㄴ
진구
▁구슬
▁국력
▁베풀
▁서위
▁심정
▁연화
▁오보
▁이강
▁조서
▁진언
▁필명
▁김성수
▁엑스포
▁입법부
▁LS
▁군자
▁북대
▁성수
▁신해
▁엘라
▁조석
▁연주회
▁플러그
루엔
▁황폐
▁언론사
▁1867
디언
▁독주
▁모반
▁온두
▁레인저
▁편집장
▁온두라스
▁ㅊㅓㅎㅏㄴ
▁페르디난트
ㅈㅣㄹㅏㄷㅗ
▁ㅅㅏㄹㅏㅈㅕ
▁UC
▁광자
▁교훈
▁임하
▁Let
▁페르미
▁6000
▁팔작지붕
▁라이프치히
▁Ac
▁간결
▁고찰
▁모조
▁지문
▁처장
▁푸드
세우스
▁705
▁사무국
테이
▁DR
▁광배
▁서한
▁양군
드라마
선거구
▁ㅇㅓㄱ
▁변광성
▁앨버트
▁증조부
▁타타르
▁ㄱㅏㄹㅡㅊㅕ
정사
활약
▁AU
▁나사
▁노브
▁변모
▁옥시
▁경희대
▁ㅌㅗㄹㅗㄱ
▁싹
lar
▁후미
ings
▁ㅇㅏㅅ
▁ㅍㅐㅎㅐ
▁팍
센터
▁유구
▁토유
▁표출
▁MSL
▁맹활약
▁손잡이
▁알폰소
▁페드로
ㄸㅡㄹㅕ
▁데카르트
비언
▁예종
▁지탱
▁쿠라
▁회유
▁프로테
ㄹㄹㅣㄹ
▁백과사전
▁이노우에
▁section
▁궐
▁객실
▁잔존
▁코모
▁키릴
▁ㄴㅏㄹㄹㅕ
▁ㅇㅜㅁㅈㅣㄱㅇㅣㄹ
다발
▁사보이
▁치료제
중추부사
▁프라이즈
▁협동조합
ta
▁낡
렐라
방군
위치
젤로
▁-&
▁경은
▁넘버
▁보직
▁성품
▁수당
▁청각
▁하중
▁갈라지
▁부등식
▁홀딩스
▁ㅈㅓㅈㅣㄹㅡㄴ
▁상선
▁잉크
절도사
▁감염증
▁ㅂㅐㅇㅝ
▁탬
자원
할린
▁당파
▁버진
▁번개
▁절약
▁체하
▁충칭
▁피처
▁기원후
▁이브스
▁일본식
▁특별법
▁ㄷㅓㄴㅈㅕㅆ
▁심소
▁차림
▁헤겔
rist
▁And
▁무사히
▁웨이브
▁명성황후
▁ㄱㅔㄴㅈㅣ
▁ㅁㅏㅈㅊㅜㄴ
▁ㅈㅜㄱㅇㅣㅁ
▁ㄹㅏㅁㅕㄴㅅㅓ
▁ㅁㅣㅊㅣㄴㄷㅏ
tr
▁가극
▁논하
▁벵골
▁유망
▁스파이더
▁신한은행
▁후지와라
ee
▁샴
ㅏㅇ
▁Ag
▁수급
▁엘레
▁지그
▁참패
▁마그네
▁봉우리
▁인지도
▁1878
▁ㅊㅕㄷㅡㄹㅇㅓ
정보
▁가방
▁박원
▁용해
▁컴파일
▁국민학교
▁미나모토노
▁코퍼레이션
ky
마디
▁PL
▁글렌
▁동탁
▁시르
▁영미
▁중용
▁지린
▁자릿수
▁플루토
▁고등학생
▁썬
▁SO
▁자행
▁정진
▁후드
가르트
▁수도회
▁ㅎㅐㅇㅎㅐㅈㅕㅆ
▁교화
▁동자
▁변질
▁참수
ㅅㅏㄹ
▁건륭제
▁경쟁자
▁그래도
▁연예계
▁지질학
▁비스마르크
▁아나톨리아
▁일리노이주
빌리
▁꽃잎
▁렉스
▁보류
▁서거
▁세토
▁유림
▁직물
▁피어
▁대리석
▁주고받
▁출입문
▁ㄸㅓㄴㅏㄹ
▁스에
▁점진
▁추축
▁행군
플로러
▁나치오
▁신기록
▁익스플로러
▁엇
산부
▁괄호
▁국화
▁미학
▁서점
▁손님
▁충신
▁현악
▁802
▁베르나
▁외교부
▁패스트
▁스케이트
▁tr
▁라다
▁용수
▁텍스
▁항생
▁사대부
▁아이젠
▁ㄴㅑㄱㅗ
▁프랑스와
▁ㅅㅐㄱㅕㅆ
▁급성
▁자부
▁차명
▁불가피
▁액세스
▁ㄴㅐㅅㅔㅇㅝ
▁밧
누마
다스
▁무비
▁수레
▁완만
▁유화
▁축일
▁골짜기
▁뉴기니
▁요리토모
▁ㄴㅗㄹㅏㄴ
북면
일치
hem
▁RC
▁각주
▁다목
▁모티
▁바쿠
▁솔라
▁수증
▁정박
▁지체
▁추후
▁출국
▁형주
에이고
▁영유권
▁쿠르드
▁아우구스
▁키르기스
▁ㅊㅟㅎㅏㄹ
▁샌디에이고
작전
▁ㅍㅛ
▁과자
▁버티
▁사부
▁습성
▁영사
▁환율
▁원자핵
▁인코딩
▁포뮬러
▁프리츠
▁공상
▁근방
▁부관
▁에트
▁옥천
▁추계
▁패킷
ㅈㅣㄹㄹㅓㅆ
▁랙
대전
벤션
셔주
시게
▁고국
▁국인
▁반입
▁시역
▁콜드
▁폴라
▁여객기
BI
퉁이
▁강우
▁기조
▁사소
▁육식
▁일설
▁잔해
▁처치
▁치사
▁516
▁핵분열
사우루스
▁ㅅㅐㅇㄱㅣㄹ
▁ㅍㅏㄹㄹㅣㄴ
▁그물
▁대타
▁아뢰
▁출세
▁패망
▁헤더
▁다가오
▁방위군
▁부여군
▁수비대
▁프라임
▁1869
▁힐베르트
▁팻
수단
▁교파
▁다량
▁매슈
▁무색
▁봉하
▁시시
▁인승
▁일선
▁절친
▁해트
시아드
▁HMS
▁기동전
▁운동량
▁1840
▁글로브상
▁와타나베
▁ㅇㅣㅇㅓㅅㅓ
▁이끼
▁토라
▁채권자
▁ㅈㅜㄹㅇㅣㄹ
▁유니버시아드
pr
날드
▁로시
▁면직
▁소피
▁오자
▁의정
▁초음
▁쿼터
▁며느리
▁바닷물
▁와세다
네르
▁닉스
▁부두
▁상식
▁상의
▁포천
뉴기니
▁업로드
▁운전자
블릿
▁목동
▁빅터
▁쌍성
▁자정
▁자처
▁저그
▁청취
▁컵스
▁마포구
▁유엔군
▁치료법
▁ㄱㅡㄹㅐㅆ
▁ㅁㅓㅅㅈㅣㄴ
▁ㅊㅣㅇㅎㅐㅆ
▁ㄱㅓㄹㄹㅣㄴㄷㅏ
▁몸체
▁벤츠
▁이목
▁퀴즈
▁토키
▁오스카
▁ㅋㅣㄹㅗ
노르
▁국세
▁귀인
▁애기
▁입출
스타인
▁ㅌㅟㅇ
▁예언자
▁팔꿈치
▁레지스터
▁사이언스
▁에이전트
▁ㄴㅓㅁㄱㅕㅆ
곡면
ade
▁개기
▁민심
▁입히
▁컴필
▁휘발
▁Mon
▁강력히
▁시니어
▁Song
▁매킨토시
▁ㄱㅡㄹㅓㄹ
▁ㅇㅔㄱㅔㄴ
▁컴필레이션
▁ㄷㅚㅂㄴㅣㄷㅏ
ae
▁벳
▁볶
려오
선언
▁단서
▁바인
▁베오
▁부군
▁포자
▁포탑
▁헤일
▁호그
ㅈㅏㅇ
▁피의자
▁파시스트
▁ㅂㅜㄹㄹㅕ
▁로드리게스
▁아나키스트
날레
조사
효소
▁디나
▁변혁
▁자취
▁텐서
크라테스
▁ㄴㅐㅅㅔㅇㅝㅆ
per
▁거사
▁마레
▁바보
▁신지
▁위도
▁ㅆㅓㄴ
▁글러브
▁금강산
▁네이트
▁스트림
▁모자이크
▁와카야마
세르
▁겨루
▁빈민
▁숙소
▁이거
▁자질
▁캐슬
ㄱㅓㄹ
ount
▁목적지
탄두
▁AA
▁Pe
▁VS
▁ㅇㅝ
▁강인
▁걸음
▁몰아
▁하수
▁ㄴㅡㄹㅇㅓㄴㅏㄴ
티컷
▁me
▁괜찮
▁단역
▁박재
▁백조
▁블러
▁소박
▁아어
▁전단
▁천상
▁풀리
▁맥아더
▁1592
▁고등교육
▁남아시아
▁코네티컷
▁ㅂㅏㄺㅎㅕㅈㅕ
▁밋
히메
▁As
▁논산
▁성가
▁스택
▁실사
▁영수
▁철자
▁리차드
▁세미나
▁종착역
▁창립자
구스
▁고을
▁고제
▁직렬
암사
쳐지
ium
▁Aw
▁금색
▁관심사
▁테크놀
▁8000
▁병자호란
▁친선경기
ㄹㅗㅇㅜㄴ
ㅇㅏㄴㅐㄴ
IF
▁암수
▁양파
▁의복
▁자루
▁튜브
이치로
▁보유자
▁안동시
▁장로회
▁필사본
ㄸㅏㄹㅏ
▁크리스티나
▁ㅍㅕㄹㅊㅣㄴ
▁ㅁㅓㅁㅜㄹㄹㅓ
수염
ale
▁KN
▁ㅆㅢ
▁규율
▁리스본
▁이랜드
▁적십자
▁히타치
▁Windows
IX
전선
히데
▁란트
▁슈투
▁어부
▁왜군
▁하구
▁이와테
▁코트디
▁뉘른베르크
▁ㄴㅐㄹㅕㅇㅘ
▁코트디부아르
▁ㅈㅣㄴㅏㅊㅣㄴ
▁펜실베이니아주
▁ㅈㅜㄴㄷㅏㄴㅡㄴ
90
▁ㅌㅡ
▁기행
▁다쓰
▁린다
▁성대
▁온실
▁유이
▁피살
▁KTX
▁ㅊㅓㅎㅐ
▁ㅁㅗㅅㅣㄴ
▁외면
▁유자
▁은밀
▁과반수
▁지하역
▁Heart
▁포르투갈어
▁ㄷㅗㅁㅏㅇㅊㅕㅆ
보당
찬성
ata
▁노현
▁동호
▁방탄
▁아다
▁악명
▁웍스
▁유골
▁임종
▁구단주
▁담당자
▁보호법
▁어도비
▁클리어
▁헤르만
▁ㄹㅏㅇㅜ
테랑
▁Gl
▁ab
▁면담
▁병풍
▁수만
▁얼룩
▁질투
▁하라
▁ㅂㅐㄴ
▁ㅉㅓㄴ
▁ㄴㅣㄲㅏ
▁심리학자
▁계룡
▁농가
▁능가
▁삭감
▁이카
▁준동
▁380
▁로타르
▁파주시
던트
▁뉴런
▁여포
▁의주
▁탁구
▁1875
▁그린란드
▁페널티킥
▁세인트루이스
▁ㅊㅏㄱㅏㅇㅜㄴ
링겐
▁거창
▁크메르
▁형용사
▁근본번뇌
넌트
▁권익
▁김연
▁문중
▁사귀
▁서약
▁연중
▁염화
▁오구
▁위크
▁정오
▁비둘기
▁신석기
▁썩
▁니케
▁디바
▁라라
▁라프
▁문체
▁열세
▁예식
▁워스
▁잠입
▁흥원
루엔자
▁Gen
▁성폭행
▁올라오
▁널
세키
욕장
▁독살
▁미지
▁비키
▁숙련
▁실상
▁율법
▁이선
▁일명
▁특공
▁한민
▁통신망
▁여우원숭이
▁ㅊㅏㅈㅇㅏㅇㅘ
▁ㅎㅏㄴㄷㅏㅁㅕ
son
▁강습
▁결말
▁상과
▁설리
▁셔틀
▁오시
▁외척
▁원문
▁친화
▁콜린
▁키드
▁타쿠
▁페레
▁호른
▁사이즈
▁스피커
▁안창호
▁집단군
▁ㅈㅓㅇㅎㅐㅈㅕ
▁기판
▁날리
▁다름
▁로니
▁막강
▁상동
▁시찰
▁아지
▁야수
▁예금
▁이심
세데스
▁개그맨
▁ㄸㅟㅇㅓㄴㅏ
▁브란덴부르크
▁배당
▁불복
▁엔젤
▁원단
▁유카
▁중견
▁칸트
▁친환경
▁지장보살
▁메르세데스
▁return
▁sh
▁겸직
▁도적
▁발착
▁비료
▁실명
▁윤휴
▁Out
▁회고록
▁ㄴㅗㄹㄹ
▁영등포구
▁바빌로니아
▁절충
▁최하
레이트
▁강대국
▁몽고메리
▁엿
▁기린
▁볼록
▁아노
▁재보
▁정칙
▁징집
▁침식
▁향신
▁가환환
▁고문서
▁스케줄
▁시미즈
▁예비역
▁크라운
▁토요타
부대
알라
itt
▁구루
▁몹시
▁사각
▁조비
▁키리
▁포인
▁ㅈㅣㅂ
▁나리타
▁대항전
▁아세틸
▁학술지
ng
기아
세서
▁다자
▁로사
▁로큰
▁선상
▁게임기
▁레스터
▁스케치
▁엑스박스
▁꽂
기즈
놀드
사유
▁TS
▁방울
▁예프
▁착각
▁출품
▁AMD
▁ㅌㅐㄱ
▁다이쇼
▁보리스
▁클레어
▁파스칼
▁함경도
▁합성어
▁항공대
▁알프레드
▁인플루엔자
▁땀
이에
▁슬리
▁야권
▁어사
▁첩보
▁폐허
▁사무라이
▁ㄷㅏㄹㅜㄹ
PA
▁엣
계사
▁구시
▁최남
▁표제
▁슈타인
▁열역학
▁일부러
▁최성기
▁ㅇㅣㄱㅓㄴ
더링
▁DB
▁김두
▁리크
▁명상
▁애착
▁자장
ㄱㅣㅁ
▁ㅅㅟㄹ
▁데이트
▁로큰롤
▁ㅇㅏㅍㅈㅏㅇ
▁벙
▁싯
방향
양이
▁달콤
▁바늘
▁왕래
▁부적절
▁진주시
▁컨벤션
▁ㅍㅜㄹㄹㅕㄴㅏㅆ
UN
▁거칠
▁생원
▁일차
▁혼잡
그래피
▁ㅆㅏㄴ
▁데뷔작
▁채무자
▁테오도
▁ㅈㅏㄹㅏ
ㄷㅡㄴㄷㅏ
두사
르카
▁에코
▁인먼
ㅌㅡㄹ
▁강희제
▁그러면
▁돌고래
▁매디슨
▁표트르
▁삐
▁극소
▁버트
▁서클
▁선체
▁순식
▁여럿
▁예멘
▁이희
▁취직
▁터너
▁맥스웰
▁파라오
▁프론트
▁안드로메다
▁격하
▁노원
▁배반
▁성행
▁이씨
▁타시
▁태안
▁ㄹㅗㄹ
▁반감기
▁칭기즈
ㅓㅇㅝㅆ
▁오프라인
▁ㅎㅡㄴㄷㅡㄹ
몽골
IVE
▁라벨
▁목장
▁용지
▁웨어
▁재화
▁집전
▁헤센
▁획기
able
▁Par
▁광둥성
▁쇼핑몰
▁중앙선
행파
▁결전
▁레몬
▁스펜
▁월남
▁지치
▁되풀이
▁베르트
▁송파구
▁남양주시
ㄷㅡㄹㅇㅣㄴ
ody
▁구타
▁메모
▁모피
▁수은
▁술라
▁장정
▁Vol
▁야마다
건설
시험
▁WC
▁안식
▁안중
▁의성
▁이질
▁235
▁ㄲㅣㅊㅣㄴ
▁ㅊㅣㄴㅎㅏㄴ
VA
엽수
윽고
임새
▁KO
▁기마
▁기운
▁등산
▁양극
▁영락
▁월화
▁토피
▁보조금
▁이윽고
▁장갑차
▁쇼트트랙
▁문관
▁에레
▁유충
▁찌르
▁체로
▁중앙아메리카
▁텅
니에
모음
▁가세
▁경의
▁기공
▁동거
▁모체
▁묘호
▁법규
▁생쥐
▁서안
록대부
▁DOS
▁상반기
▁선거인
▁이사벨
▁통도사
▁ㄷㅗㄹㅇㅏㄱㅏㄹ
▁University
▁샷
▁가모
▁내림
▁보우
▁사주
▁원효
▁이홍
▁ㄹㅓㅆ
▁아리랑
▁흔들리
13
우주
화당
▁나쁘
▁수마
▁자격증
▁아우구스투스
루즈
어류
은사
▁교관
▁금정
▁모사
▁무능
▁방호
▁서당
▁캐스터
▁ㅂㅕㄴㅎㅐ
▁브로드웨이
▁구세
▁근세
▁로바
▁실은
▁위트
▁코로
ㅊㅏㄴ
▁사할린
▁카디널
▁저널리스트
me
▁탭
벌리
▁가명
▁베티
▁보그
▁세일
▁수역
▁안톤
▁열악
▁잉카
▁정언
▁젤리
▁콘스
▁키트
해방군
▁동아리
▁바나나
▁서스펜
▁슈퍼스타
▁인민해방군
▁ㅅㅣㄹㄹㅕㅆ
박사
텐셜
▁구아
▁규약
▁빌드
▁시의
▁양서
▁요가
▁일간
▁출격
올리언
▁북극점
▁연속극
▁정치국
▁랠
▁대류
▁망치
▁샤르
▁패치
▁205
▁NBC
▁꽃차례
▁통계청
▁ㄷㅙㅆㅇㅡㄴㅏ
사와
▁동군
▁라울
▁문수
▁미트
▁박용
▁변천
▁사미
▁야코
▁염두
▁이달
▁정글
▁종가
▁확충
▁ㅁㅜㅇ
▁순식간
▁콜럼버스
18
르산
anc
▁경순
▁세스
▁시제
▁은폐
▁출사
▁키타
▁가이아
▁교육감
▁퍼텐셜
ㄱㅇㅣㄴ
▁라이베리아
▁보컬리스트
▁IR
▁병렬
▁잉여
▁자위
▁중남
▁집사
▁후루
▁가요제
▁로버츠
▁터뜨리
쿠사
▁At
▁경종
▁단양
▁래리
▁볼드
▁상계
▁소양
▁실효
▁아끼
▁악당
▁안심
▁전조
▁빼앗기
스코리아
▁뉴올리언
▁ㅇㅣㄹㅜㄹ
▁ㅍㅕㄹㅊㅕㅈㅕ
▁ㄱㅏㅈㅕㅆㅇㅡㅁㅕ
▁기미
▁나일
▁숙박
▁싱크
▁초계
▁케리
▁흔들
▁시그마
▁ㅆㅓㅆㅇㅡㅁㅕ
▁맴
데기
▁가뭄
▁델리
▁석기
▁신병
▁정승
▁정에
진보당
▁대수학
▁무지개
▁비단털
▁셴
▁퀄
보라
촌리
▁균일
▁노카
▁데일
▁미첼
▁복부
▁불쾌
▁자키
▁품목
▁호로
very
▁708
▁따라가
▁사학자
▁슈미트
▁아스카
▁청문회
▁ㄴㅏㅈㅊ
▁비단털쥐
에쓰
연구
주크
▁AE
▁베크
▁외할
▁일주
▁즐거
▁축복
▁스케일
▁콘라트
▁유가행파
▁지하철역
au
▁뤄
▁군복
▁나기
▁라가
▁라플
▁무가
▁산문
▁아연
▁조봉
▁족장
▁총영
▁칼륨
▁하지
▁한겨
▁재미있
▁호흡기
▁Hell
▁관음보살
▁서비스업
▁ㅁㅜㄲㅇㅕ
▁ㅎㅐㅈㅣㄹ
▁cc
▁경화
▁금환
▁안팎
▁에볼
▁화음
▁ATC
▁게임즈
▁교육학
▁당뇨병
▁로베르토
▁바이마르
▁스틸러스
▁ㅇㅗㄹㅡㄹ
▁ㅂㅜㄹㅌㅐㅇ
net
▁단발
▁안기
▁옥사
▁잔혹
▁폐교
▁한복
▁내보내
▁비잔틴
▁오르간
▁ㅁㅏㅌㄱㅕ
▁조선공산당
열대
▁JC
▁기스
▁남단
▁리시
▁뮐러
▁줄곧
▁초회
▁신호장
▁테두리
▁갈릴레오
▁ㅈㅓㄴㅎㅐㅈㅕ
큐슈
ala
▁골절
▁놓치
▁눈치
▁시성
▁애드
▁후이
스크림
▁거주자
▁ㅊㅕㅅㅓ
▁그레이엄
▁ㄷㅏㄹㄹㅣㄴㄷㅏ
▁ㅂㅕㄴㅎㅏㄴㄷㅏ
▁마흐
▁손목
▁코크
▁포니
▁향수
폴리탄
▁ㅎㅓㅁ
▁간호사
▁시마즈
▁유명세
▁조각상
▁1874
▁name
▁일렉트릭
▁클러스터
▁ㅇㅏㄴㄱㅕ
▁메트로폴리탄
▁ㅁㅗㅅㅎㅐㅆㅇㅡㅁㅕ
바드
ATO
▁낭비
▁전범
▁치마
▁침범
▁카로
▁클랜
▁물려주
▁오릭스
▁벚
변수
▁비옥
▁상한
▁솜씨
▁외손
▁우표
▁읍성
▁인성
▁ㄲㅜㅁ
▁손꼽히
▁조각가
▁후쿠이
▁ㅎㅐㅈㅜㄴㄷㅏ
▁잼
민당
악산
▁고층
▁보어
▁소론
▁스펙
▁에노
▁젠더
▁통솔
▁하산
▁화승
▁ㄲㅐㅇ
▁김해시
▁출판물
▁ㅇㅗㄹㄹㅣㄹ
▁sp
▁다쿠
▁외삼
▁일삼
▁Her
▁공학자
▁라스트
▁성폭력
▁콘퍼런스
▁ㄴㅐㄹㅣㄹ
14
구니
프랑
▁무예
▁쿠마
▁화원
어들이
▁반대편
▁포식자
▁우두머리
ps
범죄
ash
▁과세
▁나한
▁뉴멕
▁도형
▁리나
▁모치
▁몰수
▁밸브
▁창구
▁탄수
▁풀백
▁사무관
▁안양시
▁전시관
▁케이드
▁핸드볼
▁뉴멕시코
▁ㄷㅏㄴㅕㅇㅘㅆ
▁멱
신저
▁SR
▁et
▁강좌
▁관위
▁발작
▁오마
▁이문
▁재회
▁tvN
▁최진실
▁한겨레
▁This
▁오아시스
데일
▁강국
▁넷플
▁리타
▁발판
▁버니
▁사중
▁양평
▁적법
▁사하라
▁컨설팅
▁트레일
▁넷플릭스
▁ㅇㅏㅍㅅㅔ
▁멀티미디어
▁ㄱㅏㄹㅗㅈㅣㄹㄹㅓ
소문
황색
▁가온
▁동백
▁요직
▁학당
▁남극점
▁부르봉
▁셀주크
▁안드레
▁여운형
▁바그다드
▁알렉산데르
ax
▁YG
▁마늘
▁바니
▁예제
▁잔여
▁조동
▁저스틴
▁책임지
▁휴대폰
▁1877
▁유니코드
▁컨퍼런스
▁서아프리카
15
co
▁석권
▁이색
▁코린
▁화염
▁204
▁클로드
▁ㅆㅏㅇㅜㄹ
HC
▁레나
▁문맥
▁산조
▁인스
▁칠성
▁코바
▁협곡
▁로페스
▁외계인
▁중거리
▁천도교
▁항공편
▁ㅁㅏㄹㄹㅏ
▁미스코리아
▁ㅇㅗㄹㄹㅏㅇㅘ
▁뉴클레오타이드
▁"|
▁거시
▁격전
▁공문
▁김우
▁너희
▁백지
▁자성
▁홍익
▁아우르
▁핵탄두
▁ㅅㅡㄹㅓㅇㅝ
▁파푸아뉴기니
▁ㅅㅣㄷㅏㄹㄹㅕㅆ
스퍼
피크
▁가선
▁변론
▁선단
▁엄지
▁템플
야누스
▁지리산
▁캄파니아
▁플루토늄
▁호소카와
▁ㄸㅓㄹㅊㅕㅆ
GB
so
yn
▁쿰
일기
▁고승
▁두뇌
▁부엌
▁소인
▁의제
▁주군
▁퇴진
▁행선
▁회차
▁CIA
▁Dra
▁동남쪽
▁한국군
ㅇㅓㄴㅐㅆ
를레
징어
▁ㅅㅛ
▁경합
▁문물
▁바야
▁에페
▁지크
▁공주시
▁아놀드
▁레닌주의
▁서바이벌
▁트라야누스
계약
비에
혈구
▁AF
▁복속
▁제비
▁판명
▁펭귄
▁Best
▁챠
▁툼
oid
▁GR
▁논증
▁소르
▁송이
▁여정
▁차오
▁카일
▁518
▁이주민
▁허베이
▁현미경
▁7000
▁ㅁㅜㅇㅓㄴ
▁감축
▁경내
▁승낙
▁시발
▁원사
▁재물
▁캠벨
▁Bab
▁개화파
▁앞바다
▁에스컬
▁카리스
▁트레인
▁ㅎㅡㄹㄹ
▁ㅆㅡㅇㅣㄹ
▁에스컬레이터
더릭
토크
▁곤살
▁도부
▁라임
▁무주
▁미겔
▁블랑
▁세제
▁제지
▁퇴치
▁후회
▁ㅌㅏㅆ
▁브리스
▁오리엔
▁콘티넨
▁ㅊㅜㅇㅜㄴ
동원
운수
▁민원
▁스플
▁아킬
▁앨라
▁미트라
▁스타드
▁참전하
▁프레슬리
▁ㄱㅣㄷㅏㄴ
투리
▁레크
▁받치
▁서품
▁양천
▁1700
▁다카하시
마을
재판
▁Mi
▁결장
▁도읍
▁미러
▁베다
▁앞뒤
▁억울
▁요도
▁트림
▁클레오
▁페스트
ict
▁달력
▁바젤
▁바투
▁소주
▁해지
▁대사간
▁수백만
▁울트라
▁웜
티지
ose
▁로망
▁북측
▁산술
▁산체
▁루이즈
▁ㄱㅡㄹㅐ
▁ㄷㅗㄹㄹㅕㅆ
제철
▁거병
▁미켈
▁숙명
▁순찰
▁승률
▁지령
▁츠카
▁타선
▁통찰
▁하층
▁625
▁ㄸㅏㄴ
▁사다리
▁원주시
▁인류학
▁콜린스
▁ㅁㅜㄹㄹㅓㄴㅏ
▁ㅁㅜㅇㅓㄴㄱㅏ
22
▁본존
▁사연
▁산재
▁산정
▁토바
▁화소
▁APG
▁길거리
▁루카스
▁아키텐
▁엘비스
▁연방군
▁우에노
▁이론가
▁만장일치
▁아드리아
▁켐
의식
장사
형제
▁공병
▁다윗
▁인계
▁자백
▁처마
▁ㅎㅐㄴ
▁게이밍
▁경부선
▁억제제
▁1859
▁라이센스
▁카디널스
▁프리큐어
버터
▁KS
▁결여
▁대입
▁상환
▁ㅂㅏㅊㅕ
구나
▁나투
▁롤러
▁맹렬
▁방학
▁블룸
▁테헤
▁투사
로트
▁문건
▁북인
▁상설
▁ㄲㅓㄴ
▁강화군
▁서태지
ㄸㅡㄹㅣㄴ
고사
양구
▁도안
▁수질
▁푸젠
▁함장
▁난쟁이
▁통계학
▁향신료
▁갑작스럽
▁ㅁㅗㄹㅡㄴ
▁ㅎㅐㅆㅇㅡㅁㅡㄹㅗ
▁짚
과학
▁se
▁곡식
▁구전
▁김주
▁네브
▁만류
▁명왕
▁성조
▁유창
▁차역
▁후견
▁빌바오
▁이케다
▁제니퍼
▁자이언트
▁ㅂㅜㄹㄹㅣㄹ
나시
무장
▁김도
▁리안
▁발광
▁알로
▁전봉
▁플랑
▁헬스
▁가치관
▁매니아
▁아이치
▁앙드레
ㅇㅣㄷㅏ
▁ㄱㅗㄹㄹㅏ
▁아이스크림
▁끔
르바
EEE
▁니즈
▁로디
▁무공
▁백운
▁사병
▁완장
▁ㄲㅡㅀ
▁ㅇㅓㄹ
▁빈센트
▁자카르타
▁us
▁관아
▁구가
▁두르
▁부식
▁서체
▁주포
▁진심
▁ㅂㅓㅁ
▁결의안
▁곧이어
▁찾아오
▁혼합물
▁스테파노
▁ㅅㅔㅇㅝㅆㅇㅡㅁㅕ
란다
장조
▁뚜껑
▁멜라
▁사산
▁상감
▁원점
▁폐차
▁대혁명
▁슈투트
▁테크놀로지
▁슈투트가르트
▁ㅂㅏㄲㅟㄴㄷㅏ
다보
uck
▁루드
▁매기
▁박찬
▁선과
▁수프
▁의인
▁이만
▁일면
▁카보
▁피자
▁홀수
▁미성년
▁순천시
▁아파치
▁출장소
▁미야기현
▁사이클론
▁뮈
매기
배마
스톤
▁군기
▁금관
▁왕당
▁퇴출
reak
▁셰퍼드
▁메모리얼
▁앨라배마
플레
▁오와
▁율리
▁중건
▁타파
▁튜링
▁후면
de
▁펙
▁양지
▁이창
▁바스크
▁이치현
▁소아시아
▁ㄱㅣㄹㄹㅓ
남면
▁모교
▁발터
▁보디
▁수라
▁안주
▁어학
▁연해
▁예보
▁태화
▁터스
▁ㄲㅏㄹ
▁가우스
▁개최지
▁대제학
▁순교자
▁직사각
▁^
완다
vel
▁레티
▁모션
▁수주
▁340
▁쓰촨성
▁안철수
▁정착지
▁헬레니즘
▁ㅈㅓㅈㅣㄹㄹㅓㅆ
소니
정변
크리
▁사생
▁사와
▁선별
▁장경
▁전서
▁정역
▁타밀
▁학창
▁ㅈㅗㅇ
▁무신론
▁브레멘
▁IEEE
▁국가원수
▁크리스틴
▁Super
▁ㄸㅓㄹㅇㅓ
학파
▁리언
▁원만
▁입찰
▁자갈
▁총감
▁호투
▁목표물
▁바빌론
▁아니면
▁환승역
▁안토니우스
▁ㄷㅜㄷㅡㄹㅓㅈㅣㄴ
그램
댓값
▁관군
▁교재
▁로보
▁로코
▁사탄
▁스완
▁오인
▁평하
▁헤라
▁호적
▁화풍
▁ㅅㅓㄷ
▁개막식
▁라그랑
▁로스트
▁마코토
▁ㄸㅓㅇㅗㄹㄹㅏㅆ
HL
oo
▁FF
▁공석
▁교감
▁근간
▁뉴잉
▁속국
▁아누
▁짝수
▁코이
▁하후
▁ㅅㅜㄴ
▁국내선
▁기념장
▁로저스
▁무사시
▁조르주
▁ㄴㅏㅁㅏ
팩스
▁김학
▁도끼
▁동급
▁발진
▁산남
▁유틸
▁작자
게이트
▁310
▁des
▁ㅅㅓㅇ
▁선제후
▁실린더
▁에세이
▁유틸리티
나주
티어
패드
ail
▁as
▁개표
▁섹션
▁조회
▁통감
레틱스
▁대관식
▁볼프강
▁예문관
▁Star
▁그래픽스
▁오토바이
▁무형문화재
▁애슬레틱스
▁후쿠시마현
TF
바퀴
조류
▁경원
▁구라
▁베가
▁산인
▁센타
▁수구
▁시력
▁어선
▁왕명
▁용맹
▁우니
▁기생충
▁원정대
▁탈레반
▁ㅁㅜㄴㅓ
▁모니터링
▁ㅈㅓㅇㅎㅐㅈㅕㅆ
▁썸
버라
주사
▁거문
▁과달
▁교인
▁도매
▁변성
▁상층
▁추장
공화당
▁개척자
▁리바이
▁1812
▁선거관리
▁중앙일보
▁뉴올리언스
▁민주공화당
▁매사추세츠주
▁선거관리위원회
디드
▁my
▁정청
▁커리
▁호화
▁희미
▁슈트라
▁오슬로
▁John
▁ㄱㅏㅁㅜㄴ
▁ㅎㅟㅂㅆㅏ
ㅂㅏ
▁나바
▁아칸
▁투기
▁황위
하마드
▁디에고
▁레이건
▁분류학
▁여러분
▁해인사
▁아이파크
▁ㄴㅓㄼㅎㅕ
▁콘스탄티누스
ㅈㅓ
iel
▁DO
▁ON
▁나시
▁담양
▁닷컴
▁도파
▁메드
▁버밍
▁철기
▁교황령
▁슈트라우스
▁ad
▁기권
▁무위
▁보국
▁세밀
▁손수
▁스쿼
▁양동
▁청정
▁추밀
▁포상
▁하강
▁호국
ㅂㅅㅣ
▁자본가
▁합병증
▁고바야시
▁ㄱㅏㄷㅎㅕ
▁ㅈㅏㅂㅎㅣㄴ
gh
▁Kn
▁근위
▁매듭
▁박경
▁시편
▁유보
▁평방
▁Sun
▁록히드
▁셀레우
▁테헤란
▁한자어
▁불법행위
▁아미타불
주석
▁게놈
▁공경
▁레저
▁명륜
▁빨강
▁용역
▁울루
▁진천
▁체질
▁커브
▁특명
▁호이
시아키
▁you
▁엄청나
▁이광수
▁후반전
▁뉴잉글랜드
RI
▁당상
▁부락
▁수문
▁이건
▁토프
▁단말기
▁보이즈
▁에이지
▁인산화
▁Soul
▁ㅇㅡㄹㅓ
▁아브라함
▁굶
구미
▁걸스
▁넓히
▁로런
▁무진
▁주유
▁타라
▁해커
▁App
ray
▁개경
▁김덕
▁로컬
▁배타
▁정실
▁충동
▁퀸스
▁항문
▁209
▁에이브
▁파르마
▁북대서양
▁ㅈㅣㄴㅏㄹ
▁ㅈㅣㅋㅣㄹ
OK
▁IF
▁가창
▁과감
▁관개
▁논평
▁뒤이
▁소포
▁수족
▁식이
▁아호
▁조던
▁지검
▁천자
▁청일
▁총생
▁카파
▁코우
▁한하
▁공성전
▁대대장
▁오메가
▁울주군
▁Christ
▁ㄴㅗㅎㅇㅕㅆ
블릭
ute
▁Mr
▁리퍼
▁샤오
▁양념
▁쿠루
▁투니
▁피그
▁ㅈㅣㅁ
▁태블릿
EA
연맹
▁구비
▁귀순
▁금기
▁도자
▁애호
▁익히
▁패자
하우스
▁게이오
▁송진우
▁접미사
▁주거지
▁지석묘
▁ICBM
▁리바운드
▁그릴
▁노마
▁의논
▁자네
▁카펠
▁휴일
▁206
▁레코딩
▁사우디
▁파르티아
▁아람
▁영도
▁풀이
▁기울이
▁주제가
▁클라리
▁페르시
▁ㅁㅐㄷㅏ
ㅇㅡㅁㅕㄴ
▁쑹
탄올
▁강유
▁금천
▁끔찍
▁당장
▁속초
▁안면
▁유계
▁장강
▁장지
▁점토
▁천적
▁풍요
라이스
▁르완다
▁베르사유
▁ㅈㅏㅂㅎㅕㅆ
도감
샤오
초프
▁HP
▁법상
▁사파
▁양원
▁유상
▁인척
▁조우
▁탄두
▁스태프
▁자오선
▁1879
59
▁름
▁쑨
화산
▁NM
▁Tw
▁규합
▁단수
▁로지
▁부기
▁지카
▁집적
▁해주
▁ㄲㅓㄹ
▁남북조
▁여주인
▁영사관
▁음식점
▁막시밀리
분투
자드
▁고후
▁김시
▁니치
▁듀스
▁루손
▁반정
▁상이
▁자존
▁개개인
▁윤치영
▁자치현
▁ㅁㅜㄹㄹㅣㅊㅕㅆ
▁뽀
네프
반정
▁감당
▁유세
▁차차
▁카토
▁콜론
▁쿠시
▁747
▁백두산
▁안데스
▁엘리스
▁조광조
▁알렉세이
▁ㄹㅏㄱㅗㄷㅗ
네오
스레
▁ㄲㅚ
▁군마
▁모태
▁부화
▁불문
▁산동
▁유민
▁자석
▁춘계
▁폐하
▁현수
▁효능
로세서
▁ㄱㅕㅌ
▁고지대
▁여수시
▁카지노
▁트리스
▁ㅇㅔㄷㅏㄱㅏ
16
방스
티보
▁동맥
▁두부
▁딱딱
▁범람
▁역동
▁위축
▁이코
▁독재자
▁삼거리
▁아이작
▁연대장
▁의병장
▁피어스
▁금리
▁농담
▁시타
▁중등
▁ㅊㅜㄴ
▁광합성
▁NX
▁갑신
▁맞배
▁성자
▁자각
를레앙
▁420
▁로널드
▁선수상
▁조봉암
▁페이퍼
ㅇㅝㅅㅓ
▁유럽연합
▁ㅍㅏㄹㅏㄴ
▁ㄷㅗㅁㅏㅇㅊㅕ
▁ㅍㅕㄹㅊㅕㅈㅣㄴ
YP
▁꽝
▁얄
다임
슐리
▁PA
▁정맥
▁카다
▁힐스
로그램
▁석회암
▁ㅈㅜㄱㅇㅣㄹ
▁썰
▁남경
▁대등
▁대여
▁라쿠
▁반납
▁불능
▁빛깔
▁스킨
▁양정
▁전열
▁초식
▁택하
▁국방군
▁ㅇㅏㅇㅣㄴ
17
▁쿵
산업
▁Gu
▁고난
▁상회
▁소량
▁수아
▁앙상
▁장이
▁호시
▁Win
▁바닷가
▁건국훈장
면적
여지
일체
▁국문
▁나토
▁동대
▁머큐
▁반향
▁시영
▁우기
▁원한
스트림
▁CoA
▁사가미
▁패러다임
▁ㄲㅜㅁㅕㅆ
▁둠
▁퀼
수지
ual
▁무패
▁실베
▁영종
▁오웬
▁인삼
▁컬링
▁킬러
▁폴로
▁버스터
▁재결합
▁일렉트로닉
▁ㅂㅜㄹㄹㅓㅇㅣㄹㅇㅡㅋㅕㅆ
태자
▁내시
▁보아
▁온전
▁클럭
▁440
▁변호인
▁제이크
▁즐거움
▁테크노
▁항생제
▁ㅂㅜㅌㅈㅏㅂㅎㅕ
어놓
▁반달
▁부트
▁안락
▁유관
▁제고
▁ㅇㅘㄴ
▁군주제
▁니가타
▁여행자
리아누스
▁포틀랜드
▁ㅌㅐㅇㅓㄴㅏㄹ
링크
ull
▁"'
▁RA
▁능숙
▁두스
▁먼로
▁압수
▁일보
▁투병
▁할로
▁호찌
▁리그컵
▁바레인
▁플래닛
▁엔지니어링
▁Record
울루
의금
▁권투
▁무겁
▁스텐
▁열람
▁이설
▁임실
▁촐라
▁할구
▁항전
▁랴오닝
▁수영장
▁알칼리
▁암스트
▁야구부
▁영화관
▁요나라
▁접근성
▁ㄴㅐㄱㅔ
선교
장군
▁고독
▁노역
▁대방
▁마다
▁바바
▁전곡
▁화이
ㄸㅓㄹ
▁Per
▁Intern
▁ㄱㅣㅇㅜㄹㅇㅕㅆ
발트
신보
VID
▁강가
▁사목
▁요셉
▁이석
▁증축
▁후추
▁ㅅㅐㄴ
▁글리제
▁스텔스
▁실리콘
▁오우치
▁크리스탈
▁매복
▁멘델
▁사체
▁산투스
▁지극히
ㅁㅏㄹㄹㅗ
▁ㄷㅏㅇㅎㅐㅆㅇㅡㅁㅕ
높이
▁KD
▁기한
▁리노
▁에다
▁접목
▁최용
▁코인
▁행운
▁환산
▁256
▁본거지
▁호기심
바이러스
▁ㄴㅏㄹㄹㅕㅆ
▁ㅇㅣㅂㅎㅕㅆ
▁ㄷㅚㄷㅗㄹㄹㅕ
▁ㅊㅣㄹㅡㄴㄷㅏ
능력
대비
▁광시
▁도나
▁바타
▁아쉽
▁오차
▁처칠
▁체리
리오스
▁911
▁기본법
▁베이직
▁스위트
▁유기체
▁잠비아
▁ㄱㅜㅎㅏㄴ
▁다마스쿠스
▁아우구스트
▁ㅈㅓㄱㅎㅣㄴ
▁ㅇㅗㄹㄹㅏㅇㅘㅆ
▁ㅇㅣㄹㅜㅇㅓㅈㅣㄹ
▁기피
▁미타
▁솔직
▁정직
▁제방
▁치킨
▁225
▁Str
▁엔리케
▁이회창
▁조용히
▁토론회
▁판매고
▁2500
▁그러다가
▁원종공신
▁ㄴㅜㄹㄹㅓ
▁MD
▁따지
▁문어
▁비싸
▁소진
▁열거
▁트램
▁ㅅㅔㅇㅜㄹ
▁타지키스탄
▁찢
로로
쿠치
▁po
▁노엘
▁담수
▁시온
▁왕릉
▁우디
▁바실리
▁양산시
▁엘리엇
▁대법원장
▁ㅅㅓㄲㅇㅣㄴ
ㅇㅅ
ㅘㅆ
▁가결
▁내기
▁멘토
▁봉분
▁성형
▁왕좌
▁우타
▁중신
▁탈피
고로드
▁연금술
▁ㄷㅜㅌㅓ
▁ㅇㅓㄹㅏ
▁ㄱㅏㅇㅎㅐㅆ
데오
레미
스틱
▁mu
▁담임
▁미녀
▁성현
▁양구
▁왕녀
▁워낙
▁콜리
▁렌더링
▁초고층
▁총생산
▁후유증
▁'.
▁교명
▁균등
▁동두
▁만물
▁사조
▁성교
▁수표
▁아역
▁악어
▁응력
▁코니
▁탄력
▁피질
ions
▁Hot
▁고다이
▁네바다
▁잠재력
▁제시카
▁춘천시
▁주머니쥐
▁ㅈㅡㄹㄱㅕㅆ
▁쐐
▁nm
▁강자
▁군도
▁노름
▁브이
▁사나
▁신익
▁영성
▁용문
▁ㅃㅜㄹ
▁디스코
▁비행사
▁왕당파
▁프리드
길준
로움
▁CA
▁궁주
▁로만
▁사스
▁원곡
▁카츠
▁히코
레이즈
▁생산자
▁시에라
▁오토모
▁카스텔
▁허버트
▁독립선언
▁public
는점
피카
황제
▁교내
▁끌어
▁동체
▁리지
▁무소
▁북마
▁세타
▁실책
▁쌍용
▁쐐기
▁유미
▁윤곽
▁은평
▁이보
▁이한
▁파출
▁길버트
▁앙상블
▁예비군
▁웨슬리
▁이세이
ㅐㅎㅐㅆ
▁ㅍㅜㄹㄹㅕ
▁ㅈㅣㅂㅐㅎㅐㅆ
25
ty
덕궁
무지
스텐
ors
▁HS
▁관저
▁광동
▁대용
▁득실
▁애프
▁여관
▁조율
▁캅카스
▁Kore
▁드래곤즈
▁ㄷㅡㄹㅓㄴㅏㄴㄷㅏ
빨리
인산
자나
▁거품
▁교학
▁구명
▁라사
▁마거
▁아루
▁환초
▁오나라
▁프린세스
▁print
▁ㅅㅓㄴㅂㅗㅇㅣㄴ
무트
RNA
▁Ke
▁강타
▁명동
▁아로
▁연하
▁즉흥
▁지브
▁코일
▁호지
▁마운틴
▁브릿지
▁사무엘
▁유물론
▁ㄱㅓㄴㄴㅔ
▁ㄷㅗㄹㅇㅏㄱㅏㄴ
ll
▁농협
▁미디
▁생김
▁셔츠
▁스팀
▁방법론
▁와이어
▁주둔지
▁추축국
▁1789
▁기타큐슈
▁리치먼드
▁ㅅㅡㅂㄴㅣㄲㅏ
라과
커우
훈련
▁OK
▁누마
▁접시
▁종실
▁침수
▁파피
▁ㅃㅐㄴ
▁머큐리
▁프로필
▁탄수화물
▁플랑드르
▁ㄱㅓㄴㅡㄹㅕㅆ
이상
▁가전
▁구애
▁군림
▁던전
▁동률
▁제타
▁채집
▁춘향
▁커넥
▁향로
▁고스트
▁디아스
▁브루노
▁오이타
▁유도탄
▁ㅌㅐㅇㅝ
▁이마가와
▁ㅇㅡㄹㅅㅜㄹㅗㄱ
불명
포리
▁거머
▁노골
▁느슨
▁면하
▁석재
▁성부
▁아구
▁유독
▁장차
▁진성
▁흉내
ames
▁오리건
▁제품군
▁조연상
▁콜라보
▁천문단위
▁베오그라드
▁ㅎㅐㅇㅎㅏㄴ
평면
▁'-
▁NL
▁깊숙
▁정중
▁현관
▁흡입
▁내몽골
▁넘어서
▁다행히
▁알베르
▁인문학
▁1801
▁NATO
▁ㄹㅏㄴㅣ
ㄴㅏㄴㄷㅏ
▁ㄴㅐㅆㅇㅡㅁㅕ
자락
▁Fl
▁소노
▁진위
▁칠곡
lect
ogle
▁208
▁제노바
▁Back
▁ㅇㅕㅅㅂㅗㄹ
▁캥
던스
모닉
ove
▁공평
▁도식
▁도화
▁무루
▁신천
▁타키
▁트론
▁급속도
▁사법부
▁사천왕
▁아미타여래
▁가령
▁강구
▁야만
▁유익
▁이크
▁재심
▁중학
▁청중
던지기
▁예수교
▁클라인
▁니카라과
▁돼지고기
▁ㅁㅓㅁㅜㄹ
GO
▁박태
▁안건
▁첫날
▁카인
▁트럼펫
▁1400
▁미식축구
제사
▁라테
▁부안
▁생장
▁열기
▁전과
▁통킹
▁함의
프리드
▁동일시
▁브루크
▁영문학
▁영장류
▁조제프
ㄷㅡㄴㄱㅏ
ox
레븐
▁Cr
▁결투
▁군량
▁균열
▁악의
▁안시
▁유감
▁초판
▁최순
▁탄성
▁후난
▁붉은색
▁아르테
▁ㄷㅓㄹㅏ
▁ㅣ
▁킵
▁BO
▁가변
▁겨냥
▁교란
▁김장
▁다채
▁승마
▁양위
▁초석
▁총국
▁캡틴
▁코디
▁표어
▁호전
▁370
▁나카노
▁유길준
▁제주시
▁Amer
▁암스트롱
▁이성질체
▁ㅁㅗㅇㅡㅁ
▁ㅇㅣㄱㅣㄹ
▁ㄴㅏㅇㅘㅅㅓ
▁ㅅㅣㅋㅣㄴㄷㅏㄴㅡㄴ
ㅍㅣ
득점
파니
▁기일
▁약품
▁유재
▁책정
▁코딩
▁핼리
▁Res
▁War
▁ㄱㅗㄹ
▁광주시
▁남아공
▁동북부
▁미요시
▁방문객
▁페라리
노스아이
▁생물학자
▁항공우주
▁해수욕장
▁ㅅㅏㄴㅈㅣ
▁셀레우코스
노스아이레스
▁ㅂㅕㄴㅎㅐㅆ
▁ㅎㅐㅇㅎㅐㅈㅣㄴ
▁부에노스아이레스
▁격침
▁격화
▁굳이
▁김은
▁실태
▁약수
▁어인
▁예편
▁폭주
▁Mag
▁기네스
▁어드밴
▁항소심
▁해수면
▁이리하여
▁ㅁㅗㅇㅕㅆ
▁소크라테스
▁렬
▁고관
▁궁수
▁본능
▁사일
▁신궁
▁알마
▁에픽
▁운석
▁직각
▁흑색
▁Get
▁만주족
▁ㄷㅏㄴㅣㄹ
▁폼페이우스
▁ㅇㅗㄹㄹㅣㅁ
▁명장
▁의대
▁황하
▁GPS
▁메신저
▁사망률
▁요시카
그라운드
▁리하르트
▁비로자나
▁ㄱㅗㄴㅡㄴ
월드
let
▁BB
▁소마
▁수화
▁천태
▁철근
▁출정
▁출항
▁MIT
▁디렉터
▁로런스
▁베테랑
▁타일러
▁태양광
▁트로츠키
▁둑
▁씬
처럼
enn
▁깨지
▁나날
▁무쓰
▁배지
▁서곡
▁어둡
▁오랑
▁하세
inal
▁마거릿
▁Baby
▁남한산성
▁레오나르
UM
니츠
▁DA
▁니트
▁듀엣
▁발열
▁비방
▁윈드
▁효모
▁라이드
▁부천시
▁스펜서
▁양평군
▁주세페
▁펼쳐지
ology
▁ㅁㅏㄹㅡㄴ
▁ㄴㅏㄴㅜㄴㄷㅏ
경찰
박이
심원
투르
▁개축
▁결렬
▁공지
▁관원
▁국산
▁미로
▁생포
▁장론
▁제헌
▁탄광
▁호박
▁화교
▁아열대
▁ㅇㅏㄴㅣㅁ
남동
덱스
메랄
오드
▁결단
▁극회
▁누에
▁민선
▁박동
▁베라
▁쓰리
▁장승
▁쟁점
▁조엘
▁ㅍㅡㄹ
▁블러드
▁모노이드
TN
▁Dr
▁개리
▁공훈
▁그간
▁대소
▁레반
▁비고
▁사옥
▁수선
▁승선
▁예일
▁증류
▁지회
▁청군
▁카불
▁한정판
▁안티오키아
가요
금속
무실
▁결집
▁군위
▁기교
▁꾸미
▁도보
▁총수
▁출병
▁친히
▁캔터
▁365
▁Way
▁모터쇼
▁민의원
▁부사장
▁스트라
▁시나노
▁이유로
▁이지스
▁정몽주
▁선거인단
시카
입자
▁PH
▁니체
▁베아
▁봉헌
▁악역
▁죄인
▁필로
▁감마선
▁혈액형
▁게오르기
▁서귀포시
ㅅㅓㄴㄷㅏ
▁ㅇㅜㅁㅈㅣㄱㅇㅣㅁ
▁ㅂㅏㄷㅇㅏㄷㅡㄹㅇㅣㄴ
당류
테일
▁굴욕
▁명중
▁불길
▁연어
▁외가
▁충고
▁카노
▁학도
▁효성
▁리카르
▁쌍방울
▁전망대
ature
▁로베르트
락부
▁고취
▁기형
▁산마
▁에인
▁해머
이즈미
▁직할시
▁리얼리티
▁이오니아
▁프레더릭
나비
백색
컨드
app
ons
ret
▁도난
▁도량
▁벅스
▁북송
▁사계
▁설과
▁으뜸
▁키치
코비치
▁TOP
▁다카시
▁리그전
▁범어사
▁선데이
▁시아파
▁태극기
▁Cent
▁ㄷㅓㄹㅓ
▁라이온스
▁ㅁㅜㄴㅓㅈㅕ
▁ㅇㅗㄹㅡㄴㄷㅏ
▁ㅇㅗㄹㄹㅏㄱㅏㄹ
마니
▁SG
▁SW
▁갑오
▁리라
▁변조
▁영위
▁이부
▁창씨
▁콘셉
▁풍기
▁ㅂㅓㅌ
▁국무부
▁대학살
▁도나우
▁신안군
▁알레산
▁이치로
▁지포스
▁함부로
의금부사
▁에두아르
▁System
FS
za
갱이
즈미
현실
▁결실
▁레르
▁맞닿
▁매튜
▁선서
▁스틱
▁풋살
피에르
▁디나모
▁프린터
▁1815
▁ㅇㅣㄱㅔ
▁아르바이트
▁ㄴㅏㅇㅘㅆㅇㅡㅁㅕ
▁경산
▁리서
▁살레
▁성찬
▁세도
▁습도
▁에든
▁전극
▁주스
▁토의
▁특혜
ㄱㅡㄹ
말라야
▁Dis
▁ㅈㅏㅂ
▁무정부
▁일제히
▁피드백
▁필리스
▁에든버러
▁ㅁㅏㄹㄹㅕ
▁쪼
랭크
민정
▁노하
▁롤리
▁사악
▁인노
▁장서
▁쿠사
▁퍼플
▁하츠
▁합장
▁207
▁김종직
▁생김새
▁세컨드
▁압둘라
▁야행성
▁유공자
▁전동기
▁포인터
로프로세서
▁마이크로프로세서
카라
▁기주
▁모잠
▁사보
▁새해
▁천리
▁치루
▁트롤
▁한꺼
ater
▁ㅁㅝㄴ
▁가디언
▁농민군
▁조합원
▁1820
▁모잠비크
▁한꺼번에
▁낸
ina
▁공해
▁깁슨
▁서역
▁월경
▁위배
▁잔치
▁테살
▁파고
▁강릉시
▁모델링
▁미우라
▁일진회
▁지팡이
▁ㅂㅘㅇㅑ
▁ㅎㅟㅁㅏㄹ
▁ㄴㅐㄹㅕㄱㅏㅆ
▁꿰
▁훅
▁공보
▁베컴
▁본진
▁소탕
▁음역
▁조너
▁종단
▁하카
지먼트
▁ㄱㅔㅅ
▁노무라
▁두더지
▁혁명가
▁필하모닉
▁매니지먼트
▁폴리네시아
24
▁갸
▁기근
▁김석
▁당사
▁떨어
▁라지
▁모질
▁슐레
▁이구
▁이삭
▁자막
▁직류
▁펜스
▁헬로
▁힘쓰
ange
▁ㅇㅓㅅ
▁고고학자
▁마쓰모토
▁서대문구
▁히말라야
▁ㅈㅣㄴㅇㅣ
▁레닌그라드
▁ㄷㅗㄹㅇㅏㅇㅗㄹ
▁쥘
▁견지
▁녹말
▁달마
▁디펜
▁떠돌
▁만수
▁분담
▁아약
▁에뮬
▁음양
▁조나
▁피시
▁그리드
▁연습생
▁저지르
▁오스트로
▁막시밀리안
끄럽
▁격상
▁로제
▁마취
▁시차
▁전란
▁형광
▁휴먼
▁Tra
▁오징어
▁페레스
▁후베이
▁High
▁ㄷㅓㄴㅈㅣㄴ
ux
러기
실험
▁경구
▁더빙
▁마초
▁미완
▁미추
▁상해
▁신안
▁옵티
▁정현
▁치밀
▁특위
▁ㄹㅣㄹ
▁학생회
▁ㄲㅣㅇㅝ
▁카롤루스
ㅇㅏㄴㅐㄹ
가라
토바
▁술집
▁전액
▁좌랑
▁징후
▁코넬
▁태상
▁한라
▁Int
▁노르트
▁적절히
▁체육회
▁프로방스
광사
라나
쓰네
▁노총
▁담장
▁마도
▁융기
▁지반
▁출루
▁퇴계
스티안
▁마피아
▁아드리
▁지방도
▁알베르트
자유
ley
▁FS
▁기민
▁발췌
▁세실
▁앨버
▁쿠리
▁프록
▁피쳐
▁USA
▁광화문
▁군산시
▁선언문
▁아약스
▁액티브
▁조병옥
▁트랜싯
▁1858
▁ㅇㅓㅇㅜㄹ
▁밈
퍼트
▁기욤
▁데니
▁위태
▁지뢰
가하라
▁Mac
▁Not
▁달아나
▁수증기
▁크레타
▁프렌즈
▁ㄹㅣㄹㅏ
▁천연가스
▁캔자스시티
▁귤
거루
베인
적분
▁ㅎㅓ
▁만연
▁매질
▁빠져
▁소켓
▁아토
▁양분
▁엠블
▁완산
▁육박
▁초당
▁퀘이
▁탈리
▁테드
▁핑계
▁도치기
▁목포시
▁평상시
▁알렉산드라
▁ㅎㅏㅂㅊㅕㅈㅕ
▁ㅈㅡㄹㄱㅓㅇㅜㄴ
▁챈
▁낙태
▁대정
▁로어
▁안재
▁제법
▁진하
▁콤비
▁포섭
▁노트북
▁라쿠텐
▁분홍색
▁마그네슘
▁알베르토
ㅇㅗㄹㄹㅕㅆ
비츠
운전
att
▁광서
▁군집
▁기악
▁당명
▁수훈
▁엠마
▁율령
▁주상
▁토드
▁허들
▁MLB
▁관찰자
▁중심핵
▁파블로
▁Type
▁ㅇㅗㄹㅡㅁ
▁조선왕조실록
▁고택
▁납품
▁농작
▁도표
▁스쿠
▁스팅
▁허구
▁거머쥐
▁깨달음
▁모조리
▁베일리
▁비올라
▁안티고
▁티무르
ㄹㄹㅣㄴㄷㅏ
▁ㅊㅓㅇㅎㅐㅆ
ㄲㅗ
데냐
사랑
싸움
▁급사
▁능하
▁말소
▁보카
▁좌천
▁합산
▁효용
▁ㅁㅏㅇ
▁마에다
▁수도사
▁스와프
▁신익희
▁ㅇㅏㄹㅏ
▁ㅋㅓㅈㅕ
▁보호구역
▁사르데냐
▁암모니아
▁ㅌㅗㅇㅊㅣ
▁동아프리카
▁ㄱㅏㅂㅈㅏㄱㅅㅡㄹㅓㄴ
ㅡㅅ
정제
▁고갈
▁궁내
▁급기
▁바하
▁살피
▁우대
▁재주
▁펠레
▁막아내
▁연구실
▁조너선
▁플래그
▁1814
▁자연주의
▁class
▁ㄴㅐㄹㅕㅇㅗㄴ
▁ㅇㅓㄹㅕㅇㅜㄹ
토쿠
▁견훤
▁군락
▁군비
▁남궁
▁동티
▁보육
▁비어
▁수강
▁아핀
▁알렌
▁에린
▁열망
▁이철
▁총액
▁풍수
▁학급
▁혼돈
정보부
▁스타인
▁시게루
▁크라스
▁무궁화호
식스
촌동
코인
ART
▁갈비
▁로타
▁모식
▁부탄
▁비욘
▁애매
▁의왕
▁정공
▁제보
▁진구
▁총살
▁키아
▁푸틴
지스터
▁ㅁㅜㅉ
▁ㅌㅏㄹ
▁리포트
▁스레드
▁플라자
▁서아시아
▁ㄷㅗㄹㅇㅏㅇㅘㅅㅓ
기둥
▁독실
▁부딪
▁소정
▁수의
▁아말
▁용접
▁원생
▁유승
▁증직
▁직권
▁290
▁IEC
▁WHO
▁고조선
▁니스트
▁성명서
▁정확도
▁ㅃㅏㄹㄹㅏ
▁클라이맥스
동리
마일
스테
재단
▁감탄
▁덕수
▁마틸
▁민가
▁벨벳
▁비호
▁성제
▁어쩌
▁완주
▁장택
▁전집
▁정일
▁증원
▁Art
▁사이공
▁주교좌
▁혁명군
▁1300
▁ㅇㅏㅇㅛ
▁샌드위치
▁토스카나
▁그리스도교
▁그리스도인
▁ㄱㅏㅈㅕㄱㅏㅆ
ㅇㅜ
뉴스
라도
OVE
▁Of
▁괴뢰
▁북상
▁열풍
▁팬아
▁헤지
▁헬렌
플레잉
▁봉수대
▁커티스
▁그래미상
▁롤플레잉
▁자유민주
▁트랜지스터
▁ㄴㅡㄹㄹㅕㅆ
▁ㅎㅏㅂㅊㅕㅅㅓ
que
▁노화
▁랜덤
▁만기
▁미자
▁영재
▁정과
▁패드
▁TBC
▁ㅁㅓㄱ
▁ㅌㅡㅁ
▁교토부
▁유성구
▁지방관
▁취약점
▁패트리
▁type
▁맞배지붕
▁서프랑크
▁프로이트
▁세키가하라
▁ㄴㅐㄹㅕㄱㅏ
▁ㄷㅗㄹㅇㅏㄱㅏㄴㄷㅏ
▁ㅂㅏㄷㅇㅏㄷㅡㄹㅇㅣㄹ
ㅜㅀ
거성
전차
enc
▁고요
▁루지
▁리츠
▁머피
▁버거
▁실크
▁약학
▁우도
▁패퇴
▁훈족
▁전철역
▁타블로
▁프리킥
살바도르
▁플레이스
▁ㄷㅏㄹㅡㅁ
▁ㅁㅗㄹㅡㄹ
▁여러해살이풀
니코
yle
▁EN
▁감기
▁레딧
▁목화
▁문성
▁바사
▁손쉽
▁승전
▁신관
▁씨름
▁옥상
▁이덕
▁지층
▁캐럴
▁토비
▁포진
▁공기업
▁상대론
▁하모니
▁ㅋㅣㅇㅝㅆ
▁페더레이션
▁ㅂㅗㅇㅕㅆㅇㅡㄴㅏ
BN
널목
회원
alk
▁ED
▁Vf
▁갈아
▁미에
▁아랑
▁아픔
▁암초
▁웅진
▁흥덕
▁LCK
▁건널목
▁겨울철
▁아쿠아
▁파출소
▁평의원
▁What
▁산업단지
▁크리스천
▁ㅇㅣㄹㅝㅆ
ye
▁뱌
구멍
▁간지
▁게일
▁소치
▁얼터
▁헤임
ㄷㅏㅇ
씨식물
▁MHz
▁대항해
▁맞대결
▁미시간
▁변속기
▁스타즈
▁에히메
▁창업자
▁아나키즘
▁규장
▁병인
▁보궐
▁소도
▁포교
▁할양
학생회
ough
▁Med
▁ㄸㅜㅀ
▁건너편
▁다면체
▁등록금
▁성북구
▁수번뇌
▁우승컵
▁중서부
▁충주시
▁아오모리현
▁ㅂㅕㄴㅎㅏㄴ
▁ㅈㅜㄴㄷㅏㄱㅗ
▁ㅇㅗㄹㄹㅏㅇㅗㄴ
▁앳
건적
ger
▁Di
▁kW
▁올랭
▁238
▁남조선
▁넥스트
▁재빨리
▁초대칭
▁키워드
▁With
▁수마트라
▁요시아키
▁총학생회
▁ㅇㅕㄱㅣㄴㄷㅏ
ING
▁민권
▁선회
▁세베
▁인대
▁장조
▁직함
▁파드
▁홍천
ㅕㅅㅓ
▁나가노
▁보행자
▁윤리학
▁평택시
▁포스코
▁1795
▁아틀레틱
▁Google
TR
▁렝
르모
천국
▁개전
▁레미
▁매춘
▁미숙
▁석등
▁순정
▁스톨
▁일람
네소스
독립당
▁850
▁ㄹㅜㄴ
▁원정군
▁홉킨스
▁ㄱㅟㅇㅕ
▁카테고리
▁한국독립당
▁ㅁㅕㄴㅇㅡㄴ
▁윔
림동
▁경이
▁과부
▁그늘
▁김세
▁독소
▁멜론
▁쇠약
▁아난
▁우사
▁윈터
▁이효
▁정여
▁켈빈
▁페터
▁하디
▁헨드
주니어
▁남반구
▁바로잡
▁트루먼
▁포위전
▁갑신정변
▁ㄷㅏㄴㅣㄴㄷㅏ
▁ㅆㅡㅇㅕㅈㅕㅆ
팽이
▁관대
▁내수
▁몬태
▁브람
▁수렵
▁에런
▁우이
▁윗면
▁이국
▁준하
▁차분
▁첨부
▁페데
ㄹㅏㅆ
디우스
▁480
▁메이트
▁베드로
▁블루어
▁ㅃㅜㄹㅕ
▁석가여래
▁어드밴스
▁언어학자
▁ㅁㅏㄴㅡㄴ
▁중앙정보부
▁줌
부미
▁구자
▁월북
▁웰스
▁유시
▁익산시
▁통신부
▁MPEG
▁드레이크
▁디렉터리
▁사탕수수
▁여주인공
▁ㅇㅓㄷㅣㄴ
▁키르기스스탄
▁ㅁㅜㄴㅓㅈㅕㅆ
▁국지
▁니나
▁니콘
▁반야
▁부녀
▁장준
▁정병
▁코지
▁ㄸㅐㄹ
▁국문학
▁로렌초
▁여객선
▁다리우스
▁하이웨이
▁ㅇㅏㄹㅇㅏㅊ
▁ㅃㅐㅇㅏㅅㄱㅕㅆ
▁뿜
대성
블린
▁PP
▁도색
▁루머
▁민생
▁여과
▁유원
▁특례
▁ㅇㅗㅂ
▁공직자
▁웨이트
▁체스터
▁자동변속기
▁ㅇㅝㄴㅅㅜㄹ
▁ㅈㅜㄹㅇㅕㅆ
▁ㅊㅏㄱㅎㅏㄴ
▁ㅊㅏㅈㅇㅏㅇㅘㅆ
UI
▁뚱
▁각광
▁골수
▁광택
▁국과
▁기시
▁남포
▁데메
▁도정
▁맛있
▁미코
▁보훈
▁본초
▁불평
▁신구
▁심플
▁이트
▁인신
▁팀장
▁필기
▁COM
▁Rev
▁빅토리
▁시공간
▁합천군
▁황태후
▁부위원장
▁COVID
▁켓
레프
▁걸치
▁당분
▁로동
▁발단
▁버시
▁정강
▁참배
▁펀치
시우스
▁737
▁ㄴㅗㄱ
▁북반구
▁1793
▁안드레이
▁ㅎㅜㅁㅊㅕ
▁ㄴㅡㄲㅣㄴㄷㅏ
사회
▁교묘
▁내구
▁몸집
▁평신
▁해일
▁223
▁돋보이
▁에밀리
▁가나자와
▁ㅇㅏㄴㄷㅏ
23
개혁
der
▁갤러
▁구인
▁군국
▁낙타
▁덩굴
▁데쓰
▁바덴
▁바일
▁설사
▁세탁
▁연유
▁이형
▁종친
▁천구
▁클루
슬라브
캐스트
▁가입자
▁남해군
▁데포르
▁돗토리
▁손바닥
▁안데르
▁알레르
▁제이스
▁창덕궁
▁팩토리
▁Blue
▁꼼
뻐하
섬유
재란
▁ㅃㅐ
▁논설
▁랜디
▁무당
▁박승
▁보츠
▁솔트
▁야로
▁엄정
▁쿠릴
▁기뻐하
▁벤피카
▁산체스
▁이완용
▁추밀원
▁ㄴㅡㄹㅏ
▁정유재란
▁ㄴㅏㄴㅜㅁ
메트
▁교주
▁권하
▁깜짝
▁마조
▁범용
▁산불
▁숭실
▁오호
▁장항
▁존엄
▁천정
▁환기
루리아
코스트
▁낙하산
▁유격대
▁페테르
총리대신
▁1846
▁갈릴레이
▁기념사업
▁브루나이
▁상파울루
▁이베리아
▁이해관계
▁ㅍㅏㄹㄹㅕ
▁시즈오카현
▁내각총리대신
래시
모자
ump
▁묘법
▁성내
▁아민
▁언약
▁역습
▁이견
▁표결
▁농작물
▁보라색
▁아칸소
▁이브라
▁테이크
▁평화상
▁블레이드
▁ㄴㅐㅂㅗㄴ
26
BT
▁넉
바람
증권
▁갑각
▁걸맞
▁구토
▁귀양
▁리저
▁서강
▁억류
▁예속
▁철원
▁치중
▁ㄴㅏㅊ
▁문하시
▁보호관
▁엉덩이
▁입출력
▁전기장
▁페인트
▁하카타
▁중앙아프리카
IO
LC
▁깡
고트
나물
리가
▁경멸
▁교포
▁국면
▁대뇌
▁돌핀
▁분양
▁새기
▁유품
▁제식
▁주경
▁총체
▁톨킨
▁하순
▁핵산
▁Top
▁국무원
▁지난해
▁충렬왕
▁테트라
▁에드먼드
▁퓌
▁ME
▁ㅎㅘ
▁구룡
▁박기
▁베버
▁본당
▁역모
▁와해
▁윤석
▁조력
▁추위
연화경
웨스트
▁LCD
▁Min
▁기부금
▁다이나
▁상속인
▁Beat
▁서스펜션
▁초등학생
▁ㅅㅓㅁㄱㅕㅆ
▁돛
파스
패스
호프
후이
▁괴멸
▁상작
▁서보
▁수류
▁칼레
▁페가
▁후시
비우스
▁산둥성
▁시어터
▁외무성
▁물리학상
▁오브젝트
▁하시모토
▁히로부미
▁네덜란드어
▁ㅅㅏㄹㅏㅈㅣㄴㄷㅏ
HD
처리
▁간장
▁라티
▁모기
▁미묘
▁브롱
▁실로
▁심근
▁웨일
▁육아
▁치수
다람쥐
티우스
프랑스
▁구청장
▁버나드
▁절대로
스트리트
▁1839
▁공화주의
▁미성년자
▁ㄴㅡㄹㅇㅓㄴㅏ
▁촘
우어
질량
▁간디
▁방조
▁인출
▁해자
▁현충
쿠스틱
▁아산시
▁1854
▁time
▁어쿠스틱
▁ㄹㅓㅅㅓㄴㅡㄴ
버드
연대
▁고하
▁공덕
▁망루
▁볼륨
▁윤원
▁휘트
▁가시마
▁배수량
▁배트맨
▁비지니스
▁간염
▁구석
▁등대
▁디디
▁브론
▁사흘
▁상투
▁새턴
▁성추
▁아모
▁욕설
▁인피
▁코레
▁214
▁430
▁아테나
▁오비탈
베이거스
▁끌어들이
▁ㅌㅡㅁㅌㅏ
▁ㄴㅐㅅㅔㅇㅜㄴ
깨비
왕국
천년
▁고압
▁마한
▁매월
▁몰입
▁박준
▁반려
▁반열
▁본디
▁비참
▁사죄
▁센스
▁오딘
▁찬탈
▁퇴단
▁후백
▁교직원
▁보나파
▁비행대
▁찬드라
▁파트리
▁소용돌이
▁데포르티보
▁보나파르트
▁라스베이거스
렁이
정권
▁ㅈㅐ
▁견습
▁메사
▁생가
▁석상
▁적재
▁ㅇㅜㅅ
▁건국대
▁증명서
▁후임자
▁1849
▁차량기지
▁트리니다드
▁ㅅㅔㅇㅜㄴㄷㅏ
OU
▁매번
▁미모
▁봉작
▁부윤
▁시경
▁신작
▁어기
▁오닐
▁원제
▁유폐
▁인테
▁존상
▁종주
▁현령
▁화전
트로피
▁211
▁ㄱㅏㅄ
▁ㅋㅐㄹ
▁경비대
▁식물원
▁진보당
▁헬싱키
▁기독교인
▁ㄱㅓㄹㄹㅗ
▁ㅇㅡㄹㅗㄴ
▁씌
담회
버거
호르
▁계란
▁담론
▁북해
▁소란
▁손책
▁알비
▁제학
▁태세
▁화북
고양이
atch
▁419
▁보르도
▁어리석
▁장택상
▁ㅁㅏㅈㅁ
▁플로이드
28
▁럴
누아
▁김문
▁만국
▁변방
▁어이
▁우동
▁웅장
▁윤영
▁임베
▁잇달
▁제원
▁파격
▁FBI
▁대머리
▁안중근
▁노동자당
▁마음대로
▁비트코인
▁임베디드
▁ㄱㅓㄴㄴㅓㄱㅏㅆ
오린
탐정
▁낙랑
▁단사
▁배설
▁분쇄
▁분장
▁셔먼
▁스맥
▁유장
▁친절
▁틀리
▁폰트
▁필살
▁갖가지
▁은하단
▁하이든
▁1856
▁정사각형
려나
소득
재기
▁TG
▁광경
▁단성
▁두껍
▁라몬
▁비크
▁여생
▁장령
▁타오
▁페드
▁한서
궐선거
리어스
타니아
▁ㅇㅐㄹ
▁레인보
▁조계종
▁참모장
▁해럴드
▁Will
▁이와테현
▁크레이그
▁ㅅㅗㄴㄲㅗ
▁재보궐선거
▁크리에이티브
▁ㅈㅣㄴㅏㄴㄷㅏ
전기
하스
oup
▁들여
▁명주
▁부이
▁열반
▁적성
▁추궁
▁가속기
▁감염자
▁시부야
▁펠로폰
츠부르크
타고라스
▁1851
▁델라웨어
▁펠로폰네소스
일라
▁낙엽
▁단호
▁대세
▁밀스
▁소홀
▁수배
▁활기
▁301
▁베르디
▁아가씨
▁에리크
▁카운터
▁특이점
▁반공주의
▁스탠퍼드
▁ㅌㅟㅇㅓㄴㅏ
ery
▁KC
▁계투
▁남로
▁디온
▁방한
▁벽면
▁시주
▁심슨
▁요아
▁원가
▁이안
▁타현
▁페티
▁한참
▁글리코
▁대주주
▁북극해
▁저작물
▁통합진보당
▁ㅆㅡㅇㅕㅈㅕ
86
ma
나들
카테
쿠젠
▁결탁
▁서상
▁연임
직할시
icro
▁공사관
▁일간지
▁사보이아
▁폴란드인
▁ㅅㅔㄴㄷㅏ
고도
케스
▁다지
▁듯이
▁상체
▁성간
▁오기
▁카잔
▁케니
cess
▁그로스
▁명명법
▁스나이
▁투데이
▁핵폭탄
메니스탄
▁1857
▁스맥다운
▁올랭피크
▁캐나다인
▁ㅁㅜㅅㅓㅇㅜㄴ
▁투르크메니스탄
지대
테른
투안
하늘
▁ER
▁IA
▁거액
▁귀납
▁니즘
▁도독
▁발송
▁방수
▁버퍼
▁빌미
▁원성
▁잠복
▁정시
▁착안
▁찬스
▁촌은
▁퇴사
▁현청
▁히나
▁변증법
▁수산물
▁수수료
▁집어넣
▁다이스케
▁엔트로피
▁ㅇㅣㅈㅎㅕ
▁ㅇㅣㅅㄸㅏㄹㅏ
니엄
모습
체어
▁소망
▁쇼팽
▁일어
▁재원
▁하쿠
▁현명
제르맹
▁노스케
▁새천년
▁지평선
▁최하위
▁핵실험
▁형무소
▁1855
▁ㄴㅏㅊㅅㅓㄴ
▁ㄷㅗㄹㅇㅏㅇㅗㄴㄷㅏ
▁눌
▁힉
레토
바꿈
연료
▁경색
▁미안
▁보문
▁신영
▁현생
▁마그마
▁서북쪽
▁하이델
▁행정관
▁Free
▁프란시스
▁ㅆㅏㅎㅇㅕ
29
봉사
▁YM
▁가메
▁김한
▁박격
▁변장
▁분개
▁수서
▁정년
▁헐리
▁대각선
▁동의어
▁사모아
▁애벌레
▁캥거루
▁하동군
▁ㅊㅣㄱㅏ
▁스티븐스
▁ㅁㅗㅇㅕㅅㅓ
▁ㅆㅡㄹㅓㅈㅕ
▁ㅂㅏㄹㅏㄴㄷㅏ
쇼프
흐트
▁과업
▁괴롭
▁벚꽃
▁액수
▁외동
▁음경
▁주치
▁체임
▁캔디
▁택지
▁템포
▁항모
들랜드
중국해
▁XML
▁구석기
▁기념식
▁봉사자
▁시흥시
▁황도대
▁생제르맹
▁뜯
로아
하르
▁간파
▁대열
▁비이
▁서천
▁지소
▁포구
▁픽션
▁합체
▁Pop
▁비정규
▁상세히
▁성추행
▁작사가
▁컨디션
▁포브스
▁휠체어
▁무라카미
▁사카모토
▁병마절도사
▁캄파니아주
▁ㅇㅕㄹㄹㅕㅆㅇㅡㅁㅕ
27
▁기물
▁대광
▁덧셈
▁맛보
▁무왕
▁슈바
▁주둥
▁친목
▁병원체
▁민족주의자
▁오하이오주
▁ㄷㅡㄹㅇㅓㅇㅘㅅㅓ
니크
▁권세
▁노회
▁본기
▁부풀
▁성년
▁성채
▁수스
▁신명
▁역행
▁이학
▁체첸
▁코민
▁한도
ㄴㅐㄴ
메네스
콥스키
▁가져가
▁루터교
▁모티프
▁오카다
▁해설자
▁스포르팅
▁원내대표
▁좡
댄스
▁Po
▁고증
▁대적
▁도기
▁만리
▁미팅
▁서드
▁위니
▁중첩
▁지병
▁해금
▁회부
시오날
▁마인드
▁비엔나
▁태그팀
▁LIVE
▁나시오날
▁태평천국
▁플루오린
▁ㅅㅡㄹㅍㅡㄴ
▁ㅂㅜㄹㄹㅓㅆㅇㅡㅁㅕ
산읍
평가
ont
▁급습
▁녀석
▁셀룰
▁셰이
▁실습
▁요네
▁카렐
▁칸타
▁타나
▁급기야
▁나주시
▁달라이
▁샘플링
▁포천시
▁프로파
▁ne
▁누락
▁레베
▁문교
▁비기
▁산탄
▁외벽
▁이공
▁장구
▁탄원
▁퇴화
▁호가
▁화신
덜랜드
▁Bro
▁구미시
▁베르그
▁출생지
▁포위망
▁미주리주
▁포레스트
▁ㄹㅕㄷㅏㄱㅏ
가야
노동
마타
스탕
▁계파
▁몬트
▁사극
▁압송
▁입안
▁베리아
▁시우바
▁헤이스
▁ㅆㅡㄹㅓ
▁ㅆㅗㄷㅇㅏ
▁ㅇㅣㄹㅡㄹ
를린
서구
day
▁금광
▁당기
▁버즈
▁영아
▁와트
▁준위
▁직제
▁청탁
▁크세
▁파사
▁수송기
▁시설물
▁팰리스
▁항구역
▁1776
▁ㅇㅣㅇㅑ
▁가까스로
▁클라리넷
▁ㅈㅗㅎㅇㅏㅎㅐㅆ
▁랏
광선
▁교복
▁네모
▁뇌졸
▁명지
▁오도
▁율곡
▁총알
▁최경
레시브
▁del
▁독립국
▁브레인
▁아세트
▁영등포
▁퍼펙트
▁국민회의
▁프로그레시브
▁ㅎㅑㅇㅎㅏㄴㄷㅏ
계리
페리
활성
aut
▁HK
▁국고
▁마고
▁심신
▁천명
▁팔자
▁픽업
▁End
▁ㄷㅐㄴ
▁리서치
▁보니파
▁이범석
▁크리켓
▁플레이트
▁ㅊㅏㅈㅇㅏㅇㅗㄴ
▁ㅇㅗㄹㄹㅏㅆㅇㅡㄴㅏ
ㅂㅜ
ㅇㅢ
▁국물
▁대흥
▁명절
▁생사
▁알론
▁음란
▁이연
▁장타
▁정파
▁포탈
▁혹독
▁히다
메데스
▁ㅆㅗㄴ
▁게이츠
▁메이플
▁바이스
▁청교도
▁청구인
▁후반부
▁코미디언
▁ㅍㅛㅎㅐㅆ
▁그레고리력
▁레오나르도
▁프로토타입
팔렌
▁골목
▁김보
▁나나
▁메콩
▁부총
▁서던
▁세브
▁연좌
▁연천
▁음소
▁정량
▁포에
▁홀드
▁목걸이
▁서기장
▁에인절
ㅅㅣㅍㅣ
▁ㄷㅏㅅㅣㅍㅣ
버섯
어하
▁BR
▁FX
▁린드
▁사성
▁양손
▁이로
▁조식
▁쿠페
▁한방
▁233
▁레일리
▁부활절
▁브리트
▁클라라
▁특공대
▁ㅅㅗㅅㅓ
▁10000
▁ㄸㅏㄹㄹㅣㄴ
▁ㄱㅏㄲㅏㅇㅝㅆ
니발
▁각별
▁간소
▁박주
▁발주
▁비슈
▁수잔
▁전갈
▁접착
▁클론
▁판별
▁포즈
노벨라
▁215
▁거제시
▁경기력
▁레너드
▁심포니
▁유니온
▁미시간주
▁인테리어
▁ㅇㅕㄱㅣㄴ
▁텔레노벨라
▁ㅂㅓㄹㅕㅈㅣㄴ
행사
its
▁TN
▁괴팅
▁국채
▁노미
▁땅콩
▁로로
▁모더
▁영세
▁표상
▁퓨전
ㅎㅣㄹ
▁ㄷㅗㄷ
▁계약서
▁단기간
▁수메르
▁엑스선
▁해적단
▁ㅈㅣㅇㅝ
ㄷㅡㄴㅈㅣ
HS
▁뵈
oss
▁끊이
▁누각
▁반증
▁살림
▁살상
▁샬럿
▁시로
▁양력
▁창안
▁편하
▁Des
▁김종필
▁영산회
▁ㅈㅣㄴㅈㅓ
▁네브래스카
▁ㄷㅡㄹㅇㅓㅅㅓㄴ
▁ㅈㅣㄴㅈㅓㅇㅎㅏㄴ
▁써
슐린
▁MW
▁대양
▁로미
▁루아
▁매드
▁미망
▁반일
▁언젠
▁영연
▁우랄
▁지단
▁계약금
▁서로마
▁에버턴
▁플랜트
▁LOVE
▁ㄱㅡㄹㅔ
▁피에트로
▁묘법연화경
▁언더그라운드
▁ㅅㅓㄷㅜㄹㄹㅓ
▁ㅇㅣㅇㅓㅈㅣㄹ
br
개발
급시
볼트
빼미
워키
▁CV
▁교우
▁금화
▁노먼
▁로젠
▁미움
▁상시
▁실드
▁어필
▁커트
▁Big
▁권력자
▁돌려주
▁동북쪽
▁언젠가
▁Sing
▁ㅂㅓㄹㅣㄹ
▁ㄷㅏㄹㄹㅕㅆ
저민
IDS
▁JP
▁가인
▁시왕
▁아속
▁열광
▁요세
▁위드
▁유즈
▁윤선
▁조참
▁진안
▁쿠키
ㅌㅏㄹ
파트라
irst
▁239
▁510
▁벤저민
▁파이브
▁ㅈㅣㄴㅐ
▁클레오파트라
▁ㅊㅟㅎㅏㄴㄷㅏ
타라
▁RE
▁WH
▁거세
▁독감
▁라비
▁마마
▁부원
▁수난
▁시판
▁에나
▁오니
▁욕심
▁우메
▁이족
▁점하
▁제반
▁콘월
▁문화사
ㄹㄹㅣㅁ
▁Rain
▁ㄷㅙㅅㅓ
▁아틀라스
▁알레르기
▁ㅁㅏㅈㅅㅓㅆ
▁감명
▁루소
▁서훈
▁숙성
▁약정
▁최북
▁카쿠
핵생물
▁212
▁미카사
▁생태학
▁사다하루
▁캔터베리
be
미치
▁SI
▁감히
▁낭독
▁도핑
▁북제
▁불황
▁시동
▁신재
▁위아
▁이계
▁정약
▁청화
▁황보
▁BMW
▁레이어
▁사중주
▁한마디
▁조기어류
▁히로시마현
▁개간
▁경수
▁면접
▁상피
▁서킷
▁시료
▁은둔
▁정철
▁즐겁
▁틈새
▁향리
▁호치
▁DFB
▁set
▁게이초
▁버밍엄
▁서남쪽
▁아르카
▁전년도
▁Mnet
▁권위주의
▁ㅊㅓㅎㅐㅆ
개명
하워
▁공녀
▁대검
▁로자
▁배영
▁세관
▁아그
▁원화
▁음색
▁장보
▁치이
▁미술가
▁보호자
▁사생아
▁양서류
▁요리사
▁월리스
ement
▁1792
▁ㅋㅔㄷㅗ
▁떨어뜨리
▁뱀파이어
▁ㄱㅏㄹㅇㅏ
▁아이젠하워
BL
▁찻
ㅗㄴ
지않
▁CT
▁귀향
▁근연
▁도금
▁디어
▁사구
▁시구
▁우문
▁질레
▁촌락
▁탄환
▁튀르
▁패주
▁호러
▁홍백
너티브
▁경영진
▁논산시
▁정말로
▁출연진
▁퀘스트
▁표준어
▁프리랜
▁핵연료
▁호위함
ㅂㅎㅣㄹ
ㅊㅕㅅㅓ
▁계몽주의
▁얼터너티브
▁젬
가키
코바
▁개년
▁다라
▁덤불
▁듀크
▁밑면
▁바크
▁방과
▁상권
▁슬럼
▁시암
▁안상
▁외화
▁지드
▁추석
▁출소
▁코다
ㄹㅗㅇ
즐랜드
▁부제학
▁ㅌㅡㅇㅣㄴ
▁슈퍼주니어
▁잣
이인
▁그려
▁도고
▁독신
▁마자
▁유실
▁윤회
▁정태
▁제향
▁착오
▁티르
▁히브
메이트
▁Bar
▁ㅁㅣㄴ
▁게이머
▁목격자
▁밀워키
▁재정난
▁퀸즐랜드
▁begin
▁롬바르디아
그림
얼빈
▁경치
▁만찬
▁수뇌
▁스커
▁최재
▁춤추
▁호엔
▁명백히
▁베이컨
▁브람스
▁재판장
▁크래프트
▁엘살바도르
▁퓰
타바
▁do
▁까치
▁라벤
▁매너
▁색인
▁선방
▁쓰가
▁지터
▁칼빈
▁케스
▁쾌락
▁후신
▁기장군
▁릴리스
ㄱㅓㅇㅝ
▁랜드마크
▁소선거구
▁카리브해
▁퍼레이드
보스
삼문
임수
aff
vis
▁CL
▁구급
▁다의
▁메트
▁서하
▁오에
▁절멸
▁카오
▁회중
▁앵글로
▁좀처럼
▁중학생
▁지도력
▁1852
▁경향신문
▁천주교회
▁프라이스
▁Hello
▁ㄸㅢㄴㄷㅏ
▁ㅇㅓㅅㄱㅏㄹ
경궁
바타
방식
▁관서
▁구면
▁그람
▁비츠
▁수온
▁실화
▁어음
▁예견
▁오쓰
▁우쓰
▁유루
▁타코
▁탄화
▁함안
▁허물
▁검사장
▁다각형
▁동식물
▁외삼촌
▁중생대
▁1853
▁Road
▁도네츠크
▁동대문구
▁모하메드
▁창씨개명
도서
루이
▁FN
▁ㄲㅓ
▁나츠
▁나팔
▁수첩
▁식료
▁에타
▁예천
▁요트
▁제각
▁주술
▁그려지
▁에르난
▁콘셉트
▁1791
▁Show
▁옥타비아
▁ㄱㅣㄷㅏㄹㅕ
▁ㅇㅏㅍㅈㅏㅇㅅㅓㅆ
▁즌
말리
▁가평
▁발라
▁입적
▁점심
▁종택
▁초중
▁평년
▁더구나
▁무인역
▁프레디
▁void
▁옅
노헤
막염
오세
▁ㅅㅜ
▁구보
▁모후
▁밀턴
▁박인
▁산토
▁섬멸
▁셰프
▁자락
▁카멜
▁캄포
▁합방
▁황성
▁희박
하이머
▁과선교
▁중대장
▁지원자
▁최적화
▁현악기
▁다운타운
▁시트르산
▁Sound
▁ㅂㅣㄱㅣㄴ
▁테러리스트
▁콘스탄티노플
티드
▁EF
▁갑판
▁관사
▁난간
▁노던
▁망상
▁미신
▁박중
▁버블
▁아쓰
▁어쨌
▁여야
▁연작
▁친숙
▁푸시
컨트리
▁ㄲㅣㄴ
▁간행물
▁무안군
▁브리즈
▁사회단체
▁속씨식물
▁필리포스
ㅂㅗㄴㄷㅏ
▁ㅂㅐㅇㅜㄹ
▁강물
▁고질
▁고타
▁기노
▁노년
▁버락
▁울음
▁진과
▁한류
▁분화구
▁세일러
▁이베이
▁조나단
▁1100
▁크로스컨트리
▁ㅈㅗㅎㅇㅏㅎㅏㄴㄷㅏ
▁뚝
ㄷㅓ
귀비
야구
하트
ech
▁RD
▁기치
▁김호
▁래스
▁벨레
▁부응
▁여태
▁영해
▁원망
▁월급
▁이도
▁장영
▁최치
▁호감
▁ㅁㅐㅇ
▁도지사
▁비스트
▁싫어하
▁유목민
▁레인보우
▁ㅁㅝㄴㄱㅏ
▁ㄱㅏㅈㅕㅇㅘ
way
▁es
▁고작
▁냉동
▁능통
▁대파
▁독려
▁동복
▁린치
▁마왕
▁발화
▁밥상
▁보두
▁부름
▁세가
▁안젤
▁윤상
▁자력
▁파니
▁학점
▁ㅅㅏㅁ
▁레프트
▁쓰임새
▁올빼미
▁옹진군
▁저술가
▁점성가
▁카이저
▁1847
▁개인주의
▁팬아메리칸
▁똥
▁빽
색슨
에어
▁강수
▁경감
▁미일
▁수전
▁수찬
▁얼리
▁해동
대주의
▁221
▁LTE
▁Red
▁강아지
▁레슬리
▁상류층
▁성동구
▁세포막
▁음악회
▁피스톤
▁하얼빈
▁Like
▁글래스고
▁모모야마
▁ㅁㅜㄹㄹㅕ
▁앵글로색슨
▁궁금
▁남짓
▁베레
▁북진
▁삼부
▁송금
▁실황
▁쑨원
▁장터
▁장현
▁정구
▁패미
▁폐간
▁후각
리오카
소년단
▁관악구
▁꽃받침
▁수류탄
▁현저히
▁교섭단체
▁시라카와
▁옵티머스
WS
yl
거슨
니언
▁가봉
▁골자
▁불펜
▁비약
▁서간
▁앙주
▁앞장
▁유위
▁이면
▁전륜
▁존호
▁차가
▁청진
▁추월
▁품계
▁플뢰
▁독립성
▁브룩스
▁이스턴
▁인슐린
▁Over
▁ㄷㅡㄹㅇㅕㅆ
오밍
▁MX
▁OC
▁ac
▁교착
▁본적
▁슬롯
▁완투
▁왈라
▁우화
▁회군
노세키
▁Eng
▁김포시
▁레오니
▁배상금
▁세례명
▁유학생
▁정보국
▁찾아보
▁브래들리
▁에트루리아
▁흩
서기
ric
▁RO
▁경학
▁국명
▁업소
▁연사
▁연일
▁오경
▁오목
▁우성
▁조위
▁주어
▁팔각
자위대
ouse
▁390
▁편의점
▁콘티넨털
▁Light
▁안티고노스
▁즙
비어
서면
슈티
쿠로
ana
▁고부
▁동족
▁마누
▁마로
▁봉산
▁수작
▁신예
▁포리
▁혈청
▁혹평
▁회기
▁나뭇잎
▁뇌졸중
▁박격포
▁유가족
▁탈수소
▁동명이인
▁루키우스
▁프리랜서
▁ㅈㅣㄴㅎㅐ
iet
▁NK
▁UK
▁계명
▁공물
▁다키
▁벙커
▁신숙
▁약국
▁유주
▁재귀
▁크릭
▁흐트
▁흡혈
▁Net
▁ㅋㅓㄹ
▁갑각류
▁리히텐
▁잎자루
▁정찰기
▁황갈색
▁가이우스
▁도쿠시마
▁오를레앙
▁카리스마
▁프라이드
랄라
▁JS
▁갑상
▁강압
▁계략
▁과천
▁덴버
▁반민
▁색조
▁선승
▁신빙
▁안구
▁커크
▁프롬
하이드
▁개찰기
▁부사관
▁생산력
▁프런트
▁하루카
▁은행나무
▁민속문화재
▁버지니아주
루트
▁고즈
▁궤멸
▁균류
▁명품
▁무방
▁부결
▁성직
▁야채
▁외전
▁유흥
▁임업
▁조만
▁중흥
▁차드
▁친하
▁해류
ㅈㅣㅂ
클레스
ason
▁...
▁231
▁ㄷㅏㅌ
▁멤피스
▁미망인
▁자신감
▁태권도
▁후견인
보레
시간
옹주
▁mg
▁비명
▁수유
▁스벤
▁여순
▁오데
▁우미
▁이등
▁쟁취
▁치타
▁키노
▁토사
베를린
슈타트
▁228
▁가오슝
▁도깨비
▁산화물
▁성범죄
▁ㅌㅏㄱㅗ
▁요코스카
▁ㅇㅏㄹㄹㅕㅈㅕㅆㅇㅡㅁㅕ
▁꽁
코로
ner
▁TA
▁간편
▁다방
▁미약
▁바예
▁북단
▁셀러
▁셀프
▁재야
▁청렴
자동차
▁가야금
▁피타고라스
▁ㅎㅏㄹㅅㅜㄹㅗㄱ
제곱
▁PK
▁Pa
▁과수
▁노시
▁담화
▁라피
▁보현
▁선더
▁송병
▁실바
▁아레
▁체온
▁콕스
▁토토
▁티나
▁정착민
▁집합론
▁1837
▁1844
▁팁
호크
▁각인
▁메로
▁비니
▁속이
▁식년
▁아워
▁약제
▁유예
▁칼초
▁Sec
▁예배당
▁창세기
브레히트
▁포리스트
▁강판
▁걸즈
▁내쫓
▁노숙
▁동천
▁만능
▁아론
▁장엄
▁정연
▁취락
▁트랩
▁티에
▁하체
▁한옥
▁홍명
▁Har
▁무척추
▁비대칭
▁취임식
▁저널리즘
▁ㅎㅐㅇㅘㅆ
▁네덜란드인
▁덥
조작
프슨
ven
▁ro
▁거장
▁급부
▁독단
▁아저
▁열등
▁요안
▁으로
▁풍토
▁950
▁ㄹㅕㅆ
▁단체장
▁드래건
▁모국어
▁반대쪽
▁여름철
▁곤살레스
▁트레이너
▁ㄱㅓㄹㄹㅣㄹ
▁고군
▁고해
▁김혜
▁냉방
▁밀교
▁연마
▁원판
▁이천
▁일직
▁청풍
▁코노
echn
▁미스트
▁발자국
▁사이다
▁쓰러지
▁아저씨
▁아즈치
▁조교수
▁현급시
▁환경부
코프스키
▁고속철도
▁ㅎㅏㅂㅊㅕㅈㅣㄴ
99
소시
▁GD
▁맨틀
▁미오
▁방랑
▁성희
▁숙고
▁엘프
▁옴니
▁익주
▁제례
▁집약
▁출근
▁테츠
▁홍대
사이클
▁226
▁520
▁SQL
▁Sum
▁발명가
▁연장선
▁항저우
▁호찌민
▁Stud
▁북베트남
▁알레산드로
aj
부스
red
▁낙농
▁때리
▁라코
▁만경
▁벨로
▁속죄
▁스털
▁치우
▁친형
▁케어
▁호라
▁발행인
▁예카테
▁아시리아
▁오렌지색
▁ㄱㅜㅇㅜㄴ
▁ㄴㅏㄴㅟㄴ
HT
▁뜰
다라
실론
▁거물
▁말러
▁반원
▁방전
▁아만
▁아명
▁예우
▁주앙
▁주청
▁초보
▁판도
▁007
▁fun
▁군단장
▁스타스
▁스턴트
▁유리수
▁임팩트
▁최남단
▁테레사
ution
▁1836
▁ㅁㅏㅈㅜ
▁챙
뿌리
▁FR
▁가자
▁김나
▁김응
▁난자
▁라운
▁여장
▁운문
▁이매
▁자폐
▁총지
▁코라
▁타국
▁히치
국민당
민정음
정대부
▁ㄱㅜㅂ
▁로스터
▁쫓아내
▁평창군
▁화순군
▁휘두르
▁CCTV
▁스테레오
▁ㄱㅜㅎㅐㅆ
▁방탄소년단
▁ㅈㅣㅋㅕㅇㅑ
▁녜
▁읊
▁Af
▁광종
▁나방
▁망막
▁문부
▁성왕
▁슈가
▁심층
▁썬더
▁여가
▁일신
▁전황
▁정순
▁증서
▁합전
▁혼용
▁자연사
▁헤이룽
▁페미니즘
▁ㄴㅓㄼㅎㅕㅆ
▁ㄱㅏㅈㅕㅇㅗㄹ
IE
곡선
링거
시설
▁OF
▁건안
▁랭커
▁리턴
▁빈약
▁서동
▁소토
▁스퍼
▁알현
▁외젠
▁편모
▁폭우
니우스
▁315
▁관리국
▁아이유
▁요시노
▁일대기
▁제작소
▁케네스
▁퍼블릭
데하이드
▁블리자드
▁산마리노
▁승부조작
▁욘
교동
기술
도체
승람
타야
▁HE
▁XX
▁ㅁㅑ
▁기만
▁난사
▁리부
▁반구
▁선지
▁아의
▁영흥
▁익사
▁목판본
▁이준용
▁근본주의
▁요시노부
▁ㅇㅜㅁㅈㅣㄱㅇㅕ
07
▁칵
영향
회로
▁군현
▁냉정
▁녹스
▁로랑
▁보사
▁예리
▁우부
▁은사
▁전광
▁정희
▁척수
vent
▁동인도
▁버틀러
▁헤이그
▁블레이크
▁훈민정음
▁ㅍㅓㅈㅣㄴ
▁ㄱㅣㄷㅏㄹㅕㅆ
개석
날두
하나
ism
▁난입
▁레고
▁물의
▁선덕
▁성녀
▁소단
▁소변
▁숙의
▁오거
▁자급
▁전폭
▁주살
▁체격
▁투영
▁포사
▁허영
바이크
▁관동군
▁다이너
▁명륜당
▁서산시
▁수호자
▁스코트
▁윈스턴
▁ㄷㅣㅇㅗ
▁구스타브
▁마르티네스
▁ㅃㅐㅇㅏㅅㄱㅣㄴ
uk
▁쉘
돈나
생명
전력
젤란
▁Mk
▁각오
▁공회
▁길목
▁마태
▁모레
▁어판
▁워런
▁제스
▁증산
▁출진
▁757
▁노원구
▁닭고기
▁상나라
▁슐레스
▁인피니
▁호날두
▁라플라스
▁ㅋㅣㅇㅜㅁ
자재
치카
▁EV
▁김만
▁노다
▁도큐
▁마포
▁명은
▁미용
▁병영
▁복고
▁살롱
▁승천
▁액정
▁이프
▁증여
▁지에
▁키시
▁테베
▁토우
소시엄
유철도
ital
▁217
▁거문고
▁게임스
▁마리나
▁신인왕
▁앙코르
▁에리트
▁1794
▁컨소시엄
▁일본국유철도
▁얌
ㅐㅁ
피오
▁고드
▁관공
▁낸시
▁도노
▁비오
▁사시
▁상석
▁시술
▁의금
▁이근
▁일류
▁주시
▁척탄
미사일
클랜드
▁640
▁베르너
▁시크릿
▁에스테
▁울릉도
▁원통형
▁위클리
▁최치원
ㅝㅈㅕㅆ
▁ㅂㅏㄹㅏㅆ
▁ㄱㅏㄹㄹㅏㅈㅣㄴ
▁얽
등기
젠더
테롤
화가
▁데시
▁돌풍
▁마현
▁북면
▁용매
▁720
▁경제력
▁끊임없
▁알론소
▁연천군
▁ㅂㅘㅅㅓ
▁매트릭스
▁모노레일
▁브리트니
▁ㅁㅏㅅㅕㅆ
루프
상도
우병
▁OP
▁UR
▁el
▁결속
▁고어
▁낙향
▁단련
▁동태
▁북조
▁수생
▁야르
▁이각
▁학제
▁히바
ator
▁경작지
▁군사령
▁밀양시
▁비디아
▁비서실
▁알렉시
▁오미야
▁정규군
▁제작비
▁1806
▁레오폴트
▁콘스탄틴
▁콘스탄티노스
시계
처분
▁김부
▁매표
▁불순
▁사표
▁성충
▁쇼니
▁슈뢰
▁스즈
▁이교
사와라
▁공로자
▁떠올리
▁아타리
▁증손자
▁라그랑주
▁비로자나불
▁알브레히트
이나
플리
bum
▁대일
▁러더
▁명맥
▁무너
▁박세
▁상도
▁쓸모
▁염료
▁정설
▁함평
▁610
▁Sci
▁도승지
▁본회의
▁허난성
▁무너뜨리
▁코르테스
▁ㅁㅗㄹㄹㅏ
▁ㅂㅓㅅㄱㅕ
▁리히텐슈타인
▁딤
▁웁
야르
여왕
▁도감
▁불멸
▁오성
▁욕계
▁우트
▁접경
▁주오
▁철제
▁카밀
▁켈러
▁폐단
▁표범
▁헌제
▁후학
oney
port
▁ㄱㅣㅃ
▁교통량
▁니케아
▁만화책
▁문화원
▁야구팀
▁콩쿠르
▁후백제
▁우리나라
▁ㅇㅓㄱㅡㅅ
▁세르비아인
▁쁘
ㅊㅜ
공간
급수
▁내사
▁부록
▁비핵
▁사세
▁선무
▁섭씨
▁수능
▁이대
▁저압
▁절연
▁타계
▁탈선
▁티노
▁ㄸㅟㄴ
▁복잡도
▁불명예
▁오보에
▁전투력
▁지린성
▁Play
▁총영사관
▁플라스마
▁ㅇㅏㄴㅣㄴㅈㅣ
08
ㅋㅕ
돌리
외과
요리
장자
찌르
▁GL
▁개회
▁낙원
▁대면
▁대축
▁돈녕
▁밀착
▁서라
▁여전
▁오정
▁의화
▁이발
▁자의
▁잔당
▁조모
▁주방
▁한산
▁Boy
▁RPG
▁고창군
▁기후현
▁농경지
▁득점자
▁배포판
▁스털링
▁옆구리
▁코코넛
▁후쿠다
▁ㄴㅜㅇㅝ
▁밀리미터
▁ㅋㅣㄴㅡㄴ
▁ㄴㅏㅁㄱㅕㅈㅣㄴ
MP
들레
사병
▁관방
▁구식
▁산간
▁설법
▁송정
▁위선
▁인현
▁지루
▁차후
▁최충
▁한진
▁희소
▁규장각
▁비핵화
▁에볼라
▁온전히
▁최북단
▁하코다
▁이스마일
▁오가사와라
▁프레데리크
▁ㅂㅏㄺㅎㅕㅆㅇㅡㅁㅕ
▁가니
▁박현
▁상향
▁신간
▁인장
▁장부
▁채팅
▁해구
▁화사
form
▁도망가
▁문학가
▁설리번
▁연구관
▁연주가
▁조선조
▁징병제
▁포워드
ㄱㅎㅕㅆ
▁ㅇㅓㄷㅜ
▁코민테른
▁ㄹㅗㅇㅜㅁ
▁ㅇㅣㅈㅔㄴ
▁ㄱㅏㅆㅇㅡㄴㅏ
고시
셔스
▁MT
▁군용
▁릭스
▁민자
▁박제
▁반유
▁변제
▁비닐
▁신현
▁유추
▁윤봉
▁이륙
▁캡슐
▁펄스
▁폐막
▁비행단
▁사사키
▁생산물
▁실종자
▁오리올
▁윈난성
▁이교도
▁인구수
▁ㅅㅜㅁㅈㅕㅆ
▁ㄱㅏㄹㅇㅏㅌㅏㄹ
성이
시프
▁IB
▁동결
▁딸기
▁만두
▁번복
▁부마
▁소감
▁승소
▁아코
▁양부
▁의외
▁인솔
▁인턴
▁인회
▁조미
▁치앙
▁탐욕
▁투고
▁헌종
▁815
▁min
▁고분자
▁나가토
▁엄격히
▁영화사
▁예산군
▁오와리
▁충실히
▁그레이스
▁프레드릭
▁ㅁㅏㄱㅎㅕ
▁슐레스비히
▁ㅂㅗㄴㄷㅏㅁㅕㄴ
▁ㅂㅗㅇㅕㅆㅇㅡㅁㅕ
UT
▁젯
더기
무덤
바스
▁기함
▁노량
▁묵시
▁백국
▁보비
▁실물
▁엣지
▁전소
▁전해
▁주니
▁주안
▁주필
▁중사
▁진양
▁차리
▁출제
▁회랑
▁후생
스타파
스트로
▁공모전
▁에탄올
▁연해주
▁철원군
▁테슬라
▁해산물
▁흰개미
▁1798
▁호몰로지
▁ㅁㅗㅇㅏㅅㅓ
▁ㅂㅗㄴㅐㅆㅇㅡㅁㅕ
전리
체인
ony
▁구국
▁깔끔
▁노획
▁동면
▁모여
▁번번
▁서광
▁순창
▁암벽
▁왜적
▁전경
▁토고
▁파벨
▁편수
▁하향
▁각운동
▁라이터
▁오시마
▁조직원
▁족제비
▁학부모
▁1842
▁애틀랜틱
▁ㅇㅏㅍㅅㅔㅇㅝ
ㄱㅣ
lex
ush
▁ㄱㅖ
▁극좌
▁네프
▁니컬
▁단판
▁방황
▁병리
▁성급
▁쇼난
▁애도
▁종과
▁집현
▁처단
▁표류
▁피노
▁OVA
▁Rem
▁문학사
▁선발전
▁완주군
▁코러스
▁한니발
▁1796
▁1832
▁누설
▁로메
▁방계
▁불어
▁선풍
▁신년
▁추봉
▁편차
▁학비
▁Bad
▁EMI
▁감독상
▁글리세
▁대문자
▁웰링턴
▁쿠르트
▁헤이룽장
▁멕시코시티
▁ㄴㅗㅎㅊㅕㅆ
▁ㅇㅝㄴㅎㅏㄴㄷㅏ
▁간청
▁궁지
▁루르
▁만석
▁소각
▁수계
▁애너
▁유혈
▁책판
▁쳐들
▁치역
▁푸른
▁현안
raph
▁Met
▁ㄹㅣㄴ
▁마티아
▁술탄국
▁원동력
▁자위대
▁지원금
▁코페르
▁That
▁레즈비언
▁마우리아
▁애기박쥐
▁브라이언트
▁트랜스젠더
▁페르난데스
▁ㅊㅣㅇㅎㅏㄴㄷㅏ
▁뺨
▁간간
▁김소
▁벤자
▁소드
▁쌍방
▁어셈
▁철권
▁티오
레이스
▁wid
▁미즈노
▁주간지
▁케로로
▁2030
▁King
▁마이니치
▁맥도널드
▁에드워즈
▁ㅂㅜㄹㅌㅏ
▁ㅇㅝㄴㅊㅣ
▁나가사키현
▁옙
를로
상가
▁공생
▁궁예
▁누벨
▁도합
▁문묘
▁보손
▁엥겔
▁의리
▁잡음
▁절터
▁정산
▁촉한
▁침전
▁222
▁가부장
▁도리어
▁무찌르
▁보두앵
▁불태우
▁인터랙
▁자치령
▁참정권
▁합법화
▁헥타르
▁홋스퍼
▁이오시프
af
뿔소
▁관철
▁금상
▁다원
▁물병
▁살균
▁소경
▁열중
▁정토
▁태사
▁ㄱㅜㄹ
▁다섯째
▁독립당
▁소시지
▁앞부분
▁에르빈
▁이주한
▁잉글리
▁테크니
▁상륙작전
▁젓
ady
▁데인
▁럭키
▁마수
▁마저
▁성층
▁쿼드
▁토레
▁투과
▁한지
▁후왕
이스터
▁460
▁660
▁ROM
▁남양주
▁레인지
▁미완성
▁아랍인
▁제이미
▁타이밍
▁트래픽
▁Inst
▁각운동량
▁스위프트
▁ㅉㅗㅊㄱㅕㄴㅏㅆ
▁멩
▁횃
ㅕㅇ
군가
밍고
트론
▁MR
▁각계
▁고금
▁래드
▁상온
▁알카
▁에렌
▁외출
▁일지
▁절도
▁치소
▁Cor
▁NHL
▁글라스
▁부스터
▁엄밀히
▁전사자
▁맥도날드
▁지느러미
ㅇㅜㄴㄷㅏ
▁Colle
▁외할아버지
▁ㅃㅏㅈㅕㄴㅏ
▁ㅅㅣㅋㅕㅆㅇㅡㄴㅏ
▁ㅂㅏㄷㅇㅏㄷㅡㄹㅇㅕㅈㅕㅆ
YS
공원
도나
동면
에즈
▁no
▁구어
▁동과
▁반장
▁밤중
▁수륙
▁양재
▁위문
▁철교
▁페퍼
▁호송
orce
▁232
▁귀족원
▁스톤스
▁재정부
▁퍼거슨
▁1790
▁ㄲㅜㄹㅕ
▁소선거구제
▁프로테스탄
▁ㅇㅏㄴㅣㅎㅏㄴ
권력
루브
치니
테아
폭스
▁ㄱㅝ
▁당부
▁레퍼
▁레흐
▁습기
▁승패
▁알토
▁양당
▁연성
▁주공
▁질산
▁찬가
▁최규
▁침착
▁핸들
▁not
▁ㅈㅜㅁ
▁명탐정
▁박지원
▁법학자
▁사림파
▁생산지
▁안성시
▁좌찬성
▁콜레스
▁호쿠리쿠
▁우쓰노미야
대왕
elf
▁간통
▁도립
▁선법
▁유유
▁참봉
▁철로
▁총합
▁파노
▁피르
▁황궁
▁김유신
▁누군가
▁메이어
▁아즈마
▁주황색
▁터키어
▁포터블
여지승람
컬럼비아
▁ㄱㅕㄴㄷㅣㄹ
▁경부고속도로
▁브리티시컬럼비아
▁ㅇㅣㄲㅡㄹㅇㅓㄴㅐㅆ
WA
눌프
물질
카레
케인
iew
▁pH
▁메우
▁몰살
▁심볼
▁옐친
▁종일
▁커비
▁호골
사우스
연수원
▁216
▁관광업
▁이시다
▁1831
▁스트라스
▁아르눌프
▁무척추동물
▁사법연수원
가슴
국수
병원
영화
오버
테리
▁교두
▁국자
▁기틀
▁두만
▁배럴
▁범하
▁빌레
▁승탑
▁시퀀
▁아도
▁암술
▁업종
▁의종
▁장력
▁지토
▁청조
▁프시
▁화친
▁회합
ㅊㅣㅁ
▁234
▁유망주
▁카네기
▁밀레니엄
▁비정규직
▁아이패드
09
pm
we
▁깅
▁뺏
▁쉴
농사
▁국판
▁명회
▁수제
▁일례
▁참호
▁클락
▁파샤
▁필적
▁ㄸㅟㄹ
▁구독자
▁다름없
▁도요타
▁로런츠
▁앙투안
▁플루트
▁1810
▁브루크너
▁ㅁㅗㅅㅕㅆ
▁모터사이클
ama
▁다롄
▁명창
▁방비
▁수개
▁시메
▁신드
▁야후
▁유약
▁임사
▁지파
▁차질
▁하일
그래프
▁264
▁410
▁RCA
▁경유지
▁일레븐
▁콜레스테롤
▁School
▁ㅈㅜㄹㅇㅓㄷㅡㄴ
KA
레도
연장
키타
▁군무
▁기흥
▁누명
▁디시
▁떨치
▁린네
▁사향
▁색슨
▁석학
▁수월
▁신변
▁제군
▁조산
▁찬반
▁초조
▁피플
▁후스
▁흐루
▁달팽이
▁애프터
▁완도군
▁진동수
▁학년도
▁호프만
▁레퍼토리
▁신약성경
▁인사이드
▁노스캐롤라이나주
마켓
민턴
조치
ins
▁EL
▁김봉
▁난방
▁노토
▁당도
▁삼남
▁에게
▁오두
▁윈저
▁윤지
▁정장
▁통사
수산부
▁Run
▁뱅크스
▁수감자
▁슈바르
▁전반전
▁해남군
▁that
▁ㅂㅜㅊㅜ
▁어니스트
▁사회주의자
▁ㅇㅕㅆㅇㅓㅆ
▁ㅌㅏㄱㅗㄴㅏㄴ
sc
복음
슬란
우마
테크
ane
ney
▁노포
▁봉승
▁분대
▁아강
▁아포
▁여류
▁영하
▁유색
▁중문
▁판권
껍데기
러뜨리
▁Web
▁버펄로
▁아소카
▁인더스
▁척탄병
▁프로페
▁피난민
▁휴양지
▁Great
▁ㅂㅏㄲㅟㄹ
▁ㄱㅕㅁㅎㅐㅆ
▁퀵
더드
라프
틸렌
rop
▁UI
▁결부
▁선왕
▁윤종
▁입교
▁자객
▁차우
▁후버
르트르
ript
▁괴팅겐
▁미시마
▁에이미
▁울타리
▁의성군
▁1841
▁매일신보
▁ㅂㅏㄲㅜㄴㄷㅏ
▁ㅅㅡㄹㅓㅇㅝㅆ
▁ㅇㅓㄷㅣㄴㄱㅏ
▁숄
▁핍
넬라
넬리
누이
살라
차크
▁Je
▁괴산
▁근해
▁노릇
▁레니
▁로펌
▁마의
▁멜리
▁분실
▁불도
▁사멸
▁색계
▁설가
▁성호
▁전량
▁티미
▁파가
▁현내
스토크
▁보이콧
▁이와키
▁제사장
▁테크닉
▁ㄱㅜㅇㅝ
▁다다요시
▁배드민턴
▁시스템즈
▁원더러스
▁ㅍㅣㄴㄷㅏ
▁알렉산드로
▁ㅇㅣㄹㅅㅜㄹㅗㄱ
▁쉼
사지
상부
평동
IST
ene
▁we
▁꾸짖
▁나자
▁남문
▁라부
▁막말
▁만과
▁비사
▁섀도
▁송강
▁연선
▁키요
▁튜버
▁틀림
▁휘그
거래소
▁GPU
▁노동부
▁달성군
▁미나토
▁오로라
▁진흥왕
▁차이나
uth
▁군왕
▁덕흥
▁드롭
▁루브
▁방형
▁빽빽
▁성찰
▁안달
▁양시
▁용법
▁청두
▁초본
▁타다
▁항거
▁가속도
▁군주국
▁미야코
▁번역본
▁안타깝
▁클리프
▁다카마쓰
▁오카자키
▁워싱턴주
▁코페르니
▁ㅇㅏㅍㅡㄴ
▁ㅈㅣㅈㅣㄹ
▁오키나와현
▁Project
EX
▁엷
무드
퓨터
▁UF
▁갈레
▁고우
▁광석
▁극성
▁노블
▁뜨겁
▁마더
▁신디
▁양제
▁영일
▁원예
▁쟁탈
▁지세
▁코흐
▁허무
▁Are
▁ㅅㅐㅁ
▁가극단
▁다케시
▁로열스
▁마돈나
▁밀어내
▁애슐리
▁예비치
▁ㅈㅕㅇㅑ
▁스파이크
▁요시히로
ㄱㅜ
가쿠
ARD
▁고비
▁궤간
▁북로
▁산학
▁속현
▁손오
▁애버
▁울림
▁재량
웨일스
▁213
▁고생물
▁보이저
▁샐러드
▁안후이
▁은평구
▁정나라
▁와이파이
▁요시타카
▁Every
▁width
▁노브고로드
단조
시효
▁계면
▁남측
▁머무
▁불허
▁사족
▁야인
▁연골
▁연체
▁오수
▁임차
▁전군
▁전횡
▁조예
▁체이
▁캐스
▁파탄
▁홍준
▁ㅇㅐㅆ
▁공예품
▁몰아넣
▁생물체
▁야나기
▁전쟁터
▁파이썬
▁하야시
▁개혁주의
▁뉴사우스
▁스토리지
▁트랜스포
▁align
▁ㅇㅡㄴㅈㅣ
▁뉴사우스웨일스
▁International
04
묘지
바노
장어
ott
▁신승
▁장진
▁정대
▁중주
▁집시
▁타사
▁페론
ㄷㅊㅕ
라이즈
▁리오스
▁애스턴
▁인도인
▁주택지
▁케이지
▁토착민
스티누스
▁ㄱㅜㅎㅏㄴㄷㅏ
▁귄
▁개폐
▁그립
▁리빙
▁본드
▁사네
▁석호
▁스메
▁신촌
▁신파
▁에니
▁원추
▁위엄
▁유모
▁자상
▁친필
▁카도
▁포지
▁UAE
▁메이크
▁반다이
▁보성군
▁스텔라
▁위아래
▁음식물
▁지휘봉
▁총동원
▁탈바꿈
▁프렌치
▁1804
▁this
▁매개변수
▁슬라이드
▁하비에르
▁농어촌버스
▁캇
eng
▁곤도
▁공구
▁금주
▁몽케
▁생후
▁안트
▁어가
▁열린
▁외세
▁음극
▁처우
▁파월
▁YTN
▁고르바
▁그리핀
▁ㅁㅐㄱㅕ
▁가선대부
▁꿇
말로
미드
블러
▁계책
▁광원
▁금품
▁셰리
▁수차
▁아쉬
▁이변
▁저당
▁코팅
▁탈옥
▁텐트
▁환생
▁Mod
▁구로다
▁기술력
▁김천시
▁리스크
▁벤자민
▁엡실론
▁올바르
▁의금부
▁지구대
▁ㅊㅣㄴㄷㅏ
▁옥타비아누스
▁ㅂㅓㅅㅇㅓㄴㅏㅆ
경제
렉트
북동
숭아
키르
▁매핑
▁미티
▁수완
▁수혈
▁아일
▁어종
▁이따
▁전처
▁진관
▁포체
▁허니
▁Rad
▁빌리지
▁서양식
▁설득력
▁아이비
▁칭다오
▁통영시
▁편집기
ㅂㅎㅣㅁ
▁고이즈미
▁플러그인
▁스파이더맨
▁ㅁㅏㅈㅁㅜㄹㄹㅕ
▁ㅊㅏㅈㅇㅏㄱㅏㅆ
▁웸
길동
티엄
▁up
▁꼭두
▁니르
▁린턴
▁임지
▁정열
▁주루
▁중년
▁혈연
그레브
tain
▁거주민
▁과도기
▁로망스
▁막바지
▁펜티엄
▁형이상
▁ㄱㅜㄴㅏ
▁남태평양
▁자그레브
lement
로리
ize
▁UP
▁am
▁ha
▁겸손
▁교위
▁근현
▁김효
▁레노
▁무오
▁무적
▁박철
▁배송
▁선주
▁실격
▁어간
▁오고
▁최승
▁축약
▁타니
▁판각
오피스
▁219
▁Off
▁괴롭히
▁귀퉁이
▁설계자
▁소방관
▁유태인
▁이영호
▁아나스타
▁ㄱㅏㅎㅏㄴ
▁고르바초프
▁베른하르트
▁ㅁㅜㄴㅓㅈㅣㄴ
노신
뉴얼
바겐
조약
티니
▁간헐
▁격돌
▁동관
▁동음
▁레게
▁만력
▁매료
▁시복
▁신창
▁야자
▁양전
▁엘튼
▁연필
▁옐로
▁총력
▁커맨
▁키라
▁키미
▁탄탄
▁파멸
▁판문
▁호우
▁255
▁광명시
▁얼스터
▁제이콥
▁집현전
▁초능력
라이언스
▁안드레아스
▁ㅇㅕㄱㅕㅈㅕ
▁뭄
룩스
에타
웨시
청정
퇴근
▁DP
▁결점
▁권영
▁근심
▁급유
▁날카
▁돌진
▁맬컴
▁배합
▁수기
▁신데
▁역법
▁원균
▁유병
▁은상
▁정랑
▁지국
▁처남
▁체의
▁투라
▁해법
▁ARM
▁EOS
▁FTA
▁라이히
▁밤하늘
▁방문자
▁완성도
▁1843
▁술라웨시
▁와이오밍
▁전체주의
▁교신
▁구파
▁넥슨
▁도민
▁도조
▁반가
▁보답
▁분립
▁뽑히
▁산군
▁성상
▁우의
▁인방
▁전법
▁짝짓
▁클립
▁퍼드
▁한일
라리온
atic
▁275
▁ㅈㅓㅁ
▁공포증
▁디지몬
▁주사위
▁헤비급
▁ㄱㅏㅁㅊ
▁ㄴㅡㄹㅕ
▁고다이고
▁ㄱㅡㅁㅏㄴ
SI
럭스
중미
푸라
▁감로
▁결번
▁권선
▁금하
▁단념
▁배재
▁성시
▁소부
▁신겐
▁오존
▁유람
▁티니
▁함포
▁혼슈
▁감염병
▁바울로
▁바이든
▁북중미
▁소시에
▁파스타
▁1809
▁1821
▁스트로스
▁시에라리온
▁ㄷㅐㅎㅐㅅㅓㄴ
룬궁
▁-.
▁각서
▁공제
▁군소
▁농노
▁뒤편
▁마네
▁명기
▁문답
▁미혼
▁보은
▁생부
▁실라
▁우등
▁원뿔
▁지요
▁홍주
▁강동구
▁강진군
▁스포트
▁안기부
▁파룬궁
▁파올로
▁1813
▁슈바르츠
ations
▁야마구치현
▁ㅇㅜㅁㅈㅣㄱㅇㅣㄴㄷㅏ
갈리
코어
▁간척
▁근친
▁남명
▁놀랍
▁레디
▁발데
▁비안
▁예거
▁유복
▁정운
▁정육
▁조차
▁취역
▁탁발
▁하룻
리스타
▁Blu
▁Ind
▁key
▁구로구
▁남원시
▁버몬트
▁베니스
▁양주군
▁우참찬
▁1623
▁1783
▁나카지마
▁신데렐라
▁영지주의
▁전자기파
노지
레알
사촌
장식
▁Mc
▁VV
▁괴테
▁레터
▁무녀
▁민병
▁불의
▁섹시
▁수험
▁슬러
▁울진
▁인맥
▁조희
▁증설
▁미소녀
▁부대원
▁브리핑
▁호르헤
▁더글라스
▁소프라노
▁엑스트라
▁카슈미르
ㅇㅓㅈㅣㄴㄷㅏ
▁ㄱㅡㄹㅕㅈㅕㅆ
▁뎀
ams
▁Em
▁가노
▁고주
▁낙인
▁농악
▁머릿
▁밀수
▁반칙
▁법당
▁본점
▁세그
▁순치
▁야노
▁유랑
▁유례
▁장직
▁지온
▁하랄
▁횃불
▁회생
레우스
▁기울기
▁김제시
▁담양군
▁비트겐
▁사토시
▁정반대
▁줄리엣
▁출퇴근
▁호스팅
▁1805
▁가시광선
▁에인절스
▁허베이성
▁ㅊㅣㄹㅡㄹ
▁가고시마현
▁구마모토현
▁비트겐슈타인
▁샛
마뉴
춘기
▁FL
▁길쭉
▁리포
▁목축
▁밀로
▁바드
▁박희
▁보주
▁연례
▁육류
▁임박
▁재기
▁차내
▁타트
▁특파
▁히포
▁Rob
▁Sub
▁ㅎㅟㄷ
▁레이터
▁마애불
▁서보장
▁양주시
▁칼리파
▁하룻밤
▁다이렉트
▁디바이스
▁샤를마뉴
▁클라우스
▁score
NS
난히
바야
▁DL
▁GE
▁ㄴㅟ
▁ㅆㅣ
▁네온
▁데루
▁부역
▁서영
▁수미
▁스무
▁심혈
▁에그
▁온양
▁와시
▁지망
▁진봉
▁총관
▁측도
▁카렌
▁타치
즈버그
▁ㄸㅐㄴ
▁ㅇㅜㄴ
▁레이드
▁밑부분
▁송광사
▁진도군
▁1799
▁1835
▁1845
▁궁수자리
▁아사쿠라
▁프로펠러
▁코페르니쿠스
▁ㅇㅕㅆㅇㅡㅁㅇㅔㄷㅗ
▁윅
롤터
슈빌
암면
정책
함대
▁Im
▁구레
▁도당
▁무학
▁속박
▁시군
▁원대
▁유파
▁은총
▁응고
▁임성
▁장본
▁창사
▁총상
▁친교
▁교회법
▁모리슨
▁불안감
▁시어도
▁연나라
▁자존심
▁작용소
▁장시간
▁저수지
▁주둥이
▁카세트
▁트렌드
▁훈련소
▁1819
▁지브롤터
▁20120
▁ㄸㅏㄹㅡㄹ
▁아케메네스
▁크리스토프
▁헤르베르트
▁ㄴㅓㅁㅇㅓㅅㅓㅆ
▁ㅅㅗㄴㄲㅗㅂㅎㅣㄴㄷㅏ
05
▁넵
▁댁
▁기류
▁나크
▁다나
▁밀크
▁비법
▁사노
▁서군
▁섹터
▁송영
▁암반
▁오피
▁왕전
▁우먼
▁저마
▁조안
▁청천
▁혼재
▁She
▁val
▁신숙주
▁피루브
▁혁명당
▁시어도어
▁인기가요
▁ㅅㅣㅈㅣㅂ
▁ㅈㅏㅂㅇㅏ
▁애리조나주
▁ㄱㅡㄹㅣㄴㄷㅏ
na
▁큼
레마
▁격분
▁겸비
▁광무
▁드론
▁리티
▁메기
▁민진
▁석물
▁시련
▁시보
▁완충
▁유쾌
▁절개
▁정다
▁파면
▁DMB
▁라이즈
▁멧돼지
▁번역가
▁브란트
▁비무장
▁어쨌든
▁제후국
▁키루스
▁팬클럽
▁홍준표
▁1803
▁Fire
▁법무법인
▁코르도바
▁인터랙티브
▁ㅇㅓㅇㅜㄹㄹ
▁ㅇㅗㄻㄱㅕㅈㅕ
로메
르노
erm
▁남진
▁라빈
▁루가
▁마유
▁반탁
▁분투
▁선산
▁셀라
▁중류
▁체사
▁크래
▁투아
▁퍼부
▁흑자
가르드
▁Inc
▁OEC
▁구조대
▁동반자
▁오쿠보
▁ㅉㅣㄹㄹㅓ
▁증권거래소
광석
런드
야카
엄경
칼라
▁DE
▁nt
▁경직
▁나포
▁다승
▁루빈
▁리호
▁마역
▁매화
▁무마
▁부계
▁일광
▁자가
▁정미
▁지산
▁참새
▁총신
▁카고
ates
▁227
▁내려지
▁출발점
▁휘트니
▁YMCA
▁ㄴㅣㅇㅏ
▁세그먼트
▁중합효소
▁카스트로
▁ㅁㅗㄹㄹㅕㅆ
▁ㅅㅣㅁㅎㅐㅆ
놀룰
입상
▁KR
▁강탈
▁다호
▁마드
▁미화
▁박차
▁버디
▁보천
▁성유
▁세세
▁순국
▁아령
▁옥중
▁재가
▁주정
▁지와
놀룰루
▁Bel
▁마츠모토
▁킬로그램
▁핵미사일
▁호놀룰루
봉산
oph
▁RF
▁고서
▁급하
▁김순
▁데릭
▁록맨
▁순사
▁스물
▁쓰키
▁아방
▁압승
▁앵무
▁조밀
▁종용
▁질의
▁충절
▁파머
▁블레어
▁아무르
▁알파인
▁에드윈
▁에스터
▁영연방
▁창녕군
▁HTTP
▁마스터스
▁트리니티
▁Award
▁소시에다드
▁ㅇㅓㄺㅎㅣㄴ
▁ㅇㅗㄻㄱㅣㄹ
▁ㄸㅓㄹㅇㅓㅈㅣㄹ
UL
예보
▁VR
▁노팅
▁대간
▁엘렌
▁유린
▁전각
▁전태
프리트
▁Ste
▁근거리
▁도에이
▁상주시
▁영동군
▁웸블리
▁칼데라
▁플뢰레
▁흑사병
▁얼라이언스
▁ㅃㅏㅈㅣㄴㄷㅏ
▁헴
두스
렌츠
미츠
▁EA
▁MY
▁Sk
▁김익
▁꺼내
▁돌방
▁로잔
▁목도
▁뭉치
▁주법
▁행태
▁활력
티나무
▁구락부
▁사춘기
▁세이버
▁수공업
▁양방향
▁오사무
▁의석수
▁파르티
▁폭발물
▁현무암
▁루즈벨트
▁미네소타주
▁ㄱㅣㅇㅜㄹㅇㅕ
▁웡
▁팥
란도
랜도
▁민방
▁발부
▁여흥
▁전령
▁조운
▁중창
▁진남
▁진폭
▁한수
드랑이
복지부
▁ㄱㅝㄴ
▁발레리
▁비욘세
▁아프간
▁퇴적물
▁화물선
▁ㅂㅜㄹㄱ
▁어린아이
▁페미니스트
▁해양수산부
▁ㅎㅐㅇㅎㅐㅆ
06
▁펨
마트
별초
아노
아비
혈병
ava
▁DX
▁구지
▁기약
▁눈앞
▁만지
▁벌리
▁산도
▁산양
▁삼위
▁애비
▁원지
▁주동
▁집게
▁피력
▁헌트
▁Raw
▁ㅇㅕㄹ
▁가로막
▁간담회
▁경순왕
▁기쿠치
▁노나라
▁메이드
▁함양군
ㅎㅐㅈㅕ
irect
▁AIDS
▁빠져나가
▁피루브산
▁Korea
기군
네세
신기
▁RX
▁WK
▁랄프
▁만호
▁미케
▁밀정
▁바레
▁본가
▁어퍼
▁오언
▁유현
▁자모
▁탈라
▁프티
▁헤딩
▁325
▁AEK
▁Act
▁Ass
▁결론지
▁마우리
▁바르트
▁산사태
▁아르마
▁오마르
▁전환점
▁점령지
▁지원군
▁Down
▁레버쿠젠
▁페가수스
▁ㄱㅗㅇㅜㄴ
xy
만금
보전
분별
비노
지우
air
▁OR
▁견과
▁궁녀
▁만네
▁비장
▁상학
▁쓰쿠
▁앤젤
▁야오
▁이쿠
▁탱화
▁행법
▁매출액
▁문교부
▁사이키
▁사회부
▁새만금
▁수행원
▁여호와
▁외래어
▁음성군
▁이즈모
▁OECD
▁ㄴㅣㄹㅏ
▁브롱크스
▁삼위일체
▁폭스바겐
▁Micro
▁ㅇㅏㄹㅇㅏㄴㅐㅆ
튠즈
▁마두
▁보가
▁상보
▁에베
▁오드
▁용자
▁윙스
▁찬송
▁친근
▁하녀
▁환호
▁황조
어머니
▁253
▁고구마
▁금산군
▁무용가
▁박원순
▁색소폰
▁아우디
▁엠블럼
▁요시오
ㅇㅓㅇㅑ
▁Game
▁Just
▁ㄷㅡㄹㅏ
▁아이튠즈
▁20100
▁ㅁㅕㄴㅊㅣ
▁ㅇㅚㅊㅕㅆ
▁에리트레아
▁이탈리아인
▁홀로코스트
▁ㅇㅣㄹㅇㅓㄴㅏㅆㅇㅡㅁㅕ
곡사
러니
타기
파업
하리
oud
▁TF
▁강민
▁급식
▁다각
▁도체
▁문란
▁미쿠
▁순절
▁쓰시
▁아문
▁옥고
▁요나
▁이분
▁이비
▁주미
▁코칭
▁판독
▁포프
▁한눈
▁후천
▁218
▁are
▁ver
▁기업체
▁모여들
▁사바나
▁서커스
▁수니파
▁식료품
▁에반스
▁크롬웰
▁파이낸
▁1824
▁에스파뇰
▁평양직할시
▁ㅎㅐㅈㅕㅅㅓ
▁ㅌㅓㄸㅡㄹㅕㅆ
▁ㅂㅏㄺㅎㅕㄴㅐㅆ
전쟁
콘티
▁감속
▁계림
▁금오
▁변의
▁상아
▁쌓이
▁오귀
▁왕망
▁원순
▁청양
▁추도
▁태클
▁특산
▁해면
세이돈
▁Che
▁POS
▁노선도
▁마사카
▁안보리
▁영암군
▁지원병
▁총파업
▁크레인
▁토레스
▁에마누엘
▁엠파이어
▁포세이돈
▁Power
▁시모노세키
가이
래곤
베그
정지
▁게코
▁나베
▁달인
▁모계
▁박명
▁양공
▁양사
▁오코
▁이숙
▁입선
▁팔로
▁회가
▁224
▁777
▁ㅉㅏㄴ
▁다이라
▁불어넣
▁올랜도
▁중국식
▁휘발유
▁9000
▁comp
▁느티나무
▁ㄱㅏㅈㅕㅇㅑ
▁금메달리스트
▁ㅇㅣㅇㅑㅁㅏㄹㄹㅗ
따르
riv
▁고차
▁누드
▁들판
▁선분
▁소급
▁승화
▁자일
▁작화
▁투척
▁햇볕
리스토
적으로
▁Ang
▁How
▁ㅌㅔㄴ
▁로도스
▁매크로
▁미카와
▁사마의
▁수족관
▁에이드
▁음악상
▁정읍시
▁초음파
▁친동생
aster
▁1802
▁스피어스
▁주계열성
▁카롤링거
▁켄터키주
▁라이프니츠
▁ㄴㅡㄴㅑㄱㅗ
▁ㅈㅣㄴㅐㄴㄷㅏ
▁LD
▁고단
▁김택
▁랭스
▁러너
▁망하
▁백금
▁병장
▁분청
▁석축
▁은색
▁입회
▁진법
▁초인
▁BSD
▁Who
▁날아가
▁동작구
▁손오공
▁애호가
▁전임자
▁중앙당
▁푸른색
▁호나우
티아누스
▁1775
▁마사히로
▁비스콘티
▁오스트로네시아
03
에다
▁di
▁단테
▁대시
▁라브
▁명곡
▁생년
▁성결
▁완패
▁장방
▁팬덤
샘프턴
▁거창군
▁신생아
▁아르타
▁차일드
▁피에로
ㅂㅎㅏㄹ
▁마리우스
▁스포르차
▁아랫부분
▁야마자키
TO
궤도
멘토
▁가위
▁겐지
▁라데
▁만인
▁문항
▁미역
▁미처
▁시랑
▁아퀴
▁약체
▁영제
▁장충
▁접대
▁특진
▁패소
▁푸트
룸푸르
▁305
▁316
▁CNN
▁ㅊㅐㄱ
▁공격력
▁스피어
▁에리히
▁징역형
▁합중국
▁시리우스
▁요시쓰네
▁포츠머스
▁ㅈㅣㄴㅏㅁ
▁반유대주의
▁ㄴㅐㄹㅕㅈㅣㄴ
MC
▁콴
▁텃
게니
마당
발라
사쿠
요크
쿼이
튿날
▁ㅃㅏ
▁가압
▁기즈
▁넓적
▁눈길
▁데어
▁메노
▁민첩
▁볼가
▁산현
▁속곡
▁엄호
▁이륜
▁전치
▁책상
▁처참
▁추앙
▁캡콤
▁토구
▁파란
▁헬라
스카이
▁237
▁512
▁ㅂㅣㅅ
▁남대문
▁몽골족
▁무제한
▁밀리언
▁발사대
▁발상지
▁쉐보레
▁에이커
▁화학식
보스토크
▁1808
▁수양대군
▁스포츠카
ㅂㅅㅣㅇㅗ
▁블라디보스토크
러햄
▁Bu
▁돌궐
▁반월
▁비비
▁상쇄
▁스이
▁시연
▁양치
▁완행
▁정석
▁직구
▁크누
▁티어
▁파급
▁포티
ster
▁par
▁관람객
▁대장경
▁메이슨
▁아오이
▁연기력
▁올라프
▁체이스
▁카오스
▁확고히
▁말레이어
▁ㄷㅡㄹㄹㅓ
▁ㅁㅗㄹㅡㄴㄷㅏㄴㅡㄴ
벌린
케라
▁감영
▁금당
▁다짐
▁도저
▁문공
▁와다
▁육조
▁의향
▁중군
▁커밍
▁평온
▁560
▁940
▁ㄲㅐㅆ
▁노이즈
▁보상금
▁유타카
▁짝사랑
▁청계천
▁청년단
▁피어슨
▁1807
▁ㅁㅣㅊㅕ
▁동프랑크
▁비상사태
▁아라카와
▁야마시타
▁ㄷㅗㅇㅎㅐ
▁ㅂㅓㄹㅣㅁ
▁스테로이드
▁ㅊㅐㄱㅇㅣㅁ
▁ㅇㅗㄹㄹㅕㅆㅇㅡㅁㅕ
▁췌
▁고보
▁나침
▁뒤셀
▁말갈
▁신당
▁아수
▁취입
▁퀴어
▁해충
▁행차
▁후두
샤오핑
ited
▁501
▁ㅍㅕㅆ
▁껍데기
▁노키아
▁보수파
▁스피릿
▁이튿날
▁평양성
▁하르트
ittle
▁1834
▁덩샤오핑
▁신비주의
▁이사벨라
▁콤플렉스
▁하코다테
▁뒤셀도르프
▁트랜스포머
MI
▁힝
리시
미분
슈나
인자
▁간쑤
▁남만
▁사샤
▁시급
▁식생
▁알프
▁원당
▁응축
▁인어
▁조망
▁지프
▁판무
▁행주
▁화의
▁황룡
일으키
ield
▁Dav
▁Pre
▁고흥군
▁날카롭
▁마인츠
▁밸런스
▁사용법
▁세포질
▁쌍계사
▁특산물
▁함안군
▁아오야마
▁행방불명
▁ㅂㅗㄴㄸㅏ
▁ㅈㅣㄴㅏㅆ
▁불러일으키
▁에이브러햄
▁ㄴㅗㅍㅇㅣㄹ
▁스트라스부르
▁아르메니아인
▁ㄱㅓㄷㅜㄴㄷㅏ
기름
냅스
이츠
▁TP
▁교목
▁덩치
▁소조
▁수려
▁쉬르
▁신보
▁장화
▁저온
▁주박
▁터리
▁트립
▁계엄령
▁마쓰이
▁미하엘
▁바나흐
▁비키니
▁세르비
▁시냅스
▁웨이크
▁전산망
▁중견수
▁플레어
▁2023
▁위안스카이
du
고백
도어
바사
▁각하
▁강박
▁계모
▁기예
▁기제
▁김남
▁대첩
▁리온
▁백마
▁복건
▁소하
▁아머
▁여종
▁웨딩
▁제석
▁카누
▁호분
오스트
트리스
▁보령시
▁집대성
▁교통수단
▁레이더스
▁신앙고백
▁인조반정
▁크리스털
▁파트너십
▁Dance
▁ㅅㅏㄹㄹㅣㄴ
▁프로테스탄트
구동
와트
▁구드
▁냉장
▁단락
▁뒷날
▁명실
▁부치
▁빌럼
▁사철
▁야산
▁원호
▁입방
▁장유
▁호에
▁303
▁Pol
▁감사원
▁교차점
▁당분간
▁마산시
▁문인석
▁스턴스
▁완벽히
▁다이오드
▁사고방식
▁ㅇㅓㅄㅇㅐ
▁ㅌㅓㅈㅣㄴ
▁ㄲㅡㅌㄴㅐㄴ
ME
마침
메라
무로
와르
진법
타일
▁공론
▁공위
▁나니
▁나혜
▁노우
▁랜스
▁방목
▁석굴
▁역간
▁영창
▁우여
▁정우
▁조중
▁체구
▁칼날
▁코토
▁탑비
▁합세
▁Tim
▁all
▁괴산군
▁남북한
▁니제르
▁명목상
▁부산물
▁속임수
▁아폴론
▁옥타브
▁코나미
▁ㄱㅓㄷㅝ
▁거듭제곱
▁구약성경
▁ㅂㅏㅃㅡㄴ
▁잘츠부르크
▁ㅇㅣㅂㅎㅣㄴ
오스트레일리아
bs
▁툭
문왕
ape
▁가석
▁드니
▁미구
▁백범
▁벌써
▁세드
▁송준
▁지기
▁진왕
▁치부
▁카베
▁칸토
▁포경
▁훔치
▁'()
▁530
▁강우량
▁모음곡
▁미코토
▁이동식
▁테레비
▁ㄱㅡㅊㅕ
▁스키타이
▁페니키아
▁ㄱㅡㄱㅓㄹ
▁ㅇㅡㄹㅏㄱㅗ
▁ㄴㅐㄹㅕㅇㅘㅆ
CO
카쓰
톱스
▁내통
▁벤투
▁봉선
▁속기
▁오위
▁잡종
▁코덱
▁토후
▁퇴학
▁특보
▁편평
▁풀럼
▁해탈
다나오
▁999
▁Air
▁Und
▁ㅇㅏㅇ
▁리소스
▁상거래
▁소장품
▁아브루
▁아비뇽
▁지하수
▁카톨릭
▁케이시
▁홍성군
케라톱스
▁ㄱㅡㄱㅔ
▁ㄷㅏㄹㅝ
▁바티스타
▁ㅂㅓㄹㅇㅓ
▁ㄴㅓㅁㄱㅣㄴ
▁젝
저기
촌면
터우
페라
포도
▁관부
▁김좌
▁남코
▁납북
▁불발
▁위세
▁충정
▁홍진
로니카
▁244
▁Hol
▁ㅊㅏㅁ
▁개정판
▁계획안
▁끌려가
▁덕양구
▁동구권
▁로이스
▁볼거리
▁수녀원
▁에드거
▁에테르
▁조사단
▁ㅈㅝㅇㅑ
▁ㄱㅟㅇㅕㅇㅜㄴ
▁쭉
권법
룬디
통감
▁감형
▁고레
▁드와
▁따내
▁삼매
▁세아
▁소현
▁육사
▁음수
▁책자
▁컴포
▁키보
▁테너
▁폐암
간지주
아가라
▁540
▁Mer
▁net
▁경사면
▁그레그
▁나바라
▁모니카
▁보병대
▁상상력
▁성행위
▁툴루즈
▁프리덤
▁하남시
▁황금기
▁회의소
▁당간지주
▁블루투스
▁나이아가라
▁메달리스트
▁파이어폭스
▁항공우주국
ㅂㅣ
▁가내
▁경쾌
▁귀박
▁명승
▁백석
▁부령
▁비탈
▁산세
▁수모
▁잡스
▁전초
레슈티
▁321
▁ㄲㅜㄹ
▁글쓰기
▁레슬러
▁악영향
▁원거리
▁유키오
▁추진력
▁케이티
▁타악기
▁행진곡
보르기니
▁러더퍼드
▁리카르도
ㅎㅣㄴㄷㅏ
▁ㅎㅡㄹㄹㅕ
▁ㅊㅓㅎㅐㅈㅕㅆ
▁ㅈㅓㅇㅎㅏㄴㄷㅏ
GE
▁씹
수사
시장
정기
코더
햄프
▁데크
▁도맡
▁동주
▁뒤지
▁로카
▁마정
▁면화
▁병참
▁심취
▁유황
▁코비
▁티비
▁판교
▁평단
▁피파
▁하토
▁헬멧
▁401
▁국경선
▁김원봉
▁나침반
▁눈동자
▁마일스
▁접두사
▁흘러가
▁다이라노
▁레이아웃
▁ㅁㅜㄹㄹㅓ
▁람보르기니
▁켜
공격
비시
준호
▁MK
▁가만
▁군역
▁다트
▁단풍
▁대연
▁명망
▁무아
▁반투
▁소공
▁슬퍼
▁윔블
▁자니
▁재림
▁접견
▁최단
노스케
▁뉴햄프
▁베로나
▁스파크
▁철도선
▁파이트
▁표준시
▁필살기
ㅇㅅㅏㄴ
▁ㄴㅔㅁㅗ
▁형이상학
▁ㄱㅓㅅㅔㄴ
▁Records
징금
호텔
ATA
ari
▁기라
▁내과
▁명작
▁방직
▁베넷
▁생육
▁소이
▁시세
▁예장
▁외양
▁응집
▁티그
▁한상
헌대부
▁Fre
▁Now
▁SUV
▁니코스
▁루도비
▁마쓰다
▁프레시
▁힐러리
▁Mark
▁ㅊㅣㅇㅜ
▁우르바노
▁제네시스
▁Again
▁등지느러미
▁ㄴㅡㄴㅑㄴㅡㄴ
45
릅쓰
바트
▁다로
▁데라
▁분신
▁성역
▁양명
▁에지
▁우가
▁음각
▁최성
▁팀원
▁학식
▁행각
▁환각
ther
▁ㅈㅓㄹ
▁마틸다
▁안재홍
▁앨리슨
▁에릭슨
▁에치젠
▁윔블던
▁홍천군
▁여기저기
▁전용도로
▁중앙유럽
▁ㅇㅡㄹㅣㄹㅏ
▁ㄷㅜㅌㅓㅇㅜㄴ
▁ㅂㅗㅇㅣㄴㄷㅏㄱㅗ
▁ㅁㅗㅅㅎㅐㅆㅇㅡㄴㅏ
비르
샤르
▁가출
▁간극
▁길가
▁꾸란
▁리허
▁문리
▁봉천
▁원초
▁일축
▁저상
▁전업
▁전영
▁중경
▁풍미
▁항법
▁횡포
▁KAI
▁Tri
▁Ver
▁그러다
▁긴꼬리
▁두만강
▁무릅쓰
▁복숭아
▁유기물
▁자부심
▁지배층
▁차라리
▁스탠더드
▁트라우마
▁ㄲㅏㄹㄹㅕ
▁보건복지부
▁보니파시오
▁ㄷㅡㄹㅓㄴㅐㄴ
▁봅
곡절
너리
니히
부패
주제
티콘
▁완강
▁제논
▁조짐
▁최윤
게임넷
ning
ring
▁265
▁Cal
▁ㅍㅜㄴ
▁가나안
▁교두보
▁내슈빌
▁때마침
▁사브르
▁소유주
▁중랑장
▁1392
▁1787
▁1833
▁ㅆㅓㅇㅑ
▁온게임넷
▁ㄷㅡㄹㅇㅓㅇㅗㄹㄹㅕㅆ
DR
▁욜
▁텀
정신
학사
▁노섬
▁당산
▁더그
▁더미
▁두아
▁레브
▁묶음
▁산후
▁식단
▁입석
▁천성
ㅈㅏㄹ
atur
▁리저브
▁마사키
▁바바라
▁부산시
▁엘리사
▁의용군
▁캐롤라
▁Real
▁부정부패
▁아세트산
▁파이터스
▁해발고도
▁프로페셔널
▁ㅌㅐㄱㅎㅐㅆ
저리
춘추
▁Si
▁고영
▁고환
▁굴뚝
▁기복
▁낙관
▁마름
▁마샬
▁만행
▁볼링
▁성안
▁수탈
▁스탬
▁시한
▁악용
▁외직
▁코요
▁쿠프
▁포이
▁퓨처
▁힉스
ated
▁가와치
▁극소수
▁방어력
▁원작자
▁윤선도
▁의사당
ㅂㅓㄹㅕ
other
▁ㄴㅗㄹㅏ
▁아이오딘
▁우여곡절
▁ㅇㅡㄹㅣㄹ
▁차이콥스키
ㅣㅂㄴㅣㄷㅏ
▁ㅇㅕㅆㅇㅡㄴㅣ
▁ㅇㅗㄹㄹㅣㄴㄷㅏ
관총
보쿠
자브
mas
▁ㅅㅖ
▁게양
▁김미
▁달라
▁레우
▁맞먹
▁반시
▁소국
▁순응
▁식읍
▁실링
▁정혜
▁쫓기
▁채식
▁코메
▁풍선
▁나혜석
▁로미오
▁신뢰도
▁인디아
▁좌참찬
▁직선제
▁프로스
▁허정숙
▁후시미
▁1597
▁1816
▁Home
▁ㄲㅓㄴㅐ
▁대통령령
▁인도주의
▁ㄴㅗㄹㄹㅏㄴ
▁ㅇㅏㄹㄹㅣㄴ
▁ㅇㅣㄹㅝㅈㅕ
▁ㅅㅏㄹㅍㅕㅂㅗㄹ
▁ㅇㅗㄹㄹㅏㄱㅏㄴ
▁꽉
계선
당기
inc
▁OG
▁기년
▁뮤즈
▁수박
▁스탄
▁아보
▁양태
▁유괴
▁이신
▁초급
▁캐머
▁푸앵
▁헌팅
▁회동
▁RFC
▁가석방
▁레이테
▁슬퍼하
▁아라이
▁콜레라
▁ㄴㅗㄹㅕㅆ
▁ㅅㅏㄹㄹㅏ
카시
any
▁개천
▁고귀
▁궁핍
▁근소
▁동리
▁말엽
▁문의
▁박은
▁변태
▁사선
▁선화
▁스매
▁신수
▁압류
▁유토
▁재실
▁진중
▁캐넌
▁팬텀
▁풍력
▁혼수
컴퓨터
ling
▁가평군
▁말라위
▁시행령
▁재방송
▁청도군
▁ㄱㅏㅁㅆ
▁ㅁㅜㅉㅣ
▁ㅅㅟㅇㅝ
▁그리피스
▁ㅂㅓㄹㅇㅓㅈㅕ
zy
저트
전설
▁KF
▁김철
▁난해
▁달빛
▁데프
▁도총
▁미그
▁반년
▁봉토
▁브렛
▁빙판
▁삼가
▁소신
▁신격
▁심복
▁오퍼
▁이충
▁전근
▁좌완
▁총명
▁칸나
▁포커
▁풍화
▁245
▁TNA
▁Vis
▁ㅈㅗㄴ
▁공양왕
▁공학부
▁데이먼
▁동역학
▁미에현
▁비행선
▁산기슭
▁아라키
▁초나라
▁1818
▁ㅂㅘㄷㅗ
▁국민정부
▁라치오주
ㄷㅏㄴㅕㅆ
▁페널티킥을
▁ㅎㅏㅁㅇㅣㄴ
▁눔
네일
원사
카쿠
클로
플라
▁관입
▁난부
▁노자
▁눈금
▁문호
▁물량
▁본대
▁사돈
▁성심
▁수세
▁시녀
▁식수
▁앤트
▁외피
▁용모
▁우암
▁월등
▁이두
▁진통
▁진평
▁철새
▁킬리
▁토막
▁포용
▁680
▁기록물
▁남해안
▁모듈러
▁유미르
▁정약용
▁펀자브
▁항등식
축구협회
▁아카이브
▁플리머스
▁히타이트
▁대한축구협회
▁ㄱㅕㅌㄷㅡㄹㅇㅕ
gy
르템
콜라
▁ㄸㅔ
▁고상
▁기쁘
▁다인
▁루벤
▁모씨
▁민스
▁심도
▁인내
▁진무
▁판화
▁풍산
▁후량
▁대국민
▁대동강
▁모기업
▁에이트
▁청량리
▁홍백가
▁ㄸㅟㅇㅓ
▁사실주의
▁파피루스
르템베르크
▁ㄷㅏㄴㅕㅇㅗㄴ
▁솅
네즈
미나
토끼
▁PV
▁Sn
▁고야
▁군내
▁도트
▁람다
▁묵살
▁병부
▁사누
▁샤먼
▁선적
▁악몽
▁이서
▁츠나
▁치솟
▁타개
▁Soc
▁겉모습
▁대마도
▁세바스
▁수신기
▁슬럼프
▁여학교
▁참으로
▁체로키
▁히데키
▁ㄱㅏㄹㄹㅏ
▁ㅂㅜㄹㅡㅁ
▁ㅇㅣㄹㅝㅈㅣㅈㅣ
▁ㅁㅗㅅㅎㅏㄴㄷㅏㄴㅡㄴ
▁셉
카즈
히라
vil
▁KM
▁객사
▁교배
▁국권
▁그분
▁닛코
▁디랙
▁레위
▁박병
▁변명
▁부추
▁순화
▁신춘
▁양털
▁엄중
▁요사
▁우방
▁원류
▁잉어
루시아
▁311
▁Ber
▁imp
▁ㅋㅏㅇ
▁관공서
▁마땅히
▁박중양
▁수뇌부
▁시간표
▁유배지
▁정선군
▁주제곡
▁킵차크
▁합격자
▁헬레나
▁ㄱㅣㅃㅓ
▁ㄴㅏㅃㅏ
▁ㄹㅗㅇㅝ
▁버펄로스
▁브리즈번
▁스탠다드
▁ㅆㅡㄹㅓㅈㅕㅆ
다우
전서
ook
▁;"
▁간택
▁걸어
▁고명
▁독학
▁명료
▁바루
▁발문
▁소제
▁속명
▁수체
▁심경
▁약어
▁우레
▁유표
▁장도
▁장주
▁태위
▁호두
ival
▁262
▁263
▁강경파
▁건너가
▁골프장
▁바르톨
▁불명확
▁상록수
▁수산화
▁옹정제
▁이따금
▁이주해
▁정신병
▁존스턴
▁칠곡군
▁학술원
▁평화통일
▁ㅇㅏㄹㄹㅕㅈㅜㄴㄷㅏ
▁뻘
▁찜
디트
시니
lin
▁IL
▁대례
▁방진
▁부쿠
▁비에
▁산초
▁소명
▁영공
▁제복
▁참관
▁폐업
▁효행
ㄴㅏㄹ
ican
▁313
▁대사성
▁돌아보
▁동남아
▁머레이
▁아르키
▁앞장서
▁야전군
▁적혈구
▁페라라
▁그라나다
▁사쿠라이
▁오스카르
▁파르티잔
ㄸㅏㄹㅏㅆ
▁Never
▁부쿠레슈티
▁ㄱㅚㄹㅗㅂㅎㅣㅁ
lt
무진
스프
쓰키
애자
터슨
▁강기
▁군의
▁금발
▁농심
▁도지
▁동선
▁메탄
▁모면
▁수혜
▁정광
▁천억
▁최국
▁크론
▁통학
▁폴드
▁필즈
▁학관
▁회남
▁Fri
▁UTC
▁ㅌㅓㄹ
▁고려인
▁부안군
▁사라이
▁억지로
▁의령군
▁진보신
▁희극인
▁2600
▁Jour
▁나카모리
▁마사유키
▁프레이저
▁아르키메데스
양동
전동
추얼
▁AW
▁OH
▁양각
▁위급
▁음계
▁피코
▁휴고
트리아
▁Sil
▁org
▁단양군
▁드레이
▁리버스
▁리처즈
▁문무왕
▁브라만
▁사이고
▁성장률
▁수성구
▁스노우
▁이제동
▁자주포
▁잠자리
▁조선족
▁카다피
▁마르코스
▁사라예보
▁시라쿠사
▁ㅈㅓㅇㅎㅏㄹ
▁ㄴㅐㅂㅗㄴㅐㅆ
▁ㅂㅜㄷㅣㅈㅎㅕ
▁ㅂㅓㅅㅇㅓㄴㅏㄹ
▁ㅈㅣㄴㅎㅐㅇㅎㅏㄹ
도전
리처
이시
환국
▁BJ
▁Ig
▁가용
▁굴곡
▁노령
▁대홍
▁박문
▁번가
▁빙상
▁사피
▁인왕
▁일요
▁자파
▁제청
▁진자
▁현자
▁휴지
본주의
티스트
▁386
▁달서구
▁모닝구
▁바하마
▁시바타
▁안도라
▁야마노
▁줄어드
▁쫓겨나
▁컨셉트
▁통행료
▁ㅂㅜㅅㅓ
▁ㅇㅓㅈㅣㄹ
▁ㄱㅏㄷㅎㅣㄴ
▁ㅇㅏㄴㅣㄹㄲㅏ
변사
이동
지드
OCA
▁Wr
▁다정
▁리쿠
▁망가
▁무굴
▁백련
▁속출
▁승무
▁유량
▁조아
▁즉석
▁티탄
▁판다
커버리
▁금지법
▁에디터
▁우메다
▁이자겸
▁쿠알라
▁탈리아
▁플레인
▁카를로만
▁ㄴㅜㄴㅂㅜ
▁ㅎㅡㄹㅡㄴ
▁ㅇㅏㄱㅎㅏㄴ
▁쿠알라룸푸르
▁ㄴㅓㅁㅇㅓㄱㅏ
▁ㅂㅜㅌㅇㅕㅅㅓ
ek
▁뽕
레네
슬론
츠만
ino
▁Sa
▁gr
▁ㅌㅐ
▁기뢰
▁김화
▁눈썹
▁맹자
▁범퍼
▁볼레
▁분구
▁비버
▁셜록
▁시치
▁신토
▁엘람
▁역적
▁온몸
▁칩셋
▁통수
▁티타
▁풀밭
▁헤스
애슬론
평대군
▁ㄸㅡㄴ
▁ㅎㅓㄹ
▁기관사
▁레지옹
▁마운드
▁무자비
▁미란다
▁반혁명
▁셰필드
Force
▁City
▁Draw
▁ㄱㅡㄹㅣ
▁랭커스터
▁스웨덴어
▁트라키아
▁20200
▁ㄱㅓㅊㅕㅇㅑ
▁ㅁㅏㄹㄹㅣㄴ
ㅇㅏㄴㅐㄴㄷㅏ
▁UD
▁고라
▁기내
▁다산
▁미호
▁방파
▁배차
▁비각
▁사담
▁사문
▁소가
▁쇄신
▁수조
▁양왕
▁에토
▁워프
▁월계
▁임영
▁장동
▁장막
▁재킷
▁제패
▁초구
▁품류
▁황기
▁Pet
▁ㅇㅏㄲ
▁런타임
▁보일러
▁수집가
▁수페르
▁여고생
▁초이스
▁충성심
▁후지타
▁Moon
▁ㄲㅓㄹㅕ
▁모리오카
▁헤르메스
▁ㄴㅜㄹㅣㄹ
▁ㅊㅐㅇㅜㄴ
▁ㅈㅓㅂㅎㅏㄹ
▁ㅇㅕㅅㅓㄴㅡㄴ
▁ㅅㅣㅋㅣㄴㄷㅏㄱㅗ
▁ㅎㅡㄴㄷㅡㄹㄹㅣㅁ
간드
극장
케로
▁갈대
▁고루
▁과대
▁교각
▁납세
▁서유
▁성신
▁신식
▁양질
▁엽록
▁원광
▁이권
▁잠들
▁적시
▁정액
▁중진
▁태정
▁한영
▁호메
플러스
▁Die
▁mod
▁out
▁노이만
▁문학부
▁시마네
▁신조어
▁이동한
▁이스터
▁전봉준
▁1763
자카
fin
▁NO
▁니더
▁미달
▁비바
▁상전
▁속옷
▁스냅
▁역인
▁저승
▁총탄
▁패닉
▁편대
ㄱㅡㅁ
▁구례군
▁구사론
▁더욱더
▁도저히
▁레이첼
▁바이런
▁베이시
▁산청군
▁의화단
▁최우선
▁1780
▁ㅇㅣㄹㅏ
▁말라리아
▁앨프리드
▁초전도체
▁한국은행
▁한국전력
▁ㄷㅚㄹㅈㅣ
▁크로스오버
▁ㅆㅏㅎㅇㅣㄴ
▁ㅇㅣㄱㅎㅕㅆ
셀라
코이
ves
▁ㅂㅐ
▁경국
▁딱정
▁랜더
▁망토
▁셰르
▁습작
▁시디
▁여담
▁외야
▁원어
▁유르
▁응모
▁저희
▁종반
▁징발
▁허나
▁호부
세서리
클라베
▁333
▁980
▁Fun
▁MLS
▁ㄴㅔㄹ
▁ㅈㅗㄱ
▁대륙군
▁비활성
▁순환선
▁시작점
▁역무원
▁연수구
▁웨일즈
▁적갈색
ouble
▁1825
▁청소년기
▁콘클라베
▁하드코어
▁ㄱㅏㄹㅣㄹ
▁ㅁㅜㅇㅊㅕ
딩턴
뚜기
럽트
모트
발디
출마
ely
err
▁누비
▁누출
▁당면
▁도원
▁이극
▁전편
▁지네
▁항변
ㄷㅓㅍ
apan
▁동인지
▁매장량
▁사투리
▁성희롱
▁쇼펜하
▁시퀀스
▁아바스
▁아우렐
▁집합체
▁플레밍
▁1453
▁호메로스
▁Group
▁ㄷㅟㄷㅓㅍ
▁쇼펜하우어
▁ㄷㅏㄹㄹㅏㅈㅣㄹ
▁ㅎㅏㄹㅈㅣㄹㅏㄷㅗ
yr
▁된
델라
레즈
베다
포화
하타
▁관립
▁능률
▁던스
▁레자
▁미흡
▁병세
▁볼라
▁브록
▁조강
▁철갑
▁한탄
▁회자
▁훈구
▁흥국
노비치
차일드
▁Swe
▁ㅇㅔㅅ
▁경덕왕
▁관측소
▁김홍집
▁노르딕
▁부룬디
▁아스타
▁진안군
▁클레르
▁퓨처스
▁해왕성
▁훈련장
▁1778
▁머리장식
▁Techn
▁ㄲㅚㅎㅐㅆ
▁ㅇㅏㅍㄷㅏㅇ
▁ㄴㅗㅎㅇㅕㅈㅕㅆ
▁ㅊㅏㅈㅇㅏㄴㅐㅆ
▁ㅍㅕㄹㅊㅕㅈㅣㄴㄷㅏ
▁홑
사항
자료
중앙
▁김신
▁도일
▁리디
▁매시
▁미우
▁법대
▁비구
▁산개
▁안국
▁우뚝
▁진산
▁케토
메이슨
▁Cre
▁강연회
▁고메스
▁산리쿠
▁수사관
▁아이누
▁역전승
▁조소앙
▁조슈아
▁무라야마
▁선덜랜드
▁연꽃무늬
▁카트리지
▁ㅂㅜㅌㅇㅣㄴㄷㅏ
▁Hz
▁간절
▁곡사
▁구기
▁금방
▁남도
▁니어
▁단추
▁대월
▁빈혈
▁아슈
▁야나
▁역병
▁이요
▁임오
▁조원
▁침실
▁한학
itch
▁광산구
▁로버스
▁보호령
▁스티커
▁아리마
▁영양분
▁패미컴
▁포르쉐
▁1817
▁left
▁ㄷㅙㅇㅑ
▁인터럽트
▁펩타이드
▁ㅂㅏㄹㅎㅐ
▁ㅍㅕㄴㅐㄴ
베쓰
페어
펠트
ars
▁개역
▁고착
▁남강
▁마제
▁망라
▁백합
▁법치
▁부츠
▁석실
▁성군
▁성혼
▁수재
▁악행
▁오레
▁워렌
▁육안
▁출몰
▁큰곰
▁푸코
▁하대
▁학무
바니아
reet
ress
work
▁.."
▁나루토
▁도파민
▁미켈란
▁워터스
▁자연히
▁카트린
▁1828
▁딱정벌레
▁판타스틱
▁ㅁㅗㅈㅏㄹ
▁판의금부사
▁새천년민주당
치산
ope
▁BP
▁ㅊㅜ
▁강정
▁갯벌
▁검역
▁관인
▁구소
▁난폭
▁누아
▁닐스
▁도내
▁만루
▁범종
▁셔터
▁솔리
▁의전
▁잉태
▁질주
▁코즈
▁콥트
▁클랩
▁핀치
▁호종
도토스
▁노비타
▁레이철
▁백혈병
▁애니콜
▁영천시
▁요크셔
▁원피스
▁응원가
▁적시타
▁채플린
▁국제기구
▁아브루초
▁열린집합
▁카를루스
▁흐루쇼프
▁ㅁㅗㄹㅇㅏ
▁ㅊㅏㅁㄷㅚㄴ
▁ㅇㅟㅎㅐㅅㅓㄴ
▁ㅊㅣㄹㅓㅆㅇㅡㅁㅕ
ts
각시
강도
게르
나잇
덕리
바위
털루
▁MI
▁ph
▁공범
▁근절
▁기득
▁대림
▁뼈대
▁살포
▁승문
▁열혈
▁영가
▁오현
▁우로
▁울라
▁원구
▁잔재
▁전등
▁종별
▁지라
스티스
자유당
▁광양시
▁레트로
▁마술사
▁미술사
▁재경기
▁저소득
▁코르넬
▁휘그당
▁Team
▁나카가와
▁마사무네
▁코린토스
▁Album
▁ㅂㅏㅊㅣㄴ
▁민주자유당
▁아우구스티누스
▁뮬
가치
그너
슈트
일점
찰사
키리
폭력
▁다뉴
▁동궁
▁마장
▁변주
▁보크
▁빈스
▁소우
▁임재
▁장공
▁재키
▁제회
▁찬미
▁폐비
베르데
▁ㄱㅏㅍ
▁ㅈㅏㄱ
▁관측자
▁기동성
▁도봉구
▁몽골어
▁무분별
▁무안타
▁빙그레
▁성장기
▁스크롤
▁일라이
▁조그마
▁크랭크
▁문하시중
▁에너지원
▁포항제철
▁HR
▁격노
▁고품
▁내연
▁리뉴
▁북주
▁사별
▁송수
▁시일
▁양기
▁어제
▁염전
▁용담
▁의열
▁장마
▁종위
▁준용
▁진달
▁테루
▁표고
▁가처분
▁마사코
▁마젤란
▁사냥개
▁사이코
▁사진가
▁신경망
▁안세이
▁양성소
▁옥개석
▁외조부
▁제미니
▁카이두
▁코발트
ㅌㅏㄲㅏ
▁Hist
▁ㅎㅐㅇㅛ
▁매리너스
▁모더니즘
▁무한도전
▁브라이트
▁스타트업
▁Enter
▁ㄴㅏㅅㅓㄴㄷㅏ
▁ㅇㅏㄴㅌㅏㄲㅏ
무사
스름
장성
팔로
포츠
▁반미
▁불연
▁비신
▁아밀
▁알콜
▁이그
▁자영
▁정준
▁천진
▁최동
▁카가
▁팰컨
▁황주
▁흑연
▁ㄸㅓㄴ
▁고쿠라
▁뒷부분
▁록펠러
▁미도리
▁부총재
▁선교회
▁아리안
▁앙카라
▁에디슨
▁이방인
▁장본인
▁장신구
프레이즈
▁1593
▁1788
▁ㅇㅜㄹㄹ
▁분리주의
▁이브라힘
▁ㄷㅗㅇㅜㄹ
▁ㅅㅔㅇㅝㅈㅕㅆㅇㅡㅁㅕ
▁쉰
링스
ler
▁TE
▁기로
▁기오
▁노크
▁동질
▁로슈
▁루니
▁볼턴
▁손잡
▁신랑
▁안도
▁양광
▁연접
▁원경
▁주현
▁지안
▁콘도
▁타바
▁편도
▁플롯
▁힐튼
ific
▁960
▁ㅉㅗㄱ
▁금정구
▁사업비
▁삼별초
▁수호신
▁영광군
▁장덕수
▁재계약
▁조선어
▁진사시
▁캐피탈
▁퓰리처
▁비토리오
▁이집트인
▁헝가리인
▁자유주의자
yp
롤라
충사
혀내
화사
▁ㅋㅕ
▁광릉
▁굳건
▁루도
▁면도
▁불운
▁소학
▁앙헬
▁약초
▁어귀
▁영내
▁예민
▁은닉
▁충선
▁한기
▁후주
군주제
연구소
▁POP
▁PSP
▁광무제
▁나오키
▁리누스
▁밝혀내
▁슬라이
▁신해철
▁클로즈
▁퍼킨스
▁Happ
▁로트링겐
▁무스타파
▁민다나오
▁크로노스
▁한국일보
▁아일랜드어
▁앨라배마주
▁우크라이나인
▁콜라보레이션
▁ㅅㅏㄹㅗㅈㅏㅂㅎㅕ
록색
성장
지상
패닉
포동
ike
▁기꺼
▁도프
▁바카
▁반송
▁비웃
▁열병
▁위화
▁인트
▁질타
▁창법
▁편광
▁혈전
▁갈라타
▁고용주
▁관리법
▁꽃가루
▁대표부
▁도로시
▁사육신
▁수에즈
▁시나이
▁코베인
▁포병대
▁1838
▁팔레르모
▁히로유키
▁히스패닉
▁First
▁솔트레이크
ㄱㄷㅏㄹㅡㄴ
개토
걸스
렁크
첼로
켤레
ird
▁강태
▁경당
▁구한
▁네버
▁도면
▁모성
▁무정
▁순열
▁예기
▁원각
▁직역
▁콜트
리아노
▁229
▁860
▁ESP
▁ㅇㅏㄵ
▁나이토
▁스피너
▁유스티
▁카르타
▁파티마
▁헤이케
▁ㅇㅏㅅㅟ
▁나가오카
▁모하마드
▁물병자리
▁헐리우드
▁미켈란젤로
▁수페르리가
▁Little
▁Summer
▁ㄴㅜㄴㅂㅜㅅㅣㄴ
소프
oom
▁KP
▁fe
▁경왕
▁교상
▁기절
▁낙점
▁남대
▁녹훈
▁수고
▁아달
▁원세
▁퇴거
▁티티
▁페달
무스메
▁Dig
▁동두천
▁리허설
▁매표소
▁실비아
▁음운론
▁지표면
▁텅스텐
▁SEED
▁플랑크톤
▁ㄱㅗㄹㅡㄴ
▁ㅂㅏㄱㅎㅕ
▁모닝구무스메
▁ㅁㅐㄷㅏㄹㄹㅕ
ha
코니
하치
ris
▁경리
▁계비
▁고졸
▁기침
▁난바
▁노기
▁단언
▁대박
▁동강
▁듀이
▁마미
▁비우
▁슈만
▁에비
▁연경
▁열녀
▁찰나
▁통가
▁하목
▁SAR
▁ㅇㅗㅁ
▁광개토
▁극락전
▁메소드
▁법상종
▁서천군
▁선인장
▁에미상
▁정여립
▁조건부
▁차베스
▁프리즘
▁피오나
ative
▁1797
▁드래건스
▁드레스덴
▁테네시주
▁ㄷㅓㅇㅜㄴ
▁ㄷㅚㅅㅏㄹ
▁ㅎㅏㄹㄲㅏ
▁히스파니아
▁ㄱㅝㄴㅎㅐㅆ
▁ㅅㅜㅁㅈㅣㄴ
▁안드로메다자리
▁ㄷㅡㄹㅇㅓㅇㅗㄹ
▁ㅇㅜㅁㅈㅣㄱㅇㅕㅆ
시드
▁구균
▁도킹
▁로더
▁멀린
▁물음
▁박순
▁분가
▁알란
▁역경
▁역관
▁오동
▁이라
▁최인
▁카구
▁캘빈
▁혜왕
▁회선
머니즘
삼각형
스탕스
야말로
▁323
▁ㅇㅓㅍ
▁공문서
▁구매자
▁기꺼이
▁남수단
▁라이징
▁미적분
▁오베르
▁워털루
▁표지판
▁프랑켄
▁Char
▁ㅌㅓㅈㅕ
▁세종실록
▁스케이프
▁하나하나
▁ㄱㅣㄷㅏㄹ
▁레지스탕스
▁프리스타일
▁하이델베르크
▁ㅈㅓㄴㅎㅐㅈㅣㄴ
메인
지움
텍스
▁Ap
▁If
▁갈망
▁교민
▁다드
▁달래
▁말뚝
▁불우
▁산발
▁선량
▁신광
▁어진
▁외장
▁용호
▁울창
▁이혜
▁인목
▁입궁
▁코먼
▁파시
▁헤엄
▁호구
▁황화
에이터
카이치
혁명당
ross
▁ㅂㅣㅈ
▁갑상선
▁내려놓
▁말버러
▁브라이
▁수호이
▁이니셜
▁저항성
▁지멘스
▁캐머런
슈바이크
▁1636
▁Gold
▁다이애나
▁모리셔스
▁트레이시
▁ㄱㅜㅂㅜㄹ
▁인디애나주
▁페르세우스
▁ㅈㅓㅂㅎㅐㅆ
▁ㄱㅏㅍㅏㄹㅡㄴ
▁ㅂㅏㄺㅎㅣㄴㄷㅏ
ze
관광
소녀
켄지
ECT
▁MO
▁OL
▁구주
▁굴드
▁레몽
▁루앙
▁말레
▁미끄
▁스탭
▁애쉬
▁양해
▁어근
▁원안
▁유임
▁일약
▁탐라
▁후륜
▁249
▁257
▁가쓰라
▁관박쥐
▁셰이크
▁스토크
▁이규완
▁재통일
▁토후국
▁다치바나
▁집적회로
▁트레일러
▁Stage
▁ㄱㅡㄹㅓㄴ
▁하이라이트
▁ㅇㅏㄹㄹㅣㅁ
▁브라운슈바이크
yc
▁씽
리프
착륙
▁DT
▁내해
▁니노
▁대불
▁되살
▁락스
▁복도
▁소품
▁신령
▁약재
▁우와
▁유종
▁인두
▁주걱
▁증보
▁큼직
▁하한
▁항등
▁효시
파고스
▁SNK
▁Tom
▁경호원
▁공작원
▁다뉴브
▁리베라
▁메디아
▁자본금
▁정상부
▁확장팩
▁이로쿼이
▁익스트림
▁카나리아
▁크리슈나
▁ㄱㅓㄷㅡㄴ
▁ㄲㅏㄷㅏㄹ
▁ㅁㅐㅇㅜㄴ
▁ㅊㅐㅇㅝㅆ
▁ㅍㅣㅎㅐㅆ
▁ㄴㅏㅌㅏㄴㅐ
▁주간고속도로
ius
▁Nt
▁ed
▁검교
▁금과
▁더듬
▁명랑
▁바벨
▁봉신
▁붓다
▁비앙
▁성탄
▁안수
▁올가
▁용두
▁이과
▁인동
▁주종
▁커튼
▁파치
▁평시
▁풍성
▁프릴
▁흑해
▁Pla
▁RAM
▁공급원
▁근연종
▁너구리
▁마사토
▁베니토
▁상징물
▁섬네일
▁수십만
▁수자원
▁의정서
▁청취자
▁탐험대
▁트렁크
▁특파원
▁Plan
▁part
▁나뭇가지
▁보호관찰
▁야마나시
▁차가타이
▁테마파크
▁페르미온
▁ㅇㅣㅇㅡㄹ
▁디스커버리
▁ㄴㅐㄹㅕㄷㅏ
▁ㄱㅓㄴㅡㄹㅣㄴ
▁ㅅㅔㅇㅝㅆㅇㅡㄴㅏ
▁왁
르담
부시
get
umb
uro
▁광교
▁등식
▁루미
▁만슈
▁무령
▁봉급
▁섭동
▁연제
▁왕상
▁용납
▁졸리
▁좡족
▁추수
▁편년
▁피델
▁협연
▁화단
바라기
▁570
▁AES
▁관중석
▁남동구
▁로리타
▁미술품
▁민스크
▁소작농
▁송준길
▁스코프
▁연합체
▁위스키
▁진천군
▁페드루
▁피그미
▁하인츠
▁황무지
ㅇㅜㅁㅕ
ㅡㅁㅏㄴ
▁김나지움
▁노트르담
▁로테이션
▁블록체인
▁노스웨스트
▁ㅅㅣㅂㅅㅣㅇㅗ
▁ㅎㅏㄴㅎㅐㅅㅓ
마에
천후
키치
▁MG
▁검단
▁공비
▁규소
▁남면
▁단부
▁레그
▁말투
▁배서
▁백스
▁심재
▁왼발
▁원외
▁죄목
▁징용
▁처자
▁초명
▁코보
▁한우
▁황토
uman
▁810
▁MBN
▁May
▁der
▁ㄴㅐㅁ
▁도전자
▁보급품
▁서귀포
▁신간회
▁워크스
▁웹스터
▁은하수
▁중남부
▁편집국
▁2024
▁Conc
▁패러데이
▁미시시피주
▁예카테리나
WC
▁쩌
랜즈
▁Vo
▁고뇌
▁국학
▁굴착
▁난소
▁베인
▁보소
▁본받
▁신증
▁애용
▁연명
▁옹기
▁절기
▁태실
▁특검
▁허적
▁환수
line
▁353
▁도플러
▁발트해
▁부딪히
▁서울역
▁세기말
▁시프트
▁신대륙
▁아르민
▁우분투
▁재조합
▁저압부
▁초거성
▁코스닥
▁화엄경
▁네이티브
▁아유타야
▁Class
▁ㄷㅜㄹㅡㄴ
▁민코프스키
▁브리타니아
▁ㅎㅟㅁㅏㄹㄹㅕ
▁사우스캐롤라이나
의어
태영
▁Pi
▁곡성
▁과소
▁당구
▁방아
▁방역
▁변위
▁서른
▁아계
▁어벤
▁유두
▁일일
▁저런
▁정호
▁질감
▁최정
▁토치
▁266
▁273
▁306
▁관리인
▁금지령
▁데려오
▁릴리즈
▁시스터
▁진주성
▁총감독
▁펌웨어
▁히메지
▁More
▁poem
▁고전주의
▁대학원생
ㄸㅡㄹㅣㄹ
▁ㄱㅡㄹㅣㄹ
▁ㄷㅏㅈㅣㄴ
▁ㄴㅏㅇㅏㄱㅏㅆ
▁ㅎㅐㅈㅕㅆㅇㅡㅁㅕ
AV
to
현리
els
ero
▁급감
▁도인
▁두목
▁모유
▁사공
▁스틴
▁요일
▁은화
▁초각
▁학상
▁허셜
▁훌린
orth
▁ㅉㅣㅈ
▁경사각
▁경산시
▁공격자
▁김정희
▁끌어내
▁르베그
▁에일리
▁크루스
▁파이리
▁홍건적
▁1777
▁1826
▁고생물학
▁니가타현
▁레이먼드
▁삼성그룹
▁럽
빌라
사장
▁더더
▁마노
▁맥라
▁법사
▁비누
▁삼보
▁선군
▁수론
▁순방
▁에센
▁잔기
▁튀김
▁파베
▁판시
▁페소
▁함축
스카야
▁But
▁TCP
▁라벤나
▁부조리
▁스트립
▁유력자
▁캐리어
▁허스트
수염박쥐
▁Year
▁가와카미
▁마티아스
▁Gener
▁right
▁ㄸㅓㅇㅗㄹ
▁캐치프레이즈
▁ㄱㅓㄹㅇㅓㅅㅓ
▁ㄱㅓㄴㄴㅓㅇㅗㄴ
덕사
디크
밍턴
실히
▁군악
▁금석
▁내밀
▁뇌터
▁메토
▁무량
▁빗물
▁시럽
▁암사
▁엉뚱
▁오펜
▁우고
▁켤레
▁파타
▁404
▁God
▁ㄸㅓㅆ
▁갈매기
▁군자금
▁되돌리
▁레반트
▁몰려들
▁미추홀
▁법무관
▁소득세
▁영주시
▁음악인
▁이승훈
▁조언자
▁주원장
▁카니발
▁페르마
▁에히메현
▁푸앵카레
▁ㅆㅡㄹㅓㅈㅣㄴ
▁쑥
티르
ACK
▁Km
▁nd
▁구심
▁굴리
▁라나
▁류성
▁번사
▁봉투
▁비소
▁삼도
▁에덴
▁월성
▁읍내
▁의탁
▁장명
▁쾌적
▁파로
▁한결
엽수림
▁ㅈㅓㅇ
▁긴장감
▁대마초
▁드레드
▁미노루
▁수출입
▁온건파
▁전람회
▁참석자
▁통일부
▁호남선
▁활화산
▁LGBT
▁콜로라도
▁포메이션
▁다이어그램
olution
▁ㅈㅗㄱㅡㅁㅏㄴ
거북
라티
림리
소송
연사
쿠마
▁Fi
▁KL
▁so
▁굶주
▁네빌
▁도가
▁로직
▁백남
▁북문
▁분분
▁서화
▁석장
▁세나
▁세터
▁야유
▁요요
▁작별
▁전가
▁진시
▁칙서
▁태즈
▁파비
▁퍼트
토니오
▁Sky
▁대역폭
▁미크로
▁배심원
▁부평구
▁세르히
▁아가미
▁예천군
▁윤원형
▁제트기
▁춘추관
▁평신도
▁포츠담
▁회색빛
ㅇㅏㄴㅐ
▁ㄱㅣㄹㅕ
▁모리타니
▁옥스포드
▁해바라기
▁메릴랜드주
▁ㄷㅏㄱㅓㄴㅏ
소네
찰청
첼리
▁Tu
▁고봉
▁광천
▁구부
▁노정
▁뉴펀
▁니우
▁대권
▁레코
▁로건
▁룬드
▁막론
▁법의
▁사복
▁사색
▁상비
▁석좌
▁수납
▁숨지
▁슈마
▁액자
▁어택
▁연원
▁이춘
▁재조
▁토종
▁피보
▁헥사
▁630
▁Aut
▁겨울잠
▁그로브
▁기무라
▁런던탑
▁마오리
▁문하생
▁슈바벤
▁아메리
▁외손자
▁중앙동
▁하리마
▁TOUR
▁대검찰청
▁문화재청
▁시마네현
▁테크니컬
▁뉴펀들랜드
▁위스콘신주
▁ㅂㅓㄹㅇㅣㄴㄷㅏ
가드
덕면
에나
엔드
음악
케르
후미
▁건반
▁라키
▁몬티
▁박창
▁버금
▁본위
▁수르
▁알자
▁양준
▁어마
▁쟁이
▁치매
▁타슈
▁화구
▁회령
▁SHO
▁var
▁대구경
▁실력자
▁은밀히
▁인도양
▁재래식
▁조이스
▁천태종
▁카메오
▁포커스
▁하이데
니아누스
▁다카사키
▁드래곤볼
▁카탈로그
▁탄화수소
▁하마마쓰
▁Girls
▁ㅇㅣㄹㄹㅓ
▁ㅂㅕㄴㅎㅏㅁ
▁function
▁ㅇㅏㄴㅣㅎㅏㄴㄷㅏ
ㅡㅂ
가나
▁Rh
▁가트
▁경장
▁군공
▁드가
▁미제
▁분묘
▁비티
▁이음
▁이찬
▁정촌
▁지간
▁질책
▁천공
▁천인
▁체급
▁초순
▁퀴리
▁페놀
▁회송
▁GHz
▁NGO
▁STX
▁app
▁감독관
▁계산기
▁곰팡이
▁리디아
▁리포터
▁마커스
▁미국식
▁발원문
▁불신임
▁셀틱스
▁애국심
▁야코프
▁외로움
▁운전사
▁콜롬비
▁1680
▁1784
▁ㅁㅗㅅㅕㅈㅕ
PG
gg
누르
부치
티늄
▁강선
▁교점
▁대산
▁데비
▁랠리
▁벌집
▁부아
▁상산
▁인포
▁임수
▁장연
▁코아
▁탈영
▁하네
▁해마
▁환공
네이터
▁620
▁Bra
▁OFC
▁ㅁㅔㄹ
▁고릴라
▁관습법
▁광주군
▁노후화
▁로베스
▁마가렛
▁부지사
▁사령탑
▁양양군
▁이시이
▁인덱스
▁전시실
▁주자학
▁카이퍼
▁ㅉㅏㅇㅕ
▁마라도나
▁스티븐슨
▁쓰러뜨리
▁윗수염박쥐
▁Direct
▁ㅅㅏㄹㅇㅏㄴ
▁로베스피에르
▁ㅍㅕㄹㅊㅕㅈㅕㅆ
GS
글러
멜로
무역
배상
야식
장이
즈다
ful
ren
▁Da
▁OM
▁가람
▁간언
▁납득
▁리토
▁막히
▁보타
▁비관
▁설날
▁성토
▁성하
▁세인
▁스스
▁안료
▁양안
▁어순
▁어획
▁염원
▁이응
▁재적
▁하퍼
▁항암
디비시
프레임
▁236
▁군포시
▁맥라렌
▁벨리즈
▁비슈누
▁영양소
▁정류소
▁정복자
▁테이트
▁현대식
▁ISIL
▁main
▁영산회상
▁적십자사
▁진핵생물
▁ㅇㅣㄹㅏㅇ
▁에레디비시
▁카운트다운
▁ㄱㅡㄹㅐㄷㅗ
▁미크로네시아
▁ㅅㅏㄹㅇㅏㅇㅗㄴ
▁ㅂㅜㅌㅈㅏㅂㅎㅕㅆ
▁갠
데나
언군
이라
테로
era
▁가꾸
▁랄리
▁방산
▁산국
▁수안
▁아센
▁약관
▁오족
▁인화
▁창극
▁태고
▁파블
▁폰티
▁폴더
▁풍조
▁한두
▁힘러
메이커
▁880
▁마테오
▁맘루크
▁수필가
▁충선왕
▁크로마
▁키케로
▁잉글리시
▁자연환경
▁Beaut
▁Japan
▁ㄱㅓㄷㅜㄹ
▁ㄱㅚㄹㅗㅇ
▁갈라파고스
놀즈
험자
led
▁건기
▁곡률
▁날조
▁등각
▁똑똑
▁레토
▁링고
▁병설
▁샤크
▁성황
▁심해
▁장석
▁정릉
▁조진
▁췌장
▁팩터
▁평영
▁호드
▁후아
롭스크
▁243
▁710
▁Vir
▁ㅎㅔㅇ
▁개혁가
▁구덩이
▁누리꾼
▁마니아
▁아카시
▁장흥군
▁재건축
▁정치범
▁중심가
ㅝㅈㅣㄴ
▁ㅈㅣㅇㅛ
▁그야말로
▁남중국해
▁로테르담
▁아키타현
▁에노모토
▁표현주의
▁ㅂㅗㄴㅐㅇ
▁ㅇㅗㄹㄹㅕㅆㅇㅡㄴㅏ
▁솥
왕도
지방
타자
▁Sl
▁구정
▁독보
▁로쿠
▁마담
▁멸치
▁야역
▁양모
▁옥산
▁웨버
▁융성
▁음파
▁적국
▁절지
▁제과
▁한시
▁화평
슬레이
▁Fla
▁res
▁경영난
▁고속철
▁군부인
▁넥서스
▁닉네임
▁마르키
▁방어전
▁보험료
▁봉화군
▁양천구
▁영남대
▁의료진
▁자라나
▁페트라
▁혼마루
▁히카리
umber
▁Long
▁국민은행
▁비엔날레
▁이복동생
▁전통문화
▁크리스트
▁ㅁㅏㄴㄷㅡㄴㄷㅏ
▁ㅈㅜㄱㅇㅣㄴㄷㅏ
▁놉
체계
▁CI
▁궁도
▁류지
▁리야
▁묵인
▁백상
▁쇄도
▁신나
▁자드
▁좌초
▁진부
▁파평
▁푸이
▁하청
▁행상
▁허벅
▁헬름
▁호도
▁Bus
▁pop
▁과학부
▁구릉지
▁스트링
▁요아힘
▁이코마
▁조로아
▁주성분
▁지치부
▁파이퍼
▁Dark
▁ㄴㅡㅈㅊ
▁아일랜드인
▁프리메이슨
▁ㄷㅏㄹㄹㅏㅈㅕㅆ
▁ㄲㅡㄹㅇㅓㄷㅡㄹㅇㅕ
소수
와프
판윤
포항
AND
▁경서
▁곧장
▁노고
▁악사
▁엑소
▁여중
▁완봉
▁천호
▁측실
▁터전
▁티토
▁향유
▁화정
▁화천
텐디크
ents
▁415
▁국세청
▁루시아
▁몽구스
▁은언군
▁의왕시
▁이데아
▁주동자
▁콜로니
▁튀링겐
▁플렉스
▁현충원
▁휘말리
itude
▁Comm
▁언더우드
▁포클랜드
▁그로텐디크
▁한성부판윤
▁ㅇㅓㄷㅜㅇㅝ
CE
강원
사의
팬지
ISC
▁가례
▁갑과
▁검진
▁경공
▁공진
▁기모
▁대식
▁대작
▁메티
▁문선
▁민트
▁번안
▁순진
▁스필
▁아톰
▁와우
▁와의
▁우당
▁웅변
▁이가
▁인부
▁저빌
▁정평
less
▁470
▁UFO
▁공로상
▁능력자
▁뒷다리
▁매개체
▁메네스
▁무한히
▁블랙번
▁세미놀
▁시발점
▁연면적
▁제천시
▁클랜시
▁파울리
▁홍길동
iness
▁마요르카
▁아킬레스
▁오피스텔
▁요시미쓰
▁페데리코
▁Stand
▁White
▁ㄴㅏㅅㅓㄹ
▁유스티니아누스
▁ㄷㅚㄷㅗㄹㅇㅏㅇㅘㅆ
▁댕
녜스
임자
ald
▁귀부
▁내년
▁도의
▁사타
▁상군
▁시무
▁아탈
▁오치
▁은유
▁작은
▁죄책
▁차고
▁청백
▁쿼리
▁토가
▁파수
▁후카
▁히우
ople
▁MGM
▁공손찬
▁광우병
▁기차역
▁드나들
▁마이트
▁메디컬
▁벨라스
▁브라흐
▁시그널
▁안무가
▁오세아
▁인천시
▁제럴드
▁제레미
▁존재감
▁침팬지
▁토바고
▁헨리크
▁소방본부
▁액세서리
▁지주회사
▁크리스티아
▁ㄷㅗㅇㅇㅣㄴ
▁ㅆㅗㄷㅇㅏㅈㅕ
▁렴
ㅁㅐ
대상
댑터
▁고함
▁공교
▁교조
▁기력
▁남이
▁농수
▁면세
▁배교
▁백양
▁부득
▁북두
▁사경
▁성비
▁안현
▁연변
▁우현
▁위인
▁육신
▁육영
▁전생
▁주례
▁치바
▁피레
▁확증
ㅕㅇㅑ
메랄드
▁247
▁304
▁345
▁ㅂㅜㅍ
▁ㅊㅣㅋ
▁남학생
▁다비트
▁대방광
▁마주치
▁병리학
▁불포화
▁서라벌
▁세이프
▁아루바
▁아메바
▁어댑터
▁오랜만
▁일반직
▁자작곡
▁체세포
▁출입국
▁풀타임
투아네트
▁에메랄드
▁ㅅㅣㄴㄷㅏ
▁ㅇㅗㄴㄷㅐ
랴쿠
쓰카
종합
토닌
▁HM
▁광기
▁도니
▁무모
▁밧줄
▁비드
▁소다
▁스컬
▁언양
▁에콜
▁용골
▁이괄
▁일절
▁작풍
▁재거
▁직할
▁청대
▁체액
▁최창
▁출하
▁통설
▁폭설
▁회개
▁후송
▁후크
▁GUI
▁PHP
▁bes
▁mac
▁갈루아
▁광진구
▁그래피
▁나이츠
▁랜더스
▁목적물
▁반대자
▁발표회
▁실업자
▁아쉬움
▁암살자
▁유스케
▁일일이
▁조리법
▁충무공
▁칼리프
▁플라잉
▁헤럴드
▁헬무트
▁흩어지
▁1660
▁1811
▁1822
▁Roll
▁나카소네
▁레이놀즈
▁ㅊㅣㅇㅎㅐ
▁ㄸㅏㄹㅏㅇㅑ
▁ㅁㅣㄹㄹㅕㄴㅏㅆ
AX
르겐
사토
시안
엑스
통신
asy
▁Na
▁__
▁px
▁감귤
▁게스
▁고자
▁디리
▁룰라
▁병약
▁산대
▁샌타
▁야고
▁언행
▁에머
▁연개
▁연의
▁완승
▁입건
▁정창
▁초승
▁코피
▁토큰
▁페름
▁피격
▁피임
▁한나
▁화법
레인지
▁데미지
▁따라잡
▁로고스
▁로지스
▁리아스
▁분류법
▁사나다
▁사업장
▁수산업
▁알레포
▁은신처
▁임진강
▁패터슨
▁헤이시
▁후원회
▁8859
▁Miss
▁Sweet
▁ㅍㅏㅇㅣㄴ
▁헤로도토스
▁ㄲㅗㅂㅎㅕㅆ
▁ㅇㅏㅍㅅㅓㅆ
▁ㅇㅏㄹㅇㅏㅊㅏㄹ
mb
ㅎㅏ
디브
렌트
문제
조프
▁공허
▁머드
▁민수
▁벌목
▁북청
▁불선
▁상술
▁오션
▁용융
▁의기
▁자화
▁주당
▁채드
▁최익
▁태원
▁특질
▁폭락
▁표수
▁형평
▁Ret
▁공백기
▁끓는점
▁다득점
▁링네임
▁시흥군
▁식물학
▁유의미
▁이스타
▁이와타
▁지리지
▁파열음
▁하루히
▁1620
▁Fall
▁볼리바르
▁스테파니
▁어셈블리
▁오리건주
▁체임벌린
▁칼뱅주의
▁ㄷㅏㄹㅝㅆ
▁ㄷㅏㅈㅕㅆ
▁ㅇㅓㅇㅜㄹㄹㅕ
▁ㅈㅜㄹㅇㅓㄷㅡㄴㄷㅏ
▁폄
디니
메데
이행
차오
▁강론
▁나눗
▁만회
▁말살
▁문맹
▁본과
▁북키
▁잡이
▁적립
▁카게
▁협찬
▁NXT
▁ㅁㅓㄹ
▁군부대
▁근위대
▁문화상
▁법률가
▁스트롱
▁신의주
▁오다큐
▁위그노
▁이동해
▁자연법
▁침례교
▁클로버
lease
▁ㄴㅏㅇㅛ
▁마쓰야마
▁석불입상
▁캔자스주
▁핀란드어
▁ㅂㅣㄱㅕㅆ
▁ㅎㅔㅇㅏㄹ
▁박스오피스
▁앙투아네트
▁ㅍㅕㅇㅅㅏㄴ
▁싼
▁찹
더미
산역
잭션
▁각막
▁거동
▁고케
▁기입
▁김안
▁나그
▁내선
▁다임
▁미마
▁방광
▁봉행
▁선국
▁성금
▁스펠
▁약소
▁엘베
▁오모
▁접영
▁정윤
▁조프
▁채찍
▁충만
▁카제
▁큐어
디스트
순양함
▁UFC
▁거북이
▁기동대
▁나눗셈
▁달리기
▁마린스
▁메콩강
▁명부전
▁변경백
▁성주군
▁수리남
▁수세기
▁승문원
▁신고식
▁정무직
▁태안군
▁하행선
▁로버트슨
▁봅슬레이
▁스프린트
▁트랜잭션
▁헨드릭스
▁ㅇㅣㅂㅎㅕ
▁ㅈㅣㅋㅣㄴ
▁크리에이터
▁ㅅㅡㅂㅎㅏㄴ
▁하드리아누스
▁ㅇㅡㄹㅕㅁㅕㄴ
▁American
▁Christmas
운사
erv
▁Ca
▁괴담
▁남초
▁다도
▁라싱
▁부석
▁분말
▁생강
▁선착
▁소독
▁스톱
▁역수
▁완구
▁이징
▁정각
▁중정
▁천둥
▁팬터
▁핑거
▁화분
달레나
oman
▁나이키
▁분석가
▁스쿼드
▁신중도
▁영월군
▁우주국
▁저마다
▁전교조
▁중남미
▁지하실
▁참나무
▁카펠라
▁특별상
▁피아트
▁하우젠
▁char
▁꼭두각시
▁미쓰나리
▁컴포넌트
▁Elect
▁Young
▁ㄱㅏㄹㄹㅏㅈㅣㄴㄷㅏ
sy
노미
떡잎
무이
민관
세나
추리
▁검소
▁근신
▁끊기
▁노라
▁능히
▁단총
▁대미
▁뒤쫓
▁물산
▁반짝
▁방재
▁배추
▁비노
▁스팟
▁아커
▁양복
▁왕사
▁진종
▁초간
▁카포
▁페미
베스트
▁Cry
▁def
▁경시청
▁더더욱
▁데이비
▁삼척시
▁울진군
▁주둔군
▁중립국
▁최고봉
▁카디프
▁히라이
ㄷㅏㄱㅏ
▁1610
▁사다리꼴
▁소행성대
▁실증주의
▁ㅌㅓㅈㅕㅆ
▁에르난데스
▁와일드카드
▁ㅈㅏㄱㅇㅣㄴ
아스
키오
태후
mun
▁"/
▁골대
▁교세
▁녹지
▁대잠
▁도살
▁로아
▁매혹
▁명신
▁배스
▁비파
▁씨방
▁자회
▁점막
▁조업
▁체신
▁파지
▁피복
테우스
▁고케닌
▁김종서
▁데이지
▁돌핀스
▁몰디브
▁반역자
▁부적합
▁산호초
▁수행자
▁아스트
▁에어컨
▁초음속
▁험프리
축구연맹
▁1770
▁가니메데
▁갑오개혁
▁스탠포드
▁오카모토
▁중심주의
▁타카하시
KO
타다
BSD
▁고신
▁군체
▁귀도
▁네리
▁뉴딜
▁라타
▁루주
▁무반
▁소성
▁신채
▁유향
▁일인
▁종성
▁질식
▁첨탑
▁총경
▁크롤
▁테디
▁246
▁Mat
▁드래그
▁레드불
▁레이지
▁무용수
▁바우어
▁부코바
▁비변사
▁수송선
▁시리얼
▁쑤저우
▁아그리
▁페루자
▁헤어지
▁ㅊㅏㄹㅕ
▁ㅋㅣㄱㅏ
▁네바다주
▁롯데월드
▁슬라이더
▁지그문트
▁해군기지
▁Under
▁ㄱㅟㅎㅏㄴ
▁ㅂㅕㄴㅎㅏㄹ
ㅂㅗㅇㅣㄴㄷㅏ
▁ㄲㅡㄹㄹㅕㄱㅏㅆ
fr
▁젼
산염
und
▁고다
▁난시
▁목초
▁봄바
▁부로
▁사재
▁사포
▁서프
▁실학
▁아롱
▁양화
▁웨스
▁중임
▁차인
▁태초
▁통째
▁트렉
▁호성
▁흥업
레흐트
▁간사장
▁괘불탱
▁그라드
▁나오미
▁법주사
▁불가침
▁생방송
▁소유스
▁유원지
▁이사금
▁인텔리
▁제이컵
▁청송군
▁출루율
▁티라노
▁평가전
▁프로메
▁한국사
▁한림원
▁1519
▁루도비코
▁스나이퍼
▁아뢰야식
▁헤이세이
▁ㅁㅓㅁㅊㅝ
▁ㅍㅕㄴㅐㅆ
▁ㅎㅐㅈㅣㅁ
▁갇
▁겟
뎅이
뮤다
박해
▁AH
▁검술
▁국조
▁덴분
▁뜻밖
▁방벽
▁배위
▁상봉
▁원담
▁원환
▁원회
▁위서
▁자퇴
▁정묘
▁정민
▁폐포
▁효령
예비치
▁930
▁PCI
▁동해안
▁드리블
▁마자르
▁미라클
▁배급사
▁버뮤다
▁빈번히
▁생활비
▁인스트
▁카시오
▁클랩튼
▁후보자
안토니오
▁3500
▁기요모리
▁달마티아
▁해운대구
▁ㅈㅜㄹㅇㅣㄴ
▁프라이부르크
88
▁캬
좌상
청사
텔라
▁계양
▁공역
▁답습
▁대함
▁수보
▁순무
▁아덴
▁어지
▁의관
▁조간
▁징시
▁토번
▁하양
▁혈당
▁ㅈㅟㄴ
▁다이요
▁대구시
▁동호회
▁문화부
▁물방울
▁성악가
▁엘레나
▁임실군
▁플리트
▁1604
▁1827
▁주니어스
▁파우스트
▁ㄱㅏㅈㅊㅝㅆ
▁ㅃㅗㅂㅎㅣㄴ
▁GeForce
ka
▁럿
ㄹㅣ
군트
디시
렐리
예트
트만
▁LM
▁Us
▁광의
▁굽히
▁기선
▁낙성
▁낙후
▁늦추
▁링스
▁사저
▁서얼
▁수각
▁신심
▁에라
▁케미
▁탱고
▁특무
▁플린
▁히든
aven
illa
▁286
▁Mem
▁모회사
▁설계도
▁수사학
▁오마이
▁이방원
▁졸업식
▁중시조
▁청년기
▁초승달
▁코카인
▁홀랜드
▁Spec
▁ㄹㅏㅇㅑ
▁보르네오
▁부르군트
▁에이로쿠
▁Party
▁파이프라인
▁ㄱㅡㅂㅎㅏㄴ
▁ㄷㅓㅍㅇㅣㄴ
▁ㅁㅗㄹㄹㅣㄴ
▁일러스트레이터
▁ㅉㅗㅊㄱㅕㄴㅏㄴ
델리
워프
진흥
콜리
▁-"
▁가늠
▁고배
▁두건
▁말초
▁방망
▁별시
▁샤론
▁석고
▁시추
▁쌍극
▁아헨
▁액면
▁역원
▁장호
▁청혼
▁초의
▁컬럼
▁탈북
▁태인
▁평점
▁허준
바르드
ible
▁252
▁403
▁뉴타운
▁동음이
▁로비치
▁백혈구
▁역사관
▁인디펜
▁전리품
▁쥐라기
▁집행부
▁최신형
▁축전기
▁타이타
▁통감부
▁파비아
▁판문점
▁협력자
▁니코니코
▁안드레스
▁요구사항
▁요시노리
▁조지아주
ki
li
▁숍
▁츨
막이
몬테
하드
▁낭트
▁내뿜
▁데바
▁도바
▁로토
▁옷감
▁증조
▁탄창
▁티크
▁포물
▁표식
▁하숙
▁후국
▁ㄷㅐㅁ
▁겐로쿠
▁교육법
▁노히트
▁디오니
▁레시피
▁미즈키
▁발루아
▁이나바
▁중합체
▁진달래
▁통찰력
▁호시노
ㄱㅓㄴㅏ
▁통정대부
▁위트레흐트
▁플루오린화
▁ㅅㅡㄹㅓㅇㅜㅁ
▁ㅍㅓㅈㅕㄴㅏㄱㅏㅆ
▁깍
▁넛
규어
닝스
록스
소나
nal
▁CB
▁GA
▁QS
▁VL
▁군장
▁귀의
▁남침
▁몸소
▁배격
▁베츠
▁부토
▁세심
▁소추
▁슈리
▁음표
▁쾌거
▁킹덤
▁화형
마리아
▁GSL
▁NCA
▁라이플
▁목욕탕
▁밀려나
▁비스듬
▁소비량
▁앞다리
▁우익수
▁유난히
▁지상군
▁횡성군
▁1829
▁고스란히
▁아데노신
▁아흐마드
▁오리온스
▁호그와트
▁황소자리
▁안티오코스
▁이슬람교도
▁ㅅㅓㄴㅎㅏㄴ
▁ㄱㅏㄹㅡㅊㅣㄴ
▁ㄴㅏㄱㅏㅆㅇㅡㅁㅕ
bc
고원
더넷
밴드
raw
▁JO
▁UH
▁거류
▁검문
▁결산
▁램지
▁론도
▁부차
▁불기
▁손톱
▁시화
▁암묵
▁연전
▁우량
▁유코
▁장판
▁접점
▁제강
▁집요
▁키츠
▁피쉬
▁히젠
부쿠로
▁302
▁307
▁dis
▁도함수
▁발원지
▁분당선
▁세라믹
▁스콜라
▁연수원
▁영락제
▁우에다
▁이더넷
▁전도사
▁킹스턴
떡잎식물
▁1823
▁IDOL
▁디아블로
▁석불좌상
▁아드리안
▁올림푸스
▁핼리팩스
▁호나우두
▁ㅇㅣㄹㄲㅏ
▁Season
▁ㄷㅏㄹㄹㅏㅈㅣㄴ
ml
▁궈
▁숯
처치
▁난류
▁단가
▁동중
▁면책
▁벤트
▁병상
▁사루
▁소호
▁손견
▁신혼
▁암행
▁양봉
▁저속
▁전패
▁제호
▁조음
▁초토
▁친위
▁팔달
▁휴스
스턴트
즈베리
▁LNG
▁Sur
▁Val
▁김성근
▁마르텔
▁반자동
▁볼프스
▁사마르
▁성전환
▁에리카
▁지급시
▁최고점
▁커맨드
▁판무관
▁확장자
▁동부승지
▁미야모토
▁스타워즈
▁스테이크
▁알카에다
▁Story
▁ㄱㅡㄱㅓㄴ
▁ㄷㅏㄷㅏㄹ
ㅓㅈㅣㄴㄷㅏ
▁National
▁ㄷㅗㅁㅏㅇㅊㅣㄴ
by
경사
삼국
펄스
헤르
▁RB
▁ㅈㅠ
▁그렉
▁금수
▁뇌전
▁뒤덮
▁레진
▁록과
▁목과
▁목련
▁백기
▁부팅
▁샤흐
▁석성
▁수크
▁실기
▁알랭
▁완치
▁원죄
▁진척
▁홍영
사무소
▁242
▁251
▁285
▁288
▁DDR
▁고기압
▁공격기
▁권위자
▁메이스
▁아르투
▁이홍장
▁장성군
▁장애인
▁Kiss
▁Child
▁ㄱㅓㄷㅡㅂ
▁ㄱㅓㄹㅇㅓ
▁조로아스터
▁카트라이더
▁ㅇㅡㄴㅣㄲㅏ
▁ㅌㅡㄹㄹㅣㄴ
▁ㄴㅔㅁㅗㄴㅏㄴ
▁ㄷㅓㄹㅏㅁㅕㄴ
▁ㅋㅓㅈㅣㄴㄷㅏ
▁ㄲㅡㄹㅇㅓㄷㅡㄹㅇㅕㅆ
31
십리
ENT
▁CW
▁Er
▁격납
▁과당
▁데빌
▁삼색
▁애들
▁일찌
▁최현
▁충적
▁토와
▁하도
▁현세
다이스
사회당
▁PSV
▁도호부
▁베르겐
▁유사시
▁제곱근
▁커플링
▁탈북자
▁테일즈
▁플라워
▁1598
▁리처드슨
▁베트남어
▁상무위원
▁약사여래
▁자동차도
▁스테인리스
▁카보베르데
▁ㅅㅓㅂㅜㅌㅓ
▁ㅎㅏㅂㅎㅏㄴ
ms
ㅊㅓ
구로
도치
롭스
발리
사위
스컵
아과
코지
bit
▁JK
▁광구
▁굽타
▁기거
▁반출
▁벤조
▁스캐
▁염분
▁영안
▁왜관
▁우생
▁임직
▁참회
▁칭화
▁피폐
▁해답
▁행의
프로스
▁EXO
▁마르타
▁부주석
▁사타케
▁아세안
▁여행기
▁키르케
▁털어놓
▁후이족
▁1018
▁1750
▁STER
▁chem
▁ㄴㅗㄹㅕ
▁마르코프
▁ㄲㅡㅌㄴㅏ
▁세바스티안
▁챔피언스컵
▁ㅂㅓㄹㅇㅣㄹ
▁테오도시우스
UE
▁춥
분리
gon
▁꿀벌
▁네발
▁대운
▁도수
▁레빈
▁매점
▁매클
▁바브
▁백군
▁빈부
▁삼지
▁상량
▁샤토
▁석주
▁슬립
▁썸머
▁안지
▁우발
▁전우
▁조도
▁청담
▁택배
▁통달
▁팽팽
▁홍가
레이저
▁274
▁615
▁910
▁Cap
▁버팔로
▁법체계
▁삽입곡
▁수개월
▁신천지
▁아미르
▁엄정화
▁오스본
▁유리창
▁장수군
▁퀘벡주
르크세스
예술종합
▁1603
▁BEST
▁ㅆㅏㅇㅕ
▁구이저우
▁오고타이
▁케이블카
▁Staff
▁ㄷㅗㅇㅜㄴ
▁에뮬레이터
예술종합학교
▁크세르크세스
▁한국예술종합학교
VF
▁룹
ㄱㅘ
신경
쓰구
장치
틸라
lus
▁각류
▁교로
▁닥치
▁당해
▁목공
▁반부
▁산골
▁수운
▁시프
▁식초
▁실외
▁양립
▁양키
▁예지
▁잡식
▁주범
▁주영
▁쪼개
▁크렘
▁편이
▁해미
ㅁㅓㄴ
arth
▁TTC
▁URL
▁데려가
▁메이든
▁복사본
▁분당구
▁새마을
▁서태후
▁에라스
▁옥천군
▁이고르
▁이기붕
▁작용기
▁총인구
▁카시니
▁커스텀
▁트러스
▁흥덕구
▁Club
▁Last
▁ㄷㅏㄴㅣ
▁요시모토
▁인스턴트
▁전륜구동
▁ㅇㅣㄹㅇㅡㅋㅕㅆㅇㅡㅁㅕ
DC
▁뤽
새우
셔츠
의지
자매
▁감바
▁개점
▁갤리
▁고흐
▁곱하
▁기화
▁닫힌
▁당근
▁리전
▁비결
▁상형
▁숙적
▁영인
▁예니
▁용강
▁유허
▁이왕
▁재촉
▁적위
▁출원
▁캘리
▁휴즈
의사당
▁580
▁맞춤법
▁베르토
▁소대장
▁수없이
▁장방형
▁전용선
▁주택가
▁청양군
▁틀림없
▁프리마
▁흘러드
리니스트
▁도치기현
▁아이치현
▁Inter
▁대하드라마
▁와카야마현
▁ㄴㅗㄹㄹㅏㅆ
▁볼프스부르크
▁바이올리니스트
96
▁젱
나디
쿠프
▁NR
▁건재
▁공언
▁롬멜
▁빅스
▁솅겐
▁아웅
▁악수
▁어법
▁오군
▁자포
▁통풍
▁한가
▁후금
빌리시
gram
▁map
▁가창력
▁남북국
▁디제이
▁리간드
▁버추얼
▁불러오
▁상층부
▁알타이
▁윤봉길
▁지휘부
▁1689
▁ㅆㅢㅇㅝ
▁간선도로
▁뉴저지주
▁중성자별
▁트빌리시
▁팟캐스트
▁ㅊㅓㅎㅏㄴㄷㅏ
비지
시기
호쿠
▁도굴
▁러쉬
▁사행
▁상좌
▁쇼어
▁식욕
▁악성
▁앙겔
▁요로
▁이티
▁정안
▁조스
▁지롱
▁치프
▁하바
▁협공
나이더
▁670
▁Lee
▁고이치
▁당진시
▁대축일
▁동래구
▁로그인
▁세자빈
▁신이치
▁아와지
▁알자스
▁야마나
▁에번스
▁오세훈
▁요시마
▁윌리암
▁적당히
▁전화기
▁mark
▁바르바로
▁아칸소주
▁요한네스
▁전기철도
▁크라쿠프
▁해방전선
▁style
▁ㅇㅓㄺㅎㅕ
▁ㅈㅣㄴㅐㄹ
▁ㄱㅕㅁㅎㅏㄴ
▁ㅁㅜㄷㅎㅣㄴ
▁ㅁㅗㄹㅡㄴㄷㅏㄱㅗ
oon
▁Oh
▁강직
▁경련
▁교습
▁단형
▁들려
▁라만
▁레슨
▁반디
▁비가
▁사대
▁생동
▁서무
▁스푸
▁왜건
▁우바
▁윤정
▁조양
▁충효
▁카산
ends
soft
▁JYP
▁Son
▁per
▁가만히
▁고위급
▁니시노
▁로이터
▁리에주
▁솔리드
▁알렉상
▁어쩌면
▁자연석
▁종교인
▁Boys
▁마르티노
▁분청사기
▁오리엔트
▁하세가와
▁하토야마
▁ㅃㅗㅂㅎㅕ
▁독립선언서
▁이바라키현
▁ㅎㅣㅁㄷㅡㄹ
▁ㅇㅓㅇㅜㄹㅓㅈㅕ
▁ㅇㅏㄹㄹㅕㅈㅕㅆㅇㅡㄴㅏ
▁ㅂㅏㄷㅇㅏㄷㅡㄹㅇㅣㄴㄷㅏ
▁헵
ㄷㅡ
대륙
루치
▁강주
▁고슴
▁군축
▁금연
▁남사
▁남우
▁남정
▁노장
▁농상
▁대모
▁대보
▁듀란
▁랠프
▁레테
▁막사
▁반승
▁베텔
▁비축
▁순결
▁스팸
▁신월
▁암각
▁영변
▁요란
▁자강
▁장문
▁차녀
▁참지
▁호퍼
▁Som
▁ㅂㅜㅅ
▁곡성군
▁다방면
▁당상관
▁문학관
▁미라이
▁순서수
▁아사노
▁오타쿠
▁지대공
▁1774
▁절지동물
▁ㄱㅜㄷㅎㅕㅆ
▁ㄷㅡㄹㅓㄴㅐㄴㄷㅏ
UB
▁륭
성사
▁jp
▁고심
▁김중
▁루블
▁루체
▁막심
▁발하
▁밤낮
▁외주
▁유마
▁의창
▁전능
▁차륜
▁촘촘
▁캘러
▁펜타
▁흐리
▁희종
벌랜드
ould
▁고조부
▁공고히
▁나무과
▁대유행
▁로터리
▁불국사
▁슈테판
▁스테드
▁음모론
▁이용해
▁제자리
▁처인구
▁컨버터
▁투성이
▁1624
▁Want
▁고슴도치
▁나카야마
▁무하마드
▁바이너리
▁아이러니
▁올리비아
▁이와쿠라
▁코스모스
▁국회의사당
▁ㅎㅐㅇㅎㅐㅈㅣㄴㄷㅏ
▁잿
레트
▁HC
▁가운
▁김무
▁내심
▁대남
▁메흐
▁변절
▁실형
▁이쪽
▁잎겨
▁전립
▁진경
▁천동
▁포카
▁할레
▁행장
▁후불
▁휘장
ㄷㅏㄱ
ㅇㅣㅋ
절제사
▁295
▁Que
▁구치소
▁대공포
▁디나르
▁라이어
▁무한대
▁발사기
▁빨치산
▁살인범
▁스플릿
▁신속히
▁정의역
▁최충헌
▁허벅지
▁헌병대
ㅇㅘㅅㅓ
▁1617
▁Core
▁미네르바
▁ㄷㅏㄷㅎㅕ
▁ㅅㅣㄴㅈㅣ
▁북키프로스
▁잎겨드랑이
85
▁퀀
총사
ola
oul
▁게티
▁대당
▁디미
▁레시
▁리세
▁물망
▁바주
▁박노
▁보부
▁비나
▁스나
▁시해
▁예절
▁오무
▁외측
▁종인
▁중턱
▁천일
▁폐선
▁피폭
▁화차
▁후부
▁312
▁ㅁㅐㄴ
▁그라스
▁드리스
▁불출마
▁상당구
▁수영복
▁시에나
▁신고전
▁신정부
▁완전열
▁쥐아과
▁코뿔소
▁표시기
▁헤르츠
▁Come
▁Park
▁Take
▁ㅇㅣㄺㅎ
▁큰곰자리
▁color
▁가이드라인
▁코네티컷주
▁ㅁㅏㄴㅇㅡㄹ
▁ㅂㅐㅇㅝㅆㅇㅡㅁㅕ
GL
로빈
바니
숨에
▁경미
▁남중
▁무례
▁변함
▁불공
▁석관
▁성무
▁심청
▁엑셀
▁예스
▁예테
▁종시
▁좌안
▁철조
▁파마
iter
▁갤러거
▁고품질
▁구한말
▁단숨에
▁도시락
▁수용액
▁에가와
▁오른팔
▁형태학
▁로체스터
▁베네딕트
▁예테보리
▁주체사상
▁남해고속도로
▁ㅈㅣㄴㅏㄱㅏㄴ
▁ㅈㅣㄴㄷㅏㄴㅡㄴ
윳값
츠카
SQL
▁ㅆㅘ
▁각칙
▁결절
▁관보
▁기강
▁답사
▁대호
▁린스
▁설파
▁소의
▁시전
▁십육
▁얼티
▁여산
▁왜소
▁작정
▁정위
▁체전
▁최명
▁친부
▁트릴
▁펀딩
▁품위
▁풍년
▁풍물
리스크
망원경
▁324
▁346
▁ITV
▁USD
▁und
▁고윳값
▁다가가
▁달라붙
▁루치아
▁베르가
▁부유층
▁세이지
▁스키장
▁에나쓰
▁인버터
▁축구장
▁클레멘
▁트란실
▁피터슨
erson
▁1650
▁ㄱㅓㅊㅓ
▁오디세이
▁외무대신
▁처녀자리
▁David
▁ㅇㅣㄱㅎㅕ
▁ㅇㅣㄹㅡㅁ
▁라디에이터
▁이케부쿠로
▁자유민주연합
▁트란실바니아
▁ㅂㅗㅇㅣㄴㄷㅏㄴㅡㄴ
LD
ex
아라
참모
흥사
▁가재
▁강신
▁괴인
▁권상
▁기우
▁나경
▁대격
▁또래
▁박규
▁변칙
▁분전
▁상냥
▁선례
▁앰프
▁육로
▁음정
▁치욕
iful
rown
ters
▁308
▁강북구
▁구속력
▁리어스
▁매뉴얼
▁소문자
▁소화기
▁운전석
▁유위법
▁재규어
▁죄책감
▁지부장
▁후쿠치
▁1758
▁Work
▁브레스트
▁There
▁ㅈㅏㅁㄱㅡㅁ
대리
울림
ada
con
▁BA
▁간과
▁갇히
▁결방
▁나로
▁남연
▁녹차
▁도농
▁도브
▁딱히
▁레기
▁리암
▁미정
▁바움
▁방편
▁비엘
▁비화
▁샬롯
▁서도
▁속속
▁수달
▁아귀
▁야훼
▁예부
▁완고
▁유경
▁자임
▁접두
▁천민
▁청해
▁쿠즈
▁킬링
▁혈장
▁혜종
▁호군
로니키
obal
▁241
▁254
▁970
▁add
▁게시물
▁경전차
▁고려조
▁고령군
▁고아원
▁기술원
▁노이드
▁동급생
▁무색계
▁바이크
▁받침대
▁신청서
▁아오키
▁알버트
▁오라클
▁오로치
▁오야마
▁월간지
▁이코스
▁추징금
▁훈련기
ㅏㅈㅣㅁ
ATION
▁PROD
▁long
▁ㅂㅣㅊㅝ
▁마이너스
▁ㄴㅗㄹㅣㄴ
▁ㅂㅏㄷㅊㅕ
▁ㅉㅣㄱㅎㅕ
▁ㅋㅣㄹㅡㄹ
▁입헌군주제
▁테살로니키
▁페르디난도
긴스
버시
사람
슨스
예스
ube
▁IG
▁건원
▁대내
▁대추
▁몸값
▁번진
▁보닌
▁분동
▁산전
▁샐리
▁스베
▁신태
▁실러
▁오송
▁익룡
▁장손
▁조속
▁체형
▁컬트
▁코브
▁황진
▁과천시
▁유행어
▁제니스
▁새마을호
▁스페인인
▁ㄱㅡㅊㅣㄴ
▁안달루시아
▁하우스도르프
▁ㅇㅏㄹㅇㅏㅂㅗㄹ
▁ㅅㅐㅇㄱㅕㅆㅇㅡㅁㅕ
▁께
돋움
렉틱
임관
토키
호테
fer
▁GC
▁gl
▁고니
▁넬리
▁다녀
▁망고
▁멸시
▁물색
▁미남
▁베시
▁산로
▁선망
▁소백
▁신오
▁어거
▁역내
▁유류
▁유속
▁이피
▁자마
▁전상
▁정방
▁정영
▁청국
▁청서
▁청어
▁훌라
스코샤
▁Cat
▁관리원
▁매카시
▁미니애
▁비너스
▁샌더스
▁아바타
▁에미넴
▁오두막
▁지요다
▁체르노
▁최강전
▁클로스
▁행렬식
오세티야
▁나미비아
▁심플렉틱
▁아시아나
▁인문주의
▁크레이지
▁프레스코
▁Radio
▁ㅇㅜㄹㄹㅕ
▁ㅂㅣㄹㄹㅣㄴ
▁미니애폴리스
▁ㄴㅓㅁㅇㅓㅅㅓㄴ
▁ㅎㅐㅇㅘㅆㅇㅡㅁㅕ
▁ㅅㅣㅋㅣㄴㄷㅏㅁㅕㄴ
▁ㄴㅏㅌㅏㄴㅏㅆㅇㅡㅁㅕ
문예
이익
▁Hi
▁감도
▁강착
▁교행
▁국을
▁글라
▁넉넉
▁다빈
▁단바
▁미비
▁배선
▁불쌍
▁서수
▁섭외
▁성관
▁스도
▁식성
▁신야
▁실세
▁아길
▁여제
▁유탄
▁임씨
▁제제
▁조재
▁팬더
▁하진
▁해달
▁호앙
수수색
야구장
▁248
▁299
▁525
▁거듭나
▁건축학
▁리버티
▁문경시
▁보건부
▁아토스
▁장보고
▁코브라
▁피난처
▁햄버거
earch
▁1080
▁1618
▁2025
▁라인란트
▁슈퍼마켓
▁압수수색
▁유한회사
▁차례차례
▁필라멘트
▁Trans
▁ㅊㅣㄴㅎㅐ
▁노바스코샤
▁오세아니아
▁ㄱㅡㄱㅎㅏㄴ
▁동지중추부사
▁아시아나항공
▁레트로바이러스
물관
벨리
lad
▁김책
▁랍비
▁만민
▁미개
▁사암
▁산모
▁수형
▁시지
▁알선
▁오븐
▁토속
▁화족
iano
▁258
▁272
▁318
▁490
▁경전선
▁녹는점
▁딜레마
▁레베카
▁마그나
▁말린스
▁뭄바이
▁미네랄
▁상대편
▁승강기
▁한양대
▁한자음
▁회사법
▁휴식기
▁ㄹㅣㅇㅏ
▁니시무라
▁신춘문예
▁중선거구
▁ㅁㅏㅈㅇㅏ
▁남오세티야
▁ㅆㅏㅇㅜㄴㄷㅏ
노바
라다
미도
반응
소총
웰스
체육
▁계측
▁고경
▁군포
▁금은
▁날로
▁단맛
▁동고
▁사외
▁셀틱
▁소상
▁어서
▁연표
▁예매
▁외성
▁최연
▁퇴원
▁플립
▁허수
▁협소
▁회심
리아나
클레어
▁269
▁MiG
▁Sal
▁기흥구
▁도로망
▁로페즈
▁목적어
▁몬태나
▁물리량
▁발돋움
▁방화벽
▁산토스
▁에어백
▁제러미
▁조에쓰
▁주고쿠
▁파도바
▁퍼블리
▁하지메
▁화천군
▁1781
▁Mach
▁리얼리즘
▁요시마사
▁ㅇㅖㅃㅡㄴ
▁샌안토니오
▁알렉상드르
▁우주망원경
▁트리케라톱스
▁ㅃㅐㅇㅓㄴㅏㄴ
▁ㅆㅏㅇㅝㅆㅇㅡㄴㅏ
킹엄
ERT
▁*/
▁Hy
▁TW
▁개구
▁개창
▁교유
▁군법
▁금욕
▁당인
▁뒷산
▁라세
▁라싸
▁망각
▁맞은
▁문희
▁버들
▁번트
▁선의
▁성소
▁셜리
▁셰어
▁아고
▁영묘
▁예브
▁와타
▁자구
▁정간
▁제소
▁증득
▁지마
▁차갑
▁초라
▁캄차
▁탐진
▁혈증
▁혹시
평장사
izza
▁276
▁293
▁CSS
▁VfL
▁고위직
▁구리시
▁김연아
▁바스티
▁부총장
▁사누키
▁생명력
▁서고트
▁아카드
▁와이즈
▁이세민
▁저격수
▁지배력
▁체사레
▁총연장
▁헨더슨
▁화산재
▁서베를린
▁우즈베크
▁폴란드어
▁ㅁㅣㄲㅡㄹ
▁보수주의자
▁스프링필드
▁프라이버시
▁ㅇㅘㅆㅇㅓㅆ
▁ㅎㅐㅇㅎㅏㄹ
▁ㄱㅏㄹㅣㅋㅣㄹ
▁ㄷㅏㄹㅇㅏㄴㅏ
▁ㅌㅐㅇㅓㄴㅏㄴㄷㅏ
46
▁긋
덕동
요스
mus
rib
▁OO
▁UM
▁감격
▁강산
▁경동
▁군신
▁귀결
▁김이
▁노모
▁니티
▁마쿠
▁바가
▁부검
▁석패
▁순경
▁오너
▁일소
▁잠식
▁코타
▁파테
▁팍스
▁폴스
▁행세
▁형량
▁회절
▁히가
ㄷㅚㄹ
드리치
▁279
▁990
▁Ext
▁가드너
▁감비아
▁내용물
▁버금가
▁볼츠만
▁부득이
▁사라왁
▁사유지
▁상행선
▁생산품
▁서강대
▁아래층
▁알바로
▁이치카
▁자유시
▁직제학
▁채권법
▁철광석
▁파슨스
▁회의실
ㅜㄹㅡㄴ
ember
▁1785
▁1786
▁Band
▁슈베르트
▁트러스트
▁오카야마현
▁ㄹㅣㄹㅏㄴㅡㄴ
▁ㅎㅡㅌㅇㅓㅈㅣㄴ
▁옻
공연
다코
레르
100
▁==
▁FP
▁Kh
▁각급
▁격변
▁관등
▁권속
▁권신
▁나돌
▁동단
▁무속
▁반스
▁법명
▁병용
▁본연
▁비보
▁성터
▁소질
▁에브
▁연비
▁위너
▁위정
▁재치
▁조커
▁타츠
▁탁자
▁태산
▁팔츠
▁헤밍
ache
▁TNT
▁모퉁이
▁밑바닥
▁부산항
▁식별자
▁신호기
▁쏟아지
▁유제품
▁장학생
▁콘트라
▁함평군
▁흡혈귀
▁1506
▁temp
▁will
▁마쓰마에
▁수아레스
▁순회공연
▁왼손잡이
▁히로히토
ㅁㅐㄷㅚㄹ
▁ㅅㅏㅅㅣㄴ
▁애들레이드
▁PRODUC
▁ㄴㅐㅂㅓㄹㅕ
▁루이지애나주
▁ㅂㅏㄹㅁㅐㄷㅚㄹ
레로
시리
실린
후보
sch
▁공증
▁관작
▁노런
▁병무
▁봉지
▁산산
▁손발
▁쇠락
▁시책
▁시파
▁요는
▁젊음
▁조군
▁중핵
▁타가
▁토륨
▁폭정
▁퐁텐
▁학산
▁호자
▁홀름
▁홀트
▁회도
▁히에
가사키
스토이
▁581
▁나세르
▁법화경
▁변주곡
▁사야카
▁승하차
▁이상재
▁자가용
▁쟁탈전
▁컴팩트
▁폭발력
▁히다카
press
▁NCAA
▁브레이커
▁ㅁㅗㅅㅎㅏㅁ
▁ㅁㅗㄹㅇㅏㄴㅐㅆ
ga
▁쎄
그란
벡스
조각
▁BN
▁LE
▁난항
▁다낭
▁딜러
▁런닝
▁매상
▁매키
▁목수
▁몸담
▁백선
▁백호
▁산천
▁석영
▁슐츠
▁유후
▁이야
▁일전
▁일회
▁입소
▁전연
▁정이
▁펄프
▁황우
▁후나
▁희석
사이저
아비브
폴리오
▁Del
▁갈고리
▁건조물
▁들려주
▁문제삼
▁사부로
▁수출품
▁스쿼시
▁신채호
▁요시키
▁재처리
▁치타스
▁톰프슨
▁투수진
▁한라산
▁
▃
ㅇ
ㄴ
ㅡ
ㅏ
ㄹ
ㄷ
ㅗ
ㄱ
.
ㅔ
ㅓ
이
ㅣ
ㅢ
ㅎ
ㅆ
하
,
ㅕ
1
ㅅ
ㅐ
0
사
리
ㅁ
스
시
2
대
지
기
ㅘ
년
ㅈ
수
있
자
일
전
아
그
가
국
정
되
9
주
제
인
도
부
들
성
장
구
상
적
동
로
나
3
라
원
공
다
선
트
ㅂ
드
ㅜ
마
조
5
중
경
한
화
4
8
월
미
우
고
학
소
유
교
어
비
위
오
르
신
6
세
개
의
역
보
ㅚ
문
7
계
치
명
회
연
후
서
관
등
것
영
용
프
모
발
군
산
"
작
무
ㅌ
민
방
단
레
재
당
타
e
카
여
생
니
음
해
분
크
반
러
안
포
a
만
체
행
바
차
진
간
호
식
o
노
거
요
현
파
t
과
내
본
물
'
통
출
남
종
양
r
m
때
실
ㄲ
토
결
속
임
형
l
두
설
표
터
코
데
강
i
-
키
히
법
각
초
루
운
디
승
업
배
n
독
에
력
직
함
ㅊ
래
입
건
S
버
A
점
합
예
피
최
C
야
번
태
매
또
않
티
ㅋ
천
권
같
베
받
브
불
ㅟ
약
메
왕
면
목
말
격
록
판
립
u
감
투
s
심
활
더
금
청
추
항
북
평
없
특
외
네
ㄸ
집
언
저
즈
석
복
테
편
달
T
류
병
F
광
변
향
족
령
른
처
M
B
게
페
I
란
근
황
급
축
람
총
존
송
랑
열
능
름
애
론
김
c
많
질
술
참
박
철
별
쪽
g
f
D
및
환
절
준
증
악
품
창
ㅑ
P
알
울
E
육
곡
;
료
살
쿠
백
플
d
)
h
은
망
순
필
&
량
확
글
팀
규
림
(
께
클
N
쟁
극
머
색
탈
범
케
패
련
견
O
k
삼
L
랜
올
R
탄
와
째
ㅝ
충
려
K
쓰
린
너
책
막
손
p
G
츠
완
봉
_
션
협
날
V
접
퍼
돌
뒤
런
블
/
는
담
골
럽
채
측
밀
혼
온
녀
즌
험
ㅍ
든
암
귀
할
H
곳
찰
따
취
[
U
앙
길
웨
y
씨
슈
]
워
새
뉴
첫
친
슬
습
누
효
침
허
획
징
칭
:
응
널
뜻
높
난
락
엔
착
커
논
례
센
폭
검
~
죽
득
희
헌
b
농
픽
캐
엘
벌
홍
퇴
풍
섬
W
틀
갈
폴
잡
%
택
좌
폐
싱
층
압
념
움
혁
헤
덕
즉
윤
턴
율
릭
슨
ㅙ
못
텔
익
링
염
v
램
찬
맡
묘
컵
벨
얼
콘
궁
맹
렌
잘
훈
균
줄
흥
앨
몇
억
객
끝
ㅃ
앞
옥
빌
칼
델
을
먼
느
칸
휘
빈
콜
늘
얻
엄
맥
맞
팔
J
쇼
숙
갖
푸
뷔
괴
샤
핵
w
좋
템
볼
X
률
흐
컴
액
욕
혹
룹
탑
쥐
굴
칙
롯
십
죄
덴
몬
ㄺ
잠
촌
척
벽
갑
략
몰
몸
잉
렉
벤
맨
핀
먹
졸
휴
몽
틴
넘
잔
!
뮤
녹
홈
컬
찾
폰
끌
던
렇
힘
눈
털
륙
밴
놓
탁
둘
멸
혜
풀
탕
솔
끼
톤
팅
Y
윈
홀
혈
x
넷
셀
컨
돈
뿐
텐
쿄
를
님
롤
탐
둥
퓨
톨
낮
럼
욱
헨
겸
촉
딸
꾸
칠
곤
낙
앤
떤
콩
릴
걸
펜
꽃
랙
왜
밖
=
뇌
렬
킹
겨
옹
붕
싸
읍
ㅛ
튜
덜
넓
융
섭
젤
붙
춘
셔
닝
슷
윌
헬
챔
듬
흑
넣
땅
딩
쌍
빛
멘
곧
즘
켓
팬
답
빠
큐
멤
쇄
룡
듀
롭
짓
닉
밤
릉
웅
뢰
렵
떠
ㄻ
값
뛰
흔
깨
랭
흡
옛
튼
납
닌
놀
롱
젠
씩
랫
젝
겐
쉽
맺
궤
z
쉬
숭
멜
펠
캠
빙
섯
+
웹
핑
깊
웃
멀
틱
밍
|
킨
셰
닥
짜
으
빅
꼬
믿
ㅉ
뷰
텍
밝
까
긴
덤
잇
냐
잃
잎
멕
틸
찍
럭
쇠
롬
엽
폼
뀌
삭
짧
켈
삶
릿
첨
곱
혐
Z
끄
랍
?
켄
촬
낭
겪
딘
럴
Q
숨
힐
캘
컷
콤
젊
둔
옆
밑
싶
셜
첩
곽
짐
킬
낳
헝
냥
꿈
옷
냉
룩
큼
닛
믹
듣
톱
엑
뉘
퀴
왼
븐
즐
벡
빨
맛
읽
띠
얀
잭
숲
ㅠ
뱅
혀
샌
봄
쿨
셋
묵
뒷
캄
엇
닐
괄
랄
넬
엠
좀
붉
첼
둑
웰
슴
밥
떻
늄
앵
튀
씬
톰
듯
팩
팽
탱
뤼
픈
녕
숫
떨
뱀
짝
뜨
늬
댄
j
캔
렐
셈
렴
빼
쌓
쾌
팝
찌
춤
옌
훨
륨
겔
횡
끊
뿌
샘
앗
갤
렘
룸
뼈
덩
꼭
흉
륜
봇
벼
늦
햄
펙
룬
깔
멍
뚜
딕
랩
탠
퀸
앉
윗
륭
힌
므
딜
깃
퀘
좁
궐
쿼
벗
첸
뮌
삽
긍
흘
윙
슐
홋
q
셉
펄
렛
펑
꼴
흰
빗
쌀
훌
넥
닫
훗
듭
꺾
*
툰
렀
녁
펀
돔
끔
섹
밭
깥
\
곰
덮
셸
낌
묻
돕
빵
닷
뽑
툴
콧
톡
똑
훼
갱
뿔
쳐
팡
깝
딱
늑
킷
닭
맷
띄
풋
핸
콰
컫
콕
꼽
힙
룰
콥
흙
쫓
룽
뮬
핫
킥
킴
껍
{
꾼
쏘
넌
묶
큰
밸
벳
굿
져
돼
겉
굽
턱
럿
엉
겁
며
캡
펼
샹
왈
틈
빚
퉁
홉
탓
떼
ㅀ
렷
겹
끈
닮
눅
샬
뻗
옮
쯤
꺼
붓
쑤
굉
쉐
옵
듈
릇
릎
랴
칩
웬
놈
앱
뇨
퐁
닿
쩌
툼
펴
낱
굳
챌
슘
걷
푼
흠
갓
삿
쓸
엣
쿤
펌
톈
#
쥬
얄
젖
싫
넨
딴
쯔
팜
걱
댐
섞
옐
솜
륵
덟
렁
짙
멈
탤
떡
얇
$
뚫
핍
헐
굵
덱
둠
텀
솟
뚝
맵
밟
얘
쁘
댓
옴
맘
캉
ㅖ
밋
빔
왓
펫
햇
촨
괘
꽤
픔
횟
앓
싯
휠
벵
잦
슭
벅
꿀
멧
짱
씀
붐
팟
돋
}
긋
잊
헥
켜
냄
덧
츄
ㄶ
쏟
ㄼ
죠
샨
튬
`
ㅄ
몫
맑
곶
곁
땃
낫
텝
윅
팍
걀
닦
맏
옳
뭇
슛
캅
ㅞ
끗
멋
엥
꾀
앰
쟈
랏
쭉
핏
뱃
얹
캣
눌
팰
깎
듐
뚱
깐
뭉
끓
믈
볍
섀
썬
넛
귤
촐
낚
훙
귄
쾰
뭄
숀
뻔
탬
욘
쿡
찮
렝
뫼
@
갯
푹
뾰
셴
뮈
딧
돗
딥
엮
싣
얕
녜
줌
샐
웍
싹
헛
렙
휩
펩
삐
탭
늙
샵
낸
깜
슌
훔
쾨
볶
뇽
껏
갚
촛
펭
써
큘
꽝
퀼
몹
췌
짚
냅
늪
츰
괌
숍
짖
즙
퓌
깁
쿰
훤
맬
엡
넉
룻
롄
쁨
썩
핼
뮐
빽
꽂
젯
잼
샷
뜸
퀄
쵸
뭐
댈
똥
뿜
잣
벚
뤄
엿
샴
벙
촘
슝
퓰
릅
젓
멩
팻
밧
씻
땀
껑
켐
궈
윽
괜
욤
뻐
튠
텅
둡
낡
츨
댕
멱
밈
뽀
깅
킵
꼼
썰
뇰
뎀
퀀
놉
캇
^
좡
뜯
맴
랠
챠
쑹
썸
뮴
웜
팎
헴
뜰
쿵
딤
뱌
팥
엌
칫
챙
캥
뵈
왁
꽁
굶
솥
ㄵ
쑨
댁
훅
갸
찢
쐐
윔
옙
챈
쉘
뎅
퍽
얌
젬
쪼
쉰
딪
칵
씌
깡
넴
꿰
앳
쥘
덥
욜
돛
뽕
툭
쑥
콴
눔
쩍
찻
힉
찜
캬
팁
룀
웁
옅
쨌
늠
흩
볕
엎
쉴
뺨
얽
읊
퀵
겟
넵
썹
팸
샛
핌
쭈
숄
횃
븀
뺏
텡
쉼
젼
딛
엷
웡
꿇
웸
텃
펨
쌈
힝
땡
된
싼
춧
눕
텟
튿
씹
씽
휼
눗
봅
댑
쎄
깍
꽉
뻘
뱉
솅
솝
랗
폄
홑
윳
냇
갠
꺽
뎃
쥔
켤
뎬
뤽
꼰
귈
젱
됭
뢴
뜩
숯
쭤
륀
찹
꿩
쩡
갇
숏
맙
텁
줍
륄
탸
춥
잿
헵
푀
꿉
컹
옻
잖
볜
쏠
셍
짤
묀
땜
볏
챕
묄
빡
흄
긁
넋
랸
얏
낵
좇
녘
굼
뷸
꿋
첵
햐
헹
껌
냑
밌
몯
놋
쩐
얗
챗
갬
짬
탯
줏
핥
쌔
뻣
셤
쥰
쳇
짠
썽
쨩
됨
툇
낯
쟝
덫
갭
똘
탉
겜
넝
눙
닙
쿱
넙
쓴
괭
ㅒ
젭
쇤
췬
쭝
훠
뷜
귓
콸
튤
솽
폿
뜬
긱
찔
꾹
닳
궂
뽐
윕
쏙
헷
앎
헉
껴
햅
몐
벰
깟
늉
팹
욧
찐
돤
셩
펍
뷴
쳅
톳
숟
괵
섣
왑
믐
뗏
숑
잰
챤
푈
겅
끽
뵐
쁠
솁
쥴
꿍
닻
욥
짊
듄
왐
쳄
힛
긔
꼿
맣
쬐
먀
뺄
샥
톄
갉
묽
뺑
뻑
샅
놔
칡
쩨
넹
쳉
왠
껀
셧
웩
죤
뵤
휨
떳
켁
퓸
뭍
쭐
꽈
륌
뎁
껫
줘
갛
댜
뚤
쫄
섐
됴
뻬
낼
팃
빳
윷
윰
틋
뜀
츤
휫
땔
퍄
빻
쾅
쾡
녓
둬
뢸
섕
씁
홰
솀
찧
켕
잽
뵙
웻
퉈
멎
냠
믄
쉔
쫑
껄
냘
퓔
퀜
좨
쩔
웽
녠
띵
깻
켠
꽌
뵘
둣
짼
밉
빤
깽
쟌
햘
튈
뷧
뼛
쉥
빕
쏭
꿔
졍
짭
쯩
쿈
홧
뎐
겊
뎨
쇳
얍
땋
찡
쿳
먄
뱁
졔
틍
젋
혓
꽹
롼
섶
숱
훑
멥
옘
켑
궬
삯
줴
겼
똔
헙
듸
뻥
뒬
쌩
쭌
낟
룔
삵
씰
쫒
붑
뿍
읏
묠
닢
찟
푄
쳔
낏
룅
엾
큅
봐
뷘
쏴
씸
큔
뒹
띤
튕
깬
묜
굄
녤
떫
뚬
틔
쑈
폽
뇬
컥
뽁
숩
쏨
었
읫
갗
겡
섄
젹
츈
큄
툠
툽
뉼
쇽
툐
듦
벋
쉿
갔
똠
횔
쮸
뿡
얉
룝
낄
숴
졈
뱐
퇘
퇼
귬
쌤
믜
빰
쏜
푯
퓐
쯕
툉
띔
밂
쇨
졀
좆
짢
촙
펏
뽈
솎
옝
웠
뒨
벱
슥
큉
틂
낑
륑
뮨
셱
싀
갹
궉
낀
숌
쾃
짇
캑
쐬
짦
튄
넒
쓱
욀
쨍
츳
큇
덞
떵
뭔
녯
옇
캴
텨
훵
뱡
쩜
뗀
뼉
뿅
삥
얭
쨋
햏
휙
뵬
붇
쌕
꾐
덛
묑
샾
썻
옭
왔
죈
쌉
였
죌
쫀
퀠
틉
껩
븡
뺌
퇀
푁
푤
끙
딨
뚠
몌
춰
횬
ㄾ
곗
꿎
뎡
땝
잌
쿌
흭
걔
곪
귿
냔
됸
맟
묏
벧
볘
븓
웟
젔
쳥
캰
큥
겋
븨
샙
랖
랼
뼘
솃
쉑
앏
윾
굠
떰
똣
랐
솨
쏸
왬
챵
긷
꺅
놘
돝
싁
졉
졌
킁
텬
ㄿ
걍
뤠
슙
읒
잴
쳬
쳰
퇸
겍
굣
꾜
끎
륍
밞
슉
짹
큭
퍌
궃
귐
꽥
멓
쉭
좐
죗
킈
탼
곬
덖
릐
뱟
섈
쌋
쟤
춉
췐
귁
녈
뉸
닑
닯
댠
뜷
롹
몆
엳
읗
쟉
챨
췰
쿽
풰
ㄳ
겯
괸
뀨
냣
뉵
됙
밎
뽄
삑
슯
옯
읻
츌
햔
똬
뭣
믯
붸
쀼
쌰
읕
읖
찿
쵤
켸
튐
햑
흗
궨
긑
녬
늡
뎌
돐
듕
솬
왱
죡
쫌
쫙
춍
핬
했
혠
훕
휀
괼
뇩
늴
댱
먁
셕
셥
왝
윁
읔
쥣
즁
찝
틑
퍈
>
겝
굘
됀
뒴
떱
룟
았
졘
좃
즛
쨈
쨔
쪄
쾍
튱
햣
꿘
뀍
녑
륩
묫
믕
뺀
쎌
읓
쳡
겻
궜
낢
녔
뚧
밪
볓
삘
슾
옉
짯
쩬
쮠
챡
캪
퀑
텽
걲
뙈
륏
맻
벛
썅
앝
엹
읃
잍
잛
죔
쭘
쯧
촤
큠
튁
푠
횐

꺄
꼍
뇸
뉙
딫
뙤
뜽
뢱
밷
뻰
삔
솓
슁
쎅
쏱
쒸
왹
욺
윱
첬
촹
츔
퀌
턔
풂
햠
휜
ㄽ
겇
곯
꼳
꽛
눞
늣
땐
맽
묭
묾
뱔
섁
엤
옜
욍
읜
읺
짫
츼
픙
귑
껸
눼
닏
뎜
될
듧
뵨
븜
빋
빱
뺐
뺘
쁜
삳
섰
얆
얶
엊
왯
욷
웤
읠
졋
쨘
쭙
쮜
켯
콀
쾬
쿙
푕
휭
갣
겿
꿕
낻
뉻
닸
덪
돟
둗
듁
땟
뚯
띡
띨
랬
렫
렸
롐
룐
멉
벴
쌘
쏫
씃
얾
욋
잏
잗
쫏
챰
쳑
쵼
컁
켬
콱
큽
탘
퍙
픠
햤
횻
훽
곂
곈
곷
괏
깯
깸
꽅
꾿
넗
뉨
늗
닜
닺
됩
땁
땨
땸
떄
뙡
랟
럄
럇
룁
몃
뭏
볻
봔
뷁
뷕
븍
뺴
뻴
섥
섿
슽
쌴
씼
엶
옫
옸
쟐
좔
짔
쩝
쬔
쬼
쯘
챱
촥
쵹
춋
쾀
퀍
톺
톼
폘
퐝
핮
혤
홤
걈
걺
겆
곙
굥
깆
깩
꽆
꾄
꾕
넀
넖
넢
넫
녇
닽
댛
덨
뎰
됫
뒸
뗑
띱
롸
뢨
뤗
먈
멂
몔
뫃
뮹
믓
믾
빝
샇
쇵
숳
싻
쎙
쑜
앧
욈
읆
쟂
쟙
젇
쩽
찓
쳘
쳣
춈
츅
츙
콛
콬
탙
텦
툿
튽
햗
헿
홥
홱
횩
횰
횽
휑
흝
흫
힁
갂
갘
걑
곌
괂
깉
깹
꺠
껭
껶
꽦
꿏
뀀
녣
놰
뇻
늇
덝
뎍
뎦
돴
됄
됏
됮
둄
듫
떽
뗴
럅
렢
롈
뤀
륻
맄
맆
몄
뫄
뭘
밣
붘
븥
빎
뽓
뿟
삠
삡
삮
샏
섓
셖
솦
솻
쇘
숰
쉉
쉡
쎔
쓔
앟
얖
얺
엜
엵
욌
욯
윶
읭
읳
읹
잋
쟘
졜
졷
좽
줫
쥠
쩄
쩰
쫜
쬬
찣
챦
쵝
츕
츩
콮
텉
툥
튝
팯
푱
풉
퓬
핟
핶
핻
홛
횄
훍
훓
훝
흿
갃
걋
겂
겣
곅
곘
굑
굔
궅
귝
깂
깢
껙
껼
꼇
꼈
꼐
꽐
끕
냡
넎
넚
넡
넶
녝
뇔
뉫
늚
댤
덣
뎠
돎
돚
돵
돽
둰
둴
둿
뒁
뒥
뒫
듥
딷
뗌
뗘
똫
뙨
뛔
뜌
띳
랒
럐
럔
렜
렡
롑
롓
뤌
맜
먕
먗
먿
몀
몴
뫙
뭅
뭰
뮝
믏
믠
밒
밨
밫
밯
뱆
뱜
벉
봍
봘
뵉
뵷
붏
붖
붛
붜
붴
뷋
뺩
뺵
뼁
뼤
삣
삻
샂
샊
섡
섦
셑
쇗
숖
숡
숸
슼
싈
싰
싲
싾
쎕
쎴
쏩
쏳
쐇
쑴
쒜
쓿
씉
앃
앋
얅
엩
옄
옰
옲
옺
왰
웝
윘
윟
읅
읶
읿
잩
젣
젿
죕
죰
죵
줃
줓
쥭
즤
짗
쨉
쩸
쩻
쫃
쫍
쫗
춴
췅
칲
칳
캌
캭
컈
켙
콙
퀏
킼
턀
텥
톹
퇌
퇻
퉤
튭
틧
팈
팉
퍅
퍠
폅
폔
폳
퐈
푣
풜
핔
핳
햊
햋
햬
혔
혿
홅
홯
횓
횢
훋
휄
휏
힜
갅
갆
갊
갋
갌
갍
갎
갏
갞
갟
갡
갢
갥
갦
갧
갨
갩
갪
갫
갮
갰
갲
갳
갴
갵
갶
갷
갺
갻
갽
갾
갿
걁
걂
걃
걄
걅
걆
걇
걉
걊
걌
걎
걏
걐
걒
걓
걕
걖
걗
걙
걚
걛
걝
걞
걟
걠
걡
걢
걣
걤
걥
걦
걧
걨
걩
걪
걫
걬
걭
걮
걯
걳
걵
걶
걹
걻
걼
걽
걾
걿
겈
겎
겏
겑
겒
겓
겕
겖
겘
겙
겚
겛
겞
겢
겤
겥
겦
겧
겫
겭
겮
겱
겲
겳
겴
겵
겶
겷
겺
겾
곀
곃
곆
곇
곉
곊
곋
곍
곎
곏
곐
곑
곒
곓
곔
곕
곖
곚
곛
곜
곝
곲
곹
곺
괁
괍
괕
괗
괠
굇
굦
굻
궇
궎
궘
궝
궡
궷
귯
긆
긜
긧
긪
긾
깄
깋
깓
깖
꺌
껠
껬
꼮
꾈
꿧
뀜
끟
낛
낣
났
낲
냤
넁
넏
넑
넞
녋
녙
놃
놧
놩
뇍
뇓
뇜
눋
눝
뉩
늅
늏
늒
늕
늩
늰
늿
닁
닞
닟
닠
댇
댔
댚
댝
댸
덙
덭
덯
뎗
뎝
돇
돍
돓
돰
됍
됢
됰
됼
둉
둏
둙
둚
둟
둧
뒈
뒵
듲
듳
듹
듼
딀
딈
딭
딯
딲
땍
땽
떘
떙
떢
떥
떦
떪
떯
뗄
뗼
뚷
뚸
뚼
뜁
띁
띅
랃
랓
랕
랛
랢
랰
랲
럈
럘
럲
럻
렃
렆
렗
렠
렣
롣
롲
뢀
뢉
룍
룧
룯
뤈
뤘
뤨
뤰
뤳
뤵
륐
륫
륱
륽
릌
릍
릏
릘
릫
릳
맀
맃
맊
맍
맔
맕
맗
맠
맢
먓
먘
먾
멏
멪
멵
몊
몪
뫂
뫈
뫔
묺
뭌
뭬
뭴
뮺
믁
밚
밠
밬
뱍
뱓
벏
벐
벓
벹
볃
볈
볿
봋
봌
봣
봥
뵛
뵝
붊
붔
붠
붵
뷀
뷃
뷤
븃
븕
븝
븟
빍
빧
빩
뺙
뺬
뺸
뺼
뻇
뻠
뻡
뻤
뻩
뻼
뽝
뿗
뿝
쀍
쁭
삜
샆
샞
섊
섧
섨
섵
섷
셒
솏
솑
쇡
쇰
숔
숮
쉅
쉠
쉣
슢
슦
슳
싄
싡
싦
싪
싵
싿
쌁
썊
썪
썼
쎗
쎼
쎾
쐉
쐑
쐼
쑷
쓘
씜
앀
앆
앖
앚
앛
앹
앾
얂
얃
얊
얜
얨
엗
엪
옂
옏
옽
옾
왘
왙
왤
왿
욨
욽
욿
웆
웇
웑
윋
윛
윥
읂
읇
읋
읐
읙
읟
읷
잂
잆
잙
잚
잧
잨
쟃
쟇
쟬
젃
젆
젏
젗
젙
젲
젵
졩
졶
좍
좧
죳
줜
줼
쥉
쥤
쥥
쥼
쥿
즑
즞
짎
짛
짥
쨜
쨤
쩃
쩟
쩩
쩹
쪗
쪤
쫘
쭁
찯
챂
첟
첮
첯
첲
쳠
쳤
촏
촣
쵀
쵣
춛
춝
춟
춭
췍
췡
췩
췽
츹
칯
칱
캎
캿
컀
컅
컺
켰
켱
켼
콭
쾁
쾩
쾭
쾻
쾽
쿸
쿹
퀩
퀫
큎
큣
큹
킄
킌
킽
탇
탣
탶
턚
텛
텤
텰
텸
텻
텼
툅
툘
툱
퉜
튻
틜
틩
팑
팠
팤
팦
퍁
펲
폏
폶
퐃
퐅
퐌
퐷
푓
푝
픅
픝
픞
핃
핒
핓
핝
핞
핢
핦
핧
핱
