[PAD]
[UNK]
[BOS]
[EOS]
[CLS]
[SEP]
[MASK]
▁▃
▁이
▁.
▁에
▁는
▁다
▁의
▁을
▁하
▁가
▁,
▁한
▁고
▁를
▁은
▁지
▁도
▁으
▁기
▁있
▁로
▁1
▁아
▁에서
▁그
▁으로
▁사
▁2
▁인
▁들
▁어
▁시
▁대
▁라
▁게
▁수
▁보
▁자
▁나
▁되
▁일
▁전
▁었
▁해
▁과
▁면
▁적
▁것
▁마
▁만
▁와
▁-
▁스
▁했
▁주
▁정
▁부
▁상
▁때
▁'
▁모
▁3
▁한다
▁년
▁여
▁공
▁중
▁제
▁20
▁유
▁경
▁된
▁오
▁없
▁지만
▁위
▁등
▁비
▁무
▁소
▁성
▁:
▁거
▁할
▁않
▁던
▁미
▁에게
▁개
▁세
▁4
▁조
▁바
▁서
▁며
▁"
▁장
▁동
▁5
▁방
▁내
▁카
▁신
▁연
▁구
▁선
▁월
▁타
▁안
▁당
▁말
▁영
▁때문
▁후
▁생
▁201
▁화
▁까
▁발
▁는데
▁/
▁버
▁리
▁더
▁레
▁진
▁차
▁원
▁0
▁파
▁까지
▁우
▁실
▁강
▁노
▁라는
▁불
▁최
▁같
▁문
▁명
▁라고
▁단
▁많
▁데
▁번
▁였
▁된다
▁포
▁관
▁특
▁작
▁받
▁6
▁역
▁경우
▁결
▁반
▁았
▁다고
▁10
▁드
▁프
▁알
▁초
▁처
▁면서
▁계
▁배
▁회
▁S
▁7
▁코
▁아니
▁건
▁남
▁19
▁분
▁다는
▁!
▁8
▁물
▁함
▁본
▁편
▁피
▁현
▁출
▁사용
▁못
▁국
▁크
▁정도
▁사람
▁달
▁매
▁이후
▁공격
▁야
▁추
▁자신
▁니
▁치
▁좋
▁9
▁따
레이
▁요
▁호
▁점
▁입
▁감
▁A
▁패
▁두
▁그리
▁트
▁재
▁저
▁통
▁M
▁교
▁메
▁학
▁등장
▁캐
▁예
▁또
▁참
▁가능
▁설
▁형
▁걸
▁속
▁군
▁이나
▁쓰
▁플
스트
▁다른
▁부터
▁판
▁죽
▁살
▁보다
▁T
▁C
▁평
▁외
▁권
▁게임
▁으며
▁토
▁200
▁종
▁돌
▁간
▁키
▁해서
▁용
▁..
▁는다
▁김
▁애
▁D
▁사실
▁그리고
▁아이
▁B
▁올
▁음
▁잘
▁심
▁체
▁%
▁~
▁직
▁듯
▁맞
▁하나
▁다가
▁엔
▁루
▁변
▁승
▁운
▁필
▁네
▁히
▁행
▁위해
▁확
▁테
▁디
▁+
▁뒤
▁?
▁사이
▁팀
▁일본
▁날
▁나오
지만
▁베
▁높
▁언
▁이름
er
▁모습
▁12
▁박
▁약
▁집
▁P
▁투
▁목
▁시간
▁이상
▁대한
00
▁존
▁그러
▁어서
▁활
▁거나
▁표
스터
▁능
▁양
▁문제
▁캐릭
▁하지만
▁L
▁한국
▁려
▁각
▁상대
▁볼
▁캐릭터
▁F
▁생각
▁왕
▁순
▁힘
▁준
▁병
▁별
▁G
▁잡
▁함께
▁만들
▁클
▁손
▁시작
▁으면
▁천
대로
in
▁항
▁11
▁완
▁E
▁독
▁경기
▁들어
▁다시
▁임
▁난
▁막
▁브
▁열
▁당시
▁프로
▁겠
▁능력
▁먹
▁처럼
▁폭
▁근
▁블
▁식
▁가지
▁효
▁커
▁끝
▁가장
▁K
▁복
이트
▁너
▁시리
▁또한
▁따라
on
▁쿠
▁증
▁총
▁다만
▁줄
▁삼
▁광
▁검
▁친
▁합
▁태
▁페
▁플레이
an
▁15
▁상황
▁느
▁결국
▁상태
▁H
▁시리즈
▁그런
▁R
▁시즌
▁새
▁많이
▁악
▁카드
미지
▁빠
니다
▁I
▁모두
▁충
▁N
▁산
▁얼
▁백
▁누
▁터
▁넘
▁그래
▁세계
▁나온
▁길
▁급
▁슈
▁곡
▁존재
▁m
▁러
▁채
▁물론
▁보이
▁전투
▁금
▁싸
▁온
▁모든
▁추가
▁앞
▁업
▁티
▁상당
▁눈
or
▁될
▁머
▁t
라이
▁보여
▁긴
▁케
▁으나
▁기술
▁스킬
▁이런
▁라이
▁현재
▁매우
▁큰
▁자체
▁극
▁취
▁실제
▁그러나
▁및
▁효과
▁선수
▁팬
▁무기
▁#
▁엄
▁절
▁O
▁레이
므로
▁민
▁레벨
▁뿐
▁갈
▁스타
ar
▁이유
▁그렇
▁아닌
인다
▁거의
▁탄
▁다면
▁W
▁마법
▁인데
▁이용
▁주인
▁창
▁철
▁몬
▁인지
▁황
▁찾
▁역시
▁관련
▁16
▁골
▁30
▁여기
▁벌
▁시키
▁밀
▁떨
으나
▁얻
at
▁환
▁미국
▁같이
▁해야
▁에선
▁바로
린다
▁일반
▁처음
he
▁란
▁탈
▁첫
▁허
▁18
▁지역
▁해당
▁북
▁곳
▁작품
▁이야
▁13
▁붙
▁참고
▁청
거리
▁질
▁워
이지
이스
▁기본
▁특히
▁아무
▁여러
▁몰
▁귀
▁격
▁돌아
▁대해
▁필요
▁199
▁인간
▁혼
▁다음
▁좀
▁100
▁부분
으며
▁둘
▁습
▁이야기
부분
▁놓
▁c
▁14
▁잠
▁영화
▁s
▁대학
▁밖
리스
▁달리
▁는지
▁사건
▁아서
en
▁그냥
진다
▁법
▁즉
▁글
▁없이
▁엘
▁V
▁떨어
▁기록
▁해도
▁대부분
▁라면
▁방송
▁범
지막
▁덕
▁버리
리아
▁인물
▁헤
▁주인공
▁수준
▁째
▁못하
▁비슷
▁자기
▁본인
▁통해
▁냐
▁든
▁몸
▁몇
▁담
▁제작
▁17
▁25
▁쪽
▁슬
▁방어
▁마지막
▁만큼
▁팔
▁k
▁싶
al
▁상당히
▁풀
▁U
▁내용
전히
▁암
▁일부
▁어느
▁피해
▁관계
▁시절
▁진행
▁리그
▁보인다
어나
▁국가
▁00
▁학교
▁대신
▁X
▁인해
▁실제로
▁성우
▁이전
▁그대로
▁대표
▁맡
▁계속
▁설정
▁밝
▁지금
▁속도
▁떠
▁애니
▁접
ou
▁전쟁
토리
▁괴
▁올라
es
다가
▁축
▁규
▁보스
한다
▁타이
▁낮
▁활동
시아
▁퍼
▁위치
▁원래
▁제외
▁동안
▁울
▁서울
▁몬스터
▁므로
▁기사
▁2015
▁감독
▁너무
▁츠
▁기준
▁의미
▁평가
▁망
it
▁맨
버지
▁육
▁쓸
▁묘
▁대로
▁나온다
▁마다
▁언급
▁이미
▁]
▁홈
▁중국
▁넣
▁뛰
▁공격력
▁직접
▁50
▁성공
▁논
▁그녀
▁도시
▁먼
▁우리
▁J
▁문서
▁증가
▁다르
▁센
이션
▁유저
▁홍
▁엄청
▁과거
▁데미지
▁장면
▁으니
▁돈
▁이것
▁쉽
▁칼
▁자리
▁머리
▁꽤
▁[
▁여자
▁도록
▁유명
is
▁최대
▁&
▁정보
▁바람
▁비해
▁멤
▁지원
▁봉
▁유닛
▁차이
가지
라도
▁버전
▁봐
▁2016
▁들어가
▁2014
▁나왔
▁멤버
▁빌
▁설명
▁개요
▁개발
▁씩
re
▁출연
▁늘
랜드
▁결과
le
▁전체
▁나가
▁혹
▁체력
▁21
▁측
▁소속
▁나타
▁로서
▁마음
▁님
▁방법
▁딜
▁친구
▁d
▁역사
▁뉴
▁협
▁즈
▁스토리
ic
▁갖
▁영상
▁만든
▁희
▁선택
▁당하
이드
▁컨
▁소리
▁당연
▁링
▁갑
▁새로
▁프리
▁198
▁아버지
▁됐
▁그런데
▁지나
▁파이
▁제대로
as
▁남자
▁22
▁조금
▁드래
▁전부
▁자주
▁깨
▁려고
▁거리
▁의해
▁이동
▁아이템
▁알려
▁놀
▁<
▁플레이어
▁노선
▁최고
▁압
▁류
▁준다
▁사라
▁책
▁탑
▁공식
▁인기
▁주로
▁게다가
▁여성
▁w
▁대전
▁슈퍼
▁나라
▁이렇
▁빨
▁침
▁나이
▁발매
▁보통
▁24
▁대사
▁2017
▁정말
▁쇼
▁초반
▁40
▁최종
▁이어
▁향
▁답
▁파괴
▁샤
▁인터
▁사랑
▁2013
▁송
▁승리
▁출신
▁농
▁그것
▁시스
▁씨
▁한다는
▁영향
▁찍
▁배우
ing
▁2018
▁마찬
▁버스
▁드라
▁마찬가지
▁색
▁모르
▁모드
▁듣
▁대상
▁방식
▁성능
▁연구
▁동시
▁비교
▁기타
▁아예
▁작중
▁성격
▁이때
▁사망
▁오히
▁시대
▁라도
이도
▁잔
▁그래서
▁습니다
운드
▁항목
▁오히려
▁후반
▁정신
▁서로
▁쉬
▁써
▁뜻
른다
▁궁
▁일단
▁우승
▁아직
어난
부터
▁시켜
▁착
▁수록
▁형태
▁멀
▁왜
▁강력
▁앨
▁그래도
▁빼
▁유지
▁a
▁심지
▁차량
▁b
▁마이
▁역할
▁위한
▁f
▁부르
프트
▁23
▁했으나
▁이러
▁심지어
▁발생
▁학생
학교
▁스테
▁특성
▁버렸
▁콘
머니
▁포함
▁마리
▁애니메
▁속성
▁어떤
▁술
▁소환
▁모양
▁노래
▁가진
▁운영
▁만화
▁월드
▁원작
▁특수
▁2012
▁기존
om
▁끌
▁중요
우스
벤트
▁움
▁섬
▁자세
▁억
▁사회
▁이루
▁h
▁끼
▁o
▁졌
▁변경
▁르
▁좌
▁최초
▁풍
▁애니메이션
▁결정
▁유일
▁액
▁층
▁이렇게
▁석
▁폐
▁음악
▁흑
▁과정
▁거기
▁덕분
▁가까
el
▁회복
▁이벤트
리어
▁힘들
▁마을
▁시스템
▁우주
▁주장
▁행동
▁모델
버스
▁장비
▁부대
▁강화
▁못했
▁솔
am
▁독일
▁바뀌
▁흔
▁싱
▁p
ion
▁곤
▁빈
▁부족
▁넘어
▁참조
▁국내
▁라인
▁완전히
레이드
▁여담
▁난이도
▁영어
▁명칭
▁프랑
▁2019
소드
▁지구
▁휴
▁구성
▁작가
▁바이
나마
▁스트
▁드래곤
▁찾아
▁훈
▁확률
▁굉
▁어려
▁전혀
▁따르
▁왔
▁아래
민국
주의
▁입장
▁만나
간다
▁발동
▁사진
▁활약
▁에피
▁아들
▁숨
▁그나마
▁n
▁갤
▁혹은
▁현대
▁오브
▁뽑
▁특징
▁the
▁시킨
▁정치
▁가격
▁26
▁주변
▁더라도
▁2010
▁다이
▁콜
▁대회
▁영국
▁굉장
▁얼굴
▁어떻
▁칸
▁하이
▁먼저
▁에피소드
▁어야
▁드러
▁메이
▁자동
▁28
▁차지
ac
▁녹
▁제국
▁응
ol
▁영웅
없이
▁잃
▁짓
▁빛
▁TV
▁드라마
▁27
▁정확
▁다니
▁하루
▁밖에
▁쓴
▁묘사
▁확인
▁웨
▁시점
▁뭐
▁조차
▁죠
▁히로
▁윤
▁반대
▁벨
▁대한민국
▁얼마
▁내려
▁회사
▁쳐
▁딸
▁공개
▁마스터
▁라서
▁위해서
▁턴
▁견
▁시기
▁2011
▁표현
▁초기
디오
▁익
▁담당
▁푸
▁맵
▁기능
인트
▁실력
▁연기
▁아마
레스
▁000
▁계획
▁한다고
▁휘
▁관리
▁폴
▁동일
▁생산
▁딱
▁따라서
인물
▁=
▁맥
▁자유
▁싸우
▁정부
▁실패
▁어도
▁그렇게
et
▁보내
▁듀
▁순간
▁판매
▁사고
▁야구
▁건물
▁엔딩
▁맛
▁헬
▁개인
▁등장인물
▁기관
▁컴
▁뮤
▁그림
il
▁이제
▁이미지
ig
▁인정
▁당연히
▁불리
▁적용
ed
▁교육
▁Y
▁스페
▁경찰
▁라며
▁반응
▁고등
▁앨범
▁헌
▁세대
▁나와
▁새로운
▁조건
▁죽이
▁기억
▁랑
▁세이
▁챔
▁했으며
▁파워
▁60
▁km
▁엑
ow
▁으로서
▁문화
▁진짜
소리
▁족
▁기간
▁발견
▁패치
▁움직
▁생활
▁확실
▁퀘
▁오리
us
BS
▁표기
▁굉장히
▁디자
▁도움
▁방면
▁취급
▁퇴
▁듯이
▁땅
▁프랑스
▁패턴
▁현실
▁of
▁무시
▁아주
로스
▁처리
▁타입
▁출시
▁자면
▁29
▁소개
▁패배
▁홀
▁한테
▁무장
▁겨
▁틀
너지
▁려는
▁데이
▁엄청난
▁킹
▁어린
▁또는
▁대체
▁폭발
▁아야
▁단순
▁건담
▁Z
▁중간
▁어디
▁소설
▁결혼
▁프로그
▁지속
▁197
▁훨
▁굴
▁구간
▁싸움
▁한정
▁가족
▁단계
▁짜
▁계열
▁돼
▁콤
▁졸
스크
▁주의
▁흡
▁대학교
▁어렵
▁사실상
▁35
▁약간
▁조선
▁방향
▁발사
▁밝혀
어지
▁랭
▁31
▁어머니
▁훨씬
▁어떻게
▁이번
▁v
▁구조
▁버린다
▁아르
▁The
▁스러
▁경험
▁위험
▁상승
▁중심
▁아군
▁죄
▁세트
▁기에
ad
▁웃
▁믿
▁동료
▁싫
▁블랙
▁운동
▁론
▁더욱
▁덱
▁활용
▁특별
▁분위
▁욕
▁요구
▁떨어지
▁2000
▁상위
▁으므로
▁범위
▁읽
▁제한
▁낙
▁낸
▁숙
▁포켓
▁운행
▁r
▁분위기
▁똑
이크
▁빠르
▁쿨
▁핵
▁80
▁쌍
▁탐
▁린
▁탓
▁디자인
▁수비
▁불구
▁혼자
려서
니아
▁감소
▁소모
▁줬
▁시장
▁유리
▁목적
▁중앙
▁St
ER
▁여전히
▁옆
▁지하
▁대해서
▁가져
▁그룹
▁얘
비스
▁밤
▁갔
▁염
▁나중
▁꼬
▁트리
▁텐
▁살아
▁나머
▁십
▁다양
▁꾸
▁37
▁500
▁진출
id
▁져
ot
▁강한
▁율
▁나머지
▁항공
▁켄
and
▁브라
▁밴
ay
▁전용
▁못한
스로
▁흥
▁괜
▁세력
▁설치
▁방영
▁기체
▁전차
▁꿈
▁프로그램
▁잘못
▁다며
▁일으
▁즐
▁축구
▁부산
리카
▁포인트
▁고려
▁러시아
▁런
ve
▁미사
▁선발
▁느낌
▁번역
ch
▁종족
▁시청
▁미션
▁성장
▁90
▁포켓몬
▁퀘스트
▁묻
▁시도
▁각각
▁대미지
un
▁스테이지
▁스피
▁주요
▁계약
▁득
▁굳
티브
▁비판
20
▁크리스
▁mm
▁물리
▁획
▁도망
▁참여
▁성적
▁이라
▁l
▁고등학교
▁올리
다는
▁로봇
▁녀
▁타카
▁짧
▁절대
▁옵
▁전문
▁투수
▁마저
▁거대
▁데뷔
dd
▁보여준
▁과학
▁버린
▁벗
▁유니
▁애초
▁부활
▁척
▁만드
▁훈련
▁셈
▁나무
▁쓰러
▁70
▁준비
▁해결
▁렌
▁이해
▁충격
▁으면서
▁지방
▁펼
▁배틀
▁논란
▁챔피
▁칭
▁스스로
▁일행
▁가끔
▁징
▁경제
▁생명
▁비행
▁g
▁배경
▁오래
▁요소
▁소녀
▁삭
▁전설
▁보였
▁엔진
▁조직
▁부상
▁전작
▁철도
▁량
▁똑같
▁강하
▁규모
▁야마
통령
▁률
▁도중
ro
▁정상
▁끊
▁자랑
▁옥
▁발표
▁2009
▁큐
▁삼성
▁롤
▁한데
▁의견
▁충분
▁무리
▁일정
▁랜
▁다운
▁덤
▁죽음
▁학년
▁벽
▁변화
▁01
▁스파
▁혈
▁스카
▁직업
▁메인
▁팩
▁최근
▁사이트
▁당했
▁정체
▁...
▁유럽
▁기대
▁스타일
▁45
▁빅
▁찬
▁작전
▁기동
▁앤
▁보호
▁봤
▁공중
▁날아
▁예정
▁이쪽
인지
▁대통령
▁종류
▁이게
▁품
▁조합
▁했었
▁목소리
▁연속
▁300
▁쓰이
▁요리
▁록
▁정작
▁제목
▁근접
▁전사
스타
▁지도
▁버프
▁별로
▁신경
▁력
▁나타나
▁멘
▁생긴
▁안타
▁장착
▁반면
▁연출
▁세상
▁줘
▁빙
▁나름
ir
▁이걸
▁흐
▁아키
▁자연
▁추정
▁킬
▁냉
▁32
▁케이
어들
▁악마
▁캠
▁카이
▁합니다
▁소재
▁라운드
▁수도
▁그만
▁대화
▁돌아가
▁타격
▁번호
▁오른
ter
▁전기
난다
▁로부터
▁탱
▁남성
▁벤
▁뒷
▁국제
▁제공
▁참가
▁등급
▁196
▁멸
▁연합
▁다크
▁획득
리오
▁방어력
▁판정
수록
▁동물
▁링크
▁비롯
▁따로
▁후보
말로
▁곧
▁당신
▁의외
▁수정
▁만약
자기
▁아이돌
im
▁배치
▁각종
▁래
▁위기
▁)
▁정식
▁롯
아들
▁교통
▁연결
▁관심
▁안정
디어
▁꺼
▁극장
해서
▁48
▁레어
▁파일
▁던전
▁칠
▁개념
▁항상
▁센터
▁사업
▁수상
▁시험
▁분노
▁사례
▁내부
▁쥬
▁특정
지션
▁북한
▁한다면
▁황제
▁에너지
▁맹
▁이외
러스
▁이건
▁2008
▁변신
▁민주
▁단점
▁지휘
BC
▁사격
▁무엇
나라
▁얘기
▁종료
ub
▁힐
▁누구
▁제일
▁단어
▁다리
▁필드
▁cm
▁나이트
ag
▁일어나
▁루트
▁36
▁조사
▁시켰
▁발전
▁크리
▁공연
▁쯤
▁장갑
▁일러
▁나올
▁더불
▁지상
▁넓
▁물건
▁봐도
▁놈
▁사정
▁y
▁한편
▁미래
▁스포
▁션
너스
▁인터뷰
동안
▁털
▁챔피언
▁33
▁괜찮
▁였으나
▁사냥
▁클래
▁서비스
▁엘리
▁각성
다고
▁외국
▁기계
어났
▁선거
▁깔
▁군사
▁x
▁최소
▁도로
▁으려
▁*
라인
▁옷
▁기업
▁둔
데이트
▁파티
▁아카
▁업데이트
▁Lv
▁흘
▁특이
▁닥
▁점수
▁이탈
▁인구
▁별명
▁빠른
이치
▁인식
▁아도
믹스
▁완전
▁사항
▁e
▁입니다
▁코스
▁오르
▁납
▁시설
어진
▁해군
▁시티
▁국민
▁시전
ur
▁화력
▁세기
▁당한
▁불러
▁로드
od
▁05
▁히트
야마
▁쏘
▁조종
▁고속
▁하늘
어로
▁스러운
▁위력
▁직전
os
▁생기
▁달성
▁프레
▁가까운
▁니까
▁닌
▁최강
▁제품
▁생존
▁상관
▁02
▁컬
▁알아
▁가문
▁가수
▁뭔
▁비밀
▁그야
▁개그
▁SK
▁뜨
져서
▁th
▁마나
▁점프
▁인가
▁오프
▁아파
▁03
▁순위
▁',
▁삭제
ST
▁가르
▁감정
▁교체
▁달려
▁쌓
▁달라
▁옛
▁사기
▁히어로
▁홈런
▁장소
▁일러스트
▁싱글
▁위원
▁보유
▁전국
▁왼
▁그야말로
▁역대
▁목표
▁녀석
▁학원
▁EX
▁본래
▁몽
▁부모
▁군대
▁압도
▁명령
▁목록
▁뇌
▁요시
▁튀
▁지키
▁려면
▁깊
▁분류
▁가드
▁주제
▁출전
▁꽃
▁독립
▁펜
▁붕
▁은데
▁픽
▁던지
▁갑자기
▁스럽
▁무슨
▁2007
모토
▁잉
▁언제
▁포지션
▁마사
▁예전
▁이기
▁더니
▁공간
▁워낙
um
▁탈출
▁마치
▁연재
▁사거리
▁아스
▁병력
▁위키
▁진화
▁데스
▁짐
▁어둠
igh
▁34
▁전개
▁라이트
▁표시
▁구하
▁폰
▁HP
▁작업
ff
▁중반
▁병원
▁작곡
▁떡
▁고양
▁예상
▁소련
ut
▁포기
▁크기
ent
50
▁셀
▁의식
▁레드
▁원인
라스
▁병사
▁09
▁수치
▁가리
▁밑
▁건설
▁톤
▁올라가
▁겪
▁노력
▁04
▁현상
▁겸
시마
▁살인
▁떠나
▁보상
▁무대
▁띄
▁노트
▁전력
트라
ak
▁행위
▁생겼
▁저지
▁장점
▁강제
다니
▁포스
AR
▁윈
ver
▁레인
▁졸업
▁카운
▁07
▁08
▁미사일
▁클리어
▁빠져
▁동생
▁부정
학생
▁효율
▁06
▁무려
▁밸
▁전자
▁경쟁
▁웹
▁도쿄
▁비중
▁임무
▁롯데
젝트
ec
▁차원
▁이끌
▁바라
▁194
운데
▁확정
▁뿌
▁도입
▁크로
▁Q
▁지켜
▁고정
▁티어
▁인천
▁전반
▁발음
▁파트
마자
▁부하
▁이하
▁해외
▁근처
▁노리
▁꾼
▁잠시
▁2006
▁화면
▁완성
무라
▁필살
▁음식
▁인터넷
▁가면
▁끝나
▁집중
▁주문
▁보병
▁으로써
▁촬
▁바꾸
▁아프
▁신체
▁꼭
▁공주
▁시킬
▁무한
▁밀리
AN
▁셋
▁아무리
▁인도
▁오리지
▁분명
▁평균
▁인사
▁결승
▁라이브
▁롭
▁하드
▁마법사
▁정확히
▁평범
▁38
▁판단
▁가사
▁한글
▁타임
▁>
▁택
▁근데
▁여행
▁붉
▁굳이
▁환경
▁재미
르트
▁보여준다
▁옮
▁유사
▁주민
▁행정
▁쫓
▁수행
▁걸로
▁종교
▁느끼
▁기다
루스
▁종종
▁받아들
▁촬영
▁찌
이어
▁캡
▁kg
▁몇몇
란드
▁폭탄
▁발언
▁완벽
▁의하
▁기반
▁반드
▁비용
페이지
▁반드시
트리
▁선생
▁대장
▁단체
조건
▁지지
▁다수
▁제거
▁직후
▁랭크
▁뻔
▁실험
▁광고
▁심각
▁샷
▁아내
▁봉인
▁홈페이지
▁성향
▁패러
▁다루
▁에게서
▁플래
▁그린
▁그걸
▁운용
▁공포
▁좋아
래프트
▁페이
▁댄
▁멜
▁치료
▁밴드
▁버그
▁점점
▁뛰어난
▁옵션
▁오버
▁자원
▁미니
▁무조건
▁전략
▁걸리
▁암살
▁LG
▁in
▁FC
▁잭
▁조작
▁아파트
▁대구
▁지배
▁단지
▁베이
▁엄청나
▁대결
▁앙
▁도전
▁디스
▁함정
▁대중
러리
▁기회
▁코드
▁다소
▁모른다
▁냐고
▁특유
▁한계
▁구분
▁컵
▁본격
▁통합
▁넘어가
▁가깝
▁다행
▁접근
▁였으며
▁맞추
로그
▁왕국
그레이드
▁업그레이드
▁소년
▁개조
▁골드
▁바다
▁월드컵
▁연장
▁늦
▁덴
▁밥
▁저항
▁의사
▁사쿠
▁추측
▁외모
▁금지
▁시나
▁널
▁모자
▁수많
▁빵
▁고자
▁책임
▁군단
▁최후
스케
▁you
▁정리
▁템
em
▁복수
▁오늘
▁쿄
▁올려
▁확장
▁범죄
▁이라고
▁오리지널
무리
▁장치
▁복귀
▁부탁
▁는가
▁열차
▁도와
▁치명
ON
▁소유
▁타이틀
▁구매
▁멋
▁스코
▁일본어
▁MA
▁디지
▁형제
▁언어
▁2005
▁젊
라이더
▁교수
▁잇
▁비하
▁부여
▁광역
▁웬
▁우선
▁대기
▁득점
▁고대
▁브레이
▁낫
▁간단
▁자마자
▁vs
ight
▁상징
▁평소
▁to
요일
▁드립
▁투입
ation
▁55
▁삼국
▁어려운
▁혁
▁달러
▁가운데
▁흉
▁인상
▁사령
다면
▁불가
▁터미
▁유우
▁대단
▁75
▁99
▁셔
▁스포츠
▁내리
▁추천
▁II
▁형식
▁영혼
▁로마
▁장르
▁아라
▁해석
▁에이
▁가치
▁인한
▁빨리
▁이곳
▁2004
▁숫
▁정의
퓨터
▁힘든
▁걱
▁충분히
▁된다는
▁희생
▁자동차
▁대형
▁해졌
▁걱정
ce
▁사무
▁기념
▁얼마나
▁와중
리트
▁이닝
▁주력
▁Ch
▁리더
▁뭔가
▁맞춰
▁사상
IN
▁일종
뜨리
▁생물
▁뚫
▁탈락
▁카오
▁올림
비아
▁카즈
▁도착
▁이탈리아
▁마크
▁마무리
런스
▁행성
▁사태
▁스크
▁마력
▁인류
ap
▁컴퓨터
▁불명
▁모아
▁극장판
▁KBS
▁전화
▁42
▁는다는
▁마르
▁이르
▁이치
▁네이
▁락
▁폼
▁와서
일러
▁공화
▁재료
000
▁필살기
▁섞
▁잊
▁냐는
▁육군
▁무사
▁회피
▁PC
▁1000
▁지정
▁그저
▁통신
▁기지
▁덜
▁닉
▁39
▁거부
▁시킨다
여서
▁서버
▁썼
▁가정
▁MBC
▁들어오
▁전통
▁공략
▁프로젝트
▁엠
▁액션
▁그럼
▁행사
▁구단
▁서술
ul
▁2002
▁단순히
▁로스
▁시민
▁목숨
▁빼앗
▁장난
▁한국어
▁비트
▁료
▁대비
▁살아남
으니
▁자료
니티
▁냈
▁의도
▁보조
▁보너스
▁값
▁불과
▁넥
▁집단
아내
▁41
▁_
▁닮
▁어요
▁지난
▁더블
▁심하
▁빔
동생
▁빠지
▁움직이
▁아웃
▁의지
▁전술
▁박사
▁덩
▁전원
▁사라지
▁데이터
▁괴물
▁합류
▁구역
▁눈물
▁제로
▁실수
레이션
▁검사
▁랄
▁딱히
▁컨셉
▁흡수
▁카메
▁못한다
▁라디오
▁날려
▁제도
▁적절
▁윌
▁장군
▁연주
▁숫자
▁맺
▁클럽
▁상대방
▁위협
▁후속
ri
▁함대
▁고양이
▁조정
▁오토
▁모리
▁화염
▁타자
▁유키
▁대응
▁정규
▁마츠
▁장기
▁텔
▁당해
▁수리
▁44
▁연습
▁을지
▁겹
▁저격
▁독자
▁감안
▁드라이
▁케이스
▁모티브
▁앉
▁꼴
▁듀얼
▁시내
▁느냐
자리
▁부른다
▁어찌
크래프트
▁릴
▁약점
▁반복
니까
▁몹
▁날개
▁기어
▁격투
▁보컬
▁테마
니스
▁에이스
▁닥터
나이
모리
▁터미널
▁그려
▁테크
▁대놓
▁개월
▁43
▁꾸준
▁바닥
RA
▁설계
▁진다
▁확실히
▁오랜
▁이적
▁분리
▁캔
▁나쁘
nd
▁났
▁공항
▁시나리오
▁상세
▁회전
▁뜬
▁종합
▁지닌
▁공동
▁앞서
▁쥐
▁이사
▁코어
▁미리
▁서브
▁BG
타임
▁2003
▁에어
▁숲
▁투표
▁요청
all
▁성인
▁유도
▁그때
▁체제
▁페르
▁필수
▁지명
▁세계관
▁패러디
▁피하
▁병기
▁소식
▁계기
▁훌
래도
워서
▁정책
▁당장
▁클래스
연히
AL
▁스탠
▁컷
▁ST
▁51
▁지적
▁지옥
ia
▁메탈
▁전환
▁펀
로우
▁착용
▁바르
로드
▁핸
▁광주
▁스페인
ack
st
▁꼽
▁셰
시스
tt
▁오오
▁채널
▁150
▁데려
uby
▁인원
▁미스
▁밝혔
▁195
▁높이
▁초등
▁스마
▁진정
▁촉
▁승부
▁아머
▁파이터
▁방패
▁선언
▁델
▁소울
▁가슴
▁뉴스
▁편성
▁산업
▁관통
▁배신
▁47
oc
▁무력
▁보급
▁방해
▁궤
▁온라인
▁회장
▁간다
▁중학교
▁SP
▁베이스
▁차례
온다
▁원거리
▁등등
▁핑
▁모험
▁공사
▁나카
▁소비
▁크로스
▁ruby
▁한자
▁아무래도
▁은퇴
▁VS
▁관한
▁습격
▁PS
▁로써
▁에스
▁리어
▁상처
▁돌려
▁올림픽
▁46
▁등록
▁언론
art
▁그리스
▁알려져
▁원정
▁관광
▁울트라
▁안습
▁엉
▁마시
▁잠깐
▁적극
▁묶
▁가면라이더
▁특기
▁st
▁64
▁안전
▁저주
▁끝내
▁연계
▁흔히
▁혐
▁으로부터
▁카페
▁지니
▁토스
▁통과
▁인형
ra
▁공부
▁판타
PC
▁버튼
▁의심
▁동맹
▁겐
▁미친
▁가스
▁실시
▁인지라
▁뱀
▁구축
▁후반부
▁마왕
▁멸망
▁마침
▁여름
▁무게
▁미군
▁위주
▁혜
▁i
▁거짓
▁MP
▁아사
▁승강
▁카운터
▁선정
▁겨우
▁명중
▁유래
▁전해
▁누군
낸다
▁에겐
▁핀
▁실점
▁국회
▁블루
▁교회
▁초대
▁게이
유키
▁공군
▁역전
▁or
▁엄마
▁이어지
▁No
▁and
거나
▁오프닝
▁코치
▁정당
▁떼
▁바꿔
▁랍
▁스펙
▁진입
▁다름
라리
▁아름
▁게시
▁태도
▁개선
힌다
▁퓨
▁레이저
AT
▁In
하라
르크
▁밸런스
시브
▁민족
▁사장
▁최악
▁영입
▁투자
▁수호
▁코스트
▁날리
▁미나
▁희망
▁리스
▁안드
op
▁질문
▁왼쪽
▁그레이
▁갓
▁눈치
▁어울
▁계급
▁태양
▁짤
▁삽
▁표정
▁챙
▁시체
▁고통
▁코너
▁젠
▁느껴
▁코믹스
▁그라
▁후지
▁벌이
▁400
▁멀티
▁373
▁깎
▁은근
▁설립
▁수단
ie
▁모션
▁쓴다
▁따지
▁조각
▁스위
▁미야
▁분야
▁텍
▁생겨
▁바뀐
▁버려
▁솔로
▁하위
▁남편
▁황금
▁됨
▁선보
▁하트
▁룰
▁제압
트롤
▁탑재
▁대원
▁킥
est
▁사단
▁dd
▁스피드
▁군인
▁의문
무원
▁대놓고
▁막장
▁방문
▁매일
▁견제
▁2001
▁끼리
▁비디오
▁CD
▁대답
▁미치
▁진영
OR
▁소드
▁펼치
▁용병
▁확보
▁경력
IA
▁비난
다수
▁애매
▁구해
▁멈
▁콩
머리
▁좁
▁차별
▁기자
▁자식
▁프라
ill
▁주연
▁튜
▁행적
▁사과
▁중단
▁193
▁기점
▁엑스
▁오스
▁자살
▁온갖
▁청소
▁지식
▁수원
▁본선
▁고급
어도
▁사카
▁개봉
▁구입
▁거두
OS
▁낼
▁아쉬
▁노동
▁탯
▁살해
dddd
▁dddddd
▁패스
▁돌파
▁어째
▁해제
▁해진
세이
▁롱
나가
▁유용
▁뛰어
▁라이벌
▁1990
▁로켓
▁세요
▁메가
▁52
▁브랜드
▁기획
▁아시아
ik
PS
▁트랙
▁선물
▁진실
▁장전
▁닌자
▁개편
▁그럴
▁Re
▁공통
▁융
▁조준
쳐서
▁체계
▁컨트롤
▁예선
▁%,
▁멀리
▁단위
▁어차
▁렉
드리
ate
▁시청자
▁스파이
▁미드
▁편집
▁이스
▁은행
▁어차피
▁는다고
▁장애
워드
▁발휘
▁놀라
▁자이
터리
다지
▁틈
▁전장
▁봐야
▁붕괴
▁경계
▁좋아하
▁랩
▁부담
▁계산
▁그게
▁용도
▁지내
즈키
▁납치
▁65
▁인생
▁쉬운
▁신화
▁행복
▁오른쪽
▁줄어들
▁순수
▁늘어나
▁연예
▁외부
▁룡
▁평화
▁이거
사카
▁대다수
▁Sh
th
▁경유
▁스트라이
▁떨어져
▁궁극
IC
▁실질
▁귀족
▁의원
▁펠
▁갱
▁점령
▁현장
▁최대한
▁창작
▁떡밥
▁우수
▁돌아오
▁횟
▁정령
▁가이
▁측면
▁소프트
▁여왕
▁나쁜
▁을까
▁무서
▁누가
▁도서
▁스케
▁건지
▁그다지
▁젤
ttp
레인
▁영역
▁제안
▁샌
▁포르
▁http
▁56
▁게이지
▁된다고
바이
▁일어난
▁탄생
▁주목
▁약한
▁커뮤
▁헤드
▁터지
▁규정
▁작성
▁탑승
▁어쩔
▁여부
▁바탕
▁경향
▁저런
가락
▁꾸준히
카와
▁체육
리티
▁니시
▁갤러리
ED
▁순서
▁오해
▁러브
▁승강장
▁얼음
▁이성
로이드
▁타이밍
▁운전
▁업체
▁생성
▁상자
▁나누
▁요원
어리
▁릭
▁정류
▁돌격
▁살짝
▁당한다
▁도구
▁카메라
▁나아
▁박스
▁넷
▁부인
▁Sp
▁공화국
▁낳
▁동네
▁테러
마스
▁개최
▁누군가
▁훌륭
▁완료
▁선배
▁횟수
▁판타지
▁제시
▁120
▁정말로
▁54
▁마녀
▁트위
▁짜리
▁고유
▁유희
▁2020
▁쿨타임
AS
▁49
▁장수
▁통일
▁잖
▁숨겨
▁뮤직
▁약속
▁디아
▁지하철
▁삶
▁반영
▁겁
▁53
▁블레이드
▁고서
▁레전
▁생일
▁전대
▁기분
▁춤
▁보정
▁회의
▁일부러
▁커버
친다
▁카나
▁뱅
▁갑옷
▁알리
▁문명
▁어쨌
▁비고
▁빌리
▁교사
▁집안
▁때려
▁SBS
▁왕자
▁습득
▁퀄
▁그런지
▁문자
ess
ab
▁You
▁한화
▁파이어
▁누르
심히
▁찰
▁편의
▁신세
▁자격
EN
▁허용
▁군주
▁동방
▁짝
▁공장
▁미츠
▁수요
▁공원
▁폭풍
▁대우
▁윙
▁라스
▁아오
▁페이지
스티
아먹
▁끝난
▁예술
▁스프
▁지점
▁마도
▁못해
▁베르
▁플라
▁비록
▁응원
▁85
▁Bl
▁데리
▁업무
▁가로
▁유비
피스
▁천사
▁알렉
▁마인
▁한때
▁룬
▁상품
▁키리
▁대공
▁낚
▁짱
▁토모
▁여신
▁적당
▁건너
▁내놓
▁전함
▁홍보
▁의한
▁이론
▁출발
▁우려
▁공기
튜브
▁쏟
▁노멀
▁직원
▁유튜브
▁커맨
▁소수
▁설득
▁봄
▁약하
▁파일럿
▁거절
▁보수
▁단독
ct
▁비율
▁재생
▁소문
▁레오
▁알려진
▁난다
▁협력
▁뒤집
▁스페셜
▁충돌
▁혼란
▁기기
▁다시피
▁거주
▁파악
▁그래픽
▁후쿠
▁겨울
▁보도
▁미소
eat
텐츠
▁회수
ard
▁문제점
▁그만큼
▁트레이
▁이슬
▁댓
▁여동생
▁따른
▁대륙
이터
▁환승
▁무적
▁근무
티컬
▁수사
▁57
▁쓰레
up
▁변하
▁취소
▁출처
▁트위터
▁영원
▁AT
가와
▁가졌
▁격파
▁충전
▁든지
▁열린
▁66
▁MS
▁우스
▁반란
▁메이저
▁용어
▁사쿠라
▁팝
▁패시브
다운
▁지나가
▁사이즈
▁DJ
▁가입
▁본명
▁랜덤
▁핵심
LC
▁건강
▁운명
▁전형
▁장교
▁커뮤니티
▁가까이
▁박살
▁실행
▁1999
긴다
▁언니
트로
▁NPC
▁묵
▁수입
▁분석
▁나루
▁AC
▁밟
▁오류
▁동아
▁사토
▁별개
▁수학
▁강해
▁형성
▁전투력
아버지
니어
▁모으
▁증거
▁사운드
EC
ine
▁열심히
▁내내
▁예외
▁웨이
▁화살
▁연상
▁섭
▁거래
▁아침
ant
▁끔
▁76
▁주년
▁보단
ist
▁타케
히로
▁따위
▁벌어
▁섹
▁머신
▁아메
▁일으키
▁심장
▁통하
▁아나
▁정해
▁카르
▁바보
▁초월
▁흰
▁95
▁거쳐
▁권력
▁제조
▁AP
▁신뢰
▁서포
▁카미
모로
▁기다리
▁연애
▁강조
▁만족
▁연방
▁암흑
OL
▁BGM
▁드리
▁붙잡
▁드러나
▁전투기
▁킨
▁피해자
▁CP
▁상향
▁이래
▁로운
▁정권
▁둘러
▁들어갔
▁이마
▁레전드
▁늑
▁58
▁돌리
피아
▁고기
▁개통
▁헌터
▁스코어
디션
사키
▁제법
▁피아
타인
▁여러모로
▁본부
▁자고
▁다행히
▁고민
▁오로
▁변형
▁기절
▁겟
▁재능
▁주도
파이어
▁연사
▁붙여
▁주먹
▁위원회
▁고교
▁화이트
▁아리
▁복장
▁땐
▁77
▁옛날
▁매치
▁키스
▁TH
▁마스
▁사라졌
▁re
▁민간
ue
▁트라
▁페이스
▁72
▁쿠로
▁파이널
PG
▁불꽃
▁뛰어나
▁부진
▁제기
▁엘프
타로
▁대만
더스
▁1998
▁별도
도우
▁마술
▁벌어지
▁아닐
▁실드
▁댄스
ip
▁여겨
▁62
AM
▁전공
▁네이버
▁98
▁com
▁옹
▁쓰인다
ind
▁진지
▁총기
▁절반
▁함선
▁고생
▁88
▁심리
▁아가
▁게이트
▁크루
▁삼국지
▁버티
▁샘
▁Al
ore
나다
츠키
▁스티
▁간부
▁덮
▁당황
▁불렀
▁사전
▁걸려
▁불만
▁채용
▁여서
▁화장
▁지급
▁검색
▁낭
▁선호
자키
고기
▁추적
▁프레임
▁아프리카
▁떨어진
▁당할
▁재판
오리
▁해방
▁폭주
▁학살
▁고전
one
▁후속작
ang
▁조조
▁파라
▁레인저
▁한국인
▁근거
▁요즘
▁Th
▁표준
▁끌어
▁라이더
▁블러
▁동원
▁밀려
▁동영
▁입력
▁곰
▁작용
▁계승
▁나서
▁추락
▁히데
▁마이크
▁균
식간
▁웬만
▁합체
▁남기
IT
▁화려
▁순식간
▁경기도
▁해진다
▁800
▁'.
▁통제
▁커플
▁지나치
▁동영상
스트라
▁크리티컬
▁어택
▁지형
▁대대
▁드물
▁SS
▁외국인
▁학과
▁카오스
▁명예
▁테이
▁늑대
▁랜드
▁갖추
ell
▁현지
▁믹
▁들어간
▁일상
▁쓰레기
▁틱
▁....
바로
▁아트
어스
▁아무런
▁교환
▁오빠
운다
▁벗어나
▁더러
▁권총
▁카라
▁600
▁요새
▁해병
어버
▁최상
의원
에도
▁닿
▁시야
▁양산
▁전철
▁흘러
▁때리
▁부품
▁클라
▁해설
▁반지
▁움직임
▁환상
▁메카
와서
▁버릴
▁김성
▁59
둥이
▁수술
▁드디어
▁제작진
▁만난
▁덧
▁죽여
▁혁명
▁몰아
▁타워
▁할지
▁지시
▁사마
▁구현
▁미디어
▁쇠
▁전선
▁불편
▁요괴
▁토리
창기
▁대하
▁증명
▁사자
▁지대
▁시각
if
▁제자
▁시드
▁!!
▁발매되
▁갈등
▁소멸
▁정지
▁치가
▁트레
▁수송
▁소총
▁탱크
▁왠
▁퀸
▁정류장
▁향해
▁대체로
▁호환
▁매체
▁근육
FA
▁리메
▁1997
▁이승
▁유형
▁캐스
▁레스
▁편하
▁꺼내
▁마련
▁매력
▁마구
▁자는
▁연대
▁영업
▁불안
▁스토
ort
▁리버
▁61
▁중계
▁춘
▁몰래
▁반격
▁겉
▁즉시
▁폐지
▁전적
▁복잡
▁초창기
퍼스
▁되돌
▁클로
이즈
▁령
▁배트
▁전직
▁어지
▁쾌
▁경비
▁테스트
▁수업
▁소닉
▁처치
▁걷
▁공작
▁네임
▁깃
▁폭격
저히
▁프린
▁스카이
▁경영
▁상상
▁191
ive
도로
▁테일
▁떠올
큐어
▁동기
▁날아가
▁극단
▁작사
▁출현
오르
ok
ld
▁뿌리
▁나와서
▁묘지
▁두산
▁신장
▁신고
▁",
▁마루
▁푸른
▁해금
▁공유
▁하고
지마
▁스마트
▁커맨드
▁쟈
▁볼트
▁작동
▁텔레
▁조절
VE
▁출판
▁폭력
▁압박
▁탁
▁들어간다
▁심한
▁이랑
▁스톰
▁마주
▁인수
▁잠수
▁구도
▁연관
▁참전
▁KO
▁콜라
어져
▁1980
▁아티
▁씬
드라
▁브리
▁장관
▁리메이크
ers
▁어쩌
▁조용
지컬
다른
▁가득
▁동작
▁배차
▁악역
▁그림자
▁공산
▁키우
▁요정
▁신분
▁농구
▁한방
워하
▁전방
▁언제나
▁국적
▁이리
▁장식
▁알파
▁연도
▁렙
▁오픈
▁환자
▁NC
▁외계
▁뉴욕
▁사령관
로운
▁평타
ove
▁흔들
▁An
▁등판
▁똑같이
▁절망
▁어깨
▁서양
▁빨간
▁엮
▁흥행
ain
▁브라질
▁떨어진다
▁출생
▁물질
▁프리큐어
▁적어도
▁리아
일리
▁돌진
▁출장
▁잖아
▁시행
▁익숙
▁아크
▁일지
▁74
▁노예
▁착각
조리
▁노출
▁분기
▁은근히
▁중대
▁팅
▁간격
▁모바
든가
▁게시판
▁간혹
▁신청
▁유령
▁미카
오카
▁사양
▁범인
▁스타크래프트
▁어쨌든
▁글자
▁되찾
▁코우
▁Se
▁없애
웨이
▁프리미
▁주위
▁통해서
▁63
▁입학
▁고향
▁저그
▁신문
▁남부
서트
▁마냥
▁먹이
▁경험치
▁사이드
광역
▁보장
▁슈트
▁무난
▁강철
▁빠진
▁훔
▁96
▁1996
▁자이언
▁두려
▁즐기
▁추진
MA
ong
▁브레이크
▁탄약
▁DLC
▁괴롭
▁써먹
▁구출
▁종점
▁써서
▁메모리
▁딜러
▁전시
▁유희왕
전자
▁유행
▁대량
▁밝히
▁71
▁스톤
▁68
▁아무것
▁전역
▁달린
▁이시
▁MAX
디아
▁KT
ith
▁an
▁보물
▁부위
▁열리
▁출력
▁AK
▁드러내
▁이즈
▁챠
▁97
▁귀여
▁감사
▁세월
▁눌
▁통상
성기
▁문장
▁에다
▁걸어
▁객
▁창조
▁밝혀졌
▁스킨
웨어
▁감염
거운
▁해체
▁흠
▁으론
▁차라리
광역시
▁대립
▁맞이
▁제이
▁당선
▁시즈
▁주소
ast
▁도서관
EM
▁북미
▁댓글
▁핸드
▁기독
▁매직
▁밀어
펙트
▁이란
▁께
▁보일
▁기습
▁들이
▁베트
▁대략
▁하야
▁공학
▁하필
▁호평
▁살려
▁상당수
▁일어났
end
▁험
위대
▁조지
▁썬
og
▁중화
▁은하
톨릭
▁73
▁부문
▁US
▁스튜
▁플레
▁빗
레이터
▁거짓말
▁서부
▁1995
▁이슬람
▁리얼
ew
▁제주
▁사신
▁리치
▁인증
▁융합
▁돼지
▁김정
던가
▁무료
▁그랬
▁멕
▁대충
▁종이
▁는지라
▁통한
▁멀쩡
▁넌
라이언
▁용사
▁물러
▁빡
▁신성
▁둥
▁결말
▁추격
요시
▁올라오
▁고백
▁타마
▁회원
시오
▁라이프
▁번개
▁꺾
▁모바일
▁점차
▁유이
▁외교
▁앱
▁세이버
▁결론
▁육체
▁무너
▁편지
▁녹음
▁이자
▁줘야
▁부리
▁메시
▁관객
▁67
▁입수
▁음성
▁그럼에도
▁퀄리티
▁앵
▁수련
▁오카
▁엔터
▁붙이
▁신인
▁갤럭
▁기원
▁야스
▁타점
▁죄다
▁블로그
▁긍
▁향상
▁특화
▁예비
미야
▁가톨릭
▁던져
▁공급
▁만났
▁ff
▁78
▁정복
▁요코
▁너무나
▁가속
▁81
▁He
▁;
▁그곳
▁아기
▁기독교
▁유로
▁조치
▁슛
▁느리
▁기병
▁콘서트
▁츄
▁올렸
▁단일
▁음반
▁카타
▁위장
▁싸울
듀서
▁프로듀서
▁동화
av
▁냄
▁헨
▁캐스팅
▁협회
▁가게
▁THE
▁맘
버트
▁반발
리그
▁전달
▁소화
▁세우
▁192
▁훗
▁프라이
▁펀치
▁주전
▁현역
▁고용
▁썩
▁JR
▁가량
▁무효
▁피부
레나
▁아우
▁뭉
▁180
▁신기
▁마리아
▁과목
▁국군
▁나갔
▁가상
▁91
▁갤럭시
▁마키
PM
▁게스트
▁블리
▁비해서
▁루시
▁옮겨
▁일원
▁진심
▁웹툰
▁횡
▁올랐
▁꼬리
▁국회의원
▁입구
ly
▁세이브
나무
▁어울리
▁파란
▁}
▁오후
▁리스트
▁HD
▁신규
▁넘기
▁문학
▁뜯
▁마리오
▁태그
▁메타
▁기사단
▁더라
어날
▁수집
▁바리
▁홍콩
▁조심
▁부수
▁임시
▁이득
se
보드
▁심판
OT
▁청년
▁자라
▁울산
▁SD
▁전면
▁후기
▁250
▁내구
▁제어
▁고문
▁연구소
▁섀
▁파리
▁신라
▁전하
▁베스트
▁내장
쟁이
▁몰려
▁1994
▁람
▁돌아온
▁침공
▁대개
IS
▁켈
▁보낸
▁84
▁한지
▁길드
BO
▁부부
▁쿼
▁수영
아웃
▁잡지
▁립
잡이
▁구멍
▁지능
AC
▁의무
▁뼈
▁여론
▁상점
티나
▁MV
▁인공
▁파트너
▁영토
▁나간
▁넘겨
▁톱
▁이뤄
▁카스
▁육성
▁아일
▁여지
▁기종
▁j
구치
▁강의
▁된다면
구리
▁헤비
▁도우
▁작화
▁자매
▁비싸
▁손가락
▁슬롯
▁어른
▁한번
▁지휘관
▁최소한
▁정면
▁SN
▁경상
코토
▁터키
▁연인
릭스
▁일반인
▁낸다
▁본작
▁타이거
▁한마
▁예능
크스
▁쿠키
▁연타
▁디지몬
▁Ar
▁노부
▁인근
▁사우
▁Le
▁어린이
▁MC
▁감시
▁다룬
▁헤이
FC
호사
▁아시
브리
▁무언
▁명중률
▁외전
▁성과
▁가볍
▁살리
▁De
▁파견
▁에드
▁방사
▁체인
▁식사
▁교전
▁인지도
▁나뉘
▁대항
▁여유
▁69
▁오랫
▁190
▁소형
▁특집
▁결승전
▁왕조
▁불린다
▁82
▁회차
▁는다면
▁포탑
▁더더
▁시내버스
▁라면서
▁어지간
▁에서부터
▁클리
▁안경
▁아바
▁다를
▁사도
▁아니면
▁쏴
▁터치
▁86
▁기초
▁규칙
▁한동안
▁고지
가미
바라
▁연락
▁도망치
▁아닌가
▁허나
▁대폭
▁PD
▁실버
▁반사
▁강남
▁더더욱
▁해적
▁잦
▁요금
▁트윈
▁이루어지
▁합쳐
ry
▁아쉽
ES
▁협박
▁져서
▁국어
▁합성
▁왈
▁차단
▁림
끄러
준다
▁전성기
▁레이스
▁매니
▁동부
▁컬러
▁is
▁다닌
▁의상
▁AI
▁스페이스
▁절대로
▁떨어졌
▁국방
▁한참
▁첨
▁고수
▁분량
▁속하
우드
▁소지
▁주포
▁재미있
▁렛
▁괴수
▁의료
▁다면서
▁경기장
▁드림
▁휴대
▁고르
▁좌우
▁튀어나
▁입단
▁비아
▁안티
▁체포
▁버스터
▁{
▁로즈
▁프로필
▁돕
▁다스
▁다이아
▁럭
▁아빠
▁어릴
▁치명타
▁천재
▁핫
오프
▁보냈
▁비행기
▁수십
▁부서
▁감옥
▁예고
▁캐논
▁인정받
▁가시
▁허리
노스
▁대가
▁웅
▁다섯
▁for
▁멍
▁누나
▁블록
▁외치
▁히메
▁걸린
▁구체
으면
▁GS
▁식물
▁스미
▁농담
▁처벌
▁영문
▁카츠
▁깡
먼트
▁주말
▁''
▁챕
▁도달
▁민주당
▁한마디
▁쉴
▁갈수록
▁일자
▁트랜
카드
▁일제
▁무언가
ity
▁목격
▁수수
▁아즈
▁로우
▁끈
▁지우
▁불법
▁취하
▁체크
▁신호
▁FI
▁합격
▁시마
▁임명
시로
▁뷰
▁취미
▁이지
▁널리
▁그동안
▁뺏
▁멘탈
▁해리
▁챕터
▁대지
▁드레
▁귀신
▁레이드
▁92
▁아름다운
▁양쪽
▁크라
▁자치
▁마비
▁싱크
▁기아
▁트레이드
▁찾아가
▁안내
▁110
▁김영
▁구속
▁재현
▁세워
▁뚜
▁오사카
▁상성
▁적대
▁셨
▁소원
▁으려고
▁AR
▁컨텐츠
▁봇
▁전신
▁오랫동안
▁복무
▁be
프레
닉스
▁의뢰
▁끌려
▁돌아다니
고속
▁취향
▁홀로
▁모모
메달
▁훗날
▁할아버지
▁구사
▁캐나다
▁까다
다리
▁안드로이드
▁상업
▁개체
▁씹
▁촌
남도
▁94
▁느라
▁일격
▁하얀
▁북부
▁지도자
▁글로
▁개량
▁결코
▁스턴
페인
▁79
▁회상
▁죽인
▁으니까
▁캠퍼스
▁죽일
▁깨닫
▁예시
▁상급
▁일시
▁퀴
▁수용
▁입히
▁전후
▁투어
가시
▁이식
▁비싼
▁빨라
▁바퀴
▁모조리
▁잡혀
▁줄어
▁명성
▁93
▁딩
▁디지털
▁IC
디언
라드
▁원본
▁클래식
▁경고
▁베트남
▁받아들이
▁삼진
치기
▁노인
▁83
▁플로
▁데드
▁귀찮
▁도발
시코
▁갇
▁미묘
▁각자
▁랭킹
▁포트
▁몰라도
▁SC
▁FA
▁일기
▁조성
▁공지
▁마린
▁박정
밀리
OM
▁빚
▁바위
▁축제
▁구원
▁어스
ass
▁팬덤
▁수익
▁정비
▁영향력
▁토르
스탄
▁700
▁꽂
▁누리
다이
▁긍정
▁편입
▁어떠
▁미라
▁태어난
▁별다른
▁헤어
▁외형
▁유대
▁트로
▁집어
구려
▁곧바로
▁승격
▁튼
▁접속
데스
▁룸
▁인하
▁거인
▁파츠
▁스승
▁방지
덜란드
▁89
▁네덜란드
her
▁ffff
▁커스
▁연료
▁유니폼
▁청소년
▁내성
▁GB
▁남겨
▁바이러스
▁노벨
▁개성
▁형사
▁자국
▁전멸
▁아케
▁유통
age
▁우라
▁이길
▁돌아왔
임스
▁건축
지로
▁스틸
▁어드
▁무덤
▁시계
▁무라
▁곁
▁메뉴
▁들어갈
▁깜
▁CC
▁보안
▁하우스
▁OST
▁레이더
▁리듬
▁헛
▁햄
▁환영
▁이명
▁정찰
▁87
▁투구
▁칩
▁성별
▁로고
ide
▁펫
▁이내
▁이터
▁나치
ID
▁딘
▁주식
▁쉐
▁나눠
▁니코
▁논리
▁ffffff
▁단장
▁사정거리
▁메르
▁개방
▁못할
▁패널
▁부작
▁그건
▁GT
UN
▁릿
▁이영
▁맞서
▁대인
▁마침내
▁자세히
VA
▁소중
▁타인
▁보석
▁DS
▁오타
▁이날
▁윌리
▁연금
▁호주
▁드라이브
ark
▁코미
▁톰
▁자금
▁저장
▁과연
▁오스트
▁블러드
▁쵸
▁식당
▁김태
▁Tr
▁빌드
▁오가
▁곽
세스
▁스키
▁인격
▁생략
▁원소
▁놀이
▁KIA
▁학부
▁의존
▁적혀
▁극복
▁우연히
▁똥
▁계통
▁마이클
▁와이
▁플레이오프
▁예측
▁주역
▁찔
▁제임스
▁몰랐
▁어마
▁전문가
▁전진
▁맥스
▁계단
▁나타난
▁탄창
▁나간다
스키
▁미술
▁인연
▁플랫
▁WW
▁무릎
▁이브
▁사이버
▁스트라이크
▁어째서
▁트럭
▁악당
▁위하
ep
▁충성
▁호텔
▁골든
▁개정
ax
▁휘두
▁나갈
▁판매량
▁조언
▁아일랜드
▁타로
▁준수
▁소위
▁제갈
▁대처
▁캠페인
▁테츠
▁사형
▁덧붙
▁탱커
▁좌석
▁연예인
▁캡틴
▁보관
▁기적
ire
▁On
▁차기
▁차트
▁사제
북도
▁무방
▁내세
▁접촉
▁1992
▁유치
▁독특
▁봐서
▁실전
▁구경
▁끄
▁원수
▁on
▁거치
▁화제
▁램
▁모토
▁용기
ood
▁저작
▁올린
▁기도
▁포스트
ge
▁그로
▁학자
▁피스
▁CPU
▁시선
▁혈액
▁결성
▁단편
달리
▁펼쳐
가스
▁고스트
▁스마트폰
▁록맨
덩이
▁하루카
일드
▁어두
▁특전
▁네오
▁헐
▁길이
▁숭
ect
ust
ock
ob
▁몰락
▁데몬
▁흐름
▁조연
▁피격
▁뭘
▁일으킨
▁커리어
▁화학
▁강원
고리
▁호위
▁내려가
▁호감
▁인조
▁냐며
▁아키라
AD
▁커피
▁발달
▁제작자
▁툴
▁왠지
▁드럼
▁오크
나미
스턴
▁저렴
▁후배
▁우위
▁타락
▁슈팅
▁1993
▁하차
▁생명력
▁찌르
▁모여
▁본체
▁놔
▁들어온
▁딴
자드
▁텐데
▁아이스
▁130
아지
▁처형
▁내지
▁하락
▁숨겨진
▁스텔
▁신설
▁됩
▁가짜
▁삐
▁냄새
멘트
▁증오
▁장악
▁자전
▁지경
▁초보
▁it
▁파크
▁결전
▁후방
▁아마도
▁중독
▁소스
▁다름없
▁그러니까
▁IS
▁해상
▁둘째
워크
▁음모
▁카와
▁국립
▁고작
▁원주
▁북쪽
▁닫
▁활성
▁아티스트
▁익스
▁들리
mer
▁미터
▁일람
▁금속
▁위상
▁심해
▁돼서
▁Be
▁사라진
▁라기
▁SM
▁트랜스
팩트
▁닭
▁쳤
▁공무원
▁계정
▁무지
▁컸
▁일본인
▁포수
▁외계인
▁가루
▁핏
▁AM
▁신부
▁뜬금
양함
▁.."
▁플래그
▁됩니다
▁업적
▁상하
▁패션
▁루타
▁시노
▁과제
▁모를
▁폴란드
▁인민
▁포로
든지
▁투명
▁선전
▁갈리
▁일족
▁표지
▁남쪽
▁자폭
▁미스터
▁동굴
▁약해
▁디스크
▁싸워
▁눌러
▁보라
▁세르
▁구나
▁쌍둥이
▁강도
▁찢
▁음원
▁펄
▁아저
▁터널
▁주사
▁행보
▁로리
네스
▁치킨
▁|
▁동력
몬드
▁EN
▁Te
▁바이오
▁아쿠
▁me
▁금융
▁열쇠
나카
are
▁아저씨
▁무척
▁잉글
▁기동전
▁에리
▁편곡
▁정차
▁캐리
▁비상
▁넉
▁차이점
▁면모
▁신비
▁자막
▁지라
▁체중
▁아이언
▁간신
▁노르
▁연령
▁트라이
▁부각
▁웃음
▁개수
VD
▁1988
학자
▁적응
▁라이온
▁히어로즈
▁심심
▁으라
▁완결
▁썰
▁팽
▁격추
▁적당히
▁이집
▁공룡
▁신지
▁줄이
카리
▁이집트
▁바라보
▁흡혈
랑이
▁헬기
▁최신
▁멕시코
▁101
▁.....
▁보고
▁Me
▁정글
▁쏠
▁일방
▁상술
iv
▁액티브
▁의혹
그마
▁벌레
▁도라
▁할머니
▁인치
CG
▁승객
▁후계
▁과장
▁볼넷
▁제작사
▁부장
▁미즈
ance
▁개입
▁색깔
▁일찍
▁ch
▁나츠
▁담배
▁SR
▁튕
▁잠수함
▁칭호
▁돋
▁코인
▁갈라
▁으러
▁@
▁교황
▁저녁
▁로그
▁첼
▁스터
▁십자
▁위대
▁엿
▁리타
▁예언
▁시아
▁리온
드러
▁귀환
▁팀원
▁냥
특별
▁총알
▁후술
▁불타
▁방출
▁각본
▁정착
▁새벽
▁소라
▁클레
qu
▁공성
▁식량
▁느낄
▁흥미
▁부른
▁해피
▁이중
▁도끼
▁리오
LL
▁까진
로디
▁마디
US
iz
our
ound
▁곤란
▁식민
▁라이플
▁모래
▁걸쳐
라기
▁My
▁이루어진
▁넥센
▁스튜디오
▁페이즈
ord
▁광역시
이너
▁원칙
▁화성
▁신사
▁네트
▁동의
▁멈추
▁깔끔
▁악명
팡이
▁무렵
▁수장
▁이정
▁교류
▁밝혀진
▁꿀
▁마약
▁사후
▁어판
▁정발
▁재산
▁호기
▁활발
▁손해
▁태어나
▁반동
▁노란
▁ㅣ
▁칭찬
▁구석
ime
▁이노
▁고도
▁XX
▁1970
▁토끼
▁들여
▁오라
▁상관없
▁항공기
▁증언
▁하단
▁애플
▁쓸모
▁레슬
ix
▁새끼
▁제트
▁풀리
▁Cl
▁녹색
▁바깥
▁주일
▁사막
▁애정
▁비주
▁Com
▁부러
▁동인
▁원자
▁토론
▁바꾼
▁뱀파이어
▁드롭
▁크리스마스
▁펌
▁상한
▁중국어
우마
▁내보
하면
▁배터리
▁미안
▁상기
▁자극
▁1991
▁도주
▁잠재
▁대리
▁막대
▁수류
▁흑인
▁그레
▁천하
▁부지
pe
▁리플
▁이드
▁태평
▁턱
▁내주
▁루카
어마
▁정원
▁줘서
▁흐르
▁MVP
▁엔젤
▁추구
▁주기
▁물려
▁SE
▁작곡가
다란
▁나아가
▁최다
▁빛나
▁채우
OP
▁모노
▁올해
▁포항
▁어마어마
▁배트맨
▁팬텀
▁이재
▁흔적
▁펑
▁엑스트라
저스
▁얻어
▁강자
▁상실
▁그럭
▁더군
아리
▁궤도
▁호칭
회사
▁동쪽
▁국왕
▁남긴
저럭
▁첩
uc
▁이익
▁클릭
▁고구려
▁강요
▁할인
▁충실
ite
▁스웨
▁무서운
▁AD
▁그럭저럭
▁분대
▁마이너
▁거듭
▁용량
▁불교
▁가동
▁화장실
▁참모
▁용서
▁막차
▁승점
▁플래시
▁언더
▁시합
▁거미
▁면역
주시
▁지켜보
▁켜
▁포격
▁뿔
▁느린
▁흘리
▁아쉬운
▁기숙
▁CV
▁시라
▁코코
▁히나
▁결합
▁탈퇴
▁소대
▁남녀
▁스즈
▁아이콘
▁저질
▁에다가
▁수류탄
▁신앙
OW
▁무술
▁160
게임
▁김동
▁숙련
▁예산
▁앨리스
▁관중
▁타율
▁짜증
▁140
▁기생
▁미키
▁온다
▁테라
▁이토
▁입지
▁쫓아
▁SH
▁의회
▁옳
▁향하
▁혐오
▁오늘날
▁등지
▁나리
▁채워
▁런던
▁자책
▁아메리카
▁구슬
▁적군
▁루수
▁넘치
▁입대
▁잡히
▁오직
ure
▁따온
▁디젤
▁잡아먹
▁BPM
▁윌리엄
▁성립
사관
▁가요
▁매장
▁든다
▁예수
▁도박
▁아츠
▁간접
▁종목
▁잉글랜드
▁통산
▁일본군
▁공방
▁단행
▁백성
▁망했
▁영구
▁교차
▁기여
▁문구
▁남겼
▁하향
▁가해
BA
▁동급
OD
▁벌어진
▁우에
▁900
▁지뢰
▁기구
▁형상
▁사키
▁모니
▁써야
▁공공
▁구글
▁나타난다
▁DVD
▁딕
▁덩치
▁부자
▁출구
▁포켓몬스터
▁실망
▁낚시
▁클랜
▁1989
▁그대
▁어려워
▁존재감
▁힙
▁지르
▁백인
▁철권
여객
▁말투
▁간신히
▁하이퍼
▁$
▁윗
▁제약
▁가라
▁야마토
▁Pr
▁본다
▁피터
▁아미
▁금방
▁나마
▁올라왔
▁Wh
▁소유자
▁연합군
▁어려움
▁민첩
ake
▁일치
▁오마
▁들려
▁서쪽
▁크림
머스
▁언젠
▁Pl
▁이겨
▁망치
▁이스라
▁KR
▁Ex
▁상인
▁기관총
▁권한
▁Un
소녀
▁주간
▁초인
▁쭉
▁Pro
▁가져가
▁내전
▁만날
▁이슈
▁일대
▁몽골
RE
▁추억
▁천만
▁뎀
▁어리
▁챙겨
▁가하
▁동성
▁힌
▁중량
▁근본
▁단단
▁칼날
베르
▁본사
▁매년
ION
▁쓰였
▁유독
▁의외로
▁사유
▁글러
▁늘어난
▁아랍
▁마신
▁총리
▁개혁
▁싫어
▁이젠
다나
▁법률
▁포드
▁임팩트
▁지위
▁그렇지만
▁난입
▁순환
▁나타내
▁호수
▁가벼
▁심사
▁RPG
▁평생
▁콜라보
▁와타
▁화물
▁건조
▁알려졌
▁분신
▁가만
▁선택지
▁NE
▁괜히
▁침략
▁도망가
▁수비력
▁시공
▁모자라
Hz
▁원하
▁이끄
▁망가
▁리드
▁메이드
▁스크린
▁재단
▁인종
▁간지
▁유물
▁상식
시즈
은행
▁커녕
▁명확
▁타선
▁믹스
▁세븐
▁뛰어넘
보이
▁개막
특별시
▁통치
무시
▁스탠드
▁집착
oy
▁합의
▁비스
▁전동
▁반전
▁연극
▁소장
▁생존자
▁협상
화점
▁란스
▁몰라
ows
▁색상
▁히가시
▁메달
▁스펠
▁죽였
▁놨
▁맛있
▁세종
▁정통
▁기숙사
▁악기
사자
▁뿜
신교
▁Gr
▁변호사
ud
▁너희
▁양성
▁읍
▁이스라엘
▁였을
▁그랜드
▁잔뜩
▁서울특별시
IG
▁서구
▁딜레이
▁with
▁히토
OC
▁유적
▁항복
▁브루
▁크리스탈
▁휘말
▁승률
▁재정
▁센스
▁메리
▁암시
▁복선
▁개업
▁복지
▁집행
▁곡명
▁울프
▁일화
▁렐
▁영주
랭크
▁스팀
티아
▁이른
▁기인
▁BL
▁느낀
▁어렸
▁엘리트
▁걸맞
▁두들
▁복구
▁성남
▁무시무시
▁임신
▁총선
▁고위
▁사라진다
▁카카
▁교과
▁부딪
▁단축
▁휩
▁출입
▁동양
전차
▁김종
▁정수
▁갖춘
▁나선
▁코난
▁구축함
▁급격
▁무역
▁열매
▁포르투
▁KOF
▁체육관
▁정치인
데레
부로
orld
▁자전거
▁타쿠
▁부를
▁기량
▁말리
▁레지
▁상단
▁비례
▁빠졌
▁더군다나
▁수출
▁스트리트
히코
▁he
▁채택
▁105
▁따라가
▁불사
▁고로
▁구리
▁경직
▁치즈
▁진보
▁했으니
▁라인업
▁꼼
▁당일
▁캘
▁김민
▁살펴
▁존경
▁간단히
▁미나미
▁들어서
▁생긴다
▁확대
▁피할
▁태어났
▁BS
▁대단히
▁쟁
▁금액
▁재밌
▁이펙트
▁도둑
▁적합
▁부스터
▁누적
▁강점
▁철저
▁굿
▁칼리
▁갈아
▁넘버
▁챌
▁사이코
aw
▁사살
▁국판
▁어딘
▁코리아
▁War
▁사령부
▁허락
▁정화
▁상호
▁화재
▁전이
▁싸웠
▁에로
▁커다란
▁뻗
▁통계
라이트
▁후손
▁유학
▁혹시
▁서포터
데이
▁제독
▁이혼
▁시켜서
▁OVA
▁EP
▁ED
▁스파이더
▁스폰
▁이민
ace
▁키타
▁반해
▁콜로
▁메시지
▁우정
데드
▁메이플
▁썬더
▁못지
80
▁CG
▁끔찍
▁잃어버
▁치유
▁권리
▁대거
▁DD
▁후계자
▁수백
▁철수
▁한쪽
ave
▁자이언츠
▁언데드
▁수명
▁간간
▁수능
▁원문
▁Love
ame
▁멋진
▁분명히
▁대수
▁사원
▁마블
▁가을
▁검술
▁기갑
▁겹치
▁면허
▁가공
▁부적
▁업계
아키
▁토마
▁토너
유럽
▁마법소녀
▁까이
▁우르
▁탄환
▁주택
▁구할
▁루이
▁우타
▁노가
▁변환
▁독재
▁능력자
▁숨기
▁가르쳐
▁드라이버
▁어라
▁매니저
▁히라
▁해머
▁오락
▁개신교
▁피아노
▁1987
▁언스
▁알렉산
▁맷
▁천안
▁LV
▁루나
▁나루토
▁라니
▁지불
▁다닌다
▁실존
▁트롤
▁하츠
▁소음
▁초간
▁코멘트
▁박물
▁제정
▁삽입
▁자본
▁워크래프트
▁생명체
▁유효
▁올라온
▁오랜만
▁크레
▁거울
▁쓰러뜨리
▁동명
▁토시
▁귀여운
▁전라
▁WWE
▁기용
▁싹
포트
ice
▁3000
▁마코토
▁기울
▁202
▁해안
▁곳곳
▁중립
로나
▁타운
▁나타났
▁휘두르
▁언젠가
▁세인트
ies
▁배역
▁약화
▁시위
▁잘라
▁프리미엄
chor
▁캐치
▁그래서인지
▁륜
데미
▁폐쇄
▁걸린다
▁인질
▁결투
▁마스크
▁파생
▁쓰러뜨
▁서서
▁감각
▁원조
▁보험
▁만남
▁Wind
▁우월
▁중첩
▁구미
자와
▁루비
▁중세
▁지리
own
IM
▁다녔
▁대왕
▁모이
▁뮤지컬
리온
▁원리
▁플러스
▁sh
▁실종
▁무관
반도
▁큐브
▁요약
▁주자
▁취약
▁레딧
▁지팡이
▁철학
▁려던
▁스프링
▁리스크
▁리카
▁충청
▁기동성
▁챈
게이
어진다
걸이
▁체인지
▁둠
▁성전
▁킬러
▁아카데미
▁엔드
▁워커
▁코믹
per
▁니스
▁토너먼트
▁결심
▁이겼
▁보드
▁일으켜
▁드래프트
틀러
▁전파
▁니혼
▁유산
▁리프
▁내렸
▁??
▁여객
▁방위
하시
▁더빙
▁무공
▁신나
▁정기
더라
▁TVA
ath
▁사야
TE
man
▁KBO
가드
▁딜링
▁날짜
▁하마
▁anchor
▁아닌데
▁중형
▁de
▁왜곡
▁카트
▁속한다
▁나기
▁호시
▁나미
▁시크
▁배포
▁보충
▁도적
▁스트레스
▁돌입
▁허가
우치
▁틸
▁시바
▁추종
▁관점
▁인디
운서
▁해병대
▁티켓
▁개시
▁연패
▁아나운서
▁시원
▁알아보
▁부실
▁휘하
▁억지로
▁가려
▁베타
▁사명
▁장탄
▁와일드
▁PV
센트
▁측정
▁대학원
▁여우
시스트
▁보완
▁보인
▁필리
▁고장
▁떠올리
▁저택
▁떠났
ere
old
▁복제
▁빌려
▁We
▁중시
▁AS
▁걸렸
▁유격
▁헌법
▁PR
▁1986
▁마우스
▁고개
▁장거리
▁승무원
▁파이트
▁후자
▁용인
술사
카이
▁야구장
▁시외
텐도
▁조리
▁닌텐도
▁무인
▁네트워크
▁ID
▁수호자
▁사귀
▁관할
▁분당
▁토미
▁받아들여
▁셜
▁악화
▁인피
▁주둔
▁박물관
▁혐의
▁불량
▁언덕
▁이글
리나
▁당대
▁벌어졌
▁사인
▁라라
10
▁희귀
▁기뻐
▁서클
아나
▁아끼
ick
▁조약
▁막내
▁잠입
▁엄밀
▁연고
▁단원
▁캠프
▁식민지
▁미네
ber
▁".
▁커서
▁문단
▁톨
▁우치
▁모로
▁은지
▁세운
▁쿠라
▁넨
▁법원
▁여전
▁늘어났
▁유니크
▁기묘
▁롬
▁유발
▁기상
▁세포
▁오키
▁페널
▁치르
네임
▁기운
▁깨달
▁기름
▁만만
▁학력
▁럼
▁->
▁씌
▁얀
▁다이아몬드
▁쓰러지
▁방송국
▁지칭
▁데이트
▁엑시즈
▁들어왔
▁취임
ory
▁김대
▁인방
▁인용
▁카구
▁버드
▁살아가
▁남매
▁연맹
GE
▁스웨덴
▁지진
▁벨트
▁포위
▁로얄
래시
▁코마
▁단행본
▁즈음
▁반부
ov
▁오메
부르크
▁고증
▁택시
▁가죽
▁해치
▁교도
▁아르헨
▁레일
▁친한
▁채보
▁프라임
▁매번
▁흩
▁근거리
▁AKB
▁웰
TS
▁거점
그나
▁자비
▁머물
▁멜로디
▁울트라맨
▁법정
ond
필드
▁배달
▁중장
▁면적
▁진압
▁캐스터
▁파르
비드
▁냐면
▁줄어든
▁분쟁
▁도루
▁my
▁디즈
▁아테
▁공수
▁어딘가
▁쏜
▁GP
▁선행
▁이주
▁신도
▁도저히
▁준우
▁En
▁케이드
▁레알
▁아르헨티나
▁이수
▁방어구
프리
▁CJ
▁저지르
▁일당
▁휠
▁굵
티스
▁독일군
▁득표
▁행방
▁새롭
▁실은
▁아인
▁웨이브
▁중복
▁스텝
▁차체
시타
▁FIFA
▁올릴
미니
ream
▁드릴
▁라틴
▁참석
▁혈액형
크로
▁아이러
▁케인
▁연승
▁휴식
▁소요
▁호랑이
▁균형
▁전승
▁답변
블린
▁시로
▁유인
▁헝
▁퍼지
카락
▁암살자
▁미쿠
▁머리카락
ah
out
▁릴리
▁갤러
커스
▁법칙
▁공인
▁미만
▁한두
▁사라져
▁Dr
▁본진
▁용자
▁189
▁DC
▁셔틀
▁왜냐
IP
▁꿰
▁오전
▁wh
▁비전
▁코트
세서
▁무작
▁주류
바닥
▁1500
란다
▁신데
▁이온
타카
▁kt
▁질투
베스
▁창원
ost
▁관람
▁첫차
▁무사히
▁발렌
▁포탄
▁스위치
▁로이
▁바뀐다
▁중력
▁슬라이
▁솔직
▁마계
▁이걸로
▁전제
▁노려
렐라
▁벼
▁피닉스
▁에반
▁토키
▁학기
▁초록
▁\
▁규격
▁전주
런트
▁챌린
▁리뷰
▁트리플
▁에르
▁영원히
▁주차
▁침입
▁던가
▁쇼크
▁격차
▁이어서
▁토벌
러그
▁유력
60
▁통틀
▁루머
▁쪼
가리
▁장인
▁평일
▁트루
▁어두운
UM
▁시너지
▁에이지
▁김재
▁훼
LE
▁교실
▁1985
▁항의
리스트
▁블라
▁드래곤볼
▁쓰여
▁클론
▁앞두
▁남북
▁닛
▁남아
▁식품
▁재회
▁조커
혀서
▁밝힌
▁For
▁포르투갈
블로
▁소방
테르
▁스태
▁글로벌
▁비주얼
▁긴장
▁인력
▁전무
▁오디션
▁니아
▁공업
▁창고
▁안개
▁합병
▁집어넣
▁스테이션
▁경로
▁박근
▁김경
▁은신
▁감지
▁개설
▁돔
▁공허
▁베기
▁정황
▁조기
ile
▁구름
▁논쟁
야수
하르트
▁진학
▁법인
▁파동
▁달라지
▁1984
▁선고
▁아동
▁넬
▁보이스
▁노바
▁이종
▁아틀
▁아가씨
▁히로시
코드
▁감동
▁트릭
▁백화점
▁탐정
▁배수
▁신전
▁주행
▁양반
▁호흡
▁유성
▁막판
▁난사
쿠라
▁무스
▁유미
▁다녀
▁쓸데
▁통화
▁버려서
▁토크
▁확장팩
▁어필
▁제네
▁처지
▁어뢰
▁토니
▁세웠
▁우즈
ont
▁하수
▁시카
▁코르
▁가방
▁어이
▁소송
▁옮기
▁안녕
▁왕위
▁떠난
▁윈드
번에
▁달하
▁범죄자
▁골라
▁단종
▁찾아보
▁여주
▁베리
그리
▁특별히
▁신용
▁배드
▁프란
▁위성
▁과도
▁감상
▁마물
▁역명
▁변태
▁수염
▁신자
ome
▁카더라
▁메이커
▁보존
▁급행
▁요인
▁비유
▁바디
▁자녀
세대
▁학습
▁이루어져
▁5000
▁김현
▁놓치
▁장미
▁It
▁막상
▁분열
▁갑작
▁생년
▁스쿨
▁벙
▁수면
▁께서
정부
▁직장
▁개발자
▁내려오
투스
▁제갈량
▁손오
키지
아이
▁명의
▁백제
▁야쿠
▁추세
▁나폴
▁비웃
▁과학자
노리
▁서포트
▁의학
▁선보였
▁정예
▁두들겨
▁Star
▁창단
▁에디
▁경기력
▁발굴
▁성당
▁FM
▁패키지
▁영광
▁스캔
▁잉여
▁태평양
▁임금
▁진주
▁노스
io
▁광선
▁아이러니
▁섀도우
▁운동장
▁극히
타입
▁가디언
▁신발
▁팟
▁성질
▁귀엽
▁프론
▁DE
▁세라
▁진급
▁최상위
▁극도
▁1960
▁체감
▁무너지
▁기력
▁상관없이
▁얻어맞
에이
▁SNS
▁매니아
▁카운트
▁106
▁기재
▁만일
▁유재
▁서서히
▁복합
▁건가
▁라이온즈
▁준우승
az
▁오노
▁룩
▁오우
▁ww
▁스타리그
▁쇼핑
▁국경
▁늘리
▁판결
▁러시
▁대책
▁리라
▁오스트리아
▁비틀
▁물량
▁여인
▁우유
▁양자
▁대치
▁루스
사기
▁EZ
▁산하
크라
▁로버트
▁탐험
▁라즈
▁프린세스
▁공정
▁타이거즈
도르
▁대조
▁걸즈
▁커지
▁170
불명
▁손상
▁위엄
▁아요
▁행운
▁윈도우
▁로보
▁시상
▁늙
▁사관
▁야수
▁우주선
벌레
▁처참
▁피트
▁도감
▁리즈
▁Fl
▁티아
▁관계자
▁샌드
▁느려
▁워치
▁통로
▁가만히
▁헷
▁해골
▁출격
▁장로
▁풀려
▁데빌
30
▁와카
▁정하
능력
ian
▁여학생
▁플라이
▁천연
▁체험
▁무산
▁상담
▁퇴장
일보
▁불행
▁엘리자
▁바스
▁조상
▁www
▁콤비
▁맡기
▁증상
▁Station
▁하프
▁야간
▁Sc
▁뜬금없이
▁띠
▁AN
▁데모
릴라
▁사족
▁상륙
▁이긴
▁키라
ade
▁소프트웨어
▁오염
▁Or
▁친해
▁포장
▁쳐서
▁약물
▁고객
▁흔한
▁빙판
▁손오공
▁오로지
▁경주
▁쳐들
▁함부로
▁LC
▁자르
▁투스
저기
▁간주
▁캐시
▁세뇌
▁끝난다
▁결제
▁흡사
▁중고
▁려다
▁태클
▁Fate
▁디바
구미
▁심의
▁철거
▁연봉
▁즉사
▁타수
▁스핀
▁여기저기
▁고인
▁몫
▁Go
▁불렸
▁캣
▁묘하
▁출간
▁날카
구나
▁백작
▁마케
▁베테
▁마유
▁위반
▁본토
▁이웃
▁끊임
▁모터
▁포터
▁파편
▁아바타
▁원피스
▁사립
▁처분
▁루크
▁렌즈
▁파란색
▁난무
▁네요
▁당당
▁아시안
▁배정
▁키워
▁CF
▁비극
▁시온
▁가리키
▁콘솔
▁올라갔
▁뱃
▁되살
▁Br
▁저지른
▁수색
▁SF
ason
토스
▁후미
▁역습
▁동아리
▁불펜
▁브로
▁가까워
▁실상
▁Windows
▁샤이
▁대령
▁폐기
▁해킹
▁후퇴
저리
▁혜택
▁파멸
▁비스트
▁BR
▁지향
▁줄여
키아
40
▁창작물
▁니콜
▁악몽
▁교장
▁이와
▁경악
▁명목
▁시신
▁지력
▁즉위
▁맥주
▁여야
메이
▁유전자
▁쌀
▁나스
▁코미디
▁흔하
베이
▁동남
▁이타
▁추리
▁도장
▁시트
어놓
sh
▁거북
도리
▁동경
▁막히
▁상사
▁여럿
▁바꿀
먼스
▁쉬워
▁장사
▁프로토
▁짐작
▁대포
▁스포일러
▁경남
▁125
▁전동차
▁조우
▁타르
▁권위
▁핑크
하마
▁엄격
▁반박
▁키보드
▁스러워
▁휴가
▁JP
카이도
▁교단
비전
▁CH
▁뒤늦
▁제왕
▁선조
▁모음
▁물체
▁기둥
▁헨리
▁창설
▁샷건
거지
▁막강
▁거친
불호
▁혼돈
▁호불호
▁양손
▁UN
▁조종사
▁디즈니
▁기세
▁케이블
▁360
tle
▁들어올
▁한반도
▁손실
▁신입
▁구르
ug
▁신데렐라
▁교토
▁타석
▁폭파
▁원곡
▁스테이
▁얽
▁정교
▁야생
▁발행
▁OP
▁LA
▁최적
▁공세
렉스
▁나노
▁옹호
▁승차
▁노조
▁배출
▁트라우마
▁흰색
▁낙하
▁장탄수
▁프레이
▁노가다
▁고리
▁축복
▁내일
▁지냈
▁포즈
▁풋
던지
▁https
우리
▁광장
▁베네
▁개국
▁임대
▁히틀러
▁호소
▁채팅
▁띄우
▁부착
▁츤
▁지선
▁근원
▁대전차
▁여파
▁오이
▁하급
▁근접전
▁스트라이커
▁복원
▁표면
▁기장
▁어쩌면
▁디오
▁미오
▁모스
▁버섯
▁회색
▁명백
▁응용
▁프랑스어
▁메일
▁엇
▁BE
▁세팅
▁조별
▁무섭
▁승자
▁패밀리
▁대시
▁생길
▁곱
▁텍스트
▁관우
▁벌였
▁유언
▁전락
▁커스텀
월일
▁유기
▁방치
ach
▁구동
▁여고
천시
ower
▁바지
▁실사
▁배려
▁터져
나기
▁대접
▁첼시
▁뽀
라딘
▁장신
▁드문
▁비명
▁잠실
▁굴욕
▁개장
▁전북
▁루이스
MP
▁솜
▁궁금
▁타츠
iss
▁올스타
▁되게
▁반감
▁이순
▁물고기
▁디시
▁출루
▁미국인
▁투척
▁열혈
▁의해서
▁소용
▁돌아와
▁Wi
▁통칭
▁좌절
▁초능력
▁발라
▁장성
▁브레
▁생년월일
▁밍
▁김상
▁부작용
▁일으켰
▁양상
▁이라크
▁저하
▁며칠
▁탕
▁았었
▁먹히
▁시인
▁팡
▁마드리
▁뻥
▁꽉
▁카자
▁카리스
▁합리
▁갚
▁진격
▁마드리드
▁여타
▁결계
▁간간히
▁논의
▁싼
▁틴
ash
▁미루
▁그날
▁동해
▁이글스
▁근대
▁선사
▁엽
지막지
▁무지막지
▁발목
▁약자
▁스나이
▁스태프
▁갑작스
▁민주주의
▁축하
▁그램
▁여러분
▁수월
▁엎
▁마감
▁약탈
▁긁
▁빌딩
▁가난
ARD
▁정반
▁센트
▁지인
▁려다가
▁상영
▁스케일
▁공백
▁해명
▁기수
▁공대
▁깜짝
▁스노
▁올드
▁1982
ook
▁집권
▁성씨
▁퍼포
▁아스카
산역
▁퍼포먼스
OU
▁인자
ial
▁기본기
▁드러났
브라
▁설령
▁대차
▁수동
▁세금
사이
▁사이클
▁모빌
▁브라운
▁비치
▁하인
▁사악
▁진이
▁우세
▁로이드
TV
▁조용히
▁가벼운
▁마트
▁생전
▁다운로드
▁하하
▁박살내
▁실책
럼프
▁레온
포르
▁떠오르
▁고소
▁살펴보
▁텟
▁최우
돌이
▁칭하
▁손꼽
▁중동
▁한창
▁매달
▁구별
▁노동자
ps
▁조롱
ann
▁대박
▁강렬
▁라우
버그
▁개별
▁그만두
▁wik
리안
▁후일
▁이누
▁독일어
▁올라간다
▁나나
▁금메달
ss
란히
▁엄밀히
▁특급
누스
▁시외버스
▁꼬마
▁라크
철도
▁로빈
▁보건
▁소니
▁성경
▁폴아웃
▁닐
▁지녔
▁단검
▁시달리
▁교복
▁폭행
▁오메가
모함
▁MB
▁1983
▁왼손
▁슬로
▁여의
▁삼각
▁라이너
으로
▁스즈키
▁권장
▁대선
ky
▁훈장
▁검찰
▁페널티
▁감수
▁분해
▁이용객
▁우드
▁선보이
▁명문
▁조명
▁에픽
센스
irl
▁친하
▁불쌍
▁그레이트
▁선제
▁형편
▁업로드
▁몰리
▁에요
▁음료
역사
▁엔지
▁쏟아
▁Mk
▁마도카
▁전격
▁비서
ib
▁독점
▁유망
▁인권
바야
70
▁마땅
▁사사
하나
▁튕겨
▁스피릿
▁토요
▁CS
▁산탄
▁웨스트
ish
▁원전
▁페이스북
▁your
▁혀
▁닝
▁제물
숭이
▁건국
▁명사
▁직선
▁포획
▁사나
▁유혹
▁호크
▁선진
▁온도
▁항구
▁후임
▁강간
▁세부
▁아스트
▁GO
▁위안
▁고속도로
▁지사
▁트랩
▁에릭
▁that
▁늘려
▁벡
▁상반
▁공통점
▁타가
▁수직
▁카를
▁루프
▁찾아볼
▁PP
▁발리
▁가질
▁각오
▁그거
▁질병
▁중지
▁도트
▁쫓겨
rom
▁학생회
진호
▁구장
▁팁
▁혈통
루미
▁찬스
▁블레이
▁페리
▁츠바
차기
▁후원
▁잔인
공항
▁추방
▁끼치
▁조이
▁주니어
▁오죽
라노
▁신선
▁엄연히
탐정
▁맞춘
▁평양
▁본다면
▁경부
▁김해
▁항공모함
▁술사
▁물품
▁후회
▁le
▁범용
▁적중
어내
▁샵
▁부동
▁털리
블리
▁ON
▁타치
orm
게이머
▁프로게이머
▁유나이
▁푼
▁될지
▁검열
▁원한
▁매드
▁지워
▁Ne
▁고치
▁축소
▁거론
▁고무
경기
▁베테랑
▁진상
▁라스트
▁동행
▁붙인
▁스와
▁하치
▁관찰
▁토요일
▁압권
▁헷갈
▁ML
▁루피
▁선두
▁원더
▁즐겨
▁강원도
▁증폭
▁괴롭히
▁나빠
싱턴
▁마카
▁메리트
▁350
▁땡
▁스컬
▁레인지
▁가르치
▁다거나
▁유나이티
▁극한
▁일어날
▁허무
▁젖
▁쓰인
▁흡혈귀
▁논문
▁기후
▁주체
▁지연
▁김기
▁스폰서
▁하반
▁킷
사리
▁이어받
▁원형
벤처
우트
▁{{
▁부임
▁성배
▁SKT
테일
▁어드벤처
이치로
▁합동
▁장난감
▁스리
어졌
▁트윈스
▁교과서
▁변이
▁인칭
▁출마
▁영지
▁TR
▁골렘
▁자꾸
에르
▁줌
▁경전
▁요한
▁쿠데
▁하여
구장
전설
▁친절
▁치우
▁굴러
▁유의
▁중순
▁지목
▁쿄코
▁메트로
▁고마
▁권유
▁쨩
▁도색
▁유출
▁{{{
▁운수
amp
▁표절
▁역량
▁결혼식
▁시리아
▁퍼져
▁바나
▁해양
▁블로
▁구성원
▁유니버스
▁슌
▁붐
▁치열
ft
▁UE
▁나르
▁피카
▁타이탄
▁뉘
▁해져
▁절차
▁저렇
▁돌아간다
▁히든
▁어색
▁쿤
싸움
▁베어스
▁전망
▁친다
▁햇
▁쿠마
▁변해
▁초콜
루션
▁!"
트론
▁보라색
버려
▁휘둘
마크
ype
▁자아
▁우익
▁특공
▁다이스
▁사무라이
▁따왔
▁취업
▁담긴
▁찾아오
▁빈도
▁생김
▁베인
▁시게
▁우울
▁폴리
▁코스튬
▁소서
▁여단
▁마술사
▁헤르
으므로
▁Mar
▁박근혜
▁의자
배우
▁과자
▁끓
▁긴급
▁컴뱃
▁이럴
▁엮이
▁고는
▁동대
▁튼튼
▁우회
▁막아내
ous
▁사와
▁버스트
▁뱅크
▁서기
▁수급
▁토라
▁유료
▁수습
▁사투
▁손자
▁줄거리
▁강호
▁관여
▁어설
▁페르소
▁동서
▁카네
▁캄
▁다큐
▁안양
TR
추어
▁기호
▁카시
▁by
▁애칭
▁유탄
▁청주
▁ex
▁히스
시대
▁동점
▁공용
슈타인
▁이케
▁침묵
▁토우
▁리나
▁명단
▁해라
▁고블린
▁터스
▁새겨
▁나이프
▁히카
▁아닐까
▁풍부
▁학문
▁LP
▁중상
▁징역
니시
▁해요
▁유전
▁가오
▁키를
▁나비
▁순양함
▁쳐들어
▁고스
▁보호막
▁센서
▁Sup
▁관통력
플레이
▁드레스
▁광명
▁정사
▁규제
▁내린
▁오스만
!!
산시
▁젼
▁대성
▁가진다
▁퍼즐
▁인재
▁GSL
승부
▁we
▁돌아갔
▁일요일
▁주어지
▁이놈
▁짙
▁선장
▁아무튼
▁겔
FF
바나
▁전생
▁불능
▁웜
▁호드
▁의장
▁싫어하
▁촉수
▁침대
▁끌어들
▁배제
▁분산
▁페어리
▁기스
▁스플
▁마인드
▁bl
▁평행
▁앰
키퍼
▁포스터
▁싸운
▁우승자
▁트레이너
▁도리
▁눈치채
▁미미
▁오브젝트
▁인과
▁챙기
▁꼽히
▁큐어
▁태국
▁팰
▁후반기
▁러스
▁동반
▁도어
▁백업
▁페르소나
▁평상
▁102
▁관측
▁프렌
▁라든가
도전
▁특별시
▁시모
▁메카닉
▁정석
▁출산
▁카마
▁서바이
▁준다는
ey
▁철갑
▁기르
▁낭비
베리
▁부스트
▁빅토
▁안심
▁크라이
필더
▁미드필더
▁스위스
▁날씨
▁신속
ING
▁모집
▁왜냐하면
▁시비
▁III
▁수석
▁짐승
▁현금
폭탄
▁강림
▁관리자
▁IM
▁시상식
▁워리어
▁이어진다
▁아케이드
▁지부
▁참가자
▁드러난다
▁취득
▁안타까
하루
▁모은
▁박지
▁더럽
▁벤치
▁스탭
렉션
▁모에
▁라가
▁연산
▁패전
▁모니터
AK
▁World
▁겹쳐
▁모험가
▁무한도전
▁피로
▁일가
▁껍
▁골키퍼
▁유우키
▁넘어갔
▁성실
▁공감
▁화해
▁리모
▁통째
▁레이디
▁김용
▁대위
▁냉정
▁마타
▁만주
▁유재석
NA
▁조카
▁시그
▁플랜
▁블리자드
▁쳐도
▁처하
▁대세
▁차리
▁친분
▁느꼈
워즈
▁원판
▁원주민
대사
▁장타
▁들어와
▁워프
▁스피어
▁자네
▁화산
▁옐
der
▁강사
▁최저
▁잊혀
oll
▁슬라
▁리틀
▁품질
▁카리스마
▁따뜻
▁쿼터
ink
▁변했
▁포병
▁작년
▁명분
▁미인
▁New
▁뜬다
▁을수록
▁역임
▁All
▁변장
▁아아
▁프리미어
▁고쳐
▁111
▁스기
▁se
▁방송사
ET
붙이
코트
▁익히
▁생체
▁뱅가드
▁거둔
▁미소녀
▁al
▁강등
MS
▁절친
▁사무소
▁OG
▁카지
▁미지
▁당사자
▁단발
▁후드
▁슈퍼맨
▁가져오
▁호러
▁108
▁흑역사
▁노란색
▁옴
▁광산
▁감싸
항공
▁싸이
▁영양
페라
▁DP
▁다닐
▁하나하나
▁스미스
▁사로
▁생애
▁유카
▁붓
▁자제
▁빨간색
▁여포
▁선임
▁IN
▁잡아
▁쿠데타
▁오지
▁아닌지
▁착한
▁호남
▁단기
▁무용
▁재개
▁리버스
▁애인
▁장판
▁몰살
▁국무
▁무도
주교
▁봉쇄
▁유입
▁샐
▁워즈
▁SU
▁태우
▁각지
▁출판사
▁오즈
▁안쪽
▁소모량
이나
▁깨지
▁스네
▁Season
▁클린
▁루리
▁배운
▁스런
▁장례
▁OS
▁써도
▁동정
▁연쇄
▁방사능
▁자존
▁트릴
▁쫒
▁디펜
▁마모
▁바르셀
버리
▁바르셀로나
▁항해
▁코스프레
▁un
▁국제공항
▁폭스
당초
모스
▁레이어
▁발급
▁정해진
▁리안
▁마오
▁115
▁마운
▁임기
▁망하
▁마음대로
▁해질
▁수인
▁전당
▁아님
▁와인
▁실현
▁자칭
페이
▁워싱턴
▁유망주
▁김포
▁향한
▁건데
▁리처
▁위원장
▁불태
▁해산
▁워크
▁국장
▁스티븐
▁멋대로
▁미러
▁고등학생
께끼
▁수수께끼
네마
▁엉망
▁안타깝
▁수위
▁끊임없이
▁부근
▁가져다
▁병역
IX
▁카레
시고
▁트론
▁MF
▁그치
▁카쿠
▁렘
▁왕복
▁퍼스트
베이터
▁레이지
▁곡인
▁오니
▁게이머
▁강했
▁제출
▁멍청
▁아베
▁어벤
▁시크릿
▁데이비드
▁민간인
▁깐
▁공단
▁찾아내
▁브레이커
▁마그
▁사리
▁데려가
▁스탈
▁맞붙
▁자책점
DX
▁동속
▁스텔스
▁끼워
▁고집
▁침투
▁흔들리
▁디자이너
버렸
셔널
▁구형
▁드로우
▁메이지
▁바치
▁굴리
▁문재
▁철저히
▁끌어올
▁요미
▁닦
▁작정
35
▁으려는
▁1950
▁할리
▁1981
▁확산
▁라이징
▁우호
▁DF
동자
▁원시
▁탐지
▁날뛰
▁lv
▁양식
▁방탄
▁목사
▁만능
▁파울
▁맞춰서
▁경호
▁얇
▁이라도
▁투쟁
▁존스
▁개구리
▁정반대
▁어째서인지
▁쿠리
▁후유
▁And
▁생김새
▁능가
▁터보
▁188
▁기부
▁힙합
ank
▁수지
▁펼쳤
▁부원
▁미르
▁NM
▁이룬
▁첫째
▁BGA
▁엣
▁z
▁종영
▁간섭
▁전남
▁치안
▁엔지니어
ai
▁렉스
▁할까
틀랜드
▁농장
▁디아블로
▁산맥
▁함장
▁세자
▁정신력
▁동전
▁To
▁라그나
▁실체
▁그랑
▁아수
▁쇄
▁비추
▁1979
▁자사
▁브라이언
▁머니
▁중위
▁카피
▁어원
▁엘레
▁알렉스
▁압력
▁카게
▁이스트
▁변동
▁매그
▁군부
▁부숴
MAX
▁로맨
▁애완
▁px
▁함락
▁부스
▁실내
▁리본
▁몸통
스티벌
▁페스티벌
▁니트
▁거지
▁토지
저래
ary
▁닷
▁대역
ero
▁원숭이
나베
▁광기
▁오렌
▁하스
▁물자
▁재학
비치
바야시
▁가이아
▁유비트
▁뻘
▁스나이퍼
▁시골
▁틀린
▁종결
▁앗
▁sp
▁폭격기
▁다카
▁세리
▁운송
▁김준
▁모형
▁올바
▁템플
▁고가
▁얄
▁신하
▁나폴레
▁헬멧
▁무거운
아시아
▁이어졌
▁트랜스포
▁Cr
▁Bo
▁오더
▁트레일러
IVE
▁아자
▁쿠스
바이트
▁마하
▁사야카
▁크레이
▁광경
▁예약
▁건네
▁훔쳐
바지
▁삽질
▁전향
▁이즈미
▁납득
▁그러므로
▁계층
▁베를
▁티스
▁여섯
▁테스
▁줍
▁실시간
▁변한
▁퍽
▁홀드
▁입주
▁이래저래
▁사수
그러
▁금발
▁달인
ng
▁죄책
▁쿵
▁나폴레옹
▁마미
▁반역
▁세로
▁스카우트
▁압축
레븐
▁출범
▁어나
▁입문
▁시사
▁잔혹
▁UEFA
네시아
▁탐색
운수
▁민폐
▁주관
▁오른손
▁움직일
리드
▁지로
▁ㅋ
▁RA
▁Vol
ife
▁학대
▁펌프
▁찾아온
ich
▁통솔
▁항모
aster
▁겜
▁고고
▁콘텐츠
▁기질
▁밀도
▁임의
끼리
▁대타
▁덧붙여
▁죄책감
▁128
▁바이올
▁플라스
▁영감
▁소금
▁깃발
▁반짝
▁이른바
▁젬
▁부유
▁쿠사
▁짬
그라
▁Day
ree
▁이모
다보
▁이소
▁스크롤
▁기껏
▁강경
▁김유
▁두려워
▁표기법
▁군수
▁무승부
ons
▁나요
▁드론
▁황당
▁물어
▁아지
▁도덕
▁Ad
▁파도
▁배울
▁감탄
▁친척
▁서적
▁캡슐
▁트리거
▁수비수
▁소생
▁en
▁열렸
▁초콜릿
▁커플링
▁젤리
▁마산
▁엘리베이터
▁고사
▁흑막
▁괴로
▁망토
▁갈색
▁대행
▁부재
ans
▁파스
▁신중
▁챔프
▁관장
▁닉네임
▁너스
▁직통
▁위로
▁착륙
▁알바
▁되돌아
▁라이언
▁벌인
▁인해서
▁기다려
▁스파이더맨
▁실적
▁물러나
▁시시
▁김진
▁깨끗
▁호의
▁강대
▁매출
▁간판
리얼
부키
▁화기
▁아픈
▁그란
▁하사
▁승진
▁일렉
▁수라
act
▁김일
▁고아
▁입시
▁엘리자베스
▁개척
▁GD
▁즐길
▁프랜
▁외국어
pl
▁가령
▁러쉬
▁버틸
▁마피아
▁서방
▁힐러
▁예의
▁그쪽
▁육상
▁스타즈
▁손쉽
▁트랜스포머
▁아오이
▁아이디어
▁WC
▁방학
▁애용
뜨려
▁깊이
린다는
렉터
▁김치
▁퇴각
▁공산당
▁판도
▁나뉜
▁페어
▁련
▁케빈
▁레아
▁카이저
▁선로
▁정문
▁목걸이
▁리리
▁스가
▁챌린지
▁미궁
ase
▁덩어리
▁죠죠
▁창문
▁오다
▁왕비
▁츤데레
▁매트
▁잃어버린
▁출혈
▁성분
▁코토
▁슬픔
▁이오
▁극대
▁지수
▁마케팅
▁신작
▁예쁘
▁하도
▁다가오
▁아리아
▁마라
고속도로
▁탭
▁시뮬
▁감자
▁만점
▁미녀
▁검증
12
▁발레
▁어나더
ple
▁존중
▁적절히
▁침몰
uk
▁AA
▁워터
▁필리핀
▁카리
ear
▁스타워즈
▁놀라운
▁사로잡
▁앓
슬라
업자
▁IIDX
▁리사
▁고시
▁와이번
▁달라진다
▁으신
▁머스
▁가이드
▁어이없
▁리퍼
▁혼혈
▁이병
▁사촌
▁쉴드
▁오페라
▁가위
▁--
▁제노
ment
어트
▁김수
▁NBA
무지
▁오락실
▁AV
▁츠카
▁으라고
▁자이언트
▁잡아내
ction
▁괴인
▁변명
▁토대
▁굽
▁리버풀
▁구상
▁던지라
▁나섰
▁섞여
▁질서
▁드루
▁박자
▁레이븐
▁뚱
▁주축
▁현자
▁라이트닝
▁천국
▁이어져
▁DM
▁원로
▁쿠니
▁중거리
▁고의
▁치카
▁매각
▁우마
▁외곽
버린
▁크래프트
▁뿌려
▁타일
▁시타
▁연수
▁최선
▁노부나가
▁소꿉
▁우루
▁쫄
▁왕실
▁합작
▁구조물
▁샀
▁마에
▁무제
90
▁모임
좀무
▁tv
▁흠좀무
▁팔리
▁아카네
▁로키
▁우연
사랑
▁마기
▁부사관
▁타이어
▁감당
▁만렙
▁총합
▁레이블
▁여주인
▁Part
▁도심
▁화폐
▁박수
▁복사
▁라미
▁찌질
▁개명
▁물려받
▁유머
▁유연
▁편리
▁샬
▁바쿠
▁장애물
▁올라갈
▁공속
▁라인하르트
▁모델링
▁톡
▁호리
ool
▁연구원
▁밝혀진다
▁도쿠
▁일일
▁승인
▁놀랍
▁등극
▁초상
oon
▁오케
▁잭슨
▁지분
▁버거
▁변한다
▁우측
▁적자
▁해운
▁One
ode
▁출동
▁황후
▁런처
▁명장
▁글씨
▁사천
▁실용
▁자존심
야스
▁노릇
▁둘러싸
▁전지
▁표적
번트
▁카카오
▁at
▁220
▁속한
▁보좌
▁웨폰
▁경찰서
▁전날
▁103
헤이
▁준다고
▁포탈
▁스카웃
▁교리
▁마야
▁재건
▁직책
▁아사히
▁테이블
▁175
▁삼성전자
▁참사
▁천천
▁각도
▁선동
▁약혼
VER
▁체결
▁듀오
▁본능
▁어시스트
▁명대사
▁서번트
▁레코드
▁무녀
▁이카
▁힘입
▁240
▁변수
▁ES
▁오역
▁워드
▁뮌
▁부천
▁마찰
▁모듈
▁모순
▁FF
▁그릇
▁전담
▁졌으며
▁Ap
▁넘쳐
▁자력
▁1945
▁돌연
▁중부
▁저질렀
▁건드리
▁사연
▁가담
▁암호
▁너머
프리카
▁네티
▁이무
▁아마추어
▁오토바이
▁떴
▁서식
▁아담
이동
▁무능
▁보가
▁완공
▁아수라
▁검정
▁쓰리
▁LO
▁싱가
▁싱가포르
▁수천
▁점유
▁평상시
▁서열
▁첸
▁씻
▁민감
▁해소
▁답답
▁패자
▁사법
▁에미
▁구울
IR
▁싸운다
▁아까
라이언스
들이
▁아드
▁NH
▁이단
▁미남
▁신동
▁얼라이언스
▁모종
깨비
▁리코
▁마일
▁알레
▁베스
▁벅
▁확신
▁유가
려고
▁Sw
은색
▁말기
친구
▁견해
▁해전
▁대동
▁미쳐
▁사치
▁브라더스
▁탔
▁농업
▁어려웠
▁흙
▁오공
▁요격
▁보직
▁홀리
▁CM
▁마을버스
▁선출
▁몸매
▁철도역
▁프로스트
▁열정
▁함수
▁브래
▁잠들
▁아유
▁본관
▁천천히
▁일관
▁퇴치
▁다가가
▁화상
▁리믹스
▁기차
▁트로피
▁온천
▁타카하시
▁천장
▁어려울
▁그라운드
▁사무실
bs
▁한꺼
▁한꺼번에
▁소우
▁테일즈
▁발판
▁타우
▁아르바이트
▁입자
▁크로우
▁못해서
▁맹세
▁이경
▁공신
▁남동생
▁박정희
▁비리
▁떠난다
▁nd
▁접하
▁오로치
▁일리
▁평론
▁발명
▁바둑
▁소마
▁이어진
▁전법
▁일체
▁SA
▁재수
▁로프
▁레귤
▁테리
▁다간
사와
▁레나
▁부속
워프
▁가히
▁보편
▁산타
▁툭
▁트래
▁어드밴
마루
▁테란
▁후쿠시마
▁케리
▁스트리
▁카테
▁소나
▁자키
▁장벽
▁리처드
▁헬리
▁라마
▁휴먼
▁112
▁단역
▁보로
▁기리
▁이오리
생활
▁오렌지
II
리스타
▁머무
▁펭
▁상냥
▁정점
▁억울
ike
yle
orn
▁너클
atch
▁Man
▁모스크
▁렀
▁기동력
▁Up
▁베를린
▁떨어질
▁유격수
▁최상급
운동
▁갇혀
▁세일러
직자
▁흉악
▁천지
▁아레나
▁지혜
▁네티즌
▁위해선
키스탄
▁협정
ence
▁시카고
▁로스트
▁었었
▁탄압
▁서울대
▁에메
슬러
▁메구미
▁마스코트
▁필름
▁에디션
▁인접
▁노아
▁모아서
▁곤충
▁상무
키리
▁미아
▁서류
▁이순신
▁EC
▁거든
▁용이
우라
스크림
▁피자
▁일어난다
▁클리셰
▁일어
▁태워
▁다시금
▁퀵
▁로크
▁지장
▁혁신
▁마틴
▁소득
▁입증
들리
▁이나마
▁NO
▁솔저
▁저글
▁인문
▁작위
▁연동
▁국도
▁시오
▁매주
▁욕설
▁슨
▁옥상
▁산다
▁홋
▁잡힌
▁면제
▁레이싱
▁까마
▁인피니티
hen
▁상주
▁선박
▁일명
▁해냈
▁엉덩이
▁회담
▁도르
▁계수
▁손님
▁장남
▁레귤러
▁밀레
ens
▁이영호
▁격려
▁1978
▁키요
▁탈취
▁바꿨
▁루미
▁사회주의
▁강민
▁지터
타이
▁신한
▁이빨
iver
▁팬티
▁와타나베
now
타운
ph
▁Ed
▁수신
▁얼티
▁헝가리
구니
▁실린
▁GM
▁미노
▁페이크
니코
▁정밀
▁트윗
▁히카루
박스
▁백만
▁부패
▁과시
▁페스
▁아쿠아
▁청춘
▁드워프
▁섬광
▁공격수
▁펴
▁내보내
▁로라
▁물리치
▁USB
▁크롬
▁선거구
▁얹
▁연설
▁재앙
▁아포
▁스티브
▁게끔
▁리가
▁멘붕
▁트럼프
▁댐
▁장본
▁일곱
▁So
▁퍼펙트
▁과언
▁프레스
▁귀국
▁사방
▁IT
▁점검
▁저글링
▁발사기
▁일컫
▁파운드
▁배구
▁시호
▁학사
민주
▁궁합
▁스틱
▁임진
▁오만
pt
▁달려들
▁쯔
▁에드워드
▁미성
▁블럭
▁절단
AP
▁녹화
▁전송
ail
▁석유
▁Mag
토니
▁그레이드
▁펑크
▁마당
▁슬러그
▁두드러
▁소꿉친구
가루
▁이현
케이션
▁대해선
▁보낼
▁공헌
ork
▁솟
체스터
▁날아오
▁얌
▁골프
▁박명
▁제치
99
▁RE
▁인명
▁충족
▁습니까
▁장본인
▁신곡
▁희생자
ition
▁뜨거운
▁한정판
▁야망
▁노린
▁구로
▁테크닉
라미
▁주사위
▁맞먹
▁Super
▁봉사
▁까다롭
▁학년도
▁이니
▁돌아갈
디움
▁테니스
▁오사
▁보우
▁토큰
▁빠져나가
▁엔트리
덕션
▁up
▁퀴즈
▁OCG
▁웃기
▁말려
▁스칼
▁억제
▁자루
스카
▁이대로
▁리부
마리
바람
▁시간대
▁무식
▁무비
▁위시
▁풍선
▁화신
아치
▁주최
▁Fr
▁Ph
▁흥분
▁히사
세지
▁BD
▁환생
▁루마
▁박성
▁한가
▁네크로
▁DJMAX
▁유동
▁카오루
▁당초
▁십시오
▁호무
▁감추
▁제재
▁카인
▁코레
▁pl
▁스모
▁정성
▁도깨비
▁모의
방송
▁대학생
▁자포
▁마지
▁굶
끄럽
▁킴
▁가설
▁라이즈
느리
▁제리
▁질주
▁그러면
▁김성근
▁편의점
▁광물
▁벙커
▁아리스
페이스
▁TP
▁에일리
▁군데
▁찬양
볼루션
▁프로그래
▁신관
▁유즈
▁강전
▁방심
▁스윙
▁던진
▁부끄러
▁터졌
▁라이센스
수리
▁과일
▁조화
▁중기
▁동성애
▁김승
▁떠돌
▁쌓이
▁비단
▁기술력
▁내기
▁스콜
▁씨앗
▁저상
▁목욕
▁이이
inal
▁고우
▁보르
▁무실
▁플레임
▁라오
▁갖춰
▁소재지
▁두꺼
▁인벤
▁대검
▁이호
▁직행
AY
▁대면
▁보낸다
▁스타트
모습
▁찔러
지능
서스
▁인공지능
▁경북
▁계략
▁평판
▁선회
▁123
▁리뉴
▁국토
▁반도
▁날린다
▁부드러
▁아랫
▁코끼리
▁발각
▁시종
▁초록색
▁급격히
▁국방부
▁재질
▁타키
▁이리저리
usic
▁캘리
▁게르
▁야마모토
ble
▁인듯
▁실려
▁지루
▁레버
▁맷집
▁숙청
▁뺨
▁롤러
▁즐거
▁제니
▁104
▁줄여서
te
▁교대
나와
▁병과
▁번지
▁유아
▁일산
▁프롤
▁스마일
▁치바
▁DPS
▁일러스트레이터
바리
사르
보기
▁도미
▁짠
▁멧
▁Qu
▁칼라
▁중원
▁밀리언
▁포크
▁무자
▁Dream
▁나락
▁쥰
▁프로덕션
▁안겨
▁이윤
▁리츠
▁문양
▁소소
▁109
▁1973
본다
▁대명
기에
▁김두
▁are
▁원화
▁들으면
▁완성도
▁토마스
▁스코틀랜드
▁일레븐
전사
▁차림
▁배웠
▁헤일
▁다지만
▁의의
▁분홍
▁카제
▁아무렇
▁진동
▁흉내
▁스타디움
▁벗겨
▁케이크
▁도대
▁수중
▁히드라
▁지오
▁난리
▁세키
▁끝날
▁거꾸
▁아냐
▁트러
▁강릉
▁오타쿠
▁무신
▁까다로운
▁과격
▁완화
▁명시
▁제너
▁사이토
▁총장
▁발전소
▁강인
▁동구
▁여태
▁이력
▁샘플
▁휩쓸
▁아름답
▁집계
▁가져온
▁135
▁레슬러
▁이쿠
▁중점
▁악행
▁에버
▁쥬얼
▁Mi
▁상금
▁날렸
▁앤드
▁여주인공
▁피오
▁침착
▁공교
▁튀어나오
▁도배
▁스토어
▁나뉜다
▁자율
▁바이크
▁관료
▁순천
▁때려잡
▁올라와
▁뚜렷
▁사가
▁155
▁속해
▁여장
드립
▁학위
▁인도네시아
▁카토
▁하이드
▁단련
▁울리
▁짝사랑
▁라이드
▁갸
▁갱신
▁리볼
▁무궁
▁무늬
▁이대
▁외야수
▁젝
▁다케
▁독보
IK
▁남한
▁관문
▁친애
▁반경
▁중견
▁항공사
▁쓰러진
▁버텨
▁뮌헨
테이션
▁스탈린
▁킹덤
▁몰아넣
▁변함
히토
▁갯
▁국정
▁조립
▁각인
방울
▁슬퍼
▁챔피언십
▁이듬
의자
천사
▁강타
anc
▁거스
▁태권
▁제의
▁완구
▁모욕
▁툰
▁체코
▁발키리
▁지면
▁해태
▁달려가
▁한다며
▁공산주의
티니
▁휴게
▁AB
▁사체
▁이틀
▁반성
▁심히
▁당해서
▁정전
▁깨어나
▁스페인어
의회
▁부가
▁교도소
▁피우
▁팍
uck
▁천상
▁연기력
▁퓨전
▁휴대폰
▁켄지
▁손잡이
TA
▁스로
▁찰스
▁방언
▁185
▁거꾸로
▁1200
쿠스
▁도스
▁내게
▁여겼
IL
못미
▁아이즈
▁지못미
▁배리
▁아타
▁스파크
▁내외
▁울음
▁지온
PER
▁명탐정
▁MM
▁ㄷ
ise
▁극심
▁go
▁비키
▁멋지
▁신주
▁중구
▁AL
▁보강
▁무작위
▁썸
▁성지
▁wiki
무이
▁지크
▁교역
▁1974
▁중소
▁냉장
▁민국
▁유라
▁UP
▁도대체
▁바인
▁들키
▁끌려가
▁꾀
▁Ver
▁밀어내
▁실리
▁하수인
▁개판
▁기관포
텍스
▁HE
▁둘러보
▁경사
▁릴리스
▁뤼
▁시안
▁강동
▁세츠
▁시네마
▁묻혀
▁창세
스티스
▁나이츠
▁필사
▁기행
▁예고편
▁늘어난다
▁포니
▁간파
▁입사
▁iOS
▁잼
▁초등학생
▁단자
▁알아내
▁찬성
▁부채
▁섞인
▁이계
▁부제
▁심정
▁피치
▁향후
▁패왕
▁레슬링
▁엉뚱
▁으려면
▁해져서
▁DI
▁아폴
▁MG
▁tr
▁격렬
르타
▁도약
▁야마다
▁장갑차
▁좌측
▁유니콘
▁소통
ung
▁견디
리칸
▁JT
▁코노
▁망설
▁종전
▁버블
▁나인
▁보스턴
▁사천왕
▁주석
▁진단
▁이듬해
▁극악
▁헤라
에른
▁그간
▁유능
▁분할
▁노무
▁깽
▁장풍
▁공격기
▁미유키
▁르노
▁왓
멘터리
백과
▁훼손
▁눈앞
▁성대
▁아울
▁테이프
▁은폐
▁깡패
▁노하
▁배급
▁껴
▁비참
▁결과물
▁내각
징가
▁가구
▁신생
느님
vel
▁마징가
▁신학
▁동아시아
▁놓여
파이
▁CL
oun
▁CR
▁폐선
▁덤벼
▁채찍
▁서머
▁충고
▁하느님
▁빈약
▁107
▁반장
▁주술
▁날카로운
▁양대
▁중공
▁급하
▁래퍼
▁자산
▁벨기에
11
▁유스
▁유메
▁대등
▁욕망
▁소비자
oo
▁186
▁재벌
▁BB
▁카사
▁불길
▁Team
사벽
▁넘사벽
▁플리
▁왕족
에몽
▁중국인
▁as
▁헥
▁김병
▁정형
▁초과
▁다큐멘터리
▁먹여
▁할로
▁그렸
▁모시
▁인성
은이
▁리우스
보우
▁모른다는
▁레시
▁브레스
▁진짜로
▁모기
▁119
▁미판
▁이선
▁와이번스
▁이념
▁모인
urn
▁망명
way
▁냅
▁산소
▁눈동자
과이
▁탐사
▁후대
▁엠블
▁케리건
▁바이에른
▁잎
▁모던
▁스노우
▁인텔
▁취재
▁홍진호
▁all
▁원작자
▁조국
▁챔스
▁필립
▁나카무라
▁1975
▁파괴력
구역
▁주유
▁Black
▁상부
▁no
▁사지
▁주입
▁주저
진영
▁집사
▁얼티밋
▁낮추
▁신조
▁오퍼
▁주머니
▁망상
▁일례
▁제발
노스케
▁116
▁대피
▁더러운
▁냉동
▁용산
▁출고
0000
세서리
▁숙련도
▁성사
▁도사
▁추후
▁쓸데없이
▁식스
▁사나이
뜨린
▁말년
▁이원
▁LTE
▁적힌
▁협조
▁소령
▁남학생
▁문재인
▁근로
gh
▁주교
▁시범
▁청룡
▁수립
▁조던
▁날아다니
▁그쳤
FL
중간
▁델타
▁Col
▁저항력
▁메테
속기
ale
▁187
▁충격파
더링
▁피난
▁유치원
▁어벤져
▁높여
▁비자
▁병행
▁다치
▁에코
▁욕심
▁욱
▁순정
▁math
▁재즈
▁혼동
▁구호
▁독백
▁절정
▁통틀어
▁고래
▁터진
▁do
▁트러블
▁Night
티어
▁다투
ject
시티
▁만지
▁FPS
▁종착
▁떨어져서
▁금강
▁대목
▁아처
▁입원
▁직위
▁(
▁베어
▁퇴역
▁MO
▁종로
▁리볼버
▁절벽
▁고립
▁HS
▁동사
▁ERA
▁요코하마
▁해고
ier
▁앨런
▁그루
▁경상북도
▁이른다
▁플라스틱
▁키드
▁투니
▁리플렉
▁앞선
▁급속
▁한양
▁저스티스
▁두목
▁오를
▁중화민국
▁병장
▁판다
ult
▁연전
▁내린다
▁Type
▁시켜야
돌프
▁TS
▁마가
▁손목
▁중년
상가
▁~"
▁쿠바
▁포도
▁부시
▁중심지
키스
▁게리온
▁마작
▁시어
▁재배
▁not
메다
▁연간
▁질풍
▁750
▁니코니코
▁방공
▁동계
▁본질
▁말씀
▁왕가
▁저격수
▁용암
▁오른팔
사스
▁영등
▁완벽히
▁지나친
▁122
▁띄워
▁막혀
▁적립
▁Girl
들목
▁불문
▁퍼시
▁누스
▁투고
▁시달
▁113
▁나들목
▁이만
▁국기
▁그려진
▁지극
▁격투기
▁헐크
니발
▁섭취
▁포착
▁오른다
▁노블
▁빙의
▁레인보우
▁실로
▁강탈
▁초청
▁올린다
슬링
▁떨어뜨리
▁까마귀
▁카즈야
▁약칭
▁꼼수
▁집필
▁사투리
DD
▁미코토
▁일까
▁이용자
▁야전
▁존슨
▁파인
▁제자리
▁미식
▁인체
▁일각
▁평택
▁홋카이도
▁전수
▁1977
▁ㅇ
▁스나
▁희대
▁유카리
▁내역
▁옵티
▁탈환
▁하후
다드
▁공짜
▁하지
▁핑계
▁1976
ose
▁불참
▁승패
▁사탄
▁합계
▁두루
▁뛰어들
▁공명
▁Gam
▁빼앗기
▁염두
▁위함
▁beat
▁안젤
▁점심
▁베이비
▁450
▁대교
▁인플
▁144
▁정조
▁퉁
▁Con
▁교향
▁4000
▁캇
▁MSL
▁민중
▁크롤
▁한나라
▁차장
▁올라간
▁일조
▁훈훈
자치
▁숭배
ox
▁호구
▁오딘
성이
▁노라
▁미트
▁뮤지션
GA
▁로렌
▁한나라당
▁팜
▁동상
▁이태
▁돌아올
▁딥
▁히로시마
▁검토
▁드러난
▁무실점
네이터
▁브레이브
▁키로
▁Do
▁행진
▁도마
▁도검
▁토오
▁320
▁제인
▁Max
▁터뜨리
▁래스터
▁쿠르
▁리터
able
▁무지개
▁리셋
▁더구나
터스
▁대인배
▁철갑탄
킨다
▁틀리
▁의정부
뮤직
▁벌써
▁누이
▁위쪽
▁우린
▁냉장고
▁ne
▁걸려서
▁경지
▁단총
▁Op
▁사내
▁한다거나
▁서치
▁키노
▁동인지
▁부산광역시
ron
▁세례
▁배신자
▁김광
▁속편
▁하행
very
▁화약
▁아랑
▁벗어난
▁동호
▁립스
▁측근
▁EV
▁사퇴
▁처녀
▁각국
▁맞물
ign
▁패미
▁145
▁기원전
▁바른
▁152
▁교차로
▁패트
int
▁토가
▁계곡
▁응급
▁OF
▁스톡
고사
PA
▁제주도
▁레이너
▁박살나
▁주식회사
▁사물
▁평점
▁콰
사고
▁맹독
▁텔레포트
▁해선
▁베이징
▁원자력
▁상행
▁후쿠오카
태자
▁월간
▁조교
▁사직
▁내뱉
▁액체
▁삿
▁노골
▁사소
▁BC
▁사일
▁치러
▁수하
▁일품
▁총사
▁신세계
▁참으로
▁데미
▁전도
▁회관
▁청나라
큘라
▁수감
▁자켓
▁미칠
▁황혼
▁테러리
▁버림
▁타구
▁패닉
EL
▁초필
▁마주치
▁아슬
▁마초
▁솔직히
▁편한
카미
▁도라에몽
▁밭
▁물약
▁김전
▁신칸
▁연이
▁1972
▁날린
▁남미
▁뽑아내
▁에일리언
▁앞면
미터
▁남양
▁으리
▁비비
▁걸릴
▁우지
퍼드
▁태풍
▁시조
▁토막
▁토비
▁메디
▁인사이드
▁페르시아
▁파고
▁윤리
▁두려움
▁궤적
▁정우
▁KTX
▁줄기
▁신칸센
▁투사
▁예쁜
▁금요일
▁브루스
▁아이디
타니
▁랜서
▁법사
▁여긴
▁주파
▁초점
▁콧
하여
▁돌아온다
▁대변
▁카일
▁고난
▁설마
▁시초
▁말라
▁알렉산드
▁김구
▁피지컬
▁죽인다
▁저승
▁니다
▁더미
▁김전일
ild
▁210
▁객관
▁부동산
▁키미
▁적이
퀘어
▁이점
▁태생
▁불릴
▁감금
▁일환
▁김지
박이
▁서태
▁관광객
▁판권
15
▁BJ
▁박명수
▁연소
▁음향
iel
▁끝났
▁상의
▁PSP
▁장동
▁La
▁격기
▁손꼽히
▁해상도
▁맑
▁볼드
▁껍질
▁사탕
▁끊기
▁영화제
▁프랭크
▁명나라
▁접수
▁보트
▁파밍
▁Gre
▁{{{#
▁사극
▁스바
▁탁월
▁다기
▁우두
▁다니엘
▁꿈꾸
▁바닷
▁선원
▁기뻐하
▁안드로
▁프랜차
▁Am
랄드
▁등재
▁스매
▁왕후
▁정준
▁과금
▁본의
▁코즈
▁슬램
▁서울시
▁텍사스
▁아쉬움
▁나레이션
▁알라
▁프랜차이즈
부인
▁보복
▁히나타
▁깨알
▁놀리
▁약체
▁캘리포
▁타스
▁타리
▁나눈
▁어퍼
▁랜스
▁리키
▁심야
▁라틴어
해야
▁럭키
▁연금술사
▁무색
▁환호
▁메이트
컨드
▁골치
▁핀란드
▁비기
▁암컷
▁세컨드
▁다이스케
▁치마
▁입힌다
▁시뮬레이션
▁에도
▁이별
▁전학
▁지미
▁바이킹
올라
▁라곤
▁안동
▁아테나
▁디스플레이
▁고질
▁공국
다닌
▁우미
▁BM
▁발발
▁에필
▁에필로그
ANC
▁스팅
▁사우스
뜨렸
▁주한
▁만난다
▁주황
▁모았
▁배후
▁~!
▁무단
▁옵티머스
▁중급
▁어긋
▁캘리포니아
▁무슬
▁보디
▁슬슬
▁개그맨
▁무서워
▁별칭
▁165
▁컬렉션
닐라
▁목동
▁노무현
▁어린아이
▁섹스
▁슬픈
▁잔류
▁탄막
▁능숙
▁넘어갈
▁스택
▁장시
ae
▁혼인
▁강습
▁마의
▁DR
▁GHz
▁브레인
▁마수
▁호응
▁Wii
▁조르
▁강점기
▁십자가
▁카구라
▁내면
▁외관
▁사슬
▁팝픈
▁팝픈뮤직
▁내려갔
▁따져
▁청구
▁끝장
▁월등
▁점멸
▁생겨서
▁방침
▁조준경
메라
▁무수
▁타카시
▁노르웨이
▁저자
▁건드
레이크
▁유해
▁경제학
▁카이토
교사
▁요우
▁편견
▁가라앉
▁무슬림
▁feat
▁신상
▁구청
▁마켓
▁내버려
▁라던가
보라
▁바론
▁술집
▁무사시
▁아메리칸
▁CN
▁바나나
▁스토커
AND
▁심했
▁낯
▁부친
▁고종
▁교정
▁나란히
▁좌익
▁스네이크
▁체격
▁UC
아닌
▁rd
▁시흥
▁오리진
▁직격
▁평론가
▁서바이벌
소총
▁격퇴
▁신념
▁음색
▁카렌
▁필두
ANI
▁전두
▁평등
▁개미
▁반론
▁..?
▁1969
▁자작
▁뚝
티지
▁선지
▁훔치
▁군요
▁수컷
▁파우
▁토오루
▁정서
▁네이션
▁컨디션
▁Time
aby
▁중후
▁화석
와라
▁관절
▁비로
▁선인
▁방울
▁순간이동
▁질환
▁드리블
앙스
▁모어
▁투신
▁로지
나리
빨리
ull
▁가혹
▁계절
▁문법
▁본가
▁이방
매니아
맥스
▁자부
gin
▁협동
▁1971
총장
▁와라
▁풍기
ical
▁인구수
▁드라큘라
▁10000
레일
..
▁궁수
▁인트
STER
▁단의
▁빈번
▁캔디
▁퓨처
▁모스크바
▁양심
▁헤드샷
▁타치바나
▁}}
▁뜯어
▁두뇌
▁최하
▁푸르
▁유코
▁라비
▁GN
▁동등
▁엣지
▁천문
▁뉘앙스
▁느껴진다
▁펭귄
▁달랐
▁차가
▁from
베트
지도
▁강아지
▁알아차
▁응원가
▁MHz
▁반란군
▁관계없이
소수
철수
콥터
▁늪
▁테레
▁마르코
▁주차장
▁멸종
▁타당
▁부관
▁테러리스트
▁징계
▁뺀
▁후루
▁벌어진다
▁눕
▁종말
▁빙결
▁아카리
▁덴마크
스레
▁틀어
▁조수
▁다름아닌
▁미도리
▁레기
▁신병
▁주공
▁김주
▁꼴찌
▁일본식
플렉스
▁센트럴
▁생태
▁차분
▁때로
▁맞출
▁상장
▁고맙
▁확고
oul
▁유고
▁콘스탄
▁KB
▁성숙
▁스케줄
▁발차기
▁목포
▁합치
▁BEM
▁말레이
▁빠진다
▁분포
▁숙소
공사
▁웨인
▁벚
▁스파이크
▁에메랄드
▁미모
▁수령
▁내세우
▁멋있
▁슬라이드
▁프로토타입
▁상어
▁서명
▁솜씨
▁아르카
바스
시다
▁복용
▁유유
▁타고
▁제조사
▁위키백과
▁현황
▁파문
▁아마존
▁가져왔
▁DX
▁낀
슬리
▁몹시
천군
▁유진
▁흑마
레슬링
▁극우
▁마친
▁모함
▁Gu
▁깔려
▁혼다
▁NEW
▁국산
▁멈춰
▁하라
▁폐허
▁AFC
▁가해자
▁워낙에
▁다룰
▁나사
▁대쉬
▁수수료
▁Gl
▁미숙
▁수여
▁ㅡ
▁구제
▁케로
▁프롤로그
재기
▁노비
▁미끼
▁숙주
▁샤아
▁맥락
▁믿음
▁JTBC
▁프로레슬링
▁둬
▁그려져
▁우투
▁레오나
▁HARD
▁샹
▁근성
▁영등포
▁보행
▁고음
▁가의
▁맡겨
▁리부트
▁마마
▁ATK
▁거니
▁메세지
▁스바루
▁난민
▁네스
tern
▁Ro
▁고발
▁로열
TC
▁관직
▁유마
▁new
▁하드웨어
▁꿇
▁헬리콥터
▁궁전
▁군림
▁응시
▁패드
▁하와
▁합법
▁시가
▁예방
▁단말
▁발톱
▁파손
▁쟁이
▁TCG
▁콕
▁회계
▁별자리
▁카테고리
▁EU
▁매지
▁분배
▁기피
▁에바
▁간호
▁섬멸
리언
▁실장
어버리
▁원했
▁외래
▁샤워
▁체형
▁단서
▁파격
▁모양새
idth
▁선봉
▁에그
▁집합
▁도시락
gr
▁우편
▁동체
▁로컬
▁전염
▁Co
▁그랜
▁풍경
▁cl
▁정답
시스코
▁연의
▁유신
▁피카츄
▁주워
▁밧
▁코지
교통
▁오케스트라
▁이광
▁유방
플러스
지오
▁기법
▁생선
▁수성
▁지붕
▁출제
▁BEMANI
▁러시아어
레이트
▁상대식
▁저기
▁미스트
▁사르
▁원장
▁꼽힌다
▁천마
▁미즈키
▁브론
▁유선
▁유정
▁중도
▁연고지
▁구한
▁할로윈
▁기함
▁직속
▁제사
▁격침
▁소집
▁Mr
메어
▁IP
▁넘겼
▁부류
▁이세
▁환수
app
▁랙
▁가창
▁농민
▁벨라
▁일삼
ough
▁Ser
▁경상남도
13
▁뒤쪽
ERO
▁조력
▁다저스
▁닥치
▁제우스
▁캐스트
▁하이라이트
▁스트로
처럼
▁UM
▁미사키
▁장례식
▁청사
대교
▁한층
글라스
▁내뿜
▁IV
▁루루
▁스쿼
▁배송
▁소노
▁뭔지
▁오디오
▁인쇄
▁CE
▁크라운
▁댈
▁대니
▁성명
▁액셀
▁114
▁걸어가
eel
▁LE
▁불쾌
▁후면
▁박혀
▁컴백
▁이인
▁통수
▁나이트메어
현우
▁Sk
▁개교
▁캐슬
▁수시로
▁쓰러트리
▁거품
통수
▁창립
▁노래방
▁파이프
▁가미
▁오쿠
▁가까웠
▁부사
▁앞뒤
▁걸음
▁박쥐
▁성비
▁레바
▁이에
▁자각
▁츠바사
▁안토니
▁주의자
▁부턴
▁상쇄
▁키사
▁can
▁제작비
▁NT
▁width
▁하이브리
▁차용
▁길거리
▁하이브리드
퍼니
▁명곡
▁히데요시
▁AF
▁방호
▁오바
▁전례
▁추모
▁Heart
활약
▁무선
▁드로
▁걸어서
▁불화
▁사각
▁해변
▁홈즈
▁츠나
▁결의
▁응답
▁지배자
드로
▁난감
▁오비
▁치고
▁버릇
▁Dark
▁카이사르
me
▁땀
▁그제
▁뒷면
▁Car
전트
▁상시
▁섹시
▁Sch
▁내밀
ll
▁페인
▁말아먹
▁가브리
소문
▁브릿
▁드러냈
저것
▁레이트
▁이것저것
▁꾸미
▁즐겁
▁낙선
▁하의
▁지킬
▁리프트
▁넘어간다
▁하여금
▁진정한
▁조항
▁괴상
▁뒤지
지사
▁거칠
▁보루
▁해준다
▁명명
▁블랙홀
▁보고서
▁가마
▁손톱
▁원망
▁중학생
▁UFC
▁김두한
줌마
▁윈터
▁패스트
▁코요
▁로브
▁PK
▁깃털
▁로저
ye
▁아이작
▁줄어든다
▁연회
▁였음
▁연세대
▁습한
▁악령
쌔신
▁벌금
▁어쌔신
▁아줌마
▁교관
▁내구력
▁이노우
▁슈터
▁원흉
▁타다
▁놔두
ution
▁배워
▁공존
츠카
▁노트북
▁들러
▁클라우드
▁수다
무게
▁몸무게
▁제이슨
▁콜로니
▁폴리스
▁기이
▁투성이
▁지성
▁Em
▁튜닝
▁천주교
▁네놈
▁미호
▁줄줄
▁혹평
▁따른다
▁더라면
▁성역
바시
▁발탁
▁십자군
▁Is
저드
▁홈경기
▁배리어
▁민병
▁}}}
▁간선
▁쓰러져
공화
▁다툼
▁가로막
▁지각
▁강세
▁김대중
자재
▁뚜껑
▁심화
▁커먼
ee
▁1968
▁산탄총
▁일일이
풀이
▁아비
▁강서
▁BT
▁프로리그
▁Bat
▁키무라
▁던졌
▁뒤통수
▁아름다
보그
▁랏
▁문신
▁들린다
oh
▁포대
▁전광
▁마모루
▁배우자
▁찾아와
▁this
▁괴력
▁교양
▁깽판
▁북아
▁선포
▁로비
▁네코
▁여배우
▁정해져
▁비타
▁자란
▁동북
▁면접
▁시에
▁적성
▁발현
▁상공
듈럼
▁플레어
▁한강
▁열악
ings
▁듀크
▁라프
▁폭로
▁강해서
▁리자
▁꽁
▁미들
▁사범
▁아이폰
▁자주포
▁시궁
▁자위대
▁SL
▁센티
▁대본
▁주가
▁캐리어
▁발렌타인
▁보였으나
▁공영
▁달라졌
▁바란다
▁니나
▁테오
▁초상화
▁코타로
▁행방불명
▁방화
▁하우
▁핸들
▁달라붙
▁무림
▁오시
reak
▁감성
▁증발
▁원한다
▁컴퍼니
▁재활
▁우가
▁외면
▁처절
▁암울
▁시스터
▁오프라인
▁남발
▁라임
▁연달
▁프랑켄
▁포맷
▁빅토리아
▁보잉
▁펜듈럼
▁저서
▁친목
▁미세
▁교통사고
▁전두환
▁할수록
▁했어도
▁코바야시
▁고토
▁인데다
단지
▁당나라
▁우두머리
▁뱉
▁둥지
▁유난
▁실력자
▁전라남도
▁잡혔
▁테루
▁김일성
▁TO
▁기합
▁꿰뚫
▁타케시
▁저조
▁EBS
▁직결
▁총독
▁야만
두사
▁허브
▁책임지
▁들어온다
▁요리사
▁맨체스터
▁Su
▁시코
▁불려
▁작인
▁로맨스
▁바꿔서
▁계란
▁연막
▁이행
▁성직자
▁캡콤
▁맹활약
▁침해
▁오키나와
▁대외
▁슬라임
▁그랑프리
▁안무
icro
▁나열
▁랜턴
▁회로
▁도타
▁따라잡
▁망한
▁문고
ict
▁스텔라
▁앵커
▁환사
니클
▁~~
▁느니
CH
▁개개
▁넉넉
노기
▁자칫
▁짤방
▁203
▁무협
▁변호
▁애국
▁수영복
▁Light
▁부처
▁죄수
▁이치고
▁합쳐서
▁찰나
▁운석
▁박치기
▁풀린
장난
▁들어와서
▁개막전
▁물가
▁북두
▁어미
▁직역
▁힌트
▁사이보그
▁볶
▁공고
▁냉전
▁요시노
▁요시다
▁듀스
바르
▁대법
▁레즈
▁착지
▁ver
▁야쿠자
▁샤프
▁합친
▁Kore
▁신수
▁구절
▁LED
▁사료
▁단식
▁코디
ors
▁제지
▁Im
▁고속버스
▁파랑
▁다스리
▁담겨
▁117
▁GTA
▁그리하여
▁럴
셉트
▁잔해
▁줄어드
▁적재
▁므
▁쓰일
무네
▁주된
▁수용소
▁켄이치
▁빈틈
▁뉴질
▁대안
▁뉴질랜드
레드
▁ADV
▁마사키
▁만행
mania
▁Sy
▁땅볼
▁배속
▁지극히
세요
▁괴리
▁롤링
▁실바
▁유타
▁혼합
▁127
▁케이지
▁따윈
▁성수
▁어드밴스
▁미쳤
▁도요
▁번갈
▁여관
▁BO
▁이사장
▁확립
스트림
▁기쁨
▁동족
▁184
▁AE
▁영미
▁비로소
▁고조
▁Ev
▁라파
▁먼지
▁담임
▁잘려
▁좌파
▁126
▁추적자
▁스퀘어
치아
▁이성계
▁장신구
▁앤디
일라
▁서리
▁셸
▁어벤져스
▁군복
▁공모
▁금고
▁온몸
▁간호사
민주당
▁겁니다
토랑
▁메모
▁진로
▁레스토랑
▁전해진다
▁아이스크림
▁pro
▁고든
▁속이
ACK
▁수확
▁호쿠
▁드레드
오스
▁관해서
▁타나카
▁신이치
▁저렇게
▁감기
▁우상
모어
▁유무
▁특훈
▁김윤
▁여도
▁자격증
▁사쿠라이
▁병종
더슨
▁야마구치
주의자
▁정체불명
▁블라디
▁속력
디스
▁해역
▁라지만
▁하반기
▁불평
▁플래닛
▁실루
▁자회사
14
▁라나
▁크리스토
▁니카
▁가나
▁유토
▁팩션
▁중전차
▁무진
ics
▁묘한
▁사스케
▁시부
▁테르
야샤
▁이누야샤
▁실정
▁설탕
▁설화
▁max
▁가브리엘
▁ar
▁DNA
▁광전사
▁통보
▁퓨리
▁휴게소
무기
▁실업
▁중앙선
▁과감
▁헤어지
▁심상
▁183
▁will
▁화소
▁기괴
▁이준
▁중재
▁무겁
▁인어
▁공손
▁지주
▁호프
▁대대로
▁트레이닝
▁버터
▁책상
▁일수록
▁알려준다
▁텀
▁당국
▁GPU
니카
▁김연
▁베일
▁퍼부
▁엄폐
▁178
▁미수
▁스쿼드
▁못지않
▁동년
▁스크래
요환
▁연말
▁아이유
▁상용
▁리바
▁명작
▁영화판
▁올바른
▁급기
내리
▁아몬
▁1967
휴일
▁As
▁내셔널
▁순찰
▁리쿠
▁성기
▁클레이
▁걸까
▁시가지
▁오덕
코어
▁슈가
▁농락
▁샤를
▁접점
▁섀도
▁프린스
산동
▁비꼬
▁여수
▁뒀
소년
▁루터
▁붙였
▁사교
▁사망자
르도
▁HG
▁운반
▁태조
▁물리학
▁창세기
▁데스티니
▁나고
▁샤크
▁쾌속
▁임요환
af
▁단속
▁마비노기
▁사모
▁후타
▁였으니
▁Let
▁로코
▁마장
ex
▁기보
▁무궁화
▁세미
▁벌인다
▁농사
▁토트
▁무명
▁호스
▁포트리스
▁넵
▁골목
▁베이더
▁WH
▁수량
▁치루
▁예비군
ammer
즈마
▁Of
▁us
▁더욱이
퇴근
▁대중교통
마치
▁오의
▁커졌
▁가르침
▁내정
▁황실
▁하시
▁코이치
▁바티
요이
▁진수
▁Red
트랙
▁제프
▁호로
봐도
▁게임기
▁Your
▁아깝
▁자니
▁걸친
▁매스
▁182
▁괴담
▁총선거
▁신주쿠
▁출루율
▁자판
▁사이퍼
▁농협
▁오세
IGH
▁부평
커녕
▁시엘
▁행하
▁브라더
▁냉기
▁그릴
▁단과
▁카우
아슬
▁아슬아슬
▁부려
▁좋아한다
▁MX
▁우체
▁레시피
▁인터페이스
▁법무
▁키즈
러지
▁페이트
▁하비
거진
▁습관
▁계열사
▁박종
▁지낸
르바
▁타국
▁168
▁고속도
▁세세
▁열등
▁출중
▁스크래치
▁사출
▁시궁창
▁Rock
규모
▁FW
▁혹사
▁른
쿠로
▁제스
▁주고
▁타니
▁찰리
▁1963
▁..!
애나
▁신대
▁신임
▁전임
▁후일담
▁LIVE
ica
▁커트
▁유난히
▁Tw
▁셋째
▁플루
che
테이
▁부흥
other
▁밈
▁리턴
▁성형
▁페가
▁통행
▁한도
고래
▁공휴일
ody
▁진리
▁피드
▁유니온
▁고성
▁이뤄지
▁서해
▁낡
▁알렸
▁비운
▁관동
▁그립
▁브랜
▁달콤
▁코프
▁애쉬
▁330
▁수식
▁염색
보내
▁해적단
▁졸개
▁통증
▁용의자
▁놀란
▁이질
▁본디
▁나뭇
▁시련
LS
▁징징
▁키바
▁이노우에
변이
▁막부
▁클레어
▁하야토
▁돌연변이
▁핸드폰
▁향한다
▁추출
▁Don
▁경찰청
▁날라
▁오인
▁키트
▁선수단
▁통신사
▁카노
16
▁이명박
▁듀티
▁복싱
▁코다
▁클러
▁조폭
▁륙
▁탄탄
▁파수
▁Min
▁멀쩡히
▁하세
현진
▁러너
▁지요
▁불로
▁정립
▁분장
▁앞세
▁학점
oth
▁Sun
▁감행
▁공습
▁관해
▁모범
▁미하
▁카오리
▁거뒀
▁단테
▁아즈사
▁소설가
▁블래
▁자질
▁군기
▁치사
상가상
▁설상가상
자동
▁고릴라
▁정교회
▁라바
▁푹
▁스캔들
ins
▁그려지
▁독립운동
▁결사
▁have
정역
▁MK
▁야심
▁외우
▁방안
▁쿠루
▁접근성
▁2500
더기
▁단정
▁애당초
▁장편
▁고폭탄
▁휘말려
▁누워
▁취한
▁코나미
▁근력
투표
▁재빨리
▁가급
▁준하
▁클라이
▁구타
▁카무이
▁좌석버스
▁함포
▁극소수
미르
▁든가
▁진구
▁필터
▁브라우
▁퐁
▁제대
▁춤추
▁SCP
▁도호
▁부드러운
▁출연진
▁대국
▁처한
레인저
▁탐구
▁정명
▁TOP
▁매너
▁동탁
▁형편없
▁쏟아지
티콘
▁OB
▁제다이
▁연예계
▁162
스틴
▁놨다
▁임관
▁진도
▁한발
▁자유자재
▁인맥
▁뜰
▁리전
▁살상
프라
▁야시
▁호출
▁애프
▁UF
▁넘어간
▁라거나
▁다던가
▁뽐
▁악한
▁월급
▁전속
기어
▁옮겼
▁치아
▁승려
▁어선
▁통용
▁BAS
▁Rev
▁미성년
▁미티
▁셰프
▁대명사
▁브이
▁석상
▁패기
▁미스터리
▁박탈
▁소매
▁악곡
▁태자
▁세일
▁하타
▁트렌
▁겐지
▁벌여
▁샤오
평가
▁건다
▁장학
▁멀리서
▁누명
▁판사
▁마이어
▁에로게
▁예요
▁성폭
▁후려
▁애시
▁연발
▁호박
▁1944
▁증권
agon
▁158
▁트로이
▁장병
케인
▁실루엣
재판
▁딱딱
린다고
카즈
▁묻혔
▁삼촌
▁어인
▁헌데
▁Per
▁열세
▁데려오
▁닉스
▁연방군
▁교내
▁움직여
▁루키
▁Sum
▁STER
▁부도
▁파벌
▁월요일
GB
▁박찬
▁수강
▁카가미
▁프로모
▁이례
▁출퇴근
▁후문
▁후예
▁이라든가
▁떠서
17
▁책정
▁토이
▁격전
▁바닐라
▁사우루스
▁노기
▁둔다
▁반군
▁사에
▁서킷
▁시몬
▁비즈
▁신흥
▁일절
▁TEC
▁하지메
▁세탁
▁Gen
▁am
▁태종
▁바주
▁선우
▁특촬
▁동래
나갔
토시
▁게임즈
▁샴
▁벡터
▁볼텍스
▁Sl
▁마이트
▁숏
티노
ECT
▁충남
▁beatmania
▁우파
▁경연
▁찾아왔
▁디렉터
▁라드
ater
▁전열
▁대군
▁one
▁레지스
▁1966
패스
▁유대인
▁전과
▁소규모
▁가토
▁전세
▁하워드
▁버려진
▁발칸
▁복음
▁이치로
▁깠
▁홍성
▁독수리
▁붙여서
▁뢰
▁DO
▁OK
▁내릴
▁단골
▁고어
▁동봉
▁자처
▁한몫
▁갈리아
▁구마
▁태극
▁당주
▁세스
▁되돌리
▁배기
두리
▁성벽
▁커비
▁분기점
▁재고
▁소사
▁레이터
▁징크스
▁신정
▁입양
▁사사키
▁리엘
▁돌보
▁절규
▁얼터
ium
▁필연
▁도쿠가와
클린
▁입국
▁보여서
▁음주
심장
기사
▁자카
그룹
▁벚꽃
▁love
들여
▁발악
테리
▁질량
▁토네
▁132
▁대공포
▁출근
▁카를로스
▁쑤
ions
DS
▁동조
▁빅뱅
▁공성전
▁패미컴
▁영동
▁그리스도
▁탄소
▁리티
▁승급
▁건재
▁얼핏
▁뽑아
▁로저스
▁LOVE
▁셉
▁청와
▁기온
▁반항
▁집회
▁돋보이
▁하카
니즘
▁냉각
▁정한
▁뽕
▁매운
▁159
▁모른다고
▁본성
▁서대
▁서민
▁카린
▁최정
UR
▁와이어
▁히카리
▁DT
▁구단주
▁반다이
▁아폴로
기지
▁동문
▁휩싸
▁사용자
▁술법
▁오너
바다
▁PL
▁말장난
▁경보
▁아래쪽
▁데우스
▁동갑
▁공방전
▁배율
▁천둥
▁우물
▁133
▁넘어지
▁퇴사
▁러닝
▁조직원
▁싣
▁의아
▁태미
▁김택
ould
▁게릴라
▁시그마
port
▁한지라
파크
▁미로
▁번식
▁악어
▁124
▁가변
▁리에
▁High
▁짚
▁방송인
▁얕
▁분쇄
▁액세서리
▁이루어진다
▁사당
▁줘도
▁직구
▁따돌
▁IDOL
▁블레이즈
▁구급
▁제식
▁Oh
미즈
ange
▁바주카
▁학급
▁허공
어찌
▁퇴출
▁픽셀
▁스칼렛
▁EXT
▁보살
어붙
▁HK
▁비장
▁마운트
▁시즈카
프란
▁FX
▁마이너스
▁노릴
▁상가
▁악랄
봐야
▁동요
▁경질
▁자손
▁슈퍼스타
▁베가
ott
▁광대
▁묻히
▁인천광역시
▁결함
▁추궁
▁흑화
▁악용
▁무죄
▁밀집
▁박영
▁배상
▁모닝
▁MLB
▁사다
▁미끄러
▁마크로스
▁웃긴
▁최대치
▁프로그래밍
▁어찌어찌
▁크로니클
▁볼륨
▁세레
▁파이브
les
▁감히
▁1940
▁주술사
▁한탄
▁조인
▁허세
▁간다는
▁뷔
니스트
▁Par
▁1962
▁쪼개
▁280
▁뛴
▁힐링
지부
▁체질
▁EM
▁반말
▁생겨났
▁복도
▁연비
▁운운
▁관념
▁구두
파리
▁기소
▁차선
▁데카
▁쌓여
▁넘어서
▁퍼센트
▁드루이드
▁필라
▁BW
▁흡연
▁156
▁현상금
▁계좌
▁뛰쳐
ator
▁지그
▁쑥
노미야
▁제시카
▁심슨
IE
▁학번
▁이승만
▁코카
▁토로
▁함재기
란트
댓말
▁광복
▁무안
▁존댓말
▁깁
▁총열
▁청와대
▁인기투표
▁일렉트로
▁일지도
▁질러
▁Arm
▁달라진
▁광탈
▁남작
▁포워드
▁El
어질
▁br
▁가성
▁광속
▁Master
▁Ang
▁원호
▁가두
▁런닝
▁접전
▁여고생
▁was
▁실습
▁동로
▁나츠미
▁전편
▁배열
▁경쟁자
▁돌려주
▁생겨나
▁아이언맨
▁성서
▁기술자
▁GG
▁심문
▁실황
▁정재
▁230
즈카
▁대패
▁체스
▁키가
▁허구
▁메테오
꿈치
▁시간표
▁다이노스
러운
▁RP
▁취지
인간
▁기라
▁이용해
▁금색
▁카도
▁118
징어
▁바우
▁나온다는
UT
널드
▁라든지
▁페미니
▁터미네이터
▁으리라
18
▁밀려나
▁텅
▁넘긴
▁열풍
▁일으킬
▁불신
▁펠리
▁두르
▁똑똑
▁어그
▁웨어
▁노이즈
▁콜드
▁화자
▁치명상
▁팔라딘
나드
▁까닭
▁시집
▁헷갈리
▁밋
▁훅
서야
▁카탈
▁제정신
립트
▁어느새
▁장타율
▁전반기
▁수험
▁점사
▁ARM
▁네이트
▁성도
▁억지
▁소실
▁자드
▁138
▁급기야
▁공로
▁퓨어
날드
ICE
▁급히
▁군사력
▁지어
크리
▁섬기
▁탄도
프레스
▁계시
▁부드
▁다른데
▁차후
▁선대
▁장안
▁탯이
▁1930
▁비시
▁호전
▁시저
▁강수
▁게시물
▁콘셉트
▁알렉산더
▁리조
▁드라군
▁문어
▁위화
▁스매시
▁얼어붙
▁회오리
▁당첨
19
▁소시
▁하렘
▁학술
▁해독
▁악세
▁안면
▁자랐
▁말레이시아
▁돌이
▁이진
▁부드럽
▁안다
▁원활
▁히노
▁마에다
▁수상자
▁모른
▁콜롬
▁말미
▁스콧
▁호노
▁반대편
▁흘러가
조합
▁Sec
▁가져갔
▁토마토
▁불어
▁운항
▁경성
▁셜록
▁망가지
▁균열
▁소동
▁가뜩
▁국당
▁수준급
▁스타팅
▁염려
▁서울역
▁cc
▁봐선
▁일쑤
▁영남
▁조운
▁초래
▁148
밀리아
▁지휘자
▁효과음
▁메소
▁개개인
▁빌보드
엘라
▁줄리
▁분홍색
▁Fire
▁고산
▁대출
▁스플래시
▁교시
▁로망
▁상권
▁성모
▁제르
▁이를
▁넥서스
▁이아
lect
르기
▁머릿
▁반기
▁안산
▁원고
베리아
▁랩터
▁550
▁가뜩이나
▁루마니아
alk
▁가명
▁제멋
▁악의
▁일보
▁축적
▁시중
▁경유지
▁지상파
▁제라
리우스
▁병단
▁보증
니스탄
▁제단
▁호르
▁간략
▁갈린다
▁고추
▁로그인
▁김선
칼리
▁풍자
▁넥슨
▁바이올린
▁CA
▁국력
▁왠만
▁그놈
▁메가트론
▁씁
▁김원
▁양보
▁이마트
▁북구
▁FB
언정
▁궁지
▁스피커
▁껄
테스
일으
▁불러일으
마침
▁흘러나
olution
▁레프
▁007
▁하츠네
▁왕관
▁대표작
▁테이크
▁외래어
▁채취
▁레이첼
▁팔찌
스트로
젤레스
▁모친
▁백합
▁열받
▁칠레
ty
▁급식
▁부호
▁체이
▁뒤틀
▁최면
land
▁대마
▁때마침
▁도피
▁프로세서
▁""
▁pr
▁저리
▁이시다
▁후한
▁270
수스
▁창시
▁파파
▁안드로메다
▁고선
▁그걸로
▁발광
▁가축
▁나나미
▁디펜스
▁쏟아져
▁kr
▁일련
▁아야카
▁정류소
▁스피리
▁주어진
▁에이전트
▁바비
▁전폭
▁주황색
▁나고야
▁1964
▁숀
▁투하
▁경과
▁무작정
▁대용
▁가급적
▁발라드
▁style
▁양국
▁회고
▁뮬
▁가넷
▁피처
▁172
▁도리어
▁차가운
축구
ony
▁안드레
▁떄
▁금호
▁커터
▁퍼붓
▁다단
▁안성
▁딸기
놀이
▁유한
▁할리우드
▁유나
▁정정
▁에리카
방향
▁덩크
▁리브
▁서초
▁프리즘
▁피에
▁우크라
▁진행자
▁sm
▁편대
▁포효
▁조력자
▁카지노
▁회화
▁달래
테이너
▁노숙
▁예언자
▁오징어
▁브릿지
홍철
▁Li
천역
▁so
▁다뤄
▁병맛
▁임원
▁해운대
▁터진다
이프
차례
▁설비
▁제원
▁호투
▁쩔
▁정확도
▁키리토
▁자잘
▁체가
▁테일러
▁컨트롤러
▁군함
▁시력
▁우천
▁우산
▁주범
▁항아리
▁예지
▁총격
▁메스
▁패했
▁스탠다드
▁보리
▁메탈기어
pr
생긴
▁코파
▁프로모션
▁바하
▁주고받
▁열람
▁은혜
▁스타크
▁Pv
▁야외
▁열전
▁지기
▁BRV
▁천공
▁살아나
지르
▁로딩
▁튜너
▁개드립
▁마츠모토
▁천적
▁초교
BM
행위
▁와우
▁Rem
▁열린다
▁1965
▁이나즈마
▁체크카드
왜란
▁아테네
클럽
메스
▁지표
▁로제
▁증세
▁목적지
▁Blue
▁바그
▁카디
게임넷
▁블래스트
▁온게임넷
▁프런트
▁건전
▁153
▁Dis
▁임진왜란
ert
▁뇌물
▁밀렸
▁틀림
▁초코
▁프론트
▁쇠퇴
▁풀렸
▁샤이닝
포드
비우스
▁마도사
▁저격총
▁Power
▁마쳤
▁맞대
▁주파수
▁발간
▁벌리
▁해서인지
이센
▁떠날
▁무제한
▁스위트
▁양키스
▁나기사
▁불리우
▁하드코어
▁라시
▁Fi
▁XY
▁대주
▁177
▁히로유키
▁FL
▁주거
▁집정
▁솔리드
▁발상
▁쓸데없
▁오버로드
▁라구
▁밀어주
▁Good
▁바사
▁복면
▁진에
▁생물학
▁댔
▁갈래
▁Champ
▁개연
느니
▁영진
▁로워
▁창업
▁도청
▁두근
▁자취
▁공과
▁기총
▁바니
▁증기
▁슬리
▁부대원
▁na
▁바뀔
▁달렸
라이나
▁덥
▁소극
▁제휴
▁체리
▁넵튠
▁빼돌
▁상속
▁여권
▁용감
관총
▁야당
▁얀데레
▁천계
▁리마
▁여의도
▁귀도
▁방황
▁끼어들
▁동창
▁사슴
▁소행
▁수작
▁ALL
▁우체국
▁휴일
▁우루과이
▁달아
▁민원
▁쏠쏠
▁사용법
▁경매
▁눈빛
▁탄핵
부대
▁SO
다닌다
▁종사
▁교향곡
▁던진다
▁완전체
▁휘둘러
▁기미
▁르네
▁도망쳐
▁막아
▁나진
▁산악
같이
▁EMP
▁그리드
▁충청남도
▁쌈
▁서장
▁타쿠미
▁프리스트
석민
▁생산량
▁적시타
▁기성
▁맥도
▁서드
OID
▁상표
▁BA
▁강유
라이즈
▁병살
▁적진
무장
랍니다
▁STR
▁입체
▁친정
▁글러브
▁출석
▁ME
▁양측
▁원제
▁두려워하
마당
▁열기
▁방정
▁지망
▁Sm
▁코이
▁레이나
▁보인다는
▁적색
▁어리석
▁러셀
▁미시
▁재직
▁해수
tr
▁%.
▁박경
▁초사
▁스파르타
킵니다
토리얼
▁GDP
▁mar
▁슬로우
▁후유증
▁묶여
▁방벽
▁카타르
▁리트
▁바이스
▁북유럽
▁단백
▁엑소
▁간다고
▁갭
▁캐서
▁학계
▁튜토리얼
토르
▁아의
▁프론티어
▁횡단
▁공동체
▁정벌
▁260
▁심심찮
▁Play
ART
▁박재
▁유목
▁폴더
▁호기심
▁다이어트
▁쫓기
▁포식
▁나왔으며
히사
▁미정
▁경량
▁털어놓
▁샌프란
▁접어들
▁카스미
▁샌프란시스코
▁팀장
숨에
▁단숨에
▁작살
▁코시
▁괄
▁놀림
▁미츠루
▁입힐
▁첨단
▁독재자
▁밀란
▁서독
▁지문
버릇
▁페더
▁프리즈
▁매수
▁크루즈
▁청량
▁???
▁당당히
▁동지
▁바랍니다
▁감전
▁금화
▁부당
▁소심
▁연금술
▁이야말로
▁내수
▁마더
▁적발
▁취직
▁650
▁지났
▁초토
▁나데
▁레몬
장이
▁송출
▁다이나
▁세르비아
▁돌격소총
▁토네이도
▁속옷
▁원천
의사
▁라자
▁지령
▁실명
▁광신
▁송도
▁다짐
▁슈타인
▁아카이
▁황무지
▁부메
무실
▁생사
▁마커
▁못한다는
▁어처
▁무전
▁신다
▁충공
▁확연히
버드
▁쌓인
25
▁137
▁텔레비전
ERS
▁부츠
▁후진
▁루시퍼
▁만화책
▁미니언
▁토트넘
▁장기간
▁카르마
▁땜
대기
▁부메랑
▁앙쥬
▁원종
▁Dance
▁겸하
▁라지
▁현명
▁WCS
▁엘더스
▁경감
▁쿠시
▁대문
▁징병
▁개더링
▁사임
▁중성
베르트
▁대사관
▁Over
▁스윕
▁놀랐
▁박힌
▁굴려
▁연습생
▁입맛
▁정장
틀링
▁Ke
▁파산
▁겨루
▁157
▁설득력
페르
▁이가
▁다룬다
▁편안
▁회귀
▁미성년자
▁오반
▁154
▁카즈키
▁CO
▁어떨
▁179
저우
▁공립
▁미디
▁섬유
▁왼팔
▁트리스
▁금기
▁가출
▁창병
▁팀킬
▁강해졌
▁박상
▁Str
▁맴
air
▁내야수
▁출몰
▁한심
▁아란
▁우기
▁Ac
▁164
지리
▁본국
▁광범
▁기밀
▁드리프트
▁금서
▁독서
▁세간
▁유서
▁부딪히
라이어
▁편해
▁교란
▁금곡
▁기판
▁우메
▁터트
▁Music
▁가주
▁직무
▁표식
oot
▁NL
▁Ep
▁쇼트
매치
▁삽화
▁어처구니
▁망령
▁지날
▁친일
▁데스매치
▁뫼
▁양호
▁선진국
▁단간
▁텔레콤
▁븐
▁내륙
▁민영
▁순진
▁티탄
▁해내
▁렸
▁오리온
▁초식
▁휘말리
▁공병
▁떨구
▁쓸모없
▁깎이
▁와타루
산물
▁쿠노
▁평민
▁Kn
▁수복
▁DDR
▁아이리
▁양주
▁두부
▁129
▁젊은이
▁빠질
▁홀딩
▁렀다
▁타고난
▁만료
▁최영
▁한해서
▁한다던가
▁쐐
ern
▁폭사
▁225
▁머무르
▁최우수
▁손바닥
▁심리학
ittle
▁타나
▁NHK
▁느냐는
▁파워레인저
▁콘티
▁느껴질
▁택배
▁강적
▁고령
▁괴도
▁대각
레트
▁기다렸
▁마차
▁지역구
▁그닥
▁솔라
셔츠
▁NS
▁'''
▁광범위
▁북방
▁돌아간
▁김형
▁서점
▁세나
▁육박
▁개틀링
▁툼
▁펙
▁불멸
▁은혼
▁텍스
▁콜라보레이션
▁강성
▁후궁
▁스코프
▁이승엽
▁켄타
▁만화가
▁전용기
▁핵무기
▁충성심
▁우로
AG
▁바시
▁변질
▁윌리엄스
▁네타
▁천황
▁범행
▁중령
▁포지
▁똘
▁모호
▁진료
▁역과
▁저상버스
▁리액
▁>,
▁산책
동원
▁비범
▁기타리스트
▁춘천
▁걸스
▁낙인
▁스냅
▁Pre
▁장동민
▁카자마
▁코지마
바위
▁RC
▁글래
▁Comm
▁서정
▁박격
다간
▁좌표
▁1800
▁퍼니
▁헛소리
▁무거
▁점거
▁백미
▁토하
▁유행어
▁대진
▁설사
▁사이언
▁하와이
▁일으킨다
▁256
▁불사조
▁허리케인
▁달라서
▁라이터
로프
▁자진
▁진작
▁케이트
▁클로즈
▁포토
▁자연스레
▁Korea
▁목재
hammer
▁MR
▁곡선
▁모여서
결승
▁터질
▁헌신
▁가솔
▁에덴
▁예명
▁베이스볼
▁FR
▁첫날
▁서커스
▁공익
▁정계
oss
▁취해
▁칙
▁무빙
▁파장
▁노홍철
▁기하
▁무고
▁End
ield
▁재위
▁즉각
▁트린
▁검은색
▁화수
▁out
ENT
▁중사
▁스님
레미
▁견인
▁비춰
▁신디
▁시킵니다
▁떠오
▁날아간다
▁김명
▁LCD
▁Leg
▁분자
▁펄스
▁139
자카
▁협의
▁쿄스케
사우
▁강행
▁색채
▁134
▁가창력
▁하리
▁방과
▁선풍
RAM
▁대여
▁163
▁가가
▁행태
▁집정관
▁Life
받침
▁999
▁타츠야
▁단말기
▁바트
▁지독
▁양아치
▁충공깽
▁돌릴
▁전전
평균
▁생겨난
▁yout
▁거유
▁환각
▁136
▁UFO
▁EXH
▁엘소드
▁어지간히
▁크리스티
eng
무니
춘다
▁JC
▁부추
▁VOC
▁기관차
▁사토시
외선
▁대승
edia
▁후반전
▁카가
▁즐거운
▁까먹
▁박해
▁존속
▁Gold
▁초고
▁끈질
▁스왑
▁176
▁Cy
▁남동
▁토탈
▁주어진다
리에
▁나츠키
▁뉴타입
▁man
▁MT
▁173
▁오미
▁헬스
▁애프터
▁포르노
▁BASIC
▁번트
▁피리
▁XXX
▁SG
▁경인
▁수리검
▁이스터
▁케로로
범죄
▁애드
▁토우마
▁영창
▁왕좌
▁하자드
IST
▁XP
▁SW
▁선곡
▁167
▁수군
▁퍼트
▁142
▁고마워
문트
▁격리
▁뒤덮
▁손녀
▁미지수
▁왕따
▁책략
ek
▁초딩
▁램프
▁테크노
▁신공
▁가치관
▁전라북도
▁당기
▁자크
▁단백질
▁......
▁MD
inc
▁청산
▁고양시
▁기획사
▁세츠나
▁상회
▁위탁
▁요미우리
▁에우
▁로마자
미스
용차
▁용맹
▁6000
▁강변
▁모를까
▁끌어내
▁제멋대로
수아
▁더비
▁야드
▁국사
▁말소
▁충북
▁관제
▁초선
▁루리웹
▁co
▁로자
무진
▁}{
▁경순
▁막바지
▁댄다
▁권능
▁정거
▁키워드
▁에스파
▁경전철
▁Summer
▁수평
▁은밀
▁380
▁피스트
마르
운전
▁..'
카스
▁백신
▁아치
▁여사
▁차려
▁149
▁꼬이
irst
▁특공대
▁한숨
▁살인마
▁위화감
▁본드
▁수원시
▁깊숙
세데스
▁메르세데스
▁버금
어쓰
▁움직인다
▁완수
▁선보인
▁시노부
▁OR
▁치부
▁위나라
▁행선
▁류현진
▁지자
▁서지
▁정중
▁찍힌
▁페달
▁총괄
▁IDOLM
▁전년
▁키퍼
▁학창
▁프레데
마츠
▁스티커
▁어린애
▁천연가스
▁하부
▁가차
▁의대
▁아멜
을지도
▁캐서린
▁1961
▁파키스탄
제국
▁고베
▁King
ual
▁강판
▁전교
▁회견
▁AG
▁성체
YP
비언
▁입술
던트
▁미쓰
▁새우
▁뷰티
▁우습
▁ONE
▁유명세
▁이안
▁다인
▁스퍼
▁아부
▁키운
gain
▁흑룡
▁부서지
▁판본
▁호그
패드
▁노이
▁게리
▁무상
▁디비전
준혁
▁단선
▁원격
토미
▁봉기
령관
▁UI
▁아홉
▁기마
▁기와
▁멜론
▁인내
▁수고
▁차종
▁추월
▁제비
▁첨가
▁현존
▁경의
▁영분
▁표방
▁친위대
▁거신
▁마누
▁타케루
▁휴스턴
데기
▁리히
▁바오
▁Win
▁코우지
▁역학
▁옐로
▁프로이센
미츠
▁댄서
▁유노
크리트
▁143
▁깨어난
▁계보
▁단신
▁헤븐
▁봉황
▁최전
▁사마의
▁프랑크
▁알아듣
▁어비스
▁정거장
▁키메라
▁그리스어
▁받아들였
▁오리지날
▁진가
▁황태자
▁페니
▁리우
▁베니
▁모라
▁무의
▁시동
▁관대
OO
▁여하
▁조형
▁포럼
▁선형
▁죄송
aj
▁백룡
▁흑백
▁쳐다보
툭튀
▁u
▁빡빡
▁아제
▁진공
▁넘어오
▁커맨더
▁쉘
▁한스
▁Can
▁아카기
▁내려온
▁표본
▁현직
▁어둡
▁준장
▁갑툭튀
▁마리사
▁속공
▁애교
▁카논
▁백색
▁VOCAL
▁사파이어
▁두께
▁본문
▁잔당
▁소진
▁실무
▁단조
▁씁쓸
▁육지
▁카에
▁여겨진다
▁이분
▁커브
▁기한
▁청색
▁망해
▁매진
▁합창
▁오피스
하이
▁섬세
▁자발
▁미야자키
▁우사
▁크래
▁타시
▁1942
▁Vo
▁속박
▁제이크
▁테츠야
▁걸작
▁유지비
▁매트릭스
▁This
▁맛보
▁Out
▁1943
yn
▁끝판
▁세션
▁사이오
▁어중간
▁분사
▁대두
▁뽑히
▁OPS
▁알아채
▁왕건
▁지아
IV
ube
▁갈기
▁난폭
▁괴롭힘
▁무효화
▁What
▁각색
▁강팀
▁Int
▁요동
▁활주
▁뭣
조작
▁고독
▁SEED
▁의미심장
▁모탈
▁빨강
▁처단
▁세이지
▁어워드
▁치프
▁스크립트
타르
▁되려
▁가든
▁리젠
▁안보
▁승부조작
▁꺼리
▁대부
▁등교
▁연희
▁유우야
로리
▁독설
▁거리표
▁바바
▁치도
▁Da
▁콘크리트
▁플러그
▁설계도
▁교훈
▁수녀
▁장원
▁배수량
튀기
▁심포
▁츠루
▁저러
레스트
▁tvN
▁디테일
▁김도
▁서인
▁치중
▁마는
▁재난
▁언행
▁재임
▁이터널
나간
▁득표율
▁뾰
시계
▁십상
▁치이
▁격돌
▁맞춤
▁뻥튀기
작전
▁경장
▁시세
▁신시
▁초중
▁이룬다
▁폭발물
▁판과
▁칭송
▁통한다
ady
▁시르
▁사카모토
▁네모
▁선구
▁잉크
▁출세
▁121
▁미라이
▁오마주
▁MASTER
▁대머리
▁자신감
▁교주
▁구독
▁레미
▁루팡
▁양면
▁ㄱ
▁성녀
▁Live
▁무성
▁음모론
테나
▁욕구
▁줍니다
▁랴
▁TD
▁능욕
▁신축
▁매거진
▁괴멸
▁재팬
▁드러낸
▁Hard
▁바늘
▁세가
킨스
▁석사
▁역관
▁Act
▁잠재력
▁매그넘
▁이속
ATION
러드
▁당분
▁로스앤
▁로스앤젤레스
let
▁표출
▁문화재
중국
▁배지
▁튜버
▁받쳐
▁1920
▁볼프
▁종일
▁비약
riend
▁관악
▁노브
▁배틀필드
미사
전대
▁여건
▁혜성
iew
▁조비
ush
▁섭외
▁이상민
▁법안
▁엄지
▁갑작스럽
▁나우
▁우시
▁폭동
▁될까
▁이어인
▁콥
▁인벤토리
▁되돌려
▁엑스맨
▁준결승
▁수소
▁앙리
▁베드
▁샨
▁난동
▁라이토
▁군산
▁반칙
▁174
▁밀린다
▁깰
▁겉보기
▁소용돌이
▁랄까
▁자부심
▁호세
▁워너
▁줄곧
▁들어선
▁피에르
베르토
▁아프가
▁아역
▁작별
eet
▁옮긴
▁리바이
▁EA
▁꼭두
▁덕택
▁쇼핑몰
조각
bps
▁느긋
▁솔로몬
▁이제동
▁반환
▁피어
사이드
▁벌어질
▁난해
▁205
▁나오키
▁족장
▁베가스
▁크리드
UC
▁검도
▁누님
▁줄줄이
▁성검
▁켈리
▁안타까운
▁쐐기
▁제구
▁템포
▁TG
▁포털
▁송병
▁외출
▁격하
▁생각나
ational
▁BF
총리
▁승기
▁다중
▁즘
페어
▁갇힌
▁평원
▁입힌
▁호대
▁무자비
▁이에야스
▁박용
▁유포
rain
▁서부터
▁CB
▁사병
ORE
▁심리전
▁거물
▁문헌
▁아울러
▁두드러지
▁히코
▁성우진
▁1946
▁국물
▁Air
▁부우
▁양념
▁레슨
▁보유자
▁도호쿠
ita
▁만루
▁조그
▁무너져
▁끌어들이
ESS
▁하르
▁임페
▁착하
▁예배
UE
무소
▁굴복
▁싸워야
▁아프가니스탄
▁처했
▁퍼스
ane
▁루기
▁은메달
▁송이
▁틀렸
▁단절
▁지지자
때로
▁배럴
▁윌슨
▁유영
▁유쾌
니트
▁폭포
케이
▁하데스
▁여친
▁왕궁
▁병신
▁빈사
▁ㄴ
▁쏜다
▁언락
▁이신
▁빠져서
▁꽝
▁돌아와서
▁잘리
▁내심
▁박격포
▁교섭
▁주작
▁탈옥
▁도모
▁미상
▁담당자
▁총통
모델
▁킬로
▁웍
▁만세
▁홍대
▁졸지
▁팔꿈치
▁Warhammer
▁깬
▁수락
▁VOCALOID
▁가네
▁한조
▁새로이
아아
▁sc
▁달빛
▁진술
▁티거
제스
▁츠카사
▁교재
▁임페리얼
▁동대문
▁time
블릿
▁부토
▁진한
▁벵
▁치뤄
▁전했
▁중얼
▁웨이트
▁빵빵
▁자본주의
▁내비
▁유로파
▁했으므로
▁ㅅ
▁거세
▁자치령
▁피라미
▁각기
▁김창
퍼런스
▁띈
▁료마
▁사부
▁진해
▁데뷔작
▁남극
▁대제
▁줄일
▁피곤
▁김정일
▁연구실
▁밴시
▁상반기
▁랜디
▁진형
▁센트리
▁엇갈
▁직감
클레스
▁준공
▁부여받
▁히토미
공화국
▁카메오
▁역전재판
▁고를
▁만두
▁용호
▁늘어놓
▁마른
▁갈아타
▁컨테이너
▁나날
▁인다
▁불상
▁비정
▁주군
▁손아
소스
▁비토
▁세토
▁블루스
▁노엘
▁대한항공
▁미완
here
▁단거리
▁페인트
▁파업
▁Hell
컨대
▁노마
▁민정
▁심연
ness
▁Cat
▁내공
▁산화
▁증후
▁학회
▁흘려
▁만류
▁판도라
▁q
▁허영
▁법학
▁채집
▁퀄컴
▁1941
▁라데
▁이동하
▁작렬
▁조제
▁지지율
▁la
▁빅터
▁자수
▁오로라
▁`
eth
▁전류
▁들통
▁뭉치
▁벤트
▁싱크로
▁사안
▁총탄
▁호타
신기
▁GR
▁이복
EX
▁ll
▁단연
▁유년
▁At
▁정크
▁대장군
▁야기
▁역병
▁Res
▁준다면
▁킹스
▁부녀
▁도미니
▁스탠스
유리
▁마음껏
사우루스
▁레베
▁빌미
▁마니
▁유엔
▁장래
코스
▁미련
▁성균
ret
▁GX
▁항우
▁래스
▁드러낸다
ne
▁신원
▁추석
▁기신
▁명인
▁포고
itch
▁염소
▁파드
▁후세
▁김택용
▁퇴마
▁삼거리
▁성균관
▁신노스케
▁익스트림
▁태연
▁Sound
▁id
▁막힌
▁듬
▁난전
▁듀엣
▁옥타
▁동메달
▁유스케
▁복종
▁조달
▁따라오
▁이은
▁참모총장
▁대적
▁셀프
글러
▁경쟁력
▁창원시
▁베라
▁우려먹
겨서
▁김정은
▁이니셜
▁연루
▁레볼루션
▁알코
▁조장
▁일진
▁대상자
▁기겁
▁코브라
▁도망쳤
▁어설트
▁차세대
▁따내
▁백수
무늬
▁맞히
▁미타
▁부풀
제품
▁과실
▁도도
▁리베
▁사바
▁채소
▁두꺼운
▁서원
▁시발
▁체급
▁직관
▁SKE
▁사육
▁유키노
▁후안
▁슈타
▁시구
클리
▁해저
▁세이야
▁몽땅
▁택하
▁그지
▁이변
▁할당
▁모나
▁어제
▁진다는
▁의리
▁제너럴
럭스
▁동참
▁미팅
▁집결
▁뒷받침
▁술탄
▁147
▁편제
▁노후
▁증후군
▁적료
▁김영삼
▁근래
▁달아나
▁불태우
▁매개
▁특허
▁night
▁인민공화국
na
▁Rec
▁빼앗긴
▁아지트
열차
▁상원
버릴
▁피츠
▁와이드
▁낙원
▁진군
아티아
▁크로아티아
▁플레이트
▁진흥
▁휴전
▁크림슨
▁옌
▁화랑
더스트
▁146
▁Hy
▁방대
▁제각
▁스케치
▁살린
▁교감
▁날릴
▁성채
▁던질
▁자문
▁증원
▁차남
▁서태지
▁재혼
▁평했
IGHT
▁상류
▁오디
▁유배
▁스펙터
교육
eath
▁지름
▁행각
▁익스프레스
▁클립
▁단다
▁Big
▁대담
▁태세
▁스트레이트
▁밝힌다
▁파고들
모니
▁노렸
▁org
▁고원
▁노스케
▁여진
▁연안
▁맞물려
▁싱어
▁가솔린
▁아유미
▁어려우
▁피니시
▁일직
날두
▁뿌요
▁회자
▁세레나
▁Heav
버거
▁과부
▁이과
▁타협
▁RAM
▁1600
르드
수수
▁극찬
▁서면
▁우이
▁유교
▁미라클
▁인프라
▁호날두
린스
▁뚫리
▁정종
▁결별
▁티저
▁1954
▁news
여행
▁바쁘
▁친근
▁커리
▁222
▁Des
▁명장면
▁조류
▁맥시
▁북극
▁등산
▁거니와
▁키사라기
▁GK
▁득실
▁럼블
▁배분
▁아킬
▁요건
▁위생
▁천도
▁전투복
▁공자
▁박준
▁주성
포스
▁부록
▁온화
방사기
▁체이스
▁화염방사기
▁다정
▁츠바키
▁like
▁랫
asy
▁대잠
▁호우
▁스탠딩
▁한국군
▁Battle
▁저거
▁구미호
피온
▁박병
▁괴로워
▁좆
캐스트
▁204
▁트리오
▁스킵
▁166
▁동유럽
▁명왕
▁하코
▁구치
▁캐롤
▁Mod
▁슬퍼하
고쿠
▁구세
▁마토
르슈
▁상정
▁자위
방식
▁가왕
▁동거
▁스루
▁차관
▁ㅋㅋ
▁빼놓
▁웨일
▁저희
▁일부분
▁영락
▁칼럼
▁클락
▁1958
▁쓰러진다
ny
타리
▁바쳐
벨트
▁모을
▁로테이션
▁손수
▁SV
▁변종
▁정의당
▁인피니트
ven
▁미도
▁밸리
▁특출
▁Che
OK
틱스
▁향기
▁탤
▁간편
내기
티넘
▁협약
▁플래티넘
ORM
▁골리
▁원어
▁몰아내
▁누마
▁트림
▁시오리
▁태블릿
▁떠들
▁어긋나
▁fl
▁동맹군
▁쫓아가
▁호노카
권자
▁난투
▁대입
▁아이리스
▁기복
각시
▁대파
▁동포
▁일선
▁전산
▁부두
▁잽
저트
▁수전
▁인즈
▁DB
▁참패
▁유감
▁마그마
모사
▁라트
▁웬리
▁진과
▁철벽
▁수뇌
▁임하
▁진흙
▁연기자
▁이창
▁베른
▁병영
▁소중히
▁범주
▁해지
사의
arm
▁다라
▁선체
▁사생활
▁레트
파니
▁유추
▁절묘
▁대각선
▁하반신
▁짝퉁
▁소음기
▁알프레
무스
▁갑판
▁SSR
▁안도
▁치타
▁자의
▁종자
▁튕기
▁엠블렘
▁1948
ALL
ouse
▁퍼시픽
▁페르난
▁제네시스
▁마테
▁넘쳐나
▁아이젠
▁빼내
▁쩌
이팅
코프
▁매칭
▁정신기
▁활주로
▁ㅎ
바퀴
▁선천
▁플라잉
▁프라이즈
렉트
토록
▁바실
▁운임
▁쇼군
▁아닙
▁주방
보인다
▁발트
▁엘리스
▁8000
▁영리
▁잔재
▁츳
▁육식
▁평창
▁사단장
해군
▁KD
▁코요미
▁직계
▁남아공
▁책임자
▁회복력
▁대강
▁승하
▁외환
▁용품
▁욕먹
▁매복
▁총대
▁터무니
▁성가
▁액트
▁청동
▁쌩
▁예리
▁차마
하니
ru
▁퍼진
▁마운드
▁프레디
▁1949
▁석화
▁카멜
▁금전
▁세이부
▁귀중
▁카트리
▁하임
회장
▁기만
▁동급생
▁으라는
▁지켜야
곡동
▁올려서
▁불가리아
영수
이인
▁부과
▁평안
▁런닝맨
▁목요일
▁이관
드래
혁명
▁에노
▁엠파이어
▁사위
▁안중
▁치히로
▁지켰
▁Sing
데르
▁가메
▁슬쩍
▁위조
▁운전자
▁프렌즈
▁박진
▁예하
▁but
▁다나카
▁불가사의
▁로로
▁키웠
▁태수
▁현행
▁누군지
▁~'
▁는데도
▁토론토
▁구애
▁음양
▁유승
▁탈것
▁표창
▁사츠키
▁리포트
▁화장품
▁수비진
▁충실히
링크
▁탄두
칼리버
▁BBC
▁아종
▁조슈
▁하야테
▁독도
▁멸자
▁생몰
▁하쿠
▁외야
▁치렀
▁헤매
▁공중전
▁동명이인
▁과다
▁무어
▁미토
▁벽돌
▁노선도
▁지중
▁제보
▁친밀
▁제네레이션
자루
▁오클
▁루즈
▁저력
▁특이점
▁템플러
▁배척
▁살릴
▁고스란히
ina
▁Edition
▁마호
ount
실히
ari
▁보답
▁스몰
▁카바
▁막론
▁양동
▁향수
▁빅토리
▁석궁
▁알몸
▁이문
모자
▁NG
▁덫
▁여겨졌
▁문의
▁목표물
▁성원
▁신촌
▁체구
▁소감
▁콘테
▁교육청
▁1900
▁if
▁가산
▁경부선
ivers
▁기염
▁하루히
▁칸나
▁도망친
▁방어선
▁모방
▁340
▁울려
공격
▁경전차
마사
▁품종
▁맏
▁XC
▁안나
▁젤다
▁퇴근
▁폭군
▁헤지
▁고모
▁노조미
지대
▁실험실
▁따라다니
cl
투아
▁부합
▁토와
▁Song
▁know
▁쥴
▁리언
▁민족주의
▁스스
▁왕녀
▁체조
▁거제
▁아그
▁히이
▁때때로
▁방랑
만도
▁뮤즈
▁잔디
▁재해
▁황족
▁신한은행
▁우아
▁점포
▁키치
▁라운
▁군단장
▁중공업
▁월터
▁짱구
▁드럼매니아
고생
지물
돼지
▁발산
▁악질
▁알코올
▁머독
▁쓰러졌
▁불러서
▁터트리
▁어쩐
▁밀어붙이
▁프랑스군
▁공약
▁선방
▁이끈
▁포이
▁이지스
▁천체
▁WAR
▁사쿠야
▁꺼지
▁어기
▁초전
▁CEO
▁느낀다
▁안철수
▁프라이드
▁성공회
▁소피아
기업
▁행군
▁데이브
덱스
천동
▁카야
▁RAW
▁im
▁정자
▁Run
▁엘런
▁국수
▁따랐
▁성문
▁행해
▁But
▁를르슈
▁패거리
▁태고
▁데려온
▁방정식
▁하이브
use
▁카운티
▁팔려
ters
▁신령
▁엮인
▁정몽
▁국민당
▁나리타
▁피라미드
▁란트
▁경찰관
▁디스코
▁발해
▁둘러싼
HN
▁도메
▁코일
▁레이브
▁섹터
▁원년
▁쫓아내
▁Magic
피어
▁서문
▁쫒아
▁돌아다
▁반자동
▁약해서
▁관용
▁랄프
▁마키나
▁올리버
▁든든
▁정대
▁삼국사기
▁경시
▁사역
▁붙잡혀
스기
▁시빌
▁원사
▁침체
▁HOT
▁로스터
▁민병대
▁토의
▁AMD
▁선역
▁'-
▁암흑기
▁빨려
답시고
▁송파
▁쟁탈
▁츠치
▁090
▁료코
▁시킴
▁칼질
▁프리드
스톤
ars
▁경위
▁송곳
▁치토
▁위저드
▁슬래
▁Ab
▁명실
▁순순
▁333
▁번거
▁몰라서
▁헌병
ke
▁심플
규어
▁조율
매매
▁터프
▁720
▁에밀리
▁꼭두각시
▁수아
▁선글라스
▁SNK
고루
▁만악
▁허다
OUR
erm
▁펜스
▁끼쳤
▁슬러
▁인스
▁에러
▁원동
XT
바키아
▁바운드
▁인신
▁고려대
▁로만
▁아다
▁홈구장
▁뒤바
▁득표수
▁이따
▁잘린
▁차크라
▁가까스로
▁RS
▁심해서
▁아르메
▁시한
▁오컬
▁몰린
▁day
▁며느리
▁쓰러뜨린
su
▁아델
▁요르
▁좀비
▁탐욕
▁오스카
▁칠흑
▁카터
▁벌어들
▁이라든지
▁뭉쳐
▁소주
디우스
▁들이대
리케이션
탕스
▁아츠시
▁레지스탕스
LD
블루
▁PVP
▁진에어
▁문성
▁비룡
▁동물원
단체
▁에티
▁울부
▁단번에
위치
▁영조
▁명령어
▁사업자
AA
▁쓴다는
나시
▁사오
▁압살
▁얌전
▁여명
는데
▁체내
레오
하하
▁쏴서
▁야채
▁알파벳
▁리바운드
▁수레
▁악보
▁성추
▁프랭
▁바람직
▁가호
▁격노
▁네메
▁명품
▁시프
▁초당
▁드래그
▁슐
▁마취
▁첩보
▁희생양
▁KC
▁Not
▁Tri
▁구했
▁스완
▁승천
▁음란
▁터리
사람
▁실천
▁루카스
▁격변
▁추첨
▁탈탈
▁GAM
▁건너가
ecial
▁벗어날
▁순순히
▁스쳐
▁더스트
▁래쉬
▁브란
▁역설
▁정동
▁비즈니스
▁가신
▁소이
▁수분
▁어진
▁단단히
▁짤막
▁대법원
▁호라이
▁드레이크
▁Grand
연합
▁네기
▁오드
장구
EME
주군
▁마티
▁수족
▁Boy
▁스폰지
▁결장
▁옴니
▁임창
▁그토록
▁쓸어버리
▁야구단
▁오우거
▁코팅
▁통학
▁화판
▁농촌
▁수법
▁평정
▁펼쳐지
▁시애
▁츳코
▁오컬트
▁뒤이
▁1959
▁볼일
▁비평
▁바이퍼
▁증가량
▁슬라이딩
▁재규어
▁은가
▁픽업
▁양방향
▁PO
▁박차
▁빌헬
▁일개
▁고갈
▁현질
▁상대편
▁서유럽
▁애시당초
형제
▁불운
▁개인전
▁거주지
▁TF
세우스
▁성폭행
▁볼까
▁입성
▁조나
오피스
ship
▁디셉
뜨린다
▁나타날
▁아르메니아
}}
▁뺏기
▁아득
▁장녀
▁해임
▁도마뱀
▁훈련소
레일리아
▁God
▁온전히
ift
▁김희
▁어휘
▁푸쉬
▁체이서
▁이탈리아어
▁일갈
▁창의
▁Dragon
▁'~
▁김인
▁김혜
▁케르
▁화룡
▁1955
▁Baby
▁됐으며
▁무너진
▁기보단
▁앞마당
노트
소니
▁광양
▁저질러
▁열려
▁비행선
▁좀처럼
UL
메리카
▁젯
▁업종
rop
▁광화
▁청장
▁타지
▁울부짖
▁총사령관
러기
ana
▁무심
▁갈구
▁탄다
▁새겨진
▁시애틀
▁전반전
▁구자
▁깨우
▁다이너
▁지침
▁NAS
유기
▁가와
▁페루
▁노어
▁이어폰
▁무궁화호
▁MAN
▁다이브
▁뛸
▁릉
▁강급
▁불린
▁서진
▁억양
▁전염병
▁페이커
둘기
립스
▁쇼타
▁미카엘
▁수요일
▁건립
▁뚱뚱
▁뾰족
▁짓밟
▁POP
▁토리코
▁불허
▁추기
▁151
▁빗나가
▁백지
▁양파
▁랍시고
▁Beat
▁바쁜
▁크러
▁일평균
ys
▁OM
▁ab
▁끼친
▁남용
▁때릴
▁아날
▁염동
▁장단
▁탄수
▁난쟁이
▁1956
벅지
▁경희
▁니즈
▁주임
▁포화
▁게르만
베다
▁앞쪽
▁둔화
▁산산
▁마사토
45
elf
▁버디
▁Spr
▁오리콘
슬쩍
▁밀접
▁송구
▁전고
▁아랍어
omb
▁마셔
▁악장
▁초계
▁야요이
▁이바
▁학업
▁화질
▁졸업식
▁페라리
▁도보
▁키쿠
▁치밀
▁파열
▁NAT
▁아틀라스
▁블라디미르
▁남짓
▁성품
▁릭스
▁챌린저
▁괴이
▁바사라
▁식인
▁교직
▁제복
▁김준호
▁에어컨
▁디트로
▁트레인
▁다이렉트
▁디트로이트
▁RO
▁관습
▁연성
▁접한
리아스
니지
▁쌍용
ally
▁169
▁졌으나
▁덤비
▁여정
▁정은
▁죠셉
▁ㄹ
▁루드
▁건너편
▁이유로
▁부화
▁필적
▁001
▁섰
▁덩달
▁메라
▁투항
▁푸드
▁클라우
▁Es
ren
▁GL
▁선도
▁당분간
▁카츠키
▁간식
▁전태
리아나
▁쫓겨나
▁세무
▁전갈
▁포커
▁처한다
▁활약상
▁불분
▁수납
▁풋볼
▁김태균
▁케네
▁항쟁
olog
▁Cont
▁광학
▁침식
▁나눌
▁박주
▁사벨
▁제품군
IF
데라
▁Lo
▁미셸
▁자판기
▁임상
▁방금
▁시프트
병기
▁정적
▁럽
히트
▁레닌
▁야마자키
▁수박
▁토토
변속기
▁음식점
그래
▁Bar
영웅
▁사면
▁체로
▁피버
▁선교
▁수배
▁외장
▁허위
▁쿠도
▁포터블
▁원한다면
▁토코
▁흉터
▁불분명
▁블리치
▁수뇌부
▁마공
▁정세
▁IF
▁악인
포로
▁빅토르
▁중견수
호도
▁백병
▁저음
▁죄인
▁일직선
▁나온다고
▁필기
▁오스트레일리아
▁qu
▁주스
▁알루미
▁로사
▁집중력
▁프라모델
▁말살
▁보구
▁야인
▁충동
▁츠네
▁중대장
모트
ited
▁WOR
▁예비역
▁아픔
▁오일
▁아르테
▁맨날
▁지갑
▁차출
▁라이덴
▁박스오피스
▁경이
▁구워
▁볼리
▁양현
▁Inf
▁하나님
▁가리킨다
III
▁다트
▁몬테
▁밀러
▁열렬
▁유부
▁나루호도
▁다다
▁소피
입구역
▁발전기
누르
▁다마
▁행세
HD
▁루이지
▁카즈마
▁하르트
▁스콜피온
▁Gaming
짜기
▁권역
▁삽입곡
▁접시
▁희박
▁사다리
▁빽
▁그물
▁봐라
▁폐하
▁DA
▁즉석
▁특권
▁강연
▁사설
▁소량
▁파탄
▁XBO
▁강호동
▁넘길
▁험한
▁VIP
▁스트리밍
▁렴
▁폿
▁로니
▁셔츠
▁글리
▁코리
▁패한
▁피드백
▁world
▁복부
▁메두사
▁이어질
마트
▁재미없
▁진나라
▁점하
▁000000
▁이데
▁찍혀
▁형벌
▁수영장
▁중화기
▁310
▁PvP
▁Angel
▁With
▁마포
▁비늘
▁임용
▁불러오
▁금성
▁악평
▁이시카와
▁바란
▁외화
▁무모
▁항로
▁사우디아
타기
▁치는
▁리그베다
제리
▁VR
▁길러
▁상해
appy
미코
▁미유
▁배반
▁코로
▁COM
▁클라라
▁마사무네
▁나탈
▁폐인
▁경비원
▁충청북도
▁떨어진다는
▁망할
▁설레
▁안기
▁자자
row
▁부식
▁분화
▁능동
▁란다
▁비어
▁신빙
▁진성
▁컷인
▁환장
보잡
틀리
▁ER
▁붕대
▁프랑켄슈타인
감치
콜로
▁기린
▁채울
▁데스크
▁미나토
▁옵스
▁협곡
찌감치
▁돌아보
▁또래
그라드
▁듣보잡
▁다크니스
▁대도
▁만회
▁시립
▁con
로이
전함
▁낙하산
▁동남아
▁최우선
▁총재
▁플리트
▁해커
▁구라
▁중산
▁131
▁FBI
▁골고루
▁아라시
▁러시아군
▁마코
▁손책
▁철회
▁짊
▁굶주
▁호위함
▁가쿠
▁지저
▁CIA
▁FE
▁항속
▁잠복
▁면은
▁명은
▁슬립
▁어로
▁임재
▁몸집
▁겹쳐서
▁법정동
만다
▁청취
▁관광지
▁미뤄
▁기생충
▁밸브
▁쇼우
▁암기
▁조공
ious
▁뛰어났
▁안테나
▁micro
▁="
▁뒤쳐
▁사카이
▁비욘
▁She
▁될수록
▁알루미늄
ful
▁1939
▁위인
atic
▁일기토
▁피콜로
드리히
▁스테이트
▁재사
▁Ste
▁베르크
▁찐
▁빌라
▁쿠폰
▁TW
▁선상
▁데려다
▁영국인
▁윳
▁RX
▁햄버거
▁큼
일기
▁깐다
▁자유주의
▁달걀
▁무리수
▁카이지
▁복권
▁어우
▁연호
▁255
▁오토봇
▁슴
그레
민수
▁오바마
▁카에데
▁나시
▁성령
▁내레이션
리히
전쟁
▁NFL
▁노획
▁계승자
▁세워진
▁취했
▁NCR
▁매지컬
▁마스터즈
▁돌렸
▁던져서
▁지자체
MC
▁STAR
▁레그
▁이클
▁장막
▁증인
▁브래드
▁1952
▁받아들일
사포
▁오자
▁티타
▁느냐고
▁토요타
▁햇빛
▁White
▁헬로
▁긴장감
▁플레인
▁한니발
aut
▁여당
▁재상
▁쿠토
▁사과문
▁티셔츠
오버
▁성시
▁임프
▁쿠루미
시장
▁묵직
▁치과
▁카라스
▁미식축구
영향
▁둔기
▁청원
▁토사
▁강함
▁몸체
델피아
▁강남구
▁사라질
▁원로원
▁장학금
▁필라델피아
먹이
▁노원
▁류우
라비아
세이더
TREME
▁스튜어트
▁크루세이더
▁기아스
▁억압
▁재주
▁비틀즈
▁세실
▁컬트
▁해프
▁미시마
▁콜롬비아
▁한성
▁척하
▁소모품
▁라다
▁망원
뜨릴
day
▁서사
▁포진
▁데이빗
▁시끄러
▁호스트
▁프리드리히
▁대의
▁로선
▁베레
▁상병
▁유다
▁인플레
▁코스타
▁여행자
▁마요
▁환불
▁그래프
▁타츠미
▁농부
▁블레
▁선공
▁시술
▁폰트
▁Pe
▁구비
▁아론
▁호각
▁개종
▁급상
▁Sky
▁쓴다고
▁고뇌
▁사생
▁세단
▁키울
bl
세포
ara
▁눈썹
▁새턴
▁친화
▁타카오
▁로젠
▁최진
수엘라
▁걸치
▁난데
▁대관
▁골수
▁용왕
▁420
▁카나코
리역
▁쉬우
▁마개
▁나츠메
▁Project
와르
▁FN
▁정렬
▁850
▁거쳐서
▁길목
▁키나
▁본거지
▁파괴자
▁꼼짝
▁반납
▁안토니오
▁캉
▁샌디
▁양도
▁커넥
이즈미
▁비둘기
▁읊
INE
▁사시
▁아벨
▁겁쟁이
맹이
▁고안
▁조선소
▁앞장
▁잊혀진
▁드립니다
▁입혀
▁진기
▁DIO
▁동산
▁사대
▁모터스
▁소프
▁슬래시
▁패트릭
즐리
▁딸리
▁원상
▁나왔었
▁해결책
▁이클립스
▁가세
▁주부
트리스
▁헤라클레스
75
▁OO
▁해프닝
▁거둬
▁응징
▁플랜트
▁아날로그
▁겸비
▁내려왔
▁EXTREME
▁경신
▁그딴
큐버스
▁슬레이
스코
▁브론즈
▁중추
▁철퇴
▁환율
▁141
▁도입부
윽고
▁보성
▁부기
▁이윽고
▁바알
▁여느
▁투타
▁신세기
▁오사무
나타
▁RR
▁그해
▁돌봐
▁디에
▁리시
▁부전
▁한결
넌트
▁우대
▁치아키
▁레니
▁워페어
▁셔먼
▁실탄
▁빨라서
▁Just
▁니즘
▁CCTV
▁타카히로
▁스릴
▁수도원
▁자석
▁Get
▁정치력
▁얼리
▁정윤
▁치곤
▁유수
레스타인
지기
하임
▁부름
▁여대
▁처해
장치
▁군중
▁벌칙
▁정설
▁Gun
▁쓴다면
치오
▁쓸쓸
▁카세
▁토카
▁777
▁납품
▁신드
▁월등히
▁티라노
▁팩토리
▁권고
▁로미
▁저널
▁리오스
▁앤더슨
▁꼬박
▁털렸
▁PRO
▁대항해
▁자가
▁크리스토퍼
▁녹여
▁외침
▁악영향
▁축구단
▁생리
▁마운틴
▁붉은색
▁사일런트
ger
▁으시
▁베네수엘라
▁사우디아라비아
애미
▁자대
▁리조트
▁노랑
▁처방
▁마이애미
▁선명
▁허니
▁뫼비우스
▁시킨다는
reat
준호
▁크류
▁나선다
▁레이카
▁로드리
▁레비
▁환원
▁평준
▁대지진
▁빈센트
▁정직
▁기공
▁초원
▁항성
▁후작
▁사이킥
▁노사
▁백두
▁투기
▁한복
▁생계
▁싫어한다
▁퀑
▁무당
▁우등
▁이화
▁제후
▁펼친
▁현무
▁미처
▁우크
▁정시
다카
▁신검
▁재래
▁겉모습
▁박히
▁앨리
▁소대장
▁우크라이나
▁어르
▁숨겨져
공주
uch
▁감도
▁갈고리
▁엘다
▁연하
▁적정
▁제드
▁꾸며
▁뽑힌
▁허벅지
전생
▁냉혹
▁류지
▁검기
▁기쁘
▁끊이
▁네로
▁바흐
▁함경
리카와
▁시라이
▁잿
무로
드래곤
▁라몬
▁이의
▁평지
▁사력
▁화요일
▁쉔
타자
▁코미디언
▁개리
▁공채
▁벤츠
▁중론
▁튀어나온
둘러
▁조현
▁디럭스
▁야가미
▁Game
▁미약
▁선비
니치
리즘
▁나뭇잎
▁해한다
▁LS
▁520
▁악세사리
일관
▁가늠
▁최적화
▁반달
▁재무
ric
▁절감
▁총구
▁케네디
▁쎄
▁크로스오버
암동
▁나크
▁열광
▁합당
▁뜬금없
▁카이바
▁위즈
▁절약
▁자민
▁아스타
나들
▁어딜
▁Side
▁몰렸
▁엽기
▁전우
▁정경
▁우치하
▁클로버
▁Back
▁석방
▁졸라
툴루
▁벌일
▁조니
▁레이크
▁지중해
▁근친
▁초급
▁피신
▁대장장이
▁레코
▁알맞
▁우동
테면
▁박기
▁온건
▁팔레스타인
▁이북
▁연대기
▁편애
▁리액션
▁급여
▁비숍
▁화내
▁480
▁결투장
워했
▁모티
▁기병대
▁구만
▁골리앗
▁Last
▁이를테면
▁크레이지
▁무네
▁벅스
▁off
▁back
▁끌어올리
▁간장
less
▁페가수스
▁ㅁ
▁사죄
▁지친
▁텐션
▁제이드
▁동남아시아
▁통솔력
▁잣
aka
▁미달
▁쿼드
▁naver
▁개칭
▁순삭
▁일생
▁펠트
▁승부차기
▁School
▁Ge
▁바루
▁좌완
▁예술가
▁오토메
▁xx
▁화가
▁달린다
▁전황
▁틈새
▁가한다
▁KS
▁미우
▁반하
▁소탕
▁심부
▁해밀
소통
▁셀렉
▁Ass
▁Zero
▁의사소통
▁ATM
▁귤
▁고참
▁춘추
▁피쳐
관계
▁토치
▁톡톡
▁TECHN
▁가즈
▁스플릿
co
펙터
푸스
▁상고
▁서스
▁초동
bsp
페스트
▁Sil
▁거느리
▁전념
▁멧돼지
▁팬클럽
후미
▁남구
▁리벤
▁경비병
▁멩
▁수혜
▁알비
▁탈당
▁도널드
▁텝
▁라티
▁학파
▁212
▁전투원
▁그러다가
▁경호원
▁블리츠
▁빌헬름
▁시부야
▁사이퍼즈
▁픈
▁추기경
▁생포
▁승승
▁보인다고
IME
▁강령
▁퍼졌
▁송병구
▁하늘색
▁발렌시아
▁캬
▁수당
▁에프
▁성추행
▁아껴
▁몰려오
▁정명훈
▁심복
▁남긴다
▁무난히
이라
▁급한
▁동독
▁모치
▁장담
▁치를
베이스
▁Chr
▁급상승
▁경대
▁티격
사전
▁다림
▁마실
레인지
▁명백히
▁스타킹
▁nbsp
▁아닙니다
▁WE
▁광석
▁소름
▁외로
▁페로
▁한중
▁디셉티콘
▁사루
▁세균
▁오승
▁검색어
▁좌익수
▁우의
▁노프
▁증차
▁군벌
▁협공
레즈
▁써니
▁통역
▁이긴다
bo
▁룽
▁개화
▁철자
▁290
▁결번
▁조로
▁합금
▁라파엘
라이언트
▁Amer
▁클라이언트
▁프레드
▁빈스
투수
▁유상
▁전복
▁소수자
▁일자리
▁액수
▁켄시로
▁하시모토
▁조회
▁튀어나와
▁전쟁터
▁Open
▁중소기업
▁채운
▁통근
팔로
▁깔리
▁소아
에이터
니컬
▁고요
▁삿포로
▁정준하
▁뇌격
▁불발
▁원성
▁버금가
▁스러움
▁저스틴
▁선발투수
▁Di
▁자바
코스터
▁크툴루
▁찜
▁너구리
▁툭하면
▁재빠
▁절판
▁족보
▁야나기
▁XBOX
▁jp
▁비견
▁엄연
▁웨딩
▁편도
▁우와
▁선제골
▁피그
▁진다고
▁내걸
▁유원
▁질질
자위대
니르
▁둥글
▁맹수
▁베아
▁사요
▁의류
▁유세이
▁능하
▁대구경
▁사이비
▁프리퀄
▁강정
▁소림
▁붙인다
▁음악가
▁입니까
▁롤러코스터
▁무찌
▁내려서
▁연주자
▁그렌
▁낭만
▁맞췄
▁프레데터
▁할지라도
▁시커
▁보호자
▁브라우저
▁Blood
▁엑스칼리버
▁스턴트
ORA
▁극성
▁1400
▁중순양함
▁야구부
▁타쿠야
▁Moon
▁급습
▁배고
▁일정량
UST
▁다친
▁분과
▁일파
▁주주
▁생산력
▁돌린
▁화끈
▁어쩌다
▁쥬라기
득점
▁에라
▁재사용
▁TB
▁스커
▁아슈
▁회유
▁박태
▁실감
▁트와
▁는구나
▁시미즈
▁타라
▁탈주
▁성남시
▁껌
▁걷어
▁효용
▁미니게임
▁촛
▁절도
▁에볼루션
▁일찌감치
ely
▁사복
▁뺑
▁아사쿠라
▁매도
▁모선
▁인승
▁나오미
▁간첩
▁하네
▁한들
▁APC
▁파이팅
▁데스노트
▁건의
▁착공
▁밤중
▁투르
▁험악
▁미완성
▁나카지마
▁내년
▁다나
▁키아
▁엑셀
▁익명
▁찬사
▁홍준
▁Soul
비슷
▁냅다
▁문관
ideo
▁카미조
▁소망
▁신격
▁아리사
▁그제서야
▁Final
▁석탄
▁오아
▁명확히
▁잘생긴
▁셧
▁고분
▁버즈
▁margin
▁승계
▁기어이
▁태그팀
▁마즈
▁박병호
▁변모
▁거슬러
▁1953
▁기교
▁만년
▁일컬
▁지방도
▁비화
▁성동
▁Yes
▁경상도
▁교육부
▁물러났
▁사상자
▁7000
▁에너
▁웬디
▁치요
▁공격대
▁구식
▁익힌
▁흉기
▁Art
▁마사히로
ma
▁모건
▁BMW
▁테슬라
▁미용
▁방망
▁내려찍
▁플로리
▁페미니즘
▁딸려
▁불가피
▁수송기
▁개전
▁쌍검
▁이우
▁착취
▁거미줄
▁왔으며
▁무너뜨리
▁남산
ning
▁둘째치
▁반대쪽
▁분당선
DER
▁재일
▁김구라
▁바꾼다
▁트리니티
▁빨아들
▁공시
▁선후
▁무방비
▁스쿠
▁부회장
▁크라이시스
▁요요
▁넘어선
▁헤이세이
▁가야
▁지체
▁이치카
▁래리
▁유세
▁정인
▁케니
▁피노
▁방어전
▁배달부
▁부서진
HC
▁어시
▁배운다
▁젓
▁애틀
▁짓거리
▁오현
▁미술관
▁박살난
▁유이치
▁시종일관
▁크로노스
▁쭈
▁갈릴
▁긋
▁도가
▁미움
▁헤딩
파치
▁망각
▁버틴
▁서남
▁Mix
▁호라이즌
85
▁마늘
▁선발전
▁수제
▁제이스
박혀
▁어부
▁로켓단
▁어쩐지
▁수년
▁까다로
가키
▁Du
▁면도
▁천진
▁Met
▁Top
▁해설자
정동
ward
사노
IKA
▁리노
▁부술
▁어정
▁내용물
32
대왕
▁pt
▁쿠즈
▁허약
▁네메시스
▁후지와라
▁손발
▁악연
▁유민
일라잇
▁히데키
▁미스테리
▁아키야마
▁트와일라잇
▁단가
stem
▁MiG
▁1947
▁푸른색
▁홍준표
월드
▁반가
▁난다고
▁블루투스
▁난장
▁외쳤
▁레베카
▁멀린
▁시속
▁양평
▁달랑
▁역마
▁폐업
▁근육질
▁나아졌
▁뒤따
▁마로
▁야자
▁테드
▁표준어
▁아산
▁한족
▁영화관
▁동국
▁무로
▁반쪽
▁참수
▁IMF
▁애틀랜
led
▁완급
▁조영
▁보리스
▁브로드
▁이츠키
▁대격
▁앞둔
▁피겨
▁매사
▁신봉
▁허술
▁팔아먹
▁페이퍼
▁여신전생
▁갱단
▁최재
▁붙여진
to
폴트
▁교제
▁버니
▁올인
▁출입구
▁하얀색
태우
▁구판
▁벼락
▁저축
▁Eng
▁태권도
▁투표율
▁MIX
▁문파
▁장대
▁세속
▁황자
▁way
▁프란츠
ute
▁TE
▁천자
▁평하
▁에이미
▁매입
▁박세
▁슈우
▁조짐
▁차린
▁파치
▁호루스
▁밀리터리
▁새신
▁액스
▁적기
▁토템
▁가져와
▁희한
▁무너졌
▁쁘
▁메트
▁오보
▁위아
▁파나
▁잊어버
▁지나갈
▁린치
▁순항
▁쳐내
▁사냥터
▁조세
▁쪽지
▁갈아입
▁학부모
▁바퀴벌레
욕장
ata
▁Off
▁ZZ
▁메츠
▁천왕
▁타사
블랜드
▁눈치챈
사관학교
▁폴라
▁시게루
▁클리블랜드
▁탬
▁CT
▁독단
▁수렴
▁청하
아스
▁Core
▁공적
▁숙명
▁이큐
▁튀김
ision
드런
▁te
▁맡겼
▁안식
▁와도
▁잠자
▁포톤
▁EXP
▁쿠사나기
린트
▁충주
▁RPM
현동
▁정액
▁형주
▁사나다
네트
▁투석
▁1957
▁아닌지라
▁스타더스트
eah
ump
▁린다
▁병합
▁식별
▁이산
▁큰일
▁구스타
▁영재
▁요지
▁로더
▁각본가
▁데이즈
▁에디터
▁합산
▁영웅전설
▁신민
▁은근슬쩍
▁^
▁맹장
▁정현
▁농어
▁비대
▁원산
▁급속도
▁스미레
▁의뢰인
▁도망친다
▁Track
▁연구자
눅스
▁우여
▁아사미
▁다듬
▁사주
▁자멸
▁정제
▁카프
▁개인차
▁켓
▁골라서
▁는군
▁수퍼
▁진전
▁김종국
▁나카노
▁기껏해야
GN
▁차갑
세움
▁랑그
▁마고
▁느려서
괭이
▁긴토
▁번번
▁상체
▁파병
▁요금제
▁질수록
넘기
▁문과
▁북서
▁우선시
▁크레용
비안
▁공전
▁위태
▁환산
▁대함
▁뻔하
▁증강
▁살아온
▁카미야
선스
▁계책
▁요일
▁Ext
▁칭한다
▁호르몬
▁방관
▁베토
▁업자
▁토바
▁러블리
▁홉
▁튜브
▁209
▁내려놓
악기
▁BP
▁링컨
▁회심
▁모자란
▁제국주의
▁리제
▁쇼코
▁대첩
▁멜리
▁첨부
▁Cap
▁밀려서
▁주변인
▁동방신기
▁발효
▁포제
oney
▁수송선
▁조슈아
제트
▁Mark
▁{{{-
▁에어리어
▁급증
▁팔렸
▁어려서
▁초음
▁라이선스
▁ve
▁느와르
▁해낸다
▁욘
메일
▁귀한
▁입점
▁학군
떨어진
▁카니발
▁티베트
▁서재
▁후카
▁세운다
BY
▁성취
▁우먼
▁리눅스
▁신약
▁업소
▁애니메이터
▁ADVANC
▁숙지
▁시녀
▁역전승
▁1914
▁들켜
▁막말
▁순례
▁도르트
▁1938
▁Special
▁아노
▁암묵
▁평이
▁가까울
▁마르크스
▁희미
▁도전자
▁켐
뮬러
▁가중
▁블룸
▁그분
▁누락
▁음력
▁체르
▁해인
▁경영학
▁Little
▁끝냈
▁별거
▁ph
▁모용
▁보그
▁엔도
▁태반
실록
▁송신
▁티나
▁좋아했
▁TT
▁체류
▁포메
▁홍수
▁불안감
▁음료수
▁UR
▁사카키
▁셰퍼드
▁경선
▁근황
▁아캄
▁추이
▁벗어났
▁이민자
▁이남
▁재선
▁키시
▁사토미
▁광교
▁경제력
▁어울린다
▁변속
▁비밀리
▁아오키
▁아틀레
▁Free
▁갇히
▁구스
▁떨치
▁정유
ross
▁순전히
ism
▁도류
▁무예
▁최연
▁칸자키
▁폄
▁격납
▁재기
테리어
프스
▁gr
▁상경
▁지폐
▁블러디
▁한국식
▁성급
▁레이코
▁That
▁ap
▁식신
▁토드
파일
▁데프
▁요양
▁호화
▁망설이
▁고철
▁기통
▁실컷
▁아디
▁치세
▁황소
▁FO
▁찍히
▁플롯
▁가격대
▁화합
▁지니어스
두근
렁이
red
▁길래
▁지탱
▁피칭
▁아레스
▁Comp
▁구축전차
▁왕성
▁장민
▁사념
▁의거
▁카툰
▁스팟
▁섣
▁ac
▁낮춰
▁토착
ocal
▁도망칠
▁부러지
▁악단
▁엿볼
▁now
▁버팔로
▁의존도
곡절
▁갈려
▁는커녕
▁++
▁구가
▁만우
▁자객
▁판명
▁net
▁우여곡절
CE
ner
▁서프
▁야스오
▁받아들인
▁올라온다
▁ㅈ
▁팻
나가와
▁정규군
▁틀림없
▁달했
▁박한
▁꾹
▁일루
▁휴지
▁1100
▁자며
▁질려
▁PT
▁다량
▁마자
▁여차
▁적과
▁궤멸
▁무법
▁풀백
▁토모야
스부르크
주곡
▁피스톨
▁였으므로
▁거액
▁깨졌
▁독성
▁아린
▁레프트
▁그려진다
▁사고방식
투사
ASS
▁열화
▁한눈
▁복수심
▁카르텔
가요
▁심영
▁양양
▁윤영
▁아키코
▁1300
▁호조
▁싸워서
▁코스모스
▁권하
▁부피
▁친선
▁Bad
▁경비대
▁바가지
▁샌드위치
상부
소연
▁의석
▁아이카
살렘
▁주름
▁츠지
ird
▁512
▁크레인
▁팔다리
▁서바이버
▁구작
▁연화
▁흐트
▁강대국
▁대전광역시
▁#,
▁em
▁각별
▁맞선
▁익혀
▁작물
▁지쳐
루살렘
▁동이
▁불곰
▁블랑
▁퍼플
▁평면
▁여긴다
▁투수진
au
뚜기
▁설문
▁초라
▁MOV
OCK
▁사서
▁이로
먼드
▁깨진
▁매점
▁저번
▁!!!
▁만우절
▁쟁탈전
▁Every
▁컬쳐
▁콘테스트
▁카르타
▁굴림
▁역적
▁였었
▁이강
▁쿠보
▁화속
▁돌려서
▁분대장
▁사이코패스
▁흡입
▁태어날
▁스케이팅
▁망자
▁자음
▁Rob
▁카자흐
▁경원
▁명심
▁치른
▁get
▁무패
▁민지
▁사찰
▁유파
▁맥도날드
▁이트
▁자재
고스
▁로어
▁반주
▁이범
▁초밥
▁평시
▁프리티
▁소품
▁치워
▁놀러
▁번영
▁비열
▁착안
▁마츠다
▁센고쿠
▁짭
▁소홀
▁픽션
▁멱
▁HR
▁아틀란
▁코스모
시간
▁서스펜
캐슬
▁KA
▁매뉴
▁호문
▁540
▁돌풍
▁옥스
▁365
▁남아프리카
▁공석
▁투덜
ton
▁덧붙이
aid
▁NA
▁mA
▁추위
▁늘릴
▁카밀
▁변속기
▁포뮬러
lection
▁창시자
▁플랫폼
▁거창
베르크
▁꼭대기
▁시트콤
▁Orig
▁게재
▁하오
▁해낼
▁도르트문트
its
▁그리핀
▁들려주
▁what
일본
티티
▁긴가
▁스켈
▁하계
▁다이빙
▁정부군
▁Rain
어먹
▁스투
▁죽임
▁필승
▁냐면서
▁뉴캐슬
▁외친다
24
트릭
▁언뜻
▁알라딘
트니
▁광부
▁수만
▁라리
▁티코
▁세바스
▁Af
▁입법
▁행정부
▁하세가와
▁노다
▁방아
▁이방원
▁당원
▁벨벳
▁ADVANCED
▁등용
▁들으며
▁요령
▁자결
▁패권
▁알아차리
▁바드
▁암석
▁포섭
▁망가진
▁아우구
▁예루살렘
▁카나메
▁틀어막
바인
▁서슴
▁순조
▁애리
▁오거
▁일어서
▁재판소
▁트렌드
▁강해진다
▁플로리다
▁앵글
▁온전
▁재탕
▁징집
▁태백
▁206
▁수식어
▁슬로건
▁잔소리
tm
마을
▁멘토
▁뭉개
▁창당
▁숙적
▁질리
▁비타민
▁Order
▁공구
▁오피
vent
▁don
▁스러울
▁인테르
▁근위
▁TBS
영웅전설
▁은하영웅전설
▁고드
▁선별
▁May
▁내려와
▁동선
▁베토벤
▁코러스
▁라이브러리
너드
▁Po
▁간과
▁코피
▁노동당
▁아랑전설
교도
▁노보
▁세련
▁전범
▁특색
▁디바인
태격
▁동결
▁어감
▁해온
김없이
▁운동가
▁티격태격
▁sw
▁각광
▁성범죄
▁아르타
▁아카시
▁이리야
드려
▁레고
▁자선
▁효력
orts
▁공천
▁남친
▁바빌
▁새해
▁장발
▁추운
▁판넬
▁타노스
▁들어도
▁성희
▁자서
▁경멸
▁파충
▁포신
▁내쫓
▁봄버
▁수료
▁에지
▁호족
▁분수
▁색기
▁아브
▁안톤
리스크
▁난장판
▁편집자
▁빡세
▁여덟
ura
▁골대
▁고아원
▁구루
▁성주
▁표류
▁뱌
▁켠
▁역기
▁활기
▁흑발
▁오산
▁스트롱
▁가맹
▁린이
▁만장
▁여객기
▁고른
▁알림
▁커진다
▁판단력
▁수산
▁카로
▁허접
▁베네치아
▁풍속
▁낙서
▁오모
▁재림
▁조아
▁묻힌
▁조동
▁채굴
▁최성
▁스트림
살이
▁로버
▁진범
▁카즈미
▁럿
▁PA
▁골격
▁착수
▁초회
▁미하일
▁정신병
▁해봐도
▁줄인
▁통찰
▁Are
▁근로자
▁인테리어
▁캅
▁겨누
▁예매
▁아틀란티스
▁힛
▁농도
▁가까우
▁물들
▁싸인
▁제명
▁최장
▁허준
▁내세운
▁미소년
▁몰아붙이
▁코우타
▁트롤링
▁9000
▁서동
▁미츠키
▁아머드
▁파기
▁형법
▁제각각
니엄
▁고야
▁단타
▁티모
▁레일건
▁티르
▁메이크
▁사오리
▁괴짜
▁소셜
▁줄게
▁밀레니엄
▁신차
▁오레
▁줄리아
▁히로미
스틱
▁끝낼
▁디언
▁전면전
▁민트
▁야미
▁리비아
▁항공대
▁견뎌
▁근방
▁아토
▁재결
▁지마
▁독소
▁론가
▁슈리
▁아즈텍
▁Best
son
▁소양
▁MI
▁마성
▁png
▁아라이
▁그레이브
마니
부수
임수
▁상임
▁주시
▁콜로세움
▁악수
▁조부
▁초심
▁다이크
▁매뉴얼
▁가한
▁결단
▁물류
▁원치
▁포자
▁거침
▁대련
▁달려드
xt
ape
▁NP
▁나아지
▁Stri
▁길티
▁니퍼
▁파커
▁아서스
▁한판
▁미니건
▁스러웠
▁유체
▁기형
▁사비
▁식구
ster
▁Pack
▁선가
▁나지
▁윤성
anna
▁불량배
▁호밍
불리
▁웍스
ize
▁GA
▁마쓰
▁양지
▁행동력
문화
▁pe
▁대물
▁불륜
▁옅
▁kn
질러
▁고온
▁무토
▁원안
▁조종당
▁원가
▁역전패
▁슬라이더
▁끝없이
▁조선인
▁코만도
▁프리덤
네즈
요리
▁두각
▁매춘
▁벼슬
▁클러치
▁아름다움
슬로
▁남코
▁짬뽕
잣집
포동
▁유족
▁진중
▁쿠우
▁1951
자국
▁리포
▁오카다
황후
▁깜빡
▁미우라
▁스코어링
err
▁말뚝
▁패하
▁앞머리
개골
상스
▁올라서
▁울버린
▁무쌍
▁표명
▁랠
▁막혔
▁지출
▁동탄
▁설교
▁직종
▁하가
▁흐른
▁탤런트
▁PH
▁노노
▁370
피탈
▁왕정
▁이매
▁사이먼
▁야말로
▁정찰기
▁고라
▁은색
28
▁선량
▁이연
▁차우
▁캐쉬
▁마일리
겨운
AKA
▁메커
▁은어
▁통장
▁대칭
▁람보
▁몰입
▁쿠파
▁칠드런
▁인조인간
▁tw
▁미카도
▁서둘러
▁they
oud
▁다채
▁인분
▁자일
▁Mir
▁달한다
썰트
▁충원
▁피크
▁앤드류
▁어썰트
▁교원
▁밀린
▁유괴
▁컨버
▁Joh
▁미분
▁촉한
▁his
▁Mbps
▁갑주
▁초연
▁"..
▁날아갔
▁노리코
▁이룰
▁홍차
폴리스
▁이장
▁구레
▁극동
▁하남
▁나이지
▁나이지리아
▁꺼려
▁반열
▁창법
▁장시간
SS
자스
▁넬슨
▁다지
▁당근
▁흑색
▁노하라
▁크래시
▁서북
▁추축
▁마라톤
▁끝낸
▁치솟
▁거머
▁mAh
IDE
OSS
▁관현
▁어머
▁척추
▁747
▁토머스
▁금정
▁발령
▁텐트
▁레이서
▁세계수
▁뜸
기수
▁국지
▁경순양함
UG
▁철구
▁총회
▁혈압
▁실비아
ze
▁아돌프
▁지으며
▁우익수
zy
▁무소
▁브룩
▁전한
▁아오바
▁음파
▁주점
▁피고
▁광화문
▁나오토
ama
▁용납
▁도요토미
▁독살
▁171
레마
▁유죄
▁정신줄
훈련
▁교구
▁승용차
▁데이비스
▁물음
▁부설
▁자행
▁잔존
▁앰프
hy
▁이목
▁즌
▁달릴
▁이부키
▁파밀리아
▁First
헤드
▁궁예
▁덴마
▁신야
▁오기
▁우터
▁받아들인다
▁분전
▁오재
▁차인
▁215
▁하야시
▁급감
▁로데
▁분파
▁사학
▁여군
▁정선
▁카모
▁놓인
▁순차
▁저술
▁토미노
▁마천
▁수기
▁애틀랜타
▁다구
▁찾아갔
▁기다려야
▁속했
▁유창
▁포상
▁벳
▁선단
▁시연
▁호머
▁게이밍
▁골짜기
▁브라이트
▁각주
▁비터
▁히키
▁윈스턴
▁쳇
▁예민
시즘
▁니티
▁도키
▁미코
▁포메이션
END
▁상반신
특기
▁발도
▁뽐내
▁속삭
▁탄종
▁수없이
▁이세이
▁자연히
▁주특기
▁NORM
▁ㅂ
▁뻔뻔
▁총애
▁사우디
▁전광판
▁먹혀
▁흘렸
▁시끄럽
▁한없이
▁맨손
▁복식
▁161
▁승승장구
▁천리
▁알제리
▁열폭
▁기념일
▁교포
▁도부
▁일면
▁강서구
▁셔서
▁씌우
▁탄피
너티브
▁얼터너티브
▁강국
▁육신
▁코타
로트
▁걸러
▁돌변
▁뽑혔
▁약사
▁이도
▁피파
▁시베리아
▁HT
▁메사
▁아루
▁181
▁데니스
▁1936
라이어티
슬라비아
▁유고슬라비아
어처
▁안장
▁익산
▁파주
▁235
▁펼쳐진
▁미니어처
▁버라이어티
설수
▁재수없
▁슬프
▁MAD
▁두터
▁매기
▁실물
▁라이저
▁몸싸움
▁교묘
▁여제
▁제때
▁타케우치
▁북동
▁눈보라
▁미노리
▁Perf
▁완력
▁왕창
▁은빛
▁힌두
▁NMB
▁Miss
▁NATO
▁카트리지
▁관건
▁니르
▁통폐
▁한류
▁Char
▁벨리
▁Down
▁NORMAL
▁북벌
▁잭스
▁케미
▁프렌드
▁마구잡이
▁오퍼레이터
ume
▁Mem
▁요시카
▁공안
▁뚫려
▁시급
▁역행
▁이송
▁전곡
▁종파
▁데미안
▁마카오
▁밝혀져
▁건만
▁에니
▁이여
▁백병전
▁어정쩡
▁엄폐물
▁커진
▁횡령
▁Hot
▁이메일
▁발병
▁일병
▁판교
▁City
독스
▁나돌
▁단도
▁페러
▁향신
▁wiz
yes
▁도맡
▁첩자
▁조나단
▁선보인다
▁출생지
▁대성공
▁펩
▁덮치
▁얼룩
조림
▁폭언
23
83
해져
▁김천
▁원술
▁재발
▁혐한
ga
분투
net
▁골절
▁규율
▁발하
▁풍습
회전
▁이면
▁AGE
▁넥스트
▁어르신
▁에그맨
▁옥수수
▁275
▁머릿속
UD
▁칵
▁쌓았
▁알트
▁오소
▁기폭
▁망신
▁명절
▁세인
▁신종
▁컬처
▁데일리
▁이케다
▁가둬
▁갈굼
▁나즈
▁시영
▁약품
▁집게
▁나눠서
만화
▁207
▁Happy
꼬박
▁놓이
▁다그
▁DEF
▁늘어날
▁탑승자
▁꼬박꼬박
▁뻐
▁낙양
▁실록
▁피했
▁유리카
▁치즈루
▁가차없이
제이
▁분실
▁스트라
숭아
▁서경
▁우울증
▁미주
다르
▁겸임
▁곧장
▁승낙
▁전위
▁르네상스
▁버크
▁순발
▁키는
▁dis
▁재생성
▁유토피아
▁Class
▁가발
▁차오
▁Ret
▁몬스터즈
▁가했
▁요하
▁Break
나우
awn
▁765
▁Und
▁선동열
▁헤일로
▁풍미
덴티티
▁RED
▁쿼터백
▁했다간
▁헤어진
▁아이덴티티
▁올레
▁앞부분
▁헤드폰
▁요가
▁철학자
▁베로
▁성희롱
▁외교관
▁스테이크
▁과반
▁기로
▁성의
▁노하우
▁살아왔
▁순발력
▁위아래
▁경관
▁전경
▁헌트
▁혈관
▁스톨
▁정품
▁호시노
▁관전
▁수렵
▁접할
▁just
▁콴
▁사옥
▁순화
▁입석
▁타오
66
▁총검
▁감마
▁친숙
▁하로
▁나폴리
▁누렸
▁도봉
▁211
▁MUS
▁동성애자
샤인
▁TN
▁머들
▁핑거
▁말버릇
▁샤르
▁황폐
▁러스트
▁Stage
▁조개
▁대대장
▁전라도
부리
▁#!
▁견습
▁우왕
▁한신
로그램
▁Dec
▁매매
▁주재
▁합숙
▁SHD
어야
▁경산
▁닷컴
▁막스
▁만담
▁개머리
▁동호회
▁띈다
▁반죽
▁산지
▁감속
▁거라
▁역도
27
▁노미
▁매튜
▁아로
▁토모코
IAL
▁단수
▁다는데
▁아키하
▁노화
▁다케다
▁베르나
▁넛
▁가관
▁세울
▁숙박
▁패러독스
▁분비
▁족족
▁최형
▁코퍼
ORPG
▁예컨대
▁최하위
▁통폐합
▁다람
▁로페
▁예거
▁키네
▁마니아
▁수차례
▁클라크
▁프리랜
▁깃든
▁소란
▁훌쩍
▁레스터
▁됬
ONE
ius
▁부상자
▁돼지고기
▁군세
▁레츠
구멍
▁애착
▁촉진
▁두개골
▁포이즌
▁뛰어다니
비야
▁양말
▁중남
▁!!"
▁유키코
▁정했
▁취할
▁구한다
▁드러머
▁풀이
▁레기온
▁Elect
▁찻
ole
▁행렬
▁혼잡
▁속임수
▁드래곤즈
que
▁가할
▁덤블
▁사칭
▁다리우스
▁반신
▁STA
▁다이묘
▁수사관
▁over
▁요코야마
▁포레스트
대상
플러
▁지킨
▁GAME
▁950
▁약혼자
▁동강
▁화보
▁시드니
▁진행할
att
▁됐었
▁빙글
▁디에고
▁풀려나
▁퀀
▁전리
▁우에노
▁플라워
▁바카
▁왕세
▁구실
▁놀려
▁잠식
▁탈영
▁부잣집
▁얏
멘션
▁콩고
▁내세워
▁디멘션
▁방영일
▁애니플러스
95
삭스
▁먹일
▁페트
▁코즈믹
▁광주광역시
▁과열
▁로트
▁집요
▁주둔지
블랑
▁다분
▁214
▁돗
▁ESP
▁명실상부
▁치하
오피아
▁440
▁되살아
▁알프레드
▁에티오피아
▁세카
▁한인
▁알고리
▁두근두근
▁일렉트릭
▁쿠로사키
다듬
▁샤이니
▁영장
▁Cor
▁Fly
▁MOD
▁간다면
▁훈련병
▁NASA
▁산호
▁천차
▁주유소
▁버린다는
▁닳
마드
▁밀쳐
▁에비
▁펑펑
▁컨퍼런스
▁떠도
▁리만
▁볶음
▁수병
▁짜여
▁헤더
▁흔치
▁왔으나
▁2021
▁나타낸다
▁시리우스
▁Legend
▁명언
▁주루
▁htm
▁every
▁엘더
▁박진영
▁래빗
▁보름
▁생소
▁자서전
▁코드네임
▁oh
▁김응
▁누른
▁아발
▁위드
▁자그마
▁잃어버렸
▁검거
▁딱지
▁Fre
▁EXTRA
▁경음
▁깃들
▁선한
▁지간
▁짜장
▁Rad
▁our
▁앞세워
GM
바탕
com
▁유니버
irect
▁차고
▁팬더
▁CGV
▁메커니즘
▁뇨
▁죽여야
▁출연자
▁과잉
떨어지
▁단축키
▁사업가
▁포유
▁마사루
▁노년
▁셰이
▁역장
▁타이완
▁퍼니셔
▁한국사
각형
▁경합
▁씌워
▁양분
▁양재
▁자속
▁다이노
가르드
▁피어스
▁니키
▁작자
▁잔여
▁커져
▁Aut
▁위스키
레톤
해머
▁교활
▁권법
▁분경
▁에뮬
▁이크
▁체하
▁포구
▁자이로
▁히로키
벌이
get
▁붙일
▁TRA
▁달려오
▁이정훈
▁향신료
▁산산조각
▁공연장
▁Dest
▁스켈레톤
▁냉철
▁전단
arth
▁EXO
노부
▁**
▁미적
▁죠타
▁걸쳐서
▁브라이
▁EXPER
▁섬뜩
글러브
▁지상군
▁클리프
▁알고리즘
▁골든글러브
▁나주
▁사보
▁자백
▁제동
▁Mac
▁건축물
▁그랜트
▁빈민
▁적도
▁컴플렉스
▁Level
IO
▁잠든
▁황색
▁권력자
▁프리랜서
▁쉰
▁이비
▁풍신
▁혈연
▁대나무
▁스메
▁클럭
▁이따금
▁Ry
▁곧잘
▁기각
▁노미야
▁파충류
거스
▁공황
▁복서
▁보이드
▁당겨
▁타타
▁개머리판
노프
카이저
▁미야코
▁Tech
▁국교
▁제타
INAL
▁나와야
▁정한다
▁백스
OTH
▁백마
▁코칭
▁쾌락
▁하야미
▁down
거렸
▁얽힌
▁외동
▁푸시
▁난데없이
▁노기자카
▁거쳤
▁무르
▁보옥
▁아재
▁역세
▁정관
▁차차
▁편찬
▁싸구려
▁쓰여진
우먼
▁대영
▁윤종
▁언론사
▁즐거움
▁탄산
▁화전
▁환술
▁노태우
▁레너드
▁방탄복
▁이어주
▁이승현
▁밧줄
▁301
▁헤비급
▁눈부
▁라이스
▁TECHNIKA
▁구이
▁취항
▁머물렀
▁more
선거
▁러서
▁지으
▁최순
▁포박
▁등록금
▁비행장
▁가르시아
▁지명타자
▁Ul
▁계신
▁요네
▁Pol
▁Port
▁모자이크
▁페널티가
펠러
▁동시대
▁어웨이
▁해밀턴
▁아와
▁자릿
▁쿠퍼
26
피드
▁다의
▁물어뜯
▁노우
▁채무
▁이윤열
▁켄신
▁하피
▁끈질기
TER
▁공문
▁카니
▁AAA
▁카트라이더
동물
enc
▁주제가
▁EXPERT
▁쏙
▁AO
▁위용
▁돌려받
▁블로우
▁송곳니
▁애리조
빠진
ano
▁여중
▁해부
▁마이티
무쌍
▁데인
▁진풍
▁410
▁뒤엎
▁렐름
▁오줌
▁갈라지
▁졸지에
소타
▁닛산
▁투지
ated
▁농어촌
▁제이미
ya
에트
▁이룩
▁장기전
▁=,
▁레토
▁아소
▁활발히
▁맡긴
▁펠레
▁RGB
▁새겨져
▁댁
니케이션
tor
▁모차
▁선더
▁켈트
▁들어맞
▁스사노
▁이뤄진
▁쓰러뜨릴
▁독립운동가
▁AW
▁208
▁ABC
▁Hol
▁난다는
▁아키오
▁커뮤니케이션
▁꺼져
▁덴오
▁에밀
▁원대
▁올리브
▁미네소타
▁서큐버스
걸음
▁감격
▁방주
▁홍련
▁마츠이
▁마이스터
▁명맥
▁생몰년
▁파라오
▁뒤섞
▁자정
▁카나타
▁특촬물
▁볼드모트
수염
▁속출
▁도카이
▁보급품
▁약해진
▁어설프
▁정가
▁거쳐야
▁하이스
바위보
▁날아간
▁취한다
▁조선일보
▁가위바위보
▁일전
▁광저우
▁모성
▁빼앗겼
▁뿜어내
▁히데오
▁몬드
▁인계
▁투여
▁피통
▁마리나
▁바이트
▁하나같이
▁팽창
▁하긴
▁레인저스
▁빤
매기
▁급소
▁다테
▁복판
▁연장선
▁우즈베
▁Line
▁WHIP
하늘
▁강당
▁내신
▁라르
▁소린
▁품목
피디아
▁GPS
▁거북이
▁선샤인
▁이나바
도어
▁민심
▁송지
▁호연
▁거처
▁꼼꼼
▁반입
▁정상급
비지
uro
▁증식
▁노이드
▁타카미
ouble
▁위키피디아
성어
▁레터
▁아이슬
▁내무
▁노드
도니아
▁Hey
▁Fall
▁간직
▁개중
▁산전
▁베이커
▁소스케
ague
▁도메인
▁라이엇
▁지날수록
▁"'
▁견딜
▁여길
▁요마
▁트인
▁티오
▁good
팽이
▁도왔
▁명계
▁앤트
▁청혼
▁희소
▁병살타
▁케이스케
▁가요제
▁번쩍
▁속주
▁설립자
▁메모리얼
▁갈비
▁장문
▁지바
▁Val
▁장제스
츠미
▁깨져
▁사하
▁영수
▁watch
be
▁라카
▁소굴
▁Ant
▁타무라
▁봉지
▁살포
▁경희대
▁후지타
▁깍
▁작아
▁한술
▁호신
ther
▁유희열
▁고구
▁녹스
▁도래
▁수두
▁의약
▁조련
▁취역
▁바티칸
▁바이올렛
▁영령
▁와해
▁훔친
▁EPL
▁박지성
▁연합국
▁강북
▁완투
▁여하튼
▁중심부
배기
비어
▁EL
▁남서
▁총수
▁팍팍
▁패해
▁카디널
48
▁OT
▁발열
▁보크
▁투영
▁살아갈
▁천문학
여겨
▁낙동
▁매크로
▁Kill
we
▁캠핑
▁방사선
매김
▁가락
▁사적
▁상층
조선
키오
▁궁궐
▁도살
▁발랄
▁우러
line
▁오스틴
▁트랭크
▁몽환
▁비우
▁이펙터
▁Show
▁자리매김
▁white
▁아이슬란드
구석
▁뒤져
▁혹독
▁머큐
▁꼬맹이
▁요스케
▁일찍이
UND
▁동자
▁구세주
▁내려간
▁소폭
▁완패
▁황천
▁물려주
▁이대호
▁한자어
▁Spring
▁쿡
und
▁헤엄
ITAD
▁Pop
▁조종석
▁나토
▁모셔
▁남겨진
▁들이받
▁펌웨어
타마
▁고해
▁목성
▁입혔
▁마츠리
▁스케이트
▁간절
▁목욕탕
▁이뤄졌
▁흩어져
▁편차
▁디스트로
▁못했으며
ck
▁괄호
▁자물
▁포괄
▁포츈
▁방아쇠
▁스타터
▁실제론
▁원정대
▁국무총리
▁반공
▁Cal
▁Ind
▁튠
▁성룡
▁자습
▁010
▁부적절
▁외견
▁공모전
▁들어야
▁브리핑
▁은지원
▁디스트로이어
▁게으
▁묵시
▁Way
▁들어섰
▁알버트
▁타카기
▁공평
▁야유
▁인파
▁인민군
▁Club
▁아쉬워하
▁뻑
말라
▁연무
▁공포증
▁데이지
▁알아볼
▁자물쇠
▁조그만
▁훤
▁신탁
▁전조
럴드
▁건방
▁격분
▁김시
지부지
▁싸그리
▁흐지부지
▁Girls
▁신천
▁똑바로
▁조지아
▁약했
▁떠올랐
▁Dead
▁분식
▁상수
▁위임
▁형용
▁생활관
▁세리카
▁환상향
▁길동
▁달렉
▁메우
▁1937
▁로렌스
▁돌기
▁동해선
▁동호인
▁비닐
▁영도
▁오블리
▁헤이즈
▁GITAD
▁뿅
워진
▁루팅
▁뻔한
▁승조
▁장화
▁끌어안
▁후타바
▁MMORPG
▁반려
▁세조
▁된다며
▁알려준
▁양육
▁톰슨
▁마음먹
▁비행단
▁연장전
▁은신처
▁티아라
AV
▁굳히
ault
▁는다며
▁원나라
▁추격전
▁프로페
▁군용
▁부순
▁이석
▁사나에
▁위안부
▁WORLD
노세
▁권속
▁수모
▁예뻐
▁에스퍼
▁큘
▁기권
▁로엔
▁이규
▁거주민
▁사이키
▁프랭클린
▁나설
▁미얀
▁조디
ipedia
연의
▁시위대
▁윤석민
▁지나간
대군
회의
▁건달
▁빈곤
▁재킷
프레이
gy
▁실기
▁How
▁감염자
▁어떨까
▁아카이브
▁백호
▁스탬
▁연마
▁절제
▁건널
▁특례
▁계약자
▁이마이
▁제라드
▁도핑
▁SPEC
▁모차르트
▁sk
▁일회
▁하얗
게이트
▁경계선
▁만성
▁워해머
▁퀘이크
▁름
▁DL
▁과묵
▁무마
▁비겁
▁샤먼
플라이
▁이광수
▁휘둘리
▁오블리비언
제프
▁공민
▁귀속
▁얼라
▁판인
▁한문
▁숨결
▁심볼
▁여운
▁늘어
▁더듬
▁버지
▁이견
▁일식
▁Now
▁구매자
▁모로코
▁안주
▁안치
▁인턴
▁자상
▁전근
▁팔라
갯소리
ayer
▁KE
▁XI
▁만연
▁별점
▁살렸
▁슈츠
▁안구
통일
▁양팔
▁요도
▁유품
ling
▁HKT
▁눈여겨
▁지원자
▁때렸
▁수반
▁원반
▁밀어붙
▁사이렌
▁래더
▁타깃
▁황룡
▁다이어
팔구
덩어리
페르노
▁선교사
야구
▁Hi
▁장자
▁재차
▁선호도
▁호타루
▁하룻
▁샘플링
▁오아시스
▁과하
▁디디
▁십중
▁태양계
96
안군
▁헌납
▁반짝이
▁세이프
▁햐
▁드미
▁밀수
▁십중팔구
▁인페르노
▁야오
▁그지없
▁노장
▁속칭
▁종속
▁Har
▁레이팅
▁스펙트
▁1934
▁금단
▁발단
▁아세
▁주화
▁Med
▁바닷가
▁부르크
▁소방서
▁잠자리
▁Space
▁금빛
▁무트
▁수첩
려야
▁독고
▁땅굴
▁수속
▁이레
▁코라
▁광해군
▁인플레이션
▁고글
▁고압
▁EXE
▁Sam
▁드로이드
▁우스갯소리
▁금세
▁레티
▁창간
▁최지
▁테크놀
▁템페스트
꿀멍
바꿈
▁그람
▁들인
▁인술
▁Def
▁데꿀멍
▁Death
▁바운
▁코쿠
▁거리낌
▁니스트
▁홈플러스
▁리토
▁바텀
▁케어
▁거둔다
▁MOVIE
실신
▁XG
▁함성
▁떡실신
▁어려워졌
▁무례
▁이을
▁톱니
▁함인
▁부착물
▁보컬로이드
▁GITADORA
▁성종
▁숙이
▁허물
▁번역본
▁Sweet
▁쥔
▁-!
▁bit
일비
▁EB
▁모였
▁정국
▁아즈마
▁Pass
▁Friend
▁변칙
▁정박
▁김연아
▁돌려보내
▁받침
▁번화
▁실격
▁엠마
▁엠블럼
▁유타카
▁Park
▁숙제
▁껍데기
▁포식자
제비
▁머슬
▁유흥
▁라멘
▁직급
▁카빈
▁한큐
▁로드리게
▁삼국지연의
송이
iny
▁맨몸
▁변기
▁탈리
▁신뢰도
▁합격자
▁협의회
▁걸어다니
▁검출
▁백과
▁슈테
▁스구
▁인삼
▁제아
▁ISO
▁빠져나
▁사토루
▁지원군
▁HY
▁나와도
▁향했
ople
이시
▁구수
▁따름
▁지드
ortex
▁안대
▁요절
▁기울이
▁플레이버
▁모란
▁연옥
▁잠겨
▁김세
▁스톱
▁안즈
▁관현악
▁사이다
폭풍
▁면치
▁습하
▁식용
▁창출
다이스
▁슬럼프
▁어려워서
▁발진
▁조라
▁중파
▁디폴트
UK
▁멱살
▁서주
▁셋쇼
▁유린
ental
▁셋쇼마루
▁\]
▁마셨
▁봉신
▁사스
▁살육
▁속사
▁지네
▁캡쳐
▁과거사
ASY
▁은둔
▁223
▁나온다면
▁경례
▁백설
▁병풍
▁엘릭
▁상승세
▁흘러나오
▁클라이맥스
▁MY
▁사절
▁칩셋
▁Sur
▁WWF
▁has
▁Story
▁Bu
▁거너
▁반년
▁잠금
▁통통
▁펼친다
▁계투
▁라그
▁아톰
▁미국식
승우
▁관세
▁원내
▁카키
▁태후
▁평온
▁삼각형
재욱
▁If
▁군장
▁때우
▁린코
▁막시
▁벗기
깃거리
▁Inv
unk
▁잠정
▁챙겼
▁블로킹
ander
▁부팅
▁점장
▁평의회
▁갉
미아
▁거하
▁몸값
▁존기
▁트란
▁DSP
▁따라선
▁부지기수
▁걸림
▁껴안
▁생식
▁하원
▁후리
▁마석
▁무구
▁음역
▁음질
▁결정타
▁점프력
거래
▁난도
▁신승
▁일괄
▁잘렸
▁min
▁다르크
▁가희
▁김풍
▁정근
우로스
▁스냅드래곤
▁쟝
▁나트
▁노련
▁혼용
걸스
▁Cha
ubl
▁살라
▁의병
메이트
▁그리폰
▁핫토리
▁노블레스
▁마일리지
▁본점
▁수트
▁빗자루
▁환승역
▁케이이치
▁논하
▁발성
▁성북
▁힘내
곡역
▁고딕
▁법령
▁살벌
▁성물
▁쓸려
▁우버
▁저것
▁질책
▁차츰
▁바깥쪽
▁GE
▁몰두
▁쾌적
▁불태워
▁삼켜
▁요크
▁이보
▁주지
▁폐교
▁미치루
▁이바라
▁Never
▁신진
▁질럿
▁아나킨
▁사이클론
▁저편
▁John
▁사카가미
▁타이베이
▁팥
▁감명
▁왕권
더리
▁아야노
▁YG
▁건대
▁헬리오
▁혹시나
str
▁디어
▁몽키
▁밀짚
▁애써
▁양천
▁김유진
▁연장자
▁두루마리
▁di
▁겨냥
▁고고학
▁동맹국
▁보여진다
▁로스쿨
▁몰아붙
당기
ley
▁스맥
▁입찰
▁LOL
▁쌍방울
▁3500
RAS
▁압둘
▁타도
ords
▁미노루
▁불명예
▁키리코
▁한테서
▁스맥다운
테라
ope
▁사채
▁와드
▁득점자
▁아마노
▁팔린
네이션
▁야마노
▁표지판
▁RT
▁그늘
▁마우
▁쉬워졌
▁키쿠치
자치단체
▁분출
▁하룻밤
▁파우스트
▁내력
▁로토
▁연혁
▁을시
▁군청
▁샤우
▁샤인
▁연못
▁살인범
▁포스팅
▁볼링
▁안영
▁은인
▁아우라
부진
▁Tra
▁부조리
▁클레멘
▁GU
▁콘스
마이트
▁불상사
▁코마츠
▁지선버스
서리
▁자택
▁추대
▁아리마
▁페드로
▁샛
▁메꾸
▁소인
▁외주
▁이코
미사일
▁뮐
▁분단
▁신혼
▁어때
▁정진
▁제천
▁알렌
tain
▁낄
▁노량
▁살피
▁체면
▁나아진
▁다비드
▁Will
ux
▁발기
▁대천사
▁다승
▁입상
udio
▁넘어온
▁지하실
▁부끄러워
▁사춘
▁신룡
▁과대
▁속여
▁해협
▁스크랩
▁이신형
▁핵폭탄
▁미네르바
카타
▁역이
▁웅장
▁저절
▁처칠
▁Bro
▁Cry
▁수호신
▁비석
▁수이
▁스캇
프릭스
▁Mer
▁갔으나
▁루돌프
▁미네랄
▁기타프릭스
▁베풀
▁나자
▁다던
▁수교
▁조만
▁처자
▁공용어
▁there
예프
▁컵스
▁타란
▁영웅전
▁저절로
▁한다든지
▁Party
▁경부고속도로
▁다이너마이트
▁wikipedia
▁에델
▁탄력
트린
▁긍지
▁파프
▁Net
▁Set
▁머물러
▁최종병기
▁와일드카드
토메
▁총신
raft
▁유목민
▁동아일보
▁물결
▁호적
▁훈련장
▁맹렬
▁묵묵
▁이블
▁주박
▁마유미
▁오클랜드
▁PM
▁시정
▁저속
▁계약서
isode
▁권투
▁숙종
▁애호
▁폄하
▁데려왔
▁레바논
▁수두룩
▁갑작스런
하고
▁NV
▁hp
▁궁정
▁등짝
▁바크
▁반찬
▁밑바닥
▁탈바꿈
▁관내
▁김남
▁엄친
▁날카롭
▁만신
▁아귀
▁일간
▁나이스
▁우에다
▁Single
ino
▁국외
▁번역가
▁유가족
아르
▁390
65
rol
▁기증
▁불시
▁의인
▁잘난
▁조예
▁보이즈
▁SHOW
▁횃
▁거란
▁손길
▁환관
▁와이파이
융합
▁비방
▁익사
▁USA
▁눌러서
▁life
▁속아
▁외할
▁핵융합
▁애덤
▁이형
▁인위
그래피
▁252
▁거들
▁별반
▁더욱더
내려
eed
▁사타
▁얽히
▁PG
▁라벨
▁비뚤
▁큐리
▁타루
▁실린더
프레이즈
도스
▁비오
테라스
▁살라딘
▁토에이
▁관하
▁방전
▁드래건
▁전리품
▁해치우
▁나가사키
▁Gener
BE
▁숄
러미
▁달력
▁뒷담
▁발포
▁콘스탄티노
보트
▁링고
▁충신
▁쿠가
▁fr
▁SKY
▁청주시
▁투르크
▁-.
▁멈출
▁인장
▁부러진
▁정보원
▁분담
▁직진
▁쿠와
세이돈
ball
▁매출액
▁밀가루
▁덧붙여서
▁포세이돈
빙글
▁분양
▁수양
▁자급
▁적국
▁피시
▁애플리케이션
▁권혁
▁섭정
▁실례
▁현종
▁교황청
▁덤벼들
▁메이슨
▁불어넣
ement
ations
▁아마테라스
▁캐치프레이즈
인드
▁꾸민
▁낯선
의지
▁구룡
▁육탄
▁모니카
▁생방송
▁개관
▁먹인
▁스필
▁온리
▁격납고
▁포르쉐
▁무라카미
▁김제
▁두른
▁루가
▁원체
▁정승
▁글래스
▁상급자
▁김호
▁박동
▁워스
▁현세
▁왜냐면
▁미야모토
▁서든
▁송정
▁Hero
==
▁국한
▁쿠페
▁파헤
▁사춘기
▁빨라진다
▁찼
이야
▁김한
▁375
▁File
▁견고
▁멩스
▁뱌쿠
▁범하
▁와다
▁터빈
▁휴재
▁극명
▁두세
일비재
ient
▁주저앉
▁비일비재
▁속죄
▁시달렸
▁어울려
▁씰
▁골랐
▁까칠
▁나니
▁상서
▁유시
▁조경
▁열등감
▁1935
▁내분
▁보전
▁불굴
▁퇴직
▁가우스
▁오나라
▁옥타브
▁유키오
▁흑기사
▁1919
더미
레프
▁내림
▁셔터
▁부대장
▁music
▁대모
▁엘렌
▁농성
▁마귀
▁산요
▁오랑
▁무리뉴
▁조준기
쩌둥
▁아니하
▁마오쩌둥
▁례
▁보태
▁계급장
▁충실하
핑크
▁세터
▁미사토
▁판박이
oe
밍고
▁매료
▁어다
▁핸디
▁기념관
▁자릿수
▁합쳐져
▁네버
▁마담
아내리
▁연산군
▁Ma
▁구위
▁외판
▁타코
▁리투아
▁마사시
▁잖아요
▁케이타
▁리투아니아
▁폐위
▁지식인
포역
▁놓친
▁징벌
▁플루토
▁매그너스
백호
▁금천
▁모태
▁신스
▁위닝
▁귀여워
▁게인
▁레퀴
▁신해
▁와야
▁들이닥
LY
날레
▁김신
▁서커
▁충무
▁황녀
▁바리에
▁승룡
▁의기
▁통영
▁얌전히
▁기색
▁Sou
▁자가용
▁1911
▁Tour
유산
▁끼얹
▁직설
ival
▁802
▁데려와
▁메이스
▁머나
▁미화
▁백발
▁재계
▁USS
▁준이치
▁하버드
▁후부키
▁Christ
▁굵직
▁묶인
▁바빠
▁스니
▁신형
▁적잖
▁코니
▁매달리
▁1700
▁마제
▁잔치
▁에리스
날리
브로
▁et
▁레진
▁로아
▁손색
▁머나먼
▁대전차포
▁스파이럴
▁였음에도
▁가열
▁루니
▁적장
▁방향키
▁약해졌
게요
루가
보스
▁216
▁SSD
▁심부름
▁스도
▁315
▁노린다
▁굳건
▁지코
▁활력
▁소이치로
▁손대
▁큐트
▁놀란다
▁브렌
▁강남역
▁머큐리
▁원자로
▁그레이스
▁음주운전
▁동양인
▁BLACK
▁도넛
▁라울
▁장이
주니어
▁DAY
▁은지라
▁op
▁본업
▁pop
▁달라질
ISS
▁TA
▁가계
▁소자
▁손잡
▁이완
▁맹독충
▁풀타임
▁파라다이스
TH
▁나약
▁혼종
차원
▁고군
▁음절
▁인제
▁종반
▁YOU
▁츳코미
▁금물
▁루디
▁목장
▁IEM
▁끊겼
▁얼른
▁이덕
▁재편
▁호가
댄다
▁성매매
▁북아프리카
▁가우
▁노역
▁스펜
▁양정
▁엘라
▁영력
▁이너
▁주선
▁이타치
▁밀짚모자
브레
▁이불
▁한미
▁경의선
▁사치코
▁수원역
▁연막탄
press
▁찾아다니
▁연필
▁영차
▁자초
베트남
▁세이라
▁전한다
총사
▁민망
▁외과
▁추론
▁소비에트
▁올라타
▁경기관총
▁못한다고
▁퍼레이드
▁하강
▁매달려
저곳
정사
vil
▁김장
▁서대문
▁엑스포
▁지만은
▁이곳저곳
▁Storm
▁교배
▁돌발
▁합쳐진
▁핍
공원
▁브렛
▁망원경
▁포커스
▁발주
▁히타
▁교직원
▁묵시록
▁1910
▁모의고사
판지
▁KN
▁부치
▁순교
▁무용지물
▁손견
▁헐리
▁성대모사
▁Sn
천리
파시
▁스에
▁신태
▁305
▁결속
▁재보
▁횃불
▁Hel
▁타마키
미트
une
▁놓쳤
▁모사
▁영정
▁ACE
▁PTS
▁이카리
▁cont
서니
▁에마
▁적의
▁SPECIAL
▁가뭄
▁나빴
▁후사
onder
▁설리
▁수회
▁옆집
▁쾌감
▁폭락
▁화나
▁살려서
만별
ILL
▁밀크
▁반반
▁야사
▁붙잡힌
▁요르단
▁천차만별
▁키리시마
osh
▁MH
▁김은
▁대림
산부
▁광동
▁내세웠
▁메피스
▁옐로우
▁서스펜션
▁콤플렉스
센터
▁가릴
▁씨름
▁양덕
▁이징
▁자우
▁증표
▁TRPG
▁Take
▁남대
▁헤카
라이터
▁Mon
▁무의미
▁잡혀서
ta
▁가트
▁뒤쫓
▁흉노
▁sec
▁니콜라
▁겨자
▁견훤
▁먹방
▁명색
▁빙하
▁왓슨
▁태사
▁프록
▁팰리스
▁강기
▁바벨
▁555
▁김기태
▁치어리
▁야인시대
▁프로그래머
▁명동
▁복각
▁압승
▁중용
▁부포
▁재조
▁가져올
가짐
▁청각
▁Key
▁나가토
건설
▁놔서
▁셔플
▁촛불
▁친부
▁Que
▁나루미
▁튀르크
▁마케도니아
▁도화
▁선율
▁함유
▁어쨌거나
▁가늘
▁FS
▁식칼
▁돌고래
▁히트맨
▁걍
ider
▁텔레파시
효과
▁미역
▁정주
▁촌장
▁상하이
▁너트
▁문호
▁보류
▁BMS
RO
▁거시
▁성불
▁레퀴엠
▁맞대결
▁최형우
▁렬
▁내준
▁틈타
▁하청
▁전기톱
▁통조림
마키
웨이트
▁우루스
▁칼로리
▁용신
▁코바
▁501
▁666
▁스탠리
▁광란
▁소말
▁문화사
신저
▁보임
▁알린
▁처박
▁시이나
▁라디
▁추앙
WAR
▁남궁
▁실권
▁장려
ense
▁미형
▁법조
▁시메
▁시브
▁욕하
▁모모코
▁방망이
▁girl
▁미츠루기
▁린스
▁바키
▁비들
▁외쳐
▁이효
▁진명
▁적나라
▁감찰
▁시제
▁밀라노
▁크루저
▁극단주의
경지
▁쟈니
▁커밍
▁아라타
▁영화배우
고짜
▁다짜
▁나타낸
▁다짜고짜
▁JD
▁딴지
▁이반
▁짤짤
▁최준
work
▁Sol
▁쿠웨이트
사태
▁꺼낸
▁말썽
▁성계
▁Nor
▁them
올로
▁눈매
▁무함
▁발당
▁택했
▁펀트
▁시험장
▁동백
▁원서
▁아이린
▁간수
▁단결
▁마부
▁백모
▁리아스
▁우주인
▁html
▁민수
▁슈마
▁채권
프레소
▁마조
▁삭스
▁그려졌
▁연구생
▁터져서
▁!!!!
▁놀랄
▁단호
▁명랑
▁vol
▁키네시스
▁오도
▁유투
▁XIII
▁프라이스
▁갈망
▁버트
ible
▁213
▁다이고
▁샌드백
▁youtube
▁뎁
▁냄비
▁뜨겁
▁나눈다
▁이리스
▁ZERO
▁한다든가
▁대항해시대
누마
성장
▁인대
▁출국
▁하체
집니다
▁end
▁소나무
▁하이스쿨
▁아스가르드
▁쉬웠
▁회식
ELL
▁VF
▁없음
onic
▁숟
▁논외
▁도산
▁둥근
▁모하
▁소외
▁온의
▁갈아엎
▁리디
▁망나
▁연두
▁오성
▁충당
▁근위대
▁되살리
▁타일러
▁Great
▁Cortex
idd
▁자림
▁전일
▁Dem
▁노무라
▁아무로
▁보패
▁수프
▁용접
▁천룡
▁유유히
▁이야깃거리
▁로케
▁부디
▁총평
▁행크
▁아이파크
▁남해
▁비올
▁해수욕장
▁nm
▁검법
▁열릴
▁ARC
▁니콜라스
가타
라면
▁NR
▁완주
▁원군
▁표범
▁베로니카
▁차량기지
▁위압
apan
▁해온다
와리
▁장창
▁일제히
광이
까봐
▁사파
▁염증
▁왔었
▁탈모
▁알아낸
▁0000
▁MUSIC
br
▁미어
▁열강
▁푸치
▁종착역
▁대한제국
러져
메트
▁별장
▁오션
▁로미오
▁시발점
▁노구
▁지울
▁천성
▁블라인
▁시공간
▁타이가
▁트레이스
▁Skill
▁카자흐스탄
▁안락
▁헬싱
▁카카시
▁Univers
88
▁권수
▁섬머
▁야한
▁없앨
▁416
▁곧이어
▁내보냈
▁모리스
▁무진장
▁다이애나
▁발린
▁빼먹
▁악재
▁강민호
▁비주류
▁감차
▁고졸
▁맘대로
▁순종
▁SUV
▁들려오
▁관례
▁윤회
▁참호
▁정근우
▁위급
▁추상
▁탁구
▁투창
▁현수
▁박찬호
▁우디
▁케도
▁쿠지
▁크랙
▁버퍼
▁시우
▁Die
▁오라클
▁했었으나
▁야크
▁폭죽
페리온
▁say
▁배급사
▁비웃음
▁Apple
▁경복
▁국내외
▁승하차
▁둔갑
▁몰아치
▁에스프레소
ami
▁개표
▁멈춘
▁불기
▁자타
▁430
▁단기간
▁이래서
▁레드삭스
▁뜻밖
▁수난
▁광명시
▁루미너스
▁아오야마
▁꼬여
▁명지
▁페라
▁홍설
▁펠릭스
▁Real
▁249
▁망설임
▁want
▁경차
▁막사
▁이뤘
▁먹힌다
▁2022
▁말린
▁삼총사
▁어설픈
▁온다는
▁Like
▁Shad
ATE
▁넷째
▁이다
▁자하
▁토아
마르크
▁금수
▁떄문
▁사샤
▁역정
▁무기고
▁아르마
▁무함마드
▁포르투갈어
▁CU
▁왜구
▁조반
▁죠니
▁전자기
▁프랑코
▁서강
▁아누
▁입김
▁자경
▁기대감
▁바그너
▁판타스틱
▁꼰
ori
▁비호
▁리어스
▁슈이치
▁웅진
▁사마귀
▁갖췄
▁나았
▁적외선
▁줄리엣
▁지석
▁다이나믹
▁쉬워진다
▁코퍼레이션
▁루갈
▁멸시
▁앙상
▁Doc
▁맞춰야
▁은평
▁잇세
▁주무
▁귀여움
▁에버튼
▁쟤
▁하노
▁피해야
▁해적판
▁레전더리
▁누드
▁로디
▁보더
▁잠적
▁주립
▁치환
▁크나
▁Winter
▁리크
▁신오
▁포옹
▁사유리
▁이루어질
드릭
▁번성
▁변할
▁치뤘
▁아케미
▁지켜봐야
▁번작
▁보람
▁죄악
▁피쉬
▁오오타
▁이동기
ude
▁상디
▁네이밍
▁유대교
▁떨어뜨려
▁Force
▁Trans
de
▁총체
▁페퍼
▁Mad
▁라이어
▁반역자
▁저항군
▁트레버
링턴
▁삼키
▁stay
so
▁AH
▁도우미
▁part
고로
▁반한
▁
▃
이
다
.
는
에
의
로
가
하
지
을
고
서
기
,
한
도
리
스
를
1
사
어
은
나
인
시
아
라
0
으
대
자
2
있
수
게
그
만
해
전
들
면
정
일
보
상
마
장
부
드
주
과
제
트
되
우
적
성
었
오
3
니
것
와
미
신
데
모
공
여
유
했
소
무
구
문
비
동
중
e
5
-
위
타
경
터
치
때
국
거
년
4
진
레
화
원
선
용
'
9
히
며
카
조
러
당
후
a
세
없
간
작
명
등
된
력
실
버
야
내
연
6
할
개
생
o
바
8
방
려
계
르
단
크
7
격
안
영
i
역
차
발
:
프
물
던
r
체
t
반
않
n
재
요
키
분
관
파
노
더
본
말
S
까
"
래
운
교
점
포
월
음
회
속
학
코
건
행
능
식
토
A
저
임
피
호
s
루
강
군
두
통
즈
결
/
입
각
불
C
초
번
종
매
배
출
l
였
현
디
처
같
판
최
설
메
함
남
형
m
준
른
T
편
M
많
산
티
직
심
린
받
승
태
람
P
외
특
브
난
d
감
급
양
D
E
달
투
알
h
금
았
온
추
예
B
살
패
약
런
테
!
표
언
u
업
습
법
못
든
c
목
민
록
I
플
네
R
병
걸
너
복
권
L
O
워
돌
술
따
합
G
름
독
좋
론
참
란
천
애
막
평
절
올
황
날
변
머
존
집
캐
N
근
또
쿠
박
왕
질
쓰
F
청
항
울
츠
죽
션
베
별
필
g
활
악
환
페
열
확
망
순
블
김
y
향
커
릭
K
류
족
져
담
탄
느
맞
랑
V
p
잘
엔
석
~
친
품
듯
량
%
클
k
곡
케
잡
볼
광
퍼
H
먹
증
?
련
럼
손
료
팀
녀
쪽
총
긴
폭
+
뒤
탈
f
글
백
접
극
범
송
높
창
완
졌
령
색
갈
얼
철
효
께
길
몬
혼
킬
검
벨
새
힘
X
v
렇
벌
충
누
밀
줄
겨
닌
빠
움
락
삼
괴
U
림
겠
채
슈
b
험
W
귀
슬
끝
북
싸
렸
왔
립
w
쳐
즌
넘
골
육
취
엄
혀
냥
맨
견
랜
틀
착
곳
덕
축
눈
희
놓
택
앞
쟁
링
규
엘
칭
큰
템
붙
될
허
팬
득
턴
#
째
므
널
릴
및
냐
찾
봉
책
늘
뿐
징
몰
찬
응
떨
갑
끼
침
먼
곤
둘
몇
측
암
얻
굴
첫
큼
센
팔
률
헤
좀
잠
율
J
짜
풀
풍
혹
억
밖
쉬
벤
킨
써
즉
럽
켜
묘
압
몸
획
씨
협
훈
슷
답
떠
갔
논
찰
휘
궁
례
홍
돈
빌
싶
염
났
퇴
님
맡
Y
넣
뉴
칼
쉽
쓸
벽
밝
익
슨
숙
액
샤
컬
낮
콘
x
봐
웃
뛰
낸
딩
찍
탑
닛
빈
깨
갖
델
렌
앙
]
폐
컨
끌
옥
략
웨
홈
꾸
층
죄
멸
욕
[
킹
멀
좌
롯
꽤
&
싱
쇼
잔
멤
켓
딜
놀
팅
숨
윤
롤
짓
씩
덤
닝
빨
념
웅
콜
솔
뜨
욱
흑
<
낙
혈
뜻
객
됐
칸
농
척
텐
폰
픽
맥
힌
뮤
칠
듣
빛
룡
Z
랙
렉
큐
닥
맹
섬
폴
겼
헌
왜
빼
닉
끔
흥
앨
휴
롭
램
푸
떤
찌
십
흔
튼
냈
듀
죠
넷
컴
럭
탁
멘
톤
뀌
맛
랭
빙
씬
균
콤
렵
딱
텔
홀
굉
믹
갤
딸
z
땅
뽑
=
혁
둔
쿨
쓴
녹
밥
짝
떻
헬
쿄
뭐
털
흡
잃
맵
쌍
팩
봇
뢰
컵
옷
졸
퀘
탐
셀
켄
몽
윈
뷰
꼬
펜
꽃
찮
웠
탕
젤
셔
릿
쳤
즐
엑
춘
젠
혜
챔
힐
흐
놈
삭
튜
핵
돼
뇌
덱
틴
밤
밴
겐
둥
똑
훨
룹
꺼
꿈
밍
덴
줬
짐
깔
납
혔
낌
믿
싫
랄
켰
읽
럴
탓
엇
퓨
옆
셈
얘
뷔
랐
묻
핑
앤
잉
괜
섭
줘
벗
쥬
칙
탱
붕
옵
낼
굳
핀
롱
짧
Q
빅
춰
륙
덜
펼
촌
곧
꾼
룬
봤
끊
둠
멜
냉
틱
>
튀
펙
*
캠
랍
쇄
렀
)
닐
폼
콩
뒷
셋
끄
즘
깝
넓
촉
흘
덩
앗
셉
떡
렬
븐
쯤
딘
젝
첩
빵
쁘
쏘
겁
쇠
겸
늦
깊
뿌
펠
샷
컷
값
잇
뭔
j
쌓
픈
셜
밑
웹
옛
융
촬
왼
쫓
댄
퀴
랫
쥐
흉
텍
슴
꼭
띄
밸
겪
틸
묵
럿
꼽
톨
뻔
캔
깐
멋
앉
캡
렛
웬
랩
붉
셰
잭
옮
멍
뚫
엽
옹
껴
룰
톰
넥
{
겹
헨
}
걱
쾌
낫
엠
쁜
톱
젊
섞
렐
킥
숫
섯
썼
꼴
빔
짤
_
춤
듬
궤
뱀
뜬
잊
녕
텀
얀
펀
닮
윙
윌
엉
맺
뱅
숲
틈
읍
벼
닫
핸
탠
짱
몹
떼
륜
싼
혐
훌
팡
꿔
쩔
갱
잖
끈
멈
깃
롬
툰
갓
숭
챙
묶
렘
뤄
삽
댓
뀐
퀄
깎
좁
됨
룩
첨
츄
빗
륭
곰
꿀
렙
탯
넌
켈
렴
쩌
낭
밟
넬
샌
팝
뉘
횟
릉
덮
빡
릇
낳
봄
삶
눌
쨌
q
룸
곽
랬
낚
샘
땐
렁
쏟
겟
섹
쿼
녔
흰
윗
늑
퀸
팽
셨
닿
첼
둑
딴
쩡
뼈
덧
긍
껏
앵
;
툴
쟈
섰
뭉
뚜
핏
뜯
왠
얄
뜩
흠
뚱
겉
닭
걷
킷
펴
썩
썬
낀
톡
쭉
횡
엮
챠
왈
훔
냄
뱃
멕
넉
슛
곱
맘
엣
훗
웰
쉐
꺾
앱
똥
펫
펄
줌
딕
낄
쏠
삐
썰
섀
뿔
찔
턱
핫
넨
햄
볍
뿜
펑
깡
쩍
쏴
잦
쉴
꽂
벅
긋
씹
돕
칩
뮬
맷
챈
띠
챕
뚝
뻐
뺏
쵸
깜
듭
헐
돋
헛
갇
빚
닷
놔
괄
눠
곁
탭
놨
싹
릎
@
녁
꼼
훼
딧
엿
뎀
뭘
됩
푼
몫
ㅋ
텝
멧
밋
컸
슐
펌
겔
|
찢
잎
튕
밭
엎
ㅣ
킴
돔
깥
붓
\
퉁
둬
옳
뒀
힙
캣
$
씌
팟
쌀
딪
챌
풋
듈
툭
굿
옴
벙
휩
콥
캘
벳
밌
뻗
쿤
콧
팍
캄
툼
벡
껍
픔
냅
늬
뽀
땡
굵
꼈
휠
샵
뱉
쪼
흩
쏜
흙
헝
츤
늄
꿰
깽
귤
쑤
뻥
큘
늙
갚
튬
솜
갯
헷
첸
끓
텟
뭇
솟
칫
굽
얽
끗
붐
콕
줍
췄
귄
륨
젖
꽉
쿵
긁
ㅇ
킵
젼
궐
앰
얹
팁
뤼
슌
샬
셸
햇
쨩
퍽
튠
뻘
웜
짙
팰
캇
꿨
닦
콰
탔
옐
쫄
샐
쯔
쫒
눕
숴
짬
팜
얇
짖
뇨
젬
잣
앓
겜
렷
짚
꿉
뮌
뽕
삿
뉜
댐
랴
쑥
볶
씀
떴
펭
샀
꽁
잼
씻
넛
홋
퀵
댔
얌
ㄷ
랏
ㅡ
컫
썸
갸
홉
맙
짠
젓
굶
뺨
댈
쥰
왓
꾀
맑
뤘
텨
땀
쌔
껄
헥
퐁
샹
껑
텅
(
욘
탬
딥
뜰
낯
윽
푹
캉
쁨
젯
뺀
뜸
벚
늪
깁
궈
밧
꿇
똘
뛴
밈
꽝
덥
숍
쎄
쌈
륵
윕
샨
넵
쉘
옌
ㅅ
닙
훤
룻
샴
낡
웍
뽐
룽
깠
숏
ㅎ
멩
훅
탤
캅
땜
ㄱ
싣
얕
릅
빽
숀
굼
뚤
벵
뀔
쩐
뫼
씁
찜
눅
떄
둡
핍
싯
^
갭
맴
윅
ㄴ
쭈
왑
쐐
ㄹ
찐
`
쌩
뾰
댕
챘
뺑
뎌
썹
ㅠ
걀
깬
뛸
깍
꿍
뭣
깰
퀀
덫
돗
늠
띈
뻑
좆
ㅁ
ㅈ
잽
낱
폿
츳
꿋
꾹
괘
팻
맏
쥴
췌
칵
캬
슘
찝
빴
쥔
윳
껌
팥
찼
짊
뎅
솥
잿
읊
ㅂ
퀑
쉔
즙
켐
랠
뭄
힛
뱌
촛
쳇
댁
셧
뿅
뇽
괭
얏
핌
얗
렝
콴
깅
딛
퀼
썽
쉰
빤
짭
폄
왁
섣
멱
켠
꼰
랗
덟
찻
쏙
쁠
옅
씽
궂
츈
펩
쿡
츰
셴
닳
됬
놉
팸
쿰
딤
뷸
곶
솝
엥
햐
넴
샛
핥
뎃
갉
씰
쟝
뮐
횃
숄
꺽
숱
눔
숟
촘
땄
뎁
걍
춥
찡
컥
맣
쟤
쌌
띤
걔
쾅
뮈
팎
얍
믈
쐈
넋
앳
귓
땠
헉
휙
끽
뺐
띵
듄
맬
봅
슝
촐
놋
쉼
텁
튤
컹
삑
엡
텼
쾨
캥
쎈
줏
텃
톳
돛
헴
ㅊ
뵈
녜
웁
듐
휼
떳
삥
륀
쟌
팠
밉
뒹
쓱
핼
웡
뿍
튄
갬
갠
쫙
ㅌ
찹
듦
뼛
톈
ㅍ
엌
뺄
뇰
숯
볐
꿎
쪄
쾰
뗀
쿈
녘
ㅏ
눴
폈
갛
잰
댑
퓰
뻣
퓌
묠
쑹
윔
잤
쬐
쥘
깼
춧
끙
볕
짰
딨
괌
뗄
힉
낑
슥
쑨
욤
훑
ㅜ
펍
쌤
뻤
홧
뿡
쨋
쇳
욧
첵
꺄
낵
앴
욜
긱
샅
롄
츨
뵙
넝
횬
귈
냠
몄
칰
닢
먀
삘
쭐
늉
땋
큭
겅
빰
슭
뵤
켤
꿩
퓸
눗
텡
꽈
챗
챤
뀜
헹
빕
쫑
죤
벰
랖
ㅉ
닻
셌
굇
샥
튈
땔
씸
팼
껐
즛
쑈
쇤
딫
넙
쏭
쿱
윷
냑
쉈
힝
틋
냇
띌
탉
냔
깻
웸
뗏
엾
훙
ㅔ
뵐
궜
ㅓ
뮴
촨
햏
햅
욥
멥
뭍
헵
혓
ㄲ
펨
ㅗ
쩝
맸
킁
흄
쫀
쭘
쌘
쪘
꼿
빳
좇
뮨
뷜
뜀
몆
떵
ㅆ
깟
뗐
멎
젭
숑
뀨
찧
뺌
돡
볏
큅
묀
챰
옙
웩
큥
캑
ㅐ
뒈
긔
튿
쨍
콱
넸
콸
젔
뻬
쿳
옭
젋
쐬
쮸
봬
띨
짢
껀
뤽
꽥
쌰
훠
멓
죗
휑
믄
쳉
뭥
넒
볜
솩
쩜
옻
짦
휀
넜
샙
썅
둣
붑
큔
띔
잴
썻
믐
셩
뽈
뎠
셍
댜
쩨
냘
맟
쌉
뜷
좡
팃
곪
쭤
룀
틔
롸
됭
섕
펐
잌
꼐
쳄
쉿
탸
촙
쯧
슉
햣
윰
흣
뎐
엷
겋
얜
츔
묽
옇
뎬
읏
곯
솅
묜
왐
휜
뉵
빻
텄
헀
겍
뺴
껸
떫
탰
닯
뽁
쁩
춋
쨰
퀜
ㄸ
쾡
춉
뉠
갗
앍
뱁
뼉
줴
챵
퉜
꽐
쫌
핳
홑
ㅃ
겡
랸
쨔
쭝
슼
닼
솎
륄
짹
큄
푀
퐈
퍄
퉤
앜
돠
붇
ㅑ
좔
퉈
옼
쳅
칡
챳
쌕
꺅
뭡
쇽
뢴
퇘
뷁
꿏
읭
졋
갰
켁
횽
굣
삯
삵
쉑
눙
왱
쒀
팹
밞
똬
벛
겊
훍
갹
ㅕ
겄
떽
븀
땃
곗
읜
촤
묄
밎
켕
뵘
샜
샾
ㅟ
헣
웻
뷘
푈
롈
벱
읆
큿
뀝
컁
왘
궨
꺠
쉭
푯
앎
첬
뎨
똠
솀
ㅚ
뼘
돚
뷴
귐
켑
넹
쀼
췬
괵
ㅄ
돤
늅
븅
헙
됴
섶
츙
꾐
꽹
벞
솁
늡
홱
솬
ㅛ
옉
젱
ㅢ
숌
볘
찟
촥
쟀
맆
쏩
윾
묭
삔
좍
걘
뱐
졔
씐
졍
셤
훵
됸
ㅖ
겻
쎌
쫘
챱
멬
쨉
뫄
룔
낍
흭
궃
쳔
겆
븨
쒸
괸
믕
휄
쏨
웽
쭙
큽
뵌
엊
낢
휨
읇
풉
캤
큠
듸
뒬
쒔
깄
쩄
톄
뗌
휭
뤠
캰
섥
붸
옯
웤
좃
핡
튽
뾱
쥠
핰
뱡
밣
쳬
헸
빱
귯
땁
믓
곬
껫
몐
짯
ㅞ
뉼
먄
홰
낟
뚠
롹
읺
쟨
쨜
춍
퀠
ㅒ
짼
쬬
ㄳ
꿴
폽
묫
슾
퓬
꼇
녓
앏
쪙
푄
믜
솽
쬔
찿
헿
뙤
뚥
렜
튐
릐
옘
땟
뙇
픕
뉨
섐
솨
좨
툐
맻
웟
ㄺ
헠
횔
묏
벧
섄
됫
멂
싴
죌
훓
쵼
퀭
걼
귁
멨
뽄
붜
끅
뗑
밷
숔
엪
꽌
낏
눝
뵹
뻇
찣
촹
흴
긷
삡
섈
귿
슙
줫
흫
륌
ㅘ
쉠
퓽
녈
룅
췐
혠
ㅙ
쎘
왝
켯
큇
랲
몌
풔
햝
횻
휫
뽜
숩
앟
읖
큣
뭅
푱
흝
쉥
웝
눞
밐
븝
젹
쭌
툽
껨
닠
똣
쯩
쿽
펏
훕
ㅝ
곂
뜹
럇
햔
듕
벋
왤
읔
쟘
츌
툇
튱
갼
끕
뢸
싀
쎾
봣
큡
떈
뭬
쏼
죵
쥿
똔
랼
맠
쑴
짫
냣
쟙
퓔
햘
뇬
뗴
뼝
쎼
퓐
뱟
욀
쨘
뎡
떙
띡
읗
쨀
챨
툿
핲
흽
걲
깸
녠
돝
쟛
휸
떰
뚯
셕
쳣
꾜
덷
땍
삣
셱
춈
콯
훝
힣
묾
봑
솓
욬
즤
캪
톩
뺘
짇
핬
섵
쑬
쨈
춫
팤
굥
떱
벴
솃
슁
앝
큉
횐
삷
옜
쯋
쿙
쎔
읎
궉
꾿
뜽
얆
쟉
틉
홓
ㄻ
꺵
퐝
덪
읕
쳰
ㄼ
눼
얶
컽
갞
뀽
늣
몪
뭏
뮻
봙
씼
좝
캎
ㄵ
괞
귬
넼
먕
앚
쳥
ㄶ
뵨
썪
얠
핧
댱
덬
뷕
뿟
쐰
죔
긺
딮
맕
뷧
븟
뺙
엏
퉷
ㄽ
곘
깹
꿘
솰
읒
죈
쳘
츕
캌
틍
틑
끠
볓
뻰
쌨
쓔
엶
쟐
졀
즁
쬘
튭
풂
ㄾ
겝
룝
빋
졈
촵
쵤
핱
쉣
쓩
엙
ㄿ
ㅀ
괼
뚧
믾
뻉
앺
챡
흗
걋
넖
덞
맢
몿
뺭
쁑
솊
싿
윱
쾀
툠
퐄
괍
껭
꿸
덖
몀
썖
쐇
씡
읶
쫗
쭁
캿
뀩
닺
띰
뱄
뺸
죙
쥑
햤
혤
굄
껜
꾄
뗘
뙈
띱
륍
븍
븜
뿝
쒜
씅
읻
캭
퓩
꿧
놘
뚸
룐
륑
륫
먐
앋
앖
얔
옝
읃
잆
좐
쥼
캢
캴
훽
굷
귑
깉
껒
뉸
돐
뜌
몃
뷀
옾
욺
칲
킄
꼳
녤
띁
룟
뱍
뺩
삠
싈
쏫
욍
졷
줜
츼
켬
킈
꺨
늴
뒨
뜁
롮
롷
룁
벜
뺵
쀍
쌥
썡
쎅
쟎
쮜
쯕
챦
췰
캼
툥
걺
궆
끎
넗
뇻
뚬
랔
롼
맜
벫
샄
쎠
쐴
웦
죡
쵱
켔
퀫
텬
픠
햑
됏
뚭
숮
쑝
엨
욹
젧
짋
췍
톺
톼
휏
걜
냨
늗
돨
됄
땨
릍
먈
뼤
솧
엤
왬
읓
읷
죨
쩬
츗
켸
콬
튁
퍅
훚
냡
둟
딲
륏
봘
셒
슶
쌐
얉
쾍
킅
틩
겯
곷
깩
뒴
뚀
럄
롑
쌋
쌜
욌
윶
읅
췃
췩
팖
픗
놧
뇐
뇩
듁
밨
붱
얬
엹
잍
졘
쥣
챂
컾
탶
퇼
푕
곈
긇
덯
롶
뢱
밪
빝
뻴
섴
슽
얺
옿
읠
튑
틊
퍈
끉
낛
낪
뛔
몯
볫
븃
뻡
쑵
엳
옺
졉
좂
쯥
찦
칬
톸
퇸
펲
햡
훰
굔
긑
껠
녯
닜
먁
뱔
볠
뵬
븡
뽝
삳
샼
섁
섧
쏵
앶
얐
잨
죳
줭
쥽
쫍
쫏
콦
킼
꺙
끟
낰
넀
놰
뇸
돇
땝
똏
럐
뢔
맽
먺
뮹
뱝
봔
뽂
샏
쇨
쎆
쏀
왚
웈
잋
쥡
쨤
쯱
챃
쵝
춀
칯
쾬
쿸
팊
푠
곌
긘
꺘
냤
녂
녑
댠
댸
덛
륩
맀
뫃
밊
벹
볻
봥
븥
빧
앆
얊
얖
엃
엵
옄
웱
윜
읋
좄
쥤
쩃
쩠
쳑
헑
횅
곹
귱
깺
꺔
끵
넊
댤
돎
둉
럅
롓
롣
멉
벐
봊
붏
붗
붴
뻩
쀳
삻
샇
셥
솦
싑
얭
옧
욋
욯
윘
잛
줸
짘
쪠
찎
쳌
췻
컶
켙
퀧
턍
퉅
푿
풰
퓻
핓
헼
홇
힜
힠
갘
궝
궬
깆
꺗
냬
놜
눋
늧
덨
돟
떪
똟
똭
랕
릳
맇
몔
뫙
묙
뱊
붊
뺍
쀏
섦
썌
쒕
앒
앧
얋
쟞
짞
쨕
쩰
쪾
쯰
켱
쾩
퀌
팏
햬
홥
횰
횸
훟
겞
괏
굘
껶
꾈
뀀
뀰
넢
놂
뇔
덭
뎍
됀
듫
떔
렡
밦
밯
벍
벓
뵀
뻠
뾸
뿨
쀠
쁭
샊
섡
솸
쉅
쉡
싾
쏱
쏸
쐉
쓿
씜
얙
엫
욷
욿
읉
쳡
쵀
쵹
캍
텦
톲
핟
핣
햛
훡
휵
힁
굻
궷
껩
껼
뀠
됌
떘
떯
뜅
뤈
맫
맼
밬
벎
볽
붘
붯
빪
뼸
뿛
쁌
섊
솹
숸
싢
웷
잫
쟂
쟬
젏
죰
죶
쥭
쵭
컄
켭
쾃
톹
퇀
퉨
폘
퐌
풿
횝
흇
갂
곲
긂
긿
껙
꼍
꿕
뀍
뀵
끨
뉩
늒
늫
덍
뎊
뎔
뛟
랰
럈
럷
릏
먫
멭
뭠
벖
볔
봍
봡
뵷
붤
빍
빩
뻆
뻿
삧
샆
샠
셑
슸
싵
썛
쎗
쑌
쑛
씃
엍
옫
윁
읪
젴
줗
짪
쬽
쵮
컼
켚
쿗
텤
텰
퉹
팦
푝
픖
픙
핻
햌
햙
햠
햩
햫
홤

갊
곀
곖
곸
궅
궛
긜
꺌
꼻
뀬
뉙
닸
댇
덣
뎄
뎦
됵
듵
딈
딍
땗
땽
뗍
뚦
띳
랎
렿
롫
룍
뤂
륽
맄
맍
멌
뫀
뫌
묑
묷
믇
밡
볱
뵥
빂
빎
빞
뺼
뻈
뿓
쀄
쁙
삾
샒
셊
솤
싰
쌞
쌱
쎕
앀
왯
웉
잏
좊
줆
짔
짥
쩟
쩼
쭸
춸
캏
쿔
탙
탼
턀
펔
폯
핮
홐
괃
궭
꺆
꾁
뀡
낲
넠
녬
눨
늇
닁
닽
덿
뎧
듼
뙨
뚊
띕
랃
뤗
뤤
륻
릘
맂
맊
멏
몾
뫈
믁
믘
믙
뱓
뱦
벆
벏
벝
벟
벩
벸
볌
봆
뵜
뷥
빢
뿕
쁐
삒
삱
슟
싄
싦
싷
쌂
쎴
쏝
쏳
쑉
앛
옒
옰
왹
욛
웆
읐
읹
잗
잚
잪
쟃
짆
쭵
쯉
챼
쳴
촷
췡
췤
츱
칟
캆
켘
탹
툉
틂
퍗
퍙
퐐
푤
핝
헜
횞
훜
흨
힗
갅
걑
곺
굑
궘
귪
귺
긌
꼉
꾾
꿑
꿿
뀄
끋
낔
넽
녛
놎
뇟
뉭
닏
닶
닾
댯
댼
덝
돜
됍
됒
둫
뒝
뒥
듰
딯
떢
뗼
똻
뜛
띾
럤
렫
롴
뢈
뢉
뢨
룃
룄
뤌
륷
릌
맒
먜
먿
몋
뭌
뭤
뮷
밂
밗
뱜
볃
붖
븰
빟
뼁
뽤
뾔
뾲
뿎
쀽
삮
숞
숼
슢
쌴
쌵
쌸
쎙
쎽
쐑
쓲
씉
씝
엗
옂
옸
윝
읨
젛
젶
졩
즥
쨥
쩻
쪨
쫩
쬠
쬼
쭀
쭃
쮀
쯍
쯘
챞
첡
쳠
쵇
쵠
쵷
췽
칮
캋
탏
툵
팉
퍌
폮
풐
풾
픤
핔
핕
햋
햟
홅
훱
힏
갴
걩
굡
궻
귚
귝
긏
긩
긲
깢
깤
꺤
꼮
꽆
꽇
꽜
끆
끍
끡
끤
낋
넑
넫
뇹
눟
닧
닰
댛
덗
덢
뎈
뎜
됙
둇
둏
둗
둙
둴
듷
땈
뗵
똙
똡
뚮
뜳
뜵
띙
랓
랟
랣
럔
뢇
뢍
뢐
룱
뤨
륧
릠
맗
먖
먾
멊
뫚
묨
뭎
뭩
뭵
뮛
밢
밫
밮
밲
봃
봌
붒
뷫
븸
빏
빖
빸
뻢
뻭
뼌
뽇
뽘
뽱
뾼
뿠
쀓
쀾
삤
삲
삸
셖
솢
숛
숳
쉨
쉪
슦
슧
슲
슳
슿
싕
싻
썜
썭
쎵
쏉
쐤
쑐
쑦
쑻
쒯
쒹
쓘
쓺
씺
얃
얒
얾
얿
엒
엺
옪
옽
욉
욣
웊
웓
웕
윀
읿
잞
쟠
졤
좢
죹
즹
짛
짮
쩧
쫭
쬲
쭊
쭛
쮹
찯
챷
챸
챺
첅
쳗
촏
촾
춣
춱
췁
췹
췼
츅
츩
칢
칽
컈
켝
켣
쾈
퀍
퀏
퀙
큟
탘
탣
턔
텊
텩
텻
텽
톧
폕
폣
퐅
풑
풩
풸
퓅
퓍
햾
헗
헭
홛
홝
훋
흒
흼
힡
갮
겧
곻
괬
궞
궢
궸
궹
궼
귕
귻
귾
긕
깈
깓
껵
꽊
꿂
꿜
꿯
꿻
뀙
끾
낞
낣
넚
넾
놑
놥
눤
눽
뉏
늚
늨
늰
닊
닑
닲
댘
댥
돞
돩
돶
둚
둪
둰
뒁
뒑
듓
듧
딋
딿
떣
뗬
똇
똫
똰
똴
똵
뙭
뚄
뚕
뚷
뛃
뜃
뜐
랋
랒
렄
롇
롥
룯
뤔
뤕
륶
릋
릾
맃
맓
먑
먗
멑
멛
멞
멫
멮
몊
몭
뫅
묩
묯
뭆
뭷
뮝
믂
뱕
뱨
벑
벾
볎
볾
봋
봎
뵫
뵭
뵳
뵶
붝
붰
붹
붼
뷱
뷹
븠
븩
빹
뺃
뺔
뺚
뺶
뻟
뻨
뼏
뼙
뼜
뼬
뽟
뽠
뽥
뽭
쁏
쁥
삝
샃
섢
섪
섮
섻
셐
쇌
쇘
숖
숝
쉛
슆
슻
싺
싽
쌑
쌙
썎
썐
썫
썲
쎀
쎤
쐙
씔
씤
씪
앐
앑
얫
엜
엯
엱
옦
왉
욮
욾
웗
웛
웧
윹
읙
읫
읰
읾
잩
쟜
젇
젗
젵
졎
좉
좽
죢
줃
쥇
쨟
쨨
쫜
쬈
쬤
쬭
쭂
쮠
찱
첰
쳿
촊
촞
촟
촠
촢
촴
쵯
춭
춴
캜
캽
컭
컿
콀
콙
쾻
큳
큾
킸
킾
탇
퇄
퉥
퉭
튓
튝
틤
틧
틷
팈
팓
폅
폔
퐙
퐞
풒
풹
퓜
픝
픨
햎
헔
헡
헯
혬
혯
혱
홯
횩
휅
갋
갲
갵
걈
걉
겂
겕
겢
겤
곅
곕
곩
괆
괱
괳
궋
궫
궳
궶
귍
귖
귛
귡
긄
긐
긓
긤
긮
깋
깏
깑
깛
깞
깪
꺕
꺢
꺴
껃
꼯
꽅
꽣
꽦
꽨
꾑
꾫
꾭
꿃
꿱
뀁
뀱
뀻
끑
냙
냟
냫
넡
녇
녋
놐
놞
놯
뇄
뇜
뇡
눜
뉫
늕
늼
닒
닞
닟
닡
닣
닪
댝
댬
덀
덌
덙
덠
덦
뎂
돆
돖
됈
됑
됰
둅
뒓
뒵
뒺
듟
듥
듮
듳
듹
딀
딹
딺
딻
땇
땛
떧
떭
떷
뗃
뗆
뗠
똒
똗
똝
뙁
뙍
뙡
뚁
뚂
뚔
뚞
뚢
뚵
뛉
뛻
띃
띧
랅
랻
럂
럲
럶
럸
럻
렆
렏
렠
렢
렺
렼
롐
롕
롵
룥
뤀
뤡
뤵
릆
릣
릯
릵
맅
맋
맔
맚
먆
먘
먚
먛
먽
멁
멪
멷
몁
몓
몱
몲
몳
몼
묗
묦
뭊
뭑
뭨
뭭
뮉
뮘
뮥
뮽
믉
믠
믱
믻
밁
밇
밠
밻
뱛
뱤
뱩
뱽
벘
벲
볟
볹
봀
봁
봈
봨
봫
봴
뵉
붂
붆
붋
붚
붛
뷮
븉
븓
븽
빘
빥
빮
빷
뺅
뺓
뺛
뺜
뺠
뺣
뺫
뻒
뻙
뻞
뻪
뻽
뼇
뼠
뼥
뽴
뾆
뾻
뿏
뿑
뿘
뿙
뿧
뿩
쀒
쁀
쁋
쁎
쁟
쁢
쁶
삗
삜
샂
샢
샻
섑
섟
섨
섫
섲
섷
섺
섿
셙
솑
솖
솘
솼
쇈
쇱
쇴
쇵
쉏
쉤
쉩
슀
슄
슡
슮
슺
싁
싐
싨
싪
싲
쌇
쌒
썀
썋
썍
썮
썯
쎃
쎥
쎨
쎿
쏄
쏚
쏢
쏶
쏽
쐔
쐽
쑞
쑩
쑼
쒓
쒝
쒰
쒱
쒴
쒼
쓉
쓋
씄
씋
씥
씯
앢
앩
앫
앸
앾
얂
얅
얎
얩
얷
엋
엩
엸
옑
옱
옶
왒
왛
왭
왰
왷
욈
욙
욝
욟
욡
욢
욨
웒
웥
윞
윲
윸
읈
읧
잀
잂
잒
잢
잧
쟗
쟢
젒
젟
젨
젮
젺
졜
졵
좹
좼
죕
죸
줋
줐
줓
줠
줵
쥉
즂
즑
짂
짒
짗
짷
쨧
쨴
쩅
쩖
쩗
쪗
쫴
쬡
쬰
쬴
쬷
쭟
쭨
쭹
쯪
찫
찭
챀
챯
첞
첟
첧
첯
첲
촡
쵁
쵕
쵬
춛
춝
춢
춨
춪
춮
췅
췔
췸
칀
캵
켮
켼
콛
콮
콻
쾔
쿜
쿭
퀨
킇
킐
킫
탖
탵
턑
텂
텉
텋
텥
텹
톋
톽
퉀
퉆
튮
튺
틜
팛
팣
퍘
퍚
펁
폂
폇
퐂
퐃
퐆
퐉
푴
푾
풬
풱
풴
퓟
픅
픋
픞
핛
핤
핶
헒
헚
헲
홣
훛
훞
훸
휗
흖
흟
흿
힑
힚
갃
갣
갥
갨
걁
걂
걏
걓
걥
걳
걹
걽
걿
겇
겈
겓
겥
겦
겳
겾
겿
곃
곟
곴
괐
괗
괙
괠
괧
괩
괺
굅
굈
굗
굠
굸
굾
궄
궇
궔
궖
궮
귔
귘
귥
귵
귽
긃
긎
긒
긞
긡
긢
긣
긧
긶
깂
깇
깖
깣
깧
깳
꺀
꺃
꺍
꺐
꺑
꺓
껖
껗
껬
껰
꼄
꼑
꼔
꼠
꼲
꽛
꽭
꽯
꽸
꾔
꾕
꾴
꾺
꿅
꿆
꿝
뀂
뀟
뀢
끚
끛
끰
낐
낧
낻
냀
냌
냩
넎
넏
넟
녿
놁
놅
놇
놏
놕
놤
놩
놬
놴
놶
뇝
뇠
눁
눶
뉍
뉔
뉽
늩
늭
닚
닱
댊
댋
댖
댗
댦
댶
덳
덾
뎉
뎒
뎗
뎙
뎟
뎢
뎰
뎽
돊
돍
돒
돘
돰
돵
돽
돿
됓
됗
됢
됧
됺
됻
됼
둈
둍
둩
둿
뒉
뒕
뒗
뒫
뒾
뒿
듇
듑
듛
듞
듶
딉
딦
딳
딵
딶
땊
땕
땞
땣
땥
땩
땳
땻
땼
떅
떋
떌
떑
떗
떥
떦
뗉
뗋
뗗
뗜
뗝
뗞
뗡
뗣
뗳
뗶
뗸
뗻
똛
똤
똧
똩
똷
똽
똿
뙜
뙬
뙮
뙱
뙴
뚆
뚣
뚩
뚳
뚶
뚼
뛀
뛇
뛈
뛓
뛗
뛛
뛝
뛣
뛧
뛷
뛹
뛼
뜏
뜔
뜫
뜴
뜼
뜾
띅
띇
띎
띯
띻
띿
랆
랤
랮
랳
럑
럪
렓
렚
렞
렣
렦
렳
렾
롁
롊
롲
롳
롽
뢀
뢓
뢘
뢤
뢥
뢯
룛
룪
룳
룴
룷
룺
뤁
뤃
뤅
뤙
뤯
뤱
뤻
륐
륔
륝
륞
륡
릃
릈
릊
릔
릞
릟
릮
맪
맮
먃
먅
먍
먏
먓
먙
먪
먳
먵
멃
멆
멇
멐
멒
멦
멯
멹
멽
몉
몟
몥
몮
몴
몷
몺
뫁
뫔
뫘
뫞
뫠
뫤
뫵
뫽
묈
묍
묚
묟
묡
묬
묱
묳
묺
뭀
뭁
뭃
뭈
뭋
뭗
뭟
뭧
뭰
뭺
뮔
뮧
뮯
뮳
뮶
뮿
믌
믏
믗
믛
믺
밒
밓
밙
밚
뱏
뱒
뱚
뱞
뱷
뱸
뱺
벇
벉
벊
벒
벻
볅
볙
볳
볿
봂
봏
봒
봗
봠
봢
봵
봽
뵑
뵛
뵧
뵲
뵴
뵸
뵻
붃
붌
붍
붵
붷
뷇
뷉
뷋
뷏
뷐
뷓
뷛
뷟
뷤
뷦
뷩
뷭
뷵
뷷
뷼
븈
븎
븏
븕
븘
븞
븧
븬
빆
빒
빣
빫
빶
빺
빾
뺒
뺝
뺟
뺡
뺥
뺦
뺧
뺮
뺳
뺹
뺿
뻄
뻕
뻖
뻚
뻛
뻦
뻼
뼐
뼞
뼡
뼢
뼦
뼱
뽆
뽊
뽒
뽓
뽔
뽖
뽙
뽚
뽛
뽞
뽧
뽷
뽸
뾂
뾃
뾄
뾅
뾇
뾘
뾥
뾹
뿁
뿃
뿉
뿋
뿒
뿗
뿚
뿞
뿮
뿯
뿷
쀌
쀎
쀐
쀑
쀬
쀲
쀿
쁉
쁍
쁓
쁕
쁖
쁚
쁣
쁴
쁼
삂
삚
삹
샓
샟
샪
샫
샭
섚
섳
셟
셣
셦
셷
솈
솏
솒
솕
솗
솚
솛
솞
솠
솻
쇀
쇇
쇔
쇗
쇙
쇝
쇡
쇰
숁
숓
숕
숚
숢
숤
숥
숦
숪
숬
숰
쉙
쉚
쉜
쉟
쉵
슂
슅
슏
슓
슠
슫
싊
싘
싞
싧
싩
싮
싳
쌆
쌊
쌎
쌖
쌚
쌛
쌟
쌷
쌺
쌻
썁
썃
썗
썱
썳
썴
썷
쎋
쎞
쎟
쎡
쎫
쏌
쏏
쏔
쐅
쐏
쐠
쐣
쐥
쐩
쐼
쑀
쑁
쑍
쑟
쑫
쑱
쑷
쑽
쒂
쒄
쒐
쒠
쒧
쒨
쒺
쓀
쓈
쓕
쓚
쓜
쓤
쓷
앇
앦
앲
앷
앻
얓
얰
엓
엕
엟
엦
엻
옃
옓
옡
옲
왂
왇
왖
욚
욦
욵
웄
웇
웋
웎
웚
웞
웴
윚
윟
윢
윧
윪
윮
윺
읁
읂
읟
읤
읩
잓
잕
잙
잜
잟
쟆
쟏
쟑
쟔
쟟
쟥
쟴
쟸
쟹
젂
젃
젆
젘
젚
젻
젿
졁
졂
졏
졐
졒
졥
졧
졬
졺
졽
졾
졿
좈
좒
좜
좟
좠
좧
좬
좸
죘
죥
죧
죱
죷
죻
줅
줈
줊
줎
줒
줙
줮
쥥
쥮
쥻
즊
즠
즡
즨
즯
짡
짣
짩
짴
쨖
쨢
쨱
쩁
쩎
쩒
쩢
쩱
쩸
쩽
쪈
쪔
쫅
쫋
쫖
쫠
쫫
쫬
쫰
쬥
쭬
쮕
쮬
쯇
쯈
쯜
쯫
쯬
쯸
찃
찖
찗
찛
찥
찲
찳
찴
찺
챁
챣
챲
챴
챶
챹
챻
챽
첄
첐
첚
첛
첢
첣
첥
첦
첪
첮
첳
쳈
쳋
쳕
쳧
쳫
쳭
쳼
촁
촍
촎
촑
촒
촓
촕
촖
촣
촻
쵿
춇
춏
춗
춠
춡
춦
춬
췛
츀
츆
츎
츷
칚
칻
캟
캧
컛
켇
켳
콉
콫
쾁
쾋
쾐
쾹
쾽
쿌
쿏
쿧
쿩
쿪
퀡
큫
큱
킆
킦
킭
탂
탃
탆
탊
탍
탒
탗
탚
탺
탿
턁
턉
턋
턌
턐
턒
턓
턕
턚
턩
턹
턺
턻
텆
텈
텓
텗
텞
텠
텣
텪
텳
텸
톁
톃
톗
톙
톮
퇍
퇙
퇜
퇣
툄
툑
툓
툔
툘
툝
툡
툩
툫
툯
툷
툸
툹
툺
퉃
퉇
퉐
퉝
퉠
퉱
튎
튙
튟
튦
튲
튳
튵
튶
틐
틒
틓
틘
틥
팂
팄
팒
팗
팚
팮
퍐
퍠
퍿
펅
펋
펎
펖
펗
펡
펬
펰
펵
펻
폃
폡
폳
퐠
퐤
퐳
푥
푧
푩
푫
푭
푷
풄
풇
풏
풕
풘
풜
퓙
퓝
퓡
퓳
퓴
퓵
퓹
픁
픓
픟
픱
픳
핁
핃
핎
핖
핗
핚
핞
핦
핪
핽
핿
햍
햚
햭
햰
햼
햿
헁
헏
헓
헫
헺
혂
혅
혉
혒
혙
혭
홒
홨
홪
홬
홴
횂
횄
횓
횜
횦
횹
횾
훁
훃
훇
훎
훒
훯
휋
휌
휍
휔
휢
휬
휰
휳
휽
흢
흪
힋
힍
갆
갌
갍
갎
갏
갟
갡
갢
갦
갧
갩
갪
갫
갳
갶
갷
갺
갻
갽
갾
갿
걃
걄
걅
걆
걇
걊
걌
걎
걐
걒
걕
걖
걗
걙
걚
걛
걝
걞
걟
걠
걡
걢
걣
걤
걦
걧
걨
걪
걫
걬
걭
걮
걯
걵
걶
걻
걾
겎
겏
겑
겒
겖
겗
겘
겙
겚
겛
겣
겫
겭
겮
겱
겲
겴
겵
겶
겷
겺
곆
곇
곉
곊
곋
곍
곎
곏
곐
곑
곒
곓
곔
곙
곚
곛
곜
곝
곞
곢
곣
곥
곦
곫
곭
곮
곾
곿
괁
괂
괅
괇
괈
괉
괊
괋
괎
괒
괓
괔
괕
괖
괚
괛
괝
괟
괡
괢
괣
괤
괥
괦
괨
괪
괫
괮
괯
괰
괲
괶
괷
괹
괻
괽
괾
괿
굀
굁
굂
굃
굆
굊
굋
굌
굍
굎
굏
굒
굓
굕
굖
굙
굚
굛
굜
굝
굞
굟
굢
굤
굦
굧
굨
굩
굪
굫
굮
굯
굱
굲
굹
굺
궀
궊
궍
궎
궏
궑
궒
궓
궕
궗
궙
궚
궟
궠
궡
궣
궥
궦
궧
궩
궪
궯
궰
궱
궲
궴
궵
궺
궽
궾
궿
귂
귃
귅
귆
귇
귉
귊
귋
귌
귎
귏
귒
귗
귙
귞
귟
귢
귣
귦
귧
귨
귩
귫
귭
귮
귰
귲
귳
귴
귶
귷
긅
긆
긊
긖
긗
긙
긚
긛
긝
긟
긠
긥
긦
긨
긪
긫
긬
긭
긯
긳
긵
긹
긻
긼
긽
긾
깒
깕
깗
깘
깙
깚
깦
깫
깭
깮
깯
깱
깲
깴
깵
깶
깷
깾
깿
꺁
꺂
꺇
꺈
꺉
꺊
꺋
꺎
꺏
꺒
꺖
꺚
꺛
꺜
꺝
꺞
꺟
꺡
꺣
꺥
꺦
꺧
꺩
꺪
꺫
꺬
꺭
꺮
꺯
꺰
꺱
꺲
꺳
꺶
꺷
꺸
꺹
꺺
꺻
꺿
껁
껂
껅
껆
껇
껈
껉
껊
껋
껎
껓
껔
껕
껚
껛
껝
껞
껟
껡
껢
껣
껤
껥
껦
껧
껪
껮
껯
껱
껲
껳
껷
껹
껺
껻
껽
껾
껿
꼀
꼁
꼂
꼃
꼅
꼆
꼊
꼋
꼌
꼎
꼏
꼒
꼓
꼕
꼖
꼗
꼘
꼙
꼚
꼛
꼜
꼝
꼞
꼟
꼡
꼢
꼣
꼤
꼥
꼦
꼧
꼨
꼩
꼪
꼫
꼱
꼵
꼶
꼷
꼸
꼹
꼺
꼾
꽀
꽄
꽋
꽍
꽎
꽏
꽑
꽒
꽓
꽔
꽕
꽖
꽗
꽘
꽙
꽚
꽞
꽟
꽠
꽡
꽢
꽧
꽩
꽪
꽫
꽬
꽮
꽰
꽱
꽲
꽳
꽴
꽵
꽶
꽷
꽺
꽻
꽼
꽽
꽾
꽿
꾂
꾃
꾅
꾆
꾇
꾉
꾊
꾋
꾌
꾍
꾎
꾏
꾒
꾓
꾖
꾗
꾘
꾙
꾚
꾛
꾝
꾞
꾟
꾠
꾡
꾢
꾣
꾤
꾥
꾦
꾧
꾨
꾩
꾪
꾬
꾮
꾯
꾰
꾱
꾲
꾳
꾵
꾶
꾷
꾻
꾽
꿁
꿄
꿊
꿌
꿐
꿒
꿓
꿖
꿗
꿙
꿚
꿛
꿞
꿟
꿠
꿡
꿢
꿣
꿤
꿥
꿦
꿪
꿫
꿬
꿭
꿮
꿲
꿳
꿵
꿶
꿷
꿹
꿺
꿼
꿽
꿾
뀃
뀅
뀆
뀇
뀈
뀉
뀊
뀋
뀎
뀏
뀑
뀒
뀓
뀕
뀖
뀗
뀘
뀚
뀛
뀞
뀣
뀤
뀥
뀦
뀧
뀪
뀫
뀭
뀮
뀯
뀲
뀳
뀴
뀶
뀷
뀸
뀹
뀺
뀼
뀾
뀿
끀
끁
끂
끃
끇
끏
끐
끒
끖
끘
끜
끞
끢
끣
끥
끦
끧
끩
끪
끫
끬
끭
끮
끯
끱
끲
끳
끴
끶
끷
끸
끹
끺
끻
끿
낁
낂
낃
낅
낆
낇
낈
낉
낊
낎
낒
낓
낕
낖
낗
낝
낤
낥
낦
낶
낷
낹
낺
낽
낾
낿
냁
냂
냃
냆
냊
냋
냍
냎
냏
냒
냓
냕
냖
냗
냚
냛
냜
냝
냞
냢
냦
냧
냪
냭
냮
냯
냰
냱
냲
냳
냴
냵
냶
냷
냸
냹
냺
냻
냼
냽
냾
냿
넁
넂
넃
넄
넅
넆
넇
넍
넔
넕
넞
넦
넧
넩
넪
넭
넮
넯
넰
넱
넲
넳
넶
넺
넻
넿
녃
녅
녆
녉
녊
녌
녍
녎
녏
녒
녖
녗
녙
녚
녝
녞
녟
녡
녢
녣
녥
녦
녧
녨
녩
녪
녫
녭
녮
녰
녱
녲
녳
녴
녵
녶
녷
녺
녻
녽
녾
놃
놄
놆
놊
놌
놖
놗
놙
놚
놛
놝
놟
놠
놡
놢
놣
놦
놪
놫
놭
놮
놱
놲
놳
놵
놷
놸
놹
놺
놻
놼
놽
놾
놿
뇀
뇁
뇂
뇃
뇅
뇆
뇇
뇈
뇉
뇊
뇋
뇍
뇎
뇏
뇑
뇒
뇓
뇕
뇖
뇗
뇘
뇙
뇚
뇛
뇞
뇢
뇣
뇤
뇥
뇦
뇧
뇪
뇫
뇭
뇮
뇯
뇱
뇲
뇳
뇴
뇵
뇶
뇷
뇺
뇼
뇾
뇿
눀
눂
눃
눆
눇
눉
눊
눍
눎
눏
눐
눑
눒
눓
눖
눘
눚
눛
눡
눢
눣
눥
눦
눧
눩
눪
눫
눬
눭
눮
눯
눰
눱
눲
눳
눵
눷
눸
눹
눺
눻
눾
눿
뉀
뉁
뉂
뉃
뉄
뉅
뉆
뉇
뉈
뉉
뉊
뉋
뉌
뉎
뉐
뉑
뉒
뉓
뉕
뉖
뉗
뉚
뉛
뉝
뉞
뉟
뉡
뉢
뉣
뉤
뉥
뉦
뉧
뉪
뉬
뉮
뉯
뉰
뉱
뉲
뉳
뉶
뉷
뉹
뉺
뉻
뉾
뉿
늀
늁
늂
늃
늆
늈
늊
늋
늌
늍
늎
늏
늓
늖
늛
늜
늝
늞
늟
늢
늤
늮
늯
늱
늲
늳
늵
늶
늷
늸
늹
늺
늻
늽
늾
늿
닀
닂
닃
닄
닅
닆
닇
닋
닍
닎
닓
닔
닕
닖
닗
닩
댂
댃
댅
댆
댉
댌
댍
댎
댏
댒
댙
댚
댞
댟
댡
댢
댣
댧
댨
댩
댪
댫
댭
댮
댰
댲
댳
댴
댵
댷
댹
댺
댻
댽
댾
댿
덁
덂
덃
덄
덅
덆
덇
덈
덉
덊
덋
덎
덏
덐
덑
덒
덓
덚
덡
덲
덵
덶
덹
덺
덻
덼
덽
뎆
뎇
뎋
뎎
뎏
뎑
뎓
뎕
뎖
뎘
뎚
뎛
뎝
뎞
뎣
뎤
뎥
뎩
뎪
뎫
뎭
뎮
뎯
뎱
뎲
뎳
뎴
뎵
뎶
뎷
뎸
뎹
뎺
뎻
뎼
뎾
뎿
돀
돁
돂
돃
돉
돏
돑
돓
돢
돣
돥
돦
돧
돪
돫
돬
돭
돮
돯
돱
돲
돳
돴
돷
돸
돹
돺
돻
돾
됁
됂
됃
됅
됆
됇
됉
됊
됋
됎
됔
됕
됖
됚
됛
됝
됞
됟
됡
됣
됤
됥
됦
됪
됮
됯
됱
됲
됳
됶
됷
됹
됽
됾
됿
둀
둁
둂
둃
둄
둆
둊
둋
둌
둎
둒
둓
둕
둖
둛
둜
둝
둞
둢
둤
둦
둧
둨
둭
둮
둯
둱
둲
둳
둵
둶
둷
둸
둹
둺
둻
둼
둽
둾
뒂
뒃
뒄
뒅
뒆
뒇
뒊
뒋
뒌
뒍
뒎
뒏
뒐
뒒
뒔
뒖
뒘
뒙
뒚
뒛
뒜
뒞
뒟
뒠
뒡
뒢
뒣
뒦
뒧
뒩
뒪
뒭
뒮
뒯
뒰
뒱
뒲
뒳
뒶
뒸
뒻
뒼
뒽
듂
듃
듅
듆
듉
듊
듋
듌
듍
듎
듏
듒
듔
듖
듗
듘
듙
듚
듡
듢
듨
듩
듪
듲
듴
듺
듻
듽
듾
듿
딁
딂
딃
딄
딅
딆
딇
딊
딌
딎
딏
딐
딑
딒
딓
딖
딗
딙
딚
딝
딞
딟
딠
딡
딢
딣
딬
딭
딷
딼
딽
딾
땂
땆
땉
땎
땏
땑
땒
땓
땖
땘
땙
땚
땢
땤
땦
땧
땪
땫
땬
땭
땮
땯
땰
땱
땲
땴
땵
땶
땷
땸
땹
땺
땾
땿
떀
떁
떂
떃
떆
떇
떉
떊
떍
떎
떏
떐
떒
떓
떕
떖
떚
떛
떜
떝
떞
떟
떩
떬
떮
떲
떶
떸
떹
떺
떾
떿
뗁
뗂
뗅
뗇
뗈
뗊
뗎
뗒
뗓
뗔
뗕
뗖
뗙
뗚
뗛
뗟
뗢
뗤
뗥
뗦
뗧
뗨
뗩
뗪
뗫
뗭
뗮
뗯
뗰
뗱
뗲
뗷
뗹
뗺
뗽
뗾
뗿
똀
똁
똂
똃
똄
똅
똆
똈
똉
똊
똋
똌
똍
똎
똓
똕
똖
똚
똜
똞
똢
똦
똨
똪
똮
똯
똱
똲
똳
똶
똸
똹
똺
똼
똾
뙀
뙂
뙃
뙄
뙅
뙆
뙉
뙊
뙋
뙌
뙎
뙏
뙐
뙑
뙒
뙓
뙔
뙕
뙖
뙗
뙘
뙙
뙚
뙛
뙝
뙞
뙟
뙠
뙢
뙣
뙥
뙦
뙧
뙩
뙪
뙫
뙯
뙰
뙲
뙳
뙵
뙶
뙷
뙸
뙹
뙺
뙻
뙼
뙽
뙾
뙿
뚃
뚅
뚇
뚈
뚉
뚋
뚌
뚍
뚎
뚏
뚐
뚑
뚒
뚓
뚖
뚗
뚘
뚙
뚚
뚛
뚟
뚡
뚨
뚪
뚰
뚲
뚴
뚹
뚺
뚻
뚽
뚾
뚿
뛁
뛂
뛄
뛅
뛆
뛊
뛋
뛌
뛍
뛎
뛏
뛐
뛑
뛒
뛕
뛖
뛘
뛙
뛚
뛜
뛞
뛠
뛡
뛢
뛤
뛥
뛦
뛨
뛩
뛪
뛫
뛬
뛭
뛮
뛯
뛱
뛲
뛳
뛵
뛶
뛺
뛽
뛾
뛿
뜂
뜄
뜆
뜇
뜈
뜉
뜊
뜋
뜍
뜎
뜑
뜒
뜓
뜕
뜖
뜗
뜘
뜙
뜚
뜜
뜝
뜞
뜟
뜠
뜡
뜢
뜣
뜤
뜥
뜦
뜧
뜪
뜭
뜮
뜱
뜲
뜶
뜺
뜿
띀
띂
띆
띉
띊
띋
띍
띏
띐
띑
띒
띓
띖
띗
띘
띚
띛
띜
띝
띞
띟
띢
띣
띥
띦
띩
띪
띫
띬
띭
띮
띲
띴
띶
띷
띸
띹
띺
랁
랂
랇
랈
랉
랊
랚
랛
랝
랞
랡
랢
랥
랦
랧
랪
랯
랱
랶
랷
랹
랺
랽
랾
랿
럀
럁
럃
럆
럊
럋
럌
럍
럎
럏
럒
럓
럕
럖
럗
럘
럙
럚
럛
럜
럝
럞
럟
럠
럡
럢
럣
럥
럦
럧
럨
럩
럫
럮
럯
럱
럳
럵
럹
럺
럾
렂
렃
렅
렊
렋
렍
렎
렑
렒
렔
렕
렖
렗
렟
렧
렩
렪
렭
렮
렯
렰
렱
렲
렶
렻
렽
롂
롃
롅
롆
롉
롋
롌
롍
롎
롏
롒
롔
롖
롗
롘
롙
롚
롛
롞
롟
롡
롢
롦
롧
롨
롩
롪
롰
롺
롻
롾
롿
뢁
뢂
뢃
뢄
뢅
뢆
뢊
뢋
뢌
뢎
뢏
뢑
뢒
뢕
뢖
뢗
뢙
뢚
뢛
뢜
뢝
뢞
뢟
뢠
뢡
뢢
뢣
뢦
뢧
뢩
뢪
뢫
뢬
뢭
뢮
뢲
뢳
뢵
뢶
뢷
뢹
뢺
뢻
뢼
뢽
뢾
뢿
룂
룆
룇
룈
룉
룊
룋
룎
룏
룑
룒
룓
룕
룖
룗
룘
룙
룚
룜
룞
룠
룢
룣
룤
룦
룧
룫
룭
룮
룲
룵
룶
룼
룾
룿
뤆
뤇
뤉
뤊
뤋
뤍
뤎
뤏
뤐
뤑
뤒
뤓
뤖
뤚
뤛
뤜
뤝
뤞
뤟
뤢
뤣
뤥
뤦
뤧
뤩
뤪
뤫
뤬
뤭
뤮
뤰
뤲
뤳
뤴
뤶
뤷
뤸
뤹
뤺
뤾
뤿
륁
륂
륃
륅
륆
륇
륈
륉
륊
륋
륎
륒
륓
륕
륖
륗
륚
륛
륟
륢
륣
륤
륥
륦
륪
륬
륮
륯
륰
륱
륲
륳
륹
륺
륾
륿
릀
릁
릂
릑
릒
릓
릕
릖
릗
릙
릚
릛
릜
릝
릡
릢
릤
릥
릦
릧
릨
릩
릪
릫
릱
릲
릶
릷
릸
릹
릺
릻
맖
맦
맧
맩
맭
맯
맰
맱
맲
맳
맶
맾
맿
먂
먇
먉
먊
먋
먌
먎
먒
먔
먝
먞
먟
먠
먡
먢
먣
먤
먥
먦
먧
먨
먩
먬
먭
먮
먯
먰
먱
먲
먴
먶
먷
먻
멄
멅
멖
멗
멙
멚
멝
멟
멠
멡
멢
멣
멲
멳
멵
멶
멺
멻
멼
멾
멿
몂
몈
몍
몎
몏
몑
몒
몕
몖
몗
몘
몙
몚
몛
몜
몝
몞
몠
몡
몢
몣
몤
몦
몧
몵
몶
뫂
뫆
뫇
뫉
뫊
뫋
뫍
뫎
뫏
뫐
뫑
뫒
뫓
뫕
뫖
뫗
뫛
뫜
뫝
뫟
뫡
뫢
뫣
뫥
뫦
뫧
뫨
뫩
뫪
뫫
뫬
뫭
뫮
뫯
뫰
뫱
뫲
뫳
뫴
뫶
뫷
뫸
뫹
뫺
뫻
뫾
뫿
묁
묂
묃
묅
묆
묇
묉
묊
묋
묌
묎
묐
묒
묓
묔
묕
묖
묛
묝
묞
묢
묣
묤
묥
묧
묪
묮
묰
묲
묹
묿
뭂
뭒
뭓
뭕
뭖
뭙
뭚
뭛
뭜
뭝
뭞
뭢
뭦
뭪
뭫
뭮
뭯
뭱
뭲
뭳
뭴
뭶
뭸
뭹
뭻
뭼
뭽
뭾
뭿
뮀
뮁
뮂
뮃
뮄
뮅
뮆
뮇
뮊
뮋
뮍
뮎
뮏
뮑
뮒
뮓
뮕
뮖
뮗
뮙
뮚
뮜
뮞
뮟
뮠
뮡
뮢
뮣
뮦
뮩
뮪
뮫
뮭
뮮
뮰
뮱
뮲
뮵
뮸
뮺
뮼
뮾
믃
믅
믆
믊
믋
믍
믎
믑
믒
믔
믖
믚
믝
믞
믟
믡
믢
믣
믤
믥
믦
믧
믨
믩
믪
믫
믬
믭
믮
믯
믰
믲
믳
믴
믵
믶
믷
믽
밃
밄
밅
밆
밳
밵
밶
밹
밺
밼
밽
밾
밿
뱂
뱆
뱇
뱈
뱋
뱎
뱑
뱖
뱗
뱘
뱙
뱠
뱢
뱣
뱥
뱧
뱪
뱫
뱬
뱭
뱮
뱯
뱰
뱱
뱲
뱳
뱴
뱵
뱶
뱹
뱻
뱼
뱾
뱿
벀
벁
벂
벃
벢
벣
벥
벦
벪
벬
벭
벮
벯
벶
벷
벺
벿
볁
볂
볆
볇
볈
볉
볊
볋
볒
볖
볗
볚
볛
볝
볞
볡
볢
볣
볤
볥
볦
볧
볨
볩
볪
볬
볭
볮
볯
볰
볲
볷
볺
봓
봕
봖
봚
봛
봜
봝
봞
봟
봦
봧
봩
봪
봭
봮
봯
봰
봱
봲
봳
봶
봷
봸
봹
봺
봻
봼
봾
봿
뵁
뵂
뵃
뵄
뵅
뵆
뵇
뵊
뵋
뵍
뵎
뵏
뵒
뵓
뵔
뵕
뵖
뵗
뵚
뵝
뵞
뵟
뵠
뵡
뵢
뵣
뵦
뵩
뵪
뵮
뵯
뵰
뵱
뵵
뵺
뵼
뵽
뵾
뵿
붅
붎
붔
붞
붟
붠
붡
붢
붣
붥
붦
붧
붨
붩
붪
붫
붬
붭
붮
붲
붳
붶
붺
붻
붽
붾
붿
뷂
뷃
뷄
뷅
뷆
뷈
뷊
뷌
뷍
뷎
뷑
뷒
뷖
뷗
뷙
뷚
뷝
뷞
뷠
뷡
뷢
뷣
뷨
뷪
뷬
뷯
뷲
뷳
뷶
뷺
뷻
뷽
뷾
뷿
븁
븂
븄
븆
븇
븊
븋
븑
븒
븖
븗
븙
븚
븛
븢
븣
븤
븦
븪
븫
븭
븮
븯
븱
븲
븳
븴
븵
븶
븷
븹
븺
븻
븼
븾
븿
빀
빁
빃
빇
빉
빊
빐
빑
빓
빜
빦
빬
빭
빯
빲
빿
뺁
뺂
뺆
뺇
뺈
뺉
뺊
뺋
뺎
뺕
뺖
뺗
뺞
뺢
뺤
뺪
뺬
뺯
뺰
뺱
뺲
뺷
뺺
뺻
뺽
뺾
뻀
뻁
뻂
뻃
뻅
뻊
뻋
뻌
뻍
뻎
뻏
뻓
뻜
뻝
뻧
뻫
뻮
뻯
뻱
뻲
뻳
뻵
뻶
뻷
뻸
뻹
뻺
뻻
뻾
뼀
뼂
뼃
뼄
뼅
뼆
뼊
뼋
뼍
뼎
뼑
뼒
뼓
뼔
뼕
뼖
뼗
뼚
뼟
뼣
뼧
뼨
뼩
뼪
뼫
뼭
뼮
뼯
뼰
뼲
뼳
뼴
뼵
뼶
뼷
뼹
뼺
뼻
뼼
뼽
뼾
뼿
뽃
뽅
뽉
뽋
뽌
뽍
뽎
뽏
뽗
뽡
뽢
뽣
뽦
뽨
뽩
뽪
뽫
뽬
뽮
뽯
뽰
뽲
뽳
뽵
뽶
뽹
뽺
뽻
뽼
뽽
뽾
뽿
뾀
뾁
뾈
뾉
뾊
뾋
뾌
뾍
뾎
뾏
뾐
뾑
뾒
뾓
뾕
뾖
뾗
뾙
뾚
뾛
뾜
뾝
뾞
뾟
뾠
뾡
뾢
뾣
뾤
뾦
뾧
뾨
뾩
뾪
뾫
뾬
뾭
뾮
뾯
뾳
뾴
뾵
뾶
뾷
뾺
뾽
뾾
뾿
뿀
뿂
뿄
뿆
뿇
뿈
뿊
뿖
뿢
뿣
뿤
뿥
뿦
뿪
뿫
뿬
뿭
뿰
뿱
뿲
뿳
뿴
뿵
뿶
뿸
뿹
뿺
뿻
뿼
뿽
뿾
뿿
쀀
쀁
쀂
쀃
쀅
쀆
쀇
쀈
쀉
쀊
쀋
쀔
쀕
쀖
쀗
쀘
쀙
쀚
쀛
쀜
쀝
쀞
쀟
쀡
쀢
쀣
쀤
쀥
쀦
쀧
쀨
쀩
쀪
쀫
쀭
쀮
쀯
쀰
쀱
쀴
쀵
쀶
쀷
쀸
쀹
쀺
쀻
쁁
쁂
쁃
쁄
쁅
쁆
쁇
쁈
쁊
쁒
쁔
쁗
쁛
쁝
쁞
쁡
쁤
쁦
쁧
쁪
쁫
쁬
쁮
쁯
쁰
쁱
쁲
쁳
쁵
쁷
쁸
쁹
쁺
쁻
쁽
쁾
쁿
삀
삁
삃
삄
삅
삆
삇
삈
삉
삊
삋
삌
삍
삎
삏
삓
삕
삖
삙
삛
삞
삟
삢
삦
삨
삩
삪
삫
삺
샋
샍
샎
샑
샔
샕
샖
샗
샚
샞
샡
샣
샦
샧
샩
샮
샯
샰
샱
샲
샳
샶
샸
샺
샽
샿
섂
섃
섅
섆
섇
섉
섋
섌
섍
섎
섏
섒
섓
섔
섖
섗
섘
섙
섛
섩
섽
섾
셁
셂
셃
셄
셅
셆
셇
셎
셏
셓
셗
셚
셛
셝
셞
셠
셡
셢
셪
셫
셬
셭
셮
셯
셲
셳
셵
셶
셹
셺
셻
셼
셽
셾
셿
솂
솄
솆
솇
솉
솋
솙
솣
솪
솫
솭
솮
솯
솱
솲
솳
솴
솵
솶
솷
솺
솾
솿
쇁
쇂
쇃
쇅
쇆
쇉
쇊
쇋
쇍
쇎
쇏
쇐
쇑
쇒
쇓
쇕
쇖
쇚
쇛
쇜
쇞
쇟
쇢
쇣
쇥
쇦
쇧
쇩
쇪
쇫
쇬
쇭
쇮
쇯
쇲
쇶
쇷
쇸
쇹
쇺
쇻
쇾
쇿
숂
숃
숅
숆
숇
숈
숉
숊
숋
숎
숐
숒
숗
숡
숣
숧
숵
숶
숷
숹
숺
숻
숽
숾
숿
쉀
쉁
쉂
쉃
쉄
쉆
쉇
쉉
쉊
쉋
쉌
쉍
쉎
쉒
쉓
쉕
쉖
쉗
쉝
쉞
쉢
쉦
쉧
쉫
쉮
쉯
쉱
쉲
쉳
쉶
쉷
쉸
쉹
쉺
쉻
쉾
슃
슇
슊
슋
슍
슎
슑
슒
슔
슕
슖
슗
슚
슜
슞
슣
슩
슪
슯
슰
슱
싂
싃
싅
싆
싇
싉
싋
싌
싍
싎
싏
싒
싓
싔
싖
싗
싙
싚
싛
싟
싡
싥
쌁
쌃
쌄
쌅
쌏
쌗
쌝
쌠
쌡
쌢
쌣
쌦
쌧
쌪
쌫
쌬
쌭
쌮
쌯
쌲
쌳
쌶
쌹
쌼
쌽
쌾
쌿
썂
썄
썆
썇
썈
썉
썊
썏
썑
썒
썓
썔
썕
썘
썙
썚
썝
썞
썟
썠
썢
썣
썤
썥
썦
썧
썵
썶
썺
썾
썿
쎁
쎂
쎇
쎉
쎊
쎍
쎎
쎏
쎐
쎑
쎒
쎓
쎖
쎚
쎛
쎜
쎝
쎢
쎣
쎦
쎧
쎩
쎪
쎬
쎭
쎮
쎯
쎰
쎱
쎲
쎳
쎶
쎷
쎸
쎹
쎺
쎻
쏁
쏂
쏃
쏅
쏆
쏇
쏈
쏊
쏋
쏍
쏎
쏐
쏑
쏒
쏓
쏕
쏖
쏗
쏛
쏞
쏡
쏣
쏤
쏥
쏦
쏧
쏪
쏬
쏮
쏯
쏰
쏲
쏷
쏹
쏺
쏻
쏾
쏿
쐀
쐁
쐂
쐃
쐄
쐆
쐊
쐋
쐌
쐍
쐎
쐒
쐓
쐕
쐖
쐗
쐘
쐚
쐛
쐜
쐝
쐞
쐟
쐡
쐢
쐦
쐧
쐨
쐪
쐫
쐭
쐮
쐯
쐱
쐲
쐳
쐵
쐶
쐷
쐸
쐹
쐺
쐻
쐾
쐿
쑂
쑃
쑄
쑅
쑆
쑇
쑊
쑋
쑎
쑏
쑑
쑒
쑓
쑔
쑕
쑖
쑗
쑘
쑙
쑚
쑜
쑠
쑡
쑢
쑣
쑧
쑪
쑭
쑮
쑯
쑰
쑲
쑳
쑶
쑸
쑺
쑾
쑿
쒁
쒃
쒅
쒆
쒇
쒈
쒉
쒊
쒋
쒌
쒍
쒎
쒏
쒑
쒒
쒖
쒗
쒘
쒙
쒚
쒛
쒞
쒟
쒡
쒢
쒣
쒤
쒥
쒦
쒩
쒪
쒫
쒬
쒭
쒮
쒲
쒳
쒵
쒶
쒷
쒻
쒽
쒾
쒿
쓁
쓂
쓃
쓄
쓅
쓆
쓇
쓊
쓌
쓍
쓎
쓏
쓐
쓑
쓒
쓓
쓖
쓗
쓙
쓛
쓝
쓞
쓟
쓠
쓡
쓢
쓣
쓥
쓦
쓧
쓨
쓪
쓫
쓬
쓭
쓮
쓯
쓳
쓵
쓶
쓹
쓻
쓼
쓽
쓾
씂
씆
씇
씈
씊
씍
씎
씏
씑
씒
씓
씕
씖
씗
씘
씙
씚
씛
씞
씟
씠
씢
씣
씦
씧
씫
씭
씮
씱
씲
씳
씴
씵
씶
씷
씾
씿
앁
앂
앃
앣
앥
앪
앬
앭
앮
앯
앹
앿
얁
얈
얚
얛
얝
얞
얟
얡
얢
얣
얤
얥
얦
얧
얨
얪
얮
얯
얱
얲
얳
엀
엁
엂
엖
엚
엛
엝
엞
엢
엧
엲
옊
옋
옍
옎
옏
옔
옕
옖
옗
옚
옞
옟
옠
옢
옣
옩
왃
왅
왆
왊
왋
왌
왍
왎
왏
왗
왙
왞
왟
왡
왢
왣
왥
왦
왧
왨
왩
왪
왫
왮
왲
왳
왴
왵
왶
왺
왻
왽
왾
왿
욁
욂
욃
욄
욅
욆
욇
욊
욎
욏
욐
욑
욒
욓
욖
욗
욞
욠
욪
욫
욭
욲
욳
욶
욻
욼
욽
웂
웏
웑
웖
웘
웙
웢
웣
웪
웫
웭
웮
웯
웲
웳
웵
웶
웺
웼
웾
웿
윂
윃
윆
윇
윉
윊
윋
윍
윎
윏
윐
윑
윒
윓
윖
윛
윣
윥
윦
윩
윫
윬
윭
윯
윴
윻
윿
읚
읛
읝
읞
읡
읢
읣
읥
읦
읬
읮
읯
읱
읲
읳
잁
잝
잮
잯
잱
잲
잳
잵
잶
잷
잸
잹
잺
잻
잾
쟄
쟅
쟇
쟊
쟋
쟍
쟒
쟓
쟕
쟖
쟚
쟡
쟣
쟦
쟧
쟩
쟪
쟫
쟭
쟮
쟯
쟰
쟱
쟲
쟳
쟵
쟶
쟷
쟺
쟻
쟼
쟽
쟾
쟿
젅
젉
젌
젍
젎
젙
젞
젡
젢
젣
젥
젦
젩
젪
젫
젰
젲
젳
젷
젽
젾
졃
졄
졅
졆
졇
졊
졑
졓
졕
졖
졗
졙
졚
졛
졝
졞
졟
졠
졡
졢
졣
졦
졨
졪
졫
졭
졮
졯
졲
졳
졶
졹
졻
졼
좎
좏
좑
좓
좕
좖
좗
좘
좙
좚
좛
좞
좣
좤
좥
좦
좩
좪
좫
좭
좮
좯
좰
좱
좲
좳
좴
좵
좶
좷
좺
좻
좾
좿
죀
죁
죂
죃
죅
죆
죇
죉
죊
죋
죍
죎
죏
죐
죑
죒
죓
죖
죚
죛
죜
죝
죞
죟
죣
죦
죩
죪
죫
죬
죭
죮
죯
죲
죴
죺
죾
죿
줁
줂
줇
줉
줔
줕
줖
줚
줛
줝
줞
줟
줡
줢
줣
줤
줥
줦
줧
줨
줩
줪
줯
줰
줱
줲
줳
줶
줷
줹
줺
줻
줼
줽
줾
줿
쥀
쥁
쥂
쥃
쥄
쥅
쥆
쥈
쥊
쥋
쥌
쥍
쥎
쥏
쥒
쥓
쥕
쥖
쥗
쥙
쥚
쥛
쥜
쥝
쥞
쥟
쥢
쥦
쥧
쥨
쥩
쥪
쥫
쥯
쥱
쥲
쥳
쥵
쥶
쥷
쥸
쥹
쥺
쥾
즀
즃
즄
즅
즆
즇
즋
즍
즎
즏
즒
즓
즔
즕
즖
즗
즚
즜
즞
즟
즢
즣
즦
즧
즩
즪
즫
즬
즭
즮
즰
즱
즲
즳
즴
즵
즶
즷
즸
즺
즻
즼
즽
즾
즿
짃
짅
짉
짌
짍
짎
짏
짟
짨
짲
짳
짵
짶
짺
짻
짽
짾
짿
쨁
쨂
쨃
쨄
쨅
쨆
쨇
쨊
쨎
쨏
쨐
쨑
쨒
쨓
쨗
쨙
쨚
쨛
쨝
쨞
쨠
쨡
쨣
쨦
쨪
쨫
쨬
쨭
쨮
쨯
쨲
쨳
쨵
쨶
쨷
쨸
쨹
쨺
쨻
쨼
쨽
쨾
쨿
쩀
쩂
쩆
쩇
쩈
쩉
쩊
쩋
쩏
쩑
쩓
쩕
쩘
쩙
쩚
쩛
쩞
쩣
쩤
쩥
쩦
쩩
쩪
쩫
쩭
쩮
쩯
쩲
쩳
쩴
쩵
쩶
쩷
쩹
쩺
쩾
쩿
쪀
쪁
쪂
쪃
쪅
쪆
쪇
쪉
쪊
쪋
쪌
쪍
쪎
쪏
쪐
쪑
쪒
쪓
쪕
쪖
쪚
쪛
쪜
쪝
쪞
쪟
쪡
쪢
쪣
쪤
쪥
쪦
쪧
쪩
쪪
쪫
쪬
쪭
쪮
쪯
쪰
쪱
쪲
쪳
쪴
쪵
쪶
쪷
쪸
쪹
쪺
쪻
쪿
쫁
쫂
쫃
쫆
쫇
쫈
쫉
쫊
쫎
쫐
쫔
쫕
쫚
쫛
쫝
쫞
쫟
쫡
쫢
쫣
쫤
쫥
쫦
쫧
쫨
쫪
쫮
쫯
쫱
쫲
쫳
쫵
쫶
쫷
쫸
쫹
쫺
쫻
쫼
쫽
쫾
쫿
쬀
쬁
쬂
쬃
쬄
쬅
쬆
쬇
쬉
쬊
쬋
쬌
쬍
쬎
쬏
쬑
쬒
쬓
쬕
쬖
쬗
쬙
쬚
쬛
쬜
쬝
쬞
쬟
쬢
쬣
쬦
쬧
쬨
쬩
쬪
쬫
쬮
쬯
쬱
쬳
쬵
쬶
쬸
쬹
쬺
쬻
쬾
쬿
쭄
쭅
쭆
쭇
쭋
쭍
쭎
쭏
쭑
쭒
쭓
쭔
쭕
쭖
쭗
쭚
쭜
쭞
쭠
쭡
쭢
쭣
쭥
쭦
쭧
쭩
쭪
쭫
쭭
쭮
쭯
쭰
쭱
쭲
쭳
쭴
쭶
쭷
쭺
쭻
쭼
쭽
쭾
쭿
쮁
쮂
쮃
쮄
쮅
쮆
쮇
쮈
쮉
쮊
쮋
쮌
쮍
쮎
쮏
쮐
쮑
쮒
쮓
쮔
쮖
쮗
쮘
쮙
쮚
쮛
쮝
쮞
쮟
쮡
쮢
쮣
쮤
쮥
쮦
쮧
쮨
쮩
쮪
쮫
쮭
쮮
쮯
쮰
쮱
쮲
쮳
쮴
쮵
쮶
쮷
쮺
쮻
쮼
쮽
쮾
쮿
쯀
쯁
쯂
쯃
쯄
쯅
쯆
쯊
쯌
쯎
쯏
쯐
쯑
쯒
쯓
쯖
쯗
쯙
쯚
쯛
쯝
쯞
쯟
쯠
쯡
쯢
쯣
쯦
쯨
쯭
쯮
쯯
쯲
쯳
쯴
쯵
쯶
쯷
쯹
쯺
쯻
쯼
쯽
쯾
쯿
찀
찁
찂
찄
찅
찆
찇
찈
찉
찊
찋
찏
찑
찒
찓
찕
찘
찙
찚
찞
찠
찤
찪
찵
찶
찷
챆
챇
챉
챊
챋
챍
챎
챏
챐
챑
챒
챓
챖
챚
챛
챜
챝
챟
챢
챥
챧
챩
챪
챫
챬
챭
챮
챾
챿
첀
첁
첂
첃
첆
첇
첈
첉
첊
첋
첌
첍
첎
첏
첑
첒
첓
첔
첕
첖
첗
첝
첤
첱
첶
첷
첹
첺
첻
첽
첾
첿
쳀
쳁
쳂
쳃
쳆
쳊
쳍
쳎
쳏
쳒
쳓
쳖
쳙
쳚
쳛
쳜
쳝
쳞
쳟
쳢
쳦
쳨
쳩
쳪
쳮
쳯
쳱
쳲
쳳
쳵
쳶
쳷
쳸
쳹
쳺
쳻
쳽
쳾
촀
촂
촃
촄
촅
촆
촇
촋
촔
촗
촚
촜
촦
촧
촩
촪
촫
촭
촮
촯
촰
촱
촲
촳
촶
촸
촺
촼
촽
촿
쵂
쵃
쵄
쵅
쵆
쵈
쵉
쵊
쵋
쵌
쵍
쵎
쵏
쵐
쵑
쵒
쵓
쵔
쵖
쵗
쵘
쵙
쵚
쵛
쵞
쵟
쵡
쵢
쵣
쵥
쵦
쵧
쵨
쵩
쵪
쵫
쵰
쵲
쵳
쵴
쵵
쵶
쵺
쵻
쵽
쵾
춁
춂
춃
춄
춅
춆
춊
춌
춎
춐
춑
춒
춓
춖
춙
춚
춞
춟
춯
춲
춳
춵
춶
춷
춹
춺
춻
춼
춽
춾
춿
췀
췂
췆
췇
췈
췉
췊
췋
췎
췏
췑
췒
췓
췕
췖
췗
췘
췙
췚
췜
췝
췞
췟
췠
췢
췣
췥
췦
췧
췪
췫
췭
췮
췯
췱
췲
췳
췴
췵
췶
췷
췺
췾
췿
츁
츂
츃
츇
츉
츊
츋
츍
츏
츐
츑
츒
츓
츖
츘
츚
츛
츜
츝
츞
츟
츢
츣
츥
츦
츧
츪
츫
츬
츭
츮
츯
츲
츴
츶
츸
츹
츺
츻
츽
츾
츿
칁
칂
칃
칄
칅
칆
칇
칈
칉
칊
칋
칌
칍
칎
칏
칐
칑
칒
칓
칔
칕
칖
칗
칛
칝
칞
칣
칤
칥
칦
칧
칪
칱
칳
칶
칷
칹
칺
칾
칿
캀
캁
캂
캃
캈
캊
캒
캓
캕
캖
캗
캙
캚
캛
캝
캞
캦
캨
캩
캫
캮
캯
캱
캲
캳
캶
캷
캸
캹
캺
캻
캾
컀
컂
컃
컅
컆
컇
컉
컊
컋
컌
컍
컎
컏
컐
컑
컒
컓
컔
컕
컖
컗
컘
컙
컚
컜
컝
컞
컟
컠
컡
컢
컣
컦
컧
컩
컪
컮
컯
컰
컱
컲
컳
컺
컻
켂
켃
켅
켆
켉
켊
켋
켌
켍
켎
켏
켒
켖
켗
켛
켞
켟
켡
켢
켥
켦
켧
켨
켩
켪
켫
켲
켴
켵
켶
켷
켹
켺
켻
켽
켾
켿
콁
콂
콃
콄
콅
콆
콇
콈
콊
콋
콌
콍
콎
콏
콐
콑
콒
콓
콖
콗
콚
콝
콞
콟
콠
콡
콢
콣
콨
콪
콭
콲
콳
콵
콶
콷
콹
콺
콼
콽
콾
콿
쾂
쾄
쾆
쾇
쾉
쾊
쾎
쾏
쾑
쾒
쾓
쾕
쾖
쾗
쾘
쾙
쾚
쾛
쾜
쾝
쾞
쾟
쾠
쾢
쾣
쾤
쾥
쾦
쾧
쾪
쾫
쾭
쾮
쾯
쾱
쾲
쾳
쾴
쾵
쾶
쾷
쾸
쾺
쾼
쾾
쾿
쿀
쿁
쿂
쿃
쿅
쿆
쿇
쿉
쿊
쿋
쿍
쿎
쿐
쿑
쿒
쿓
쿕
쿖
쿘
쿚
쿛
쿝
쿞
쿟
쿢
쿣
쿥
쿦
쿫
쿬
쿮
쿯
쿲
쿴
쿶
쿷
쿹
쿺
쿻
쿾
쿿
퀁
퀂
퀃
퀅
퀆
퀇
퀈
퀉
퀊
퀋
퀎
퀐
퀒
퀓
퀔
퀕
퀖
퀗
퀚
퀛
퀝
퀞
퀟
퀢
퀣
퀤
퀥
퀦
퀩
퀪
퀬
퀮
퀯
퀰
퀱
퀲
퀳
퀶
퀷
퀹
퀺
퀻
퀽
퀾
퀿
큀
큁
큂
큃
큆
큈
큊
큋
큌
큍
큎
큏
큑
큒
큓
큕
큖
큗
큙
큚
큛
큜
큝
큞
큢
큤
큦
큧
큨
큩
큪
큮
큯
큲
큵
큶
큷
큸
큹
큺
큻
킀
킂
킃
킉
킊
킋
킌
킍
킎
킏
킑
킒
킓
킔
킕
킖
킗
킘
킙
킚
킛
킜
킝
킞
킟
킠
킡
킢
킣
킧
킩
킪
킮
킯
킰
킱
킲
킳
킶
킺
킻
킽
킿
탅
탋
탌
탎
탛
탞
탟
탡
탢
탥
탦
탧
탨
탩
탪
탫
탮
탲
탳
탴
탷
탻
탽
탾
턂
턃
턄
턅
턆
턇
턈
턊
턎
턏
턖
턗
턘
턙
턛
턜
턝
턞
턟
턠
턡
턢
턣
턤
턥
턦
턧
턨
턪
턫
턬
턭
턮
턯
턲
턳
턵
턶
턷
턼
턽
턾
턿
텇
텎
텏
텑
텒
텕
텖
텘
텙
텚
텛
텢
텧
텫
텭
텮
텯
텱
텲
텴
텵
텶
텷
텺
텾
텿
톀
톂
톅
톆
톇
톉
톊
톌
톍
톎
톏
톐
톑
톒
톓
톔
톕
톖
톘
톚
톛
톜
톝
톞
톟
톢
톣
톥
톦
톪
톫
톬
톭
톯
톴
톶
톷
톻
톾
톿
퇁
퇂
퇃
퇅
퇆
퇇
퇈
퇉
퇊
퇋
퇌
퇎
퇏
퇐
퇑
퇒
퇓
퇔
퇕
퇖
퇗
퇚
퇛
퇝
퇞
퇟
퇠
퇡
퇢
퇤
퇥
퇦
퇧
퇨
퇩
퇪
퇫
퇬
퇭
퇮
퇯
퇰
퇱
퇲
퇳
퇵
퇶
퇷
퇹
퇺
퇻
퇽
퇾
퇿
툀
툁
툂
툃
툅
툆
툈
툊
툋
툌
툍
툎
툏
툒
툕
툖
툗
툙
툚
툛
툜
툞
툟
툢
툣
툤
툦
툧
툨
툪
툮
툱
툲
툳
툶
툻
툾
퉂
퉄
퉉
퉊
퉋
퉌
퉍
퉎
퉏
퉑
퉒
퉓
퉔
퉕
퉖
퉗
퉘
퉙
퉚
퉛
퉞
퉟
퉡
퉢
퉣
퉦
퉧
퉩
퉪
퉫
퉬
퉮
퉯
퉰
퉲
퉳
퉴
퉵
퉶
퉸
퉺
퉻
퉼
퉽
퉾
퉿
튂
튃
튅
튆
튇
튉
튊
튋
튌
튍
튏
튒
튔
튖
튗
튘
튚
튛
튞
튡
튢
튣
튥
튧
튨
튩
튪
튫
튯
튰
튴
튷
튻
튾
틁
틃
틄
틅
틆
틇
틌
틎
틏
틕
틖
틗
틙
틚
틛
틝
틞
틟
틠
틡
틢
틣
틦
틨
틪
틫
틬
틭
틮
틯
틲
틳
틵
틶
틹
틺
틻
틼
틽
틾
틿
팆
팇
팋
팑
팕
팘
팙
팞
팢
팧
팪
팫
팭
팯
팱
팲
팳
팴
팵
팶
팷
팺
팾
팿
퍀
퍁
퍂
퍃
퍆
퍇
퍉
퍊
퍋
퍍
퍎
퍏
퍑
퍒
퍓
퍔
퍕
퍖
퍛
퍜
퍝
퍞
퍟
퍡
퍢
퍣
퍤
퍥
퍦
퍧
퍨
퍩
퍪
퍫
퍬
퍭
퍮
퍯
퍰
퍱
퍲
퍳
퍴
퍵
퍶
퍷
퍸
퍹
퍺
퍻
퍾
펂
펃
펆
펇
펈
펉
펊
펒
펓
펕
펚
펛
펝
펞
펟
펢
펣
펤
펥
펦
펧
펪
펮
펯
펱
펳
펶
펷
펹
펺
펽
펾
펿
폀
폁
폆
폊
폋
폌
폍
폎
폏
폑
폒
폓
폖
폗
폙
폚
폛
폜
폝
폞
폟
폠
폢
폤
폥
폦
폧
폨
폩
폪
폫
폱
폲
폵
폶
폷
폸
폹
폺
폻
폾
퐀
퐇
퐊
퐋
퐍
퐎
퐏
퐑
퐒
퐓
퐔
퐕
퐖
퐗
퐘
퐚
퐛
퐜
퐟
퐡
퐢
퐣
퐥
퐦
퐧
퐨
퐩
퐪
퐫
퐬
퐭
퐮
퐯
퐰
퐱
퐲
퐴
퐵
퐶
퐷
퐸
퐹
퐺
퐻
퐼
퐽
퐾
퐿
푁
푂
푃
푅
푆
푇
푉
푊
푋
푌
푍
푎
푏
푐
푑
푒
푓
푔
푖
푗
푘
푙
푚
푛
푞
푟
푡
푢
푣
푦
푨
푪
푬
푮
푰
푲
푳
푵
푶
푺
푻
푽
풁
풃
풅
풆
풊
풌
풎
풓
풖
풗
풙
풚
풛
풝
풞
풟
풠
풡
풢
풣
풤
풥
풦
풧
풨
풪
풫
풭
풮
풯
풲
풳
풵
풶
풷
풺
풻
풼
풽
퓀
퓁
퓂
퓃
퓄
퓆
퓇
퓈
퓉
퓊
퓋
퓎
퓏
퓑
퓒
퓓
퓕
퓖
퓗
퓘
퓚
퓛
퓞
퓠
퓢
퓣
퓤
퓥
퓦
퓧
퓪
퓫
퓭
퓮
퓯
퓱
퓲
퓶
퓷
퓺
퓼
퓾
퓿
픀
픂
픃
픆
픇
픉
픊
픍
픎
픏
픐
픑
픒
픘
픚
픛
픜
픡
픢
픣
픥
픦
픧
픩
픪
픫
픬
픭
픮
픯
픰
픲
픴
픵
픶
픷
픸
픹
픺
픻
픾
픿
핂
핅
핆
핇
핈
핉
핊
핋
핐
핒
핢
핯
핷
핹
핺
핾
햀
햁
햂
햃
햆
햊
햒
햓
햕
햖
햗
햜
햞
햢
햦
햧
햨
햪
햮
햯
햱
햲
햳
햴
햵
햶
햷
햸
햹
햺
햻
햽
헂
헃
헄
헅
헆
헇
헊
헋
헍
헎
헕
헖
헞
헟
헢
헦
헧
헩
헪
헮
헰
헱
헳
헶
헻
헽
헾
혃
혆
혇
혊
혋
혌
혍
혎
혏
혖
혗
혘
혚
혛
혝
혞
혟
혡
혢
혣
혥
혦
혧
혨
혩
혪
혫
혮
혰
혲
혳
혴
혵
혶
혷
혺
혻
혽
혾
혿
홁
홂
홃
홄
홆
홊
홌
홎
홏
홖
홗
홙
홚
홞
홟
홠
홡
홢
홦
홫
홭
홮
홲
홳
홵
홶
홷
홸
홹
홺
홻
홼
홽
홾
홿
횀
횁
횆
횇
횈
횉
횊
횋
횎
횏
횑
횒
횕
횖
횗
횘
횙
횚
횛
횠
횢
횣
횤
횥
횧
횪
횫
횭
횮
횯
횱
횲
횳
횴
횵
횶
횷
횺
횼
횿
훀
훂
훆
훉
훊
훏
훐
훖
훘
훢
훣
훥
훦
훧
훩
훪
훫
훬
훭
훮
훲
훳
훴
훶
훷
훹
훺
훻
훾
훿
휁
휂
휃
휆
휇
휈
휉
휊
휎
휐
휒
휓
휕
휖
휚
휛
휝
휞
휟
휡
휣
휤
휥
휦
휧
휪
휮
휯
휱
휲
휶
휷
휹
휺
휻
휾
휿
흀
흁
흂
흃
흅
흆
흈
흊
흋
흌
흍
흎
흏
흓
흕
흚
흛
흜
흞
흤
흦
흧
흮
흯
흱
흲
흳
흵
흶
흷
흸
흹
흺
흻
흾
힀
힂
힃
힄
