{"version":"1.0","truncation":null,"padding":null,"added_tokens":[{"id":0,"special":true,"content":"[UNK]","single_word":false,"lstrip":false,"rstrip":false,"normalized":false},{"id":1,"special":true,"content":"[CLS]","single_word":false,"lstrip":false,"rstrip":false,"normalized":false},{"id":2,"special":true,"content":"[SEP]","single_word":false,"lstrip":false,"rstrip":false,"normalized":false},{"id":3,"special":true,"content":"[PAD]","single_word":false,"lstrip":false,"rstrip":false,"normalized":false},{"id":4,"special":true,"content":"[MASK]","single_word":false,"lstrip":false,"rstrip":false,"normalized":false}],"normalizer":{"type":"Sequence","normalizers":[{"type":"StripAccents"}]},"pre_tokenizer":{"type":"WhitespaceSplit"},"post_processor":{"type":"TemplateProcessing","single":[{"SpecialToken":{"id":"[CLS]","type_id":0}},{"Sequence":{"id":"A","type_id":0}},{"SpecialToken":{"id":"[SEP]","type_id":0}}],"pair":[{"SpecialToken":{"id":"[CLS]","type_id":0}},{"Sequence":{"id":"A","type_id":0}},{"SpecialToken":{"id":"[SEP]","type_id":0}},{"Sequence":{"id":"B","type_id":1}},{"SpecialToken":{"id":"[SEP]","type_id":1}}],"special_tokens":{"[CLS]":{"id":"[CLS]","ids":[1],"tokens":["[CLS]"]},"[SEP]":{"id":"[SEP]","ids":[2],"tokens":["[SEP]"]}}},"decoder":null,"model":{"type":"WordPiece","unk_token":"[UNK]","continuing_subword_prefix":"##","max_input_chars_per_word":100,"vocab":{"[UNK]":0,"[CLS]":1,"[SEP]":2,"[PAD]":3,"[MASK]":4,"!":5,"\"":6,"#":7,"$":8,"%":9,"&":10,"'":11,"(":12,")":13,"*":14,"+":15,",":16,"-":17,".":18,"/":19,"0":20,"1":21,"2":22,"3":23,"4":24,"5":25,"6":26,"7":27,"8":28,"9":29,":":30,";":31,"<":32,"=":33,">":34,"?":35,"@":36,"A":37,"B":38,"C":39,"D":40,"E":41,"F":42,"G":43,"H":44,"I":45,"J":46,"K":47,"L":48,"M":49,"N":50,"O":51,"P":52,"Q":53,"R":54,"S":55,"T":56,"U":57,"V":58,"W":59,"X":60,"Y":61,"Z":62,"[":63,"\\":64,"]":65,"^":66,"_":67,"`":68,"a":69,"b":70,"c":71,"d":72,"e":73,"f":74,"g":75,"h":76,"i":77,"j":78,"k":79,"l":80,"m":81,"n":82,"o":83,"p":84,"q":85,"r":86,"s":87,"t":88,"u":89,"v":90,"w":91,"x":92,"y":93,"z":94,"{":95,"|":96,"}":97,"~":98,"":99,"ㄱ":100,"ㄲ":101,"ㄳ":102,"ㄴ":103,"ㄵ":104,"ㄶ":105,"ㄷ":106,"ㄸ":107,"ㄹ":108,"ㄺ":109,"ㄻ":110,"ㄼ":111,"ㄽ":112,"ㄾ":113,"ㄿ":114,"ㅀ":115,"ㅁ":116,"ㅂ":117,"ㅃ":118,"ㅄ":119,"ㅅ":120,"ㅆ":121,"ㅇ":122,"ㅈ":123,"ㅉ":124,"ㅊ":125,"ㅋ":126,"ㅌ":127,"ㅍ":128,"ㅎ":129,"ㅏ":130,"ㅐ":131,"ㅑ":132,"ㅒ":133,"ㅓ":134,"ㅔ":135,"ㅕ":136,"ㅖ":137,"ㅗ":138,"ㅘ":139,"ㅙ":140,"ㅚ":141,"ㅛ":142,"ㅜ":143,"ㅝ":144,"ㅞ":145,"ㅟ":146,"ㅠ":147,"ㅡ":148,"ㅢ":149,"ㅣ":150,"가":151,"각":152,"갂":153,"갃":154,"간":155,"갅":156,"갆":157,"갇":158,"갈":159,"갉":160,"갊":161,"갋":162,"갌":163,"갍":164,"갎":165,"갏":166,"감":167,"갑":168,"값":169,"갓":170,"갔":171,"강":172,"갖":173,"갗":174,"갘":175,"같":176,"갚":177,"갛":178,"개":179,"객":180,"갞":181,"갟":182,"갠":183,"갡":184,"갢":185,"갣":186,"갤":187,"갥":188,"갦":189,"갧":190,"갨":191,"갩":192,"갪":193,"갫":194,"갬":195,"갭":196,"갮":197,"갯":198,"갰":199,"갱":200,"갲":201,"갳":202,"갴":203,"갵":204,"갶":205,"갷":206,"갸":207,"갹":208,"갺":209,"갻":210,"갼":211,"갽":212,"갾":213,"갿":214,"걀":215,"걁":216,"걂":217,"걃":218,"걄":219,"걅":220,"걆":221,"걇":222,"걈":223,"걉":224,"걊":225,"걋":226,"걌":227,"걍":228,"걎":229,"걏":230,"걐":231,"걑":232,"걒":233,"걓":234,"걔":235,"걕":236,"걖":237,"걗":238,"걘":239,"걙":240,"걚":241,"걛":242,"걜":243,"걝":244,"걞":245,"걟":246,"걠":247,"걡":248,"걢":249,"걣":250,"걤":251,"걥":252,"걦":253,"걧":254,"걨":255,"걩":256,"걪":257,"걫":258,"걬":259,"걭":260,"걮":261,"걯":262,"거":263,"걱":264,"걲":265,"걳":266,"건":267,"걵":268,"걶":269,"걷":270,"걸":271,"걹":272,"걺":273,"걻":274,"걼":275,"걽":276,"걾":277,"걿":278,"검":279,"겁":280,"겂":281,"것":282,"겄":283,"겅":284,"겆":285,"겇":286,"겈":287,"겉":288,"겊":289,"겋":290,"게":291,"겍":292,"겎":293,"겏":294,"겐":295,"겑":296,"겒":297,"겓":298,"겔":299,"겕":300,"겖":301,"겗":302,"겘":303,"겙":304,"겚":305,"겛":306,"겜":307,"겝":308,"겞":309,"겟":310,"겠":311,"겡":312,"겢":313,"겣":314,"겤":315,"겥":316,"겦":317,"겧":318,"겨":319,"격":320,"겪":321,"겫":322,"견":323,"겭":324,"겮":325,"겯":326,"결":327,"겱":328,"겲":329,"겳":330,"겴":331,"겵":332,"겶":333,"겷":334,"겸":335,"겹":336,"겺":337,"겻":338,"겼":339,"경":340,"겾":341,"겿":342,"곀":343,"곁":344,"곂":345,"곃":346,"계":347,"곅":348,"곆":349,"곇":350,"곈":351,"곉":352,"곊":353,"곋":354,"곌":355,"곍":356,"곎":357,"곏":358,"곐":359,"곑":360,"곒":361,"곓":362,"곔":363,"곕":364,"곖":365,"곗":366,"곘":367,"곙":368,"곚":369,"곛":370,"곜":371,"곝":372,"곞":373,"곟":374,"고":375,"곡":376,"곢":377,"곣":378,"곤":379,"곥":380,"곦":381,"곧":382,"골":383,"곩":384,"곪":385,"곫":386,"곬":387,"곭":388,"곮":389,"곯":390,"곰":391,"곱":392,"곲":393,"곳":394,"곴":395,"공":396,"곶":397,"곷":398,"곸":399,"곹":400,"곺":401,"곻":402,"과":403,"곽":404,"곾":405,"곿":406,"관":407,"괁":408,"괂":409,"괃":410,"괄":411,"괅":412,"괆":413,"괇":414,"괈":415,"괉":416,"괊":417,"괋":418,"괌":419,"괍":420,"괎":421,"괏":422,"괐":423,"광":424,"괒":425,"괓":426,"괔":427,"괕":428,"괖":429,"괗":430,"괘":431,"괙":432,"괚":433,"괛":434,"괜":435,"괝":436,"괞":437,"괟":438,"괠":439,"괡":440,"괢":441,"괣":442,"괤":443,"괥":444,"괦":445,"괧":446,"괨":447,"괩":448,"괪":449,"괫":450,"괬":451,"괭":452,"괮":453,"괯":454,"괰":455,"괱":456,"괲":457,"괳":458,"괴":459,"괵":460,"괶":461,"괷":462,"괸":463,"괹":464,"괺":465,"괻":466,"괼":467,"괽":468,"괾":469,"괿":470,"굀":471,"굁":472,"굂":473,"굃":474,"굄":475,"굅":476,"굆":477,"굇":478,"굈":479,"굉":480,"굊":481,"굋":482,"굌":483,"굍":484,"굎":485,"굏":486,"교":487,"굑":488,"굒":489,"굓":490,"굔":491,"굕":492,"굖":493,"굗":494,"굘":495,"굙":496,"굚":497,"굛":498,"굜":499,"굝":500,"굞":501,"굟":502,"굠":503,"굡":504,"굢":505,"굣":506,"굤":507,"굥":508,"굦":509,"굧":510,"굨":511,"굩":512,"굪":513,"굫":514,"구":515,"국":516,"굮":517,"굯":518,"군":519,"굱":520,"굲":521,"굳":522,"굴":523,"굵":524,"굶":525,"굷":526,"굸":527,"굹":528,"굺":529,"굻":530,"굼":531,"굽":532,"굾":533,"굿":534,"궀":535,"궁":536,"궂":537,"궃":538,"궄":539,"궅":540,"궆":541,"궇":542,"궈":543,"궉":544,"궊":545,"궋":546,"권":547,"궍":548,"궎":549,"궏":550,"궐":551,"궑":552,"궒":553,"궓":554,"궔":555,"궕":556,"궖":557,"궗":558,"궘":559,"궙":560,"궚":561,"궛":562,"궜":563,"궝":564,"궞":565,"궟":566,"궠":567,"궡":568,"궢":569,"궣":570,"궤":571,"궥":572,"궦":573,"궧":574,"궨":575,"궩":576,"궪":577,"궫":578,"궬":579,"궭":580,"궮":581,"궯":582,"궰":583,"궱":584,"궲":585,"궳":586,"궴":587,"궵":588,"궶":589,"궷":590,"궸":591,"궹":592,"궺":593,"궻":594,"궼":595,"궽":596,"궾":597,"궿":598,"귀":599,"귁":600,"귂":601,"귃":602,"귄":603,"귅":604,"귆":605,"귇":606,"귈":607,"귉":608,"귊":609,"귋":610,"귌":611,"귍":612,"귎":613,"귏":614,"귐":615,"귑":616,"귒":617,"귓":618,"귔":619,"귕":620,"귖":621,"귗":622,"귘":623,"귙":624,"귚":625,"귛":626,"규":627,"귝":628,"귞":629,"귟":630,"균":631,"귡":632,"귢":633,"귣":634,"귤":635,"귥":636,"귦":637,"귧":638,"귨":639,"귩":640,"귪":641,"귫":642,"귬":643,"귭":644,"귮":645,"귯":646,"귰":647,"귱":648,"귲":649,"귳":650,"귴":651,"귵":652,"귶":653,"귷":654,"그":655,"극":656,"귺":657,"귻":658,"근":659,"귽":660,"귾":661,"귿":662,"글":663,"긁":664,"긂":665,"긃":666,"긄":667,"긅":668,"긆":669,"긇":670,"금":671,"급":672,"긊":673,"긋":674,"긌":675,"긍":676,"긎":677,"긏":678,"긐":679,"긑":680,"긒":681,"긓":682,"긔":683,"긕":684,"긖":685,"긗":686,"긘":687,"긙":688,"긚":689,"긛":690,"긜":691,"긝":692,"긞":693,"긟":694,"긠":695,"긡":696,"긢":697,"긣":698,"긤":699,"긥":700,"긦":701,"긧":702,"긨":703,"긩":704,"긪":705,"긫":706,"긬":707,"긭":708,"긮":709,"긯":710,"기":711,"긱":712,"긲":713,"긳":714,"긴":715,"긵":716,"긶":717,"긷":718,"길":719,"긹":720,"긺":721,"긻":722,"긼":723,"긽":724,"긾":725,"긿":726,"김":727,"깁":728,"깂":729,"깃":730,"깄":731,"깅":732,"깆":733,"깇":734,"깈":735,"깉":736,"깊":737,"깋":738,"까":739,"깍":740,"깎":741,"깏":742,"깐":743,"깑":744,"깒":745,"깓":746,"깔":747,"깕":748,"깖":749,"깗":750,"깘":751,"깙":752,"깚":753,"깛":754,"깜":755,"깝":756,"깞":757,"깟":758,"깠":759,"깡":760,"깢":761,"깣":762,"깤":763,"깥":764,"깦":765,"깧":766,"깨":767,"깩":768,"깪":769,"깫":770,"깬":771,"깭":772,"깮":773,"깯":774,"깰":775,"깱":776,"깲":777,"깳":778,"깴":779,"깵":780,"깶":781,"깷":782,"깸":783,"깹":784,"깺":785,"깻":786,"깼":787,"깽":788,"깾":789,"깿":790,"꺀":791,"꺁":792,"꺂":793,"꺃":794,"꺄":795,"꺅":796,"꺆":797,"꺇":798,"꺈":799,"꺉":800,"꺊":801,"꺋":802,"꺌":803,"꺍":804,"꺎":805,"꺏":806,"꺐":807,"꺑":808,"꺒":809,"꺓":810,"꺔":811,"꺕":812,"꺖":813,"꺗":814,"꺘":815,"꺙":816,"꺚":817,"꺛":818,"꺜":819,"꺝":820,"꺞":821,"꺟":822,"꺠":823,"꺡":824,"꺢":825,"꺣":826,"꺤":827,"꺥":828,"꺦":829,"꺧":830,"꺨":831,"꺩":832,"꺪":833,"꺫":834,"꺬":835,"꺭":836,"꺮":837,"꺯":838,"꺰":839,"꺱":840,"꺲":841,"꺳":842,"꺴":843,"꺵":844,"꺶":845,"꺷":846,"꺸":847,"꺹":848,"꺺":849,"꺻":850,"꺼":851,"꺽":852,"꺾":853,"꺿":854,"껀":855,"껁":856,"껂":857,"껃":858,"껄":859,"껅":860,"껆":861,"껇":862,"껈":863,"껉":864,"껊":865,"껋":866,"껌":867,"껍":868,"껎":869,"껏":870,"껐":871,"껑":872,"껒":873,"껓":874,"껔":875,"껕":876,"껖":877,"껗":878,"께":879,"껙":880,"껚":881,"껛":882,"껜":883,"껝":884,"껞":885,"껟":886,"껠":887,"껡":888,"껢":889,"껣":890,"껤":891,"껥":892,"껦":893,"껧":894,"껨":895,"껩":896,"껪":897,"껫":898,"껬":899,"껭":900,"껮":901,"껯":902,"껰":903,"껱":904,"껲":905,"껳":906,"껴":907,"껵":908,"껶":909,"껷":910,"껸":911,"껹":912,"껺":913,"껻":914,"껼":915,"껽":916,"껾":917,"껿":918,"꼀":919,"꼁":920,"꼂":921,"꼃":922,"꼄":923,"꼅":924,"꼆":925,"꼇":926,"꼈":927,"꼉":928,"꼊":929,"꼋":930,"꼌":931,"꼍":932,"꼎":933,"꼏":934,"꼐":935,"꼑":936,"꼒":937,"꼓":938,"꼔":939,"꼕":940,"꼖":941,"꼗":942,"꼘":943,"꼙":944,"꼚":945,"꼛":946,"꼜":947,"꼝":948,"꼞":949,"꼟":950,"꼠":951,"꼡":952,"꼢":953,"꼣":954,"꼤":955,"꼥":956,"꼦":957,"꼧":958,"꼨":959,"꼩":960,"꼪":961,"꼫":962,"꼬":963,"꼭":964,"꼮":965,"꼯":966,"꼰":967,"꼱":968,"꼲":969,"꼳":970,"꼴":971,"꼵":972,"꼶":973,"꼷":974,"꼸":975,"꼹":976,"꼺":977,"꼻":978,"꼼":979,"꼽":980,"꼾":981,"꼿":982,"꽀":983,"꽁":984,"꽂":985,"꽃":986,"꽄":987,"꽅":988,"꽆":989,"꽇":990,"꽈":991,"꽉":992,"꽊":993,"꽋":994,"꽌":995,"꽍":996,"꽎":997,"꽏":998,"꽐":999,"꽑":1000,"꽒":1001,"꽓":1002,"꽔":1003,"꽕":1004,"꽖":1005,"꽗":1006,"꽘":1007,"꽙":1008,"꽚":1009,"꽛":1010,"꽜":1011,"꽝":1012,"꽞":1013,"꽟":1014,"꽠":1015,"꽡":1016,"꽢":1017,"꽣":1018,"꽤":1019,"꽥":1020,"꽦":1021,"꽧":1022,"꽨":1023,"꽩":1024,"꽪":1025,"꽫":1026,"꽬":1027,"꽭":1028,"꽮":1029,"꽯":1030,"꽰":1031,"꽱":1032,"꽲":1033,"꽳":1034,"꽴":1035,"꽵":1036,"꽶":1037,"꽷":1038,"꽸":1039,"꽹":1040,"꽺":1041,"꽻":1042,"꽼":1043,"꽽":1044,"꽾":1045,"꽿":1046,"꾀":1047,"꾁":1048,"꾂":1049,"꾃":1050,"꾄":1051,"꾅":1052,"꾆":1053,"꾇":1054,"꾈":1055,"꾉":1056,"꾊":1057,"꾋":1058,"꾌":1059,"꾍":1060,"꾎":1061,"꾏":1062,"꾐":1063,"꾑":1064,"꾒":1065,"꾓":1066,"꾔":1067,"꾕":1068,"꾖":1069,"꾗":1070,"꾘":1071,"꾙":1072,"꾚":1073,"꾛":1074,"꾜":1075,"꾝":1076,"꾞":1077,"꾟":1078,"꾠":1079,"꾡":1080,"꾢":1081,"꾣":1082,"꾤":1083,"꾥":1084,"꾦":1085,"꾧":1086,"꾨":1087,"꾩":1088,"꾪":1089,"꾫":1090,"꾬":1091,"꾭":1092,"꾮":1093,"꾯":1094,"꾰":1095,"꾱":1096,"꾲":1097,"꾳":1098,"꾴":1099,"꾵":1100,"꾶":1101,"꾷":1102,"꾸":1103,"꾹":1104,"꾺":1105,"꾻":1106,"꾼":1107,"꾽":1108,"꾾":1109,"꾿":1110,"꿀":1111,"꿁":1112,"꿂":1113,"꿃":1114,"꿄":1115,"꿅":1116,"꿆":1117,"꿇":1118,"꿈":1119,"꿉":1120,"꿊":1121,"꿋":1122,"꿌":1123,"꿍":1124,"꿎":1125,"꿏":1126,"꿐":1127,"꿑":1128,"꿒":1129,"꿓":1130,"꿔":1131,"꿕":1132,"꿖":1133,"꿗":1134,"꿘":1135,"꿙":1136,"꿚":1137,"꿛":1138,"꿜":1139,"꿝":1140,"꿞":1141,"꿟":1142,"꿠":1143,"꿡":1144,"꿢":1145,"꿣":1146,"꿤":1147,"꿥":1148,"꿦":1149,"꿧":1150,"꿨":1151,"꿩":1152,"꿪":1153,"꿫":1154,"꿬":1155,"꿭":1156,"꿮":1157,"꿯":1158,"꿰":1159,"꿱":1160,"꿲":1161,"꿳":1162,"꿴":1163,"꿵":1164,"꿶":1165,"꿷":1166,"꿸":1167,"꿹":1168,"꿺":1169,"꿻":1170,"꿼":1171,"꿽":1172,"꿾":1173,"꿿":1174,"뀀":1175,"뀁":1176,"뀂":1177,"뀃":1178,"뀄":1179,"뀅":1180,"뀆":1181,"뀇":1182,"뀈":1183,"뀉":1184,"뀊":1185,"뀋":1186,"뀌":1187,"뀍":1188,"뀎":1189,"뀏":1190,"뀐":1191,"뀑":1192,"뀒":1193,"뀓":1194,"뀔":1195,"뀕":1196,"뀖":1197,"뀗":1198,"뀘":1199,"뀙":1200,"뀚":1201,"뀛":1202,"뀜":1203,"뀝":1204,"뀞":1205,"뀟":1206,"뀠":1207,"뀡":1208,"뀢":1209,"뀣":1210,"뀤":1211,"뀥":1212,"뀦":1213,"뀧":1214,"뀨":1215,"뀩":1216,"뀪":1217,"뀫":1218,"뀬":1219,"뀭":1220,"뀮":1221,"뀯":1222,"뀰":1223,"뀱":1224,"뀲":1225,"뀳":1226,"뀴":1227,"뀵":1228,"뀶":1229,"뀷":1230,"뀸":1231,"뀹":1232,"뀺":1233,"뀻":1234,"뀼":1235,"뀽":1236,"뀾":1237,"뀿":1238,"끀":1239,"끁":1240,"끂":1241,"끃":1242,"끄":1243,"끅":1244,"끆":1245,"끇":1246,"끈":1247,"끉":1248,"끊":1249,"끋":1250,"끌":1251,"끍":1252,"끎":1253,"끏":1254,"끐":1255,"끑":1256,"끒":1257,"끓":1258,"끔":1259,"끕":1260,"끖":1261,"끗":1262,"끘":1263,"끙":1264,"끚":1265,"끛":1266,"끜":1267,"끝":1268,"끞":1269,"끟":1270,"끠":1271,"끡":1272,"끢":1273,"끣":1274,"끤":1275,"끥":1276,"끦":1277,"끧":1278,"끨":1279,"끩":1280,"끪":1281,"끫":1282,"끬":1283,"끭":1284,"끮":1285,"끯":1286,"끰":1287,"끱":1288,"끲":1289,"끳":1290,"끴":1291,"끵":1292,"끶":1293,"끷":1294,"끸":1295,"끹":1296,"끺":1297,"끻":1298,"끼":1299,"끽":1300,"끾":1301,"끿":1302,"낀":1303,"낁":1304,"낂":1305,"낃":1306,"낄":1307,"낅":1308,"낆":1309,"낇":1310,"낈":1311,"낉":1312,"낊":1313,"낋":1314,"낌":1315,"낍":1316,"낎":1317,"낏":1318,"낐":1319,"낑":1320,"낒":1321,"낓":1322,"낔":1323,"낕":1324,"낖":1325,"낗":1326,"나":1327,"낙":1328,"낚":1329,"낛":1330,"난":1331,"낝":1332,"낞":1333,"낟":1334,"날":1335,"낡":1336,"낢":1337,"낣":1338,"낤":1339,"낥":1340,"낦":1341,"낧":1342,"남":1343,"납":1344,"낪":1345,"낫":1346,"났":1347,"낭":1348,"낮":1349,"낯":1350,"낰":1351,"낱":1352,"낲":1353,"낳":1354,"내":1355,"낵":1356,"낶":1357,"낷":1358,"낸":1359,"낹":1360,"낺":1361,"낻":1362,"낼":1363,"낽":1364,"낾":1365,"낿":1366,"냀":1367,"냁":1368,"냂":1369,"냃":1370,"냄":1371,"냅":1372,"냆":1373,"냇":1374,"냈":1375,"냉":1376,"냊":1377,"냋":1378,"냌":1379,"냍":1380,"냎":1381,"냏":1382,"냐":1383,"냑":1384,"냒":1385,"냓":1386,"냔":1387,"냕":1388,"냖":1389,"냗":1390,"냘":1391,"냙":1392,"냚":1393,"냛":1394,"냜":1395,"냝":1396,"냞":1397,"냟":1398,"냠":1399,"냡":1400,"냢":1401,"냣":1402,"냤":1403,"냥":1404,"냦":1405,"냧":1406,"냨":1407,"냩":1408,"냪":1409,"냫":1410,"냬":1411,"냭":1412,"냮":1413,"냯":1414,"냰":1415,"냱":1416,"냲":1417,"냳":1418,"냴":1419,"냵":1420,"냶":1421,"냷":1422,"냸":1423,"냹":1424,"냺":1425,"냻":1426,"냼":1427,"냽":1428,"냾":1429,"냿":1430,"넀":1431,"넁":1432,"넂":1433,"넃":1434,"넄":1435,"넅":1436,"넆":1437,"넇":1438,"너":1439,"넉":1440,"넊":1441,"넋":1442,"넌":1443,"넍":1444,"넎":1445,"넏":1446,"널":1447,"넑":1448,"넒":1449,"넓":1450,"넔":1451,"넕":1452,"넖":1453,"넗":1454,"넘":1455,"넙":1456,"넚":1457,"넛":1458,"넜":1459,"넝":1460,"넞":1461,"넟":1462,"넠":1463,"넡":1464,"넢":1465,"넣":1466,"네":1467,"넥":1468,"넦":1469,"넧":1470,"넨":1471,"넩":1472,"넪":1473,"넫":1474,"넬":1475,"넭":1476,"넮":1477,"넯":1478,"넰":1479,"넱":1480,"넲":1481,"넳":1482,"넴":1483,"넵":1484,"넶":1485,"넷":1486,"넸":1487,"넹":1488,"넺":1489,"넻":1490,"넼":1491,"넽":1492,"넾":1493,"넿":1494,"녀":1495,"녁":1496,"녂":1497,"녃":1498,"년":1499,"녅":1500,"녆":1501,"녇":1502,"녈":1503,"녉":1504,"녊":1505,"녋":1506,"녌":1507,"녍":1508,"녎":1509,"녏":1510,"념":1511,"녑":1512,"녒":1513,"녓":1514,"녔":1515,"녕":1516,"녖":1517,"녗":1518,"녘":1519,"녙":1520,"녚":1521,"녛":1522,"녜":1523,"녝":1524,"녞":1525,"녟":1526,"녠":1527,"녡":1528,"녢":1529,"녣":1530,"녤":1531,"녥":1532,"녦":1533,"녧":1534,"녨":1535,"녩":1536,"녪":1537,"녫":1538,"녬":1539,"녭":1540,"녮":1541,"녯":1542,"녰":1543,"녱":1544,"녲":1545,"녳":1546,"녴":1547,"녵":1548,"녶":1549,"녷":1550,"노":1551,"녹":1552,"녺":1553,"녻":1554,"논":1555,"녽":1556,"녾":1557,"녿":1558,"놀":1559,"놁":1560,"놂":1561,"놃":1562,"놄":1563,"놅":1564,"놆":1565,"놇":1566,"놈":1567,"놉":1568,"놊":1569,"놋":1570,"놌":1571,"농":1572,"놎":1573,"놏":1574,"놐":1575,"놑":1576,"높":1577,"놓":1578,"놔":1579,"놕":1580,"놖":1581,"놗":1582,"놘":1583,"놙":1584,"놚":1585,"놛":1586,"놜":1587,"놝":1588,"놞":1589,"놟":1590,"놠":1591,"놡":1592,"놢":1593,"놣":1594,"놤":1595,"놥":1596,"놦":1597,"놧":1598,"놨":1599,"놩":1600,"놪":1601,"놫":1602,"놬":1603,"놭":1604,"놮":1605,"놯":1606,"놰":1607,"놱":1608,"놲":1609,"놳":1610,"놴":1611,"놵":1612,"놶":1613,"놷":1614,"놸":1615,"놹":1616,"놺":1617,"놻":1618,"놼":1619,"놽":1620,"놾":1621,"놿":1622,"뇀":1623,"뇁":1624,"뇂":1625,"뇃":1626,"뇄":1627,"뇅":1628,"뇆":1629,"뇇":1630,"뇈":1631,"뇉":1632,"뇊":1633,"뇋":1634,"뇌":1635,"뇍":1636,"뇎":1637,"뇏":1638,"뇐":1639,"뇑":1640,"뇒":1641,"뇓":1642,"뇔":1643,"뇕":1644,"뇖":1645,"뇗":1646,"뇘":1647,"뇙":1648,"뇚":1649,"뇛":1650,"뇜":1651,"뇝":1652,"뇞":1653,"뇟":1654,"뇠":1655,"뇡":1656,"뇢":1657,"뇣":1658,"뇤":1659,"뇥":1660,"뇦":1661,"뇧":1662,"뇨":1663,"뇩":1664,"뇪":1665,"뇫":1666,"뇬":1667,"뇭":1668,"뇮":1669,"뇯":1670,"뇰":1671,"뇱":1672,"뇲":1673,"뇳":1674,"뇴":1675,"뇵":1676,"뇶":1677,"뇷":1678,"뇸":1679,"뇹":1680,"뇺":1681,"뇻":1682,"뇼":1683,"뇽":1684,"뇾":1685,"뇿":1686,"눀":1687,"눁":1688,"눂":1689,"눃":1690,"누":1691,"눅":1692,"눆":1693,"눇":1694,"눈":1695,"눉":1696,"눊":1697,"눋":1698,"눌":1699,"눍":1700,"눎":1701,"눏":1702,"눐":1703,"눑":1704,"눒":1705,"눓":1706,"눔":1707,"눕":1708,"눖":1709,"눗":1710,"눘":1711,"눙":1712,"눚":1713,"눛":1714,"눜":1715,"눝":1716,"눞":1717,"눟":1718,"눠":1719,"눡":1720,"눢":1721,"눣":1722,"눤":1723,"눥":1724,"눦":1725,"눧":1726,"눨":1727,"눩":1728,"눪":1729,"눫":1730,"눬":1731,"눭":1732,"눮":1733,"눯":1734,"눰":1735,"눱":1736,"눲":1737,"눳":1738,"눴":1739,"눵":1740,"눶":1741,"눷":1742,"눸":1743,"눹":1744,"눺":1745,"눻":1746,"눼":1747,"눽":1748,"눾":1749,"눿":1750,"뉀":1751,"뉁":1752,"뉂":1753,"뉃":1754,"뉄":1755,"뉅":1756,"뉆":1757,"뉇":1758,"뉈":1759,"뉉":1760,"뉊":1761,"뉋":1762,"뉌":1763,"뉍":1764,"뉎":1765,"뉏":1766,"뉐":1767,"뉑":1768,"뉒":1769,"뉓":1770,"뉔":1771,"뉕":1772,"뉖":1773,"뉗":1774,"뉘":1775,"뉙":1776,"뉚":1777,"뉛":1778,"뉜":1779,"뉝":1780,"뉞":1781,"뉟":1782,"뉠":1783,"뉡":1784,"뉢":1785,"뉣":1786,"뉤":1787,"뉥":1788,"뉦":1789,"뉧":1790,"뉨":1791,"뉩":1792,"뉪":1793,"뉫":1794,"뉬":1795,"뉭":1796,"뉮":1797,"뉯":1798,"뉰":1799,"뉱":1800,"뉲":1801,"뉳":1802,"뉴":1803,"뉵":1804,"뉶":1805,"뉷":1806,"뉸":1807,"뉹":1808,"뉺":1809,"뉻":1810,"뉼":1811,"뉽":1812,"뉾":1813,"뉿":1814,"늀":1815,"늁":1816,"늂":1817,"늃":1818,"늄":1819,"늅":1820,"늆":1821,"늇":1822,"늈":1823,"늉":1824,"늊":1825,"늋":1826,"늌":1827,"늍":1828,"늎":1829,"늏":1830,"느":1831,"늑":1832,"늒":1833,"늓":1834,"는":1835,"늕":1836,"늖":1837,"늗":1838,"늘":1839,"늙":1840,"늚":1841,"늛":1842,"늜":1843,"늝":1844,"늞":1845,"늟":1846,"늠":1847,"늡":1848,"늢":1849,"늣":1850,"늤":1851,"능":1852,"늦":1853,"늧":1854,"늨":1855,"늩":1856,"늪":1857,"늫":1858,"늬":1859,"늭":1860,"늮":1861,"늯":1862,"늰":1863,"늱":1864,"늲":1865,"늳":1866,"늴":1867,"늵":1868,"늶":1869,"늷":1870,"늸":1871,"늹":1872,"늺":1873,"늻":1874,"늼":1875,"늽":1876,"늾":1877,"늿":1878,"닀":1879,"닁":1880,"닂":1881,"닃":1882,"닄":1883,"닅":1884,"닆":1885,"닇":1886,"니":1887,"닉":1888,"닊":1889,"닋":1890,"닌":1891,"닍":1892,"닎":1893,"닏":1894,"닐":1895,"닑":1896,"닒":1897,"닓":1898,"닔":1899,"닕":1900,"닖":1901,"닗":1902,"님":1903,"닙":1904,"닚":1905,"닛":1906,"닜":1907,"닝":1908,"닞":1909,"닟":1910,"닠":1911,"닡":1912,"닢":1913,"닣":1914,"다":1915,"닥":1916,"닦":1917,"닧":1918,"단":1919,"닩":1920,"닪":1921,"닫":1922,"달":1923,"닭":1924,"닮":1925,"닯":1926,"닰":1927,"닱":1928,"닲":1929,"닳":1930,"담":1931,"답":1932,"닶":1933,"닷":1934,"닸":1935,"당":1936,"닺":1937,"닻":1938,"닼":1939,"닽":1940,"닾":1941,"닿":1942,"대":1943,"댁":1944,"댂":1945,"댃":1946,"댄":1947,"댅":1948,"댆":1949,"댇":1950,"댈":1951,"댉":1952,"댊":1953,"댋":1954,"댌":1955,"댍":1956,"댎":1957,"댏":1958,"댐":1959,"댑":1960,"댒":1961,"댓":1962,"댔":1963,"댕":1964,"댖":1965,"댗":1966,"댘":1967,"댙":1968,"댚":1969,"댛":1970,"댜":1971,"댝":1972,"댞":1973,"댟":1974,"댠":1975,"댡":1976,"댢":1977,"댣":1978,"댤":1979,"댥":1980,"댦":1981,"댧":1982,"댨":1983,"댩":1984,"댪":1985,"댫":1986,"댬":1987,"댭":1988,"댮":1989,"댯":1990,"댰":1991,"댱":1992,"댲":1993,"댳":1994,"댴":1995,"댵":1996,"댶":1997,"댷":1998,"댸":1999,"댹":2000,"댺":2001,"댻":2002,"댼":2003,"댽":2004,"댾":2005,"댿":2006,"덀":2007,"덁":2008,"덂":2009,"덃":2010,"덄":2011,"덅":2012,"덆":2013,"덇":2014,"덈":2015,"덉":2016,"덊":2017,"덋":2018,"덌":2019,"덍":2020,"덎":2021,"덏":2022,"덐":2023,"덑":2024,"덒":2025,"덓":2026,"더":2027,"덕":2028,"덖":2029,"덗":2030,"던":2031,"덙":2032,"덚":2033,"덛":2034,"덜":2035,"덝":2036,"덞":2037,"덟":2038,"덠":2039,"덡":2040,"덢":2041,"덣":2042,"덤":2043,"덥":2044,"덦":2045,"덧":2046,"덨":2047,"덩":2048,"덪":2049,"덫":2050,"덬":2051,"덭":2052,"덮":2053,"덯":2054,"데":2055,"덱":2056,"덲":2057,"덳":2058,"덴":2059,"덵":2060,"덶":2061,"덷":2062,"델":2063,"덹":2064,"덺":2065,"덻":2066,"덼":2067,"덽":2068,"덾":2069,"덿":2070,"뎀":2071,"뎁":2072,"뎂":2073,"뎃":2074,"뎄":2075,"뎅":2076,"뎆":2077,"뎇":2078,"뎈":2079,"뎉":2080,"뎊":2081,"뎋":2082,"뎌":2083,"뎍":2084,"뎎":2085,"뎏":2086,"뎐":2087,"뎑":2088,"뎒":2089,"뎓":2090,"뎔":2091,"뎕":2092,"뎖":2093,"뎗":2094,"뎘":2095,"뎙":2096,"뎚":2097,"뎛":2098,"뎜":2099,"뎝":2100,"뎞":2101,"뎟":2102,"뎠":2103,"뎡":2104,"뎢":2105,"뎣":2106,"뎤":2107,"뎥":2108,"뎦":2109,"뎧":2110,"뎨":2111,"뎩":2112,"뎪":2113,"뎫":2114,"뎬":2115,"뎭":2116,"뎮":2117,"뎯":2118,"뎰":2119,"뎱":2120,"뎲":2121,"뎳":2122,"뎴":2123,"뎵":2124,"뎶":2125,"뎷":2126,"뎸":2127,"뎹":2128,"뎺":2129,"뎻":2130,"뎼":2131,"뎽":2132,"뎾":2133,"뎿":2134,"돀":2135,"돁":2136,"돂":2137,"돃":2138,"도":2139,"독":2140,"돆":2141,"돇":2142,"돈":2143,"돉":2144,"돊":2145,"돋":2146,"돌":2147,"돍":2148,"돎":2149,"돏":2150,"돐":2151,"돑":2152,"돒":2153,"돓":2154,"돔":2155,"돕":2156,"돖":2157,"돗":2158,"돘":2159,"동":2160,"돚":2161,"돛":2162,"돜":2163,"돝":2164,"돞":2165,"돟":2166,"돠":2167,"돡":2168,"돢":2169,"돣":2170,"돤":2171,"돥":2172,"돦":2173,"돧":2174,"돨":2175,"돩":2176,"돪":2177,"돫":2178,"돬":2179,"돭":2180,"돮":2181,"돯":2182,"돰":2183,"돱":2184,"돲":2185,"돳":2186,"돴":2187,"돵":2188,"돶":2189,"돷":2190,"돸":2191,"돹":2192,"돺":2193,"돻":2194,"돼":2195,"돽":2196,"돾":2197,"돿":2198,"됀":2199,"됁":2200,"됂":2201,"됃":2202,"됄":2203,"됅":2204,"됆":2205,"됇":2206,"됈":2207,"됉":2208,"됊":2209,"됋":2210,"됌":2211,"됍":2212,"됎":2213,"됏":2214,"됐":2215,"됑":2216,"됒":2217,"됓":2218,"됔":2219,"됕":2220,"됖":2221,"됗":2222,"되":2223,"됙":2224,"됚":2225,"됛":2226,"된":2227,"됝":2228,"됞":2229,"됟":2230,"될":2231,"됡":2232,"됢":2233,"됣":2234,"됤":2235,"됥":2236,"됦":2237,"됧":2238,"됨":2239,"됩":2240,"됪":2241,"됫":2242,"됬":2243,"됭":2244,"됮":2245,"됯":2246,"됰":2247,"됱":2248,"됲":2249,"됳":2250,"됴":2251,"됵":2252,"됶":2253,"됷":2254,"됸":2255,"됹":2256,"됺":2257,"됻":2258,"됼":2259,"됽":2260,"됾":2261,"됿":2262,"둀":2263,"둁":2264,"둂":2265,"둃":2266,"둄":2267,"둅":2268,"둆":2269,"둇":2270,"둈":2271,"둉":2272,"둊":2273,"둋":2274,"둌":2275,"둍":2276,"둎":2277,"둏":2278,"두":2279,"둑":2280,"둒":2281,"둓":2282,"둔":2283,"둕":2284,"둖":2285,"둗":2286,"둘":2287,"둙":2288,"둚":2289,"둛":2290,"둜":2291,"둝":2292,"둞":2293,"둟":2294,"둠":2295,"둡":2296,"둢":2297,"둣":2298,"둤":2299,"둥":2300,"둦":2301,"둧":2302,"둨":2303,"둩":2304,"둪":2305,"둫":2306,"둬":2307,"둭":2308,"둮":2309,"둯":2310,"둰":2311,"둱":2312,"둲":2313,"둳":2314,"둴":2315,"둵":2316,"둶":2317,"둷":2318,"둸":2319,"둹":2320,"둺":2321,"둻":2322,"둼":2323,"둽":2324,"둾":2325,"둿":2326,"뒀":2327,"뒁":2328,"뒂":2329,"뒃":2330,"뒄":2331,"뒅":2332,"뒆":2333,"뒇":2334,"뒈":2335,"뒉":2336,"뒊":2337,"뒋":2338,"뒌":2339,"뒍":2340,"뒎":2341,"뒏":2342,"뒐":2343,"뒑":2344,"뒒":2345,"뒓":2346,"뒔":2347,"뒕":2348,"뒖":2349,"뒗":2350,"뒘":2351,"뒙":2352,"뒚":2353,"뒛":2354,"뒜":2355,"뒝":2356,"뒞":2357,"뒟":2358,"뒠":2359,"뒡":2360,"뒢":2361,"뒣":2362,"뒤":2363,"뒥":2364,"뒦":2365,"뒧":2366,"뒨":2367,"뒩":2368,"뒪":2369,"뒫":2370,"뒬":2371,"뒭":2372,"뒮":2373,"뒯":2374,"뒰":2375,"뒱":2376,"뒲":2377,"뒳":2378,"뒴":2379,"뒵":2380,"뒶":2381,"뒷":2382,"뒸":2383,"뒹":2384,"뒺":2385,"뒻":2386,"뒼":2387,"뒽":2388,"뒾":2389,"뒿":2390,"듀":2391,"듁":2392,"듂":2393,"듃":2394,"듄":2395,"듅":2396,"듆":2397,"듇":2398,"듈":2399,"듉":2400,"듊":2401,"듋":2402,"듌":2403,"듍":2404,"듎":2405,"듏":2406,"듐":2407,"듑":2408,"듒":2409,"듓":2410,"듔":2411,"듕":2412,"듖":2413,"듗":2414,"듘":2415,"듙":2416,"듚":2417,"듛":2418,"드":2419,"득":2420,"듞":2421,"듟":2422,"든":2423,"듡":2424,"듢":2425,"듣":2426,"들":2427,"듥":2428,"듦":2429,"듧":2430,"듨":2431,"듩":2432,"듪":2433,"듫":2434,"듬":2435,"듭":2436,"듮":2437,"듯":2438,"듰":2439,"등":2440,"듲":2441,"듳":2442,"듴":2443,"듵":2444,"듶":2445,"듷":2446,"듸":2447,"듹":2448,"듺":2449,"듻":2450,"듼":2451,"듽":2452,"듾":2453,"듿":2454,"딀":2455,"딁":2456,"딂":2457,"딃":2458,"딄":2459,"딅":2460,"딆":2461,"딇":2462,"딈":2463,"딉":2464,"딊":2465,"딋":2466,"딌":2467,"딍":2468,"딎":2469,"딏":2470,"딐":2471,"딑":2472,"딒":2473,"딓":2474,"디":2475,"딕":2476,"딖":2477,"딗":2478,"딘":2479,"딙":2480,"딚":2481,"딛":2482,"딜":2483,"딝":2484,"딞":2485,"딟":2486,"딠":2487,"딡":2488,"딢":2489,"딣":2490,"딤":2491,"딥":2492,"딦":2493,"딧":2494,"딨":2495,"딩":2496,"딪":2497,"딫":2498,"딬":2499,"딭":2500,"딮":2501,"딯":2502,"따":2503,"딱":2504,"딲":2505,"딳":2506,"딴":2507,"딵":2508,"딶":2509,"딷":2510,"딸":2511,"딹":2512,"딺":2513,"딻":2514,"딼":2515,"딽":2516,"딾":2517,"딿":2518,"땀":2519,"땁":2520,"땂":2521,"땃":2522,"땄":2523,"땅":2524,"땆":2525,"땇":2526,"땈":2527,"땉":2528,"땊":2529,"땋":2530,"때":2531,"땍":2532,"땎":2533,"땏":2534,"땐":2535,"땑":2536,"땒":2537,"땓":2538,"땔":2539,"땕":2540,"땖":2541,"땗":2542,"땘":2543,"땙":2544,"땚":2545,"땛":2546,"땜":2547,"땝":2548,"땞":2549,"땟":2550,"땠":2551,"땡":2552,"땢":2553,"땣":2554,"땤":2555,"땥":2556,"땦":2557,"땧":2558,"땨":2559,"땩":2560,"땪":2561,"땫":2562,"땬":2563,"땭":2564,"땮":2565,"땯":2566,"땰":2567,"땱":2568,"땲":2569,"땳":2570,"땴":2571,"땵":2572,"땶":2573,"땷":2574,"땸":2575,"땹":2576,"땺":2577,"땻":2578,"땼":2579,"땽":2580,"땾":2581,"땿":2582,"떀":2583,"떁":2584,"떂":2585,"떃":2586,"떄":2587,"떅":2588,"떆":2589,"떇":2590,"떈":2591,"떉":2592,"떊":2593,"떋":2594,"떌":2595,"떍":2596,"떎":2597,"떏":2598,"떐":2599,"떑":2600,"떒":2601,"떓":2602,"떔":2603,"떕":2604,"떖":2605,"떗":2606,"떘":2607,"떙":2608,"떚":2609,"떛":2610,"떜":2611,"떝":2612,"떞":2613,"떟":2614,"떠":2615,"떡":2616,"떢":2617,"떣":2618,"떤":2619,"떥":2620,"떦":2621,"떧":2622,"떨":2623,"떩":2624,"떪":2625,"떫":2626,"떬":2627,"떭":2628,"떮":2629,"떯":2630,"떰":2631,"떱":2632,"떲":2633,"떳":2634,"떴":2635,"떵":2636,"떶":2637,"떷":2638,"떸":2639,"떹":2640,"떺":2641,"떻":2642,"떼":2643,"떽":2644,"떾":2645,"떿":2646,"뗀":2647,"뗁":2648,"뗂":2649,"뗃":2650,"뗄":2651,"뗅":2652,"뗆":2653,"뗇":2654,"뗈":2655,"뗉":2656,"뗊":2657,"뗋":2658,"뗌":2659,"뗍":2660,"뗎":2661,"뗏":2662,"뗐":2663,"뗑":2664,"뗒":2665,"뗓":2666,"뗔":2667,"뗕":2668,"뗖":2669,"뗗":2670,"뗘":2671,"뗙":2672,"뗚":2673,"뗛":2674,"뗜":2675,"뗝":2676,"뗞":2677,"뗟":2678,"뗠":2679,"뗡":2680,"뗢":2681,"뗣":2682,"뗤":2683,"뗥":2684,"뗦":2685,"뗧":2686,"뗨":2687,"뗩":2688,"뗪":2689,"뗫":2690,"뗬":2691,"뗭":2692,"뗮":2693,"뗯":2694,"뗰":2695,"뗱":2696,"뗲":2697,"뗳":2698,"뗴":2699,"뗵":2700,"뗶":2701,"뗷":2702,"뗸":2703,"뗹":2704,"뗺":2705,"뗻":2706,"뗼":2707,"뗽":2708,"뗾":2709,"뗿":2710,"똀":2711,"똁":2712,"똂":2713,"똃":2714,"똄":2715,"똅":2716,"똆":2717,"똇":2718,"똈":2719,"똉":2720,"똊":2721,"똋":2722,"똌":2723,"똍":2724,"똎":2725,"똏":2726,"또":2727,"똑":2728,"똒":2729,"똓":2730,"똔":2731,"똕":2732,"똖":2733,"똗":2734,"똘":2735,"똙":2736,"똚":2737,"똛":2738,"똜":2739,"똝":2740,"똞":2741,"똟":2742,"똠":2743,"똡":2744,"똢":2745,"똣":2746,"똤":2747,"똥":2748,"똦":2749,"똧":2750,"똨":2751,"똩":2752,"똪":2753,"똫":2754,"똬":2755,"똭":2756,"똮":2757,"똯":2758,"똰":2759,"똱":2760,"똲":2761,"똳":2762,"똴":2763,"똵":2764,"똶":2765,"똷":2766,"똸":2767,"똹":2768,"똺":2769,"똻":2770,"똼":2771,"똽":2772,"똾":2773,"똿":2774,"뙀":2775,"뙁":2776,"뙂":2777,"뙃":2778,"뙄":2779,"뙅":2780,"뙆":2781,"뙇":2782,"뙈":2783,"뙉":2784,"뙊":2785,"뙋":2786,"뙌":2787,"뙍":2788,"뙎":2789,"뙏":2790,"뙐":2791,"뙑":2792,"뙒":2793,"뙓":2794,"뙔":2795,"뙕":2796,"뙖":2797,"뙗":2798,"뙘":2799,"뙙":2800,"뙚":2801,"뙛":2802,"뙜":2803,"뙝":2804,"뙞":2805,"뙟":2806,"뙠":2807,"뙡":2808,"뙢":2809,"뙣":2810,"뙤":2811,"뙥":2812,"뙦":2813,"뙧":2814,"뙨":2815,"뙩":2816,"뙪":2817,"뙫":2818,"뙬":2819,"뙭":2820,"뙮":2821,"뙯":2822,"뙰":2823,"뙱":2824,"뙲":2825,"뙳":2826,"뙴":2827,"뙵":2828,"뙶":2829,"뙷":2830,"뙸":2831,"뙹":2832,"뙺":2833,"뙻":2834,"뙼":2835,"뙽":2836,"뙾":2837,"뙿":2838,"뚀":2839,"뚁":2840,"뚂":2841,"뚃":2842,"뚄":2843,"뚅":2844,"뚆":2845,"뚇":2846,"뚈":2847,"뚉":2848,"뚊":2849,"뚋":2850,"뚌":2851,"뚍":2852,"뚎":2853,"뚏":2854,"뚐":2855,"뚑":2856,"뚒":2857,"뚓":2858,"뚔":2859,"뚕":2860,"뚖":2861,"뚗":2862,"뚘":2863,"뚙":2864,"뚚":2865,"뚛":2866,"뚜":2867,"뚝":2868,"뚞":2869,"뚟":2870,"뚠":2871,"뚡":2872,"뚢":2873,"뚣":2874,"뚤":2875,"뚥":2876,"뚦":2877,"뚧":2878,"뚨":2879,"뚩":2880,"뚪":2881,"뚫":2882,"뚬":2883,"뚭":2884,"뚮":2885,"뚯":2886,"뚰":2887,"뚱":2888,"뚲":2889,"뚳":2890,"뚴":2891,"뚵":2892,"뚶":2893,"뚷":2894,"뚸":2895,"뚹":2896,"뚺":2897,"뚻":2898,"뚼":2899,"뚽":2900,"뚾":2901,"뚿":2902,"뛀":2903,"뛁":2904,"뛂":2905,"뛃":2906,"뛄":2907,"뛅":2908,"뛆":2909,"뛇":2910,"뛈":2911,"뛉":2912,"뛊":2913,"뛋":2914,"뛌":2915,"뛍":2916,"뛎":2917,"뛏":2918,"뛐":2919,"뛑":2920,"뛒":2921,"뛓":2922,"뛔":2923,"뛕":2924,"뛖":2925,"뛗":2926,"뛘":2927,"뛙":2928,"뛚":2929,"뛛":2930,"뛜":2931,"뛝":2932,"뛞":2933,"뛟":2934,"뛠":2935,"뛡":2936,"뛢":2937,"뛣":2938,"뛤":2939,"뛥":2940,"뛦":2941,"뛧":2942,"뛨":2943,"뛩":2944,"뛪":2945,"뛫":2946,"뛬":2947,"뛭":2948,"뛮":2949,"뛯":2950,"뛰":2951,"뛱":2952,"뛲":2953,"뛳":2954,"뛴":2955,"뛵":2956,"뛶":2957,"뛷":2958,"뛸":2959,"뛹":2960,"뛺":2961,"뛻":2962,"뛼":2963,"뛽":2964,"뛾":2965,"뛿":2966,"뜀":2967,"뜁":2968,"뜂":2969,"뜃":2970,"뜄":2971,"뜅":2972,"뜆":2973,"뜇":2974,"뜈":2975,"뜉":2976,"뜊":2977,"뜋":2978,"뜌":2979,"뜍":2980,"뜎":2981,"뜏":2982,"뜐":2983,"뜑":2984,"뜒":2985,"뜓":2986,"뜔":2987,"뜕":2988,"뜖":2989,"뜗":2990,"뜘":2991,"뜙":2992,"뜚":2993,"뜛":2994,"뜜":2995,"뜝":2996,"뜞":2997,"뜟":2998,"뜠":2999,"뜡":3000,"뜢":3001,"뜣":3002,"뜤":3003,"뜥":3004,"뜦":3005,"뜧":3006,"뜨":3007,"뜩":3008,"뜪":3009,"뜫":3010,"뜬":3011,"뜭":3012,"뜮":3013,"뜯":3014,"뜰":3015,"뜱":3016,"뜲":3017,"뜳":3018,"뜴":3019,"뜵":3020,"뜶":3021,"뜷":3022,"뜸":3023,"뜹":3024,"뜺":3025,"뜻":3026,"뜼":3027,"뜽":3028,"뜾":3029,"뜿":3030,"띀":3031,"띁":3032,"띂":3033,"띃":3034,"띄":3035,"띅":3036,"띆":3037,"띇":3038,"띈":3039,"띉":3040,"띊":3041,"띋":3042,"띌":3043,"띍":3044,"띎":3045,"띏":3046,"띐":3047,"띑":3048,"띒":3049,"띓":3050,"띔":3051,"띕":3052,"띖":3053,"띗":3054,"띘":3055,"띙":3056,"띚":3057,"띛":3058,"띜":3059,"띝":3060,"띞":3061,"띟":3062,"띠":3063,"띡":3064,"띢":3065,"띣":3066,"띤":3067,"띥":3068,"띦":3069,"띧":3070,"띨":3071,"띩":3072,"띪":3073,"띫":3074,"띬":3075,"띭":3076,"띮":3077,"띯":3078,"띰":3079,"띱":3080,"띲":3081,"띳":3082,"띴":3083,"띵":3084,"띶":3085,"띷":3086,"띸":3087,"띹":3088,"띺":3089,"띻":3090,"라":3091,"락":3092,"띾":3093,"띿":3094,"란":3095,"랁":3096,"랂":3097,"랃":3098,"랄":3099,"랅":3100,"랆":3101,"랇":3102,"랈":3103,"랉":3104,"랊":3105,"랋":3106,"람":3107,"랍":3108,"랎":3109,"랏":3110,"랐":3111,"랑":3112,"랒":3113,"랓":3114,"랔":3115,"랕":3116,"랖":3117,"랗":3118,"래":3119,"랙":3120,"랚":3121,"랛":3122,"랜":3123,"랝":3124,"랞":3125,"랟":3126,"랠":3127,"랡":3128,"랢":3129,"랣":3130,"랤":3131,"랥":3132,"랦":3133,"랧":3134,"램":3135,"랩":3136,"랪":3137,"랫":3138,"랬":3139,"랭":3140,"랮":3141,"랯":3142,"랰":3143,"랱":3144,"랲":3145,"랳":3146,"랴":3147,"략":3148,"랶":3149,"랷":3150,"랸":3151,"랹":3152,"랺":3153,"랻":3154,"랼":3155,"랽":3156,"랾":3157,"랿":3158,"럀":3159,"럁":3160,"럂":3161,"럃":3162,"럄":3163,"럅":3164,"럆":3165,"럇":3166,"럈":3167,"량":3168,"럊":3169,"럋":3170,"럌":3171,"럍":3172,"럎":3173,"럏":3174,"럐":3175,"럑":3176,"럒":3177,"럓":3178,"럔":3179,"럕":3180,"럖":3181,"럗":3182,"럘":3183,"럙":3184,"럚":3185,"럛":3186,"럜":3187,"럝":3188,"럞":3189,"럟":3190,"럠":3191,"럡":3192,"럢":3193,"럣":3194,"럤":3195,"럥":3196,"럦":3197,"럧":3198,"럨":3199,"럩":3200,"럪":3201,"럫":3202,"러":3203,"럭":3204,"럮":3205,"럯":3206,"런":3207,"럱":3208,"럲":3209,"럳":3210,"럴":3211,"럵":3212,"럶":3213,"럷":3214,"럸":3215,"럹":3216,"럺":3217,"럻":3218,"럼":3219,"럽":3220,"럾":3221,"럿":3222,"렀":3223,"렁":3224,"렂":3225,"렃":3226,"렄":3227,"렅":3228,"렆":3229,"렇":3230,"레":3231,"렉":3232,"렊":3233,"렋":3234,"렌":3235,"렍":3236,"렎":3237,"렏":3238,"렐":3239,"렑":3240,"렒":3241,"렓":3242,"렔":3243,"렕":3244,"렖":3245,"렗":3246,"렘":3247,"렙":3248,"렚":3249,"렛":3250,"렜":3251,"렝":3252,"렞":3253,"렟":3254,"렠":3255,"렡":3256,"렢":3257,"렣":3258,"려":3259,"력":3260,"렦":3261,"렧":3262,"련":3263,"렩":3264,"렪":3265,"렫":3266,"렬":3267,"렭":3268,"렮":3269,"렯":3270,"렰":3271,"렱":3272,"렲":3273,"렳":3274,"렴":3275,"렵":3276,"렶":3277,"렷":3278,"렸":3279,"령":3280,"렺":3281,"렻":3282,"렼":3283,"렽":3284,"렾":3285,"렿":3286,"례":3287,"롁":3288,"롂":3289,"롃":3290,"롄":3291,"롅":3292,"롆":3293,"롇":3294,"롈":3295,"롉":3296,"롊":3297,"롋":3298,"롌":3299,"롍":3300,"롎":3301,"롏":3302,"롐":3303,"롑":3304,"롒":3305,"롓":3306,"롔":3307,"롕":3308,"롖":3309,"롗":3310,"롘":3311,"롙":3312,"롚":3313,"롛":3314,"로":3315,"록":3316,"롞":3317,"롟":3318,"론":3319,"롡":3320,"롢":3321,"롣":3322,"롤":3323,"롥":3324,"롦":3325,"롧":3326,"롨":3327,"롩":3328,"롪":3329,"롫":3330,"롬":3331,"롭":3332,"롮":3333,"롯":3334,"롰":3335,"롱":3336,"롲":3337,"롳":3338,"롴":3339,"롵":3340,"롶":3341,"롷":3342,"롸":3343,"롹":3344,"롺":3345,"롻":3346,"롼":3347,"롽":3348,"롾":3349,"롿":3350,"뢀":3351,"뢁":3352,"뢂":3353,"뢃":3354,"뢄":3355,"뢅":3356,"뢆":3357,"뢇":3358,"뢈":3359,"뢉":3360,"뢊":3361,"뢋":3362,"뢌":3363,"뢍":3364,"뢎":3365,"뢏":3366,"뢐":3367,"뢑":3368,"뢒":3369,"뢓":3370,"뢔":3371,"뢕":3372,"뢖":3373,"뢗":3374,"뢘":3375,"뢙":3376,"뢚":3377,"뢛":3378,"뢜":3379,"뢝":3380,"뢞":3381,"뢟":3382,"뢠":3383,"뢡":3384,"뢢":3385,"뢣":3386,"뢤":3387,"뢥":3388,"뢦":3389,"뢧":3390,"뢨":3391,"뢩":3392,"뢪":3393,"뢫":3394,"뢬":3395,"뢭":3396,"뢮":3397,"뢯":3398,"뢰":3399,"뢱":3400,"뢲":3401,"뢳":3402,"뢴":3403,"뢵":3404,"뢶":3405,"뢷":3406,"뢸":3407,"뢹":3408,"뢺":3409,"뢻":3410,"뢼":3411,"뢽":3412,"뢾":3413,"뢿":3414,"룀":3415,"룁":3416,"룂":3417,"룃":3418,"룄":3419,"룅":3420,"룆":3421,"룇":3422,"룈":3423,"룉":3424,"룊":3425,"룋":3426,"료":3427,"룍":3428,"룎":3429,"룏":3430,"룐":3431,"룑":3432,"룒":3433,"룓":3434,"룔":3435,"룕":3436,"룖":3437,"룗":3438,"룘":3439,"룙":3440,"룚":3441,"룛":3442,"룜":3443,"룝":3444,"룞":3445,"룟":3446,"룠":3447,"룡":3448,"룢":3449,"룣":3450,"룤":3451,"룥":3452,"룦":3453,"룧":3454,"루":3455,"룩":3456,"룪":3457,"룫":3458,"룬":3459,"룭":3460,"룮":3461,"룯":3462,"룰":3463,"룱":3464,"룲":3465,"룳":3466,"룴":3467,"룵":3468,"룶":3469,"룷":3470,"룸":3471,"룹":3472,"룺":3473,"룻":3474,"룼":3475,"룽":3476,"룾":3477,"룿":3478,"뤀":3479,"뤁":3480,"뤂":3481,"뤃":3482,"뤄":3483,"뤅":3484,"뤆":3485,"뤇":3486,"뤈":3487,"뤉":3488,"뤊":3489,"뤋":3490,"뤌":3491,"뤍":3492,"뤎":3493,"뤏":3494,"뤐":3495,"뤑":3496,"뤒":3497,"뤓":3498,"뤔":3499,"뤕":3500,"뤖":3501,"뤗":3502,"뤘":3503,"뤙":3504,"뤚":3505,"뤛":3506,"뤜":3507,"뤝":3508,"뤞":3509,"뤟":3510,"뤠":3511,"뤡":3512,"뤢":3513,"뤣":3514,"뤤":3515,"뤥":3516,"뤦":3517,"뤧":3518,"뤨":3519,"뤩":3520,"뤪":3521,"뤫":3522,"뤬":3523,"뤭":3524,"뤮":3525,"뤯":3526,"뤰":3527,"뤱":3528,"뤲":3529,"뤳":3530,"뤴":3531,"뤵":3532,"뤶":3533,"뤷":3534,"뤸":3535,"뤹":3536,"뤺":3537,"뤻":3538,"뤼":3539,"뤽":3540,"뤾":3541,"뤿":3542,"륀":3543,"륁":3544,"륂":3545,"륃":3546,"륄":3547,"륅":3548,"륆":3549,"륇":3550,"륈":3551,"륉":3552,"륊":3553,"륋":3554,"륌":3555,"륍":3556,"륎":3557,"륏":3558,"륐":3559,"륑":3560,"륒":3561,"륓":3562,"륔":3563,"륕":3564,"륖":3565,"륗":3566,"류":3567,"륙":3568,"륚":3569,"륛":3570,"륜":3571,"륝":3572,"륞":3573,"륟":3574,"률":3575,"륡":3576,"륢":3577,"륣":3578,"륤":3579,"륥":3580,"륦":3581,"륧":3582,"륨":3583,"륩":3584,"륪":3585,"륫":3586,"륬":3587,"륭":3588,"륮":3589,"륯":3590,"륰":3591,"륱":3592,"륲":3593,"륳":3594,"르":3595,"륵":3596,"륶":3597,"륷":3598,"른":3599,"륹":3600,"륺":3601,"륻":3602,"를":3603,"륽":3604,"륾":3605,"륿":3606,"릀":3607,"릁":3608,"릂":3609,"릃":3610,"름":3611,"릅":3612,"릆":3613,"릇":3614,"릈":3615,"릉":3616,"릊":3617,"릋":3618,"릌":3619,"릍":3620,"릎":3621,"릏":3622,"릐":3623,"릑":3624,"릒":3625,"릓":3626,"릔":3627,"릕":3628,"릖":3629,"릗":3630,"릘":3631,"릙":3632,"릚":3633,"릛":3634,"릜":3635,"릝":3636,"릞":3637,"릟":3638,"릠":3639,"릡":3640,"릢":3641,"릣":3642,"릤":3643,"릥":3644,"릦":3645,"릧":3646,"릨":3647,"릩":3648,"릪":3649,"릫":3650,"리":3651,"릭":3652,"릮":3653,"릯":3654,"린":3655,"릱":3656,"릲":3657,"릳":3658,"릴":3659,"릵":3660,"릶":3661,"릷":3662,"릸":3663,"릹":3664,"릺":3665,"릻":3666,"림":3667,"립":3668,"릾":3669,"릿":3670,"맀":3671,"링":3672,"맂":3673,"맃":3674,"맄":3675,"맅":3676,"맆":3677,"맇":3678,"마":3679,"막":3680,"맊":3681,"맋":3682,"만":3683,"맍":3684,"많":3685,"맏":3686,"말":3687,"맑":3688,"맒":3689,"맓":3690,"맔":3691,"맕":3692,"맖":3693,"맗":3694,"맘":3695,"맙":3696,"맚":3697,"맛":3698,"맜":3699,"망":3700,"맞":3701,"맟":3702,"맠":3703,"맡":3704,"맢":3705,"맣":3706,"매":3707,"맥":3708,"맦":3709,"맧":3710,"맨":3711,"맩":3712,"맪":3713,"맫":3714,"맬":3715,"맭":3716,"맮":3717,"맯":3718,"맰":3719,"맱":3720,"맲":3721,"맳":3722,"맴":3723,"맵":3724,"맶":3725,"맷":3726,"맸":3727,"맹":3728,"맺":3729,"맻":3730,"맼":3731,"맽":3732,"맾":3733,"맿":3734,"먀":3735,"먁":3736,"먂":3737,"먃":3738,"먄":3739,"먅":3740,"먆":3741,"먇":3742,"먈":3743,"먉":3744,"먊":3745,"먋":3746,"먌":3747,"먍":3748,"먎":3749,"먏":3750,"먐":3751,"먑":3752,"먒":3753,"먓":3754,"먔":3755,"먕":3756,"먖":3757,"먗":3758,"먘":3759,"먙":3760,"먚":3761,"먛":3762,"먜":3763,"먝":3764,"먞":3765,"먟":3766,"먠":3767,"먡":3768,"먢":3769,"먣":3770,"먤":3771,"먥":3772,"먦":3773,"먧":3774,"먨":3775,"먩":3776,"먪":3777,"먫":3778,"먬":3779,"먭":3780,"먮":3781,"먯":3782,"먰":3783,"먱":3784,"먲":3785,"먳":3786,"먴":3787,"먵":3788,"먶":3789,"먷":3790,"머":3791,"먹":3792,"먺":3793,"먻":3794,"먼":3795,"먽":3796,"먾":3797,"먿":3798,"멀":3799,"멁":3800,"멂":3801,"멃":3802,"멄":3803,"멅":3804,"멆":3805,"멇":3806,"멈":3807,"멉":3808,"멊":3809,"멋":3810,"멌":3811,"멍":3812,"멎":3813,"멏":3814,"멐":3815,"멑":3816,"멒":3817,"멓":3818,"메":3819,"멕":3820,"멖":3821,"멗":3822,"멘":3823,"멙":3824,"멚":3825,"멛":3826,"멜":3827,"멝":3828,"멞":3829,"멟":3830,"멠":3831,"멡":3832,"멢":3833,"멣":3834,"멤":3835,"멥":3836,"멦":3837,"멧":3838,"멨":3839,"멩":3840,"멪":3841,"멫":3842,"멬":3843,"멭":3844,"멮":3845,"멯":3846,"며":3847,"멱":3848,"멲":3849,"멳":3850,"면":3851,"멵":3852,"멶":3853,"멷":3854,"멸":3855,"멹":3856,"멺":3857,"멻":3858,"멼":3859,"멽":3860,"멾":3861,"멿":3862,"몀":3863,"몁":3864,"몂":3865,"몃":3866,"몄":3867,"명":3868,"몆":3869,"몇":3870,"몈":3871,"몉":3872,"몊":3873,"몋":3874,"몌":3875,"몍":3876,"몎":3877,"몏":3878,"몐":3879,"몑":3880,"몒":3881,"몓":3882,"몔":3883,"몕":3884,"몖":3885,"몗":3886,"몘":3887,"몙":3888,"몚":3889,"몛":3890,"몜":3891,"몝":3892,"몞":3893,"몟":3894,"몠":3895,"몡":3896,"몢":3897,"몣":3898,"몤":3899,"몥":3900,"몦":3901,"몧":3902,"모":3903,"목":3904,"몪":3905,"몫":3906,"몬":3907,"몭":3908,"몮":3909,"몯":3910,"몰":3911,"몱":3912,"몲":3913,"몳":3914,"몴":3915,"몵":3916,"몶":3917,"몷":3918,"몸":3919,"몹":3920,"몺":3921,"못":3922,"몼":3923,"몽":3924,"몾":3925,"몿":3926,"뫀":3927,"뫁":3928,"뫂":3929,"뫃":3930,"뫄":3931,"뫅":3932,"뫆":3933,"뫇":3934,"뫈":3935,"뫉":3936,"뫊":3937,"뫋":3938,"뫌":3939,"뫍":3940,"뫎":3941,"뫏":3942,"뫐":3943,"뫑":3944,"뫒":3945,"뫓":3946,"뫔":3947,"뫕":3948,"뫖":3949,"뫗":3950,"뫘":3951,"뫙":3952,"뫚":3953,"뫛":3954,"뫜":3955,"뫝":3956,"뫞":3957,"뫟":3958,"뫠":3959,"뫡":3960,"뫢":3961,"뫣":3962,"뫤":3963,"뫥":3964,"뫦":3965,"뫧":3966,"뫨":3967,"뫩":3968,"뫪":3969,"뫫":3970,"뫬":3971,"뫭":3972,"뫮":3973,"뫯":3974,"뫰":3975,"뫱":3976,"뫲":3977,"뫳":3978,"뫴":3979,"뫵":3980,"뫶":3981,"뫷":3982,"뫸":3983,"뫹":3984,"뫺":3985,"뫻":3986,"뫼":3987,"뫽":3988,"뫾":3989,"뫿":3990,"묀":3991,"묁":3992,"묂":3993,"묃":3994,"묄":3995,"묅":3996,"묆":3997,"묇":3998,"묈":3999,"묉":4000,"묊":4001,"묋":4002,"묌":4003,"묍":4004,"묎":4005,"묏":4006,"묐":4007,"묑":4008,"묒":4009,"묓":4010,"묔":4011,"묕":4012,"묖":4013,"묗":4014,"묘":4015,"묙":4016,"묚":4017,"묛":4018,"묜":4019,"묝":4020,"묞":4021,"묟":4022,"묠":4023,"묡":4024,"묢":4025,"묣":4026,"묤":4027,"묥":4028,"묦":4029,"묧":4030,"묨":4031,"묩":4032,"묪":4033,"묫":4034,"묬":4035,"묭":4036,"묮":4037,"묯":4038,"묰":4039,"묱":4040,"묲":4041,"묳":4042,"무":4043,"묵":4044,"묶":4045,"묷":4046,"문":4047,"묹":4048,"묺":4049,"묻":4050,"물":4051,"묽":4052,"묾":4053,"묿":4054,"뭀":4055,"뭁":4056,"뭂":4057,"뭃":4058,"뭄":4059,"뭅":4060,"뭆":4061,"뭇":4062,"뭈":4063,"뭉":4064,"뭊":4065,"뭋":4066,"뭌":4067,"뭍":4068,"뭎":4069,"뭏":4070,"뭐":4071,"뭑":4072,"뭒":4073,"뭓":4074,"뭔":4075,"뭕":4076,"뭖":4077,"뭗":4078,"뭘":4079,"뭙":4080,"뭚":4081,"뭛":4082,"뭜":4083,"뭝":4084,"뭞":4085,"뭟":4086,"뭠":4087,"뭡":4088,"뭢":4089,"뭣":4090,"뭤":4091,"뭥":4092,"뭦":4093,"뭧":4094,"뭨":4095,"뭩":4096,"뭪":4097,"뭫":4098,"뭬":4099,"뭭":4100,"뭮":4101,"뭯":4102,"뭰":4103,"뭱":4104,"뭲":4105,"뭳":4106,"뭴":4107,"뭵":4108,"뭶":4109,"뭷":4110,"뭸":4111,"뭹":4112,"뭺":4113,"뭻":4114,"뭼":4115,"뭽":4116,"뭾":4117,"뭿":4118,"뮀":4119,"뮁":4120,"뮂":4121,"뮃":4122,"뮄":4123,"뮅":4124,"뮆":4125,"뮇":4126,"뮈":4127,"뮉":4128,"뮊":4129,"뮋":4130,"뮌":4131,"뮍":4132,"뮎":4133,"뮏":4134,"뮐":4135,"뮑":4136,"뮒":4137,"뮓":4138,"뮔":4139,"뮕":4140,"뮖":4141,"뮗":4142,"뮘":4143,"뮙":4144,"뮚":4145,"뮛":4146,"뮜":4147,"뮝":4148,"뮞":4149,"뮟":4150,"뮠":4151,"뮡":4152,"뮢":4153,"뮣":4154,"뮤":4155,"뮥":4156,"뮦":4157,"뮧":4158,"뮨":4159,"뮩":4160,"뮪":4161,"뮫":4162,"뮬":4163,"뮭":4164,"뮮":4165,"뮯":4166,"뮰":4167,"뮱":4168,"뮲":4169,"뮳":4170,"뮴":4171,"뮵":4172,"뮶":4173,"뮷":4174,"뮸":4175,"뮹":4176,"뮺":4177,"뮻":4178,"뮼":4179,"뮽":4180,"뮾":4181,"뮿":4182,"므":4183,"믁":4184,"믂":4185,"믃":4186,"믄":4187,"믅":4188,"믆":4189,"믇":4190,"믈":4191,"믉":4192,"믊":4193,"믋":4194,"믌":4195,"믍":4196,"믎":4197,"믏":4198,"믐":4199,"믑":4200,"믒":4201,"믓":4202,"믔":4203,"믕":4204,"믖":4205,"믗":4206,"믘":4207,"믙":4208,"믚":4209,"믛":4210,"믜":4211,"믝":4212,"믞":4213,"믟":4214,"믠":4215,"믡":4216,"믢":4217,"믣":4218,"믤":4219,"믥":4220,"믦":4221,"믧":4222,"믨":4223,"믩":4224,"믪":4225,"믫":4226,"믬":4227,"믭":4228,"믮":4229,"믯":4230,"믰":4231,"믱":4232,"믲":4233,"믳":4234,"믴":4235,"믵":4236,"믶":4237,"믷":4238,"미":4239,"믹":4240,"믺":4241,"믻":4242,"민":4243,"믽":4244,"믾":4245,"믿":4246,"밀":4247,"밁":4248,"밂":4249,"밃":4250,"밄":4251,"밅":4252,"밆":4253,"밇":4254,"밈":4255,"밉":4256,"밊":4257,"밋":4258,"밌":4259,"밍":4260,"밎":4261,"및":4262,"밐":4263,"밑":4264,"밒":4265,"밓":4266,"바":4267,"박":4268,"밖":4269,"밗":4270,"반":4271,"밙":4272,"밚":4273,"받":4274,"발":4275,"밝":4276,"밞":4277,"밟":4278,"밠":4279,"밡":4280,"밢":4281,"밣":4282,"밤":4283,"밥":4284,"밦":4285,"밧":4286,"밨":4287,"방":4288,"밪":4289,"밫":4290,"밬":4291,"밭":4292,"밮":4293,"밯":4294,"배":4295,"백":4296,"밲":4297,"밳":4298,"밴":4299,"밵":4300,"밶":4301,"밷":4302,"밸":4303,"밹":4304,"밺":4305,"밻":4306,"밼":4307,"밽":4308,"밾":4309,"밿":4310,"뱀":4311,"뱁":4312,"뱂":4313,"뱃":4314,"뱄":4315,"뱅":4316,"뱆":4317,"뱇":4318,"뱈":4319,"뱉":4320,"뱊":4321,"뱋":4322,"뱌":4323,"뱍":4324,"뱎":4325,"뱏":4326,"뱐":4327,"뱑":4328,"뱒":4329,"뱓":4330,"뱔":4331,"뱕":4332,"뱖":4333,"뱗":4334,"뱘":4335,"뱙":4336,"뱚":4337,"뱛":4338,"뱜":4339,"뱝":4340,"뱞":4341,"뱟":4342,"뱠":4343,"뱡":4344,"뱢":4345,"뱣":4346,"뱤":4347,"뱥":4348,"뱦":4349,"뱧":4350,"뱨":4351,"뱩":4352,"뱪":4353,"뱫":4354,"뱬":4355,"뱭":4356,"뱮":4357,"뱯":4358,"뱰":4359,"뱱":4360,"뱲":4361,"뱳":4362,"뱴":4363,"뱵":4364,"뱶":4365,"뱷":4366,"뱸":4367,"뱹":4368,"뱺":4369,"뱻":4370,"뱼":4371,"뱽":4372,"뱾":4373,"뱿":4374,"벀":4375,"벁":4376,"벂":4377,"벃":4378,"버":4379,"벅":4380,"벆":4381,"벇":4382,"번":4383,"벉":4384,"벊":4385,"벋":4386,"벌":4387,"벍":4388,"벎":4389,"벏":4390,"벐":4391,"벑":4392,"벒":4393,"벓":4394,"범":4395,"법":4396,"벖":4397,"벗":4398,"벘":4399,"벙":4400,"벚":4401,"벛":4402,"벜":4403,"벝":4404,"벞":4405,"벟":4406,"베":4407,"벡":4408,"벢":4409,"벣":4410,"벤":4411,"벥":4412,"벦":4413,"벧":4414,"벨":4415,"벩":4416,"벪":4417,"벫":4418,"벬":4419,"벭":4420,"벮":4421,"벯":4422,"벰":4423,"벱":4424,"벲":4425,"벳":4426,"벴":4427,"벵":4428,"벶":4429,"벷":4430,"벸":4431,"벹":4432,"벺":4433,"벻":4434,"벼":4435,"벽":4436,"벾":4437,"벿":4438,"변":4439,"볁":4440,"볂":4441,"볃":4442,"별":4443,"볅":4444,"볆":4445,"볇":4446,"볈":4447,"볉":4448,"볊":4449,"볋":4450,"볌":4451,"볍":4452,"볎":4453,"볏":4454,"볐":4455,"병":4456,"볒":4457,"볓":4458,"볔":4459,"볕":4460,"볖":4461,"볗":4462,"볘":4463,"볙":4464,"볚":4465,"볛":4466,"볜":4467,"볝":4468,"볞":4469,"볟":4470,"볠":4471,"볡":4472,"볢":4473,"볣":4474,"볤":4475,"볥":4476,"볦":4477,"볧":4478,"볨":4479,"볩":4480,"볪":4481,"볫":4482,"볬":4483,"볭":4484,"볮":4485,"볯":4486,"볰":4487,"볱":4488,"볲":4489,"볳":4490,"보":4491,"복":4492,"볶":4493,"볷":4494,"본":4495,"볹":4496,"볺":4497,"볻":4498,"볼":4499,"볽":4500,"볾":4501,"볿":4502,"봀":4503,"봁":4504,"봂":4505,"봃":4506,"봄":4507,"봅":4508,"봆":4509,"봇":4510,"봈":4511,"봉":4512,"봊":4513,"봋":4514,"봌":4515,"봍":4516,"봎":4517,"봏":4518,"봐":4519,"봑":4520,"봒":4521,"봓":4522,"봔":4523,"봕":4524,"봖":4525,"봗":4526,"봘":4527,"봙":4528,"봚":4529,"봛":4530,"봜":4531,"봝":4532,"봞":4533,"봟":4534,"봠":4535,"봡":4536,"봢":4537,"봣":4538,"봤":4539,"봥":4540,"봦":4541,"봧":4542,"봨":4543,"봩":4544,"봪":4545,"봫":4546,"봬":4547,"봭":4548,"봮":4549,"봯":4550,"봰":4551,"봱":4552,"봲":4553,"봳":4554,"봴":4555,"봵":4556,"봶":4557,"봷":4558,"봸":4559,"봹":4560,"봺":4561,"봻":4562,"봼":4563,"봽":4564,"봾":4565,"봿":4566,"뵀":4567,"뵁":4568,"뵂":4569,"뵃":4570,"뵄":4571,"뵅":4572,"뵆":4573,"뵇":4574,"뵈":4575,"뵉":4576,"뵊":4577,"뵋":4578,"뵌":4579,"뵍":4580,"뵎":4581,"뵏":4582,"뵐":4583,"뵑":4584,"뵒":4585,"뵓":4586,"뵔":4587,"뵕":4588,"뵖":4589,"뵗":4590,"뵘":4591,"뵙":4592,"뵚":4593,"뵛":4594,"뵜":4595,"뵝":4596,"뵞":4597,"뵟":4598,"뵠":4599,"뵡":4600,"뵢":4601,"뵣":4602,"뵤":4603,"뵥":4604,"뵦":4605,"뵧":4606,"뵨":4607,"뵩":4608,"뵪":4609,"뵫":4610,"뵬":4611,"뵭":4612,"뵮":4613,"뵯":4614,"뵰":4615,"뵱":4616,"뵲":4617,"뵳":4618,"뵴":4619,"뵵":4620,"뵶":4621,"뵷":4622,"뵸":4623,"뵹":4624,"뵺":4625,"뵻":4626,"뵼":4627,"뵽":4628,"뵾":4629,"뵿":4630,"부":4631,"북":4632,"붂":4633,"붃":4634,"분":4635,"붅":4636,"붆":4637,"붇":4638,"불":4639,"붉":4640,"붊":4641,"붋":4642,"붌":4643,"붍":4644,"붎":4645,"붏":4646,"붐":4647,"붑":4648,"붒":4649,"붓":4650,"붔":4651,"붕":4652,"붖":4653,"붗":4654,"붘":4655,"붙":4656,"붚":4657,"붛":4658,"붜":4659,"붝":4660,"붞":4661,"붟":4662,"붠":4663,"붡":4664,"붢":4665,"붣":4666,"붤":4667,"붥":4668,"붦":4669,"붧":4670,"붨":4671,"붩":4672,"붪":4673,"붫":4674,"붬":4675,"붭":4676,"붮":4677,"붯":4678,"붰":4679,"붱":4680,"붲":4681,"붳":4682,"붴":4683,"붵":4684,"붶":4685,"붷":4686,"붸":4687,"붹":4688,"붺":4689,"붻":4690,"붼":4691,"붽":4692,"붾":4693,"붿":4694,"뷀":4695,"뷁":4696,"뷂":4697,"뷃":4698,"뷄":4699,"뷅":4700,"뷆":4701,"뷇":4702,"뷈":4703,"뷉":4704,"뷊":4705,"뷋":4706,"뷌":4707,"뷍":4708,"뷎":4709,"뷏":4710,"뷐":4711,"뷑":4712,"뷒":4713,"뷓":4714,"뷔":4715,"뷕":4716,"뷖":4717,"뷗":4718,"뷘":4719,"뷙":4720,"뷚":4721,"뷛":4722,"뷜":4723,"뷝":4724,"뷞":4725,"뷟":4726,"뷠":4727,"뷡":4728,"뷢":4729,"뷣":4730,"뷤":4731,"뷥":4732,"뷦":4733,"뷧":4734,"뷨":4735,"뷩":4736,"뷪":4737,"뷫":4738,"뷬":4739,"뷭":4740,"뷮":4741,"뷯":4742,"뷰":4743,"뷱":4744,"뷲":4745,"뷳":4746,"뷴":4747,"뷵":4748,"뷶":4749,"뷷":4750,"뷸":4751,"뷹":4752,"뷺":4753,"뷻":4754,"뷼":4755,"뷽":4756,"뷾":4757,"뷿":4758,"븀":4759,"븁":4760,"븂":4761,"븃":4762,"븄":4763,"븅":4764,"븆":4765,"븇":4766,"븈":4767,"븉":4768,"븊":4769,"븋":4770,"브":4771,"븍":4772,"븎":4773,"븏":4774,"븐":4775,"븑":4776,"븒":4777,"븓":4778,"블":4779,"븕":4780,"븖":4781,"븗":4782,"븘":4783,"븙":4784,"븚":4785,"븛":4786,"븜":4787,"븝":4788,"븞":4789,"븟":4790,"븠":4791,"븡":4792,"븢":4793,"븣":4794,"븤":4795,"븥":4796,"븦":4797,"븧":4798,"븨":4799,"븩":4800,"븪":4801,"븫":4802,"븬":4803,"븭":4804,"븮":4805,"븯":4806,"븰":4807,"븱":4808,"븲":4809,"븳":4810,"븴":4811,"븵":4812,"븶":4813,"븷":4814,"븸":4815,"븹":4816,"븺":4817,"븻":4818,"븼":4819,"븽":4820,"븾":4821,"븿":4822,"빀":4823,"빁":4824,"빂":4825,"빃":4826,"비":4827,"빅":4828,"빆":4829,"빇":4830,"빈":4831,"빉":4832,"빊":4833,"빋":4834,"빌":4835,"빍":4836,"빎":4837,"빏":4838,"빐":4839,"빑":4840,"빒":4841,"빓":4842,"빔":4843,"빕":4844,"빖":4845,"빗":4846,"빘":4847,"빙":4848,"빚":4849,"빛":4850,"빜":4851,"빝":4852,"빞":4853,"빟":4854,"빠":4855,"빡":4856,"빢":4857,"빣":4858,"빤":4859,"빥":4860,"빦":4861,"빧":4862,"빨":4863,"빩":4864,"빪":4865,"빫":4866,"빬":4867,"빭":4868,"빮":4869,"빯":4870,"빰":4871,"빱":4872,"빲":4873,"빳":4874,"빴":4875,"빵":4876,"빶":4877,"빷":4878,"빸":4879,"빹":4880,"빺":4881,"빻":4882,"빼":4883,"빽":4884,"빾":4885,"빿":4886,"뺀":4887,"뺁":4888,"뺂":4889,"뺃":4890,"뺄":4891,"뺅":4892,"뺆":4893,"뺇":4894,"뺈":4895,"뺉":4896,"뺊":4897,"뺋":4898,"뺌":4899,"뺍":4900,"뺎":4901,"뺏":4902,"뺐":4903,"뺑":4904,"뺒":4905,"뺓":4906,"뺔":4907,"뺕":4908,"뺖":4909,"뺗":4910,"뺘":4911,"뺙":4912,"뺚":4913,"뺛":4914,"뺜":4915,"뺝":4916,"뺞":4917,"뺟":4918,"뺠":4919,"뺡":4920,"뺢":4921,"뺣":4922,"뺤":4923,"뺥":4924,"뺦":4925,"뺧":4926,"뺨":4927,"뺩":4928,"뺪":4929,"뺫":4930,"뺬":4931,"뺭":4932,"뺮":4933,"뺯":4934,"뺰":4935,"뺱":4936,"뺲":4937,"뺳":4938,"뺴":4939,"뺵":4940,"뺶":4941,"뺷":4942,"뺸":4943,"뺹":4944,"뺺":4945,"뺻":4946,"뺼":4947,"뺽":4948,"뺾":4949,"뺿":4950,"뻀":4951,"뻁":4952,"뻂":4953,"뻃":4954,"뻄":4955,"뻅":4956,"뻆":4957,"뻇":4958,"뻈":4959,"뻉":4960,"뻊":4961,"뻋":4962,"뻌":4963,"뻍":4964,"뻎":4965,"뻏":4966,"뻐":4967,"뻑":4968,"뻒":4969,"뻓":4970,"뻔":4971,"뻕":4972,"뻖":4973,"뻗":4974,"뻘":4975,"뻙":4976,"뻚":4977,"뻛":4978,"뻜":4979,"뻝":4980,"뻞":4981,"뻟":4982,"뻠":4983,"뻡":4984,"뻢":4985,"뻣":4986,"뻤":4987,"뻥":4988,"뻦":4989,"뻧":4990,"뻨":4991,"뻩":4992,"뻪":4993,"뻫":4994,"뻬":4995,"뻭":4996,"뻮":4997,"뻯":4998,"뻰":4999,"뻱":5000,"뻲":5001,"뻳":5002,"뻴":5003,"뻵":5004,"뻶":5005,"뻷":5006,"뻸":5007,"뻹":5008,"뻺":5009,"뻻":5010,"뻼":5011,"뻽":5012,"뻾":5013,"뻿":5014,"뼀":5015,"뼁":5016,"뼂":5017,"뼃":5018,"뼄":5019,"뼅":5020,"뼆":5021,"뼇":5022,"뼈":5023,"뼉":5024,"뼊":5025,"뼋":5026,"뼌":5027,"뼍":5028,"뼎":5029,"뼏":5030,"뼐":5031,"뼑":5032,"뼒":5033,"뼓":5034,"뼔":5035,"뼕":5036,"뼖":5037,"뼗":5038,"뼘":5039,"뼙":5040,"뼚":5041,"뼛":5042,"뼜":5043,"뼝":5044,"뼞":5045,"뼟":5046,"뼠":5047,"뼡":5048,"뼢":5049,"뼣":5050,"뼤":5051,"뼥":5052,"뼦":5053,"뼧":5054,"뼨":5055,"뼩":5056,"뼪":5057,"뼫":5058,"뼬":5059,"뼭":5060,"뼮":5061,"뼯":5062,"뼰":5063,"뼱":5064,"뼲":5065,"뼳":5066,"뼴":5067,"뼵":5068,"뼶":5069,"뼷":5070,"뼸":5071,"뼹":5072,"뼺":5073,"뼻":5074,"뼼":5075,"뼽":5076,"뼾":5077,"뼿":5078,"뽀":5079,"뽁":5080,"뽂":5081,"뽃":5082,"뽄":5083,"뽅":5084,"뽆":5085,"뽇":5086,"뽈":5087,"뽉":5088,"뽊":5089,"뽋":5090,"뽌":5091,"뽍":5092,"뽎":5093,"뽏":5094,"뽐":5095,"뽑":5096,"뽒":5097,"뽓":5098,"뽔":5099,"뽕":5100,"뽖":5101,"뽗":5102,"뽘":5103,"뽙":5104,"뽚":5105,"뽛":5106,"뽜":5107,"뽝":5108,"뽞":5109,"뽟":5110,"뽠":5111,"뽡":5112,"뽢":5113,"뽣":5114,"뽤":5115,"뽥":5116,"뽦":5117,"뽧":5118,"뽨":5119,"뽩":5120,"뽪":5121,"뽫":5122,"뽬":5123,"뽭":5124,"뽮":5125,"뽯":5126,"뽰":5127,"뽱":5128,"뽲":5129,"뽳":5130,"뽴":5131,"뽵":5132,"뽶":5133,"뽷":5134,"뽸":5135,"뽹":5136,"뽺":5137,"뽻":5138,"뽼":5139,"뽽":5140,"뽾":5141,"뽿":5142,"뾀":5143,"뾁":5144,"뾂":5145,"뾃":5146,"뾄":5147,"뾅":5148,"뾆":5149,"뾇":5150,"뾈":5151,"뾉":5152,"뾊":5153,"뾋":5154,"뾌":5155,"뾍":5156,"뾎":5157,"뾏":5158,"뾐":5159,"뾑":5160,"뾒":5161,"뾓":5162,"뾔":5163,"뾕":5164,"뾖":5165,"뾗":5166,"뾘":5167,"뾙":5168,"뾚":5169,"뾛":5170,"뾜":5171,"뾝":5172,"뾞":5173,"뾟":5174,"뾠":5175,"뾡":5176,"뾢":5177,"뾣":5178,"뾤":5179,"뾥":5180,"뾦":5181,"뾧":5182,"뾨":5183,"뾩":5184,"뾪":5185,"뾫":5186,"뾬":5187,"뾭":5188,"뾮":5189,"뾯":5190,"뾰":5191,"뾱":5192,"뾲":5193,"뾳":5194,"뾴":5195,"뾵":5196,"뾶":5197,"뾷":5198,"뾸":5199,"뾹":5200,"뾺":5201,"뾻":5202,"뾼":5203,"뾽":5204,"뾾":5205,"뾿":5206,"뿀":5207,"뿁":5208,"뿂":5209,"뿃":5210,"뿄":5211,"뿅":5212,"뿆":5213,"뿇":5214,"뿈":5215,"뿉":5216,"뿊":5217,"뿋":5218,"뿌":5219,"뿍":5220,"뿎":5221,"뿏":5222,"뿐":5223,"뿑":5224,"뿒":5225,"뿓":5226,"뿔":5227,"뿕":5228,"뿖":5229,"뿗":5230,"뿘":5231,"뿙":5232,"뿚":5233,"뿛":5234,"뿜":5235,"뿝":5236,"뿞":5237,"뿟":5238,"뿠":5239,"뿡":5240,"뿢":5241,"뿣":5242,"뿤":5243,"뿥":5244,"뿦":5245,"뿧":5246,"뿨":5247,"뿩":5248,"뿪":5249,"뿫":5250,"뿬":5251,"뿭":5252,"뿮":5253,"뿯":5254,"뿰":5255,"뿱":5256,"뿲":5257,"뿳":5258,"뿴":5259,"뿵":5260,"뿶":5261,"뿷":5262,"뿸":5263,"뿹":5264,"뿺":5265,"뿻":5266,"뿼":5267,"뿽":5268,"뿾":5269,"뿿":5270,"쀀":5271,"쀁":5272,"쀂":5273,"쀃":5274,"쀄":5275,"쀅":5276,"쀆":5277,"쀇":5278,"쀈":5279,"쀉":5280,"쀊":5281,"쀋":5282,"쀌":5283,"쀍":5284,"쀎":5285,"쀏":5286,"쀐":5287,"쀑":5288,"쀒":5289,"쀓":5290,"쀔":5291,"쀕":5292,"쀖":5293,"쀗":5294,"쀘":5295,"쀙":5296,"쀚":5297,"쀛":5298,"쀜":5299,"쀝":5300,"쀞":5301,"쀟":5302,"쀠":5303,"쀡":5304,"쀢":5305,"쀣":5306,"쀤":5307,"쀥":5308,"쀦":5309,"쀧":5310,"쀨":5311,"쀩":5312,"쀪":5313,"쀫":5314,"쀬":5315,"쀭":5316,"쀮":5317,"쀯":5318,"쀰":5319,"쀱":5320,"쀲":5321,"쀳":5322,"쀴":5323,"쀵":5324,"쀶":5325,"쀷":5326,"쀸":5327,"쀹":5328,"쀺":5329,"쀻":5330,"쀼":5331,"쀽":5332,"쀾":5333,"쀿":5334,"쁀":5335,"쁁":5336,"쁂":5337,"쁃":5338,"쁄":5339,"쁅":5340,"쁆":5341,"쁇":5342,"쁈":5343,"쁉":5344,"쁊":5345,"쁋":5346,"쁌":5347,"쁍":5348,"쁎":5349,"쁏":5350,"쁐":5351,"쁑":5352,"쁒":5353,"쁓":5354,"쁔":5355,"쁕":5356,"쁖":5357,"쁗":5358,"쁘":5359,"쁙":5360,"쁚":5361,"쁛":5362,"쁜":5363,"쁝":5364,"쁞":5365,"쁟":5366,"쁠":5367,"쁡":5368,"쁢":5369,"쁣":5370,"쁤":5371,"쁥":5372,"쁦":5373,"쁧":5374,"쁨":5375,"쁩":5376,"쁪":5377,"쁫":5378,"쁬":5379,"쁭":5380,"쁮":5381,"쁯":5382,"쁰":5383,"쁱":5384,"쁲":5385,"쁳":5386,"쁴":5387,"쁵":5388,"쁶":5389,"쁷":5390,"쁸":5391,"쁹":5392,"쁺":5393,"쁻":5394,"쁼":5395,"쁽":5396,"쁾":5397,"쁿":5398,"삀":5399,"삁":5400,"삂":5401,"삃":5402,"삄":5403,"삅":5404,"삆":5405,"삇":5406,"삈":5407,"삉":5408,"삊":5409,"삋":5410,"삌":5411,"삍":5412,"삎":5413,"삏":5414,"삐":5415,"삑":5416,"삒":5417,"삓":5418,"삔":5419,"삕":5420,"삖":5421,"삗":5422,"삘":5423,"삙":5424,"삚":5425,"삛":5426,"삜":5427,"삝":5428,"삞":5429,"삟":5430,"삠":5431,"삡":5432,"삢":5433,"삣":5434,"삤":5435,"삥":5436,"삦":5437,"삧":5438,"삨":5439,"삩":5440,"삪":5441,"삫":5442,"사":5443,"삭":5444,"삮":5445,"삯":5446,"산":5447,"삱":5448,"삲":5449,"삳":5450,"살":5451,"삵":5452,"삶":5453,"삷":5454,"삸":5455,"삹":5456,"삺":5457,"삻":5458,"삼":5459,"삽":5460,"삾":5461,"삿":5462,"샀":5463,"상":5464,"샂":5465,"샃":5466,"샄":5467,"샅":5468,"샆":5469,"샇":5470,"새":5471,"색":5472,"샊":5473,"샋":5474,"샌":5475,"샍":5476,"샎":5477,"샏":5478,"샐":5479,"샑":5480,"샒":5481,"샓":5482,"샔":5483,"샕":5484,"샖":5485,"샗":5486,"샘":5487,"샙":5488,"샚":5489,"샛":5490,"샜":5491,"생":5492,"샞":5493,"샟":5494,"샠":5495,"샡":5496,"샢":5497,"샣":5498,"샤":5499,"샥":5500,"샦":5501,"샧":5502,"샨":5503,"샩":5504,"샪":5505,"샫":5506,"샬":5507,"샭":5508,"샮":5509,"샯":5510,"샰":5511,"샱":5512,"샲":5513,"샳":5514,"샴":5515,"샵":5516,"샶":5517,"샷":5518,"샸":5519,"샹":5520,"샺":5521,"샻":5522,"샼":5523,"샽":5524,"샾":5525,"샿":5526,"섀":5527,"섁":5528,"섂":5529,"섃":5530,"섄":5531,"섅":5532,"섆":5533,"섇":5534,"섈":5535,"섉":5536,"섊":5537,"섋":5538,"섌":5539,"섍":5540,"섎":5541,"섏":5542,"섐":5543,"섑":5544,"섒":5545,"섓":5546,"섔":5547,"섕":5548,"섖":5549,"섗":5550,"섘":5551,"섙":5552,"섚":5553,"섛":5554,"서":5555,"석":5556,"섞":5557,"섟":5558,"선":5559,"섡":5560,"섢":5561,"섣":5562,"설":5563,"섥":5564,"섦":5565,"섧":5566,"섨":5567,"섩":5568,"섪":5569,"섫":5570,"섬":5571,"섭":5572,"섮":5573,"섯":5574,"섰":5575,"성":5576,"섲":5577,"섳":5578,"섴":5579,"섵":5580,"섶":5581,"섷":5582,"세":5583,"섹":5584,"섺":5585,"섻":5586,"센":5587,"섽":5588,"섾":5589,"섿":5590,"셀":5591,"셁":5592,"셂":5593,"셃":5594,"셄":5595,"셅":5596,"셆":5597,"셇":5598,"셈":5599,"셉":5600,"셊":5601,"셋":5602,"셌":5603,"셍":5604,"셎":5605,"셏":5606,"셐":5607,"셑":5608,"셒":5609,"셓":5610,"셔":5611,"셕":5612,"셖":5613,"셗":5614,"션":5615,"셙":5616,"셚":5617,"셛":5618,"셜":5619,"셝":5620,"셞":5621,"셟":5622,"셠":5623,"셡":5624,"셢":5625,"셣":5626,"셤":5627,"셥":5628,"셦":5629,"셧":5630,"셨":5631,"셩":5632,"셪":5633,"셫":5634,"셬":5635,"셭":5636,"셮":5637,"셯":5638,"셰":5639,"셱":5640,"셲":5641,"셳":5642,"셴":5643,"셵":5644,"셶":5645,"셷":5646,"셸":5647,"셹":5648,"셺":5649,"셻":5650,"셼":5651,"셽":5652,"셾":5653,"셿":5654,"솀":5655,"솁":5656,"솂":5657,"솃":5658,"솄":5659,"솅":5660,"솆":5661,"솇":5662,"솈":5663,"솉":5664,"솊":5665,"솋":5666,"소":5667,"속":5668,"솎":5669,"솏":5670,"손":5671,"솑":5672,"솒":5673,"솓":5674,"솔":5675,"솕":5676,"솖":5677,"솗":5678,"솘":5679,"솙":5680,"솚":5681,"솛":5682,"솜":5683,"솝":5684,"솞":5685,"솟":5686,"솠":5687,"송":5688,"솢":5689,"솣":5690,"솤":5691,"솥":5692,"솦":5693,"솧":5694,"솨":5695,"솩":5696,"솪":5697,"솫":5698,"솬":5699,"솭":5700,"솮":5701,"솯":5702,"솰":5703,"솱":5704,"솲":5705,"솳":5706,"솴":5707,"솵":5708,"솶":5709,"솷":5710,"솸":5711,"솹":5712,"솺":5713,"솻":5714,"솼":5715,"솽":5716,"솾":5717,"솿":5718,"쇀":5719,"쇁":5720,"쇂":5721,"쇃":5722,"쇄":5723,"쇅":5724,"쇆":5725,"쇇":5726,"쇈":5727,"쇉":5728,"쇊":5729,"쇋":5730,"쇌":5731,"쇍":5732,"쇎":5733,"쇏":5734,"쇐":5735,"쇑":5736,"쇒":5737,"쇓":5738,"쇔":5739,"쇕":5740,"쇖":5741,"쇗":5742,"쇘":5743,"쇙":5744,"쇚":5745,"쇛":5746,"쇜":5747,"쇝":5748,"쇞":5749,"쇟":5750,"쇠":5751,"쇡":5752,"쇢":5753,"쇣":5754,"쇤":5755,"쇥":5756,"쇦":5757,"쇧":5758,"쇨":5759,"쇩":5760,"쇪":5761,"쇫":5762,"쇬":5763,"쇭":5764,"쇮":5765,"쇯":5766,"쇰":5767,"쇱":5768,"쇲":5769,"쇳":5770,"쇴":5771,"쇵":5772,"쇶":5773,"쇷":5774,"쇸":5775,"쇹":5776,"쇺":5777,"쇻":5778,"쇼":5779,"쇽":5780,"쇾":5781,"쇿":5782,"숀":5783,"숁":5784,"숂":5785,"숃":5786,"숄":5787,"숅":5788,"숆":5789,"숇":5790,"숈":5791,"숉":5792,"숊":5793,"숋":5794,"숌":5795,"숍":5796,"숎":5797,"숏":5798,"숐":5799,"숑":5800,"숒":5801,"숓":5802,"숔":5803,"숕":5804,"숖":5805,"숗":5806,"수":5807,"숙":5808,"숚":5809,"숛":5810,"순":5811,"숝":5812,"숞":5813,"숟":5814,"술":5815,"숡":5816,"숢":5817,"숣":5818,"숤":5819,"숥":5820,"숦":5821,"숧":5822,"숨":5823,"숩":5824,"숪":5825,"숫":5826,"숬":5827,"숭":5828,"숮":5829,"숯":5830,"숰":5831,"숱":5832,"숲":5833,"숳":5834,"숴":5835,"숵":5836,"숶":5837,"숷":5838,"숸":5839,"숹":5840,"숺":5841,"숻":5842,"숼":5843,"숽":5844,"숾":5845,"숿":5846,"쉀":5847,"쉁":5848,"쉂":5849,"쉃":5850,"쉄":5851,"쉅":5852,"쉆":5853,"쉇":5854,"쉈":5855,"쉉":5856,"쉊":5857,"쉋":5858,"쉌":5859,"쉍":5860,"쉎":5861,"쉏":5862,"쉐":5863,"쉑":5864,"쉒":5865,"쉓":5866,"쉔":5867,"쉕":5868,"쉖":5869,"쉗":5870,"쉘":5871,"쉙":5872,"쉚":5873,"쉛":5874,"쉜":5875,"쉝":5876,"쉞":5877,"쉟":5878,"쉠":5879,"쉡":5880,"쉢":5881,"쉣":5882,"쉤":5883,"쉥":5884,"쉦":5885,"쉧":5886,"쉨":5887,"쉩":5888,"쉪":5889,"쉫":5890,"쉬":5891,"쉭":5892,"쉮":5893,"쉯":5894,"쉰":5895,"쉱":5896,"쉲":5897,"쉳":5898,"쉴":5899,"쉵":5900,"쉶":5901,"쉷":5902,"쉸":5903,"쉹":5904,"쉺":5905,"쉻":5906,"쉼":5907,"쉽":5908,"쉾":5909,"쉿":5910,"슀":5911,"슁":5912,"슂":5913,"슃":5914,"슄":5915,"슅":5916,"슆":5917,"슇":5918,"슈":5919,"슉":5920,"슊":5921,"슋":5922,"슌":5923,"슍":5924,"슎":5925,"슏":5926,"슐":5927,"슑":5928,"슒":5929,"슓":5930,"슔":5931,"슕":5932,"슖":5933,"슗":5934,"슘":5935,"슙":5936,"슚":5937,"슛":5938,"슜":5939,"슝":5940,"슞":5941,"슟":5942,"슠":5943,"슡":5944,"슢":5945,"슣":5946,"스":5947,"슥":5948,"슦":5949,"슧":5950,"슨":5951,"슩":5952,"슪":5953,"슫":5954,"슬":5955,"슭":5956,"슮":5957,"슯":5958,"슰":5959,"슱":5960,"슲":5961,"슳":5962,"슴":5963,"습":5964,"슶":5965,"슷":5966,"슸":5967,"승":5968,"슺":5969,"슻":5970,"슼":5971,"슽":5972,"슾":5973,"슿":5974,"싀":5975,"싁":5976,"싂":5977,"싃":5978,"싄":5979,"싅":5980,"싆":5981,"싇":5982,"싈":5983,"싉":5984,"싊":5985,"싋":5986,"싌":5987,"싍":5988,"싎":5989,"싏":5990,"싐":5991,"싑":5992,"싒":5993,"싓":5994,"싔":5995,"싕":5996,"싖":5997,"싗":5998,"싘":5999,"싙":6000,"싚":6001,"싛":6002,"시":6003,"식":6004,"싞":6005,"싟":6006,"신":6007,"싡":6008,"싢":6009,"싣":6010,"실":6011,"싥":6012,"싦":6013,"싧":6014,"싨":6015,"싩":6016,"싪":6017,"싫":6018,"심":6019,"십":6020,"싮":6021,"싯":6022,"싰":6023,"싱":6024,"싲":6025,"싳":6026,"싴":6027,"싵":6028,"싶":6029,"싷":6030,"싸":6031,"싹":6032,"싺":6033,"싻":6034,"싼":6035,"싽":6036,"싾":6037,"싿":6038,"쌀":6039,"쌁":6040,"쌂":6041,"쌃":6042,"쌄":6043,"쌅":6044,"쌆":6045,"쌇":6046,"쌈":6047,"쌉":6048,"쌊":6049,"쌋":6050,"쌌":6051,"쌍":6052,"쌎":6053,"쌏":6054,"쌐":6055,"쌑":6056,"쌒":6057,"쌓":6058,"쌔":6059,"쌕":6060,"쌖":6061,"쌗":6062,"쌘":6063,"쌙":6064,"쌚":6065,"쌛":6066,"쌜":6067,"쌝":6068,"쌞":6069,"쌟":6070,"쌠":6071,"쌡":6072,"쌢":6073,"쌣":6074,"쌤":6075,"쌥":6076,"쌦":6077,"쌧":6078,"쌨":6079,"쌩":6080,"쌪":6081,"쌫":6082,"쌬":6083,"쌭":6084,"쌮":6085,"쌯":6086,"쌰":6087,"쌱":6088,"쌲":6089,"쌳":6090,"쌴":6091,"쌵":6092,"쌶":6093,"쌷":6094,"쌸":6095,"쌹":6096,"쌺":6097,"쌻":6098,"쌼":6099,"쌽":6100,"쌾":6101,"쌿":6102,"썀":6103,"썁":6104,"썂":6105,"썃":6106,"썄":6107,"썅":6108,"썆":6109,"썇":6110,"썈":6111,"썉":6112,"썊":6113,"썋":6114,"썌":6115,"썍":6116,"썎":6117,"썏":6118,"썐":6119,"썑":6120,"썒":6121,"썓":6122,"썔":6123,"썕":6124,"썖":6125,"썗":6126,"썘":6127,"썙":6128,"썚":6129,"썛":6130,"썜":6131,"썝":6132,"썞":6133,"썟":6134,"썠":6135,"썡":6136,"썢":6137,"썣":6138,"썤":6139,"썥":6140,"썦":6141,"썧":6142,"써":6143,"썩":6144,"썪":6145,"썫":6146,"썬":6147,"썭":6148,"썮":6149,"썯":6150,"썰":6151,"썱":6152,"썲":6153,"썳":6154,"썴":6155,"썵":6156,"썶":6157,"썷":6158,"썸":6159,"썹":6160,"썺":6161,"썻":6162,"썼":6163,"썽":6164,"썾":6165,"썿":6166,"쎀":6167,"쎁":6168,"쎂":6169,"쎃":6170,"쎄":6171,"쎅":6172,"쎆":6173,"쎇":6174,"쎈":6175,"쎉":6176,"쎊":6177,"쎋":6178,"쎌":6179,"쎍":6180,"쎎":6181,"쎏":6182,"쎐":6183,"쎑":6184,"쎒":6185,"쎓":6186,"쎔":6187,"쎕":6188,"쎖":6189,"쎗":6190,"쎘":6191,"쎙":6192,"쎚":6193,"쎛":6194,"쎜":6195,"쎝":6196,"쎞":6197,"쎟":6198,"쎠":6199,"쎡":6200,"쎢":6201,"쎣":6202,"쎤":6203,"쎥":6204,"쎦":6205,"쎧":6206,"쎨":6207,"쎩":6208,"쎪":6209,"쎫":6210,"쎬":6211,"쎭":6212,"쎮":6213,"쎯":6214,"쎰":6215,"쎱":6216,"쎲":6217,"쎳":6218,"쎴":6219,"쎵":6220,"쎶":6221,"쎷":6222,"쎸":6223,"쎹":6224,"쎺":6225,"쎻":6226,"쎼":6227,"쎽":6228,"쎾":6229,"쎿":6230,"쏀":6231,"쏁":6232,"쏂":6233,"쏃":6234,"쏄":6235,"쏅":6236,"쏆":6237,"쏇":6238,"쏈":6239,"쏉":6240,"쏊":6241,"쏋":6242,"쏌":6243,"쏍":6244,"쏎":6245,"쏏":6246,"쏐":6247,"쏑":6248,"쏒":6249,"쏓":6250,"쏔":6251,"쏕":6252,"쏖":6253,"쏗":6254,"쏘":6255,"쏙":6256,"쏚":6257,"쏛":6258,"쏜":6259,"쏝":6260,"쏞":6261,"쏟":6262,"쏠":6263,"쏡":6264,"쏢":6265,"쏣":6266,"쏤":6267,"쏥":6268,"쏦":6269,"쏧":6270,"쏨":6271,"쏩":6272,"쏪":6273,"쏫":6274,"쏬":6275,"쏭":6276,"쏮":6277,"쏯":6278,"쏰":6279,"쏱":6280,"쏲":6281,"쏳":6282,"쏴":6283,"쏵":6284,"쏶":6285,"쏷":6286,"쏸":6287,"쏹":6288,"쏺":6289,"쏻":6290,"쏼":6291,"쏽":6292,"쏾":6293,"쏿":6294,"쐀":6295,"쐁":6296,"쐂":6297,"쐃":6298,"쐄":6299,"쐅":6300,"쐆":6301,"쐇":6302,"쐈":6303,"쐉":6304,"쐊":6305,"쐋":6306,"쐌":6307,"쐍":6308,"쐎":6309,"쐏":6310,"쐐":6311,"쐑":6312,"쐒":6313,"쐓":6314,"쐔":6315,"쐕":6316,"쐖":6317,"쐗":6318,"쐘":6319,"쐙":6320,"쐚":6321,"쐛":6322,"쐜":6323,"쐝":6324,"쐞":6325,"쐟":6326,"쐠":6327,"쐡":6328,"쐢":6329,"쐣":6330,"쐤":6331,"쐥":6332,"쐦":6333,"쐧":6334,"쐨":6335,"쐩":6336,"쐪":6337,"쐫":6338,"쐬":6339,"쐭":6340,"쐮":6341,"쐯":6342,"쐰":6343,"쐱":6344,"쐲":6345,"쐳":6346,"쐴":6347,"쐵":6348,"쐶":6349,"쐷":6350,"쐸":6351,"쐹":6352,"쐺":6353,"쐻":6354,"쐼":6355,"쐽":6356,"쐾":6357,"쐿":6358,"쑀":6359,"쑁":6360,"쑂":6361,"쑃":6362,"쑄":6363,"쑅":6364,"쑆":6365,"쑇":6366,"쑈":6367,"쑉":6368,"쑊":6369,"쑋":6370,"쑌":6371,"쑍":6372,"쑎":6373,"쑏":6374,"쑐":6375,"쑑":6376,"쑒":6377,"쑓":6378,"쑔":6379,"쑕":6380,"쑖":6381,"쑗":6382,"쑘":6383,"쑙":6384,"쑚":6385,"쑛":6386,"쑜":6387,"쑝":6388,"쑞":6389,"쑟":6390,"쑠":6391,"쑡":6392,"쑢":6393,"쑣":6394,"쑤":6395,"쑥":6396,"쑦":6397,"쑧":6398,"쑨":6399,"쑩":6400,"쑪":6401,"쑫":6402,"쑬":6403,"쑭":6404,"쑮":6405,"쑯":6406,"쑰":6407,"쑱":6408,"쑲":6409,"쑳":6410,"쑴":6411,"쑵":6412,"쑶":6413,"쑷":6414,"쑸":6415,"쑹":6416,"쑺":6417,"쑻":6418,"쑼":6419,"쑽":6420,"쑾":6421,"쑿":6422,"쒀":6423,"쒁":6424,"쒂":6425,"쒃":6426,"쒄":6427,"쒅":6428,"쒆":6429,"쒇":6430,"쒈":6431,"쒉":6432,"쒊":6433,"쒋":6434,"쒌":6435,"쒍":6436,"쒎":6437,"쒏":6438,"쒐":6439,"쒑":6440,"쒒":6441,"쒓":6442,"쒔":6443,"쒕":6444,"쒖":6445,"쒗":6446,"쒘":6447,"쒙":6448,"쒚":6449,"쒛":6450,"쒜":6451,"쒝":6452,"쒞":6453,"쒟":6454,"쒠":6455,"쒡":6456,"쒢":6457,"쒣":6458,"쒤":6459,"쒥":6460,"쒦":6461,"쒧":6462,"쒨":6463,"쒩":6464,"쒪":6465,"쒫":6466,"쒬":6467,"쒭":6468,"쒮":6469,"쒯":6470,"쒰":6471,"쒱":6472,"쒲":6473,"쒳":6474,"쒴":6475,"쒵":6476,"쒶":6477,"쒷":6478,"쒸":6479,"쒹":6480,"쒺":6481,"쒻":6482,"쒼":6483,"쒽":6484,"쒾":6485,"쒿":6486,"쓀":6487,"쓁":6488,"쓂":6489,"쓃":6490,"쓄":6491,"쓅":6492,"쓆":6493,"쓇":6494,"쓈":6495,"쓉":6496,"쓊":6497,"쓋":6498,"쓌":6499,"쓍":6500,"쓎":6501,"쓏":6502,"쓐":6503,"쓑":6504,"쓒":6505,"쓓":6506,"쓔":6507,"쓕":6508,"쓖":6509,"쓗":6510,"쓘":6511,"쓙":6512,"쓚":6513,"쓛":6514,"쓜":6515,"쓝":6516,"쓞":6517,"쓟":6518,"쓠":6519,"쓡":6520,"쓢":6521,"쓣":6522,"쓤":6523,"쓥":6524,"쓦":6525,"쓧":6526,"쓨":6527,"쓩":6528,"쓪":6529,"쓫":6530,"쓬":6531,"쓭":6532,"쓮":6533,"쓯":6534,"쓰":6535,"쓱":6536,"쓲":6537,"쓳":6538,"쓴":6539,"쓵":6540,"쓶":6541,"쓷":6542,"쓸":6543,"쓹":6544,"쓺":6545,"쓻":6546,"쓼":6547,"쓽":6548,"쓾":6549,"쓿":6550,"씀":6551,"씁":6552,"씂":6553,"씃":6554,"씄":6555,"씅":6556,"씆":6557,"씇":6558,"씈":6559,"씉":6560,"씊":6561,"씋":6562,"씌":6563,"씍":6564,"씎":6565,"씏":6566,"씐":6567,"씑":6568,"씒":6569,"씓":6570,"씔":6571,"씕":6572,"씖":6573,"씗":6574,"씘":6575,"씙":6576,"씚":6577,"씛":6578,"씜":6579,"씝":6580,"씞":6581,"씟":6582,"씠":6583,"씡":6584,"씢":6585,"씣":6586,"씤":6587,"씥":6588,"씦":6589,"씧":6590,"씨":6591,"씩":6592,"씪":6593,"씫":6594,"씬":6595,"씭":6596,"씮":6597,"씯":6598,"씰":6599,"씱":6600,"씲":6601,"씳":6602,"씴":6603,"씵":6604,"씶":6605,"씷":6606,"씸":6607,"씹":6608,"씺":6609,"씻":6610,"씼":6611,"씽":6612,"씾":6613,"씿":6614,"앀":6615,"앁":6616,"앂":6617,"앃":6618,"아":6619,"악":6620,"앆":6621,"앇":6622,"안":6623,"앉":6624,"않":6625,"앋":6626,"알":6627,"앍":6628,"앎":6629,"앏":6630,"앐":6631,"앑":6632,"앒":6633,"앓":6634,"암":6635,"압":6636,"앖":6637,"앗":6638,"았":6639,"앙":6640,"앚":6641,"앛":6642,"앜":6643,"앝":6644,"앞":6645,"앟":6646,"애":6647,"액":6648,"앢":6649,"앣":6650,"앤":6651,"앥":6652,"앦":6653,"앧":6654,"앨":6655,"앩":6656,"앪":6657,"앫":6658,"앬":6659,"앭":6660,"앮":6661,"앯":6662,"앰":6663,"앱":6664,"앲":6665,"앳":6666,"앴":6667,"앵":6668,"앶":6669,"앷":6670,"앸":6671,"앹":6672,"앺":6673,"앻":6674,"야":6675,"약":6676,"앾":6677,"앿":6678,"얀":6679,"얁":6680,"얂":6681,"얃":6682,"얄":6683,"얅":6684,"얆":6685,"얇":6686,"얈":6687,"얉":6688,"얊":6689,"얋":6690,"얌":6691,"얍":6692,"얎":6693,"얏":6694,"얐":6695,"양":6696,"얒":6697,"얓":6698,"얔":6699,"얕":6700,"얖":6701,"얗":6702,"얘":6703,"얙":6704,"얚":6705,"얛":6706,"얜":6707,"얝":6708,"얞":6709,"얟":6710,"얠":6711,"얡":6712,"얢":6713,"얣":6714,"얤":6715,"얥":6716,"얦":6717,"얧":6718,"얨":6719,"얩":6720,"얪":6721,"얫":6722,"얬":6723,"얭":6724,"얮":6725,"얯":6726,"얰":6727,"얱":6728,"얲":6729,"얳":6730,"어":6731,"억":6732,"얶":6733,"얷":6734,"언":6735,"얹":6736,"얺":6737,"얻":6738,"얼":6739,"얽":6740,"얾":6741,"얿":6742,"엀":6743,"엁":6744,"엂":6745,"엃":6746,"엄":6747,"업":6748,"없":6749,"엇":6750,"었":6751,"엉":6752,"엊":6753,"엋":6754,"엌":6755,"엍":6756,"엎":6757,"엏":6758,"에":6759,"엑":6760,"엒":6761,"엓":6762,"엔":6763,"엕":6764,"엖":6765,"엗":6766,"엘":6767,"엙":6768,"엚":6769,"엛":6770,"엜":6771,"엝":6772,"엞":6773,"엟":6774,"엠":6775,"엡":6776,"엢":6777,"엣":6778,"엤":6779,"엥":6780,"엦":6781,"엧":6782,"엨":6783,"엩":6784,"엪":6785,"엫":6786,"여":6787,"역":6788,"엮":6789,"엯":6790,"연":6791,"엱":6792,"엲":6793,"엳":6794,"열":6795,"엵":6796,"엶":6797,"엷":6798,"엸":6799,"엹":6800,"엺":6801,"엻":6802,"염":6803,"엽":6804,"엾":6805,"엿":6806,"였":6807,"영":6808,"옂":6809,"옃":6810,"옄":6811,"옅":6812,"옆":6813,"옇":6814,"예":6815,"옉":6816,"옊":6817,"옋":6818,"옌":6819,"옍":6820,"옎":6821,"옏":6822,"옐":6823,"옑":6824,"옒":6825,"옓":6826,"옔":6827,"옕":6828,"옖":6829,"옗":6830,"옘":6831,"옙":6832,"옚":6833,"옛":6834,"옜":6835,"옝":6836,"옞":6837,"옟":6838,"옠":6839,"옡":6840,"옢":6841,"옣":6842,"오":6843,"옥":6844,"옦":6845,"옧":6846,"온":6847,"옩":6848,"옪":6849,"옫":6850,"올":6851,"옭":6852,"옮":6853,"옯":6854,"옰":6855,"옱":6856,"옲":6857,"옳":6858,"옴":6859,"옵":6860,"옶":6861,"옷":6862,"옸":6863,"옹":6864,"옺":6865,"옻":6866,"옼":6867,"옽":6868,"옾":6869,"옿":6870,"와":6871,"왁":6872,"왂":6873,"왃":6874,"완":6875,"왅":6876,"왆":6877,"왇":6878,"왈":6879,"왉":6880,"왊":6881,"왋":6882,"왌":6883,"왍":6884,"왎":6885,"왏":6886,"왐":6887,"왑":6888,"왒":6889,"왓":6890,"왔":6891,"왕":6892,"왖":6893,"왗":6894,"왘":6895,"왙":6896,"왚":6897,"왛":6898,"왜":6899,"왝":6900,"왞":6901,"왟":6902,"왠":6903,"왡":6904,"왢":6905,"왣":6906,"왤":6907,"왥":6908,"왦":6909,"왧":6910,"왨":6911,"왩":6912,"왪":6913,"왫":6914,"왬":6915,"왭":6916,"왮":6917,"왯":6918,"왰":6919,"왱":6920,"왲":6921,"왳":6922,"왴":6923,"왵":6924,"왶":6925,"왷":6926,"외":6927,"왹":6928,"왺":6929,"왻":6930,"왼":6931,"왽":6932,"왾":6933,"왿":6934,"욀":6935,"욁":6936,"욂":6937,"욃":6938,"욄":6939,"욅":6940,"욆":6941,"욇":6942,"욈":6943,"욉":6944,"욊":6945,"욋":6946,"욌":6947,"욍":6948,"욎":6949,"욏":6950,"욐":6951,"욑":6952,"욒":6953,"욓":6954,"요":6955,"욕":6956,"욖":6957,"욗":6958,"욘":6959,"욙":6960,"욚":6961,"욛":6962,"욜":6963,"욝":6964,"욞":6965,"욟":6966,"욠":6967,"욡":6968,"욢":6969,"욣":6970,"욤":6971,"욥":6972,"욦":6973,"욧":6974,"욨":6975,"용":6976,"욪":6977,"욫":6978,"욬":6979,"욭":6980,"욮":6981,"욯":6982,"우":6983,"욱":6984,"욲":6985,"욳":6986,"운":6987,"욵":6988,"욶":6989,"욷":6990,"울":6991,"욹":6992,"욺":6993,"욻":6994,"욼":6995,"욽":6996,"욾":6997,"욿":6998,"움":6999,"웁":7000,"웂":7001,"웃":7002,"웄":7003,"웅":7004,"웆":7005,"웇":7006,"웈":7007,"웉":7008,"웊":7009,"웋":7010,"워":7011,"웍":7012,"웎":7013,"웏":7014,"원":7015,"웑":7016,"웒":7017,"웓":7018,"월":7019,"웕":7020,"웖":7021,"웗":7022,"웘":7023,"웙":7024,"웚":7025,"웛":7026,"웜":7027,"웝":7028,"웞":7029,"웟":7030,"웠":7031,"웡":7032,"웢":7033,"웣":7034,"웤":7035,"웥":7036,"웦":7037,"웧":7038,"웨":7039,"웩":7040,"웪":7041,"웫":7042,"웬":7043,"웭":7044,"웮":7045,"웯":7046,"웰":7047,"웱":7048,"웲":7049,"웳":7050,"웴":7051,"웵":7052,"웶":7053,"웷":7054,"웸":7055,"웹":7056,"웺":7057,"웻":7058,"웼":7059,"웽":7060,"웾":7061,"웿":7062,"윀":7063,"윁":7064,"윂":7065,"윃":7066,"위":7067,"윅":7068,"윆":7069,"윇":7070,"윈":7071,"윉":7072,"윊":7073,"윋":7074,"윌":7075,"윍":7076,"윎":7077,"윏":7078,"윐":7079,"윑":7080,"윒":7081,"윓":7082,"윔":7083,"윕":7084,"윖":7085,"윗":7086,"윘":7087,"윙":7088,"윚":7089,"윛":7090,"윜":7091,"윝":7092,"윞":7093,"윟":7094,"유":7095,"육":7096,"윢":7097,"윣":7098,"윤":7099,"윥":7100,"윦":7101,"윧":7102,"율":7103,"윩":7104,"윪":7105,"윫":7106,"윬":7107,"윭":7108,"윮":7109,"윯":7110,"윰":7111,"윱":7112,"윲":7113,"윳":7114,"윴":7115,"융":7116,"윶":7117,"윷":7118,"윸":7119,"윹":7120,"윺":7121,"윻":7122,"으":7123,"윽":7124,"윾":7125,"윿":7126,"은":7127,"읁":7128,"읂":7129,"읃":7130,"을":7131,"읅":7132,"읆":7133,"읇":7134,"읈":7135,"읉":7136,"읊":7137,"읋":7138,"음":7139,"읍":7140,"읎":7141,"읏":7142,"읐":7143,"응":7144,"읒":7145,"읓":7146,"읔":7147,"읕":7148,"읖":7149,"읗":7150,"의":7151,"읙":7152,"읚":7153,"읛":7154,"읜":7155,"읝":7156,"읞":7157,"읟":7158,"읠":7159,"읡":7160,"읢":7161,"읣":7162,"읤":7163,"읥":7164,"읦":7165,"읧":7166,"읨":7167,"읩":7168,"읪":7169,"읫":7170,"읬":7171,"읭":7172,"읮":7173,"읯":7174,"읰":7175,"읱":7176,"읲":7177,"읳":7178,"이":7179,"익":7180,"읶":7181,"읷":7182,"인":7183,"읹":7184,"읺":7185,"읻":7186,"일":7187,"읽":7188,"읾":7189,"읿":7190,"잀":7191,"잁":7192,"잂":7193,"잃":7194,"임":7195,"입":7196,"잆":7197,"잇":7198,"있":7199,"잉":7200,"잊":7201,"잋":7202,"잌":7203,"잍":7204,"잎":7205,"잏":7206,"자":7207,"작":7208,"잒":7209,"잓":7210,"잔":7211,"잕":7212,"잖":7213,"잗":7214,"잘":7215,"잙":7216,"잚":7217,"잛":7218,"잜":7219,"잝":7220,"잞":7221,"잟":7222,"잠":7223,"잡":7224,"잢":7225,"잣":7226,"잤":7227,"장":7228,"잦":7229,"잧":7230,"잨":7231,"잩":7232,"잪":7233,"잫":7234,"재":7235,"잭":7236,"잮":7237,"잯":7238,"잰":7239,"잱":7240,"잲":7241,"잳":7242,"잴":7243,"잵":7244,"잶":7245,"잷":7246,"잸":7247,"잹":7248,"잺":7249,"잻":7250,"잼":7251,"잽":7252,"잾":7253,"잿":7254,"쟀":7255,"쟁":7256,"쟂":7257,"쟃":7258,"쟄":7259,"쟅":7260,"쟆":7261,"쟇":7262,"쟈":7263,"쟉":7264,"쟊":7265,"쟋":7266,"쟌":7267,"쟍":7268,"쟎":7269,"쟏":7270,"쟐":7271,"쟑":7272,"쟒":7273,"쟓":7274,"쟔":7275,"쟕":7276,"쟖":7277,"쟗":7278,"쟘":7279,"쟙":7280,"쟚":7281,"쟛":7282,"쟜":7283,"쟝":7284,"쟞":7285,"쟟":7286,"쟠":7287,"쟡":7288,"쟢":7289,"쟣":7290,"쟤":7291,"쟥":7292,"쟦":7293,"쟧":7294,"쟨":7295,"쟩":7296,"쟪":7297,"쟫":7298,"쟬":7299,"쟭":7300,"쟮":7301,"쟯":7302,"쟰":7303,"쟱":7304,"쟲":7305,"쟳":7306,"쟴":7307,"쟵":7308,"쟶":7309,"쟷":7310,"쟸":7311,"쟹":7312,"쟺":7313,"쟻":7314,"쟼":7315,"쟽":7316,"쟾":7317,"쟿":7318,"저":7319,"적":7320,"젂":7321,"젃":7322,"전":7323,"젅":7324,"젆":7325,"젇":7326,"절":7327,"젉":7328,"젊":7329,"젋":7330,"젌":7331,"젍":7332,"젎":7333,"젏":7334,"점":7335,"접":7336,"젒":7337,"젓":7338,"젔":7339,"정":7340,"젖":7341,"젗":7342,"젘":7343,"젙":7344,"젚":7345,"젛":7346,"제":7347,"젝":7348,"젞":7349,"젟":7350,"젠":7351,"젡":7352,"젢":7353,"젣":7354,"젤":7355,"젥":7356,"젦":7357,"젧":7358,"젨":7359,"젩":7360,"젪":7361,"젫":7362,"젬":7363,"젭":7364,"젮":7365,"젯":7366,"젰":7367,"젱":7368,"젲":7369,"젳":7370,"젴":7371,"젵":7372,"젶":7373,"젷":7374,"져":7375,"젹":7376,"젺":7377,"젻":7378,"젼":7379,"젽":7380,"젾":7381,"젿":7382,"졀":7383,"졁":7384,"졂":7385,"졃":7386,"졄":7387,"졅":7388,"졆":7389,"졇":7390,"졈":7391,"졉":7392,"졊":7393,"졋":7394,"졌":7395,"졍":7396,"졎":7397,"졏":7398,"졐":7399,"졑":7400,"졒":7401,"졓":7402,"졔":7403,"졕":7404,"졖":7405,"졗":7406,"졘":7407,"졙":7408,"졚":7409,"졛":7410,"졜":7411,"졝":7412,"졞":7413,"졟":7414,"졠":7415,"졡":7416,"졢":7417,"졣":7418,"졤":7419,"졥":7420,"졦":7421,"졧":7422,"졨":7423,"졩":7424,"졪":7425,"졫":7426,"졬":7427,"졭":7428,"졮":7429,"졯":7430,"조":7431,"족":7432,"졲":7433,"졳":7434,"존":7435,"졵":7436,"졶":7437,"졷":7438,"졸":7439,"졹":7440,"졺":7441,"졻":7442,"졼":7443,"졽":7444,"졾":7445,"졿":7446,"좀":7447,"좁":7448,"좂":7449,"좃":7450,"좄":7451,"종":7452,"좆":7453,"좇":7454,"좈":7455,"좉":7456,"좊":7457,"좋":7458,"좌":7459,"좍":7460,"좎":7461,"좏":7462,"좐":7463,"좑":7464,"좒":7465,"좓":7466,"좔":7467,"좕":7468,"좖":7469,"좗":7470,"좘":7471,"좙":7472,"좚":7473,"좛":7474,"좜":7475,"좝":7476,"좞":7477,"좟":7478,"좠":7479,"좡":7480,"좢":7481,"좣":7482,"좤":7483,"좥":7484,"좦":7485,"좧":7486,"좨":7487,"좩":7488,"좪":7489,"좫":7490,"좬":7491,"좭":7492,"좮":7493,"좯":7494,"좰":7495,"좱":7496,"좲":7497,"좳":7498,"좴":7499,"좵":7500,"좶":7501,"좷":7502,"좸":7503,"좹":7504,"좺":7505,"좻":7506,"좼":7507,"좽":7508,"좾":7509,"좿":7510,"죀":7511,"죁":7512,"죂":7513,"죃":7514,"죄":7515,"죅":7516,"죆":7517,"죇":7518,"죈":7519,"죉":7520,"죊":7521,"죋":7522,"죌":7523,"죍":7524,"죎":7525,"죏":7526,"죐":7527,"죑":7528,"죒":7529,"죓":7530,"죔":7531,"죕":7532,"죖":7533,"죗":7534,"죘":7535,"죙":7536,"죚":7537,"죛":7538,"죜":7539,"죝":7540,"죞":7541,"죟":7542,"죠":7543,"죡":7544,"죢":7545,"죣":7546,"죤":7547,"죥":7548,"죦":7549,"죧":7550,"죨":7551,"죩":7552,"죪":7553,"죫":7554,"죬":7555,"죭":7556,"죮":7557,"죯":7558,"죰":7559,"죱":7560,"죲":7561,"죳":7562,"죴":7563,"죵":7564,"죶":7565,"죷":7566,"죸":7567,"죹":7568,"죺":7569,"죻":7570,"주":7571,"죽":7572,"죾":7573,"죿":7574,"준":7575,"줁":7576,"줂":7577,"줃":7578,"줄":7579,"줅":7580,"줆":7581,"줇":7582,"줈":7583,"줉":7584,"줊":7585,"줋":7586,"줌":7587,"줍":7588,"줎":7589,"줏":7590,"줐":7591,"중":7592,"줒":7593,"줓":7594,"줔":7595,"줕":7596,"줖":7597,"줗":7598,"줘":7599,"줙":7600,"줚":7601,"줛":7602,"줜":7603,"줝":7604,"줞":7605,"줟":7606,"줠":7607,"줡":7608,"줢":7609,"줣":7610,"줤":7611,"줥":7612,"줦":7613,"줧":7614,"줨":7615,"줩":7616,"줪":7617,"줫":7618,"줬":7619,"줭":7620,"줮":7621,"줯":7622,"줰":7623,"줱":7624,"줲":7625,"줳":7626,"줴":7627,"줵":7628,"줶":7629,"줷":7630,"줸":7631,"줹":7632,"줺":7633,"줻":7634,"줼":7635,"줽":7636,"줾":7637,"줿":7638,"쥀":7639,"쥁":7640,"쥂":7641,"쥃":7642,"쥄":7643,"쥅":7644,"쥆":7645,"쥇":7646,"쥈":7647,"쥉":7648,"쥊":7649,"쥋":7650,"쥌":7651,"쥍":7652,"쥎":7653,"쥏":7654,"쥐":7655,"쥑":7656,"쥒":7657,"쥓":7658,"쥔":7659,"쥕":7660,"쥖":7661,"쥗":7662,"쥘":7663,"쥙":7664,"쥚":7665,"쥛":7666,"쥜":7667,"쥝":7668,"쥞":7669,"쥟":7670,"쥠":7671,"쥡":7672,"쥢":7673,"쥣":7674,"쥤":7675,"쥥":7676,"쥦":7677,"쥧":7678,"쥨":7679,"쥩":7680,"쥪":7681,"쥫":7682,"쥬":7683,"쥭":7684,"쥮":7685,"쥯":7686,"쥰":7687,"쥱":7688,"쥲":7689,"쥳":7690,"쥴":7691,"쥵":7692,"쥶":7693,"쥷":7694,"쥸":7695,"쥹":7696,"쥺":7697,"쥻":7698,"쥼":7699,"쥽":7700,"쥾":7701,"쥿":7702,"즀":7703,"즁":7704,"즂":7705,"즃":7706,"즄":7707,"즅":7708,"즆":7709,"즇":7710,"즈":7711,"즉":7712,"즊":7713,"즋":7714,"즌":7715,"즍":7716,"즎":7717,"즏":7718,"즐":7719,"즑":7720,"즒":7721,"즓":7722,"즔":7723,"즕":7724,"즖":7725,"즗":7726,"즘":7727,"즙":7728,"즚":7729,"즛":7730,"즜":7731,"증":7732,"즞":7733,"즟":7734,"즠":7735,"즡":7736,"즢":7737,"즣":7738,"즤":7739,"즥":7740,"즦":7741,"즧":7742,"즨":7743,"즩":7744,"즪":7745,"즫":7746,"즬":7747,"즭":7748,"즮":7749,"즯":7750,"즰":7751,"즱":7752,"즲":7753,"즳":7754,"즴":7755,"즵":7756,"즶":7757,"즷":7758,"즸":7759,"즹":7760,"즺":7761,"즻":7762,"즼":7763,"즽":7764,"즾":7765,"즿":7766,"지":7767,"직":7768,"짂":7769,"짃":7770,"진":7771,"짅":7772,"짆":7773,"짇":7774,"질":7775,"짉":7776,"짊":7777,"짋":7778,"짌":7779,"짍":7780,"짎":7781,"짏":7782,"짐":7783,"집":7784,"짒":7785,"짓":7786,"짔":7787,"징":7788,"짖":7789,"짗":7790,"짘":7791,"짙":7792,"짚":7793,"짛":7794,"짜":7795,"짝":7796,"짞":7797,"짟":7798,"짠":7799,"짡":7800,"짢":7801,"짣":7802,"짤":7803,"짥":7804,"짦":7805,"짧":7806,"짨":7807,"짩":7808,"짪":7809,"짫":7810,"짬":7811,"짭":7812,"짮":7813,"짯":7814,"짰":7815,"짱":7816,"짲":7817,"짳":7818,"짴":7819,"짵":7820,"짶":7821,"짷":7822,"째":7823,"짹":7824,"짺":7825,"짻":7826,"짼":7827,"짽":7828,"짾":7829,"짿":7830,"쨀":7831,"쨁":7832,"쨂":7833,"쨃":7834,"쨄":7835,"쨅":7836,"쨆":7837,"쨇":7838,"쨈":7839,"쨉":7840,"쨊":7841,"쨋":7842,"쨌":7843,"쨍":7844,"쨎":7845,"쨏":7846,"쨐":7847,"쨑":7848,"쨒":7849,"쨓":7850,"쨔":7851,"쨕":7852,"쨖":7853,"쨗":7854,"쨘":7855,"쨙":7856,"쨚":7857,"쨛":7858,"쨜":7859,"쨝":7860,"쨞":7861,"쨟":7862,"쨠":7863,"쨡":7864,"쨢":7865,"쨣":7866,"쨤":7867,"쨥":7868,"쨦":7869,"쨧":7870,"쨨":7871,"쨩":7872,"쨪":7873,"쨫":7874,"쨬":7875,"쨭":7876,"쨮":7877,"쨯":7878,"쨰":7879,"쨱":7880,"쨲":7881,"쨳":7882,"쨴":7883,"쨵":7884,"쨶":7885,"쨷":7886,"쨸":7887,"쨹":7888,"쨺":7889,"쨻":7890,"쨼":7891,"쨽":7892,"쨾":7893,"쨿":7894,"쩀":7895,"쩁":7896,"쩂":7897,"쩃":7898,"쩄":7899,"쩅":7900,"쩆":7901,"쩇":7902,"쩈":7903,"쩉":7904,"쩊":7905,"쩋":7906,"쩌":7907,"쩍":7908,"쩎":7909,"쩏":7910,"쩐":7911,"쩑":7912,"쩒":7913,"쩓":7914,"쩔":7915,"쩕":7916,"쩖":7917,"쩗":7918,"쩘":7919,"쩙":7920,"쩚":7921,"쩛":7922,"쩜":7923,"쩝":7924,"쩞":7925,"쩟":7926,"쩠":7927,"쩡":7928,"쩢":7929,"쩣":7930,"쩤":7931,"쩥":7932,"쩦":7933,"쩧":7934,"쩨":7935,"쩩":7936,"쩪":7937,"쩫":7938,"쩬":7939,"쩭":7940,"쩮":7941,"쩯":7942,"쩰":7943,"쩱":7944,"쩲":7945,"쩳":7946,"쩴":7947,"쩵":7948,"쩶":7949,"쩷":7950,"쩸":7951,"쩹":7952,"쩺":7953,"쩻":7954,"쩼":7955,"쩽":7956,"쩾":7957,"쩿":7958,"쪀":7959,"쪁":7960,"쪂":7961,"쪃":7962,"쪄":7963,"쪅":7964,"쪆":7965,"쪇":7966,"쪈":7967,"쪉":7968,"쪊":7969,"쪋":7970,"쪌":7971,"쪍":7972,"쪎":7973,"쪏":7974,"쪐":7975,"쪑":7976,"쪒":7977,"쪓":7978,"쪔":7979,"쪕":7980,"쪖":7981,"쪗":7982,"쪘":7983,"쪙":7984,"쪚":7985,"쪛":7986,"쪜":7987,"쪝":7988,"쪞":7989,"쪟":7990,"쪠":7991,"쪡":7992,"쪢":7993,"쪣":7994,"쪤":7995,"쪥":7996,"쪦":7997,"쪧":7998,"쪨":7999,"쪩":8000,"쪪":8001,"쪫":8002,"쪬":8003,"쪭":8004,"쪮":8005,"쪯":8006,"쪰":8007,"쪱":8008,"쪲":8009,"쪳":8010,"쪴":8011,"쪵":8012,"쪶":8013,"쪷":8014,"쪸":8015,"쪹":8016,"쪺":8017,"쪻":8018,"쪼":8019,"쪽":8020,"쪾":8021,"쪿":8022,"쫀":8023,"쫁":8024,"쫂":8025,"쫃":8026,"쫄":8027,"쫅":8028,"쫆":8029,"쫇":8030,"쫈":8031,"쫉":8032,"쫊":8033,"쫋":8034,"쫌":8035,"쫍":8036,"쫎":8037,"쫏":8038,"쫐":8039,"쫑":8040,"쫒":8041,"쫓":8042,"쫔":8043,"쫕":8044,"쫖":8045,"쫗":8046,"쫘":8047,"쫙":8048,"쫚":8049,"쫛":8050,"쫜":8051,"쫝":8052,"쫞":8053,"쫟":8054,"쫠":8055,"쫡":8056,"쫢":8057,"쫣":8058,"쫤":8059,"쫥":8060,"쫦":8061,"쫧":8062,"쫨":8063,"쫩":8064,"쫪":8065,"쫫":8066,"쫬":8067,"쫭":8068,"쫮":8069,"쫯":8070,"쫰":8071,"쫱":8072,"쫲":8073,"쫳":8074,"쫴":8075,"쫵":8076,"쫶":8077,"쫷":8078,"쫸":8079,"쫹":8080,"쫺":8081,"쫻":8082,"쫼":8083,"쫽":8084,"쫾":8085,"쫿":8086,"쬀":8087,"쬁":8088,"쬂":8089,"쬃":8090,"쬄":8091,"쬅":8092,"쬆":8093,"쬇":8094,"쬈":8095,"쬉":8096,"쬊":8097,"쬋":8098,"쬌":8099,"쬍":8100,"쬎":8101,"쬏":8102,"쬐":8103,"쬑":8104,"쬒":8105,"쬓":8106,"쬔":8107,"쬕":8108,"쬖":8109,"쬗":8110,"쬘":8111,"쬙":8112,"쬚":8113,"쬛":8114,"쬜":8115,"쬝":8116,"쬞":8117,"쬟":8118,"쬠":8119,"쬡":8120,"쬢":8121,"쬣":8122,"쬤":8123,"쬥":8124,"쬦":8125,"쬧":8126,"쬨":8127,"쬩":8128,"쬪":8129,"쬫":8130,"쬬":8131,"쬭":8132,"쬮":8133,"쬯":8134,"쬰":8135,"쬱":8136,"쬲":8137,"쬳":8138,"쬴":8139,"쬵":8140,"쬶":8141,"쬷":8142,"쬸":8143,"쬹":8144,"쬺":8145,"쬻":8146,"쬼":8147,"쬽":8148,"쬾":8149,"쬿":8150,"쭀":8151,"쭁":8152,"쭂":8153,"쭃":8154,"쭄":8155,"쭅":8156,"쭆":8157,"쭇":8158,"쭈":8159,"쭉":8160,"쭊":8161,"쭋":8162,"쭌":8163,"쭍":8164,"쭎":8165,"쭏":8166,"쭐":8167,"쭑":8168,"쭒":8169,"쭓":8170,"쭔":8171,"쭕":8172,"쭖":8173,"쭗":8174,"쭘":8175,"쭙":8176,"쭚":8177,"쭛":8178,"쭜":8179,"쭝":8180,"쭞":8181,"쭟":8182,"쭠":8183,"쭡":8184,"쭢":8185,"쭣":8186,"쭤":8187,"쭥":8188,"쭦":8189,"쭧":8190,"쭨":8191,"쭩":8192,"쭪":8193,"쭫":8194,"쭬":8195,"쭭":8196,"쭮":8197,"쭯":8198,"쭰":8199,"쭱":8200,"쭲":8201,"쭳":8202,"쭴":8203,"쭵":8204,"쭶":8205,"쭷":8206,"쭸":8207,"쭹":8208,"쭺":8209,"쭻":8210,"쭼":8211,"쭽":8212,"쭾":8213,"쭿":8214,"쮀":8215,"쮁":8216,"쮂":8217,"쮃":8218,"쮄":8219,"쮅":8220,"쮆":8221,"쮇":8222,"쮈":8223,"쮉":8224,"쮊":8225,"쮋":8226,"쮌":8227,"쮍":8228,"쮎":8229,"쮏":8230,"쮐":8231,"쮑":8232,"쮒":8233,"쮓":8234,"쮔":8235,"쮕":8236,"쮖":8237,"쮗":8238,"쮘":8239,"쮙":8240,"쮚":8241,"쮛":8242,"쮜":8243,"쮝":8244,"쮞":8245,"쮟":8246,"쮠":8247,"쮡":8248,"쮢":8249,"쮣":8250,"쮤":8251,"쮥":8252,"쮦":8253,"쮧":8254,"쮨":8255,"쮩":8256,"쮪":8257,"쮫":8258,"쮬":8259,"쮭":8260,"쮮":8261,"쮯":8262,"쮰":8263,"쮱":8264,"쮲":8265,"쮳":8266,"쮴":8267,"쮵":8268,"쮶":8269,"쮷":8270,"쮸":8271,"쮹":8272,"쮺":8273,"쮻":8274,"쮼":8275,"쮽":8276,"쮾":8277,"쮿":8278,"쯀":8279,"쯁":8280,"쯂":8281,"쯃":8282,"쯄":8283,"쯅":8284,"쯆":8285,"쯇":8286,"쯈":8287,"쯉":8288,"쯊":8289,"쯋":8290,"쯌":8291,"쯍":8292,"쯎":8293,"쯏":8294,"쯐":8295,"쯑":8296,"쯒":8297,"쯓":8298,"쯔":8299,"쯕":8300,"쯖":8301,"쯗":8302,"쯘":8303,"쯙":8304,"쯚":8305,"쯛":8306,"쯜":8307,"쯝":8308,"쯞":8309,"쯟":8310,"쯠":8311,"쯡":8312,"쯢":8313,"쯣":8314,"쯤":8315,"쯥":8316,"쯦":8317,"쯧":8318,"쯨":8319,"쯩":8320,"쯪":8321,"쯫":8322,"쯬":8323,"쯭":8324,"쯮":8325,"쯯":8326,"쯰":8327,"쯱":8328,"쯲":8329,"쯳":8330,"쯴":8331,"쯵":8332,"쯶":8333,"쯷":8334,"쯸":8335,"쯹":8336,"쯺":8337,"쯻":8338,"쯼":8339,"쯽":8340,"쯾":8341,"쯿":8342,"찀":8343,"찁":8344,"찂":8345,"찃":8346,"찄":8347,"찅":8348,"찆":8349,"찇":8350,"찈":8351,"찉":8352,"찊":8353,"찋":8354,"찌":8355,"찍":8356,"찎":8357,"찏":8358,"찐":8359,"찑":8360,"찒":8361,"찓":8362,"찔":8363,"찕":8364,"찖":8365,"찗":8366,"찘":8367,"찙":8368,"찚":8369,"찛":8370,"찜":8371,"찝":8372,"찞":8373,"찟":8374,"찠":8375,"찡":8376,"찢":8377,"찣":8378,"찤":8379,"찥":8380,"찦":8381,"찧":8382,"차":8383,"착":8384,"찪":8385,"찫":8386,"찬":8387,"찭":8388,"찮":8389,"찯":8390,"찰":8391,"찱":8392,"찲":8393,"찳":8394,"찴":8395,"찵":8396,"찶":8397,"찷":8398,"참":8399,"찹":8400,"찺":8401,"찻":8402,"찼":8403,"창":8404,"찾":8405,"찿":8406,"챀":8407,"챁":8408,"챂":8409,"챃":8410,"채":8411,"책":8412,"챆":8413,"챇":8414,"챈":8415,"챉":8416,"챊":8417,"챋":8418,"챌":8419,"챍":8420,"챎":8421,"챏":8422,"챐":8423,"챑":8424,"챒":8425,"챓":8426,"챔":8427,"챕":8428,"챖":8429,"챗":8430,"챘":8431,"챙":8432,"챚":8433,"챛":8434,"챜":8435,"챝":8436,"챞":8437,"챟":8438,"챠":8439,"챡":8440,"챢":8441,"챣":8442,"챤":8443,"챥":8444,"챦":8445,"챧":8446,"챨":8447,"챩":8448,"챪":8449,"챫":8450,"챬":8451,"챭":8452,"챮":8453,"챯":8454,"챰":8455,"챱":8456,"챲":8457,"챳":8458,"챴":8459,"챵":8460,"챶":8461,"챷":8462,"챸":8463,"챹":8464,"챺":8465,"챻":8466,"챼":8467,"챽":8468,"챾":8469,"챿":8470,"첀":8471,"첁":8472,"첂":8473,"첃":8474,"첄":8475,"첅":8476,"첆":8477,"첇":8478,"첈":8479,"첉":8480,"첊":8481,"첋":8482,"첌":8483,"첍":8484,"첎":8485,"첏":8486,"첐":8487,"첑":8488,"첒":8489,"첓":8490,"첔":8491,"첕":8492,"첖":8493,"첗":8494,"처":8495,"척":8496,"첚":8497,"첛":8498,"천":8499,"첝":8500,"첞":8501,"첟":8502,"철":8503,"첡":8504,"첢":8505,"첣":8506,"첤":8507,"첥":8508,"첦":8509,"첧":8510,"첨":8511,"첩":8512,"첪":8513,"첫":8514,"첬":8515,"청":8516,"첮":8517,"첯":8518,"첰":8519,"첱":8520,"첲":8521,"첳":8522,"체":8523,"첵":8524,"첶":8525,"첷":8526,"첸":8527,"첹":8528,"첺":8529,"첻":8530,"첼":8531,"첽":8532,"첾":8533,"첿":8534,"쳀":8535,"쳁":8536,"쳂":8537,"쳃":8538,"쳄":8539,"쳅":8540,"쳆":8541,"쳇":8542,"쳈":8543,"쳉":8544,"쳊":8545,"쳋":8546,"쳌":8547,"쳍":8548,"쳎":8549,"쳏":8550,"쳐":8551,"쳑":8552,"쳒":8553,"쳓":8554,"쳔":8555,"쳕":8556,"쳖":8557,"쳗":8558,"쳘":8559,"쳙":8560,"쳚":8561,"쳛":8562,"쳜":8563,"쳝":8564,"쳞":8565,"쳟":8566,"쳠":8567,"쳡":8568,"쳢":8569,"쳣":8570,"쳤":8571,"쳥":8572,"쳦":8573,"쳧":8574,"쳨":8575,"쳩":8576,"쳪":8577,"쳫":8578,"쳬":8579,"쳭":8580,"쳮":8581,"쳯":8582,"쳰":8583,"쳱":8584,"쳲":8585,"쳳":8586,"쳴":8587,"쳵":8588,"쳶":8589,"쳷":8590,"쳸":8591,"쳹":8592,"쳺":8593,"쳻":8594,"쳼":8595,"쳽":8596,"쳾":8597,"쳿":8598,"촀":8599,"촁":8600,"촂":8601,"촃":8602,"촄":8603,"촅":8604,"촆":8605,"촇":8606,"초":8607,"촉":8608,"촊":8609,"촋":8610,"촌":8611,"촍":8612,"촎":8613,"촏":8614,"촐":8615,"촑":8616,"촒":8617,"촓":8618,"촔":8619,"촕":8620,"촖":8621,"촗":8622,"촘":8623,"촙":8624,"촚":8625,"촛":8626,"촜":8627,"총":8628,"촞":8629,"촟":8630,"촠":8631,"촡":8632,"촢":8633,"촣":8634,"촤":8635,"촥":8636,"촦":8637,"촧":8638,"촨":8639,"촩":8640,"촪":8641,"촫":8642,"촬":8643,"촭":8644,"촮":8645,"촯":8646,"촰":8647,"촱":8648,"촲":8649,"촳":8650,"촴":8651,"촵":8652,"촶":8653,"촷":8654,"촸":8655,"촹":8656,"촺":8657,"촻":8658,"촼":8659,"촽":8660,"촾":8661,"촿":8662,"쵀":8663,"쵁":8664,"쵂":8665,"쵃":8666,"쵄":8667,"쵅":8668,"쵆":8669,"쵇":8670,"쵈":8671,"쵉":8672,"쵊":8673,"쵋":8674,"쵌":8675,"쵍":8676,"쵎":8677,"쵏":8678,"쵐":8679,"쵑":8680,"쵒":8681,"쵓":8682,"쵔":8683,"쵕":8684,"쵖":8685,"쵗":8686,"쵘":8687,"쵙":8688,"쵚":8689,"쵛":8690,"최":8691,"쵝":8692,"쵞":8693,"쵟":8694,"쵠":8695,"쵡":8696,"쵢":8697,"쵣":8698,"쵤":8699,"쵥":8700,"쵦":8701,"쵧":8702,"쵨":8703,"쵩":8704,"쵪":8705,"쵫":8706,"쵬":8707,"쵭":8708,"쵮":8709,"쵯":8710,"쵰":8711,"쵱":8712,"쵲":8713,"쵳":8714,"쵴":8715,"쵵":8716,"쵶":8717,"쵷":8718,"쵸":8719,"쵹":8720,"쵺":8721,"쵻":8722,"쵼":8723,"쵽":8724,"쵾":8725,"쵿":8726,"춀":8727,"춁":8728,"춂":8729,"춃":8730,"춄":8731,"춅":8732,"춆":8733,"춇":8734,"춈":8735,"춉":8736,"춊":8737,"춋":8738,"춌":8739,"춍":8740,"춎":8741,"춏":8742,"춐":8743,"춑":8744,"춒":8745,"춓":8746,"추":8747,"축":8748,"춖":8749,"춗":8750,"춘":8751,"춙":8752,"춚":8753,"춛":8754,"출":8755,"춝":8756,"춞":8757,"춟":8758,"춠":8759,"춡":8760,"춢":8761,"춣":8762,"춤":8763,"춥":8764,"춦":8765,"춧":8766,"춨":8767,"충":8768,"춪":8769,"춫":8770,"춬":8771,"춭":8772,"춮":8773,"춯":8774,"춰":8775,"춱":8776,"춲":8777,"춳":8778,"춴":8779,"춵":8780,"춶":8781,"춷":8782,"춸":8783,"춹":8784,"춺":8785,"춻":8786,"춼":8787,"춽":8788,"춾":8789,"춿":8790,"췀":8791,"췁":8792,"췂":8793,"췃":8794,"췄":8795,"췅":8796,"췆":8797,"췇":8798,"췈":8799,"췉":8800,"췊":8801,"췋":8802,"췌":8803,"췍":8804,"췎":8805,"췏":8806,"췐":8807,"췑":8808,"췒":8809,"췓":8810,"췔":8811,"췕":8812,"췖":8813,"췗":8814,"췘":8815,"췙":8816,"췚":8817,"췛":8818,"췜":8819,"췝":8820,"췞":8821,"췟":8822,"췠":8823,"췡":8824,"췢":8825,"췣":8826,"췤":8827,"췥":8828,"췦":8829,"췧":8830,"취":8831,"췩":8832,"췪":8833,"췫":8834,"췬":8835,"췭":8836,"췮":8837,"췯":8838,"췰":8839,"췱":8840,"췲":8841,"췳":8842,"췴":8843,"췵":8844,"췶":8845,"췷":8846,"췸":8847,"췹":8848,"췺":8849,"췻":8850,"췼":8851,"췽":8852,"췾":8853,"췿":8854,"츀":8855,"츁":8856,"츂":8857,"츃":8858,"츄":8859,"츅":8860,"츆":8861,"츇":8862,"츈":8863,"츉":8864,"츊":8865,"츋":8866,"츌":8867,"츍":8868,"츎":8869,"츏":8870,"츐":8871,"츑":8872,"츒":8873,"츓":8874,"츔":8875,"츕":8876,"츖":8877,"츗":8878,"츘":8879,"츙":8880,"츚":8881,"츛":8882,"츜":8883,"츝":8884,"츞":8885,"츟":8886,"츠":8887,"측":8888,"츢":8889,"츣":8890,"츤":8891,"츥":8892,"츦":8893,"츧":8894,"츨":8895,"츩":8896,"츪":8897,"츫":8898,"츬":8899,"츭":8900,"츮":8901,"츯":8902,"츰":8903,"츱":8904,"츲":8905,"츳":8906,"츴":8907,"층":8908,"츶":8909,"츷":8910,"츸":8911,"츹":8912,"츺":8913,"츻":8914,"츼":8915,"츽":8916,"츾":8917,"츿":8918,"칀":8919,"칁":8920,"칂":8921,"칃":8922,"칄":8923,"칅":8924,"칆":8925,"칇":8926,"칈":8927,"칉":8928,"칊":8929,"칋":8930,"칌":8931,"칍":8932,"칎":8933,"칏":8934,"칐":8935,"칑":8936,"칒":8937,"칓":8938,"칔":8939,"칕":8940,"칖":8941,"칗":8942,"치":8943,"칙":8944,"칚":8945,"칛":8946,"친":8947,"칝":8948,"칞":8949,"칟":8950,"칠":8951,"칡":8952,"칢":8953,"칣":8954,"칤":8955,"칥":8956,"칦":8957,"칧":8958,"침":8959,"칩":8960,"칪":8961,"칫":8962,"칬":8963,"칭":8964,"칮":8965,"칯":8966,"칰":8967,"칱":8968,"칲":8969,"칳":8970,"카":8971,"칵":8972,"칶":8973,"칷":8974,"칸":8975,"칹":8976,"칺":8977,"칻":8978,"칼":8979,"칽":8980,"칾":8981,"칿":8982,"캀":8983,"캁":8984,"캂":8985,"캃":8986,"캄":8987,"캅":8988,"캆":8989,"캇":8990,"캈":8991,"캉":8992,"캊":8993,"캋":8994,"캌":8995,"캍":8996,"캎":8997,"캏":8998,"캐":8999,"캑":9000,"캒":9001,"캓":9002,"캔":9003,"캕":9004,"캖":9005,"캗":9006,"캘":9007,"캙":9008,"캚":9009,"캛":9010,"캜":9011,"캝":9012,"캞":9013,"캟":9014,"캠":9015,"캡":9016,"캢":9017,"캣":9018,"캤":9019,"캥":9020,"캦":9021,"캧":9022,"캨":9023,"캩":9024,"캪":9025,"캫":9026,"캬":9027,"캭":9028,"캮":9029,"캯":9030,"캰":9031,"캱":9032,"캲":9033,"캳":9034,"캴":9035,"캵":9036,"캶":9037,"캷":9038,"캸":9039,"캹":9040,"캺":9041,"캻":9042,"캼":9043,"캽":9044,"캾":9045,"캿":9046,"컀":9047,"컁":9048,"컂":9049,"컃":9050,"컄":9051,"컅":9052,"컆":9053,"컇":9054,"컈":9055,"컉":9056,"컊":9057,"컋":9058,"컌":9059,"컍":9060,"컎":9061,"컏":9062,"컐":9063,"컑":9064,"컒":9065,"컓":9066,"컔":9067,"컕":9068,"컖":9069,"컗":9070,"컘":9071,"컙":9072,"컚":9073,"컛":9074,"컜":9075,"컝":9076,"컞":9077,"컟":9078,"컠":9079,"컡":9080,"컢":9081,"컣":9082,"커":9083,"컥":9084,"컦":9085,"컧":9086,"컨":9087,"컩":9088,"컪":9089,"컫":9090,"컬":9091,"컭":9092,"컮":9093,"컯":9094,"컰":9095,"컱":9096,"컲":9097,"컳":9098,"컴":9099,"컵":9100,"컶":9101,"컷":9102,"컸":9103,"컹":9104,"컺":9105,"컻":9106,"컼":9107,"컽":9108,"컾":9109,"컿":9110,"케":9111,"켁":9112,"켂":9113,"켃":9114,"켄":9115,"켅":9116,"켆":9117,"켇":9118,"켈":9119,"켉":9120,"켊":9121,"켋":9122,"켌":9123,"켍":9124,"켎":9125,"켏":9126,"켐":9127,"켑":9128,"켒":9129,"켓":9130,"켔":9131,"켕":9132,"켖":9133,"켗":9134,"켘":9135,"켙":9136,"켚":9137,"켛":9138,"켜":9139,"켝":9140,"켞":9141,"켟":9142,"켠":9143,"켡":9144,"켢":9145,"켣":9146,"켤":9147,"켥":9148,"켦":9149,"켧":9150,"켨":9151,"켩":9152,"켪":9153,"켫":9154,"켬":9155,"켭":9156,"켮":9157,"켯":9158,"켰":9159,"켱":9160,"켲":9161,"켳":9162,"켴":9163,"켵":9164,"켶":9165,"켷":9166,"켸":9167,"켹":9168,"켺":9169,"켻":9170,"켼":9171,"켽":9172,"켾":9173,"켿":9174,"콀":9175,"콁":9176,"콂":9177,"콃":9178,"콄":9179,"콅":9180,"콆":9181,"콇":9182,"콈":9183,"콉":9184,"콊":9185,"콋":9186,"콌":9187,"콍":9188,"콎":9189,"콏":9190,"콐":9191,"콑":9192,"콒":9193,"콓":9194,"코":9195,"콕":9196,"콖":9197,"콗":9198,"콘":9199,"콙":9200,"콚":9201,"콛":9202,"콜":9203,"콝":9204,"콞":9205,"콟":9206,"콠":9207,"콡":9208,"콢":9209,"콣":9210,"콤":9211,"콥":9212,"콦":9213,"콧":9214,"콨":9215,"콩":9216,"콪":9217,"콫":9218,"콬":9219,"콭":9220,"콮":9221,"콯":9222,"콰":9223,"콱":9224,"콲":9225,"콳":9226,"콴":9227,"콵":9228,"콶":9229,"콷":9230,"콸":9231,"콹":9232,"콺":9233,"콻":9234,"콼":9235,"콽":9236,"콾":9237,"콿":9238,"쾀":9239,"쾁":9240,"쾂":9241,"쾃":9242,"쾄":9243,"쾅":9244,"쾆":9245,"쾇":9246,"쾈":9247,"쾉":9248,"쾊":9249,"쾋":9250,"쾌":9251,"쾍":9252,"쾎":9253,"쾏":9254,"쾐":9255,"쾑":9256,"쾒":9257,"쾓":9258,"쾔":9259,"쾕":9260,"쾖":9261,"쾗":9262,"쾘":9263,"쾙":9264,"쾚":9265,"쾛":9266,"쾜":9267,"쾝":9268,"쾞":9269,"쾟":9270,"쾠":9271,"쾡":9272,"쾢":9273,"쾣":9274,"쾤":9275,"쾥":9276,"쾦":9277,"쾧":9278,"쾨":9279,"쾩":9280,"쾪":9281,"쾫":9282,"쾬":9283,"쾭":9284,"쾮":9285,"쾯":9286,"쾰":9287,"쾱":9288,"쾲":9289,"쾳":9290,"쾴":9291,"쾵":9292,"쾶":9293,"쾷":9294,"쾸":9295,"쾹":9296,"쾺":9297,"쾻":9298,"쾼":9299,"쾽":9300,"쾾":9301,"쾿":9302,"쿀":9303,"쿁":9304,"쿂":9305,"쿃":9306,"쿄":9307,"쿅":9308,"쿆":9309,"쿇":9310,"쿈":9311,"쿉":9312,"쿊":9313,"쿋":9314,"쿌":9315,"쿍":9316,"쿎":9317,"쿏":9318,"쿐":9319,"쿑":9320,"쿒":9321,"쿓":9322,"쿔":9323,"쿕":9324,"쿖":9325,"쿗":9326,"쿘":9327,"쿙":9328,"쿚":9329,"쿛":9330,"쿜":9331,"쿝":9332,"쿞":9333,"쿟":9334,"쿠":9335,"쿡":9336,"쿢":9337,"쿣":9338,"쿤":9339,"쿥":9340,"쿦":9341,"쿧":9342,"쿨":9343,"쿩":9344,"쿪":9345,"쿫":9346,"쿬":9347,"쿭":9348,"쿮":9349,"쿯":9350,"쿰":9351,"쿱":9352,"쿲":9353,"쿳":9354,"쿴":9355,"쿵":9356,"쿶":9357,"쿷":9358,"쿸":9359,"쿹":9360,"쿺":9361,"쿻":9362,"쿼":9363,"쿽":9364,"쿾":9365,"쿿":9366,"퀀":9367,"퀁":9368,"퀂":9369,"퀃":9370,"퀄":9371,"퀅":9372,"퀆":9373,"퀇":9374,"퀈":9375,"퀉":9376,"퀊":9377,"퀋":9378,"퀌":9379,"퀍":9380,"퀎":9381,"퀏":9382,"퀐":9383,"퀑":9384,"퀒":9385,"퀓":9386,"퀔":9387,"퀕":9388,"퀖":9389,"퀗":9390,"퀘":9391,"퀙":9392,"퀚":9393,"퀛":9394,"퀜":9395,"퀝":9396,"퀞":9397,"퀟":9398,"퀠":9399,"퀡":9400,"퀢":9401,"퀣":9402,"퀤":9403,"퀥":9404,"퀦":9405,"퀧":9406,"퀨":9407,"퀩":9408,"퀪":9409,"퀫":9410,"퀬":9411,"퀭":9412,"퀮":9413,"퀯":9414,"퀰":9415,"퀱":9416,"퀲":9417,"퀳":9418,"퀴":9419,"퀵":9420,"퀶":9421,"퀷":9422,"퀸":9423,"퀹":9424,"퀺":9425,"퀻":9426,"퀼":9427,"퀽":9428,"퀾":9429,"퀿":9430,"큀":9431,"큁":9432,"큂":9433,"큃":9434,"큄":9435,"큅":9436,"큆":9437,"큇":9438,"큈":9439,"큉":9440,"큊":9441,"큋":9442,"큌":9443,"큍":9444,"큎":9445,"큏":9446,"큐":9447,"큑":9448,"큒":9449,"큓":9450,"큔":9451,"큕":9452,"큖":9453,"큗":9454,"큘":9455,"큙":9456,"큚":9457,"큛":9458,"큜":9459,"큝":9460,"큞":9461,"큟":9462,"큠":9463,"큡":9464,"큢":9465,"큣":9466,"큤":9467,"큥":9468,"큦":9469,"큧":9470,"큨":9471,"큩":9472,"큪":9473,"큫":9474,"크":9475,"큭":9476,"큮":9477,"큯":9478,"큰":9479,"큱":9480,"큲":9481,"큳":9482,"클":9483,"큵":9484,"큶":9485,"큷":9486,"큸":9487,"큹":9488,"큺":9489,"큻":9490,"큼":9491,"큽":9492,"큾":9493,"큿":9494,"킀":9495,"킁":9496,"킂":9497,"킃":9498,"킄":9499,"킅":9500,"킆":9501,"킇":9502,"킈":9503,"킉":9504,"킊":9505,"킋":9506,"킌":9507,"킍":9508,"킎":9509,"킏":9510,"킐":9511,"킑":9512,"킒":9513,"킓":9514,"킔":9515,"킕":9516,"킖":9517,"킗":9518,"킘":9519,"킙":9520,"킚":9521,"킛":9522,"킜":9523,"킝":9524,"킞":9525,"킟":9526,"킠":9527,"킡":9528,"킢":9529,"킣":9530,"키":9531,"킥":9532,"킦":9533,"킧":9534,"킨":9535,"킩":9536,"킪":9537,"킫":9538,"킬":9539,"킭":9540,"킮":9541,"킯":9542,"킰":9543,"킱":9544,"킲":9545,"킳":9546,"킴":9547,"킵":9548,"킶":9549,"킷":9550,"킸":9551,"킹":9552,"킺":9553,"킻":9554,"킼":9555,"킽":9556,"킾":9557,"킿":9558,"타":9559,"탁":9560,"탂":9561,"탃":9562,"탄":9563,"탅":9564,"탆":9565,"탇":9566,"탈":9567,"탉":9568,"탊":9569,"탋":9570,"탌":9571,"탍":9572,"탎":9573,"탏":9574,"탐":9575,"탑":9576,"탒":9577,"탓":9578,"탔":9579,"탕":9580,"탖":9581,"탗":9582,"탘":9583,"탙":9584,"탚":9585,"탛":9586,"태":9587,"택":9588,"탞":9589,"탟":9590,"탠":9591,"탡":9592,"탢":9593,"탣":9594,"탤":9595,"탥":9596,"탦":9597,"탧":9598,"탨":9599,"탩":9600,"탪":9601,"탫":9602,"탬":9603,"탭":9604,"탮":9605,"탯":9606,"탰":9607,"탱":9608,"탲":9609,"탳":9610,"탴":9611,"탵":9612,"탶":9613,"탷":9614,"탸":9615,"탹":9616,"탺":9617,"탻":9618,"탼":9619,"탽":9620,"탾":9621,"탿":9622,"턀":9623,"턁":9624,"턂":9625,"턃":9626,"턄":9627,"턅":9628,"턆":9629,"턇":9630,"턈":9631,"턉":9632,"턊":9633,"턋":9634,"턌":9635,"턍":9636,"턎":9637,"턏":9638,"턐":9639,"턑":9640,"턒":9641,"턓":9642,"턔":9643,"턕":9644,"턖":9645,"턗":9646,"턘":9647,"턙":9648,"턚":9649,"턛":9650,"턜":9651,"턝":9652,"턞":9653,"턟":9654,"턠":9655,"턡":9656,"턢":9657,"턣":9658,"턤":9659,"턥":9660,"턦":9661,"턧":9662,"턨":9663,"턩":9664,"턪":9665,"턫":9666,"턬":9667,"턭":9668,"턮":9669,"턯":9670,"터":9671,"턱":9672,"턲":9673,"턳":9674,"턴":9675,"턵":9676,"턶":9677,"턷":9678,"털":9679,"턹":9680,"턺":9681,"턻":9682,"턼":9683,"턽":9684,"턾":9685,"턿":9686,"텀":9687,"텁":9688,"텂":9689,"텃":9690,"텄":9691,"텅":9692,"텆":9693,"텇":9694,"텈":9695,"텉":9696,"텊":9697,"텋":9698,"테":9699,"텍":9700,"텎":9701,"텏":9702,"텐":9703,"텑":9704,"텒":9705,"텓":9706,"텔":9707,"텕":9708,"텖":9709,"텗":9710,"텘":9711,"텙":9712,"텚":9713,"텛":9714,"템":9715,"텝":9716,"텞":9717,"텟":9718,"텠":9719,"텡":9720,"텢":9721,"텣":9722,"텤":9723,"텥":9724,"텦":9725,"텧":9726,"텨":9727,"텩":9728,"텪":9729,"텫":9730,"텬":9731,"텭":9732,"텮":9733,"텯":9734,"텰":9735,"텱":9736,"텲":9737,"텳":9738,"텴":9739,"텵":9740,"텶":9741,"텷":9742,"텸":9743,"텹":9744,"텺":9745,"텻":9746,"텼":9747,"텽":9748,"텾":9749,"텿":9750,"톀":9751,"톁":9752,"톂":9753,"톃":9754,"톄":9755,"톅":9756,"톆":9757,"톇":9758,"톈":9759,"톉":9760,"톊":9761,"톋":9762,"톌":9763,"톍":9764,"톎":9765,"톏":9766,"톐":9767,"톑":9768,"톒":9769,"톓":9770,"톔":9771,"톕":9772,"톖":9773,"톗":9774,"톘":9775,"톙":9776,"톚":9777,"톛":9778,"톜":9779,"톝":9780,"톞":9781,"톟":9782,"토":9783,"톡":9784,"톢":9785,"톣":9786,"톤":9787,"톥":9788,"톦":9789,"톧":9790,"톨":9791,"톩":9792,"톪":9793,"톫":9794,"톬":9795,"톭":9796,"톮":9797,"톯":9798,"톰":9799,"톱":9800,"톲":9801,"톳":9802,"톴":9803,"통":9804,"톶":9805,"톷":9806,"톸":9807,"톹":9808,"톺":9809,"톻":9810,"톼":9811,"톽":9812,"톾":9813,"톿":9814,"퇀":9815,"퇁":9816,"퇂":9817,"퇃":9818,"퇄":9819,"퇅":9820,"퇆":9821,"퇇":9822,"퇈":9823,"퇉":9824,"퇊":9825,"퇋":9826,"퇌":9827,"퇍":9828,"퇎":9829,"퇏":9830,"퇐":9831,"퇑":9832,"퇒":9833,"퇓":9834,"퇔":9835,"퇕":9836,"퇖":9837,"퇗":9838,"퇘":9839,"퇙":9840,"퇚":9841,"퇛":9842,"퇜":9843,"퇝":9844,"퇞":9845,"퇟":9846,"퇠":9847,"퇡":9848,"퇢":9849,"퇣":9850,"퇤":9851,"퇥":9852,"퇦":9853,"퇧":9854,"퇨":9855,"퇩":9856,"퇪":9857,"퇫":9858,"퇬":9859,"퇭":9860,"퇮":9861,"퇯":9862,"퇰":9863,"퇱":9864,"퇲":9865,"퇳":9866,"퇴":9867,"퇵":9868,"퇶":9869,"퇷":9870,"퇸":9871,"퇹":9872,"퇺":9873,"퇻":9874,"퇼":9875,"퇽":9876,"퇾":9877,"퇿":9878,"툀":9879,"툁":9880,"툂":9881,"툃":9882,"툄":9883,"툅":9884,"툆":9885,"툇":9886,"툈":9887,"툉":9888,"툊":9889,"툋":9890,"툌":9891,"툍":9892,"툎":9893,"툏":9894,"툐":9895,"툑":9896,"툒":9897,"툓":9898,"툔":9899,"툕":9900,"툖":9901,"툗":9902,"툘":9903,"툙":9904,"툚":9905,"툛":9906,"툜":9907,"툝":9908,"툞":9909,"툟":9910,"툠":9911,"툡":9912,"툢":9913,"툣":9914,"툤":9915,"툥":9916,"툦":9917,"툧":9918,"툨":9919,"툩":9920,"툪":9921,"툫":9922,"투":9923,"툭":9924,"툮":9925,"툯":9926,"툰":9927,"툱":9928,"툲":9929,"툳":9930,"툴":9931,"툵":9932,"툶":9933,"툷":9934,"툸":9935,"툹":9936,"툺":9937,"툻":9938,"툼":9939,"툽":9940,"툾":9941,"툿":9942,"퉀":9943,"퉁":9944,"퉂":9945,"퉃":9946,"퉄":9947,"퉅":9948,"퉆":9949,"퉇":9950,"퉈":9951,"퉉":9952,"퉊":9953,"퉋":9954,"퉌":9955,"퉍":9956,"퉎":9957,"퉏":9958,"퉐":9959,"퉑":9960,"퉒":9961,"퉓":9962,"퉔":9963,"퉕":9964,"퉖":9965,"퉗":9966,"퉘":9967,"퉙":9968,"퉚":9969,"퉛":9970,"퉜":9971,"퉝":9972,"퉞":9973,"퉟":9974,"퉠":9975,"퉡":9976,"퉢":9977,"퉣":9978,"퉤":9979,"퉥":9980,"퉦":9981,"퉧":9982,"퉨":9983,"퉩":9984,"퉪":9985,"퉫":9986,"퉬":9987,"퉭":9988,"퉮":9989,"퉯":9990,"퉰":9991,"퉱":9992,"퉲":9993,"퉳":9994,"퉴":9995,"퉵":9996,"퉶":9997,"퉷":9998,"퉸":9999,"퉹":10000,"퉺":10001,"퉻":10002,"퉼":10003,"퉽":10004,"퉾":10005,"퉿":10006,"튀":10007,"튁":10008,"튂":10009,"튃":10010,"튄":10011,"튅":10012,"튆":10013,"튇":10014,"튈":10015,"튉":10016,"튊":10017,"튋":10018,"튌":10019,"튍":10020,"튎":10021,"튏":10022,"튐":10023,"튑":10024,"튒":10025,"튓":10026,"튔":10027,"튕":10028,"튖":10029,"튗":10030,"튘":10031,"튙":10032,"튚":10033,"튛":10034,"튜":10035,"튝":10036,"튞":10037,"튟":10038,"튠":10039,"튡":10040,"튢":10041,"튣":10042,"튤":10043,"튥":10044,"튦":10045,"튧":10046,"튨":10047,"튩":10048,"튪":10049,"튫":10050,"튬":10051,"튭":10052,"튮":10053,"튯":10054,"튰":10055,"튱":10056,"튲":10057,"튳":10058,"튴":10059,"튵":10060,"튶":10061,"튷":10062,"트":10063,"특":10064,"튺":10065,"튻":10066,"튼":10067,"튽":10068,"튾":10069,"튿":10070,"틀":10071,"틁":10072,"틂":10073,"틃":10074,"틄":10075,"틅":10076,"틆":10077,"틇":10078,"틈":10079,"틉":10080,"틊":10081,"틋":10082,"틌":10083,"틍":10084,"틎":10085,"틏":10086,"틐":10087,"틑":10088,"틒":10089,"틓":10090,"틔":10091,"틕":10092,"틖":10093,"틗":10094,"틘":10095,"틙":10096,"틚":10097,"틛":10098,"틜":10099,"틝":10100,"틞":10101,"틟":10102,"틠":10103,"틡":10104,"틢":10105,"틣":10106,"틤":10107,"틥":10108,"틦":10109,"틧":10110,"틨":10111,"틩":10112,"틪":10113,"틫":10114,"틬":10115,"틭":10116,"틮":10117,"틯":10118,"티":10119,"틱":10120,"틲":10121,"틳":10122,"틴":10123,"틵":10124,"틶":10125,"틷":10126,"틸":10127,"틹":10128,"틺":10129,"틻":10130,"틼":10131,"틽":10132,"틾":10133,"틿":10134,"팀":10135,"팁":10136,"팂":10137,"팃":10138,"팄":10139,"팅":10140,"팆":10141,"팇":10142,"팈":10143,"팉":10144,"팊":10145,"팋":10146,"파":10147,"팍":10148,"팎":10149,"팏":10150,"판":10151,"팑":10152,"팒":10153,"팓":10154,"팔":10155,"팕":10156,"팖":10157,"팗":10158,"팘":10159,"팙":10160,"팚":10161,"팛":10162,"팜":10163,"팝":10164,"팞":10165,"팟":10166,"팠":10167,"팡":10168,"팢":10169,"팣":10170,"팤":10171,"팥":10172,"팦":10173,"팧":10174,"패":10175,"팩":10176,"팪":10177,"팫":10178,"팬":10179,"팭":10180,"팮":10181,"팯":10182,"팰":10183,"팱":10184,"팲":10185,"팳":10186,"팴":10187,"팵":10188,"팶":10189,"팷":10190,"팸":10191,"팹":10192,"팺":10193,"팻":10194,"팼":10195,"팽":10196,"팾":10197,"팿":10198,"퍀":10199,"퍁":10200,"퍂":10201,"퍃":10202,"퍄":10203,"퍅":10204,"퍆":10205,"퍇":10206,"퍈":10207,"퍉":10208,"퍊":10209,"퍋":10210,"퍌":10211,"퍍":10212,"퍎":10213,"퍏":10214,"퍐":10215,"퍑":10216,"퍒":10217,"퍓":10218,"퍔":10219,"퍕":10220,"퍖":10221,"퍗":10222,"퍘":10223,"퍙":10224,"퍚":10225,"퍛":10226,"퍜":10227,"퍝":10228,"퍞":10229,"퍟":10230,"퍠":10231,"퍡":10232,"퍢":10233,"퍣":10234,"퍤":10235,"퍥":10236,"퍦":10237,"퍧":10238,"퍨":10239,"퍩":10240,"퍪":10241,"퍫":10242,"퍬":10243,"퍭":10244,"퍮":10245,"퍯":10246,"퍰":10247,"퍱":10248,"퍲":10249,"퍳":10250,"퍴":10251,"퍵":10252,"퍶":10253,"퍷":10254,"퍸":10255,"퍹":10256,"퍺":10257,"퍻":10258,"퍼":10259,"퍽":10260,"퍾":10261,"퍿":10262,"펀":10263,"펁":10264,"펂":10265,"펃":10266,"펄":10267,"펅":10268,"펆":10269,"펇":10270,"펈":10271,"펉":10272,"펊":10273,"펋":10274,"펌":10275,"펍":10276,"펎":10277,"펏":10278,"펐":10279,"펑":10280,"펒":10281,"펓":10282,"펔":10283,"펕":10284,"펖":10285,"펗":10286,"페":10287,"펙":10288,"펚":10289,"펛":10290,"펜":10291,"펝":10292,"펞":10293,"펟":10294,"펠":10295,"펡":10296,"펢":10297,"펣":10298,"펤":10299,"펥":10300,"펦":10301,"펧":10302,"펨":10303,"펩":10304,"펪":10305,"펫":10306,"펬":10307,"펭":10308,"펮":10309,"펯":10310,"펰":10311,"펱":10312,"펲":10313,"펳":10314,"펴":10315,"펵":10316,"펶":10317,"펷":10318,"편":10319,"펹":10320,"펺":10321,"펻":10322,"펼":10323,"펽":10324,"펾":10325,"펿":10326,"폀":10327,"폁":10328,"폂":10329,"폃":10330,"폄":10331,"폅":10332,"폆":10333,"폇":10334,"폈":10335,"평":10336,"폊":10337,"폋":10338,"폌":10339,"폍":10340,"폎":10341,"폏":10342,"폐":10343,"폑":10344,"폒":10345,"폓":10346,"폔":10347,"폕":10348,"폖":10349,"폗":10350,"폘":10351,"폙":10352,"폚":10353,"폛":10354,"폜":10355,"폝":10356,"폞":10357,"폟":10358,"폠":10359,"폡":10360,"폢":10361,"폣":10362,"폤":10363,"폥":10364,"폦":10365,"폧":10366,"폨":10367,"폩":10368,"폪":10369,"폫":10370,"포":10371,"폭":10372,"폮":10373,"폯":10374,"폰":10375,"폱":10376,"폲":10377,"폳":10378,"폴":10379,"폵":10380,"폶":10381,"폷":10382,"폸":10383,"폹":10384,"폺":10385,"폻":10386,"폼":10387,"폽":10388,"폾":10389,"폿":10390,"퐀":10391,"퐁":10392,"퐂":10393,"퐃":10394,"퐄":10395,"퐅":10396,"퐆":10397,"퐇":10398,"퐈":10399,"퐉":10400,"퐊":10401,"퐋":10402,"퐌":10403,"퐍":10404,"퐎":10405,"퐏":10406,"퐐":10407,"퐑":10408,"퐒":10409,"퐓":10410,"퐔":10411,"퐕":10412,"퐖":10413,"퐗":10414,"퐘":10415,"퐙":10416,"퐚":10417,"퐛":10418,"퐜":10419,"퐝":10420,"퐞":10421,"퐟":10422,"퐠":10423,"퐡":10424,"퐢":10425,"퐣":10426,"퐤":10427,"퐥":10428,"퐦":10429,"퐧":10430,"퐨":10431,"퐩":10432,"퐪":10433,"퐫":10434,"퐬":10435,"퐭":10436,"퐮":10437,"퐯":10438,"퐰":10439,"퐱":10440,"퐲":10441,"퐳":10442,"퐴":10443,"퐵":10444,"퐶":10445,"퐷":10446,"퐸":10447,"퐹":10448,"퐺":10449,"퐻":10450,"퐼":10451,"퐽":10452,"퐾":10453,"퐿":10454,"푀":10455,"푁":10456,"푂":10457,"푃":10458,"푄":10459,"푅":10460,"푆":10461,"푇":10462,"푈":10463,"푉":10464,"푊":10465,"푋":10466,"푌":10467,"푍":10468,"푎":10469,"푏":10470,"푐":10471,"푑":10472,"푒":10473,"푓":10474,"푔":10475,"푕":10476,"푖":10477,"푗":10478,"푘":10479,"푙":10480,"푚":10481,"푛":10482,"표":10483,"푝":10484,"푞":10485,"푟":10486,"푠":10487,"푡":10488,"푢":10489,"푣":10490,"푤":10491,"푥":10492,"푦":10493,"푧":10494,"푨":10495,"푩":10496,"푪":10497,"푫":10498,"푬":10499,"푭":10500,"푮":10501,"푯":10502,"푰":10503,"푱":10504,"푲":10505,"푳":10506,"푴":10507,"푵":10508,"푶":10509,"푷":10510,"푸":10511,"푹":10512,"푺":10513,"푻":10514,"푼":10515,"푽":10516,"푾":10517,"푿":10518,"풀":10519,"풁":10520,"풂":10521,"풃":10522,"풄":10523,"풅":10524,"풆":10525,"풇":10526,"품":10527,"풉":10528,"풊":10529,"풋":10530,"풌":10531,"풍":10532,"풎":10533,"풏":10534,"풐":10535,"풑":10536,"풒":10537,"풓":10538,"풔":10539,"풕":10540,"풖":10541,"풗":10542,"풘":10543,"풙":10544,"풚":10545,"풛":10546,"풜":10547,"풝":10548,"풞":10549,"풟":10550,"풠":10551,"풡":10552,"풢":10553,"풣":10554,"풤":10555,"풥":10556,"풦":10557,"풧":10558,"풨":10559,"풩":10560,"풪":10561,"풫":10562,"풬":10563,"풭":10564,"풮":10565,"풯":10566,"풰":10567,"풱":10568,"풲":10569,"풳":10570,"풴":10571,"풵":10572,"풶":10573,"풷":10574,"풸":10575,"풹":10576,"풺":10577,"풻":10578,"풼":10579,"풽":10580,"풾":10581,"풿":10582,"퓀":10583,"퓁":10584,"퓂":10585,"퓃":10586,"퓄":10587,"퓅":10588,"퓆":10589,"퓇":10590,"퓈":10591,"퓉":10592,"퓊":10593,"퓋":10594,"퓌":10595,"퓍":10596,"퓎":10597,"퓏":10598,"퓐":10599,"퓑":10600,"퓒":10601,"퓓":10602,"퓔":10603,"퓕":10604,"퓖":10605,"퓗":10606,"퓘":10607,"퓙":10608,"퓚":10609,"퓛":10610,"퓜":10611,"퓝":10612,"퓞":10613,"퓟":10614,"퓠":10615,"퓡":10616,"퓢":10617,"퓣":10618,"퓤":10619,"퓥":10620,"퓦":10621,"퓧":10622,"퓨":10623,"퓩":10624,"퓪":10625,"퓫":10626,"퓬":10627,"퓭":10628,"퓮":10629,"퓯":10630,"퓰":10631,"퓱":10632,"퓲":10633,"퓳":10634,"퓴":10635,"퓵":10636,"퓶":10637,"퓷":10638,"퓸":10639,"퓹":10640,"퓺":10641,"퓻":10642,"퓼":10643,"퓽":10644,"퓾":10645,"퓿":10646,"픀":10647,"픁":10648,"픂":10649,"픃":10650,"프":10651,"픅":10652,"픆":10653,"픇":10654,"픈":10655,"픉":10656,"픊":10657,"픋":10658,"플":10659,"픍":10660,"픎":10661,"픏":10662,"픐":10663,"픑":10664,"픒":10665,"픓":10666,"픔":10667,"픕":10668,"픖":10669,"픗":10670,"픘":10671,"픙":10672,"픚":10673,"픛":10674,"픜":10675,"픝":10676,"픞":10677,"픟":10678,"픠":10679,"픡":10680,"픢":10681,"픣":10682,"픤":10683,"픥":10684,"픦":10685,"픧":10686,"픨":10687,"픩":10688,"픪":10689,"픫":10690,"픬":10691,"픭":10692,"픮":10693,"픯":10694,"픰":10695,"픱":10696,"픲":10697,"픳":10698,"픴":10699,"픵":10700,"픶":10701,"픷":10702,"픸":10703,"픹":10704,"픺":10705,"픻":10706,"피":10707,"픽":10708,"픾":10709,"픿":10710,"핀":10711,"핁":10712,"핂":10713,"핃":10714,"필":10715,"핅":10716,"핆":10717,"핇":10718,"핈":10719,"핉":10720,"핊":10721,"핋":10722,"핌":10723,"핍":10724,"핎":10725,"핏":10726,"핐":10727,"핑":10728,"핒":10729,"핓":10730,"핔":10731,"핕":10732,"핖":10733,"핗":10734,"하":10735,"학":10736,"핚":10737,"핛":10738,"한":10739,"핝":10740,"핞":10741,"핟":10742,"할":10743,"핡":10744,"핢":10745,"핣":10746,"핤":10747,"핥":10748,"핦":10749,"핧":10750,"함":10751,"합":10752,"핪":10753,"핫":10754,"핬":10755,"항":10756,"핮":10757,"핯":10758,"핰":10759,"핱":10760,"핲":10761,"핳":10762,"해":10763,"핵":10764,"핶":10765,"핷":10766,"핸":10767,"핹":10768,"핺":10769,"핻":10770,"핼":10771,"핽":10772,"핾":10773,"핿":10774,"햀":10775,"햁":10776,"햂":10777,"햃":10778,"햄":10779,"햅":10780,"햆":10781,"햇":10782,"했":10783,"행":10784,"햊":10785,"햋":10786,"햌":10787,"햍":10788,"햎":10789,"햏":10790,"햐":10791,"햑":10792,"햒":10793,"햓":10794,"햔":10795,"햕":10796,"햖":10797,"햗":10798,"햘":10799,"햙":10800,"햚":10801,"햛":10802,"햜":10803,"햝":10804,"햞":10805,"햟":10806,"햠":10807,"햡":10808,"햢":10809,"햣":10810,"햤":10811,"향":10812,"햦":10813,"햧":10814,"햨":10815,"햩":10816,"햪":10817,"햫":10818,"햬":10819,"햭":10820,"햮":10821,"햯":10822,"햰":10823,"햱":10824,"햲":10825,"햳":10826,"햴":10827,"햵":10828,"햶":10829,"햷":10830,"햸":10831,"햹":10832,"햺":10833,"햻":10834,"햼":10835,"햽":10836,"햾":10837,"햿":10838,"헀":10839,"헁":10840,"헂":10841,"헃":10842,"헄":10843,"헅":10844,"헆":10845,"헇":10846,"허":10847,"헉":10848,"헊":10849,"헋":10850,"헌":10851,"헍":10852,"헎":10853,"헏":10854,"헐":10855,"헑":10856,"헒":10857,"헓":10858,"헔":10859,"헕":10860,"헖":10861,"헗":10862,"험":10863,"헙":10864,"헚":10865,"헛":10866,"헜":10867,"헝":10868,"헞":10869,"헟":10870,"헠":10871,"헡":10872,"헢":10873,"헣":10874,"헤":10875,"헥":10876,"헦":10877,"헧":10878,"헨":10879,"헩":10880,"헪":10881,"헫":10882,"헬":10883,"헭":10884,"헮":10885,"헯":10886,"헰":10887,"헱":10888,"헲":10889,"헳":10890,"헴":10891,"헵":10892,"헶":10893,"헷":10894,"헸":10895,"헹":10896,"헺":10897,"헻":10898,"헼":10899,"헽":10900,"헾":10901,"헿":10902,"혀":10903,"혁":10904,"혂":10905,"혃":10906,"현":10907,"혅":10908,"혆":10909,"혇":10910,"혈":10911,"혉":10912,"혊":10913,"혋":10914,"혌":10915,"혍":10916,"혎":10917,"혏":10918,"혐":10919,"협":10920,"혒":10921,"혓":10922,"혔":10923,"형":10924,"혖":10925,"혗":10926,"혘":10927,"혙":10928,"혚":10929,"혛":10930,"혜":10931,"혝":10932,"혞":10933,"혟":10934,"혠":10935,"혡":10936,"혢":10937,"혣":10938,"혤":10939,"혥":10940,"혦":10941,"혧":10942,"혨":10943,"혩":10944,"혪":10945,"혫":10946,"혬":10947,"혭":10948,"혮":10949,"혯":10950,"혰":10951,"혱":10952,"혲":10953,"혳":10954,"혴":10955,"혵":10956,"혶":10957,"혷":10958,"호":10959,"혹":10960,"혺":10961,"혻":10962,"혼":10963,"혽":10964,"혾":10965,"혿":10966,"홀":10967,"홁":10968,"홂":10969,"홃":10970,"홄":10971,"홅":10972,"홆":10973,"홇":10974,"홈":10975,"홉":10976,"홊":10977,"홋":10978,"홌":10979,"홍":10980,"홎":10981,"홏":10982,"홐":10983,"홑":10984,"홒":10985,"홓":10986,"화":10987,"확":10988,"홖":10989,"홗":10990,"환":10991,"홙":10992,"홚":10993,"홛":10994,"활":10995,"홝":10996,"홞":10997,"홟":10998,"홠":10999,"홡":11000,"홢":11001,"홣":11002,"홤":11003,"홥":11004,"홦":11005,"홧":11006,"홨":11007,"황":11008,"홪":11009,"홫":11010,"홬":11011,"홭":11012,"홮":11013,"홯":11014,"홰":11015,"홱":11016,"홲":11017,"홳":11018,"홴":11019,"홵":11020,"홶":11021,"홷":11022,"홸":11023,"홹":11024,"홺":11025,"홻":11026,"홼":11027,"홽":11028,"홾":11029,"홿":11030,"횀":11031,"횁":11032,"횂":11033,"횃":11034,"횄":11035,"횅":11036,"횆":11037,"횇":11038,"횈":11039,"횉":11040,"횊":11041,"횋":11042,"회":11043,"획":11044,"횎":11045,"횏":11046,"횐":11047,"횑":11048,"횒":11049,"횓":11050,"횔":11051,"횕":11052,"횖":11053,"횗":11054,"횘":11055,"횙":11056,"횚":11057,"횛":11058,"횜":11059,"횝":11060,"횞":11061,"횟":11062,"횠":11063,"횡":11064,"횢":11065,"횣":11066,"횤":11067,"횥":11068,"횦":11069,"횧":11070,"효":11071,"횩":11072,"횪":11073,"횫":11074,"횬":11075,"횭":11076,"횮":11077,"횯":11078,"횰":11079,"횱":11080,"횲":11081,"횳":11082,"횴":11083,"횵":11084,"횶":11085,"횷":11086,"횸":11087,"횹":11088,"횺":11089,"횻":11090,"횼":11091,"횽":11092,"횾":11093,"횿":11094,"훀":11095,"훁":11096,"훂":11097,"훃":11098,"후":11099,"훅":11100,"훆":11101,"훇":11102,"훈":11103,"훉":11104,"훊":11105,"훋":11106,"훌":11107,"훍":11108,"훎":11109,"훏":11110,"훐":11111,"훑":11112,"훒":11113,"훓":11114,"훔":11115,"훕":11116,"훖":11117,"훗":11118,"훘":11119,"훙":11120,"훚":11121,"훛":11122,"훜":11123,"훝":11124,"훞":11125,"훟":11126,"훠":11127,"훡":11128,"훢":11129,"훣":11130,"훤":11131,"훥":11132,"훦":11133,"훧":11134,"훨":11135,"훩":11136,"훪":11137,"훫":11138,"훬":11139,"훭":11140,"훮":11141,"훯":11142,"훰":11143,"훱":11144,"훲":11145,"훳":11146,"훴":11147,"훵":11148,"훶":11149,"훷":11150,"훸":11151,"훹":11152,"훺":11153,"훻":11154,"훼":11155,"훽":11156,"훾":11157,"훿":11158,"휀":11159,"휁":11160,"휂":11161,"휃":11162,"휄":11163,"휅":11164,"휆":11165,"휇":11166,"휈":11167,"휉":11168,"휊":11169,"휋":11170,"휌":11171,"휍":11172,"휎":11173,"휏":11174,"휐":11175,"휑":11176,"휒":11177,"휓":11178,"휔":11179,"휕":11180,"휖":11181,"휗":11182,"휘":11183,"휙":11184,"휚":11185,"휛":11186,"휜":11187,"휝":11188,"휞":11189,"휟":11190,"휠":11191,"휡":11192,"휢":11193,"휣":11194,"휤":11195,"휥":11196,"휦":11197,"휧":11198,"휨":11199,"휩":11200,"휪":11201,"휫":11202,"휬":11203,"휭":11204,"휮":11205,"휯":11206,"휰":11207,"휱":11208,"휲":11209,"휳":11210,"휴":11211,"휵":11212,"휶":11213,"휷":11214,"휸":11215,"휹":11216,"휺":11217,"휻":11218,"휼":11219,"휽":11220,"휾":11221,"휿":11222,"흀":11223,"흁":11224,"흂":11225,"흃":11226,"흄":11227,"흅":11228,"흆":11229,"흇":11230,"흈":11231,"흉":11232,"흊":11233,"흋":11234,"흌":11235,"흍":11236,"흎":11237,"흏":11238,"흐":11239,"흑":11240,"흒":11241,"흓":11242,"흔":11243,"흕":11244,"흖":11245,"흗":11246,"흘":11247,"흙":11248,"흚":11249,"흛":11250,"흜":11251,"흝":11252,"흞":11253,"흟":11254,"흠":11255,"흡":11256,"흢":11257,"흣":11258,"흤":11259,"흥":11260,"흦":11261,"흧":11262,"흨":11263,"흩":11264,"흪":11265,"흫":11266,"희":11267,"흭":11268,"흮":11269,"흯":11270,"흰":11271,"흱":11272,"흲":11273,"흳":11274,"흴":11275,"흵":11276,"흶":11277,"흷":11278,"흸":11279,"흹":11280,"흺":11281,"흻":11282,"흼":11283,"흽":11284,"흾":11285,"흿":11286,"힀":11287,"힁":11288,"힂":11289,"힃":11290,"힄":11291,"힅":11292,"힆":11293,"힇":11294,"히":11295,"힉":11296,"힊":11297,"힋":11298,"힌":11299,"힍":11300,"힎":11301,"힏":11302,"힐":11303,"힑":11304,"힒":11305,"힓":11306,"힔":11307,"힕":11308,"힖":11309,"힗":11310,"힘":11311,"힙":11312,"힚":11313,"힛":11314,"힜":11315,"힝":11316,"힞":11317,"힟":11318,"힠":11319,"힡":11320,"힢":11321,"힣":11322,"##라":11323,"##키":11324,"##움":11325,"##대":11326,"##전":11327,"##센":11328,"##터":11329,"##0":11330,"##5":11331,"##/":11332,"##8":11333,"##1":11334,"##7":11335,"##+":11336,"##안":11337,"##주":11338,"##거":11339,"##리":11340,"##로":11341,"##트":11342,"##레":11343,"##프":11344,"##너":11345,"##십":11346,"##스":11347,"##이":11348,"##야":11349,"##기":11350,"##를":11351,"##장":11352,"##물":11353,"##의":11354,"##공":11355,"##동":11356,"##캐":11357,"##다":11358,"##.":11359,"##i":11360,"##h":11361,"##b":11362,"##f":11363,"##죽":11364,"##인":11365,"##w":11366,"##q":11367,"##\"":11368,"##평":11369,"##과":11370,"##는":11371,"##타":11372,"##나":11373,"##시":11374,"##간":11375,"##도":11376,"##약":11377,"##'":11378,"##은":11379,"##3":11380,"##2":11381,"##명":11382,"##을":11383,"##드":11384,"##퀴":11385,"##논":11386,"##티":11387,"##섹":11388,"##며":11389,"##령":11390,"##으":11391,"##써":11392,"##없":11393,"##어":11394,"##요":11395,"##고":11396,"##옥":11397,"##루":11398,"##:":11399,"##광":11400,"##폭":11401,"##화":11402,"##,":11403,"##신":11404,"##당":11405,"##들":11406,"##D":11407,"##&":11408,"##J":11409,"##홀":11410,"##딩":11411,"##가":11412,"##완":11413,"##책":11414,"##탈":11415,"##린":11416,"##만":11417,"##큼":11418,"##반":11419,"##차":11420,"##량":11421,"##더":11422,"##룡":11423,"##제":11424,"##-":11425,"##지":11426,"##온":11427,"##e":11428,"##a":11429,"##왕":11430,"##조":11431,"##종":11432,"##락":11433,"##함":11434,"##추":11435,"##카":11436,"##츠":11437,"##바":11438,"##악":11439,"##몽":11440,"##셔":11441,"##무":11442,"##미":11443,"##해":11444,"##었":11445,"##냐":11446,"##?":11447,"##정":11448,"##팬":11449,"##서":11450,"##비":11451,"##헌":11452,"##양":11453,"##적":11454,"##군":11455,"##식":11456,"##체":11457,"##계":11458,"##에":11459,"##버":11460,"##새":11461,"##운":11462,"##9":11463,"##6":11464,"##4":11465,"##년":11466,"##테":11467,"##성":11468,"##져":11469,"##데":11470,"##끼":11471,"##듀":11472,"##재":11473,"##까":11474,"##임":11475,"##등":11476,"##급":11477,"##하":11478,"##용":11479,"##앨":11480,"##된":11481,"##즈":11482,"##히":11483,"##일":11484,"##마":11485,"##출":11486,"##친":11487,"##r":11488,"##o":11489,"##c":11490,"##n":11491,"##르":11492,"##빔":11493,"##상":11494,"###":11495,"##족":11496,"##합":11497,"##니":11498,"##M":11499,"##보":11500,"##씨":11501,"##게":11502,"##술":11503,"##꾼":11504,"##실":11505,"##호":11506,"##단":11507,"##방":11508,"##면":11509,"##=":11510,"##남":11511,"##구":11512,"##생":11513,"##겁":11514,"##했":11515,"##빛":11516,"##덕":11517,"##척":11518,"##변":11519,"##건":11520,"##형":11521,"##격":11522,"##한":11523,"##났":11524,"##그":11525,"##S":11526,"##t":11527,"##l":11528,"##s":11529,"##원":11530,"##산":11531,"##우":11532,"##사":11533,"##님":11534,"##멜":11535,"##것":11536,"##언":11537,"##G":11538,"##씬":11539,"##분":11540,"##씩":11541,"##청":11542,"##읍":11543,"##푸":11544,"##영":11545,"##염":11546,"##국":11547,"##노":11548,"##초":11549,"##메":11550,"##T":11551,"##룹":11552,"##배":11553,"##달":11554,"##석":11555,"##모":11556,"##토":11557,"##역":11558,"##~":11559,"##던":11560,"##관":11561,"##튼":11562,"##규":11563,"##왔":11564,"##쟈":11565,"##워":11566,"##크":11567,"##오":11568,"##!":11569,"##랑":11570,"##m":11571,"##u":11572,"##_":11573,"##회":11574,"##d":11575,"##였":11576,"##링":11577,"##살":11578,"##천":11579,"##%":11580,"##쿤":11581,"##설":11582,"##빈":11583,"##삭":11584,"##젤":11585,"##롯":11586,"##태":11587,"##택":11588,"##됐":11589,"##빠":11590,"##질":11591,"##탄":11592,"##수":11593,"##낙":11594,"##셋":11595,"##유":11596,"##*":11597,"##중":11598,"##부":11599,"##란":11600,"##독":11601,"##와":11602,"##진":11603,"##벨":11604,"##되":11605,"##겠":11606,"##심":11607,"##려":11608,"##킬":11609,"##뉴":11610,"##환":11611,"##자":11612,"##치":11613,"##(":11614,"##)":11615,"##개":11616,"##발":11617,"##처":11618,"##럼":11619,"##끄":11620,"##러":11621,"##경":11622,"##든":11623,"##교":11624,"##위":11625,"##녤":11626,"##복":11627,"##B":11628,"##A":11629,"##곡":11630,"##선":11631,"##내":11632,"##학":11633,"##희":11634,"##롱":11635,"##냥":11636,"##참":11637,"##딧":11638,"##힐":11639,"##헥":11640,"##난":11641,"##입":11642,"##작":11643,"##품":11644,"##곤":11645,"##행":11646,"##철":11647,"##송":11648,"##런":11649,"##립":11650,"##템":11651,"##폴":11652,"##맹":11653,"##V":11654,"##세":11655,"##젠":11656,"##아":11657,"##담":11658,"##P":11659,"##본":11660,"##권":11661,"##익":11662,"##녀":11663,"##O":11664,"##I":11665,"##듯":11666,"##금":11667,"##글":11668,"##딜":11669,"##v":11670,"##C":11671,"##머":11672,"##최":11673,"##소":11674,"##텔":11675,"##억":11676,"##z":11677,"##색":11678,"##두":11679,"##른":11680,"##베":11681,"##래":11682,"##뎌":11683,"##걸":11684,"##팔":11685,"##투":11686,"##욕":11687,"##객":11688,"##김":11689,"##직":11690,"##졌":11691,"##강":11692,"##현":11693,"##R":11694,"##쿠":11695,"##페":11696,"##팀":11697,"##쵸":11698,"##케":11699,"##볼":11700,"##통":11701,"##번":11702,"##련":11703,"##껴":11704,"##문":11705,"##k":11706,"##브":11707,"##릿":11708,"##튜":11709,"##울":11710,"##손":11711,"##창":11712,"##예":11713,"##취":11714,"##떡":11715,"##할":11716,"##육":11717,"##웁":11718,"##피":11719,"##돌":11720,"##둘":11721,"##표":11722,"##준":11723,"##펠":11724,"##협":11725,"##콜":11726,"##쓰":11727,"##폰":11728,"##네":11729,"##죠":11730,"##향":11731,"##여":11732,"##목":11733,"##봤":11734,"##골":11735,"##접":11736,"##쉬":11737,"##엔":11738,"##먼":11739,"##퉁":11740,"##불":11741,"##므":11742,"##틀":11743,"##코":11744,"##존":11745,"##슨":11746,"##얼":11747,"##업":11748,"##굴":11749,"##꾸":11750,"##록":11751,"##받":11752,"##침":11753,"##꼬":11754,"##저":11755,"##빌":11756,"##흐":11757,"##름":11758,"##항":11759,"##턴":11760,"##근":11761,"##있":11762,"##암":11763,"##료":11764,"##매":11765,"##g":11766,"##X":11767,"##찬":11768,"##L":11769,"##박":11770,"##뿔":11771,"##말":11772,"##먹":11773,"##섀":11774,"##율":11775,"##N":11776,"##농":11777,"##축":11778,"##병":11779,"##쇄":11780,"##샵":11781,"##파":11782,"##략":11783,"##숙":11784,"##슬":11785,"##민":11786,"##커":11787,"##디":11788,"##멸":11789,"##앙":11790,"##검":11791,"##음":11792,"##탑":11793,"##백":11794,"##연":11795,"##릴":11796,"##룸":11797,"##결":11798,"##렌":11799,"##x":11800,"##p":11801,"##벌":11802,"##류":11803,"##렵":11804,"##채":11805,"##집":11806,"##벙":11807,"##킴":11808,"##절":11809,"##흰":11810,"##땃":11811,"##쥐":11812,"##E":11813,"##K":11814,"##낸":11815,"##칙":11816,"##찰":11817,"##뿐":11818,"##풍":11819,"##션":11820,"##뇨":11821,"##증":11822,"##습":11823,"##않":11824,"##툴":11825,"##활":11826,"##땐":11827,"##꽃":11828,"##캠":11829,"##월":11830,"##y":11831,"##칭":11832,"##될":11833,"##때":11834,"##됨":11835,"##속":11836,"##]":11837,"##포":11838,"##답":11839,"##샷":11840,"##액":11841,"##편":11842,"##퍼":11843,"##델":11844,"##앓":11845,"##층":11846,"##벽":11847,"##텐":11848,"##각":11849,"##법":11850,"##믹":11851,"##싱":11852,"##황":11853,"##컨":11854,"##셉":11855,"##\\":11856,"##윳":11857,"##[":11858,"##잔":11859,"##;":11860,"##켜":11861,"##막":11862,"##낭":11863,"##Z":11864,"##쿄":11865,"##닐":11866,"##극":11867,"##텝":11868,"##열":11869,"##쾌":11870,"##톰":11871,"##블":11872,"##애":11873,"##놓":11874,"##점":11875,"##갑":11876,"##슈":11877,"##플":11878,"##샤":11879,"##팅":11880,"##북":11881,"##총":11882,"##픔":11883,"##응":11884,"##쪽":11885,"##득":11886,"##윈":11887,"##팰":11888,"##삿":11889,"##갓":11890,"##찮":11891,"##괴":11892,"##및":11893,"##겨":11894,"##림":11895,"##귀":11896,"##H":11897,"##외":11898,"##짜":11899,"##필":11900,"##승":11901,"##틱":11902,"##댜":11903,"##핑":11904,"##킹":11905,"##윤":11906,"##같":11907,"##<":11908,"##올":11909,"##후":11910,"##햏":11911,"##댕":11912,"##능":11913,"##짓":11914,"##Q":11915,"##쏘":11916,"##혜":11917,"##탐":11918,"##츄":11919,"##겼":11920,"##클":11921,"##판":11922,"##감":11923,"##힘":11924,"##싸":11925,"##째":11926,"##댈":11927,"##랭":11928,"##균":11929,"##순":11930,"##셨":11931,"##붙":11932,"##넣":11933,"##곳":11934,"##렸":11935,"##징":11936,"##웨":11937,"##Y":11938,"##첩":11939,"##웰":11940,"##았":11941,"##력":11942,"##긴":11943,"##론":11944,"##챔":11945,"##잖":11946,"##범":11947,"##쟁":11948,"##뚜":11949,"##벤":11950,"##누":11951,"##웠":11952,"##셸":11953,"##U":11954,"##W":11955,"##땅":11956,"##샘":11957,"##효":11958,"##톤":11959,"##밥":11960,"##롭":11961,"##덤":11962,"##몬":11963,"##렬":11964,"##끗":11965,"##념":11966,"##찜":11967,"##엽":11968,"##쇠":11969,"##느":11970,"##즉":11971,"##넬":11972,"##돈":11973,"##패":11974,"##깜":11975,"##넛":11976,"##봉":11977,"##줬":11978,"##닝":11979,"##빗":11980,"##켰":11981,"##햇":11982,"##견":11983,"##짱":11984,"##냈":11985,"##깐":11986,"##탕":11987,"##젖":11988,"##좀":11989,"##둥":11990,"##널":11991,"##넘":11992,"##칠":11993,"##쌀":11994,"##렉":11995,"##즌":11996,"##컬":11997,"##혹":11998,"##꼔":11999,"##셍":12000,"##F":12001,"##넥":12002,"##켓":12003,"##핀":12004,"##잇":12005,"##삼":12006,"##홍":12007,"##탱":12008,"##망":12009,"##켄":12010,"##렇":12011,"##흥":12012,"##롤":12013,"##찢":12014,"##쿰":12015,"##맛":12016,"##끌":12017,"##럽":12018,"##례":12019,"##댐":12020,"##혔":12021,"##빙":12022,"##람":12023,"##측":12024,"##헨":12025,"##닌":12026,"##폐":12027,"##갤":12028,"##젓":12029,"##햄":12030,"##펙":12031,"##혀":12032,"##숲":12033,"##밭":12034,"##끈":12035,"##알":12036,"##잠":12037,"##앗":12038,"##춘":12039,"##곶":12040,"##또":12041,"##솔":12042,"##슴":12043,"##곰":12044,"##쓱":12045,"##떨":12046,"##렐":12047,"##밀":12048,"##길":12049,"##쳤":12050,"##핵":12051,"##낮":12052,"##엄":12053,"##늪":12054,"##덴":12055,"##녹":12056,"##맨":12057,"##섬":12058,"##멘":12059,"##큐":12060,"##풀":12061,"##훼":12062,"##혁":12063,"##텀":12064,"##룬":12065,"##멍":12066,"##죄":12067,"##갈":12068,"##늑":12069,"##뢰":12070,"##튀":12071,"##엘":12072,"##됭":12073,"##훈":12074,"##낼":12075,"##맥":12076,"##깨":12077,"##밖":12078,"##칩":12079,"##맞":12080,"##섯":12081,"##혈":12082,"##>":12083,"##픽":12084,"##섭":12085,"##특":12086,"##엠":12087,"##몇":12088,"##킨":12089,"##굽":12090,"##묵":12091,"##옵":12092,"##둔":12093,"##짐":12094,"##콤":12095,"##확":12096,"##퐁":12097,"##ㅐ":12098,"##ㄿ":12099,"##딸":12100,"##험":12101,"##궁":12102,"##률":12103,"##넴":12104,"##묘":12105,"##톳":12106,"##쿨":12107,"##높":12108,"##쯤":12109,"##쿡":12110,"##랫":12111,"##뜸":12112,"##맵":12113,"##놀":12114,"##뒤":12115,"##틸":12116,"##놈":12117,"##봇":12118,"##앞":12119,"##늘":12120,"##릭":12121,"##촌":12122,"##털":12123,"##램":12124,"##렛":12125,"##끝":12126,"##쇼":12127,"##몰":12128,"##랜":12129,"##값":12130,"##몹":12131,"##샹":12132,"##랩":12133,"##혼":12134,"##밟":12135,"##빎":12136,"##겜":12137,"##랄":12138,"##허":12139,"##돔":12140,"##솜":12141,"##툼":12142,"##ㅙ":12143,"##ㅋ":12144,"##뎀":12145,"##댓":12146,"##덜":12147,"##넷":12148,"##릇":12149,"##별":12150,"##줘":12151,"##밤":12152,"##$":12153,"##즐":12154,"##쳐":12155,"##갔":12156,"##칸":12157,"##궤":12158,"##컷":12159,"##쌤":12160,"##왓":12161,"##칫":12162,"##덩":12163,"##잡":12164,"##깸":12165,"##뽀":12166,"##맙":12167,"##탯":12168,"##봐":12169,"##줄":12170,"##뱅":12171,"##윙":12172,"##컴":12173,"##퓨":12174,"##셀":12175,"##랙":12176,"##툰":12177,"##탭":12178,"##셰":12179,"##톱":12180,"##컵":12181,"##펜":12182,"##닷":12183,"##챠":12184,"##뎅":12185,"##팝":12186,"##콘":12187,"##홈":12188,"##칼":12189,"##럭":12190,"##옌":12191,"##옹":12192,"##캡":12193,"##쁠":12194,"##텍":12195,"##잉":12196,"##볶":12197,"##퀸":12198,"##얀":12199,"##셈":12200,"##듐":12201,"##휘":12202,"##충":12203,"##톨":12204,"##겐":12205,"##숍":12206,"##날":12207,"##굉":12208,"##욱":12209,"##헤":12210,"##듣":12211,"##떠":12212,"##밌":12213,"##넨":12214,"##꿈":12215,"##똥":12216,"##쿼":12217,"##웅":12218,"##꿔":12219,"##떤":12220,"##흑":12221,"##휴":12222,"##뇌":12223,"##웍":12224,"##@":12225,"##둣":12226,"##룽":12227,"##닥":12228,"##쩡":12229,"##엿":12230,"##냅":12231,"##쁜":12232,"##압":12233,"##궈":12234,"##좌":12235,"##덧":12236,"##짝":12237,"##샬":12238,"##밍":12239,"##쥰":12240,"##닉":12241,"##탤":12242,"##쩍":12243,"##쌍":12244,"##쑤":12245,"##둑":12246,"##컫":12247,"##쨩":12248,"##ㅎ":12249,"##j":12250,"##딱":12251,"##앉":12252,"##긁":12253,"##뜨":12254,"##찌":12255,"##팁":12256,"##딕":12257,"##떼":12258,"##쉘":12259,"##삐":12260,"##융":12261,"##멩":12262,"##쉽":12263,"##쏟":12264,"##곱":12265,"##왁":12266,"##펄":12267,"##늠":12268,"##룰":12269,"##돼":12270,"##얏":12271,"##릉":12272,"##핏":12273,"##따":12274,"##획":12275,"##륜":12276,"##뷰":12277,"##큰":12278,"##렷":12279,"##넌":12280,"##춰":12281,"##놔":12282,"##떻":12283,"##첸":12284,"##깎":12285,"##켈":12286,"##릅":12287,"##냄":12288,"##늒":12289,"##꺼":12290,"##갯":12291,"##몸":12292,"##듭":12293,"##헴":12294,"##딪":12295,"##힌":12296,"##븐":12297,"##렙":12298,"##딘":12299,"##짬":12300,"##뽕":12301,"##옷":12302,"##잘":12303,"##쓴":12304,"##봄":12305,"##딴":12306,"##랏":12307,"##샥":12308,"##쥬":12309,"##멤":12310,"##좋":12311,"##뤘":12312,"##흠":12313,"##촉":12314,"##륙":12315,"##꿀":12316,"##냉":12317,"##콩":12318,"##깥":12319,"##슷":12320,"##눔":12321,"##톡":12322,"##꺄":12323,"##졸":12324,"##콰":12325,"##옐":12326,"##뿌":12327,"##웃":12328,"##찾":12329,"##흔":12330,"##킥":12331,"##옛":12332,"##랐":12333,"##놉":12334,"##즙":12335,"##힝":12336,"##켐":12337,"##즘":12338,"##탁":12339,"##겔":12340,"##랍":12341,"##녕":12342,"##촛":12343,"##ㅡ":12344,"##뚠":12345,"##늄":12346,"##ㄲ":12347,"##흙":12348,"##싫":12349,"##윗":12350,"##숭":12351,"##롬":12352,"##혐":12353,"##밴":12354,"##퇴":12355,"##|":12356,"##착":12357,"##싶":12358,"##듬":12359,"##쥔":12360,"##첨":12361,"##앴":12362,"##납":12363,"##눈":12364,"##잭":12365,"##낑":12366,"##펫":12367,"##젱":12368,"##깽":12369,"##땡":12370,"##께":12371,"##흡":12372,"##깃":12373,"##쫓":12374,"##닛":12375,"##낌":12376,"##쭙":12377,"##맷":12378,"##턱":12379,"##숨":12380,"##딤":12381,"##쉐":12382,"##캅":12383,"##픈":12384,"##푼":12385,"##걀":12386,"##겹":12387,"##훗":12388,"##걱":12389,"##빅":12390,"##댄":12391,"##헬":12392,"##멈":12393,"##썰":12394,"##띠":12395,"##겅":12396,"##펭":12397,"##귄":12398,"##흉":12399,"##^":12400,"##쇤":12401,"##캔":12402,"##잎":12403,"##롹":12404,"##뱀":12405,"##옴":12406,"##폅":12407,"##믄":12408,"##뚱":12409,"##떯":12410,"##왼":12411,"##엉":12412,"##컹":12413,"##썼":12414,"##읽":12415,"##팜":12416,"##찐":12417,"##룩":12418,"##멱":12419,"##틴":12420,"##}":12421,"##{":12422,"##륵":12423,"##튠":12424,"##윅":12425,"##땜":12426,"##쑹":12427,"##햐":12428,"##펑":12429,"##씀":12430,"##툭":12431,"##ㄴ":12432,"##괄":12433,"##삽":12434,"##빵":12435,"##틈":12436,"##팟":12437,"##짹":12438,"##좆":12439,"##웬":12440,"##ㅠ":12441,"##덱":12442,"##밑":12443,"##씹":12444,"##샨":12445,"##벳":12446,"##긋":12447,"##괵":12448,"##캉":12449,"##섰":12450,"##엇":12451,"##닭":12452,"##꼴":12453,"##쯔":12454,"##뻐":12455,"##펨":12456,"##쌓":12457,"##킷":12458,"##낀":12459,"##렘":12460,"##첼":12461,"##캇":12462,"##쟨":12463,"##갱":12464,"##쁘":12465,"##헛":12466,"##놨":12467,"##뇽":12468,"##똘":12469,"##껄":12470,"##빨":12471,"##쎼":12472,"##ㄹ":12473,"##ㄱ":12474,"##밋":12475,"##벡":12476,"##셜":12477,"##뚝":12478,"##꺽":12479,"##팍":12480,"##썅":12481,"##럿":12482,"##핸":12483,"##슛":12484,"##뼈":12485,"##둠":12486,"##슘":12487,"##쁨":12488,"##뒀":12489,"##럯":12490,"##읏":12491,"##줌":12492,"##빤":12493,"##뻔":12494,"##렀":12495,"##펴":12496,"##둬":12497,"##랛":12498,"##뭐":12499,"##뎃":12500,"##쩌":12501,"##킵":12502,"##룻":12503,"##곁":12504,"##앤":12505,"##빽":12506,"##썬":12507,"##숴":12508,"##엙":12509,"##팩":12510,"##얍":12511,"##뀌":12512,"##붕":12513,"##윌":12514,"##홉":12515,"##젼":12516,"##곽":12517,"##갠":12518,"##힙":12519,"##푹":12520,"##넵":12521,"##잣":12522,"##썸":12523,"##휼":12524,"##꺾":12525,"##녁":12526,"##훤":12527,"##겸":12528,"##럴":12529,"##눅":12530,"##폼":12531,"##멧":12532,"##댔":12533,"##벞":12534,"##왜":12535,"##렴":12536,"##엑":12537,"##엣":12538,"##뮤":12539,"##먕":12540,"##퀘":12541,"##갸":12542,"##횟":12543,"##눌":12544,"##믈":12545,"##렜":12546,"##텅":12547,"##륨":12548,"##츤":12549,"##빡":12550,"##핍":12551,"##뮴":12552,"##뭉":12553,"##밸":12554,"##췬":12555,"##큭":12556,"##뱃":12557,"##콥":12558,"##폿":12559,"##눠":12560,"##펌":12561,"##겟":12562,"##댁":12563,"##줏":12564,"##젯":12565,"##헀":12566,"##ㅢ":12567,"##ㅔ":12568,"##낳":12569,"##죳":12570,"##셧":12571,"##렁":12572,"##닮":12573,"##ㅞ":12574,"##ㅅ":12575,"##졔":12576,"##헙":12577,"##됴":12578,"##뎨":12579,"##왈":12580,"##잼":12581,"##쟉":12582,"##띔":12583,"##랴":12584,"##쭉":12585,"##땠":12586,"##뿡":12587,"##벅":12588,"##찔":12589,"##짤":12590,"##쓸":12591,"##틍":12592,"##풋":12593,"##뷔":12594,"##못":12595,"##꼼":12596,"##뻤":12597,"##덮":12598,"##뭇":12599,"##늬":12600,"##벼":12601,"##많":12602,"##궐":12603,"##뽑":12604,"##뀐":12605,"##펀":12606,"##붐":12607,"##깔":12608,"##탓":12609,"##깁":12610,"##싯":12611,"##쿵":12612,"##얄":12613,"##욘":12614,"##쐐":12615,"##웜":12616,"##폄":12617,"##쨋":12618,"##찡":12619,"##뻣":12620,"##뷸":12621,"##륭":12622,"##낚":12623,"##쉴":12624,"##믿":12625,"##쫒":12626,"##뫼":12627,"##짭":12628,"##쪼":12629,"##젬":12630,"##맘":12631,"##햤":12632,"##뻥":12633,"##늅":12634,"##닙":12635,"##맸":12636,"##쳉":12637,"##ㅇ":12638,"##빼":12639,"##탠":12640,"##낫":12641,"##떄":12642,"##쨍":12643,"##늦":12644,"##꿍":12645,"##붑":12646,"##쉈":12647,"##낄":12648,"##둡":12649,"##뉘":12650,"##젝":12651,"##찹":12652,"##쌩":12653,"##큡":12654,"##핫":12655,"##쑥":12656,"##톈":12657,"##뤼":12658,"##텨":12659,"##쩔":12660,"##뜬":12661,"##ㅣ":12662,"##떴":12663,"##뛰":12664,"##팽":12665,"##젹":12666,"##쟤":12667,"##랬":12668,"##됩":12669,"##굿":12670,"##쳰":12671,"##쫄":12672,"##씌":12673,"##돛":12674,"##숫":12675,"##슌":12676,"##츙":12677,"##샌":12678,"##췄":12679,"##챈":12680,"##큠":12681,"##녘":12682,"##졀":12683,"##ㄵ":12684,"##꽂":12685,"##웹":12686,"##흘":12687,"##촬":12688,"##팡":12689,"##벗":12690,"##넓":12691,"##삶":12692,"##캥":12693,"##옆":12694,"##렝":12695,"##렆":12696,"##츨":12697,"##캣":12698,"##줍":12699,"##껏":12700,"##ㄷ":12701,"##뒷":12702,"##솟":12703,"##덫":12704,"##ㅏ":12705,"##땀":12706,"##팎":12707,"##잊":12708,"##헹":12709,"##횡":12710,"##챌":12711,"##멀":12712,"##쫑":12713,"##큘":12714,"##헐":12715,"##썹":12716,"##얘":12717,"##뜩":12718,"##샅":12719,"##킄":12720,"##짖":12721,"##엥":12722,"##썩":12723,"##횽":12724,"##죌":12725,"##씰":12726,"##앵":12727,"##뤄":12728,"##잃":12729,"##슾":12730,"##펐":12731,"##썽":12732,"##챕":12733,"##볕":12734,"##즤":12735,"##죤":12736,"##짠":12737,"##`":12738,"##뇰":12739,"##솥":12740,"##퓌":12741,"##뜻":12742,"##쨔":12743,"##낡":12744,"##촐":12745,"##찍":12746,"##슭":12747,"##탬":12748,"##괜":12749,"##뻘":12750,"##ㅁ":12751,"##ㅊ":12752,"##꼽":12753,"##껌":12754,"##끔":12755,"##끊":12756,"##겉":12757,"##췌":12758,"##팥":12759,"##ㄳ":12760,"##봅":12761,"##뢴":12762,"##슐":12763,"##춥":12764,"##텟":12765,"##찟":12766,"##셩":12767,"##탔":12768,"##뜯":12769,"##녜":12770,"##왚":12771,"##닦":12772,"##붉":12773,"##앱":12774,"##듈":12775,"##ㅍ":12776,"##깊":12777,"##숀":12778,"##닳":12779,"##ㅝ":12780,"##콕":12781,"##촨":12782,"##밨":12783,"##쇽":12784,"##꼭":12785,"##싼":12786,"##캄":12787,"##멕":12788,"##껍":12789,"##첫":12790,"##켑":12791,"##ㅛ":12792,"##숏":12793,"##돗":12794,"##돠":12795,"##꾹":12796,"##흭":12797,"##칵":12798,"##묻":12799,"##퓰":12800,"##ㅕ":12801,"##녓":12802,"##묶":12803,"##퍽":12804,"##ㅈ":12805,"##쭝":12806,"##깝":12807,"##붓":12808,"##륌":12809,"##ㄽ":12810,"##톄":12811,"##팸":12812,"##튐":12813,"##뀨":12814,"##밯":12815,"##섞":12816,"##솨":12817,"##챗":12818,"##뜰":12819,"##릎":12820,"##눞":12821,"##깟":12822,"##닿":12823,"##룀":12824,"##ㅂ":12825,"##뮈":12826,"##먀":12827,"##솩":12828,"##맡":12829,"##깡":12830,"##윽":12831,"##춤":12832,"##뤨":12833,"##긍":12834,"##곧":12835,"##넙":12836,"##뿜":12837,"##뚫":12838,"##챙":12839,"##땝":12840,"##졍":12841,"##쏴":12842,"##뮬":12843,"##됬":12844,"##귈":12845,"##뻑":12846,"##긘":12847,"##귤":12848,"##힛":12849,"##펍":12850,"##겍":12851,"##쳡":12852,"##뺑":12853,"##얽":12854,"##솁":12855,"##닫":12856,"##윰":12857,"##뎠":12858,"##뽁":12859,"##쎄":12860,"##녔":12861,"##돕":12862,"##헝":12863,"##콧":12864,"##셌":12865,"##껫":12866,"##눙":12867,"##깅":12868,"##돚":12869,"##팼":12870,"##웻":12871,"##굳":12872,"##궜":12873,"##튬":12874,"##늙":12875,"##ㅟ":12876,"##욤":12877,"##껑":12878,"##뭥":12879,"##꾱":12880,"##뭄":12881,"##꺵":12882,"##푱":12883,"##꼰":12884,"##퀄":12885,"##굼":12886,"##륀":12887,"##롓":12888,"##쪠":12889,"##숯":12890,"##괘":12891,"##윔":12892,"##튕":12893,"##듸":12894,"##큅":12895,"##욜":12896,"##젊":12897,"##힉":12898,"##뱉":12899,"##꽈":12900,"##삯":12901,"##꿨":12902,"##킁":12903,"##쌈":12904,"##싹":12905,"##샐":12906,"##휠":12907,"##띵":12908,"##꺅":12909,"##띤":12910,"##챘":12911,"##빻":12912,"##곗":12913,"##잋":12914,"##쉔":12915,"##쌕":12916,"##덟":12917,"##꼿":12918,"##켯":12919,"##귡":12920,"##긮":12921,"##깑":12922,"##짼":12923,"##뉜":12924,"##샀":12925,"##캑":12926,"##꽁":12927,"##쏜":12928,"##횰":12929,"##눴":12930,"##앍":12931,"##쉰":12932,"##셴":12933,"##갚":12934,"##엎":12935,"##쁩":12936,"##덬":12937,"##찼":12938,"##늉":12939,"##뀔":12940,"##넉":12941,"##쭐":12942,"##꼈":12943,"##잽":12944,"##쩨":12945,"##챤":12946,"##츈":12947,"##쳇":12948,"##뚤":12949,"##흣":12950,"##넋":12951,"##믛":12952,"##빳":12953,"##괭":12954,"##섕":12955,"##빚":12956,"##촙":12957,"##ㅑ":12958,"##ㅓ":12959,"##춧":12960,"##왑":12961,"##킾":12962,"##밈":12963,"##짚":12964,"##똑":12965,"##쾰":12966,"##뺄":12967,"##밧":12968,"##칰":12969,"##뷋":12970,"##뵈":12971,"##뫄":12972,"##돤":12973,"##듦":12974,"##맺":12975,"##잤":12976,"##ㅌ":12977,"##ㅖ":12978,"##옳":12979,"##엡":12980,"##돋":12981,"##삣":12982,"##쳅":12983,"##좡":12984,"##붸":12985,"##솀":12986,"##쌘":12987,"##쬬":12988,"##랠":12989,"##벚":12990,"##셒":12991,"##깄":12992,"##넝":12993,"##캬":12994,"##캿":12995,"##쨰":12996,"##쿳":12997,"##갰":12998,"##옮":12999,"##핌":13000,"##좨":13001,"##웱":13002,"##읒":13003,"##쟝":13004,"##쩐":13005,"##삘":13006,"##퇘":13007,"##뼉":13008,"##줫":13009,"##볓":13010,"##놋":13011,"##꽝":13012,"##훙":13013,"##앳":13014,"##쭤":13015,"##겄":13016,"##뒈":13017,"##뭍":13018,"##벋":13019,"##뭔":13020,"##멥":13021,"##괼":13022,"##얜":13023,"##갖":13024,"##뺨":13025,"##쾅":13026,"##옙":13027,"##덥":13028,"##냤":13029,"##땟":13030,"##짯":13031,"##얻":13032,"##쭈":13033,"##쯧":13034,"##앜":13035,"##갭":13036,"##멋":13037,"##큔":13038,"##뛴":13039,"##튤":13040,"##븀":13041,"##띄":13042,"##캘":13043,"##섶":13044,"##윷":13045,"##뎐":13046,"##쟢":13047,"##쨌":13048,"##쫘":13049,"##윕":13050,"##걷":13051,"##땁":13052,"##쉭":13053,"##훍":13054,"##깍":13055,"##왐":13056,"##쉑":13057,"##깻":13058,"##콴":13059,"##솝":13060,"##쟌":13061,"##뎬":13062,"##헿":13063,"##쉼":13064,"##쏼":13065,"##ㅗ":13066,"##헉":13067,"##ㅀ":13068,"##탉":13069,"##낵":13070,"##쌌":13071,"##웩":13072,"##맴":13073,"##웽":13074,"##맣":13075,"##잴":13076,"##뤽":13077,"##뺘":13078,"##샙":13079,"##꿧":13080,"##홰":13081,"##첬":13082,"##꿩":13083,"##쮸":13084,"##궃":13085,"##첵":13086,"##큥":13087,"##챱":13088,"##딫":13089,"##뻬":13090,"##냑":13091,"##ㅜ":13092,"##뮌":13093,"##싣":13094,"##뀜":13095,"##튽":13096,"##뿅":13097,"##쿈":13098,"##묷":13099,"##뺏":13100,"##꿉":13101,"##믕":13102,"##떵":13103,"##좁":13104,"##훌":13105,"##쌔":13106,"##눕":13107,"##줴":13108,"##땄":13109,"##벵":13110,"##몫":13111,"##뽄":13112,"##쾨":13113,"##ㅆ":13114,"##쾡":13115,"##쳔":13116,"##퀀":13117,"##헷":13118,"##훅":13119,"##빱":13120,"##볏":13121,"##퐈":13122,"##춛":13123,"##숑":13124,"##쿱":13125,"##긱":13126,"##푀":13127,"##빕":13128,"##샛":13129,"##텁":13130,"##잰":13131,"##툠":13132,"##씽":13133,"##뉠":13134,"##얹":13135,"##앰":13136,"##몄":13137,"##꼐":13138,"##ㄺ":13139,"##쑈":13140,"##뺐":13141,"##뀽":13142,"##옘":13143,"##슙":13144,"##폔":13145,"##뱌":13146,"##뺀":13147,"##밝":13148,"##퉜":13149,"##엌":13150,"##얌":13151,"##튁":13152,"##퍄":13153,"##쏠":13154,"##훕":13155,"##끓":13156,"##쏭":13157,"##뉼":13158,"##컸":13159,"##샴":13160,"##닢":13161,"##롄":13162,"##웉":13163,"##쯋":13164,"##뙈":13165,"##뎁":13166,"##겻":13167,"##럅":13168,"##틔":13169,"##큄":13170,"##뭘":13171,"##냔":13172,"##삑":13173,"##뵤":13174,"##쪄":13175,"##뎡":13176,"##쭘":13177,"##눝":13178,"##ㅒ":13179,"##떈":13180,"##곬":13181,"##홋":13182,"##슝":13183,"##굵":13184,"##딨":13185,"##팻":13186,"##헸":13187,"##뻗":13188,"##랼":13189,"##븨":13190,"##짢":13191,"##돵":13192,"##ㄻ":13193,"##쎈":13194,"##삔":13195,"##삥":13196,"##씸":13197,"##꼻":13198,"##찻":13199,"##쇳":13200,"##얔":13201,"##굣":13202,"##ㅉ":13203,"##셤":13204,"##퓸":13205,"##얾":13206,"##휀":13207,"##끽":13208,"##깰":13209,"##쏵":13210,"##욧":13211,"##햅":13212,"##랸":13213,"##ㄸ":13214,"##엮":13215,"##떽":13216,"##넞":13217,"##얗":13218,"##퀼":13219,"##롼":13220,"##셊":13221,"##곖":13222,"##쵮":13223,"##곲":13224,"##읪":13225,"##휙":13226,"##맑":13227,"##멬":13228,"##뤠":13229,"##숳":13230,"##퉤":13231,"##쩝":13232,"##됫":13233,"##쏫":13234,"##텼":13235,"##빴":13236,"##믜":13237,"##퀜":13238,"##팠":13239,"##핼":13240,"##ㅘ":13241,"##ㄶ":13242,"##닯":13243,"##뮐":13244,"##녠":13245,"##꽉":13246,"##힜":13247,"##ㄾ":13248,"##뛟":13249,"##랖":13250,"##궂":13251,"##솅":13252,"##읭":13253,"##쌰":13254,"##슥":13255,"##텬":13256,"##쵤":13257,"##쫏":13258,"##퀵":13259,"##븡":13260,"##랔":13261,"##맜":13262,"##짋":13263,"##죡":13264,"##꿰":13265,"##훔":13266,"##싁":13267,"##잿":13268,"##폈":13269,"##뾰":13270,"##숄":13271,"##읕":13272,"##툽":13273,"##롸":13274,"##쒸":13275,"##뻉":13276,"##쨈":13277,"##눗":13278,"##얕":13279,"##흩":13280,"##캌":13281,"##몐":13282,"##젔":13283,"##긔":13284,"##졋":13285,"##햔":13286,"##맟":13287,"##솽":13288,"##흫":13289,"##큽":13290,"##룅":13291,"##쉿":13292,"##꿇":13293,"##쑨":13294,"##봣":13295,"##뜀":13296,"##흄":13297,"##훠":13298,"##껨":13299,"##픙":13300,"##켁":13301,"##젭":13302,"##짧":13303,"##볍":13304,"##넹":13305,"##칲":13306,"##겋":13307,"##틋":13308,"##쳄":13309,"##잌":13310,"##뭋":13311,"##꺘":13312,"##탸":13313,"##캰":13314,"##밞":13315,"##웡":13316,"##궶":13317,"##궫":13318,"##궻":13319,"##랤":13320,"##궢":13321,"##뺴":13322,"##쫀":13323,"##빝":13324,"##쉠":13325,"##꾀":13326,"##볐":13327,"##꽌":13328,"##퇼":13329,"##ㅚ":13330,"##ㄼ":13331,"##댑":13332,"##똬":13333,"##ㅄ":13334,"##윶":13335,"##뷁":13336,"##짔":13337,"##갛":13338,"##볜":13339,"##짞":13340,"##촘":13341,"##벧":13342,"##쵼":13343,"##쩃":13344,"##켕":13345,"##됀":13346,"##듕":13347,"##귁":13348,"##팏":13349,"##욬":13350,"##씻":13351,"##퉆":13352,"##벰":13353,"##냘":13354,"##썻":13355,"##쮜":13356,"##왠":13357,"##믓":13358,"##딥":13359,"##컁":13360,"##랗":13361,"##핥":13362,"##궉":13363,"##묭":13364,"##펩":13365,"##숟":13366,"##샾":13367,"##곘":13368,"##챳":13369,"##괌":13370,"##꿋":13371,"##깩":13372,"##냠":13373,"##븅":13374,"##숼":13375,"##믁":13376,"##삡":13377,"##뚥":13378,"##뗑":13379,"##냇":13380,"##맆":13381,"##똔":13382,"##낏":13383,"##솬":13384,"##꿘":13385,"##헵":13386,"##낯":13387,"##퍅":13388,"##쉥":13389,"##멓":13390,"##뷜":13391,"##뒹":13392,"##옄":13393,"##쳥":13394,"##뗘":13395,"##풉":13396,"##슻":13397,"##슉":13398,"##뉨":13399,"##컥":13400,"##떳":13401,"##빰":13402,"##쬐":13403,"##놯":13404,"##튄":13405,"##퓔":13406,"##빩":13407,"##껀":13408,"##뼛":13409,"##겝":13410,"##셱":13411,"##쏨":13412,"##짊":13413,"##헣":13414,"##쫃":13415,"##뮨":13416,"##쥴":13417,"##찝":13418,"##넒":13419,"##밎":13420,"##펏":13421,"##즛":13422,"##귖":13423,"##끅":13424,"##헜":13425,"##웟":13426,"##롮":13427,"##몀":13428,"##껸":13429,"##걔":13430,"##쐈":13431,"##쿌":13432,"##븍":13433,"##춋":13434,"##걺":13435,"##댱":13436,"##깠":13437,"##쥘":13438,"##핳":13439,"##앟":13440,"##뻴":13441,"##굶":13442,"##릍":13443,"##읗":13444,"##탰":13445,"##썌":13446,"##벜":13447,"##핤":13448,"##걉":13449,"##츌":13450,"##튿":13451,"##끎":13452,"##됏":13453,"##괸":13454,"##쌜":13455,"##쟛":13456,"##엊":13457,"##퓻":13458,"##핮":13459,"##텡":13460,"##쌉":13461,"##갞":13462,"##뽈":13463,"##딲":13464,"##췰":13465,"##먄":13466,"##붜":13467,"##럷":13468,"##옉":13469,"##섁":13470,"##엾":13471,"##젶":13472,"##톮":13473,"##닜":13474,"##뚯":13475,"##틉":13476,"##췛":13477,"##뿛":13478,"##뿍":13479,"##맏":13480,"##닽":13481,"##꽤":13482,"##췍":13483,"##휜":13484,"##큿":13485,"##걼":13486,"##롈":13487,"##쀼":13488,"##츔":13489,"##쮀":13490,"##갘":13491,"##봌":13492,"##옻":13493,"##풹":13494,"##뿎":13495,"##잦":13496,"##홑":13497,"##됌":13498,"##괏":13499,"##륄":13500,"##뿗":13501,"##랎":13502,"##겡":13503,"##뿟":13504,"##졶":13505,"##곯":13506,"##꼳":13507,"##곂":13508,"##겊":13509,"##츼":13510,"##띨":13511,"##핟":13512,"##짇":13513,"##맽":13514,"##뤗":13515,"##읜":13516,"##챵":13517,"##텃":13518,"##뗄":13519,"##핡":13520,"##묨":13521,"##쨥":13522,"##닻":13523,"##굇":13524,"##휸":13525,"##룔":13526,"##쎅":13527,"##옼":13528,"##넠":13529,"##튱":13530,"##젟":13531,"##읟":13532,"##쬔":13533,"##밷":13534,"##뉵":13535,"##쥼":13536,"##뱝":13537,"##뜌":13538,"##틂":13539,"##딛":13540,"##럇":13541,"##뜳":13542,"##쾃":13543,"##쵝":13544,"##쫌":13545,"##륍":13546,"##팃":13547,"##픗":13548,"##닼":13549,"##퉨":13550,"##앚":13551,"##씐":13552,"##릐":13553,"##뒴":13554,"##퀏":13555,"##쿙":13556,"##뱐":13557,"##뵙":13558,"##끙":13559,"##웸":13560,"##왯":13561,"##쳣":13562,"##믐":13563,"##벛":13564,"##럐":13565,"##툐":13566,"##퀑":13567,"##뒨":13568,"##챨":13569,"##옿":13570,"##횞":13571,"##삾":13572,"##푄":13573,"##됍":13574,"##읓":13575,"##몆":13576,"##씄":13577,"##묏":13578,"##쪘":13579,"##냣":13580,"##좐":13581,"##뗴":13582,"##푈":13583,"##뭡":13584,"##쑵":13585,"##챡":13586,"##긿":13587,"##욺":13588,"##홧":13589,"##낲":13590,"##윾":13591,"##켤":13592,"##죔":13593,"##뗀":13594,"##ㅃ":13595,"##롷":13596,"##뜷":13597,"##캽":13598,"##냨":13599,"##뗌":13600,"##떁":13601,"##핰":13602,"##텦":13603,"##륽":13604,"##칬":13605,"##챃":13606,"##귓":13607,"##츳":13608,"##뺌":13609,"##덍":13610,"##갼":13611,"##퇸":13612,"##쨤":13613,"##묠":13614,"##푤":13615,"##콸":13616,"##갇":13617,"##걍":13618,"##붇":13619,"##귿":13620,"##첱":13621,"##횃":13622,"##쳑":13623,"##읊":13624,"##쬴":13625,"##됼":13626,"##굑":13627,"##툥":13628,"##쎵":13629,"##꿂":13630,"##겆":13631,"##딍":13632,"##뱁":13633,"##켠":13634,"##왱":13635,"##퓬":13636,"##햘":13637,"##킅":13638,"##츅":13639,"##뱡":13640,"##핬":13641,"##돝":13642,"##캎":13643,"##묙":13644,"##쉪":13645,"##낟":13646,"##앏":13647,"##씁":13648,"##넜":13649,"##듄":13650,"##곀":13651,"##츰":13652,"##켔":13653,"##꽥":13654,"##촤":13655,"##쵀":13656,"##뇩":13657,"##뷕":13658,"##멂":13659,"##찧":13660,"##뵬":13661,"##콬":13662,"##횬":13663,"##쫙":13664,"##톸":13665,"##벱":13666,"##깤":13667,"##닁":13668,"##엪":13669,"##돡":13670,"##큣":13671,"##쫗":13672,"##묾":13673,"##뵹":13674,"##엏":13675,"##펼":13676,"##엳":13677,"##삧":13678,"##빪":13679,"##늣":13680,"##홥":13681,"##갉":13682,"##띱":13683,"##흗":13684,"##덣":13685,"##숔":13686,"##":13687,"##똠":13688,"##몿":13689,"##웤":13690,"##쩜":13691,"##펰":13692,"##숩":13693,"##갂":13694,"##롑":13695,"##갬":13696,"##깼":13697,"##텄":13698,"##륑":13699,"##햌":13700,"##핱":13701,"##얺":13702,"##폮":13703,"##졈":13704,"##뷘":13705,"##볻":13706,"##쟘":13707,"##옅":13708,"##귯":13709,"##낱":13710,"##륩":13711,"##앆":13712,"##븃":13713,"##튭":13714,"##콫":13715,"##슼":13716,"##귐":13717,"##렏":13718,"##뵘":13719,"##즥":13720,"##읨":13721,"##욥":13722,"##끾":13723,"##넸":13724,"##죰":13725,"##괠":13726,"##뷴":13727,"##켮":13728,"##쥿":13729,"##솎":13730,"##죈":13731,"##봬":13732,"##췜":13733,"##챦":13734,"##럄":13735,"##봥":13736,"##놐":13737,"##훨":13738,"##홐":13739,"##밢":13740,"##닊":13741,"##뵐":13742,"##릈":13743,"##퓐":13744,"##쾈":13745,"##잨":13746,"##댼":13747,"##옭":13748,"##랒":13749,"##맬":13750,"##깉":13751,"##덨":13752,"##죵":13753,"##뢸":13754,"##쬼":13755,"##밐":13756,"##씡":13757,"##닾":13758,"##앢":13759,"##봠":13760,"##쳬":13761,"##젴":13762,"##춍":13763,"##셕":13764,"##퐝":13765,"##엩":13766,"##탙":13767,"##쥠":13768,"##짰":13769,"##캴":13770,"##귬":13771,"##헽":13772,"##팈":13773,"##끍":13774,"##텆":13775,"##뼜":13776,"##띡":13777,"##솹":13778,"##듧":13779,"##웗":13780,"##쟙":13781,"##픟":13782,"##깬":13783,"##쉣":13784,"##픠":13785,"##튈":13786,"##둉":13787,"##롁":13788,"##팹":13789,"##뤳":13790,"##췐":13791,"##앩":13792,"##윱":13793,"##싀":13794,"##꽹":13795,"##잩":13796,"##숌":13797,"##뤂":13798,"##뻼":13799,"##퇀":13800,"##몌":13801,"##푯":13802,"##갹":13803,"##캤":13804,"##쏙":13805,"##읋":13806,"##뾱":13807,"##낰":13808,"##줜":13809,"##챰":13810,"##뗬":13811,"##귱":13812,"##섦":13813,"##띌":13814,"##얶":13815,"##뒬":13816,"##휩":13817,"##닺":13818,"##혠":13819,"##뫌":13820,"##훵":13821,"##뚬":13822,"##꾁":13823,"##홓":13824,"##긌":13825,"##픕":13826,"##웝":13827,"##숮":13828,"##탶":13829,"##굸":13830,"##삵":13831,"##껭":13832,"##랲":13833,"##좃":13834,"##뭣":13835,"##쟂":13836,"##됙":13837,"##횻":13838,"##겪":13839,"##갗":13840,"##묄":13841,"##뮹":13842,"##맢":13843,"##띰":13844,"##똣":13845,"##줭":13846,"##긑":13847,"##떱":13848,"##쎌":13849,"##룝":13850,"##뀰":13851,"##쌥":13852,"##춉":13853,"##덛":13854,"##뤤":13855,"##뗐":13856,"##룐":13857,"##룃":13858,"##쪙":13859,"##놧":13860,"##핲":13861,"##힣":13862,"##땋":13863,"##볫":13864,"##걜":13865,"##딮":13866,"##묀":13867,"##쒀":13868,"##죗":13869,"##옝":13870,"##힡":13871,"##챶":13872,"##텽":13873,"##궨":13874,"##븸":13875,"##햿":13876,"##껐":13877,"##쩎":13878,"##샇":13879,"##쒠":13880,"##쀏":13881,"##좄":13882,"##촹":13883,"##쇨":13884,"##킼":13885,"##햑":13886,"##쬲":13887,"##둟":13888,"##휨":13889,"##앒":13890,"##틜":13891,"##뿨":13892,"##듼":13893,"##옫":13894,"##맫":13895,"##슳":13896,"##곪":13897,"##뿝":13898,"##녈":13899,"##싴":13900,"##찿":13901,"##톺":13902,"##뢱":13903,"##됄":13904,"##됸":13905,"##풂":13906,"##흴":13907,"##쯩":13908,"##탼":13909,"##넀":13910,"##뼘":13911,"##궘":13912,"##툿":13913,"##읔":13914,"##욛":13915,"##샜":13916,"##꺙":13917,"##홯":13918,"##솃":13919,"##긩":13920,"##뭏":13921,"##멎":13922,"##찎":13923,"##몯":13924,"##옾":13925,"##옇":13926,"##혓":13927,"##왇":13928,"##헠":13929,"##깈":13930,"##짙":13931,"##퓽":13932,"##숱":13933,"##엃":13934,"##홝":13935,"##뺵":13936,"##뭅":13937,"##뺭":13938,"##묜":13939,"##먺":13940,"##핧":13941,"##솦":13942,"##눨":13943,"##긏":13944,"##껜":13945,"##헔":13946,"##펲":13947,"##걲":13948,"##꾜":13949,"##젺":13950,"##볘":13951,"##뺩":13952,"##떰":13953,"##쟆":13954,"##랕":13955,"##쎘":13956,"##궝":13957,"##뷀":13958,"##슲":13959,"##뇝":13960,"##먁":13961,"##턍":13962,"##굥":13963,"##렡":13964,"##엤":13965,"##훇":13966,"##쵹":13967,"##왝":13968,"##잍":13969,"##뛸":13970,"##썖":13971,"##끠":13972,"##픞":13973,"##쎀":13974,"##쾀":13975,"##쓩":13976,"##뵀":13977,"##꿎":13978,"##뜹":13979,"##꽐":13980,"##슶":13981,"##틊":13982,"##렿":13983,"##휭":13984,"##휫":13985,"##쳌":13986,"##넼":13987,"##랟":13988,"##쨜":13989,"##뽐":13990,"##숸":13991,"##뇬":13992,"##뜽":13993,"##섣":13994,"##봊":13995,"##쿗":13996,"##콱":13997,"##춈":13998,"##궅":13999,"##꺠":14000,"##뷥":14001,"##쨉":14002,"##뛷":14003,"##뗻":14004,"##빧":14005,"##띧":14006,"##웊":14007,"##섄":14008,"##퍗":14009,"##폽":14010,"##읃":14011,"##푕":14012,"##쌞":14013,"##떫":14014,"##슠":14015,"##벆":14016,"##꼇":14017,"##쳿":14018,"##쒜":14019,"##쇙":14020,"##꺗":14021,"##듁":14022,"##똵":14023,"##멐":14024,"##졐":14025,"##꺑":14026,"##틑":14027,"##쎔":14028,"##꿏":14029,"##슮":14030,"##퉌":14031,"##컾":14032,"##멭":14033,"##슽":14034,"##몃":14035,"##묽":14036,"##쩠":14037,"##왘":14038,"##뫙":14039,"##퀠":14040,"##긧":14041,"##씜":14042,"##졩":14043,"##긇":14044,"##쌨":14045,"##읻":14046,"##햝":14047,"##덭":14048,"##햣":14049,"##걕":14050,"##묑":14051,"##톼":14052,"##쵇":14053,"##샄":14054,"##띾":14055,"##먐":14056,"##뻰":14057,"##퍈":14058,"##혿":14059,"##꼉":14060,"##밉":14061,"##짦":14062,"##핻":14063,"##룺":14064,"##룯":14065,"##퐆":14066,"##튝":14067,"##졘":14068,"##섴":14069,"##쥭":14070,"##쁐":14071,"##욌":14072,"##웦":14073,"##귑":14074,"##앀":14075,"##뇔":14076,"##덌":14077,"##룟":14078,"##뾆":14079,"##쑬":14080,"##얃":14081,"##턔":14082,"##끕":14083,"##엷":14084,"##븢":14085,"##쯕":14086,"##녂":14087,"##얇":14088,"##풔":14089,"##돞":14090,"##쩬":14091,"##톩":14092,"##뵷":14093,"##읶":14094,"##뙇":14095,"##홤":14096,"##곹":14097,"##횐":14098,"##븜":14099,"##켸":14100,"##췃":14101,"##슁":14102,"##쳘":14103,"##쏽":14104,"##뽓":14105,"##쟎":14106,"##겕":14107,"##냙":14108,"##굔":14109,"##챂":14110,"##뀩":14111,"##낢":14112,"##뼥":14113,"##얭":14114,"##윜":14115,"##룍":14116,"##봘":14117,"##퉈":14118,"##쥣":14119,"##삻":14120,"##쌴":14121,"##뉸":14122,"##럈":14123,"##붝":14124,"##켝":14125,"##놘":14126,"##칡":14127,"##팦":14128,"##힇":14129,"##쥩":14130,"##욯":14131,"##앎":14132,"##쏩":14133,"##슺":14134,"##얅":14135,"##돐":14136,"##넎":14137,"##굄":14138,"##켣":14139,"##겷":14140,"##댸":14141,"##겧":14142,"##쐬":14143,"##댠":14144,"##랰":14145,"##낔":14146,"##쒞":14147,"##삮":14148,"##뎻":14149,"##켙":14150,"##쎤":14151,"##맅":14152,"##욍":14153,"##빋":14154,"##촥":14155,"##쉅":14156,"##쵠":14157,"##씪":14158,"##잆":14159,"##픖":14160,"##몪":14161,"##핁":14162,"##붏":14163,"##둗":14164,"##뢍":14165,"##좇":14166,"##읖":14167,"##횔":14168,"##뭬":14169,"##켱":14170,"##쬿":14171,"##뱄":14172,"##놂":14173,"##븥":14174,"##얬":14175,"##삷":14176,"##샢":14177,"##듨":14178,"##좔":14179,"##맂":14180,"##훽":14181,"##쒂":14182,"##꽅":14183,"##꾿":14184,"##픝":14185,"##뇸":14186,"##넚":14187,"##맻":14188,"##귾":14189,"##괍":14190,"##욷":14191,"##쭌":14192,"##섥":14193,"##쁟":14194,"##횅":14195,"##읅":14196,"##돨":14197,"##뗏":14198,"##쮓":14199,"##럘":14200,"##빏":14201,"##릳":14202,"##햟":14203,"##툉":14204,"##삳":14205,"##똻":14206,"##엨":14207,"##붱":14208,"##찦":14209,"##긎":14210,"##싑":14211,"##쾽":14212,"##찃":14213,"##떘":14214,"##휅":14215,"##쪗":14216,"##믬":14217,"##넽":14218,"##꼣":14219,"##밫":14220,"##쪤":14221,"##첲":14222,"##냩":14223,"##쟐":14224,"##풒":14225,"##쾁":14226,"##꺀":14227,"##쓔":14228,"##섊":14229,"##큇":14230,"##쎠":14231,"##팤":14232,"##졧":14233,"##뽂":14234,"##걋":14235,"##렦":14236,"##뙤":14237,"##딯":14238,"##믖":14239,"##꼑":14240,"##곈":14241,"##롕":14242,"##멏":14243,"##훑":14244,"##낍":14245,"##휄":14246,"##엫":14247,"##쌱":14248,"##욹":14249,"##쨀":14250,"##핗":14251,"##봡":14252,"##뺙":14253,"##줃":14254,"##맀":14255,"##볌":14256,"##왉":14257,"##릌":14258,"##둏":14259,"##쩩":14260,"##쿸":14261,"##죙":14262,"##췼":14263,"##뗵":14264,"##즑":14265,"##짂":14266,"##퐅":14267,"##앛":14268,"##붠":14269,"##궭":14270,"##컼":14271,"##켭":14272,"##똰":14273,"##떗":14274,"##쓉":14275,"##롫":14276,"##탹":14277,"##맠":14278,"##곅":14279,"##뱔":14280,"##옺":14281,"##뒫":14282,"##뉻":14283,"##읹":14284,"##엗":14285,"##샊":14286,"##갷":14287,"##읎":14288,"##휳":14289,"##쥡":14290,"##갴":14291,"##껼":14292,"##쮠":14293,"##돎":14294,"##멨":14295,"##돇":14296,"##늕":14297,"##뱟":14298,"##쨕":14299,"##쟞":14300,"##쀵":14301,"##샏":14302,"##긃":14303,"##얒":14304,"##롣":14305,"##솰":14306,"##뜁":14307,"##윘":14308,"##샻":14309,"##닸":14310,"##뮉":14311,"##촠":14312,"##뷍":14313,"##꺆":14314,"##퍕":14315,"##섐":14316,"##뚞":14317,"##쨖":14318,"##읫":14319,"##썄":14320,"##썋":14321,"##뇻":14322,"##띈":14323,"##넖":14324,"##귊":14325,"##슯":14326,"##얐":14327,"##뉙":14328,"##럤":14329,"##렂":14330,"##욭":14331,"##벟":14332,"##퓩":14333,"##즁":14334,"##붰":14335,"##퐐":14336,"##썜":14337,"##킌":14338,"##븝":14339,"##횦":14340,"##잪":14341,"##긺":14342,"##둙":14343,"##툵":14344,"##곌":14345,"##퇵":14346,"##뤕":14347,"##뭴":14348,"##잏":14349,"##앋":14350,"##뵌":14351,"##엒":14352,"##뎈":14353,"##쁑":14354,"##헑":14355,"##퍀":14356,"##싢":14357,"##쌐":14358,"##늨":14359,"##늡":14360,"##쯰":14361,"##옸":14362,"##툻":14363,"##뽜":14364,"##뤌":14365,"##쑝":14366,"##뷧":14367,"##쒯":14368,"##쥽":14369,"##읇":14370,"##욣":14371,"##욨":14372,"##젇":14373,"##닠":14374,"##훟":14375,"##졷":14376,"##쯉":14377,"##껒":14378,"##뿠":14379,"##봙":14380,"##틘":14381,"##쇵":14382,"##뚧":14383,"##캭":14384,"##뀠":14385,"##굘":14386,"##붗":14387,"##잗":14388,"##췻":14389,"##갣":14390,"##닏":14391,"##쁫":14392,"##롵":14393,"##믙":14394,"##뭊":14395,"##뼝":14396,"##큎":14397,"##쟀":14398,"##턚":14399,"##콮":14400,"##웈":14401,"##쩼":14402,"##륷":14403,"##듟":14404,"##냡":14405,"##뼤":14406,"##깢":14407,"##킸":14408,"##늗":14409,"##죱":14410,"##탖":14411,"##쬈":14412,"##쫍":14413,"##렺":14414,"##팯":14415,"##섈":14416,"##쩄":14417,"##콭":14418,"##앧":14419,"##얿":14420,"##왤":14421,"##걘":14422,"##떙":14423,"##믏":14424,"##쩰":14425,"##쨘":14426,"##쑦":14427,"##쌋":14428,"##넡":14429,"##샠":14430,"##읠":14431,"##곸":14432,"##턩":14433,"##꼯":14434,"##퇄":14435,"##럔":14436,"##혬":14437,"##뻠":14438,"##놰":14439,"##췩":14440,"##떦":14441,"##쁴":14442,"##꺕":14443,"##굡":14444,"##폘":14445,"##밬":14446,"##뛔":14447,"##퀩":14448,"##롶":14449,"##볔":14450,"##뒥":14451,"##덷":14452,"##츩":14453,"##툱":14454,"##췹":14455,"##왖":14456,"##낛":14457,"##읷":14458,"##덗":14459,"##삤":14460,"##뿀":14461,"##챺":14462,"##햬":14463,"##셆":14464,"##쯥":14465,"##뗼":14466,"##뺸":14467,"##퐳":14468,"##튓":14469,"##갃":14470,"##쩻":14471,"##짆":14472,"##몋":14473,"##캋":14474,"##껬":14475,"##쏸":14476,"##퀫":14477,"##뵜":14478,"##땔":14479,"##뎜":14480,"##뾲":14481,"##쒼":14482,"##늇":14483,"##쎕":14484,"##뚀":14485,"##벹":14486,"##샼":14487,"##첮":14488,"##풰":14489,"##뤈":14490,"##즹":14491,"##돖":14492,"##캆":14493,"##왒":14494,"##싮":14495,"##밦":14496,"##읐":14497,"##먜":14498,"##볟":14499,"##퐄":14500,"##벍":14501,"##쉨":14502,"##씝":14503,"##덝":14504,"##냬":14505,"##쫜":14506,"##븟":14507,"##좬":14508,"##쯘":14509,"##퉷":14510,"##렫":14511,"##뀝":14512,"##쿽":14513,"##뾼":14514,"##츕":14515,"##먈":14516,"##끑":14517,"##횄":14518,"##릏":14519,"##걌":14520,"##뤁":14521,"##얙":14522,"##폕":14523,"##늰":14524,"##슿":14525,"##덞":14526,"##솊":14527,"##줵":14528,"##슧":14529,"##샟":14530,"##땍":14531,"##좜":14532,"##욀":14533,"##밮":14534,"##퀌":14535,"##꼍":14536,"##핢":14537,"##뇾":14538,"##휵":14539,"##똏":14540,"##큉":14541,"##떥":14542,"##뜜":14543,"##뜔":14544,"##뾸":14545,"##셑":14546,"##둩":14547,"##켼":14548,"##훝":14549,"##똡":14550,"##럲":14551,"##쎾":14552,"##숡":14553,"##휔":14554,"##눼":14555,"##졉":14556,"##뗔":14557,"##뚸":14558,"##뀀":14559,"##뱍":14560,"##쒓":14561,"##뵨":14562,"##벝":14563,"##띙":14564,"##녛":14565,"##쑴":14566,"##뎋":14567,"##핶":14568,"##롴":14569,"##둚":14570,"##냏":14571,"##놕":14572,"##푁":14573,"##졤":14574,"##빢":14575,"##쾬":14576,"##륻":14577,"##엋":14578,"##릔":14579,"##녝":14580,"##깹":14581,"##씅":14582,"##륏":14583,"##겓":14584,"##읺":14585,"##젙":14586,"##뎰":14587,"##씃":14588,"##첐":14589,"##봍":14590,"##싷":14591,"##믱":14592,"##눤":14593,"##팖":14594,"##컽":14595,"##웛":14596,"##뚕":14597,"##엜":14598,"##컺":14599,"##쥤":14600,"##쎽":14601,"##뢉":14602,"##뢔":14603,"##뀬":14604,"##륫":14605,"##븘":14606,"##봑":14607,"##헭":14608,"##킈":14609,"##싿":14610,"##괐":14611,"##뒓":14612,"##휏":14613,"##둰":14614,"##뚭":14615,"##댤":14616,"##묫":14617,"##맄":14618,"##뢀":14619,"##젋":14620,"##쮹":14621,"##벓":14622,"##칢":14623,"##꼄":14624,"##왹":14625,"##쁭":14626,"##뫁":14627,"##옒":14628,"##킽":14629,"##쩧":14630,"##힁":14631,"##댛":14632,"##랓":14633,"##뜝":14634,"##겴":14635,"##껶":14636,"##쉟":14637,"##렣":14638,"##좍":14639,"##둪":14640,"##넫":14641,"##볽":14642,"##밣":14643,"##훜":14644,"##훴":14645,"##좸":14646,"##텻":14647,"##젅":14648,"##끡":14649,"##톹":14650,"##읆":14651,"##뒝":14652,"##녯":14653,"##챼":14654,"##췔":14655,"##뻭":14656,"##짘":14657,"##튻":14658,"##볙":14659,"##쁋":14660,"##욉":14661,"##븓":14662,"##퉹":14663,"##폥":14664,"##귕":14665,"##뒕":14666,"##뫞":14667,"##뿷":14668,"##땞":14669,"##밪":14670,"##뒗":14671,"##됵":14672,"##롊":14673,"##웕":14674,"##칯":14675,"##겾":14676,"##욼":14677,"##핝":14678,"##햎":14679,"##낪":14680,"##밊":14681,"##겿":14682,"##썪":14683,"##솖":14684,"##멌":14685,"##쯱":14686,"##좝":14687,"##흿":14688,"##낻":14689,"##혉":14690,"##귚":14691,"##넗":14692,"##뫅":14693,"##뙡":14694,"##퀭":14695,"##둴":14696,"##먘":14697,"##싟":14698,"##걁":14699,"##뙳":14700,"##홂":14701,"##믽":14702,"##샶":14703,"##곻":14704,"##멉":14705,"##옡":14706,"##햡":14707,"##놑":14708,"##믗":14709,"##됑":14710,"##밁":14711,"##뽭":14712,"##횩":14713,"##훞":14714,"##뚁":14715,"##맍":14716,"##햊":14717,"##졲":14718,"##덿":14719,"##썡":14720,"##릣":14721,"##뛝":14722,"##뎍":14723,"##햛":14724,"##륐":14725,"##뽝":14726,"##푠":14727,"##긲":14728,"##팛":14729,"##쟄":14730,"##땻":14731,"##녑":14732,"##긂":14733,"##떢":14734,"##쑉":14735,"##릠":14736,"##둄":14737,"##췁":14738,"##늫":14739,"##둇":14740,"##봫":14741,"##쾍":14742,"##싨":14743,"##퉅":14744,"##퍌":14745,"##윁":14746,"##췅":14747,"##괬":14748,"##룁":14749,"##즠":14750,"##솧":14751,"##붹":14752,"##웎":14753,"##픓":14754,"##릥":14755,"##줙":14756,"##읙":14757,"##컿":14758,"##핕":14759,"##픅":14760,"##앖":14761,"##죶":14762,"##깞":14763,"##덪":14764,"##쟠":14765,"##븰":14766,"##츱":14767,"##챝":14768,"##쿏":14769,"##딬":14770,"##젂":14771,"##삠":14772,"##탒":14773,"##듮":14774,"##긓":14775,"##휑":14776,"##쓺":14777,"##앝":14778,"##꿑":14779,"##뗋":14780,"##찯":14781,"##왬":14782,"##솓":14783,"##쒹":14784,"##컭":14785,"##샆":14786,"##힠":14787,"##껰":14788,"##흝":14789,"##쐴":14790,"##뜼":14791,"##릾":14792,"##퉥":14793,"##촷":14794,"##뇐":14795,"##툇":14796,"##줒":14797,"##씺":14798,"##쳴":14799,"##릋":14800,"##핚":14801,"##컀":14802,"##듓":14803,"##듵":14804,"##륿":14805,"##꽜":14806,"##뻿":14807,"##큪":14808,"##뎔":14809,"##잒":14810,"##쏌":14811,"##먗":14812,"##몔":14813,"##갊":14814,"##퀙":14815,"##좊":14816,"##댯":14817,"##앾":14818,"##욿":14819,"##긜":14820,"##륶":14821,"##퀍":14822,"##뫈":14823,"##퇜":14824,"##뚦":14825,"##츸":14826,"##놇":14827,"##뻇":14828,"##멑":14829,"##킐":14830,"##섑":14831,"##굷":14832,"##뱽":14833,"##춭":14834,"##싕":14835,"##뭑":14836,"##얷":14837,"##뺠":14838,"##벖":14839,"##웒":14840,"##뎗":14841,"##뒑":14842,"##뙗":14843,"##줸":14844,"##툘":14845,"##옜":14846,"##틧":14847,"##씼":14848,"##꺈":14849,"##켚":14850,"##떟":14851,"##빞":14852,"##맇":14853,"##눜":14854,"##섷":14855,"##댇":14856,"##웋":14857,"##괃":14858,"##쩽":14859,"##읩":14860,"##빖":14861,"##쭊":14862,"##밂":14863,"##킳":14864,"##릁":14865,"##칞":14866,"##싄":14867,"##빟":14868,"##숬":14869,"##콀":14870,"##텰":14871,"##뵽":14872,"##웴":14873,"##븏":14874,"##셖":14875,"##꿱":14876,"##죨":14877,"##캜":14878,"##뭭":14879,"##쐑":14880,"##뙨":14881,"##셐":14882,"##쥑":14883,"##퇻":14884,"##혯":14885,"##궄":14886,"##톋":14887,"##씉":14888,"##랃":14889,"##곷":14890,"##껠":14891,"##꽛":14892,"##붼":14893,"##윿":14894,"##엓":14895,"##뀙":14896,"##뚮":14897,"##쐙":14898,"##뽟":14899,"##긷":14900,"##잙":14901,"##솸":14902,"##춸":14903,"##쮝":14904,"##덦":14905,"##넁":14906,"##팣":14907,"##쒔":14908,"##톕":14909,"##곙":14910,"##궛":14911,"##씯":14912,"##옓":14913,"##곕":14914,"##놁":14915,"##뒿":14916,"##댊":14917,"##땗":14918,"##쭹":14919,"##궹":14920,"##긤":14921,"##쀠":14922,"##띕":14923,"##쎙":14924,"##햠":14925,"##켬":14926,"##졜":14927,"##턀":14928,"##몁":14929,"##믌":14930,"##줕":14931,"##땨":14932,"##귔":14933,"##훋":14934,"##펔":14935,"##웆":14936,"##웓":14937,"##뗸":14938,"##졎":14939,"##촾":14940,"##쉩":14941,"##겯":14942,"##늼":14943,"##켘":14944,"##흨":14945,"##깯":14946,"##쳠":14947,"##땩":14948,"##폇":14949,"##긕":14950,"##겣":14951,"##쳈":14952,"##힗":14953,"##쏻":14954,"##푝":14955,"##싰":14956,"##촴":14957,"##끟":14958,"##푿":14959,"##탣":14960,"##왰":14961,"##뜐":14962,"##쓤":14963,"##찓":14964,"##궬":14965,"##쁎":14966,"##쯜":14967,"##쉡":14968,"##얠":14969,"##긬":14970,"##튔":14971,"##쑻":14972,"##괳":14973,"##렄":14974,"##껙":14975,"##뎟":14976,"##훓":14977,"##녺":14978,"##짿":14979,"##숖":14980,"##꺌":14981,"##뻡":14982,"##솄":14983,"##픤":14984,"##땓":14985,"##쑟":14986,"##줠":14987,"##쓍":14988,"##쀨":14989,"##뎦":14990,"##껩":14991,"##뱨":14992,"##쫭":14993,"##뗃":14994,"##샒":14995,"##욾":14996,"##뺼":14997,"##됰":14998,"##쭨":14999,"##돟":15000,"##셥":15001,"##볱":15002,"##즡":15003,"##뀻":15004,"##핓":15005,"##뻄":15006,"##웥":15007,"##삒":15008,"##훚":15009,"##딋":15010,"##볠":15011,"##셓":15012,"##쭁":15013,"##쭸":15014,"##몥":15015,"##땽":15016,"##읰":15017,"##갋":15018,"##좂":15019,"##앺":15020,"##쁌":15021,"##녬":15022,"##핣":15023,"##덯":15024,"##킻":15025,"##릊":15026,"##탏":15027,"##렠":15028,"##뤃":15029,"##쎴":15030,"##떔":15031,"##빾":15032,"##웧":15033,"##엍":15034,"##쬷":15035,"##홅":15036,"##쌻":15037,"##풇":15038,"##퍠":15039,"##뜃":15040,"##쀳":15041,"##뼬":15042,"##멮":15043,"##뚼":15044,"##쉒":15045,"##뗠":15046,"##옟":15047,"##깓":15048,"##겦":15049,"##믯":15050,"##똗":15051,"##퓍":15052,"##흇":15053,"##뎂":15054,"##닶":15055,"##돓":15056,"##헯":15057,"##젧":15058,"##첄":15059,"##됒":15060,"##쟹":15061,"##삗":15062,"##늖":15063,"##뉩":15064,"##쏀":15065,"##딀":15066,"##엵":15067,"##퓹":15068,"##옯":15069,"##쐥":15070,"##땕":15071,"##쎗":15072,"##쏲":15073,"##읿":15074,"##짡":15075,"##봨":15076,"##잞":15077,"##돰":15078,"##섡":15079,"##벸":15080,"##뭌":15081,"##쑛":15082,"##짫":15083,"##릃":15084,"##윹":15085,"##뤀":15086,"##쯬":15087,"##늴":15088,"##칻":15089,"##줗":15090,"##헗":15091,"##혤":15092,"##잫":15093,"##뺅":15094,"##봁":15095,"##핺":15096,"##껃":15097,"##쩟":15098,"##햫":15099,"##쫔":15100,"##릵":15101,"##텥":15102,"##벫":15103,"##듰":15104,"##럻":15105,"##춣":15106,"##뛩":15107,"##쥌":15108,"##렾":15109,"##뛃":15110,"##괧":15111,"##쭵":15112,"##찣":15113,"##뛹":15114,"##읁":15115,"##섻":15116,"##윝":15117,"##딷":15118,"##겇":15119,"##잕":15120,"##홭":15121,"##븕":15122,"##룥":15123,"##옰":15124,"##탘":15125,"##먿":15126,"##벐":15127,"##딈":15128,"##콉":15129,"##닍":15130,"##헁":15131,"##꿝":15132,"##놜":15133,"##슟":15134,"##쀒":15135,"##쐉":15136,"##꽇":15137,"##얉":15138,"##캈":15139,"##귥":15140,"##쉄":15141,"##륾":15142,"##컄":15143,"##킠":15144,"##뵉":15145,"##븛":15146,"##첯":15147,"##잀":15148,"##됈":15149,"##흎":15150,"##흓":15151,"##틆":15152,"##궇":15153,"##뗶":15154,"##쇡":15155,"##굯":15156,"##눟":15157,"##톗":15158,"##뀓":15159,"##찭":15160,"##봔":15161,"##쥇":15162,"##몟":15163,"##헼":15164,"##킦":15165,"##붵":15166,"##괂":15167,"##몼":15168,"##돜":15169,"##풴":15170,"##홇":15171,"##긶":15172,"##벾":15173,"##츻":15174,"##붭":15175,"##쐇":15176,"##늩":15177,"##꺤":15178,"##녇":15179,"##맼":15180,"##딹":15181,"##닰":15182,"##콙":15183,"##븗":15184,"##홱":15185,"##슸":15186,"##쨎":15187,"##픨":15188,"##뚵":15189,"##힏":15190,"##옃":15191,"##밻":15192,"##폯":15193,"##긆":15194,"##둅":15195,"##촡":15196,"##쎋":15197,"##띅":15198,"##믤":15199,"##씍":15200,"##걈":15201,"##웇":15202,"##웄":15203,"##쥥":15204,"##쒴":15205,"##펵":15206,"##븠":15207,"##듹":15208,"##똽":15209,"##껵":15210,"##붤":15211,"##쪾":15212,"##죸":15213,"##릆":15214,"##덢":15215,"##듫":15216,"##늧":15217,"##읧":15218,"##굈":15219,"##깂":15220,"##슆":15221,"##썁":15222,"##뒸":15223,"##퀧":15224,"##쩸":15225,"##쩹":15226,"##쫅":15227,"##왙":15228,"##젛":15229,"##궆":15230,"##썍":15231,"##싘":15232,"##텠":15233,"##꽯":15234,"##뉔":15235,"##쉇":15236,"##킫":15237,"##쎃":15238,"##섵":15239,"##셣":15240,"##겢":15241,"##캪":15242,"##굠":15243,"##췽":15244,"##붘":15245,"##멷":15246,"##껗":15247,"##춝":15248,"##홁":15249,"##횝":15250,"##뜵":15251,"##탵":15252,"##딻":15253,"##뫃":15254,"##뿁":15255,"##뼁":15256,"##줼":15257,"##봒":15258,"##룳":15259,"##돴":15260,"##쌸":15261,"##꾕":15262,"##팉":15263,"##퍙":15264,"##뭵":15265,"##뗆":15266,"##벉":15267,"##컈":15268,"##긞":15269,"##귺":15270,"##윥":15271,"##밡":15272,"##싐":15273,"##뿓":15274,"##벴":15275,"##퉄":15276,"##캵":15277,"##칽":15278,"##뢐":15279,"##렼":15280,"##쪌":15281,"##둿":15282,"##몓":15283,"##멛":15284,"##즏":15285,"##넢":15286,"##늭":15287,"##춇":15288,"##휋":15289,"##푣":15290,"##햭":15291,"##슦":15292,"##좥":15293,"##댝":15294,"##즨":15295,"##앸":15296,"##밇":15297,"##뀍":15298,"##닞":15299,"##쩅":15300,"##렢":15301,"##벲":15302,"##톧":15303,"##밲":15304,"##뒵":15305,"##픳":15306,"##숞":15307,"##틓":15308,"##핔":15309,"##뤯":15310,"##룱":15311,"##엝":15312,"##놏":15313,"##홨":15314,"##썀":15315,"##쨧":15316,"##뮜":15317,"##좈":15318,"##븞":15319,"##륮":15320,"##맕":15321,"##툑":15322,"##홛":15323,"##팊":15324,"##즯":15325,"##밗":15326,"##땸":15327,"##궷":15328,"##뭗":15329,"##퓙":15330,"##왂":15331,"##젵":15332,"##턋":15333,"##냌":15334,"##옠":15335,"##팂":15336,"##쬰":15337,"##꿻":15338,"##퉱":15339,"##휽":15340,"##둍":15341,"##뎄":15342,"##큮":15343,"##튑":15344,"##쀍":15345,"##깳":15346,"##꺐":15347,"##큺":15348,"##딺":15349,"##슢":15350,"##욋":15351,"##귝":15352,"##쟜":15353,"##뺫":15354,"##듳":15355,"##뢨":15356,"##쇗":15357,"##욳":15358,"##썐":15359,"##꼮":15360,"##큳":15361,"##옏":15362,"##밙":15363,"##튮":15364,"##핦":15365,"##콪":15366,"##윸":15367,"##뽤":15368,"##먑":15369,"##뺍":15370,"##퓜":15371,"##깏":15372,"##랢":15373,"##쟇":15374,"##닡":15375,"##줓":15376,"##듶":15377,"##훁":15378,"##뇄":15379,"##쁅":15380,"##뺡":15381,"##뗡":15382,"##쪨":15383,"##캍":15384,"##싦":15385,"##첟":15386,"##붚":15387,"##눀":15388,"##귶":15389,"##뙓":15390,"##팒":15391,"##봈":15392,"##랳":15393,"##벩":15394,"##줆":15395,"##죕":15396,"##텹":15397,"##첡":15398,"##붊":15399,"##콛":15400,"##잓":15401,"##칀":15402,"##끤":15403,"##쓿":15404,"##릘":15405,"##켇":15406,"##붴":15407,"##랣":15408,"##둫":15409,"##릀":15410,"##뵥":15411,"##칟":15412,"##긐":15413,"##뀢":15414,"##춀":15415,"##뎊":15416,"##섿":15417,"##쌟":15418,"##땛":15419,"##쑊":15420,"##싈":15421,"##닪":15422,"##궙":15423,"##쁙":15424,"##좠":15425,"##옲":15426,"##촵":15427,"##턷":15428,"##겈":15429,"##혅":15430,"##똟":15431,"##맃":15432,"##륳":15433,"##짴":15434,"##뭠":15435,"##삝":15436,"##뺶":15437,"##멊":15438,"##휗":15439,"##엱":15440,"##븎":15441,"##뛗":15442,"##켞":15443,"##틷":15444,"##펖":15445,"##궡":15446,"##믠":15447,"##텋":15448,"##뒁":15449,"##튺":15450,"##랆":15451,"##밠":15452,"##뮝":15453,"##쬘":15454,"##랻":15455,"##쫋":15456,"##퐠":15457,"##멦":15458,"##럑":15459,"##렞":15460,"##옂":15461,"##퓟":15462,"##삜":15463,"##끵":15464,"##챸":15465,"##껚":15466,"##톻":15467,"##챞":15468,"##솢":15469,"##뇹":15470,"##탂":15471,"##퐞":15472,"##쉤":15473,"##졵":15474,"##쒕":15475,"##햙":15476,"##푭":15477,"##랅":15478,"##뚂":15479,"##좹":15480,"##쎆":15481,"##쁵":15482,"##뫀":15483,"##묳":15484,"##떅":15485,"##땹":15486,"##풅":15487,"##튎":15488,"##칳":15489,"##쭓":15490,"##뤰":15491,"##갅":15492,"##꼵":15493,"##쯍":15494,"##얫":15495,"##퐤":15496,"##벏":15497,"##덻":15498,"##맒":15499,"##럶":15500,"##쇱":15501,"##쳗":15502,"##롐":15503,"##릮":15504,"##쑐":15505,"##뱆":15506,"##룄":15507,"##싞":15508,"##홣":15509,"##뽴":15510,"##빆":15511,"##텣":15512,"##곺":15513,"##놩":15514,"##싲":15515,"##떧":15516,"##쉉":15517,"##샂":15518,"##섧":15519,"##듥":15520,"##뷉":15521,"##닑":15522,"##뫚":15523,"##앻":15524,"##칱":15525,"##맖":15526,"##뭩":15527,"##웳":15528,"##뷇":15529,"##띳":15530,"##쀽":15531,"##옑":15532,"##쁢":15533,"##싻":15534,"##뀁":15535,"##뷓":15536,"##픎":15537,"##뽱":15538,"##훳":15539,"##덀":15540,"##뤔":15541,"##젮":15542,"##늚":15543,"##맊":15544,"##븻":15545,"##젉":15546,"##뻈":15547,"##칮":15548,"##돿":15549,"##썝":15550,"##뿉":15551,"##탇":15552,"##엶":15553,"##씤":15554,"##뉫":15555,"##딭":15556,"##쫩":15557,"##볃":15558,"##넟":15559,"##욻":15560,"##꿴":15561,"##걓":15562,"##잧":15563,"##휱":15564,"##꿸":15565,"##쯈":15566,"##죹":15567,"##멵":15568,"##쀾":15569,"##엦":15570,"##쀄":15571,"##릯":15572,"##젃":15573,"##돩":15574,"##뫽":15575,"##륗":15576,"##콦":15577,"##뷤":15578,"##쌑":15579,"##쟬":15580,"##춯":15581,"##낶":15582,"##굛":15583,"##댦":15584,"##읈":15585,"##쿔":15586,"##꺃":15587,"##섨":15588,"##줅":15589,"##뛈":15590,"##쑷":15591,"##웖":15592,"##짗":15593,"##깋":15594,"##좧":15595,"##춴":15596,"##텊":15597,"##묗":15598,"##룴":15599,"##턉":15600,"##퍝":15601,"##솑":15602,"##둈":15603,"##뾘":15604,"##쏄":15605,"##꺢":15606,"##솤":15607,"##믻":15608,"##픋":15609,"##닲":15610,"##샸":15611,"##퇍":15612,"##럮":15613,"##꿕":15614,"##줮":15615,"##뷛":15616,"##돘":15617,"##볈":15618,"##셭":15619,"##왛":15620,"##쒐":15621,"##쯴":15622,"##뎧":15623,"##헱":15624,"##롻":15625,"##쑁":15626,"##븬":15627,"##녿":15628,"##횸":15629,"##큫":15630,"##쑌":15631,"##핛":15632,"##낣":15633,"##띃":15634,"##갵":15635,"##뤡":15636,"##닟":15637,"##맓":15638,"##싧":15639,"##댋":15640,"##핿":15641,"##줊":15642,"##셟":15643,"##닚":15644,"##닧":15645,"##랋":15646,"##봗":15647,"##쉛":15648,"##탿":15649,"##풱":15650,"##찱":15651,"##럸":15652,"##짛":15653,"##쫴":15654,"##풓":15655,"##댥":15656,"##뢘":15657,"##큩":15658,"##겤":15659,"##뱈":15660,"##벎":15661,"##끋":15662,"##듷":15663,"##땳":15664,"##캼":15665,"##뽙":15666,"##혱":15667,"##퇙":15668,"##줐":15669,"##깪":15670,"##씥":15671,"##뙴":15672,"##촟":15673,"##쀡":15674,"##궯":15675,"##뼌":15676,"##뾔":15677,"##얖":15678,"##쁥":15679,"##띁":15680,"##욈":15681,"##똄":15682,"##뱋":15683,"##퉭":15684,"##곃":15685,"##숎":15686,"##뭎":15687,"##궖":15688,"##궋":15689,"##옽":15690,"##씋":15691,"##홒":15692,"##돧":15693,"##웚":15694,"##괋":15695,"##엻":15696,"##굗":15697,"##덖":15698,"##숧":15699,"##넏":15700,"##냫":15701,"##씔":15702,"##쿶":15703,"##쒱":15704,"##귻":15705,"##쉖":15706,"##댧":15707,"##튘":15708,"##붆":15709,"##쑼":15710,"##큾":15711,"##텂":15712,"##쀓":15713,"##쟥":15714,"##챷":15715,"##찳":15716,"##쟣":15717,"##췈":15718,"##먓":15719,"##댭":15720,"##댖":15721,"##캢":15722,"##훡":15723,"##뛌":15724,"##뮷":15725,"##츺":15726,"##슡":15727,"##윀":15728,"##폳":15729,"##렧":15730,"##쎂":15731,"##죻":15732,"##썯":15733,"##뙭":15734,"##컶":15735,"##툡":15736,"##흽":15737,"##쉙":15738,"##쟻":15739,"##꿐":15740,"##읾":15741,"##풜":15742,"##팓":15743,"##즞":15744,"##좟":15745,"##핃":15746,"##헚":15747,"##끆":15748,"##뽥":15749,"##걾":15750,"##핽":15751,"##뗍":15752,"##꿃":15753,"##몴":15754,"##끜":15755,"##곩":15756,"##섮":15757,"##짒":15758,"##믇":15759,"##젏":15760,"##폵":15761,"##웷":15762,"##뤵":15763,"##걩":15764,"##쪈":15765,"##욝":15766,"##뢓":15767,"##놬":15768,"##쵣":15769,"##꿜":15770,"##빜":15771,"##똫":15772,"##뚷":15773,"##붖":15774,"##듛":15775,"##쬭":15776,"##쿜":15777,"##삨":15778,"##텇":15779,"##틇":15780,"##쯪":15781,"##븁":15782,"##혭":15783,"##햰":15784,"##샫":15785,"##윋":15786,"##롇":15787,"##푷":15788,"##펡":15789,"##퓅":15790,"##혻":15791,"##뎝":15792,"##즵":15793,"##짷":15794,"##흧":15795,"##뫟":15796,"##먏":15797,"##쭀":15798,"##솏":15799,"##쓋":15800,"##멻":15801,"##꽊":15802,"##틒":15803,"##돆":15804,"##죷":15805,"##헡":15806,"##셦":15807,"##셷":15808,"##궞":15809,"##귪":15810,"##궸":15811,"##궼":15812,"##쟴":15813,"##몭":15814,"##챽":15815,"##꿯":15816,"##궳":15817,"##멶":15818,"##쵭":15819,"##똴":15820,"##섺":15821,"##븪":15822,"##뷫":15823,"##뛣":15824,"##꾫":15825,"##텤":15826,"##텉":15827,"##쾩":15828,"##낐":15829,"##뢇":15830,"##붯":15831,"##뱓":15832,"##럌":15833,"##쬽":15834,"##뗳":15835,"##꼤":15836,"##슞":15837,"##곴":15838,"##섟":15839,"##춱":15840,"##븩":15841,"##끨":15842,"##뿮":15843,"##뱦":15844,"##쌷":15845,"##놥":15846,"##윻":15847,"##헰":15848,"##춏":15849,"##뤅":15850,"##깇":15851,"##꼠":15852,"##뤙":15853,"##췸":15854,"##썎":15855,"##됮":15856,"##싺":15857,"##긊":15858,"##됗":15859,"##쨻":15860,"##푴":15861,"##츗":15862,"##쯸":15863,"##믾":15864,"##줎":15865,"##몊":15866,"##뤩":15867,"##댬":15868,"##싡":15869,"##쇀":15870,"##뇠":15871,"##햚":15872,"##쿩":15873,"##낤":15874,"##븉":15875,"##쑘":15876,"##뗜":15877,"##늿":15878,"##흟":15879,"##왧":15880,"##뷃":15881,"##쌧":15882,"##갨":15883,"##쾻":15884,"##킆":15885,"##퐙":15886,"##뇜":15887,"##럍":15888,"##꽦":15889,"##콣":15890,"##즂":15891,"##줛":15892,"##놗":15893,"##솫":15894,"##뗛":15895,"##돣":15896,"##홳":15897,"##웫":15898,"##룫":15899,"##뺃":15900,"##뗣":15901,"##쭟":15902,"##쏚":15903,"##쁍":15904,"##풸":15905,"##윟":15906,"##깕":15907,"##틩":15908,"##벯":15909,"##젆":15910,"##읂":15911,"##쁀":15912,"##쫫":15913,"##뻨":15914,"##벷":15915,"##잚":15916,"##춬":15917,"##쵁":15918,"##즬":15919,"##훰":15920,"##즷":15921,"##걳":15922,"##똈":15923,"##먃":15924,"##빂":15925,"##먳":15926,"##뮻":15927,"##뷈":15928,"##슀":15929,"##닒":15930,"##폑":15931,"##덙":15932,"##쥉":15933,"##쐰":15934,"##솻":15935,"##꺏":15936,"##쫣":15937,"##뽧":15938,"##꽑":15939,"##칣":15940,"##텗":15941,"##쬥":15942,"##풮":15943,"##떋":15944,"##븧":15945,"##펬":15946,"##콻":15947,"##횾":15948,"##뒺":15949,"##엞":15950,"##궚":15951,"##궺":15952,"##깒":15953,"##깛":15954,"##긛":15955,"##솼":15956,"##틐":15957,"##룪":15958,"##픐":15959,"##땈":15960,"##왷":15961,"##쁶":15962,"##믑":15963,"##깆":15964,"##쨱":15965,"##봴":15966,"##눶":15967,"##롲":15968,"##댚":15969,"##힚":15970,"##썷":15971,"##뼸":15972,"##뗗":15973,"##숕":15974,"##뀪":15975,"##묯":15976,"##퇗":15977,"##퐑":15978,"##럣":15979,"##쨏":15980,"##눽":15981,"##쿧":15982,"##깣":15983,"##훃":15984,"##쿹":15985,"##걏":15986,"##풑":15987,"##꽭":15988,"##횓":15989,"##틤":15990,"##첞":15991,"##싳":15992,"##걿":15993,"##릷":15994,"##괆":15995,"##뗉":15996,"##쉏":15997,"##쩒":15998,"##큻":15999,"##뇓":16000,"##맗":16001,"##졓":16002,"##슄":16003,"##퐌":16004,"##톲":16005,"##낞":16006,"##럳":16007,"##굦":16008,"##뜫":16009,"##턻":16010,"##퐃":16011,"##츞":16012,"##쏏":16013,"##혂":16014,"##졬":16015,"##윛":16016,"##뮺":16017,"##댘":16018,"##둽":16019,"##괙":16020,"##텩":16021,"##쇅":16022,"##윞":16023,"##쩖":16024,"##쭛":16025,"##돫":16026,"##뙜":16027,"##뚊":16028,"##훯":16029,"##쏱":16030,"##잂":16031,"##껖":16032,"##솠":16033,"##둧":16034,"##됃":16035,"##츀":16036,"##쳒":16037,"##뿩":16038,"##뜄":16039,"##툣":16040,"##뀟":16041,"##뎢":16042,"##렋":16043,"##냟":16044,"##찷":16045,"##뵑":16046,"##뽘":16047,"##핖":16048,"##얆":16049,"##뚐":16050,"##뭈":16051,"##쓲":16052,"##욦":16053,"##꼅":16054,"##돳":16055,"##턕":16056,"##뺚":16057,"##캊":16058,"##뜅":16059,"##걐":16060,"##똧":16061,"##다.":16062,"##으로":16063,"##에서":16064,"##하는":16065,"20":16066,"##이다.":16067,"##지만":16068,"있다.":16069,"##었다.":16070,"##에게":16071,"##하고":16072,"201":16073,"##00":16074,"##한다.":16075,"##이라":16076,"있는":16077,"##고,":16078,"##다는":16079,"##했다.":16080,"##다고":16081,"19":16082,"때문":16083,"##..":16084,"##까지":16085,"##에는":16086,"##면서":16087,"##들이":16088,"##하게":16089,"##는데":16090,"##며,":16091,"한다.":16092,"##에서는":16093,"##적으로":16094,"경우":16095,"때문에":16096,"##였다.":16097,"사용":16098,"##적인":16099,"##하여":16100,"##레이":16101,"##부터":16102,"아니":16103,"이후":16104,"자신":16105,"##리고":16106,"##하기":16107,"공격":16108,"##해서":16109,"10":16110,"사람":16111,"##스트":16112,"##라는":16113,"##대로":16114,"##라고":16115,"##다가":16116,"##들은":16117,"##되었다.":16118,"다른":16119,"##하면":16120,"##이나":16121,"##지만,":16122,"정도":16123,"##들을":16124,"##으나":16125,"대한":16126,"##에도":16127,"##지는":16128,"##기도":16129,"##들의":16130,"200":16131,"등장":16132,"##기를":16133,"##하다.":16134,"##리는":16135,"것이":16136,"##되어":16137,"그리고":16138,"##기에":16139,"##하지":16140,"된다.":16141,"같은":16142,"가능":16143,"아이":16144,"##er":16145,"들어":16146,"##으며,":16147,"하나":16148,"하는":16149,"사실":16150,"12":16151,"하지만":16152,"게임":16153,"##으며":16154,"##하였다.":16155,"그러":16156,"시작":16157,"##는데,":16158,"일본":16159,"##거나":16160,"함께":16161,"이름":16162,"모습":16163,"##보다":16164,"##스터":16165,"##리를":16166,"##는다.":16167,"한국":16168,"위해":16169,"##았다.":16170,"##in":16171,"11":16172,"있었":16173,"##된다.":16174,"사이":16175,"##...":16176,"##이라고":16177,"##이라는":16178,"것을":16179,"이상":16180,"##되는":16181,"##기가":16182,"만들":16183,"##다면":16184,"문제":16185,"나오":16186,"생각":16187,"또한":16188,"##되었":16189,"##어서":16190,"##하며":16191,"##학교":16192,"따라":16193,"가장":16194,"##니다.":16195,"프로":16196,"##라이":16197,"##력을":16198,"다시":16199,"##에서도":16200,"당시":16201,"##리가":16202,"##on":16203,"##0년":16204,"##이었":16205,"##릭터":16206,"되었다.":16207,"##지를":16208,"##처럼":16209,"없는":16210,"모두":16211,"캐릭터":16212,"##력이":16213,"##데,":16214,"##이트":16215,"상대":16216,"15":16217,"##or":16218,"##기는":16219,"##8년":16220,"##으면":16221,"##an":16222,"모든":16223,"##리아":16224,"없다.":16225,"상황":16226,"플레이":16227,"것이다.":16228,"것으로":16229,"##스의":16230,"추가":16231,"결국":16232,"##지고":16233,"시간":16234,"했다.":16235,"##9년":16236,"현재":16237,"##이지":16238,"##이는":16239,"##자가":16240,"상태":16241,"자신의":16242,"다음":16243,"##7년":16244,"보여":16245,"것은":16246,"많이":16247,"미국":16248,"##하면서":16249,"그러나":16250,"존재":16251,"18":16252,"##리스":16253,"다만":16254,"시즌":16255,"##6년":16256,"그런":16257,"전투":16258,"보면":16259,"199":16260,"##리즈":16261,"선수":16262,"##ar":16263,"많은":16264,"##스를":16265,"스킬":16266,"세계":16267,"##성이":16268,"매우":16269,"##5년":16270,"##.1":16271,"카드":16272,"효과":16273,"##스가":16274,"##he":16275,"지역":16276,"##므로":16277,"##at":16278,"그래":16279,"##000":16280,"경기":16281,"나온":16282,"상당":16283,"##.0":16284,"##들에게":16285,"##인이":16286,"있었다.":16287,"기록":16288,"##4년":16289,"아니라":16290,"처음":16291,"이용":16292,"않는":16293,"16":16294,"물론":16295,"##가는":16296,"##사를":16297,"이유":16298,"##하였":16299,"##가지":16300,"여러":16301,"아닌":16302,"하고":16303,"그렇":16304,"돌아":16305,"실제":16306,"자체":16307,"일반":16308,"##인다.":16309,"##-1":16310,"필요":16311,"##들과":16312,"이런":16313,"##부분":16314,"13":16315,"##어진":16316,"시리즈":16317,"이미":16318,"##졌다.":16319,"바로":16320,"##지가":16321,"##이고":16322,"##en":16323,"##시키":16324,"해당":16325,"##하자":16326,"##시아":16327,"거의":16328,"영화":16329,"##주의":16330,"라이":16331,"##2년":16332,"역시":16333,"##상을":16334,"##사가":16335,"되어":16336,"##3년":16337,"특히":16338,"피해":16339,"##이스":16340,"기술":16341,"14":16342,"##인지":16343,"30":16344,"모습을":16345,"통해":16346,"##어나":16347,"##ou":16348,"주인":16349,"##도가":16350,"기본":16351,"관련":16352,"진행":16353,"##장을":16354,"마법":16355,"17":16356,"##국의":16357,"##기로":16358,"이야":16359,"같이":16360,"수도":16361,"아무":16362,"##지막":16363,"제작":16364,"##1년":16365,"##성을":16366,"##했던":16367,"위치":16368,"##라도":16369,"##로는":16370,"##에선":16371,"##al":16372,"대부분":16373,"##이었다.":16374,"##st":16375,"방송":16376,"좋은":16377,"부분":16378,"##해야":16379,"##이가":16380,"되었":16381,"사건":16382,"##거리":16383,"작품":16384,"##주는":16385,"마지막":16386,"일부":16387,"스타":16388,"계속":16389,"##스는":16390,"증가":16391,"##으나,":16392,"##20":16393,"##르는":16394,"않았":16395,"##린다.":16396,"##아서":16397,"참고":16398,"방어":16399,"않고":16400,"##로,":16401,"인간":16402,"활동":16403,"국가":16404,"달리":16405,"있어":16406,"##하고,":16407,"##전히":16408,"되는":16409,"서울":16410,"보고":16411,"않은":16412,"내용":16413,"있을":16414,"주인공":16415,"##리에":16416,"가지고":16417,"그의":16418,"이전":16419,"##드는":16420,"능력":16421,"##시에":16422,"비슷":16423,"인해":16424,"##시간":16425,"올라":16426,"##이며":16427,"##으니":16428,"어느":16429,"##정을":16430,"그냥":16431,"레이":16432,"레벨":16433,"100":16434,"##re":16435,"감독":16436,"성공":16437,"##어가":16438,"대해":16439,"##인의":16440,"이를":16441,"대신":16442,"##자를":16443,"##.2":16444,"##드를":16445,"정도로":16446,"수준":16447,"##도록":16448,"##장이":16449,"198":16450,"지금":16451,"25":16452,"##dd":16453,"##자의":16454,"##le":16455,"그녀":16456,"대표":16457,"##트를":16458,"##위를":16459,"기준":16460,"##수가":16461,"상당히":16462,"않는다.":16463,"높은":16464,"##it":16465,"최대":16466,"##있는":16467,"이동":16468,"보인다.":16469,"##렸다.":16470,"대한민":16471,"##10":16472,"##로운":16473,"나타":16474,"이는":16475,"##마다":16476,"제외":16477,"##와의":16478,"타이":16479,"##되고":16480,"중국":16481,"여기":16482,"결과":16483,"것도":16484,"것.":16485,"너무":16486,"##리의":16487,"인물":16488,"그대로":16489,"의미":16490,"##사의":16491,"좋아":16492,"##도를":16493,"의해":16494,"##드의":16495,"떨어":16496,"##ff":16497,"등의":16498,"##일에":16499,"##진다.":16500,"##이션":16501,"##들도":16502,"##기의":16503,"직접":16504,"전체":16505,"없이":16506,"##려고":16507,"동안":16508,"##이자":16509,"##수를":16510,"알려":16511,"받아":16512,"원래":16513,"언급":16514,"##스로":16515,"##도로":16516,"그는":16517,"##이며,":16518,"##ing":16519,"##ic":16520,"발매":16521,"##전을":16522,"-2":16523,"##르게":16524,"##자는":16525,"애니":16526,"관계":16527,"만들어":16528,"##로서":16529,"포함":16530,"하다.":16531,"##치는":16532,"##.5":16533,"##대의":16534,"##지도":16535,"소속":16536,"##번째":16537,"##리어":16538,"있던":16539,"경우가":16540,"전쟁":16541,"자신이":16542,"데미":16543,"##으로,":16544,"##정이":16545,"시절":16546,"지원":16547,"마음":16548,"##다!":16549,"이어":16550,"이것":16551,"과거":16552,"##대를":16553,"2018년":16554,"멤버":16555,"##하지만":16556,"##이지만":16557,"나오는":16558,"선택":16559,"문서":16560,"이에":16561,"##습니다.":16562,"##인데":16563,"위한":16564,"##드가":16565,"유저":16566,"##우는":16567,"##스타":16568,"##자.":16569,"##리지":16570,"##중에":16571,"연구":16572,"##하던":16573,"최고":16574,"유닛":16575,"많다.":16576,"자기":16577,"출연":16578,"##점을":16579,"##등학교":16580,"개발":16581,"설명":16582,"방법":16583,"21":16584,"50":16585,"##화를":16586,"평가":16587,"##없이":16588,"엄청":16589,"몬스터":16590,"##나는":16591,"크게":16592,"발생":16593,"있으며,":16594,"아버":16595,"사망":16596,"리그":16597,"영향":16598,"12월":16599,"##am":16600,"유명":16601,"불가":16602,"2019년":16603,"7월":16604,"찾아":16605,"나왔":16606,"스토":16607,"##이드":16608,"##인을":16609,"##치를":16610,"만든":16611,"2017년":16612,"##되지":16613,"##치가":16614,"##과는":16615,"8월":16616,"이루":16617,"4월":16618,"프랑":16619,"##어로":16620,"장면":16621,"3월":16622,"##트가":16623,"##,000":16624,"또는":16625,"9월":16626,"##하기도":16627,"10월":16628,"5월":16629,"실제로":16630,"##어난":16631,"있다는":16632,"이러":16633,"##상이":16634,"우승":16635,"##으로는":16636,"6월":16637,"초반":16638,"이때":16639,"지나":16640,"##이를":16641,"##원이":16642,"조금":16643,"##일,":16644,"주로":16645,"말을":16646,"##es":16647,"##랜드":16648,"22":16649,"공식":16650,"##la":16651,"도시":16652,"##이기":16653,"출신":16654,"운영":16655,"2016년":16656,"중요":16657,"24":16658,"##전에서":16659,"##과의":16660,"##이어":16661,"인터":16662,"##머니":16663,"##전에":16664,"##만큼":16665,"그것":16666,"##준다.":16667,"1월":16668,"##명이":16669,"##식을":16670,"##하며,":16671,"##리그":16672,"전부":16673,"사라":16674,"무기":16675,"사랑":16676,"제대로":16677,"최초":16678,"##el":16679,"##운드":16680,"the":16681,"##명을":16682,"아이템":16683,"자주":16684,"하지":16685,"없었":16686,"소환":16687,"정보":16688,"최종":16689,"##om":16690,"보여주":16691,"역할":16692,"##있다.":16693,"##이크":16694,"아직":16695,"##에서의":16696,"11월":16697,"서로":16698,"##리카":16699,"공격력":16700,"학생":16701,"이렇":16702,"친구":16703,"##와는":16704,"학교":16705,"##이터":16706,"여성":16707,"사회":16708,"프리":16709,"독일":16710,"노래":16711,"공개":16712,"가진":16713,"참고로":16714,"##자로":16715,"##했을":16716,"기존":16717,"23":16718,"파괴":16719,"##is":16720,"적이":16721,"강력":16722,"##명의":16723,"있어서":16724,"나온다.":16725,"비해":16726,"이벤":16727,"##개의":16728,"비교":16729,"##격을":16730,"##-0":16731,"등을":16732,"##였던":16733,"##니아":16734,"마찬":16735,"어떤":16736,"결정":16737,"형태":16738,"마찬가지":16739,"##50":16740,"##사는":16741,"##인은":16742,"변경":16743,"유지":16744,"정말":16745,"강화":16746,"##했고,":16747,"197":16748,"##라마":16749,"##르면":16750,"사람이":16751,"해도":16752,"당연":16753,"발견":16754,"보통":16755,"##나라":16756,"##대에":16757,"##스와":16758,"##같은":16759,"##하려":16760,"2015년":16761,"##히려":16762,"설정":16763,"##군의":16764,"때문이다.":16765,"##수의":16766,"##지의":16767,"바람":16768,"구성":16769,"2월":16770,"배우":16771,"##동안":16772,"음악":16773,"그런데":16774,"##프트":16775,"##서는":16776,"이러한":16777,"아래":16778,"오히려":16779,"살아":16780,"##오는":16781,"정신":16782,"아니다.":16783,"후반":16784,"##et":16785,"##하거나":16786,"##요.":16787,"##음을":16788,"등이":16789,"회복":16790,"##물을":16791,"조선":16792,"##회의":16793,"##나가":16794,"새로운":16795,"않았다.":16796,"##어도":16797,"주장":16798,"##트로":16799,"슈퍼":16800,"##지어":16801,"##점이":16802,"##스템":16803,"##ol":16804,"##자인":16805,"있으며":16806,"##ion":16807,"##원을":16808,"알고":16809,"##어를":16810,"있다고":16811,"##nd":16812,"유일":16813,"행동":16814,"게다가":16815,"##분에":16816,"이번":16817,"##하다":16818,"드래":16819,"40":16820,"##디오":16821,"자유":16822,"영상":16823,"가까":16824,"##는지":16825,"##했다고":16826,"여자":16827,"##-2":16828,"있는데,":16829,"모양":16830,"정부":16831,"같다.":16832,"사실상":16833,"##리오":16834,"그래서":16835,"노선":16836,"##이도":16837,"활약":16838,"월드":16839,"특수":16840,"##경기":16841,"##대가":16842,"하면":16843,"##30":16844,"부족":16845,"어려":16846,"일단":16847,"아예":16848,"승리":16849,"확률":16850,"##11":16851,"##지로":16852,"##이기도":16853,"대한민국":16854,"이렇게":16855,"동시에":16856,"주변":16857,"성능":16858,"##스,":16859,"들어가":16860,"##나마":16861,"정치":16862,"차지":16863,"##그램":16864,"##시켜":16865,"##화에서":16866,"##드로":16867,"##임을":16868,"비슷한":16869,"먼저":16870,"##통령":16871,"심지어":16872,"완전히":16873,"##적이":16874,"버전":16875,"확인":16876,"영국":16877,"생산":16878,"##화가":16879,"##ow":16880,"드러":16881,"가능하다.":16882,"스테":16883,"적용":16884,"방식":16885,"바뀌":16886,"수록":16887,"발동":16888,"##도의":16889,"그렇게":16890,"26":16891,"그리":16892,"성우":16893,"##ig":16894,"##밖에":16895,"힘들":16896,"##다며":16897,"시스템":16898,"내려":16899,"##il":16900,"##내는":16901,"그래도":16902,"모델":16903,"##상으로":16904,"##다\"":16905,"28":16906,"##ed":16907,"2014년":16908,"어떻":16909,"일이":16910,"##메이션":16911,"스트":16912,"보스":16913,"##구를":16914,"가지":16915,"좋다.":16916,"27":16917,"영웅":16918,"혹은":16919,"##스크":16920,"전에":16921,"##트의":16922,"##르고":16923,"대회":16924,"이야기":16925,"##보면":16926,"있는데":16927,"실패":16928,"참여":16929,"중심":16930,"성격":16931,"##하는데":16932,"##ac":16933,"##간에":16934,"한번":16935,"기사":16936,"자세":16937,"있지만":16938,"대통령":16939,"만나":16940,"31":16941,"##원의":16942,"전혀":16943,"차량":16944,"다양":16945,"우리":16946,"못한":16947,"데뷔":16948,"대학":16949,"196":16950,"패배":16951,"감소":16952,"##as":16953,"##대한":16954,"어떻게":16955,"##시킨":16956,"원작":16957,"동일":16958,"국내":16959,"사진":16960,"마을":16961,"##ve":16962,"위해서":16963,"##니까":16964,"않아":16965,"1,":16966,"획득":16967,"앨범":16968,"장비":16969,"있고":16970,"##BS":16971,"##더라도":16972,"지속":16973,"##!!":16974,"표현":16975,"만큼":16976,"얼굴":16977,"출시":16978,"##지에":16979,"##났다.":16980,"때는":16981,"불가능":16982,"얼마":16983,"발표":16984,"of":16985,"##했고":16986,"나가":16987,"오브":16988,"번째":16989,"계획":16990,"##.3":16991,"이제":16992,"설치":16993,"##른다.":16994,"반응":16995,"##이었던":16996,"체력":16997,"##간다.":16998,"##인데,":16999,"플레이어":17000,"##라의":17001,"##어버":17002,"애니메이션":17003,"##움을":17004,"##이의":17005,"##장의":17006,"##대학교":17007,"힘을":17008,"굉장":17009,"##보다는":17010,"##체를":17011,"스페":17012,"기능":17013,"바이":17014,"없어":17015,"드라마":17016,"인정":17017,"##자,":17018,"특성":17019,"축구":17020,"자동":17021,"움직":17022,"등장하는":17023,"역사":17024,"##라가":17025,"정확":17026,"따라서":17027,"##다'":17028,"제1":17029,"##제가":17030,"가져":17031,"명칭":17032,"이름을":17033,"##버스":17034,"진출":17035,"##0년대":17036,"담당":17037,"##우스":17038,"판매":17039,"기억":17040,"대체":17041,"##해도":17042,"하루":17043,"문제가":17044,"있고,":17045,"사용하는":17046,"에피":17047,"남자":17048,"그나마":17049,"##상의":17050,"쓰는":17051,"특징":17052,"드래곤":17053,"##으로서":17054,"##수는":17055,"자신을":17056,"받은":17057,"상승":17058,"요구":17059,"아마":17060,"##문을":17061,"경우도":17062,"따르면":17063,"참가":17064,"##도는":17065,"덕분에":17066,"##으므로":17067,"다이":17068,"##ot":17069,"경찰":17070,"중앙":17071,"수비":17072,"##들에":17073,"있기":17074,"작중":17075,"남아":17076,"##장에서":17077,"선발":17078,"조건":17079,"개인":17080,"있게":17081,"하였다.":17082,"202":17083,"그림":17084,"공격을":17085,"##제를":17086,"고려":17087,"##조차":17088,"밝혀":17089,"##라면":17090,"##권을":17091,"##부의":17092,"받고":17093,"상위":17094,"마이":17095,"##피언":17096,"러시아":17097,"##했다는":17098,"##했지만":17099,"##사로":17100,"##한다는":17101,"2017":17102,"물리":17103,"가능한":17104,"2013년":17105,"##ad":17106,"하이":17107,"선거":17108,"29":17109,"##장은":17110,"##군이":17111,"##아가":17112,"각각":17113,"##수로":17114,"이벤트":17115,"에피소":17116,"후보":17117,"Lv":17118,"건물":17119,"더욱":17120,"듯.":17121,"다르":17122,"2차":17123,"##전이":17124,"##.4":17125,"우주":17126,"강력한":17127,"자체가":17128,"##한테":17129,"넘어":17130,"주요":17131,"항목":17132,"순간":17133,"구조":17134,"대해서":17135,"경험":17136,"어머니":17137,"해서":17138,"##계를":17139,"현대":17140,"제공":17141,"주의":17142,"##지지":17143,"##적을":17144,"비판":17145,"##문에":17146,"프로그램":17147,"사람들이":17148,"##지,":17149,"결혼":17150,"##레벨":17151,"상대로":17152,"시점":17153,"가족":17154,"교육":17155,"-1":17156,"작가":17157,"확실":17158,"##리,":17159,"시간이":17160,"##장에":17161,"##스러":17162,"##부에":17163,"후에":17164,"초기":17165,"굉장히":17166,"어린":17167,"가격":17168,"편이다.":17169,"##리와":17170,"##되면서":17171,"##부를":17172,"아르":17173,"불구":17174,"위험":17175,"챔피언":17176,"##위원":17177,"어렵":17178,"2012년":17179,"##id":17180,"단순":17181,"보내":17182,"과정":17183,"194":17184,"##ch":17185,"##선을":17186,"##대는":17187,"##치고":17188,"사용할":17189,"피해를":17190,"##감을":17191,"##mm":17192,"프랑스":17193,"2000":17194,"마찬가지로":17195,"나와":17196,"##량이":17197,"아주":17198,"일으":17199,"말이":17200,"여기서":17201,"준비":17202,"어디":17203,"참조":17204,"나머":17205,"The":17206,"무시":17207,"폭발":17208,"##장으로":17209,"유럽":17210,"여담":17211,"받았":17212,"지구":17213,"있었던":17214,"##트는":17215,"##이라면":17216,"진짜":17217,"##리로":17218,"대미":17219,"##체가":17220,"가능성이":17221,"##으면서":17222,"##타를":17223,"##치로":17224,"가면":17225,"제한":17226,"활용":17227,"작은":17228,"메이":17229,"##레이드":17230,"되고":17231,"약간":17232,"##까지는":17233,"속성":17234,"않다.":17235,"쉽게":17236,"제2":17237,"엄청난":17238,"대전":17239,"##ay":17240,"가는":17241,"방영":17242,"여전히":17243,"##정한":17244,"##키는":17245,"for":17246,"히로":17247,"##리티":17248,"##.6":17249,"알아":17250,"보이":17251,"받는":17252,"영향을":17253,"##시키는":17254,"##업을":17255,"한편":17256,"St":17257,"국제":17258,"지하":17259,"시청":17260,"제국":17261,"##시즌":17262,"##ER":17263,"동료":17264,"60":17265,"마스터":17266,"부산":17267,"발사":17268,"크리스":17269,"논란":17270,"다음과":17271,"##.7":17272,"수가":17273,"훨씬":17274,"##.\"":17275,"1일":17276,"클리어":17277,"사고":17278,"그가":17279,"##력은":17280,"##리기":17281,"패턴":17282,"##었던":17283,"기간":17284,"못하고":17285,"분위":17286,"현실":17287,"##us":17288,"당연히":17289,"##식이":17290,"##인물":17291,"쓰러":17292,"인구":17293,"방향":17294,"보호":17295,"##려서":17296,"강한":17297,"연결":17298,"이해":17299,"##위로":17300,"주는":17301,"##심을":17302,"그를":17303,"특별":17304,"2010년":17305,"##개를":17306,"이탈":17307,"하며":17308,"##없는":17309,"혼자":17310,"다양한":17311,"크로":17312,"##행을":17313,"##티브":17314,"역할을":17315,"계약":17316,"##로부터":17317,"##하다는":17318,"FC":17319,"##히는":17320,"##만이":17321,"해결":17322,"한정":17323,"나이":17324,"##40":17325,"최근":17326,"기준으로":17327,"적을":17328,"조합":17329,"##만한":17330,"브라":17331,"##정도":17332,"잡아":17333,"##사와":17334,"##ro":17335,"잘못":17336,"##놓고":17337,"##제로":17338,"국민":17339,"파워":17340,"취급":17341,"삼성":17342,"지방":17343,"##해주":17344,"중요한":17345,"##시의":17346,"##.8":17347,"블랙":17348,"영어":17349,"##로를":17350,"195":17351,"##라인":17352,"도망":17353,"##수록":17354,"##다니":17355,"##프를":17356,"받았다.":17357,"##합니다.":17358,"##겠다고":17359,"##게임":17360,"의견":17361,"본인":17362,"2011년":17363,"##나,":17364,"##자기":17365,"추정":17366,"##이고,":17367,"##다,":17368,"##레스":17369,"##만에":17370,"소모":17371,"##위에":17372,"스토리":17373,"보는":17374,"생활":17375,"##라운드":17376,"않을":17377,"##기,":17378,"자연":17379,"##위가":17380,"TV":17381,"##학년":17382,"##ir":17383,"처리":17384,"##BC":17385,"경제":17386,"운동":17387,"문제는":17388,"때문.":17389,"문화":17390,"출전":17391,"기타":17392,"것에":17393,"##면,":17394,"다니":17395,"버스":17396,"##사에":17397,"조직":17398,"없었다.":17399,"##!\"":17400,"오래":17401,"전용":17402,"충분":17403,"##인트":17404,"##자와":17405,"이루어":17406,"나무":17407,"##도,":17408,"라인":17409,"정도.":17410,"##지션":17411,"##듯이":17412,"운행":17413,"##신이":17414,"##학생":17415,"비롯":17416,"##나게":17417,"불구하고":17418,"##비아":17419,"방면":17420,"스스로":17421,"이유는":17422,"오른":17423,"##난다.":17424,"##로가":17425,"##세기":17426,"##이란":17427,"##일을":17428,"##단의":17429,"2018":17430,"##만을":17431,"장착":17432,"##대학":17433,"아버지":17434,"하여":17435,"##한다고":17436,"##소를":17437,"대부분의":17438,"##회를":17439,"보이는":17440,"##신을":17441,"##가를":17442,"느낌":17443,"##성은":17444,"아들":17445,"##ht":17446,"낮은":17447,"##나이":17448,"##성의":17449,"##라를":17450,"##12":17451,"예정":17452,"전문":17453,"##명은":17454,"독립":17455,"아군":17456,"타입":17457,"등장한다.":17458,"##기와":17459,"에너":17460,"연속":17461,"이유로":17462,"##갔다.":17463,"들고":17464,"중에":17465,"##자들이":17466,"부활":17467,"내가":17468,"##th":17469,"퀘스트":17470,"수상":17471,"입장":17472,"##un":17473,"미션":17474,"##im":17475,"##'라는":17476,"##이즈":17477,"유니":17478,"아이돌":17479,"##져서":17480,"구간":17481,"##보니":17482,"종료":17483,"##르크":17484,"##원은":17485,"##하다고":17486,"싱글":17487,"HP":17488,"모드":17489,"나는":17490,"이상의":17491,"달성":17492,"##의를":17493,"편.":17494,"경우는":17495,"말한다.":17496,"절대":17497,"##ur":17498,"더불":17499,"##시켰":17500,"##하다가":17501,"##카이":17502,"일본의":17503,"##.9":17504,"##km":17505,"되면":17506,"번역":17507,"##od":17508,"타고":17509,"하기":17510,"관리":17511,"##초에":17512,"##당한":17513,"제목":17514,"##냈다.":17515,"##전의":17516,"항공":17517,"##t;":17518,"##라서":17519,"##데이트":17520,"되지":17521,"포켓":17522,"##지게":17523,"##세대":17524,"메인":17525,"##dddd":17526,"졸업":17527,"반대":17528,"##이면":17529,"소설":17530,"종류":17531,"엔딩":17532,"##유의":17533,"##시를":17534,"##으로도":17535,"근접":17536,"생존":17537,"##가가":17538,"##사,":17539,"자리":17540,"##스에":17541,"##시마":17542,"야구":17543,"##에게는":17544,"##야마":17545,"목소":17546,"배경":17547,"만약":17548,"##말로":17549,"일을":17550,"나머지":17551,"민주":17552,"##림픽":17553,"시도":17554,"현재는":17555,"##15":17556,"##32":17557,"일어나":17558,"대한민국의":17559,"더불어":17560,"##왔다.":17561,"목표":17562,"##력으로":17563,"##ut":17564,"로마":17565,"검은":17566,"위에":17567,"세이":17568,"##함을":17569,"엔진":17570,"대상":17571,"최소":17572,"지휘":17573,"업데이트":17574,"스피":17575,"##했으며,":17576,"##어들":17577,"했지만":17578,"SK":17579,"가끔":17580,"##기고":17581,"난이도":17582,"그룹":17583,"##원으로":17584,"속도":17585,"##ST":17586,"##공격":17587,"##시가":17588,"밖에":17589,"##비가":17590,"하면서":17591,"일정":17592,"대사":17593,"##관이":17594,"에피소드":17595,"##신의":17596,"##조건":17597,"공연":17598,"##일이":17599,"배틀":17600,"##운데":17601,"제외한":17602,"만화":17603,"##같이":17604,"##ver":17605,"신경":17606,"##세를":17607,"##ag":17608,"항상":17609,"##려는":17610,"성장":17611,"##점으로":17612,"##19":17613,"부르":17614,"##단을":17615,"##종의":17616,"##ec":17617,"건설":17618,"수정":17619,"##마저":17620,"##혔다.":17621,"##거나,":17622,"##로의":17623,"두고":17624,"##부가":17625,"##겼다.":17626,"얻을":17627,"2019":17628,"유리":17629,"분노":17630,"능력을":17631,"##리게":17632,"소재":17633,"아프":17634,"유명한":17635,"이끌":17636,"정식":17637,"직업":17638,"##카와":17639,"##60":17640,"정도의":17641,"##군은":17642,"생긴":17643,"##스티":17644,"전국":17645,"전설":17646,"사람은":17647,"##37":17648,"##?\"":17649,"비행":17650,"북한":17651,"##으로써":17652,"##이로":17653,"오늘":17654,"무엇":17655,"미국의":17656,"전작":17657,"##라며":17658,"##지기":17659,"##어진다.":17660,"계열":17661,"##ent":17662,"##계의":17663,"포켓몬":17664,"좋지":17665,"##호를":17666,"작곡":17667,"##상에":17668,"##되기":17669,"##물이":17670,"사실을":17671,"싸우":17672,"해야":17673,"2016":17674,"##선이":17675,"인터뷰":17676,"나왔다.":17677,"##냐고":17678,"이탈리아":17679,"##버린":17680,"##주를":17681,"##리면":17682,"##했으나":17683,"##비를":17684,"자랑":17685,"you":17686,"##시로":17687,"미사":17688,"35":17689,"높다.":17690,"##나의":17691,"것과":17692,"부여":17693,"각종":17694,"끝나":17695,"##어야":17696,"##선의":17697,"다르게":17698,"##서를":17699,"거기":17700,"하지만,":17701,"미래":17702,"과학":17703,"빠른":17704,"상황에서":17705,"##방송":17706,"이름이":17707,"위치한":17708,"##무를":17709,"##여서":17710,"##시는":17711,"수는":17712,"이외":17713,"괜찮":17714,"만드는":17715,"바람에":17716,"##스럽":17717,"비밀":17718,"##겠지만":17719,"전반":17720,"##ak":17721,"##하지만,":17722,"불러":17723,"결승":17724,"##음에도":17725,"연출":17726,"적은":17727,"누구":17728,"특정":17729,"##해진":17730,"참조.":17731,"##수한":17732,"서비":17733,"32":17734,"2009년":17735,"있지만,":17736,"모습이":17737,"등으로":17738,"때,":17739,"있다":17740,"##다운":17741,"기관":17742,"##디어":17743,"엘리":17744,"##이라도":17745,"##호가":17746,"정작":17747,"설립":17748,"스파":17749,"##미가":17750,"훈련":17751,"##cm":17752,"묘사":17753,"케이":17754,"80":17755,"시전":17756,"193":17757,"1회":17758,"라고":17759,"소녀":17760,"##동을":17761,"##모토":17762,"##었다고":17763,"나서":17764,"평균":17765,"분류":17766,"##....":17767,"스테이지":17768,"못하는":17769,"전차":17770,"##장,":17771,"##움이":17772,"행정":17773,"따로":17774,"##부터는":17775,"자세한":17776,"##스러운":17777,"제일":17778,"1년":17779,"##외로":17780,"##고를":17781,"##()":17782,"예상":17783,"때문에,":17784,"근처":17785,"있다면":17786,"##단이":17787,"70":17788,"2008년":17789,"기반":17790,"시작했다.":17791,"별로":17792,"모르":17793,"타카":17794,"클래":17795,"연기":17796,"##어의":17797,"##하라":17798,"갑자기":17799,"##80":17800,"##대표":17801,"##구가":17802,"포지션":17803,"보유":17804,"소개":17805,"##이,":17806,"##더니":17807,"개념":17808,"달려":17809,"나름":17810,"않게":17811,"##크로":17812,"필요한":17813,"경우에는":17814,"명령":17815,"##지와":17816,"1차":17817,"##고는":17818,"지도":17819,"뒤에":17820,"to":17821,"없을":17822,"##쪽으로":17823,"예를":17824,"이름은":17825,"안에":17826,"악마":17827,"하늘":17828,"##프로":17829,"아키":17830,"종족":17831,"지난":17832,"것이라고":17833,"##mu":17834,"##제의":17835,"##세가":17836,"여담으로":17837,"1위":17838,"확정":17839,"효과를":17840,"일행":17841,"아카":17842,"게임을":17843,"교체":17844,"상황이":17845,"최고의":17846,"인천":17847,"안정":17848,"##군을":17849,"발전":17850,"집중":17851,"수행":17852,"공중":17853,"있으니":17854,"처음으로":17855,"스포":17856,"##ub":17857,"##입니다.":17858,"나중에":17859,"지정":17860,"압도":17861,"##크를":17862,"사냥":17863,"##ffff":17864,"##소가":17865,"연합":17866,"월드컵":17867,"나타나":17868,"경쟁":17869,"없고":17870,"지지":17871,"사이에":17872,"##계가":17873,"가까운":17874,"부모":17875,"표기":17876,"본인이":17877,"##'의":17878,"파티":17879,"이걸":17880,"등장인물":17881,"##이다":17882,"in":17883,"지켜":17884,"##부는":17885,"##란드":17886,"못했다.":17887,"즉,":17888,"잠시":17889,"생명":17890,"##'를":17891,"##율이":17892,"특이":17893,"##고등학교":17894,"배치":17895,"##리며":17896,"본래":17897,"##부로":17898,"애초에":17899,"각성":17900,"##원에":17901,"식으로":17902,"소련":17903,"외국":17904,"머리":17905,"##',":17906,"기대":17907,"없다는":17908,"경우,":17909,"언제":17910,"탈출":17911,"##야말로":17912,"나올":17913,"이용해":17914,"파이":17915,"이게":17916,"존재한다.":17917,"##지면":17918,"##인으로":17919,"죽은":17920,"있으면":17921,"##보는":17922,"사례":17923,"갖고":17924,"2000년":17925,"##타로":17926,"##하나":17927,"##스테":17928,"##mula":17929,"기다":17930,"하게":17931,"없다고":17932,"최강":17933,"빠르게":17934,"##치기":17935,"차이가":17936,"물건":17937,"일러":17938,"벌어":17939,"이적":17940,"치명":17941,"##mula_":17942,"위의":17943,"##-3":17944,"##았던":17945,"도입":17946,"##역을":17947,"제거":17948,"보니":17949,"새로":17950,"##가의":17951,"##스코":17952,"##ight":17953,"이야기를":17954,"##량을":17955,"##상은":17956,"##됐다.":17957,"고양":17958,"##em":17959,"중에서":17960,"##트라":17961,"사용자가":17962,"##만의":17963,"군사":17964,"대기":17965,"##타임":17966,"부정":17967,"목록":17968,"##되었고,":17969,"지배":17970,"##스케":17971,"등장한":17972,"##드시":17973,"무슨":17974,"라는":17975,"다크":17976,"##었고,":17977,"##'을":17978,"빠져":17979,"기동":17980,"그녀의":17981,"유사":17982,"카운":17983,"도쿄":17984,"좋아하는":17985,"##간의":17986,"바꾸":17987,"완전":17988,"formula_":17989,"##화의":17990,"베이":17991,"달라":17992,"접근":17993,"이후로":17994,"말에":17995,"아니면":17996,"##ON":17997,"야마":17998,"나라":17999,"vs":18000,"관한":18001,"2007년":18002,"##치의":18003,"이쪽":18004,"복귀":18005,"##즈의":18006,"##ce":18007,"##하였고,":18008,"가운데":18009,"건담":18010,"라이브":18011,"남성":18012,"##:0":18013,"과정에서":18014,"##16":18015,"직후":18016,"기본적으로":18017,"저지":18018,"등급":18019,"##언을":18020,"올림픽":18021,"도착":18022,"여기에":18023,"제품":18024,"##도에":18025,"대구":18026,"##AR":18027,"유일한":18028,"2,":18029,"남은":18030,"촬영":18031,"##,#":18032,"##25":18033,"음반":18034,"##학과":18035,"##체의":18036,"##내고":18037,"##냐는":18038,"##문이":18039,"##타가":18040,"##했으며":18041,"무려":18042,"##스토":18043,"동생":18044,"##심이":18045,"가르":18046,"##터를":18047,"##'라고":18048,"포기":18049,"시험":18050,"타격":18051,"변신":18052,"사람을":18053,"연습":18054,"블루":18055,"##롭게":18056,"보기":18057,"##이니":18058,"##os":18059,"##ri":18060,"살해":18061,"##:00":18062,"500":18063,"##감이":18064,"정규":18065,"##um":18066,"날아":18067,"돌아가":18068,"##진이":18069,"죽음":18070,"45":18071,"##ap":18072,"공동":18073,"##로우":18074,"##미를":18075,"역대":18076,"##많은":18077,"보아":18078,"경기에서":18079,"반면":18080,"사용한다.":18081,"##AN":18082,"완성":18083,"이곳":18084,"했던":18085,"치료":18086,"알게":18087,"##차가":18088,"##버렸다.":18089,"끝에":18090,"##낸다.":18091,"##'s":18092,"고정":18093,"하는데":18094,"분명":18095,"회피":18096,"##프가":18097,"중간":18098,"하였":18099,"업그":18100,"듣고":18101,"##주고":18102,"링크":18103,"##48":18104,"상태에서":18105,"인도":18106,"##광역":18107,"상당한":18108,"추천":18109,"##에만":18110,"데미지":18111,"범위":18112,"192":18113,"해외":18114,"유튜":18115,"동물":18116,"##주가":18117,"때마다":18118,"심각":18119,"타이틀":18120,"통합":18121,"조종":18122,"반드시":18123,"##관을":18124,"##화국":18125,"환경":18126,"받을":18127,"##점은":18128,"준다.":18129,"일러스트":18130,"##\"라고":18131,"이하":18132,"LG":18133,"##한다":18134,"##18":18135,"##and":18136,"저항":18137,"이건":18138,"##력과":18139,"##했는데":18140,"기업":18141,"프레":18142,"##어는":18143,"싫어":18144,"부탁":18145,"효과가":18146,"비용":18147,"탈락":18148,"##자들은":18149,"뛰어난":18150,"주민":18151,"다루":18152,"완벽":18153,"2개":18154,"합류":18155,"정상":18156,"실험":18157,"소리":18158,"지상":18159,"추측":18160,"공간":18161,"경기를":18162,"##했는데,":18163,"투수":18164,"##러스":18165,"##들어":18166,"##이지만,":18167,"몇몇":18168,"##지면서":18169,"##들로":18170,"회사":18171,"에이":18172,"한다는":18173,"마무":18174,"미니":18175,"90":18176,"##민주":18177,"상관":18178,"어둠":18179,"점을":18180,"후,":18181,"##문의":18182,"하자":18183,"##트에":18184,"유일하게":18185,"##마가":18186,"인터넷":18187,"자리를":18188,"자체는":18189,"오버":18190,"앞에":18191,"종종":18192,"##진을":18193,"정의":18194,"개최":18195,"##체는":18196,"판단":18197,"규모":18198,"##라,":18199,"느끼":18200,"반대로":18201,"##형을":18202,"가수":18203,"요시":18204,"##술을":18205,"구매":18206,"이로":18207,"열린":18208,"우선":18209,"연재":18210,"전략":18211,"##드에":18212,"##화된":18213,"점점":18214,"삭제":18215,"##받은":18216,"무장":18217,"시간을":18218,"##마자":18219,"롯데":18220,"팀의":18221,"수많은":18222,"1개":18223,"알려져":18224,"##스카":18225,"-3":18226,"##구의":18227,"충격":18228,"기념":18229,"##주로":18230,"##두고":18231,"##인,":18232,"전통":18233,"리더":18234,"##아버":18235,"##드와":18236,"##보를":18237,"##키가":18238,"종교":18239,"조사":18240,"##우가":18241,"도중":18242,"##시킬":18243,"##금을":18244,"많아":18245,"구분":18246,"##탄을":18247,"##세계":18248,"스코":18249,"##키의":18250,"##정에":18251,"2006년":18252,"높아":18253,"올려":18254,"다소":18255,"봐도":18256,"##터가":18257,"##겠다는":18258,"소유":18259,"##파트":18260,"##석이":18261,"생성":18262,"기계":18263,"트리":18264,"없어서":18265,"##지에서":18266,"프로젝":18267,"개봉":18268,"##이와":18269,"##일러":18270,"##지.":18271,"불리":18272,"시대":18273,"장소":18274,"쓰고":18275,"##것도":18276,"No":18277,"EX":18278,"##FA":18279,"##일부터":18280,"##플레이":18281,"##회가":18282,"##용으로":18283,"생각해":18284,"카드를":18285,"떠나":18286,"##단계":18287,"시리즈의":18288,"##하는데,":18289,"전기":18290,"##크가":18291,"Ch":18292,"보여준다.":18293,"아내":18294,"공포":18295,"상태로":18296,"인한":18297,"암살":18298,"맞추":18299,"디자인":18300,"##되면":18301,"##하자.":18302,"바다":18303,"요청":18304,"##인과":18305,"제외하면":18306,"그린":18307,"2년":18308,"싸움":18309,"##스에서":18310,"##가,":18311,"컴퓨":18312,"##받는":18313,"##차를":18314,"##르트":18315,"정리":18316,"않으면":18317,"300":18318,"and":18319,"의외로":18320,"순위":18321,"##14":18322,"##질을":18323,"##하도록":18324,"도와":18325,"##IN":18326,"히어로":18327,"##특별":18328,"평범":18329,"화면":18330,"아니고":18331,"KBS":18332,"##트리":18333,"3개":18334,"마사":18335,"##되며":18336,"장갑":18337,"그야말로":18338,"33":18339,"##어,":18340,"변화":18341,"전사":18342,"대중":18343,"##력의":18344,"##적은":18345,"무조건":18346,"사업":18347,"최초의":18348,"##원,":18349,"##판을":18350,"##무라":18351,"워낙":18352,"전개":18353,"데이터":18354,"2020년":18355,"##원에서":18356,"듯하다.":18357,"카이":18358,"##적으로는":18359,"스크":18360,"##으로부터":18361,"##르의":18362,"어려운":18363,"##시,":18364,"최초로":18365,"홈런":18366,"외에도":18367,"본격":18368,"##로그":18369,"것처럼":18370,"##호선":18371,"##크의":18372,"하고,":18373,"##석을":18374,"##정은":18375,"다행":18376,"단,":18377,"##TV":18378,"##쪽에":18379,"##식으로":18380,"빨리":18381,"이와":18382,"##라스":18383,"##%,":18384,"##이므로":18385,"가서":18386,"도전":18387,"##지라":18388,"2015":18389,"##op":18390,"##로드":18391,"##성에":18392,"##ul":18393,"##/2":18394,"없음":18395,"##운동":18396,"이름으로":18397,"##버린다.":18398,"위협":18399,"확장":18400,"상징":18401,"##1,":18402,"##속도":18403,"##방을":18404,"아무리":18405,"일어":18406,"부하":18407,"##아의":18408,"##세의":18409,"##한다면":18410,"##안을":18411,"##마의":18412,"한글":18413,"##니티":18414,"평소":18415,"비중":18416,"개그":18417,"진화":18418,"##ck":18419,"스위":18420,"비롯한":18421,"경기도":18422,"##ter":18423,"투입":18424,"최후":18425,"그걸":18426,"##했기":18427,"레드":18428,"사람들은":18429,"시설":18430,"충분히":18431,"적의":18432,"굳이":18433,"##에게서":18434,"##승을":18435,"##ation":18436,"안전":18437,"##일의":18438,"의하면":18439,"지키":18440,"##었고":18441,"오프":18442,"데미지를":18443,"##가와":18444,"때까지":18445,"범죄":18446,"중반":18447,"대응":18448,"##적이다.":18449,"##군에":18450,"##이에":18451,"영혼":18452,"거부":18453,"작업":18454,"##법을":18455,"보다":18456,"##교육":18457,"로봇":18458,"탓에":18459,"언론":18460,"무한":18461,"##ra":18462,"사무":18463,"##정의":18464,"##13":18465,"##17":18466,"관련된":18467,"등에":18468,"##이닝":18469,"끌어":18470,"##수도":18471,"표시":18472,"능력이":18473,"카메":18474,"36":18475,"##'로":18476,"##온다.":18477,"돈을":18478,"##왕의":18479,"마나":18480,"##조의":18481,"##트에서":18482,"##보고":18483,"##세이":18484,"##보다도":18485,"##었을":18486,"##동생":18487,"##지역":18488,"밝혔다.":18489,"옵션":18490,"2005년":18491,"km":18492,"대형":18493,"##호는":18494,"버그":18495,"##2,":18496,"##드리":18497,"##성과":18498,"붉은":18499,"##부에서":18500,"그리스":18501,"##대전":18502,"마르":18503,"##구에":18504,"기존의":18505,"희생":18506,"##트와":18507,"조작":18508,"대화":18509,"거기에":18510,"트위":18511,"##다른":18512,"##자에":18513,"손을":18514,"통과":18515,"운용":18516,"성향":18517,"##인가":18518,"성우는":18519,"파일":18520,"생각하면":18521,"##하려고":18522,"점령":18523,"##회에서":18524,"특유의":18525,"맞춰":18526,"듯한":18527,"시민":18528,"하며,":18529,"##라이더":18530,"오리지":18531,"##시오":18532,"보조":18533,"간단":18534,"##너스":18535,"##바이":18536,"네이":18537,"##페이지":18538,"##시브":18539,"말하는":18540,"##나와":18541,"데이":18542,"##경을":18543,"th":18544,"##기사":18545,"##IC":18546,"##미의":18547,"##쳤다.":18548,"거쳐":18549,"제3":18550,"점이":18551,"대결":18552,"##래도":18553,"##'이라는":18554,"하드":18555,"얼마나":18556,"##미널":18557,"사기":18558,"태양":18559,"본인의":18560,"MA":18561,"플래":18562,"오랜":18563,"정책":18564,"패치":18565,"##제는":18566,"##드,":18567,"##요일":18568,"극장":18569,"##자들의":18570,"프로듀":18571,"시기":18572,"명중":18573,"##라우":18574,"주고":18575,"내에서":18576,"맞는":18577,"투표":18578,"선생":18579,"##로도":18580,"빼앗":18581,"##텐츠":18582,"##분이":18583,"선정":18584,"가깝":18585,"##려면":18586,"반복":18587,"불과":18588,"##남도":18589,"사격":18590,"##약을":18591,"##음이":18592,"인식":18593,"마리":18594,"장면이":18595,"##수,":18596,"무리":18597,"확률로":18598,"다운":18599,"있지":18600,"유튜브":18601,"##레인":18602,"시나":18603,"중심으로":18604,"얻어":18605,"클럽":18606,"##했지만,":18607,"마치":18608,"체력이":18609,"##론을":18610,"##단에":18611,"사는":18612,"MBC":18613,"##시킨다.":18614,"앞서":18615,"나오지":18616,"3일":18617,"오르":18618,"은퇴":18619,"재료":18620,"##인들이":18621,"고대":18622,"디지":18623,"이들은":18624,"##레이션":18625,"그럼":18626,"철도":18627,"##시대":18628,"대학교":18629,"지금은":18630,"되면서":18631,"##다고.":18632,"내용은":18633,"##스탄":18634,"##명으로":18635,"##70":18636,"신체":18637,"앞에서":18638,"화염":18639,"힘든":18640,"2004년":18641,"선언":18642,"뛰어":18643,"난이":18644,"영입":18645,"서술":18646,"데려":18647,"진입":18648,"디자":18649,"38":18650,"소년":18651,"거두":18652,"후속":18653,"몸을":18654,"34":18655,"득점":18656,"##되었으며,":18657,"대표적인":18658,"##그룹":18659,"2회":18660,"하는데,":18661,"##해를":18662,"##때문에":18663,"개조":18664,"서버":18665,"붙어":18666,"##치게":18667,"나이트":18668,"##실을":18669,"##광역시":18670,"##전은":18671,"100%":18672,"바라":18673,"##사카":18674,"##다시":18675,"##아이":18676,"적극":18677,"적에게":18678,"##리온":18679,"SP":18680,"##90":18681,"입고":18682,"패러":18683,"##소년":18684,"##트,":18685,"소비":18686,"인기":18687,"사태":18688,"외모":18689,"사쿠":18690,"모르는":18691,"여름":18692,"그저":18693,"##정으로":18694,"받는다.":18695,"##규모":18696,"##시티":18697,"##kg":18698,"##기관":18699,"근데":18700,"##임이":18701,"You":18702,"바닥":18703,"방문":18704,"##라.":18705,"##하니":18706,"##장과":18707,"살아남":18708,"##전쟁":18709,"오오":18710,"##러가":18711,"때도":18712,"말았다.":18713,"하나의":18714,"자료":18715,"목숨":18716,"점프":18717,"올라가":18718,"불안":18719,"보상":18720,"초대":18721,"포함한":18722,"##RA":18723,"##art":18724,"##전으로":18725,"다만,":18726,"설계":18727,"공략":18728,"국회의":18729,"문제를":18730,"##형이":18731,"이후에":18732,"좀비":18733,"##버리":18734,"노동":18735,"광주":18736,"적절":18737,"미드":18738,"##ie":18739,"그려":18740,"사람의":18741,"주문":18742,"무너":18743,"게이":18744,"방어력":18745,"장난":18746,"191":18747,"대해서는":18748,"형성":18749,"이기":18750,"##만으로":18751,"의한":18752,"##스킬":18753,"활동을":18754,"##방에":18755,"##도우":18756,"대단":18757,"아는":18758,"그때":18759,"##ia":18760,"알렉":18761,"컨셉":18762,"오토":18763,"지닌":18764,"##해졌다.":18765,"채널":18766,"살인":18767,"분리":18768,"단순히":18769,"마무리":18770,"단계":18771,"전환":18772,"꽤나":18773,"##제에":18774,"요소":18775,"맞아":18776,"##회에":18777,"2일":18778,"##래프트":18779,"##하려는":18780,"##분을":18781,"VS":18782,"도로":18783,"거대한":18784,"오리지널":18785,"마침":18786,"##하였고":18787,"##마를":18788,"##르가":18789,"정당":18790,"일반적인":18791,"교통":18792,"1000":18793,"##복을":18794,"막아":18795,"다르다.":18796,"요리":18797,"꾸준":18798,"마음을":18799,"##위는":18800,"##호의":18801,"##구는":18802,"서브":18803,"보였다.":18804,"받지":18805,"비고":18806,"##이상":18807,"선보":18808,"##선수":18809,"상황을":18810,"##되었고":18811,"무사":18812,"노력":18813,"주연":18814,"착용":18815,"한국의":18816,"##45":18817,"##'가":18818,"##이야":18819,"비난":18820,"아프리카":18821,"##골을":18822,"##코의":18823,"##:2":18824,"##나다":18825,"부분이":18826,"##스럽게":18827,"하나로":18828,"코스":18829,"U+":18830,"##ill":18831,"##산을":18832,"모험":18833,"떨어진":18834,"아름":18835,"거짓":18836,"##ab":18837,"##99":18838,"##하므로":18839,"손에":18840,"특성상":18841,"37":18842,"부르는":18843,"관통":18844,"부대":18845,"##카가":18846,"저격":18847,"모습으로":18848,"##버리는":18849,"승강":18850,"##역으로":18851,"##패를":18852,"경상":18853,"##해진다.":18854,"##즈가":18855,"되고,":18856,"미리":18857,"스포츠":18858,"페르":18859,"대비":18860,"##화에":18861,"날려":18862,"##어.":18863,"도움을":18864,"분야":18865,"보컬":18866,"인사":18867,"##센터":18868,"##IA":18869,"탑재":18870,"##선거":18871,"##방의":18872,"아쉬":18873,"더블":18874,"왕국":18875,"##~2":18876,"임명":18877,"점은":18878,"승리를":18879,"##시켰다.":18880,"원거리":18881,"##이라서":18882,"이것은":18883,"유래":18884,"연주":18885,"##고가":18886,"돌려":18887,"확보":18888,"등록":18889,"##ik":18890,"##일은":18891,"##나를":18892,"비교적":18893,"##니다":18894,"지적":18895,"먹고":18896,"##답게":18897,"죽을":18898,"누군":18899,"앞으로":18900,"점에서":18901,"완료":18902,"조각":18903,"##률이":18904,"고등학교":18905,"했으나":18906,"나쁘":18907,"팀이":18908,"##워서":18909,"허용":18910,"차례":18911,"브레이":18912,"In":18913,"2번":18914,"##소녀":18915,"##진의":18916,"##/0":18917,"##었다는":18918,"보병":18919,"금지":18920,"스카":18921,"##연히":18922,"2014":18923,"정보를":18924,"바탕":18925,"AP":18926,"자신은":18927,"명의":18928,"모티브":18929,"##타는":18930,"감안":18931,"남편":18932,"황금":18933,"컴퓨터":18934,"등장.":18935,"인기가":18936,"아시아":18937,"일어난":18938,"##트롤":18939,"연장":18940,"##렀다.":18941,"##과를":18942,"확실히":18943,"##사이":18944,"##에게도":18945,"고속":18946,"필살":18947,"일은":18948,"##프의":18949,"##시키고":18950,"##35":18951,"##미는":18952,"눈에":18953,"PC":18954,"만들어진":18955,"기체":18956,"##신은":18957,"실시":18958,"##요?":18959,"그에":18960,"##힌다.":18961,"##놓은":18962,"구축":18963,"거주":18964,"150":18965,"##all":18966,"##식의":18967,"##고속":18968,"##라와":18969,"##선에":18970,"작성":18971,"나누":18972,"10일":18973,"##초등학교":18974,"거리":18975,"트랙":18976,"75":18977,"논란이":18978,"##판이":18979,"##르기":18980,"15일":18981,"딱히":18982,"제압":18983,"그레이":18984,"원정":18985,"먹는":18986,"##ne":18987,"주목":18988,"추가로":18989,"##역이":18990,"세트":18991,"##력에":18992,"상처":18993,"포인트":18994,"고통":18995,"##리스트":18996,"국가대표":18997,"지니":18998,"1번":18999,"병사":19000,"곳에":19001,"##\"라는":19002,"##AT":19003,"인류":19004,"##악의":19005,"뉴욕":19006,"몰아":19007,"##가로":19008,"발언":19009,"가게":19010,"측면":19011,"대답":19012,"##프레":19013,"기술을":19014,"##당의":19015,"포르":19016,"##토리":19017,"상대가":19018,"말했다.":19019,"##문화":19020,"##ea":19021,"편집":19022,"##루가":19023,"##었지만":19024,"##자들":19025,"##성도":19026,"##바로":19027,"때의":19028,"##개로":19029,"임무":19030,"솔로":19031,"수밖에":19032,"II":19033,"해석":19034,"태어":19035,"##사에서":19036,"차이":19037,"##ue":19038,"##까지도":19039,"이전에":19040,"##피아":19041,"##EN":19042,"캐릭터가":19043,"##마트":19044,"짧은":19045,"190":19046,"2002년":19047,"사용한":19048,"걱정":19049,"##:5":19050,"멸망":19051,"##나무":19052,"##에서만":19053,"##메달":19054,"##북도":19055,"##우고":19056,"수호":19057,"그녀는":19058,"희망":19059,"##티어":19060,"따른":19061,"이유가":19062,"필요가":19063,"아나":19064,"스킬을":19065,"##FF":19066,"끝난":19067,"##랐다.":19068,"일반적으로":19069,"있습니다.":19070,"이용한":19071,"이사":19072,"있도록":19073,"가슴":19074,"3년":19075,"##다보니":19076,"##코가":19077,"개의":19078,"본인은":19079,"센터":19080,"뿐만":19081,"##키를":19082,"만한":19083,"시작한다.":19084,"30일":19085,"라디오":19086,"##PS":19087,"불리는":19088,"방해":19089,"##위의":19090,"##동,":19091,"동맹":19092,"알려진":19093,"##바람":19094,"갤러":19095,"장기":19096,"##공을":19097,"##ll":19098,"한다고":19099,"##권이":19100,"뮤직":19101,"5일":19102,"##ct":19103,"라이트":19104,"##자에게":19105,"커뮤":19106,"여행":19107,"##상에서":19108,"부른다.":19109,"48":19110,"어찌":19111,"유우":19112,"##AL":19113,"##발을":19114,"액션":19115,"젊은":19116,"잠깐":19117,"초반에":19118,"카즈":19119,"##포를":19120,"제조":19121,"그만":19122,"유도":19123,"##ss":19124,"##량의":19125,"녀석":19126,"제시":19127,"##질이":19128,"##화에서는":19129,"2003년":19130,"20일":19131,"에너지":19132,"##되었던":19133,"사이에서":19134,"중단":19135,"##크래프트":19136,"겨우":19137,"가리":19138,"##디아":19139,"##하여,":19140,"해금":19141,"없기":19142,"##:1":19143,"##상태":19144,"단체":19145,"보였":19146,"##하의":19147,"사령":19148,"##되며,":19149,"멀티":19150,"##을때":19151,"가정":19152,"있으나":19153,"평범한":19154,"타임":19155,"##모리":19156,"골드":19157,"생기":19158,"##이던":19159,"##품을":19160,"##잖아":19161,"내부":19162,"25일":19163,"##회는":19164,"흡수":19165,"55":19166,"##기.":19167,"##토가":19168,"엄청나게":19169,"##리트":19170,"해군":19171,"##도시":19172,"형태로":19173,"삼국":19174,"모아":19175,"##-4":19176,"생물":19177,"던전":19178,"필수":19179,"##서가":19180,"멀리":19181,"##단은":19182,"##ate":19183,"평가를":19184,"\"이":19185,"홈페이지":19186,"떨어져":19187,"끝내":19188,"느껴":19189,"레어":19190,"파트":19191,"원래는":19192,"##관은":19193,"예전":19194,"업그레이드":19195,"##자리":19196,"##루스":19197,"출생":19198,"약속":19199,"아스":19200,"##즈를":19201,"##동이":19202,"당선":19203,"육군":19204,"##웠다.":19205,"스케":19206,"보이지":19207,"##기술":19208,"##조가":19209,"듀얼":19210,"##gt;":19211,"##다가,":19212,"st":19213,"##차로":19214,"되기":19215,"어느정도":19216,"##대에서":19217,"3,":19218,"42":19219,"효율":19220,"##OR":19221,"그들의":19222,"##리안":19223,"오후":19224,"지역의":19225,"산업":19226,"안타":19227,"##카의":19228,"최대한":19229,"+1":19230,"바꿔":19231,"카오":19232,"내용을":19233,"오스트":19234,"대공":19235,"만다.":19236,"##량은":19237,"속도가":19238,"보급":19239,"대놓고":19240,"드라이":19241,"##생활":19242,"종합":19243,"##dddddd":19244,"궁극":19245,"걸어":19246,"개선":19247,"##하기로":19248,"쿨타임":19249,"물어":19250,"##,#dddddd":19251,"##세트":19252,"나카":19253,"##임에도":19254,"##모를":19255,"##되기도":19256,"4일":19257,"##지자":19258,"없지만":19259,"받아들":19260,"##계에":19261,"눈을":19262,"다름":19263,"힘이":19264,"이후에는":19265,"이것이":19266,"제안":19267,"게임의":19268,"직전":19269,"##했다":19270,"거절":19271,"봉인":19272,"##락을":19273,"처음에는":19274,"자신에게":19275,"팀을":19276,"##,000,000":19277,"28일":19278,"증거":19279,"##까지의":19280,"##미야":19281,"생겨":19282,"##'이":19283,"##주시":19284,"코너":19285,"50%":19286,"중화":19287,"코믹":19288,"트레이":19289,"##성,":19290,"밀어":19291,"##크는":19292,"##든지":19293,"##.10":19294,"##사건":19295,"##'는":19296,"맞고":19297,"유용":19298,"서비스":19299,"광역":19300,"어울":19301,"##ove":19302,"Re":19303,"##물로":19304,"끝까지":19305,"##카드":19306,"이야기가":19307,"##도와":19308,"귀족":19309,"MP":19310,"##&gt;":19311,"게시":19312,"재미":19313,"중이다.":19314,"사상":19315,"##권의":19316,"##함이":19317,"길을":19318,"이론":19319,"##니스":19320,"##수와":19321,"##lt;":19322,"7일":19323,"##ard":19324,"##oo":19325,"##대,":19326,"능력치":19327,"시나리오":19328,"잡고":19329,"현재의":19330,"도움이":19331,"##ell":19332,"수준의":19333,"흔히":19334,"인기를":19335,"거야":19336,"밸런":19337,"용병":19338,"##성으로":19339,"부담":19340,"강제":19341,
[...]
