[UNK]
[CLS]
[SEP]
[PAD]
[MASK]
!
"
#
$
%
&
'
(
)
*
+
,
-
.
/
0
1
2
3
4
5
6
7
8
9
:
;
<
=
>
?
@
A
B
C
D
E
F
G
H
I
J
K
L
M
N
O
P
Q
R
S
T
U
V
W
X
Y
Z
[
\
]
^
_
`
a
b
c
d
e
f
g
h
i
j
k
l
m
n
o
p
q
r
s
t
u
v
w
x
y
z
{
|
}
~

ㄱ
ㄲ
ㄳ
ㄴ
ㄵ
ㄶ
ㄷ
ㄸ
ㄹ
ㄺ
ㄻ
ㄼ
ㄽ
ㄾ
ㄿ
ㅀ
ㅁ
ㅂ
ㅃ
ㅄ
ㅅ
ㅆ
ㅇ
ㅈ
ㅉ
ㅊ
ㅋ
ㅌ
ㅍ
ㅎ
ㅏ
ㅐ
ㅑ
ㅒ
ㅓ
ㅔ
ㅕ
ㅖ
ㅗ
ㅘ
ㅙ
ㅚ
ㅛ
ㅜ
ㅝ
ㅞ
ㅟ
ㅠ
ㅡ
ㅢ
ㅣ
가
각
갂
갃
간
갅
갆
갇
갈
갉
갊
갋
갌
갍
갎
갏
감
갑
값
갓
갔
강
갖
갗
갘
같
갚
갛
개
객
갞
갟
갠
갡
갢
갣
갤
갥
갦
갧
갨
갩
갪
갫
갬
갭
갮
갯
갰
갱
갲
갳
갴
갵
갶
갷
갸
갹
갺
갻
갼
갽
갾
갿
걀
걁
걂
걃
걄
걅
걆
걇
걈
걉
걊
걋
걌
걍
걎
걏
걐
걑
걒
걓
걔
걕
걖
걗
걘
걙
걚
걛
걜
걝
걞
걟
걠
걡
걢
걣
걤
걥
걦
걧
걨
걩
걪
걫
걬
걭
걮
걯
거
걱
걲
걳
건
걵
걶
걷
걸
걹
걺
걻
걼
걽
걾
걿
검
겁
겂
것
겄
겅
겆
겇
겈
겉
겊
겋
게
겍
겎
겏
겐
겑
겒
겓
겔
겕
겖
겗
겘
겙
겚
겛
겜
겝
겞
겟
겠
겡
겢
겣
겤
겥
겦
겧
겨
격
겪
겫
견
겭
겮
겯
결
겱
겲
겳
겴
겵
겶
겷
겸
겹
겺
겻
겼
경
겾
겿
곀
곁
곂
곃
계
곅
곆
곇
곈
곉
곊
곋
곌
곍
곎
곏
곐
곑
곒
곓
곔
곕
곖
곗
곘
곙
곚
곛
곜
곝
곞
곟
고
곡
곢
곣
곤
곥
곦
곧
골
곩
곪
곫
곬
곭
곮
곯
곰
곱
곲
곳
곴
공
곶
곷
곸
곹
곺
곻
과
곽
곾
곿
관
괁
괂
괃
괄
괅
괆
괇
괈
괉
괊
괋
괌
괍
괎
괏
괐
광
괒
괓
괔
괕
괖
괗
괘
괙
괚
괛
괜
괝
괞
괟
괠
괡
괢
괣
괤
괥
괦
괧
괨
괩
괪
괫
괬
괭
괮
괯
괰
괱
괲
괳
괴
괵
괶
괷
괸
괹
괺
괻
괼
괽
괾
괿
굀
굁
굂
굃
굄
굅
굆
굇
굈
굉
굊
굋
굌
굍
굎
굏
교
굑
굒
굓
굔
굕
굖
굗
굘
굙
굚
굛
굜
굝
굞
굟
굠
굡
굢
굣
굤
굥
굦
굧
굨
굩
굪
굫
구
국
굮
굯
군
굱
굲
굳
굴
굵
굶
굷
굸
굹
굺
굻
굼
굽
굾
굿
궀
궁
궂
궃
궄
궅
궆
궇
궈
궉
궊
궋
권
궍
궎
궏
궐
궑
궒
궓
궔
궕
궖
궗
궘
궙
궚
궛
궜
궝
궞
궟
궠
궡
궢
궣
궤
궥
궦
궧
궨
궩
궪
궫
궬
궭
궮
궯
궰
궱
궲
궳
궴
궵
궶
궷
궸
궹
궺
궻
궼
궽
궾
궿
귀
귁
귂
귃
귄
귅
귆
귇
귈
귉
귊
귋
귌
귍
귎
귏
귐
귑
귒
귓
귔
귕
귖
귗
귘
귙
귚
귛
규
귝
귞
귟
균
귡
귢
귣
귤
귥
귦
귧
귨
귩
귪
귫
귬
귭
귮
귯
귰
귱
귲
귳
귴
귵
귶
귷
그
극
귺
귻
근
귽
귾
귿
글
긁
긂
긃
긄
긅
긆
긇
금
급
긊
긋
긌
긍
긎
긏
긐
긑
긒
긓
긔
긕
긖
긗
긘
긙
긚
긛
긜
긝
긞
긟
긠
긡
긢
긣
긤
긥
긦
긧
긨
긩
긪
긫
긬
긭
긮
긯
기
긱
긲
긳
긴
긵
긶
긷
길
긹
긺
긻
긼
긽
긾
긿
김
깁
깂
깃
깄
깅
깆
깇
깈
깉
깊
깋
까
깍
깎
깏
깐
깑
깒
깓
깔
깕
깖
깗
깘
깙
깚
깛
깜
깝
깞
깟
깠
깡
깢
깣
깤
깥
깦
깧
깨
깩
깪
깫
깬
깭
깮
깯
깰
깱
깲
깳
깴
깵
깶
깷
깸
깹
깺
깻
깼
깽
깾
깿
꺀
꺁
꺂
꺃
꺄
꺅
꺆
꺇
꺈
꺉
꺊
꺋
꺌
꺍
꺎
꺏
꺐
꺑
꺒
꺓
꺔
꺕
꺖
꺗
꺘
꺙
꺚
꺛
꺜
꺝
꺞
꺟
꺠
꺡
꺢
꺣
꺤
꺥
꺦
꺧
꺨
꺩
꺪
꺫
꺬
꺭
꺮
꺯
꺰
꺱
꺲
꺳
꺴
꺵
꺶
꺷
꺸
꺹
꺺
꺻
꺼
꺽
꺾
꺿
껀
껁
껂
껃
껄
껅
껆
껇
껈
껉
껊
껋
껌
껍
껎
껏
껐
껑
껒
껓
껔
껕
껖
껗
께
껙
껚
껛
껜
껝
껞
껟
껠
껡
껢
껣
껤
껥
껦
껧
껨
껩
껪
껫
껬
껭
껮
껯
껰
껱
껲
껳
껴
껵
껶
껷
껸
껹
껺
껻
껼
껽
껾
껿
꼀
꼁
꼂
꼃
꼄
꼅
꼆
꼇
꼈
꼉
꼊
꼋
꼌
꼍
꼎
꼏
꼐
꼑
꼒
꼓
꼔
꼕
꼖
꼗
꼘
꼙
꼚
꼛
꼜
꼝
꼞
꼟
꼠
꼡
꼢
꼣
꼤
꼥
꼦
꼧
꼨
꼩
꼪
꼫
꼬
꼭
꼮
꼯
꼰
꼱
꼲
꼳
꼴
꼵
꼶
꼷
꼸
꼹
꼺
꼻
꼼
꼽
꼾
꼿
꽀
꽁
꽂
꽃
꽄
꽅
꽆
꽇
꽈
꽉
꽊
꽋
꽌
꽍
꽎
꽏
꽐
꽑
꽒
꽓
꽔
꽕
꽖
꽗
꽘
꽙
꽚
꽛
꽜
꽝
꽞
꽟
꽠
꽡
꽢
꽣
꽤
꽥
꽦
꽧
꽨
꽩
꽪
꽫
꽬
꽭
꽮
꽯
꽰
꽱
꽲
꽳
꽴
꽵
꽶
꽷
꽸
꽹
꽺
꽻
꽼
꽽
꽾
꽿
꾀
꾁
꾂
꾃
꾄
꾅
꾆
꾇
꾈
꾉
꾊
꾋
꾌
꾍
꾎
꾏
꾐
꾑
꾒
꾓
꾔
꾕
꾖
꾗
꾘
꾙
꾚
꾛
꾜
꾝
꾞
꾟
꾠
꾡
꾢
꾣
꾤
꾥
꾦
꾧
꾨
꾩
꾪
꾫
꾬
꾭
꾮
꾯
꾰
꾱
꾲
꾳
꾴
꾵
꾶
꾷
꾸
꾹
꾺
꾻
꾼
꾽
꾾
꾿
꿀
꿁
꿂
꿃
꿄
꿅
꿆
꿇
꿈
꿉
꿊
꿋
꿌
꿍
꿎
꿏
꿐
꿑
꿒
꿓
꿔
꿕
꿖
꿗
꿘
꿙
꿚
꿛
꿜
꿝
꿞
꿟
꿠
꿡
꿢
꿣
꿤
꿥
꿦
꿧
꿨
꿩
꿪
꿫
꿬
꿭
꿮
꿯
꿰
꿱
꿲
꿳
꿴
꿵
꿶
꿷
꿸
꿹
꿺
꿻
꿼
꿽
꿾
꿿
뀀
뀁
뀂
뀃
뀄
뀅
뀆
뀇
뀈
뀉
뀊
뀋
뀌
뀍
뀎
뀏
뀐
뀑
뀒
뀓
뀔
뀕
뀖
뀗
뀘
뀙
뀚
뀛
뀜
뀝
뀞
뀟
뀠
뀡
뀢
뀣
뀤
뀥
뀦
뀧
뀨
뀩
뀪
뀫
뀬
뀭
뀮
뀯
뀰
뀱
뀲
뀳
뀴
뀵
뀶
뀷
뀸
뀹
뀺
뀻
뀼
뀽
뀾
뀿
끀
끁
끂
끃
끄
끅
끆
끇
끈
끉
끊
끋
끌
끍
끎
끏
끐
끑
끒
끓
끔
끕
끖
끗
끘
끙
끚
끛
끜
끝
끞
끟
끠
끡
끢
끣
끤
끥
끦
끧
끨
끩
끪
끫
끬
끭
끮
끯
끰
끱
끲
끳
끴
끵
끶
끷
끸
끹
끺
끻
끼
끽
끾
끿
낀
낁
낂
낃
낄
낅
낆
낇
낈
낉
낊
낋
낌
낍
낎
낏
낐
낑
낒
낓
낔
낕
낖
낗
나
낙
낚
낛
난
낝
낞
낟
날
낡
낢
낣
낤
낥
낦
낧
남
납
낪
낫
났
낭
낮
낯
낰
낱
낲
낳
내
낵
낶
낷
낸
낹
낺
낻
낼
낽
낾
낿
냀
냁
냂
냃
냄
냅
냆
냇
냈
냉
냊
냋
냌
냍
냎
냏
냐
냑
냒
냓
냔
냕
냖
냗
냘
냙
냚
냛
냜
냝
냞
냟
냠
냡
냢
냣
냤
냥
냦
냧
냨
냩
냪
냫
냬
냭
냮
냯
냰
냱
냲
냳
냴
냵
냶
냷
냸
냹
냺
냻
냼
냽
냾
냿
넀
넁
넂
넃
넄
넅
넆
넇
너
넉
넊
넋
넌
넍
넎
넏
널
넑
넒
넓
넔
넕
넖
넗
넘
넙
넚
넛
넜
넝
넞
넟
넠
넡
넢
넣
네
넥
넦
넧
넨
넩
넪
넫
넬
넭
넮
넯
넰
넱
넲
넳
넴
넵
넶
넷
넸
넹
넺
넻
넼
넽
넾
넿
녀
녁
녂
녃
년
녅
녆
녇
녈
녉
녊
녋
녌
녍
녎
녏
념
녑
녒
녓
녔
녕
녖
녗
녘
녙
녚
녛
녜
녝
녞
녟
녠
녡
녢
녣
녤
녥
녦
녧
녨
녩
녪
녫
녬
녭
녮
녯
녰
녱
녲
녳
녴
녵
녶
녷
노
녹
녺
녻
논
녽
녾
녿
놀
놁
놂
놃
놄
놅
놆
놇
놈
놉
놊
놋
놌
농
놎
놏
놐
놑
높
놓
놔
놕
놖
놗
놘
놙
놚
놛
놜
놝
놞
놟
놠
놡
놢
놣
놤
놥
놦
놧
놨
놩
놪
놫
놬
놭
놮
놯
놰
놱
놲
놳
놴
놵
놶
놷
놸
놹
놺
놻
놼
놽
놾
놿
뇀
뇁
뇂
뇃
뇄
뇅
뇆
뇇
뇈
뇉
뇊
뇋
뇌
뇍
뇎
뇏
뇐
뇑
뇒
뇓
뇔
뇕
뇖
뇗
뇘
뇙
뇚
뇛
뇜
뇝
뇞
뇟
뇠
뇡
뇢
뇣
뇤
뇥
뇦
뇧
뇨
뇩
뇪
뇫
뇬
뇭
뇮
뇯
뇰
뇱
뇲
뇳
뇴
뇵
뇶
뇷
뇸
뇹
뇺
뇻
뇼
뇽
뇾
뇿
눀
눁
눂
눃
누
눅
눆
눇
눈
눉
눊
눋
눌
눍
눎
눏
눐
눑
눒
눓
눔
눕
눖
눗
눘
눙
눚
눛
눜
눝
눞
눟
눠
눡
눢
눣
눤
눥
눦
눧
눨
눩
눪
눫
눬
눭
눮
눯
눰
눱
눲
눳
눴
눵
눶
눷
눸
눹
눺
눻
눼
눽
눾
눿
뉀
뉁
뉂
뉃
뉄
뉅
뉆
뉇
뉈
뉉
뉊
뉋
뉌
뉍
뉎
뉏
뉐
뉑
뉒
뉓
뉔
뉕
뉖
뉗
뉘
뉙
뉚
뉛
뉜
뉝
뉞
뉟
뉠
뉡
뉢
뉣
뉤
뉥
뉦
뉧
뉨
뉩
뉪
뉫
뉬
뉭
뉮
뉯
뉰
뉱
뉲
뉳
뉴
뉵
뉶
뉷
뉸
뉹
뉺
뉻
뉼
뉽
뉾
뉿
늀
늁
늂
늃
늄
늅
늆
늇
늈
늉
늊
늋
늌
늍
늎
늏
느
늑
늒
늓
는
늕
늖
늗
늘
늙
늚
늛
늜
늝
늞
늟
늠
늡
늢
늣
늤
능
늦
늧
늨
늩
늪
늫
늬
늭
늮
늯
늰
늱
늲
늳
늴
늵
늶
늷
늸
늹
늺
늻
늼
늽
늾
늿
닀
닁
닂
닃
닄
닅
닆
닇
니
닉
닊
닋
닌
닍
닎
닏
닐
닑
닒
닓
닔
닕
닖
닗
님
닙
닚
닛
닜
닝
닞
닟
닠
닡
닢
닣
다
닥
닦
닧
단
닩
닪
닫
달
닭
닮
닯
닰
닱
닲
닳
담
답
닶
닷
닸
당
닺
닻
닼
닽
닾
닿
대
댁
댂
댃
댄
댅
댆
댇
댈
댉
댊
댋
댌
댍
댎
댏
댐
댑
댒
댓
댔
댕
댖
댗
댘
댙
댚
댛
댜
댝
댞
댟
댠
댡
댢
댣
댤
댥
댦
댧
댨
댩
댪
댫
댬
댭
댮
댯
댰
댱
댲
댳
댴
댵
댶
댷
댸
댹
댺
댻
댼
댽
댾
댿
덀
덁
덂
덃
덄
덅
덆
덇
덈
덉
덊
덋
덌
덍
덎
덏
덐
덑
덒
덓
더
덕
덖
덗
던
덙
덚
덛
덜
덝
덞
덟
덠
덡
덢
덣
덤
덥
덦
덧
덨
덩
덪
덫
덬
덭
덮
덯
데
덱
덲
덳
덴
덵
덶
덷
델
덹
덺
덻
덼
덽
덾
덿
뎀
뎁
뎂
뎃
뎄
뎅
뎆
뎇
뎈
뎉
뎊
뎋
뎌
뎍
뎎
뎏
뎐
뎑
뎒
뎓
뎔
뎕
뎖
뎗
뎘
뎙
뎚
뎛
뎜
뎝
뎞
뎟
뎠
뎡
뎢
뎣
뎤
뎥
뎦
뎧
뎨
뎩
뎪
뎫
뎬
뎭
뎮
뎯
뎰
뎱
뎲
뎳
뎴
뎵
뎶
뎷
뎸
뎹
뎺
뎻
뎼
뎽
뎾
뎿
돀
돁
돂
돃
도
독
돆
돇
돈
돉
돊
돋
돌
돍
돎
돏
돐
돑
돒
돓
돔
돕
돖
돗
돘
동
돚
돛
돜
돝
돞
돟
돠
돡
돢
돣
돤
돥
돦
돧
돨
돩
돪
돫
돬
돭
돮
돯
돰
돱
돲
돳
돴
돵
돶
돷
돸
돹
돺
돻
돼
돽
돾
돿
됀
됁
됂
됃
됄
됅
됆
됇
됈
됉
됊
됋
됌
됍
됎
됏
됐
됑
됒
됓
됔
됕
됖
됗
되
됙
됚
됛
된
됝
됞
됟
될
됡
됢
됣
됤
됥
됦
됧
됨
됩
됪
됫
됬
됭
됮
됯
됰
됱
됲
됳
됴
됵
됶
됷
됸
됹
됺
됻
됼
됽
됾
됿
둀
둁
둂
둃
둄
둅
둆
둇
둈
둉
둊
둋
둌
둍
둎
둏
두
둑
둒
둓
둔
둕
둖
둗
둘
둙
둚
둛
둜
둝
둞
둟
둠
둡
둢
둣
둤
둥
둦
둧
둨
둩
둪
둫
둬
둭
둮
둯
둰
둱
둲
둳
둴
둵
둶
둷
둸
둹
둺
둻
둼
둽
둾
둿
뒀
뒁
뒂
뒃
뒄
뒅
뒆
뒇
뒈
뒉
뒊
뒋
뒌
뒍
뒎
뒏
뒐
뒑
뒒
뒓
뒔
뒕
뒖
뒗
뒘
뒙
뒚
뒛
뒜
뒝
뒞
뒟
뒠
뒡
뒢
뒣
뒤
뒥
뒦
뒧
뒨
뒩
뒪
뒫
뒬
뒭
뒮
뒯
뒰
뒱
뒲
뒳
뒴
뒵
뒶
뒷
뒸
뒹
뒺
뒻
뒼
뒽
뒾
뒿
듀
듁
듂
듃
듄
듅
듆
듇
듈
듉
듊
듋
듌
듍
듎
듏
듐
듑
듒
듓
듔
듕
듖
듗
듘
듙
듚
듛
드
득
듞
듟
든
듡
듢
듣
들
듥
듦
듧
듨
듩
듪
듫
듬
듭
듮
듯
듰
등
듲
듳
듴
듵
듶
듷
듸
듹
듺
듻
듼
듽
듾
듿
딀
딁
딂
딃
딄
딅
딆
딇
딈
딉
딊
딋
딌
딍
딎
딏
딐
딑
딒
딓
디
딕
딖
딗
딘
딙
딚
딛
딜
딝
딞
딟
딠
딡
딢
딣
딤
딥
딦
딧
딨
딩
딪
딫
딬
딭
딮
딯
따
딱
딲
딳
딴
딵
딶
딷
딸
딹
딺
딻
딼
딽
딾
딿
땀
땁
땂
땃
땄
땅
땆
땇
땈
땉
땊
땋
때
땍
땎
땏
땐
땑
땒
땓
땔
땕
땖
땗
땘
땙
땚
땛
땜
땝
땞
땟
땠
땡
땢
땣
땤
땥
땦
땧
땨
땩
땪
땫
땬
땭
땮
땯
땰
땱
땲
땳
땴
땵
땶
땷
땸
땹
땺
땻
땼
땽
땾
땿
떀
떁
떂
떃
떄
떅
떆
떇
떈
떉
떊
떋
떌
떍
떎
떏
떐
떑
떒
떓
떔
떕
떖
떗
떘
떙
떚
떛
떜
떝
떞
떟
떠
떡
떢
떣
떤
떥
떦
떧
떨
떩
떪
떫
떬
떭
떮
떯
떰
떱
떲
떳
떴
떵
떶
떷
떸
떹
떺
떻
떼
떽
떾
떿
뗀
뗁
뗂
뗃
뗄
뗅
뗆
뗇
뗈
뗉
뗊
뗋
뗌
뗍
뗎
뗏
뗐
뗑
뗒
뗓
뗔
뗕
뗖
뗗
뗘
뗙
뗚
뗛
뗜
뗝
뗞
뗟
뗠
뗡
뗢
뗣
뗤
뗥
뗦
뗧
뗨
뗩
뗪
뗫
뗬
뗭
뗮
뗯
뗰
뗱
뗲
뗳
뗴
뗵
뗶
뗷
뗸
뗹
뗺
뗻
뗼
뗽
뗾
뗿
똀
똁
똂
똃
똄
똅
똆
똇
똈
똉
똊
똋
똌
똍
똎
똏
또
똑
똒
똓
똔
똕
똖
똗
똘
똙
똚
똛
똜
똝
똞
똟
똠
똡
똢
똣
똤
똥
똦
똧
똨
똩
똪
똫
똬
똭
똮
똯
똰
똱
똲
똳
똴
똵
똶
똷
똸
똹
똺
똻
똼
똽
똾
똿
뙀
뙁
뙂
뙃
뙄
뙅
뙆
뙇
뙈
뙉
뙊
뙋
뙌
뙍
뙎
뙏
뙐
뙑
뙒
뙓
뙔
뙕
뙖
뙗
뙘
뙙
뙚
뙛
뙜
뙝
뙞
뙟
뙠
뙡
뙢
뙣
뙤
뙥
뙦
뙧
뙨
뙩
뙪
뙫
뙬
뙭
뙮
뙯
뙰
뙱
뙲
뙳
뙴
뙵
뙶
뙷
뙸
뙹
뙺
뙻
뙼
뙽
뙾
뙿
뚀
뚁
뚂
뚃
뚄
뚅
뚆
뚇
뚈
뚉
뚊
뚋
뚌
뚍
뚎
뚏
뚐
뚑
뚒
뚓
뚔
뚕
뚖
뚗
뚘
뚙
뚚
뚛
뚜
뚝
뚞
뚟
뚠
뚡
뚢
뚣
뚤
뚥
뚦
뚧
뚨
뚩
뚪
뚫
뚬
뚭
뚮
뚯
뚰
뚱
뚲
뚳
뚴
뚵
뚶
뚷
뚸
뚹
뚺
뚻
뚼
뚽
뚾
뚿
뛀
뛁
뛂
뛃
뛄
뛅
뛆
뛇
뛈
뛉
뛊
뛋
뛌
뛍
뛎
뛏
뛐
뛑
뛒
뛓
뛔
뛕
뛖
뛗
뛘
뛙
뛚
뛛
뛜
뛝
뛞
뛟
뛠
뛡
뛢
뛣
뛤
뛥
뛦
뛧
뛨
뛩
뛪
뛫
뛬
뛭
뛮
뛯
뛰
뛱
뛲
뛳
뛴
뛵
뛶
뛷
뛸
뛹
뛺
뛻
뛼
뛽
뛾
뛿
뜀
뜁
뜂
뜃
뜄
뜅
뜆
뜇
뜈
뜉
뜊
뜋
뜌
뜍
뜎
뜏
뜐
뜑
뜒
뜓
뜔
뜕
뜖
뜗
뜘
뜙
뜚
뜛
뜜
뜝
뜞
뜟
뜠
뜡
뜢
뜣
뜤
뜥
뜦
뜧
뜨
뜩
뜪
뜫
뜬
뜭
뜮
뜯
뜰
뜱
뜲
뜳
뜴
뜵
뜶
뜷
뜸
뜹
뜺
뜻
뜼
뜽
뜾
뜿
띀
띁
띂
띃
띄
띅
띆
띇
띈
띉
띊
띋
띌
띍
띎
띏
띐
띑
띒
띓
띔
띕
띖
띗
띘
띙
띚
띛
띜
띝
띞
띟
띠
띡
띢
띣
띤
띥
띦
띧
띨
띩
띪
띫
띬
띭
띮
띯
띰
띱
띲
띳
띴
띵
띶
띷
띸
띹
띺
띻
라
락
띾
띿
란
랁
랂
랃
랄
랅
랆
랇
랈
랉
랊
랋
람
랍
랎
랏
랐
랑
랒
랓
랔
랕
랖
랗
래
랙
랚
랛
랜
랝
랞
랟
랠
랡
랢
랣
랤
랥
랦
랧
램
랩
랪
랫
랬
랭
랮
랯
랰
랱
랲
랳
랴
략
랶
랷
랸
랹
랺
랻
랼
랽
랾
랿
럀
럁
럂
럃
럄
럅
럆
럇
럈
량
럊
럋
럌
럍
럎
럏
럐
럑
럒
럓
럔
럕
럖
럗
럘
럙
럚
럛
럜
럝
럞
럟
럠
럡
럢
럣
럤
럥
럦
럧
럨
럩
럪
럫
러
럭
럮
럯
런
럱
럲
럳
럴
럵
럶
럷
럸
럹
럺
럻
럼
럽
럾
럿
렀
렁
렂
렃
렄
렅
렆
렇
레
렉
렊
렋
렌
렍
렎
렏
렐
렑
렒
렓
렔
렕
렖
렗
렘
렙
렚
렛
렜
렝
렞
렟
렠
렡
렢
렣
려
력
렦
렧
련
렩
렪
렫
렬
렭
렮
렯
렰
렱
렲
렳
렴
렵
렶
렷
렸
령
렺
렻
렼
렽
렾
렿
례
롁
롂
롃
롄
롅
롆
롇
롈
롉
롊
롋
롌
롍
롎
롏
롐
롑
롒
롓
롔
롕
롖
롗
롘
롙
롚
롛
로
록
롞
롟
론
롡
롢
롣
롤
롥
롦
롧
롨
롩
롪
롫
롬
롭
롮
롯
롰
롱
롲
롳
롴
롵
롶
롷
롸
롹
롺
롻
롼
롽
롾
롿
뢀
뢁
뢂
뢃
뢄
뢅
뢆
뢇
뢈
뢉
뢊
뢋
뢌
뢍
뢎
뢏
뢐
뢑
뢒
뢓
뢔
뢕
뢖
뢗
뢘
뢙
뢚
뢛
뢜
뢝
뢞
뢟
뢠
뢡
뢢
뢣
뢤
뢥
뢦
뢧
뢨
뢩
뢪
뢫
뢬
뢭
뢮
뢯
뢰
뢱
뢲
뢳
뢴
뢵
뢶
뢷
뢸
뢹
뢺
뢻
뢼
뢽
뢾
뢿
룀
룁
룂
룃
룄
룅
룆
룇
룈
룉
룊
룋
료
룍
룎
룏
룐
룑
룒
룓
룔
룕
룖
룗
룘
룙
룚
룛
룜
룝
룞
룟
룠
룡
룢
룣
룤
룥
룦
룧
루
룩
룪
룫
룬
룭
룮
룯
룰
룱
룲
룳
룴
룵
룶
룷
룸
룹
룺
룻
룼
룽
룾
룿
뤀
뤁
뤂
뤃
뤄
뤅
뤆
뤇
뤈
뤉
뤊
뤋
뤌
뤍
뤎
뤏
뤐
뤑
뤒
뤓
뤔
뤕
뤖
뤗
뤘
뤙
뤚
뤛
뤜
뤝
뤞
뤟
뤠
뤡
뤢
뤣
뤤
뤥
뤦
뤧
뤨
뤩
뤪
뤫
뤬
뤭
뤮
뤯
뤰
뤱
뤲
뤳
뤴
뤵
뤶
뤷
뤸
뤹
뤺
뤻
뤼
뤽
뤾
뤿
륀
륁
륂
륃
륄
륅
륆
륇
륈
륉
륊
륋
륌
륍
륎
륏
륐
륑
륒
륓
륔
륕
륖
륗
류
륙
륚
륛
륜
륝
륞
륟
률
륡
륢
륣
륤
륥
륦
륧
륨
륩
륪
륫
륬
륭
륮
륯
륰
륱
륲
륳
르
륵
륶
륷
른
륹
륺
륻
를
륽
륾
륿
릀
릁
릂
릃
름
릅
릆
릇
릈
릉
릊
릋
릌
릍
릎
릏
릐
릑
릒
릓
릔
릕
릖
릗
릘
릙
릚
릛
릜
릝
릞
릟
릠
릡
릢
릣
릤
릥
릦
릧
릨
릩
릪
릫
리
릭
릮
릯
린
릱
릲
릳
릴
릵
릶
릷
릸
릹
릺
릻
림
립
릾
릿
맀
링
맂
맃
맄
맅
맆
맇
마
막
맊
맋
만
맍
많
맏
말
맑
맒
맓
맔
맕
맖
맗
맘
맙
맚
맛
맜
망
맞
맟
맠
맡
맢
맣
매
맥
맦
맧
맨
맩
맪
맫
맬
맭
맮
맯
맰
맱
맲
맳
맴
맵
맶
맷
맸
맹
맺
맻
맼
맽
맾
맿
먀
먁
먂
먃
먄
먅
먆
먇
먈
먉
먊
먋
먌
먍
먎
먏
먐
먑
먒
먓
먔
먕
먖
먗
먘
먙
먚
먛
먜
먝
먞
먟
먠
먡
먢
먣
먤
먥
먦
먧
먨
먩
먪
먫
먬
먭
먮
먯
먰
먱
먲
먳
먴
먵
먶
먷
머
먹
먺
먻
먼
먽
먾
먿
멀
멁
멂
멃
멄
멅
멆
멇
멈
멉
멊
멋
멌
멍
멎
멏
멐
멑
멒
멓
메
멕
멖
멗
멘
멙
멚
멛
멜
멝
멞
멟
멠
멡
멢
멣
멤
멥
멦
멧
멨
멩
멪
멫
멬
멭
멮
멯
며
멱
멲
멳
면
멵
멶
멷
멸
멹
멺
멻
멼
멽
멾
멿
몀
몁
몂
몃
몄
명
몆
몇
몈
몉
몊
몋
몌
몍
몎
몏
몐
몑
몒
몓
몔
몕
몖
몗
몘
몙
몚
몛
몜
몝
몞
몟
몠
몡
몢
몣
몤
몥
몦
몧
모
목
몪
몫
몬
몭
몮
몯
몰
몱
몲
몳
몴
몵
몶
몷
몸
몹
몺
못
몼
몽
몾
몿
뫀
뫁
뫂
뫃
뫄
뫅
뫆
뫇
뫈
뫉
뫊
뫋
뫌
뫍
뫎
뫏
뫐
뫑
뫒
뫓
뫔
뫕
뫖
뫗
뫘
뫙
뫚
뫛
뫜
뫝
뫞
뫟
뫠
뫡
뫢
뫣
뫤
뫥
뫦
뫧
뫨
뫩
뫪
뫫
뫬
뫭
뫮
뫯
뫰
뫱
뫲
뫳
뫴
뫵
뫶
뫷
뫸
뫹
뫺
뫻
뫼
뫽
뫾
뫿
묀
묁
묂
묃
묄
묅
묆
묇
묈
묉
묊
묋
묌
묍
묎
묏
묐
묑
묒
묓
묔
묕
묖
묗
묘
묙
묚
묛
묜
묝
묞
묟
묠
묡
묢
묣
묤
묥
묦
묧
묨
묩
묪
묫
묬
묭
묮
묯
묰
묱
묲
묳
무
묵
묶
묷
문
묹
묺
묻
물
묽
묾
묿
뭀
뭁
뭂
뭃
뭄
뭅
뭆
뭇
뭈
뭉
뭊
뭋
뭌
뭍
뭎
뭏
뭐
뭑
뭒
뭓
뭔
뭕
뭖
뭗
뭘
뭙
뭚
뭛
뭜
뭝
뭞
뭟
뭠
뭡
뭢
뭣
뭤
뭥
뭦
뭧
뭨
뭩
뭪
뭫
뭬
뭭
뭮
뭯
뭰
뭱
뭲
뭳
뭴
뭵
뭶
뭷
뭸
뭹
뭺
뭻
뭼
뭽
뭾
뭿
뮀
뮁
뮂
뮃
뮄
뮅
뮆
뮇
뮈
뮉
뮊
뮋
뮌
뮍
뮎
뮏
뮐
뮑
뮒
뮓
뮔
뮕
뮖
뮗
뮘
뮙
뮚
뮛
뮜
뮝
뮞
뮟
뮠
뮡
뮢
뮣
뮤
뮥
뮦
뮧
뮨
뮩
뮪
뮫
뮬
뮭
뮮
뮯
뮰
뮱
뮲
뮳
뮴
뮵
뮶
뮷
뮸
뮹
뮺
뮻
뮼
뮽
뮾
뮿
므
믁
믂
믃
믄
믅
믆
믇
믈
믉
믊
믋
믌
믍
믎
믏
믐
믑
믒
믓
믔
믕
믖
믗
믘
믙
믚
믛
믜
믝
믞
믟
믠
믡
믢
믣
믤
믥
믦
믧
믨
믩
믪
믫
믬
믭
믮
믯
믰
믱
믲
믳
믴
믵
믶
믷
미
믹
믺
믻
민
믽
믾
믿
밀
밁
밂
밃
밄
밅
밆
밇
밈
밉
밊
밋
밌
밍
밎
및
밐
밑
밒
밓
바
박
밖
밗
반
밙
밚
받
발
밝
밞
밟
밠
밡
밢
밣
밤
밥
밦
밧
밨
방
밪
밫
밬
밭
밮
밯
배
백
밲
밳
밴
밵
밶
밷
밸
밹
밺
밻
밼
밽
밾
밿
뱀
뱁
뱂
뱃
뱄
뱅
뱆
뱇
뱈
뱉
뱊
뱋
뱌
뱍
뱎
뱏
뱐
뱑
뱒
뱓
뱔
뱕
뱖
뱗
뱘
뱙
뱚
뱛
뱜
뱝
뱞
뱟
뱠
뱡
뱢
뱣
뱤
뱥
뱦
뱧
뱨
뱩
뱪
뱫
뱬
뱭
뱮
뱯
뱰
뱱
뱲
뱳
뱴
뱵
뱶
뱷
뱸
뱹
뱺
뱻
뱼
뱽
뱾
뱿
벀
벁
벂
벃
버
벅
벆
벇
번
벉
벊
벋
벌
벍
벎
벏
벐
벑
벒
벓
범
법
벖
벗
벘
벙
벚
벛
벜
벝
벞
벟
베
벡
벢
벣
벤
벥
벦
벧
벨
벩
벪
벫
벬
벭
벮
벯
벰
벱
벲
벳
벴
벵
벶
벷
벸
벹
벺
벻
벼
벽
벾
벿
변
볁
볂
볃
별
볅
볆
볇
볈
볉
볊
볋
볌
볍
볎
볏
볐
병
볒
볓
볔
볕
볖
볗
볘
볙
볚
볛
볜
볝
볞
볟
볠
볡
볢
볣
볤
볥
볦
볧
볨
볩
볪
볫
볬
볭
볮
볯
볰
볱
볲
볳
보
복
볶
볷
본
볹
볺
볻
볼
볽
볾
볿
봀
봁
봂
봃
봄
봅
봆
봇
봈
봉
봊
봋
봌
봍
봎
봏
봐
봑
봒
봓
봔
봕
봖
봗
봘
봙
봚
봛
봜
봝
봞
봟
봠
봡
봢
봣
봤
봥
봦
봧
봨
봩
봪
봫
봬
봭
봮
봯
봰
봱
봲
봳
봴
봵
봶
봷
봸
봹
봺
봻
봼
봽
봾
봿
뵀
뵁
뵂
뵃
뵄
뵅
뵆
뵇
뵈
뵉
뵊
뵋
뵌
뵍
뵎
뵏
뵐
뵑
뵒
뵓
뵔
뵕
뵖
뵗
뵘
뵙
뵚
뵛
뵜
뵝
뵞
뵟
뵠
뵡
뵢
뵣
뵤
뵥
뵦
뵧
뵨
뵩
뵪
뵫
뵬
뵭
뵮
뵯
뵰
뵱
뵲
뵳
뵴
뵵
뵶
뵷
뵸
뵹
뵺
뵻
뵼
뵽
뵾
뵿
부
북
붂
붃
분
붅
붆
붇
불
붉
붊
붋
붌
붍
붎
붏
붐
붑
붒
붓
붔
붕
붖
붗
붘
붙
붚
붛
붜
붝
붞
붟
붠
붡
붢
붣
붤
붥
붦
붧
붨
붩
붪
붫
붬
붭
붮
붯
붰
붱
붲
붳
붴
붵
붶
붷
붸
붹
붺
붻
붼
붽
붾
붿
뷀
뷁
뷂
뷃
뷄
뷅
뷆
뷇
뷈
뷉
뷊
뷋
뷌
뷍
뷎
뷏
뷐
뷑
뷒
뷓
뷔
뷕
뷖
뷗
뷘
뷙
뷚
뷛
뷜
뷝
뷞
뷟
뷠
뷡
뷢
뷣
뷤
뷥
뷦
뷧
뷨
뷩
뷪
뷫
뷬
뷭
뷮
뷯
뷰
뷱
뷲
뷳
뷴
뷵
뷶
뷷
뷸
뷹
뷺
뷻
뷼
뷽
뷾
뷿
븀
븁
븂
븃
븄
븅
븆
븇
븈
븉
븊
븋
브
븍
븎
븏
븐
븑
븒
븓
블
븕
븖
븗
븘
븙
븚
븛
븜
븝
븞
븟
븠
븡
븢
븣
븤
븥
븦
븧
븨
븩
븪
븫
븬
븭
븮
븯
븰
븱
븲
븳
븴
븵
븶
븷
븸
븹
븺
븻
븼
븽
븾
븿
빀
빁
빂
빃
비
빅
빆
빇
빈
빉
빊
빋
빌
빍
빎
빏
빐
빑
빒
빓
빔
빕
빖
빗
빘
빙
빚
빛
빜
빝
빞
빟
빠
빡
빢
빣
빤
빥
빦
빧
빨
빩
빪
빫
빬
빭
빮
빯
빰
빱
빲
빳
빴
빵
빶
빷
빸
빹
빺
빻
빼
빽
빾
빿
뺀
뺁
뺂
뺃
뺄
뺅
뺆
뺇
뺈
뺉
뺊
뺋
뺌
뺍
뺎
뺏
뺐
뺑
뺒
뺓
뺔
뺕
뺖
뺗
뺘
뺙
뺚
뺛
뺜
뺝
뺞
뺟
뺠
뺡
뺢
뺣
뺤
뺥
뺦
뺧
뺨
뺩
뺪
뺫
뺬
뺭
뺮
뺯
뺰
뺱
뺲
뺳
뺴
뺵
뺶
뺷
뺸
뺹
뺺
뺻
뺼
뺽
뺾
뺿
뻀
뻁
뻂
뻃
뻄
뻅
뻆
뻇
뻈
뻉
뻊
뻋
뻌
뻍
뻎
뻏
뻐
뻑
뻒
뻓
뻔
뻕
뻖
뻗
뻘
뻙
뻚
뻛
뻜
뻝
뻞
뻟
뻠
뻡
뻢
뻣
뻤
뻥
뻦
뻧
뻨
뻩
뻪
뻫
뻬
뻭
뻮
뻯
뻰
뻱
뻲
뻳
뻴
뻵
뻶
뻷
뻸
뻹
뻺
뻻
뻼
뻽
뻾
뻿
뼀
뼁
뼂
뼃
뼄
뼅
뼆
뼇
뼈
뼉
뼊
뼋
뼌
뼍
뼎
뼏
뼐
뼑
뼒
뼓
뼔
뼕
뼖
뼗
뼘
뼙
뼚
뼛
뼜
뼝
뼞
뼟
뼠
뼡
뼢
뼣
뼤
뼥
뼦
뼧
뼨
뼩
뼪
뼫
뼬
뼭
뼮
뼯
뼰
뼱
뼲
뼳
뼴
뼵
뼶
뼷
뼸
뼹
뼺
뼻
뼼
뼽
뼾
뼿
뽀
뽁
뽂
뽃
뽄
뽅
뽆
뽇
뽈
뽉
뽊
뽋
뽌
뽍
뽎
뽏
뽐
뽑
뽒
뽓
뽔
뽕
뽖
뽗
뽘
뽙
뽚
뽛
뽜
뽝
뽞
뽟
뽠
뽡
뽢
뽣
뽤
뽥
뽦
뽧
뽨
뽩
뽪
뽫
뽬
뽭
뽮
뽯
뽰
뽱
뽲
뽳
뽴
뽵
뽶
뽷
뽸
뽹
뽺
뽻
뽼
뽽
뽾
뽿
뾀
뾁
뾂
뾃
뾄
뾅
뾆
뾇
뾈
뾉
뾊
뾋
뾌
뾍
뾎
뾏
뾐
뾑
뾒
뾓
뾔
뾕
뾖
뾗
뾘
뾙
뾚
뾛
뾜
뾝
뾞
뾟
뾠
뾡
뾢
뾣
뾤
뾥
뾦
뾧
뾨
뾩
뾪
뾫
뾬
뾭
뾮
뾯
뾰
뾱
뾲
뾳
뾴
뾵
뾶
뾷
뾸
뾹
뾺
뾻
뾼
뾽
뾾
뾿
뿀
뿁
뿂
뿃
뿄
뿅
뿆
뿇
뿈
뿉
뿊
뿋
뿌
뿍
뿎
뿏
뿐
뿑
뿒
뿓
뿔
뿕
뿖
뿗
뿘
뿙
뿚
뿛
뿜
뿝
뿞
뿟
뿠
뿡
뿢
뿣
뿤
뿥
뿦
뿧
뿨
뿩
뿪
뿫
뿬
뿭
뿮
뿯
뿰
뿱
뿲
뿳
뿴
뿵
뿶
뿷
뿸
뿹
뿺
뿻
뿼
뿽
뿾
뿿
쀀
쀁
쀂
쀃
쀄
쀅
쀆
쀇
쀈
쀉
쀊
쀋
쀌
쀍
쀎
쀏
쀐
쀑
쀒
쀓
쀔
쀕
쀖
쀗
쀘
쀙
쀚
쀛
쀜
쀝
쀞
쀟
쀠
쀡
쀢
쀣
쀤
쀥
쀦
쀧
쀨
쀩
쀪
쀫
쀬
쀭
쀮
쀯
쀰
쀱
쀲
쀳
쀴
쀵
쀶
쀷
쀸
쀹
쀺
쀻
쀼
쀽
쀾
쀿
쁀
쁁
쁂
쁃
쁄
쁅
쁆
쁇
쁈
쁉
쁊
쁋
쁌
쁍
쁎
쁏
쁐
쁑
쁒
쁓
쁔
쁕
쁖
쁗
쁘
쁙
쁚
쁛
쁜
쁝
쁞
쁟
쁠
쁡
쁢
쁣
쁤
쁥
쁦
쁧
쁨
쁩
쁪
쁫
쁬
쁭
쁮
쁯
쁰
쁱
쁲
쁳
쁴
쁵
쁶
쁷
쁸
쁹
쁺
쁻
쁼
쁽
쁾
쁿
삀
삁
삂
삃
삄
삅
삆
삇
삈
삉
삊
삋
삌
삍
삎
삏
삐
삑
삒
삓
삔
삕
삖
삗
삘
삙
삚
삛
삜
삝
삞
삟
삠
삡
삢
삣
삤
삥
삦
삧
삨
삩
삪
삫
사
삭
삮
삯
산
삱
삲
삳
살
삵
삶
삷
삸
삹
삺
삻
삼
삽
삾
삿
샀
상
샂
샃
샄
샅
샆
샇
새
색
샊
샋
샌
샍
샎
샏
샐
샑
샒
샓
샔
샕
샖
샗
샘
샙
샚
샛
샜
생
샞
샟
샠
샡
샢
샣
샤
샥
샦
샧
샨
샩
샪
샫
샬
샭
샮
샯
샰
샱
샲
샳
샴
샵
샶
샷
샸
샹
샺
샻
샼
샽
샾
샿
섀
섁
섂
섃
섄
섅
섆
섇
섈
섉
섊
섋
섌
섍
섎
섏
섐
섑
섒
섓
섔
섕
섖
섗
섘
섙
섚
섛
서
석
섞
섟
선
섡
섢
섣
설
섥
섦
섧
섨
섩
섪
섫
섬
섭
섮
섯
섰
성
섲
섳
섴
섵
섶
섷
세
섹
섺
섻
센
섽
섾
섿
셀
셁
셂
셃
셄
셅
셆
셇
셈
셉
셊
셋
셌
셍
셎
셏
셐
셑
셒
셓
셔
셕
셖
셗
션
셙
셚
셛
셜
셝
셞
셟
셠
셡
셢
셣
셤
셥
셦
셧
셨
셩
셪
셫
셬
셭
셮
셯
셰
셱
셲
셳
셴
셵
셶
셷
셸
셹
셺
셻
셼
셽
셾
셿
솀
솁
솂
솃
솄
솅
솆
솇
솈
솉
솊
솋
소
속
솎
솏
손
솑
솒
솓
솔
솕
솖
솗
솘
솙
솚
솛
솜
솝
솞
솟
솠
송
솢
솣
솤
솥
솦
솧
솨
솩
솪
솫
솬
솭
솮
솯
솰
솱
솲
솳
솴
솵
솶
솷
솸
솹
솺
솻
솼
솽
솾
솿
쇀
쇁
쇂
쇃
쇄
쇅
쇆
쇇
쇈
쇉
쇊
쇋
쇌
쇍
쇎
쇏
쇐
쇑
쇒
쇓
쇔
쇕
쇖
쇗
쇘
쇙
쇚
쇛
쇜
쇝
쇞
쇟
쇠
쇡
쇢
쇣
쇤
쇥
쇦
쇧
쇨
쇩
쇪
쇫
쇬
쇭
쇮
쇯
쇰
쇱
쇲
쇳
쇴
쇵
쇶
쇷
쇸
쇹
쇺
쇻
쇼
쇽
쇾
쇿
숀
숁
숂
숃
숄
숅
숆
숇
숈
숉
숊
숋
숌
숍
숎
숏
숐
숑
숒
숓
숔
숕
숖
숗
수
숙
숚
숛
순
숝
숞
숟
술
숡
숢
숣
숤
숥
숦
숧
숨
숩
숪
숫
숬
숭
숮
숯
숰
숱
숲
숳
숴
숵
숶
숷
숸
숹
숺
숻
숼
숽
숾
숿
쉀
쉁
쉂
쉃
쉄
쉅
쉆
쉇
쉈
쉉
쉊
쉋
쉌
쉍
쉎
쉏
쉐
쉑
쉒
쉓
쉔
쉕
쉖
쉗
쉘
쉙
쉚
쉛
쉜
쉝
쉞
쉟
쉠
쉡
쉢
쉣
쉤
쉥
쉦
쉧
쉨
쉩
쉪
쉫
쉬
쉭
쉮
쉯
쉰
쉱
쉲
쉳
쉴
쉵
쉶
쉷
쉸
쉹
쉺
쉻
쉼
쉽
쉾
쉿
슀
슁
슂
슃
슄
슅
슆
슇
슈
슉
슊
슋
슌
슍
슎
슏
슐
슑
슒
슓
슔
슕
슖
슗
슘
슙
슚
슛
슜
슝
슞
슟
슠
슡
슢
슣
스
슥
슦
슧
슨
슩
슪
슫
슬
슭
슮
슯
슰
슱
슲
슳
슴
습
슶
슷
슸
승
슺
슻
슼
슽
슾
슿
싀
싁
싂
싃
싄
싅
싆
싇
싈
싉
싊
싋
싌
싍
싎
싏
싐
싑
싒
싓
싔
싕
싖
싗
싘
싙
싚
싛
시
식
싞
싟
신
싡
싢
싣
실
싥
싦
싧
싨
싩
싪
싫
심
십
싮
싯
싰
싱
싲
싳
싴
싵
싶
싷
싸
싹
싺
싻
싼
싽
싾
싿
쌀
쌁
쌂
쌃
쌄
쌅
쌆
쌇
쌈
쌉
쌊
쌋
쌌
쌍
쌎
쌏
쌐
쌑
쌒
쌓
쌔
쌕
쌖
쌗
쌘
쌙
쌚
쌛
쌜
쌝
쌞
쌟
쌠
쌡
쌢
쌣
쌤
쌥
쌦
쌧
쌨
쌩
쌪
쌫
쌬
쌭
쌮
쌯
쌰
쌱
쌲
쌳
쌴
쌵
쌶
쌷
쌸
쌹
쌺
쌻
쌼
쌽
쌾
쌿
썀
썁
썂
썃
썄
썅
썆
썇
썈
썉
썊
썋
썌
썍
썎
썏
썐
썑
썒
썓
썔
썕
썖
썗
썘
썙
썚
썛
썜
썝
썞
썟
썠
썡
썢
썣
썤
썥
썦
썧
써
썩
썪
썫
썬
썭
썮
썯
썰
썱
썲
썳
썴
썵
썶
썷
썸
썹
썺
썻
썼
썽
썾
썿
쎀
쎁
쎂
쎃
쎄
쎅
쎆
쎇
쎈
쎉
쎊
쎋
쎌
쎍
쎎
쎏
쎐
쎑
쎒
쎓
쎔
쎕
쎖
쎗
쎘
쎙
쎚
쎛
쎜
쎝
쎞
쎟
쎠
쎡
쎢
쎣
쎤
쎥
쎦
쎧
쎨
쎩
쎪
쎫
쎬
쎭
쎮
쎯
쎰
쎱
쎲
쎳
쎴
쎵
쎶
쎷
쎸
쎹
쎺
쎻
쎼
쎽
쎾
쎿
쏀
쏁
쏂
쏃
쏄
쏅
쏆
쏇
쏈
쏉
쏊
쏋
쏌
쏍
쏎
쏏
쏐
쏑
쏒
쏓
쏔
쏕
쏖
쏗
쏘
쏙
쏚
쏛
쏜
쏝
쏞
쏟
쏠
쏡
쏢
쏣
쏤
쏥
쏦
쏧
쏨
쏩
쏪
쏫
쏬
쏭
쏮
쏯
쏰
쏱
쏲
쏳
쏴
쏵
쏶
쏷
쏸
쏹
쏺
쏻
쏼
쏽
쏾
쏿
쐀
쐁
쐂
쐃
쐄
쐅
쐆
쐇
쐈
쐉
쐊
쐋
쐌
쐍
쐎
쐏
쐐
쐑
쐒
쐓
쐔
쐕
쐖
쐗
쐘
쐙
쐚
쐛
쐜
쐝
쐞
쐟
쐠
쐡
쐢
쐣
쐤
쐥
쐦
쐧
쐨
쐩
쐪
쐫
쐬
쐭
쐮
쐯
쐰
쐱
쐲
쐳
쐴
쐵
쐶
쐷
쐸
쐹
쐺
쐻
쐼
쐽
쐾
쐿
쑀
쑁
쑂
쑃
쑄
쑅
쑆
쑇
쑈
쑉
쑊
쑋
쑌
쑍
쑎
쑏
쑐
쑑
쑒
쑓
쑔
쑕
쑖
쑗
쑘
쑙
쑚
쑛
쑜
쑝
쑞
쑟
쑠
쑡
쑢
쑣
쑤
쑥
쑦
쑧
쑨
쑩
쑪
쑫
쑬
쑭
쑮
쑯
쑰
쑱
쑲
쑳
쑴
쑵
쑶
쑷
쑸
쑹
쑺
쑻
쑼
쑽
쑾
쑿
쒀
쒁
쒂
쒃
쒄
쒅
쒆
쒇
쒈
쒉
쒊
쒋
쒌
쒍
쒎
쒏
쒐
쒑
쒒
쒓
쒔
쒕
쒖
쒗
쒘
쒙
쒚
쒛
쒜
쒝
쒞
쒟
쒠
쒡
쒢
쒣
쒤
쒥
쒦
쒧
쒨
쒩
쒪
쒫
쒬
쒭
쒮
쒯
쒰
쒱
쒲
쒳
쒴
쒵
쒶
쒷
쒸
쒹
쒺
쒻
쒼
쒽
쒾
쒿
쓀
쓁
쓂
쓃
쓄
쓅
쓆
쓇
쓈
쓉
쓊
쓋
쓌
쓍
쓎
쓏
쓐
쓑
쓒
쓓
쓔
쓕
쓖
쓗
쓘
쓙
쓚
쓛
쓜
쓝
쓞
쓟
쓠
쓡
쓢
쓣
쓤
쓥
쓦
쓧
쓨
쓩
쓪
쓫
쓬
쓭
쓮
쓯
쓰
쓱
쓲
쓳
쓴
쓵
쓶
쓷
쓸
쓹
쓺
쓻
쓼
쓽
쓾
쓿
씀
씁
씂
씃
씄
씅
씆
씇
씈
씉
씊
씋
씌
씍
씎
씏
씐
씑
씒
씓
씔
씕
씖
씗
씘
씙
씚
씛
씜
씝
씞
씟
씠
씡
씢
씣
씤
씥
씦
씧
씨
씩
씪
씫
씬
씭
씮
씯
씰
씱
씲
씳
씴
씵
씶
씷
씸
씹
씺
씻
씼
씽
씾
씿
앀
앁
앂
앃
아
악
앆
앇
안
앉
않
앋
알
앍
앎
앏
앐
앑
앒
앓
암
압
앖
앗
았
앙
앚
앛
앜
앝
앞
앟
애
액
앢
앣
앤
앥
앦
앧
앨
앩
앪
앫
앬
앭
앮
앯
앰
앱
앲
앳
앴
앵
앶
앷
앸
앹
앺
앻
야
약
앾
앿
얀
얁
얂
얃
얄
얅
얆
얇
얈
얉
얊
얋
얌
얍
얎
얏
얐
양
얒
얓
얔
얕
얖
얗
얘
얙
얚
얛
얜
얝
얞
얟
얠
얡
얢
얣
얤
얥
얦
얧
얨
얩
얪
얫
얬
얭
얮
얯
얰
얱
얲
얳
어
억
얶
얷
언
얹
얺
얻
얼
얽
얾
얿
엀
엁
엂
엃
엄
업
없
엇
었
엉
엊
엋
엌
엍
엎
엏
에
엑
엒
엓
엔
엕
엖
엗
엘
엙
엚
엛
엜
엝
엞
엟
엠
엡
엢
엣
엤
엥
엦
엧
엨
엩
엪
엫
여
역
엮
엯
연
엱
엲
엳
열
엵
엶
엷
엸
엹
엺
엻
염
엽
엾
엿
였
영
옂
옃
옄
옅
옆
옇
예
옉
옊
옋
옌
옍
옎
옏
옐
옑
옒
옓
옔
옕
옖
옗
옘
옙
옚
옛
옜
옝
옞
옟
옠
옡
옢
옣
오
옥
옦
옧
온
옩
옪
옫
올
옭
옮
옯
옰
옱
옲
옳
옴
옵
옶
옷
옸
옹
옺
옻
옼
옽
옾
옿
와
왁
왂
왃
완
왅
왆
왇
왈
왉
왊
왋
왌
왍
왎
왏
왐
왑
왒
왓
왔
왕
왖
왗
왘
왙
왚
왛
왜
왝
왞
왟
왠
왡
왢
왣
왤
왥
왦
왧
왨
왩
왪
왫
왬
왭
왮
왯
왰
왱
왲
왳
왴
왵
왶
왷
외
왹
왺
왻
왼
왽
왾
왿
욀
욁
욂
욃
욄
욅
욆
욇
욈
욉
욊
욋
욌
욍
욎
욏
욐
욑
욒
욓
요
욕
욖
욗
욘
욙
욚
욛
욜
욝
욞
욟
욠
욡
욢
욣
욤
욥
욦
욧
욨
용
욪
욫
욬
욭
욮
욯
우
욱
욲
욳
운
욵
욶
욷
울
욹
욺
욻
욼
욽
욾
욿
움
웁
웂
웃
웄
웅
웆
웇
웈
웉
웊
웋
워
웍
웎
웏
원
웑
웒
웓
월
웕
웖
웗
웘
웙
웚
웛
웜
웝
웞
웟
웠
웡
웢
웣
웤
웥
웦
웧
웨
웩
웪
웫
웬
웭
웮
웯
웰
웱
웲
웳
웴
웵
웶
웷
웸
웹
웺
웻
웼
웽
웾
웿
윀
윁
윂
윃
위
윅
윆
윇
윈
윉
윊
윋
윌
윍
윎
윏
윐
윑
윒
윓
윔
윕
윖
윗
윘
윙
윚
윛
윜
윝
윞
윟
유
육
윢
윣
윤
윥
윦
윧
율
윩
윪
윫
윬
윭
윮
윯
윰
윱
윲
윳
윴
융
윶
윷
윸
윹
윺
윻
으
윽
윾
윿
은
읁
읂
읃
을
읅
읆
읇
읈
읉
읊
읋
음
읍
읎
읏
읐
응
읒
읓
읔
읕
읖
읗
의
읙
읚
읛
읜
읝
읞
읟
읠
읡
읢
읣
읤
읥
읦
읧
읨
읩
읪
읫
읬
읭
읮
읯
읰
읱
읲
읳
이
익
읶
읷
인
읹
읺
읻
일
읽
읾
읿
잀
잁
잂
잃
임
입
잆
잇
있
잉
잊
잋
잌
잍
잎
잏
자
작
잒
잓
잔
잕
잖
잗
잘
잙
잚
잛
잜
잝
잞
잟
잠
잡
잢
잣
잤
장
잦
잧
잨
잩
잪
잫
재
잭
잮
잯
잰
잱
잲
잳
잴
잵
잶
잷
잸
잹
잺
잻
잼
잽
잾
잿
쟀
쟁
쟂
쟃
쟄
쟅
쟆
쟇
쟈
쟉
쟊
쟋
쟌
쟍
쟎
쟏
쟐
쟑
쟒
쟓
쟔
쟕
쟖
쟗
쟘
쟙
쟚
쟛
쟜
쟝
쟞
쟟
쟠
쟡
쟢
쟣
쟤
쟥
쟦
쟧
쟨
쟩
쟪
쟫
쟬
쟭
쟮
쟯
쟰
쟱
쟲
쟳
쟴
쟵
쟶
쟷
쟸
쟹
쟺
쟻
쟼
쟽
쟾
쟿
저
적
젂
젃
전
젅
젆
젇
절
젉
젊
젋
젌
젍
젎
젏
점
접
젒
젓
젔
정
젖
젗
젘
젙
젚
젛
제
젝
젞
젟
젠
젡
젢
젣
젤
젥
젦
젧
젨
젩
젪
젫
젬
젭
젮
젯
젰
젱
젲
젳
젴
젵
젶
젷
져
젹
젺
젻
젼
젽
젾
젿
졀
졁
졂
졃
졄
졅
졆
졇
졈
졉
졊
졋
졌
졍
졎
졏
졐
졑
졒
졓
졔
졕
졖
졗
졘
졙
졚
졛
졜
졝
졞
졟
졠
졡
졢
졣
졤
졥
졦
졧
졨
졩
졪
졫
졬
졭
졮
졯
조
족
졲
졳
존
졵
졶
졷
졸
졹
졺
졻
졼
졽
졾
졿
좀
좁
좂
좃
좄
종
좆
좇
좈
좉
좊
좋
좌
좍
좎
좏
좐
좑
좒
좓
좔
좕
좖
좗
좘
좙
좚
좛
좜
좝
좞
좟
좠
좡
좢
좣
좤
좥
좦
좧
좨
좩
좪
좫
좬
좭
좮
좯
좰
좱
좲
좳
좴
좵
좶
좷
좸
좹
좺
좻
좼
좽
좾
좿
죀
죁
죂
죃
죄
죅
죆
죇
죈
죉
죊
죋
죌
죍
죎
죏
죐
죑
죒
죓
죔
죕
죖
죗
죘
죙
죚
죛
죜
죝
죞
죟
죠
죡
죢
죣
죤
죥
죦
죧
죨
죩
죪
죫
죬
죭
죮
죯
죰
죱
죲
죳
죴
죵
죶
죷
죸
죹
죺
죻
주
죽
죾
죿
준
줁
줂
줃
줄
줅
줆
줇
줈
줉
줊
줋
줌
줍
줎
줏
줐
중
줒
줓
줔
줕
줖
줗
줘
줙
줚
줛
줜
줝
줞
줟
줠
줡
줢
줣
줤
줥
줦
줧
줨
줩
줪
줫
줬
줭
줮
줯
줰
줱
줲
줳
줴
줵
줶
줷
줸
줹
줺
줻
줼
줽
줾
줿
쥀
쥁
쥂
쥃
쥄
쥅
쥆
쥇
쥈
쥉
쥊
쥋
쥌
쥍
쥎
쥏
쥐
쥑
쥒
쥓
쥔
쥕
쥖
쥗
쥘
쥙
쥚
쥛
쥜
쥝
쥞
쥟
쥠
쥡
쥢
쥣
쥤
쥥
쥦
쥧
쥨
쥩
쥪
쥫
쥬
쥭
쥮
쥯
쥰
쥱
쥲
쥳
쥴
쥵
쥶
쥷
쥸
쥹
쥺
쥻
쥼
쥽
쥾
쥿
즀
즁
즂
즃
즄
즅
즆
즇
즈
즉
즊
즋
즌
즍
즎
즏
즐
즑
즒
즓
즔
즕
즖
즗
즘
즙
즚
즛
즜
증
즞
즟
즠
즡
즢
즣
즤
즥
즦
즧
즨
즩
즪
즫
즬
즭
즮
즯
즰
즱
즲
즳
즴
즵
즶
즷
즸
즹
즺
즻
즼
즽
즾
즿
지
직
짂
짃
진
짅
짆
짇
질
짉
짊
짋
짌
짍
짎
짏
짐
집
짒
짓
짔
징
짖
짗
짘
짙
짚
짛
짜
짝
짞
짟
짠
짡
짢
짣
짤
짥
짦
짧
짨
짩
짪
짫
짬
짭
짮
짯
짰
짱
짲
짳
짴
짵
짶
짷
째
짹
짺
짻
짼
짽
짾
짿
쨀
쨁
쨂
쨃
쨄
쨅
쨆
쨇
쨈
쨉
쨊
쨋
쨌
쨍
쨎
쨏
쨐
쨑
쨒
쨓
쨔
쨕
쨖
쨗
쨘
쨙
쨚
쨛
쨜
쨝
쨞
쨟
쨠
쨡
쨢
쨣
쨤
쨥
쨦
쨧
쨨
쨩
쨪
쨫
쨬
쨭
쨮
쨯
쨰
쨱
쨲
쨳
쨴
쨵
쨶
쨷
쨸
쨹
쨺
쨻
쨼
쨽
쨾
쨿
쩀
쩁
쩂
쩃
쩄
쩅
쩆
쩇
쩈
쩉
쩊
쩋
쩌
쩍
쩎
쩏
쩐
쩑
쩒
쩓
쩔
쩕
쩖
쩗
쩘
쩙
쩚
쩛
쩜
쩝
쩞
쩟
쩠
쩡
쩢
쩣
쩤
쩥
쩦
쩧
쩨
쩩
쩪
쩫
쩬
쩭
쩮
쩯
쩰
쩱
쩲
쩳
쩴
쩵
쩶
쩷
쩸
쩹
쩺
쩻
쩼
쩽
쩾
쩿
쪀
쪁
쪂
쪃
쪄
쪅
쪆
쪇
쪈
쪉
쪊
쪋
쪌
쪍
쪎
쪏
쪐
쪑
쪒
쪓
쪔
쪕
쪖
쪗
쪘
쪙
쪚
쪛
쪜
쪝
쪞
쪟
쪠
쪡
쪢
쪣
쪤
쪥
쪦
쪧
쪨
쪩
쪪
쪫
쪬
쪭
쪮
쪯
쪰
쪱
쪲
쪳
쪴
쪵
쪶
쪷
쪸
쪹
쪺
쪻
쪼
쪽
쪾
쪿
쫀
쫁
쫂
쫃
쫄
쫅
쫆
쫇
쫈
쫉
쫊
쫋
쫌
쫍
쫎
쫏
쫐
쫑
쫒
쫓
쫔
쫕
쫖
쫗
쫘
쫙
쫚
쫛
쫜
쫝
쫞
쫟
쫠
쫡
쫢
쫣
쫤
쫥
쫦
쫧
쫨
쫩
쫪
쫫
쫬
쫭
쫮
쫯
쫰
쫱
쫲
쫳
쫴
쫵
쫶
쫷
쫸
쫹
쫺
쫻
쫼
쫽
쫾
쫿
쬀
쬁
쬂
쬃
쬄
쬅
쬆
쬇
쬈
쬉
쬊
쬋
쬌
쬍
쬎
쬏
쬐
쬑
쬒
쬓
쬔
쬕
쬖
쬗
쬘
쬙
쬚
쬛
쬜
쬝
쬞
쬟
쬠
쬡
쬢
쬣
쬤
쬥
쬦
쬧
쬨
쬩
쬪
쬫
쬬
쬭
쬮
쬯
쬰
쬱
쬲
쬳
쬴
쬵
쬶
쬷
쬸
쬹
쬺
쬻
쬼
쬽
쬾
쬿
쭀
쭁
쭂
쭃
쭄
쭅
쭆
쭇
쭈
쭉
쭊
쭋
쭌
쭍
쭎
쭏
쭐
쭑
쭒
쭓
쭔
쭕
쭖
쭗
쭘
쭙
쭚
쭛
쭜
쭝
쭞
쭟
쭠
쭡
쭢
쭣
쭤
쭥
쭦
쭧
쭨
쭩
쭪
쭫
쭬
쭭
쭮
쭯
쭰
쭱
쭲
쭳
쭴
쭵
쭶
쭷
쭸
쭹
쭺
쭻
쭼
쭽
쭾
쭿
쮀
쮁
쮂
쮃
쮄
쮅
쮆
쮇
쮈
쮉
쮊
쮋
쮌
쮍
쮎
쮏
쮐
쮑
쮒
쮓
쮔
쮕
쮖
쮗
쮘
쮙
쮚
쮛
쮜
쮝
쮞
쮟
쮠
쮡
쮢
쮣
쮤
쮥
쮦
쮧
쮨
쮩
쮪
쮫
쮬
쮭
쮮
쮯
쮰
쮱
쮲
쮳
쮴
쮵
쮶
쮷
쮸
쮹
쮺
쮻
쮼
쮽
쮾
쮿
쯀
쯁
쯂
쯃
쯄
쯅
쯆
쯇
쯈
쯉
쯊
쯋
쯌
쯍
쯎
쯏
쯐
쯑
쯒
쯓
쯔
쯕
쯖
쯗
쯘
쯙
쯚
쯛
쯜
쯝
쯞
쯟
쯠
쯡
쯢
쯣
쯤
쯥
쯦
쯧
쯨
쯩
쯪
쯫
쯬
쯭
쯮
쯯
쯰
쯱
쯲
쯳
쯴
쯵
쯶
쯷
쯸
쯹
쯺
쯻
쯼
쯽
쯾
쯿
찀
찁
찂
찃
찄
찅
찆
찇
찈
찉
찊
찋
찌
찍
찎
찏
찐
찑
찒
찓
찔
찕
찖
찗
찘
찙
찚
찛
찜
찝
찞
찟
찠
찡
찢
찣
찤
찥
찦
찧
차
착
찪
찫
찬
찭
찮
찯
찰
찱
찲
찳
찴
찵
찶
찷
참
찹
찺
찻
찼
창
찾
찿
챀
챁
챂
챃
채
책
챆
챇
챈
챉
챊
챋
챌
챍
챎
챏
챐
챑
챒
챓
챔
챕
챖
챗
챘
챙
챚
챛
챜
챝
챞
챟
챠
챡
챢
챣
챤
챥
챦
챧
챨
챩
챪
챫
챬
챭
챮
챯
챰
챱
챲
챳
챴
챵
챶
챷
챸
챹
챺
챻
챼
챽
챾
챿
첀
첁
첂
첃
첄
첅
첆
첇
첈
첉
첊
첋
첌
첍
첎
첏
첐
첑
첒
첓
첔
첕
첖
첗
처
척
첚
첛
천
첝
첞
첟
철
첡
첢
첣
첤
첥
첦
첧
첨
첩
첪
첫
첬
청
첮
첯
첰
첱
첲
첳
체
첵
첶
첷
첸
첹
첺
첻
첼
첽
첾
첿
쳀
쳁
쳂
쳃
쳄
쳅
쳆
쳇
쳈
쳉
쳊
쳋
쳌
쳍
쳎
쳏
쳐
쳑
쳒
쳓
쳔
쳕
쳖
쳗
쳘
쳙
쳚
쳛
쳜
쳝
쳞
쳟
쳠
쳡
쳢
쳣
쳤
쳥
쳦
쳧
쳨
쳩
쳪
쳫
쳬
쳭
쳮
쳯
쳰
쳱
쳲
쳳
쳴
쳵
쳶
쳷
쳸
쳹
쳺
쳻
쳼
쳽
쳾
쳿
촀
촁
촂
촃
촄
촅
촆
촇
초
촉
촊
촋
촌
촍
촎
촏
촐
촑
촒
촓
촔
촕
촖
촗
촘
촙
촚
촛
촜
총
촞
촟
촠
촡
촢
촣
촤
촥
촦
촧
촨
촩
촪
촫
촬
촭
촮
촯
촰
촱
촲
촳
촴
촵
촶
촷
촸
촹
촺
촻
촼
촽
촾
촿
쵀
쵁
쵂
쵃
쵄
쵅
쵆
쵇
쵈
쵉
쵊
쵋
쵌
쵍
쵎
쵏
쵐
쵑
쵒
쵓
쵔
쵕
쵖
쵗
쵘
쵙
쵚
쵛
최
쵝
쵞
쵟
쵠
쵡
쵢
쵣
쵤
쵥
쵦
쵧
쵨
쵩
쵪
쵫
쵬
쵭
쵮
쵯
쵰
쵱
쵲
쵳
쵴
쵵
쵶
쵷
쵸
쵹
쵺
쵻
쵼
쵽
쵾
쵿
춀
춁
춂
춃
춄
춅
춆
춇
춈
춉
춊
춋
춌
춍
춎
춏
춐
춑
춒
춓
추
축
춖
춗
춘
춙
춚
춛
출
춝
춞
춟
춠
춡
춢
춣
춤
춥
춦
춧
춨
충
춪
춫
춬
춭
춮
춯
춰
춱
춲
춳
춴
춵
춶
춷
춸
춹
춺
춻
춼
춽
춾
춿
췀
췁
췂
췃
췄
췅
췆
췇
췈
췉
췊
췋
췌
췍
췎
췏
췐
췑
췒
췓
췔
췕
췖
췗
췘
췙
췚
췛
췜
췝
췞
췟
췠
췡
췢
췣
췤
췥
췦
췧
취
췩
췪
췫
췬
췭
췮
췯
췰
췱
췲
췳
췴
췵
췶
췷
췸
췹
췺
췻
췼
췽
췾
췿
츀
츁
츂
츃
츄
츅
츆
츇
츈
츉
츊
츋
츌
츍
츎
츏
츐
츑
츒
츓
츔
츕
츖
츗
츘
츙
츚
츛
츜
츝
츞
츟
츠
측
츢
츣
츤
츥
츦
츧
츨
츩
츪
츫
츬
츭
츮
츯
츰
츱
츲
츳
츴
층
츶
츷
츸
츹
츺
츻
츼
츽
츾
츿
칀
칁
칂
칃
칄
칅
칆
칇
칈
칉
칊
칋
칌
칍
칎
칏
칐
칑
칒
칓
칔
칕
칖
칗
치
칙
칚
칛
친
칝
칞
칟
칠
칡
칢
칣
칤
칥
칦
칧
침
칩
칪
칫
칬
칭
칮
칯
칰
칱
칲
칳
카
칵
칶
칷
칸
칹
칺
칻
칼
칽
칾
칿
캀
캁
캂
캃
캄
캅
캆
캇
캈
캉
캊
캋
캌
캍
캎
캏
캐
캑
캒
캓
캔
캕
캖
캗
캘
캙
캚
캛
캜
캝
캞
캟
캠
캡
캢
캣
캤
캥
캦
캧
캨
캩
캪
캫
캬
캭
캮
캯
캰
캱
캲
캳
캴
캵
캶
캷
캸
캹
캺
캻
캼
캽
캾
캿
컀
컁
컂
컃
컄
컅
컆
컇
컈
컉
컊
컋
컌
컍
컎
컏
컐
컑
컒
컓
컔
컕
컖
컗
컘
컙
컚
컛
컜
컝
컞
컟
컠
컡
컢
컣
커
컥
컦
컧
컨
컩
컪
컫
컬
컭
컮
컯
컰
컱
컲
컳
컴
컵
컶
컷
컸
컹
컺
컻
컼
컽
컾
컿
케
켁
켂
켃
켄
켅
켆
켇
켈
켉
켊
켋
켌
켍
켎
켏
켐
켑
켒
켓
켔
켕
켖
켗
켘
켙
켚
켛
켜
켝
켞
켟
켠
켡
켢
켣
켤
켥
켦
켧
켨
켩
켪
켫
켬
켭
켮
켯
켰
켱
켲
켳
켴
켵
켶
켷
켸
켹
켺
켻
켼
켽
켾
켿
콀
콁
콂
콃
콄
콅
콆
콇
콈
콉
콊
콋
콌
콍
콎
콏
콐
콑
콒
콓
코
콕
콖
콗
콘
콙
콚
콛
콜
콝
콞
콟
콠
콡
콢
콣
콤
콥
콦
콧
콨
콩
콪
콫
콬
콭
콮
콯
콰
콱
콲
콳
콴
콵
콶
콷
콸
콹
콺
콻
콼
콽
콾
콿
쾀
쾁
쾂
쾃
쾄
쾅
쾆
쾇
쾈
쾉
쾊
쾋
쾌
쾍
쾎
쾏
쾐
쾑
쾒
쾓
쾔
쾕
쾖
쾗
쾘
쾙
쾚
쾛
쾜
쾝
쾞
쾟
쾠
쾡
쾢
쾣
쾤
쾥
쾦
쾧
쾨
쾩
쾪
쾫
쾬
쾭
쾮
쾯
쾰
쾱
쾲
쾳
쾴
쾵
쾶
쾷
쾸
쾹
쾺
쾻
쾼
쾽
쾾
쾿
쿀
쿁
쿂
쿃
쿄
쿅
쿆
쿇
쿈
쿉
쿊
쿋
쿌
쿍
쿎
쿏
쿐
쿑
쿒
쿓
쿔
쿕
쿖
쿗
쿘
쿙
쿚
쿛
쿜
쿝
쿞
쿟
쿠
쿡
쿢
쿣
쿤
쿥
쿦
쿧
쿨
쿩
쿪
쿫
쿬
쿭
쿮
쿯
쿰
쿱
쿲
쿳
쿴
쿵
쿶
쿷
쿸
쿹
쿺
쿻
쿼
쿽
쿾
쿿
퀀
퀁
퀂
퀃
퀄
퀅
퀆
퀇
퀈
퀉
퀊
퀋
퀌
퀍
퀎
퀏
퀐
퀑
퀒
퀓
퀔
퀕
퀖
퀗
퀘
퀙
퀚
퀛
퀜
퀝
퀞
퀟
퀠
퀡
퀢
퀣
퀤
퀥
퀦
퀧
퀨
퀩
퀪
퀫
퀬
퀭
퀮
퀯
퀰
퀱
퀲
퀳
퀴
퀵
퀶
퀷
퀸
퀹
퀺
퀻
퀼
퀽
퀾
퀿
큀
큁
큂
큃
큄
큅
큆
큇
큈
큉
큊
큋
큌
큍
큎
큏
큐
큑
큒
큓
큔
큕
큖
큗
큘
큙
큚
큛
큜
큝
큞
큟
큠
큡
큢
큣
큤
큥
큦
큧
큨
큩
큪
큫
크
큭
큮
큯
큰
큱
큲
큳
클
큵
큶
큷
큸
큹
큺
큻
큼
큽
큾
큿
킀
킁
킂
킃
킄
킅
킆
킇
킈
킉
킊
킋
킌
킍
킎
킏
킐
킑
킒
킓
킔
킕
킖
킗
킘
킙
킚
킛
킜
킝
킞
킟
킠
킡
킢
킣
키
킥
킦
킧
킨
킩
킪
킫
킬
킭
킮
킯
킰
킱
킲
킳
킴
킵
킶
킷
킸
킹
킺
킻
킼
킽
킾
킿
타
탁
탂
탃
탄
탅
탆
탇
탈
탉
탊
탋
탌
탍
탎
탏
탐
탑
탒
탓
탔
탕
탖
탗
탘
탙
탚
탛
태
택
탞
탟
탠
탡
탢
탣
탤
탥
탦
탧
탨
탩
탪
탫
탬
탭
탮
탯
탰
탱
탲
탳
탴
탵
탶
탷
탸
탹
탺
탻
탼
탽
탾
탿
턀
턁
턂
턃
턄
턅
턆
턇
턈
턉
턊
턋
턌
턍
턎
턏
턐
턑
턒
턓
턔
턕
턖
턗
턘
턙
턚
턛
턜
턝
턞
턟
턠
턡
턢
턣
턤
턥
턦
턧
턨
턩
턪
턫
턬
턭
턮
턯
터
턱
턲
턳
턴
턵
턶
턷
털
턹
턺
턻
턼
턽
턾
턿
텀
텁
텂
텃
텄
텅
텆
텇
텈
텉
텊
텋
테
텍
텎
텏
텐
텑
텒
텓
텔
텕
텖
텗
텘
텙
텚
텛
템
텝
텞
텟
텠
텡
텢
텣
텤
텥
텦
텧
텨
텩
텪
텫
텬
텭
텮
텯
텰
텱
텲
텳
텴
텵
텶
텷
텸
텹
텺
텻
텼
텽
텾
텿
톀
톁
톂
톃
톄
톅
톆
톇
톈
톉
톊
톋
톌
톍
톎
톏
톐
톑
톒
톓
톔
톕
톖
톗
톘
톙
톚
톛
톜
톝
톞
톟
토
톡
톢
톣
톤
톥
톦
톧
톨
톩
톪
톫
톬
톭
톮
톯
톰
톱
톲
톳
톴
통
톶
톷
톸
톹
톺
톻
톼
톽
톾
톿
퇀
퇁
퇂
퇃
퇄
퇅
퇆
퇇
퇈
퇉
퇊
퇋
퇌
퇍
퇎
퇏
퇐
퇑
퇒
퇓
퇔
퇕
퇖
퇗
퇘
퇙
퇚
퇛
퇜
퇝
퇞
퇟
퇠
퇡
퇢
퇣
퇤
퇥
퇦
퇧
퇨
퇩
퇪
퇫
퇬
퇭
퇮
퇯
퇰
퇱
퇲
퇳
퇴
퇵
퇶
퇷
퇸
퇹
퇺
퇻
퇼
퇽
퇾
퇿
툀
툁
툂
툃
툄
툅
툆
툇
툈
툉
툊
툋
툌
툍
툎
툏
툐
툑
툒
툓
툔
툕
툖
툗
툘
툙
툚
툛
툜
툝
툞
툟
툠
툡
툢
툣
툤
툥
툦
툧
툨
툩
툪
툫
투
툭
툮
툯
툰
툱
툲
툳
툴
툵
툶
툷
툸
툹
툺
툻
툼
툽
툾
툿
퉀
퉁
퉂
퉃
퉄
퉅
퉆
퉇
퉈
퉉
퉊
퉋
퉌
퉍
퉎
퉏
퉐
퉑
퉒
퉓
퉔
퉕
퉖
퉗
퉘
퉙
퉚
퉛
퉜
퉝
퉞
퉟
퉠
퉡
퉢
퉣
퉤
퉥
퉦
퉧
퉨
퉩
퉪
퉫
퉬
퉭
퉮
퉯
퉰
퉱
퉲
퉳
퉴
퉵
퉶
퉷
퉸
퉹
퉺
퉻
퉼
퉽
퉾
퉿
튀
튁
튂
튃
튄
튅
튆
튇
튈
튉
튊
튋
튌
튍
튎
튏
튐
튑
튒
튓
튔
튕
튖
튗
튘
튙
튚
튛
튜
튝
튞
튟
튠
튡
튢
튣
튤
튥
튦
튧
튨
튩
튪
튫
튬
튭
튮
튯
튰
튱
튲
튳
튴
튵
튶
튷
트
특
튺
튻
튼
튽
튾
튿
틀
틁
틂
틃
틄
틅
틆
틇
틈
틉
틊
틋
틌
틍
틎
틏
틐
틑
틒
틓
틔
틕
틖
틗
틘
틙
틚
틛
틜
틝
틞
틟
틠
틡
틢
틣
틤
틥
틦
틧
틨
틩
틪
틫
틬
틭
틮
틯
티
틱
틲
틳
틴
틵
틶
틷
틸
틹
틺
틻
틼
틽
틾
틿
팀
팁
팂
팃
팄
팅
팆
팇
팈
팉
팊
팋
파
팍
팎
팏
판
팑
팒
팓
팔
팕
팖
팗
팘
팙
팚
팛
팜
팝
팞
팟
팠
팡
팢
팣
팤
팥
팦
팧
패
팩
팪
팫
팬
팭
팮
팯
팰
팱
팲
팳
팴
팵
팶
팷
팸
팹
팺
팻
팼
팽
팾
팿
퍀
퍁
퍂
퍃
퍄
퍅
퍆
퍇
퍈
퍉
퍊
퍋
퍌
퍍
퍎
퍏
퍐
퍑
퍒
퍓
퍔
퍕
퍖
퍗
퍘
퍙
퍚
퍛
퍜
퍝
퍞
퍟
퍠
퍡
퍢
퍣
퍤
퍥
퍦
퍧
퍨
퍩
퍪
퍫
퍬
퍭
퍮
퍯
퍰
퍱
퍲
퍳
퍴
퍵
퍶
퍷
퍸
퍹
퍺
퍻
퍼
퍽
퍾
퍿
펀
펁
펂
펃
펄
펅
펆
펇
펈
펉
펊
펋
펌
펍
펎
펏
펐
펑
펒
펓
펔
펕
펖
펗
페
펙
펚
펛
펜
펝
펞
펟
펠
펡
펢
펣
펤
펥
펦
펧
펨
펩
펪
펫
펬
펭
펮
펯
펰
펱
펲
펳
펴
펵
펶
펷
편
펹
펺
펻
펼
펽
펾
펿
폀
폁
폂
폃
폄
폅
폆
폇
폈
평
폊
폋
폌
폍
폎
폏
폐
폑
폒
폓
폔
폕
폖
폗
폘
폙
폚
폛
폜
폝
폞
폟
폠
폡
폢
폣
폤
폥
폦
폧
폨
폩
폪
폫
포
폭
폮
폯
폰
폱
폲
폳
폴
폵
폶
폷
폸
폹
폺
폻
폼
폽
폾
폿
퐀
퐁
퐂
퐃
퐄
퐅
퐆
퐇
퐈
퐉
퐊
퐋
퐌
퐍
퐎
퐏
퐐
퐑
퐒
퐓
퐔
퐕
퐖
퐗
퐘
퐙
퐚
퐛
퐜
퐝
퐞
퐟
퐠
퐡
퐢
퐣
퐤
퐥
퐦
퐧
퐨
퐩
퐪
퐫
퐬
퐭
퐮
퐯
퐰
퐱
퐲
퐳
퐴
퐵
퐶
퐷
퐸
퐹
퐺
퐻
퐼
퐽
퐾
퐿
푀
푁
푂
푃
푄
푅
푆
푇
푈
푉
푊
푋
푌
푍
푎
푏
푐
푑
푒
푓
푔
푕
푖
푗
푘
푙
푚
푛
표
푝
푞
푟
푠
푡
푢
푣
푤
푥
푦
푧
푨
푩
푪
푫
푬
푭
푮
푯
푰
푱
푲
푳
푴
푵
푶
푷
푸
푹
푺
푻
푼
푽
푾
푿
풀
풁
풂
풃
풄
풅
풆
풇
품
풉
풊
풋
풌
풍
풎
풏
풐
풑
풒
풓
풔
풕
풖
풗
풘
풙
풚
풛
풜
풝
풞
풟
풠
풡
풢
풣
풤
풥
풦
풧
풨
풩
풪
풫
풬
풭
풮
풯
풰
풱
풲
풳
풴
풵
풶
풷
풸
풹
풺
풻
풼
풽
풾
풿
퓀
퓁
퓂
퓃
퓄
퓅
퓆
퓇
퓈
퓉
퓊
퓋
퓌
퓍
퓎
퓏
퓐
퓑
퓒
퓓
퓔
퓕
퓖
퓗
퓘
퓙
퓚
퓛
퓜
퓝
퓞
퓟
퓠
퓡
퓢
퓣
퓤
퓥
퓦
퓧
퓨
퓩
퓪
퓫
퓬
퓭
퓮
퓯
퓰
퓱
퓲
퓳
퓴
퓵
퓶
퓷
퓸
퓹
퓺
퓻
퓼
퓽
퓾
퓿
픀
픁
픂
픃
프
픅
픆
픇
픈
픉
픊
픋
플
픍
픎
픏
픐
픑
픒
픓
픔
픕
픖
픗
픘
픙
픚
픛
픜
픝
픞
픟
픠
픡
픢
픣
픤
픥
픦
픧
픨
픩
픪
픫
픬
픭
픮
픯
픰
픱
픲
픳
픴
픵
픶
픷
픸
픹
픺
픻
피
픽
픾
픿
핀
핁
핂
핃
필
핅
핆
핇
핈
핉
핊
핋
핌
핍
핎
핏
핐
핑
핒
핓
핔
핕
핖
핗
하
학
핚
핛
한
핝
핞
핟
할
핡
핢
핣
핤
핥
핦
핧
함
합
핪
핫
핬
항
핮
핯
핰
핱
핲
핳
해
핵
핶
핷
핸
핹
핺
핻
핼
핽
핾
핿
햀
햁
햂
햃
햄
햅
햆
햇
했
행
햊
햋
햌
햍
햎
햏
햐
햑
햒
햓
햔
햕
햖
햗
햘
햙
햚
햛
햜
햝
햞
햟
햠
햡
햢
햣
햤
향
햦
햧
햨
햩
햪
햫
햬
햭
햮
햯
햰
햱
햲
햳
햴
햵
햶
햷
햸
햹
햺
햻
햼
햽
햾
햿
헀
헁
헂
헃
헄
헅
헆
헇
허
헉
헊
헋
헌
헍
헎
헏
헐
헑
헒
헓
헔
헕
헖
헗
험
헙
헚
헛
헜
헝
헞
헟
헠
헡
헢
헣
헤
헥
헦
헧
헨
헩
헪
헫
헬
헭
헮
헯
헰
헱
헲
헳
헴
헵
헶
헷
헸
헹
헺
헻
헼
헽
헾
헿
혀
혁
혂
혃
현
혅
혆
혇
혈
혉
혊
혋
혌
혍
혎
혏
혐
협
혒
혓
혔
형
혖
혗
혘
혙
혚
혛
혜
혝
혞
혟
혠
혡
혢
혣
혤
혥
혦
혧
혨
혩
혪
혫
혬
혭
혮
혯
혰
혱
혲
혳
혴
혵
혶
혷
호
혹
혺
혻
혼
혽
혾
혿
홀
홁
홂
홃
홄
홅
홆
홇
홈
홉
홊
홋
홌
홍
홎
홏
홐
홑
홒
홓
화
확
홖
홗
환
홙
홚
홛
활
홝
홞
홟
홠
홡
홢
홣
홤
홥
홦
홧
홨
황
홪
홫
홬
홭
홮
홯
홰
홱
홲
홳
홴
홵
홶
홷
홸
홹
홺
홻
홼
홽
홾
홿
횀
횁
횂
횃
횄
횅
횆
횇
횈
횉
횊
횋
회
획
횎
횏
횐
횑
횒
횓
횔
횕
횖
횗
횘
횙
횚
횛
횜
횝
횞
횟
횠
횡
횢
횣
횤
횥
횦
횧
효
횩
횪
횫
횬
횭
횮
횯
횰
횱
횲
횳
횴
횵
횶
횷
횸
횹
횺
횻
횼
횽
횾
횿
훀
훁
훂
훃
후
훅
훆
훇
훈
훉
훊
훋
훌
훍
훎
훏
훐
훑
훒
훓
훔
훕
훖
훗
훘
훙
훚
훛
훜
훝
훞
훟
훠
훡
훢
훣
훤
훥
훦
훧
훨
훩
훪
훫
훬
훭
훮
훯
훰
훱
훲
훳
훴
훵
훶
훷
훸
훹
훺
훻
훼
훽
훾
훿
휀
휁
휂
휃
휄
휅
휆
휇
휈
휉
휊
휋
휌
휍
휎
휏
휐
휑
휒
휓
휔
휕
휖
휗
휘
휙
휚
휛
휜
휝
휞
휟
휠
휡
휢
휣
휤
휥
휦
휧
휨
휩
휪
휫
휬
휭
휮
휯
휰
휱
휲
휳
휴
휵
휶
휷
휸
휹
휺
휻
휼
휽
휾
휿
흀
흁
흂
흃
흄
흅
흆
흇
흈
흉
흊
흋
흌
흍
흎
흏
흐
흑
흒
흓
흔
흕
흖
흗
흘
흙
흚
흛
흜
흝
흞
흟
흠
흡
흢
흣
흤
흥
흦
흧
흨
흩
흪
흫
희
흭
흮
흯
흰
흱
흲
흳
흴
흵
흶
흷
흸
흹
흺
흻
흼
흽
흾
흿
힀
힁
힂
힃
힄
힅
힆
힇
히
힉
힊
힋
힌
힍
힎
힏
힐
힑
힒
힓
힔
힕
힖
힗
힘
힙
힚
힛
힜
힝
힞
힟
힠
힡
힢
힣
##라
##키
##움
##대
##전
##센
##터
##0
##5
##/
##8
##1
##7
##+
##안
##주
##거
##리
##로
##트
##레
##프
##너
##십
##스
##이
##야
##기
##를
##장
##물
##의
##공
##동
##캐
##다
##.
##i
##h
##b
##f
##죽
##인
##w
##q
##"
##평
##과
##는
##타
##나
##시
##간
##도
##약
##'
##은
##3
##2
##명
##을
##드
##퀴
##논
##티
##섹
##며
##령
##으
##써
##없
##어
##요
##고
##옥
##루
##:
##광
##폭
##화
##,
##신
##당
##들
##D
##&
##J
##홀
##딩
##가
##완
##책
##탈
##린
##만
##큼
##반
##차
##량
##더
##룡
##제
##-
##지
##온
##e
##a
##왕
##조
##종
##락
##함
##추
##카
##츠
##바
##악
##몽
##셔
##무
##미
##해
##었
##냐
##?
##정
##팬
##서
##비
##헌
##양
##적
##군
##식
##체
##계
##에
##버
##새
##운
##9
##6
##4
##년
##테
##성
##져
##데
##끼
##듀
##재
##까
##임
##등
##급
##하
##용
##앨
##된
##즈
##히
##일
##마
##출
##친
##r
##o
##c
##n
##르
##빔
##상
###
##족
##합
##니
##M
##보
##씨
##게
##술
##꾼
##실
##호
##단
##방
##면
##=
##남
##구
##생
##겁
##했
##빛
##덕
##척
##변
##건
##형
##격
##한
##났
##그
##S
##t
##l
##s
##원
##산
##우
##사
##님
##멜
##것
##언
##G
##씬
##분
##씩
##청
##읍
##푸
##영
##염
##국
##노
##초
##메
##T
##룹
##배
##달
##석
##모
##토
##역
##~
##던
##관
##튼
##규
##왔
##쟈
##워
##크
##오
##!
##랑
##m
##u
##_
##회
##d
##였
##링
##살
##천
##%
##쿤
##설
##빈
##삭
##젤
##롯
##태
##택
##됐
##빠
##질
##탄
##수
##낙
##셋
##유
##*
##중
##부
##란
##독
##와
##진
##벨
##되
##겠
##심
##려
##킬
##뉴
##환
##자
##치
##(
##)
##개
##발
##처
##럼
##끄
##러
##경
##든
##교
##위
##녤
##복
##B
##A
##곡
##선
##내
##학
##희
##롱
##냥
##참
##딧
##힐
##헥
##난
##입
##작
##품
##곤
##행
##철
##송
##런
##립
##템
##폴
##맹
##V
##세
##젠
##아
##담
##P
##본
##권
##익
##녀
##O
##I
##듯
##금
##글
##딜
##v
##C
##머
##최
##소
##텔
##억
##z
##색
##두
##른
##베
##래
##뎌
##걸
##팔
##투
##욕
##객
##김
##직
##졌
##강
##현
##R
##쿠
##페
##팀
##쵸
##케
##볼
##통
##번
##련
##껴
##문
##k
##브
##릿
##튜
##울
##손
##창
##예
##취
##떡
##할
##육
##웁
##피
##돌
##둘
##표
##준
##펠
##협
##콜
##쓰
##폰
##네
##죠
##향
##여
##목
##봤
##골
##접
##쉬
##엔
##먼
##퉁
##불
##므
##틀
##코
##존
##슨
##얼
##업
##굴
##꾸
##록
##받
##침
##꼬
##저
##빌
##흐
##름
##항
##턴
##근
##있
##암
##료
##매
##g
##X
##찬
##L
##박
##뿔
##말
##먹
##섀
##율
##N
##농
##축
##병
##쇄
##샵
##파
##략
##숙
##슬
##민
##커
##디
##멸
##앙
##검
##음
##탑
##백
##연
##릴
##룸
##결
##렌
##x
##p
##벌
##류
##렵
##채
##집
##벙
##킴
##절
##흰
##땃
##쥐
##E
##K
##낸
##칙
##찰
##뿐
##풍
##션
##뇨
##증
##습
##않
##툴
##활
##땐
##꽃
##캠
##월
##y
##칭
##될
##때
##됨
##속
##]
##포
##답
##샷
##액
##편
##퍼
##델
##앓
##층
##벽
##텐
##각
##법
##믹
##싱
##황
##컨
##셉
##\
##윳
##[
##잔
##;
##켜
##막
##낭
##Z
##쿄
##닐
##극
##텝
##열
##쾌
##톰
##블
##애
##놓
##점
##갑
##슈
##플
##샤
##팅
##북
##총
##픔
##응
##쪽
##득
##윈
##팰
##삿
##갓
##찮
##괴
##및
##겨
##림
##귀
##H
##외
##짜
##필
##승
##틱
##댜
##핑
##킹
##윤
##같
##<
##올
##후
##햏
##댕
##능
##짓
##Q
##쏘
##혜
##탐
##츄
##겼
##클
##판
##감
##힘
##싸
##째
##댈
##랭
##균
##순
##셨
##붙
##넣
##곳
##렸
##징
##웨
##Y
##첩
##웰
##았
##력
##긴
##론
##챔
##잖
##범
##쟁
##뚜
##벤
##누
##웠
##셸
##U
##W
##땅
##샘
##효
##톤
##밥
##롭
##덤
##몬
##렬
##끗
##념
##찜
##엽
##쇠
##느
##즉
##넬
##돈
##패
##깜
##넛
##봉
##줬
##닝
##빗
##켰
##햇
##견
##짱
##냈
##깐
##탕
##젖
##좀
##둥
##널
##넘
##칠
##쌀
##렉
##즌
##컬
##혹
##꼔
##셍
##F
##넥
##켓
##핀
##잇
##삼
##홍
##탱
##망
##켄
##렇
##흥
##롤
##찢
##쿰
##맛
##끌
##럽
##례
##댐
##혔
##빙
##람
##측
##헨
##닌
##폐
##갤
##젓
##햄
##펙
##혀
##숲
##밭
##끈
##알
##잠
##앗
##춘
##곶
##또
##솔
##슴
##곰
##쓱
##떨
##렐
##밀
##길
##쳤
##핵
##낮
##엄
##늪
##덴
##녹
##맨
##섬
##멘
##큐
##풀
##훼
##혁
##텀
##룬
##멍
##죄
##갈
##늑
##뢰
##튀
##엘
##됭
##훈
##낼
##맥
##깨
##밖
##칩
##맞
##섯
##혈
##>
##픽
##섭
##특
##엠
##몇
##킨
##굽
##묵
##옵
##둔
##짐
##콤
##확
##퐁
##ㅐ
##ㄿ
##딸
##험
##궁
##률
##넴
##묘
##톳
##쿨
##높
##쯤
##쿡
##랫
##뜸
##맵
##놀
##뒤
##틸
##놈
##봇
##앞
##늘
##릭
##촌
##털
##램
##렛
##끝
##쇼
##몰
##랜
##값
##몹
##샹
##랩
##혼
##밟
##빎
##겜
##랄
##허
##돔
##솜
##툼
##ㅙ
##ㅋ
##뎀
##댓
##덜
##넷
##릇
##별
##줘
##밤
##$
##즐
##쳐
##갔
##칸
##궤
##컷
##쌤
##왓
##칫
##덩
##잡
##깸
##뽀
##맙
##탯
##봐
##줄
##뱅
##윙
##컴
##퓨
##셀
##랙
##툰
##탭
##셰
##톱
##컵
##펜
##닷
##챠
##뎅
##팝
##콘
##홈
##칼
##럭
##옌
##옹
##캡
##쁠
##텍
##잉
##볶
##퀸
##얀
##셈
##듐
##휘
##충
##톨
##겐
##숍
##날
##굉
##욱
##헤
##듣
##떠
##밌
##넨
##꿈
##똥
##쿼
##웅
##꿔
##떤
##흑
##휴
##뇌
##웍
##@
##둣
##룽
##닥
##쩡
##엿
##냅
##쁜
##압
##궈
##좌
##덧
##짝
##샬
##밍
##쥰
##닉
##탤
##쩍
##쌍
##쑤
##둑
##컫
##쨩
##ㅎ
##j
##딱
##앉
##긁
##뜨
##찌
##팁
##딕
##떼
##쉘
##삐
##융
##멩
##쉽
##쏟
##곱
##왁
##펄
##늠
##룰
##돼
##얏
##릉
##핏
##따
##획
##륜
##뷰
##큰
##렷
##넌
##춰
##놔
##떻
##첸
##깎
##켈
##릅
##냄
##늒
##꺼
##갯
##몸
##듭
##헴
##딪
##힌
##븐
##렙
##딘
##짬
##뽕
##옷
##잘
##쓴
##봄
##딴
##랏
##샥
##쥬
##멤
##좋
##뤘
##흠
##촉
##륙
##꿀
##냉
##콩
##깥
##슷
##눔
##톡
##꺄
##졸
##콰
##옐
##뿌
##웃
##찾
##흔
##킥
##옛
##랐
##놉
##즙
##힝
##켐
##즘
##탁
##겔
##랍
##녕
##촛
##ㅡ
##뚠
##늄
##ㄲ
##흙
##싫
##윗
##숭
##롬
##혐
##밴
##퇴
##|
##착
##싶
##듬
##쥔
##첨
##앴
##납
##눈
##잭
##낑
##펫
##젱
##깽
##땡
##께
##흡
##깃
##쫓
##닛
##낌
##쭙
##맷
##턱
##숨
##딤
##쉐
##캅
##픈
##푼
##걀
##겹
##훗
##걱
##빅
##댄
##헬
##멈
##썰
##띠
##겅
##펭
##귄
##흉
##^
##쇤
##캔
##잎
##롹
##뱀
##옴
##폅
##믄
##뚱
##떯
##왼
##엉
##컹
##썼
##읽
##팜
##찐
##룩
##멱
##틴
##}
##{
##륵
##튠
##윅
##땜
##쑹
##햐
##펑
##씀
##툭
##ㄴ
##괄
##삽
##빵
##틈
##팟
##짹
##좆
##웬
##ㅠ
##덱
##밑
##씹
##샨
##벳
##긋
##괵
##캉
##섰
##엇
##닭
##꼴
##쯔
##뻐
##펨
##쌓
##킷
##낀
##렘
##첼
##캇
##쟨
##갱
##쁘
##헛
##놨
##뇽
##똘
##껄
##빨
##쎼
##ㄹ
##ㄱ
##밋
##벡
##셜
##뚝
##꺽
##팍
##썅
##럿
##핸
##슛
##뼈
##둠
##슘
##쁨
##뒀
##럯
##읏
##줌
##빤
##뻔
##렀
##펴
##둬
##랛
##뭐
##뎃
##쩌
##킵
##룻
##곁
##앤
##빽
##썬
##숴
##엙
##팩
##얍
##뀌
##붕
##윌
##홉
##젼
##곽
##갠
##힙
##푹
##넵
##잣
##썸
##휼
##꺾
##녁
##훤
##겸
##럴
##눅
##폼
##멧
##댔
##벞
##왜
##렴
##엑
##엣
##뮤
##먕
##퀘
##갸
##횟
##눌
##믈
##렜
##텅
##륨
##츤
##빡
##핍
##뮴
##뭉
##밸
##췬
##큭
##뱃
##콥
##폿
##눠
##펌
##겟
##댁
##줏
##젯
##헀
##ㅢ
##ㅔ
##낳
##죳
##셧
##렁
##닮
##ㅞ
##ㅅ
##졔
##헙
##됴
##뎨
##왈
##잼
##쟉
##띔
##랴
##쭉
##땠
##뿡
##벅
##찔
##짤
##쓸
##틍
##풋
##뷔
##못
##꼼
##뻤
##덮
##뭇
##늬
##벼
##많
##궐
##뽑
##뀐
##펀
##붐
##깔
##탓
##깁
##싯
##쿵
##얄
##욘
##쐐
##웜
##폄
##쨋
##찡
##뻣
##뷸
##륭
##낚
##쉴
##믿
##쫒
##뫼
##짭
##쪼
##젬
##맘
##햤
##뻥
##늅
##닙
##맸
##쳉
##ㅇ
##빼
##탠
##낫
##떄
##쨍
##늦
##꿍
##붑
##쉈
##낄
##둡
##뉘
##젝
##찹
##쌩
##큡
##핫
##쑥
##톈
##뤼
##텨
##쩔
##뜬
##ㅣ
##떴
##뛰
##팽
##젹
##쟤
##랬
##됩
##굿
##쳰
##쫄
##씌
##돛
##숫
##슌
##츙
##샌
##췄
##챈
##큠
##녘
##졀
##ㄵ
##꽂
##웹
##흘
##촬
##팡
##벗
##넓
##삶
##캥
##옆
##렝
##렆
##츨
##캣
##줍
##껏
##ㄷ
##뒷
##솟
##덫
##ㅏ
##땀
##팎
##잊
##헹
##횡
##챌
##멀
##쫑
##큘
##헐
##썹
##얘
##뜩
##샅
##킄
##짖
##엥
##썩
##횽
##죌
##씰
##앵
##뤄
##잃
##슾
##펐
##썽
##챕
##볕
##즤
##죤
##짠
##`
##뇰
##솥
##퓌
##뜻
##쨔
##낡
##촐
##찍
##슭
##탬
##괜
##뻘
##ㅁ
##ㅊ
##꼽
##껌
##끔
##끊
##겉
##췌
##팥
##ㄳ
##봅
##뢴
##슐
##춥
##텟
##찟
##셩
##탔
##뜯
##녜
##왚
##닦
##붉
##앱
##듈
##ㅍ
##깊
##숀
##닳
##ㅝ
##콕
##촨
##밨
##쇽
##꼭
##싼
##캄
##멕
##껍
##첫
##켑
##ㅛ
##숏
##돗
##돠
##꾹
##흭
##칵
##묻
##퓰
##ㅕ
##녓
##묶
##퍽
##ㅈ
##쭝
##깝
##붓
##륌
##ㄽ
##톄
##팸
##튐
##뀨
##밯
##섞
##솨
##챗
##뜰
##릎
##눞
##깟
##닿
##룀
##ㅂ
##뮈
##먀
##솩
##맡
##깡
##윽
##춤
##뤨
##긍
##곧
##넙
##뿜
##뚫
##챙
##땝
##졍
##쏴
##뮬
##됬
##귈
##뻑
##긘
##귤
##힛
##펍
##겍
##쳡
##뺑
##얽
##솁
##닫
##윰
##뎠
##뽁
##쎄
##녔
##돕
##헝
##콧
##셌
##껫
##눙
##깅
##돚
##팼
##웻
##굳
##궜
##튬
##늙
##ㅟ
##욤
##껑
##뭥
##꾱
##뭄
##꺵
##푱
##꼰
##퀄
##굼
##륀
##롓
##쪠
##숯
##괘
##윔
##튕
##듸
##큅
##욜
##젊
##힉
##뱉
##꽈
##삯
##꿨
##킁
##쌈
##싹
##샐
##휠
##띵
##꺅
##띤
##챘
##빻
##곗
##잋
##쉔
##쌕
##덟
##꼿
##켯
##귡
##긮
##깑
##짼
##뉜
##샀
##캑
##꽁
##쏜
##횰
##눴
##앍
##쉰
##셴
##갚
##엎
##쁩
##덬
##찼
##늉
##뀔
##넉
##쭐
##꼈
##잽
##쩨
##챤
##츈
##쳇
##뚤
##흣
##넋
##믛
##빳
##괭
##섕
##빚
##촙
##ㅑ
##ㅓ
##춧
##왑
##킾
##밈
##짚
##똑
##쾰
##뺄
##밧
##칰
##뷋
##뵈
##뫄
##돤
##듦
##맺
##잤
##ㅌ
##ㅖ
##옳
##엡
##돋
##삣
##쳅
##좡
##붸
##솀
##쌘
##쬬
##랠
##벚
##셒
##깄
##넝
##캬
##캿
##쨰
##쿳
##갰
##옮
##핌
##좨
##웱
##읒
##쟝
##쩐
##삘
##퇘
##뼉
##줫
##볓
##놋
##꽝
##훙
##앳
##쭤
##겄
##뒈
##뭍
##벋
##뭔
##멥
##괼
##얜
##갖
##뺨
##쾅
##옙
##덥
##냤
##땟
##짯
##얻
##쭈
##쯧
##앜
##갭
##멋
##큔
##뛴
##튤
##븀
##띄
##캘
##섶
##윷
##뎐
##쟢
##쨌
##쫘
##윕
##걷
##땁
##쉭
##훍
##깍
##왐
##쉑
##깻
##콴
##솝
##쟌
##뎬
##헿
##쉼
##쏼
##ㅗ
##헉
##ㅀ
##탉
##낵
##쌌
##웩
##맴
##웽
##맣
##잴
##뤽
##뺘
##샙
##꿧
##홰
##첬
##꿩
##쮸
##궃
##첵
##큥
##챱
##딫
##뻬
##냑
##ㅜ
##뮌
##싣
##뀜
##튽
##뿅
##쿈
##묷
##뺏
##꿉
##믕
##떵
##좁
##훌
##쌔
##눕
##줴
##땄
##벵
##몫
##뽄
##쾨
##ㅆ
##쾡
##쳔
##퀀
##헷
##훅
##빱
##볏
##퐈
##춛
##숑
##쿱
##긱
##푀
##빕
##샛
##텁
##잰
##툠
##씽
##뉠
##얹
##앰
##몄
##꼐
##ㄺ
##쑈
##뺐
##뀽
##옘
##슙
##폔
##뱌
##뺀
##밝
##퉜
##엌
##얌
##튁
##퍄
##쏠
##훕
##끓
##쏭
##뉼
##컸
##샴
##닢
##롄
##웉
##쯋
##뙈
##뎁
##겻
##럅
##틔
##큄
##뭘
##냔
##삑
##뵤
##쪄
##뎡
##쭘
##눝
##ㅒ
##떈
##곬
##홋
##슝
##굵
##딨
##팻
##헸
##뻗
##랼
##븨
##짢
##돵
##ㄻ
##쎈
##삔
##삥
##씸
##꼻
##찻
##쇳
##얔
##굣
##ㅉ
##셤
##퓸
##얾
##휀
##끽
##깰
##쏵
##욧
##햅
##랸
##ㄸ
##엮
##떽
##넞
##얗
##퀼
##롼
##셊
##곖
##쵮
##곲
##읪
##휙
##맑
##멬
##뤠
##숳
##퉤
##쩝
##됫
##쏫
##텼
##빴
##믜
##퀜
##팠
##핼
##ㅘ
##ㄶ
##닯
##뮐
##녠
##꽉
##힜
##ㄾ
##뛟
##랖
##궂
##솅
##읭
##쌰
##슥
##텬
##쵤
##쫏
##퀵
##븡
##랔
##맜
##짋
##죡
##꿰
##훔
##싁
##잿
##폈
##뾰
##숄
##읕
##툽
##롸
##쒸
##뻉
##쨈
##눗
##얕
##흩
##캌
##몐
##젔
##긔
##졋
##햔
##맟
##솽
##흫
##큽
##룅
##쉿
##꿇
##쑨
##봣
##뜀
##흄
##훠
##껨
##픙
##켁
##젭
##짧
##볍
##넹
##칲
##겋
##틋
##쳄
##잌
##뭋
##꺘
##탸
##캰
##밞
##웡
##궶
##궫
##궻
##랤
##궢
##뺴
##쫀
##빝
##쉠
##꾀
##볐
##꽌
##퇼
##ㅚ
##ㄼ
##댑
##똬
##ㅄ
##윶
##뷁
##짔
##갛
##볜
##짞
##촘
##벧
##쵼
##쩃
##켕
##됀
##듕
##귁
##팏
##욬
##씻
##퉆
##벰
##냘
##썻
##쮜
##왠
##믓
##딥
##컁
##랗
##핥
##궉
##묭
##펩
##숟
##샾
##곘
##챳
##괌
##꿋
##깩
##냠
##븅
##숼
##믁
##삡
##뚥
##뗑
##냇
##맆
##똔
##낏
##솬
##꿘
##헵
##낯
##퍅
##쉥
##멓
##뷜
##뒹
##옄
##쳥
##뗘
##풉
##슻
##슉
##뉨
##컥
##떳
##빰
##쬐
##놯
##튄
##퓔
##빩
##껀
##뼛
##겝
##셱
##쏨
##짊
##헣
##쫃
##뮨
##쥴
##찝
##넒
##밎
##펏
##즛
##귖
##끅
##헜
##웟
##롮
##몀
##껸
##걔
##쐈
##쿌
##븍
##춋
##걺
##댱
##깠
##쥘
##핳
##앟
##뻴
##굶
##릍
##읗
##탰
##썌
##벜
##핤
##걉
##츌
##튿
##끎
##됏
##괸
##쌜
##쟛
##엊
##퓻
##핮
##텡
##쌉
##갞
##뽈
##딲
##췰
##먄
##붜
##럷
##옉
##섁
##엾
##젶
##톮
##닜
##뚯
##틉
##췛
##뿛
##뿍
##맏
##닽
##꽤
##췍
##휜
##큿
##걼
##롈
##쀼
##츔
##쮀
##갘
##봌
##옻
##풹
##뿎
##잦
##홑
##됌
##괏
##륄
##뿗
##랎
##겡
##뿟
##졶
##곯
##꼳
##곂
##겊
##츼
##띨
##핟
##짇
##맽
##뤗
##읜
##챵
##텃
##뗄
##핡
##묨
##쨥
##닻
##굇
##휸
##룔
##쎅
##옼
##넠
##튱
##젟
##읟
##쬔
##밷
##뉵
##쥼
##뱝
##뜌
##틂
##딛
##럇
##뜳
##쾃
##쵝
##쫌
##륍
##팃
##픗
##닼
##퉨
##앚
##씐
##릐
##뒴
##퀏
##쿙
##뱐
##뵙
##끙
##웸
##왯
##쳣
##믐
##벛
##럐
##툐
##퀑
##뒨
##챨
##옿
##횞
##삾
##푄
##됍
##읓
##몆
##씄
##묏
##쪘
##냣
##좐
##뗴
##푈
##뭡
##쑵
##챡
##긿
##욺
##홧
##낲
##윾
##켤
##죔
##뗀
##ㅃ
##롷
##뜷
##캽
##냨
##뗌
##떁
##핰
##텦
##륽
##칬
##챃
##귓
##츳
##뺌
##덍
##갼
##퇸
##쨤
##묠
##푤
##콸
##갇
##걍
##붇
##귿
##첱
##횃
##쳑
##읊
##쬴
##됼
##굑
##툥
##쎵
##꿂
##겆
##딍
##뱁
##켠
##왱
##퓬
##햘
##킅
##츅
##뱡
##핬
##돝
##캎
##묙
##쉪
##낟
##앏
##씁
##넜
##듄
##곀
##츰
##켔
##꽥
##촤
##쵀
##뇩
##뷕
##멂
##찧
##뵬
##콬
##횬
##쫙
##톸
##벱
##깤
##닁
##엪
##돡
##큣
##쫗
##묾
##뵹
##엏
##펼
##엳
##삧
##빪
##늣
##홥
##갉
##띱
##흗
##덣
##숔
##
##똠
##몿
##웤
##쩜
##펰
##숩
##갂
##롑
##갬
##깼
##텄
##륑
##햌
##핱
##얺
##폮
##졈
##뷘
##볻
##쟘
##옅
##귯
##낱
##륩
##앆
##븃
##튭
##콫
##슼
##귐
##렏
##뵘
##즥
##읨
##욥
##끾
##넸
##죰
##괠
##뷴
##켮
##쥿
##솎
##죈
##봬
##췜
##챦
##럄
##봥
##놐
##훨
##홐
##밢
##닊
##뵐
##릈
##퓐
##쾈
##잨
##댼
##옭
##랒
##맬
##깉
##덨
##죵
##뢸
##쬼
##밐
##씡
##닾
##앢
##봠
##쳬
##젴
##춍
##셕
##퐝
##엩
##탙
##쥠
##짰
##캴
##귬
##헽
##팈
##끍
##텆
##뼜
##띡
##솹
##듧
##웗
##쟙
##픟
##깬
##쉣
##픠
##튈
##둉
##롁
##팹
##뤳
##췐
##앩
##윱
##싀
##꽹
##잩
##숌
##뤂
##뻼
##퇀
##몌
##푯
##갹
##캤
##쏙
##읋
##뾱
##낰
##줜
##챰
##뗬
##귱
##섦
##띌
##얶
##뒬
##휩
##닺
##혠
##뫌
##훵
##뚬
##꾁
##홓
##긌
##픕
##웝
##숮
##탶
##굸
##삵
##껭
##랲
##좃
##뭣
##쟂
##됙
##횻
##겪
##갗
##묄
##뮹
##맢
##띰
##똣
##줭
##긑
##떱
##쎌
##룝
##뀰
##쌥
##춉
##덛
##뤤
##뗐
##룐
##룃
##쪙
##놧
##핲
##힣
##땋
##볫
##걜
##딮
##묀
##쒀
##죗
##옝
##힡
##챶
##텽
##궨
##븸
##햿
##껐
##쩎
##샇
##쒠
##쀏
##좄
##촹
##쇨
##킼
##햑
##쬲
##둟
##휨
##앒
##틜
##뿨
##듼
##옫
##맫
##슳
##곪
##뿝
##녈
##싴
##찿
##톺
##뢱
##됄
##됸
##풂
##흴
##쯩
##탼
##넀
##뼘
##궘
##툿
##읔
##욛
##샜
##꺙
##홯
##솃
##긩
##뭏
##멎
##찎
##몯
##옾
##옇
##혓
##왇
##헠
##깈
##짙
##퓽
##숱
##엃
##홝
##뺵
##뭅
##뺭
##묜
##먺
##핧
##솦
##눨
##긏
##껜
##헔
##펲
##걲
##꾜
##젺
##볘
##뺩
##떰
##쟆
##랕
##쎘
##궝
##뷀
##슲
##뇝
##먁
##턍
##굥
##렡
##엤
##훇
##쵹
##왝
##잍
##뛸
##썖
##끠
##픞
##쎀
##쾀
##쓩
##뵀
##꿎
##뜹
##꽐
##슶
##틊
##렿
##휭
##휫
##쳌
##넼
##랟
##쨜
##뽐
##숸
##뇬
##뜽
##섣
##봊
##쿗
##콱
##춈
##궅
##꺠
##뷥
##쨉
##뛷
##뗻
##빧
##띧
##웊
##섄
##퍗
##폽
##읃
##푕
##쌞
##떫
##슠
##벆
##꼇
##쳿
##쒜
##쇙
##꺗
##듁
##똵
##멐
##졐
##꺑
##틑
##쎔
##꿏
##슮
##퉌
##컾
##멭
##슽
##몃
##묽
##쩠
##왘
##뫙
##퀠
##긧
##씜
##졩
##긇
##쌨
##읻
##햝
##덭
##햣
##걕
##묑
##톼
##쵇
##샄
##띾
##먐
##뻰
##퍈
##혿
##꼉
##밉
##짦
##핻
##룺
##룯
##퐆
##튝
##졘
##섴
##쥭
##쁐
##욌
##웦
##귑
##앀
##뇔
##덌
##룟
##뾆
##쑬
##얃
##턔
##끕
##엷
##븢
##쯕
##녂
##얇
##풔
##돞
##쩬
##톩
##뵷
##읶
##뙇
##홤
##곹
##횐
##븜
##켸
##췃
##슁
##쳘
##쏽
##뽓
##쟎
##겕
##냙
##굔
##챂
##뀩
##낢
##뼥
##얭
##윜
##룍
##봘
##퉈
##쥣
##삻
##쌴
##뉸
##럈
##붝
##켝
##놘
##칡
##팦
##힇
##쥩
##욯
##앎
##쏩
##슺
##얅
##돐
##넎
##굄
##켣
##겷
##댸
##겧
##쐬
##댠
##랰
##낔
##쒞
##삮
##뎻
##켙
##쎤
##맅
##욍
##빋
##촥
##쉅
##쵠
##씪
##잆
##픖
##몪
##핁
##붏
##둗
##뢍
##좇
##읖
##횔
##뭬
##켱
##쬿
##뱄
##놂
##븥
##얬
##삷
##샢
##듨
##좔
##맂
##훽
##쒂
##꽅
##꾿
##픝
##뇸
##넚
##맻
##귾
##괍
##욷
##쭌
##섥
##쁟
##횅
##읅
##돨
##뗏
##쮓
##럘
##빏
##릳
##햟
##툉
##삳
##똻
##엨
##붱
##찦
##긎
##싑
##쾽
##찃
##떘
##휅
##쪗
##믬
##넽
##꼣
##밫
##쪤
##첲
##냩
##쟐
##풒
##쾁
##꺀
##쓔
##섊
##큇
##쎠
##팤
##졧
##뽂
##걋
##렦
##뙤
##딯
##믖
##꼑
##곈
##롕
##멏
##훑
##낍
##휄
##엫
##쌱
##욹
##쨀
##핗
##봡
##뺙
##줃
##맀
##볌
##왉
##릌
##둏
##쩩
##쿸
##죙
##췼
##뗵
##즑
##짂
##퐅
##앛
##붠
##궭
##컼
##켭
##똰
##떗
##쓉
##롫
##탹
##맠
##곅
##뱔
##옺
##뒫
##뉻
##읹
##엗
##샊
##갷
##읎
##휳
##쥡
##갴
##껼
##쮠
##돎
##멨
##돇
##늕
##뱟
##쨕
##쟞
##쀵
##샏
##긃
##얒
##롣
##솰
##뜁
##윘
##샻
##닸
##뮉
##촠
##뷍
##꺆
##퍕
##섐
##뚞
##쨖
##읫
##썄
##썋
##뇻
##띈
##넖
##귊
##슯
##얐
##뉙
##럤
##렂
##욭
##벟
##퓩
##즁
##붰
##퐐
##썜
##킌
##븝
##횦
##잪
##긺
##둙
##툵
##곌
##퇵
##뤕
##뭴
##잏
##앋
##뵌
##엒
##뎈
##쁑
##헑
##퍀
##싢
##쌐
##늨
##늡
##쯰
##옸
##툻
##뽜
##뤌
##쑝
##뷧
##쒯
##쥽
##읇
##욣
##욨
##젇
##닠
##훟
##졷
##쯉
##껒
##뿠
##봙
##틘
##쇵
##뚧
##캭
##뀠
##굘
##붗
##잗
##췻
##갣
##닏
##쁫
##롵
##믙
##뭊
##뼝
##큎
##쟀
##턚
##콮
##웈
##쩼
##륷
##듟
##냡
##뼤
##깢
##킸
##늗
##죱
##탖
##쬈
##쫍
##렺
##팯
##섈
##쩄
##콭
##앧
##얿
##왤
##걘
##떙
##믏
##쩰
##쨘
##쑦
##쌋
##넡
##샠
##읠
##곸
##턩
##꼯
##퇄
##럔
##혬
##뻠
##놰
##췩
##떦
##쁴
##꺕
##굡
##폘
##밬
##뛔
##퀩
##롶
##볔
##뒥
##덷
##츩
##툱
##췹
##왖
##낛
##읷
##덗
##삤
##뿀
##챺
##햬
##셆
##쯥
##뗼
##뺸
##퐳
##튓
##갃
##쩻
##짆
##몋
##캋
##껬
##쏸
##퀫
##뵜
##땔
##뎜
##뾲
##쒼
##늇
##쎕
##뚀
##벹
##샼
##첮
##풰
##뤈
##즹
##돖
##캆
##왒
##싮
##밦
##읐
##먜
##볟
##퐄
##벍
##쉨
##씝
##덝
##냬
##쫜
##븟
##좬
##쯘
##퉷
##렫
##뀝
##쿽
##뾼
##츕
##먈
##끑
##횄
##릏
##걌
##뤁
##얙
##폕
##늰
##슿
##덞
##솊
##줵
##슧
##샟
##땍
##좜
##욀
##밮
##퀌
##꼍
##핢
##뇾
##휵
##똏
##큉
##떥
##뜜
##뜔
##뾸
##셑
##둩
##켼
##훝
##똡
##럲
##쎾
##숡
##휔
##눼
##졉
##뗔
##뚸
##뀀
##뱍
##쒓
##뵨
##벝
##띙
##녛
##쑴
##뎋
##핶
##롴
##둚
##냏
##놕
##푁
##졤
##빢
##쾬
##륻
##엋
##릔
##녝
##깹
##씅
##륏
##겓
##읺
##젙
##뎰
##씃
##첐
##봍
##싷
##믱
##눤
##팖
##컽
##웛
##뚕
##엜
##컺
##쥤
##쎽
##뢉
##뢔
##뀬
##륫
##븘
##봑
##헭
##킈
##싿
##괐
##뒓
##휏
##둰
##뚭
##댤
##묫
##맄
##뢀
##젋
##쮹
##벓
##칢
##꼄
##왹
##쁭
##뫁
##옒
##킽
##쩧
##힁
##댛
##랓
##뜝
##겴
##껶
##쉟
##렣
##좍
##둪
##넫
##볽
##밣
##훜
##훴
##좸
##텻
##젅
##끡
##톹
##읆
##뒝
##녯
##챼
##췔
##뻭
##짘
##튻
##볙
##쁋
##욉
##븓
##퉹
##폥
##귕
##뒕
##뫞
##뿷
##땞
##밪
##뒗
##됵
##롊
##웕
##칯
##겾
##욼
##핝
##햎
##낪
##밊
##겿
##썪
##솖
##멌
##쯱
##좝
##흿
##낻
##혉
##귚
##넗
##뫅
##뙡
##퀭
##둴
##먘
##싟
##걁
##뙳
##홂
##믽
##샶
##곻
##멉
##옡
##햡
##놑
##믗
##됑
##밁
##뽭
##횩
##훞
##뚁
##맍
##햊
##졲
##덿
##썡
##릣
##뛝
##뎍
##햛
##륐
##뽝
##푠
##긲
##팛
##쟄
##땻
##녑
##긂
##떢
##쑉
##릠
##둄
##췁
##늫
##둇
##봫
##쾍
##싨
##퉅
##퍌
##윁
##췅
##괬
##룁
##즠
##솧
##붹
##웎
##픓
##릥
##줙
##읙
##컿
##핕
##픅
##앖
##죶
##깞
##덪
##쟠
##븰
##츱
##챝
##쿏
##딬
##젂
##삠
##탒
##듮
##긓
##휑
##쓺
##앝
##꿑
##뗋
##찯
##왬
##솓
##쒹
##컭
##샆
##힠
##껰
##흝
##쐴
##뜼
##릾
##퉥
##촷
##뇐
##툇
##줒
##씺
##쳴
##릋
##핚
##컀
##듓
##듵
##륿
##꽜
##뻿
##큪
##뎔
##잒
##쏌
##먗
##몔
##갊
##퀙
##좊
##댯
##앾
##욿
##긜
##륶
##퀍
##뫈
##퇜
##뚦
##츸
##놇
##뻇
##멑
##킐
##섑
##굷
##뱽
##춭
##싕
##뭑
##얷
##뺠
##벖
##웒
##뎗
##뒑
##뙗
##줸
##툘
##옜
##틧
##씼
##꺈
##켚
##떟
##빞
##맇
##눜
##섷
##댇
##웋
##괃
##쩽
##읩
##빖
##쭊
##밂
##킳
##릁
##칞
##싄
##빟
##숬
##콀
##텰
##뵽
##웴
##븏
##셖
##꿱
##죨
##캜
##뭭
##쐑
##뙨
##셐
##쥑
##퇻
##혯
##궄
##톋
##씉
##랃
##곷
##껠
##꽛
##붼
##윿
##엓
##뀙
##뚮
##쐙
##뽟
##긷
##잙
##솸
##춸
##쮝
##덦
##넁
##팣
##쒔
##톕
##곙
##궛
##씯
##옓
##곕
##놁
##뒿
##댊
##땗
##쭹
##궹
##긤
##쀠
##띕
##쎙
##햠
##켬
##졜
##턀
##몁
##믌
##줕
##땨
##귔
##훋
##펔
##웆
##웓
##뗸
##졎
##촾
##쉩
##겯
##늼
##켘
##흨
##깯
##쳠
##땩
##폇
##긕
##겣
##쳈
##힗
##쏻
##푝
##싰
##촴
##끟
##푿
##탣
##왰
##뜐
##쓤
##찓
##궬
##쁎
##쯜
##쉡
##얠
##긬
##튔
##쑻
##괳
##렄
##껙
##뎟
##훓
##녺
##짿
##숖
##꺌
##뻡
##솄
##픤
##땓
##쑟
##줠
##쓍
##쀨
##뎦
##껩
##뱨
##쫭
##뗃
##샒
##욾
##뺼
##됰
##쭨
##돟
##셥
##볱
##즡
##뀻
##핓
##뻄
##웥
##삒
##훚
##딋
##볠
##셓
##쭁
##쭸
##몥
##땽
##읰
##갋
##좂
##앺
##쁌
##녬
##핣
##덯
##킻
##릊
##탏
##렠
##뤃
##쎴
##떔
##빾
##웧
##엍
##쬷
##홅
##쌻
##풇
##퍠
##뜃
##쀳
##뼬
##멮
##뚼
##쉒
##뗠
##옟
##깓
##겦
##믯
##똗
##퓍
##흇
##뎂
##닶
##돓
##헯
##젧
##첄
##됒
##쟹
##삗
##늖
##뉩
##쏀
##딀
##엵
##퓹
##옯
##쐥
##땕
##쎗
##쏲
##읿
##짡
##봨
##잞
##돰
##섡
##벸
##뭌
##쑛
##짫
##릃
##윹
##뤀
##쯬
##늴
##칻
##줗
##헗
##혤
##잫
##뺅
##봁
##핺
##껃
##쩟
##햫
##쫔
##릵
##텥
##벫
##듰
##럻
##춣
##뛩
##쥌
##렾
##뛃
##괧
##쭵
##찣
##뛹
##읁
##섻
##윝
##딷
##겇
##잕
##홭
##븕
##룥
##옰
##탘
##먿
##벐
##딈
##콉
##닍
##헁
##꿝
##놜
##슟
##쀒
##쐉
##꽇
##얉
##캈
##귥
##쉄
##륾
##컄
##킠
##뵉
##븛
##첯
##잀
##됈
##흎
##흓
##틆
##궇
##뗶
##쇡
##굯
##눟
##톗
##뀓
##찭
##봔
##쥇
##몟
##헼
##킦
##붵
##괂
##몼
##돜
##풴
##홇
##긶
##벾
##츻
##붭
##쐇
##늩
##꺤
##녇
##맼
##딹
##닰
##콙
##븗
##홱
##슸
##쨎
##픨
##뚵
##힏
##옃
##밻
##폯
##긆
##둅
##촡
##쎋
##띅
##믤
##씍
##걈
##웇
##웄
##쥥
##쒴
##펵
##븠
##듹
##똽
##껵
##붤
##쪾
##죸
##릆
##덢
##듫
##늧
##읧
##굈
##깂
##슆
##썁
##뒸
##퀧
##쩸
##쩹
##쫅
##왙
##젛
##궆
##썍
##싘
##텠
##꽯
##뉔
##쉇
##킫
##쎃
##섵
##셣
##겢
##캪
##굠
##췽
##붘
##멷
##껗
##춝
##홁
##횝
##뜵
##탵
##딻
##뫃
##뿁
##뼁
##줼
##봒
##룳
##돴
##쌸
##꾕
##팉
##퍙
##뭵
##뗆
##벉
##컈
##긞
##귺
##윥
##밡
##싐
##뿓
##벴
##퉄
##캵
##칽
##뢐
##렼
##쪌
##둿
##몓
##멛
##즏
##넢
##늭
##춇
##휋
##푣
##햭
##슦
##좥
##댝
##즨
##앸
##밇
##뀍
##닞
##쩅
##렢
##벲
##톧
##밲
##뒵
##픳
##숞
##틓
##핔
##뤯
##룱
##엝
##놏
##홨
##썀
##쨧
##뮜
##좈
##븞
##륮
##맕
##툑
##홛
##팊
##즯
##밗
##땸
##궷
##뭗
##퓙
##왂
##젵
##턋
##냌
##옠
##팂
##쬰
##꿻
##퉱
##휽
##둍
##뎄
##큮
##튑
##쀍
##깳
##꺐
##큺
##딺
##슢
##욋
##귝
##쟜
##뺫
##듳
##뢨
##쇗
##욳
##썐
##꼮
##큳
##옏
##밙
##튮
##핦
##콪
##윸
##뽤
##먑
##뺍
##퓜
##깏
##랢
##쟇
##닡
##줓
##듶
##훁
##뇄
##쁅
##뺡
##뗡
##쪨
##캍
##싦
##첟
##붚
##눀
##귶
##뙓
##팒
##봈
##랳
##벩
##줆
##죕
##텹
##첡
##붊
##콛
##잓
##칀
##끤
##쓿
##릘
##켇
##붴
##랣
##둫
##릀
##뵥
##칟
##긐
##뀢
##춀
##뎊
##섿
##쌟
##땛
##쑊
##싈
##닪
##궙
##쁙
##좠
##옲
##촵
##턷
##겈
##혅
##똟
##맃
##륳
##짴
##뭠
##삝
##뺶
##멊
##휗
##엱
##븎
##뛗
##켞
##틷
##펖
##궡
##믠
##텋
##뒁
##튺
##랆
##밠
##뮝
##쬘
##랻
##쫋
##퐠
##멦
##럑
##렞
##옂
##퓟
##삜
##끵
##챸
##껚
##톻
##챞
##솢
##뇹
##탂
##퐞
##쉤
##졵
##쒕
##햙
##푭
##랅
##뚂
##좹
##쎆
##쁵
##뫀
##묳
##떅
##땹
##풅
##튎
##칳
##쭓
##뤰
##갅
##꼵
##쯍
##얫
##퐤
##벏
##덻
##맒
##럶
##쇱
##쳗
##롐
##릮
##쑐
##뱆
##룄
##싞
##홣
##뽴
##빆
##텣
##곺
##놩
##싲
##떧
##쉉
##샂
##섧
##듥
##뷉
##닑
##뫚
##앻
##칱
##맖
##뭩
##웳
##뷇
##띳
##쀽
##옑
##쁢
##싻
##뀁
##뷓
##픎
##뽱
##훳
##덀
##뤔
##젮
##늚
##맊
##븻
##젉
##뻈
##칮
##돿
##썝
##뿉
##탇
##엶
##씤
##뉫
##딭
##쫩
##볃
##넟
##욻
##꿴
##걓
##잧
##휱
##꿸
##쯈
##죹
##멵
##쀾
##엦
##쀄
##릯
##젃
##돩
##뫽
##륗
##콦
##뷤
##쌑
##쟬
##춯
##낶
##굛
##댦
##읈
##쿔
##꺃
##섨
##줅
##뛈
##쑷
##웖
##짗
##깋
##좧
##춴
##텊
##묗
##룴
##턉
##퍝
##솑
##둈
##뾘
##쏄
##꺢
##솤
##믻
##픋
##닲
##샸
##퇍
##럮
##꿕
##줮
##뷛
##돘
##볈
##셭
##왛
##쒐
##쯴
##뎧
##헱
##롻
##쑁
##븬
##녿
##횸
##큫
##쑌
##핛
##낣
##띃
##갵
##뤡
##닟
##맓
##싧
##댋
##핿
##줊
##셟
##닚
##닧
##랋
##봗
##쉛
##탿
##풱
##찱
##럸
##짛
##쫴
##풓
##댥
##뢘
##큩
##겤
##뱈
##벎
##끋
##듷
##땳
##캼
##뽙
##혱
##퇙
##줐
##깪
##씥
##뙴
##촟
##쀡
##궯
##뼌
##뾔
##얖
##쁥
##띁
##욈
##똄
##뱋
##퉭
##곃
##숎
##뭎
##궖
##궋
##옽
##씋
##홒
##돧
##웚
##괋
##엻
##굗
##덖
##숧
##넏
##냫
##씔
##쿶
##쒱
##귻
##쉖
##댧
##튘
##붆
##쑼
##큾
##텂
##쀓
##쟥
##챷
##찳
##쟣
##췈
##먓
##댭
##댖
##캢
##훡
##뛌
##뮷
##츺
##슡
##윀
##폳
##렧
##쎂
##죻
##썯
##뙭
##컶
##툡
##흽
##쉙
##쟻
##꿐
##읾
##풜
##팓
##즞
##좟
##핃
##헚
##끆
##뽥
##걾
##핽
##뗍
##꿃
##몴
##끜
##곩
##섮
##짒
##믇
##젏
##폵
##웷
##뤵
##걩
##쪈
##욝
##뢓
##놬
##쵣
##꿜
##빜
##똫
##뚷
##붖
##듛
##쬭
##쿜
##삨
##텇
##틇
##쯪
##븁
##혭
##햰
##샫
##윋
##롇
##푷
##펡
##퓅
##혻
##뎝
##즵
##짷
##흧
##뫟
##먏
##쭀
##솏
##쓋
##멻
##꽊
##틒
##돆
##죷
##헡
##셦
##셷
##궞
##귪
##궸
##궼
##쟴
##몭
##챽
##꿯
##궳
##멶
##쵭
##똴
##섺
##븪
##뷫
##뛣
##꾫
##텤
##텉
##쾩
##낐
##뢇
##붯
##뱓
##럌
##쬽
##뗳
##꼤
##슞
##곴
##섟
##춱
##븩
##끨
##뿮
##뱦
##쌷
##놥
##윻
##헰
##춏
##뤅
##깇
##꼠
##뤙
##췸
##썎
##됮
##싺
##긊
##됗
##쨻
##푴
##츗
##쯸
##믾
##줎
##몊
##뤩
##댬
##싡
##쇀
##뇠
##햚
##쿩
##낤
##븉
##쑘
##뗜
##늿
##흟
##왧
##뷃
##쌧
##갨
##쾻
##킆
##퐙
##뇜
##럍
##꽦
##콣
##즂
##줛
##놗
##솫
##뗛
##돣
##홳
##웫
##룫
##뺃
##뗣
##쭟
##쏚
##쁍
##풸
##윟
##깕
##틩
##벯
##젆
##읂
##쁀
##쫫
##뻨
##벷
##잚
##춬
##쵁
##즬
##훰
##즷
##걳
##똈
##먃
##빂
##먳
##뮻
##뷈
##슀
##닒
##폑
##덙
##쥉
##쐰
##솻
##꺏
##쫣
##뽧
##꽑
##칣
##텗
##쬥
##풮
##떋
##븧
##펬
##콻
##횾
##뒺
##엞
##궚
##궺
##깒
##깛
##긛
##솼
##틐
##룪
##픐
##땈
##왷
##쁶
##믑
##깆
##쨱
##봴
##눶
##롲
##댚
##힚
##썷
##뼸
##뗗
##숕
##뀪
##묯
##퇗
##퐑
##럣
##쨏
##눽
##쿧
##깣
##훃
##쿹
##걏
##풑
##꽭
##횓
##틤
##첞
##싳
##걿
##릷
##괆
##뗉
##쉏
##쩒
##큻
##뇓
##맗
##졓
##슄
##퐌
##톲
##낞
##럳
##굦
##뜫
##턻
##퐃
##츞
##쏏
##혂
##졬
##윛
##뮺
##댘
##둽
##괙
##텩
##쇅
##윞
##쩖
##쭛
##돫
##뙜
##뚊
##훯
##쏱
##잂
##껖
##솠
##둧
##됃
##츀
##쳒
##뿩
##뜄
##툣
##뀟
##뎢
##렋
##냟
##찷
##뵑
##뽘
##핖
##얆
##뚐
##뭈
##쓲
##욦
##꼅
##돳
##턕
##뺚
##캊
##뜅
##걐
##똧
##다.
##으로
##에서
##하는
20
##이다.
##지만
있다.
##었다.
##에게
##하고
201
##00
##한다.
##이라
있는
##고,
##다는
##했다.
##다고
19
때문
##..
##까지
##에는
##면서
##들이
##하게
##는데
##며,
한다.
##에서는
##적으로
경우
때문에
##였다.
사용
##적인
##하여
##레이
##부터
아니
이후
자신
##리고
##하기
공격
##해서
10
사람
##스트
##라는
##대로
##라고
##다가
##들은
##되었다.
다른
##하면
##이나
##지만,
정도
##들을
##으나
대한
##에도
##지는
##기도
##들의
200
등장
##기를
##하다.
##리는
것이
##되어
그리고
##기에
##하지
된다.
같은
가능
아이
##er
들어
##으며,
하나
하는
사실
12
하지만
게임
##으며
##하였다.
그러
시작
##는데,
일본
##거나
함께
이름
모습
##보다
##스터
##리를
##는다.
한국
위해
##았다.
##in
11
있었
##된다.
사이
##...
##이라고
##이라는
것을
이상
##되는
##기가
만들
##다면
문제
나오
생각
또한
##되었
##어서
##하며
##학교
따라
가장
##니다.
프로
##라이
##력을
다시
##에서도
당시
##리가
##on
##0년
##이었
##릭터
되었다.
##지를
##처럼
없는
모두
캐릭터
##력이
##데,
##이트
상대
15
##or
##기는
##8년
##으면
##an
모든
##리아
없다.
상황
플레이
것이다.
것으로
##스의
추가
결국
##지고
시간
했다.
##9년
현재
##이지
##이는
##자가
상태
자신의
다음
##7년
보여
것은
많이
미국
##하면서
그러나
존재
18
##리스
다만
시즌
##6년
그런
전투
보면
199
##리즈
선수
##ar
많은
##스를
스킬
세계
##성이
매우
##5년
##.1
카드
효과
##스가
##he
지역
##므로
##at
그래
##000
경기
나온
상당
##.0
##들에게
##인이
있었다.
기록
##4년
아니라
처음
이용
않는
16
물론
##가는
##사를
이유
##하였
##가지
여러
아닌
하고
그렇
돌아
실제
자체
일반
##인다.
##-1
필요
##들과
이런
##부분
13
##어진
시리즈
이미
##졌다.
바로
##지가
##이고
##en
##시키
해당
##하자
##시아
거의
영화
##주의
라이
##2년
역시
##상을
##사가
되어
##3년
특히
피해
##이스
기술
14
##인지
30
모습을
통해
##어나
##ou
주인
##도가
기본
관련
진행
##장을
마법
17
##국의
##기로
이야
같이
수도
아무
##지막
제작
##1년
##성을
##했던
위치
##라도
##로는
##에선
##al
대부분
##이었다.
##st
방송
좋은
부분
##해야
##이가
되었
사건
##거리
작품
##주는
마지막
일부
스타
계속
##스는
증가
##으나,
##20
##르는
않았
##린다.
##아서
참고
방어
않고
##로,
인간
활동
국가
달리
있어
##하고,
##전히
되는
서울
보고
않은
내용
있을
주인공
##리에
가지고
그의
이전
##드는
능력
##시에
비슷
인해
##시간
올라
##이며
##으니
어느
##정을
그냥
레이
레벨
100
##re
감독
성공
##어가
대해
##인의
이를
대신
##자를
##.2
##드를
정도로
수준
##도록
##장이
198
지금
25
##dd
##자의
##le
그녀
대표
##트를
##위를
기준
##수가
상당히
않는다.
높은
##it
최대
##있는
이동
보인다.
##렸다.
대한민
##10
##로운
나타
이는
##마다
제외
##와의
타이
##되고
중국
여기
결과
것도
것.
너무
##리의
인물
그대로
의미
##사의
좋아
##도를
의해
##드의
떨어
##ff
등의
##일에
##진다.
##이션
##들도
##기의
직접
전체
없이
##려고
동안
##이자
##수를
알려
받아
원래
언급
##스로
##도로
그는
##이며,
##ing
##ic
발매
##전을
-2
##르게
##자는
애니
관계
만들어
##로서
포함
하다.
##치는
##.5
##대의
##지도
소속
##번째
##리어
있던
경우가
전쟁
자신이
데미
##으로,
##정이
시절
지원
마음
##다!
이어
이것
과거
##대를
2018년
멤버
##하지만
##이지만
나오는
선택
문서
이에
##습니다.
##인데
위한
##드가
유저
##우는
##스타
##자.
##리지
##중에
연구
##하던
최고
유닛
많다.
자기
출연
##점을
##등학교
개발
설명
방법
21
50
##화를
평가
##없이
엄청
몬스터
##나는
크게
발생
있으며,
아버
사망
리그
영향
12월
##am
유명
불가
2019년
7월
찾아
나왔
스토
##이드
##인을
##치를
만든
2017년
##되지
##치가
##과는
8월
이루
4월
프랑
##어로
장면
3월
##트가
##,000
또는
9월
##하기도
10월
5월
실제로
##어난
있다는
이러
##상이
우승
##으로는
6월
초반
이때
지나
##이를
##원이
조금
##일,
주로
말을
##es
##랜드
22
공식
##la
도시
##이기
출신
운영
2016년
중요
24
##전에서
##과의
##이어
인터
##머니
##전에
##만큼
그것
##준다.
1월
##명이
##식을
##하며,
##리그
전부
사라
무기
사랑
제대로
최초
##el
##운드
the
##명을
아이템
자주
하지
없었
소환
정보
최종
##om
보여주
역할
##있다.
##이크
아직
##에서의
11월
서로
##리카
공격력
학생
이렇
친구
##와는
학교
##이터
여성
사회
프리
독일
노래
공개
가진
참고로
##자로
##했을
기존
23
파괴
##is
적이
강력
##명의
있어서
나온다.
비해
이벤
##개의
비교
##격을
##-0
등을
##였던
##니아
마찬
어떤
결정
형태
마찬가지
##50
##사는
##인은
변경
유지
정말
강화
##했고,
197
##라마
##르면
사람이
해도
당연
발견
보통
##나라
##대에
##스와
##같은
##하려
2015년
##히려
설정
##군의
때문이다.
##수의
##지의
바람
구성
2월
배우
##동안
음악
그런데
##프트
##서는
이러한
아래
오히려
살아
##오는
정신
아니다.
후반
##et
##하거나
##요.
##음을
등이
회복
##물을
조선
##회의
##나가
새로운
않았다.
##어도
주장
##트로
슈퍼
##지어
##점이
##스템
##ol
##자인
있으며
##ion
##원을
알고
##어를
있다고
##nd
유일
행동
게다가
##분에
이번
##하다
드래
40
##디오
자유
영상
가까
##는지
##했다고
여자
##-2
있는데,
모양
정부
같다.
사실상
##리오
그래서
노선
##이도
활약
월드
특수
##경기
##대가
하면
##30
부족
어려
일단
아예
승리
확률
##11
##지로
##이기도
대한민국
이렇게
동시에
주변
성능
##스,
들어가
##나마
정치
차지
##그램
##시켜
##화에서
##드로
##임을
비슷한
먼저
##통령
심지어
완전히
##적이
버전
확인
영국
생산
##화가
##ow
드러
가능하다.
스테
적용
방식
바뀌
수록
발동
##도의
그렇게
26
그리
성우
##ig
##밖에
힘들
##다며
시스템
내려
##il
##내는
그래도
모델
##상으로
##다"
28
##ed
2014년
어떻
일이
##메이션
스트
보스
##구를
가지
좋다.
27
영웅
혹은
##스크
전에
##트의
##르고
대회
이야기
##보면
있는데
실패
참여
중심
성격
##하는데
##ac
##간에
한번
기사
자세
있지만
대통령
만나
31
##원의
전혀
차량
다양
우리
못한
데뷔
대학
196
패배
감소
##as
##대한
어떻게
##시킨
원작
동일
국내
사진
마을
##ve
위해서
##니까
않아
1,
획득
앨범
장비
있고
##BS
##더라도
지속
##!!
표현
만큼
얼굴
출시
##지에
##났다.
때는
불가능
얼마
발표
of
##했고
나가
오브
번째
계획
##.3
이제
설치
##른다.
반응
##이었던
체력
##간다.
##인데,
플레이어
##라의
##어버
애니메이션
##움을
##이의
##장의
##대학교
힘을
굉장
##보다는
##체를
스페
기능
바이
없어
드라마
인정
##자,
특성
축구
자동
움직
등장하는
역사
##라가
정확
따라서
##다'
제1
##제가
가져
명칭
이름을
##버스
진출
##0년대
담당
##우스
판매
기억
대체
##해도
하루
문제가
있고,
사용하는
에피
남자
그나마
##상의
쓰는
특징
드래곤
##으로서
##수는
자신을
받은
상승
요구
아마
##문을
경우도
따르면
참가
##도는
덕분에
##으므로
다이
##ot
경찰
중앙
수비
##들에
있기
작중
남아
##장에서
선발
조건
개인
있게
하였다.
202
그림
공격을
##제를
고려
##조차
밝혀
##라면
##권을
##부의
받고
상위
마이
##피언
러시아
##했다는
##했지만
##사로
##한다는
2017
물리
가능한
2013년
##ad
하이
선거
29
##장은
##군이
##아가
각각
##수로
이벤트
에피소
후보
Lv
건물
더욱
듯.
다르
2차
##전이
##.4
우주
강력한
자체가
##한테
넘어
주요
항목
순간
구조
대해서
경험
어머니
해서
##계를
현대
제공
주의
##지지
##적을
비판
##문에
프로그램
사람들이
##지,
결혼
##레벨
상대로
시점
가족
교육
-1
작가
확실
##리,
시간이
##장에
##스러
##부에
후에
초기
굉장히
어린
가격
편이다.
##리와
##되면서
##부를
아르
불구
위험
챔피언
##위원
어렵
2012년
##id
단순
보내
과정
194
##ch
##선을
##대는
##치고
사용할
피해를
##감을
##mm
프랑스
2000
마찬가지로
나와
##량이
아주
일으
말이
여기서
준비
어디
참조
나머
The
무시
폭발
##장으로
유럽
여담
받았
지구
있었던
##트는
##이라면
진짜
##리로
대미
##체가
가능성이
##으면서
##타를
##치로
가면
제한
활용
작은
메이
##레이드
되고
약간
##까지는
속성
않다.
쉽게
제2
엄청난
대전
##ay
가는
방영
여전히
##정한
##키는
for
히로
##리티
##.6
알아
보이
받는
영향을
##시키는
##업을
한편
St
국제
지하
시청
제국
##시즌
##ER
동료
60
마스터
부산
발사
크리스
논란
다음과
##.7
수가
훨씬
##."
1일
클리어
사고
그가
##력은
##리기
패턴
##었던
기간
못하고
분위
현실
##us
당연히
##식이
##인물
쓰러
인구
방향
보호
##려서
강한
연결
이해
##위로
주는
##심을
그를
특별
2010년
##개를
이탈
하며
##없는
혼자
다양한
크로
##행을
##티브
역할을
계약
##로부터
##하다는
FC
##히는
##만이
해결
한정
나이
##40
최근
기준으로
적을
조합
##만한
브라
##정도
잡아
##사와
##ro
잘못
##놓고
##제로
국민
파워
취급
삼성
지방
##해주
중요한
##시의
##.8
블랙
영어
##로를
195
##라인
도망
##수록
##다니
##프를
받았다.
##합니다.
##겠다고
##게임
의견
본인
2011년
##나,
##자기
추정
##이고,
##다,
##레스
##만에
소모
##위에
스토리
보는
생활
##라운드
않을
##기,
자연
##위가
TV
##학년
##ir
처리
##BC
경제
운동
문제는
때문.
문화
출전
기타
것에
##면,
다니
버스
##사에
조직
없었다.
##!"
오래
전용
충분
##인트
##자와
이루어
나무
##도,
라인
정도.
##지션
##듯이
운행
##신이
##학생
비롯
##나게
불구하고
##비아
방면
스스로
이유는
오른
##난다.
##로가
##세기
##이란
##일을
##단의
2018
##만을
장착
##대학
아버지
하여
##한다고
##소를
대부분의
##회를
보이는
##신을
##가를
느낌
##성은
아들
##ht
낮은
##나이
##성의
##라를
##12
예정
전문
##명은
독립
아군
타입
등장한다.
##기와
에너
연속
이유로
##갔다.
들고
중에
##자들이
부활
내가
##th
퀘스트
수상
입장
##un
미션
##im
##'라는
##이즈
유니
아이돌
##져서
구간
##보니
종료
##르크
##원은
##하다고
싱글
HP
모드
나는
이상의
달성
##의를
편.
경우는
말한다.
절대
##ur
더불
##시켰
##하다가
##카이
일본의
##.9
##km
되면
번역
##od
타고
하기
관리
##초에
##당한
제목
##냈다.
##전의
항공
##t;
##라서
##데이트
되지
포켓
##지게
##세대
메인
##dddd
졸업
반대
##이면
소설
종류
엔딩
##유의
##시를
##으로도
근접
생존
##가가
##사,
자리
##스에
##시마
야구
##에게는
##야마
목소
배경
만약
##말로
일을
나머지
민주
##림픽
시도
현재는
##15
##32
일어나
대한민국의
더불어
##왔다.
목표
##력으로
##ut
로마
검은
위에
세이
##함을
엔진
대상
최소
지휘
업데이트
스피
##했으며,
##어들
했지만
SK
가끔
##기고
난이도
그룹
##원으로
속도
##ST
##공격
##시가
밖에
##비가
하면서
일정
대사
##관이
에피소드
##신의
##조건
공연
##일이
배틀
##운데
제외한
만화
##같이
##ver
신경
##세를
##ag
항상
##려는
성장
##점으로
##19
부르
##단을
##종의
##ec
건설
수정
##마저
##혔다.
##거나,
##로의
두고
##부가
##겼다.
얻을
2019
유리
분노
능력을
##리게
소재
아프
유명한
이끌
정식
직업
##카와
##60
정도의
##군은
생긴
##스티
전국
전설
사람은
##37
##?"
비행
북한
##으로써
##이로
오늘
무엇
미국의
전작
##라며
##지기
##어진다.
계열
##ent
##계의
포켓몬
좋지
##호를
작곡
##상에
##되기
##물이
사실을
싸우
해야
2016
##선이
인터뷰
나왔다.
##냐고
이탈리아
##버린
##주를
##리면
##했으나
##비를
자랑
you
##시로
미사
35
높다.
##나의
것과
부여
각종
끝나
##어야
##선의
다르게
##서를
거기
하지만,
미래
과학
빠른
상황에서
##방송
이름이
위치한
##무를
##여서
##시는
수는
이외
괜찮
만드는
바람에
##스럽
비밀
##겠지만
전반
##ak
##하지만,
불러
결승
##음에도
연출
적은
누구
특정
##해진
참조.
##수한
서비
32
2009년
있지만,
모습이
등으로
때,
있다
##다운
기관
##디어
엘리
##이라도
##호가
정작
설립
스파
##미가
훈련
##cm
묘사
케이
80
시전
193
1회
라고
소녀
##동을
##모토
##었다고
나서
평균
분류
##....
스테이지
못하는
전차
##장,
##움이
행정
따로
##부터는
자세한
##스러운
제일
1년
##외로
##고를
##()
예상
때문에,
근처
있다면
##단이
70
2008년
기반
시작했다.
별로
모르
타카
클래
연기
##어의
##하라
갑자기
##80
##대표
##구가
포지션
보유
소개
##이,
##더니
개념
달려
나름
않게
##크로
필요한
경우에는
명령
##지와
1차
##고는
지도
뒤에
to
없을
##쪽으로
예를
이름은
안에
악마
하늘
##프로
아키
종족
지난
것이라고
##mu
##제의
##세가
여담으로
1위
확정
효과를
일행
아카
게임을
교체
상황이
최고의
인천
안정
##군을
발전
집중
수행
공중
있으니
처음으로
스포
##ub
##입니다.
나중에
지정
압도
##크를
사냥
##ffff
##소가
연합
월드컵
나타나
경쟁
없고
지지
사이에
##계가
가까운
부모
표기
본인이
##'의
파티
이걸
등장인물
##이다
in
지켜
##부는
##란드
못했다.
즉,
잠시
생명
##'를
##율이
특이
##고등학교
배치
##리며
본래
##부로
애초에
각성
##원에
식으로
소련
외국
머리
##',
기대
없다는
경우,
언제
탈출
##야말로
나올
이용해
파이
이게
존재한다.
##지면
##인으로
죽은
있으면
##보는
사례
갖고
2000년
##타로
##하나
##스테
##mula
기다
하게
없다고
최강
빠르게
##치기
차이가
물건
일러
벌어
이적
치명
##mula_
위의
##-3
##았던
도입
##역을
제거
보니
새로
##가의
##스코
##ight
이야기를
##량을
##상은
##됐다.
고양
##em
중에서
##트라
사용자가
##만의
군사
대기
##타임
부정
목록
##되었고,
지배
##스케
등장한
##드시
무슨
라는
다크
##었고,
##'을
빠져
기동
그녀의
유사
카운
도쿄
좋아하는
##간의
바꾸
완전
formula_
##화의
베이
달라
접근
이후로
말에
아니면
##ON
야마
나라
vs
관한
2007년
##치의
이쪽
복귀
##즈의
##ce
##하였고,
가운데
건담
라이브
남성
##:0
과정에서
##16
직후
기본적으로
저지
등급
##언을
올림픽
도착
여기에
제품
##도에
대구
##AR
유일한
2,
남은
촬영
##,#
##25
음반
##학과
##체의
##내고
##냐는
##문이
##타가
##했으며
무려
##스토
동생
##심이
가르
##터를
##'라고
포기
시험
타격
변신
사람을
연습
블루
##롭게
보기
##이니
##os
##ri
살해
##:00
500
##감이
정규
##um
날아
돌아가
##진이
죽음
45
##ap
공동
##로우
##미를
역대
##많은
보아
경기에서
반면
사용한다.
##AN
완성
이곳
했던
치료
알게
##차가
##버렸다.
끝에
##낸다.
##'s
고정
하는데
분명
회피
##프가
중간
하였
업그
듣고
##주고
링크
##48
상태에서
인도
##광역
상당한
추천
##에만
데미지
범위
192
해외
유튜
동물
##주가
때마다
심각
타이틀
통합
조종
반드시
##관을
##화국
환경
받을
##점은
준다.
일러스트
##"라고
이하
LG
##한다
##18
##and
저항
이건
##력과
##했는데
기업
프레
##어는
싫어
부탁
효과가
비용
탈락
##자들은
뛰어난
주민
다루
완벽
2개
합류
정상
실험
소리
지상
추측
공간
경기를
##했는데,
투수
##러스
##들어
##이지만,
몇몇
##지면서
##들로
회사
에이
한다는
마무
미니
90
##민주
상관
어둠
점을
후,
##문의
하자
##트에
유일하게
##마가
인터넷
자리를
자체는
오버
앞에
종종
##진을
정의
개최
##체는
판단
규모
##라,
느끼
반대로
##형을
가수
요시
##술을
구매
이로
열린
우선
연재
전략
##드에
##화된
점점
삭제
##받은
무장
시간을
##마자
롯데
팀의
수많은
1개
알려져
##스카
-3
##구의
충격
기념
##주로
##두고
##인,
전통
리더
##아버
##드와
##보를
##키가
종교
조사
##우가
도중
##시킬
##금을
많아
구분
##탄을
##세계
스코
##키의
##정에
2006년
높아
올려
다소
봐도
##터가
##겠다는
소유
##파트
##석이
생성
기계
트리
없어서
##지에서
프로젝
개봉
##이와
##일러
##지.
불리
시대
장소
쓰고
##것도
No
EX
##FA
##일부터
##플레이
##회가
##용으로
생각해
카드를
떠나
##단계
시리즈의
##하는데,
전기
##크가
Ch
보여준다.
아내
공포
상태로
인한
암살
맞추
디자인
##되면
##하자.
바다
요청
##인과
제외하면
그린
2년
싸움
##스에서
##가,
컴퓨
##받는
##차를
##르트
정리
않으면
300
and
의외로
순위
##14
##질을
##하도록
도와
##IN
히어로
##특별
평범
화면
아니고
KBS
##트리
3개
마사
##되며
장갑
그야말로
33
##어,
변화
전사
대중
##력의
##적은
무조건
사업
최초의
##원,
##판을
##무라
워낙
전개
데이터
2020년
##원에서
듯하다.
카이
##적으로는
스크
##으로부터
##르의
어려운
##시,
최초로
홈런
외에도
본격
##로그
것처럼
##호선
##크의
하고,
##석을
##정은
다행
단,
##TV
##쪽에
##식으로
빨리
이와
##라스
##%,
##이므로
가서
도전
##지라
2015
##op
##로드
##성에
##ul
##/2
없음
##운동
이름으로
##버린다.
위협
확장
상징
##1,
##속도
##방을
아무리
일어
부하
##아의
##세의
##한다면
##안을
##마의
한글
##니티
평소
비중
개그
진화
##ck
스위
비롯한
경기도
##ter
투입
최후
그걸
##했기
레드
사람들은
시설
충분히
적의
굳이
##에게서
##승을
##ation
안전
##일의
의하면
지키
##었고
오프
데미지를
##가와
때까지
범죄
중반
대응
##적이다.
##군에
##이에
영혼
거부
작업
##법을
보다
##교육
로봇
탓에
언론
무한
##ra
사무
##정의
##13
##17
관련된
등에
##이닝
끌어
##수도
표시
능력이
카메
36
##'로
##온다.
돈을
##왕의
마나
##조의
##트에서
##보고
##세이
##보다도
##었을
##동생
##지역
밝혔다.
옵션
2005년
km
대형
##호는
버그
##2,
##드리
##성과
붉은
##부에서
그리스
##대전
마르
##구에
기존의
희생
##트와
조작
대화
거기에
트위
##다른
##자에
손을
통과
운용
성향
##인가
성우는
파일
생각하면
##하려고
점령
##회에서
특유의
맞춰
듯한
시민
하며,
##라이더
오리지
##시오
보조
간단
##너스
##바이
네이
##페이지
##시브
말하는
##나와
데이
##경을
th
##기사
##IC
##미의
##쳤다.
거쳐
제3
점이
대결
##래도
##'이라는
하드
얼마나
##미널
사기
태양
본인의
MA
플래
오랜
정책
패치
##제는
##드,
##요일
극장
##자들의
프로듀
시기
명중
##라우
주고
내에서
맞는
투표
선생
##로도
빼앗
##텐츠
##분이
선정
가깝
##려면
반복
불과
##남도
사격
##약을
##음이
인식
마리
장면이
##수,
무리
확률로
다운
있지
유튜브
##레인
시나
중심으로
얻어
클럽
##했지만,
마치
체력이
##론을
##단에
사는
MBC
##시킨다.
앞서
나오지
3일
오르
은퇴
재료
##인들이
고대
디지
이들은
##레이션
그럼
철도
##시대
대학교
지금은
되면서
##다고.
내용은
##스탄
##명으로
##70
신체
앞에서
화염
힘든
2004년
선언
뛰어
난이
영입
서술
데려
진입
디자
38
소년
거두
후속
몸을
34
득점
##되었으며,
대표적인
##그룹
2회
하는데,
##해를
##때문에
개조
서버
붙어
##치게
나이트
##실을
##광역시
##전은
100%
바라
##사카
##다시
##아이
적극
적에게
##리온
SP
##90
입고
패러
##소년
##트,
소비
인기
사태
외모
사쿠
모르는
여름
그저
##정으로
받는다.
##규모
##시티
##kg
##기관
근데
##임이
You
바닥
방문
##라.
##하니
##장과
살아남
##전쟁
오오
##러가
때도
말았다.
하나의
자료
목숨
점프
올라가
불안
보상
초대
포함한
##RA
##art
##전으로
다만,
설계
공략
국회의
문제를
##형이
이후에
좀비
##버리
노동
광주
적절
미드
##ie
그려
사람의
주문
무너
게이
방어력
장난
191
대해서는
형성
이기
##만으로
의한
##스킬
활동을
##방에
##도우
대단
아는
그때
##ia
알렉
컨셉
오토
지닌
##해졌다.
채널
살인
분리
단순히
마무리
단계
전환
꽤나
##제에
요소
맞아
##회에
2일
##래프트
##하려는
##분을
VS
도로
거대한
오리지널
마침
##하였고
##마를
##르가
정당
일반적인
교통
1000
##복을
막아
다르다.
요리
꾸준
마음을
##위는
##호의
##구는
서브
보였다.
받지
비고
##이상
선보
##선수
상황을
##되었고
무사
노력
주연
착용
한국의
##45
##'가
##이야
비난
아프리카
##골을
##코의
##:2
##나다
부분이
##스럽게
하나로
코스
U+
##ill
##산을
모험
떨어진
아름
거짓
##ab
##99
##하므로
손에
특성상
37
부르는
관통
부대
##카가
저격
모습으로
##버리는
승강
##역으로
##패를
경상
##해진다.
##즈가
되고,
미리
스포츠
페르
대비
##화에
날려
##어.
도움을
분야
보컬
인사
##센터
##IA
탑재
##선거
##방의
아쉬
더블
왕국
##~2
임명
점은
승리를
##시켰다.
원거리
##이라서
이것은
유래
연주
##고가
돌려
확보
등록
##ik
##일은
##나를
비교적
##니다
지적
먹고
##답게
죽을
누군
앞으로
점에서
완료
조각
##률이
고등학교
했으나
나쁘
팀이
##워서
허용
차례
브레이
In
2번
##소녀
##진의
##/0
##었다는
보병
금지
스카
##연히
2014
정보를
바탕
AP
자신은
명의
모티브
##타는
감안
남편
황금
컴퓨터
등장.
인기가
아시아
일어난
##트롤
연장
##렀다.
##과를
확실히
##사이
##에게도
고속
필살
일은
##프의
##시키고
##35
##미는
눈에
PC
만들어진
기체
##신은
실시
##요?
그에
##힌다.
##놓은
구축
거주
150
##all
##식의
##고속
##라와
##선에
작성
나누
10일
##초등학교
거리
트랙
75
논란이
##판이
##르기
15일
딱히
제압
그레이
원정
먹는
##ne
주목
추가로
##역이
세트
##력에
상처
포인트
고통
##리스트
국가대표
지니
1번
병사
곳에
##"라는
##AT
인류
##악의
뉴욕
몰아
##가로
발언
가게
측면
대답
##프레
기술을
##당의
포르
##토리
상대가
말했다.
##문화
##ea
편집
##루가
##었지만
##자들
##성도
##바로
때의
##개로
임무
솔로
수밖에
II
해석
태어
##사에서
차이
##ue
##까지도
이전에
##피아
##EN
캐릭터가
##마트
짧은
190
2002년
사용한
걱정
##:5
멸망
##나무
##에서만
##메달
##북도
##우고
수호
그녀는
희망
##티어
따른
이유가
필요가
아나
스킬을
##FF
끝난
##랐다.
일반적으로
있습니다.
이용한
이사
있도록
가슴
3년
##다보니
##코가
개의
본인은
센터
뿐만
##키를
만한
시작한다.
30일
라디오
##PS
불리는
방해
##위의
##동,
동맹
알려진
##바람
갤러
장기
##공을
##ll
한다고
##권이
뮤직
5일
##ct
라이트
##자에게
커뮤
여행
##상에서
부른다.
48
어찌
유우
##AL
##발을
액션
젊은
잠깐
초반에
카즈
##포를
제조
그만
유도
##ss
##량의
녀석
제시
##질이
##화에서는
2003년
20일
에너지
##되었던
사이에서
중단
##크래프트
겨우
가리
##디아
##하여,
해금
없기
##:1
##상태
단체
보였
##하의
사령
##되며,
멀티
##을때
가정
있으나
평범한
타임
##모리
골드
생기
##이던
##품을
##잖아
내부
25일
##회는
흡수
55
##기.
##토가
엄청나게
##리트
해군
##도시
형태로
삼국
모아
##-4
생물
던전
필수
##서가
멀리
##단은
##ate
평가를
"이
홈페이지
떨어져
끝내
느껴
레어
파트
원래는
##관은
예전
업그레이드
##자리
##루스
출생
약속
아스
##즈를
##동이
당선
육군
##웠다.
스케
보이지
##기술
##조가
듀얼
##gt;
##다가,
st
##차로
되기
어느정도
##대에서
3,
42
효율
##OR
그들의
##리안
오후
지역의
산업
안타
##카의
최대한
+1
바꿔
카오
내용을
오스트
대공
만다.
##량은
속도가
보급
대놓고
드라이
##생활
종합
##dddddd
궁극
걸어
개선
##하기로
쿨타임
물어
##,#dddddd
##세트
나카
##임에도
##모를
##되기도
4일
##지자
없지만
받아들
##계에
눈을
다름
힘이
이후에는
이것이
제안
게임의
직전
##했다
거절
봉인
##락을
처음에는
자신에게
팀을
##,000,000
28일
증거
##까지의
##미야
생겨
##'이
##주시
코너
50%
중화
코믹
트레이
##성,
밀어
##크는
##든지
##.10
##사건
##'는
맞고
유용
서비스
광역
어울
##ove
Re
##물로
끝까지
##카드
이야기가
##도와
귀족
MP
##&gt;
게시
재미
중이다.
사상
##권의
##함이
길을
이론
##니스
##수와
##lt;
7일
##ard
##oo
##대,
능력치
시나리오
잡고
현재의
도움이
##ell
수준의
흔히
인기를
거야
밸런
용병
##성으로
부담
강제
바뀐
버프
##능력
##ang
미친
##받고
컨트롤
##3,
##ers
##이치
##스턴
집에
1.
##사키
Sh
소리를
무기를
##비의
##식은
보여주는
홍콩
##구나
SBS
##ant
전술
소울
애매
스페인
##어져
스탠
뭔가
황제
##토의
뒤로
27일
민족
걸로
10%
##ine
전자
##OS
또한,
##모로
왼쪽
때부터
달러
개편
##자들을
습격
##PC
위에서
히트
유키
##다면,
##연구
##서,
##달라고
본편
##우의
##에,
##마스
여겨
발휘
레이저
##로스
[[
##하자면
참고.
##관의
39
속에서
제외하고
##등을
반란
바뀌었다.
폭탄
무게
재생
##타의
자살
상대적으로
추가된
공통
14일
계산
거대
콤보
서울특별
##형의
기록했다.
시작한
말고
부상
##물의
당장
##해졌
올리
겨울
충돌
##대와
지옥
진영
해주
지명
문제로
타이밍
비록
단독
어렵다.
##중학교
##개월
근거
기원
##버렸
핵심
싶어
##아웃
없게
사건이
##오의
원하는
21일
쉬운
상대의
##조를
넘어가
동일한
##토를
구입
##주차
레전
##터의
##향이
##적이고
줄어들
##마을
26일
2.
스펙
##전사
아침
맡았다.
테러
처치
못한다.
많았
온라인
상황에
하나를
수치
##수에
로드
##AS
크다.
##학을
시내
아무래도
##디션
텔레
중에서도
##심히
##쳐서
죽이
바르
누가
##교통
##해보
Sp
출발
한다
##당이
아웃
##AM
스탯
파악
##지며
책임
##비는
향해
12일
##/3
기획
17일
상태가
반영
8일
##느냐
건너
##ED
##다이
꾸준히
##.12
상대를
붕괴
얘기
하나가
##ive
의심
늘어나
그녀를
광고
11일
이미지
우려
조준
패시브
##하였으며,
행복
만족
##치지
FI
##구로
##와서
떨어지는
2013
##사항
표준
로켓
시티
##격이
존재하는
자기가
##론이
##먼트
##원과
사항
고유
22일
실질
탑승
마이크
관광
모자
18일
##철도
기절
##라리
싶은
게임이
못해
16일
장르
##VE
##되고,
##스포
사실은
판타
강조
##있던
혼란
##점에서
24일
채용
되었고,
##500
##겠다.
##로서의
##기인
머리를
감염
##받아
6일
##하게도
밀려
Th
##하러
미나
약한
##사인
메가
##ee
방식으로
2001년
23일
##프는
##이라며
두산
##먹는
커버
그것을
뿐이다.
테마
##었는데
사람들
필드
##-10
공산
##친다.
"그
##독교
##시와
##/32
인생
##ack
에어
위로
##니가
우승을
##선은
##ast
##권에서
13일
내용이
아메
오는
만들었다.
##과학
있으므로
문서:
대다
##오카
온갖
주도
##만은
카페
##것이
그게
9일
지하철
돌파
인간의
자이
##안타
##오가
##주년
SS
에서
탄생
에이스
##히고
해제
하위
당시에는
처음부터
이상한
활약을
훌륭
힘들다.
19일
##끼리
설득
구단
120
BG
극장판
##정부
공격력이
##화로
수원
##세는
안습
없고,
페이
두번째
##베르
데스
이들
아오
불명
살짝
29일
작전
패러디
3회
플라
##모가
##할때
##차피
공항
##373
배신
나오고
고민
어쩔
##루를
##선에서
사람들을
##기만
랜덤
##웨이
##'에
지급
둘이
가로
1위를
사과
##스에게
##가능
##4,
분석
플레이어가
##왕이
둘러
가입
아라
그럴
않기
##전에서는
대륙
아야
만에
건축
그렇다고
화살
##ong
속에
보여준
아니지만
숨겨
##국이
마지막으로
##트남
있었고,
언어
않지만
##개가
단일
서포
실행
##uby
ST
중간에
##기에는
납치
##AC
##점에
말해
##은행
##if
갖추
후쿠
마련
얻은
##루의
추정된다.
당황
즉시
시점에서
뒤집
나쁜
##자마자
##화는
47
외에
들어오
신뢰
스킨
무서
be
##님이
이르
##게도
일종의
입은
##ort
들어간
이름의
그곳
##지마
명예
##진은
방패
은근
셈.
10년
와중에
##ind
오프닝
##직을
##속성
오른쪽
##동에
브라질
##ith
그다
바탕으로
말도
##판에
수입
##3c
##파이어
##거리가
3번
##위원회
##ld
2012
있었지만
아사
한국어
한때
내에
시행
##ly
##증을
보수
##방이
발음
##정보
해설
400
확률이
성적
열심히
##하긴
것이라는
것이었다.
##5%
##데미
이래
하기도
이슬
주력
##마리
##EC
##LC
##스트로
보여줬
##ruby
늘어
클로
받게
실력
베르
버튼
감독의
교환
스튜
사실이
입학
동아
때려
밴드
내내
##즈는
디스
음식
##오프
통일
옆에
인지
커뮤니티
##리아의
제주
##군과
베이스
##즈키
하던
절반
##역에서
PS
역전
라이벌
데미지가
형제
들어가는
##a3c
##373a3c
만난
버티
##ist
##해져
뒤,
않아서
##시리즈
##지방
모션
서울특별시
##다"고
대미지
##장.
##ruby]
어차피
사정
습득
##드라
제국의
등등
##하기에
어째
이승
##ain
스프
##마법
스페셜
전달
##선으로
피아
20%
드랍
조정
46
아시
경유
##면서도
공유
외교
댓글
계승
44
2위
집안
##지컬
메이저
무력
아이템을
오픈
##우를
##역,
##ffffff
들어서
붙잡
행동을
##명,
##0000
공주
##VP
미야
##까?
제기
##스트를
공을
초월
##단으로
건강
놓고
##인지라
눈치
##'으로
##원들이
장애
##기에서
김성
가면라이더
##치에
##급의
##어주
2루
공격이
부분은
위하여
박살
돌격
##~3
벗어나
##소의
##말을
안드로
위키
##족의
##시한
##-5
경계
쓰지
재능
카드가
##ps
##per
##가에
수리
##되었으며
가득
##공항
사이트
오리
했는데
##각을
팀은
##권에
##터는
##화,
##했다가
노래를
계속해서
##연합
정말로
##면을
근무
##//
##병을
사거리
##했으나,
정글
아우
뽑아
1999년
캐나다
##하지는
기독교
소멸
##]]
크리
레인
이스
마주
카르
말한
##니,
얼음
사이의
##.11
추진
위해서는
당시의
##est
마츠
곳에서
선배
살고
내구
##니어
##리나
가문
예술
파이터
##리자
그다지
격파
맡은
세력
공작
##시코
##해지는
자동차
나의
그녀가
##라운
북미
물러
사람도
###x
고급
안되는
##요!
메탈
덕에
붙여
##판의
정도는
통한
민간
울트라
격투
##이나,
##스키
적도
##장인
증명
마녀
수용
점수
##하이
마법사
의미가
3차
해체
##부와
보인
심각한
걸려
##해주는
정령
쓰러뜨
글로
의도
후에는
##서의
거래
정체
##일로
그동안
하다가
01
그만큼
울산
사용하면
##류가
트레
죽는
뒤를
없었던
##자키
##였고,
##구,
도달
홍보
##니의
국회의원
1998년
일부러
07
연예
입단
프로토
그것도
NC
다행히
##긴다.
##HE
관심을
이들이
##면에
전투에서
##기간
지역에
네이버
데리고
##FC
##33
&lt;
##ry
##악한
뛰어나
회전
##리면서
생각하는
하수
신인
때문인지
와서
##lo
##OL
암흑
모양.
랭크
조지
하나인
네덜
아무도
##디언
복잡
##아,
역으로
체포
취소
순식
떠올
스트라이
##로로
##랭크
클리
되돌
사건을
비하면
##스팅
##판은
소프트
가까이
압박
##해,
##워드
케이스
##IT
자리에
##사용
##리언
자원
##64
실제로는
쓰레
##판에서는
##별로
파견
잉글
알았
화려
전체적으로
관계를
오로
아무런
쓰이는
아티
패치로
포인
얼굴을
무난
발매된
보여주었다.
##등급
목적으로
8강
##적의
작용
추가되었다.
했다고
개통
한계
선호
연계
##들이다.
싸우는
갑옷
##리티컬
못할
않고,
##관으로
지금까지
시야
##시간이
##색이
주인공이
여동생
관객
##피스
투자
통해서
##373a3c,#dddddd
선수가
아케
##-12
08
##거운
##실이
02
CD
입수
컨텐츠
대장
순식간에
세워
한화
##'이라고
생겼
수요
경영
부족한
이들의
##시스
신의
때에는
많았다.
채로
출판
방향으로
맞이
얻는
여러가지
첫번째
##보단
43
함정
열차
##인.
노트
고전
넓은
##관에
노출
##유키
쓰인다.
on
돌아오
##호,
뉴스
난이도가
대규모
방송을
##류를
옮겨
기여
있긴
체육
##가락
##학자
or
1997년
교황
##사람
당한
강원
폐지
##오를
방법을
두려
##PU
충청
의사
어쨌
쏟아
빨간
정확히
##중한
리버
문을
##라노
최악의
흔들
기회를
me
##대회
##BO
아닐
크레
에스
돌진
##하시
요새
도움
파이널
##으려
출현
떡밥
괴물
해방
캐릭터의
##만원
인근
1인
의식
##겠지만,
넘는
##마는
러브
##당을
공화국
##형은
프로젝트
몰래
3.
##100
##주,
##시장
크리티컬
테크
구현
변호
교수
##역에
드디어
##체로
본격적으로
쓴다.
06
등에서
##인들은
##널티
##부,
폭풍
프리미
##우리
부진
협력
미사일
있었으나
후지
##ust
중인
불꽃
##타이
##듯.
감독이
하자.
계급
나루
##터리
것이라
조용
깊은
기초
99
단지
걸쳐
해당하는
##인민
등판
##관계
##목을
카운터
64
##톨릭
베트남
제로
Su
추락
AT
52
##종이
됐다.
##코는
다니는
편성
##치와
화이트
##거리는
##메이
연방
드립
신청
기록을
##카를
it
눈이
신규
목숨을
09
##인이다.
이용하여
##티아
아무것도
해적
03
NPC
##았을
유전
의견이
대로
아니라,
##인에게
응원
충전
기능을
영원
보도
유명하다.
##5,
간의
49
대상으로
되찾
딜러
방법이
##실에
최상
편이
그들은
제이
집단
이쪽은
##se
했지만,
쓰면
##머리
통신
180
카나
##브리
##ore
견제
대립
##아파트
중.
##자들에게
못하게
##브를
...
##것을
스마트
단점
아일
가능.
##한국
수집
가이
##소에
##부르크
없다
행사
is
전라
##율을
##효과
테이
부분을
##까지만
이뤄
그에게
있었는데,
했을
##라기
##시설
성능이
되는데
필요하다.
쪽으로
31일
##파의
##향을
다가
치고
이후로는
아직도
운전
말이다.
흘러
동원
##이었으나
비슷하게
##경이
이후의
모바
말할
##비전
##one
##공의
##색을
##형으로
모른
있어야
옛날
모습은
##의가
##었는데,
US
마지막에
공부
평화
##주인
모른다.
##고의
크루
반응을
무료
그래픽
영상을
뜻은
생각을
불편
매일
만들고
우리가
##장한
보너스
효과는
오스
여러모로
목적
글을
공급
##6,
갤럭
무대
괜찮은
다수
런던
파이어
위원
##되자
고생
어깨
##저히
'이
고용
맡고
##의로
주어
1.5
전투를
다섯
캐릭터를
##RE
##야의
성인
비디오
언제나
토모
수준으로
본선
MS
1996년
연애
쪽이
모리
##미,
##영화
순서
등과
하나는
대폭
혼자서
##:4
##스트라
An
##사.
학살
##해가
노예
##24
없애
만든다.
##책을
브랜드
대체로
##",
##어와
콘서
경기가
##치,
득표
##함에
##영상
이시
나뉘
복수
##:3
사람들의
트위터
30%
##격으로
##가?
마음에
##함으로써
이중
##동의
창작
먹을
##카는
타워
인상
##역의
돌아온
중학교
KT
00
특별한
알파
작동
화장
그와
##해지
##내며
##보스
자신과
양산
##였지만
그런지
##다의
빠진
푸른
주지
계획을
##였다고
##였고
걸린
4년
번호
몸에
드물
자체를
위기에
이후에도
제4
유저들이
##용이
준우
유희
널리
##라이언
사진을
자이언
참전
적어도
명이
##민이
무효
하나.
기반으로
국립
넣어
수학
##공화국
안에서
있었는데
점차
1995년
이득
상황.
이것을
죽여
##전투
##ip
위치를
녹음
임시
##지원
장점
다리
전원
스웨
몸이
마시
##렸을
대략
기습
3위
##업이
마이클
##테인
정류
이날
##크라
##드에서
##하에
제법
도서
의원
추적
오빠
##보가
##주에
##프리
##PG
성능을
달아
있었고
어디까지
고양이
호평
변경되었다.
2배
전직
4개
4,
윌리
##세에
##관,
이슬람
길이
보낸
예선
유로
디지털
주먹
##조는
65
곡을
본인도
그것이
##end
##.25
##연이
##인에
##운다.
차별
사이가
#373a3c,#dddddd
##당에
조금씩
형태의
##자고
##화되어
FIFA
말은
##체에
##ere
##버트
구출
##인인
시기에
##러운
어그
스폰
##타입
헤드
04
4강
##국을
거기다
네가
조절
코드
들은
##사랑
똑같이
영문
##받았다.
그렇지
된다는
동작
##ity
엑스
댄스
조심
##동차
그럼에도
A4
05
레오
진정한
##기지
있으나,
하다
관계가
##링을
Te
꺼내
##파를
##-20
불법
##75
##재를
##데스
세월
##상,
##()은
가드
내는
태어난
행성
시키
프린
곳이
똑같은
##라에
시각
##마저도
##아를
파일럿
De
Ne
파란
##실에서
사토
인공
##제한
제임
##베이
##ath
##:30
변형
익숙
했고,
##무원
타케
노멀
연사
##유가
미츠
##고로
입장에서는
던져
이재
시장
체력을
##해의
세계의
##병이
되는데,
정착
##님의
가톨릭
귀여
189
생겼다.
신성
정확한
마리오
조성
Ar
잡는
##소는
근처에
등은
##인들의
되자
이내
##부대
수영
장식
캐릭터.
어쩌
거라고
##민의
심한
발달
닥터
##짜리
마크
트로
스타일
도중에
##이었고,
어드
의혹
##었으나
##료를
비중이
##??
전형
코스트
취임
구속
##안이
선물
##력도
최후의
예측
##과,
##할수
스킬이
16강
수송
동네
##하였으나
영국의
##들에게는
##비스
1대
때가
##히로
##색으로
전까지
합격
요즘
##평가
권총
##였으나
##명이다.
##-11
고향
이성
##200
##ome
더빙
펼치기
블록
지속적으로
기어
플레
##항공
불린다.
##표를
집어
관할
달린
##당은
막을
살려
어지
##들,
대부분이
##.01
##미와
##름을
##한의
간다.
정도가
생활을
##시절
공격에
5회
근육
BGM
SN
##메이크
4회
AI
페이스
아머
##았다고
##65
유령
보이고
##당하는
등장했다.
크로스
메카
있었다고
지니고
붙은
MAX
어떠
5년
곧바로
매니
1994년
파라
되었고
역임
아버지가
##교의
박근
오랫
##법이
중국의
단순한
수사
부터
낮아
크고
##슈타
##뿐만
여왕
마도
##로나
##냐며
##%의
넘겨
##주면
##쪽의
한마
##MA
승격
출처
플랫
합쳐
업무
##미니
전쟁을
언니
김영
이후,
주변에
판타지
##이긴
빠르
2010
레전드
예외
적극적으로
사용하여
모으
하더라도
팬들이
신설
검색
##씨가
접기
이거
괴롭
##산이
##함과
58
평가가
나를
펼쳐
내의
소리가
모두가
무언
##구와
##권은
공개된
활성
자신들의
오늘날
차단
대미지를
9회
서서
##쟁이
가졌
몰려
극단
팬들은
국가대표팀
막기
##중인
이들을
않았던
##홈런
파트너
-원
잠수
연상
종점
##양이
##내기
너무나
##등이
편의
##우,
##역은
##사업
초창
거리가
##age
쿠로
##조리
##레나
##ect
계약을
중에는
존재하지
어둠의
규정
##IS
FA
식민
##담을
대항
추격
무엇보다
리메이크
상품
에드
그랬
기억을
##7,
##'에서
일본어
AC
인수
포탑
##경찰
구해
줄어
##데다
스카이
마리아
반격
어떻게든
생일
플레이를
##관리
##마이
스파이
판정
##무기
이루어진
고백
목격
다이아
3D
-명
주전
소화
지나치게
절망
##전차
위험한
MC
##22
##술사
소닉
기원전
커맨
2011
MVP
##리우
동방
##론의
요괴
##자면
전면
##지않
##영이
아쉽
등,
1990년
##"는
##킨다.
##소에서
##실한
##호로
높이
의존
압도적인
국방
##II
외부
라이더
진지
##야구
부상을
##.02
밖으로
##티드
저장
##개발
보물
타이거
##다니는
설정이
##이었지만
##되었을
않아도
반발
박정
없으니
##니다!
##린의
##마루
일시
긍정
하나이다.
모바일
##ire
전력
예비
단어
회의
##석은
자가
없으면
##츠키
##야.
클래스
##당히
이전의
##분의
유행
##했었다.
##동으로
##터테인
##스톤
홀로
저그
3대
작중에서
유대
법률
##츠의
기점
##나라의
나타난
##도르
##인간
##둥이
불가능하다.
지역에서
##국가
일도
능력은
특이한
후속작
##편의
탱커
방출
본작
##하라고
그로
게이지
##린이
와이
스튜디오
갈아
지역을
사운드
##BA
외계
##드립
##환이
##버리고
최다
##하면서도
##전,
마법을
장수
유형
기능이
결성
포르투
코미
##당했다.
##amp
통상
현지
##토는
히데
가깝다.
##디로
의뢰
오랫동안
스티
전후
한동안
작품의
되어서
##og
중계
심리
창조
대상이
서양
##현이
아바
느낌이
모여
입력
보여주고
정치적
##-8
다룬
베스트
출신의
##66
##tt
##교를
윌리엄
차라리
##유를
침공
##://
곳으로
##학적
##류의
마침내
##슬러
써서
##~4
2부
성적을
THE
아름다운
지어
오사카
##되었다고
통제
용의
하필
##노가
성격이
하야
프라
결합
예능
##으론
지금의
##디가
##웨어
##.03
41
주의.
##하기는
구성되어
##연을
상향
##었기
베어
##연의
DLC
자매
##어버린
블러
##세요.
##ide
전함
신고
현상
보장
강철
청년
##번에
폭주
남겨
##방어
대표팀
##사령
8회
##회사
협박
상호
중에서는
##ure
루트
##했는지
##으려고
버려
저녁
Le
##ime
최강의
무적
필리
##설을
착각
들이
대만
구멍
##ID
##곡을
##해서는
주기
Me
이집
##령을
다루는
##당하고
치명타
일본에서
##군,
승부
##()는
튀어나
부른
나와서
감시
맞지
헤어
가속
##편에서
##네가
##구치
'아
##들과는
##트워
##기업
##역이다.
쫓아
##라!
시켜
실력을
신기
제2차
##과도
말하면
순수
있기에
##군으로
##/4
끌려
잡을
감옥
외에는
##배를
많아서
죽인
아리
##OT
이어지는
대처
합성
##어리
고등
간혹
학원
##ake
찾는
쓰기
어쨌든
##세로
가볍
기술이
##감독
구체
대사를
대화를
##었다
제5
##진,
골든
정복
56
경기는
Se
##더스
끝나고
총을
호텔
##르지
알렉산
처벌
외국인
54
콜라
적대
잃은
안내
받아들이
생각이
##통을
선출
엄마
않는다는
커플
스웨덴
이끌고
##번호
##ark
소수
어디까지나
싸울
##'.
무덤
의료
이주
로스
내놓
독자
세계를
아니냐는
##일드
다수의
날개
##물에
##파이
강제로
사용되는
##버려
나나
한국에서
접촉
쉽다.
이지
##실,
주말
이리
했다는
##28
박근혜
마인
##소한
59
##금이
##하는게
향상
보일
끌고
##타와
자는
규칙
전화
초등학교
은하
생각하고
작사
둘째
##니와
##었으며,
##크,
비슷하다.
인간이
우리는
태어나
역사상
했는데,
플로
##OM
##계에서
한편,
##다'는
맞은
1992년
죽음을
##리에서
말아
##노의
##식에
##명한
##아는
##안에
##만큼은
힘으로
##77
##하거나,
##하고자
##노우
좌우
##당해
##리얼
AK
만났
##판에서
성립
올린
노르
이란
무렵
이끄
인하여
김태
##던가
결과를
밝혀졌다.
독특
마음이
한자
가고
##신으로
일으키
미국에서
미스
감정
##심으로
3루
드러나
##페이
방법은
자치
##았고,
관심이
##ES
마이너
누적
무작
##량으로
브루
지원을
##법은
실버
어두
헤이
##세요
##그래
2기
나름대로
600
##ite
정지
자신도
훌륭한
디버
니시
편입
##한을
아가
소형
##시키기
경향이
##iv
까다
사용해
생각보다
1993년
화력
남아있
He
WW
똑같
포스트
영업
6회
요코
##환을
##ound
##38
갤럭시
일제
메시
##보기
노부
인형
##인지는
##이게
##르를
깨닫
풀어
사용된다.
희귀
지금도
##재가
이치
어릴
##OP
했고
##민주당
주었다.
의미한다.
##실로
속하는
수록곡
동시
상업
##"를
청소년
네덜란드
마구
##oy
전시
사용하지
정확히는
##현의
정면
##ge
수십
무기로
강남
애플
위치해
##지고,
##'t
강하게
웹툰
##니는
##하려면
Be
##비에
DJ
막장
##파가
KIA
융합
##산업
독일의
##된다는
##줘야
프로듀서
은근히
##소리
##들.
수련
5개
##점,
앞두고
##주지
##묘한
##명에
##피를
##iz
##소로
더더
것만
Lv.
없던
일찍
스미
##재로
예고
##야가
##UN
출장
이끄는
옷을
안티
##림을
##치며
##구려
##산의
세상을
##당한다.
캐릭터로
극복
대원
연극
팬들의
그것은
##이었고
7회
##바라
사람들에게
태그
#ffffff
기본적인
kt
흥행
##크와
##석의
지내
##론은
CC
플랫폼
88
##막을
카를
들어간다.
적응
##ess
##.05
말로
이길
웨이
훗날
지능
김정
##되었는데,
중의
다들
마왕
폴란드
소총
##등의
##미네
##AD
전에는
##익을
2세
##였다는
반응이
아빠
등장인물.
피격
제어
##전과
스피드
태어났다.
사용하고
##에다
몬스터를
찾아가
있었기
챔피언스
멕시코
검사
환승
##자치
##사회
##코,
더더욱
이상으로
관심
##화와
탄약
##친구
피를
##미터
할아버
##종을
my
##용을
맞게
멀쩡
당신
경비
5,
##단과
##졌고,
2017-0
57
개입
안드로이드
##경에
접속
##국은
##조차도
은행
##투를
역을
나아
##OW
카타
갈라
##색의
발매되었다.
원본
각본
특기
유사한
대하여
하얀
대개
##물은
##영의
사랑을
AR
부품
테란
슬롯
##초간
감사
불가능한
인물.
GT
레코
게임에서
66
팬덤
##이었다고
##.08
##랜드의
##심한
블로그
들어갈
코어
##하였으며
물고
##망을
새벽
나눠
브리
"아
이즈
어른
별다른
##하겠
태평
의무
##관에서
내세
##보드
장면을
활발
박사
##~20
연관
##문은
##트릭
물을
과정을
##학의
전성
저주
전형적인
테스트
관계로
##정,
188
##다면서
##테이
경험치
1991년
인터뷰에서
달고
사라진
상황이다.
방사
멈추
##도에서
##로봇
##sh
My
랭킹
다음날
제작된
Wh
##기까지
##즈,
일상
##9,
그들이
+2
해병
##음악
무릎
성공했다.
##안의
당해
이민
어떠한
공군
까지
장교
##포가
이정
트윈
##드레
참석
미술
레벨이
이외에도
서부
금속
내리
##학,
다를
결코
죄다
들어갔
대충
버리고
##유럽
##ud
SC
문재
2대
경기에
공격하는
##이트를
##비트
##ame
절대로
##경의
##OC
##화한
개방
2층
##번의
헌터
이외의
준우승
리듬
있다가
오전
갖춘
##전대
명령을
##다시피
스톰
##국에
전철
갈수록
##다란
사건의
##라이트
##ord
한참
트랜
경우에
죽음의
##즈와
정도다.
Tr
방에
비트
##oc
UE
분위기를
토론
과거의
##대장
SD
오해
직원
연도
아니라고
##-7
검찰
##등장
헌법
바보
싸움을
##팀이
3인
적절한
매년
##코와
잡혀
가야
##모델
2의
개혁
##츠가
##our
교회
보게
with
디아
들을
메타
##LL
보며
채택
##코를
들어온
##선,
##실의
실력이
HD
스코어
##가시
칭찬
막차
것인지
도발
세종
##36
약간의
캠페
나가는
죽일
'그
원칙
##라엘
250
##령이
캐스팅
기자
우연히
##시험
자동으로
##공이
적혀
##.09
##는데도
수준.
1기
아니었다.
스트리
전방
##비로
김민
스태
페이지
##여자
가문의
루시
##맨의
이글
퀄리티
##이기에
Al
써먹
##.07
85
형식
꿈을
싫어하는
평이
따르면,
그라
분위기가
미카
##버스터
##지인
점이다.
비례
불을
같아
짓을
##px
##키와
##기나
덧붙
##중앙
##34
##당할
##나카
##다를
체계
아니라는
##로와
작가가
상태.
남부
슈팅
##으러
카드의
부서
전멸
##메가
그들을
우수
SM
2번째
##"이라고
만나게
이영
72
개막
그건
##'은
##com
어지간
IS
##버그
이라
아들이
몽골
김종
치는
##느라
##집을
아버지의
##받을
구사
##없다.
키리
##일본
##상한
##ance
##ix
보관
시달
##토와
첫차
##.04
밝히
과연
편곡
버프를
보너
##자도
대표적으로
벌어진
이상을
자랑한다.
유저가
병력
많고
노란
오직
선생님
출마
반면,
덤.
보유하고
이른
##"의
이제는
##레이터
##양을
나쁘지
제임스
왕의
사후
보안
##ice
공식적으로
##렬한
##러의
##ok
하니
날짜
빛의
보지
사람들도
내장
68
선수들이
어마
의미로
스마트폰
##%를
시즌을
후계
기병
열쇠
되었다고
자식
위주로
동부
사장
##하라는
이루어져
1학년
매직
남북
모양이다.
##ick
맞서
##명과
##'와
입을
과거에
시절의
회수
정찰
추가바람
유나이
포르투갈
##-9
##했습니다.
##마스터
##ax
가능성도
세계에서
뒤에서
##마에
패션
집에서
알리
##번,
있어도
모조리
자리에서
임무를
베네
##탄이
김동
##배우
클레
프리큐
메뉴
##구역
##어요.
##소,
공화
비싸
-위
1세
30분
봐야
오스트리아
심하게
재사용
휘두
##루는
장악
채워
##으로서의
와타
##다나
네오
카라
##증이
자극
바깥
보라
행위
##데이
챌린
방법으로
##았다는
##가고
UEFA
##티나
아쉬운
##하가
군단
믿고
대사가
##로서는
드는
##되었으나
환영
위치에
##브라
시즈
물질
##수.
##단지
##되어서
##약한
##pe
가을
수수
110
목소리가
크기
뜻을
있었을
빛을
학생들이
Go
발생한
##%로
##서에
완벽한
##하자,
기분
##ww
스타크래프트
주인공의
3학년
현역
정신을
##러를
작품을
PD
전체를
##렸던
손으로
폭격
동굴
잠재
Love
de
거듭
##비와
명확
소식을
##.06
쓰레기
왔다.
잃고
박스
JR
출입
카와
51
데이비
##오리
피해량
하락
좋을
한타
셈이다.
신앙
##리케
자리잡
나타난다.
시스템을
카미
##것은
이라는
재판
현재까지
##하기가
전진
##포로
허나
##되었다는
##{{
##커가
하트
##스트의
잡은
##카,
##39
재현
여신
이전에는
하거나
확인할
보이며
##급으로
자세히
되며
부수
감안하면
SKT
사마
##니를
모래
##링이
개시
유니폼
머물
1988년
##사무
##률을
잉글랜드
결과적으로
프라이
가스
##츠를
올리는
곳은
플레이오프
신이
관중
##프와
##노스
##주와
##봐야
일방
챔피언십
나이가
좋게
죽어
##건을
별명
시그
내보
저작
거리를
SR
##계열
정체를
알바
밸런스
전쟁이
연락
##na
로그
##했다면
증가한다.
##호와
##였기
기울
병력을
EP
회원
눌러
1989년
캐릭터는
##에서,
##오고
어려워
##단체
##사우
##ber
둘은
귀찮
지형
맞다.
가짜
금메달
아즈
##own
이명
제갈
무방
어린이
공공
모모
전공
않도록
강요
##선과
터뜨
##EM
올랐다.
이닝
가격이
스승
해상
추구
##종은
세르
영구
메르
##파로
라이온
정부의
목소리
##맨이
##야,
##PM
미디어
0.5
4.
##쿠라
##욕을
언급한
명을
프랑스의
##번이
##계로
GS
전의
얼굴이
조별
##그라
3연
##스트가
처형
##주민
배트
##속도가
충격을
2000년대
피아노
##qu
오래된
내지
##인들을
2학년
대회에서
있었지만,
95
신문
작가의
남긴
##리고,
스톤
장군
##마와
전부터
##lay
적합
아일랜드
통산
캡틴
유닛을
네트워
##가.
북쪽
##석에
잡지
##위,
##것으로
##씨는
##퍼스
가사
물론,
목표로
외의
##해준다.
메리
것일
상급
##상과
단편
##졌을
넣고
##자이다.
##68
##시고
##av
##생을
##프,
의지
게임에
승객
색깔
남쪽
##국제
몰라도
##동은
스틸
야스
때에
##교회
OST
기록한
간신
##정과
800
2008
집을
98
##old
감독은
##검을
놀라
되며,
할머니
##작을
비주
##조로
##때는
눈물을
##방향
구글
카드.
지식
아마도
있었다는
1층
단단
##인도
버린
##보로
오카
##바의
깔끔
##NA
간부
##은,
빠져나
이용해서
##위키
욕을
클래식
유치
지나가
배우는
비싼
인원
탈퇴
##orld
들려
보존
계기로
2009
스프링
중독
돈이
##레일
##셔널
##장갑
##한이
이스라엘
혁명
아크
만들기
관측
유효
문학
##하겠다고
공개되었다.
##세한
가라
노리
아파트
분위기
##s,
##에겐
##US
넥센
차원
신분
62
##실점
그러한
{{{
카메라
CPU
포항
##우와
드림
된다고
화를
홈런을
##ng
헤비
나오기
찾기
관찰
등장하지
사망한
있는지
부문
##인들
77
##율은
군대
당하는
##.18
서식
53
사우
##포의
어택
##진으로
아이를
1군
##생의
파리
##타운
Ro
포함되어
##커의
챙겨
공격할
당시에
터치
발언을
농구
마드리
주간
이번에는
레알
한다면
기용
사양
삼국지
종목
이식
코치
컬러
밝혀진
트라이
##받는다.
떨어진다.
천재
구원
머리가
확대
##서로
##임은
한정으로
몰락
특집
비공
쿠키
##오와
아이스
김재
단점이
개정
없으며,
##각이
뜬금
볼넷
리가
멜로
##ont
아랍
##/h
##비,
핸드
[ruby]
동의
##게이
나아가
최신
즉위
영화이다.
조건을
찍어
효과로
수준이다.
숨겨진
##후의
고위
##ies
아파
##통신
군주
##언이
앉아
한명
후손
나중
##적,
성남
상상
##.15
##직한
##여객
하나도
##이면서
76
뜻하는
무시하고
이은
그러자
물려
않으며
##모드
싸워
스턴
휴대
아메리카
급격
##EX
합체
아르헨
플레이어의
이것도
의미를
강하다.
##110
마술
날아가
##투스
챕터
초반에는
일명
어째서
넣는
업그레이
##~5
##었지만,
##았고
##제와
맞으면
늑대
##족이
사카
##았지만
160
해안
간주
인물이
##차는
##pt
수출
##있어
선전
##"을
후술
레어도
자체의
식물
##일보
시대의
트럼
바꾼
K리그
Ex
이용하는
미군
이상이
##터미널
##방에서
국왕
##되게
느린
사막
사용이
모르고
것으로,
##타,
KO
도구
##그리
블라
떨어뜨
통치
한쪽
성능은
않았을
##랑이
왕이
##체육
고작
몰랐
드라
##됩니다.
팬들
다카
130
##커를
느낀
##나서
올라온
책을
경고
제작한
미스터
##번을
##-6
아쿠
##27
##제국
타락
독특한
동쪽
퀘스트를
마력
있음을
달리,
시너
자폭
위장
잡기
##결을
주변의
전해
##구에서
##주기
##법에
##희가
##저의
죽고
만날
결과는
약점
김대
거기서
##21
##버릴
##중이다.
##아와
게임은
아시안
적당히
식의
KBO
찍은
##하를
##요시
##관과
진보
부상으로
비판을
라운드
이어서
근본
상술
이미지가
캐논
##망이
메달
블레이
##년에
세이버
Un
생략
##어마
느낄
##두는
78
탄창
##치면
버렸다.
저렴
1부
글로벌
들여
##현,
직전에
고구려
##린은
세운
관람
살펴
다음에
육성
##되는데,
남녀
또다시
에너지를
선수로
다닌
별개로
무관
연료
##OD
양쪽
것,
매치
그러다가
##시피
##리포
##디를
1980년
커다란
인증
수도권
제정
초기에는
오지
수업
점수를
##으로만
드리
##io
##98
루이
되기도
추억
74
움직이는
##질로
카트
이나
그러니까
발행
##유닛
##군.
건조
사전
아틀
빨라
이겨
이듬
##들과의
아이콘
터키
잘못된
##세스
환상
범위가
##통이
중립
나폴
재정
미안
아테
##요,
찾을
구성된
작품이
##씨의
피해가
비상
##네의
처음에
일어났
시절에
새끼
##하더라도
##자나
화려한
##린을
##실은
보여주며
아닌가
부딪
시작으로
무척
신경쓰
저런
포스
##들만
DF
간신히
우리나라
북부
레이더
민주당
곳을
고문
했으나,
##지?
##있게
없으며
지시
##끄러
wh
##사거리
##약이
정부는
##로워
폐쇄
주제에
시작된
##제,
1987년
##저가
장전
기록이
##-15
##ET
##훈련
존재를
##졌고
예정이다.
카드는
버린다.
특성을
##천시
LI
초보
##디의
##션을
너의
기록하며
##싱턴
##백을
##력,
손가락
코믹스
##이었기
그렇지만
2020
용도로
개량
수류
##박을
##레가
후반에
호위
화가
시간에
가볍게
##+1
공격력을
위반
않았고,
##설이
MF
떠오
멤버들이
##거를
##/10
가시
마그
##하마
##죠.
해주는
##졌다고
제도
판정이
곡명
총알
##과에
가치가
##테르
위대한
곳곳
주둔
도끼
##네.
인구는
공성
##만,
당연한
제출
##차례
##MP
발생하는
##고에
##패로
패턴이
게이트
##되었지만
##였을
아니고,
곤란
서쪽
의견을
##cm,
##고속도로
##이든
가끔씩
언젠
2인
고교
140
Pro
집행
안나
커리어
##되던
그랜드
CF
##VD
We
검을
##내지
##진과
문자
속도를
않으며,
출연한
종류의
어마어마
합의
사냥꾼
미치
침략
덤으로
공룡
실망
지역은
액티브
##발이
도주
자전
코코
##먹고
일치
니콜
이미지를
##"로
클랜
mm
토끼
##조에
##구리
WWE
의문
망가
않았지만
관련이
##양함
저질
이펙
보석
그림자
국가의
부분에
죽이고
리얼
##돌이
시드
##었으며
언덕
##바닥
sh
67
마다
성별
새롭게
##경은
##야만
숙련
##95
##"이라는
##공사
사쿠라
##/1
자본
음악을
격추
지불
골을
가만
없지만,
##들인
##수사
대부분은
##생이
받아들여
체결
집으로
차지했다.
##탄의
##세.
##보이
이혼
##속에
포위
하나씩
다스
##모의
정부가
후배
오버워
부를
##내가
후에도
동성
생년
효율이
언더
##사이트
아티스트
처럼
네임
완벽하게
치유
##Hz
간접
흡혈
##포인트
##IP
사람에게
##들보다
이듬해
1라운드
부각
귀환
your
4대
##후반
감정을
불렀
취급을
무지
페널티
##rom
죽이는
화학
다음으로
영토
토벌
곡이
##병원
난다.
아케이드
주사
CV
합병
걸고
아카데미
##산으로
불교
확실한
크리스탈
##플렉
일이다.
금융
있었으나,
나오면
늘어난
프란
##900
타겟
I'
##타카
한국에서는
면에서
침입
초중
진짜로
구하기
티어
##비디오
U+11
원인이
##판으로
##미나
##문학
It
무기는
카오스
넣은
##프리카
소드
차가
방지
브로
##하자마자
정차
##인한
###x11
하차
방송에서
아이언
정도였다.
##out
멘탈
소위
6,
##능력을
이다.
기숙
4번
##시에는
녹색
##단에서
명칭은
비해서
문재인
소지
빅토
드레
얻게
##경제
농담
아래에
성공한
한번에
우수한
##현은
##습을
일으켜
문서를
윈도우
##필드
전주
대우
전투에
187
무기가
##%가
양성
전문가
CJ
수준이
##디는
니코
##까진
금방
정수
유통
##편에
사회적
##ave
모를
유저들은
##러니
##기록
대통령이
##성능
속한다.
##국에서
사용하기
성공한다.
유발
편이라
해피
##거리를
2.0
유닛이
히카
불렀다.
보면,
타자
##조사
승강장
SH
##된다고
라이프
##였는데
전반적으로
##공원
떠난
입장을
후보로
늦게
않았고
전체적인
##팀의
키워
##26
연속으로
기뻐
##야는
열어
떨어지
##듯한
강의
되었을
##영은
좁은
뮤지컬
클라
부임
함선
나면
추종
##아리
##다리
##ream
올렸다.
##축구
냄새
##ond
친구가
##에서부터
##슬링
존재가
두려워
마키
자연스럽게
체인
그레
휘말
엘프
거울
##였으며,
당일
##왔던
나타나는
##기에,
수술
최소한
세포
크리스마스
##렸고,
##감한
##ile
아미
##타자
시작하는
4위
##범위
패스
사랑하는
생기는
##46
바이오
발생한다.
유력
장비를
거짓말
##장전
1986년
전투가
듣는
양의
갤러리
잇는
임대
기믹
작업을
##냐?
측정
잔뜩
##디움
되어있
1루
답변
가벼
쉽지
##팅을
목을
프로필
일원
데에
##개,
1만
디지몬
##ian
##러는
올스타
기관총
##ION
보완
횟수
반사
중,
##사이드
둘의
##우기
호흡
##동과
Gr
that
##부장
언급이
숨어
##열을
상영
##발의
일어나는
다이아몬
난입
지뢰
##세)
영상이
##함.
##되는데
가지는
플레이어는
상관없이
분명히
1:1
##편이
##드러
##버를
##님을
사건으로
선두
총기
##슨은
##무장
##레를
따온
자격
##가리
##체인
보다는
왕자
대미지가
호칭
마이크로
보냈
고스트
정황
생년월
##필더
##LE
데드
이유를
김현
##브의
##29
인디
초록
##받지
하나,
##우지
발라
음성
##iss
들면
무서운
##작이
##슨이
끝날
시에
받으며
나오는데
##렇게
토너
한글판
재밌
##해질
유독
자녀
##슨의
진압
별도의
보여줬다.
멋진
물건을
알아서
마법소녀
차를
생각해보면
##브가
수를
브레
대성
##즈마
스플
시스템이
설정을
삽입
시상
시대에
##예술
심지어는
##rd
플레이어를
그러다
알겠지만
##사관
##아시아
스페이스
나선
발렌
186
AM
뜻이다.
증언
운영하는
돌아와
최근에는
혹시
틀어
동양
##키퍼
수백
먹은
익스
1장
신라
곡은
사살
라틴
이끌어
##가며
포트
##.00
영화를
티켓
##로써
뛰어넘
군대를
힘들어
등.
결과가
피할
##츠는
닌자
##ost
101
발표했다.
어딘
##SP
돌입
베를
정식으로
##시하는
##르와
##면이
올랐
##클럽
##-19
오마
눈물
일종
위력
활성화
+10
말하며
1승
##루,
##발로
죽는다.
주인공은
##더라
일으켰
호주
미쿠
##"고
미드필더
없다면
콜라보
형사
##고한
##히지
가치
해당한다.
공격으로
저택
##.20
데몬
3번째
투어
##면에서
2연
시노
느낌을
돌아다니
대대
아래의
요소가
가지게
매달
##카오
##웠던
가려
묘사가
##급을
걸맞
밀리
경상북도
##으니까
##블로
##커스
심판
정도이다.
##전자
##지기도
마코
기운
단축
트레이드
나도
##름이
나간
맡아
지팡
##300
96
##림이
##급이
점도
대단한
##신교
죽지
##로만
AD
부러
끔찍
평타
집착
##보병
제6
##누리
타는
들어가면
##가서
2.5
행운
요정
죽기
프리큐어
항복
##계는
동일하다.
##55
최우
매력
4차
애매한
리뷰
바퀴
내야
##하나,
##기기
이수
공격은
각각의
오류
일으킨
##하면,
원자
스킬은
예로
칼날
##르,
##44
배차
##대상
아나운
않는다고
##행이
주장하는
어뢰
현장
삶을
1명
##역과
##지구
인물이다.
얻었다.
##네스
##ace
##공간
##단,
의해서
##s.
##나가는
연금
상태를
전신
투구
시절에는
##다"는
곡이다.
이긴
길드
다리를
데다가
세인트
디젤
주식
Com
장면은
##ov
##바나
##ory
왕국의
개설
##석,
심장
깨달
속도로
얻기
##-K
입장에서
배포
여객
##종합
같지만
영광
##man
##ph
스팀
##주었다.
2007
##바가
방식을
아버지는
유저들의
##나이트
텔레비전
가르쳐
##진에
우크라
##해지고
귀여운
갑작
##였는데,
##마크
##침을
##빌리티
1분
##;&
##치면서
시절부터
철저
##'과
준수한
창설
##소속
##률은
##민은
##,8
##영을
공격한다.
공허
맛이
##노는
생명력
##비한
##ear
제가
##이었으나,
평을
칼을
##리에게
고수
##음.
1985년
상처를
이하의
전체의
5%
실종
부근
##왕을
##네시아
마케
머리에
오디션
##저럭
##라고도
체크
##이었다는
##인민공화국
화성
2006
##이라고도
세대
어두운
소재로
면이
쓰여
되지만
워싱턴
당신의
##족을
##......
##복이
팀에
##:10
먹어
신화
##곡이
타쿠
불펜
##럭저럭
곳이다.
대리
내고
메모리
또다른
##국으로
드럼
강등
##희의
드래프트
본다.
전체가
미네
동남
##주교
나은
##카이도
말하자면
트럭
천안
##가미
##oth
##례를
이슈
##렸다고
프레임
##합이
당했다.
확실하게
질문
답이
##경기에서
출연했다.
##:20
##신과
지휘관
합니다.
##IG
높게
피에
전설의
지나지
탐험
출시된
##시스트
기술.
##DD
정통
제7
나치
##버전
그럭저럭
인민
업데이트로
인간을
그랑
않지만,
민첩
쪽은
선고
##무가
생긴다.
태평양
AS
단행
##-16
적어
기사가
##데다가
파르
완전한
우리의
왠지
LC
성을
작품은
##해보면
말하고
##국민
##점의
발을
세븐
사이버
화물
re
##하진
##.16
##다"라고
##조직
##전한
이종
LV
##건이
실수로
특징.
아저
##환의
속의
빼고
파생
##주일
##계획
##습니다
요구하는
이젠
보내는
갖추고
로얄
회장
##소와
97
##ys
으로
##란의
중세
사용했다.
없는데
##는지는
조연
##-S
1984년
63
어머니가
상륙
스텔
##온의
차트
오랜만에
현상이
닌텐
시라
개발한
시간은
나츠
##브로
엔터테인
제외하고는
간단한
당하고
##의의
국민의
생년월일
공기
콘서트
##2의
불이
정확하게
##;&#x11
일일
차기
##더의
원딜
##병의
##체와
어필
##추어
61
의견도
밝힌
영향으로
##산에
서번
##드래
아트
뮤직비디오
부분.
상자
술을
전북
지은
3000
로버트
세상
창원
##마,
수익
주차
사용된
빌려
##달라는
##상황
##전문
경험이
과도
##후에
후퇴
##너가
##되지만
상기
날카
코멘
부인
승점
끝났
문명
한반
하나만
삼각
비정
##pp
발굴
베이징
무라
이용할
바닥에
1~2
##파는
에르
##전설
대지
밑에
형식으로
by
##키아
경우엔
대거
막는
시카
의하여
##머가
두들
##리스가
상대는
미라
특징이다.
속으로
2~3
낮다.
##sp
노려
지칭
##인데도
간단히
생각할
콜로
##열이
69
들어올
##음에
##함은
사례가
##와도
사이드
##바르
보이지만
##시타
커녕
##23
부분에서
무시무
땅을
기지
배출
##ale
1500
##산은
마비
##위해
갔다.
상대에게
##TE
샌드
2021년
읽는
모양의
키가
터미널
우크라이나
자막
넘어서
폭력
아니라면
선제
시작되었다.
##든가
##영,
세계관
##이자,
타격을
트롤
비교하면
복잡한
##숙한
코르
코우
변환
올라오
웨스트
많지
##속이
적중
여담이지만
건드
철거
##TS
크기가
한국인
구별
##aw
유나이티드
개별
##령의
##크스
태도를
형태를
부가
##집이
위기를
##머스
이라고
##ike
퍼포
##IM
##섰다.
일부를
자라
사유
시즌에
##거야
만남
다녔
##기능
##관광
해골
사라진다.
세부
가격은
##합을
새겨
블레이드
##야를
##용의
장점이
히나
최하
유격
누르면
##OU
신호
##더러
한나라
구할
도둑
음식을
무사히
##살을
마법의
전까지는
골키퍼
유희왕
2:
##면의
##군에게
완결
##레의
##이었는데
경상남도
더군
3개의
연맹
회차
마약
천사
부스터
캐리
##,000,000,000,000
낫다.
페이즈
##온이
레이스
약탈
아끼
오라
인종
##형,
이벤트가
이벤트를
창단
2군
필리핀
특별히
일행이
블러드
위기
와일드
##정도로
노선이
##.17
유리한
드롭
책임을
막내
필살기
걸리는
침묵
얻고
##씨를
인구가
상의
전작의
##품이
##루와
##박스
##로마
##하다면
아기
##월드
말자.
##XX
있듯이
##irl
된다
커피
##위권
있었으며,
일로
에그
간간
##orm
괜히
한데
1990년대
당신이
악역
ED
코리아
가동
배경으로
브레이크
##반의
건국
뜻이
요약
##매를
병원
대인
15%
##.19
역사를
공연을
무역
적지
버그가
피터
##/5
시리즈에
감지
왜냐
##닉스
##있고
사라져
모니
향한
서서히
배를
허락
##VA
기회가
실수
그러던
반박
예언
용인
2라운드
사건에
사라졌다.
타마
##나고
교전
오타
와중
높고
##리다
700
조조
트리플
##건의
##곡으로
하이퍼
결말
보충
소속팀
일부는
##이동
##하길
장치
SNS
중첩
##캐릭터
##협회
##되거나
비주얼
##번은
기회
심심
닮은
팀원
##ook
피가
나오는데,
무산
위력을
##나?
곡의
소속의
##저스
##버가
팬들에게
##나간
브라운
백작
넣을
진심으로
고객
1.2
##미로
모습도
법정
##산시
25%
소요
엑스트라
##~6
영화의
Br
신도
의상
##미에
팬텀
시위
##인치
5.
나라의
##방으로
##고도
교사
##배가
##경우
취득
##더가
185
##ial
대상을
페이스북
##ink
실드
여유
##블린
##ows
특수한
목소리를
경남
##연한
시작하였다.
##로에
서구
후기
##8,
줄어든
태어났
사도
히로인
너프
파는
박물
##졌다는
##하하
올릴
매번
모스크
갈등
##이었는데,
동계
##코어
무인
엘리트
어드벤
끊임
용서
주장했다.
주장을
플레이가
노벨
##줬다.
진실을
##졌던
##아아
오키
##반이
언급된
야생
얘기를
##슬라
평양
##타수
##레인저
기가
공사
##함으로
한국에
게스트
##ish
##바야
##우주
시원
원인
영원히
끝으로
성격을
##되었는데
기재
마블
금액
빌드
부착
어빌리티
##정치
##질의
##보자.
나고
버스터
지키는
땅에
##손으로
ch
관여
임팩
불만을
물론이고
go
##tle
말라고
2개의
근거리
노리는
]세)
업로드
쌍둥이
##오,
슬라이
호감
##키,
치명적인
빼면
히어로즈
대선
해리
##자라는
했으며,
개체
재활
되었으며,
토마
##준이
BL
몬스터가
##감에
선수를
선거에서
호소
##-17
코난
조약
서포터
20년
뒤집어
레지
이웃
##공업
##티스
세계에
##안은
스토리가
기아
긴급
재개
##서야
그날
차이는
##십시오
##어버리는
스즈
참여한
프로그램을
콘텐츠
##UM
더군다나
없으므로
웬만한
대치
##디에
일에
무의
##ob
##47
3세
변화가
잠입
압도적으로
##스런
##절한
유의
즉사
CG
플래그
언데
퍼포먼
자랑하는
##했기에
별의
노리고
당사
무력화
htt
자신들이
##ower
받기
##토,
이룬
뱀파이어
옹호
과목
상대방
##.com
건물을
사태가
초창기
스토리를
스위스
##너의
놓은
풀려
RPG
##ft
풍부
에릭
루카
여론
조건이
더이상
음원
##병으로
메모
유인
##ach
미즈
장면에서
정예
적다.
안양
바가
##보이는
아츠
사고를
무승
실점
동영상
나머지는
포격
##:40
##베이터
##겠어
##주며
주포
2002
번개
배정
구조를
##체스터
7,
직접적으로
라인업
측에서
작곡가
##란이
계통
동기
##히트
거친
가만히
기존에
소방
명백
라이플
Team
아니었
##GE
사형
서비스를
스테이
##르며
둘을
##차별
사용자
프리미엄
##시즈
Sc
여지가
##나기
##희는
비하
돌연
비웃
버튼을
한두
경기장
들어오는
사제
정기
##당과
##소총
1982년
김경
##공학
유카
며칠
##다거나
##겠다며
##민,
다녀
버리는
과거에는
질문에
군인
천연
남겼다.
##ble
기상
##편을
사령관
해킹
##에이
영어판
##영웅
##즈니
매니저
구슬
##오로
##길을
기점으로
시체
장거리
나이에
써야
##산,
작전을
신입
열리는
가해
취향
Cl
악몽
##차량
##택을
헤르
세력을
훈련을
억지로
모노
출력
엄격
수능
슬로
대조
비율
쏘는
정비
1시간
최종보스
##색,
##포르
장탄
중요하다.
Sk
남아있는
##어지는
않았다고
썼다.
안된다.
어리
나무위키
170
&#x
전승
아이러니
호평을
친한
넘게
결정적인
권장
Bl
오염
통하여
##이한
1억
##주의를
시리즈를
##과정
뜻한다.
출격
##란다.
5000
##므로,
이로써
##걸로
은신
연구를
1983년
백성
디스크
카츠
##토니
사립
복구
초반부터
전세계
설정상
돌아가는
차이를
지속시간
나오기도
채팅
##능력이
##줘서
##일리
학교에
팔을
통틀
삼아
패널
달라고
대단히
키스
강원도
자유롭게
구간이
로빈
소송
것보다
주인공을
명중률
##차에
84
##대원
프리미어
했었다.
##소설
연기를
##했듯이
시계
제한이
10분
가죽
인용
Man
김상
부정적인
크림
##계약
감독을
##스레
##경,
SE
청와
아버지를
교과
보면서
##더를
##순위
##하고는
공립
점.
처참
##AP
잘라
##타이어
##하기를
평생
궁금
##우스의
하향
##ex
몬스터의
##니까?
사귀
바르셀
느려
일람
담긴
또,
브랜
##중에서
OP
출간
##키스탄
조롱
주인공인
수치가
스크린
바뀐다.
하에
프렌
##늦게
줄여
DVD
##The
카자
숫자
처음엔
바꿀
싶다면
##니시
엘리자
임신
아래로
나갔
출시되었다.
##달러
부드
면역
여학생
방어력이
듯이
##자동차
법칙
일격
지냈다.
전역
점,
종이
##MS
그러나,
##레어
##하였으나,
##다'고
Pr
신장
고기
##라면서
진학
각자
선행
적들을
체험
##였지만,
호환
##판과
여기는
코토
##31
Dr
새누리
스킬의
인피
##왕은
하계
나갈
##살이
수립
일행을
나왔던
코미디
이토
후원
남기고
축하
위력이
받아서
충성
중형
인물로
##권,
##역사
1턴
안좋
##너는
포켓몬스터
버전은
같다고
##등한
##인데다
경우에도
사거리가
별명이
##리도
##되었기
방치
##공격을
공용
##해준
모로
귀국
##스피
사법
거둔
파울
세력이
어이
분열
##사한
##스러워
##:50
86
##였으나,
노선을
특히나
제독
##리포니아
##되어있다.
##라이브
응용
##네는
맡게
##도서
추정되는
82
복무
##ms
스키
he
선수이다.
끝난다.
기록은
79
내린
##째로
국회
패키
모토
##것이다.
##nt
기후
마감
버전이
김진
번에
항의
시청자
##투표
수록된
##ree
연대
라그
깜짝
돌아왔
시내버스
공지
텍스트
##리즘
아서
##였으며
##[ruby]
##화.
타츠
##스티벌
소식이
좋아서
김기
이득을
중복
인스타
출범
##보의
편에
그림을
지키기
Wind
축제
일본에
##ass
당할
캐스터
너는
된다면
머리카
준비를
1,2
올라가는
밝은
##-18
87
요원
##받았
스트레
##재판
구경
록맨
##GB
많기
선수는
##프라
가졌다.
유지하고
##하겠다는
##!!!
전무
##이랑
엔젤
저지른
나오면서
1집
않았다는
건지
##스도
UN
인접
제공하는
남자가
##피가
##혀서
##~8
##.5%
##범죄
##-B
좋고
치열
##림의
기동전사
한마디로
##now
##싸움
##법으로
때문이라고
동화
##가면
부모님
사망했다.
##리한
패턴을
도저히
억제
길게
분쟁
에반
##.14
##문으로
따뜻
105
주최
리버풀
혐오
##다'라는
##중간
아군의
##대사
##럽게
캔슬
##훈이
변화를
생각한
프레이
좋다고
##동물
주제
배우이다.
제네
혼돈
##천만
동인
##are
오로지
용사
테라
방식이
##..."
클릭
##~19
전화를
철수
상태에
And
배달
For
후반부
##가스
직접적인
속한
메이플
##타니
사용되었다.
이야기는
능력으로
권력
카구
##센트
##3.
##정책
딜을
##란을
##기게
맡았
마스크
터져
복합
가능성은
토요
##천의
##먹은
##전기
대량
선택할
경주
##매치
이상은
나타내는
최대의
빛나는
쌓아
조용히
##어에
##소프트
##회,
##그러
상실
이어진
원작의
존경
ID
1945년
##세서
##렸고
세우
##페르
##인가?
아지
세상에
##400
기둥
거는
그러면
##속의
어디서
중순
시리아
에픽
쓰인
난이도는
손오
타율
##달아
개신교
##atch
LA
아이가
뒤에는
조금만
불명.
파크
혈액
1970년
미래를
둘러싸
계기가
나지
##ool
##란히
##리우스
##-A
번째로
세이브
고마
취약
수직
##ment
아동
스티븐
얻는다.
##폭탄
##아키
시리즈에서
##ug
##yle
서머
교도
요한
##실점으로
죽게
재장전
함대
수월
##권과
앨리스
도움으로
BS
데이비드
##동시
##우라
안녕
농업
가능성을
##변이
분포
##현을
##속을
사야
크라
##케이
##비치
증폭
느끼고
사회주의
##봤자
수면
##중의
기사를
되었다는
정보가
##당에서
한일
들었다.
것이고,
##강의
귀신
##권으로
가상
캘리포니아
자금
유출
##노를
히토
Bla
영역
악의
위치하고
태풍
만나는
예전에
후의
All
여행을
이자
##속으로
##이었지만,
바위
십자
##창을
지녔
##시에서
행위를
그래서인지
얻어맞
탱크
설치되어
##민족
##ING
분해
회상
War
스트리트
##해서,
가난
아인
보정
치면
파멸
입는
하츠
##즈에
보통은
##엔딩
만일
키타
배우,
##하였는데,
아닌,
가디언
되살
함락
자꾸
자이언츠
추방
너를
지목
##바를
선임
결심
##-C
카드로
유닛의
비틀
##시키면
들어가서
##층의
본명은
교육을
##작으로
##치아
##ase
##"가
No.
외전
##ae
뒤늦게
##eat
##지능
거미
정체는
##양의
포기하고
날리는
1편
성우가
있겠
가기
쓸데
칼리
스파이더
캠페인
안타를
투척
##8년에
맞을
##소나
극히
해준다.
##on't
2004
시간의
##외의
말투
엄밀
수의
##하면서,
대신에
블래
모듈
##사도
논의
전파
##들처럼
an
##벽을
##파크
없었고,
##사단
지진
1981년
화력이
베를린
##법의
동반
어렸을
리스
러시아의
##STER
20대
1979년
연타
시의
##학원
엘리자베
막상
담당하는
공장
비극
출루
4개의
##ous
가질
만들어서
##노동
활동하고
집어넣
터널
##구간
우라
유물
왕조
합계
화제가
##부터가
세뇌
스킬로
끝이
##있을
89
가까워
분기
선수권
당신은
Star
가리키는
##장애
2경기
##먹을
데다
##1.
사자
##반을
마냥
##내에
##페이스
알려졌다.
##리.
레이드
보유한
중화민
가리지
##렸다는
여성의
##식과
모티브로
명목
번도
결승전
##백이
##네임
나뉜
##릭스
실시간
편지를
##심의
우월
끊어
##리기도
10개
##션이
##조선
##사고
실질적인
##티를
알레
7년
역시나
##기어
동영
2022년
##절을
상반
대통령의
포지션은
알라
부적
##포스
##프에
사로
##km/h
모터
데이터를
##모는
루이스
흔한
느꼈
못하면
지는
발견된
##미사
???
일렉
##추는
털어
바에
전투기
1980년대
커스
##타마
상태였다.
차지하는
근대
사건은
we
물이
##니아의
제작에
유기
##,000원
입주
##거든
말레이
낙선
외야
결론
엔진을
이세
##용은
야쿠
##서울
방향을
리치
증가,
##고지
벽을
시크
발동할
식량
불사
SF
안으로
##조합
상점
##way
투명
늘려
##민을
되도록
히틀
가챠
귀엽
물에
##85
작품이다.
2005
제트
만화가
##련의
클라우
"어
##이었을
##초의
##호환
자체도
슬라
##법원
전라남도
교토
운이
##나로
스트라이크
않다는
여섯
화력을
##되었으나,
AKB
##화되었다.
내게
유망
들어와
보호막
##스테이지
작년
##수이다.
박지
이르는
식민지
마린
##az
손님
##코스트
트루
125
##박이
일부가
##사기
지나면
##타점
오버워치
##준의
##신,
73
샤를
읽어
우에
##적.
##-14
학력
##67
수여
생길
##티즌
쉬워
악당
보냈다.
New
##곡은
기종
보건
토큰
정상적인
능력치가
구역
배급
아들을
기기
솔직
##/20
단위
실은
진격
##권에서는
##신도
##석에서
3.5
##하곤
##ason
구미
One
LP
상황은
연습생
기술로
스코틀
시로
사이코
##라에게
##ary
##득점
##리아가
##분,
##었다가
여기서는
정발
10대
복수를
##서와
어벤
신데
up
##식,
문제에
빛이
유재
배려
##메리카
계획이
원더
World
육상
찍는
##금은
71
가진다.
쪽에
한방에
슈퍼로봇
##벌레
3명
후임
본격적인
안정적인
딜레이
##er.
일본은
반짝
트라우
오브젝
충분한
일어날
3점
주장이
##과대학
DC
대표하는
##바는
너희
위치가
계열의
##a,
들어갔다.
거론
상하
확장팩
복제
On
마루
진행하는
##하지도
두들겨
지경
아이템이
##히게
도착한
발매일
제1차
##저런
##론가
오크
폐기
주된
지향
함부로
##카르
'오
연령
##저를
오스만
우익
##올림픽
전쟁의
끌어올
날이
부작
5위
이집트
뚫고
거두었다.
여럿
##표가
동경
심사
소문이
쫓겨
##아야
전원이
교장
간호
##번과
매출
비유
##AY
2명
##목이
##지나
증가합니다.
기도
하려고
야간
뮌헨
중후반
제자
테일
##act
##렐라
##iki
나노
싶다고
##4년에
주의해야
스캔
40%
뜬금없이
못해서
##1의
해산
사고가
##강을
1호
호불
##포트
개인의
전력을
집합
##리히
##마일
##연맹
따지면
사실이다.
국정
전남
퍼져
독재
##니까.
벗어
폭탄을
주택
##mer
서로의
##졌지만
사용시
초콜
네트워크
아들인
담은
경북
Gam
저는
유래는
##이거나
##후가
주관
##6년에
##가게
학습
##관련
리드
##-J
싱가
와카
바이러
##베르크
3부
##ai
##카운
스카우
여성이
자의
##리스의
일방적으로
상태이다.
차지하고
앞의
반해
##?"라고
##함의
대해서도
아니기
히가시
폭파
안의
모티브는
별도로
가벼운
인도네시아
175
대동
CS
최근에
##경기에
바이올
느끼는
부동
소장
Part
감독으로
진정
묻자
##노트
내각
##마치
+3
##감은
지워
동해
D.
##내면서
##600
일본에서는
##무의
##ife
무시무시한
나중에는
그녀에게
것이며,
ne
##누스
##건설
모습에
정도를
문제.
낸다.
여기저
너무나도
81
매주
전날
##상으로는
##었으나,
##태를
##터로
##차의
원소
##번으로
제8
네티즌
토르
사가
##석으로
먹으면
막대한
조리
말라
반응은
소중한
##부인
##플러
남는
##시대의
디자인이
국경
성적이
오페
에디
넘어가는
NE
운동을
인연
포획
인터뷰를
막강
해양
##것.
1사
우호
철학
있기도
##리코
##류는
유입
##회복
넘치는
##터널
CH
독점
개척
##잡이
##께서
이른바
##쿠스
서로를
거다.
10만
규모가
JT
천황
상태의
없었고
##ade
포스터
##교가
말로는
배가
오락
모집
움직임을
##적으로도
갖게
리처
##ven
##-09
미루
트라
##어요
올드
실현
퍼즐
##커는
##리칸
바른
선수들의
아베
IN
누군가
사이클
못했던
호남
뜯어
PR
충청남도
드라이브
체제
##자라고
##7년에
인게임
기대를
경악
##시켜서
상세
##행정
##마냥
방탄
즐겨
온천
재회
##통합
##감과
왜곡
공방
이걸로
유적
좋아한다.
사퇴
쿠데
##br
의식을
시즌2
에밀
콘솔
데미지는
쓰러트
어쩌면
0.3
##레오
##들에서
##CG
##미노
충실
케이블
##UP
옆에서
FW
##화하는
사업을
##49
##봐도
남을
황제의
##었는지
고속도로
사진이
8,
서바이
친일
##워즈
세번째
쓸만한
진주
서클
##놓는
##소리를
학생회
연봉
작화
나오게
도적
오스트레일
가요
달하는
드라이버
끝나는
스나이
벽에
일시적으로
길어
입장에선
##리던
##이었으며,
주연으로
올라간다.
이오
##시청
##테이션
##ank
##i-
##스포츠
경력
##gin
부유
##해줄
골렘
전락
##층이
통칭
달리는
장관
##배치
##되어,
집권
베타
##시스템
선택한
##자료
벨기에
방영된
할수
##본을
개를
부르고
주니어
설명을
유혹
무섭
4인
UP
##lect
DE
넘버
춤을
판결
이니
##당,
스펠
둘다
##보호
##런트
##되어있
무리가
##능한
우측
재직
감싸
##무는
##3년에
##일과
##ork
비가
누구도
지도자
그곳에서
하늘을
양자
##관계를
지리
6개
스킬.
학교에서
재건
##사에게
필요는
긴장
오다
AFC
##로이
##수인
만들어낸
조우
적용된다.
규모의
정책을
동일하게
자유한국
##aby
간에
튼튼
사단
##처리
도박
노스
노무
역사가
##책으로
3의
##되므로
손꼽
갖는
거라
평가는
##리거나
##p://
싸움이
받으면
##조,
##우며
질투
##~10
했다
기술은
표정을
순수한
밝혔
##에른
##터와
논리
시,
BR
눈치채
도와주
92
올해의
기생
##평을
##색은
아군이
##국,
다음은
##처를
여의
##음으로
실질적으로
밤에
상대방의
이곳에
되어있다.
구름
##oll
스타디움
등장할
싶지
확산
포스트시즌
##해져서
단종
조언
우르
##볼을
범용
##민주주의
가담
한창
스쿨
##w.
##곡의
제노
차량이
패밀
베테
##룡의
성향이
도시를
콘스탄
##CC
어머니는
6개월
PP
##공으로
좌절
만만
##본부
##'이다.
주목을
##선생
마신
청주
한방
바꾸는
흑인
그중
천천
초기에
전장
영혼을
미노
##박한
일대
로이
Mar
사신
페스티벌
주역
체중
##버스터미널
##oon
북한의
##네이
##터,
무기의
##5년에
##몬의
기분이
드루
번의
마라
GB
##우면
##ps://
사정거리
드문
비스
##문제
튕겨
부산광역시
##내에서
산탄
모델이
맞춘
##마츠
내용의
끊임없이
이순
시작할
모두를
부르며
##앨범
5분
내성
##질은
막고
품고
##hen
1일에
살아있는
상대할
##저항
의미하는
##국과
싶으면
참여하였다.
헨리
이누
##-08
##티가
기다리고
발표한
합동
##구청
소프트웨어
##품으로
싱크로
배트맨
##리아를
이동속도
통계
보이기도
복원
치러
무술
수염
##레옹
AN
수습
차량을
배차간
치킨
##서도
장남
주의할
이겼
트레일러
모드를
간간히
맞붙
지연
##AA
최적
경우를
배드
지지를
짜증
##CE
설명은
전쟁에서
걸린다.
휘둘
##게이트
연쇄
청소
##크리
##미한
플라이
있어,
##해주고
세웠다.
##음은
상한
NH
공격해
선사
##카미
##비행
이유도
##버튼
인격
업체
김해
평일
##렉션
퇴각
더불어민주당
##본다.
시작된다.
코인
볼트
지정되었다.
##파와
짐작
##스:
##-07
마치고
승리로
불태
권력을
##링크
논쟁
첫째
##AK
사랑의
사천
배제
##러브
사로잡
김준
찾아온
등극
틈을
##점.
도시의
바이에른
커맨드
분당
##고리
##데레
패배를
완공
뿌리
되므로
##만으로도
회사의
지역이
##라미
차이로
언젠가
##대문
##집에
##생활을
출신으로
머신
##티는
무소속
만주
##자유
전송
##트랙
영주
소속으로
지키고
##래시
신경을
형태가
상태이상
되어버렸다.
90년대
고쳐
##:0으로
지원하는
##께끼
일어났다.
불량
쓰게
##게이머
##리스는
대변
1경기
'어
##히면
딸을
are
믿을
뿐.
수류탄
크레이
도망치
장신
##프라이
호의
안심
츠바
6년
권유
10초
살아남은
유용한
노가
##나베
이런저런
찾아볼
팔아
지냈
하시
입대
강경
피의
##ox
비율이
반란을
등도
##드래곤
유성
낙하
스타리그
##길이
개성
게이머
다큐
##하여야
투사
모은
##88
구간은
후보가
대수
카스
##란드의
보스턴
것과는
결투
흐름
##가에서
사망한다.
한가
히든
아니지만,
폭행
경험을
##거래
##퍼가
1:
성과를
따르는
최저
커서
##내어
던지는
##형과
용어
기억이
기다려
바둑
초등
##리아는
정해진
Fe
모습.
2편
명문
설령
모델은
불행
도루
스텝
퇴장
기록하였다.
용이
kg
마틴
##경기를
매장
워크래프트
##과가
얼티
기갑
가능하며,
사고로
LIVE
겹쳐
##겠다
##매가
분산
##법인
수석
관계는
도쿠
목적을
포함된
1장을
나라를
축소
정화
시리즈가
누나
##이후
탄핵
상징하는
해명
원시
83
##했으니
싶을
뜻으로
당한다.
걸그룹
쳐들어
나폴레옹
마을을
정류장
다닌다.
하반
교차
다이아몬드
입증
부르기도
되었는데,
##.24
창립
##2년에
이번엔
불의
순으로
슬레이
##베리
힙합
##0년에
##초를
##복지
시마
자전거
##혹한
것이기
싸운
조회
전쟁에
5번
듣는다.
내리는
+5
않았기
속해
##령으로
##지만.
OS
##디스
94
단행본
설명이
정신이
벌인
즐기는
피부
##으려는
진행된
잡아먹
##클래
그렇고
이곳에서
##티의
20세기
위성
천천히
시키는
약점을
반지
##결승
경직
개념이
##킹을
##보지
플래시
느리
우위를
##도리
##면으로
로즈
##포는
시종
이어져
공헌
여자가
##환으로
##행위
##00년
지구의
##9년에
손이
##으라고
스핀
취미
우울
##분으로
의미는
뿐,
클린
브라이언
이전부터
##리라
대전차
아버지와
시게
##작의
나누어
드로우
제작진
짐승
##="
북아
배터리
약화
국제공항
##온은
포수
##야와
신속
백인
1화
생방송
유이
대접
##들에겐
##기준
연인
전망
패널티
증오
실전
말하자
버섯
충족
있기는
##iver
##재의
##생명
그러니
김용
케빈
##메라
그외
위엄
##목록
로맨
##들이나
엔지
##가면서
##되어야
##er,
파고
코스튬
엘리베이터
조기
##테일
##믹스
때문이었다.
리타이어
어렵지
가능하게
##졌으며,
일관
1의
상황이었다.
주류
거북
길고
##겠지
편에서
커스텀
실수를
##실과
##들에게도
긍정적인
어드벤처
##동맹
사이에서는
토오
##반에
##~7
지고
보험
토우
나빠
닌텐도
##너를
수요가
##이라이트
휴식
Up
##칭은
위주의
특성이
##지며,
10.
믿는
Mk
딜링
소규모
역의
이병
루나
일기
##.S
##ah
대사는
끼고
##-P
수수께끼
##쉽게
도덕
동행
가공
쓸만
이루어졌다.
##금으로
사사
아이디
보좌
##장비
##바퀴
##청을
대마
쇼핑
아레나
감정이
구독
하마
발로
모르게
피어
어색
##들로부터
그러므로
Ad
이대
##오지
지역으로
##-02
어머니의
일자
힐러
신선
##방울
##탐정
가져다
올리고
체감
시체를
나오며
##당하게
##입구
'사
lv
##"에
184
어울리는
##자책
마찬가지.
##동에서
이외에
유엔
이번에도
##오스
아래와
##시아의
많을
##바시
기술의
점유
모델로
수단
강릉
신사
화산
##팀은
포함해
난이도를
타이틀을
I'm
돼지
##A의
신용
##uck
##여행
10,
설이
유료
##분은
선수의
만드
호수
무거운
##igh
##히코
사촌
##밀한
##백과
웃는
리그에서
공무원
##시키며
##확률
나뉜다.
데빌
##마귀
3:
마음의
히메
사이즈
김일
수색
##cc
19세기
무지막
붙인
페미니
아니더라도
고무
상하이
측은
##드라마
무대를
기본으로
끝나면
일행은
##작은
스탈
오기
일곱
##공화
can
고지
##호에
##태가
신형
다운로드
디자이
구축함
볼수
6.
섬의
초에
주면
위안
하쿠
##가드
특징을
캐릭터들이
##인지,
표현을
승진
산맥
마운
봉쇄
있겠다.
제안을
침투
##니즘
공업
때와
항목을
허무
건물이
##네를
##팀을
가리킨다.
사나
쿨타임이
BB
##뉴얼
##노와
##천년
여타
입문
플러
주위
어마어마한
사람으로
##ung
싸움에서
##운의
3층
##초로
하나다.
놓여
##피해
봤을
##이라기
악마의
회색
실패한
Fate
후반부에
학교를
##되었다가
좋았
초콜릿
교류
##세,
그리고,
도시철도
얼굴에
정체가
글이
않으므로
학부
공수
고통을
##츠와
시뮬
자국
##리드
넘기
무지막지
장례
임진
##위대
있다!
거기다가
적당한
바뀌는
몰라
##그레
##ical
철권
##병은
크레딧
##세기에
있었으며
잠수함
2주
Day
메이드
##orn
##.0%
운송
##노스케
##}}
꼬리
크라이
##te
포인트를
특정한
베테랑
간섭
누군가가
생각한다.
'마
했으며
##69
피해자
차량은
내렸다.
왕복
##해온
소용
올바
제공한다.
지붕
부분이다.
안타까
##들끼리
모에
후회
##저는
##온을
많은데,
시상식
전투의
수동
총리
오우
파밍
발견한
더해
성격은
어지간한
주축
미국은
900
##성한
##시간에
##IV
부부
##블리
챔피언스리그
##저리
궤도
##정하고
시청률
빠르고
##버의
열고
잉여
정반
##두면
전체에
영어로
혐의로
##/s
##로이드
획득할
요리를
힘입
all
냈다.
테니
##스와의
##건지
너머
단백
##되었지만,
호불호가
감수
없다며
do
디즈니
##하르
플레이어에게
자존
##-06
##드컵
##일지도
맨체스터
이해할
발키
##니코
정권
뚜렷
깔아
마음대로
##까.
움직일
호시
압축
게임이다.
최연
나타났
So
al
##쿼터
아저씨
상주
##ich
관료
먹는다.
9,
히비
DD
단어를
ML
183
강간
결정적으로
배운
사서
##ype
일본이
스티브
##형에
본명
적게
후방
앤드
할로
우루
왜냐하면
특징이
손해
등번호
##훈의
캐릭
조별리그
##조와
운영하고
영향력을
규격
##1년에
요소를
디자인을
##한데
##녀가
노린
##교사
축복
정도면
아스카
##애를
어나
영화는
경호
메구
스즈키
철저히
##있었다.
양손
말.
##.O
마을의
전향
성적은
사람과
##풍을
##/12
##시스코
##희,
##마로
##y,
잦은
레벨을
만들어졌다.
것들이
##으면서도
극대
프로리그
차고
비용이
알려지지
명명
후일
죄를
DPS
En
일하는
예산
##ARD
성우:
뽑는
##줄이
1호선
놀라운
브래
초당
##보우
남기
##했듯
##anc
의문을
##루미
끝났다.
공산주의
동급
오면
##내서
##했음에도
적시
보편
제목은
##철이
피로
국도
싶다.
활동하는
미묘
##ero
GO
최종적으로
친척
##릴라
부천
2003
원주민
영양
개봉한
프랜
가량
결혼을
이모
##병에
115
##IR
설치된
흰색
##urn
삼진
단위로
인식이
시골
미국과
세팅
초상
나이는
우회
##당으로
세계대전
##지는데
생각은
대가로
작품에
엔드
미나미
지켜보
극도로
소문
와이번
1,000
올라갈
하급
트래
미국이
##-01
기름
서울대학교
##미르
##더는
실패했다.
태클
하라
빌런
지낸
2010년대
올라왔다.
공간을
하려
명칭이
프로게이머
360
훔쳐
##차게
->
드러난다.
싸우게
##int
##다던
손쉽게
시가
죽으면
프로그래
그렇다.
돌아왔다.
##very
쓰던
인가
##ence
듣게
프로듀스
에어로
잊지
치즈
##히메
해머
노선은
받기도
매체
##초,
분노를
디펜
##다"며
시모
이때는
주행
##면서,
산하
멤버가
문제의
Windows
그대
분할
오렌
아까
큐브
고블린
김유
순환
할인
진행되었다.
멤버로
덱에서
메카닉
죽었다.
1.3
##파워
##/6
##도도
2사
시즌이
발탁
것입니다.
위상
##중국
깨끗
벌어지는
건네
멤버들의
살던
##폰을
##스틴
묻는
블리자
1패
법무
센트
리틀
##음의
내부의
모순
##네마
100만
트릭
한계가
##사나
2위를
한번도
스피릿
##초가
특이하게도
엄연히
여부
키라
##스.
기사단
JTBC
93
##나미
드릴
대다수
##재는
조치
##퍼를
1st
프로레
합리
홋카이도
##ise
사라지고
##포인
가능하며
스포일러
진행된다.
##자이
##.28
상식
##줄을
Station
유학
##장이다.
온다.
잠실
킬러
##하였다고
일으키는
기묘한
진에
던진
숫자가
인지도가
##파,
유럽의
연산
당초
라스
도깨
##병,
##-KR
##자들과
밑에서
##쉬를
이탈리아의
김포
##자로서
방식의
이틀
경기에서는
출혈
2nd
답답
승부를
##오버
##m,
보이스
납득
##저우
특급
DS
할때
##병과
##투수
{{{#
보구
##OO
반도
텍사
##족은
##속에서
레이블
BE
비서
말씀
##ock
마드리드
##아도
불쌍
사우스
벌레
##.26
##-05
평행
메이지
영향이
전,
유니크
절친
것이고
비롯해
박성
중거리
돌고
핑크
NBA
##생으로
마을에
내부에
노래가
좌측
##십시오.
##보에
##wiki
역이다.
지속적인
##락이
잡으면
방어력을
##~!
국적
토트
국무
셔틀
대부분을
끔살
찍고
##스나
담배
보상으로
진행되는
많은데
기부
되려
말과
징역
##까봐
##ep
비난을
헷갈
DP
이대로
##MC
인권
때에도
들어왔
적으로
뜨거운
확정되었다.
무난하게
그거
김승
Oh
##보자
##?!
토니
미키
슬픔
그레이트
##바야시
어그로를
##시키지
##담이
거인
레일
##노미야
Ph
##ii
인스타그램
발레
전적
2승
아이들을
##신에
움직임
신부
##하르트
이현
아니라서
항공모
##700
##맨을
OVA
1등
목적은
##리스를
하우스
##대체
정교
국가가
##리는데
##'이라
2집
차원에서
##리노
##강화
##변을
##계와
상무
BPM
거라는
Sw
내에서는
##환은
이어진다.
마오
IT
뉴질
##42
디시
하이라이트
##감으로
CP
총독
시점에서는
날뛰
원작에서는
##성에서
##량과
시사
연간
필요로
##열의
##amp;
양이
진급
##카라
##작전
##+0
스스로를
최상위
에피소드에서
##박물
시작해
낚시
바나
군의
하단
누구나
이해가
부숴
미션을
3~4
##장도
##되지는
마친
다이어
선보였다.
음모
야마토
모스크바
슈퍼로봇대전
드러났다.
담아
##78
##.A
##0년대에
##ens
과거를
업무를
썬더
##시기
생체
소련의
오죽
자료를
보내고
종결
섀도우
즐거
##영과
자원을
여전
##추가
from
중력
사용해서
고난
그해
조건으로
생김
롤드컵
존중
KOF
##년이
일본인
##건은
부패
표면
되었으며
세라
108
'자
전통적인
서포트
질문을
아르헨티나
조카
##"이
곳곳에
블로
이마
평상
이럴
##파에
불참
두드러
##타에
탄압
##야!
되돌아
찾고
황제가
##량에
##SS
열매
극단적인
##ign
패배한
편하게
즐길
128
##시간을
모자라
멍청
시카고
그릇
엑시즈
인공지능
굉장한
바뀌어
##"으로
##석과
안경
Do
love
외곽
적군
정상적으로
실내
##활동을
지나가는
잃어버
김지
방식은
##.1%
학생들은
##조각
모습과
밀리는
멋대로
일요일
방어구
##ㅋㅋ
안타깝
역습
평점
조합을
모습이다.
대통령은
않겠
##토스
가치를
##-JP
이르러
주소
일컫
고소
원조
A.
이름도
골라
본토
##공은
토너먼트
곡으로
##아나
그러면서
에이지
##미.
아비
체인지
가져온
끔찍한
스트리머
##거라고
테이블
이경
수상한
1973년
추측된다.
의지를
추측이
##내려
깎아
벌이는
잃어버린
지점
고르
영웅이
신발
김수
##하,
##민과
있었기에
전격
##프란
##질적인
아직까지
변해
않는다면
두개
##브레이
동점
참모
백업
##ru
소음
성공적으로
편하다.
재미있는
그후
조사를
프론
승차
##스트는
스쿼
사항은
강도
용암
명칭을
옵션이
Con
발발
야수
죄책
침몰
##래의
이원
목표를
디바
주문을
##플라
면모를
원숭
##ose
소속사
탐사
잊혀
달의
자칭
##딜을
일단은
피하기
##들고
하인
##해야만
##피안타
판정을
대회에
To
흥미
##값을
##원.
1레벨
반전
병력이
떠났다.
##아트
전동차
적절히
##.com/
버틸
##퍼의
개장
변호사
라이온즈
초청
싸웠
어려움
추천한다.
##'고
권한
##삼진
발생했다.
살아있
이루는
실제로도
이케
변한
이상하게
은폐
##."라고
사다
중지
##화에선
##들까지
##형태
총선
##무늬
##버드
트리거
진실
예시
칼로
##대교
계정
내용이다.
무서워
조차
돌아갈
싶다는
##안전
2에서
시에는
##적이지
플라스
##다'라고
이후로도
다시금
무기.
조언을
리오
꼬마
이가
어려울
사실에
떠났
열혈
5대
ex
##기념
카리스
##론과
'미
부친
선수들을
감상
노력을
에로
##MB
매드
개교
했기
##제도
것인데,
영화가
통째로
수감
##모습
##다닌
여기에서
나이로
날,
인상을
##하늘
여러번
유니버
참가한
##달라
데이트
이기고
장성
##문,
##두로
한국시리즈
at
토요일
179
##뮤직
니가
##~1
##자였던
히로시마
곤충
##출을
라며
드물게
뽑을
##린과
감각
쓸모
남동생
sp
데모
as
맞는다.
밖에서
##하루
지혜
##문과
공중에서
##방은
연출이
들지
행동이
포함하여
##오기
##uk
해치
사이를
올라간
급격히
하루에
신데렐라
##근이
##지는데,
문제점
##특별자치
##장난
##타리
##화점
사람이다.
속성이
##고와
##생물
##전까지
1초
##!"라고
주어진
3기
##루션
민주주의
실용
##니에
##.22
연결되어
대가
향후
쪽에서
##ans
버전으로
식사
좌익
불리한
명시
필립
패턴은
이브
이노
##테니
위와
기적
##국인
공격력의
이야기.
그들
문이
아스날
일어난다.
##mp
DNA
측의
주제가
선회
묘하게
오이
역사적
퍼스트
음반이다.
뭐가
키요
TVA
격려
짓는
USB
없었기
편은
오를
시리즈는
약속을
목걸
세계로
언급된다.
전라북도
미래의
붙는
##습니다!
코노
맥스
굴러
##다라는
입지
오케
같다는
##편으로
화재
##포,
남동
마산
유비
갇혀
마스
씨앗
##우스가
시작하면
##록을
##장치
죽이려
##활동
좀더
##거라
분노한
조선의
참여했다.
중장
비공식
##티노
떠난다.
##독한
선진
공인
얘기가
승인
선발로
무효화
고등학생
사와
예쁘
##군에서
이윤
##두를
시작하여
버텨
인물은
끼워
##훈,
##액션
어설
사무라이
몰살
##ey
##앤젤
##다"라는
매각
있거나
##채널
1978년
방을
##창이
나타났다.
승률
힘의
인벤
##자이자
가능할
this
많지만
표지
##대기
별명을
색이
억울
턴에
III
포도
4번째
노조
신중
아스트
다니엘
두는
##.29
착한
아이들이
맞춰서
91
178
발생할
투쟁
##견을
방법도
섞여
올렸
##절이
간단하게
특전
##체제
'나
유산
##부키
플랜
##어에서
##글라
총합
##카페
대면
##됨에
내셔널
##심은
##펙트
법을
왼손
아무튼
전반적인
##미에게
편이지만
##훈은
유용하다.
바꿨
고립
구간을
폴리
##oug
남게
##사리
0.4
에디션
발매한
방송에
##채로
##버리면
혼합
공무
마찰
예수
ERA
카테
팔레
하스
##즈에서
뿌려
3가지
기록하고
##ash
##해하는
이라크
해에
묘사된다.
##우치
변태
시대를
1%
피카
##금의
검술
키를
보드
##런스
##레인지
##에게만
앨범을
힘입어
350
##다와
##/8
##막이
카네
버전의
##IX
들어가지
구리
##다르
##우스는
타이밍에
##oh
메디
##버려서
에피소드가
##usic
##htt
날카로운
이기는
##플로
무난한
지방의
##지방선거
캐치
소집
##.27
엉덩
##하듯
약을
저작권
이그
##츠,
발각
주술
중고
##으니,
Super
팀에서
##혁명
따르
##된다
##네요.
착륙
##현과
##했을때
게임.
이태
자체에
치료를
여우
떨어질
##병기
##인데다가
없습니다.
만능
미성
이빨
산타
한데,
##공개
##문에서
터트
##시내
##칭을
경찰이
실존
구동
육체
경력이
모드로
##피는
이른다.
##한,
애완
트위치
학과
탐색
잘하는
약혼
높을
바라는
이름에
##인들에게
활동이
듣기
이름이다.
라이언
엘레
1.6
자제
##96
광산
카지
최악
강림
스매
확인되었다.
높아서
종사
모르겠
##00만
##물과
지원한다.
무자
10회
떨어졌다.
뜨는
##형인
에리
##받게
놀랍
보스가
카카오
국내에서
##철의
등재
나왔을
##는데...
딸이
흐르는
##딜이
아닌데
신나게
메이저리그
보낼
EN
##IL
##풍의
##탄은
자를
엄밀히
라스트
무대에
심해
한국은
이전까지
많고,
##글을
대다수의
때만
안습한
##중이
MG
시바
##몬이
가성
+4
Dream
재배
점수가
오메가
암호
심각하게
못했고,
##검사
뜬다.
##네,
인해서
현대의
결국은
배경이
로스앤젤
분홍
없으나
바이러스
난사
맡는
##상승
##링은
'가
공부를
반면에
##년간
##천을
##항을
진지하게
비전
##.30
마피아
아니게
공격력은
통틀어
고개를
##지대
##유는
소중
##리아,
##나르
밝혀진다.
거야.
##느니
같은데
단독으로
고증
손상
깊이
방사능
##전에서도
1974년
1972년
존재로
전략을
심의
상태다.
없어도
재학
탈취
있다며
까는
빠르다.
미쳐
##만화
높여
두번
##린다는
검토
복사
내에서도
ON
용산
중국에서
##념을
##개혁
언데드
Sch
극중
헬멧
있어서는
해준
학교의
2만
태양의
##년도
##동시지방선거
스코틀랜드
##나.
##령은
3분
의사를
친애
코스프레
주니
여담으로,
##97
이별
피지컬
##린,
3턴
부위
##마니아
##천사
##열차
은메달
##다보면
##오면
세월호
터진
이루고
##환,
의회
없었다고
시크릿
정규시즌
다이스
검은색
##상가
암컷
##츠카
##레는
##분한
감탄
되어야
AKB48
목적이
##.2%
다닐
앞선
모인
화폐
주교
파란색
허가
##게는
##강점
금강
돌아간다.
style
갖춰
챌린지
##연,
공원
단발
중량
찬성
##족으로
##연은
멤버들
덧붙여
##히기
선포
모양이
보스를
대결을
##당초
때를
특화
정원
따라서는
속도는
앨런
3경기
드래곤볼
까다로운
##파괴
주장한다.
##랄한
인쇄
비판이
##계,
##용,
상관없
그렇기
전국동시지방선거
네임드
소라
주인이
##심에
대피
휩쓸
발음이
##이센
토대로
##디와
프라임
##프스
아랫
마땅
승자
디스플레이
잡몹
됩니다.
##-D
##보인다.
노바
섭취
2호
유언
##쾌한
2장
부속
유지하는
TR
고고
##딩을
##었다면
포탈
##ode
##www.
RA
우스
HP가
형편
거지
음료
불어
##고기
무작위
불타는
상담
##ild
별개의
##ition
생김새
똑같다.
##정당
현재도
미소
할지
개념을
청나라
상을
알지
오고
##ail
##이크를
EXP
중부
한꺼
안정적으로
취업
갈색
동메달
##.13
##-13
인사를
출신이다.
병기
태국
##거의
중화인민공화국
지구를
학생들의
##두의
받아야
무쌍
곁에
로렌
준결승
##스테이션
Pl
이벤트로
급속
뿐더러
##공에
레인저
IC
##app
최우수
능가
저글
##례로
단어가
다루고
중견
미궁
여기저기
##와이
##그를
1단계
생각하지
##망의
순서대로
##제작
라인을
Vol
뒤의
압권
능력도
타운
##구장
팔라
장착한
9시
학생이
프린세스
쏘아
##세와
특징은
이쯤
##맨은
##불가
##ye
소재지
좌석
##아머
1.4
''
no
##히토
빙의
##음과
조금이라도
드러내
게이지가
저주를
##소리가
새누리당
2001
모나
백제
묶어
필드에
보자.
2단계
12.
올라와
토트넘
빠지는
점에
집필
후쿠오카
시합
하여금
##였기에
1975년
치고는
당대
##카드를
성향을
방위
공이
##타인
우치
##피의
남아있다.
찰스
##즈카
##사격
깨어나
한꺼번에
IM
중소
다케
##롭다.
##지거나
"우
Or
##'이란
ld
부대를
##대신
아마존
##/7
쓰러진
##론,
##다!!
흡혈귀
Girl
받았다고
되었던
소수의
든다.
침착
아마추어
근처의
존재.
스컬
##터에
써도
실린
Season
##클레
에도
없어진
5성
적들이
나간다.
주거
버서
저렇게
키우
수상했다.
##ari
220
전인
멘붕
걸리
준수
꺾고
##졌는데,
넘쳐
3개월
##처가
실력은
연고
주인공.
대상의
##혼의
대의
도서관
##킵니다.
이천
"너
누르고
안겨
ldms
##작인
시작해서
##겁게
우두
##훈을
##이라고.
미사일을
##ier
일조
##DP
세레
주인공과
박진
선박
##이었으며
##급은
다가가
원래의
저렴한
월간
##아닌
공격의
재능을
본작의
##소드
##쿠의
##전도
살인사건
비행기
##뿐이다.
모양으로
##로서,
이명박
##/등장
에메
통솔
사용되고
전투력
보상을
의정부
서번트
제치고
반동
##MAX
매그
##들여
운영을
포로
##리타
어렵게
벌써
극한
핀란드
Night
병과
숨을
무엇보다도
애쉬
주무
바라보
'신
성직
달라진다.
초과
##빨리
나눈
기껏
여태
##테크
남매
검열
개명
시범
인천광역시
깨닫고
##주면서
##.8%
피난
##-M
할로윈
ldmsys
8개
Qu
실려
재발
##하고도
성공을
표현이
##하였던
스노우
이처럼
Col
##엘의
설립된
특히,
동맹을
황태
제라
##주자
##지사
##up
광명
페어
이진
않다고
마카
##액을
포착
외형
##쪽이
하필이면
아자
과정이
##았다
##았으나
##++
트윗
##오르
5초
##구조
Ed
##론에
세르비아
팀으로
실사
피규
##!?
##어버린다.
지위를
사용을
##마르
240
엔딩을
##+2
그렇기에
경연
##가니
애용
##안으로
아르바
Fl
##".
시외
##커로
무엇을
##매니아
1976년
확립
가능하다는
일제강점
카더라
##즈로
##.7%
신동
보라색
##미디어
##범이
##쿠가
신생
비로
직선
아가씨
불만이
##총을
조합이
어그로
역이
좋다는
남자의
덱을
성의
빌보드
##후보
1970년대
특화된
자율
위해선
드러난
식품
유틸
##메이트
##택이
##돌아
PV
##천군
##수리
182
종류가
활용할
발명
쓰기도
##가루
바람의
들어,
나뉘어
깔끔하게
##41
##,0
있음에도
오르는
아사히
181
허리
현상을
##시키고,
##:1로
오노
일정한
선을
차지한
뻔한
이동할
##쓰는
가져가
초인
근처에서
거리에
'고
김주
FM
AV
저하
싸우고
CM
상태이
열대
테츠
자책
메트로
##코스
##종으로
크로아
적고
되니
재앙
##.E
페르시아
악화
##텐데
##sc
일행과
포장
BJ
무료로
##자동
인간과
암시
과장
##수에게
##졌기
1971년
##배로
어째서인지
증가.
오른손
리처드
점과
협회
이익
탐정
태워
드워
##무로
감옥에
병행
이놈
##리스타
WC
##준,
##층을
##녀의
##년의
##위와
2분
빌리
충격적인
측면에서
뛰어들
표절
##하기까지
북서
공간이
수컷
바텀
도망가
"오
배울
다큐멘
어머니를
동성애
공식적인
마쓰
##중.
위험이
TS
LO
운행하는
피스
##때마다
피해량이
네크로
##량도
무언가를
위해,
입구
불타
아유
##할만한
제목으로
랜드
반대하는
'S
##나에게
선수들
어나더
EV
좋지만
상대로는
그렇다
직전까지
김광
아울
##등으로
##됨.
##는지,
다리가
##관계가
않으니
감동
##족과
##층에
경제적
봐서
모두에게
Pre
##군요.
##리에이션
아버지인
불멸
운명
##이나마
테오
##면은
##분류
##되지만,
not
통하지
작품에서
7.
타이밍을
안고
전당
폭로
항공기
##~9
인텔
##항목
않을까
순간에
해소
##삼거리
섞어
상냥
거짓말을
주제로
되지만,
땅볼
보여줄
Op
남한
아포
아메리칸
몸으로
짧게
아니,
고성능
유니콘
높이는
속성을
##준은
원작과
##eth
##-R
##해야한다.
##보컬
열렸다.
이동하는
캐시
##킬을
공격속도
##파일
스텟
##"라며
##ron
##코드
신을
불구하고,
항해
원로
즈음
##책이
활동했다.
영원한
##있지
방식이다.
동북
##간을
##쪽에서
##치고는
아닐까
##행성
내려가
소득
개가
##ject
임명되었다.
사투
이쪽도
몰고
공격적인
주인공에게
보여주지
##어!
마유
시험을
전담
레이싱
남양
높지
플레이할
공정
##질에
랜덤으로
관리를
##환경
그려져
11.
##iel
대기시간
만렙
멤버들은
카사
##만큼의
눈앞
살게
##math
가루
클론
선정되었다.
##뉴스
제10
##해볼
La
필라
##-03
모종의
##포드
아니며,
유저들
그루
흡사
본래는
##실점을
최정
막강한
두루
프랭
토크
##배의
##:45
자,
##채를
##파티
벌어졌다.
면허
들어가게
##풍이
##EL
바닷
게르
겪은
중국어
기간이
##엔터테인
145
적힌
펀치
미정
사이로
##스토리
##니카
##건,
##하자는
그렇다면
##등록
##가인
여론이
주저
슈트
틀린
열차가
##졌으며
##시민
리볼
울트라맨
아픈
NO
##ody
조상
미국에
##랍니다.
Gre
한양
도요
두꺼
보이며,
토시
아군을
찔러
그려진
1세대
##교도
몸통
인간은
중동
부탁을
본능
이야기도
1963년
##제품
##FL
올라왔
사망하였다.
##.9%
발사한다.
##시까지
##게,
공감
사라지는
타이탄
올해
담고
파츠
격퇴
##았는데
사용가능
가족을
래퍼
##견이
##으신
신비
것에서
모아서
영상에서
웬만
수급
줄여서
##더니,
##오게
결과,
경부
달성했다.
아담
우린
##열에
화살을
그란
얼어
꿈꾸
##포와
##인드
##,#ffffff
쓰이지
게임으로
##오피스
##있어서
감이
평소에는
생명의
##중을
에드워드
##스퍼
##불을
인조
여자를
미만
##"에서
이때부터
OG
고대의
바르셀로나
안토니
루비
그리하여
악명
괴수
##화:
##나도
프롤
이후부터
아나운서
관광객
않습니다.
실험을
했다가
##브는
출연하였다.
##주인공
많다는
엔터테인먼트
덕분
##료가
제9
인류의
슬퍼
코로나
객관
타이거즈
아수
장본
유튜버
우정
탓인지
버릴
##권도
경성
진출에
고아
못지
아슬
믿지
출산
정도만
일본군
중대
##전부터
##직에
##.....
밀어붙
"S
거점
##대고
그리핀
갖다
초고
##물,
##.6%
비판하는
##전선
##리츠
때문인
##적에
강아
보이기
30초
미소녀
신한
1977년
유동
후미
##엘이
차이나
##들어가
##희를
진행할
이어졌다.
근로
찍을
##하신
일본판
##-04
정리한
되었지만
컨디션
하므로
밀고
주입
스탠드
미국으로
되었는데
창의
돌아올
절벽
피오
##able
##전에는
##재,
일반인
1960년
##학년도
가사를
##사들이
적용되는
와타나베
모두의
그도
##데르
파동
선수들은
3단계
전대
##의회
##be
##멤버
20분
관계없이
##그가
1969년
워리어
##실험
##업에
카게
작품.
벗겨
남학생
아름다
북동
듣지
소니
인피니티
소환할
##리아와
지식을
시작했고,
보자
훼손
망설
##우에게
tv
##요한
등장은
갔다가
고려하면
작아
민폐
대해선
주변을
30년
창을
마우스
어드밴
드립을
##린다
##플라이
재산
회사가
전력이
하나에
하프
4명
##투아
하나하나
##렸지만
##소수
##업체
##하다며
모음
##AB
##내의
넉백
##따라
파편
##도전
##녀를
오니
웃음
수술을
입힌다.
안개
##vel
마력을
##치킨
##무스
##집에서
종점행
기숙사
사회의
165
##"은
##DX
##올라
##eah
면도
시공
안산
이타
세웠
#FF
마일
##버스가
길에
##오자
112
입사
개수
155
늘어났다.
빙결
맞추는
예약
전임
등장해
양반
오게
##이에게
시작부터
1968년
부담이
GSL
바람.
##벌을
##거가
작품으로
무언가
아폴
##Lv
설명하는
필요할
이끌었다.
상성
Cr
녹아
명으로
##코에게
평소에
강호
##님은
사직
EZ
눈동
초중반
유닛은
보았다.
##으려면
##드에게
##말이
Fr
플루
"내가
걸친
맺고
##:15
##아니
유메
걸즈
멸종
##aster
입원
건립
호러
##==
조치를
혼혈
2017-12
스카웃
탁월
향하는
##'라
##o,
이름만
1점
Is
이름과
캐릭터들의
받았던
##우스를
##각성
협상
원주
녀석이
필사
명은
능력치는
소속된
##자연
평택
카운트
말해서
망명
##-T
신지
의학
표정
대부분이다.
철저하게
##함,
IP
섬에
장미
즐기
대시
담당하고
기점행
종로
시즌에는
강렬한
##르타
서울시
버리
도우
##임의
터보
177
도는
모드가
장난감
가령
가자
##선수권
검증
트럼프
##나가와
PK
리스트
체코
##검은
예전에는
##건담
독립운동
미치는
마케팅
터지는
##타워
##락의
학술
이름인
감추
경향
모의
강민
이소
디자이너
근거로
김병
권한을
로보
'무
같다
##이다보니
전성기
5천
승무원
우즈
의원이
##GA
것들을
총선거
##3의
##맥스
원인은
청춘
구형
##왕과
Gu
없기에
##저래
광범위
정신적
것이며
발견하고
변한다.
업그레이드를
역은
##두가
##골드
##라고.
장타
밀리언
탐지
능력과
빌딩
후쿠시마
##이었기에
##장에게
상황에서도
얻지
트레이너
분신
##패스
작가는
공포의
츠키
사슬
'대
입에
남지
막혀
##inal
CR
비교해
유한
80%
기소
타이틀곡
소원을
대상에게
그리는
급행
간지
##주의적
##켰다.
2턴
몇번
위치한다.
작고
60%
##62
오가
##모션
##볼넷
##mar
프랑크
군수
문장
##모스
##브레
제약
요금
##편.
원래대로
갱신
오류가
##두에
전작과
희망을
엠블
##측의
등장하며
하였고,
냉장
순천
부실
시간대
쳐서
##만도
노릇
여파로
##그의
문제도
않는다
브론
무용
샘플
##때도
##간이
영화에
한국과
##ult
선택을
둘이서
각자의
점멸
에일
##서스
정도에
표정이
만나고
병원에
당선되었다.
읽고
##거는
대구광역시
달러를
아니며
독보
개업
힘은
의도적으로
수신
수확
##티넘
##어스
1.8
##비시
12월에
권리를
나기
버스를
전제
##이팅
하느
사정이
##슨,
우주의
##net
will
초기화
사임
##물이다.
##련을
AL
##세계의
충청북도
문제다.
그보다
벗어난
컴백
##oul
##골로
발사하는
1.0
##뱅크
##.3%
따서
##원인
방송이
계단
원수
이쿠
궁극기
잡힌
##쓰고
활약으로
군대가
움직이지
코멘트
샤오
##800
노란색
안드레
크리스티
어긋
이도
에미
블랙홀
소꿉
##DS
2개를
후보에
신학
차체
##바다
##프란시스코
##들한테
##류,
상대하기
1950년
##alk
수준은
##운이
일어나지
미러
완벽히
계략
119
집계
미하
##풀이
김윤
비밀을
간파
마을에서
##중심
철갑
뿐이지
양키
법적
조명
주머니
##칭으로
블라디
전염
135
##토에게
##도라
##워하는
##비용
민병
##주의의
맡겨
##사냥
##레븐
##법과
담겨
멈춰
폴아웃
보강
##000000
피니
3rd
자아
##해.
##미아
이용객
XX
연락을
조선민주주의
모빌
선호하는
##C.
연예인
상대하는
국내에서는
약점이
한계를
눈으로
##소.
늘어난다.
출동
##모와
CE
사랑에
시킨
수장
있겠지만
아,
##시킵니다.
생태
신경쓰지
블럭
##자리를
##여야
눈의
##진흥
와중에도
Time
토마스
나들
단기
팬이
과격
iOS
Black
삼고
얼티밋
청구
##o.
이행
맛을
##주에서
생명을
##청이
lv.1
나란히
##하와
벤치
##리시
날린다.
전두
Mag
##ould
지루
설정은
5차
요미
##연속
출신인
##스틱
##목에
조립
힘에
통화
##노,
210
##차이즈
대학생
진출을
호응
##플러스
##몬스터
노는
##극장
방법이다.
동아리
##km2
##reak
"지
요격
##례가
노래는
한강
보여주면서
##조한
추가된다.
경우.
##꾸로
사망.
헝가리
프로이센
발표된
##활약
성격으로
구울
안젤
##르드
##노선
##되서
이광
##본이
말레이시아
하면,
브라우
텍사스
##ats
##지지만
이래저래
이리저리
원형
추가바람.
보낸다.
유연
무방하다.
무슬
##마도
다시는
6위
한나라당
안보
대회를
비정상
우유
이세계
##기자
해당되는
천문
고집
석유
인챈
##.75
개발된
##해에
트러
들어보면
코파
##우로
물의
종영
교향
콜롬
##말에
목소리로
해보
친구인
범위를
##운동장
홍진
경기력을
후유
마지
##기병
후술할
마물
디렉
후인
고로
##슬롯
첼시
것이나
떨어지고
2호선
안전하게
하늘의
주인공으로
포지션을
방에서
##오면서
3월에
기술이다.
토미
구체적인
로열
사람들과
상대방을
벨라
##이치로
배역
##BL
모션이
##텔레
동서
나라가
##/L
##패턴
달콤
하긴
재임
##되었다
수천
##우드
##류에
비비
##와,
도대체
중앙에
유사하다.
전수
사전에
CL
성폭
##스파
응답
스타일의
청와대
소금
Let
되어버린
보너스를
모델을
그룹의
##.D
##ib
NT
맵을
아그
해군의
아쉽게도
공격력과
깃털
가나
프로토스
임기
결승전에서
성장을
거뒀
스바
like
성과
관계에
성격의
채보
카가
##진화
너도
##돼서
받았고,
탈환
트랩
없었을
수업을
게시판
##에의
상대방이
실패로
사악한
크롬
8.
만큼,
일각
않았지만,
있어서,
3.0
남자는
울프
##~200
MB
TOP
4성
박스오피스
두뇌
추리
띄는
##겠습니다.
직행
2%
##ME
##때까지
가이드
무제한
싶어서
알기
주자
진행한다.
짝사랑
물어보
보스로
공중에
하였으나
결정을
맡았던
##애니
##미즈
데려가
캠프
만나서
샌프란시스코
##제에서
##주의자
아처
주황
명나라
비중을
고맙
득점을
마르크
10월에
나비
##,5
ATK
자체적으로
##출연
마스코
제왕
T1
내지는
##43
쪽을
대기업
차량의
판매하는
소스
##작에
앞으로도
##종,
이외에는
많았던
##해방
MM
##수용
'지
시트
재단
##경과
103
무늬
##있다는
느끼게
선봉
인생을
오퍼
하수인
##시나
뽑기
쓰이고
한국판
중구
##증으로
확신
식당
-10
다비
발견된다.
나열
오세
끝.
캐릭터인
##나라는
한대
지내는
타치
루머
가면을
소통
스윙
3초
##블을
능력에
여기까지
정답
병역
상단
그렇듯
포함된다.
##CD
선동
유전자
세계적으로
알려주
제국이
뉴질랜드
GK
so
구로
머무
자유를
흉내
부분의
승려
화해
소환한다.
##좋게
대학원
스트라이커
사용하며
로스앤젤레스
style="
찾아서
시스템의
정석
에레
##미래
논란을
글자
여유가
남의
지을
통하는
##ull
섬광
##산화
진행했다.
박쥐
천하
##사이어
모른다는
##졌는데
연구소
tr
부분도
아니다
엉뚱
##05
유아
2세트
제니
고사
협동
들키
앞세
용도
한달
##술이
타입의
##-G
성사
몰아넣
##청의
##무쌍
행복한
이상,
아르헨티
##헤이
티아
따라잡
이어가
컴뱃
##BM
인정하고
조종하는
발견되었다.
트랜스포
다투
##순환
라이트닝
##uc
남서
1967년
'유
방송국
손잡
EU
##무지
##베이스
##하였지만
하루카
여긴
실패하고
명성을
휴스턴
시오
따위
스칼
먹지
인지도
나고야
보러
승리한
초등학생
가히
1998
결과로
오죽하면
목이
여부를
정밀
##ood
##파인
시기가
서바이벌
조직의
올림
언급을
##세포
제품을
단점은
학생들을
##해버렸다.
##제르
소비에
공대
길이가
간접적으로
발급
##전용
말고도
분야에서
올라오는
노말
스페인의
추모
사운
거꾸로
않았다면
동력
##서버
요코하마
관리하는
영웅의
배리어
스톡
능력치를
빨간색
김두
나서는
신하
디자인은
##아르
1권
짓고
세계가
단검
이의
##폴리스
재미를
디버프
케리
예쁜
##하우스
쳐다
저승
세컨
##덕션
돌아간
문헌
키우는
##ings
##기획
경찰에
감금
투기
무시할
역할은
##도어
한층
##필살
존재할
차원의
오렌지
내며
타카하시
Your
제작사
지나친
할아버지
떡밥이
하나같이
입는다.
자신들을
기지를
쪽의
-4
나오지만
해변
##63
노무현
불과하다.
구상
얼마든지
서방
부지
싸운다.
##/11
##테의
인정하지
"내
재수
##적도
지시를
독자적인
가라앉
조던
밤의
##me
걸릴
오페라
##r.
치열한
지킬
##사우루
강동
알아차
제발
##in'
##ECT
극초
섬멸
도트
박탈
자리가
헬리
샷건
내부에서
유고
행동에
보이게
SU
시작하면서
#ffffff,#ffffff
상위권
대외
못했고
##혁이
어벤져
##식에서
##orts
##대륙
정황상
않던
Fate/
추후
상술한
##마나
##레이트
리그의
돌리는
야마모토
##법,
의혹이
도모
##.4%
무너뜨
수치를
멀어
##는,
##맨과
이용하면
버전을
학사
##타르
##72
수비를
배터
운반
죽이지
들어가기
현실의
하츠네
딜이
##호쿠
시스템은
페어리
취재
원작에서
주파
여겨진다.
김선
테크닉
받으면서
##!wiki
트랜스
발목을
박아
과도한
로우
##편에서는
영화에서
왕조의
세우고
수록되었다.
##/등장인물
가깝게
찬양
밝혀지지
계획은
2017-11
대량으로
미코
토키
EXT
have
생각에
웨이브
##기:
##해선
덱에
여러분
도약
모욕
무죄
아이템은
6시
결의
로스트
버프가
정성
복선
자기를
##불명
##디,
고장
강서
"저
묻는다.
정치인
포텐
과언이
아레
전투는
대니
##운동을
##바위
##란은
유망주
맞물
지우
##티콘
+20
GM
vs.
Ser
농민
먹었다.
3라운드
마하
불안한
##리프
돌아오는
이룬다.
##공주
글래
짧아
159
##초부터
##원들은
언급했다.
만루
센트럴
기를
이방
헤드샷
WH
학문
찾아와
##to
##류로
##오르는
알려준다.
##ster
약물
동년
공교
기능은
비추
동아시아
괜찮아
##림은
베지
쓰리
##롭게도
##각의
##니스트
##그로
인정하는
'기
리바
##-21
경기의
스카우트
장치를
토지
주의하자.
기호
뛰고
국어
가족이
바쿠
노골
워커
마에
작중에서는
제너
묻혀
카렌
##페이즈
##이야.
위치는
##치오
##플레
대쉬
물품
셋째
##mmer
중시
클라이
유저의
##구나.
꿰뚫
동명의
1/3
2시간
말하지
연구가
운명을
##대결
덤벼
주위에
반쯤
##국어
노인
##안,
"나는
평균자책
고가
구하는
발표되었다.
##랑은
시뮬레이션
[math
15년
##상태가
루크
##팩트
##속도를
##했다고.
시어
102
##하였는데
흐름을
입히는
##황을
카피
환생
개최된
##소송
##모어
날에
휘하
일본을
com
사과를
1차전
추세
합작
트로피
길이는
뒤이어
중반에
0.8
##머리를
만난다.
아이의
##슨을
아내가
불평
출신지
마저
목포
호크
효과도
물러나
##코치
안전한
한반도
츠쿠
##냐,
정보는
##쪽은
프로야구
##사우루스
날아가는
##ple
##돌프
##슨과
안동
평창
낳은
내뱉
아타
##학은
##베리아
만나면
히라
상승한다.
##거지
역할이
친구를
나에게
서기
죽음에
초래
이벤트에서
##미트
##았기
이단
##네와
계절
고스
엉망
적극적인
5인
##호에게
해병대
1200
텐데
합법
무시하는
공격,
바랍니다.
상시
명단
플라스틱
http://
##TA
전해진다.
국토
하사
10시
이익을
친애도
갈등을
곳도
싸이
##봉을
스탭
1999
넘어갈
1948년
갈리는
우세
번갈
##성군
모험가
연구에
인물들이
일련의
##해지기
콤보를
##신문
##적이었다.
발표하였다.
포인트가
3%
##슈타인
과시
##yn
에서는
재등장
##터스
민중
설탕
띄워
임금
배차간격
가오
##공,
일주일
Gaming
밖의
##교는
##ict
부대가
절단
##룡이
증가하는
빈번
연습을
금메달을
##다!"
연결하는
올라갔
보루
##장군
##글로
##고에서
노부나가
닮았다.
시선을
대포
경험치를
Min
해줄
히사
##여,
싱가포르
방어를
인원이
아쿠아
말고는
RO
지구에
차로
언급되는
읽을
걸리면
유지할
카이사
운수사
활동한
6번
EC
##야한다.
재료를
찾으러
유미
편으로
끝을
않자
등장하여
2세대
오리온
골프
팬들을
##리라는
스콜
해운
##했으면
##YP
가능하지만
플레이하는
올려주는
변하지
##하기에는
배수
오바
낭비
루키
큐어
##-30
다짐
연설
##61
라이센
수비력
그만두
공짜
메세
##랑을
레온
##~15
##ICE
사태를
밥을
버스트
연동
요즘은
##였다
재위
슬픈
오비
별명은
##대수
삭제되었다.
대표로
바이킹
##극을
박종
패자
##마리를
광고를
예방
9월에
뛰는
무색
그나마도
Car
문서에
##ions
불렸다.
##디지
2차전
바닥을
후루
##죠?
미지
버렸
세상의
##생.
덴마크
##졌다
진행을
점검
대체적으로
##가족
캡슐
##제이
응급
가로막
하도
자세를
1962년
##ange
맡는다.
잘생
문서의
떼어
야구장
대명
리자
이념
플레이버
웃음을
인재
워프
퇴치
##효과를
know
##타케
##진한
왕위
시리즈와
연달아
##판매
의미의
이르렀다.
동정
##받침
레스토
호날
Play
연관이
못한다는
도심
번이나
11월에
캐릭터이다.
입었다.
1944년
출석
날린
모임
너와
다다
떨어져서
국가를
##프레임
혈통
살펴보면
들어서는
최전
사각
어디에
폐허
후타
##술의
보르
4월에
버전.
자작
주를
##천이
무궁
##염을
보이지만,
붙어있는
소속되어
패치를
##분해
방패를
파일을
득표율
비참
운수사명
편리
##한지
사탕
움직임이
공손
손해를
피하는
쓰러져
소나
모드에서
겪고
##3%
##어택
##이라,
LTE
상자를
거느
바람을
프리드리
##지던
##든다.
있어.
##았는데,
걷어
얼라이언
성장한
갈등이
빨아
페르소나
영등
##네이션
따라가
수준을
유닛.
비스트
팬들도
하치
##che
##러와
그랜
쿨다운
돌아온다.
광복
클리셰
##패가
무신
##밴드
하이드
항구
##링의
풍부한
내버려
당신을
##해버린
##버스를
적용되지
##.T
##르면서
지극
##할지
마법으로
OF
답게
탱킹
무기에
고의
##료로
향한다.
##퍼는
8년
고발
##귀를
##불명의
EZ2
##클릭
실업
개발을
Of
전과
폭스
##시안
머릿
##문화재
##정지
행동은
천주교
오른팔
개인적인
##슬로
유저는
영혼이
##!'
미루어
중이던
450
##더라.
중화민국
교복
##가수
선조
죽었
##ann
레이븐
안된
편을
##널드
불가사의
##.I
돼서
##자다.
루마니아
1960년대
뽑은
세로
양도
영상.
키보
하나로,
전개가
크라운
세리에
##:2로
뒤에도
슬슬
4기
4000
##카나
기쁨
152
섞인
121
본다면
##금지
리뉴얼
##취를
미칠
추출
이글스
168
상당수
80년대
제작진이
진출했다.
때려잡
멀리서
##히며
날개를
맵이
일족
오스트레일리아
1964년
몸무
자유한국당
태도
오딘
##카게
##군주
##살의
사이토
대법
도마
##위치
2017-10
시점에
0.00
체력과
사치
크래
플라즈마
##구니
놈이
다룰
필름
##역까지
가사가
##이라면,
##크에
마지막까지
Mi
피닉스
거주하는
플래티넘
기다리는
애틀
##그마
##어버리고
8시
괴로워
문화를
성씨
여수
##ater
##차원
일베
크기의
아이들
##lass
##ica
로고
트렌
기준으로는
##있다고
사원
레슬링
##'re
A4D
##지만...
##대구
방송사
리즈
기관단
유머
적재
퍼펙트
스쿠
##버는
다행히도
호감을
##6%
몰아붙
부사
프레데
##백으로
##규가
도감
##부지
일으켰다.
자격을
쓰였다.
불릴
##~30
9.
어서
##프랑
찾지
109
진지한
RE
##조정
내용에
선물을
오디오
##요를
7개
못했
영토를
역할로
차지한다.
구조가
사육
리부
맞았다.
##:05
##시켜야
성경
##공과
소프트웨
초기의
해독
상인
일삼
임진왜
3승
마찬가지다.
##국제공항
십자가
따뜻한
##들리
비로소
강탈
##끄러운
비용을
##서에서
##카타
미국,
잘만
##림으로
바다에
이인
숙청
당시엔
1위로
성배
드래곤의
말려
크지
검정
삼촌
##찬을
out
음력
서울대
레이디
추정.
역사에
앨범의
one
장비가
무지개
그마저도
없지
##마력
조선시대
변이
제도를
호랑이
##하다보니
곡.
테일러
스타일을
내용으로
##비아의
건물은
수시로
제11
군단의
요청을
##점과
효율을
본체
씨가
문화재
그들에게
맵의
무선
삶의
장제
##빈이
1966년
##후를
질주
##주자.
로마의
맹독
헤라
패전
전장에
##HT
적합한
##일으
##연대
시대가
박명
테레
길다.
면적은
함수
##형.
변하는
잔류
빈틈
중학생
흑막
##주택
단장
127
엔진이
4.5
결제
##조작
하는게
두었다.
was
뮤지션
무작정
##희와
##새를
컸다.
##당시
충격과
꼴찌
##내면
개발이
남겼
바꾸고
바론
##자원
미남
아래에서
3명의
김천
심히
친절
알렉산드
바티
패스를
돌을
아르메
사용하게
나섰
늦은
브레이브
118
ME
물고기
##텍스
##de
트레이닝
하후
민주화
김도
주민들이
앞뒤
콘셉
가마
##BB
어렵다는
깨고
로저
8월에
지정된
명성
도배
클러
현금
소생
연결된
감행
##리치
##철은
FA컵
##사라
장로
##검의
먹여
비아
자고
소환하는
실로
출신.
##agon
거칠
##배차
떠나는
시흥
클리어하면
리셋
##클린
7월에
주의를
##습니
스토리는
0.6
부대의
##토미
수록되어
프로그래밍
3명이
1월에
BGA
봉사
어느날
ALL
최소한의
솔직히
경전
본부
##커녕
다름없
메시지를
107
상대식
##G의
워터
현장에서
김성근
붙어서
포터
페르난
의아
박영
주며
HE
내기
밑으로
포맷
혼인
시네마
행보를
별이
부장
등지에서
리버스
단점을
##칸센
미끼
##금융
문제점이
##듯하다.
스트리밍
티베
어시스트
##는게
복장
오키나와
시도를
차에
방심
난민
보스의
##기면
##바,
바닐
별을
부끄러
행방
##요의
1946년
성향의
##해왔
##든가,
여기고
줄어들었다.
프랜차이즈
옆으로
##베르트
스태프
플러스
##LS
##ACK
드레이
##학이
##팀으로
안철
발차
##,000,000,000,000,000,000,000,000
번씩
##값이
인문
창업
##그리고
##몬을
해가
##gr
보이는데,
재벌
데뷔했다.
축구선수
##등에
도쿠가와
구매할
바라보는
우려가
구한
목욕
측에서는
공격시
채찍
어찌보면
순찰
##러,
브라더
미묘한
7시
##바와
수비수
뛰어나다.
게임에서는
5월에
##형제
오쿠
펼쳤다.
##팀에
지오
##강이
않았으나
막판
##하겠지만
야만
주에
##코로
확률은
붙었다.
덴마
합친
##nder
호랑
이번에
CO
꼽힌다.
파키스탄
##보라
지원이
동료가
넘어간
것은,
##적이며
##수준
속성의
바람이
-5
날씨
퍼부
돌아갔다.
그간
음향
##크루
달라진
가격을
수단이
유탄
하이브리
아들로
여캐
##던지
딸인
써먹을
카탈
생각했다.
웨일
지지하는
정준
1995
##.21
점심
화면에
##류와
1로
##모,
일꾼
계획에
저스티
페미니즘
되게
아이폰
깨어난
[[htt
##한정
죠죠
나서서
공교롭게도
어려움을
##운수
남자를
캐롤
123
5개의
스콧
정해져
##-KR0
시킬
##작용
식사를
사람에
만났을
전생
위협을
##:55
##-1로
볼드
뿐이었다.
등장하며,
토리
한해
##또한
판매량
##벽이
영국에서
마족
SA
아이스크
pro
필드의
##못해
이전에도
전선
리플렉
것이,
##레타
초록색
사진은
상속
##음,
맞출
##학기
대신해
빠지게
나뭇
배웠
왕을
##산과
레벨업
크리스토
가브리
##요가
##201
##빌딩
낮고
멀쩡한
GPU
1961년
준공
##었기에
입장이
터라
##란,
##아슬
##불능
##다로
##달의
##2가
Type
보자면
드러나는
배구
부재
쳤다.
에너지가
##축을
시즌의
이카
##판에선
##안과
입성
1965년
동생인
NEW
Max
패키지
사키
##편은
고종
신흥
NHK
앞을
##화도
##orea
토론토
전속
있는게
세일러
이준
알렉스
기록하면서
##...?
미소를
현존
##차,
여자친
처리하는
선의
##바스
공격수
그곳에
만화를
##리케이션
##때로
알렉산더
도시에
보여주기도
유격수
수중
위함
시설을
##그라운드
적용된
현실을
회사를
+15
강하고
사정을
##정도의
##원에게
모양을
고우
##효율
프리드리히
##볼트
이하로
feat
친다.
중에선
##있는데
##되었습니다.
레코드
명장
부채
'여
##반은
11시
la
##eF
111
70%
##eep
장인
##코인
원내
프로그램이다.
특이하게
매니아
진행이
인구의
각인
너클
도깨비
숨기고
하러
144
오시
##살인
소노
인물을
등장하는데,
본진
로리
##oot
다름아닌
전지
정해
##라시
화면이
##tern
##신인
갑옷을
나들목
한국이
오더
##79
##란트
그녀와
사에
줍니다.
104
최종보
TP
시즌1
##ator
선거에
공산당
주력으로
##보험
원인을
##았으며,
##놓았다.
추구하는
##글이
미쓰
영남
##라라
마가
오클
일산
1세트
중재
3만
출제
공학
2패
##티오
High
걸맞게
발간
##-0으로
늘어나는
세력의
발톱
어스
티저
운행한다.
스텔스
방정
올린다.
정부에
올바른
컬렉션
##칼리
##궁의
수준에
##&lt;
발전을
플레이스테이션
넣었다.
혼란을
야마다
놀랍게도
유즈
차용
활용한
맞추면
의하면,
미식
호기
의미에서
##되니
##커와
BM
순위가
원자력
내뿜
상황이라
빅토리아
##"와
신칸센
##발전
참가했다.
서태
중에도
##:35
이르기
##배틀
"여
##층은
영상은
맞추기
걸려서
맥주
표정으로
##하느라
##란한
##CH
##시키면서
방언
문의
##에너
##림과
장사
최상급
호감도
부드러운
##하임
불리기도
##광이
24시간
배워
##상이다.
나르
한신
##~201
Gen
직통
타르
##일때
발현
베어스
##독립
##O의
깔려
서지
신곡
##캐슬
유벤
파손
병살
##미션
없어졌다.
장소에
왔다
교역
##86
J.
아슬아슬
하려는
애국
인질로
##시엔
##달이
##결정
##ress
보잉
##신도시
##생산
리베
##짓을
##갔다
위력은
빼앗아
먹기
10000
활용하는
사용하던
자유로운
2019.
불려
##커니즘
불리며
##작품
##졌으나
'정
오늘은
필두로
안습.
##사무소
시장에
펌프
스기
많다고
##AND
내밀
퓨처
행정구역
못하였다.
편지
약하다.
타다
영혼의
정한
옵션을
분쇄
캐릭터에
Light
가득한
알을
특공
순간이동
공존
##격인
업데이트가
베이비
"나
MV
LED
재빨리
##파라
양대
##있다
##노리
권위
경의
봐서는
##백의
ar
##다드
김연
##군사
미라이
추가되어
교수가
실상은
원곡
맹세
프로덕션
우루과
3위를
##세요!
면을
##수아
구성이
주워
##데스리가
넉넉
후지와
##사구
Am
극대화
난무
칭호를
에메랄
일하고
##롭고
##코프
##ough
##이라고는
해태
KBS2
몹시
데스티
##체,
##니혼
1/2
##팀인
##창에
오늘도
내린다.
있다면,
대중교통
##주쿠
재능이
단단한
##작가
##테스
표현한
이온
미녀
##케이션
##자들도
났다.
마모
드래곤을
##해버린다.
15분
값을
트랜스포머
측이
자르
'전
##발에
1949년
시청자들이
##예를
##아스
본래의
금요일
성이
##야?
##오던
315
코트
162
칭호
"자
컴퍼
##하려던
이들에게
##ott
다이스케
안경을
##erf
멤버들과
6월에
전차를
##[ruby][ruby]
원년
활동에
엘리자베스
오해를
##중,
'우
고인
상쇄
열린다.
때리는
즉각
##점이다.
끝내기
더구나
말까지
잡았다.
명칭으로
파티를
하우
자원이
휴게
대미지는
장소를
있을지
##IK
필라델
뜻의
직장
크기는
다음,
급히
안하고
##골이
##px;
##anna
절대적인
과제
군용
주기도
##테스트
Heart
전광
##냐면
마지막에는
나이를
##느냐에
상점에서
결과에
이후엔
##보,
##높은
조항
3집
바그
어울리지
##니버스
위험에
시기는
##마에게
##커,
길로
##적으론
초반의
통행
나타낸다.
##그는
마이크로소프트
AF
시장에서
##록의
적과
문서는
부활한
말리
패스트
휩싸
스위치
명예의
마요
##빈의
극우
5명
스네
유우키
가슴에
##공화국의
공모
아리스
로테이션
미치지
수인
##여도
풀린
고래
자란
데뷔한
##ring
##놀이
음악이
##/A
##테오
##면과
방으로
최순
##74
나오며,
7번
산악
불러일으
158
유니버스
3장
무도
더러운
##합니다
신세
얼어붙
가설
자칫
예상된다.
##혜를
파괴하는
이끈
##함으로서
0%
높기
##less
카메라를
기록하는
##:25
프로그램이
##했다!
쇠퇴
##부문
10위
졸업한
지내고
트릴
공격과
역사는
그림이
넣으면
측근
##철,
##순양함
필요없
DI
게스트로
##토록
스스로의
강화된
처리할
##후,
공격형
등장하고
조각을
막판에
영문명
##나지
스토리의
##A1
##혼을
작품인
'제
존재감이
Par
1996
정우
퇴역
포드
되었다
##이사
##we
Blo
현직
자부
대검
이어나
##하더니
##있으며
사용해야
##받기
알수
비롯하여
줄어든다.
Co
붙이는
신비한
##천,
##판,
##토리얼
##려던
##더라면
당연하지만
##icro
헝가
선언했다.
불안정
적에
폼이
##수수
##삼아
##해주면
##님,
아름답
귀가
정신나간
베니
##방,
##칸의
게이지를
까마귀
형식의
##갔고,
파격
가능하고
가던
해고
더욱이
의문의
이례
자이언트
TO
막지
가도
잃게
재료로
열쇠를
관해
변동
##소모
한국을
설명할
프레스
관련하여
Lv.1
뒤인
않으나
중도
중급
생각해서
이쪽이
후반기
머리카락
##리라고
##교로
가난한
MSL
##ics
끌어들
다음의
##이므로,
케이스.
스타워즈
충남
치바
나카무라
신은
##리학
불길
비치
en
군림
몸의
바바
책략
##심과
테러리스트
호출
##발사
##웨이트
##령에
##les
동일.
냉동
미들
버려진
생애
조이
휴대폰
LE
지어진
단련
##기동
미성년
인연이
##**
##어졌다.
추가적인
ES
안될
모으는
줄을
민간인
따져
뜻.
##찮게
동구
2가지
##후는
아키라
이때의
##-25
극단적으로
추궁
##참모
1997
졸업하고
##-23
강습
일리
탄탄
횟수가
##려야
복장을
15세
미국인
시설이
비단
환자
##양은
필요도
여고
##결과
##나요?
##테가
피트
독립을
키미
4의
##개는
##-22
##맨,
예의
무대에서
IIDX
4연
사소한
계곡
사랑이
기준이
유닛으로
놀란
밀레
취한
참고로,
친구들과
##시도
##/S
에이전
GTA
##청년
은퇴를
##부턴
##inc
##무,
##산에서
이렇다
다름없는
불편한
##카에게
부스트
질병
##갤러
Red
##렌의
이루어지지
돕는
수성
소원
아리아
##욱이
원래부터
대한민국에서
##카스
90%
##방식
노선이다.
궁합이
일환으로
아무렇
레이지
##i,
것인
연세
##표는
제20
내주
##지휘
맞추어
걸어서
급하게
##대왕
따왔다.
자켓
진행한
프랭크
##치도
##스터를
득표수
스마일
EBS
##규칙
헬리콥
여성을
후면
##화학
전체에게
##토르
고든
업적
완화
M4
불만
##공연
진술
##그대로
그릴
성실
소우
##오.
짙은
시리즈에서는
하행
상태에서는
팔이
주어지는
상행
에볼
따돌
##가락을
지자
##필로그
##셨다.
Ste
IV
##하자고
활약이
엔터
32강
##어버릴
넣는다.
훈훈
##무리
만만치
관점에서
106
캐릭터와
시기의
##바흐
활발한
혼다
'인
2명이
국내에
AG
##랑의
##+0900
##클리
일본으로
124
##새가
발이
일원으로
편이고
##그래도
##송이
스크롤
레인보우
분대
퍼시
##모노
물건이
이내에
내일
탄환
BO
신전
프로토타입
##-JP0
들어있는
모자를
부모가
경질
펼쳤
'한
##~12
숭배
##벌이
호르
##엘은
##사령관
##아래
##ERS
출전한
프로레슬링
아이템.
본의
##수원
국가에서
##idth
##운을
자신만의
제목이
등장으로
해결할
##만으로는
##land
누워
승리.
안성
승리했다.
##-L
피고
##복은
2015년에
바뀌면서
수행하는
눈빛
한가지
아니냐
성균
##wh
##원들의
기록되어
##토시
닉네임
외계인
열었다.
카리
소녀의
Wii
재즈
함재
##편성
삼는
쓸모가
부동산
특허
담당한다.
엔터테인먼
서독
가면서
해당된다.
없었다는
##gain
할리우
가능하기
모던
바리에이션
주장은
oh
1.1
엄폐
##림에
박상
모드의
노르웨이
##m의
조건은
공화국의
일으킬
미친듯이
카에
##칭이
2점
체력은
##AF
레슬
부처
부흥
실책
심야
첫날
의심을
잠을
##G를
176
프롤로그
FPS
드론
##기구
상위호환
못하고,
재산을
도시가
무식
엔지니어
라우
본선에
GN
모르겠지만
##/초
기반을
리본
가위
적립
말의
본관은
##했음을
##왔다고
강력하다.
##ANI
템플
학교가
영향력이
떠날
##파이트
모니터
때로는
쥐고
꿈의
##경으로
750
마시는
엄마가
##더링
느껴지는
다룬다.
하자,
'스
수에
##창의
조합으로
##말의
한정.
흑마법
도쿄도
신정
프로그램의
권리
광경을
리믹스
석사
##목적
따라,
스타일이
아카이
##모니
##으므로,
같아서
면에서는
반성
출전하여
빠뜨
##맥을
치하
유저들에게
여자친구
개칭
요르
##밥을
너에게
택시
##등하게
몬스터는
오프라인
학위를
싸움에
들었
에버
오아
저기
##UT
돈으로
MK
분배
응시
7위
개국
##했다.#
연출을
쓰일
122
도전과
묘지로
원활
##샤의
##ction
##티에
요구한다.
Live
##린다고
2천
고기를
관장
##까요?
##UC
5.5
정사
##행으로
뉘앙
일일이
##리니
진출한
5.0
##리조
스킬이다.
대서
##질과
소설을
1-2
쿠루
##방법
##감도
인근에
나왔는데
것임을
타키
##홈런을
대책
##지옥
3세트
온몸
이름에서
1.7
자신보다
늘어났
고마워
화장실
롤링
박혀
##ern
시야를
흥미를
제프
##라에몽
집이
영등포
루트를
##가능한
time
많으며,
비자
케이크
##쿠로
클레이
격침
경찰은
1941년
복지
##하니까
친선
카우
평안
모친
감독과
놀러
에필로그
오만
##어버렸다.
놀이
##회관
표를
김원
원을
남아프리카
일체
동물의
러닝
장을
##야스
빠져나가
##운영
제국을
야외
있었다
##irst
명탐정
채취
평론가
##76
SSR
1994
살아가는
모른다고
면접
부족으로
Tw
달인
+10%
오자
위를
다르지만
0.2
성전
다큐멘터리
##드릭
##입니다
그랑프리
##종과
지옥의
##나에
##af
체육관
나가서
한성
아틀레
기관단총
스나이퍼
박용
키노
##선지
중성
유튜브에
재활용
나인
순양함
양아
오른다.
##리스크
연루
지대
전에서
기타리스트
사인
##림,
항목에
개개
두근
##때부터
##블릿
순정
##트.
박정희
벌였다.
고유의
수평
펭귄
목표는
1일,
거리는
##4%
138
어머니와
사용하였다.
2023년
여기서도
##ky
다음을
이때문에
유로파
차가운
뛰어넘는
##감의
돌이
시기를
As
자비
바꾸어
심상
한손
묘사를
##지니
##미스
대답을
'모
5만
##호도
나무를
노트북
##타고
##일수록
마법이
##쉬가
리스크
##계에서는
##oss
밀집
추가.
분야의
구해주
인테
##2를
##키로
##노래
공백
워너
패닉
##끄럽
영감을
직책
패배했다.
정하는
##였다가
레시피
증발
멀티플레이
공통적으로
##요리
조력
크리에
희대의
##기며
엘더
##제일
외치는
설정에
3배
출연하였고
크로아티아
쿠니
등장이
사관
##적이라
놓는
획득한
un
냉각
분량
나오고,
높다는
볼을
정권을
아군에게
교체되었다.
투수가
##내고,
중국은
디오
스크립
내외
도리어
##-H
##증가
장탄수
사면
외면
떨어지면
받았고
대하는
완성된
직후에
부탁한다.
서열
없는데,
휴먼
##방위
기체가
윈터
##유저
끝나지
찾은
나을
청룡
##ium
않았으며,
0.9
##업으로
가하는
지도를
이동속도가
##자라
패배하고
걸면
유승
흔적이
##AE
것인데
##방송을
면제
원흉
Champ
굵은
폐선
저질렀
##하기만
못했다는
참으로
총괄
코이
공격한
##자리에서
##학교를
일품
##주공
중심의
세금
친구들이
입지가
보살
내릴
서명
박수
##청은
입양
의뢰를
7대
너프를
뚜껑
라면
등장하였다.
포기하지
콤비
##BE
정면으로
Baby
치안
감염된
##직이
달라붙
알리는
##8%
##책임
정치가
##순이
풀고
에스파
내놓은
실루
히로시
기자회
고도
##리다가
유스
이루어진다.
안도
쳐도
##원이다.
직결
인상적인
깨알
시작하고
지역구
없었지만
늘어나고
타이완
저서
군사를
옵티
회사에서
대학의
관리가
자처
추가적으로
사람이라면
미션에서
남쪽으로
감소한다.
##든지,
남성이
주시
지었다.
평화를
상당수가
등장했던
편안
##원들을
없이도
##마침
##주년을
죽이면
생산하는
##바지
##이서
소비에트
호노
특이사항
##기보다는
박재
엔트리
저술
후한
##귤러
##!!!!
벚꽃
##뿐인
정형
현장에
여는
처한
평.
괴물이
내리고
홀리
구제
##크로스
이복
녹화
2가
Fire
##정류
수행할
마나를
1940년
##기아
##GC
##킥을
##ONE
##반도
발칸
##92
##노우에
##요."
KTX
1일부터
국군
곳의
캠퍼스
장소로
수만
위험을
압박을
##FM
2초
만들었
일행에게
HARD
장면도
노선의
이들도
메딕
몬테
무리하게
접수
자발
인디언
어느새
졸업식
겪는
넘기는
소환한
산탄총
버블
우천
3에서
구도
##시키려
LOVE
페이크
합쳐서
##까지,
12,
##회담
워크
포크
지속시간이
종전
참여하는
마을버스
진동
##트론
타점
시부
투고
중심이
삼성전
김구
자리는
##ount
김대중
##자리에
시간과
올라갔다.
마계
망치
##메르
캐서
받고,
스릴
##나리
업데이트를
버릇
##것에
프리미어리그
##ush
Good
시인
착지
##애나
쉴드
세계적인
않더라도
##OID
화염방
세상에서
영어를
태극
##퇴근
구체적으로
크기를
때때로
##유,
소재를
##스트,
가창
##콤보
가의
계약이
튜토리얼
BBC
포인트.
구멍이
타지
##ins
Rock
북극
하지메
배치되어
유용하게
건다.
로컬
방울
##네요
칠레
지역에서는
쓸데없이
##절로
한편으로는
BEM
분데스리가
팀과
##다닌다.
##차와
##사실
##백만
##메탈
##좀무
CN
넘사
##01
가와
##포에
10여
들어온다.
https://
자손
오의
춘천
바디
붙는다.
--
돌연변이
##에르
Lv상한
순간이
이렇듯
자유의
수호자
##듈럼
돌아가기
GP
##든,
끄는
왕족
설정으로
MO
##당하기
##였다면
생명체
축적
메이커
소유하고
디아블로
##초교
망원
기력
취급하는
죽이려고
방공
se
알렸다.
지각
전적이
기괴
설마
왕좌
##현실
염색
##트에게
보이는데
##술로
시절을
쥐어
동로마
자격이
익숙한
Korea
##나면
##어?
일종이다.
전동
##분간
##교차로
달려들
거두며
1~3
쌓여
협조
키보드
##클로
##이닝을
카디
1943년
Sm
2016년에
표현하는
일레븐
캠퍼
남편이
0이
김명
일본과
마음은
당나라
##다만
##ution
츠카
까닭
악기
깊게
미미
설상가
##회와
##eng
잘못을
DM
라운
보복
시조
##셔서
사람.
##attle
트윈스
잔인
친목
스탯이
본관
문단
"당
전자기
뮤탈
##가이
보고는
이전까지는
주기적으로
Sun
중국과
2.4
##사진
노릴
##마리가
Dark
레이첼
제19
아님
##움의
게임인
화면을
업그레이드가
반경
뒤로는
영웅을
장갑을
##7%
무기와
전투력이
##군단
2월에
포탄
##무기를
##지에게
##BD
혼돈의
힘과
##게이지
##08
##거다.
le
##링으로
연기가
차는
##박쥐
농촌
##능력은
##red
인물의
아울러
레벨은
받았을
신세가
유난
아냐
사회에
색상
성벽
업적을
경찰의
따위는
박사가
내정
언어를
##대학원
광주광역시
쇼크
도라에몽
분이
애니메이션의
나레이션
맥락
2017년에
나누는
대다수가
마코토
2014년에
주어진다.
시간도
권능
논문
지중
Can
##물인
강을
골로
대대로
어레인지
설명한다.
##터에서
공포를
건의
##양,
무녀
여겼
해를
##스크롤
##테츠
혁신
##스터의
쉽고
부담을
도시로
now
OK
대량의
것이니
니코니코
비어
##명인
크로노
죽이기
프로젝트를
둘러싼
##답지
후보를
##리스와
What
박찬
나타나서
돌려보
말그대로
제휴
되어,
뒤통
심하다.
챔프
##-E
제지
찬스를
그쳤다.
서정
자기도
중국이
낮아서
##돌파
BEMANI
불문
##격투
##학에
##승으로
##스트림
레버
친분이
빠진다.
3성
말하길
환경에서
넣어서
쇼트
##십자
의혹을
##71
3164
역관광
조직을
사격을
건물의
흑역
킹덤
위치로
2018.
비꼬
두가지
목에
따른다.
짧고
마디
##.23
발매.
주고,
##'도
##답시고
명백한
일.
잡는다.
아래는
외모가
##줘도
##통일
주도권을
대차
말라는
활약한
유럽에서
스틱
Life
##ert
확인하고
##디스크
1942년
찍었다.
'비
일본어로
공개한
##효과가
역임했다.
11,
맵에서
##공단
##명.
신입생
리퍼
##빵을
개발에
##패의
있다.#
1958년
순위를
시간동안
비춰
꽃을
##있기
##ady
웹사이트
##73
##양으로
##좋은
이창
젤리
피닉
델타
무리한
##안타를
##요?"
건물에
말만
주가
##어지고
##통에
유대인
A4D4
필라델피아
##연방
##III
피드
싫어한다.
정글러
답을
비중은
부진한
이호
장동
무지막지한
배우가
있듯
카토
장점을
##/16
##주의에
##문서
강수
##힙니다.
끼어
사일
##주군
##하자면,
##적이라고
##키에게
증가하고
코드를
살라
패밀리
관리자
구성하는
허무하게
BC
현재까지도
쉬는
찌르
방송된
캐릭터들은
##계약을
베리
치며
##리지만
동안,
문서가
PL
##도서관
섬을
요구를
##목으로
차례로
운명의
15일에
전쟁으로
영향력
##프트를
##다던가
이야기의
정재
가족의
베이스볼
에인
제약이
##있지만
안무
신조
원피스
입체
##형이다.
이적했다.
U+110
내면
등장하는데
This
해결하기
의원은
##다니며
전설적인
대역
##스타의
증거가
&#x110
2를
##라이어
생겨서
2세의
Kn
##는가?
0으로
극심한
진단
흥분
##회장
##곡인
댓글을
##니클
##구성
플레임
##대도
##구멍
가능성
3개를
애니메이션에서는
4경기
내로
##타우
##지이다.
애정
야기
도망쳐
아델
테니스
##도니아
필연
녀석은
2억
Sy
##에다가
거야?
지극히
##댄다.
STR
##발,
##적이라는
이것저
##ube
사수
상용
명중률이
디비전
장편
DR
길거리
4명의
AB
퀄리티가
즐거운
##D의
##반응
1954년
분노의
함대를
##브,
##헤드
르네
##노벨
선거를
제국은
feat.
##머신
남았다.
치우
##복무
수소
라이너
인접한
냉정
주먹을
설치한
아이템으로
뒤틀
##고교
늙은
연막
형상
1화에서
마누
의사가
문제점을
전이
팩션
##캠퍼스
이미지는
느낌의
포식
##시켜주는
오브젝트
카카
내비
데미지도
아이템의
못했다고
##해버리는
대학교에서
이곳을
밴드의
없다시피
펜듈럼
##료는
추기
개그맨
강해
무비
5번째
대신,
러셀
암울
알려주는
급식
포션
활동하였다.
생략한다.
실루엣
"I
인력
전작인
지점에
##-EN
선수단
139
학년
##겨서
대학에
##시간은
흠좀무
일렉트로
##크레
칼라
고리
평범하게
파랑
개화
전도
레벨에
출시한
16년
03.
151
##ART
피카츄
영역을
##OCAL
#000000
하라고
##가이다.
수익을
##전인
##적일
203
기대할
다중
미끄러
한숨
##우먼
홀드
적절하게
카밀
소꿉친구
소소한
상성이
##행에
결국에는
얼굴로
베이스로
스미스
뛰쳐
타우
대한항공
##use
데이빗
##new
172
하기에
##측은
##잖아.
##쪽을
공격하면
달걀
북쪽으로
운항
달래
좀비가
은퇴한
##집의
##other
리그에
형이
위협적인
하스스톤
조커
친하게
##톤의
##-24
천년
진행하고
시체가
중추
고산
장학
5시
생각하며
앨범에
소식
역에서
행사를
##블루
Music
##하로
##충전
사이타마
단선
라파
살기
당시에도
문화가
단어는
불리고
차남
##테라
##타임을
사회에서
1위에
수치는
##2동
##감,
해저
116
##상태로
샐러
미세
잡아서
냄새가
복용
아랑
회계
재밌는
##비서
##층에서
다해
단말
숲의
전통적으로
##목은
결정했다.
유리하다.
여자는
만들지
동료로
대상은
6개의
색을
것인가
이화
기수
왕은
시작하자마자
tvN
넘긴
3단
밀접
신호를
승급
좋아하고
부과
왕실
일컫는
17년
때마침
##내야
대령
##air
##이지,
활약했다.
기피
무장을
버스가
정체불명의
대왕
주장도
구하러
합류한
아바타
떠오르는
신상
안에는
바다의
고안
무슬림
이동이
##:59
뒤덮
##월의
##돈을
'소
6.25
##대학교,
출구
교섭
Bo
마징
것만으로도
부리는
박물관
2면
똑똑
어플
3호
##91
마시고
12시
담당했다.
마술사
114
토너먼
개연
광물
나갔다.
벌어진다.
##근을
##성인
156
##S의
있는,
규제
##진에게
습격을
태생
갔을
후예
강화를
메갈
164
무엇이
바꿔서
4:
다툼
사이보
##프로그램
기간에
홍준
##나온
추가되는
지날
못했을
2루타
격리
Summer
Blue
스트레스
병사들이
성인이
아직은
멤버는
##측에서
174
대각
4~5
외로
##감하게
아홉
포병
##헬름
2.3
HS
겹치는
렌즈
말하면서
아루
1개를
일절
보스는
작곡한
지선
못했지만
##파리
간략
낮게
농락
능력의
ARM
비례대표
배에
세워진
##혁의
거래를
##우에
##쿠니
혜택을
행적
##준을
기념으로
##현대
2권
죽자
결정되었다.
갔다
기차
용량
주변에서
마마
불쾌
아깝
##받던
최후를
같지만,
##연과
##학과,
엄격한
액체
강타
씹어
##ors
존재는
UC
##하듯이
##ittle
뿜어
##말고
//
##비나
##범을
사모
힘들게
과일
##배,
성공하면
HP를
외야수
하이브리드
##루살
##때문
DJMAX
동호
명인
1939년
맵에
0.7
서해
반영한
스파이크
적어서
##란과
##충이
##하였을
전쟁은
맺은
##히면서
공허의
##복의
넘사벽
도와주는
"A
경력을
1956년
들으면
시장이
우리를
##왕국
넓게
##시노
##2로
##vol
##속은
2D
##94
오늘의
공습
양보
##거리며
동래
##한테는
이것저것
쌓인
중간중간
파괴할
영동
편찬
##을,
이야기로
스냅
것의
##급,
##싸움을
세가
호세
본거
접어들
선구
왔을
적들의
하였고
코요
##그와
대결에서
##랜드는
입국
가격에
인간으로
서초
2013년에
2위로
정조
##습니까?
고베
넘은
##함대
많으며
경쟁을
beat
나루토
보상이
표창
2,000
직업을
우는
바뀌고
염려
느리게
신축
전투력을
노동자
좁아
드립이
기하
초능력
##궁을
But
싱어
변경된
딱딱
##ational
유력한
무리를
것이다
획득했다.
한마디
Dance
##상자
설립한
유난히
시장을
##시드
세키
울음
##->
올라가면
없어.
보기도
##기계
##시대에
북한이
사용.
지구로
##색과
확률을
동조
손톱
##인만큼
##장치를
##방과
이해하기
사슴
##졌지만,
정치인이다.
제작을
언급한다.
단체로
초점을
상황에서는
회피율
않겠다고
원문
사용하기도
파티에
Don't
사건과
ADV
오피
##제국의
구석
##무대
##워크
벌이
한미
##ally
병원에서
컨셉을
수험
##보와
어디로
파스
나이트메
성기사
##는데다
테일즈
NP
스토리에서
##margin
좋아한다고
구분이
##패,
친정
명단에
##된다면
##려다
##한게
##학부
##ons
HK
경계를
인형을
30대
가급
가솔
##루살렘
시청자들의
##나오는
##선도
기사의
죽어서
내려오는
마르코
연상시키는
원망
디에
체제를
편인데,
##반,
일본,
전전
##범의
묶여
##2는
유니폼을
##더,
시점이
보기는
##공산
##편이다.
김형
내전
빠지고
의지가
전술을
CON
타인의
##득점을
##폭이
본사
신세계
##/15
동탁
산화
##사이즈
무실점으로
양호
패치가
##레드
해도,
현실은
아오이
구마
##라니
풋볼
이블
아내를
후안
3.1
승무
못하며
실천
버티는
입힙니다.
제목의
외래
##수입
UF
##트럼
못하다.
변속
다르지
보정을
여자의
펜타
열람
##교,
161
출전했다.
"미
갖는다.
113
웃으며
박사의
##아이템
동참
최약
행성의
##렸는데
중국,
범죄를
##idth=
기체의
##변속
버티고
슬로우
있을지도
패배.
속도도
캐릭터들
박경
범인
혼동
##차지
피해는
묘한
홍성
##부족
축구를
퍼붓
2012년에
역대급
스튜어
##ivers
##행위를
무너져
2/3
꽂아
아들의
퀄컴
##대회에서
영상에
야마구치
수락
한발
#2
워낙에
탄생한
떡밥을
##데가
##몬과
네놈
없거나
파우
##비어
아내와
교회의
포스를
##ual
##결에
##퍼드
UI
쿠바
##물에서
148
퓨전
앞면
#!wiki
##아에
우승한
연기한
Just
투하
##멋대로
형태는
RC
루리
반항
Out
입힐
닉네
불분
모르지만
##TC
##번호를
##[]
기록에
파도
편한
행렬
##인해
이기지
죄송
##회로
에피소드를
헤어스타
종료.
스윕
##카에
마음으로
클립
##서비스
##9%
예전부터
##드립을
but
시작했고
4세
6성
##탄과
줄리
##업은
연금술
서민
##UR
순간,
능숙
##교육을
럭키
못지않
#ffffff,#dddddd
VOCAL
##직원
프랑스어
시를
유저들도
유소년
맥도
번식
카무
이보다
직속
가능했다.
장소에서
가슴을
##평균
##불이
사이트에서
OB
바란다.
개구리
듀오
지팡이
아이러니하게도
Over
떠돌
##슬을
모델인
내구도
날은
나섰다.
##애가
유유
맺었다.
##찬이
쏟아져
##1로
LCK
던지
하려면
##세인
##나라를
후반에는
임팩트
윈드
지역이다.
레바
스리
독일어
##50%
환경을
외모를
##렸다
스테이지에서
각기
센티
##더와
웨폰
증거를
사기를
##역시
자유자
휘말려
##역()은
피치
##58
아이들의
##바리
공직
##렸으나
책정
바다를
##목의
2에
비타
차원이
##IE
선보인
발동하는
[math]
살이
##일지
1주일
여기에는
타입:
정전
터렛
##멘탈
##숨에
역할도
담임
소극
조조가
중국에
트와
##모에
##엘라
가축
김영삼
오타쿠
콜롬비아
아프가니
비명
용맹
##당하지
##미츠
하거나,
##리그에서
하남
바로는
해임
get
만들면
##해보자.
반역
##오오
20개
스테이지를
드워프
부평
다이너
##/24
"The
2화
##초등학교는
아침에
조영
좋겠
포효
그레이드
##거진
##이라면서
만들기도
##버리고,
대고
##르노
일행의
건가
노선으로
1천
심장을
윤리
파워를
이해하지
##클래스
프로듀싱
군대의
뒷받침
설치되었던
TE
때나
##개조
마법사의
급기
##비도
레스
성대
세츠
##아.
언급하는
문자를
현실적으로
담배를
##aj
##열은
8위
##4의
##격의
영국과
ab
당하며
##렌이
대도시
스켈
타일
##하우
탈락했다.
한가운데
빅뱅
사찰
사출
신념
##는가
##되도록
강해서
##스터가
국가에
애틀랜
4.0
용기
##라인을
드물다.
후로
"T
감자
공세를
노블
반격을
좋아하지
제목을
보스전
"마
am
각오
자기는
하도록
2018년에
아쉽게
su
불륜
점거
처분
유영
##피로
이르기까지
부추
##표로
20초
알고리즘
정부를
##riend
원정에서
##해는
126
163
아프가니스탄
놓아
성우인
정립
때문이
꼴이
##한은
발악
신작
문제와
##게.
살해한
1959년
국가는
의외의
존재했던
미묘하게
##팅이
153
시즌은
부려
회귀
##주기도
일어나고
희귀한
다이나
자진
천지
##히어로
만들었다고
고조
세상이
허리케
이루어지는
문서.
##미네이터
덩치가
유신
이이
SCP
김정은
일례로
비슷하지만
양을
장점은
##유로
결론을
##atic
남성의
출고
2에서는
속을
것이므로
카니
##더스트
결국엔
1947년
감히
나락
들리는
넘어간다.
기구
FB
알코
##기면서
아버지에게
매운
표방
##량,
일러스트가
관통력
바뀔
2세는
대행
부품을
일격을
품은
##주고,
스킬에
드라마의
마타
##나시
3세대
미국에서는
정렬
동갑
##진다는
영상의
트위터에
철저한
style="margin
Power
모닝
인도의
퇴출
30일에
Af
독일이
맛있는
발광
엑셀
##프터
존재하고
주위의
2주차
남발
코디
##움에
##미술
루팡
##버섯
##즈에게
보스.
폐지되었다.
대대적인
갈고
제13
도망치는
느낌으로
피안타
##토벤
선택하는
구입할
Lv.4
만회
속이
이후부터는
재난
함경
##왕,
1952년
주민들은
아프리카TV
##이트의
비교할
태블릿
##UE
117
단숨에
주식회사
FL
노비
명령에
방호
주재
하는지
유배
반감
사스케
"B
'시
교실
##'란
##맞은
운영체제
브론즈
4승
서치
염두에
Dis
줄일
##itch
##있고,
호전
어쌔
충북
벙커
볼륨
수단으로
무장한
##방향으로
만하다.
용자
선택이
##한다면,
스커
증기
채집
조르
출퇴근
밸런스가
끝내고
##쿠와
개발자
##rain
마쳤다.
소실
쿠라
나미
제15
##브와
포함한다.
조선민주주의인민공화국
장소가
전리
이동한다.
벌금
##스럽다.
Sec
대응하는
##에서나
유비트
##규의
드리블
안타깝게도
손자
지크
##경험
장원
##rist
군대는
##GO
사내
기여했다.
드레스
사정으로
넘어갔다.
작전에
전개를
죽었다고
강대
##걸이
레스토랑
잉글랜드의
대여
##버리기
##황이
아니므로
김택
이마저도
하늘에서
집안의
아르메니아
끼어들
##ina
##쉬의
SL
높았다.
그닥
금호
포함하고
나왔는데,
데뷔를
세컨드
의문이
선택하면
보호를
병을
성에
제재
휴가
끈질
안돼
남극
츠루
##2%
나오자
Mon
스완
지배하는
사장이
제18
자위
##층으로
가문이
광탈
##로지
빼고는
##bo
사용하며,
##,000명
디버프를
Win
런닝
##차고
##각으로
프리즘
이곳은
##산역
MX
번호는
물약
기반의
신과
##품의
##부분이
담당한
싸우다가
아우구
독을
##뜩이나
항성
요시다
받던
아이는
미국을
김창
리우
아멜
건재
##vs
투수로
인종차별
At
추첨
##거에
El
결전
##샤가
사망하고
포켓몬이
거리에서
상기한
타서
행적을
소모량
##해머
무기인
미도
예루살렘
포커
되었으나
아줌
##황제
스타트
처참한
시집
##이름
20일에
출연하는
21세기
##-F
패왕
초반부
파수
##소스
프로그램에
얼굴은
한타에서
승리에
##그린
##라면,
이동을
자각
##슈퍼
순간적으로
##지므로
팀명
높다고
반지를
만나러
갑작스럽게
빠졌다.
석방
않거나
전에도
쏠쏠
중상을
대표가
다양하게
##으니...
돌아다니는
시너지를
출몰
##립스
사실,
소대
##고등
통용
##았지만,
##let
시작되는
나타나지
굴복
홀딩
##주의가
이것으로
Rec
맺어
펼치
##품은
훈장
설도
1955년
사르
처녀
입으로
##세력
이용한다.
Pv
당첨
정동
활동은
무릎을
쏘면
와인
특훈
스토리에
높아졌다.
School
##인이자
day
##동네
강철의
멜로디
청동
출근
UFC
가상의
공익
##.31
여왕의
장의
변경.
대한민국에서는
##디아라
이만
1을
않으면서
읽는다.
##우러
반환
성숙
연수
홈에서
설립되었다.
대사로
임페
##귀가
돌격소총
필드를
원숭이
만큼의
이스트
##파이터
생각으로
플로리다
##놓으면
가뜩이나
바실
장르의
대통령을
수정되었다.
롤러
송출
##물.
Res
퀘스트가
성적으로
레이저를
확인한
상처가
길가
##인수
사이에서도
계속되는
카를로스
TW
걷는
##티,
##턴의
현실적인
블리자드
대타로
허위
##아에게
##투자
군사적
Sing
꼽히는
피처
##양과
드러내는
사마의
저글링
기사에
김치
북구
공격.
포함하는
캐나다의
말소
사용했던
##주의와
새로이
스모
##택에
상태라
돌아오지
로그인
돌릴
##산동
##점도
MLB
일당
##욱의
근거가
##건과
낮추
애를
없으나,
##씨와
겁니다.
술에
숫자를
독일은
3편
터질
제작자
##고등학교,
균형
법한
중상
##tr
서비스가
보기에는
선교
연말
고분
승리의
황후
##들이는
관하여
등급이
전장에서
타나카
뭐,
어워드
의식이
만났다.
'진
173
버림
서쪽으로
어시
도메
서킷
있으면서
총으로
CEO
삼성전자
측에
##내는데
탄을
존재하며,
동료를
제주도
거부하고
항공모함
밝힌다.
역사의
컨셉으로
어이없
후려
##폭풍
우두머리
기성
잘려
진상
서울의
##마.
##마켓
일러스트를
경고를
굴욕
그라운드
편이며,
##예선
최초수록
일으킨다.
구멍을
just
로버
밑의
##용과
12년
벌인다.
##몬은
균형을
몸은
하지만...
바꾸었다.
기준을
기체를
##빈은
##경영
##갑을
띄게
##기라는
장점.
"가
코치로
##인듯.
변장
세탁
앉아서
한탄
전투로
크립
##아라
준비가
##연구소
코마
후궁
마리가
동계올림픽
더한
이데
##란에
주체
최장
루피
인질
VOCALOID
장군이
##워커
관련한
320
##사태
포함해서
준비한
어딘가
BD
박준
입법
##게임을
달성한
공명
상금
간판
##잡을
거슬러
무겁
154
파괴된
엉뚱한
##증에
브라이
세미
키는
##부분에
캐릭터다.
예정이라고
주유
창시
침해
##보도
소녀가
명목으로
2단
밤이
IDOL
대적
윤석
성균관
세트를
새겨진
##ield
나왔지만
8번
##이트가
사례도
김희
솔저
자금을
점프를
플레이어블
##나갔다.
Ep
나라는
무거
츤데레
##에가
노래의
##...!
##야에게
우월한
돋보
##하리
옮긴
감소,
지칭하는
심사위원
##어찌
하수인을
우승에
그립
주민들의
1개,
취하고
2017.
베토벤
##트도
##프레스
방영되었다.
덕후
말하기도
##대부
줄어드는
굴욕을
##으로서,
도미니
산소
146
만나기
망한
좌파
##-b
##남의
모델이다.
변신한
병합
찌질
테스트를
##면허
##olog
대패
포켓몬을
토착
3천
우연
이관
##거,
분리되어
마우
신화의
##어인
##ERO
되었기
드라큘
보통의
활용해
##베르토
4분
나눌
쿼터
진행될
많지만,
주한
2500
모으고
자리잡고
##평화
##매는
표출
##다녔
C.
내용.
배송
억압
킬을
보우
정신적으로
세월이
들러
주면서
최성
우미
##버스는
##VER
않았는데
문서로
입히고
스폰서
##ty
단점.
마디로
무빙
잠들
157
1953년
우메
판결을
##근의
교통사
MR
우편
이상일
##학과를
##융합
부모님이
발견할
상관이
틀림
꼬리를
끝장
##-X
##엔진
2010년에
OPS
드러낸
베네수
줄곧
##했다며
방침
즐겁게
King
동안에
선거구
신뢰를
##리터
뿐인
고려대학교
알프레
##카즈
생겨난
손꼽히는
동쪽으로
what
변질
##aid
앨범은
분량이
한국에서도
스킵
여름에
Leg
뭔가를
초코
##탄,
안테
##령,
경희
파인
##순으로
제공하고
홈페이지에
드루이드
빨강
화상
것까지
서북
떠나게
웃긴
주전으로
##샷을
##킹이
비즈
아부
주장하고
가구
덱이
##독을
오늘날의
성당
방과
인류가
숨은
모여서
사리
방문한
멀쩡히
늘었다.
치루
회장이
이누야
회사는
쿠르
##비언
사상을
경기.
콤보가
fe
놓았다.
##A는
'부
중국인
타격이
벌여
후자는
1에서
맨시티
손아
포기한
다양하다.
적색
에코
##라로
##턴이
아니냐고
달빛
마을로
콘스탄티노
다뤄
지역과
##A가
##1동
##급에
강행
안그래도
##캐스트
##놓을
설상가상으로
노이즈
##액의
세계는
VR
무능
밀라노
##살에
화합
갇힌
포토
보던
시가지
지름
##레스트
창당
한몫
선물로
다저
왔다고
##퀘어
배로
##역.
##리카와
단백질
"모
##냈고,
선택지가
몬스터.
##하려다
음반은
적들에게
##척을
출연.
배우고
무너진
18년
카시
6대
999
단번에
##검이
"우리
피겨
##느냐는
왕국을
신성한
입힌
A3
따지자
패트
유저들을
잭슨
무게가
사범
유타
##평이
들어와서
빼돌
중2
##anch
"난
##둘러
코스타
편이며
##무와
독백
부대는
##종이다.
중일
사우디아라
Gold
키쿠
협의
빚을
남미
##아이돌
게릴라
피신
가슴이
167
설명한
엔딩이
엔진은
살해당
놓치지
식별
##족,
키르
##마리의
해주고
##도.
죽었을
##ke
구간에서
촬영을
퍼포먼스
벡터
살았다.
원천
음악은
말,
##쳤다고
한복
소환된
안좋은
메일
제12
문구
주장하였다.
판을
스크래
사쿠라이
공통점이
테마곡
멘탈이
Lo
했는지
무장이
국방부
휘둘러
던전에서
시신을
벗어나지
Mod
##키타
##는지를
프로모션
히데요
MT
한지
지상파
세균
월요일
##탑을
게임과
&amp;
대목
제1회
열등
##키스
등장하기
자유자재로
이과
알고보니
##고쿠
##시키는데
##.50
S.
자민
1919년
스킬인
다니며
메르세
아벨
포니
리프
가능해졌다.
마에다
방영한
##승이
한국전쟁
성공적인
##학에서
제리
슬리
팀인
리그를
애플리케이션
##움과
##A,
존재감을
##ret
##공격이
리모델
##사전
##블레이드
##ouse
##맛이
산성
슈퍼스타
입자
있겠지만,
행위는
머스
속박
아드
##의원
PVP
작별
채굴
아니니
배경은
##핑을
한정판
171
언제든지
노르웨
작정하고
Rem
##ony
과정에
가다
걸어가
기운을
군데
##구단
엇갈
잔혹
##죽을
꽃이
등장하면서
정부에서
욕설
이성을
트러블
교수는
수명이
불안정한
나날
##부분을
시작.
##총리
2011년에
##왕에
시작하게
먹이를
보였던
직업이
딜레이가
날개가
치른
다이노
불필
서남
왕으로
##04
Miss
그렇듯이
확정된
##잖아?
월드컵에서
개인이
두께
악용
##ane
하드웨어
딸의
미래에
End
패한
벨트
##온과
##row
공포에
왕위를
없이는
##스페
'공
높으신
##/이
##렉트
일이었다.
##예가
0.1
피라미
시리즈,
방면으로
1타
컨테이
에어로시티
불에
##atale
호박
##경비
휘두르는
일쑤
##-29
라인전
인명
내륙
누르
입어
회고
서울에서
데는
만들고,
영화제
기억해
##인듯
##보건
##집니다.
공격도
'성
1티어
개구
##무에
엔딩에서
'도
샤워
운운
##요소
##,7
유고슬라
##기로는
분위기는
##?"라는
전념
튜닝
##자:
나라에서
지났
기업의
스펙이
슬래
##행은
아이디어
##elf
사례는
YOU
열려
Ab
이윽
도시는
강력하게
케네
높아진다.
강조하는
책은
편이었다.
휴식을
삭제된
일개
대진
성은
##환과
시위를
벌이고
미셸
이노우에
최선을
놀고
바주
##광을
위주
속도와
슬러
출신이
Femm
스파이더맨
노숙
정은
되돌려
집정
night
직원이
리츠
우츠
하노
##던가,
촌이다.
것이지
##쿠리
##전함
##실히
시즌3
내려온
모범
박해
##스부르크
##버렸고,
인기는
3주
가미
고를
제도가
코타
당시,
"M
학생들에게
##대인
##쉬는
전교
히드라
##백화점
이츠
'M
##93
##분류:
무단
절규
걱정하는
EMP
소녀.
천둥
치렀다.
멤버들을
모델링
활용하여
##나간다.
주장한
##하므로,
걸리지
얇은
여배우
통보
미군의
아포칼
게재
궤적
귀를
밤을
퓨어
##안에서
##먹는다.
나타날
보너스가
함정에
"정
생기고
##래가
어찌어찌
Che
##항에
사랑은
테리
근본적인
.2
하기로
체력의
높지만
학생들
고토
보답
##티코
그렇게까지
복싱
어둡
지미
최소화
TH
퀴즈
시스템에
1년에
하늘에
서술한
SV
범인이
우타
바이크
좋고,
한명이
##치료
##칙을
회사에
대학에서
if
턴이
기간을
먼치킨
##-아
1992
'수
사오
옮겼다.
확연히
##pl
일본식
##다닐
##찮은
멜론
유치원
손실
신들의
##해군
'내
값이
우아
결혼식
일러스트레이터
'일
간격으로
얼핏
##사이다.
보스인
거세
살았던
##라디오
국산
##측이
+0
받았지만
데에는
미로
##집단
낳았다.
달에
대학을
남는다.
자연스레
컴퓨터를
man
쥬얼
군대에
구르
##았으며
formula_1
클리블
#1
링컨
모방
##먹기
##덕에
카운티
김전
알제
##라고는
손바닥
##급한
피해자가
리부트
불완
##렬하게
##갔고
타이밍이
협상을
걸맞는
불로
주제를
##카제
진행되고
루미
이론을
상태에서도
위엄을
믿어
섭외
조수
"무
발매했다.
회복한다.
복귀했다.
암살자
시드니
라인이
준우승을
승부차
보고,
쌓은
와이번스
거제
사역
첨가
최하위
진흙
sm
예가
루프
맹활약
어떨
##드려
경로
##강에
##연하게
##충을
것이라며
군을
성추
그러고
Di
독이
깃발
죽어도
줄이는
##HD
##하였다는
배치된
길은
##소울
25일에
FemmeF
로제
임진왜란
FemmeFatale
유목
set
##이시
##@STER
AE
산다.
유능한
제멋대로
투표를
영미
방화
보호하는
삼은
스노
꾸미
##02
##게리온
시야가
Sound
연이어
옆의
임의의
유세
투자를
공의
적용되었다.
아닙
장난을
저널
제한을
DX
많다
제17
기본적으로는
수령
##vil
한국어로
##레와
도시에서
인트로
징징
적발
연합군
필사적으로
알코올
4명이
온건
하겠다고
주장에
입히
치뤄
토네
##맞는
태조
브레이커
나가고
2009년에
명확한
얼터
위탁
##es,
곳.
살리기
인정받아
경신
기량을
##중에는
##애틀
분류된다.
내어
예외적으로
안치
엔트
타고난
##덩이
필요하다고
자잘
##렸으며,
선수.
결혼한
##위원장
동료들과
2로
2세가
점으로
회의를
능가하는
복음
에일리언
성명
##려다가
예선에서
있었는지
공지사항
이반
생명력을
연상케
알아채
우드
타노
착용하고
더럽
범위에
166
구성을
시초
팝픈
카드에
힘들다는
}}}
높고,
유죄
##+3
사용자의
겪었다.
말장난
오징
초토
소모가
나름의
직격
나이지
울려
##망에
맞아도
호흡을
관절
액셀
찍힌
영화배우
제이슨
사례를
멈추지
##추를
##파르
발동이
정명
나온다는
무한도전
사사키
없도록
##'인
환경에
14년
식.
코바야시
요시노
##특별자치도
변명
##탈출
아수라
간행
아에
폭이
스네이크
S레어
따지고
마야
대도
선곡
환호
##민에게
공개했다.
외엔
중얼
출루율
임관
영국,
2008년에
##br&gt;
신임
##"며
##본은
이상인
방해하는
스케줄
##증은
마인드
3권
시켰
심어
쪼개
##상도
패치에서
날을
##지도.
##놨다.
하지만.
친구의
멈춘
치면서
경매
간격
밝히고
##ze
그런데,
환경이
스트레스를
모드는
파산
인간에게
결별
##메의
##편집
복귀한
덱의
리마스터
##고.
##오니
등장,
빠질
진성
칭송
코다
애정을
잃었다.
전작에서
##다',
MASTER
##테는
##수산
##학교에
카드와
탈옥
온도
##메시
##.60
전성기를
Air
매력을
1세의
Li
올림픽에서
분야에
2는
"C
##버스의
음주
갈린다.
세션
##치기를
하겠
Art
##오닉
존재하며
##하다가,
##치고,
28일에
겸임
이문
축에
장착된
뜨고
##ny
내주고
1이
듀엣
피곤
저주받은
대표되는
괜찮다.
왔던
##투로
리포
문구가
학대
##루트
##분석
##살로
키즈
받았으며,
달려가
EM
그제
##해!
검의
좋았다.
파벌
있을까
타락한
##아버지
팔라딘
웬만하면
별명으로
디시인
달콤한
넘지
든든
지정되어
조지아
##''
##토로
언론에
질풍
데스티니
##됐던
열정
##ecial
수수께끼의
BT
씨의
##적한
외치며
##여름
슬라임
별도
뾰족
호리
##처의
눈물이
집결
동봉
##야하는
만화의
성질
육체를
활을
대체할
링크를
시장의
정유
프랑켄
'다
손흥
스팅
항목:
2명의
CCTV
타협
애매하다.
공간에
대우를
##-이
휘하의
##달을
Cat
성질을
##누마
슬라이드
길어서
좀처럼
직역
효과에
개념은
릴리
센서
파악하고
정진
동남아시아
Ord
상당하다.
안전을
##점인
유나이티
##/30
울고
각성한
북유럽
퍼뜨
##판인
생각도
##룡을
##정부의
씨는
##카쿠
##G가
##연장
무작위로
??
토로
##옷을
붉은색
Hy
슈가
##만명
##해한다.
##언정
조나
혐의
과정은
단계에서
꼴을
다단
어퍼
##무니
##보통
지식이
볼넷을
지나면서
보이면서
종교적
##루미늄
가변
애당초
전학
죄수
1시
##자였다.
지휘하는
알비
##술은
이윽고
##.A.
3화
불확
##RAM
오재
네코
심화
1턴에
패트릭
##-200
##시즌을
신천
오토바
카자흐
것들
그놈
##버스로
##혁은
수영복
맡기
##증의
##황의
화약
##팀과
##.99
##본의
키운
이기면
복수의
##/9
##하였기
빼앗긴
못하도록
여덟
##훈과
방지하기
이었다.
마리의
브루스
처벌을
비해서는
올리면
사냥을
되어버린다.
##ORE
후속작인
##물질
펼치는
작중에
기술에
헌신
인간형
결승에
'하
##!의
점수는
##반으로
##개념
##ars
더러
수단을
BAS
Hard
어제
부하들을
에반게리온
2타
빈도가
섬식
청산
관악
1개의
직업은
##작.
부모의
박격
맘에
주변에는
사건이다.
데뷔전을
방금
비명을
##리어스
마을이
Boy
대격
쇼와
1957년
##기이다.
본질
레슨
수강
총에
패미
##P를
이루어지고
발견한다.
콜라보레이션
가든
##태의
With
믹스
발생하였다.
한번씩
유형의
조금은
눈치챈
벽돌
징계
오인
법인
##체에서
##ENT
공사를
임상
이유.
보고서
범위는
모형
230
모티브가
##너와
펼쳐진
육박
##플을
12개
동생이
뭐라
##나들
##으라는
##태는
다니고
부합
##할수록
요미우리
라오
맞춤
주위를
줄이
##ana
프로세
어깨를
캐슬
##가요
실패한다.
##스럽고
본편에서
얄짤
포털
##것과
있다고.
9위
등교
섀도
친구로
어려웠
출전해
싶어하는
액세서
마음껏
중점을
##요원
##생은
이상적인
1988
도르트
라비
가능하다고
1920년
##재료
##런을
들어왔다.
입지를
Ke
도호쿠
두어
1914년
사의
##캠퍼
지정한
##구경
찍으면
경기수
App
##엘을
5,000
리볼버
##데의
기준,
가족과
책임이
현행
##규는
##길에
##데미지
It's
RAW
시궁
142
서로가
02.
##총독
한국으로
기간동안
한때는
정부와
역설
인터뷰에
파이트
진영의
몇년
싫은
버거
재해
하드코어
시너지
윈스턴
##이다!
대회가
하위호환
대잠
##폭력
##ren
망했
별점
촉구
중요하게
무엇인지
느껴질
스테이터
3호선
대화가
질러
##고자
칼럼
##ness
10일에
그런거
목동
##곡이다.
앞마
구장
치르
##스라는
단역
어처
평가받는
CT
완수
무공
번은
토탈
웃고
##티와
디트로
'C
먹이
않았으며
생전에
합창
유래한
나한테
내서
##차트
사극
##화하여
돌아서
카부
헬기
##행동
클리어가
열차는
효과적으로
두지
20,
우주를
마자
맨유
탑재한
버젼
있음
1936년
##>,
선거구에
##공격력
류현
연구하는
첩보
카레
##하세요.
김세
놀아
##리어가
구급
데뷔하였다.
법원
##호텔
하나였다.
음악의
저스티스
DB
패배한다.
1990
수복
##라이즈
묘사되는
프로젝트의
조폭
우주선
페인
스타팅
후보는
지명을
짝이
##개에
##베가
하였으며,
모험을
종류는
권총을
경찰청
1-1
##arm
지하에
공동으로
악성
패를
##시게
에피소드는
골목
실정
##/14
리코
##지오
뚜렷한
장군의
##는다는
바르셀로
부자
안되
##요일에
주사위
승패
대전광역시
부여하는
탁월한
입에서
구성원
반응도
가방
몰입
밖에도
재조
132
역임하였다.
Elect
전태
##.70
되겠
팔찌
운행을
가까스로
참가하는
귀중한
부풀
브란
콜드
번째는
산을
시구
존댓
##곡,
최근의
##rop
시애틀
제후
코카
##교에
'세
##건으로
##돈의
SO
버전에서
공세
##집은
영국은
왕비
인성
어렵고
오리콘
T-
미시
##판.
15,
동창
진군
##시킴
1951년
되었지만,
시청자들에게
과학기술
##녀로
##끼리의
엄청나
구조로
달리고
당당히
##시다
다니던
붙잡고
##인민공화국의
유포
이미지로
위치에서
운영이
##소득
##록이
가리는
레닌
쓰이
용기를
나온다
##패치
280
관련해서
도마뱀
끌었다.
왼팔
Hell
로비
임요
임창
불과한
것들은
##해왔다.
##끝에
확정지
초창기에는
6000
Song
가치는
드러냈다.
1938년
펼친
##간다
##무부
147
리턴
아픔
좋았던
개인적으로
GR
깡패
화신
143
숫자는
존속
##보수
##근,
기록된
뭔지
촉진
학창
형님
##공영
인정한
스탯을
살인을
캡콤
##안군
##드나
##마사
##.S.
백악
빌헬름
던지고
루머가
##하단
병사들을
##루에
짐을
##담당
##기본
##on,
효율적인
박힌
차세대
되어있는
기술과
배후
141
이야기다.
[[]]
알로
##출한
인과
만큼은
튼튼한
김씨
##reat
미르
세계대
연세대학교
대법원
공격하여
인가대수
"고
3시
차량으로
대인배
##스타인
'저
##행의
있었다면
스킬과
경기였다.
황제를
##s의
라미
##슈트
2루타를
도미
장비는
생기면
프랑스는
재보
시리즈로
성격도
글씨
사료
##기엔
##토끼
들어선
##이지.
덮어
영지
제레
동안의
##omb
6%
신드
##무네
'최
서스
앤더
줘서
초강
##모자
##병들이
동영상을
싱크
조종사
컨텐츠를
##질러
##유지
제작되었다.
기억하고
정벌
세자
식이다.
우리들의
찢어
##ORM
소피아
타게
탐구
##전력
거뒀다.
해밀
달이
"D
미완
결정한다.
형성된
2시
##1%
교단
방이
팔꿈
##ward
##피해를
넓고
의미심
##선발
##있으며,
미야자키
검사를
월등
재혼
힐링
##었습니다.
도르트문
1,0
전차의
2007년에
나가지
##내기도
정의의
기밀
##rand
미스터리
화소
##'라며
##질수록
##직업
##노프
평가도
기타사항
가운
감전
섬에서
최진
타면
##통의
5의
##~11
##주의는
VIP
눈치를
수렴
스테이션
동생을
대타
형을
##까,
앞장
펠리
##탄으로
##ALL
밝고
저상
##급인
##회전
내용과
견인
단식
문과
##왕후
제국에
오즈
소재가
구해준
서적
##돼지
전반에
사천왕
입게
커넥
##철을
149
대비해
두꺼운
##다...
모델의
마스코트
첫사랑
청원
표기는
##84
아테네
원한
발리
아이들은
지원하지
'B
##여자고등학교
데서
지표
##ery
출연한다.
크로니클
공유하는
9번
카일
팔고
하지는
기마
서류
129
행정구
밀리지
##혁,
133
효율적으로
누명을
##올로
##해달라고
##컨대
인증을
조로
##곳에
지구에서
미션이
관할한다.
##거니와
변함
지력
##경기가
이러면
##레아
땅이
김혜
규칙을
야당
맞먹는
밸런스를
B.
흘리며
드러낸다.
만료
##성장
##AG
##갔을
따라서,
거슬
증후
사회를
상위항목
깔끔한
바쳐
역사적으로
매진
청량
충실한
대두
지배를
"사
줄었다.
##소환
##렸는데,
막시
이겼다.
코가
솟아
수식
지면
돈은
예정이
##그레이
27일에
GDP
산책
##준과
##욱은
##appy
##주의,
시절,
릴리스
##EE
공휴
잔인한
도망친
지나가던
게,
예전의
시네마틱
don't
싶었던
중위
##마니
40분
전방으로
4가지
무명
받쳐
일가
##과정을
##위원회의
소개하는
관동
속삭
물리학
고시
키스를
SG
조현
좋다
##해지면
##식품
견제를
사나이
예시로
##순위로
동요
15:00
피츠
과거가
2016.
격렬한
대관
포로로
초회
##계승
##검찰
마법에
뭐라고
있을까?
구독자
레이나
금발
##액이
##봉이
사이에는
스폰지
송병
고려해
본디
알루미늄
데려온
안드로메
못하면서
요우
중국을
꼭두
받았다는
블래스터
컨트롤이
맞아서
##이었다
Run
물량
원격
꿈이
##코르
멤버인
##사항이
대위
오디
나가면
1주
오스카
Arm
미스테
##가기
발음은
근원
##비히
##리그의
점령한
붙여서
'T
플레이로
국가로
브라질의
열차를
##돈이
시즌부터
루이지
앞에서는
사용되지
대회는
SHOW
2.1
상에서
의장
편인
표시로
##카드가
##않고
13,
270
인류를
격차가
선천
##oid
260
충성을
편에서는
##ning
##먼은
##asy
기술배치
군산
동문
스와
잃지
##que
라이징
캐리어
##피탈
##열,
조심해야
차지하였다.
일러스트는
가지가
수사를
이어지고
만년
파기
무궁화
지방자치
미도리
책이
##통제
##확인
편도
##온,
##확률로
간선
무대로
철회
하코
시간대에
타치바나
단절
대표적
말하지만
맞으며
일각에서는
##잔을
돕기
도입된
혼란에
기쁘
창고
7.6
경량
전기를
##일랜드
##눈에
##사령부
깨어
양식
차트에서
조직이
##이었다면
핸드폰
교내
달라는
만들어내는
폭발적인
강성
도검
올리기
이형
판다
##!!"
이즈미
일격에
표기가
##러로
박주
##군인
떠서
##렌은
137
없음.
world
##bps
바란
자들이
뭉쳐
##트루
##its
스몰
펑크
횡단
설명했다.
대표는
와이어
##버릇
5~6
스칼렛
급격하게
답변을
버금
pr
김인
차려
##몬,
Skill
도널드
볼리
22일에
##런의
플레이에
여주인공
##투가
##남이
위원회
인내
흘려
애로우
했으니
쇼핑몰
아킬
##스톰
모드.
가르치는
2005년에
테러를
호프
##욕이
피에르
이치고
투여
'불
Da
하와이
제거하는
죽음으로
박세
##남자
##지니아
애니메이션을
##IST
음악에
온전히
##평가를
조인
##빠진
잡아야
뻗어
착수
마이애
이해하고
##~40
활약하는
방황
코로
전자는
단원
##ely
##아파
"전
Cy
박병
##정에서
생존자
1.9
##직으로
설정되어
작업이
카더라.
##탄에
긍정적으로
Pe
종족의
썼던
동료들이
음반을
##만과
##재와
##아로
##구도
행동으로
많아졌다.
천체
##매매
내용도
우마
포즈
호는
광선
'너
9년
밟고
제시한
자기의
낮지만
탈출한
##투아니아
##day
18일에
미유
##해주지
##상태에
##우주연
발효
미라클
단자
코끼리
픽업
26일에
대답한다.
##더에
##규,
떨어지기
Comm
136
여성은
##직은
원인으로
한중
##나갈
##위원회는
날아오는
##동원
##화되는
스이
##루스의
장착할
줘야
떨어트
빡빡
양현
그리스도
소매
인식을
드러났
정문
이어질
현실에서
대부
대승
##렸다가
우선적으로
누군가를
씁쓸
처리가
##관인
리눅
미즈키
소서
##가르
언어로
플랑
만들어져
스케이팅
##곡.
##있으면
##놓는다.
애들
지그
폭탄이
'에
##52
##준다는
사랑해
일찍이
삼았다.
스타일로
앨범이
Str
벗어날
바쁘
목소리는
파워업
다가오는
빈사
정치적인
고령
선도
##욱,
"제
어휘
유년
성공하였다.
가지지
동물을
##주.
던질
##레스의
##세기의
자사
광양
간이
그걸로
부활을
올림픽에
한글명
라틴어
4%
고치
차이점은
중시하는
프랑스,
전적으로
##코에
표시된다.
##종료
##이었다가
##버리면서
RS
##P의
15초
준비해
Not
가능해진다.
결승에서
가샤
선에서
성격에
담당.
카타르
당의
부수고
다녔다.
4th
법학
줬다.
방향이
쓸데없는
##56
##등은
##총장
두번째로
마나가
직전의
아세
##FT
10번
재결
169
2:0
삼진으로
원이
정이
장면.
신청을
낡은
농어
마테
종착
화석
##더로
20만
##랜드를
폭발을
압살
##페어
상류
중년
##play
형인
us
18세기
##카로
성격.
업계
의거
천상
현대에
##타에게
##M@STER
2개가
양산형
##증,
순서로
채우
##다간
기타를
대박
근위
동료들을
소설의
도입한
로딩
1937년
난해
작사,
지친
해협
##영에게
##oud
전설이
##D를
편이지만,
차이점이
출처:
이닝을
손수
제대
증상이
비교가
굴려
##루에게
수녀
##co
보여주기
발음을
미워
작성한
중심지
조합은
비밀리에
득실
윤종
스피어
성기
##사자
소환해
미니언
스펙트럼
공속
대신하여
폼을
##왔다는
다이묘
시킨다.
의상을
재계약
등장해서
난폭
잠복
##저와
##쳤을
일진
피하고
대전이
말대로
3위로
위화
취하는
##노에
##선택
인터넷에
느긋
##ient
용어를
이따
정당한
징크
일직
##느냐고
판매가
##위원회가
바나나
매개
그리스의
5:
국경을
봐선
제이크
영화로
기각
##M의
##실록
##~~
이들과
##들었다.
가다가
소리는
시도하는
아시안컵
4호
우파
##운전
Im
식스
심플
##으로의
갈릴
차오
일제강점기
파격적인
##트레이
##령과
##카도
고생을
만드는데
2일에
죽었다는
##버거
##cl
##보며
##였는지
A,
본인을
송파
##발매
라이브를
조슈
##수나
불가리아
참가자
눈은
##술에
압권.
교수의
성능도
열기
티가
알겠지만,
포럼
1군에
##마르크
2006년에
바닐라
짧다.
##RO
##스탕
관련해
느끼지
하의
활약할
##기간이
선대
승천
풀이
##제인
천마
##신경
공사가
버닝
허구
##생,
장면으로
##저,
결정하는
##ship
아르바이트
쌍둥
##하세요
##팔로
동대문
##랜드가
아이슬
##너,
##광의
##워진
이상할
하고.
추종자
쓰면서
##장이나
황당한
17일에
##TER
11일에
전세
포세이
매스
##사상
##KO
설명에
남구
연사력
제로의
가져왔다.
들린다.
이펙트가
앉은
##-27
판단을
##org
당분간
##왔을
2.2
가지로
책의
알파벳
동독
출마하여
##말은
##넣는
할당
없었기에
장비의
3,000
She
아닌지
여신의
오가는
장애인
##82
##박물관
규정이
미오
회담
14일에
미얀
클라이언
평도
복면
태그팀
귀찮은
초사이어
##래를
허브
##하였지만,
후진
패러디한
능력.
친구들
눈치채고
질이
차후
채울
##보안
##삼국
활동하던
글리
재팬
##ien
베른
뿐만이
전했다.
##ham
##부르
1칸
대회의
때보다
삼성의
고백을
##미사일
EXH
베가
버전에서는
공천
기계를
밀도는
수라
##일라
현존하는
##간은
시스템으로
진을
독일군
원전
##산맥
나왔고,
본편의
최연소
제14
쓰러진다.
##이어서
기간은
타니
섹시
에덴
##되긴
차분
독보적인
유진
##신.
프로그램은
01.
발라드
당하면서
무협
이계
정교회
NX
관해서는
성형
문화의
사정거리가
"H
푸는
##게시
##tra
##압을
3일에
바비
##마드
##감치
신한은행
발산
##처는
아내의
보고를
슈퍼아머
일화
한다며
시기에는
느껴진다.
대륙의
교정
##하든
##폴리
무게를
'동
줄기
장갑이
무의식
##구미
전작에
Big
메커니즘
역에
전한다.
테르
상태인
야구를
##텔레콤
저가
동유럽
애드
친밀
구석에
총알을
모호
야전
되어도
마른
어중간
주범
##vent
##쳤고,
미인
목록에
이르렀
"W
##해와
발매국가
하부
현실에
자잘한
3종
인터페이스
제16
잔여
지금까지의
##폭격
##교와
쉐도우
가차
추대
1위는
투표율
9개
슬럼
##니트
안타까운
하네
알았던
##표의
##업자
사이트에
U+C
후렴
##킬로
자신에
달리기
지키지
초등학교이다.
행방불명
Get
브릿
감독,
철도역이다.
어지간히
퍼시픽
경과
세력은
포함되었다.
하라는
수상하였다.
위협이
리나
아이들에게
##민주연합
졌다.
침대
12일에
부여한다.
바쁜
송도
##거라는
신경써
몰린
입맛
##있는데,
공격하기
13일에
구조물
꾸준한
고추
북쪽에
유리하게
합류한다.
##시즘
특성:
착용한
##보살
경우의
7일에
구하고
매입
##03
봉인된
새겨져
배속
차출
##53
발렌시아
배우로
충분하다.
줄은
##집으로
몸무게
앞둔
##자스
평가하는
재미가
막힌
부상이
이송
중원
##빈,
##해야하는
발키리
사지
폭력을
흔적을
##부상
##테루
쓸만하다.
##디자인
라이선
Des
리쿠
박민
오드
##정상
##왔고,
##경쟁
Back
공채
병에
뻥튀
##분과
##Fi
자료가
동등한
로스터
애덤
소속.
깨달은
빠지지
##프트가
##죄로
단단히
나탈
##근은
21일에
1인당
장신구
명에
미뤄
성지
##서.
운용하는
##ift
밴픽
##됐을
##럼비아
##묘하게
미래가
느낀다.
라그나로
번만
##해지면서
필살기를
스캐
편이고,
개념으로
순수하게
매복
했다면
건물로
##ious
##&amp;
##부대를
벌어질
의사소
Top
못한다고
1930년
생기기
1점을
MD
조달
##주에게
##시켰고,
이펙트
매력적인
접한
허가를
인근의
동전
줄줄이
##링,
##경기는
싸우다
뭐고
해볼
신촌
라이드
떨어지게
소유한
시대에는
작화감독
고양이를
뷰티
신라의
쓸어
이로서
차량에
가문은
여자아
만약에
나서야
무대가
햇빛
아끼는
머리는
커비
##-26
무난히
기겁
대출
공격하고
떨어지지
##ATION
풀어주
배틀을
##그룹의
우즈베
기업이
해야한다.
뒤바
##노키
##ERT
깨닫게
닿으면
6차
프리즈
##미지
##끈한
Act
##감소
붙잡혀
왕따
##정도는
##하되
##ump
경감
비롯된
보였으나
##시작
저항을
way
잡혔
안토니오
보았
##시키거나
예상대로
##코.
커먼
##임에
연락이
기운이
도피
원리
##bl
##턴은
##erm
##했었던
##업,
면적
유선
##사라는
##짐을
와서는
처단
실패.
싸우기
'조
Battle
##먹었다.
다르기
##스킬을
5층
경이
보호하기
입단했다.
내면서
제공한
줄이고
##조에서
묘사된
괴롭힘
타석
참여하지
초대형
징병
각색
##명도
##만큼이나
7th
##하셨
##드림
##89
##~"
##+10
16일에
##대비
##우니
자살을
마츠모토
소셜
##창은
무기력
특수능력
시스
진나라
지켜야
개미
29일에
장타율
NL
구간의
카운터를
솔라
없다!
이메
불쌍한
CB
##타노
##무도
##턴에
여인
힘들고
어쌔신
신민
##퀘스트
유저를
하였으나,
1이닝
##라인의
유니온
탄소
##대며
승리한다.
M2
대담
자쿠
저도
달라서
##레이가
아스타
인체
##테를
표기한다.
소중히
에리카
왕과
유지하기
챔피언이
준비하는
1명이
날라
해석이
##시.
##지리
Ang
색깔이
분자
실력으로
줄임
토비
##적이지만
##누가
정신력
일부로
붙어있다.
마포
케이지
언급은
Are
con
살린
정크
##아!
##점프
정책에
오마쥬
진심
친근
##니케이션
강해진
초필살
받아들인
F/L
가산
문제이다.
특징으로
첨단
##the
##약의
##되기에
##각형
수준이라
##생들이
가솔린
신디
아쉬워
보물을
##1명
증가했다.
사이언
교과서
##섬의
고스란히
보나
존스
##라인이
들어가고
능동
플레이어들이
요소는
4층
도구를
연주를
##3명
계정을
더비
비교해보면
비판했다.
바리
의자
협력을
205
순위는
늘리는
도색
서둘러
시정
목요일
##청에
##lock
거두고
위시한
유고슬라비아
형태.
거예
서유럽
승계
진한
마오쩌
심포
효과:
##하드
##or]
발휘한다.
힌두
##나우
받았으나
취급이
민감한
좋은데
이승엽
강판
모을
진공
해본
움직여
고향인
DT
팔에
총선에서
Dragon
궁지에
##캠프
지르
주석
필요하다는
작게
##직에서
느낌.
리카
악명이
##장소
##ape
명확히
정신병
##하라.
가리키
화력은
##롭지
##지역의
That
번호를
화려하게
##옥의
역시도
연결되는
장기간
헌법재판
내걸
##님과
출연하여
항목의
누군가의
싱어송
1세는
대안
다이노스
현황
F.
불상
##윤이
합류했다.
괴멸
'영
법이
유추
##퍼런스
##각은
비즈니스
루스
셀프
안중
영락
줄어들고
비아냥
장치가
##로에서
맡을
먹게
카멜
##분야
##순히
##곡동
##하기엔
안철수
카마
AA
중전차
##상대
##예정
사용될
5경기
제품이
동작을
want
특성은
김제
양평
##머리가
꼭두각
##붕괴
되살아
노골적으로
##방지
꼽을
배척
##트레
##카츠
##악을
그러지
GL
들자면
붙이고
한스
##럭스
집중적으로
Order
XXX
포괄
방영일
요소로
선형
재등
만들게
NS
어깨에
관습
시비
과거로
헌데
일찌
23일에
표현할
##.80
색채
##다거나,
Lv+
시점으로
육식
고문을
생각했던
##FFFF
사바
무기,
참가하여
경사
유학을
정의를
##led
모드에서는
니콜라
읽은
취약한
스트라
외모와
채널을
뉴캐슬
대전에서
지녔다.
중산
가능하고,
사랑과
광저우
##취소
제의
##잡고
남아있던
거치
러쉬
##기라
등등.
실시간으로
맞물려
Fre
제각
애니에서는
사라지지
바꿨다.
형상을
##전공
##진도
이야기에
종료되었다.
##ANC
어이없는
1주차
3억
꾸며
애리조
임용
##주도
CV:
노태
놀랐
재학생
형제가
##꼬리
돌아와서
아직까지도
받아들일
평민
제작하는
죽어가는
TCG
##학습
##라이즌
표현은
로맨스
시타
앤디
1박
650
변했다.
##프닝
세계관의
후엔
등급의
환원
소송을
##두근
19년
누구보다
'A
최영
##ideo
'D
##수송
##때의
발의
왕립
##먼이
소유자
간편
거에
신병
##87
##길로
보여서
1950년대
확정.
##튼의
100년
##anchor]
넣지
동국
##신에게
저스틴
찬스
탄막
##내셔널
도로를
멕시
에우
파운드
흑역사
10,000
##오며
설치할
2,3
##슈의
##콘서
##ute
굶주
한다.#
스스로가
전차가
탑승한
3.3
##종합운동장
어때
적기
조그
태도가
##인들과
치명상을
Ac
검이
이선
품질
실무
취해
졸업하였다.
초,
##-N
행동하는
우습
##람이
선보이며
3시간
3레벨
격돌
먹튀
##서비
##르바
클로즈
길러
흔들리는
살릴
스베
##되어있는
거란
##수정
UR
새정치
##xx
동지
버서커
안쓰
헤딩
20여
비대
데이터가
2TV
sc
눈부
##군도
##일관
나라에
헌납
##태평
##전략
판매를
남자와
로키
style="margin:
류의
입이
##바키아
교란
놓인
##적이었던
##재단
장소는
포트리스
미터
분홍색
리에
음모를
보았을
따지자면
상임
##위에서
처리를
추월
2004년에
WE
선제골을
라이센스
구스타
##중계
##값은
때문으로
Tri
무상
자바
상품을
##술,
확인된
싱어송라이
않는데
사망하는
물리적
법적으로
주성
##공장
##-35
급기야
Every
엔진의
##기관의
있으므로,
아폴로
유라
심심찮게
때처럼
##과정에서
충실히
애시
every
디트로이트
Amer
당하게
3선
오너
자식을
1993
문서이다.
아날
Mr.
양상
##/25
나가사키
비난하는
원동
유가
행성을
##차도
RAM
돋보이는
카바
##mania
기자가
베놈
선언을
Bar
명.
백색
세례
여부는
경유지
HG
공주의
마천
한의
##/D
5일에
영웅은
어처구니
부메
M1
마늘
##/19
둥글
있더라도
##샤를
사라질
후계자
적시타를
뒤쳐
샤프
타당
##부대가
지금까지도
2019년에
134
목록이다.
A매치
페리
라인하르
당황한
괴롭히는
"다
자체로
IDOLM@STER
몸매
서울로
노력하는
'안
##졌다가
##활성
데려다
계좌
묘사는
사이는
도와준
##부짖
##두자.
공격력도
##ize
문법
##종에
대사.
스위트
던진다.
되거나
천문학
다르다는
등에서는
시련
##설에
##배는
결국,
바스
최재
4시
안쪽
##사관학교
바운
옥타
평가했다.
24일에
마비노
교향곡
결말을
최단
1,500
"대
##"과
경제학
SW
단연
##남은
구성된다.
여겨지는
어드밴스
비숍
아노
##플래
아들은
1800
목표가
구자
못해도
일컬
##람쥐
인지도를
관문
매지션
리조
청주시
"네
자식이
단정
보증
##티지
##yout
more
남쪽에
상상을
발휘할
골고
받아들이는
합산
##멘트
##투명
규정을
##조판
등급을
자격으로
터무니
패에
피자
브라더스
유해
작다.
시작하기
운영에
버터
재평가
칼데
##블러
오스틴
맡기고
성수
손가락을
일갈
절차를
##건물
##ing,
무장은
수뇌
행위가
##하트
댓글이
탄도
##기스
만들어야
잃는
직관
##zy
좌우로
까이는
남해
지상에
과부
구타
기세를
사이좋게
좋으면
난징
이녀
카케
##au
겪게
되자,
공화당
창간
특수부대
back
##라이너
미네소
살아서
확실하다.
커플링
형식을
10일,
게임,
넘어가면
DO
Sil
부터는
15일,
변화는
집게
##샤는
##크리트
그리고는
지방에
고민을
메달을
그토록
##박사
사이에선
듀티
they
앞으로의
교양
일대를
탑을
##턴을
프랑스에서
마력이
후자의
감소합니다.
왔다갔다
봉인을
웃으면서
##광주
##토에
명령으로
마녀의
명확하게
더미
수비가
2차대전
8일에
에티오
유스케
##이기는
##냐?"
블라디미르
회복을
제식
11회
XP
거머
난투
14,
비싸다.
카트라이더
만의
##1회
##범은
시너지가
##당해서
영화.
##ited
전통의
김태균
구단의
패배로
궁극의
요새를
위태
경기로
비늘
##선수로
1600
사례로
1세가
width=
정인
TN
러시
원한을
##현에
##리스,
조조의
특화되어
##:3으로
별개
지적이
##준비
사기적인
명의로
##카운트
DEF
가중
히노
##광역시의
동족
말했
보행
##니언
활약은
1면
8000
복종
해달라고
##이라니
방벽
오른쪽으로
GHz
토머스
헤븐
##좌석
외국어
보니,
장애물
기량이
커스터
가능했던
억지
옷이
우투
친구.
아이돌의
충격으로
강하
디스코
타입이
프로세서
##106
구성은
투니버스
##해양
Met
살리
셀레
스스
소피
10레벨
진도
19일에
아산
##D가
나가노
보인다는
무법
재빠
타나
남편의
있을때
'L
활약하고
버드
빨려
열을
제거하고
건담의
2배로
클라우드
공격력,
급진
녹여
사람,
등용
영역에
언급에
내심
입시
스파크
down
세금을
이장
쏜다.
##S,
우주로
개틀
과금
법조
쓰며
##베트남
##되면서,
##엔터테인먼트
장풍
마찬가지로,
##었다고.
문명의
호구
##교자
##론으로
구조는
하렘
##작이다.
인챈트
진해
##췄다.
어머니인
오로치
더럽게
뿐이라고
##G,
커리어를
밀린다.
생산된
케인
500만
올라가서
##상인
##stem
##시즌에
있나
그룹이
FN
네모
보이자
한,
반으로
크리스토퍼
짓밟
찰리
20일,
준하는
살아가
전라도
##DI
말아야
스태미
밝히는
진의
##소재
당당하게
못하여
##쳤던
가져와
됐을
아르테
문화적
카테고
화염방사
Hot
내구도가
6번째
이르게
변수
재판을
##시계
##-1,
가한다.
까였다.
리젠
##오른
##였으니
방어가
결론적으로
상대팀
우승팀
PSP
조용한
보쿠
뿌리는
전폭
"한
550
괴상한
못하지만
생각된다.
그것에
재료가
가브리엘
막대
병으로
조국
##데이터
성도
실어
##제어
##자들에
##스타가
한결
##06
##--
4화
게리
상대로도
Inf
재차
##C의
사기꾼
채운
##다스
2개,
##덕이
바뀌게
현대자동차
분위기의
서재
##:00,
나선다.
티켓을
##입을
##시키려고
묘사한
이륙
##번길
달랐
날릴
소진
##투성이
맞추고
'강
규모는
말린
셈이
커트
##명/
의도가
연구는
용어는
인신
인생의
과잉
리사
##work
##순간
강인
##변의
경우에만
##메이커
"P
규정에
바늘
허영
##발은
라인하르트
50년
존슨
피해자의
않았으나,
비교해도
형태이다.
부서진
그로부터
자산
합치면
##리는데,
알아듣
파이터즈
괴도
않다면
##line
##에서야
스킬명
성공할
알아보
사교
선원
울부짖
##"이다.
##화하고
주인을
상당수의
체계를
아니야
정도밖에
날로
수정을
##전.
그러는
신설되었다.
스탈린
직면
호무
##관.
할리우드
수하
##반과
되었습니다.
레벨의
논란의
소련이
이북
키우고
퍼진
##으로서는
##게임넷
골리
예정.
살아남아
정거
##할을
끼친
지망
##성:
Open
에바
참고할
##사노
사이트를
제작이
##리아에
베라
부대에
성채
알다시피
아틀란
성스러운
##해본
표시가
때문이라는
이전과
##-28
깨는
대지의
주루
적용되어
##간다는
##차에서
일방적인
아이디어를
포지션이
죽인다.
다름없다.
발렌타인
사우디아라비아
공짜로
반감을
구세
다친
지방선거
세련
픽셀
넘길
레귤러
내려갔다.
##지역에
텔레포
Game
차마
판단한
UFO
곡에
산체
윤성
지나는
함정을
여자아이
텔레포트
2루수
1대1
##받으며
데스크
불린
##크에게
##갔다가
5세
분위기에
예정이었으나
목재
병사를
이적하였다.
Bra
단골
19대
베네치아
아껴
##뤘다.
드로
##옥을
##랑,
위키백과
스플릿
2-3
라쿠
1달
Bea
앞세워
##2에서
학교로
역사와
하면서도
올리며
##손이
아이돌이
M.
배고
##씨,
불가피
편인데
활발하게
제사
영웅으로
1935년
Int
붙여진
짐작할
##캐논
그리워
번거
##요는
##찬의
부유한
비키
##ole
##션의
제외.
오케스트라
노후
##무진
##망은
선생님이
양은
해결하는
May
비범
##부대의
##결한
극적인
대를
신주쿠
##이어야
저격총
빠져서
##리바
##스테르
날아간다.
마티
원의
유학생
궁극기를
시스터
제천
##다라고
##버렸고
의존하는
고른
묘지
재개발
블로그에
르네상
##바람.
찌르는
##제프
장착하고
제거할
보였고,
금전
산출
술탄
적들은
총학생
캔디
해군은
##일도
출연을
##향의
칸의
한승
##?'
아쉬움을
받아들이지
기량
죽어나
성공.
부르지
+5%
유비가
임의로
해수
##타나
Em
중대한
##노코
Comp
모습의
퍼포먼스를
멤버를
독일에서
광화
##법상
우체
편견
##투쟁
가즈
##어:
하나라도
##법이다.
특출
##부.
배상
벗고
총격
##스킨
##깊은
##만.
##바인
애니메
북아메리카
페이트
330
샤이닝
##마인
마법은
2.6
불합
성으로
##기시
싸움은
바하
##리오스
그만두고
온게임넷
사카모토
진행하였다.
스웨덴의
4집
KS
##K의
인연을
자랐
보상은
애니메이션이
무성
없음을
짤막
##/100
붙잡아
CA
가사는
쓰거나
용과
##구동
계급은
거치면서
##받아서
언급하며
놀라게
BASIC
궁수
치사
돌아가고
심문
시작을
학교는
##지지는
200만
편의점
어우러
캐나
확고
손목
순순히
##거린다.
찾아내
자회
##맞고
분리된
계층
콜린
##표,
부진을
섬으로
믿음
실황
존재했다.
과학적
행진
##인사
인기투표
에피소드에서는
다듬
모양새
개그를
말자
명도
해발
독일,
아역
##당하며
##되자,
스테이지의
2개월
따윈
지게
##엔터테인먼
부통령
여느
##일기
1932년
간다
몸에서
목록은
1918년
건데
체제로
50만
상향을
##83
##해줬
##LD
회복이
이해를
Joh
노력이
상어
##었으니
형의
친구들을
4단계
거둬
##청,
상태는
사건.
크로스를
하반기
##a의
숨겨져
Moon
wiz
깔고
덩치
레나
패했다.
##-1번
넘겼
지라
Bu
GAM
삿포로
타로
포유
위도우
투구를
비행기를
FBI
냉전
민정
오피스
##카드로
##템을
##."라는
어쩌다
Rain
레즈
상황도
땅에서
시도가
아다
박살내
##IGHT
탈탈
##소하게
예정되어
##체계
##떨어진
사라지게
어려서
가져갔다.
끝판
유지를
인테르
사이오닉
서스펜
##속도는
##툭튀
1933년
수요일
참여할
까다롭다.
백합
보정이
호투
##HC
엠파이어
##강,
##이니만큼
다는
아이치
포함되지
A4B
카리스마
오산
논란에
시도한
##조사를
13년
보였지만
이시카와
닿지
최고로
버전이다.
불러서
순차
길가메
##들중
하나하
##volution
미적
승강장의
##ude
세기
우위
##해지자
##어서,
가격도
끝에서
##ris
라마
##설은
##투어
말부터
잦다.
##빈을
운동에
로봇을
서버가
4일에
좋아해서
있냐고
##거리로
가량의
##기둥
1위,
일들을
배경을
발언이
교수로
꼼짝
##프게
##점수
조건에
중반부터
##모도
연기했다.
튀어나온
티라노
피는
광학
졸업했다.
매트릭
헤일로
##유도
커뮤니티에서
내야수
쏘고
음양
##레,
마르티
Cont
며느
비둘
재규
참고하자.
작렬
##입니다!
따르고
##갔다고
아날로그
방랑
쏴서
탈당
사물
양주
사실로
211
롤챔
타이가
##ric
애니메이션에서
시점의
먹이는
제물로
##만하다.
생성된
부족하다.
1무
응징
25일,
+30
WAR
무찌
여친
여부에
잊고
Yeah
소문을
터미네이터
##함에도
##창한
쓰러뜨린
고갈
내려찍
단간
사용자는
여기선
않나
##ner
##쯤에
팔려
폭사
##차고지
운동이
"L
Bur
##호:
혼자만
애초부터
전제로
지분
예상치
시나리오를
생선
없어진다.
키울
##모양
131
시발
위임
향년
재미있
DDR
강사
끝낼
##54
100m
##하려다가
플레이어와
끼치는
닿는
##먼의
기준은
RF
체력도
가문을
준다는
##요~
##오에게
2000년에
##베를
##블랙
깨진
남캐
전력으로
제스
미유키
시시
전열
성능의
##다'며
03월
Med
졸지에
국민의당
##승,
역사에서
연이
행복하게
수련을
세우는
##변에
항목이
남편을
이범
##대.
##구축
정체성을
물질을
팬클럽
성우를
볼때
있음.
##우며,
##메리
홈페이지에서
작전이
##고사
만나지
접근할
공군의
치트
기록해
명백히
바지
수차례
28일,
75%
생각했
무실점
God
수료
않음
이뤄진
날의
반가
크기로
작업에
FR
HT
끝없는
엑소
크리스마
리아
매수
##비지
선택지
에스토
##움은
호드
##공동
기합
독서
강의를
무차별
서면
조교
##i-Fi
2.8
데이즈
쾌속
##선언
다수가
##2명
바다로
6일에
수퍼
##white
클리블랜드
쓰이기도
##예프
못하기
주립
##렬히
미디
##hy
##지긴
OCG
검으로
네팔
몰라서
세계관을
beatmania
모션을
이강
##스텝
사항을
사이퍼
E.
거행
들통
일화가
틀어막
기괴한
일족의
##미도
##니컬
카운트다운
피쳐
##-V
##염의
연합의
흉악한
##이.
##간,
풍자
##ger
네덜란드의
모으기
레베
35%
계통의
비효율
들어오면
타워를
보석을
정권이
지탱
##u.
평가받는다.
내려와
접근하는
서브컬
톡톡
취향에
4위를
메두
슛을
퇴근
##유리
상경
신관
잘린
킹스
선출되었다.
무모
##곤의
이적한
도로가
신분을
입학식
재무
##대책
##공학과
##~18
기술배치:
그지
자판
난이도로
배열
##부리
##페스트
##승의
뭐든지
밴쿠
##제네
변경되어
고질적인
곡인
인물인
입혀
대통령과
'원
리히
전방에
타도
베로
왕궁
##창,
3일,
반이
비약
만들었다는
광장
##더블
##하에서
##푸르
루트로
신종
##우스와
##되나
##기에게
선수에게
발생하지
명예를
9일에
둔다.
끝낸
함으로써
유일하다.
전후로
도구:
지경.
##요...
##X의
##측에
지나갈
병이
가리고
겉으로는
그들과
부실한
북방
짓는다.
2:0으로
서드
비교해서
방향에
신봉
##갑게
Alb
박태
티셔
+6
브로드
비율은
지폐
##릭의
NAS
밀란
일찌감치
불리게
외치
치렀
커져
##2.
무의미
넓어
리벤
1931년
소리.
거주하고
##디난
순간부터
볼프
인물들의
##왕으로
##용사
##몬드
Like
버지니아
오덕
##씩이나
캐릭터들을
314
하늘로
화면에서
##해보이는
박사는
이우
적정
##수호
##중이던
저질러
7일,
대주
레스터
장벽
현장을
있으니까
연주하는
잔혹한
##A를
지켜보고
2일,
뮤턴
압둘
1934년
문장을
여지
원한다면
##메이드
위해서라면
핵을
##시키려는
생기게
연금술사
##ius
있다...
##팬들은
##엔젤
먹어치
이스터
바이올렛
.3
기염을
분명한
흘러가
루리웹
쫓아가
##괴수
##mm,
소탕
지형을
나무위
슬레이어
기준.
사실상의
벌어지고
놈들이
##룡은
미처
스테파
상대방에게
거리의
##라이징
기동성이
기여를
부문에
순조
게르만
딸기
말기
미군이
서리
##장일
##UK
반납
선한
있으
프로그램에서
대학교의
턴을
##배에
##크에서
부식
##콜라
하시모토
간첩
양육
고난이도
전까진
치중
공영
발전에
##특수
아스트랄
악세
중심에
##리온의
Cent
건틀
카이저
엮이는
잠금
타구를
##이드의
##구.
파워가
콜로라도
낮을
넘기고
오면서
등장했을
우승자
스쿼드
에게
죽어가
##테러
흔적
라이브러
왔다는
지킨
속성은
미니게임
강아지
섹스
현상은
##궐선거
농어촌
드라마를
브롤
##고래
"안
##57
자세로
어렵다고
폭발하는
몰랐던
WCS
키사
##케의
트로이
FF
our
사죄
##복합
때릴
밴드를
##메트
등이다.
컨트롤을
낭만
흐른
##케가
긁어
비올
지쳐
크러
##피오
##밀하게
전통을
이래로
공장에서
장려
##orth
회복하는
무승부를
알면서도
검출
라자
##수단
##법도
시선
나왔고
한겨
10억
남짓
표명
울산광역시
남긴다.
미호
통근
일본군의
교훈
둥근
등지
##네트
밀접한
A조
놀라는
##경찰서
4에서
이신
잠들어
조율
해프닝
설명하고
Now
음악가
제품은
##진영
제작할
노선에
좀비를
##압이
투입된
##현에게
활동할
에피소드의
서식하는
6.0
런처
##새끼
이전보다
전략적
포탑을
막론
정제
조약을
크라우
냉기
마미
##어주면
타선이
##별한
진행되면서
넵튠
시몬
##무역
효과적인
방식.
과학자
농장
레기
조세
다이빙
잃을
제르
등장하게
대대적으로
개종
느리고
시라이
스파르
핸들
##결이
RP
baby
등산
메소
마도카
생산이
도망가는
랜서
벌을
반다이
송곳
없다가
임의
##라이나
##부여
늑대인간
[[https://
장르를
돌아다니며
good
##스탯
##퍼,
키에
존재하는데,
바뀌지
공신
따르지
##출력
##oint
Master
근래
특촬
##링과
목격한
절도
팔로
방송은
연계가
26일,
##프라이즈
발자
최형
##우타
도도
막부
극소
헬레
##/17
출연해
북한은
##ok.
돌연변
Eng
FX
정서
골고루
글렌
화요일
##양에
독자들이
범인을
승용
##ton
##중학교,
부화
알아야
막은
안된다는
##관계에
드래곤이
te
바빌
이를테
밟아
##가지를
##판정이
파괴한다.
참수
파비
종족이
리스폰
7개의
지못
요구했다.
던전을
슬쩍
중장갑
인식하고
속에서도
스왑
##외선
조선총독
왕위에
태권도
하리
향토
##당하면
##양군
##관이다.
상관없는
Way
##인터
##국적
##en,
추석
히스
##다에
개조한
돌로
막바
음악적
##-2로
로만
효과의
나타내
부모를
기술인
우승,
해석할
see
전해지는
##신다.
성격과
1과
촉수
##시온
##판도
기능도
가정용
느리다.
##틱스
##BOX
##보조
##항의
생활에
CIA
리키
직무
맡기도
황제는
##자카
##갔지만
30일,
수원시
##사람이
싸워야
나뭇잎
Soul
음식이
##크리스
##자매
않았는데,
선장
시작하자
이야기이다.
들었을
라트
##군데
##low
##하였다
전복
지장이
##장기
##위안
매출액
갑툭튀
##2에
11일,
구워
나타나고
호타
이벤트의
가급적
던져서
스트로
왼쪽에
인간들이
입장에서도
레지스탕
머리의
백만
세리
##당하면서
상황으로
좌완
징집
게임상
까지는
한타를
##St
필드에서
'주
육군의
2019-20
기체는
도장
총대
캐릭터도
송은
터지면서
Sky
양념
원자로
태도로
흑백
##코쿠
다른데,
스파르타
살해당한
튀어나와
ONE
NM
무전
##카리
##변경
보기엔
놓는다.
명실
심하면
이벤트는
거쳐서
폭격기
기인
내성이
특징인
꿈도
##팀에서
광범위한
숲에서
탐욕
남았
상표
악영
채우는
초반엔
비교했을
가져오
성범죄
생산을
4개월
8%
경로를
두른
연안
연의
##str
여유롭게
팬미
##성이나
##ope
뭐든
이룰
12회
##iew
왼쪽으로
##나가고
버전과
KD
부제
청취
태클을
랩을
##L의
원작을
오른쪽에
보아도
코스모
소아
부분만
##아웃을
간만에
대세
쓰다
진료
교차로
아득
회자
##난이
있는가
보아,
만류
차일드
투런
##봉의
앨범이다.
1928년
5일,
대칭
이다
##정리
##건에
제너럴
사설
##기술을
멤버.
김은
프랑스와
도망칠
배경음악
4천
화수
##해제
##강은
##숙이
중소기업
과다
섬유
행복을
30만
이에야
늘릴
문성
스타일은
당해서
성모
##타기
##패드
##하는건
실력도
서는
##하다,
패턴으로
상호작용
##말라
##잡아
끌려가
순항
쟁탈
##페스
##kr
8일,
글자를
부인이
##son
4호선
되던
백두
성장이
심해서
경기에서도
17세기
##.D.
강함을
쓸쓸
##지점
밝혀져
4.3
배의
정주
지방에서
##스프
##위기
##피에
##떨어
##쯤은
디렉터
비리
앵커
4일,
공약
유권
정윤
찍혀
소속이다.
##전에서의
궁을
기사는
쫒아
동안은
##지진
##님께
주요한
##.90
Hea
##베의
병맛
탄환을
틀:
##'에서는
##날의
리더십
기지로
털이
##냐에
##원도
공개적으로
그런데도
2003년에
왕세
착공
##주머니
발견되는
뽑아서
##시다.
사람인
밀쳐
##정도.
아슬아슬하게
표본
##왕조
프로스트
##플렉스
이쯤되면
쪽도
##데라
결정된다.
3DS
필연적으로
성가
자연의
밀린
체격
##디오는
뱅가드
병사가
##권총
##녀는
애프터
##달리
##천은
##퍼트
##임과
게임도
영상으로
위저
##보게
여태까지
마더
주술사
##],
일반적이다.
전반기
규모를
어태
A급
##피드
4만
양심
##다카
오리진
옹호하는
슬램
인상이
##드릴
방학
골짜
노원
대북
생포
시로가
자멸
항속
##람을
가두
##츠에
##황후
일반적으로는
패러디.
연사력이
언젠가는
##난을
##엘과
떨어진다는
사이보그
Match
수납
바라보고
레코드에
4초
끝내는
로고가
무브
이코
후반으로
시전하는
TEC
베기
##7의
시종일관
접전
다음에는
어새
원산
##신한
##ml
##칸을
악마가
훈훈한
##2:
##척이
##태,
우리에게
버나
팀도
##렸기
여동생이
여의도
늦어
타라
##척의
19일,
도시이다.
출판사
독자적으로
격납
했어도
##인구
##어버리
초기부터
고양시
3패
공백을
내다
의원의
이고
잡게
허벅
군이
225
미스트
성취
흘리는
##엔드
##쳐도
오마주
스폰지밥
'천
행방을
##냐면서
##위한
인물들
마수
경쟁이
##업의
##oney
스맥
체류
3루수
플레이는
23일,
상장
여포
정권의
##GM
##침이
배우.
부족의
타카시
U+B
살았
외출
집회
창세기
##전에선
군에
헤지
##거스
##마키
나쁘게
높을수록
반자동
성희
없었으나
엔지니
카자흐스탄
3.4
부수는
셜록
인페르
카쿠
영국이
기적의
11년
독일과
성유
엔도
##218
##철과
최고급
항공사
빵빵
##스기
##B의
cl
시빌
발견했다.
나주
잃어
효과와
2:1
놀란다.
의도를
크기에
13일,
끌어당
요인
빅토르
급상승
연방의
인맥
디시인사이드
감성
서경
##날레
실시한
가고시마
더글
발목
페루
항모
Ge
마취
원하지
일괄
클락
테이크
총장
부분으로
이나즈마
몽땅
난장
##09
있었음에도
동안에는
White
##ata
있으니,
##아버리는
십자군
나이트메어
콘티
##에나
14일,
조선일보
say
불능
취직
불허
죽거나
사업에
총리가
공격력:
방식에
##udio
땅볼로
##짓는
##범,
선풍
자문
처분을
경기력이
소환을
리듬게임
수류탄을
즈음에
##슈가
젊은이
'H
지질
비해,
아카네
배율
어원은
아들과
픽처
바와
##tv
##청소년
제2의
모라
##선다.
파괴하고
최후반
중견수
동명이
아아
튀는
##어머니
마인크래프트
pl
명사
올려서
1924년
##해낸
##협력
##ated
BRV
단어로
살상
예상을
참사
춘추
##네시
시청자들은
##렸으며
대한제국
준비하고
부하가
블록을
많으니
섞은
##단위
구단이
이터널
척을
형제의
##왔고
피규어
Off
발트
BF
약칭
제외하곤
세이부
##ga
프렌즈
임시로
투항
##bit
##G는
부족해서
평했다.
4권
##극의
졸업생
하비
##주의적인
##기로,
에어컨
##"이라
##되다가
##돌을
이야기하는
전례
콩고
##몸으로
신빙
##등,
사용에
1991
파멸의
##UST
활발히
두각을
아니었던
번갈아
날리고
중요시
##바이러스
감독인
출연진
거라며
명대
스킬도
##해주었다.
기어이
##UL
there
플라잉
지주
천공
추천.
돌리고
런칭
선로
전역에
##자에서
예.
##수염
22일,
##ther
환자의
주장하며
내던
반지의
서사
약해서
##대대
OR
짜고
비교도
##체육관
김하
버리지
처한다.
##톤을
이듬해인
Tour
마왕의
여왕이
##톤이
18일,
설치해
배는
승낙
앓고
2레벨
##정신
##님.
별명.
##하십시오.
방어율
리리
반달
반대의
티베트
뚫어
##중독
마법사가
STAR
his
실체
잡히
인기가요
중의원
##동강
##종교
17일,
홍준표
순서는
##GP
득점자
골리앗
6이닝
S급
손실을
순삭
치아
##타라
사용해도
아버지.
Project
안아
충주
투르크
##/+
##/13
디자인의
스맥다운
7.5
남원
함유
사건에서
특성으로
변화에
거부하는
칭찬을
곤란한
뱅크
##장구
##한테도
##조약
보호막을
않기에
연희
거나
옮기
접한다.
칠흑
##대서
이시다
간다는
##부수
보이면
촬영한
Vo
가쿠
##알라
12일,
주인의
당연하게도
##ird
##INE
노획
멋지게
화제를
환상의
##/18
##Re
크리에이터
만성
27일,
내쫓
것보다는
경인
사생
퇴사
##족에
##UB
마이너스
비밀의
시민들이
싶었지만
여진
5명의
친박
시궁창
과자
부부가
진흥
##메스
바스티
전투력은
시절에도
꿈꾸는
스릴러
##&D
10명
안하는
요동
##웅이
스타즈
날아다니는
스켈레
내에서의
변모
텍스
좋아해
부두
##진출
유지비
가격으로
Special
주황색
##됐다고
불가능.
리투아니아
반려
야심
열악한
우지
김소
생전
창문
##있다가
##천년기
[anchor]
위상이
##물도
Char
Christ
5화
가혹
높이가
줄인
지분을
##마이트
크로우
##km,
일회
micro
되서
머리와
섞어서
흩어져
설문
잡았
생각하여
서로에게
드러나지
전원을
정몽
##4명
##김없이
드러머
Lv.3
##km2이다.
Ass
##한다!
##디나
1900년
달라지는
##테와
스펙을
쐐기
##5의
지팡이를
혐의를
##법한
대체하는
계단을
덩어
엿볼
옮겼
판매량이
인스턴
제인
##S를
항목에서
희망이
중단되었다.
이정도
장안
##전생
##부도
이야기한다.
탈출을
##분에서
24일,
영광을
실드를
돌봐
묻어
##진보
노래로
나가게
중앙의
미숙
웃어
##패에
4타수
급증
승하
헬게이트
##하네
##101
다나카
양동
슈퍼맨
몬트리
설레
got
레프트
말미
불분명
1조
수로
순양
창출
##IVE
##갔던
괴리
##런이
##ita
##영화제
교무
카논
크루세이
백화
허술
##read
보스니아
주의가
처참하게
뒤통수를
꼭대
샀다.
찾아오
쿠데타
홈경기
스탠딩
정기적으로
우호적인
+25
영화에서는
##ERF
dis
고뇌
세속
##타니아
##어어
느낌이다.
4라운드
XY
급한
원정을
##로프
함께,
참여하고
정의당
##스킬은
뮤직뱅크
그제서야
옳은
충돌이
본선의
##"라
##홍의
##하였습니다.
8강에
걸렸다.
빨라서
이바
비하인드
4부
##정원
측면이
쿠사
제작자가
어린아이
##주민센터
빈약
##이즈미
구호
장판
제국과
로봇이
"기
않아.
##벤트
원작으로
걸음
민법
초반부에
사진과
종속
견디
나오던
그룹을
##칸이
아내인
Mark
권고
2.7
over
소리로
스레
해외에서
명이다.
배기
소폭
##종류
벽이
애칭
##핑크
시리즈.
하루히
맞지만
식량을
탄약을
##데도
##절하게
공중으로
곧장
동인지
탑솔
##아가며
번역이
스플래시
비평가
안드
##9명
21일,
얼어붙은
탈주
경찰서
지켜보는
컨셉이
이니셜
"왜
조형
지체
##내리는
##들에게서
동원해
SUP
스택
통과하는
승리가
##하다!
##겠지.
가늠
예배
통찰
함대가
Bad
깜빡
신진
어쩐
진상을
##됐고,
누락
설정이다.
31일에
기관포
1929년
상태이상을
선별
적었다.
##리오의
##통,
변경이
시점부터
독립된
과격한
포텐셜
6일,
뺏어
자력으로
냄새를
막론하고
선이
시한
##가나
마케도니아
성폭행
1도
병원으로
포를
달러의
개찰
충공
해줬
무산되었다.
##미치
영화관
방어에
고려의
'바
삼성이
사람이라고
드라마,
WOR
대입
손에서
칸이
타기
탈삼진
버전인
압력을
##졌으나,
##현악
동거
##ision
성우의
이곳의
스핀오프
##ux
상공
필승
##수:
##시키기도
제작진의
##하다보면
집은
성장하는
##6명
##등과
후일담
멍청한
KB
작위를
대한민국은
움직인다.
개판
메이크
내려가는
##을때는
못생
16일,
않으나,
콘크리트
무너지는
가운데,
군복
##.M
##,9
공연이
극악
인어
잘못하면
기반이
대구경
백지
도망친다.
개관
교리
부술
황제로
##탕을
스토리상
정경
##방식을
##브르
29일,
허리케인
'노
천도
초급
다리에
신태
제다이
파열
발생하여
간다고
네이션
태백
가능해
개봉일
차일
##지상
##예의
카지노
마리를
아소
취할
설치하는
Ook.
미토
발병
##작곡
창원시
잔존
추운
##락에
뜨면
박기
익스트림
악행을
발생하고
발언에
미츠루
Ap
산산
다그
일정이
쿠마
지역인
시청자가
스스로도
##~16
스토커
가족들이
NAT
단거리
마켓
사적
안장
공격하지
개최되었다.
레바논
대박을
세트로
##희에게
##골의
남작
당대의
브레인
코나
1910년
메시지
비참한
##기리
##덕후
흥미로운
Down
시비를
##브에
회의에서
나우
이룩
##P가
Best
km/h
'김
도르
옮기는
장담
시점에선
불꽃을
급속도로
남아서
파운
##댄스
듣자
추상
##론파
명곡
죽였다.
##력:
동명
코지마
회장의
흔하게
##는지라
Sur
##인걸
글자가
묘지에
부르게
붙을
##술과
둘러싸고
##하다시피
나무가
가게를
모자란
우상
제한된
히가시니혼
겁을
것인지는
띄고
부시
장병
##일반
##소방
크리쳐
선전포
레몬
##해졌고,
메탈슬러
다수를
##리야
##bs
연결된다.
내준
손녀
##길,
Je
##결혼
팝픈뮤직
9일,
##트럭
발동한다.
개편으로
프란츠
feel
관제
올라온다.
받았으며
기분을
넘겼다.
##청에서
##ILL
##판정
포인트는
"유
다목적
##런은
##통은
##클라
궤멸
##침에
2002년에
군단을
흉악
##ao
##메테
태어날
논쟁이
우사
##공격으로
것인지,
사명을
홍대
##루이스
아르카
라바
레볼
##옵션
추가한
임페리얼
Last
브룩
개나
선수와
저지르는
8대
캄보
##리오가
집의
터진다.
현실이
신수
질질
##론적
##시킨다는
대승을
6기
Sam
##강과
동료인
포섭
1925년
박은
솔리드
##오우
B조
급습
지나고
니트로
제도의
하르
하니까
##세라
세계관에서
끌어모
살아남을
비공개
Wi-Fi
랭커
상세한
패에서
장면이다.
##대한민
교육과
Har
장민
##퍼와
"신
묻고
신원
##려도
##슬쩍
##플이
##귀한
시작은
유닛이다.
유튜브에서
나데
놈은
리치가
극딜
사카이
조승
학자
##erry
2018-19
마오쩌둥
기름을
악곡
계속된
승률이
인하
치카
양아치
날에는
##지지만,
인터넷에서
주도한
2명을
채권
않았기에
Edition
녀석을
모용
초동
해군이
##유와
##olor
마초
##학회
히로유키
시키고
군은
##시카
대회에서는
##레벨이
구비
혀를
##타도
##금,
Side
대나무
재기
직계
생각하기
레벨:
휴대용
1루수
초토화
대본
미수
##1번
소환수
##ross
##~14
아무렇지도
UM
정신과
고려할
예정인
높아진
받아들이고
모스
전산
쪽에서는
##었으면
##소문
바우
소홀
##매김
##OCK
딸과
수반
교대
##래?
소환이
고정되어
전한
정치적으로
바뀌어서
A4C
넥슨
대영
지바
애니판
해금된다.
농담이
구두
끝없이
##거와
트라웃
레슬러
##주어
러너
##둔다.
역사적인
근접한
제품의
오토바이
데다가,
얼룩
치기
##소개
스위치를
지적했다.
##윤의
소속이
성능에
내놓았다.
콘셉트
충고
방송의
깃발을
페레
기억하는
노릇을
지중해
미주
한동
탑재된
[[분류:
Ul
위상을
테루
##구르
상냥한
카노
##광장
##열한
##att
어린애
발휘하는
##플레이를
급제
몇가지
애로
##처로
##편,
##ara
지휘를
들었던
빈약한
작살
통에
##세키
등판해
##저트
##짐에
없었지만,
전자의
아이젠
러시아는
이슈가
마기
봤다.
##혁을
파티원
5연
번외
비평
쉬고
심부
줄이기
수행한다.
부정적
우클릭
특기는
##블의
상황과
##경기장
공고
더는
아니나
1인칭
입력하면
탄종
F1
마실
미아
민영
난데
맨날
저번
혼을
크리스티안
컨테이너
시호
##비우스
##집행
추는
##DJ
##OK
##벌의
살아온
자행
피부가
##프레이
##훈련을
물리치고
안타로
전두환
묻힌
칭하는
ver.
명품
주,
##여곡
출시일
나이츠
보인다
일으키고
블래스트
반론
전갈
정선
##바에
각본을
소리다.
임무는
울면서
##kg,
나타낸
사망할
기질이
철퇴
일어나기
생겨났다.
아님을
##냐의
##받기도
일정을
좋기
우즈베키스탄
잠정
##다툼
카오루
##쇼를
다스리는
목사
##고시
카를로
1/1
공주가
선후
이레
혜택
##그림
##뿐만이
국민당
가맹
매지컬
##3회
PS4
yeah
맑은
키드
##기다.
##입장
트위터에서
학생을
거느리고
돌린
무스
기억의
도구로
##짐이
유희왕의
병력은
평정
##충의
##번째로
##전쟁이
리액
##여성
에어리어
"F
IF
유토
즐기고
##ful
##메는
Que
잔디
##번호는
주먹으로
##천동
유닛들이
분노가
것"이라고
두목
맵은
열릴
##통합당
Ver.
먹어서
개인전
콤보로
수요를
무네
##,4
##교에서
##잔의
##혈을
City
빈곤
아슈
##랍시고
18세
미사일이
고정된
공민
커진
팀에게
후지와라
포기하는
##연구원
유서
남아메리카
꿈은
던지기
봉황
셰이
야망
지점에서
진에어
리어가
연못
##su
Track
만남을
##리버
가능하지만,
시청률이
시외버스
잘생긴
1편의
몬트리올
모이는
자택
진수
##그런
생산할
드레드
충공깽
부도
##기라고
##니엄
곧이어
학급
##닷컴
그래,
04.
허다
##59
HOT
백화점
하든
##교환
버그를
근력
석탄
지적을
계란
일루
커뮤니케이션
버는
##메를
유닛에게
스탠다드
교도소
조회수
직할
##송을
결혼했다.
pe
가방을
그렌
덴노
디멘
리비아
필터
논란은
야구선수
겹쳐서
평가받고
지방도
알려져있다.
##리안의
가둬
민감
발령
싸웠다.
플레인
##보라고
함께하는
##rew
판매한다.
포이
있어요.
잡아먹는
PC방
방탄소년
디스트로
싱가포
묻혔다.
사당
##카트
##처에
찾아보기
가져오는
이해하는
필수적인
5th
판이
필살기는
문서에서
지상역이다.
"N
결장
후계자로
해운대
정정
##쿠르
최상위권
FE
Will
뚱뚱
이름.
인정할
히드
언제까지
우려를
초월한
#ff
거스
##하느냐
토요타
홈구
##들이라
##절에
정도라고
당시는
256
종류에
2년간
기공
암시하는
부분적으로
발견되어
생기면서
토스
##어로는
##여고
에메랄드
컴퍼니
자서
일대에
##웠다고
##지역에서
플래닛
off
원치
위조
일대의
커지고
##워치
##팔이
유사하게
##무사
##검으로
문제점은
##시아가
가이아
시온
##내로
##쳤다는
얻습니다.
프랑스가
죄책감을
속공
##CN
시작했으며,
치를
커졌다.
##중대
##lash
일정시간
악마를
##IME
7차
볼텍스
어려움이
확인하는
사생활
오정
제의를
##립니다.
##포인트를
광대
진구
천사의
##른의
국내의
가운데에
모으면
성동
세운다.
스터
플러그
경멸
밀려서
##ause
##m/s
듀얼리스트
환상적인
##순을
할리
우리나라의
출전하지
보수적인
절반이
하인리히
띄어
산의
투신
##쿠사
인기있는
마당에
비율을
황폐
##arius
막는다.
막아서
확진
원거리에서
목숨이
챌린저
성희롱
end
단속
학생의
다행인
있지는
##량한
##링에
서장
19세
비용은
같지
달한다.
쓰여진
BMW
들게
뛰었다.
한자를
행사가
##화까지
##슬레
증가시킨다.
부정적으로
루트에서
예민
저조한
기습을
되어서야
부의
주심
신해
음식은
지위
COM
거점을
대파
란스
흡연
##인형
라이브!
##ival
메이플스토리
오모
##타스
##데는
삼성은
##방송에서
8강에서
볼넷으로
계수
남편과
검거
신자
실장
##ocal
광동
어딜
부르기
1년간
종교의
왕가의
우여곡
##각에
서울에
배운다.
##마법을
500원
낮춰
빌라
세일
센스
험한
##-오
##불의
생존을
여러가지로
노예로
7000
개성이
일어서
타이베이
색은
범인은
않다가
좌표
포워드
호라이즌
야채
해.
##라스의
##상부
##굴을
불문하고
박현
선인
조화
사이비
이질
있는데다
1927년
언론의
예비군
부문에서
Magic
##-EN0
M19
인원을
코지
파트를
생몰
##무시
##빈과
##부사
운영진
First
날렸다.
브레스
언락
로드리게
6.5
가수로
무진
심장이
여장
##었음에도
##협의
나왔다고
않겠다는
위쪽
노래이다.
천연가스
상사
##설정
엠블렘
나이프
프린스
[ruby][ruby][ruby]
아이스크림
에티오피아
결계
깃든
석궁
옐로
금정
신이치
인정을
##야에
##세츠
히트를
어딘가에
A+
원호
일등
제구
##련한
##핸드
것이란
지구가
들켜
경험치가
침공을
M16
되나
무시한
부하들이
구사하는
눈앞에
평면
##개와
##피트
데미지와
로스쿨
##OWN
메리트가
측면을
어머
헌병
##벨트
유도하는
로켓을
2-1
건,
고구
끊고
운동의
문어
반은
지상으로
하룻
##에서는,
SK텔레콤
목록으로
Univers
월등히
1실점
Mir
가지를
##교시
##넣어
조금이나마
넷째
빌어
##더리
##렛을
13.
알려준
문신
수월하게
가출
상부
일과
모습만
내려간
컴퓨터가
경향을
최원
WHIP
KCC
구조의
소설가
비를
위닝
##컵을
##ague
대중적인
케르
지나간
대문
선비
칠곡
##보리
소련군
AMD
잊혀진
권한이
##7명
##ling
카르텔
튀어나오는
make
안된다고
종의
적용이
분량을
전선을
초라
##ma
각국의
위자
##찬,
확인해
겨누
나자
포르노
러브라이브
시그니
세비
시제
최준
존재한다는
5승
땅의
##인지를
##원숭
##기도.
카스티
연재를
찌르기
Show
애니메이터
6명
법의
풍선
휴대전
증언에
크레이지
KN
멈출
폐위
##주게
##for
##왕에게
##TH
다채
##분투
이미지에
선택하여
버전도
무한의
괴인
코퍼
옛날에
IMF
롤러코
#white
life
변신을
색의
전장의
주게
네덜란
잠든
체제가
환자가
##길래
선발출
확보할
쓰러뜨리고
3주차
베일
한해서
감사를
논문을
##딘의
1골
밀양
자라는
##바키
유저도
양국
##입단
소마
오르게
있는건
강점
다가와
산에
설사
##커먼
##콘을
총알이
##차만
##업과
##봉은
인터내셔널
자리매김
치러진
마이애미
비잔
헤매
##시에게
##AV
09.
cm
스퀘어
선우
시칠
##무기로
망토
버틴
##드라이브
##백은
간과
말년
마무리를
죠죠의
##강도
프로토콜
##제르바이
넓다.
외형은
지저
##효가
1개월
김한
무수한
정치를
흩어
##는다
홀로그램
거인의
누리
다테
매도
왕자의
##데스의
##작전을
컨셉의
라일
잊을
전우
qu
대사도
복귀를
년도
접근을
##과학기술
도타
보자마자
폭넓
##느러
등장하기도
부족해
하워드
##쿠는
이벤트에
신고를
위생
이점을
##시테
##론에서
활동했던
히틀러
미에
자들을
체리
배틀그라운드
익숙하지
속임
유정
이치로
호화
고려하여
1급
초식
Free
열광
찬사를
서버를
2번째로
침식
절반을
새해
구애
바알
##타로가
스테이지가
좌익수
엘더스크롤
보단
하진
##AGE
##창으로
파괴의
데미지로
하자고
아틀레티코
유감
##07
##주식
평화로운
토막
부탁해
갈아입
멈추고
무심
##화할
##당하고,
번역한
군중
카도
와일드카드
바른미래
##add
##비슷
선택지를
지나간다.
불리던
넣으며
모차
정한다.
##복,
##슬램
없어져
엠블럼
TT
낯선
리모
##었어
2화에서
궁궐
외환
방어막
##어이다.
곳곳에서
개헌
최민
##냈고
##00,
좋아한다는
있는데도
건너가
무림
##-s
##아들
##두리
선수들과
설정.
Cor
같고
국적을
전하는
중론
분위기로
엑스박스
돌리
##샤오
3명을
##gg
그러면서도
16강에
앙리
##해야할
차이점
중2병
같았다.
덩달아
살면서
##light
전략이
머물러
애틀랜타
"G
시작과
올리버
빔을
##벨의
깨끗한
이를테면
청색
##-W
인정했다.
4세대
max
강연
총열
자신감을
##enc
##시켜준다.
본인에게
실수가
투어를
##약품
년간
벌일
악수
유민
만들어냈다.
일어나서
Spring
5권
머큐
사실.
꿈에
시작시
Stage
떠나고
내세운
검열삭
몰두
피렌
##방패
##담의
채널에서
당하면
송신
죽음이
서술한다.
필적
##르에게
##T48
루터
예지
##나틱
##겨운
1월,
내세워
Net
이석
망가진
난감
축출
팀들이
##틴의
학생은
금지된
상단에
##렌을
성격이다.
Club
꺼려
대사와
샬롯
##바탕
0.
미분
용납
##주곡
코미디언
쥬라기
지문
포지
##방영
##!"라는
묶어서
첨부
##언의
##활약을
3.6
불화
##대성
##다이라
##A에서
있는지라
##51
관계도
앤드류
##.O.
##종일
필수적으로
수아
순서를
황족
##당하자
소리도
구마모토
Perf
서술된
신선한
밑바닥
IG
##환승
DAY
##국장
12%
##/01
협박을
목소리도
이규
코칭
부리
척추
##ubl
산하의
##시에도
##루로
4학년
세게
수정이
엔딩에서는
증권
근본적으로
놓으면
쉽지만
연회
오류를
##룡과
기술도
Sim
캐러
##함도
##수다.
##학교의
개혁을
많으면
##단다.
##탱크
필요성이
극초반
애들이
우위에
잠겨
함.
##합니다!
##스타를
##스코어
가르침을
시종착
'남
골드를
금성
시선이
실력에
##할때는
기지에
조장
##미리
##맨으로
급의
헬로
##문제로
맞았
사람만
몬스터로
클리어할
버그로
##/07
녀석의
어른이
Fall
팀내
##잡이로
취급한다.
얻을수
검색하면
TWICE
요크
지진이
초음
##가도
대상에
망상
몸빵
오컬
징계를
##,2
##셋을
##소니
Never
효과.
##-34
참패
##래스카
중반부
Final
가스를
기록이다.
##애니메이션
지브
has
세울
불가능할
6화
무함
##스틸
##가들이
AW
것만으로
넷플
휴전
클레멘
수없이
튀어
##실장
골라서
금색
풀리지
##명하게
스케치
개성을
##공신
##윤,
기반한
비운의
신재
##슬리
압도하는
기자회견
##들지
##언니
##틱한
보이고,
배경에
스피드가
시전한다.
패미컴
애리조나
성서
카루
##자'
Cap
무적이
문장이
##주겠다고
##하시는
1922년
기록.
견딜
병종
신체를
전역에서
짓이
퍼니
룰을
맥시
캠핑
파견된
노트가
##됐다는
##쇠를
항목은
알렉산드로
연관된
걱정을
##지...
##산면
##라이드
회복할
Little
연승
요인이
팬카페
##장치가
마르크스
나설
의무를
##81
##운은
##erg
기록하여
목록을
탄탄한
겉모습
격노
됐다고
##아프리카
말이야.
하기에는
대항해
잠식
말이야
미네소타
개수가
맡긴
##피,
가수,
4강에
두터
번호가
접어
하버드
노랑
인기도
투석
##가량
##하였다가
다니면서
알바니아
오락실
재일
모티브를
뱅가
혹평을
닮아
일주
패턴.
겨냥
마이어
아빠가
지온
출력을
##ha
가져올
참가할
바르샤
NFL
강자
통틀어서
부끄러워
질려
초연
들어있다.
##oun
출연이
끝나기
'서
서폿
핑계로
##디우스
실시되었다.
바이올린
에로게
방관
치솟
장례식
키시
##남에
1926년
납품
뭐야
정무
티격
의미.
1923년
강하다는
##인줄
초사이어인
'상
결론이
학기
현재,
부하로
성남시
박동
복장이
##트나
##걸음
사이트의
걸쳐서
김시
소이
숲을
##토모
인천국제공항
AI가
##남도의
##uch
Lv1
720
과도하게
라시
##복과
##복으로
이루었다.
현상금
스플래
홍보를
##조치
##Grand
##귀의
12세
부정하는
{{{-2
증원
태종
라임
표기를
##박혀
물론이
나카노
당하지
파헤
황혼
언급되지
제19대
일원이
토쿠
##오에
##머의
제안한다.
SEED
로젠
웨인
장녀
##출판
##디아의
유저라면
웨딩
헤엄
국가와
들으며
말하며,
볼티
##독이
고등학교를
놓을
없잖아
익힌
##공작
##호.
aqu
걱정이
보직
퍼플
##대리
##장교
이미지와
린이
못마
책봉
##지아
이사장
비는
실습
가족은
이승만
관전
보디
애착
폴란
##컴퓨
브래드
오케스트
단간론파
사진의
4.2
구도가
여긴다.
##다리를
연출은
6th
금이
눈과
만세
맛은
셋이
##심에서
진출이
가끔은
대니얼
매칭
모티
모하
반칙
약해
중공
패해
##메트로
프론트
'''
가며
군인이
바이스
실바나
등등의
얻으면
오르고
우물
국민들의
하여,
##ople
줄무늬
##데를
##R,
대강
만우
매그넘
8개의
견뎌
곡들이
##기압
컨셉은
Legend
페드로
##악마
1등을
함대의
##촌()은
폭발이
게이밍
춤추는
##억원
대화에서
비욘
확인사
적혀있다.
쿠미
사이.
국가들이
콘서트를
약체
일간
채우고
##남매
승리할
제조사
거절한다.
거물
결론은
##키에
오사무
읽으면
프런
##저로
헤어진
##by
##보내
선수들에게
di
##린에게
되긴
망할
매튜
먹으며
존재하기
설치하고
아들.
3월,
라라
조원
1,3
고려하지
안다.
##로에게
##까지.
없었다면
불가능에
1921년
노홍
랜턴
무수
이력
테니까
again
##폭을
멤버의
그랬던
never
##학급
유지한
용인시
2와
girl
가넷
학원의
##/V
##인식
##대로,
##apan
'반
획득.
기세
넣기
머니
십중
토이
덕분인지
쓴다는
아제로
예뻐
위기가
##갈이
의미이다.
용을
##범으로
자기네
도시락
3분의
절약
##하냐고
문제였다.
##다",
루트가
생명력이
도중,
마르셀
자리잡은
에버튼
파괴되어
다르고
않는데,
활약한다.
어썰
입으면
차우
##자!
히타
충격에
'P
let
부녀
##스쿨
음악과
나눈다.
태우고
발전한
고성
외부의
있다,
##구라
드라마가
도청
##파운드
뇌격
##진구
있는지는
추측도
이부
참지
큐슈
좋아졌다.
스콜피
'해
소리와
질량
1917년
상반기
비기
차리고
##한다며
##DDR
마토
챙기는
##딜러
스토리와
John
과반
##기적인
##장까지
##인원
할지라도
2타점
상회
##버,
차린
칼리지
##ital
한계돌파
이즈리얼
삼척
남겨진
바니
브뤼
임재
저거
파파
222
실질적으로는
4.4
오두
장단
진이
훔친
스케일
만악의
추가되면서
참여하여
FC의
오리지날
듀크
##버리며
미션은
일어판
아들이다.
떠나서
거냐고
지성
축복을
##Ah
대답했다.
손오공
나리타
##스킬이
겨울에
린의
속옷
체스
##에너지
제20대
대가를
아토
전장을
한다!
힘도
##탈을
##함께
현재에
돌아가게
쏟아지는
예고편
무관하게
해피엔딩
묘지의
##헌터
규정하고
부위를
성우.
임팩트가
뻥튀기
애시당초
신약
키움
되었다가
위협하는
앨리
추축
환산
##해로
##코믹
가져가는
가수가
##공용
##중첩
##대로라면
과거와
주목할
이속
더빙판
자존심
싱어송라이터
'-
1순위
마커
선정한
썩은
완구
화제
##나스
비슷하다고
공간에서
##/09
투덜
팬티
##치에게
방법.
정치에
로마자
탈출할
블루레이
지상에서
두개의
##대행
##발표
신뢰도
팀이다.
##번대
실패를
프로그램으로
라인에
마스크를
북아프리카
2선의
이완
##푸스
나온다고
If
놀림
##카드는
##찬은
도와준다.
튀김
##uro
개조를
가자고
실리
쿨하게
##요정
##상.
Ver
네타
행성에
##집,
한편으로
아니기에
특별출연
누군가에게
김규
통학
바꾼다.
##2와
##구슬
내년
넘을
사거리를
콜업
회유
##루에서
##나라가
구슬을
노가다
만화에서
오승
##C,
##갔다는
챔피언을
급여
낫다는
동체
정종
켄지
한국에선
##부분은
국가인
유명세를
부작용
극적으로
도발을
저를
킥을
어렵기
아제르바이
코즈
##여부
##그라드
##다던가,
토네이도
2티어
##전시
##소리로
##쳤고
10주년
서울역
SKE
3할
How
들어오지
쏟아부
계시
불신
역명
정대
크다는
##기갑
것으로도
추억을
강인한
무렵에
두르고
뻔했다.
##\]
##애의
한번은
#00
무당
인물들은
열세
오와
주기로
퇴임
일본에서도
그리드
임무에
정차한다.
강캐
착취
염동
##tain
##ley
러시아가
##탈삼진
##콘의
바흐
해역
설정과
PvP
대모
독수리
우주에서
반발이
PO
약해진
##노미
않고도
결과적으로는
only
위스
##옥이
오일
도와줄
민사
탑의
3루타
쿠데타를
스냅드래곤
우로
은빛
창이
##S가
수준이었다.
니가타
생리
포격을
자연스러운
5이닝
6초
던전의
뼈아
행사에
물러났다.
되찾은
2:1로
질서
##공포
표기되어
강해지는
내주며
레고
##릭이
공동체
##이야!
불규칙
코어를
알려지게
적용한
원작에
가져간
##화되고
##블록
관리하고
방해가
비견
서쪽에
항소
##탑이
##ouble
배영
함께한
##lection
발족
아이작
연결이
경에
와우
'F
가드를
무안
국내외
획득하는
설치되었다.
문화에
공개되지
결사
파충
의미도
장비한
프로페
2001년에
홈페이
법은
약점은
##산성
##누스의
블루투스
의미심장한
시작하며
사랑하고
카툰
##조제
되었으나,
최종전
Class
메테오
##e,
것이지만
나오긴
##중학교는
##B,
마스터리
군벌
단어의
동쪽에
북쪽의
잡히는
부족하다는
경상도
한인
##니?
##했어
##됐고
경기인
장비하고
생각해보자.
플레어
유언을
##키나
##폭발
강화하는
이유는,
창작물
커피를
시원하게
최적화
방의
선취
유리가
파이프
생성되는
ABC
마운드
제보
특성에
구분할
십중팔
벌칙
##소절
비판도
끌어들이
1)
인스
버티지
도맡
먹어도
빙글
홍익
##.0.0
밝혀지면서
오디션을
EZ2AC
420
가늘
귀에
준다고
고르는
##질,
##진행
##lex
달성할
알면
##이상의
##버프
##학적으로
기사.
시점은
heart
e스포츠
교전을
모셔
##레로
필요성을
등판하여
버스는
챔스
활용도가
4배
넘는다.
본편에서는
아이덴
1989
Lv+1
경선
미공개
스마
연발
하기는
시즌에서
이집트의
여주인
라이엇
##irect
2선
도봉
비호
##직하고
회사인
메탈슬러그
원작에선
넘어선
사무실
발달한
'초
공장을
슬라이더
신으로
탄속
흐름이
수비형
때리고
리프트
황혼의
##준다고
기억에
강변
고참
부조
##공무원
회복량
걸었다.
것에는
##운행
##우옌
##되자마자
##자만
##않는
##삼성
16세기
유지했다.
김호
토템
##여래
##팬들이
계기를
교류가
##먼드
데이브
BGM이
우익수
아브
컬럼비아
##프에게
##던트
##유산
실패하면
무지막지하게
지점을
휴가를
##카드의
##기관총
급격한
승승
##받았던
내한
향신
기총
페로
폭격을
제기되었다.
##,800
기요
숨기
이매
기록,
워즈
유닛인
저항이
기함
덕택에
일의
탈북
##로스의
##학번
개발하고
배틀필드
결투를
답했다.
베인
쌍용
조동
세이브를
바다에서
피아노를
##활한
##하는지
##스트와
중요성을
차지하며
MHz
땅으로
숨어서
##연기
가능하다
아이즈
##ader
동점을
외부에서
장르는
쿠도
저격수
얼라이언스
원피
의병
'로
some
순전히
용감한
사진에
그림은
마징가
숲에
올리지
위험하다.
게오
눈여
바치는
야요
재편
##남,
##/08
법:
손상을
내성을
심판의
익산
##주얼
##REME
귀여워
바를
팀킬
했다고.
##기록을
수위
싫어서
전소
하타
##50,
두면
읽기
##교수
선수로,
후반전
경쟁에서
견습
더듬
살리는
##보상
##증과
##스러울
마사키
성추행
##머리에
답한다.
수제
순발
3년간
둘러싸여
절차
##집합
히카루
놓친
돌려서
출전을
##바디
##보인
##치자
여성들이
왕국이
부관
분출
사회적으로
판매하고
모르겠다.
인지하고
뉴스를
오사
파주
##장면
건설을
아프리카의
누군지
혈액형
세네
##블레이
만들었던
##레벨에
'내가
배치가
얀데레
##보아
규모로
신분으로
될지
샤크
시미즈
톱니
##거리에서
동일인물
선더
이안
##대응
##현재
여자와
here
노트를
진형
Dr.
아르바이트를
삼자
##폭탄을
종족은
점유율
결정이
군부
랜디
영업을
##사:
어둠을
어쨌거나
꼬박
유상
죽어버
##정부가
##틀을
##탑의
한국,
이유에서
라파엘
리모델링
광폭
자신만
능력이다.
대국
서원
위즈
##지다
자선
코에
##내를
##yes
대통령에
제압하고
##이라기보다는
리미
##암동
고양이가
메탈기어
토마토
미시마
콘테스트
방송인
##대학교의
1차전에서
앤서
이아
##onna
처리하고
##한번
요구되는
##일차
주변은
케이스가
Break
판명
##통과
수도인
차지할
의도한
파라과
구간에
악령
재가
##회의에서
참가하였다.
3개가
트위터를
승인을
##겠지만.
대장장이
전신인
이사를
16,
인해,
난이도의
Happy
도래
착안
##빙글
주연을
말해준다.
금고
매료
##베니아
겉으로
남부의
##장관
##콘이
##스터는
3.2
쿄스케
성공하고
##프로야구
블루윙
오클랜드
구절
성에서
##결의
고통받는
오스트리아의
균열
접점이
상관없다.
콜로니
공헌을
'카
귀한
먹어야
보더라도
뛰어났
##그마한
갔던
타일러
MY
면역이
##쇼에서
엔딩은
관람객
백병
영의
##막의
##훈장
인간들을
후반부터
있다보니
영입한
MVP를
탄창을
보이나
쉽다는
직진
##식물
##설계
##내었다.
##연도
##uture
의도치
기믹이
바라보며
천명
치부
호우
흔하다.
형성되어
5.18
TBS
내레이션
펄스
진로
본인과
전달하는
고구려의
2칸
RX
##리미
맞이한
공간의
원판
위아래
##암의
##HN
ISO
붙으면
이클
##[*
말하였다.
박원
하단에
##레스가
전리품
않나,
행보
##체력
견디지
쓸수
에비
##버와
상대전
##시설이
살육
선방
화장품
누르는
대등한
##무기가
##iny
침착하게
디에고
누른
당겨
마카오
베풀
저자
##거리고
발사할
DSP
떴다.
엠넷
여주
##적이며,
들어오게
해설위원
데이트를
##시설을
거품
한밤
개념이다.
증거로
이따금
색으로
오메
가까울
##ement
개더링
터졌다.
남자친
1.5배
할아버지가
샌디에
수배
200%
있었습니다.
##리아나
부디
안톤
해커
##m에
##ves
시작되어
어쩔수
까이고
숙지
입구에
움직이기
달려있다.
싫다고
##세이브
고향으로
aquarius
1타점
발도
보류
분사
##은이
##처분
##순의
Album
340
말하고,
익혀
선언한
감안해야
요약하자면
슬라이딩
느려서
세르게
손님이
폴라
##해서인지
유벤투스
가할
최대로
키도
##터치
진행에
테크노
장래
자기보다
단계에
메시지가
남자.
사주
친화
날뛰는
두근두근
aquarius218
Gal
왠만한
좁혀
언급되었다.
6인
고영
기적을
방송으로
##하라!
스탬
##라에서
##타자로
##산리
코너를
뻔뻔
씨를
발전소
인테리어
연고지
인격이
안정된
들이닥
##월이
15개
##ORMAL
못마땅
Come
도사
센다이
신에게
쓴다면
예산을
##르에
##유기
##eek
감옥에서
계엄
빡친
켈트
소련은
멸망한
1에
소나무
자자
##싱을
드러내고
시스템과
+20%
버금가는
3에
암묵
오현
줄어들어
맞대결
장이
리는
##남을
기록으로
일어나자
##남부
1400
50분
그것과
것과,
예하
페가수
한큐
어리석은
로미
킹존
##화나
##I의
TV판
스테이지는
부근에
서동
추격을
##다이스
익스플로
세력에
##정동
사이먼
외모는
돌변
마셔
초선
트란
함선을
투사체
##정보를
##스타일
유닛에
합쳐져
개로
박석
튜너
##성이다.
##브리지
불과했다.
달릴
법에
켄이치
##안고
##습니까
이상하지
조합의
투표에서
주도로
칭한다.
##해냈다.
방콕
성소수
알자
춤추
##시라
##헌,
멤버들에게
루카스
걸러
단호
기준에
이루어질
##raft
2등
분전
세세한
##완이
##푸르트
##입니
인정받고
이적료
먹으면서
##불리
런닝맨
다같이
동물이
변종
탄이
##나니
##티뉴
##금과
개막전
3:0
제안한
파악할
계급이
장점이다.
마크가
펼치고
올리브
방법에
고질
매력이
분들이
##은의
거야!
집사
만화책
설계도
발언은
##경찰청
금액을
늘고
자하
오염된
지형이
평은
후로는
코스트가
'G
Pol
출토
##처럼,
자체적인
극동
안을
##ball
소비자
##naver
총재
##쿠마
증가가
선발투수
480
데일리
의지로
##우나
##HP
시험에
국한
생명이
##~25
right
경복
직캠
##봉,
판사
##누이
처치하면
디펜스
신탁
기사단의
섬뜩
남자친구
삽질
세상은
자물
##진에서
##축제
##대지
##바둑
##앞에
말해주
계획의
듣고는
뽑고
쇼군
##익이
캐릭터에게
국가들은
##unk
작성된
도달한
'~
세력으로
일이라고
##급.
리그가
복각
아치
당시부터
##/06
불필요한
등에게
서큐
의석
용어가
차츰
##ML
##부산
##후미
조직에
No.1
상원의
터지면
절대적으로
동메달을
글라
김우
약하다는
##통치
07.
돼지고
싱글로
골수
연소
치르는
드라마에서
오라클
여고생
조사에
팬들과
##주니
때문일
##.0/24
주민들을
범죄자
마무리했다.
후임으로
매춘
싸게
이터
전사의
##E의
##못한
라이덴
1980
내려서
니혼
##도스
그렇고,
##ama
서산
호문
##움,
파워레인저
0.0
황실
등급은
플라워
동점골을
구석이
아내는
여당
##2회
##]:
자동적으로
페르디난
RED
자국의
북부의
중기
##덕의
##외국어
##충은
물론이고,
사업이
신세를
포메이션
문제인
그리폰
부드럽
노이
팽팽
드러내지
가지의
냅다
##ORA
희망의
시부야
떠넘
명성이
세이지
##바꿈
생각하게
이것에
디자인으로
보인다고
찾는다.
##출신
##~13
OM
마법.
##ism
받았는데,
에이전트
벨로
빛과
갑작스런
툭하면
카디널
바론을
전역을
옵션으로
스킨을
하다보면
갈래
서슴
잃는다.
폴란드의
##수학
지나서
'개
1/4
민족주의
복면가
놀랄
살다가
지부
포뮬
싸우던
강남구
나중엔
삶은
합쳐진
Gl
보름
서커스
순서가
안되고
양방향
유부
평소의
가성비가
페니
건물이다.
유래했다.
##해지고,
소리에
있다"고
장악한
##트러
##사정
##촌은
그렸다.
닛폰
대한민국에
아닙니다.
위에서도
##/C
2015.
집착하는
'우리
H.
간격이
소외
장군은
##"이라며
##밖에도
우천취소
조조는
히비키
서있는
젤다의
챔피언쉽
병사들은
동아일보
보다가
작센
드래프트에서
거둔다.
##,000,000,000,000,000,000,000,000,000,000,000,000,000,000,000,000
Cry
가혹한
국대
말했듯이
여차
우승했다.
Ind
것인가?
광고가
무능한
졸개
집단이
##6의
##~17
앨범인
경유하는
곳에서는
성주
쿠레
크다고
표적
한도
##광고
만들려고
##학교에서
드래그
분명하다.
##px"
고어
세력과
시점을
아르고
언어의
칼이
하이스
##보시
그레고
신노스케
##디드
띈다.
40,000
표현한다.
FO
반의
웨어
##oe
##감사
공략을
아돌프
##배기
##케는
##여단
전부를
노래에
##나라에
싣고
운명이
##저지
##농구
#FFFFFF
2위에
뒤섞
백종
선샤
엄연한
당연하다.
등록된
나뉘어져
파문
##S는
지방을
##전쟁을
할머니가
눈썹
물은
함부르크
하고있다.
17,
각오를
산호
치르게
장착되어
없애고
##드립니다.
휘두르
뿐이고
예외로
##작업
장면에
일치한다.
식인
통영
틈에
##케이스
친구와
민족의
버튼이
EXTREME
불가.
소환에
물었다.
##N의
##-100
플레이어들은
트리니티
'호
고음
선택에
정신적인
해주면
##거야.
##베스
##로서도
프리퀄
조합에
'당
##T의
사실과
개틀링
NORMAL
남기는
엘릭
##피아의
문제,
##eck
1볼넷
Park
변수가
부원
회심
다루기
카메라가
되찾아
'W
K-P
뉴타입
한상
##두,
##]의
이유에
돌아가서
실컷
접하고
##펀치
나무위키에
거냐
통로
틈타
글은
원문은
##oup
종료된
하위권
0승
권위를
센고쿠
##해놓고
##모르
100여
없애는
WWF
가는데
로망
##가타
##히라
##~50
any
MUS
세실
인플레이
##사르
204
전투에서는
생성된다.
밤,
실점을
정근
합스부르크
##보정
배차간격이
전국의
'코
계기
키아
##다테
CGV
각지에서
호조
##문제를
##리아에서
외모에
새벽에
어정
철벽
살아갈
늘어날
5월,
소개된
when
##해라
한국인이
관건
부설
붙게
최선
항아
##브스
어머니에게
게시물
철혈
되어버렸
프리랜
##전환
##풍으로
선생이
같다며
킬로
##폴트
##볼이
전설을
잡으며
##져도
보여진다.
수도를
소녀를
##프로젝
비율로
##날드
이용이
크림슨
똑바로
조반
##물고
##체.
##RC
것이다!
동시에,
마스터의
저지르
요청에
Pop
데카
따지
무마
세는
태권
##화부터
##난이도
##곳을
결심한다.
외래어
든든한
성분
##4를
이동한
작중에서도
70년대
Mac
학위
##ura
보상:
"진
14.
제2회
근접전
은퇴했다.
##으니까.
변경하였다.
임원
작위
패하고
##콜로
히나타
티격태
3.8
Esp
굳건
엑스포
##인이라는
##색이다.
제압하는
다이크
##.K
경합
서대문
전쟁과
감찰
거침
막으려
신년
아니어도
관련되어
결정한
JYP
명심
보도가
##라나
##ait
##필을
중국에서는
3-4
광전
버라이어
사위
성북
짝퉁
프나틱
##보르
상승하는
조작을
오소
것뿐
별거
상해
##set
##봤다.
아이언맨
터지고
힐을
##선가
카드들이
##하기도.
최강자
신기한
도전을
##창에서
니콜라이
얽힌
##곡리
한정된
오르지
인류는
관용
프로그램인
##/03
랜덤하게
공유한다.
방안을
아누
엄마의
울며
칼에
튀르크
##팩을
대표적이다.
1999년에
지날수록
학창시절
4장
가열
갖지
반입
츳코
##범위가
마찬가지이다.
순간을
우루과이
Cal
이을
##도사
##급이다.
##보레
사람들에게는
시티즌
2)
농담을
를르
##외버스터미널
##arth
않았다
여성과
장난이
넥서스
##'나
연합군의
조만
이어폰
사회가
시민들의
5레벨
분은
서문
캔자스
해석을
##고양이
pre
면치
뿐이
엑시
입구를
흡사한
##대회를
##8명
##.G
##나면서
제2대
신중하게
트윗을
능력,
낙선하였다.
+7
데니스
3타
3칸
독살
물과
##운,
탈락한
##TV에서
생물이
아들에게
수준인
6월,
##게임의
무한한
1-3
개머리
이오리
##렉스
##폐합
아키텍
딸려
Na
허니
상태라면
건강한
날려버리는
은근슬쩍
어색한
금세
아와
아디
서버에
다비드
강희
순회
치어리
##타로의
시트콤
자발적으로
PA
감속
산이
수행을
지수
화랑
가져간다.
닿을
##케를
돌아가지
성공하여
7월,
밝히지
취리히
##-00
##중은
되지는
막았다.
역량을
상대인
티격태격
자취를
##잡한
주방
지출
짜증을
화기
오역
300만
괴롭히
오징어
후보의
내보내
외할
변경했다.
대비되는
나눠서
높았던
애써
이르고
##대학,
실시된
라그나
유벤투
이효
중이라고
부족을
Hey
지뢰를
행위에
##들게
##바토
1986
옵션은
폭풍의
트라우마가
5기
B급
KBL
번개를
강화가
Single
교회에
삶에
호로
출연자
탈출하는
코로나19
8초
꿈에서
부회
하늘이
종교를
##anger
시베리아
양상을
##됐지만
##투사
작가인
기권
바라고
초부터
상태일
##고등학교를
제3차
물어뜯
Real
카페에서
Sol
항쟁
##다녀
##사업을
이동력
디자인과
05.
원내대표
공주를
정중
생각한다면
전차는
살아남기
고자
도넛
러블
점령하고
물체를
중엔
취항
타오
지지율이
말하기를
에노
유괴
##봉사
추가한다.
동료들의
need
3인방
U-20
강정
몇십
약하고
인삼
##이치가
잘못이
조심하자.
관할하는
part
미지의
정점을
한자로
##베기
##리그에
나와도
예외가
오카다
악명높은
40년
AAA
석가
코리
난이도에
눈여겨
남산
맞으면서
만들어지는
차량이다.
GTX
new
메르세데스
신앙을
고릴라
메릴
여하
##/04
남친
비겁
천상의
불가능하다는
돌아오게
베네딕
종로구
lv.1공격
꼼꼼
먹히지
삼진을
전주시
침체
한국철도
아니라며
차량.
기억하지
정리해
방아
##니지
관통하는
헤이세이
하룻밤
LS
더불어민주
조종할
5명이
##도끼
1100
스테이지에
옵티머스
쓰고,
촛불
합의를
##머는
##록은
만들었고,
##이니,
분광
4월,
기대하는
일렉트릭
Girls
온도가
용량이
주인인
범행
상에
이후는
사례.
날아간
무승부
2.9
RR
나사
높이기
신화에
카프
##누스는
작품에서는
대체되었다.
열린우리
만행을
자객
##로드가
##넣은
2회차
병영
##엔의
BW
RB
김건
말살
못했기
민속
패배하여
달려있는
##세가와
##/02
음성이
일인
##ames
떠오른
못지않게
별칭
봉건
##du
##ene
##ANCED
남쪽의
부전
동작이
향상된
청문
##리오는
##라기보다는
'거
코이치
##방학
하드캐
"조
닮았다는
일제히
##ords
Mix
포진
##지!
##시키게
100개
곁에서
##섭이
배우기
lv.1방어
가가
제사를
천하의
투영
이론상
벨리
블랑
##oj
##self
##zz
패턴의
변신하는
1명을
새우
찾아야
지능이
씌워
언뜻
중등
천진
해인
프로입단
1:1로
개개인의
##균이
확보한
##베는
경우와
이득이
갱킹
유네
채무
##eet
##I를
잡아내며
Du
des
코치를
##엔을
여자애
언론에서
갑작스러운
눈앞에서
PT
자크
자와
##루스가
짜증나는
##룡,
##벨이
초딩
유닛들을
선생의
뿐이라
##아노
15.
소녀는
레드삭
Core
주조
타구
##연령
##렸지만,
다음해
인물로,
관념
언니가
##-최
##~60
자동차를
선언한다.
빈민
싸워서
##다가는
반복하는
'선
정승
1개씩
세인트루이스
보기에
##화면
링크가
1912년
발언으로
오로라
궁병
금서
말투를
양측
##네에게
받자
##비아가
##연습
##밍을
경우이다.
사용하는데
리그로
수수료
Blood
기껏해야
와이드
챙기
하였으며
조작이
센터백
플랫폼을
냉장고
류우
카고
진출하였다.
알아볼
아스가
확고한
10월,
R.
부대로
쓴다고
욕설을
은혜
##고개
##여행을
##각,
1,200
이것만
8월,
실패할
여길
존의
플레이오
도달하면
부진으로
7~8
깨뜨
철도의
표시된
자전거를
기도를
호스트
나오지만,
구매한
가한
곡들을
배분
요일
##해지게
경찰을
##km의
제이콥
은메달을
310
볼로
저희
키프로
##규를
##처리를
포함하면
안정성이
방패로
미네랄
##hammer
Rad
뒷면
에델
##쇼핑
소모하여
안착
허락을
##다:
도끼를
학부모
교류를
단계를
타깃
퍼스
##회에서는
##냈다는
영국에
생물을
짜여
##생인
모델.
확실하지
GX
경전차
무기도
보성
열매를
헤일
##1을
##로얄
움직이
월드컵에
닥터가
흡입
##람의
2차전에서
어린시절
속성에
문호
##잡기
과학의
##해졌다고
##150
아이템이다.
편입되었다.
배리
플롯
##1:
싸우지
많았지만
부작용이
같으면
##.'
미니어
계승한
.4
페인트
##une
속출
장시간
기사로
하수인이
Fly
반동이
주문이
##다라
##적이기
당신에게
덩어리
한번만
도착한다.
저격소총
Angel
모시
은둔
클루
나타낼
발견되지
흡수하는
380
감고
루드
후드
##절의
알아보고
바인
울트
##변호
지원하기
홈런으로
의문이다.
국정원
IBM
9회말
캄보디아
다저스
세대의
우산
##자면,
대공포
영기
한없이
흑마
##락은
차례의
체포되어
가졌던
파생된
Hol
다나
선딜
##주아
##근무
##홍이
##err
하루가
기대하고
무언가가
여기를
이차
##of
##클리어
##뒤에
1등급
불발
감소.
리더가
대함
재래
##드라이
소재의
##ONG
메모리얼
친위
확률적으로
보내서
달성.
모자이크
스튜디오에서
PD가
대만의
유물을
직감
##버스,
도입되었다.
상식적으로
강대한
그쪽
키류
통한다.
##스컵
여성.
태양을
합리적인
그늘
##bal
##지역을
미드필더로
5.1
조에
표류
부르면서
무고한
미달
시속
인형이
코레
##기한
##부원
헬리콥터
물품을
파이브
앙쥬
##톨레
결정적
작중에선
소녀시대
꽃잎
펀치를
공격속도가
2017-09
설계를
활동한다.
1987
타이어
##lack
에스토니아
Val
이바라
찍어서
정령의
06.
체코슬로
승리하는
비판의
스케이트
크리드
도요토미
'I
책상
##죄를
USS
대주교
돌면서
##하타
Take
##성.
##데모
##초는
표현으로
눈치채지
Feel
유교
대화하는
ADVANCED
##리며,
##극이
나왔다는
02월
기다려야
'죽
기대에
레아
하겠다.
##루스는
##-인
##족들이
12월,
붙였다.
생식
역할에
남아공
who
머리카락을
무속성
자회사
희한
##독일
비밀이
절친한
Ret
증상을
##붉은
듀얼을
'사랑
숨긴
어떡
유코
천만
태고의
반복되는
함정.
사연
옹립
주에서
지석
##네!
기본기
곡들은
나진
방대한
코시
헌정
##rough
##쥬얼
추가,
유닛과
외관
윌슨
##빛이
결혼하여
어그로가
정반대로
따랐
전보다
힌트를
사실이지만
##thing
갈려
찾게
해보면
##맛을
데이터베이스
태어났으며
주저앉
SUV
Home
분비
예컨대
##만하게
##망한
자신들
방송되었다.
아버지로
마스터가
야마자키
흘러나
승객이
렉스
않다
코인을
말하기
악한
공연에서
차례대로
EPL
{{{#373a3c,#dddddd
적지만
지으며
##정권
##직의
##궁에
조건:
살아남는
##지않고
찾아가서
Party
+12
sk
##임.
아직까지는
행정동
달라질
기체.
나게
훌쩍
##월에
감소가
가나가와
뚜껑을
강이
몫을
연설을
피셔
##so
##칼을
돈도
목조
밀리고
##그란
스페인어
참석한
뽑힌
의외
##추,
##팬들의
##4회
##mas
파괴를
작곡,
대격변
떨구
입소
##대회에
##쿠를
##번역
##겹게
어울려
제7회
조차도
주파수
낮기
최승
행하는
##돈은
영화,
대기시간이
조사한
유래된
"세
부스
수지
##증권
20mm
관점
부부의
제물
케이트
##상업
존재하는데
올라서
Story
기동성을
통과할
리무
현저히
1은
단서를
츠치
##라지
"인
성행
솔져
##iful
글러
문명을
서강
오웬
하얗
판매량은
4개를
산으로
소름
앞당
조니
운용이
달랑
딸로
받지만
잠이
##DER
선정된
배신한
증언을
##시아는
소용돌이
정도로,
##elie
여객철도
장현
"뭐
행성이
##농협
4시간
7%
공전
구단은
집단의
패거리
##사다
왕국은
명예훼
광자
##/05
평균자책점
극에
먼지
평타를
##당하여
##바오
##방식이
함장
##재림
플래그가
고군
뒤엎
신짱
##혔을
보컬을
실질적
인위
카롤
회오리
##굴의
##ino
스타라이트
들었다고
외형이
##했으므로
##킹의
서술되어
이지스
3.7
gr
가세
저주가
주민등록
##ection
루트에서는
비오
비활성
##륜구동
보였고
올스타전
반짝이는
금화
르블
행선
##라드
##캐피탈
##스트리
결정에
저항력
요청으로
국가대표팀의
3화에서
변칙
사칭
입단하였다.
시절엔
40대
북한에
아이덴티
나바
남고
높으며
때.
##문이다.
이상에
선보인다.
'알
단점으로
시도는
였다.
요양
들어도
'리
신영
판에
상위권에
알았으나
저질렀다.
tw
족족
##데다,
수록곡.
##여자대학교
Kim
Mem
##냈다고
자본주의
오퍼레이터
경지에
소말
연인이
조의
##기보다
더욱더
팔린
##문고
후반의
모드와
공안
TG
가왕
그딴
라크
암석
얘기도
12화
9월,
호응을
뜨거
본가
소스를
##니치
##사추
중앙아시아
##"이란
'파
기복이
꼬맹
마크로스
코치가
쿠스
##get
##전쟁의
##&gt;,
철갑탄
공표
광신
달린다.
몇개
평등
##방면
3차전
중점
##부활
리얼리티
사악
##번에서
##20%
강하다고
양팀
웃기
짓은
파트가
##서리
결혼식을
어째선지
걸까
사기가
희박
##비에게
##청구
집안에서
맞이한다.
팬미팅
KA
출국
타석에서
##가슴
##제트
##형사
도달할
건드리지
##ways
이모티콘
선공
피우
##름의
유니버설
가온
시신
##캐가
##글리
사이킥
엉덩이
##아메리카
성우로
클래스의
비타민
도가
라인의
설날
##ines
불멸의
힘,
3점슛
##K가
##들이었다.
스핏
어쩐지
윤영
##필이
##이라든가
가려고
묻은
하하
##티움
##티스트
다르게,
단국
반발을
이보
자동변속
올려준다.
문명이
커리
##/지
##것처럼
##부작
한국사
암흑의
동사
몰수
엄지
정보에
교육과정
방향의
물러난
3에서는
뒤쫓
중계를
우승으로
승강장은
##주간
##정책을
##그,
##련이
증가량
줄임말
아이들과
경찰관
밴쿠버
고모
레이가
모탈
재탕
행적은
카드인
9000
살을
알린
진작에
##되기는
세계선수권
TV에서
##거든.
남에게
빅터
팽창
##직하게
##센터,
홍콩의
Sou
파나마
이순신
공지가
독성
묵묵
미타
외무
나누고
집어던
또래
목걸이
끝냈다.
승부가
안정을
후딜
##요와
스트롱
통과한
##ASY
##케이크
##길은
이용하고
국가들의
노래하는
##거면
##급히
##마타
##촬영
기본이
LOL
나랑
##튼이
##R의
1300
##이스는
퀘스트의
Tech
피츠버그
속아
##해내는
##암이
1~4
강북
군함
##군이다.
##회차
받아도
##uss
1930년대
임무가
'구
5집
아일랜드의
신속하게
우습게
스캇
주작
확인이
##부러
인간적인
##위원회를
책에
1984
선택해
나무에
거두어
주연의
궤도를
몰빵
속편
숙박
가능한데,
사태에
연애를
진행하면
대응을
흡사하다.
기증
쌓고
우등
포가
##율의
배우자
기체로
내무
아만
해부
##,6
##혁과
고레벨
근친
해의
들어서면서
레슬매니아
Champion
굴리는
흐르
##시스의
##영업
표현이다.
7이닝
고화
괴물을
한이
##'ll
##관총
2월,
조선인
+1,
개표
낙인
맨손으로
2일차
보도했다.
C9
PERF
독창
양민
##모습을
##현으로
3,4
관현악
여기로
출중
##ible
##블이
##밖의
얻어맞고
왈,
직위
##터라
생산한
근무하는
##들에서는
##ya
명분
백신
전화가
1905년
바티칸
랜스
르브
미용
포레스트
엑스칼리
드리프트
김홍
사이트가
FC로
거북이
뺨을
##네임은
Storm
Sn
로코
애정이
##다는게
것이지만,
남용
알트
애비
##ta
변경을
누구인지
불명이다.
##대나
##샷이
2015년에는
최우선
##월드컵
배반
욕심
혹사
당황하는
##다!!!
지내던
꼬리가
나니
독일에
하에서
기록도
그룹에
미카엘
외동
##090
##법.
되었는지
결정된
제국군
참전한
GPS
해놓고
호쿠
##P는
Beat
비정규
악영향을
'의
소행
페널티가
우라늄
패널티가
'나는
가지만
던지면
돌출
부사관
빵을
인원은
라이즈
좋아하게
출생지
반공
시장은
종말
하강
##D,
##유니
##능력과
중심을
##했는데도
진영을
되면,
수위가
요츠
치토
##도르프
귀속
덱으로
정박
##과목
##신청
##추진
##되었기에
표현했다.
상승했다.
많으므로
음이
##물어
##rol
아니었지만
거절하고
Orig
2골을
감당할
잔잔
재선
##조.
전체에서
Hero
YG
병신
수렵
적부터
철도가
존재의
발표를
흡수한
##봤을
##카이저
얄짤없이
댈러스
반군
코드가
티탄
##산군
즐거워
창세기전
얼른
엄마를
이서
초신
##무트
와일
##장:
##조노
##브러
쓰는게
##마법사
크로스오버
이마트
1주년
7번째
무장으로
##상담
50개
'N
찰나
##티아의
##중으로
때문이기도
발매가
크루즈
속사
정현
##벨을
##ANCE
경순양함
무츠
이점이
##군."
##맞춤
기록했고,
승리하며
도전하는
"최
##능력으로
##횟수
아키타
##세계에서
소년의
고고학
Bro
극심
덤블
정민
##과금
들어가야
소모하는
갤러리에서
라울
마검
성질이
피파
후카
##피와
##하니,
리바이
말에서
##스카야
Ry
정관
좋지만,
찍는다.
##빨로
공간으로
갖가지
조가
##und
##중간에
당선된
##ortex
거치며
여부가
참을
##스테이트
Say
강도가
잔해
점에서는
해줘야
##안보
##:12
부활의
데려와
아이슬란드
낫다고
딜링을
타원
뜨지
절륜
조류
히로인이
일정은
CBS
총기를
헬스
자연히
무척이나
코코로
못하자
##길의
##lease
Space
규슈
회사로
##특급
BGM은
##시내버스
암호화
동결
망령
올인
있느냐
가평
끊이지
확장을
경제적으로
포기할
코스프레를
말했던
소령
##소시
##스트럭
스피드를
중간보스
결성된
네번째
르노
진심을
찾던
##250
감마
매혹
생일을
##손의
A4A
불확실
완패
자들은
아나키
##져야
##O가
증가한
대용
물자
발포
달랐다.
스투
차차
##키지
##키오
##없어
##김에
##연예
카드도
3턴간
롤챔스
갖은
구운
듣고,
로이드
때면
사하
주며,
그려진다.
쓰러뜨릴
Sweet
앙상
위축
풍경
합숙
##색에
인간에
부드럽게
그외에도
주축으로
버전에
자초
##감염
지구와
마라톤
양천
##an,
아닌데,
얼굴과
1년이
많았고,
미나모토
분화
'The
가신
레플
의류
##성우
동방신
과열
생생
장비로
그동안의
##아아아아
4세트
달을
사명
사형을
아무나
EL
분쟁이
##성공
##산드
나가기
공/
##잡는
시간으로
내수
듣보
##프스키
아이오
노가다를
레볼루션
##해버렸
##했거나
30여
their
올라가고
분석을
응우옌
통통
##되진
##기관이
노력하고
바깥으로
512
않기로
제때
팬아
풀리는
##엔,
##utiful
지닌다.
조병
##테,
하였는데,
설계된
아테나
##/201
쿠파
해온
희미
##오빠
##순,
있어서도
없어지고
소년이
불꽃의
거치지
맞다고
크나
회장을
##회원
무기이다.
장갑차
빼앗은
##ASS
##ather
알렉산드르
2:2
계기는
월드의
허드
##천과
시켜서
대접을
실책을
심슨
윤지
탄수
##T를
작품들이
포켓몬은
변함이
혁명을
영어로는
재계약을
##트라이
##비안
##메드
##오는데
유재석
프리킥
활용이
그중에서도
악랄한
장진
선수다.
필수.
포즈를
헐크
##reet
6세
한수
##/B
##섬에
그림자가
우주에
캐서린
상이
소시
총이
충고를
30개
PS2
역전재판
예외는
무덤을
월터
##덕을
아이리스
희생을
출처는
면모가
불거
세인
폐업
##pr
어디론가
답답한
선교사
저조
준플레이
치에
능력자
친구는
샤이니
퍼트
##2리
##줄로
상승.
##다니면서
##공격에
범위도
붙일
실력과
후기에
##성에게
10개의
Apple
경원
보이드
유흥
##물리
지금과
소환하여
배우의
"스
고압
인프
펜실
##구만
장관을
##자루
##직할
평가된다.
##리카의
보이던
예정이었다.
높으면
바치
비장의
항복을
##케이드
누구보다도
최동
##n,
비교하는
1907년
중순양함
##암으로
대중의
끈질기게
고졸
구식
about
극성
분수
편향
반대되는
주신
##순한
장면과
신체적
하야시
막바지에
'보
부록
택배
##이드를
##상품
참가하지
혼성
##심,
기술,
승리하였다.
##일라잇
국영
수리를
쓰자.
와해
##M을
남이
진다.
이동하여
취소되었다.
자들의
함선의
##계통
##현동
운용할
##해졌고
여전하다.
안기
##마루가
##리오를
들어가면서
종류를
법정동
지켜봐야
기동성
백수
학살을
제라툴
암울한
가보면
마왕이
##버스와
##검,
유저에게
스테판
##시켰고
흥행에
Lee
she
##가루를
플레이오프에서
경제가
원어
연세대
켜고
##미디
##부터,
공지를
릴레이
장영
##설로
##ena
이렇게까지
http://www.
유네스코
겐지
때리면
리차
정세
무리뉴
미안해
맞기
분의
##이프
##미안
##C가
연구원
콜로세
아줌마
중퇴
##iet
##교회의
##층,
프론티어
Gun
x1
나성
문예
떠올리게
1단
브렌
입점
형법
##수있다.
몬스터들이
미사키
거머쥐
끼얹
밀짚
##없고
##래,
개발되었다.
'중
것이라면
꺼낸
종업
##연재
Young
선두타자
건널
다마
알테
플리
##서클
드라마에
누구에게
프라모델
옐로우
오하이
##레트
스타크
고트
글에
난동을
##장이자
힘들기
스트레이트
격차를
근성
##두지
적용할
거대화
오줌
##파일러
##이었는지
리더인
"비
IEM
가정을
관리에
내포
밴드는
섬세한
##1리
##링턴
한다...
도를
안영
##자리의
공격했다.
오빠가
가차없이
노력으로
얌전히
흔치
##히사
물건이다.
작용한다.
레오나르
##듯,
시작될
드라마이다.
##라운드를
매달려
감각을
계몽
리저
바빠
파병
##1은
설정할
나무의
스크립트
깨져
##right
##초메
선택은
의견에
나폴리
4위로
연마
변신한다.
생성한다.
6경기
걸렸
기록한다.
하다못해
Dead
베드로
알카
이홍
##시즌에는
##aker
진입할
떠올리며
루즈
지시에
아군으로
##교육청
가뭄
겨루
시아
현악
##의에
##순교자
축구단
요구에
꾸민
높으며,
필요하지
게으
나츠키
부호
웨스턴
시작하고,
##가지의
하나하나가
7화
##나긴
지속되는
것처럼,
정책이
텔레비
4편
M3
전선에
초고속
##번호가
##샤와
4월부터
한글로
시마다
작아서
치지
금천
에테르
오레
헌액
화재가
분야를
엄마는
중이었다.
하겠다는
##지원을
작중의
김보
##센의
##녀와
보는게
사쿠라가
폭포
표면에
##.n
##con
##곤이
##잖아!
갈라져
가쓰
##트리스
획득한다.
넘어온
격투가
결선
인플
##비오
모습에서
어린아
결승전에
부하를
명실상부
Fight
곡선
깽판을
남기지
말았
독립적인
거두면서
루트비히
Dest
##xt
##지방법원
리드를
왕에게
함정이
성능과
르네상스
띄우는
양재
코덱
##해줘야
##문제가
##여.
마이티
암살을
세종특별자치
##ODE
3점을
커진다.
클럭
##지선
##단장
##이었으니
원칙을
구역을
##:11
가능하면
나왔으나
##대학의
마라.
인적
장비와
범위의
국토교통
베네수엘라
기계가
꺼져
남궁
대머리
말뚝
반해,
완주
아니야.
아이유
출연했던
아프로
곳이기도
##넌트
불가능하다고
알라딘
가문에
아발
헤카
##빛의
묶인
세토
안팎
##ume
남쪽으로는
사운드를
kn
##레스는
##루이
허용하며
##데미지를
NPC가
위원장
4쿼터
느슨
동탄
싶었
지켰
끝판왕
없지는
유체
##osh
##공간을
4주차
디셉
조셉
##시장에서
##VEL
진행되어
##리안이
Def
마운틴
"도
6권
여자로
##움으로
##-50
출신으로,
##eter
가족들을
##END
##리우스의
##프랑스
무더
벌이게
페더
항일
협곡
아니어서
분류되는
##-47
08.
여론조사
깨우
딸.
용어로
##사토
김신
세습
다른데
선수였다.
이기기
화살이
상술했듯
고도의
노래방
사진으로
우치하
극찬
단위의
번영
욕망
##르스
번안
비닐
토라
##전철
##산물
교사가
홈으로
##-김
마을은
나아진
Road
3티어
괴랄한
끝마
뚫을
덧붙였다.
얼터너
군이다.
발전이
쓰다가
자결
혹평
흐르고
##노에게
##파에서
구입한
독자들에게
반토
여론을
캐스트
##/비
##INAL
조준경
Friend
유원
인계
##주세요
퀘스트에서
정리하는
방어력:
When
예수의
했기에
##lace
직후,
때린
통역
할만한
##ATE
줄리엣
파나
차지하게
물려받은
면적이
우세를
##키리
프로포
독일을
파괴한
특성과
시도한다.
승강장을
뿔이
열렬한
피버
현무
##인이나
##종족
##M이
퀘스트는
행운의
BS106
부로
##겐의
들어오면서
메구미
7호선
##주거나
##당했을
2016년에는
랜덤한
능욕
앱을
투명한
하와
지원하고
유명했다.
득표율을
궁전
전하고
##제나
##ral
##순은
스트레이
부정할
##naver.com/
cont
천장
하니,
##주세요.
##s/
##토크
10화
보고도
한정되어
에피소드.
아티팩트
문경
쓰는데
유창
의원을
제비
##주행
##혔던
가능하므로
Stri
##초등학교,
없었으며,
제공했다.
포켓몬의
-6
come
리어
받거나
##행사
##냈지만
가능하도록
블루스
외국의
있단
##식도
##르키
##소대
10점
솔로몬
가로지
이산화
환불
어디선가
김응
뉴비
##끄럽게
##네로
독일군의
표기법
강요하는
WORLD
Wanna
매거진
미겔
세분
워드
##슬레이
스프레이
##회의를
병사들의
브라더후
KC
빗나가
##트륨
##body
대응할
금수
덱은
야루
오해가
타선은
프롬
황무
레이의
변경된다.
성능으로
간호사
대덕
은혜를
훈장을
사용은
가져갈
U+11B
##;&#x11B
GOT
보전
재고
##찰을
마지막엔
불태워
페미니스트
번쩍
상층
잡으러
해지
##atter
무너지고
제5회
눌러서
카테고리
##태평양
8.0
##요하게
승리,
프랑크푸르트
##화장
##정차
환영을
##는다고
##ental
##검찰청
색상은
##담은
러시아와
받아들인다.
구단주
##:30,
아머를
곡으로,
사양이
앞에는
주임
주포를
##간으로
##모드로
##낌없이
대사관
정면에서
쓸모없는
##쓰기
관련기사
##:54
5.4
보긴
##/아
그룹은
김남
##다에게
##자체가
음반의
끌어내
##해가며
상정
##-40
경기력
황금의
1908년
본사는
상트
서약
진실은
##로즈
##되곤
##할지도
##다"라며
부모는
영감
##웨이브
추산
효고
##중일
최대치
Rev
해설을
제갈량
무색하게
만우절
닛산
디즈
제재를
##리아스
'만
고척
짧아서
##러시아
부모님의
이론은
출발하는
정반대
공기를
펼치며
##두와
떨어졌
외친다.
기술적
생활이
본체가
안은
외부에
##하키
시절이
어디에도
제6회
##글라데
G2
무례
중남
협약
##호에서
걸림
글러브
산림
##리크
이유만으로
정확하게는
걸리고
명왕
시켰다.
파츠를
##다음
##집과
나오니
평일배차
A의
뚫려
##르지오
종을
주자가
##초마다
이어받은
유지하면서
표기하는
1998년에
모색
물로
직원들이
취한다.
##언어
선택한다.
##버리자
혹시나
아끼지
EZ2DJ
방해를
요리사
2배가
너머로
Champions
##는지도
미만의
신들
압력
펑펑
때문인데,
이루지
월드시리즈
자리잡았다.
목걸이를
제곱
티모
##검과
##:24
극한의
매턴
물질이
의도로
##분기
##킨스
##적으로,
정도니
##아버린다.
##명/km2이다.
중용
2017-03
브리핑
미화
베스
##레루
##도나
브랜드를
소행성
않으
일들이
죠셉
화속성
##ience
아라비아
위기에서
##곳이
않은데
대전의
##OUR
기다리
피스톨
애슐
##대까지
알아낸
바꾸면
보헤
작전은
##액은
슈팅을
3위에
갉아
보리
좋아진
2번의
마운트
급성
몰랐다.
조화를
충무
한니
##식이다.
##역인
유발하는
무자비
샌디에이고
물체
진실이
출진
타자로
포로가
##D는
##판에는
##이지만.
디버프가
익스프레스
주겠다고
사랑받는
결말이
##민들이
들어오기
##학자이다.
실종된
진격의
화순
듯,
코끼
안티오
결계를
높일
동쪽의
지르는
했습니다.
##이치의
##익스피
19:00
시청률을
게시판에
hats
괴짜
기이한
노아
위헌
11월,
착각하는
독자들은
심연의
알리고
양조
탈바꿈
보여줬던
I'll
Ag
아라이
임정
체력,
알아챈
조절할
영구적으로
천황의
김철
패전투
##기체
##포도
영어,
거부했다.
낳고
리플
사요
승을
지대한
창문을
##언은
어정쩡
'더
매뉴얼
슈트를
우에다
장관이
유명했던
고려대
해야하는
거절했다.
돌발
비현실
##럴드
방문하여
컨텐츠가
"하
고개
컨텐
허수아
승리하면서
확인하기
코너가
09월
play
굴절
##라든가
##레기
모습,
포르투갈의
7.62
몹을
별자리
##익은
3G
경주시
로페
섬머
적인
##공인
5세대
센터를
퍼거
##번.
##unt
같습니다.
시연
결정할
감소하는
번역을
리더로
짜리
그때는
고유한
김문
죽였
##루루
##답을
1997년에
서쪽으로는
다반
면에서도
신예
점성
코스를
##/무
##용으로는
##났을
##퍼센트
하나님의
작용하는
사토시
교외
##장수
##상태를
##vy
##피디아
사람에게는
기믹을
컨디션이
끝이다.
예선을
틈새
펼친다.
선수인
사건,
사라졌
비교를
##적이고,
아즈텍
고원
곧잘
메아리
복권
진화를
##계급
##수지
주인은
2017년에는
변경할
물건은
책임지는
박한
섬기는
##왔지만
##학교로
나타나자
##:57
무섭게
해트
##항이
하나와
일하던
직렬
껍데
수박
시작,
주말배차
GG
가릴
개체가
레비아
리시
치환
패하면서
##로드를
##야할
예술가
4강에서
"R
이쪽으로
해,
##유예
하기엔
전국적으로
##ANG
클럽의
##ormal
공휴일
이븐
##종인
전부가
참여를
모드에
수입을
Death
애완동물
5호선
Hel
썼다고
의구
##E,
##쪽으로는
1900
나카지마
갈구
스쳐
적군의
##써의
##메니
클래스는
서고
것이기에
등록되어
등판한
함재기
둥지
현의
파티가
불리며,
건축물
+8
9대
놀려
멘트를
배럴
선글라
위그
풀어나
남자로
누이
되는데...
소가
악어
컬트
##알을
##ouch
타이틀은
고드
돈과
부총
##비티
못한다면
아키야마
엑스맨
마땅한
켈리
했더니
##EB
##>의
다음이
트와일라잇
오거
헬싱
##담한
숙련된
EXPERT
데도
디나
문양이
찍기
##후로
만들면서
올라오고
프리스트
얼굴도
접근성이
##ations
반다
16세
them
여성으로
진출한다.
리눅스
냉철
돕고
망했다.
옥상에서
이씨
키메라
고려해야
비판적인
Inter
팔레스타인
+15%
교직원
발판을
베는
에콰
한개
##드롭
##암,
##각과
조선시대의
상호작
동두
##격은
##독의
##들과도
살아남았다.
거울을
타수
미션의
둘로
세바
엣지
처칠
##화되면서
##님께서
##오고,
##운동에
시즈오카
탑에서
대항하는
동쪽으로는
진,
피크
##튼은
알았는데
유카리
헤지혹
Aut
공기가
발에
백제의
안가
잦아
저속
투르
나와있
추락한
파고들
2018년에는
메인보컬
이례적으로
격하
먹혀
배웠다.
##합니
##C는
##코이
역임한
대서양
멕시코의
계수가
봤던
하로
##화기
##국이다.
찾아오는
시어터
fl
##려한
아니라도
단조
판정은
있었으니
상승,
제공되는
자세한건
1번째
가토
사비
##사지
가능해서
받는다는
동료의
다이나믹
입각
해전
X-
##송의
싸우면
Warhammer
우투우타
R&
비하여
##옥은
##메이지
노선도
인하여.
고딕
편으로,
##시인
##열과
다르다고
끝나게
현자의
##ied
제공된다.
북쪽으로는
hatsan
블리츠
비일
황재
##외교
##leep
부임한
빡세
사춘
세례를
하동
##ray
##MHz
일본군이
증가로
공식적으로는
진출할
수입이
기꺼
성적인
##2차
##a.
이용하기
연호
운영되고
게시글
어두워
Mal
강팀
골치아
만들어주는
운행이
시립
지경에
##살,
밀리터리
걸리기
긴토
삼켜
샬럿
외침
반란군
부품이
##차이가
##일체
수비에
삼국시대
내기도
떨쳐
##해버리고
##SH
##이라던가
하나당
##고등학교는
대표팀의
다카라
그치지
연계를
요리가
##바이크
##승은
파티의
단계로
린드
빠지
세단
##석탑
##위성
정보통신
히로인.
직업의
방패가
클릭하면
빈틈을
기행을
깨지는
때까지는
새천년
이덕
##날이
부는
##인건
##타늄
##행과
##피스토
유전자를
마그마
서바이버
대책을
허접
##인이었다.
최종전에서
290
BLACK
사일런트
세나
역과
자네
토도
##반짝
싸움으로
인생이
저그의
승승장구
처지가
##야드
작품도
처리하기
예정된
바닥이
옮길
장식이
절제
출력이
설치하여
무시한다.
카메라에
##카운터
키사라기
대차게
블룸
제자로
부족이
##시켰다고
어마어마하게
[[http://
대우가
솔랭
자수
테크를
##로스가
방글라데
알겠
자기들
달러에
난타
##옥타
hell
군주가
카푸
##/고
##단체의
##스로부터
격이
띠고
틈이
국왕의
총체
강진
논의가
우승은
DH
XBOX
인물들을
남자에게
신설된
사절
##키도
##료의
마법과
러시아,
아이돌을
모자라서
##미네이션
익히
##처에서
##겨우
사운드트랙
Fate/Grand
Kill
Yes
살벌
아닌지라
수준에서
##ands
포뮬러
깐다.
매너
팬픽
##남과
Let's
투수를
동남아
기폭
##곳에서
##위원회에서
TD
랭크가
어윤
만났던
데프
백설
실명
영지를
##윤은
프랑스에
제4회
판본
보다시피
배치를
빌미로
애인
정보,
저지르고
1996년에
카구라
대각선
()
기장
미켈
우디
마감했다.
경전철
Tra
상원
열리고
일대에서
퇴직
학자들은
없었는데
요청했다.
프랭클린
닉네임을
급감
낚아
대는
안쪽에
영유
원화
##6회
##겼다고
가위바위
에라
콘도
##O,
##백,
사랑한
패배의
자료는
미하일
##짜고
사람이나
'예
내부로
상으로
만들거나
포지션에
회피가
##사이클
나락으로
SUPER
줄리아
초계
현수
##자리가
살해하고
상자에서
낮다는
에테
포츈
유지되는
부르며,
장르가
##완의
연구의
최종결
불리우는
8화
20~30
정교한
선진국
NXT
억누
재구성
##뿐.
운동장
분노하여
1906년
아제르바이잔
2안타
초빙
평가.
폭발에
교회를
전년
태도에
활주로
##율과
임명되어
난데없이
벼슬
치요
##m로
##러기
##손을
나와있다.
사무소
180도
트라우마를
her
창병
##름은
번역되었다.
1Lv
경산
따지는
배역을
수명을
화에서
##:16
Tom
염소
영역이
요리는
상징인
개는
뿐이라는
타인을
비꼬는
'1
질환
판테
##EP
##큐브
##엘,
아니었고
받았는데
개선된
진영에
네게
리브
번성
살피
저의
##호르
평론
##스태
방어력은
굳게
손책
학원에
##5명
##nb
##표에
투입되었다.
##OWER
다한
사신을
채널에
시각이
귀신이
년이
맞췄
##포시
유지하며
##:53
권장한다.
나이지리아
거센
노기자
대방
딸은
메꾸
접두
현자
##미더
##치기로
##맞게
##날에
패러독
부근에서
친절하게
NG
견해를
원소의
월트
이회
종은
##였다고.
##북도의
종족을
5단계
고폭탄
빛나
엿먹
유투
##거북
##마가와
무관한
Line
베드
블레
전사가
##베스트
##illa
느끼며
걸리게
##능을
결정전
진출하는
미군은
이긴다.
질럿
포옹
##손은
활용하기
파일:
우대
협정
필요없는
##위원회에
것부터
신승
##덩어
##:47
##:03
파수꾼
아론
쿄코
##우면서
이때,
전문적인
사령관이
다했다.
삼을
털리는
##나잇
타입.
바이오닉
4화에서
공으로
##:9
##근과
자세하게
코퍼레이션
Ma
모았다.
##달은
##발과
부분과
수준까지
장악하고
드라큘라
금을
아크로
휘발
##관에게
##있었던
사용하거나
무한도
##:58
순차적으로
날리
모치
##하에게
색상이
크기와
##용으로도
##품에
##착륙
##레이터가
없는게
사망자가
NV
강령
뿌리를
연행
이스탄
##단에게
##랭킹
레너
싹쓸
양준
일그러
##파울
몬스터에게
31일,
##aser
대결이
멀쩡하게
#f
EA
ESP
##요금
##국립
##onic
into
에볼루션
스켈레톤
각지의
넓이는
데다,
없앨
저절로
침범
영상도
1일차
아카데
카운터가
받아들였다.
메가트
고온
발판
엘프의
성공률
혼란이
4.1
5라운드
두세
은평
##광은
모습이었다.
동일본
하였지만
내전이
흐지
떠나기
gu
수양
주춤
주제는
휠체
##에요.
##파츠
프로펠
18,
B,
부위에
##입은
드래곤즈
제안했다.
이케다
빙글빙글
묻자,
반죽
시위가
신발을
죄가
쳐들어가
##eral
단순하게
달려드는
감안해도
+100
브랜드로
##ttack
무방할
"지금
나,
돌리면
쿼드
##살.
'매
000
##ini
##시켰다는
예전처럼
죽여야
wanna
극장에서
투옥
##놀이를
지어졌다.
김봉
박승
불투명
실책으로
진풍
커버가
시그널
넣어야
상담을
새마을
음란
인구를
펼칠
##9회
처리한
제출한
되기에
숙소
여겼다.
##4가
##하냐
##립을
인디애나
케네디
만으로
접할
항목으로
걱정할
검사가
열면
발견하게
표시되는
생기지
강하지만
줄거리
##웠을
선택받은
괜찮다고
스텔라
3세의
불교의
##베다
궁금해
거면
반열에
악질
연료를
운석
심리적
##awn
전면에
포지션으로
프로젝트에
사나다
푸드
혼종
##내용
##베어
막아내는
빨라진다.
투기장
반포
속여
##품,
대표작
말투가
박격포
내수용
라디오에서
농부
누구를
따위가
사카가
적성
타인에게
##틴이
연구소에서
발동시
SDRAM
갑작스레
따름
후작
##프도
##공무
##다오
##no
성장했다.
맞서는
홀수
현대적인
League
퀄리티를
무방비
페널티를
제각각
오블리
힘내
##둘이
##욱을
어려워서
법무부
사시
프리덤
2014.
배신하고
반한
근접해서
제련
증강
##체험
##는데다가
시스템이다.
반란이
'한국
김무
터프
히브리
##/마법
##정역
##:56
달아나
김학
야가미
##fr
##와르
##월을
2021
인상적이다.
가려면
##보트
##자로,
##:28
걸작
기르
십이
##ense
제작비
자유주의
##:49
"시
내부를
##암은
##축이
##별이
마비노기
꽃의
놔두고
조정을
##버로
##볼로
존재인
17세
기절한
아쉽다.
화성시
4,000
기만
편의를
홍문
##ily
스피커
안정성
아야카
16강에서
등에서도
##사격을
공격적으로
비정상적으로
악역으로
와다
##투르
무기:
중간중간에
There
관객수
깠다.
도살
서귀
##항은
몬스터와
인벤토
아포칼립스
공과
카스가
메이킹
설립했다.
컴퓨터의
Exp
##레알
##스타는
배우들이
디비
룰이
신분이
입장에
##/몬스터
##yr
##훈에게
떨어지면서
예견
쿠와
##회피
파일럿이
기라
날씨가
당뇨
쓸려
전해져
##ler
달러로
강조했다.
걷고
겪어
아기를
원리를
탑에
##맥이
필요.
판매량을
넘어뜨
인구수
대중들에게
규칙이
7.0
##멜로
Games
관해서
구역에
승기를
##지배
##!,
##치카
운행하고
오버로드
스매시
고쿠
어르
전공을
풀업
##오라고
##자니
##풍은
##WAR
조선에
남편인
의식한
##기능이
받침
병력의
성실한
##던전
몰락한
떠들
영원의
전원의
##준다면
위해서라도
묘사하는
프란체
김일성
부메랑
했으면
##도비
아미노
존경하는
김사
안면
커널
패하며
판단하고
우스갯
버릇이
몸길
캡쳐
##면에서는
##R.
무자비한
광화문
구하지
전투기를
##듯이,
이곳저
##스킬의
팔꿈치
알폰
진은
##프티
어렵고,
나라로
2개로
가네
교복을
깎는
생일이
선체
##종점
##재생
##씨로
현실로
##관계는
한숨을
미흡
##이아
자주포
프리메라
구분하는
1씩
QP
노다
단체의
소식에
의도는
사람들에
무기한
##:39
마구잡이로
검찰은
본명이
예매
##itt
##해졌다는
페이지를
버라이어티
샤르
여권
영조
의사의
인기에
##재산
사회과학
동생의
Sl
빠지면
커맨드를
당주
오펜
유수
전엔
현지에서
부분에서는
엔딩.
엔진과
##.T.
독자들의
로브
##꼬박
30,
802
뉴욕의
충돌을
res
##이드가
##토스의
추가하는
유지된다.
진화한
스탯은
교수를
어미
횟수를
##금속
일반계
기억은
수정했습니다.
RT
기대가
명작
재킷
크툴
25년
묶은
소지가
##되었는지
문화와
깨닫는다.
##UND
6명의
고층
로쿠
백상
##러스의
고르고
리노
모금
여관
판권
한시
##잖은
500m
2점을
바랬
부순
##부모
##렌스
가르치
중반까지
북미판
지리적
대난
카모
쿠웨이트
파피
##속도로
##reen
미니앨범
##버튼을
6천
문구를
않으려
황교
##저도
응원하는
들여다
단종되었다.
4G
불곰
영재
주거나
회화
##토라
1995년에
본작에서는
얼터너티브
##픽셀
움직인
수행하고
보루시아
개선을
거창
김장
몸과
성녀
에뮬
한순
##box
##개정
발동되는
페이퍼
가스가
생을
쌍방울
##I,
영국군
##한다거나
출마하였으나
장탄수가
꼽히
##작업을
##았으나,
18대
##10,
추억의
꼬박꼬박
4레벨
지상의
18:00
1970
유일의
##타로와
가정에서
been
보편적인
일컫는다.
'K
우정을
##헌의
##C를
##날개
하나밖에
감독이다.
대신해서
도착해
알리바
마작
체이
##골,
##음으로써
것도,
도시인
모델과
경찰과
007
MUSIC
long
뇌물
당부
시합을
풍습
##헌이
##가지로
사항이
니콜라스
제작,
Inv
밀어내고
시프트
악기를
위장한
쿠페
통조
##해가는
달라졌다.
SKE48
군대와
출세
1월부터
구분된다.
어른의
히토미
인터넷을
일상생활
매체에서
"일
'포
거라면
따를
통로를
흠.
##트라는
##바타
유명해진
테마로
5단
미숙한
##급과
경우다.
SKY
껍질
더스트
안쪽으로
역도
##학위를
발동한
힘들지만
##한테서
비스마르크
루돌프
일부분
##마루의
AO
마약을
조경
##염이
최종적으로는
결승골을
이스라엘의
유지가
육지
전초
제명
##싶은
찾아보면
리미트
음역
지울
##편과
DL
말리는
사족으로
오미
했음에도
##시면
##드.
마주친
##치히
##챔피언
존재에
찾아낸
의존도가
##방어력
'연
싸그리
##메인
파괴된다.
##:23
아이콘이
무시무시
Long
기기를
주세요.
##글러
만들며
핵심적인
관세
꽃은
자랐다.
##철도의
배우인
##스케가
선언하고
적대적인
외형을
##율로
##죄의
모두들
22:00
쓰러지는
돌아가면서
##테르부르크
십중팔구
Pack
타입은
선공개
##aph
생성하는
WCW
톡톡히
대에
자사의
자리로
206
수상자
재보궐선거
사드
인턴
홈경기에서
경기관총
애니메이션은
파워풀
섬이
파리에서
필수로
##섭의
17:00
광전사
구가
역전을
오코
최면
혜성
##호크
사용되기도
사이,
실제론
괜찮을
유틸리티
거점으로
얘기는
친구들은
1,5
TEAM
다우
되겠다.
이남
##명이나
##할게
파괴하면
뛰어들어
기회는
##나먼
##:13
정도로만
제거한
##ember
A형
갈리아
##저에
##옵니다.
찾아온다.
합류하여
"이제
나돌
##음반
죽음은
SNS에
Cortex
승리는
연평균
추가될
빼앗기고
어설트
5에서
맛있게
무패
잔당
##in,
많았고
훌륭하게
심리학
부딪혀
의회의
주주
##웅의
아마노
철도역
형성하고
오바마
말버릇
물량이
바오
뿐인데
사거리는
제단
함선이
##즈미
##이라는게
앨범.
건설할
##춘다.
박건
그러다보니
출시했다.
프로레슬러
로자
##정령
##유치
RGB
일했다.
혼이
##교실
##셈부르크
##리카가
정규리그
블러디
시달리는
바이오하자
웨일스
##와라
예상하고
압도적
피니쉬
##순실
##엑스
영향도
조그만
Brave
Bet
은밀
11대
프로젝트가
##:46
실감
##ider
##해주자.
넥서
아놀
##민정
하나에게
##IDE
ad
툴팁
##렌과
보여줘
##제한이
기꺼이
'위
바위를
주특
##지라는
2014년에는
기초적인
콘스탄티
서인
인천공항
트로피를
마술의
System
Set
건전
마니
삼천
자오
칸은
활약하였다.
어려웠다.
인정받는
5개월
하천
##:08
클럽에서
LCS
꺼내는
알고는
무엇이든
언제든
독도
실상
##/목록
##지하
##골은
##시간대
가수이다.
후반부에는
포이즌
!!
FT
강압
나스
부위가
판도
향을
않았으면
북한을
사야카
속도,
현역으로
##무기의
전문적으로
가르시아
Who
바이러스를
국적의
라니
레논
언어는
오도
플레이도
폭발로
부상당한
되찾기
맘대로
선택하고
나왔으며,
대회이다.
요구한
나리
리옹
플레이하면
부탁으로
SKT가
에그제
말기에
버리면
한심
스리랑
동상
안토
평판이
##읍,
##취급
빠져나와
조각이
위키러
##:43
##OTH
5장
밀워
의심이
##인게
친구이자
해주었다.
머물렀
동의를
이마에
형식이
##/M
##청과
없어지는
##센터에서
Lv+1,
흐지부지
더해서
필기
##통으로
##K,
해결을
##:27
나일
들리지
신체의
##불로
##yo
따라가는
친구들에게
하루를
오토봇
##:38
흑마법사
H2
##연에
지역,
오래전부터
도전과제
Ele
그대의
아데
정리를
호스
자세가
괴로
충원
하세가와
혼용
위치와
University
-0
상으로는
센스가
셔먼
주소를
1위.
없다면서
군대에서
단적으로
사인을
나온다면
사격이
포르쉐
사령부
올리면서
감동을
기르는
빼도
##마!
활동하며
세워졌다.
에드워
슬라브
무고
수다
지로
쫓는
한계에
##'이나
##버터
##모아
인터페이
제주특별자치도
##라인에
고등학교에
제이미
차별을
말하자면,
사울
의욕
이한
##록에
##갤에서
반기를
어쿠스
울리는
재장
특성화
즉위한
크나큰
MI
국왕이
역병
언급도
미야모토
잡히지
##모드를
어렵지만
지하로
it's
배급사
준플레이오프
붙인다.
워해머
전년도
중랑
##명사
##들아
Chap
무식한
까칠
뇌물을
잠잠
질서를
##1동,
##만원을
하나였던
12.7
출발하여
중학교이다.
클레오
'R
Mad
안무를
탓도
##버러
##더라도,
전반전
건강을
공공기관
##하하하하
리액션
수전
활기
##레온
비정상적인
다투는
##코리아
설정한
정당화
강에
시호는
프랑스를
서양의
Full
권리가
길기
대교
연기에
트리스
##회사의
감독에
지금껏
가족들과
성대모
G.
mAh
돌며
뭉개
요네
제도는
##3가
##노르
성공,
2017-18
"에
구도를
무르
이적을
자로
칸자키
##ince
애니플러스
선택의
리빌딩
##층과
##릭은
경찰에게
선거인
시전할
사태로
테크놀
##합의
##%에
##여!
생각없이
시도할
아프다.
위안부
NMB
공병
명지
##고기를
##port
언급했듯이
승부조작
계룡
나왔다
2턴간
##짜고짜
확정적으로
##:29
이사벨
9회초
Direct
거유
연쇄살인
글루
증상
##주던
##스윙
연재가
디자인에
한계로
##시험을
주한미
고철
괴뢰
울릉
훔치
##란다
16개
발동된다.
운동은
##ours
미끼로
x2
때리
변신이
향상을
영향은
중요하지
난리
변하고
연꽃
왔다가
코팅
##갑옷
선수들도
영화와
않아,
집중하는
탑재되어
##&lt;br&gt;
자력
##프린
##지언정
##창조
##윈드
##줬다고
##밍이
현실과
붙어있
허용하는
승격되었다.
요코야마
신념을
알래스카
횡령
##아니아
소환되는
유형문화재
못했지만,
총사령관
컨퍼런스
##스톱
##가쿠
##제에게
만들어진다.
탑재했다.
숙련도
구룡
이분
탤런트
##거지로
##루냐
##니까,
변신할
##지역으로
밤에는
이어주는
사용하는데,
대항하기
bl
그렉
애가
##1과
##irc
##:07
스튜어트
재등장.
고체
내주는
감독에게
전기톱
상징적인
##ext
일만
팍팍
##밀리
패배하면서
억울한
말:
미우라
장면의
보병을
날리며
비행을
천차만
회원이
스토리로
이탈리아,
해석하는
올리기도
교황의
5억
송구
수두
건가?
접근해
높아지는
액트
최적의
포화
##n't
##태와
지금처럼
우선시
가리켜
##:36
내놓는
각광
좋겠다고
##일까?
##니르
##섭,
##공격은
집안이
로프
박인
반을
뼈를
셰익스피
찾아보
노선.
상향되었다.
거쳐야
눈치챘
로사
적나라
##kn
대군
왕창
작년에
##:19
##-O
##천역
일본군은
피해야
귀찮아
미쓰비시
명씩
박소
챙길
처하자
친분을
##앙의
##궤도
잡아도
녹음한
사귀는
2실점
격인
다짜고짜
작화가
주는데
##밀리아
그룹으로
정리하고
머물렀다.
묘지에서
좋았을
미래는
소용돌
MOV
NA
남성을
열성
하워
##여우
시작했는데,
나무로
전술한
금빛
내리면
큐트
##해요
콘텐츠를
황태자
Hi
같을
팀원들이
공략이
아이러니한
곡도
돕는다.
협정을
##/공
##푸른
##연승
에인절
언어가
좋지는
죽임을
##코비
이러니
동일하지만
##cm의
대학교에
운영한다.
마르세
법칙을
5화에서
고창
괴담
일반인이
국가들
충격이
어릴적
안타까워
행위로
##퀴엠
##ㅋㅋㅋㅋ
오성
부여합니다.
시드를
일상을
최지
카라스
##필의
나와야
비축
한국에는
##:01
기생충
목욕탕
그놈의
TECHN
Mnet
로데
알았다.
프록
##enn
움직이고
카메룬
완료하면
관대
부잣
사부
의인
포박
##머를
기존에는
케이틀
......
포터블
밀도가
편이기
옛날에는
그밖에
양쪽에
건설된
##방송이
1번,
3연속
어중간한
Dem
니키
이와는
함포
MTV
보태
셰프
이산
직설
필멸
##질도
패배해
반대편
##교육과
##계획을
무용지
친위대
태자
##-리
##났고,
##블럭
시작했다고
Level
5점
과묵
닫기
##무기는
영웅들이
대미지도
구매하는
대중에게
유유히
사연을
##원한
##달러를
1985
##상으로도
패배하며
서버에서
츠바사
미완성
W.
감정에
지독한
머리카락이
6~7
OT
##티켓
덴마크의
##선인
##ometh
설정도
실패하였다.
완전체
운수
멀티를
주사위를
삼각형
370
TC
만점
버팔로
잘난
처방
나타나기
대략적인
흐름에
미식축구
##지라고
제한되어
##이야기
마땅히
극도의
사파이어
생각합니다.
노르망
'실
GU
먹기도
성악
유능
조정이
##타석
대표를
아나톨
반영된
둘러싸인
공장이
최근엔
물어보는
벗어나는
적합하지
산산조각
'화
물방울
식당에서
탱크를
##I가
증가를
남아있지
지자체
길티
입당
최용
쿨타임을
하소
##름에
##특집
없는지
주장이다.
유럽과
아오키
LPDDR
도화
한판
##ips
##에게,
대표이사
아버지,
마르틴
다단히트
9호선
BMS
분량의
##강하
##엘프
##이라곤
##ility
확정지었다.
브렛
의기
##기타
목소리와
높아지고
5개를
사적인
##없다고
##네이터
##햄튼
인간들의
##대학교에서
지적하는
플레이오프에
mar
정자
설정된
불완전
8.1
기고
비열한
양식을
이연
##패스를
대비하여
3/4
닥터의
뿌린
수모를
직사
평가할
날려버린다.
물고기를
440
밝게
##이이
##갔으나
##지않아
sw
순례
패가
##없게
##erc
분위기와
차례차례
놀리는
독수
모면
키무라
후기의
##학적인
TV를
고군분투
2페이즈
않으려고
주문은
마녀가
피라미드
바주카
저러
영광의
간사이
청계
##게의
이미지의
얼굴의
액션을
동원하여
6:
사장의
조정에
화력과
##협의회
경험한
지켜보던
곡사
놀이기
더해져
폭딜
##상태에서
다케다
North
골이
들면,
2022
예정이었던
라이벌인
의문.
새턴
##토메
2017-08
뽑는다.
수와
##하는데...
제시카
페르난도
고다
출중한
##조절
##자로부터
모를까
2-2
EASY
공시
센트리
웃지
칸을
통신을
##adow
승강장이
##:44
김강
디럭스
미쳤다.
추앙
호를
설정에서
연기하는
##OSS
인피니트
##민족행위
국보
할까
회로
나왔으며
프레디
유시
커지는
##/로
사용한다면
한국어를
##슈타인의
홈페이지를
분신을
비관
싶더니
오공
성공회
선택해서
어울린다.
1남
까고
독단
박사를
용으로
판단이
##홀드
##불교
내려다
속성으로
LG전
2층에
##바닥에
엔트리에
##되었음을
개인적
Stand
에이스로
죽어라
오하이오
7권
가우
국장
참가한다.
아나스타
평상시
'야
4패
F-15
블리
수량
태도는
에피소드에
오피셜
뒤져
은혼
초기엔
하드웨
콘서트에서
권총으로
반대한
세조
알몸
패퇴
풀기
고양이의
청량리
boy
말에는
영도
질책
##팔을
부족할
##기술이
망가뜨
탄산
##RP
Del
거하게
교회에서
버디
총칭
##티넨
##덕분에
##릿수
발생해
하루종일
영어의
Japan
문양
일제의
총애를
##노이드
##수비
드래곤과
죽음과
시나리오가
그곳을
##EXT
9화
나빴
녹음을
애칭은
원종
초심
있다면서
U+D
네크로맨
루팅
연패
##않은
아니다!
나에
범주
아약
영역에서
저명한
지켰다.
##진들이
상대와
일단락
길이를
반대를
성산
왕도
바람직
스테이크
전국에
분리되었다.
테란의
뒤틀린
폄하
##자본
##렉터
보고서를
Tem
들인
미소년
지평
최태
취향이
##지다.
##났다고
##소닉
실험체
방문하는
SMG
맷집이
칠성
##득이
제갈량이
군주의
몹이
수명
정할
##요새
플레이한
활동으로
아시안게임
##디에이터
숙종
아게
짝수
한국방송
현재로서는
아래쪽
'백
당하기
루트의
서일본
열리지
평원
한들
흐트러
아이템인
에스프레
떨어지지만
6승
놀라서
랩터
레딧
붉게
외장
탁구
##됐으며,
시청자들
붙잡힌
구설
노인이
소용이
지원,
불가능하게
##라인드
마사무
노출된
물류
배신을
들어야
그래봤자
아칸
주름
퀘벡
상승한
클리어한
구매가
##IAL
궁정
##화물
##년을
##현상이
##퍼로
사이즈가
뉴욕에서
05월
##선생님
Network
도리
뒤흔
목적인
신혼
통폐합
해보고
13대
포인트의
아르헨티나의
노을
미합
스무
원상
혁명의
지역.
비슷해서
이어갔다.
##타가와
카페에
윌리엄스
대장이
댄서
시녀
##2000
방어력과
2,500
들키지
굴릴
모리스
분양
에미야
제자리
치명타를
컴퓨터에
맡았으며,
방향은
소지하고
중형전차
##해달라는
##정복
##uj
능숙하게
교통사고로
룩셈부르크
체계가
한진
성공하는
받았지만,
등장인물들이
카즈야
오컬트
고의로
에임
##어린
끝나자
건강이
의아해
Port
방한
##승리
##렸는지
##되어도
역사학
시전한
볼드모
네로
따위를
자에게
쟈니
취미는
흑화
##파도
##허가
유럽연합
1904년
곁을
래빗
밝아
##대생
##투의
위치하는
제3회
그때부터
의과대학
##:31
멜리
세바스
##트르
##치곤
##A와
##IF
폭발한다.
플래그를
광선을
##GHz
07월
블로킹
일조했다.
##리바운드
값은
화룡
##심도
##곡에
힘들다고
달성하였다.
##ORPG
아무렇지
곡괭
도핑
문자로
비토
잡으면서
팬들에게는
##타로는
###s
표현의
어머니.
##:02
로컬라이징
이누야샤
1명의
take
모시는
오열
제우스
후원을
해야만
코믹스의
피아니스트
관객을
제18대
'장
##들이기
##:04
1911년
실정이다.
위나라
##+5
##사쿠
##:26
"그럼
헤라클레
3-1
Die
MAN
바래
초능력을
##오나
##연료
##K를
19,
발매하였다.
게다가,
공작의
사막의
불운
시동
지낼
차관
촉매
항의를
형편없는
해트트릭
누릴
메신
인격을
##였음에도
##름한
##g,
개인정보
HIV
치워
##았다가
만들었고
도쿄에서
까다롭
칼날을
대합
사장은
상록
직위를
##다리가
##덕,
추측할
다람쥐
소유의
화상을
##왔으며,
25,
발생하게
열차의
말썽
부류
엘리스
##품과
가능합니다.
착용하는
입수할
무효로
부르면
속칭
에마
에리어
자들
##공사가
##궁으로
악명을
##일인
##덕은
아니었고,
540
강했던
겉보기
도난
무공을
의자에
##마기
##랄라
제네시스
기관이
대하여,
##3동
##3에
거부한
3/3
5위를
간을
나이도
요충
조조를
추천하는
시설은
KGC
Pa
야인
##제도를
참여한다.
##전사령
원칙적으로
직역하면
속은
티에
합은
##글러브
##궁이
아니냐며
60초
사유로
불행한
Cup
남성은
머리로
물자를
프라우
참가하고
##가능.
##:34
건달
덤비
여우주연
유쾌한
잡으려
효용
##대우
##'며
##무한
신들이
싶다
##범퇴
##로부터의
31일까지
평행세계
뿐더러,
##ology
Again
##/40
##네거리
클리어를
##운동의
나쁘진
##:51
자격증
흑색
계속되었다.
유지되고
##uman
초창기에
마저도
DA
발해
6화에서
교감
붕어
집단으로
상황이라면
비밀로
대규모의
명,
이면
##룩한
패배하는
스크랩
##ney
조조에게
부적합
기다릴
##razy
변할
쾰른
##자한
Spe
주관하는
흠좀무.
말인
한술
##시니
평소보다
실시하는
기획사
Secret
2/2
삼지
초에는
##over
##사유
##록,
##팽이
앨범으로
탑재하고
"성
명분으로
버니
비에
입장은
잡는데
##나드는
##-!
정책은
이란의
쉬워진다.
베오
요절
##주나
##페라
사이키
했다.#
지휘관이
2017-01
백성들을
섬세
수혜
##레에
##병들을
살아야
Lv.5
공국
##사고가
##심리
##멘틀
한국식
피해량을
MP를
파악한
탐험가
밀수
사신의
샤우
울버린
타석에
황인
##틀리
##숙의
##림도
분류되어
도착했다.
2종
꼬여
맡기는
비야
호버
##골에
거두는
멈추는
카카오톡
L.
##법에서
12대
과거엔
이루기
후에야
논란으로
단점도
런던의
777
NR
머나먼
서쪽의
황색
##물이나
##동성
##;;
승리하여
금지되어
7세
Call
격차
신에
지우는
최경
##호흡
사진에서
인벤토리
##정류장
광석
시대는
월화
길이의
왕실의
다시한번
##ella
달려들어
우여곡절
다진
릴리즈
카시와
편애
##클레스
지나도
아이템과
획득하였다.
포지션.
하늘색
이하일
수용할
절망적인
사보
살지
총점
##지간
##페인
경우라면
좋아할
퓨처스
단체가
##심사
우리들은
물리공격
##!"라며
Cortex-A
마차
신안
허경
##평의
있는걸
##ates
진입하는
타케시
이용객이
무수히
극중에서
보도를
##라호
##센스
해결이
왕국에
간절
그라가
미개
위인
행적이
회복된다.
인정한다.
거부감을
증거는
실행할
존이
판도라
호송
소속인
발사한
이론의
모른다
4점
Glo
검과
노쇠
입헌
페라
계획이다.
마사히로
근육이
자막이
NATO
"죽
꾸짖
지갑
케로로
흔들어
고민하는
포인트로
##콘서트
듣보잡
관직을
코나미
통제를
포에
##중량
속도에
변화하는
"이런
##사항을
여기가
의결
재림
##센터가
사용했을
##리그로
영웅에게
1,4
##기간을
두드
##케라
##코타
##막에
313
비행기가
Inc
Green
볼리비아
밴드가
알린다.
##실하게
##얼굴
논리를
대천
셋쇼
##기일
##까마귀
애니판에서는
약속한
정류장에서
안드레아
놈들
소사
않음.
풀백
형제는
##전이다.
##과로
##시어
참가해
영입했다.
연예계
토모에
저택에
6만
8천
RN
병력으로
소설이
남성과
관직
백경
부천시
자백
전근
등장을
노선과
공통으로
상상도
레퀴엠
맥아
장지
잭이
##수무
##념이
##...이
그것이다.
##레스테
##리안은
나름대로의
메인이
삼총
폐교
스킬들이
내려갈
##리온이
디아블
번번
서든
##마이어
영상과
10년이
미스틱
있듯이,
6세대
정상에
해외로
대표의
겪는다.
도카이
지위가
##품인
공격에서
제작했다.
에스컬
인스타그램에
감사의
발췌
벌려
포스코
언급할
마음가
극복하고
점프로
##들조차
세워져
PH
별반
##르르
##설의
##젤리
선택했다.
Intern
연관되어
어쿠스틱
없긴
유리의
케이크를
##추적
##션은
단점이다.
계산을
있잖아
##수있는
##부시
힘들어서
요구된다.
타케우치
새정치민주연합
닮았다고
바는
병원을
비영
##공립
##BR
##덩이를
개발하는
판단하여
##마이징
'새
라면서
소프
순위에
작사가
컨트리
황해도
##/김
##제비
유승민
데이지
연고로
iP
메타가
의성
포스가
한여름
##jp
안정성을
비난이
어설픈
Burst
갈리
거지?
왕자가
##정부는
필요해
상징으로
왜냐면
형과
소모량이
##iri
소개한
미니맵
당황한다.
마찰을
2성
가자.
##야키
##호대
계획대로
HP:
유령이
2017-07
기약
벌어들
##"란
##평한
##비에서
##였으면
그레이브
대표팀에
##사냥꾼
연이은
넥스트
미쳤
본사를
실격
프톨레
##댔다.
20.
포함되는
소유자.
두껍
빅토리
쌓는
확률도
의견은
출현한다.
악몽을
낚시를
대활약
우시
항아리
##양성
11화
이루게
국내에서도
동맹이
초보자
were
고해
공생
교체를
조광
포상
##-d
종합격투
버티기
오리엔
'재
변장한
성불
질린
표적이
##3에서
##발트
방송에서는
만들어준
서비스는
안정화
메뉴를
느꼈다.
토큰을
밀레니엄
슬러그
##nbsp
쌓을
##식당
##건만
정치,
계양
신현
없앤
회장은
스위스의
문은
그렇다는
자살한
Mel
좌천
치르고
##부치
##문자
##귀는
이상이면
##학교,
##스크의
천연가스버스
앤서니
"김
매치를
##티스의
프로텍
스킨이
무늬가
성공하면서
가게에서
믿음을
스가
타란
##데우스
모습과는
부산에서
1편에서
고블
극의
증인
##달라며
##알이
##쭉한
20세
선언하였다.
헤비웨이트
5턴
고3
김미
단계가
섣불리
우한
##전산
##URE
##맨에게
16.
명령이
재미있게
절반으로
글래스
폐허가
엄청나다.
개드립
그래미
공연에
탱커가
무승부로
마누엘
맵.
상자가
소양
스니
쓰이던
인제
책으로
##T,
해야할
SD건담
독립운동가
노엘
승선
원수를
##객이
이렇다.
V8
시계를
영토가
따라붙
수도로
무게는
죽여서
##국도
##후와
기관차
완성도가
Mach
떠돌아
뜻대로
사파
##난무
1회차
06월
하얀색
X의
깔린
데바
동백
백과
##ki
11위
50,
요구하고
##:06
태양이
Year
레퍼
멘트
바다가
번을
전준
이곳으로
##이에요.
2번이나
##삼국무쌍
조련
##브루
##좋아
##레이의
스크류
.5
업고
종용
##IO
##층석탑
사용하고,
2015년부터
스승인
도울
처박
친절한
시도했다.
대기하고
앤더슨
##장로
##울프
##귀족
제21
think
건강에
크루세이더
의의
저주에
전범
##셰비
사망자
떨어뜨려
850
모조
물리적인
셋을
잘게
중하
##별의
가지며
Ze
놓지
마네
사탄
##/v
##차기
##행복
갈아치
2연속
헬멧을
술집
키우기
##균의
힘들고,
04월
2장을
House
갔다고
벌기
편파
푸에르
이제부터
겉보
기나긴
독소
로메
허정
##9의
유닛들은
만든다는
이탈리아는
영혼은
미나토
꿰뚫어
문서로.
밀짚모자
##미트리
##세상
분쟁을
허리를
걱정하지
에르난
디셉티콘
아모
전례가
차근
푸르
##ault
##몽의
##됨으로써
##어가며
복귀하였다.
장기적으로
두려움을
부적절한
배터리를
까발
낮추는
##차이
##부에서는
##파스
비판은
남편은
'네
불릿
옥수
##세르
잠시동안
08월
Esports
모함
주동
토론을
##식한
##변으로
##줄게
16비트
기관의
##ander
노부나가의
선착
여단
타카히로
살려서
존에
카이로
##해놓은
##결과를
방어하는
고르면
난리가
유러
이희
##TN
지원할
학생들과
음악,
위치해있다.
도합
원통
##수로,
일본어를
##되었다면
##해주며
브랜든
도라
식은
##청사
##규와
방어도
일어나게
확보하는
Ah
##언론
세계와
양정
윤치
제자리에서
패로
학생들도
해서,
01월
1안타
##-t
조선왕조
소설에서
평균적으로
규탄
다방
당했을
스팟
시우
##배율
레벨당
여겨지고
PG
가루가
쓰이게
옵저
##버리게
##우체
##존의
사람이라는
있었음을
회사이다.
인식하는
허용하지
3~5
look
데인
접착
##겼던
##빨간
역할.
히틀러의
PRO
알제리
은거
저,
타자를
##fore
2400
##:52
1994년에
착각하고
et
기세가
영어가
유비의
컸던
##야로
##여명의
게임내
유럽에
가을에
적합하다.
이례적인
ah
갈비
짜는
향했다.
##매일
##이어도
싱글이다.
펠리페
4컷
경제를
밤새
##부에는
B형
TRA
다이고
육탄
출품
수목
##중에서도
##법칙
처음이다.
##시아를
올라올
불가능하기
무한히
약점인
""
4단
실전에서
##전이나
주인공들이
대한민국과
언제부터
성향은
2위,
세르게이
G1
들기
문자가
##발동
꼭두각시
7인
8th
문정
장흥
##fl
##탈이
##누의
근거를
처치할
새끼를
수염을
사루
시영
싶어도
여명
직책을
##oom
출전하였다.
전통이
1층에
납부
심복
역량
이공
##시트
##열로
1915년
1위가
카미야
##부에게
##쥐는
##숭아
사고의
더불어서
##인가.
거두지
나루호
##REAM
DPS가
진삼국무쌍
##연금
##isode
패턴에
도전할
반도체
미얀마
2학기
못하던
알론
온전한
크래프트
##로동
##좌를
생물의
대참
베아
성문
타코
혼잡
##스케의
대립하는
존댓말을
1발
성분이
총사령
하지도
##털이
스피리츠
벌어지기도
눈부신
놓치고
속속
영수
##탈의
##지자,
##락,
성공하며
탈출한다.
본작에서
소나타
롤러코스터
교단의
말하는데,
수장인
아드리
퍼지는
##오거리
##oph
핵심은
크레용
호감도가
5초간
싶지만
쯤에
흩뿌
##M은
##덱을
국무총리
감정은
적다는
파프
도네
부당
신격
실을
암속성
야오
판넬
방영분
데이비스
런던에서
밤하늘
상응
신시내
체질
##대면
##7회
##재해
##건데
##소비
사망하자
심심치
모빌슈트
감격
강해진다.
애교
영천
##루스를
##사탕
아닌가?
##emy
그치
대전을
빈센트
##했어도
프랑수아
나쁘다.
일치하는
뇌를
도굴
봤다고
북위
한눈에
차량과
기지에서
먹일
총리는
한자가
##하겠다.
시작했으며
떨어뜨리는
앞장서
성숙한
트램
외모로
모건
물가
쇼를
요리에
파리의
##라:
##:22
3번의
그래픽이
호시노
노조미
ZZ
만신
##분교
##오브
따라선
예상되는
그때까지
끊긴
라리가
소각
욕하는
지시로
##임금
사용하면서
필요에
중국으로
218
참가하게
계열은
얽혀
열화
현저
##데스가
나와있는
여담이지만,
페이스북에
난쟁이
칩셋
카야
토리노
##'하는
##왔는데
생산되는
노려볼
명랑
##캐롤
##루나
##:14
##B는
가르침
대다수는
강승
병사의
위에는
주세
파묻
##쉬,
##틀랜드
공부하는
맥스웰
단계의
때쯤
탄속이
픽을
##M,
종료된다.
##그룹이
무덤에
난입한
엄격하게
세련된
번번히
빠르기
첫등
##배우,
정도인
현재로
위압
윤보
형은
##석에게
##내게
알려지면서
요청한다.
365
단층
죽고,
MiG
카리브
글씨는
애원
저주의
##받으면
##혐오
##부분의
진행하면서
교육의
뽑아낼
##~199
버리고,
빙빙
아큐
##피어
##랗게
선수,
작품들을
스타더스트
EXO
사사구
GAME
테슬라
##/마
##왕자
##NE
용병으로
근거는
##서기
209
제작하고
프리시즌
설치하면
토크쇼
마술을
방청
비방
아캄
올레
##:17
##섬을
친구들의
중앙에서
교체가
좋으며
킹의
##센터를
##만인
소감을
온화한
후방에
##출처
##자격
##You
"넌
Dig
브록
용접
행세를
##캐릭
##토쿠
##내려고
##넣고
##레이스
영웅.
1913년
기독교의
비범한
##옥타브
2쿨
GC
돼.
싸구려
아몬
유폐
함대는
##급행
11개
메인으로
쓰러뜨리면
유효한
"영
선점
재상
작품들은
러시아에서
취급된다.
##한다고.
많았다고
난을
먹인
받으며,
아톰
흥행을
생각해도
활동하다가
수익이
괄호
뛰었던
슬프
장윤
좁고
##imes
인조인간
뾰족한
##이스트
여러차례
회복력
정당이
##:21
여기저기서
재빠르게
홍수
##가지가
리그베다
때려눕
초콜릿을
하느님의
로고를
##변화
인물이었다.
감소시킨다.
만족하는
기초로
서식한다.
강하기
길에서
보로
안식
전선에서
죄로
하키
흥선
##패는
##값에
지켜본
넘쳐나는
3세는
도스
안락
원했던
장문
피하지
##va
공격기
오우거
경보
다키
다정
속마
해봤
핵무기
##왔기
우주선을
누구의
촬영이
프로젝트는
털어놓
칠드
탈레
##스트롱
여자에게
광기
냉정한
빠졌
소굴
자포
철제
##북에
제압할
bet
기정
수족
홈즈
발전된
##기관으로
"우리는
겁에
상대도
유지한다.
드러내며
##다니고
클래스를
협력하여
시그마
씨앗을
강서구
HL
과감하게
노틸
구성으로
기사에서
호칭을
견해가
치마
##견의
정도까지
너무도
로봇의
맞춰야
뮤턴트
2부에서
보육
빼는
최현
##았다면
한국계
문화체육
표기된
맞이하게
안되어
추론
##싸움이
발생하기
요소들이
뜬금없는
2~4
격발
식용
추가할
존재하던
성공했을
준우승에
대난투
2달
과감한
봉인이
피스톤
##걸의
##후후
200m
매니저가
쇼트트랙
감각이
검에
노하
성역
역부족
연성
채소
##장비를
되는지
타입을
엔딩으로
일시적인
호의적인
BP
곳까지
떠는
말하는데
스로
현혹
##닌자
설명하자면
축구부
커스터마이징
괴물로
생일은
##4는
##자금
##las
증명하는
불꽃이
과실
백마
송광
조치가
팔콘
난이도도
시티의
한명인
손해배
Great
7천
급으로
기리기
백호
##za
대한민국을
조합하면
달성하면
바꾸기
군인들이
시대로
왕조가
##급수
##암을
##F의
때문인지,
관람가
하자는
##렁이
방어선을
시절과
보였으나,
##기능을
막히
크기도
##쓴다.
##나이츠
같기도
내줬
시련을
어김없이
오라고
초장
초조
황소
흘린
나가야
2012년에는
##전투기
비극적인
교전에서
잊어버
해마다
사용,
건조한
LB
딜러가
부자연
##되다
레이너
2013년에는
되찾고
읽어보면
엉망진
스테이터스
랄프
즉흥
##버둥
강력히
수행했다.
1000만
민폐를
완봉
유방
##구매
##곡과
##:09
그레이스
2편의
노보
옳다.
##빛을
하나라고
참여하게
에너지로
연합을
사양은
순교
월광
지면에
험난
##입니까?
쓰러지고
전세계적으로
북부에
약하지만
정계
제3대
어벤져스
일품.
4K
과감
역동
염기
옷은
유연한
자아를
차크
여성에게
라인전에서
##전쟁에서
추기경
Lun
동치
디어
부정한
##키메
##nam
세계관에
성장할
시대부터
많았는데,
##가능하다.
아사쿠라
성매매
##생과
##롯데
##쿠보
친구에게
국민들이
디테일
브랜드의
상단의
트렁
헬기를
##/T
##도루
##중공업
##균은
스타가
비교하여
이탈리아에서
평상시에는
노기자카
강렬
동전을
쇠사
썼을
한심한
##바겐
수정.
프렌드
불길한
바이오하자드
가르는
놓쳐
요제프
##슈는
불가능하고
드라마는
클리어.
아쉬움이
시키면
아랍에
다분
종식
편리한
##1이
##택의
후반까지
##레벨을
Cha
화염의
드랍한다.
##s는
##준에게
##잡지
##듭니다.
소개한다.
프로토스의
무렵,
네버
농림
매월
빌드를
이들에
좋으며,
큰일
프로그램.
스펙은
키쿠치
무릅
희소
##초에서
##예산
게임기
10월부터
원작과는
중앙일보
삼자범퇴
가시가
칸나
히지
##주려고
##-c
##조연
증가시키는
이동통신
생산력
지도자로
시나리오에서
편의상
DEX
HR
뿌요
운임
##근한
1916년
남겨두고
메세지를
AU
구역으로
분개
소심한
오마이
##짐.
베이커
가볍고
강했다.
##성향
##ka
##코치로
경우로
판매되었다.
정착한
3:0으로
구의
손잡이
좋다면
나오므로
국제적
##대학으로
주도하는
데스매치
슬픔을
편성이
기준으로,
대한민국이
지도자가
##.01.
"만
개선이
농협
얻어야
전당에
협주곡
환상을
##러스가
닥치고
모기
틀을
그림의
알게된
다채로운
부지기
신부가
폭락
한바탕
##캐로
그래프
클래시
강제적으로
##하겠습니다.
구사할
캐치프레이
"네가
뒤쪽
분투
잘하면
##자식
캐릭터들과
전쟁,
소환합니다.
의무가
##대한민국
3전
게이트를
기지가
맵이다.
영월
문제없이
소환사
감소를
교체로
6의
네메
띄우
오영
##코트
##시간의
결혼할
잘못한
정시
키와
편제
##라던가
##주니어
##글의
구성되었다.
작업은
싶은데
결전을
소심
감독도
APC
패시브가
##:4로
PPV
다레
##차인
자기들이
기념하여
스코어가
요청하는
시민의
##othing
##사추세츠
Dan
LF
강적
끼쳤다.
생중계
풀타임
##방식은
기능으로
나서도
클라이맥스
대제
도플
행한
##:48
##랑과
언급하고
변경,
가능한데
닫힌
##쳤지만
##니아는
##ury
코너.
VP
가사에
성원
##피크
납치해
Po
경장갑
윈도
패럴
##/정
##bb
것이지,
앙상블
2할
블론
시이나
일환
호가
시절.
적혀있는
보건복지
가주
만원
변수를
세카이
##거미
##내성
작곡은
##플레이어
신비의
쓰였던
치켜
탄다.
##이드는
##했어야
##심판
##ELL
##갈래
하고는
255
방법으로는
듀얼에서
들어오고
##ESS
개업일
More
꾸려
얘는
##프리트
않은데,
비슷하다는
옛날부터
분포한다.
사운드가
Micro
도출
어비스
천국
##팀,
해주지
간간이
고립된
부드러
옥상
천리
2발
3으로
FS
견해
스왈
##1차
행성에서
샤를로
신대
얕은
나타나게
[...]
