[PAD]	0
[UNK]	0
[BOS]	0
[EOS]	0
[CLS]	0
[SEP]	0
[MASK]	0
▁▃	-0
▁ㅇ	-1
▁ㅇㅡ	-2
▁⊸	-3
▁⊸⊸	-4
▁하	-5
▁ㄱ	-6
▁.	-7
▁ㄷ	-8
ㅡㄴ	-9
ㄴㅡㄴ	-10
▁이	-11
▁ㅇㅔ	-12
▁ㄴㅡㄴ	-13
▁ㄹ	-14
▁ㄷㅏ	-15
▁ㅇㅡㄹ	-16
▁ㅇㅢ	-17
▁ㅇㅓ	-18
▁ㅇㅏ	-19
▁ㅇㅣ	-20
▁,	-21
ㅅㅓ	-22
ㅡㄹ	-23
▁ㄹㅡㄹ	-24
▁ㄱㅏ	-25
▁ㅇㅡㄴ	-26
▁ㄱㅗ	-27
ㄷㅏ	-28
▁1	-29
ㅁㅕ	-30
▁있	-31
▁되	-32
ㅈㅣ	-33
▁2	-34
ㄹㅗ	-35
▁ㅇㅓㅆ	-36
ㄴㄷㅏ	-37
▁ㄷㅗ	-38
▁ㄹㅗ	-39
▁그	-40
▁사	-41
▁ㅇㅏㅆ	-42
▁들	-43
▁시	-44
▁아	-45
▁ㅈㅣ	-46
▁ㅁㅕ	-47
▁대	-48
▁수	-49
▁보	-50
▁가	-51
▁지	-52
▁것	-53
▁ㄹㅏ	-54
▁일	-55
▁ㄱㅣ	-56
▁전	-57
ㅁㅏ	-58
▁기	-59
▁주	-60
▁나	-61
▁ㄱㅔ	-62
▁-	-63
▁자	-64
ㅁㅏㄴ	-65
▁다	-66
▁적	-67
▁ㅁㅕㄴ	-68
▁스	-69
▁3	-70
▁마	-71
▁ㄱㅘ	-72
▁정	-73
▁상	-74
▁ㅇㅘ	-75
▁모	-76
ㄱㅗ	-77
▁20	-78
▁오	-79
▁때	-80
▁'	-81
▁공	-82
▁년	-83
▁:	-84
ㄴㅏ	-85
▁경	-86
▁인	-87
▁중	-88
▁유	-89
▁제	-90
▁부	-91
▁위	-92
▁한	-93
▁없	-94
▁비	-95
▁4	-96
▁무	-97
▁소	-98
▁성	-99
▁등	-100
▁어	-101
▁않	-102
ㄱㅔ	-103
▁ㄷㅓ	-104
▁5	-105
▁만	-106
▁개	-107
▁미	-108
ㄷㅔ	-109
▁0	-110
▁여	-111
▁세	-112
▁바	-113
▁"	-114
▁ㄷㅓㄴ	-115
▁월	-116
▁내	-117
▁조	-118
▁고	-119
▁201	-120
▁장	-121
▁/	-122
▁방	-123
▁거	-124
▁동	-125
▁카	-126
▁타	-127
▁도	-128
▁선	-129
▁말	-130
▁연	-131
ㄲㅏ	-132
▁안	-133
▁영	-134
▁신	-135
▁생	-136
▁후	-137
▁화	-138
▁구	-139
ㄴㅣ	-140
▁버	-141
▁당	-142
▁ㅁㅏㄴ	-143
▁차	-144
▁발	-145
▁ㅂ	-146
▁리	-147
▁ㄴㅡㄴㄷㅔ	-148
▁레	-149
ㅁㅕㄴ	-150
▁때문	-151
▁6	-152
▁크	-153
▁원	-154
▁ㅇㅕ	-155
▁ㅈ	-156
▁강	-157
▁파	-158
▁우	-159
▁10	-160
▁아니	-161
▁ㄲㅏ	-162
▁명	-163
▁최	-164
▁의	-165
▁실	-166
▁서	-167
▁노	-168
▁문	-169
▁데	-170
▁번	-171
▁7	-172
▁해	-173
▁더	-174
▁불	-175
▁같	-176
▁포	-177
▁회	-178
▁진	-179
▁!	-180
▁나오	-181
▁단	-182
▁관	-183
▁받	-184
▁S	-185
▁특	-186
▁8	-187
▁ㅈㅏ	-188
▁많	-189
▁결	-190
▁초	-191
▁라	-192
▁반	-193
▁작	-194
▁알	-195
▁프	-196
▁보이	-197
▁역	-198
▁쓰	-199
▁19	-200
▁게	-201
▁배	-202
▁드	-203
▁ㅁㅕㄴㅅㅓ	-204
▁피	-205
▁계	-206
▁9	-207
▁경우	-208
▁코	-209
▁공격	-210
▁분	-211
▁추	-212
▁남	-213
ㄱㅏ	-214
ㄷㅗ	-215
▁A	-216
▁물	-217
▁사용	-218
▁ㄴㅏ	-219
▁출	-220
▁치	-221
▁에	-222
▁국	-223
▁두	-224
▁못	-225
▁현	-226
▁자신	-227
레이	-228
▁매	-229
▁좋	-230
▁M	-231
▁점	-232
▁편	-233
▁패	-234
▁달	-235
▁이후	-236
▁저	-237
▁%	-238
▁감	-239
▁그리	-240
▁호	-241
▁트	-242
ㅌㅓ	-243
▁학	-244
▁따	-245
▁로	-246
▁교	-247
▁정도	-248
▁재	-249
▁사람	-250
▁메	-251
▁통	-252
▁요	-253
▁C	-254
▁입	-255
▁예	-256
▁또	-257
▁속	-258
ㅇㅑ	-259
스트	-260
▁플	-261
▁B	-262
▁가능	-263
▁캐	-264
▁T	-265
▁김	-266
▁설	-267
▁위하	-268
▁참	-269
▁본	-270
▁형	-271
▁함	-272
▁평	-273
▁등장	-274
▁대하	-275
▁ㅂㅜ	-276
▁~	-277
▁ᄆ	-278
▁D	-279
▁과	-280
▁돌	-281
▁+	-282
▁시키	-283
▁?	-284
▁죽	-285
▁다른	-286
▁종	-287
▁아이	-288
▁12	-289
▁승	-290
▁토	-291
▁버리	-292
▁체	-293
▁권	-294
▁게임	-295
▁외	-296
▁ㄴㅡㄴㄷㅏ	-297
▁살	-298
▁팀	-299
▁군	-300
▁ㅂㅗ	-301
▁..	-302
er	-303
▁직	-304
▁200	-305
▁11	-306
▁애	-307
▁용	-308
▁L	-309
▁처	-310
▁판	-311
▁그리고	-312
00	-313
▁가지	-314
▁키	-315
▁ㅅ	-316
▁잘	-317
▁ㅅㅓ	-318
▁맞	-319
▁확	-320
▁심	-321
▁올	-322
▁하나	-323
어지	-324
▁그러	-325
▁행	-326
▁경기	-327
▁사실	-328
▁변	-329
in	-330
▁박	-331
▁못하	-332
▁만들	-333
▁필	-334
▁시간	-335
▁F	-336
▁운	-337
▁ㄴㅣ	-338
ㅂㄴㅣ	-339
▁P	-340
▁뒤	-341
▁ㅇㅕㅆ	-342
▁베	-343
▁날	-344
▁투	-345
▁ㄱㅓ	-346
▁모습	-347
▁디	-348
▁네	-349
▁목	-350
ㄹㅏ	-351
▁간	-352
▁집	-353
▁높	-354
▁히	-355
▁약	-356
▁이상	-357
▁G	-358
▁활	-359
▁루	-360
▁사이	-361
▁이름	-362
지만	-363
▁각	-364
▁순	-365
▁표	-366
▁언	-367
▁상대	-368
▁양	-369
▁E	-370
▁건	-371
▁야	-372
▁테	-373
스터	-374
an	-375
▁능	-376
▁ㄹㅕ	-377
▁너	-378
▁시작	-379
▁하지만	-380
▁문제	-381
▁효	-382
▁존	-383
on	-384
▁15	-385
▁일본	-386
▁잡	-387
▁함께	-388
▁터	-389
▁힘	-390
▁왕	-391
▁손	-392
▁증	-393
▁생각	-394
▁ㄱㅔㅆ	-395
▁병	-396
▁별	-397
▁한국	-398
▁#	-399
▁캐릭	-400
▁H	-401
ㄹㅓ	-402
▁열	-403
▁브	-404
▁ㄴ	-405
▁막	-406
▁R	-407
▁천	-408
어나	-409
▁K	-410
▁폭	-411
▁완	-412
▁끝	-413
▁캐릭터	-414
▁따르	-415
▁듯	-416
▁능력	-417
대로	-418
ㄴㄷㅔ	-419
▁프로	-420
▁들어	-421
▁t	-422
▁다시	-423
▁블	-424
▁총	-425
▁플레이	-426
▁클	-427
▁독	-428
▁ㅊ	-429
▁I	-430
▁시즌	-431
▁먹	-432
ㄴㅈㅣ	-433
▁N	-434
▁스킬	-435
▁페	-436
▁ㅊㅓ	-437
ㄹㅓㅁ	-438
▁항	-439
이트	-440
▁근	-441
▁광	-442
▁음	-443
▁추가	-444
▁새	-445
▁복	-446
▁식	-447
▁m	-448
▁당하	-449
▁빠	-450
▁ㅇㅑ	-451
▁채	-452
▁상황	-453
▁검	-454
▁그렇	-455
▁가장	-456
▁태	-457
▁또한	-458
▁카드	-459
▁삼	-460
▁누	-461
or	-462
미지	-463
▁상태	-464
▁얼	-465
▁당시	-466
▁걸	-467
▁모두	-468
ar	-469
▁결국	-470
▁길	-471
▁백	-472
▁충	-473
▁효과	-474
▁업	-475
▁곡	-476
▁앞	-477
▁모든	-478
▁18	-479
▁16	-480
▁다만	-481
▁악	-482
▁친	-483
▁쿠	-484
▁넘	-485
▁금	-486
▁많이	-487
▁눈	-488
▁O	-489
▁전투	-490
▁30	-491
at	-492
▁시리	-493
▁티	-494
▁싸	-495
▁및	-496
▁임	-497
▁급	-498
▁산	-499
▁커	-500
▁13	-501
▁민	-502
▁선수	-503
▁s	-504
he	-505
▁레벨	-506
▁세계	-507
▁]	-508
▁W	-509
▁합	-510
▁존재	-511
▁여기	-512
라이	-513
▁엔	-514
▁14	-515
ㅇㅛ	-516
▁현재	-517
▁[	-518
▁머	-519
▁라이	-520
▁매우	-521
▁그런	-522
▁시리즈	-523
▁취	-524
▁무기	-525
▁슈	-526
▁상당	-527
▁느	-528
▁달리	-529
▁스타	-530
▁물론	-531
▁그러나	-532
▁레이	-533
▁절	-534
▁첫	-535
▁골	-536
▁통하	-537
▁마법	-538
▁극	-539
en	-540
▁엄	-541
▁ㅅㅣ	-542
▁c	-543
▁찾	-544
▁팬	-545
▁황	-546
▁얻	-547
▁17	-548
▁난	-549
▁밀	-550
▁허	-551
▁자체	-552
▁창	-553
▁기술	-554
▁100	-555
▁00	-556
▁벌	-557
▁이런	-558
ㅁㅡ	-559
거리	-560
▁ㅁㅏ	-561
▁실제	-562
▁청	-563
▁니	-564
▁주인	-565
▁놓	-566
▁모르	-567
▁이유	-568
▁줄	-569
▁떨	-570
▁25	-571
▁관련	-572
ou	-573
▁탈	-574
▁인하	-575
▁이것	-576
▁V	-577
al	-578
이지	-579
▁필요	-580
▁이용	-581
▁들어가	-582
▁U	-583
▁방송	-584
▁다음	-585
▁케	-586
▁해당	-587
▁기본	-588
▁철	-589
▁지역	-590
▁바로	-591
▁법	-592
▁역시	-593
▁은	-594
▁처음	-595
▁기록	-596
▁워	-597
▁부르	-598
▁곳	-599
▁방어	-600
▁돌아	-601
▁일반	-602
▁거의	-603
▁환	-604
▁째	-605
▁잠	-606
▁귀	-607
▁혼	-608
▁그래	-609
▁2017	-610
▁나가	-611
리스	-612
ㄴㄱㅏ	-613
▁199	-614
▁피해	-615
▁다르	-616
▁북	-617
▁범	-618
▁대학	-619
▁아무	-620
이스	-621
▁ㄴㅑ	-622
▁좀	-623
▁2018	-624
▁ㅇㅡㅁ	-625
▁붙	-626
▁같이	-627
▁사건	-628
▁이야	-629
▁여러	-630
▁미국	-631
▁격	-632
▁이야기	-633
▁ㄴㅡㄴㅈㅣ	-634
▁특히	-635
▁탄	-636
▁싶	-637
▁글	-638
▁없이	-639
▁k	-640
▁부분	-641
▁진행	-642
▁몬	-643
es	-644
리아	-645
▁영화	-646
지막	-647
▁학교	-648
▁본인	-649
▁인간	-650
▁둘	-651
▁참고	-652
▁2019	-653
▁풀	-654
▁증가	-655
▁즉	-656
▁쉽	-657
it	-658
ㄹㅗㄱ	-659
▁담	-660
▁팔	-661
▁리그	-662
▁엘	-663
▁뿐	-664
▁주인공	-665
부분	-666
▁자기	-667
▁면	-668
▁제작	-669
▁마지막	-670
▁속도	-671
▁헤	-672
▁몸	-673
▁준	-674
▁작품	-675
▁그냥	-676
▁몰	-677
▁의하	-678
▁21	-679
▁와	-680
▁덕	-681
▁50	-682
▁X	-683
▁ㅅㅡ	-684
▁밝	-685
▁내용	-686
▁떨어지	-687
▁넣	-688
▁2016	-689
▁슬	-690
▁ㅅㅡㅂㄴㅣ	-691
▁지나	-692
▁공격력	-693
▁계속	-694
▁수준	-695
▁대표	-696
▁우리	-697
▁대부분	-698
▁인물	-699
▁접	-700
▁생기	-701
▁&	-702
▁개요	-703
▁올리	-704
is	-705
▁갈	-706
re	-707
▁암	-708
▁몇	-709
전히	-710
▁쪽	-711
▁질	-712
▁어느	-713
▁위치	-714
▁비슷	-715
▁w	-716
▁동안	-717
▁비하	-718
▁딜	-719
▁대신	-720
▁22	-721
▁국가	-722
le	-723
▁지금	-724
▁강하	-725
토리	-726
▁홈	-727
▁상당히	-728
▁평가	-729
▁축	-730
▁기사	-731
▁타이	-732
▁활동	-733
▁관계	-734
▁일부	-735
▁만나	-736
▁이전	-737
▁낮	-738
▁울	-739
▁영상	-740
▁J	-741
▁보스	-742
▁알리	-743
▁d	-744
▁멀	-745
▁서울	-746
▁올라	-747
▁규	-748
▁너무	-749
▁그대로	-750
▁체력	-751
▁24	-752
▁유닛	-753
▁감독	-754
▁최대	-755
▁맡	-756
▁문서	-757
▁뛰	-758
▁괴	-759
▁성공	-760
▁기준	-761
▁빠르	-762
▁죽이	-763
▁시절	-764
ㅇㅔ	-765
▁홍	-766
▁떠	-767
ing	-768
ic	-769
▁러	-770
▁제외	-771
▁f	-772
▁밝히	-773
▁데미지	-774
▁실제로	-775
▁망	-776
▁중국	-777
▁ㅁㅡ	-778
▁희	-779
▁몬스터	-780
▁츠	-781
as	-782
▁바람	-783
▁유저	-784
▁메이	-785
▁설정	-786
▁b	-787
▁결과	-788
라지	-789
▁정보	-790
▁멤	-791
▁그녀	-792
시아	-793
▁논	-794
▁전쟁	-795
▁지원	-796
▁어렵	-797
▁승리	-798
▁이미	-799
▁23	-800
▁멤버	-801
▁2015	-802
▁소속	-803
▁자리	-804
▁언급	-805
▁님	-806
▁애니	-807
▁원래	-808
▁퍼	-809
▁온	-810
▁ㄹㅏㄴ	-811
▁맨	-812
▁칼	-813
▁40	-814
▁직접	-815
▁싸우	-816
▁성우	-817
버지	-818
▁설명	-819
▁던	-820
▁육	-821
▁도시	-822
▁컨	-823
▁그것	-824
▁선택	-825
▁이동	-826
▁전체	-827
▁의미	-828
▁마음	-829
▁여자	-830
▁a	-831
▁배우	-832
▁씩	-833
운드	-834
▁깨	-835
▁ㄹㅓ	-836
▁듣	-837
▁뭐	-838
▁과거	-839
가지	-840
▁머리	-841
▁늘	-842
▁보내	-843
▁협	-844
▁<	-845
랜드	-846
▁봉	-847
▁엄청	-848
▁플레이어	-849
▁친구	-850
▁묘	-851
▁차이	-852
▁방법	-853
▁돈	-854
▁힘들	-855
▁)	-856
▁나타	-857
▁측	-858
▁아이템	-859
▁장면	-860
▁이루	-861
▁출연	-862
▁갑	-863
▁뉴	-864
이션	-865
▁소리	-866
▁거리	-867
▁버전	-868
▁스토리	-869
▁ㄷㅡ	-870
om	-871
▁씨	-872
▁ㄷㅡㄴ	-873
▁p	-874
am	-875
▁탑	-876
▁답	-877
▁h	-878
▁센	-879
▁향	-880
▁꽤	-881
▁빌	-882
▁즈	-883
▁놀	-884
▁대사	-885
▁바뀌	-886
▁스럽	-887
▁류	-888
▁사랑	-889
▁혹	-890
▁모드	-891
▁공식	-892
▁파이	-893
▁압	-894
▁프리	-895
벤트	-896
▁조금	-897
▁이렇	-898
▁송	-899
▁개발	-900
▁갖	-901
▁198	-902
▁까	-903
▁대상	-904
▁초반	-905
el	-906
▁책	-907
학교	-908
▁전부	-909
▁버스	-910
▁o	-911
▁연구	-912
▁침	-913
▁남자	-914
▁이벤트	-915
▁최고	-916
▁제대로	-917
▁속성	-918
▁볼	-919
▁링	-920
▁26	-921
▁궁	-922
▁걸리	-923
▁2014	-924
▁만큼	-925
▁동시	-926
▁n	-927
▁여성	-928
▁강화	-929
▁파괴	-930
▁빠지	-931
▁유명	-932
▁기타	-933
이도	-934
다가	-935
▁정말	-936
▁층	-937
▁나이	-938
▁아버지	-939
▁스테	-940
▁28	-941
▁역사	-942
▁드래	-943
▁색	-944
▁소환	-945
▁쇼	-946
▁성능	-947
▁찍	-948
▁자주	-949
▁왜	-950
▁불리	-951
▁학생	-952
▁the	-953
▁빼	-954
▁27	-955
▁아직	-956
▁최종	-957
▁운영	-958
▁누구	-959
▁우승	-960
▁회복	-961
▁석	-962
▁후반	-963
▁당연	-964
▁31	-965
▁=	-966
▁출신	-967
이드	-968
▁앨	-969
▁농	-970
▁마이	-971
▁ㄷㅐ	-972
▁그런데	-973
ㅁㅕㄴㅅㅓ	-974
▁다니	-975
▁특성	-976
▁인터	-977
▁강력	-978
ㅇㅓ	-979
▁이때	-980
▁공개	-981
▁마리	-982
▁확률	-983
▁서로	-984
▁사망	-985
▁유지	-986
▁끼	-987
▁엄청나	-988
리어	-989
▁콘	-990
▁노래	-991
▁주로	-992
ㅂㅜ	-993
▁착	-994
▁끌	-995
▁밖	-996
▁노선	-997
⊸⊸	-998
⊸⊸⊸	-999
▁발매	-1000
▁ㅎ	-1001
▁ㄷㅡㅅ	-1002
ol	-1003
▁샤	-1004
▁이기	-1005
▁방식	-1006
▁잔	-1007
▁느끼	-1008
▁슈퍼	-1009
▁발생	-1010
▁라인	-1011
▁000	-1012
▁마찬	-1013
▁마찬가지	-1014
▁정신	-1015
▁특수	-1016
▁시스	-1017
▁결정	-1018
▁이러	-1019
▁오히	-1020
▁영향	-1021
▁나라	-1022
▁대전	-1023
▁월드	-1024
▁오히려	-1025
▁솔	-1026
ㅇㅓㅆ	-1027
아가	-1028
ion	-1029
▁오르	-1030
et	-1031
▁이제	-1032
▁변경	-1033
▁비교	-1034
▁포함	-1035
▁영웅	-1036
▁장비	-1037
▁어떻	-1038
▁기존	-1039
▁나타나	-1040
ac	-1041
▁빨	-1042
▁일어나	-1043
▁역할	-1044
▁게다가	-1045
▁보통	-1046
머니	-1047
▁인기	-1048
▁르	-1049
▁뜻	-1050
▁작중	-1051
▁먼	-1052
▁32	-1053
▁움	-1054
▁사라지	-1055
▁억	-1056
▁ㅎㅏ	-1057
▁쓰이	-1058
▁맵	-1059
▁짓	-1060
▁마을	-1061
▁차량	-1062
▁중요	-1063
▁푸	-1064
▁아예	-1065
▁어떤	-1066
▁수록	-1067
▁바꾸	-1068
▁형태	-1069
▁섬	-1070
▁Y	-1071
▁술	-1072
▁일단	-1073
▁성격	-1074
▁싱	-1075
▁좌	-1076
▁행동	-1077
▁세트	-1078
▁이번	-1079
▁난이도	-1080
▁가깝	-1081
il	-1082
us	-1083
▁대한	-1084
▁29	-1085
프트	-1086
▁과정	-1087
▁주장	-1088
우스	-1089
▁모양	-1090
▁흑	-1091
▁액	-1092
ig	-1093
▁v	-1094
▁심지	-1095
ow	-1096
▁시대	-1097
▁음악	-1098
▁부족	-1099
▁대회	-1100
▁뽑	-1101
▁드라	-1102
레이드	-1103
ed	-1104
▁최초	-1105
▁2013	-1106
▁심지어	-1107
민국	-1108
▁사회	-1109
▁구하	-1110
▁맞추	-1111
너지	-1112
▁끝나	-1113
▁구성	-1114
▁빛	-1115
▁이렇게	-1116
▁발동	-1117
▁숨	-1118
▁새롭	-1119
▁스트	-1120
▁윤	-1121
▁입장	-1122
▁ㄱㅜ	-1123
▁풍	-1124
▁휴	-1125
▁폐	-1126
▁거기	-1127
▁뜨	-1128
▁확인	-1129
▁l	-1130
▁유일	-1131
▁바이	-1132
▁사진	-1133
▁다이	-1134
▁먼저	-1135
▁획	-1136
▁정치	-1137
▁애니메	-1138
▁x	-1139
▁흔	-1140
▁응	-1141
▁60	-1142
▁아래	-1143
▁항목	-1144
▁활약	-1145
▁여담	-1146
▁조건	-1147
▁어리	-1148
▁자세	-1149
▁모델	-1150
▁어디	-1151
▁돌아오	-1152
▁훈	-1153
▁원작	-1154
▁내리	-1155
▁콜	-1156
▁덕분	-1157
▁들어오	-1158
▁35	-1159
▁득	-1160
▁하이	-1161
▁시스템	-1162
▁녹	-1163
▁완전히	-1164
▁대한민국	-1165
id	-1166
▁따라	-1167
▁굉	-1168
▁주변	-1169
▁Lv	-1170
▁감소	-1171
▁드러	-1172
▁그래서	-1173
▁ㅂㅏ	-1174
▁프랑	-1175
인트	-1176
▁자유	-1177
▁챔	-1178
▁순간	-1179
▁독일	-1180
▁명칭	-1181
ay	-1182
▁날리	-1183
▁얼굴	-1184
▁전혀	-1185
▁2012	-1186
▁ㄹㅜ	-1187
▁관리	-1188
ad	-1189
▁애니메이션	-1190
▁잃	-1191
▁경찰	-1192
▁특징	-1193
▁우주	-1194
▁차지	-1195
▁자동	-1196
▁01	-1197
버스	-1198
나마	-1199
▁할	-1200
▁부대	-1201
▁짜	-1202
▁적용	-1203
▁교육	-1204
▁영어	-1205
▁굉장	-1206
▁무엇	-1207
▁가격	-1208
▁지키	-1209
▁듀	-1210
▁r	-1211
▁정부	-1212
▁패배	-1213
▁돌아가	-1214
▁뮤	-1215
▁of	-1216
▁드래곤	-1217
▁고등	-1218
▁아군	-1219
▁마스터	-1220
▁실패	-1221
▁웨	-1222
▁그렇게	-1223
▁기간	-1224
없이	-1225
▁휘	-1226
소드	-1227
▁오브	-1228
▁개인	-1229
▁생산	-1230
▁얼마	-1231
▁앨범	-1232
ot	-1233
▁건물	-1234
▁시점	-1235
ve	-1236
▁이거	-1237
and	-1238
▁아들	-1239
▁그나마	-1240
▁견	-1241
▁혹은	-1242
▁하루	-1243
▁ㅂㅏㄲ	-1244
▁ㅂㅏㄲㅇㅔ	-1245
▁지속	-1246
▁넘어	-1247
▁상승	-1248
▁모으	-1249
▁덱	-1250
주의	-1251
▁기능	-1252
▁국내	-1253
▁처리	-1254
▁작가	-1255
▁지구	-1256
▁떠나	-1257
▁기억	-1258
디오	-1259
▁틀	-1260
▁턴	-1261
▁TV	-1262
레스	-1263
▁획득	-1264
▁발견	-1265
▁패치	-1266
▁에피	-1267
▁실력	-1268
▁반응	-1269
▁물리	-1270
▁y	-1271
▁제국	-1272
▁소개	-1273
▁정확	-1274
▁도움	-1275
▁퀘	-1276
▁참조	-1277
▁랭	-1278
▁익	-1279
▁만화	-1280
▁영국	-1281
▁동일	-1282
▁킹	-1283
20	-1284
▁홀	-1285
▁대학교	-1286
▁쏘	-1287
▁선발	-1288
▁현대	-1289
▁반대	-1290
아내	-1291
▁칸	-1292
ㅌㅔ	-1293
▁맛	-1294
▁담당	-1295
▁올라가	-1296
▁습	-1297
ch	-1298
▁땅	-1299
▁그림	-1300
▁ㅎㅏㄴ	-1301
▁ㅎㅏㄴㅌㅔ	-1302
▁출시	-1303
▁맥	-1304
▁계획	-1305
▁에피소드	-1306
▁딸	-1307
▁기관	-1308
▁초기	-1309
▁쿨	-1310
▁량	-1311
▁드라마	-1312
▁아마	-1313
▁세대	-1314
▁단계	-1315
ㅇㅣ	-1316
▁밤	-1317
▁움직	-1318
▁딱	-1319
▁롭	-1320
▁ㅈㅗ	-1321
un	-1322
ㅊㅏ	-1323
▁판매	-1324
▁또는	-1325
▁범위	-1326
▁폴	-1327
▁헬	-1328
소리	-1329
▁퇴	-1330
▁37	-1331
▁버프	-1332
▁시청	-1333
▁The	-1334
▁2010	-1335
▁ㅇㅏㅆㅇㅓㅆ	-1336
뜨리	-1337
BS	-1338
▁벨	-1339
▁패턴	-1340
▁쉬	-1341
▁회사	-1342
▁g	-1343
▁탐	-1344
▁데이	-1345
▁폭발	-1346
▁문화	-1347
▁상위	-1348
▁시기	-1349
▁표현	-1350
▁등급	-1351
▁대미지	-1352
▁밀리	-1353
▁요구	-1354
▁무시	-1355
▁타입	-1356
▁확실	-1357
▁수비	-1358
▁80	-1359
▁던지	-1360
▁어떻게	-1361
▁500	-1362
▁라운드	-1363
▁진짜	-1364
▁굉장히	-1365
▁사고	-1366
▁St	-1367
▁미치	-1368
▁인정	-1369
▁스페	-1370
▁겨	-1371
▁이미지	-1372
▁45	-1373
▁경험	-1374
▁발사	-1375
▁꾸	-1376
▁가족	-1377
들이	-1378
▁졸	-1379
ER	-1380
▁생활	-1381
ㅈㅏ	-1382
▁주의	-1383
▁컴	-1384
▁피하	-1385
▁소모	-1386
▁파워	-1387
▁09	-1388
▁낙	-1389
▁묘사	-1390
▁굴	-1391
▁세이	-1392
▁오리	-1393
▁*	-1394
▁심하	-1395
▁족	-1396
▁특별	-1397
▁활용	-1398
▁아주	-1399
▁율	-1400
▁중앙	-1401
ㅆㅓ	-1402
▁묻	-1403
▁대체	-1404
▁헌	-1405
▁연기	-1406
▁02	-1407
▁방향	-1408
▁03	-1409
dd	-1410
▁디자	-1411
▁197	-1412
▁진출	-1413
로스	-1414
▁린	-1415
▁운동	-1416
▁나쁘	-1417
▁km	-1418
▁트리	-1419
▁펼	-1420
▁한정	-1421
▁중간	-1422
▁히로	-1423
▁믿	-1424
▁지니	-1425
▁꿈	-1426
▁엑	-1427
▁싸움	-1428
▁빈	-1429
▁웃	-1430
▁프랑스	-1431
▁데뷔	-1432
ㄹㅈㅣ	-1433
▁숙	-1434
▁그룹	-1435
▁생명	-1436
인물	-1437
▁준비	-1438
▁남기	-1439
▁약하	-1440
▁그래도	-1441
ㄹㄲㅏ	-1442
▁포인트	-1443
▁핵	-1444
▁유리	-1445
▁2011	-1446
▁엔딩	-1447
▁혼자	-1448
▁ㄹㅏㅇ	-1449
▁당연히	-1450
▁야구	-1451
▁위험	-1452
▁흐	-1453
▁선거	-1454
▁안타	-1455
▁스테이지	-1456
ff	-1457
▁옆	-1458
▁현실	-1459
▁ㅇㅗ	-1460
▁후보	-1461
▁시장	-1462
▁노리	-1463
▁등장인물	-1464
▁조합	-1465
▁논란	-1466
▁아르	-1467
▁욕	-1468
ir	-1469
▁05	-1470
▁순위	-1471
통령	-1472
▁무장	-1473
▁내려	-1474
▁더욱	-1475
▁어머니	-1476
▁죄	-1477
▁얘	-1478
▁흡	-1479
▁미션	-1480
▁퀘스트	-1481
ㅡㅁ	-1482
▁싫	-1483
▁분위	-1484
아오	-1485
▁괜	-1486
▁사실상	-1487
▁Z	-1488
▁민주	-1489
▁표기	-1490
▁크리스	-1491
스크	-1492
os	-1493
▁(	-1494
▁브라	-1495
▁비판	-1496
▁단순	-1497
▁고등학교	-1498
▁챔피	-1499
▁참여	-1500
▁08	-1501
▁프로그	-1502
▁구조	-1503
▁70	-1504
▁90	-1505
▁분위기	-1506
▁블랙	-1507
▁계약	-1508
▁학년	-1509
▁동료	-1510
▁훨	-1511
▁07	-1512
im	-1513
▁약간	-1514
▁대통령	-1515
▁중심	-1516
▁조선	-1517
▁취급	-1518
▁링크	-1519
▁투수	-1520
▁바라	-1521
▁...	-1522
ㅅㅣ	-1523
▁방어력	-1524
▁그거	-1525
▁직업	-1526
▁똑	-1527
▁흥	-1528
▁설치	-1529
ㄹㅕ	-1530
▁ㄴㅔ	-1531
▁열리	-1532
▁콤	-1533
▁48	-1534
▁나무	-1535
▁보호	-1536
▁훨씬	-1537
▁이어지	-1538
▁여전히	-1539
▁즐	-1540
▁결혼	-1541
머지	-1542
비스	-1543
▁돕	-1544
▁나머지	-1545
▁HP	-1546
▁시도	-1547
리카	-1548
▁구간	-1549
▁계열	-1550
ter	-1551
▁다양	-1552
▁염	-1553
▁위원	-1554
▁뛰어나	-1555
▁전용	-1556
▁불구	-1557
▁방면	-1558
러지	-1559
이크	-1560
▁다루	-1561
▁06	-1562
으키	-1563
▁읽	-1564
니아	-1565
▁주요	-1566
▁성적	-1567
▁디자인	-1568
▁일정	-1569
▁터지	-1570
▁2000	-1571
▁축구	-1572
티브	-1573
▁300	-1574
▁보상	-1575
▁mm	-1576
▁기대	-1577
▁목적	-1578
▁탓	-1579
▁소녀	-1580
▁탱	-1581
▁연속	-1582
▁도망	-1583
▁33	-1584
▁수정	-1585
▁갤	-1586
▁배틀	-1587
▁지하	-1588
▁꼬	-1589
▁가져	-1590
ur	-1591
▁세력	-1592
▁고려	-1593
▁론	-1594
▁대화	-1595
▁쌍	-1596
▁성장	-1597
▁04	-1598
▁률	-1599
▁벽	-1600
▁잘못	-1601
▁삼성	-1602
▁부산	-1603
스로	-1604
▁36	-1605
▁종류	-1606
▁각각	-1607
▁아프	-1608
▁이해	-1609
다리	-1610
▁올라오	-1611
▁징	-1612
▁지방	-1613
▁캠	-1614
▁e	-1615
▁팩	-1616
▁해결	-1617
▁당신	-1618
▁일행	-1619
▁참가	-1620
od	-1621
▁의견	-1622
▁넘어가	-1623
ㄹㄹㅗ	-1624
▁력	-1625
▁발표	-1626
▁th	-1627
▁털	-1628
▁부상	-1629
▁세우	-1630
ㅋㅡㅁ	-1631
▁마치	-1632
▁전설	-1633
▁변하	-1634
▁포켓	-1635
▁느낌	-1636
▁픽	-1637
ag	-1638
▁전문	-1639
▁큐	-1640
▁거대	-1641
▁짧	-1642
▁you	-1643
▁예정	-1644
▁일으키	-1645
▁펼치	-1646
▁굳	-1647
▁벗	-1648
▁방영	-1649
▁끊	-1650
▁스피	-1651
▁힐	-1652
▁움직이	-1653
▁종족	-1654
▁센터	-1655
▁프로그램	-1656
▁향하	-1657
▁랜	-1658
▁밴	-1659
▁ㅁㅏㄴㅋㅡㅁ	-1660
▁종료	-1661
▁과학	-1662
▁운행	-1663
▁죽음	-1664
▁전하	-1665
▁소설	-1666
▁부활	-1667
▁충분	-1668
▁근접	-1669
▁도중	-1670
▁각성	-1671
ㅜㄴ	-1672
▁조사	-1673
지션	-1674
▁FC	-1675
▁배치	-1676
ub	-1677
▁녀	-1678
▁렌	-1679
▁무리	-1680
▁최근	-1681
▁장착	-1682
▁빅	-1683
▁칭	-1684
▁국민	-1685
ㅈㅓ	-1686
▁삭	-1687
▁아이돌	-1688
▁러시아	-1689
▁옥	-1690
▁세상	-1691
▁척	-1692
데이트	-1693
▁덤	-1694
▁안정	-1695
▁절대	-1696
▁업데이트	-1697
▁점수	-1698
▁나중	-1699
▁스카	-1700
▁가리	-1701
▁경제	-1702
▁스스로	-1703
▁제공	-1704
▁cm	-1705
▁이루어지	-1706
▁SK	-1707
▁항공	-1708
▁지도	-1709
igh	-1710
▁유니	-1711
▁엔진	-1712
▁어찌	-1713
▁제목	-1714
▁오래	-1715
▁자연	-1716
▁충격	-1717
▁붙이	-1718
▁달성	-1719
▁정상	-1720
▁곧	-1721
▁켄	-1722
▁번호	-1723
▁벌어지	-1724
▁만드	-1725
▁챔피언	-1726
▁미사	-1727
자기	-1728
▁추정	-1729
▁작전	-1730
ver	-1731
▁배경	-1732
▁목소리	-1733
▁번역	-1734
▁셈	-1735
▁똑같	-1736
▁비행	-1737
▁롤	-1738
▁조직	-1739
▁정체	-1740
▁가끔	-1741
ak	-1742
ent	-1743
▁사이트	-1744
▁목록	-1745
너스	-1746
▁미래	-1747
▁요소	-1748
▁규모	-1749
스타	-1750
▁포켓몬	-1751
▁스파	-1752
▁남성	-1753
▁196	-1754
▁레어	-1755
▁34	-1756
▁품	-1757
▁전작	-1758
▁훈련	-1759
▁벌이	-1760
어들	-1761
▁전차	-1762
▁출전	-1763
▁십	-1764
▁악마	-1765
▁파티	-1766
▁전사	-1767
▁빙	-1768
▁공중	-1769
▁타격	-1770
▁돌리	-1771
▁스타일	-1772
▁클리어	-1773
▁만약	-1774
▁위기	-1775
▁타카	-1776
▁분노	-1777
▁괜찮	-1778
▁얘기	-1779
▁사냥	-1780
▁변화	-1781
▁생존	-1782
다니	-1783
▁다리	-1784
▁에너지	-1785
▁혈	-1786
▁그만	-1787
▁홈런	-1788
▁나누	-1789
▁신경	-1790
▁동물	-1791
um	-1792
▁클래	-1793
▁애초	-1794
▁자랑	-1795
▁ㄴㅡ	-1796
▁뒷	-1797
▁득점	-1798
▁저지	-1799
▁더불	-1800
BC	-1801
▁수상	-1802
▁연결	-1803
▁크리	-1804
▁요리	-1805
▁단점	-1806
▁75	-1807
▁필드	-1808
ut	-1809
▁한편	-1810
▁국제	-1811
▁장갑	-1812
▁로봇	-1813
▁건담	-1814
▁포지션	-1815
디어	-1816
▁소재	-1817
러스	-1818
▁냉	-1819
▁특정	-1820
▁반면	-1821
▁연합	-1822
ec	-1823
▁기동	-1824
▁시험	-1825
▁vs	-1826
▁판정	-1827
▁비용	-1828
▁38	-1829
▁런	-1830
▁장소	-1831
▁in	-1832
▁넘기	-1833
▁전기	-1834
▁맹	-1835
▁공연	-1836
▁ㄹㅣ	-1837
▁예상	-1838
▁사항	-1839
▁ㄷㅡㅅㅇㅣ	-1840
▁롯	-1841
▁싱글	-1842
▁항상	-1843
▁멸	-1844
▁목표	-1845
▁무대	-1846
▁화력	-1847
▁정작	-1848
▁옵	-1849
▁가르	-1850
▁최소	-1851
▁연출	-1852
▁기체	-1853
▁사거리	-1854
▁늘어나	-1855
▁관심	-1856
▁사업	-1857
▁시설	-1858
▁꽃	-1859
▁55	-1860
▁유럽	-1861
▁엘리	-1862
▁인터뷰	-1863
▁2009	-1864
▁교체	-1865
▁던전	-1866
▁내부	-1867
▁하늘	-1868
트리	-1869
▁비밀	-1870
▁지휘	-1871
▁제일	-1872
▁카이	-1873
▁인사	-1874
▁찌	-1875
▁야마	-1876
▁사격	-1877
▁별로	-1878
▁찬	-1879
동안	-1880
▁Q	-1881
▁철도	-1882
리오	-1883
▁to	-1884
▁변신	-1885
▁란	-1886
▁다크	-1887
▁바르	-1888
ST	-1889
ro	-1890
▁놈	-1891
▁나름	-1892
▁수치	-1893
▁록	-1894
▁넓	-1895
▁기계	-1896
▁수도	-1897
▁정식	-1898
▁벤	-1899
▁작곡	-1900
▁스포	-1901
▁시전	-1902
▁결승	-1903
▁카운	-1904
▁파일	-1905
▁_	-1906
▁옷	-1907
▁교통	-1908
▁비롯	-1909
▁오버	-1910
▁쌓	-1911
▁케이	-1912
나라	-1913
▁따로	-1914
▁각종	-1915
▁오늘	-1916
▁부여	-1917
▁황제	-1918
▁언제	-1919
▁마나	-1920
▁확정	-1921
▁졸업	-1922
▁레인	-1923
▁코스	-1924
▁지상	-1925
▁갑자기	-1926
▁이탈	-1927
▁일러	-1928
▁병력	-1929
▁지지	-1930
▁특이	-1931
▁전반	-1932
▁치명	-1933
▁따라서	-1934
▁진화	-1935
▁이쪽	-1936
▁깔	-1937
▁북한	-1938
▁거두	-1939
▁도로	-1940
▁기업	-1941
보이	-1942
▁드러나	-1943
▁제한	-1944
▁드리	-1945
▁라이브	-1946
▁발전	-1947
▁살리	-1948
▁아키	-1949
▁때리	-1950
▁튀	-1951
▁왼	-1952
▁건설	-1953
▁쯤	-1954
▁시티	-1955
▁무슨	-1956
▁압도	-1957
▁어쩌	-1958
▁누르	-1959
▁이외	-1960
▁꺼	-1961
▁의외	-1962
▁사정	-1963
▁ㅃ	-1964
em	-1965
▁이르	-1966
▁EX	-1967
▁가사	-1968
▁외국	-1969
▁2008	-1970
▁나이트	-1971
▁아파	-1972
▁이끌	-1973
▁역대	-1974
▁일러스트	-1975
▁감정	-1976
▁탈출	-1977
▁주문	-1978
▁삭제	-1979
▁직전	-1980
▁ㅃㅜㄴ	-1981
▁저항	-1982
ight	-1983
▁티어	-1984
▁베이	-1985
▁띄	-1986
▁임무	-1987
▁납	-1988
▁고양	-1989
▁이닝	-1990
▁느리	-1991
▁프레	-1992
라인	-1993
▁골드	-1994
▁위력	-1995
▁자원	-1996
▁보유	-1997
어로	-1998
▁거치	-1999
▁텐	-2000
▁아카	-2001
AN	-2002
▁정하	-2003
▁로드	-2004
▁마시	-2005
▁사례	-2006
▁집중	-2007
▁세기	-2008
▁서비스	-2009
▁점프	-2010
▁깊	-2011
▁표시	-2012
▁노트	-2013
▁어둠	-2014
AR	-2015
▁마르	-2016
▁잉	-2017
▁전국	-2018
▁인구	-2019
▁상관	-2020
▁효율	-2021
▁명령	-2022
▁분류	-2023
▁작업	-2024
▁페이	-2025
▁기회	-2026
▁랭크	-2027
▁완전	-2028
▁ㅋ	-2029
▁인식	-2030
▁아스	-2031
젝트	-2032
▁공간	-2033
▁연습	-2034
▁오른	-2035
▁뇌	-2036
▁히어로	-2037
▁루트	-2038
▁기다리	-2039
▁회피	-2040
▁관하	-2041
▁물건	-2042
▁파트	-2043
ap	-2044
▁도전	-2045
▁잇	-2046
▁태어나	-2047
▁잠시	-2048
▁가수	-2049
▁경쟁	-2050
▁극장	-2051
▁지내	-2052
▁화면	-2053
▁옛	-2054
▁42	-2055
▁장점	-2056
▁버티	-2057
▁높이	-2058
▁녀석	-2059
ON	-2060
▁41	-2061
▁사기	-2062
▁부모	-2063
▁컬	-2064
▁션	-2065
▁폰	-2066
▁키우	-2067
▁별명	-2068
▁컵	-2069
▁촬	-2070
▁군사	-2071
▁개념	-2072
ㄷㅓ	-2073
▁레드	-2074
▁래	-2075
그레이드	-2076
▁업그레이드	-2077
▁행정	-2078
▁단어	-2079
▁병원	-2080
무리	-2081
▁몽	-2082
▁근처	-2083
▁인천	-2084
▁추천	-2085
▁194	-2086
▁이어	-2087
▁No	-2088
▁빌리	-2089
▁발언	-2090
▁오프	-2091
▁전력	-2092
▁ㅇㅡㄴㄷㅔ	-2093
▁살인	-2094
▁의식	-2095
ㄴㅑ	-2096
▁포기	-2097
▁39	-2098
▁무려	-2099
▁펜	-2100
▁꾼	-2101
▁ㅈㅛ	-2102
▁불가	-2103
▁Ch	-2104
▁아파트	-2105
▁전개	-2106
▁>	-2107
▁크기	-2108
▁신체	-2109
▁정리	-2110
▁킬	-2111
▁숨기	-2112
학생	-2113
▁미니	-2114
▁',	-2115
▁겸	-2116
▁판단	-2117
▁주제	-2118
▁강제	-2119
▁촬영	-2120
▁나서	-2121
▁노력	-2122
▁밑	-2123
▁본래	-2124
▁잡히	-2125
▁히트	-2126
▁고정	-2127
ul	-2128
▁부정	-2129
▁붕	-2130
▁타임	-2131
▁낫	-2132
아들이	-2133
▁kg	-2134
▁이하	-2135
페이지	-2136
▁st	-2137
▁44	-2138
▁라이트	-2139
▁공주	-2140
▁빨리	-2141
▁셋	-2142
▁병사	-2143
라스	-2144
▁데스	-2145
▁선생	-2146
▁버그	-2147
▁뿌	-2148
▁평균	-2149
ce	-2150
▁스코	-2151
▁멘	-2152
ik	-2153
▁독립	-2154
▁최강	-2155
▁2020	-2156
▁;	-2157
▁왕국	-2158
▁제거	-2159
▁분명	-2160
▁끝내	-2161
▁학원	-2162
▁갖추	-2163
▁부탁	-2164
▁살아	-2165
▁홈페이지	-2166
▁폭탄	-2167
▁구매	-2168
000	-2169
▁꼭	-2170
▁조종	-2171
▁곤	-2172
▁제품	-2173
▁칠	-2174
▁닥	-2175
▁99	-2176
▁군대	-2177
▁동생	-2178
▁쫓	-2179
▁마법사	-2180
▁롯데	-2181
▁가드	-2182
▁속하	-2183
▁LG	-2184
▁위키	-2185
▁닌	-2186
▁중반	-2187
▁고속	-2188
▁리더	-2189
▁윈	-2190
▁앞서	-2191
▁예전	-2192
▁여행	-2193
요일	-2194
▁붉	-2195
▁행위	-2196
▁짐	-2197
▁단체	-2198
▁음식	-2199
믹스	-2200
▁겪	-2201
▁떡	-2202
▁웹	-2203
▁완벽	-2204
▁옵션	-2205
▁전자	-2206
▁2007	-2207
▁현상	-2208
▁195	-2209
▁가문	-2210
▁수행	-2211
▁모이	-2212
▁대구	-2213
all	-2214
▁탈락	-2215
▁43	-2216
▁원인	-2217
드시	-2218
▁요시	-2219
▁그야	-2220
▁바다	-2221
▁완성	-2222
▁ㄱㅗㄴ	-2223
▁구분	-2224
▁새로	-2225
야마	-2226
이치	-2227
▁반드시	-2228
IN	-2229
▁대기	-2230
▁의원	-2231
모토	-2232
▁통합	-2233
▁쓸	-2234
▁개그	-2235
란드	-2236
▁주민	-2237
▁전략	-2238
▁직후	-2239
드리	-2240
▁차원	-2241
▁MA	-2242
▁크로	-2243
▁재료	-2244
▁복귀	-2245
▁하드	-2246
▁단지	-2247
▁템	-2248
▁마사	-2249
▁흘	-2250
▁환경	-2251
nd	-2252
▁쥬	-2253
말로	-2254
▁광역	-2255
▁걱	-2256
▁늦	-2257
▁그야말로	-2258
▁마무리	-2259
▁치료	-2260
▁기반	-2261
▁걱정	-2262
▁아쉽	-2263
튜브	-2264
타임	-2265
러리	-2266
▁연재	-2267
▁밸	-2268
▁인도	-2269
트라	-2270
▁한글	-2271
▁해군	-2272
▁46	-2273
▁서버	-2274
이어	-2275
▁47	-2276
▁다행	-2277
▁정규	-2278
▁지정	-2279
▁밥	-2280
▁연장	-2281
▁2006	-2282
▁다수	-2283
▁대장	-2284
▁해외	-2285
▁멜	-2286
▁도착	-2287
▁보병	-2288
▁심각	-2289
▁평범	-2290
▁옮	-2291
▁우선	-2292
▁줄이	-2293
▁책임	-2294
아하	-2295
조건	-2296
▁뻔	-2297
▁워낙	-2298
▁공포	-2299
▁보너스	-2300
▁월드컵	-2301
▁타이틀	-2302
▁조작	-2303
▁미사일	-2304
▁아무리	-2305
▁포스	-2306
▁입히	-2307
▁유사	-2308
▁추측	-2309
▁실험	-2310
▁재미	-2311
르트	-2312
th	-2313
▁점점	-2314
▁샷	-2315
▁51	-2316
▁받아들이	-2317
▁캡	-2318
▁가면	-2319
▁굳이	-2320
▁타자	-2321
tt	-2322
▁덜	-2323
루스	-2324
▁디스	-2325
▁상세	-2326
▁코스트	-2327
▁택	-2328
▁필살	-2329
▁다소	-2330
▁폼	-2331
▁접근	-2332
▁성향	-2333
▁무조건	-2334
▁좋아하	-2335
▁즐기	-2336
▁닉	-2337
▁중학교	-2338
▁실점	-2339
▁한계	-2340
▁교수	-2341
▁의사	-2342
▁대결	-2343
▁로마	-2344
op	-2345
▁영혼	-2346
▁채우	-2347
▁부하	-2348
▁잭	-2349
▁톤	-2350
▁모자	-2351
▁사무	-2352
▁무한	-2353
운데	-2354
▁국회	-2355
▁멋	-2356
▁고르	-2357
▁SP	-2358
▁복수	-2359
st	-2360
▁비중	-2361
▁정확히	-2362
▁암살	-2363
▁지배	-2364
▁보조	-2365
▁함정	-2366
▁아내	-2367
▁죠	-2368
▁댄	-2369
▁평소	-2370
▁정의	-2371
▁엠	-2372
▁옮기	-2373
ation	-2374
▁인터넷	-2375
▁광고	-2376
▁장르	-2377
▁혁	-2378
ra	-2379
시마	-2380
▁마력	-2381
▁와중	-2382
▁범죄	-2383
▁봉인	-2384
▁알아	-2385
▁숲	-2386
▁투표	-2387
▁1000	-2388
아지	-2389
ack	-2390
▁전화	-2391
▁확장	-2392
무라	-2393
ia	-2394
▁운용	-2395
▁채널	-2396
▁사령	-2397
▁이곳	-2398
▁앙	-2399
▁합류	-2400
▁공략	-2401
▁도쿄	-2402
버리	-2403
나이	-2404
▁소련	-2405
▁장치	-2406
▁and	-2407
▁가치	-2408
▁빵	-2409
▁몇몇	-2410
▁검사	-2411
ㅅㅜ	-2412
▁기념	-2413
oc	-2414
▁금지	-2415
▁아웃	-2416
▁시청자	-2417
▁에이	-2418
▁종종	-2419
▁이적	-2420
▁다운	-2421
로그	-2422
▁초등	-2423
▁소유	-2424
▁가운데	-2425
▁150	-2426
▁충분히	-2427
▁정당	-2428
▁도입	-2429
▁65	-2430
▁오리지	-2431
▁실수	-2432
▁특유	-2433
▁네이	-2434
▁플래	-2435
시브	-2436
▁뚫	-2437
▁유튜브	-2438
▁미드	-2439
▁보컬	-2440
▁코드	-2441
▁사쿠	-2442
▁근데	-2443
▁대로	-2444
▁브레이	-2445
▁잊	-2446
▁VS	-2447
▁클럽	-2448
▁줄어들	-2449
▁소년	-2450
ㄷㅡㄴ	-2451
▁화염	-2452
▁취하	-2453
▁시민	-2454
▁기지	-2455
▁본격	-2456
▁프로젝트	-2457
▁투입	-2458
▁저격	-2459
▁고대	-2460
▁개조	-2461
▁뉴스	-2462
▁무사	-2463
▁ㄴㅡㄴㄱㅏ	-2464
▁도망치	-2465
▁시나	-2466
▁전원	-2467
▁괴물	-2468
▁종교	-2469
▁형제	-2470
▁얼마나	-2471
ie	-2472
▁수많	-2473
ill	-2474
▁희생	-2475
▁%,	-2476
▁셀	-2477
▁고양이	-2478
▁행사	-2479
려가	-2480
▁로스	-2481
▁ㅇㅡㄹㅈㅣ	-2482
▁요청	-2483
▁스포츠	-2484
▁인상	-2485
▁릴	-2486
비아	-2487
▁앤	-2488
▁이탈리아	-2489
▁흉	-2490
로드	-2491
▁대중	-2492
▁발음	-2493
▁사태	-2494
▁원정	-2495
▁터미	-2496
▁카메	-2497
▁상징	-2498
▁2005	-2499
라이더	-2500
▁52	-2501
일러	-2502
▁KBS	-2503
▁종합	-2504
▁쥐	-2505
▁II	-2506
▁밴드	-2507
▁끄	-2508
art	-2509
▁구역	-2510
▁숫	-2511
▁넥	-2512
▁클래스	-2513
▁대형	-2514
▁64	-2515
▁군단	-2516
려오	-2517
▁따지	-2518
▁올림	-2519
▁대비	-2520
▁외모	-2521
▁위협	-2522
텐츠	-2523
▁스크	-2524
▁방패	-2525
▁조정	-2526
▁그저	-2527
▁이사	-2528
▁인원	-2529
▁패러	-2530
▁뿌리	-2531
▁서브	-2532
니티	-2533
▁서술	-2534
▁생물	-2535
▁불명	-2536
▁자료	-2537
▁최후	-2538
오르	-2539
▁일본어	-2540
▁장난	-2541
▁형식	-2542
▁관통	-2543
▁약점	-2544
▁컨셉	-2545
▁섞	-2546
▁몹	-2547
▁광주	-2548
▁달러	-2549
▁You	-2550
▁드러내	-2551
▁행성	-2552
▁2004	-2553
런스	-2554
▁앉	-2555
▁눈물	-2556
ri	-2557
▁정책	-2558
▁전술	-2559
▁통신	-2560
▁상자	-2561
uby	-2562
▁바닥	-2563
▁거부	-2564
▁놀라	-2565
▁빼앗	-2566
▁액션	-2567
▁모험	-2568
▁비고	-2569
▁부수	-2570
ab	-2571
▁49	-2572
시스	-2573
▁들리	-2574
▁젊	-2575
▁미리	-2576
RA	-2577
▁오리지널	-2578
▁AP	-2579
▁박사	-2580
▁의도	-2581
▁명중	-2582
▁반복	-2583
▁간단	-2584
▁벗어나	-2585
▁인형	-2586
▁ㅇㅛ	-2587
▁56	-2588
▁트랙	-2589
▁쿨타임	-2590
로우	-2591
▁회장	-2592
▁그때	-2593
est	-2594
▁ST	-2595
래프트	-2596
▁개월	-2597
▁매일	-2598
▁챙	-2599
▁400	-2600
▁ruby	-2601
▁의지	-2602
▁등록	-2603
▁영입	-2604
▁해석	-2605
▁공동	-2606
▁구단	-2607
▁대응	-2608
▁마크	-2609
▁지적	-2610
▁MBC	-2611
▁이치	-2612
▁언론	-2613
▁값	-2614
▁웬	-2615
▁먹이	-2616
▁열차	-2617
▁리어	-2618
▁오토	-2619
▁In	-2620
▁찾아오	-2621
▁dd	-2622
▁지명	-2623
▁목숨	-2624
▁오랜	-2625
▁개봉	-2626
▁주력	-2627
▁원거리	-2628
▁코어	-2629
ttp	-2630
AL	-2631
▁가하	-2632
스케	-2633
▁선언	-2634
▁http	-2635
▁85	-2636
▁한국어	-2637
▁혐	-2638
▁소식	-2639
▁차례	-2640
▁언어	-2641
▁윌	-2642
자리	-2643
▁더블	-2644
▁흡수	-2645
▁데이터	-2646
▁거짓	-2647
▁사상	-2648
▁사과	-2649
▁설계	-2650
▁풀리	-2651
▁지나가	-2652
▁방해	-2653
▁승부	-2654
▁자동차	-2655
▁역전	-2656
▁쓰러지	-2657
▁탯	-2658
▁193	-2659
▁텔	-2660
▁53	-2661
▁혜	-2662
▁편하	-2663
▁54	-2664
▁저지르	-2665
▁카즈	-2666
▁2002	-2667
리트	-2668
▁엄마	-2669
▁카페	-2670
퓨터	-2671
▁살아남	-2672
▁대단	-2673
▁디지	-2674
▁여름	-2675
▁연계	-2676
▁망하	-2677
▁긴	-2678
▁숫자	-2679
▁모티브	-2680
▁핑	-2681
▁필살기	-2682
▁합치	-2683
▁조각	-2684
▁닮	-2685
▁저주	-2686
▁원하	-2687
▁기자	-2688
▁떼	-2689
올리	-2690
오스	-2691
▁미스	-2692
▁소울	-2693
▁진입	-2694
▁불과	-2695
나가	-2696
▁겹	-2697
▁쳐	-2698
▁체육	-2699
▁황금	-2700
▁PC	-2701
▁수리	-2702
▁상대방	-2703
▁완료	-2704
▁유우	-2705
▁맺	-2706
▁질문	-2707
▁쿄	-2708
▁텍	-2709
▁가정	-2710
▁장기	-2711
▁무섭	-2712
▁수호	-2713
▁산업	-2714
▁생성	-2715
▁착용	-2716
▁적절	-2717
▁덩	-2718
▁Sh	-2719
▁해제	-2720
▁공화	-2721
어내	-2722
▁컴퓨터	-2723
▁단순히	-2724
동생	-2725
▁터미널	-2726
dddd	-2727
▁dddddd	-2728
▁꼴	-2729
▁멈	-2730
▁가져오	-2731
▁표정	-2732
▁드라이	-2733
▁들이	-2734
▁필수	-2735
니스	-2736
▁카운터	-2737
▁테마	-2738
▁에이스	-2739
▁딱히	-2740
▁실시	-2741
▁컷	-2742
▁독자	-2743
▁의심	-2744
▁편성	-2745
▁ff	-2746
▁선정	-2747
▁행적	-2748
▁유도	-2749
▁비트	-2750
▁선물	-2751
▁확실히	-2752
up	-2753
▁습격	-2754
▁무력	-2755
▁전환	-2756
▁기어	-2757
▁연주	-2758
▁감안	-2759
▁당장	-2760
▁드립	-2761
▁훌	-2762
▁페르	-2763
▁꾸준	-2764
▁왼쪽	-2765
▁특기	-2766
▁날개	-2767
▁뮤직	-2768
▁걷	-2769
▁인류	-2770
▁집단	-2771
▁패시브	-2772
▁기점	-2773
▁함대	-2774
▁아름	-2775
▁솔로	-2776
▁소비	-2777
▁안전	-2778
▁퓨	-2779
▁개선	-2780
▁제도	-2781
▁보다	-2782
▁박스	-2783
▁re	-2784
▁i	-2785
▁횟	-2786
▁데리	-2787
▁59	-2788
▁ㅁ	-2789
▁잠깐	-2790
▁가스	-2791
▁날아가	-2792
▁위원회	-2793
▁확보	-2794
▁사장	-2795
▁행복	-2796
▁MP	-2797
▁경력	-2798
▁회전	-2799
VE	-2800
▁구축	-2801
▁돌파	-2802
▁친하	-2803
▁부리	-2804
▁코치	-2805
▁마츠	-2806
▁지옥	-2807
▁스킨	-2808
▁챙기	-2809
▁테크	-2810
▁희망	-2811
▁설립	-2812
▁비싸	-2813
▁Re	-2814
▁ㅇㅡㄹㄲㅏ	-2815
▁랍	-2816
▁스마	-2817
▁제압	-2818
▁올림픽	-2819
▁장군	-2820
▁일종	-2821
▁시나리오	-2822
▁진정	-2823
ate	-2824
▁블루	-2825
▁전통	-2826
▁Sp	-2827
▁가슴	-2828
▁58	-2829
레이션	-2830
▁꺼내	-2831
▁멈추	-2832
▁시내	-2833
▁상처	-2834
▁통과	-2835
▁하위	-2836
ard	-2837
▁대답	-2838
▁멀티	-2839
▁적극	-2840
▁라디오	-2841
▁횟수	-2842
▁듀얼	-2843
▁마침	-2844
▁공항	-2845
▁120	-2846
▁수사	-2847
▁셰	-2848
▁공사	-2849
▁패스	-2850
▁인지	-2851
▁체제	-2852
▁지나치	-2853
모리	-2854
▁안드	-2855
▁초대	-2856
▁촉	-2857
AT	-2858
▁딜러	-2859
▁편집	-2860
▁방문	-2861
ang	-2862
OR	-2863
▁문명	-2864
▁57	-2865
▁버튼	-2866
▁비디오	-2867
▁펀	-2868
▁의문	-2869
▁해금	-2870
연히	-2871
▁위주	-2872
▁롱	-2873
▁리스	-2874
▁현장	-2875
▁묶	-2876
▁66	-2877
▁95	-2878
▁눈치	-2879
▁처치	-2880
▁수원	-2881
▁케이스	-2882
▁태도	-2883
▁동맹	-2884
▁댓	-2885
▁선보이	-2886
트롤	-2887
▁ㅋㅜ	-2888
울리	-2889
▁2003	-2890
▁귀엽	-2891
▁고통	-2892
▁코너	-2893
▁작성	-2894
▁진영	-2895
▁대놓	-2896
▁투자	-2897
▁콩	-2898
▁뱀	-2899
▁전장	-2900
▁갱	-2901
▁태양	-2902
▁크로스	-2903
▁분리	-2904
▁장전	-2905
▁유키	-2906
▁엉	-2907
▁계기	-2908
▁비난	-2909
▁마왕	-2910
▁노동	-2911
▁예선	-2912
▁핸	-2913
▁스페인	-2914
▁한자	-2915
▁제안	-2916
▁최악	-2917
IA	-2918
▁랩	-2919
▁흐르	-2920
▁제로	-2921
▁육군	-2922
▁공부	-2923
▁에스	-2924
▁ㄱㅓㄴ	-2925
▁료	-2926
▁고유	-2927
▁가까	-2928
▁후속	-2929
▁삼국	-2930
▁아름답	-2931
▁스위	-2932
PS	-2933
▁깎	-2934
▁겨우	-2935
▁게시	-2936
▁스펙	-2937
▁레이저	-2938
▁be	-2939
ess	-2940
▁시체	-2941
ok	-2942
▁배신	-2943
▁회의	-2944
ant	-2945
▁평화	-2946
▁Bl	-2947
▁좁	-2948
▁오른쪽	-2949
▁가져가	-2950
▁BG	-2951
▁110	-2952
▁개최	-2953
▁성인	-2954
▁그라	-2955
▁꼽	-2956
르크	-2957
▁다가	-2958
▁아머	-2959
▁내려가	-2960
▁나카	-2961
▁조준	-2962
▁게이지	-2963
▁견제	-2964
▁on	-2965
▁여부	-2966
▁룰	-2967
▁용병	-2968
ㄹㅅㅜ	-2969
▁멀리	-2970
▁점령	-2971
▁컨트롤	-2972
▁궤	-2973
▁기획	-2974
▁궁극	-2975
▁달라지	-2976
▁탑재	-2977
▁젤	-2978
▁타이밍	-2979
라리	-2980
▁청소	-2981
ell	-2982
▁극장판	-2983
▁매치	-2984
ㅇㅏ	-2985
▁보급	-2986
▁봄	-2987
▁카메라	-2988
▁춤	-2989
IC	-2990
▁SS	-2991
▁락	-2992
▁가볍	-2993
▁or	-2994
▁진실	-2995
▁어울리	-2996
머리	-2997
▁베이스	-2998
▁애매	-2999
▁자라	-3000
▁쓰러	-3001
▁최대한	-3002
ct	-3003
▁충전	-3004
▁62	-3005
▁직원	-3006
▁남편	-3007
▁에어	-3008
▁373	-3009
마스	-3010
▁관광	-3011
ue	-3012
ine	-3013
▁기분	-3014
▁정령	-3015
▁그레이	-3016
▁체인	-3017
아리	-3018
▁순서	-3019
▁게이	-3020
▁보도	-3021
▁스피드	-3022
▁댄스	-3023
▁은퇴	-3024
▁후반부	-3025
▁수단	-3026
▁온라인	-3027
▁오스	-3028
의원	-3029
▁틈	-3030
▁모션	-3031
▁한화	-3032
▁민주당	-3033
▁....	-3034
▁하트	-3035
▁늘리	-3036
래도	-3037
▁아무래도	-3038
▁NP	-3039
▁멸망	-3040
▁레전	-3041
▁허용	-3042
▁튜	-3043
▁트레	-3044
▁교회	-3045
▁Al	-3046
▁격투	-3047
▁세계관	-3048
▁밸런스	-3049
▁약속	-3050
무원	-3051
▁보수	-3052
ist	-3053
▁알렉	-3054
▁얼음	-3055
▁76	-3056
▁스코어	-3057
▁트위	-3058
▁여왕	-3059
▁치르	-3060
▁Th	-3061
▁스탠	-3062
ove	-3063
▁파이터	-3064
ore	-3065
▁우수	-3066
▁부담	-3067
▁갤러리	-3068
▁토스	-3069
▁스프	-3070
▁대원	-3071
▁등등	-3072
▁com	-3073
워하	-3074
다르	-3075
▁갓	-3076
▁빔	-3077
▁후지	-3078
▁오오	-3079
▁ㄱㅜㄴ	-3080
▁유용	-3081
▁헤드	-3082
▁로켓	-3083
▁울트라	-3084
▁77	-3085
▁융	-3086
▁돌격	-3087
▁61	-3088
▁뱅	-3089
▁막히	-3090
▁무게	-3091
▁삶	-3092
▁{	-3093
▁고급	-3094
▁생일	-3095
▁지식	-3096
▁규정	-3097
▁기절	-3098
▁샌	-3099
▁갈리	-3100
▁차별	-3101
▁판타	-3102
▁본선	-3103
▁미나	-3104
▁커뮤	-3105
▁아프리카	-3106
ort	-3107
▁렉	-3108
▁병기	-3109
▁88	-3110
▁끼리	-3111
피스	-3112
붙이	-3113
▁72	-3114
▁그리스	-3115
▁중단	-3116
▁가면라이더	-3117
▁측면	-3118
▁랜덤	-3119
▁장애	-3120
▁분야	-3121
심히	-3122
▁퍼지	-3123
▁자이	-3124
▁스케	-3125
▁트레이	-3126
▁지점	-3127
▁}	-3128
두르	-3129
▁2001	-3130
▁겹치	-3131
▁닥터	-3132
▁따위	-3133
로이드	-3134
▁마녀	-3135
▁언니	-3136
▁패러디	-3137
▁셔	-3138
바이	-3139
▁발휘	-3140
▁경기도	-3141
▁주목	-3142
▁자살	-3143
▁넷	-3144
▁회수	-3145
▁도서	-3146
ㄱㅓ	-3147
▁드물	-3148
▁제시	-3149
ive	-3150
▁외부	-3151
▁인생	-3152
▁입수	-3153
▁피해자	-3154
▁포르	-3155
▁취소	-3156
▁살해	-3157
▁외치	-3158
▁ㄹㅔ	-3159
▁ffff	-3160
▁경계	-3161
▁웨이	-3162
▁자르	-3163
▁공통	-3164
▁내주	-3165
▁삽	-3166
OS	-3167
▁유래	-3168
▁미야	-3169
▁도구	-3170
ong	-3171
▁아사	-3172
▁군주	-3173
▁교환	-3174
▁공원	-3175
▁커버	-3176
워드	-3177
▁릭	-3178
달리	-3179
▁ㅇㅜ	-3180
▁개편	-3181
▁국적	-3182
▁오프닝	-3183
▁아침	-3184
▁어차	-3185
▁민족	-3186
▁SBS	-3187
▁트위터	-3188
▁아라	-3189
▁공장	-3190
▁승강	-3191
▁ffffff	-3192
ers	-3193
▁어차피	-3194
AM	-3195
▁스페셜	-3196
▁장수	-3197
▁젠	-3198
▁계산	-3199
▁킥	-3200
오리	-3201
▁재판	-3202
▁윙	-3203
▁서포	-3204
▁핵심	-3205
▁페이스	-3206
▁부진	-3207
크래프트	-3208
▁대놓고	-3209
▁PS	-3210
▁붕괴	-3211
▁사단	-3212
▁끌어	-3213
AS	-3214
▁98	-3215
▁이성	-3216
▁교사	-3217
▁구입	-3218
▁온갖	-3219
▁제기	-3220
▁낳	-3221
▁단독	-3222
▁191	-3223
▁바탕	-3224
▁거절	-3225
▁겨울	-3226
▁몰리	-3227
▁어린	-3228
▁소수	-3229
▁브랜드	-3230
유키	-3231
▁찌르	-3232
▁출생	-3233
▁용도	-3234
스티	-3235
니어	-3236
▁갑옷	-3237
▁영역	-3238
다수	-3239
▁당선	-3240
▁건너	-3241
▁메탈	-3242
터리	-3243
▁펠	-3244
▁탄생	-3245
▁아야	-3246
▁살짝	-3247
▁출발	-3248
▁함선	-3249
▁아시아	-3250
▁카나	-3251
▁요원	-3252
▁은근	-3253
▁상하	-3254
ED	-3255
▁납치	-3256
어리	-3257
ip	-3258
▁분석	-3259
피아	-3260
▁꾸준히	-3261
▁귀족	-3262
▁은행	-3263
▁스파이	-3264
▁페이지	-3265
▁오후	-3266
▁주연	-3267
▁작사	-3268
▁ㄲ	-3269
▁선배	-3270
▁화살	-3271
▁타워	-3272
▁순수	-3273
ain	-3274
▁자식	-3275
▁CD	-3276
즈키	-3277
▁증거	-3278
▁파악	-3279
▁재생	-3280
if	-3281
▁600	-3282
▁습득	-3283
▁가르치	-3284
▁엑스	-3285
▁대공	-3286
▁하수	-3287
하라	-3288
▁섭	-3289
▁자격	-3290
▁쏟	-3291
▁예술	-3292
▁홍보	-3293
▁업무	-3294
▁이스	-3295
가락	-3296
▁협력	-3297
ee	-3298
▁당황	-3299
리티	-3300
▁고민	-3301
▁1990	-3302
▁무너지	-3303
▁군인	-3304
▁유형	-3305
▁|	-3306
▁보정	-3307
▁훌륭	-3308
디션	-3309
▁베르	-3310
티컬	-3311
▁테러	-3312
▁플라	-3313
아나	-3314
▁사카	-3315
EN	-3316
▁밟	-3317
▁미소	-3318
▁프라	-3319
▁열심히	-3320
▁레전드	-3321
▁신화	-3322
▁적당	-3323
▁폭풍	-3324
▁경유	-3325
▁카르	-3326
▁쓰레	-3327
▁영원	-3328
▁댓글	-3329
▁마인	-3330
▁응원	-3331
▁흔히	-3332
▁MV	-3333
▁내내	-3334
▁가로	-3335
▁맡기	-3336
▁모리	-3337
▁지우	-3338
▁뒤집	-3339
▁불안	-3340
▁괴롭	-3341
▁63	-3342
▁없애	-3343
▁보물	-3344
▁비록	-3345
▁러브	-3346
▁주도	-3347
▁퀄	-3348
▁흘리	-3349
▁거래	-3350
▁틱	-3351
▁정말로	-3352
▁부인	-3353
▁왕자	-3354
▁탑승	-3355
▁만족	-3356
▁소드	-3357
▁출처	-3358
세이	-3359
▁장관	-3360
▁종점	-3361
▁챠	-3362
▁혼란	-3363
▁누리	-3364
▁우려	-3365
▁68	-3366
▁무적	-3367
들리	-3368
▁채용	-3369
▁감사	-3370
▁아리	-3371
▁스트라이	-3372
▁네이버	-3373
ith	-3374
▁운전	-3375
ld	-3376
▁본명	-3377
▁컨텐츠	-3378
▁찾아가	-3379
▁대다수	-3380
▁문제점	-3381
ly	-3382
▁운명	-3383
▁실질	-3384
▁파이어	-3385
▁나뉘	-3386
▁반격	-3387
▁내놓	-3388
▁800	-3389
▁늑	-3390
▁계급	-3391
▁옹	-3392
▁트라	-3393
▁균	-3394
▁71	-3395
▁라스	-3396
▁미군	-3397
▁중계	-3398
레인	-3399
▁커뮤니티	-3400
▁정류	-3401
▁라이벌	-3402
▁오해	-3403
ind	-3404
▁김성	-3405
▁초월	-3406
▁짝	-3407
▁지급	-3408
▁돌진	-3409
▁푸르	-3410
▁오류	-3411
▁두산	-3412
▁수입	-3413
▁74	-3414
▁가까이	-3415
▁AC	-3416
▁전함	-3417
아먹	-3418
▁전공	-3419
▁연도	-3420
▁파라	-3421
▁랜드	-3422
▁연예	-3423
OL	-3424
▁카라	-3425
▁메타	-3426
▁치명타	-3427
▁공군	-3428
▁67	-3429
▁설득	-3430
▁체계	-3431
▁낚	-3432
▁소문	-3433
▁찰	-3434
다지	-3435
▁메가	-3436
▁기기	-3437
이터	-3438
ew	-3439
▁아트	-3440
▁캔	-3441
▁통일	-3442
▁충돌	-3443
▁여신	-3444
▁반영	-3445
▁아오	-3446
▁즉시	-3447
▁단위	-3448
▁화장	-3449
▁거주	-3450
ry	-3451
▁문자	-3452
▁73	-3453
▁코믹스	-3454
▁불꽃	-3455
바로	-3456
▁그림자	-3457
▁TH	-3458
▁편의	-3459
▁안습	-3460
ast	-3461
▁말리	-3462
▁지시	-3463
▁닿	-3464
▁NC	-3465
▁96	-3466
▁홍콩	-3467
▁학과	-3468
▁레오	-3469
▁전투력	-3470
▁짜리	-3471
▁크루	-3472
▁AT	-3473
▁주년	-3474
▁걸치	-3475
▁해방	-3476
▁내려오	-3477
▁다행히	-3478
▁아나	-3479
▁시야	-3480
▁me	-3481
▁크리티컬	-3482
▁비율	-3483
카와	-3484
▁둘러	-3485
▁제조	-3486
IT	-3487
나다	-3488
▁슬롯	-3489
츠키	-3490
▁국회의원	-3491
▁제하	-3492
▁으	-3493
▁피아	-3494
▁떡밥	-3495
▁ㅈㅏㄶ	-3496
▁상향	-3497
LC	-3498
▁일부러	-3499
▁생명력	-3500
▁신뢰	-3501
▁정지	-3502
▁널	-3503
▁격파	-3504
▁공화국	-3505
EC	-3506
▁81	-3507
▁그다지	-3508
▁써	-3509
▁관객	-3510
▁암흑	-3511
▁심장	-3512
▁깃	-3513
▁소프트	-3514
▁신고	-3515
▁수업	-3516
▁오로	-3517
▁지켜	-3518
▁파이널	-3519
▁CP	-3520
▁쓰러뜨리	-3521
▁토모	-3522
▁닌자	-3523
▁그만큼	-3524
▁사전	-3525
▁등판	-3526
▁무난	-3527
▁동네	-3528
▁늑대	-3529
▁판타지	-3530
▁가득	-3531
▁맘	-3532
▁마주	-3533
▁붙잡	-3534
▁j	-3535
▁엘프	-3536
FA	-3537
▁가입	-3538
ㅂㅅㅣ	-3539
사카	-3540
▁유비	-3541
▁192	-3542
▁연사	-3543
▁1999	-3544
▁별개	-3545
▁덮	-3546
▁고기	-3547
▁사운드	-3548
▁압박	-3549
▁마술	-3550
▁본부	-3551
▁집안	-3552
▁NPC	-3553
▁78	-3554
식간	-3555
▁아티	-3556
▁84	-3557
▁리버	-3558
▁건강	-3559
▁근무	-3560
end	-3561
▁재능	-3562
▁창작	-3563
▁순식간	-3564
▁막장	-3565
▁91	-3566
▁짱	-3567
▁니시	-3568
▁ㄷㅡㄴㅈㅣ	-3569
▁반란	-3570
▁an	-3571
▁드디어	-3572
▁실드	-3573
고기	-3574
▁업체	-3575
▁저런	-3576
▁추적	-3577
▁룡	-3578
▁지하철	-3579
▁장식	-3580
▁지켜보	-3581
▁제주	-3582
▁곰	-3583
▁뛰어	-3584
▁지형	-3585
▁화이트	-3586
▁신세	-3587
▁팝	-3588
▁묵	-3589
▁1998	-3590
▁it	-3591
▁가이	-3592
▁불만	-3593
▁전적	-3594
▁입학	-3595
▁경향	-3596
▁증명	-3597
▁!!	-3598
▁처하	-3599
▁수학	-3600
▁경험치	-3601
▁쿼	-3602
▁상품	-3603
og	-3604
세우	-3605
▁천사	-3606
▁브리	-3607
▁게이트	-3608
▁기원	-3609
▁사쿠라	-3610
▁대만	-3611
▁낭	-3612
▁형성	-3613
▁신청	-3614
▁쌓이	-3615
▁An	-3616
▁전방	-3617
▁테이	-3618
▁예고	-3619
▁스티	-3620
▁여동생	-3621
▁매력	-3622
▁오픈	-3623
▁블레이드	-3624
▁쓰레기	-3625
▁노멀	-3626
▁지르	-3627
▁적히	-3628
▁절반	-3629
▁정권	-3630
▁콜라	-3631
▁사령관	-3632
▁97	-3633
▁클로	-3634
▁쿠키	-3635
아버지	-3636
▁나루	-3637
▁팅	-3638
▁섹	-3639
▁주먹	-3640
▁감염	-3641
▁이마	-3642
ㅍㅣ	-3643
▁마도	-3644
▁마이크	-3645
▁의상	-3646
▁여론	-3647
▁룬	-3648
▁외국인	-3649
▁Ar	-3650
광역	-3651
▁He	-3652
▁령	-3653
▁오빠	-3654
▁타점	-3655
▁82	-3656
▁회차	-3657
▁강조	-3658
▁유희	-3659
▁라이더	-3660
▁69	-3661
▁키스	-3662
▁덴	-3663
돼지	-3664
▁단일	-3665
▁이론	-3666
▁사토	-3667
지컬	-3668
▁메카	-3669
▁이승	-3670
▁선호	-3671
▁어택	-3672
▁근거	-3673
▁소멸	-3674
▁연상	-3675
▁복장	-3676
▁ㅈㅏㄶㅇㅏ	-3677
▁별도	-3678
▁엔터	-3679
▁전선	-3680
▁바보	-3681
▁코인	-3682
▁고치	-3683
▁is	-3684
▁실행	-3685
돌리	-3686
▁대륙	-3687
타로	-3688
▁250	-3689
트로	-3690
▁스톤	-3691
▁주전	-3692
▁공작	-3693
▁for	-3694
▁썰	-3695
▁작용	-3696
광역시	-3697
▁최상	-3698
▁아가	-3699
▁디아	-3700
▁아무것	-3701
▁한때	-3702
▁공기	-3703
▁아메	-3704
▁180	-3705
▁핀	-3706
▁MAX	-3707
▁86	-3708
▁반지	-3709
▁부품	-3710
▁평타	-3711
▁SN	-3712
▁화려	-3713
▁요정	-3714
▁190	-3715
▁스토	-3716
▁헌터	-3717
어버리	-3718
▁흔하	-3719
▁해설	-3720
▁권력	-3721
▁찾아	-3722
▁간격	-3723
▁요새	-3724
▁출현	-3725
▁호환	-3726
파이어	-3727
▁따오	-3728
모로	-3729
▁전형	-3730
▁총기	-3731
▁뉴욕	-3732
▁몰래	-3733
▁탱크	-3734
▁퀸	-3735
▁추격	-3736
▁출장	-3737
▁키리	-3738
둥이	-3739
▁박살	-3740
▁바라보	-3741
▁토리	-3742
▁구도	-3743
▁조용	-3744
▁굽	-3745
▁울산	-3746
▁사자	-3747
▁무효	-3748
▁돌아다니	-3749
▁주위	-3750
ath	-3751
▁마스	-3752
▁스카이	-3753
레나	-3754
▁경상	-3755
▁연애	-3756
▁BGM	-3757
▁프레임	-3758
▁탁	-3759
▁시드	-3760
더스	-3761
▁명예	-3762
서트	-3763
▁여러모로	-3764
▁마리오	-3765
▁권총	-3766
▁범인	-3767
av	-3768
▁폭격	-3769
▁경비	-3770
▁이슬	-3771
▁주어지	-3772
RE	-3773
▁1997	-3774
▁추락	-3775
▁동기	-3776
드라	-3777
50	-3778
▁De	-3779
▁경영	-3780
▁테스트	-3781
▁대우	-3782
▁심리	-3783
▁제이	-3784
▁우스	-3785
▁Te	-3786
타인	-3787
▁아무런	-3788
▁신규	-3789
▁지대	-3790
▁심판	-3791
▁폭주	-3792
▁모바	-3793
▁놓치	-3794
듀서	-3795
▁블록	-3796
▁프로듀서	-3797
▁클라	-3798
▁후쿠	-3799
▁소총	-3800
웨이	-3801
▁영업	-3802
▁갈등	-3803
▁거짓말	-3804
▁공유	-3805
▁MS	-3806
▁아크	-3807
▁하수인	-3808
se	-3809
▁변호	-3810
▁일상	-3811
▁수요	-3812
▁탄약	-3813
▁계승	-3814
one	-3815
▁외교	-3816
히로	-3817
▁고교	-3818
▁전대	-3819
어스	-3820
▁환상	-3821
▁메인	-3822
▁그래픽	-3823
▁메이저	-3824
▁고전	-3825
▁학살	-3826
▁통제	-3827
▁요괴	-3828
▁브라질	-3829
▁북미	-3830
▁사양	-3831
겨나	-3832
▁렙	-3833
▁상점	-3834
▁언제나	-3835
▁Be	-3836
▁보석	-3837
▁마련	-3838
▁입력	-3839
▁시각	-3840
사키	-3841
▁변형	-3842
남도	-3843
▁이득	-3844
▁83	-3845
▁터치	-3846
▁폭력	-3847
▁띄우	-3848
▁제법	-3849
▁공학	-3850
▁훔	-3851
ㄹㅏㅇ	-3852
▁옛날	-3853
▁만든	-3854
▁탱커	-3855
▁혁명	-3856
▁맞서	-3857
▁유령	-3858
▁빗	-3859
▁불편	-3860
▁블러	-3861
▁제작진	-3862
▁통상	-3863
▁커맨	-3864
퍼스	-3865
▁그곳	-3866
▁작동	-3867
▁미츠	-3868
▁KT	-3869
▁리스트	-3870
▁믹	-3871
스트라	-3872
ust	-3873
▁92	-3874
▁용사	-3875
▁89	-3876
▁예외	-3877
▁동원	-3878
가와	-3879
▁전투기	-3880
▁조치	-3881
▁진지	-3882
▁타케	-3883
▁94	-3884
▁ㄲㅔ	-3885
▁조심	-3886
▁휘두르	-3887
▁승강장	-3888
▁연대	-3889
▁고생	-3890
▁민간	-3891
▁구현	-3892
▁수집	-3893
▁스마트	-3894
▁미디어	-3895
▁머신	-3896
자키	-3897
도우	-3898
▁파일럿	-3899
▁현지	-3900
ide	-3901
▁한국인	-3902
▁프로필	-3903
▁둥	-3904
▁일자	-3905
▁포탑	-3906
▁검색	-3907
▁79	-3908
려움	-3909
▁네임	-3910
▁워치	-3911
▁앵	-3912
▁쿠로	-3913
▁Le	-3914
▁입구	-3915
노스	-3916
▁이리	-3917
▁챕	-3918
▁조조	-3919
▁메시	-3920
보내	-3921
▁사이즈	-3922
▁쇠	-3923
▁신인	-3924
▁되찾	-3925
▁경기장	-3926
▁모바일	-3927
▁꺾	-3928
▁조절	-3929
일드	-3930
▁Se	-3931
나무	-3932
▁멋지	-3933
▁93	-3934
ity	-3935
▁동영	-3936
▁차단	-3937
▁신장	-3938
PG	-3939
▁콘서트	-3940
▁요즘	-3941
▁겐	-3942
▁US	-3943
▁부위	-3944
▁감시	-3945
▁물러	-3946
▁표준	-3947
▁카미	-3948
▁레스	-3949
▁ㄹㅣㅇ	-3950
▁다이아	-3951
▁챕터	-3952
▁레인저	-3953
▁보장	-3954
▁교전	-3955
▁편지	-3956
▁긍	-3957
▁음반	-3958
ㅇㅗ	-3959
저히	-3960
▁수송	-3961
▁마루	-3962
▁시행	-3963
OT	-3964
▁정류장	-3965
▁동방	-3966
▁87	-3967
▁도발	-3968
▁폐지	-3969
어도	-3970
▁덧	-3971
일리	-3972
▁공산	-3973
▁프린	-3974
▁맞이	-3975
▁스톰	-3976
▁1996	-3977
▁101	-3978
▁동영상	-3979
▁길드	-3980
▁한방	-3981
▁상상	-3982
▁연락	-3983
▁배차	-3984
▁패널	-3985
▁리얼	-3986
▁기습	-3987
▁AI	-3988
▁볼넷	-3989
▁용어	-3990
▁1995	-3991
북도	-3992
ere	-3993
▁MC	-3994
▁DJ	-3995
▁구출	-3996
▁겁	-3997
▁자이언	-3998
AC	-3999
▁음성	-4000
▁슛	-4001
▁프리미	-4002
▁텔레	-4003
▁호평	-4004
▁루타	-4005
▁앱	-4006
▁연방	-4007
▁똑같이	-4008
▁그치	-4009
▁이재	-4010
▁태우	-4011
▁김정	-4012
▁어깨	-4013
ㅌㅇㅣ	-4014
▁ㄱㅏㅌㅇㅣ	-4015
▁특화	-4016
▁어지	-4017
▁훔치	-4018
▁루시	-4019
▁On	-4020
▁라이프	-4021
▁도달	-4022
age	-4023
▁나타내	-4024
▁쟁	-4025
▁추진	-4026
▁계정	-4027
▁세월	-4028
▁도서관	-4029
▁흥행	-4030
▁볼트	-4031
▁이날	-4032
▁사이드	-4033
▁ㄷㅏㄴ	-4034
▁연관	-4035
▁잠수	-4036
▁강철	-4037
▁익숙	-4038
▁매니	-4039
▁간부	-4040
▁핸드	-4041
▁무료	-4042
▁결승전	-4043
펙트	-4044
▁슈트	-4045
▁농구	-4046
▁신문	-4047
▁지휘관	-4048
▁전달	-4049
▁번개	-4050
▁레이드	-4051
▁노예	-4052
▁헤이	-4053
▁웬만	-4054
▁극단	-4055
▁삼진	-4056
▁신분	-4057
▁도망가	-4058
▁향상	-4059
▁@	-4060
▁가시	-4061
오프	-4062
▁고향	-4063
▁사마	-4064
▁겉	-4065
▁주소	-4066
▁.....	-4067
▁전직	-4068
▁리메	-4069
▁신기	-4070
▁양산	-4071
▁수술	-4072
메달	-4073
▁켜	-4074
▁그동안	-4075
▁출력	-4076
▁빌드	-4077
▁켈	-4078
▁묘지	-4079
▁환자	-4080
▁조지	-4081
레이터	-4082
▁넘치	-4083
▁노출	-4084
▁신성	-4085
▁빛나	-4086
▁마구	-4087
▁캐리	-4088
▁가상	-4089
▁박근	-4090
▁아우	-4091
▁장교	-4092
▁전역	-4093
▁복잡	-4094
▁진심	-4095
▁팀원	-4096
▁제자	-4097
▁스튜	-4098
▁레이스	-4099
▁샘	-4100
조리	-4101
▁헨	-4102
▁가속	-4103
▁동작	-4104
▁적어도	-4105
▁환승	-4106
▁임명	-4107
▁글자	-4108
▁베트	-4109
▁갤럭	-4110
qu	-4111
▁부문	-4112
▁멕	-4113
▁소닉	-4114
▁px	-4115
▁세이브	-4116
▁봇	-4117
▁입단	-4118
▁듯이	-4119
▁커플	-4120
▁가게	-4121
오카	-4122
▁절망	-4123
▁DLC	-4124
ood	-4125
▁캐스	-4126
▁내구	-4127
▁대체로	-4128
▁쾌	-4129
▁차리	-4130
▁AK	-4131
▁반하	-4132
▁해체	-4133
▁기병	-4134
▁내성	-4135
▁성별	-4136
▁타마	-4137
▁망치	-4138
▁임시	-4139
창기	-4140
▁아빠	-4141
▁명중률	-4142
▁틀리	-4143
▁핫	-4144
▁종이	-4145
▁구속	-4146
▁THE	-4147
BO	-4148
▁브레이크	-4149
▁착각	-4150
▁페이즈	-4151
▁알파	-4152
▁ㅇㅓㅆㅇㅓㅆ	-4153
▁여유	-4154
▁MVP	-4155
▁너무나	-4156
▁전시	-4157
▁막차	-4158
▁차라리	-4159
▁근육	-4160
▁플레	-4161
▁득표	-4162
▁갤럭시	-4163
▁수영	-4164
▁육성	-4165
▁연구소	-4166
란색	-4167
▁발매되	-4168
▁Wh	-4169
▁중화	-4170
IS	-4171
▁뼈	-4172
▁이즈	-4173
are	-4174
ㄱㅣ	-4175
▁고백	-4176
▁경고	-4177
▁CC	-4178
PM	-4179
▁인수	-4180
▁그럼	-4181
▁대량	-4182
▁빡	-4183
▁융합	-4184
▁공지	-4185
▁창조	-4186
▁개통	-4187
▁자매	-4188
ㄷㅓㄴ	-4189
끄럽	-4190
▁리메이크	-4191
▁이자	-4192
▁강원	-4193
▁참전	-4194
▁분기	-4195
▁1994	-4196
▁배트	-4197
▁하필	-4198
▁물질	-4199
전자	-4200
▁아끼	-4201
▁인증	-4202
▁$	-4203
▁엮	-4204
▁규칙	-4205
▁남부	-4206
▁의뢰	-4207
▁카오스	-4208
▁대대	-4209
▁럭	-4210
▁인연	-4211
▁묻히	-4212
▁1980	-4213
▁시즈	-4214
▁파리	-4215
▁이시	-4216
▁소화	-4217
▁초창기	-4218
▁리치	-4219
▁날짜	-4220
▁지능	-4221
▁실버	-4222
▁멍	-4223
▁글로	-4224
▁먹히	-4225
▁제어	-4226
▁협회	-4227
브리	-4228
▁구체	-4229
▁게스트	-4230
▁점차	-4231
▁톱	-4232
▁식사	-4233
▁뭉	-4234
OM	-4235
▁끼치	-4236
▁카타	-4237
▁분량	-4238
▁가량	-4239
▁성과	-4240
ob	-4241
▁청년	-4242
크스	-4243
▁악역	-4244
▁700	-4245
▁고용	-4246
▁그대	-4247
▁태그	-4248
▁이내	-4249
▁의혹	-4250
▁객	-4251
▁미카	-4252
▁누적	-4253
▁대립	-4254
▁Tr	-4255
▁투구	-4256
▁어둡	-4257
▁흠	-4258
▁합격	-4259
▁찾아보	-4260
▁돼지	-4261
▁회원	-4262
티나	-4263
ock	-4264
▁떠올리	-4265
▁정복	-4266
▁반발	-4267
▁중대	-4268
▁테일	-4269
▁여지	-4270
▁왠	-4271
▁김영	-4272
▁협박	-4273
▁메모리	-4274
▁녹음	-4275
▁귀신	-4276
▁합체	-4277
ake	-4278
▁감옥	-4279
▁위장	-4280
▁뚜	-4281
먼트	-4282
▁의료	-4283
▁''	-4284
▁둔	-4285
▁결론	-4286
▁이명	-4287
▁웅	-4288
▁아니면	-4289
▁춘	-4290
ect	-4291
▁꼬리	-4292
구리	-4293
our	-4294
▁체포	-4295
▁오가	-4296
OW	-4297
▁호감	-4298
▁아시	-4299
▁파트너	-4300
ass	-4301
▁곧바로	-4302
▁he	-4303
▁몰아	-4304
▁어쨌	-4305
oy	-4306
▁피격	-4307
▁게시판	-4308
▁FI	-4309
▁출판	-4310
ㄱㅜ	-4311
▁써먹	-4312
ire	-4313
▁외계	-4314
▁떠오르	-4315
▁뷰	-4316
보드	-4317
▁잦	-4318
▁강의	-4319
도로	-4320
▁스턴	-4321
▁웹툰	-4322
▁모모	-4323
▁후속작	-4324
지마	-4325
ark	-4326
▁차트	-4327
▁와이	-4328
▁히데	-4329
▁츄	-4330
▁기초	-4331
▁썩	-4332
▁삼국지	-4333
▁정면	-4334
▁예비	-4335
▁아기	-4336
▁쟈	-4337
▁깨지	-4338
▁부서	-4339
▁합성	-4340
▁서부	-4341
▁유로	-4342
▁괴롭히	-4343
▁베스트	-4344
▁예쁘	-4345
ite	-4346
▁림	-4347
▁마키	-4348
▁카스	-4349
▁축제	-4350
▁구멍	-4351
▁사제	-4352
▁랭킹	-4353
▁문장	-4354
웨어	-4355
▁햄	-4356
▁동화	-4357
▁블리	-4358
▁토론	-4359
▁편곡	-4360
▁본작	-4361
▁퀄리티	-4362
▁토르	-4363
▁깜	-4364
▁공급	-4365
▁불러	-4366
▁부부	-4367
▁수련	-4368
▁저그	-4369
▁비아	-4370
▁개방	-4371
▁대가	-4372
주시	-4373
ah	-4374
▁인공	-4375
▁렛	-4376
▁안드로이드	-4377
▁단장	-4378
▁횡	-4379
▁FA	-4380
▁마리아	-4381
▁wh	-4382
▁SR	-4383
▁소형	-4384
▁다섯	-4385
▁룸	-4386
▁소원	-4387
▁매체	-4388
▁전면	-4389
▁고문	-4390
▁은하	-4391
▁곁	-4392
성기	-4393
FC	-4394
▁대폭	-4395
▁kt	-4396
▁마이클	-4397
ES	-4398
▁슈팅	-4399
▁Cl	-4400
▁트로	-4401
라이언	-4402
▁AR	-4403
▁유행	-4404
디아	-4405
▁립	-4406
▁뺏	-4407
▁플랫	-4408
▁해병	-4409
▁예능	-4410
▁활성	-4411
▁캐나다	-4412
▁투어	-4413
▁과목	-4414
▁초간	-4415
UN	-4416
▁클리	-4417
▁문학	-4418
▁파견	-4419
▁뜬	-4420
▁신호	-4421
▁대략	-4422
릭스	-4423
▁일시	-4424
▁목격	-4425
▁매직	-4426
▁세이버	-4427
▁에드	-4428
▁움직임	-4429
▁손가락	-4430
▁내장	-4431
▁넉	-4432
▁커맨드	-4433
▁아일	-4434
▁왕조	-4435
▁시위	-4436
▁컬러	-4437
▁GT	-4438
▁연타	-4439
iz	-4440
ound	-4441
▁적군	-4442
▁달하	-4443
▁관중	-4444
▁외형	-4445
▁포스트	-4446
▁간혹	-4447
▁스틸	-4448
▁긍정	-4449
▁커지	-4450
▁김태	-4451
▁팬덤	-4452
▁야스	-4453
▁구원	-4454
▁이지	-4455
▁박근혜	-4456
▁일원	-4457
ime	-4458
ㄷㅓㄴㄱㅏ	-4459
▁피부	-4460
▁의무	-4461
▁플레이오프	-4462
▁반사	-4463
▁식물	-4464
▁정글	-4465
▁희귀	-4466
▁데모	-4467
▁소지	-4468
▁프라이	-4469
▁다가오	-4470
▁최소한	-4471
▁육체	-4472
▁my	-4473
▁펀치	-4474
▁신라	-4475
▁수수	-4476
▁들어서	-4477
▁SD	-4478
▁블로그	-4479
스턴	-4480
▁코우	-4481
▁PD	-4482
어나오	-4483
▁바위	-4484
▁김민	-4485
▁나아가	-4486
▁은근히	-4487
▁연인	-4488
▁크라	-4489
LL	-4490
우드	-4491
▁상성	-4492
▁Gr	-4493
iv	-4494
▁준수	-4495
▁널리	-4496
▁타이거	-4497
▁대처	-4498
▁피스	-4499
잡이	-4500
▁SC	-4501
▁KIA	-4502
▁굴리	-4503
▁Me	-4504
▁멘탈	-4505
▁수용	-4506
▁주말	-4507
▁대충	-4508
▁킨	-4509
▁섞이	-4510
밀리	-4511
▁인근	-4512
▁오카	-4513
▁파크	-4514
▁불법	-4515
버트	-4516
▁섀	-4517
▁ㄹㅏㄹ	-4518
▁일격	-4519
▁메뉴	-4520
ID	-4521
▁떨어	-4522
페인	-4523
큐어	-4524
▁각자	-4525
▁까다	-4526
▁예측	-4527
▁자치	-4528
▁개체	-4529
▁116	-4530
▁실리	-4531
▁스미	-4532
▁특집	-4533
▁털리	-4534
▁환영	-4535
▁전철	-4536
▁딩	-4537
▁동부	-4538
▁영토	-4539
▁박정	-4540
▁헤비	-4541
▁곡명	-4542
▁영문	-4543
▁냄	-4544
▁조성	-4545
▁적대	-4546
▁뜯	-4547
▁다스	-4548
▁놀랍	-4549
▁홀로	-4550
▁SM	-4551
▁멀쩡	-4552
▁My	-4553
▁기사단	-4554
▁로즈	-4555
▁보안	-4556
▁더더	-4557
시코	-4558
▁따라가	-4559
OP	-4560
▁국군	-4561
▁건축	-4562
▁130	-4563
▁형사	-4564
▁서양	-4565
▁소중	-4566
▁커스	-4567
▁침공	-4568
디언	-4569
▁오랫	-4570
▁누나	-4571
▁원본	-4572
▁왈	-4573
▁냥	-4574
구치	-4575
미야	-4576
▁계단	-4577
▁바리	-4578
▁강남	-4579
▁바치	-4580
ㄴㄷ	-4581
▁안내	-4582
▁접속	-4583
▁더더욱	-4584
▁이래	-4585
▁거인	-4586
▁어린이	-4587
▁아바	-4588
▁주포	-4589
▁갇	-4590
▁좌우	-4591
▁튀어나오	-4592
▁탄창	-4593
▁어른	-4594
▁훗	-4595
▁쉐	-4596
▁Pr	-4597
▁결말	-4598
▁호텔	-4599
▁{{	-4600
▁대지	-4601
▁플로	-4602
▁호주	-4603
▁기독	-4604
▁첨	-4605
▁유이	-4606
▁정찰	-4607
▁지도자	-4608
▁사우	-4609
ge	-4610
데스	-4611
▁면역	-4612
▁골든	-4613
▁깡	-4614
가미	-4615
▁회상	-4616
▁처벌	-4617
▁죄다	-4618
▁허나	-4619
▁알아보	-4620
▁미안	-4621
▁까다롭	-4622
▁액티브	-4623
▁대항	-4624
▁갇히	-4625
▁시선	-4626
▁시내버스	-4627
▁{{{	-4628
▁펫	-4629
▁험	-4630
▁시마	-4631
▁https	-4632
▁후기	-4633
▁절대로	-4634
▁학부	-4635
▁치우	-4636
▁현역	-4637
▁BE	-4638
▁음원	-4639
▁씌	-4640
▁딘	-4641
▁닫	-4642
▁식당	-4643
▁작화	-4644
▁괴수	-4645
ome	-4646
▁상당수	-4647
ax	-4648
▁퀴	-4649
▁포트	-4650
▁깨닫	-4651
▁히메	-4652
▁과연	-4653
▁메르	-4654
▁요코	-4655
▁해적	-4656
▁어떠	-4657
▁하야	-4658
▁취미	-4659
▁아이스	-4660
▁재미있	-4661
▁캐스팅	-4662
▁저녁	-4663
▁일기	-4664
덜란드	-4665
▁도우	-4666
▁네덜란드	-4667
▁버스터	-4668
▁그로	-4669
▁DF	-4670
▁전문가	-4671
▁새벽	-4672
▁고스트	-4673
▁삐	-4674
ance	-4675
▁전진	-4676
▁프리큐어	-4677
uc	-4678
▁꽂	-4679
▁주간	-4680
▁과제	-4681
▁로그	-4682
려주	-4683
▁리아	-4684
▁라인업	-4685
ick	-4686
▁모자라	-4687
▁MF	-4688
▁천재	-4689
▁리듬	-4690
▁시계	-4691
▁한동안	-4692
▁혀	-4693
▁아티스트	-4694
▁비행기	-4695
▁열쇠	-4696
▁한번	-4697
▁유치	-4698
▁고지	-4699
▁스키	-4700
▁Pl	-4701
▁ch	-4702
스탄	-4703
▁예시	-4704
닉스	-4705
▁검찰	-4706
▁오스트	-4707
▁기적	-4708
▁그러니	-4709
▁자금	-4710
▁하얗	-4711
▁한참	-4712
▁방지	-4713
▁총선	-4714
▁촌	-4715
가시	-4716
▁고수	-4717
▁첫차	-4718
▁HD	-4719
▁니코	-4720
요시	-4721
▁승격	-4722
▁리드	-4723
10	-4724
▁용기	-4725
▁\	-4726
ix	-4727
▁우위	-4728
MA	-4729
▁WW	-4730
▁주사	-4731
▁익히	-4732
▁트레이드	-4733
▁트럭	-4734
ord	-4735
▁마비	-4736
mer	-4737
▁트윈	-4738
▁파츠	-4739
▁경기력	-4740
▁방사	-4741
▁챌	-4742
▁드레	-4743
▁??	-4744
▁이슬람	-4745
▁별다르	-4746
▁어지간	-4747
▁휴대	-4748
▁안경	-4749
▁저장	-4750
▁양쪽	-4751
▁짤	-4752
▁스타크래프트	-4753
▁160	-4754
ure	-4755
아웃	-4756
▁코코	-4757
▁램	-4758
▁대리	-4759
▁한마	-4760
▁허리	-4761
▁보라	-4762
▁토끼	-4763
▁할아버지	-4764
▁개성	-4765
▁농담	-4766
▁물러나	-4767
▁어쨌든	-4768
▁디지털	-4769
▁캠페인	-4770
▁GB	-4771
덩이	-4772
▁갈수	-4773
▁신비	-4774
▁캡틴	-4775
▁크리스마스	-4776
고리	-4777
프레	-4778
▁청소년	-4779
▁캠퍼스	-4780
이즈	-4781
▁ㄱㅔㅅ	-4782
▁빚	-4783
▁상급	-4784
▁동굴	-4785
▁꼽히	-4786
▁개정	-4787
▁갈수록	-4788
▁국어	-4789
▁전라	-4790
▁무덤	-4791
▁영향력	-4792
특별	-4793
▁with	-4794
▁문재	-4795
▁OST	-4796
▁마침내	-4797
▁1992	-4798
▁오랫동안	-4799
▁조언	-4800
▁로우	-4801
▁체크	-4802
▁이영	-4803
지로	-4804
▁유희왕	-4805
▁웃음	-4806
▁북부	-4807
▁시아	-4808
▁터키	-4809
▁방출	-4810
▁호위	-4811
▁화제	-4812
▁기독교	-4813
바라	-4814
▁미술	-4815
▁인지도	-4816
▁마이너	-4817
▁김동	-4818
▁클래식	-4819
▁바퀴	-4820
▁어마	-4821
▁KO	-4822
▁해리	-4823
▁1993	-4824
▁델	-4825
▁연료	-4826
▁아이콘	-4827
▁올해	-4828
라드	-4829
ud	-4830
▁곽	-4831
▁칭하	-4832
▁장악	-4833
▁빼앗기	-4834
▁극복	-4835
▁안티	-4836
▁원소	-4837
▁접촉	-4838
▁정원	-4839
▁원수	-4840
양함	-4841
▁클릭	-4842
▁의존	-4843
▁베트남	-4844
톨릭	-4845
▁비추	-4846
▁중독	-4847
▁국방	-4848
▁귀찮	-4849
▁SKT	-4850
▁노인	-4851
▁일제	-4852
▁사도	-4853
▁인정받	-4854
▁결코	-4855
라이트	-4856
▁팔리	-4857
▁데려오	-4858
▁바이러스	-4859
▁하락	-4860
▁식량	-4861
▁선택지	-4862
▁미라	-4863
▁톰	-4864
▁140	-4865
▁흐름	-4866
▁무겁	-4867
▁생존자	-4868
▁놀이	-4869
▁무작	-4870
▁담기	-4871
▁Ex	-4872
▁모조리	-4873
▁헛	-4874
▁살아가	-4875
ame	-4876
▁수익	-4877
▁전신	-4878
▁하우스	-4879
80	-4880
▁윌리	-4881
▁sh	-4882
▁칭찬	-4883
▁본체	-4884
쳐지	-4885
멘트	-4886
▁신설	-4887
▁보관	-4888
▁챌린	-4889
▁캐논	-4890
▁전멸	-4891
임스	-4892
▁흔들리	-4893
▁JR	-4894
▁부장	-4895
▁투명	-4896
▁공무원	-4897
▁커리어	-4898
▁",	-4899
AD	-4900
▁손해	-4901
▁전성기	-4902
▁외전	-4903
▁라면	-4904
▁핏	-4905
▁도끼	-4906
치기	-4907
▁체육관	-4908
▁취향	-4909
▁개수	-4910
▁앞두	-4911
▁논리	-4912
몬드	-4913
▁de	-4914
▁이브	-4915
▁후방	-4916
▁치유	-4917
▁스승	-4918
▁한마디	-4919
▁노부	-4920
세스	-4921
▁씹	-4922
▁IC	-4923
▁수십	-4924
▁루수	-4925
리그	-4926
ost	-4927
▁비주	-4928
▁우연히	-4929
▁모래	-4930
▁돋	-4931
▁충성	-4932
▁카트	-4933
▁어스	-4934
▁기종	-4935
▁무릎	-4936
▁에리	-4937
▁최다	-4938
▁데드	-4939
out	-4940
▁정비	-4941
▁김종	-4942
▁가톨릭	-4943
▁동의	-4944
▁교장	-4945
▁기아	-4946
▁Love	-4947
▁툴	-4948
▁이터	-4949
▁변호사	-4950
▁무지	-4951
▁콜라보	-4952
▁마린	-4953
▁재현	-4954
코토	-4955
old	-4956
다랗	-4957
카리	-4958
▁일반인	-4959
▁유니폼	-4960
▁레이더	-4961
▁첼	-4962
▁구경	-4963
▁불타	-4964
▁사막	-4965
▁GS	-4966
▁제작자	-4967
▁당일	-4968
▁힙	-4969
▁우라	-4970
▁반동	-4971
▁세르	-4972
▁칩	-4973
▁명성	-4974
▁날아오	-4975
▁고맙	-4976
스키	-4977
▁적응	-4978
▁900	-4979
▁Un	-4980
▁제임스	-4981
▁이정	-4982
▁타선	-4983
▁맥스	-4984
▁충청	-4985
▁기여	-4986
▁구사	-4987
▁트랜	-4988
▁작곡가	-4989
own	-4990
▁코미	-4991
▁법률	-4992
▁증언	-4993
▁소스	-4994
▁카츠	-4995
▁거미	-4996
▁오전	-4997
네스	-4998
▁잘리	-4999
▁사정거리	-5000
▁집어	-5001
▁수류	-5002
▁쵸	-5003
▁선전	-5004
▁합의	-5005
▁접하	-5006
▁202	-5007
▁자세히	-5008
▁업적	-5009
▁타인	-5010
▁패션	-5011
▁멕시코	-5012
▁무방	-5013
카드	-5014
▁잉글	-5015
▁개입	-5016
▁기량	-5017
▁둘째	-5018
▁아일랜드	-5019
워크	-5020
▁아즈	-5021
▁타락	-5022
▁연금	-5023
▁초보	-5024
▁바깥	-5025
▁가짜	-5026
▁로고	-5027
▁유통	-5028
▁소라	-5029
▁스트리	-5030
▁기도	-5031
▁판매량	-5032
▁다름	-5033
▁찢	-5034
▁법원	-5035
▁자국	-5036
▁눕	-5037
▁빨갛	-5038
▁할머니	-5039
▁상업	-5040
▁드라이브	-5041
▁스웨	-5042
▁잡지	-5043
▁울리	-5044
▁폴란드	-5045
▁SH	-5046
▁아쿠	-5047
US	-5048
시로	-5049
▁북쪽	-5050
▁신부	-5051
▁의회	-5052
▁넥센	-5053
▁취임	-5054
▁화장실	-5055
▁조연	-5056
▁정수	-5057
▁LI	-5058
다이	-5059
▁일방	-5060
▁포격	-5061
▁수류탄	-5062
▁닭	-5063
▁박히	-5064
▁EP	-5065
▁유물	-5066
▁주식	-5067
▁전후	-5068
▁루카	-5069
▁무라	-5070
▁보고	-5071
▁wik	-5072
미니	-5073
ave	-5074
▁구리	-5075
▁안타깝	-5076
▁복무	-5077
▁깔끔	-5078
▁벌레	-5079
▁가루	-5080
▁차기	-5081
▁그러니까	-5082
▁히나	-5083
▁똥	-5084
▁주기	-5085
▁쌍둥이	-5086
▁ㅌ	-5087
▁교실	-5088
▁새끼	-5089
▁과장	-5090
▁승점	-5091
▁출마	-5092
▁대개	-5093
▁금속	-5094
▁FF	-5095
pe	-5096
▁펑	-5097
▁IS	-5098
▁구르	-5099
▁어드	-5100
ace	-5101
▁결성	-5102
▁기르	-5103
▁오사카	-5104
▁팽	-5105
▁정착	-5106
▁남쪽	-5107
▁도주	-5108
▁인격	-5109
▁위상	-5110
▁드롭	-5111
per	-5112
▁싱크	-5113
▁인조	-5114
▁포드	-5115
▁비례	-5116
▁흔적	-5117
▁연패	-5118
▁즐겁	-5119
▁XX	-5120
▁주일	-5121
▁너희	-5122
▁자폭	-5123
▁동력	-5124
▁사라	-5125
노우	-5126
▁내세우	-5127
ng	-5128
▁교차	-5129
▁처형	-5130
▁잠재	-5131
▁튕	-5132
▁냄새	-5133
▁독특	-5134
ice	-5135
▁도적	-5136
▁훗날	-5137
▁간신	-5138
▁스텔	-5139
▁방어구	-5140
▁공성	-5141
▁숭	-5142
▁1991	-5143
▁거점	-5144
▁더럽	-5145
▁스터	-5146
네임	-5147
▁강도	-5148
▁스마트폰	-5149
▁스프링	-5150
▁위대	-5151
▁대인	-5152
▁상호	-5153
▁화학	-5154
▁ㄹㅐ	-5155
▁자책	-5156
▁매니저	-5157
▁일찍	-5158
ont	-5159
▁정치인	-5160
려나	-5161
▁블러드	-5162
▁라이온	-5163
▁남녀	-5164
▁국립	-5165
▁놓이	-5166
▁연승	-5167
▁클레	-5168
▁CV	-5169
ㄷㅡㄴㄱㅏ	-5170
▁1988	-5171
▁공룡	-5172
▁람	-5173
ov	-5174
▁패하	-5175
▁노르	-5176
▁비상	-5177
▁부작	-5178
▁포항	-5179
▁포수	-5180
▁AD	-5181
▁기용	-5182
▁클랜	-5183
▁귀환	-5184
▁몰락	-5185
▁미루	-5186
▁시너지	-5187
▁CF	-5188
▁We	-5189
▁후술	-5190
▁권한	-5191
▁제갈	-5192
▁고작	-5193
OD	-5194
▁추억	-5195
▁스튜디오	-5196
▁유대	-5197
▁행보	-5198
▁크리스탈	-5199
▁타수	-5200
▁스페이스	-5201
▁런던	-5202
▁이슈	-5203
랑이	-5204
▁개량	-5205
▁적당히	-5206
▁오타	-5207
▁각본	-5208
▁사신	-5209
▁김재	-5210
▁지뢰	-5211
▁실망	-5212
▁사유	-5213
▁상술	-5214
랭크	-5215
▁시달리	-5216
▁가리키	-5217
나카	-5218
▁시노	-5219
▁승률	-5220
▁아케	-5221
▁아츠	-5222
▁색깔	-5223
▁트라이	-5224
▁흥미	-5225
▁공세	-5226
▁혐오	-5227
▁주역	-5228
▁숙련	-5229
▁개막	-5230
▁105	-5231
자드	-5232
▁혈액	-5233
▁어려움	-5234
▁커피	-5235
▁다치	-5236
▁이중	-5237
▁AM	-5238
▁광역시	-5239
▁녹색	-5240
▁루나	-5241
▁재단	-5242
▁뜬금	-5243
▁카운트	-5244
▁내지	-5245
▁미스터	-5246
로나	-5247
▁터뜨리	-5248
블린	-5249
orld	-5250
▁타로	-5251
▁자막	-5252
▁해피	-5253
▁다름없	-5254
ies	-5255
▁인민	-5256
▁소위	-5257
▁길이	-5258
▁히어로즈	-5259
▁DS	-5260
▁서포터	-5261
팡이	-5262
▁끊기	-5263
▁일람	-5264
▁코리아	-5265
▁.."	-5266
ann	-5267
▁화성	-5268
▁학력	-5269
▁생년	-5270
▁계통	-5271
▁금융	-5272
▁색상	-5273
▁나치	-5274
▁리타	-5275
▁스트라이크	-5276
▁국왕	-5277
▁티켓	-5278
▁특전	-5279
▁SNS	-5280
▁관람	-5281
▁면모	-5282
▁ED	-5283
▁요금	-5284
▁제작사	-5285
▁흡혈	-5286
▁아마도	-5287
▁영구	-5288
▁미터	-5289
▁구슬	-5290
시타	-5291
▁펴	-5292
OC	-5293
▁심사	-5294
특별시	-5295
▁ㅅㅠ	-5296
▁아이언	-5297
▁오크	-5298
▁쪼	-5299
▁릿	-5300
고속	-5301
▁쓸모	-5302
▁차이점	-5303
▁단단	-5304
▁튕기	-5305
▁뿔	-5306
▁하단	-5307
▁배터리	-5308
▁오직	-5309
▁기숙	-5310
럼프	-5311
▁오랜만	-5312
▁들키	-5313
▁재산	-5314
▁찾아내	-5315
▁소대	-5316
▁디지몬	-5317
▁증오	-5318
▁펄	-5319
▁개시	-5320
▁세종	-5321
BA	-5322
▁시그	-5323
▁썬	-5324
▁ㄹㅓㄴ	-5325
▁서울특별시	-5326
▁중량	-5327
▁CPU	-5328
▁아서	-5329
▁추종	-5330
▁사이버	-5331
▁미묘	-5332
▁칭호	-5333
▁어뢰	-5334
▁공공	-5335
▁호수	-5336
▁생략	-5337
▁세븐	-5338
▁잉글랜드	-5339
▁혹시	-5340
▁맛있	-5341
LE	-5342
▁중첩	-5343
▁DE	-5344
▁가만	-5345
▁고구	-5346
▁보호막	-5347
▁좌석	-5348
▁스팀	-5349
▁혐의	-5350
베르	-5351
▁오라	-5352
▁민첩	-5353
▁히토	-5354
▁연령	-5355
▁지경	-5356
▁총알	-5357
▁부지	-5358
▁편입	-5359
▁워커	-5360
▁뎀	-5361
▁십자	-5362
▁언더	-5363
▁협상	-5364
▁치루	-5365
▁덧붙이	-5366
▁애플	-5367
▁그만두	-5368
▁마약	-5369
저스	-5370
▁해상	-5371
려들	-5372
▁쿼터	-5373
▁메리	-5374
▁상단	-5375
▁휴식	-5376
▁실전	-5377
▁LC	-5378
▁아저	-5379
▁단편	-5380
▁연예인	-5381
▁신사	-5382
어마	-5383
▁네오	-5384
▁하차	-5385
▁LV	-5386
▁상인	-5387
▁타율	-5388
▁아저씨	-5389
▁눈치채	-5390
▁이익	-5391
▁예언	-5392
▁노벨	-5393
▁your	-5394
▁후배	-5395
시스트	-5396
로디	-5397
▁곤란	-5398
▁구석	-5399
▁네트	-5400
▁찬스	-5401
▁정화	-5402
▁용서	-5403
ber	-5404
▁막대	-5405
▁NE	-5406
▁딜링	-5407
▁강요	-5408
▁중국어	-5409
▁펌	-5410
바르	-5411
▁수장	-5412
▁탈퇴	-5413
▁어마어마	-5414
▁카카	-5415
▁떨어뜨리	-5416
▁기관총	-5417
ys	-5418
▁익스	-5419
▁흘러	-5420
▁예산	-5421
사자	-5422
▁임대	-5423
▁189	-5424
▁동쪽	-5425
▁언스	-5426
▁데려가	-5427
▁강자	-5428
▁공방	-5429
▁문구	-5430
▁턱	-5431
▁용량	-5432
▁SE	-5433
▁개혁	-5434
▁가요	-5435
der	-5436
▁오마	-5437
▁하루카	-5438
▁원칙	-5439
▁김현	-5440
aw	-5441
▁캠프	-5442
▁모노	-5443
ION	-5444
▁자극	-5445
▁진보	-5446
▁악당	-5447
▁It	-5448
▁엿	-5449
▁소장	-5450
▁금방	-5451
▁수호자	-5452
▁3000	-5453
▁상실	-5454
▁잠수함	-5455
▁원주	-5456
▁부각	-5457
▁드럼	-5458
▁총리	-5459
▁기울	-5460
▁포로	-5461
60	-5462
▁틸	-5463
▁큐브	-5464
▁상관없	-5465
▁칼리	-5466
oo	-5467
▁깨어나	-5468
▁잡아내	-5469
▁ㄷㅓㄴㅈㅣ	-5470
이너	-5471
▁마디	-5472
▁교류	-5473
▁인치	-5474
▁루이	-5475
▁학자	-5476
▁집행	-5477
▁포르투	-5478
FF	-5479
40	-5480
▁EN	-5481
▁굿	-5482
▁BPM	-5483
▁찍히	-5484
▁며	-5485
ike	-5486
▁앨리스	-5487
▁원문	-5488
▁유효	-5489
▁자전	-5490
ream	-5491
▁메달	-5492
▁얻어	-5493
▁저작	-5494
▁결전	-5495
▁사귀	-5496
▁표지	-5497
나미	-5498
▁간신히	-5499
▁채팅	-5500
▁가을	-5501
▁일족	-5502
▁후계	-5503
▁뱀파이어	-5504
▁로리	-5505
▁미쿠	-5506
▁125	-5507
▁1989	-5508
▁무척	-5509
▁타운	-5510
▁활발	-5511
▁엑스트라	-5512
▁신앙	-5513
▁중립	-5514
▁입지	-5515
▁헬기	-5516
▁Com	-5517
▁엘리트	-5518
▁모토	-5519
가스	-5520
▁메시지	-5521
위대	-5522
▁피터	-5523
술사	-5524
▁힌	-5525
▁사형	-5526
▁저렴	-5527
▁해골	-5528
▁화물	-5529
▁무렵	-5530
▁카와	-5531
▁도루	-5532
▁낚시	-5533
▁기생	-5534
▁담배	-5535
티아	-5536
▁제트	-5537
▁이끄	-5538
▁복지	-5539
ory	-5540
▁마그	-5541
▁서번	-5542
▁칼날	-5543
▁짜증	-5544
▁묘하	-5545
월일	-5546
▁첩	-5547
▁PV	-5548
▁정예	-5549
▁사명	-5550
▁서번트	-5551
▁ww	-5552
▁요약	-5553
▁고개	-5554
▁루비	-5555
▁끈	-5556
▁안녕	-5557
▁재밌	-5558
▁추구	-5559
▁UP	-5560
▁미즈	-5561
▁나리	-5562
▁일본인	-5563
▁행운	-5564
▁거울	-5565
▁위원장	-5566
▁동아	-5567
▁레알	-5568
▁부딪	-5569
▁존재감	-5570
iss	-5571
▁영주	-5572
팩트	-5573
▁딜레이	-5574
▁잡아먹	-5575
▁거듭	-5576
▁애정	-5577
▁그랜드	-5578
▁터널	-5579
▁생년월일	-5580
▁조이	-5581
▁엮이	-5582
▁반전	-5583
▁대학원	-5584
▁주자	-5585
▁도둑	-5586
▁구축함	-5587
▁음모	-5588
▁착하	-5589
▁바이오	-5590
▁순환	-5591
▁커다랗	-5592
▁불사	-5593
▁www	-5594
▁철학	-5595
▁가동	-5596
▁격추	-5597
▁테라	-5598
데이	-5599
▁지라	-5600
▁캐스터	-5601
▁잔뜩	-5602
▁최신	-5603
▁AS	-5604
▁사원	-5605
▁무역	-5606
▁플라이	-5607
라기	-5608
▁엔젤	-5609
▁피아노	-5610
▁텍스트	-5611
▁참석	-5612
▁언젠	-5613
▁태평	-5614
▁언젠가	-5615
▁공허	-5616
▁서쪽	-5617
▁휩	-5618
▁생겨나	-5619
무르	-5620
▁알렉산	-5621
▁기구	-5622
▁ㅅㅗ	-5623
▁모니	-5624
▁부적	-5625
▁심심	-5626
▁기숙사	-5627
ㄹㅐ	-5628
걸이	-5629
▁성남	-5630
▁->	-5631
▁부스터	-5632
▁BL	-5633
▁취약	-5634
▁걸어	-5635
▁비서	-5636
말리	-5637
▁이집	-5638
▁공용	-5639
▁주차	-5640
▁이집트	-5641
30	-5642
▁붓	-5643
▁분신	-5644
▁의대	-5645
▁that	-5646
▁드래프트	-5647
▁비치	-5648
ian	-5649
▁분대	-5650
▁되돌리	-5651
테르	-5652
하면	-5653
▁궤도	-5654
chor	-5655
▁상기	-5656
▁옳	-5657
▁준우	-5658
▁유적	-5659
▁통산	-5660
▁CJ	-5661
▁체중	-5662
▁토벌	-5663
회사	-5664
▁쭉	-5665
▁초록	-5666
▁유나이	-5667
▁헤어지	-5668
▁난입	-5669
▁권리	-5670
▁우르	-5671
▁페널	-5672
▁교황	-5673
▁명단	-5674
▁확대	-5675
▁탄환	-5676
▁훼	-5677
▁이토	-5678
▁알아내	-5679
우마	-5680
▁윌리엄	-5681
▁식민	-5682
io	-5683
▁종목	-5684
▁Pro	-5685
▁도박	-5686
게임	-5687
▁씬	-5688
▁나츠	-5689
▁건드리	-5690
▁유나이티	-5691
▁베리	-5692
▁조리	-5693
▁복구	-5694
▁경로	-5695
▁은신	-5696
▁출입	-5697
▁신전	-5698
▁스펠	-5699
▁밍	-5700
▁이식	-5701
▁말투	-5702
▁브루	-5703
▁악명	-5704
▁대선	-5705
▁마주치	-5706
▁발리	-5707
▁하츠	-5708
소녀	-5709
▁왠지	-5710
▁외계인	-5711
▁1970	-5712
▁건조	-5713
▁동인	-5714
▁글로벌	-5715
▁코멘트	-5716
▁끔	-5717
▁트랜스	-5718
▁천하	-5719
▁간접	-5720
▁형상	-5721
▁윗	-5722
정부	-5723
▁이수	-5724
▁업로드	-5725
▁꾸미	-5726
▁Fl	-5727
▁가방	-5728
▁해치	-5729
▁발달	-5730
▁양성	-5731
▁레딧	-5732
▁와일드	-5733
▁레슬	-5734
▁아미	-5735
▁연맹	-5736
▁하향	-5737
▁천만	-5738
▁시라	-5739
▁김대	-5740
▁일치	-5741
▁적합	-5742
▁Br	-5743
가리	-5744
▁명확	-5745
▁디스크	-5746
▁소유자	-5747
▁이드	-5748
▁제약	-5749
▁장탄	-5750
0000	-5751
▁내보내	-5752
▁뿜	-5753
▁유독	-5754
▁아메리카	-5755
▁빠져	-5756
▁전이	-5757
▁라이플	-5758
▁얀	-5759
▁연극	-5760
▁쏟아지	-5761
▁미키	-5762
▁그르	-5763
▁릴리	-5764
▁드라이버	-5765
▁구글	-5766
▁정황	-5767
▁사후	-5768
▁anchor	-5769
▁화재	-5770
▁;&	-5771
▁흰	-5772
▁이펙트	-5773
▁매장	-5774
▁딕	-5775
▁리스크	-5776
▁크림	-5777
▁끔찍	-5778
▁저택	-5779
▁팬텀	-5780
▁강점	-5781
▁헌법	-5782
▁도라	-5783
▁wiki	-5784
▁WWE	-5785
▁곳곳	-5786
▁주택	-5787
▁아키라	-5788
▁띠	-5789
▁실책	-5790
▁울프	-5791
IP	-5792
포트	-5793
▁로얄	-5794
▁할인	-5795
▁le	-5796
▁백성	-5797
▁&#	-5798
▁이민	-5799
▁인디	-5800
▁170	-5801
▁웃기	-5802
▁리뷰	-5803
▁셜	-5804
▁보완	-5805
▁평생	-5806
▁암시	-5807
▁그램	-5808
▁Or	-5809
▁다이아몬드	-5810
▁문단	-5811
▁렐	-5812
UM	-5813
IG	-5814
▁비주얼	-5815
▁하이퍼	-5816
▁그럭	-5817
▁운동장	-5818
▁조별	-5819
▁치킨	-5820
▁언덕	-5821
VD	-5822
▁마블	-5823
▁답변	-5824
▁단축	-5825
▁야수	-5826
▁허락	-5827
▁충실	-5828
▁금액	-5829
저럭	-5830
▁웨이브	-5831
▁어필	-5832
▁뻗	-5833
어하	-5834
▁만남	-5835
▁메이드	-5836
▁고위	-5837
▁치즈	-5838
▁그럭저럭	-5839
▁테츠	-5840
▁새기	-5841
▁여우	-5842
▁승객	-5843
▁토니	-5844
TE	-5845
▁걸맞	-5846
▁플래시	-5847
▁스테이	-5848
▁박물	-5849
▁딴	-5850
▁by	-5851
▁1987	-5852
▁호기	-5853
▁원자	-5854
▁시합	-5855
▁비스	-5856
▁덩치	-5857
▁샌드	-5858
▁불펜	-5859
▁뽑히	-5860
oth	-5861
▁감각	-5862
▁상식	-5863
▁자이언츠	-5864
▁항공기	-5865
▁등지	-5866
▁헤어	-5867
▁Dr	-5868
▁성립	-5869
▁위반	-5870
▁에르	-5871
▁파편	-5872
▁을	-5873
▁뛰어넘	-5874
az	-5875
▁스웨덴	-5876
▁꼼	-5877
▁안기	-5878
▁꿀	-5879
▁트롤	-5880
▁부자	-5881
▁스크린	-5882
▁승자	-5883
▁출격	-5884
▁잃어버리	-5885
데미	-5886
▁상영	-5887
▁토너	-5888
ep	-5889
▁시원	-5890
▁구미	-5891
▁긴장	-5892
▁헐	-5893
man	-5894
▁깔리	-5895
▁기동성	-5896
비드	-5897
▁입대	-5898
▁축복	-5899
▁배트맨	-5900
▁견디	-5901
▁선고	-5902
▁유학	-5903
▁매년	-5904
▁필리	-5905
▁집착	-5906
▁급격	-5907
OU	-5908
▁문재인	-5909
▁록맨	-5910
▁흩	-5911
▁니스	-5912
ale	-5913
▁보드	-5914
▁미네	-5915
▁;&#	-5916
▁권장	-5917
▁넘버	-5918
▁킬러	-5919
▁OP	-5920
▁동성	-5921
▁사살	-5922
▁서구	-5923
▁작년	-5924
▁지치	-5925
▁서서	-5926
▁호칭	-5927
VA	-5928
▁낮추	-5929
▁창고	-5930
▁퇴장	-5931
▁내전	-5932
▁기인	-5933
▁아카데미	-5934
▁일대	-5935
▁플래그	-5936
▁싫어하	-5937
▁토마	-5938
▁해명	-5939
▁스폰	-5940
▁참가자	-5941
▁평점	-5942
▁맷	-5943
▁적중	-5944
▁ㅌㅣ	-5945
▁분명히	-5946
▁한쪽	-5947
▁마법소녀	-5948
▁대수	-5949
▁고도	-5950
▁스즈	-5951
▁결심	-5952
▁곱	-5953
▁휘말리	-5954
70	-5955
쟁이	-5956
▁RPG	-5957
ach	-5958
▁시공	-5959
▁구름	-5960
▁우에	-5961
▁실종	-5962
▁교과	-5963
ㄹㄱㅔ	-5964
▁케인	-5965
▁노바	-5966
▁기운	-5967
▁신나	-5968
▁동점	-5969
군다	-5970
▁관할	-5971
리나	-5972
▁열매	-5973
▁탐험	-5974
arg	-5975
▁뜨겁	-5976
운서	-5977
▁아나운서	-5978
▁1500	-5979
▁중형	-5980
▁용인	-5981
▁전주	-5982
▁Sc	-5983
▁학기	-5984
부르크	-5985
ook	-5986
▁그렇지만	-5987
▁사키	-5988
▁흑인	-5989
▁근거리	-5990
▁타쿠	-5991
▁본진	-5992
▁싹	-5993
▁랄	-5994
▁약화	-5995
▁결합	-5996
▁결투	-5997
무시	-5998
ows	-5999
▁경직	-6000
▁법인	-6001
▁5000	-6002
▁커녕	-6003
▁정기	-6004
▁감추	-6005
ㄹㅏㄴ	-6006
▁리플	-6007
▁해안	-6008
갈리	-6009
▁팟	-6010
▁솜	-6011
▁111	-6012
▁호흡	-6013
orm	-6014
▁두들	-6015
▁토너먼트	-6016
▁수능	-6017
▁괜히	-6018
▁어판	-6019
▁전승	-6020
▁마스크	-6021
▁생명체	-6022
거지	-6023
▁호시	-6024
▁헝	-6025
▁발렌	-6026
▁믹스	-6027
▁암살자	-6028
▁야생	-6029
▁내일	-6030
▁센스	-6031
ish	-6032
▁채보	-6033
▁파르	-6034
ky	-6035
▁막내	-6036
▁럼	-6037
▁연합군	-6038
▁악몽	-6039
▁Team	-6040
▁천안	-6041
▁KBO	-6042
스럽	-6043
▁완결	-6044
▁페이스북	-6045
▁가라	-6046
▁지위	-6047
▁크레	-6048
▁근본	-6049
▁}}	-6050
▁동아리	-6051
▁정차	-6052
▁뮤지컬	-6053
▁변환	-6054
▁줍	-6055
▁불교	-6056
▁솔직	-6057
▁스위치	-6058
▁본사	-6059
▁우정	-6060
▁BB	-6061
▁박물관	-6062
▁엔드	-6063
▁슬라이	-6064
▁Go	-6065
▁선두	-6066
▁망가지	-6067
▁침략	-6068
▁통화	-6069
ae	-6070
▁연습생	-6071
▁침묵	-6072
GE	-6073
▁침입	-6074
▁베타	-6075
▁보이스	-6076
▁지팡이	-6077
▁마우스	-6078
▁와타	-6079
ug	-6080
▁소음	-6081
▁장인	-6082
▁리카	-6083
Hz	-6084
ade	-6085
rom	-6086
▁초인	-6087
▁동급	-6088
일보	-6089
▁마물	-6090
커스	-6091
▁유발	-6092
▁트리플	-6093
▁타석	-6094
▁물리치	-6095
▁유력	-6096
ile	-6097
▁돌입	-6098
▁통계	-6099
▁면적	-6100
▁밀어	-6101
▁유격	-6102
▁판결	-6103
▁부실	-6104
yle	-6105
▁관리자	-6106
▁FIFA	-6107
▁참모	-6108
▁지불	-6109
▁키타	-6110
▁영광	-6111
▁교도	-6112
▁갈아	-6113
아다니	-6114
▁대왕	-6115
▁사인	-6116
▁지진	-6117
▁서클	-6118
▁임팩트	-6119
▁일본군	-6120
▁법정	-6121
ash	-6122
군다나	-6123
ower	-6124
irl	-6125
▁소방	-6126
ink	-6127
▁수급	-6128
반도	-6129
▁철수	-6130
▁1986	-6131
▁벙	-6132
프리	-6133
부로	-6134
데드	-6135
▁출구	-6136
▁균형	-6137
▁가죽	-6138
▁허가	-6139
▁무시무시	-6140
▁ㅣ	-6141
▁임신	-6142
▁통치	-6143
▁무작위	-6144
▁인피	-6145
펴보	-6146
▁살펴보	-6147
▁대거	-6148
▁노스	-6149
▁재정	-6150
▁더군다나	-6151
▁CH	-6152
▁무관	-6153
▁질리	-6154
▁우타	-6155
▁언데드	-6156
▁싸이	-6157
▁가디언	-6158
▁보험	-6159
▁수비력	-6160
▁프리미엄	-6161
TS	-6162
▁감지	-6163
▁세팅	-6164
▁CG	-6165
은행	-6166
▁이라	-6167
▁항복	-6168
▁콜로	-6169
▁간간	-6170
atch	-6171
▁속이	-6172
▁히라	-6173
▁인질	-6174
▁채택	-6175
▁급하	-6176
▁폐쇄	-6177
▁인종	-6178
▁인력	-6179
▁신발	-6180
▁썬더	-6181
▁FW	-6182
▁디젤	-6183
▁여러분	-6184
▁안개	-6185
▁막판	-6186
▁격차	-6187
▁바쁘	-6188
▁삽입	-6189
▁we	-6190
▁몽골	-6191
▁스쿨	-6192
▁고블린	-6193
▁반박	-6194
▁철저	-6195
▁인방	-6196
센트	-6197
▁기름	-6198
▁이혼	-6199
▁단원	-6200
그리	-6201
▁남북	-6202
▁토시	-6203
▁제정	-6204
▁관계자	-6205
IM	-6206
▁바디	-6207
▁핑크	-6208
▁경남	-6209
▁비전	-6210
▁처지	-6211
▁DD	-6212
▁창원	-6213
▁출루	-6214
▁행하	-6215
▁유인	-6216
ial	-6217
▁리프	-6218
▁백인	-6219
▁존경	-6220
sh	-6221
머스	-6222
▁트럼프	-6223
CG	-6224
▁후계자	-6225
▁남매	-6226
▁그린	-6227
▁포위	-6228
다보	-6229
▁텟	-6230
▁여주	-6231
▁포켓몬스터	-6232
▁깨달	-6233
▁배포	-6234
▁고구려	-6235
▁스파이더	-6236
▁놀리	-6237
ㄷㅡㄴㅈㅣ	-6238
▁무사히	-6239
▁코르	-6240
▁아틀	-6241
▁이타	-6242
▁영원히	-6243
▁수면	-6244
▁골렘	-6245
▁투스	-6246
먼스	-6247
▁예수	-6248
▁스트레스	-6249
▁챌린지	-6250
▁War	-6251
▁복제	-6252
▁인용	-6253
▁매번	-6254
▁동양	-6255
▁일당	-6256
래시	-6257
▁김경	-6258
태우	-6259
▁끼우	-6260
▁두르	-6261
여객	-6262
▁ID	-6263
▁체인지	-6264
▁복선	-6265
▁쿠라	-6266
▁오늘날	-6267
▁팁	-6268
▁어이	-6269
▁기세	-6270
전차	-6271
▁국당	-6272
▁갑작	-6273
▁캐치	-6274
▁소송	-6275
▁학습	-6276
▁Star	-6277
▁LA	-6278
▁물량	-6279
▁중복	-6280
▁106	-6281
▁읍	-6282
▁개설	-6283
▁피우	-6284
▁포르투갈	-6285
▁슬프	-6286
코드	-6287
▁지리	-6288
▁가만히	-6289
▁아테	-6290
▁메이플	-6291
▁up	-6292
▁보충	-6293
▁수출	-6294
▁준우승	-6295
▁탕	-6296
▁리오	-6297
▁왜곡	-6298
▁펼쳐지	-6299
▁레지	-6300
▁에픽	-6301
▁동명	-6302
▁간단히	-6303
▁날카	-6304
▁즉사	-6305
필드	-6306
▁선행	-6307
▁보건	-6308
▁체험	-6309
▁해머	-6310
오루	-6311
▁코난	-6312
▁상담	-6313
▁축하	-6314
▁이란	-6315
▁해내	-6316
▁오디션	-6317
▁장신	-6318
▁물고기	-6319
▁분열	-6320
▁대책	-6321
▁마다	-6322
▁이글	-6323
▁토크	-6324
▁파이트	-6325
▁웰	-6326
▁기상	-6327
▁정통	-6328
카이	-6329
▁미만	-6330
▁잠입	-6331
▁피닉스	-6332
천시	-6333
▁이주	-6334
▁미나미	-6335
▁만만	-6336
▁데이트	-6337
▁네트워크	-6338
▁뽀	-6339
▁뭉치	-6340
▁중력	-6341
▁혼돈	-6342
▁코트	-6343
▁배정	-6344
▁라라	-6345
▁메이커	-6346
▁닉네임	-6347
▁DVD	-6348
티스	-6349
▁오키	-6350
▁하마	-6351
키지	-6352
▁버섯	-6353
▁처분	-6354
▁시크	-6355
▁멜로디	-6356
▁해킹	-6357
▁PR	-6358
▁전북	-6359
▁115	-6360
▁벼	-6361
▁항의	-6362
▁공업	-6363
▁부드	-6364
▁오우	-6365
▁포즈	-6366
화점	-6367
▁수석	-6368
▁선제	-6369
▁나미	-6370
▁ON	-6371
▁상한	-6372
▁날카롭	-6373
▁후원	-6374
▁여전	-6375
▁진압	-6376
▁자전거	-6377
▁단행	-6378
▁오메	-6379
▁억지로	-6380
▁102	-6381
▁야마토	-6382
▁악기	-6383
▁ㄴㅗ	-6384
ING	-6385
▁패키지	-6386
▁트릭	-6387
▁개업	-6388
▁수백	-6389
▁fe	-6390
ous	-6391
▁아랍	-6392
▁마드리	-6393
▁벨트	-6394
▁기재	-6395
▁고리	-6396
▁사령부	-6397
▁입주	-6398
▁자본	-6399
▁유산	-6400
▁둘러싸	-6401
▁퍼포	-6402
▁배역	-6403
▁퍼포먼스	-6404
▁장거리	-6405
▁기갑	-6406
▁For	-6407
▁수명	-6408
▁꿰	-6409
▁Ne	-6410
▁기동전	-6411
▁서포트	-6412
▁플러스	-6413
▁라그	-6414
▁장탄수	-6415
▁And	-6416
att	-6417
▁악화	-6418
▁돔	-6419
amp	-6420
▁대포	-6421
세대	-6422
▁모시	-6423
▁성전	-6424
▁마드리드	-6425
▁부드럽	-6426
자와	-6427
▁궁금	-6428
어놓	-6429
가드	-6430
▁콘텐츠	-6431
▁오스트리아	-6432
▁블라	-6433
▁사이코	-6434
▁ㅁㅗ	-6435
▁옹호	-6436
▁대치	-6437
▁닛	-6438
▁호랑이	-6439
▁파멸	-6440
▁통로	-6441
▁분쟁	-6442
▁}}}	-6443
▁정발	-6444
▁우세	-6445
▁파동	-6446
▁프레이	-6447
▁전제	-6448
▁야구장	-6449
게이	-6450
야수	-6451
▁머무르	-6452
▁사용자	-6453
▁가공	-6454
▁그날	-6455
▁뽑아내	-6456
▁세부	-6457
▁신입	-6458
▁이스라	-6459
▁잠들	-6460
▁카구	-6461
▁GP	-6462
▁유미	-6463
▁나기	-6464
▁도감	-6465
▁모험가	-6466
▁첼시	-6467
▁175	-6468
▁주니어	-6469
▁탐정	-6470
▁기력	-6471
▁Cr	-6472
바닥	-6473
▁논의	-6474
▁188	-6475
▁재회	-6476
▁Wind	-6477
▁배달	-6478
▁다가가	-6479
▁무술	-6480
▁조약	-6481
▁최상위	-6482
아키	-6483
▁깜짝	-6484
▁아르헨	-6485
▁김상	-6486
▁공정	-6487
▁1985	-6488
▁처참	-6489
▁비웃	-6490
▁행방	-6491
크로	-6492
▁분해	-6493
▁광선	-6494
▁디즈	-6495
▁세포	-6496
▁젤리	-6497
▁파생	-6498
하시	-6499
▁건네	-6500
▁진주	-6501
me	-6502
▁버드	-6503
▁끌려가	-6504
▁산하	-6505
▁나비	-6506
▁계시	-6507
▁시트	-6508
▁모터	-6509
▁부서지	-6510
▁양상	-6511
▁bl	-6512
▁진학	-6513
▁무스	-6514
▁노조	-6515
▁체감	-6516
▁유성	-6517
▁나르	-6518
▁박지	-6519
▁차체	-6520
AY	-6521
▁위안	-6522
▁조우	-6523
▁후손	-6524
▁마코토	-6525
▁아르헨티나	-6526
▁장미	-6527
▁증폭	-6528
텐도	-6529
▁토키	-6530
▁닌텐도	-6531
▁롬	-6532
▁터스	-6533
▁레일	-6534
▁wid	-6535
▁왜냐	-6536
▁리온	-6537
ms	-6538
▁즈음	-6539
▁강원도	-6540
▁여학생	-6541
▁고로	-6542
ib	-6543
▁김진	-6544
64	-6545
▁독재	-6546
▁아동	-6547
▁관점	-6548
▁폭행	-6549
▁부착	-6550
▁주둔	-6551
▁니콜	-6552
▁al	-6553
▁방치	-6554
▁규격	-6555
▁기쁘	-6556
ft	-6557
▁난사	-6558
▁검술	-6559
▁업계	-6560
▁휘하	-6561
▁페널티	-6562
▁조기	-6563
▁베네	-6564
now	-6565
▁시카	-6566
▁드루	-6567
아이	-6568
▁한두	-6569
▁공수	-6570
▁듀오	-6571
▁전파	-6572
▁질투	-6573
▁몫	-6574
▁만지	-6575
▁마냥	-6576
▁350	-6577
▁무인	-6578
▁제독	-6579
벌레	-6580
▁전무	-6581
▁width	-6582
▁히가시	-6583
▁브레	-6584
▁중세	-6585
▁훈장	-6586
▁Gam	-6587
▁감싸	-6588
승부	-6589
▁택시	-6590
▁불량	-6591
▁톨	-6592
▁조커	-6593
MP	-6594
▁PP	-6595
▁베테	-6596
▁파란색	-6597
ps	-6598
▁경주	-6599
렐라	-6600
▁고장	-6601
▁뚫리	-6602
▁측정	-6603
▁감상	-6604
▁드론	-6605
▁IN	-6606
▁소요	-6607
▁자꾸	-6608
▁중장	-6609
▁면허	-6610
▁방송국	-6611
▁개발자	-6612
▁BS	-6613
▁스트리트	-6614
비전	-6615
▁감동	-6616
▁이스라엘	-6617
▁김기	-6618
▁스탠드	-6619
▁도저히	-6620
▁오염	-6621
▁능력자	-6622
▁전동	-6623
oll	-6624
▁토큰	-6625
▁승무원	-6626
▁1984	-6627
▁세인트	-6628
▁약탈	-6629
▁루스	-6630
▁최적	-6631
▁기원전	-6632
히코	-6633
▁부사	-6634
TV	-6635
▁후자	-6636
▁트루	-6637
▁추리	-6638
▁틴	-6639
▁이온	-6640
pl	-6641
▁지사	-6642
▁BR	-6643
▁시상	-6644
▁발목	-6645
▁Man	-6646
▁뒤지	-6647
12	-6648
▁신도	-6649
▁AKB	-6650
▁대단히	-6651
▁디바	-6652
▁하하	-6653
▁산탄	-6654
▁룩	-6655
▁국판	-6656
▁스캔	-6657
ㄹㄹㅐ	-6658
▁루머	-6659
▁운수	-6660
▁위성	-6661
▁피트	-6662
▁후퇴	-6663
태프	-6664
▁나루토	-6665
▁에디	-6666
port	-6667
▁UN	-6668
▁유니크	-6669
▁우월	-6670
▁티아	-6671
▁루이스	-6672
▁둠	-6673
▁닝	-6674
▁기장	-6675
▁All	-6676
▁우치	-6677
▁광장	-6678
▁주행	-6679
▁선거구	-6680
▁아시안	-6681
▁벌리	-6682
▁브로	-6683
▁이종	-6684
▁스텝	-6685
번에	-6686
▁왕위	-6687
▁루크	-6688
▁아레나	-6689
▁식민지	-6690
▁코마	-6691
신교	-6692
▁상관없이	-6693
▁샷건	-6694
▁바론	-6695
리스트	-6696
▁ex	-6697
▁혈액형	-6698
▁소용	-6699
▁나노	-6700
▁서서히	-6701
▁반짝	-6702
▁조용히	-6703
▁자비	-6704
▁ㄷㅓㄴㄱㅏ	-6705
카락	-6706
▁창단	-6707
▁머리카락	-6708
▁Part	-6709
▁철권	-6710
▁꼬이	-6711
▁SU	-6712
▁과도	-6713
▁자녀	-6714
▁베기	-6715
▁아쉬	-6716
▁에반	-6717
▁제출	-6718
▁112	-6719
▁토미	-6720
경기	-6721
▁드림	-6722
▁라이너	-6723
▁KR	-6724
▁까이	-6725
▁조롱	-6726
▁공백	-6727
▁기둥	-6728
▁아가씨	-6729
▁야간	-6730
▁분당	-6731
▁명의	-6732
▁다운로드	-6733
▁원리	-6734
▁En	-6735
▁붐	-6736
▁간호	-6737
▁얻어맞	-6738
▁비명	-6739
▁노가	-6740
▁일화	-6741
▁힐러	-6742
▁며칠	-6743
▁요인	-6744
ond	-6745
▁연고	-6746
▁수월	-6747
▁뻥	-6748
세서	-6749
키퍼	-6750
▁투척	-6751
▁마감	-6752
▁프렌	-6753
▁쇼핑	-6754
▁백작	-6755
▁대시	-6756
▁DC	-6757
▁장사	-6758
ment	-6759
▁실장	-6760
▁돌연	-6761
▁보존	-6762
▁LP	-6763
▁중시	-6764
▁캣	-6765
▁Sup	-6766
▁더빙	-6767
▁굵	-6768
필더	-6769
▁미드필더	-6770
▁절차	-6771
▁고증	-6772
▁리즈	-6773
▁줄거리	-6774
▁루피	-6775
▁Mar	-6776
▁Fate	-6777
▁철거	-6778
▁뒤늦	-6779
▁프란	-6780
▁전망	-6781
▁108	-6782
ase	-6783
▁범죄자	-6784
데레	-6785
▁시신	-6786
▁막상	-6787
▁반부	-6788
▁타이거즈	-6789
▁닐	-6790
▁무산	-6791
▁엑시	-6792
▁경악	-6793
▁AN	-6794
▁듀스	-6795
▁수동	-6796
▁합병	-6797
▁호소	-6798
▁온천	-6799
▁쇼크	-6800
▁주류	-6801
▁수색	-6802
▁저하	-6803
▁시외	-6804
도리	-6805
유럽	-6806
▁시바	-6807
▁오락	-6808
▁특급	-6809
▁긴급	-6810
▁원조	-6811
▁라이온즈	-6812
ool	-6813
하르트	-6814
우리	-6815
▁스리	-6816
▁바스	-6817
▁여인	-6818
▁에릭	-6819
▁넘어지	-6820
▁식품	-6821
▁고객	-6822
▁와카	-6823
▁골키퍼	-6824
▁나폴	-6825
▁배드	-6826
▁인권	-6827
▁평일	-6828
▁낙하	-6829
▁360	-6830
▁합계	-6831
▁유재	-6832
▁117	-6833
▁배급	-6834
▁모로	-6835
▁꼬마	-6836
▁빅토	-6837
▁이나	-6838
▁막아내	-6839
▁청와	-6840
▁생애	-6841
▁의자	-6842
▁우유	-6843
우치	-6844
▁걸즈	-6845
▁마계	-6846
블로	-6847
▁성당	-6848
▁교단	-6849
▁세라	-6850
투스	-6851
▁지칭	-6852
▁발굴	-6853
▁타일	-6854
런트	-6855
▁택하	-6856
▁복합	-6857
▁킷	-6858
▁실은	-6859
▁직장	-6860
▁안양	-6861
▁카시	-6862
▁로빈	-6863
▁잠실	-6864
▁러시	-6865
▁샤이	-6866
▁증상	-6867
▁아아	-6868
▁임금	-6869
▁스포일러	-6870
▁One	-6871
저리	-6872
▁방위	-6873
▁강림	-6874
▁GO	-6875
ph	-6876
▁팡	-6877
▁살아나	-6878
▁폭파	-6879
▁고소	-6880
▁만일	-6881
▁확장팩	-6882
▁청와대	-6883
비치	-6884
▁공인	-6885
▁어시스트	-6886
▁국경	-6887
▁꽉	-6888
▁여고	-6889
▁때려	-6890
▁당당	-6891
▁부임	-6892
▁개별	-6893
▁남아	-6894
▁유의	-6895
산시	-6896
▁그라운드	-6897
▁후회	-6898
▁로이	-6899
틀러	-6900
ree	-6901
▁ㅇㅗㅂ	-6902
▁Oh	-6903
▁기묘	-6904
▁로버트	-6905
▁뱃	-6906
▁배수	-6907
▁뱅크	-6908
▁명백	-6909
▁오로지	-6910
▁거북	-6911
▁오이	-6912
▁프린세스	-6913
▁교복	-6914
▁코스튬	-6915
▁휠	-6916
▁예고편	-6917
▁특별히	-6918
▁포스터	-6919
▁선사	-6920
▁역습	-6921
▁통틀	-6922
플레이	-6923
▁그레	-6924
▁시로	-6925
▁학생회	-6926
▁청주	-6927
▁개장	-6928
▁히든	-6929
▁헨리	-6930
▁집어넣	-6931
▁As	-6932
도르	-6933
▁극도	-6934
▁아이러	-6935
▁엎	-6936
▁New	-6937
▁회담	-6938
▁쓸데	-6939
학자	-6940
▁도트	-6941
▁하이라이트	-6942
▁ㄷㅜ	-6943
▁조명	-6944
▁되살	-6945
▁수염	-6946
ason	-6947
▁끊임	-6948
베스	-6949
▁퍼즐	-6950
▁둘러보	-6951
불명	-6952
▁FM	-6953
▁관찰	-6954
▁뜬금없이	-6955
▁사야	-6956
▁여객	-6957
▁103	-6958
▁되게	-6959
카이도	-6960
▁어쩌면	-6961
ai	-6962
▁오더	-6963
aby	-6964
▁불행	-6965
▁렌즈	-6966
▁개신교	-6967
▁모집	-6968
▁헷	-6969
▁성질	-6970
▁술사	-6971
불호	-6972
▁호불호	-6973
러그	-6974
릴라	-6975
▁실존	-6976
▁비스트	-6977
▁마케	-6978
나오	-6979
▁양손	-6980
▁흰색	-6981
크라	-6982
▁세뇌	-6983
▁트레일러	-6984
▁부동	-6985
▁묶이	-6986
▁캘	-6987
▁1960	-6988
▁바지	-6989
▁유언	-6990
▁동경	-6991
▁에로	-6992
▁매출	-6993
▁사리	-6994
▁셔틀	-6995
▁장로	-6996
▁금메달	-6997
▁케이드	-6998
리온	-6999
▁220	-7000
▁보라색	-7001
▁비틀	-7002
▁유기	-7003
▁각오	-7004
▁CS	-7005
▁JP	-7006
▁물품	-7007
▁부딪히	-7008
▁결계	-7009
▁올스타	-7010
▁트레이너	-7011
▁우주선	-7012
▁과학자	-7013
▁프로토	-7014
▁지인	-7015
▁un	-7016
▁캐시	-7017
▁알라	-7018
▁모듈	-7019
▁항구	-7020
▁샵	-7021
▁손상	-7022
▁유망	-7023
▁오브젝트	-7024
▁초콜	-7025
▁타르	-7026
▁나스	-7027
▁심의	-7028
에이	-7029
▁타이탄	-7030
▁코미디	-7031
▁여파	-7032
▁웨스트	-7033
키아	-7034
▁회색	-7035
▁달려가	-7036
▁라크	-7037
▁z	-7038
▁연봉	-7039
▁UE	-7040
돌이	-7041
▁우즈	-7042
▁240	-7043
▁라즈	-7044
▁법칙	-7045
▁국정	-7046
▁윈드	-7047
▁비유	-7048
▁지향	-7049
▁원곡	-7050
▁tv	-7051
▁두렵	-7052
▁풋	-7053
oon	-7054
▁무승부	-7055
▁진격	-7056
▁폐기	-7057
▁포탄	-7058
▁이와	-7059
▁엘리자	-7060
▁태평양	-7061
▁손실	-7062
마크	-7063
ㄴㅑㅇ	-7064
▁붙잡히	-7065
▁128	-7066
싱턴	-7067
▁치열	-7068
▁김용	-7069
90	-7070
▁드로우	-7071
▁늙	-7072
▁정반	-7073
▁홀드	-7074
베이	-7075
▁유출	-7076
▁포장	-7077
MS	-7078
▁건국	-7079
▁국장	-7080
▁날뛰	-7081
▁광산	-7082
▁신선	-7083
▁브라운	-7084
▁함부로	-7085
저기	-7086
▁따뜻	-7087
▁무공	-7088
▁영지	-7089
▁리버풀	-7090
▁갤러	-7091
▁랑	-7092
act	-7093
▁이글스	-7094
▁제갈량	-7095
▁즉위	-7096
▁우드	-7097
▁맥주	-7098
▁제네	-7099
ox	-7100
▁짐승	-7101
▁중순	-7102
▁임기	-7103
라노	-7104
▁두들기	-7105
▁엄밀	-7106
▁트랩	-7107
▁장판	-7108
▁코믹	-7109
토스	-7110
▁슬로	-7111
▁노동자	-7112
hen	-7113
▁클론	-7114
▁패전	-7115
▁깎이	-7116
▁단기	-7117
▁반감	-7118
▁배려	-7119
▁넘어서	-7120
▁이웃	-7121
▁하스	-7122
▁여기저기	-7123
▁합리	-7124
ARD	-7125
▁워크래프트	-7126
▁모스	-7127
▁서머	-7128
▁안심	-7129
▁탐지	-7130
▁go	-7131
▁원더	-7132
메이	-7133
ㄹㅣ	-7134
ㄹㄹㅕ	-7135
▁스핀	-7136
▁튼	-7137
▁박살나	-7138
▁아바타	-7139
▁사이클	-7140
▁간주	-7141
▁TVA	-7142
▁네티	-7143
▁최우	-7144
▁하프	-7145
▁신데	-7146
▁양자	-7147
▁쿤	-7148
▁%/	-7149
▁알렉스	-7150
▁기수	-7151
▁독점	-7152
▁커스텀	-7153
▁계수	-7154
▁백제	-7155
▁섀도우	-7156
ank	-7157
▁리안	-7158
▁트리거	-7159
▁트라우마	-7160
▁이모	-7161
▁휴가	-7162
▁로이드	-7163
▁쉴	-7164
▁마땅	-7165
▁당대	-7166
▁라틴	-7167
▁키라	-7168
▁트로피	-7169
▁흔들	-7170
뻐하	-7171
▁기뻐하	-7172
▁지연	-7173
아치	-7174
▁레온	-7175
▁관통력	-7176
▁신용	-7177
▁장난감	-7178
▁시비	-7179
▁단검	-7180
▁사립	-7181
▁방탄	-7182
▁스나이	-7183
▁후미	-7184
▁여럿	-7185
깨비	-7186
▁상륙	-7187
▁대조	-7188
ich	-7189
▁생전	-7190
▁벤치	-7191
▁야쿠	-7192
▁김준	-7193
▁콤비	-7194
▁일요일	-7195
▁옐	-7196
▁소프트웨어	-7197
▁World	-7198
▁날씨	-7199
▁1982	-7200
▁신자	-7201
▁JT	-7202
▁우익	-7203
▁디즈니	-7204
▁신데렐라	-7205
▁단종	-7206
포르	-7207
ear	-7208
▁시리아	-7209
▁아이러니	-7210
▁빨간	-7211
▁시인	-7212
▁밀어내	-7213
▁혜택	-7214
ife	-7215
▁쳐들	-7216
▁챔피언십	-7217
▁프라임	-7218
▁토요일	-7219
ary	-7220
lect	-7221
려받	-7222
▁태국	-7223
▁신속	-7224
▁Mk	-7225
▁수습	-7226
▁선임	-7227
▁음료	-7228
▁사법	-7229
블리	-7230
▁권유	-7231
란히	-7232
▁손오	-7233
▁당사자	-7234
▁변수	-7235
▁파밍	-7236
▁독일군	-7237
▁갚	-7238
▁센서	-7239
▁도장	-7240
하나	-7241
▁허무	-7242
▁방송사	-7243
▁파울	-7244
▁순양함	-7245
▁근원	-7246
▁네티즌	-7247
▁권위	-7248
하마	-7249
▁막강	-7250
▁추세	-7251
▁스트라이커	-7252
▁벡	-7253
에르	-7254
▁스피릿	-7255
▁실내	-7256
▁디시	-7257
▁ㅁㅓ	-7258
▁서바이	-7259
싸움	-7260
▁의학	-7261
▁서기	-7262
▁지목	-7263
반기	-7264
uk	-7265
AP	-7266
▁추방	-7267
▁all	-7268
▁빠져나가	-7269
▁상사	-7270
▁슬라	-7271
▁라스트	-7272
▁경호	-7273
▁후임	-7274
키리	-7275
더라	-7276
ET	-7277
▁약물	-7278
▁LIVE	-7279
렉션	-7280
▁전생	-7281
▁끓	-7282
▁쓰리	-7283
▁버스트	-7284
▁키보드	-7285
way	-7286
▁SF	-7287
▁마카	-7288
▁짐작	-7289
쿠라	-7290
▁탭	-7291
사기	-7292
▁카더라	-7293
▁결제	-7294
▁전남	-7295
사리	-7296
▁유혹	-7297
▁나아지	-7298
▁얽	-7299
▁표면	-7300
▁끌리	-7301
▁드레스	-7302
▁선장	-7303
▁조상	-7304
▁배출	-7305
▁185	-7306
▁흡사	-7307
▁극히	-7308
▁지력	-7309
▁후반기	-7310
ple	-7311
▁침대	-7312
▁구조물	-7313
▁ㅅㅕ	-7314
▁Day	-7315
▁유전자	-7316
▁김해	-7317
▁엽	-7318
타카	-7319
▁근접전	-7320
▁샬	-7321
▁논쟁	-7322
▁Fr	-7323
▁태클	-7324
▁토하	-7325
▁1983	-7326
▁도리	-7327
▁당기	-7328
▁기호	-7329
▁실시간	-7330
▁설령	-7331
▁진상	-7332
▁경북	-7333
▁패밀리	-7334
▁정석	-7335
▁낙선	-7336
▁감수	-7337
▁마피아	-7338
▁차갑	-7339
▁좌절	-7340
▁동속	-7341
▁강사	-7342
▁니혼	-7343
▁are	-7344
▁합동	-7345
▁페리	-7346
▁창설	-7347
▁매니아	-7348
▁간간히	-7349
▁스타디	-7350
숭이	-7351
▁로보	-7352
▁비극	-7353
▁비비	-7354
▁119	-7355
노리	-7356
▁쏠	-7357
▁포획	-7358
▁물체	-7359
▁울트라맨	-7360
▁돋보이	-7361
▁do	-7362
▁nd	-7363
▁역임	-7364
ype	-7365
ens	-7366
▁집권	-7367
▁원형	-7368
▁DPS	-7369
▁낭비	-7370
▁백화점	-7371
▁성배	-7372
▁시온	-7373
▁중상	-7374
▁lv	-7375
▁조르	-7376
▁사무소	-7377
▁전날	-7378
▁{{{#	-7379
▁다투	-7380
▁가두	-7381
▁거스	-7382
aster	-7383
▁범용	-7384
▁MB	-7385
▁빌딩	-7386
▁정교	-7387
orn	-7388
ork	-7389
▁손오공	-7390
▁명목	-7391
▁튼튼	-7392
▁소모량	-7393
▁특공	-7394
▁홀리	-7395
▁해병대	-7396
▁연구원	-7397
▁페어	-7398
▁구동	-7399
▁피로	-7400
▁퀵	-7401
▁출혈	-7402
▁마트	-7403
▁오지	-7404
▁엄격	-7405
▁동남	-7406
▁123	-7407
사이	-7408
▁미궁	-7409
▁변태	-7410
▁의장	-7411
▁따라오	-7412
▁공감	-7413
▁104	-7414
▁한반도	-7415
▁위로	-7416
▁사악	-7417
▁콘솔	-7418
▁삼각	-7419
▁베어스	-7420
11	-7421
▁헤르	-7422
스티벌	-7423
▁지선	-7424
▁페스티벌	-7425
▁질병	-7426
▁생체	-7427
▁수직	-7428
▁부스트	-7429
▁호남	-7430
▁대타	-7431
▁베테랑	-7432
▁땡	-7433
▁배제	-7434
ans	-7435
▁질주	-7436
▁Ad	-7437
▁미미	-7438
▁Up	-7439
▁스태프	-7440
▁DP	-7441
▁하인	-7442
▁109	-7443
▁Wi	-7444
▁데이비드	-7445
▁복원	-7446
▁젖	-7447
▁강렬	-7448
▁제치	-7449
ons	-7450
▁ㅅㅕㄴ	-7451
▁동행	-7452
▁관측	-7453
▁바나	-7454
▁Sw	-7455
▁양반	-7456
▁넘어오	-7457
▁오메가	-7458
▁실상	-7459
우트	-7460
▁AA	-7461
▁직선	-7462
▁스즈키	-7463
▁빨간색	-7464
▁래퍼	-7465
▁OVA	-7466
▁공대	-7467
▁개국	-7468
▁엑시즈	-7469
▁제물	-7470
▁단행본	-7471
버그	-7472
▁탐색	-7473
▁본토	-7474
▁특별시	-7475
▁style	-7476
ey	-7477
▁우측	-7478
▁쌀	-7479
▁에서	-7480
▁진급	-7481
▁케이블	-7482
▁거칠	-7483
▁KOF	-7484
▁토요	-7485
▁쨩	-7486
▁도깨비	-7487
▁디펜	-7488
▁페미니	-7489
▁전락	-7490
▁약자	-7491
very	-7492
▁스플	-7493
▁닷	-7494
▁관여	-7495
▁sp	-7496
▁되돌	-7497
▁라그나	-7498
▁센트	-7499
▁블로	-7500
▁리코	-7501
▁장성	-7502
▁밀려나	-7503
▁브레이커	-7504
▁선조	-7505
▁광기	-7506
▁무실	-7507
▁손쉽	-7508
▁거론	-7509
▁메일	-7510
▁세금	-7511
▁ㅇㅡㄹㅅㅜ	-7512
▁앰	-7513
▁연쇄	-7514
▁ES	-7515
▁여의	-7516
▁ㅈㅠ	-7517
▁우호	-7518
▁아스카	-7519
▁잉여	-7520
▁메리트	-7521
▁변동	-7522
차기	-7523
NA	-7524
ex	-7525
ung	-7526
▁마타	-7527
▁스와	-7528
▁고무	-7529
▁총합	-7530
▁본관	-7531
▁III	-7532
▁스테이션	-7533
▁엇	-7534
공항	-7535
▁앗	-7536
▁친절	-7537
▁땅볼	-7538
▁논문	-7539
▁한창	-7540
▁코토	-7541
▁인재	-7542
▁유탄	-7543
▁바둑	-7544
▁백업	-7545
▁워싱턴	-7546
렉스	-7547
▁군수	-7548
▁오노	-7549
▁해양	-7550
타입	-7551
▁촉수	-7552
▁히로시	-7553
▁전격	-7554
▁긁	-7555
▁훼손	-7556
박스	-7557
▁UEFA	-7558
▁위엄	-7559
ㄱㅜㄴ	-7560
▁그랑	-7561
▁수비수	-7562
▁그러다가	-7563
브라	-7564
▁단발	-7565
▁명문	-7566
▁하급	-7567
▁자네	-7568
▁축소	-7569
▁대박	-7570
▁장애물	-7571
▁마술사	-7572
▁리모	-7573
▁카를	-7574
EM	-7575
나기	-7576
▁응용	-7577
▁중지	-7578
▁민주주의	-7579
능력	-7580
▁프리미어	-7581
▁벅	-7582
▁형편	-7583
▁어색	-7584
▁박살내	-7585
▁에이지	-7586
▁구장	-7587
▁돌보	-7588
▁재학	-7589
▁성실	-7590
께끼	-7591
▁수수께끼	-7592
▁마오	-7593
▁취업	-7594
▁스타디움	-7595
▁치카	-7596
▁RA	-7597
▁스위스	-7598
▁할로	-7599
▁강호	-7600
▁!"	-7601
ll	-7602
▁최저	-7603
▁역량	-7604
▁안쪽	-7605
▁구성원	-7606
▁바르셀	-7607
anc	-7608
▁as	-7609
▁확산	-7610
▁바르셀로나	-7611
▁데빌	-7612
▁고스	-7613
▁중고	-7614
▁창문	-7615
▁미지	-7616
▁짙	-7617
▁우회	-7618
AK	-7619
▁리퍼	-7620
▁트윈스	-7621
▁징역	-7622
▁노란색	-7623
▁초콜릿	-7624
▁겜	-7625
▁츠카	-7626
▁유망주	-7627
▁Windows	-7628
▁제왕	-7629
▁노가다	-7630
▁딸리	-7631
▁역명	-7632
▁워크	-7633
체스터	-7634
▁소니	-7635
▁메카닉	-7636
▁썸	-7637
▁빈도	-7638
▁렉스	-7639
▁깃발	-7640
▁코바	-7641
▁no	-7642
▁인자	-7643
▁카카오	-7644
▁이현	-7645
▁공통점	-7646
▁강등	-7647
▁천연	-7648
▁윈도우	-7649
▁키미	-7650
▁원피스	-7651
▁en	-7652
▁대행	-7653
▁여타	-7654
▁과자	-7655
▁퇴각	-7656
▁경상북도	-7657
▁불쌍	-7658
누스	-7659
▁온도	-7660
▁굴욕	-7661
▁책임지	-7662
▁산타	-7663
▁부작용	-7664
▁란스	-7665
▁분산	-7666
▁힙합	-7667
▁티스	-7668
▁끌어올리	-7669
▁마유	-7670
▁껍	-7671
▁폴리	-7672
▁포터	-7673
▁최선	-7674
▁승차	-7675
▁유료	-7676
▁구독	-7677
▁레이디	-7678
▁봉쇄	-7679
▁농장	-7680
ero	-7681
▁나나	-7682
지막지	-7683
▁무지막지	-7684
▁우승자	-7685
35	-7686
argin	-7687
▁대령	-7688
▁엔지	-7689
▁통칭	-7690
▁수인	-7691
▁전당	-7692
▁대접	-7693
▁취득	-7694
▁이병	-7695
▁스미스	-7696
▁드래곤볼	-7697
▁관우	-7698
▁동반	-7699
▁스노우	-7700
▁터트리	-7701
▁젬	-7702
모스	-7703
▁올드	-7704
▁187	-7705
▁시상식	-7706
▁루프	-7707
루미	-7708
oss	-7709
▁발판	-7710
▁파도	-7711
▁클린	-7712
▁평하	-7713
▁이대로	-7714
▁Ph	-7715
▁So	-7716
▁그립	-7717
▁츠바	-7718
▁Qu	-7719
▁화산	-7720
▁LO	-7721
▁성씨	-7722
벤처	-7723
▁Station	-7724
▁어드벤처	-7725
▁챔프	-7726
▁어벤	-7727
▁발키리	-7728
▁발행	-7729
동자	-7730
▁천천	-7731
▁규제	-7732
▁국무	-7733
▁로맨	-7734
▁크레이	-7735
▁레이어	-7736
▁다이스	-7737
▁손님	-7738
▁원시	-7739
▁margin	-7740
▁머니	-7741
▁진에	-7742
▁블레이	-7743
▁번지	-7744
▁결혼식	-7745
▁오스만	-7746
니시	-7747
▁공산당	-7748
▁대전차	-7749
▁잔인	-7750
▁급행	-7751
▁ML	-7752
▁공단	-7753
▁멍청	-7754
▁135	-7755
▁빙판	-7756
99	-7757
▁카마	-7758
▁강간	-7759
▁톡	-7760
▁후드	-7761
▁가난	-7762
▁요한	-7763
pt	-7764
▁매드	-7765
▁변이	-7766
▁평양	-7767
▁큰	-7768
▁씌우	-7769
▁210	-7770
▁침투	-7771
▁121	-7772
▁겔	-7773
▁표절	-7774
▁신중	-7775
▁황후	-7776
▁사족	-7777
▁손꼽	-7778
▁저렇	-7779
▁렘	-7780
구장	-7781
ise	-7782
▁잊히	-7783
▁아베	-7784
▁와인	-7785
▁외우	-7786
▁타치	-7787
▁주사위	-7788
▁검열	-7789
▁미오	-7790
군가	-7791
베이터	-7792
▁와이번	-7793
▁사로	-7794
▁인과	-7795
▁쿵	-7796
▁아깝	-7797
▁여포	-7798
▁카리스	-7799
▁스케일	-7800
▁세리	-7801
▁수지	-7802
▁피카	-7803
▁예약	-7804
▁경연	-7805
ical	-7806
▁소재지	-7807
▁107	-7808
▁선출	-7809
▁개척	-7810
▁블리자드	-7811
▁천천히	-7812
네마	-7813
▁목걸이	-7814
구미	-7815
▁게이머	-7816
▁쯔	-7817
▁이라크	-7818
▁특훈	-7819
▁누군가	-7820
▁뮌	-7821
셔널	-7822
▁스택	-7823
▁스타리그	-7824
▁Ver	-7825
▁시사	-7826
▁강민	-7827
▁김수	-7828
▁난무	-7829
▁쇄	-7830
▁미국인	-7831
▁어나	-7832
▁왼손	-7833
▁주체	-7834
▁케빈	-7835
▁의외로	-7836
▁여섯	-7837
▁열혈	-7838
▁1981	-7839
▁캄	-7840
▁--	-7841
▁호크	-7842
▁강경	-7843
▁끊임없이	-7844
▁신동	-7845
▁시외버스	-7846
▁페어리	-7847
▁마인드	-7848
▁꿈꾸	-7849
▁간지	-7850
▁이순	-7851
▁타츠	-7852
▁사체	-7853
▁MG	-7854
▁지수	-7855
▁엔트리	-7856
▁불태우	-7857
모함	-7858
▁조종사	-7859
▁인칭	-7860
▁부재	-7861
▁패자	-7862
리스타	-7863
▁기부	-7864
▁덤비	-7865
▁요미	-7866
▁그레이트	-7867
▁감탄	-7868
▁광물	-7869
▁끌어들이	-7870
▁명분	-7871
▁어나더	-7872
▁제재	-7873
▁퍼스트	-7874
다운	-7875
▁주관	-7876
▁워프	-7877
▁프랑스어	-7878
▁pl	-7879
▁답답	-7880
▁소통	-7881
▁사수	-7882
▁사관	-7883
베리	-7884
▁중거리	-7885
루션	-7886
ign	-7887
▁슌	-7888
▁김지	-7889
테이션	-7890
▁점검	-7891
▁혈통	-7892
하루	-7893
▁지오	-7894
스레	-7895
▁모니터	-7896
▁대성	-7897
▁교토	-7898
▁고시	-7899
▁마일	-7900
▁압권	-7901
▁스티븐	-7902
▁기리	-7903
▁알바	-7904
▁첫째	-7905
▁소금	-7906
▁이경	-7907
gh	-7908
▁맞붙	-7909
▁무용	-7910
▁선진	-7911
▁서식	-7912
▁토지	-7913
게이머	-7914
▁프로게이머	-7915
▁자존	-7916
▁냉정	-7917
▁트윗	-7918
▁모델링	-7919
▁폭스	-7920
▁경찰서	-7921
▁엄연히	-7922
▁이노	-7923
▁스컬	-7924
▁파랗	-7925
▁미정	-7926
▁첸	-7927
어드	-7928
▁너머	-7929
▁루리	-7930
▁love	-7931
▁김승	-7932
▁미러	-7933
▁점유	-7934
▁철갑	-7935
▁동해	-7936
▁물어	-7937
▁출간	-7938
▁EC	-7939
▁레인지	-7940
▁평론	-7941
▁프론	-7942
▁해산	-7943
▁사사	-7944
▁폭격기	-7945
▁공격수	-7946
▁ㄷㅚ	-7947
▁자제	-7948
▁헷갈리	-7949
▁흙	-7950
센스	-7951
▁오죽	-7952
▁러스	-7953
▁레시	-7954
테일	-7955
▁중위	-7956
▁임의	-7957
▁쫒	-7958
▁망토	-7959
IR	-7960
▁구별	-7961
▁아스트	-7962
▁하여	-7963
▁TR	-7964
▁맹세	-7965
ail	-7966
▁플랜	-7967
urn	-7968
▁친분	-7969
▁연산	-7970
▁중동	-7971
▁장타	-7972
▁보좌	-7973
▁내버리	-7974
▁math	-7975
▁리나	-7976
▁크라이	-7977
▁외곽	-7978
▁페스	-7979
바나	-7980
▁날아다니	-7981
▁ㅇㅡㄴㅈㅣ	-7982
▁Sk	-7983
으로	-7984
▁라이즈	-7985
▁어이없	-7986
▁주최	-7987
▁용자	-7988
▁도어	-7989
▁왜냐하면	-7990
▁본능	-7991
▁비기	-7992
▁질서	-7993
▁열정	-7994
▁풍부	-7995
▁화상	-7996
▁이대	-7997
▁186	-7998
▁재개	-7999
▁고집	-8000
▁고사	-8001
▁개교	-8002
▁실사	-8003
▁마산	-8004
▁JTBC	-8005
▁납득	-8006
▁카레	-8007
ence	-8008
▁항공모함	-8009
▁그릇	-8010
▁쉴드	-8011
▁영감	-8012
▁동정	-8013
▁상무	-8014
▁하나하나	-8015
▁To	-8016
추어	-8017
▁불능	-8018
▁유니버스	-8019
민주	-8020
VER	-8021
▁유입	-8022
▁크래프트	-8023
▁="	-8024
▁시타	-8025
▁지부	-8026
틀랜드	-8027
▁사퇴	-8028
▁사무실	-8029
▁Super	-8030
▁변장	-8031
▁우울	-8032
▁스폰서	-8033
▁트릴	-8034
▁라이언	-8035
▁고속도로	-8036
▁122	-8037
▁초능력	-8038
▁기스	-8039
▁웜	-8040
▁광경	-8041
▁뉘	-8042
▁공속	-8043
▁찬성	-8044
의자	-8045
▁정신력	-8046
▁BJ	-8047
▁비리	-8048
▁작정	-8049
▁광명	-8050
▁확신	-8051
▁벙커	-8052
▁유연	-8053
바지	-8054
▁국제공항	-8055
▁어설	-8056
▁박성	-8057
▁Dream	-8058
이동	-8059
▁검정	-8060
▁근대	-8061
▁올바르	-8062
▁히틀러	-8063
▁멋대로	-8064
▁우마	-8065
라미	-8066
▁김유	-8067
▁엘리베이터	-8068
▁박수	-8069
▁에디션	-8070
▁리틀	-8071
▁몸통	-8072
▁인벤	-8073
▁삼성전자	-8074
▁코노	-8075
▁까마	-8076
▁기본기	-8077
▁템플	-8078
▁꺼리	-8079
▁하치	-8080
▁스가	-8081
▁애칭	-8082
▁닦	-8083
▁갑작스럽	-8084
▁중점	-8085
▁토트	-8086
▁LE	-8087
▁장례	-8088
▁극대	-8089
▁1979	-8090
▁평상	-8091
▁출범	-8092
▁원숭이	-8093
▁법사	-8094
▁로키	-8095
▁슈퍼맨	-8096
배우	-8097
▁다지	-8098
▁체결	-8099
ier	-8100
▁김포	-8101
▁변명	-8102
▁에버	-8103
▁까지	-8104
▁아쿠아	-8105
▁총장	-8106
▁타구	-8107
이나	-8108
▁마모	-8109
▁카자	-8110
▁엘레	-8111
▁홋	-8112
▁일가	-8113
▁마라	-8114
▁can	-8115
▁EXP	-8116
▁카쿠	-8117
▁춥	-8118
▁145	-8119
▁투쟁	-8120
▁쳐들어	-8121
▁유치원	-8122
▁곡인	-8123
▁민국	-8124
▁출산	-8125
ble	-8126
▁워리어	-8127
▁만능	-8128
▁청구	-8129
▁할리	-8130
▁쿠마	-8131
▁노무	-8132
▁이어받	-8133
▁비키	-8134
▁조카	-8135
▁만주	-8136
▁슬픔	-8137
▁모임	-8138
▁퍽	-8139
▁부근	-8140
▁카네	-8141
▁도색	-8142
▁유격수	-8143
▁닥치	-8144
▁워즈	-8145
▁실현	-8146
▁블럭	-8147
IX	-8148
▁ㄱㅜㄴㅇㅛ	-8149
▁이누	-8150
▁창작물	-8151
▁무제	-8152
oun	-8153
▁재앙	-8154
▁부스	-8155
▁테이블	-8156
▁아처	-8157
▁브라더스	-8158
▁NO	-8159
▁롤러	-8160
▁부천	-8161
▁헬멧	-8162
워즈	-8163
▁매주	-8164
▁방심	-8165
▁후일	-8166
▁113	-8167
▁무실점	-8168
▁아지	-8169
▁히스	-8170
▁학급	-8171
▁가이드	-8172
▁브라이언	-8173
▁암호	-8174
▁IM	-8175
▁신지	-8176
▁튜버	-8177
▁Ap	-8178
▁고등학생	-8179
▁쿠니	-8180
▁씨앗	-8181
▁철저히	-8182
역사	-8183
▁검증	-8184
▁풍선	-8185
▁165	-8186
▁펭	-8187
이치로	-8188
▁항모	-8189
▁기차	-8190
iver	-8191
▁헝가리	-8192
▁1950	-8193
▁복사	-8194
▁마운	-8195
▁스쿼	-8196
▁니아	-8197
▁이이	-8198
▁엉망	-8199
▁왕복	-8200
▁터보	-8201
▁몰살	-8202
▁달려들	-8203
ott	-8204
▁각인	-8205
▁그러면	-8206
▁알레	-8207
▁케이크	-8208
▁인접	-8209
▁리가	-8210
▁손자	-8211
▁포탈	-8212
▁부시	-8213
▁글씨	-8214
▁호러	-8215
▁IT	-8216
▁144	-8217
▁사투	-8218
▁카지	-8219
▁병역	-8220
▁명사	-8221
▁사연	-8222
▁엄밀히	-8223
▁제니	-8224
▁넬	-8225
리안	-8226
▁이카	-8227
▁인성	-8228
▁운송	-8229
▁상주	-8230
▁155	-8231
지르	-8232
페라	-8233
▁레이블	-8234
▁유우키	-8235
▁매트	-8236
▁절친	-8237
▁옥상	-8238
▁ATK	-8239
▁at	-8240
▁쿠데	-8241
▁쫓겨나	-8242
▁간섭	-8243
▁화폐	-8244
▁통째	-8245
▁CM	-8246
▁세로	-8247
▁아무튼	-8248
▁죄책	-8249
▁생김	-8250
▁승인	-8251
▁조국	-8252
슬라	-8253
▁알아채	-8254
▁시뮬	-8255
▁동전	-8256
▁품질	-8257
eah	-8258
▁사로잡	-8259
▁현금	-8260
▁젼	-8261
아들	-8262
▁연수	-8263
▁연전	-8264
uck	-8265
▁방학	-8266
▁영양	-8267
▁Max	-8268
진호	-8269
▁흩어지	-8270
▁114	-8271
▁마음대로	-8272
▁제리	-8273
페이	-8274
폭탄	-8275
▁일곱	-8276
▁츤	-8277
▁오니	-8278
▁목사	-8279
▁독일어	-8280
▁거지	-8281
▁유재석	-8282
▁엔지니어	-8283
▁천장	-8284
▁상금	-8285
▁우연	-8286
▁깊이	-8287
▁입문	-8288
▁BD	-8289
ode	-8290
▁햇	-8291
▁비우	-8292
▁함락	-8293
▁양식	-8294
▁사나	-8295
▁ERA	-8296
▁집회	-8297
▁마당	-8298
코트	-8299
▁레나	-8300
▁죄책감	-8301
▁아오이	-8302
II	-8303
▁바쿠	-8304
▁스나이퍼	-8305
oh	-8306
▁원전	-8307
▁this	-8308
▁아자	-8309
▁동대	-8310
▁뮌헨	-8311
자치	-8312
▁너스	-8313
▁현자	-8314
▁이놈	-8315
▁히카	-8316
▁샐	-8317
▁뱅가드	-8318
▁호드	-8319
▁솟	-8320
▁유메	-8321
▁시크릿	-8322
▁미르	-8323
▁수위	-8324
야시	-8325
▁페르소	-8326
▁스틱	-8327
▁다큐	-8328
▁유카	-8329
▁기동력	-8330
▁화해	-8331
▁혁신	-8332
▁쿠스	-8333
▁승진	-8334
▁리본	-8335
▁호의	-8336
▁개구리	-8337
▁스티브	-8338
▁감자	-8339
▁초록색	-8340
▁부패	-8341
▁용암	-8342
네시아	-8343
▁토대	-8344
가루	-8345
끼리	-8346
▁성경	-8347
▁손꼽히	-8348
▁이케	-8349
▁할로윈	-8350
▁스카우트	-8351
▁시모	-8352
▁전향	-8353
▁참사	-8354
▁정문	-8355
▁멧	-8356
▁종결	-8357
▁스피어	-8358
▁최순	-8359
▁코스프레	-8360
▁고아	-8361
▁궁합	-8362
▁러쉬	-8363
주교	-8364
▁전동차	-8365
▁녹화	-8366
▁오렌	-8367
▁미성	-8368
▁티저	-8369
▁원장	-8370
▁시게	-8371
▁750	-8372
▁맞히	-8373
▁..!	-8374
▁깨끗	-8375
▁한나라	-8376
▁친애	-8377
▁메트로	-8378
▁만점	-8379
▁사무라이	-8380
▁GK	-8381
▁아드	-8382
▁from	-8383
▁아이디어	-8384
▁아리아	-8385
▁정반대	-8386
▁한나라당	-8387
▁HE	-8388
케이션	-8389
▁ne	-8390
▁자율	-8391
▁은폐	-8392
▁대위	-8393
▁평행	-8394
▁흑마	-8395
변이	-8396
▁돌연변이	-8397
▁디자이너	-8398
▁떨치	-8399
▁잭슨	-8400
▁토우	-8401
▁미인	-8402
▁말씀	-8403
▁협의	-8404
▁???	-8405
bs	-8406
int	-8407
▁OS	-8408
▁도약	-8409
떨어지	-8410
▁교과서	-8411
▁나이프	-8412
▁페르소나	-8413
▁필리핀	-8414
▁메이지	-8415
▁항해	-8416
▁뺏기	-8417
▁기후	-8418
▁이력	-8419
▁자칭	-8420
▁풍기	-8421
▁실체	-8422
▁오퍼	-8423
▁정성	-8424
▁저글	-8425
▁적절히	-8426
▁유전	-8427
▁지분	-8428
▁합작	-8429
▁충족	-8430
▁다니엘	-8431
▁흡혈귀	-8432
▁450	-8433
▁tr	-8434
▁갯	-8435
▁NBA	-8436
▁이스트	-8437
▁진에어	-8438
▁Season	-8439
항공	-8440
운동	-8441
▁AB	-8442
▁스매	-8443
▁마에	-8444
▁이틀	-8445
▁종영	-8446
▁동서	-8447
▁좌측	-8448
▁파스	-8449
▁부러지	-8450
▁치안	-8451
▁에미	-8452
▁학문	-8453
▁자이언트	-8454
▁트래	-8455
itt	-8456
▁중원	-8457
▁리사	-8458
IL	-8459
크리	-8460
▁여단	-8461
▁지혜	-8462
▁브론	-8463
ose	-8464
▁욕설	-8465
▁시골	-8466
▁임하	-8467
▁일관	-8468
▁서류	-8469
▁가위	-8470
▁가담	-8471
▁찔	-8472
직자	-8473
▁내기	-8474
느리	-8475
▁얼티	-8476
▁피자	-8477
▁학대	-8478
▁new	-8479
▁스타트	-8480
▁{{{-	-8481
▁이태	-8482
▁침착	-8483
▁저기	-8484
▁바이올	-8485
▁억울	-8486
▁히드라	-8487
▁입증	-8488
▁레코드	-8489
▁흘러가	-8490
▁ㅅㅑ	-8491
▁EXT	-8492
▁계층	-8493
▁헥	-8494
▁각지	-8495
▁매달리	-8496
▁얇	-8497
철도	-8498
▁협정	-8499
▁외국어	-8500
▁분홍	-8501
▁우루	-8502
▁스쿼드	-8503
▁포병	-8504
▁마기	-8505
▁La	-8506
렉터	-8507
▁물자	-8508
▁존중	-8509
▁해소	-8510
▁소생	-8511
▁덮치	-8512
▁감당	-8513
▁Im	-8514
▁달아나	-8515
▁EZ	-8516
▁추후	-8517
▁잔혹	-8518
▁314	-8519
▁베이징	-8520
▁함장	-8521
므로	-8522
탐정	-8523
▁카테	-8524
▁밀도	-8525
reat	-8526
▁고의	-8527
▁무도	-8528
▁아케이드	-8529
▁미아	-8530
▁강릉	-8531
▁로스트	-8532
▁나이츠	-8533
▁초상	-8534
▁고고	-8535
▁저글링	-8536
▁툰	-8537
슈타인	-8538
은색	-8539
▁녹이	-8540
▁Con	-8541
▁Vol	-8542
▁격려	-8543
▁카리스마	-8544
▁나인	-8545
▁대동	-8546
▁갈색	-8547
▁유스	-8548
▁부원	-8549
▁스탈	-8550
▁124	-8551
지능	-8552
▁학년도	-8553
▁인공지능	-8554
▁스파이더맨	-8555
▁이오	-8556
▁Sch	-8557
▁에메	-8558
▁가오	-8559
철수	-8560
▁신곡	-8561
마루	-8562
▁강타	-8563
▁잼	-8564
▁시어	-8565
▁점멸	-8566
▁존스	-8567
▁대세	-8568
▁부유	-8569
▁Ed	-8570
▁피지컬	-8571
▁극한	-8572
부키	-8573
▁면하	-8574
나베	-8575
▁rd	-8576
▁주석	-8577
▁스타즈	-8578
▁판도	-8579
▁출판사	-8580
ube	-8581
▁황당	-8582
ㅁㅏㄹㄹㅗ	-8583
우라	-8584
▁기울이	-8585
▁Girl	-8586
▁워터	-8587
▁민간인	-8588
▁점심	-8589
▁ㅊㅣ	-8590
▁물약	-8591
▁밀레	-8592
바이트	-8593
▁강전	-8594
▁힘입	-8595
▁과금	-8596
▁압력	-8597
▁정사	-8598
▁펌프	-8599
▁디아블로	-8600
▁ㅁㅗㄴ	-8601
▁세자	-8602
워프	-8603
▁ld	-8604
▁RE	-8605
▁표적	-8606
▁부속	-8607
슬리	-8608
▁대변	-8609
▁배구	-8610
▁대검	-8611
▁Night	-8612
▁라마	-8613
▁그러므로	-8614
방송	-8615
▁그쪽	-8616
▁USB	-8617
▁압축	-8618
▁이빨	-8619
▁183	-8620
ition	-8621
ari	-8622
▁뚱	-8623
▁어서	-8624
usic	-8625
▁괴인	-8626
▁벌써	-8627
▁퀴즈	-8628
▁예의	-8629
▁ㄷㅔ	-8630
▁산맥	-8631
오피스	-8632
▁애완	-8633
▁생김새	-8634
▁마틴	-8635
▁빙결	-8636
msys	-8637
▁후유	-8638
▁ldmsys	-8639
업자	-8640
▁법무	-8641
▁씻	-8642
▁다시금	-8643
▁일지	-8644
▁노아	-8645
▁테스	-8646
▁내역	-8647
▁마하	-8648
▁키요	-8649
▁152	-8650
▁망설	-8651
▁하지	-8652
15	-8653
▁동구	-8654
▁중견	-8655
▁병살	-8656
▁제노	-8657
▁경부	-8658
▁보스턴	-8659
ㅆㅇㅓㅆ	-8660
▁기껏	-8661
▁소소	-8662
▁레이싱	-8663
▁퇴치	-8664
ats	-8665
▁리버스	-8666
▁TS	-8667
▁지로	-8668
▁출동	-8669
▁대차	-8670
▁데몬	-8671
▁김주	-8672
▁연설	-8673
▁마케팅	-8674
▁덩어리	-8675
▁..?	-8676
른바	-8677
▁스탭	-8678
▁재건	-8679
▁발사기	-8680
리얼	-8681
▁이른바	-8682
▁아카네	-8683
▁1200	-8684
▁만렙	-8685
▁자존심	-8686
▁Black	-8687
▁노무현	-8688
▁도대	-8689
▁집계	-8690
▁박스오피스	-8691
▁BC	-8692
▁골프	-8693
▁이소	-8694
시오	-8695
▁기질	-8696
▁도덕	-8697
▁토마스	-8698
▁모형	-8699
사랑	-8700
▁자책점	-8701
▁로프	-8702
▁박진	-8703
▁사촌	-8704
▁선동	-8705
▁182	-8706
▁주축	-8707
▁무녀	-8708
▁WC	-8709
▁농업	-8710
▁디오	-8711
▁장벽	-8712
▁Bo	-8713
▁NH	-8714
13	-8715
▁모종	-8716
▁포착	-8717
▁휩쓸	-8718
▁자아	-8719
시대	-8720
▁바텀	-8721
▁서리	-8722
세지	-8723
▁들여	-8724
▁철도역	-8725
▁귀국	-8726
yn	-8727
▁ver	-8728
▁일렉	-8729
▁천상	-8730
▁문양	-8731
▁카게	-8732
▁절벽	-8733
▁원판	-8734
▁통솔	-8735
▁등극	-8736
▁억제	-8737
▁유진	-8738
▁남동생	-8739
▁레아	-8740
▁구상	-8741
▁발레	-8742
▁연동	-8743
토니	-8744
▁127	-8745
▁드워프	-8746
▁각도	-8747
▁Let	-8748
▁마도카	-8749
▁킴	-8750
▁그레이드	-8751
▁불길	-8752
▁리처	-8753
▁상냥	-8754
▁애인	-8755
▁머물	-8756
▁이원	-8757
▁관장	-8758
▁부끄럽	-8759
▁이윤	-8760
▁적시타	-8761
▁not	-8762
app	-8763
▁교차로	-8764
당초	-8765
▁오른손	-8766
▁탄핵	-8767
▁모스크	-8768
▁현황	-8769
▁발명	-8770
▁리바	-8771
▁모빌	-8772
▁뛰어들	-8773
▁앓	-8774
▁회관	-8775
▁도배	-8776
▁솔저	-8777
▁DM	-8778
▁MM	-8779
▁토라	-8780
▁아담	-8781
▁서울대	-8782
▁쿠데타	-8783
▁118	-8784
▁그란	-8785
▁타이어	-8786
▁왕실	-8787
려워하	-8788
▁라인하르트	-8789
DD	-8790
▁뻘	-8791
▁제발	-8792
▁협동	-8793
▁봉사	-8794
▁육상	-8795
▁발급	-8796
▁사치	-8797
▁스크롤	-8798
▁얄	-8799
▁왕비	-8800
▁아마추어	-8801
▁퓨전	-8802
▁프랜	-8803
▁원주민	-8804
▁스토어	-8805
▁베를	-8806
▁용산	-8807
ough	-8808
▁벗기	-8809
▁섬광	-8810
▁돌려주	-8811
타이	-8812
▁착륙	-8813
▁OG	-8814
▁방사능	-8815
▁사방	-8816
▁향후	-8817
▁184	-8818
▁불러오	-8819
▁까마귀	-8820
▁아포	-8821
▁전담	-8822
▁라미	-8823
▁쿄코	-8824
▁하사	-8825
▁피오	-8826
▁지장	-8827
▁환생	-8828
▁SSR	-8829
▁Am	-8830
▁챔스	-8831
▁서열	-8832
gr	-8833
▁여태	-8834
▁시안	-8835
▁뤼	-8836
▁시시	-8837
▁Op	-8838
▁학사	-8839
▁얼리	-8840
▁숙소	-8841
▁다스리	-8842
▁다카	-8843
▁반성	-8844
▁Str	-8845
▁얌	-8846
▁Col	-8847
▁AF	-8848
▁도대체	-8849
▁지루	-8850
▁베스	-8851
▁밀리언	-8852
▁잎	-8853
▁정밀	-8854
▁선박	-8855
▁입시	-8856
▁행진	-8857
▁박자	-8858
▁퍼펙트	-8859
ye	-8860
▁우두	-8861
▁이무	-8862
▁이별	-8863
▁GM	-8864
▁인피니티	-8865
▁청춘	-8866
▁민폐	-8867
▁노랗	-8868
▁어그	-8869
▁미녀	-8870
▁서적	-8871
▁옴	-8872
▁000000	-8873
▁시오	-8874
ㄲㅡㅁ	-8875
▁교도소	-8876
▁컴뱃	-8877
▁프롤	-8878
▁루마	-8879
어트	-8880
▁유가	-8881
▁큐어	-8882
▁팔라	-8883
▁필름	-8884
▁실용	-8885
▁욕심	-8886
▁얽히	-8887
▁달려오	-8888
▁보우	-8889
▁루미	-8890
▁Mag	-8891
CE	-8892
▁화기	-8893
▁그간	-8894
▁잠기	-8895
▁강인	-8896
▁아수	-8897
▁싱가	-8898
▁싱가포르	-8899
iel	-8900
▁카리	-8901
▁카피	-8902
▁리자	-8903
▁지크	-8904
▁스로	-8905
▁조화	-8906
▁편리	-8907
▁갱신	-8908
▁춤추	-8909
▁스타워즈	-8910
▁브래	-8911
▁친척	-8912
▁취재	-8913
▁금발	-8914
▁승패	-8915
▁직책	-8916
▁툭	-8917
▁김치	-8918
▁모순	-8919
▁주공	-8920
▁선원	-8921
▁오렌지	-8922
▁테리	-8923
▁건지	-8924
▁마을버스	-8925
무지	-8926
▁스네	-8927
▁화신	-8928
▁아무렇	-8929
▁일일	-8930
▁시호	-8931
▁AV	-8932
▁흥분	-8933
▁탐사	-8934
▁욱	-8935
▁발각	-8936
▁침몰	-8937
▁1978	-8938
▁이진	-8939
▁모나	-8940
ull	-8941
vel	-8942
▁어벤져	-8943
▁전송	-8944
▁스카웃	-8945
▁과일	-8946
▁아슬	-8947
▁한꺼	-8948
▁한꺼번에	-8949
▁AL	-8950
▁폴아웃	-8951
▁섬멸	-8952
▁우미	-8953
▁전지	-8954
▁이계	-8955
▁김광	-8956
▁완화	-8957
▁경전	-8958
프리카	-8959
▁스기	-8960
▁안무	-8961
▁흑역사	-8962
▁오다	-8963
▁군부	-8964
▁오토바이	-8965
서스	-8966
▁마야	-8967
▁정답	-8968
▁보강	-8969
▁쿠사	-8970
▁흑막	-8971
▁중구	-8972
▁일어	-8973
▁시간대	-8974
▁대역	-8975
▁천국	-8976
헤이	-8977
ult	-8978
▁해운	-8979
▁토트넘	-8980
▁모욕	-8981
▁오즈	-8982
▁성명	-8983
▁178	-8984
▁구형	-8985
키스탄	-8986
▁아사히	-8987
▁리부	-8988
▁가구	-8989
▁컴백	-8990
▁CL	-8991
▁소나	-8992
▁용이	-8993
▁도르	-8994
▁민감	-8995
able	-8996
▁관문	-8997
▁능가	-8998
▁약혼	-8999
▁반경	-9000
바리	-9001
▁스텔스	-9002
마리	-9003
▁이단	-9004
▁호리	-9005
▁홋카이도	-9006
▁사와	-9007
▁치이	-9008
에른	-9009
▁1945	-9010
ject	-9011
▁반역	-9012
▁신관	-9013
소년	-9014
▁미소녀	-9015
▁수라	-9016
▁엣	-9017
구니	-9018
▁주머니	-9019
▁완공	-9020
▁인문	-9021
▁엉덩이	-9022
▁PK	-9023
▁스윙	-9024
▁경상남도	-9025
▁동계	-9026
▁카일	-9027
ㅡㅅ	-9028
▁최상급	-9029
▁모에	-9030
▁CE	-9031
▁등재	-9032
▁일체	-9033
▁그리핀	-9034
▁레버	-9035
18	-9036
▁라비	-9037
▁헬리	-9038
▁Co	-9039
▁cl	-9040
eth	-9041
▁강대	-9042
▁매각	-9043
▁소득	-9044
▁유즈	-9045
▁시카고	-9046
▁내밀	-9047
▁간판	-9048
▁직행	-9049
▁사직	-9050
▁에코	-9051
▁얼티밋	-9052
바람	-9053
▁적자	-9054
방울	-9055
▁오만	-9056
▁타카하시	-9057
▁신작	-9058
틀리	-9059
▁마수	-9060
▁저자	-9061
▁코레	-9062
▁시종	-9063
▁독백	-9064
▁베이비	-9065
▁테란	-9066
▁머스	-9067
▁울음	-9068
모습	-9069
▁부채	-9070
▁라이트닝	-9071
MAN	-9072
▁엘리자베스	-9073
▁플라스	-9074
▁정점	-9075
▁프레스	-9076
▁맛보	-9077
▁장남	-9078
▁약체	-9079
▁수아	-9080
▁명장	-9081
▁사탕	-9082
타리	-9083
▁패트	-9084
▁뻔하	-9085
▁요격	-9086
▁파운드	-9087
▁탈취	-9088
▁걸어가	-9089
▁스마일	-9090
▁매그	-9091
▁레시피	-9092
▁디스플레이	-9093
▁꺼지	-9094
속기	-9095
▁여주인	-9096
▁모음	-9097
기에	-9098
▁수천	-9099
▁카제	-9100
▁늪	-9101
▁금요일	-9102
▁눈앞	-9103
드러지	-9104
▁겟	-9105
▁불참	-9106
▁삼키	-9107
▁단자	-9108
▁마미	-9109
▁아랫	-9110
▁카사	-9111
▁노릇	-9112
▁오케	-9113
▁패왕	-9114
▁얹	-9115
▁바이에른	-9116
▁실적	-9117
▁무능	-9118
▁파고	-9119
스크림	-9120
▁Is	-9121
▁쿠리	-9122
▁Do	-9123
▁편의점	-9124
▁휴먼	-9125
▁도심	-9126
▁소마	-9127
▁대피	-9128
▁들르	-9129
▁밈	-9130
▁교리	-9131
▁TOP	-9132
▁BO	-9133
▁레이지	-9134
ild	-9135
▁도쿠	-9136
▁크로우	-9137
▁박정희	-9138
▁카이저	-9139
▁입사	-9140
▁욕망	-9141
▁한하	-9142
▁목욕	-9143
▁과시	-9144
▁애용	-9145
25	-9146
▁일러스트레이터	-9147
▁태풍	-9148
▁맨체스터	-9149
▁신한	-9150
파이	-9151
▁AFC	-9152
▁신하	-9153
▁가왕	-9154
▁그러다	-9155
니코	-9156
▁4000	-9157
▁시범	-9158
▁눈동자	-9159
▁평상시	-9160
▁함수	-9161
▁삽질	-9162
▁오공	-9163
생활	-9164
▁자사	-9165
▁곤충	-9166
▁스모	-9167
▁굶	-9168
▁진동	-9169
▁좌익	-9170
inal	-9171
러브	-9172
▁네크로	-9173
▁BGA	-9174
▁물려받	-9175
▁아이디	-9176
▁공신	-9177
▁무지개	-9178
▁케리	-9179
▁집사	-9180
▁김일	-9181
▁소집	-9182
▁남학생	-9183
▁이어서	-9184
▁웨폰	-9185
▁평론가	-9186
▁드루이드	-9187
▁맷집	-9188
아시아	-9189
▁SA	-9190
▁하이드	-9191
▁연이	-9192
▁단련	-9193
▁이쿠	-9194
▁타리	-9195
▁고가	-9196
도전	-9197
▁ME	-9198
▁돌려	-9199
▁가이아	-9200
쿠스	-9201
▁유아	-9202
▁냉장	-9203
▁보르	-9204
▁스파크	-9205
▁검토	-9206
▁정우	-9207
▁중소	-9208
▁Gaming	-9209
▁사천	-9210
▁징계	-9211
▁키노	-9212
▁하도	-9213
▁CR	-9214
▁유머	-9215
▁320	-9216
▁1973	-9217
▁선회	-9218
▁리볼	-9219
▁포크	-9220
▁명시	-9221
▁놔	-9222
▁달콤	-9223
▁아마존	-9224
▁아쉬움	-9225
▁초과	-9226
▁장본	-9227
▁마마	-9228
ings	-9229
▁이용자	-9230
▁GSL	-9231
▁모의	-9232
▁315	-9233
▁캡슐	-9234
▁성분	-9235
▁당초	-9236
▁숙련도	-9237
▁투고	-9238
▁컬렉션	-9239
▁Gl	-9240
▁장신구	-9241
DX	-9242
▁식스	-9243
트론	-9244
▁아르바이트	-9245
TA	-9246
▁무한도전	-9247
▁자력	-9248
▁중기	-9249
▁시련	-9250
▁덥	-9251
▁부가	-9252
▁그루	-9253
▁협조	-9254
▁Gu	-9255
▁위쪽	-9256
▁짬	-9257
당기	-9258
▁라이드	-9259
▁중국인	-9260
▁중부	-9261
▁강아지	-9262
▁슬라이드	-9263
▁컨디션	-9264
▁대면	-9265
reak	-9266
▁아유	-9267
▁민중	-9268
▁대법	-9269
▁일명	-9270
▁유동	-9271
▁이명박	-9272
▁와타나베	-9273
▁가해	-9274
대사	-9275
▁오로치	-9276
▁진단	-9277
▁마찰	-9278
▁코끼리	-9279
히토	-9280
▁인도네시아	-9281
수리	-9282
▁궁수	-9283
ron	-9284
▁저항력	-9285
▁장본인	-9286
▁이호	-9287
▁잔류	-9288
▁미노	-9289
▁고발	-9290
▁리리	-9291
ㄴㄷㅡㅅ	-9292
▁소꿉	-9293
▁공교	-9294
▁무늬	-9295
▁무자	-9296
▁주저	-9297
▁주술사	-9298
▁캘리	-9299
▁so	-9300
▁유마	-9301
▁금강	-9302
티니	-9303
▁급식	-9304
▁표식	-9305
▁나폴레	-9306
타운	-9307
▁앤드	-9308
▁뺨	-9309
▁재수	-9310
▁외야수	-9311
▁가령	-9312
▁급격히	-9313
▁like	-9314
▁밭	-9315
▁168	-9316
▁와이번스	-9317
▁학위	-9318
▁상시	-9319
▁벨기에	-9320
▁서바이벌	-9321
▁도마	-9322
▁네이션	-9323
▁고인	-9324
▁일리	-9325
중간	-9326
▁보로	-9327
▁판사	-9328
ㄴㄷㅡㄹ	-9329
▁국도	-9330
▁주술	-9331
▁혼혈	-9332
▁수신	-9333
▁겸하	-9334
▁평택	-9335
▁고이	-9336
▁낯	-9337
▁찔리	-9338
▁방침	-9339
▁203	-9340
▁나폴레옹	-9341
▁라가	-9342
▁will	-9343
▁이용객	-9344
▁내외	-9345
▁휴대폰	-9346
닐라	-9347
▁공헌	-9348
▁배리	-9349
▁유카리	-9350
▁크라운	-9351
14	-9352
▁NM	-9353
▁윤리	-9354
▁도미	-9355
▁부산광역시	-9356
사와	-9357
▁라이징	-9358
▁성대	-9359
▁악행	-9360
▁초청	-9361
▁개명	-9362
▁갈기	-9363
▁내각	-9364
▁보직	-9365
PA	-9366
▁쟁이	-9367
▁승급	-9368
▁강동	-9369
저래	-9370
▁몸매	-9371
▁흉악	-9372
▁조립	-9373
▁천지	-9374
성이	-9375
운수	-9376
▁218	-9377
17	-9378
▁김병	-9379
▁체코	-9380
▁이래저래	-9381
▁오페라	-9382
▁이즈미	-9383
▁Min	-9384
▁떨구	-9385
▁헤라	-9386
▁균열	-9387
▁원한	-9388
▁국토	-9389
▁쥬얼	-9390
▁수립	-9391
▁독보	-9392
▁뚜렷	-9393
▁우기	-9394
▁자산	-9395
▁시네마	-9396
마치	-9397
▁아테나	-9398
▁거세	-9399
▁고우	-9400
▁저격수	-9401
전사	-9402
▁단역	-9403
▁충청남도	-9404
▁단총	-9405
▁런처	-9406
▁레이븐	-9407
▁위시	-9408
▁마저	-9409
▁황혼	-9410
▁사슬	-9411
▁베를린	-9412
▁소우	-9413
▁휴게	-9414
▁볶	-9415
▁배율	-9416
▁어원	-9417
▁테크닉	-9418
GA	-9419
▁니트	-9420
▁서방	-9421
▁탄압	-9422
▁의정부	-9423
▁저승	-9424
ㄷㅓㄴㅈㅣ	-9425
▁one	-9426
▁부동산	-9427
▁떠돌	-9428
▁10000	-9429
▁차장	-9430
▁두려워하	-9431
르타	-9432
▁오사	-9433
▁대학생	-9434
주의자	-9435
▁필사	-9436
▁스치	-9437
▁버거	-9438
▁교역	-9439
▁설마	-9440
▁로크	-9441
ECT	-9442
▁적이	-9443
▁절단	-9444
▁빗나가	-9445
▁지지율	-9446
▁수중	-9447
▁리믹스	-9448
▁국방부	-9449
▁충격파	-9450
▁단서	-9451
▁리츠	-9452
▁보가	-9453
▁면제	-9454
▁경사	-9455
▁Ro	-9456
▁리프트	-9457
▁이오리	-9458
▁탄막	-9459
▁iOS	-9460
▁트론	-9461
▁비자	-9462
▁난리	-9463
▁지터	-9464
▁하츠네	-9465
▁스코틀랜드	-9466
▁작위	-9467
▁김성근	-9468
▁다녀	-9469
▁RO	-9470
▁살아오	-9471
▁타키	-9472
▁이리저리	-9473
▁대국	-9474
ICE	-9475
▁성지	-9476
▁인명	-9477
▁히사	-9478
▁아수라	-9479
▁때로	-9480
▁플레임	-9481
▁na	-9482
▁견해	-9483
▁걸음	-9484
▁자루	-9485
▁오역	-9486
▁원로	-9487
▁비단	-9488
▁시간표	-9489
oul	-9490
▁미남	-9491
▁왕족	-9492
▁더미	-9493
▁ALL	-9494
▁Play	-9495
▁엠블	-9496
▁정전	-9497
▁습하	-9498
MAX	-9499
ould	-9500
▁1974	-9501
보우	-9502
AND	-9503
▁흉내	-9504
▁칼라	-9505
▁팰	-9506
▁입원	-9507
▁버블	-9508
▁타우	-9509
▁평판	-9510
▁사물	-9511
▁성사	-9512
▁KB	-9513
▁Red	-9514
▁펑크	-9515
▁점하	-9516
▁득표율	-9517
▁극심	-9518
▁보편	-9519
▁Ser	-9520
▁말레이	-9521
▁계략	-9522
▁중화민국	-9523
▁해역	-9524
▁가해자	-9525
▁주황	-9526
▁사이토	-9527
▁완벽히	-9528
▁Type	-9529
친구	-9530
▁요우	-9531
저우	-9532
▁토비	-9533
▁지면	-9534
▁공격기	-9535
▁달인	-9536
▁격렬	-9537
ody	-9538
▁NT	-9539
▁간파	-9540
▁출석	-9541
▁캇	-9542
▁둥지	-9543
▁UC	-9544
▁전법	-9545
▁샘플	-9546
▁사우스	-9547
▁재배	-9548
▁희생자	-9549
과이	-9550
다드	-9551
▁우두머리	-9552
▁반장	-9553
▁177	-9554
▁se	-9555
▁어제	-9556
▁연막	-9557
▁Don	-9558
▁액체	-9559
ions	-9560
▁발톱	-9561
▁탈환	-9562
▁계절	-9563
▁고난	-9564
▁다케	-9565
▁충고	-9566
▁헤드샷	-9567
▁순간이동	-9568
▁커플링	-9569
▁깃털	-9570
▁김윤	-9571
▁이듬	-9572
▁제의	-9573
▁Car	-9574
▁주입	-9575
▁해변	-9576
▁리볼버	-9577
▁감성	-9578
STER	-9579
▁강습	-9580
▁련	-9581
▁마르코	-9582
▁한양	-9583
ㅇㅡㄴ	-9584
▁플레이버	-9585
▁놔두	-9586
▁선로	-9587
▁갈구	-9588
▁섬기	-9589
▁진형	-9590
▁손잡이	-9591
▁의의	-9592
▁벚	-9593
▁맑	-9594
▁짝사랑	-9595
▁랜서	-9596
▁홈경기	-9597
▁전라남도	-9598
▁딥	-9599
▁태생	-9600
▁무비	-9601
▁방울	-9602
▁반도	-9603
▁스콜	-9604
▁138	-9605
▁us	-9606
▁과언	-9607
텍스	-9608
▁슬라임	-9609
드로	-9610
▁중재	-9611
▁1975	-9612
▁레슨	-9613
▁입자	-9614
▁코디	-9615
▁아이즈	-9616
▁안젤	-9617
▁이영호	-9618
▁금고	-9619
▁보루	-9620
▁두드러지	-9621
▁주교	-9622
▁서명	-9623
▁접수	-9624
▁사야카	-9625
▁병과	-9626
▁공명	-9627
▁맹독	-9628
▁크롬	-9629
▁측근	-9630
▁유지비	-9631
천군	-9632
▁동성애	-9633
▁차일드	-9634
▁Es	-9635
▁상의	-9636
16	-9637
ven	-9638
▁상어	-9639
▁중도	-9640
▁워드	-9641
▁너클	-9642
▁필립	-9643
alk	-9644
스카	-9645
▁석유	-9646
▁자켓	-9647
▁리처드	-9648
▁메테	-9649
▁산탄총	-9650
레븐	-9651
▁아리스	-9652
▁두려움	-9653
▁부제	-9654
▁냉장고	-9655
▁찬양	-9656
▁시끄럽	-9657
▁완성도	-9658
▁데미	-9659
▁러너	-9660
▁팍	-9661
▁바이크	-9662
▁타스	-9663
▁마지	-9664
라이언스	-9665
▁졸업식	-9666
▁생각나	-9667
▁테니스	-9668
▁프로스트	-9669
▁어드밴	-9670
▁이사장	-9671
▁월간	-9672
▁가히	-9673
▁백만	-9674
▁얼라이언스	-9675
▁Time	-9676
▁왓	-9677
▁원화	-9678
▁본질	-9679
▁삿	-9680
▁'''	-9681
▁교대	-9682
▁이념	-9683
af	-9684
야스	-9685
▁콘스탄	-9686
▁마스코트	-9687
▁레인보우	-9688
▁162	-9689
▁고래	-9690
▁몰려오	-9691
▁일각	-9692
▁EU	-9693
소총	-9694
▁우지	-9695
▁아울	-9696
▁have	-9697
▁126	-9698
te	-9699
스티스	-9700
▁수감	-9701
▁분할	-9702
▁어기	-9703
▁찰스	-9704
▁끌어내	-9705
▁트이	-9706
▁박명	-9707
▁아인	-9708
▁조수	-9709
▁빙의	-9710
▁이듬해	-9711
▁엉뚱	-9712
맥스	-9713
▁스바	-9714
▁슬러그	-9715
▁테일즈	-9716
▁카오루	-9717
▁평등	-9718
▁키즈	-9719
ㄹㄹㅏ	-9720
▁Sum	-9721
▁WH	-9722
▁로제	-9723
▁보고서	-9724
공사	-9725
▁핑계	-9726
보기	-9727
▁스칼	-9728
▁구로	-9729
▁김선	-9730
빨리	-9731
▁권하	-9732
▁김두	-9733
▁심정	-9734
ics	-9735
▁두껍	-9736
▁카렌	-9737
▁노부나가	-9738
▁지역구	-9739
그라	-9740
▁신생	-9741
▁차림	-9742
▁ㄹㅗㄹ	-9743
▁폭로	-9744
▁스매시	-9745
르드	-9746
마르	-9747
▁깨우	-9748
▁자키	-9749
▁연소	-9750
▁제조사	-9751
▁기관포	-9752
▁말기	-9753
▁젝	-9754
▁누스	-9755
▁에드워드	-9756
▁텔레포트	-9757
▁응급	-9758
▁왕가	-9759
▁클리셰	-9760
▁영화제	-9761
▁고립	-9762
랄드	-9763
▁주차장	-9764
▁초등학생	-9765
▁꼴찌	-9766
YP	-9767
▁조던	-9768
▁히카루	-9769
▁과격	-9770
▁고종	-9771
▁동상	-9772
▁손목	-9773
▁사회주의	-9774
▁무식	-9775
▁로비	-9776
▁후반전	-9777
▁공짜	-9778
▁민병	-9779
▁솔직히	-9780
▁펙	-9781
▁나락	-9782
▁회계	-9783
재기	-9784
▁대니	-9785
▁결과물	-9786
▁신상	-9787
▁병행	-9788
시스코	-9789
▁맞먹	-9790
▁꾀	-9791
▁직위	-9792
▁카토	-9793
▁팩션	-9794
▁~"	-9795
▁득표수	-9796
ACK	-9797
▁know	-9798
미터	-9799
▁주유	-9800
▁BT	-9801
▁팜	-9802
▁멘붕	-9803
▁쫓기	-9804
▁애드	-9805
▁out	-9806
▁oh	-9807
▁포도	-9808
▁카인	-9809
은이	-9810
▁IIDX	-9811
보라	-9812
▁BA	-9813
▁CB	-9814
▁김구	-9815
▁제너	-9816
▁콰	-9817
▁종로	-9818
▁팬티	-9819
▁갈라지	-9820
▁브레스	-9821
▁분배	-9822
▁피드	-9823
▁방벽	-9824
▁정의당	-9825
▁연세대	-9826
▁보복	-9827
▁조항	-9828
▁제자리	-9829
▁투사	-9830
▁슬슬	-9831
▁거꾸	-9832
▁재질	-9833
▁갸	-9834
▁쳐다보	-9835
▁야망	-9836
페이스	-9837
▁난투	-9838
▁숙청	-9839
▁1976	-9840
처럼	-9841
▁군데	-9842
▁긋	-9843
고사	-9844
tern	-9845
▁감기	-9846
▁후면	-9847
▁레귤	-9848
ins	-9849
▁Kore	-9850
▁극악	-9851
셉트	-9852
ict	-9853
시티	-9854
▁지배자	-9855
▁볼드	-9856
▁이세	-9857
▁313	-9858
▁EV	-9859
▁소꿉친구	-9860
▁pr	-9861
▁리셋	-9862
▁ㅋㅔ	-9863
▁신조	-9864
▁두루	-9865
▁발전소	-9866
긋나	-9867
▁몰아넣	-9868
▁내뱉	-9869
▁132	-9870
▁한정판	-9871
▁내면	-9872
▁상부	-9873
▁LTE	-9874
▁페이크	-9875
ㄴㅡㄴㄷㅔ	-9876
▁난민	-9877
▁결의	-9878
▁럭키	-9879
▁!!!	-9880
ange	-9881
▁해고	-9882
▁찰나	-9883
▁테이프	-9884
▁자포	-9885
▁미트	-9886
▁약칭	-9887
ater	-9888
▁제주도	-9889
전설	-9890
▁세츠	-9891
▁표기법	-9892
▁빈약	-9893
▁로그인	-9894
▁테르	-9895
▁Sun	-9896
▁DI	-9897
▁다저스	-9898
▁1972	-9899
▁중후	-9900
▁채찍	-9901
▁개판	-9902
▁바나나	-9903
▁카테고리	-9904
▁근로	-9905
▁페미니즘	-9906
▁수확	-9907
▁set	-9908
▁유비트	-9909
▁겨루	-9910
▁노하	-9911
▁해전	-9912
퍼니	-9913
▁캔디	-9914
▁일산	-9915
▁트랜스포	-9916
▁병종	-9917
레이크	-9918
▁연간	-9919
▁반기	-9920
▁지미	-9921
▁재벌	-9922
▁바이킹	-9923
▁수영복	-9924
▁표하	-9925
▁츤데레	-9926
▁선봉	-9927
▁쑤	-9928
무이	-9929
▁종전	-9930
▁접전	-9931
▁158	-9932
▁강탈	-9933
▁하지메	-9934
▁환호	-9935
▁여주인공	-9936
▁산소	-9937
▁로렌	-9938
▁메디	-9939
상가	-9940
▁feat	-9941
▁IP	-9942
▁메세지	-9943
▁구독자	-9944
▁탁월	-9945
▁퉁	-9946
▁오딘	-9947
▁자카	-9948
▁구청	-9949
19	-9950
▁GD	-9951
▁제인	-9952
▁정준	-9953
▁도사	-9954
돌프	-9955
▁사각	-9956
▁그랑프리	-9957
▁TP	-9958
▁콧	-9959
▁MO	-9960
▁자작	-9961
▁가설	-9962
▁일조	-9963
▁라시	-9964
▁1977	-9965
▁진짜로	-9966
▁프롤로그	-9967
▁힌트	-9968
고속도로	-9969
▁초점	-9970
▁카이사	-9971
▁대등	-9972
▁스케줄	-9973
▁릴리스	-9974
▁교훈	-9975
▁IV	-9976
▁쿠바	-9977
▁230	-9978
▁서치	-9979
▁내정	-9980
▁응답	-9981
▁레귤러	-9982
▁미도리	-9983
▁구호	-9984
▁수여	-9985
▁르노	-9986
▁신념	-9987
▁폐선	-9988
▁야마모토	-9989
▁관료	-9990
▁진로	-9991
▁거꾸로	-9992
▁이니	-9993
▁프랭크	-9994
▁유능	-9995
▁키드	-9996
▁무궁	-9997
▁High	-9998
▁댐	-9999
▁마가	-10000
▁이점	-10001
▁인트	-10002
활약	-10003
▁뚝	-10004
▁충남	-10005
▁임진	-10006
▁니코니코	-10007
▁깡패	-10008
▁실바	-10009
▁중급	-10010
사스	-10011
▁172	-10012
▁앨런	-10013
▁HS	-10014
▁프로그래	-10015
▁필두	-10016
▁무신	-10017
▁Light	-10018
▁껍질	-10019
▁감금	-10020
▁소비자	-10021
▁줄기	-10022
▁스바루	-10023
▁유라	-10024
▁대명	-10025
▁때려잡	-10026
▁밀어붙이	-10027
▁테레	-10028
▁쥰	-10029
▁개막전	-10030
▁다녀오	-10031
▁리뉴	-10032
▁TE	-10033
천사	-10034
▁바인	-10035
▁치바	-10036
▁헐크	-10037
▁태미	-10038
▁베어	-10039
▁트러	-10040
▁꿇	-10041
che	-10042
ME	-10043
▁스나	-10044
▁피난	-10045
▁컴퍼니	-10046
▁양심	-10047
▁망설이	-10048
민주당	-10049
▁이만	-10050
▁133	-10051
▁순천	-10052
▁혹평	-10053
▁박쥐	-10054
▁정조	-10055
▁덴마크	-10056
▁섭취	-10057
지사	-10058
▁플리	-10059
▁애쉬	-10060
▁LOVE	-10061
키스	-10062
▁주식회사	-10063
▁보트	-10064
▁이순신	-10065
▁공국	-10066
차리	-10067
▁재림	-10068
▁배후	-10069
▁아폴	-10070
▁무색	-10071
▁인텔	-10072
▁캐슬	-10073
▁도스	-10074
▁객관	-10075
▁렀	-10076
▁강서	-10077
▁랜스	-10078
▁팀장	-10079
▁파괴력	-10080
▁차분	-10081
▁Your	-10082
▁기술력	-10083
▁진구	-10084
▁냉기	-10085
▁망상	-10086
▁순찰	-10087
▁최하	-10088
▁얼터	-10089
▁신학	-10090
▁득실	-10091
제스	-10092
▁존슨	-10093
▁Tw	-10094
▁아비	-10095
▁호응	-10096
덕션	-10097
▁연달	-10098
▁과감	-10099
▁지붕	-10100
▁미끼	-10101
▁la	-10102
▁148	-10103
▁지성	-10104
▁급속	-10105
▁라우	-10106
▁수성	-10107
▁사내	-10108
▁여장	-10109
▁통보	-10110
▁박종	-10111
▁최정	-10112
▁윈터	-10113
▁NEW	-10114
▁히나타	-10115
▁고질	-10116
▁따내	-10117
▁출제	-10118
메라	-10119
▁황태	-10120
▁179	-10121
▁제작비	-10122
▁저스티스	-10123
▁Mr	-10124
▁일컫	-10125
▁펭귄	-10126
▁매지	-10127
▁앵커	-10128
▁스톡	-10129
▁메구미	-10130
▁복도	-10131
▁케리건	-10132
▁어벤져스	-10133
▁능숙	-10134
▁OF	-10135
▁찌질	-10136
▁노르웨이	-10137
▁망명	-10138
박이	-10139
▁샤오	-10140
▁조력	-10141
▁소노	-10142
ica	-10143
산역	-10144
▁두근	-10145
▁레슬러	-10146
▁세례	-10147
▁격퇴	-10148
▁파랑	-10149
▁미숙	-10150
▁제지	-10151
▁오른팔	-10152
▁모스크바	-10153
▁성벽	-10154
세서리	-10155
▁장갑차	-10156
▁라이센스	-10157
▁Gen	-10158
▁트랜스포머	-10159
▁GTA	-10160
▁립스	-10161
▁반론	-10162
▁로맨스	-10163
▁쳐들어오	-10164
▁심히	-10165
▁포니	-10166
▁ㅇㅜㅁ	-10167
▁리터	-10168
사고	-10169
▁교시	-10170
▁스팅	-10171
▁Mi	-10172
▁후쿠오카	-10173
▁드로	-10174
▁제대	-10175
IK	-10176
▁사지	-10177
▁156	-10178
교통	-10179
▁잠그	-10180
▁섹시	-10181
▁풍경	-10182
▁사나이	-10183
▁Em	-10184
▁노골	-10185
▁두뇌	-10186
▁am	-10187
▁염두	-10188
▁철갑탄	-10189
▁유타	-10190
▁154	-10191
날두	-10192
▁종말	-10193
▁뒤쪽	-10194
▁ar	-10195
▁파우	-10196
리칸	-10197
▁꼼수	-10198
▁미모	-10199
▁탐구	-10200
▁호날두	-10201
▁청하	-10202
▁시조	-10203
▁혼인	-10204
▁사소	-10205
▁쫓아내	-10206
생기	-10207
▁표창	-10208
ors	-10209
▁비참	-10210
▁Par	-10211
▁교육청	-10212
▁슈가	-10213
▁밧	-10214
▁159	-10215
FL	-10216
▁진술	-10217
▁치마	-10218
▁호무	-10219
▁노래방	-10220
▁능하	-10221
▁레슬링	-10222
▁앞세우	-10223
▁바닷	-10224
▁꾸리	-10225
▁맹활약	-10226
▁진흥	-10227
▁초코	-10228
▁음향	-10229
▁명대사	-10230
▁호구	-10231
▁미세	-10232
▁여수	-10233
▁176	-10234
▁안동	-10235
▁사가	-10236
▁재즈	-10237
▁222	-10238
▁죄수	-10239
▁알아차리	-10240
▁배신자	-10241
HT	-10242
▁사일	-10243
▁냉동	-10244
▁응시	-10245
▁MK	-10246
▁착지	-10247
▁분쇄	-10248
▁오쿠	-10249
▁전반기	-10250
▁비꼬	-10251
▁공립	-10252
▁미호	-10253
▁HARD	-10254
▁블랙홀	-10255
▁게르	-10256
▁발탁	-10257
▁1971	-10258
▁기행	-10259
▁전학	-10260
▁벨라	-10261
▁생태	-10262
▁u	-10263
▁발발	-10264
▁달래	-10265
▁믿음	-10266
▁성폭	-10267
▁코프	-10268
물리	-10269
▁엄폐	-10270
▁테오	-10271
▁범하	-10272
▁129	-10273
▁에그	-10274
▁른	-10275
▁레오나	-10276
▁통틀어	-10277
▁대목	-10278
▁폐허	-10279
▁사르	-10280
▁남양	-10281
▁173	-10282
▁가라앉	-10283
▁현직	-10284
▁핀란드	-10285
클린	-10286
▁OCG	-10287
▁리우스	-10288
▁불리우	-10289
▁전임	-10290
▁FPS	-10291
▁사천왕	-10292
▁수하	-10293
▁계곡	-10294
바스	-10295
티지	-10296
구나	-10297
▁굳히	-10298
퀘어	-10299
▁AE	-10300
▁무너	-10301
▁오리온	-10302
▁무너뜨리	-10303
▁책상	-10304
▁153	-10305
▁굴러	-10306
어붙	-10307
▁천문	-10308
▁명탐정	-10309
▁PL	-10310
▁의아	-10311
▁was	-10312
▁화석	-10313
▁ll	-10314
CH	-10315
▁세키	-10316
▁아니하	-10317
▁텍사스	-10318
▁캘리포	-10319
▁전도	-10320
▁나란히	-10321
▁남한	-10322
▁안드레	-10323
▁드리블	-10324
▁프로덕션	-10325
멘터리	-10326
▁파이프	-10327
▁고음	-10328
▁선포	-10329
▁신주	-10330
▁꽁	-10331
pr	-10332
▁질풍	-10333
▁시뮬레이션	-10334
▁샹	-10335
UT	-10336
▁토막	-10337
▁137	-10338
▁나카무라	-10339
▁물어보	-10340
▁에메랄드	-10341
▁가마	-10342
▁테러리	-10343
▁Kn	-10344
▁풀려나	-10345
eep	-10346
▁맞대	-10347
▁우산	-10348
▁스탈린	-10349
▁Of	-10350
▁죠죠	-10351
▁마신	-10352
▁무단	-10353
▁캘리포니아	-10354
▁지각	-10355
▁호스	-10356
▁혼다	-10357
▁러닝	-10358
▁인플	-10359
슬링	-10360
▁에필	-10361
▁잔해	-10362
▁에필로그	-10363
▁이광	-10364
▁세일러	-10365
▁절정	-10366
▁래스터	-10367
▁오락실	-10368
▁문화재	-10369
▁로스터	-10370
▁대안	-10371
▁~~	-10372
하여	-10373
▁저거	-10374
▁토가	-10375
▁What	-10376
les	-10377
▁영등	-10378
타니	-10379
▁책략	-10380
▁애쓰	-10381
▁목포	-10382
▁교정	-10383
▁두목	-10384
▁GHz	-10385
▁발렌타인	-10386
▁이행	-10387
▁청룡	-10388
▁예방	-10389
▁멋있	-10390
▁배리어	-10391
▁로테이션	-10392
▁스텔라	-10393
▁불문	-10394
▁아랑	-10395
▁골치	-10396
지않	-10397
▁말소	-10398
▁요코하마	-10399
▁십자군	-10400
▁먼지	-10401
▁투성이	-10402
▁로열	-10403
▁장시	-10404
▁280	-10405
▁1969	-10406
▁빅토리아	-10407
▁신세계	-10408
▁델타	-10409
▁총사	-10410
▁ㄹㅏㄱ	-10411
▁유니콘	-10412
▁숭배	-10413
▁BM	-10414
▁얼어붙	-10415
▁슬램	-10416
▁기쁨	-10417
▁야당	-10418
▁다큐멘터리	-10419
아슬	-10420
▁174	-10421
▁아슬아슬	-10422
▁서울시	-10423
▁총선거	-10424
▁225	-10425
▁레바	-10426
▁가로막	-10427
▁골목	-10428
▁면접	-10429
▁엣지	-10430
▁격하	-10431
▁대교	-10432
▁139	-10433
▁중공	-10434
▁Per	-10435
▁163	-10436
더기	-10437
▁134	-10438
▁땀	-10439
▁원망	-10440
▁주파	-10441
▁따라잡	-10442
▁카즈야	-10443
플러스	-10444
▁하의	-10445
▁깽	-10446
▁월요일	-10447
▁167	-10448
▁보디	-10449
▁처녀	-10450
▁심연	-10451
▁열기	-10452
▁미식	-10453
▁버터	-10454
▁오바	-10455
▁143	-10456
▁단의	-10457
▁짤리	-10458
▁Fe	-10459
▁악곡	-10460
▁TO	-10461
▁나사	-10462
▁GPU	-10463
▁분포	-10464
▁건너가	-10465
▁Heart	-10466
▁이준	-10467
▁필라	-10468
볼루션	-10469
▁오타쿠	-10470
▁블라디	-10471
반신	-10472
▁스파이크	-10473
▁해상도	-10474
▁쓸데없이	-10475
▁끝장	-10476
▁스페인어	-10477
총장	-10478
▁최대치	-10479
▁루루	-10480
컨드	-10481
▁Good	-10482
▁누이	-10483
▁부처	-10484
▁로지	-10485
▁그제	-10486
▁세컨드	-10487
▁상장	-10488
▁퍼붓	-10489
▁yout	-10490
▁전광	-10491
▁함성	-10492
▁142	-10493
▁CO	-10494
▁인구수	-10495
▁청사	-10496
▁화약	-10497
ㄴㅕ	-10498
▁퍼시	-10499
▁연기력	-10500
▁용의자	-10501
▁2500	-10502
agon	-10503
▁김도	-10504
▁모기	-10505
▁왕관	-10506
▁맞물리	-10507
▁태권	-10508
▁반란군	-10509
▁관광객	-10510
▁전수	-10511
▁패닉	-10512
ert	-10513
▁스윕	-10514
▁164	-10515
▁네스	-10516
공화	-10517
▁항공사	-10518
▁선수단	-10519
▁히카리	-10520
▁인사이드	-10521
▁CN	-10522
▁스토커	-10523
▁트레이닝	-10524
▁무안	-10525
▁비로	-10526
▁유나	-10527
▁beat	-10528
부인	-10529
▁드레드	-10530
▁미유키	-10531
▁기소	-10532
▁불쾌	-10533
▁추모	-10534
▁구제	-10535
▁하후	-10536
▁pro	-10537
▁스트로	-10538
▁퓨처	-10539
▁끓이	-10540
ㄴㅕㅇ	-10541
▁실로	-10542
EL	-10543
▁해태	-10544
▁야마다	-10545
▁하우	-10546
▁진하	-10547
에몽	-10548
▁발하	-10549
▁ㅡ	-10550
▁거르	-10551
▁틀어	-10552
▁ㄷㅣ	-10553
▁국기	-10554
▁심야	-10555
▁기이	-10556
▁라임	-10557
▁마의	-10558
▁제단	-10559
▁ONE	-10560
던지	-10561
▁극우	-10562
▁왕후	-10563
▁음색	-10564
▁쫓아가	-10565
▁선인	-10566
▁청장	-10567
려보	-10568
▁이인	-10569
▁직격	-10570
▁페르시아	-10571
▁달라	-10572
▁뉴질	-10573
▁뉴질랜드	-10574
▁악령	-10575
▁어긋나	-10576
▁야전	-10577
▁패스트	-10578
▁동아시아	-10579
▁우투	-10580
▁홍성	-10581
▁동이	-10582
▁직통	-10583
▁136	-10584
▁뱉	-10585
▁공고	-10586
▁김연	-10587
▁김천	-10588
▁관계없이	-10589
▁지극	-10590
좀무	-10591
▁흠좀무	-10592
▁쓰러트리	-10593
▁벚꽃	-10594
▁킹덤	-10595
▁콘셉트	-10596
▁회로	-10597
▁징크스	-10598
▁참으로	-10599
▁로브	-10600
▁리부트	-10601
▁제이슨	-10602
▁Dark	-10603
}}	-10604
▁안철수	-10605
▁time	-10606
▁KC	-10607
▁템포	-10608
▁방안	-10609
▁적립	-10610
▁깃들	-10611
▁서장	-10612
▁개그맨	-10613
▁아이스크림	-10614
▁ㅇㅠ	-10615
▁랙	-10616
▁바닐라	-10617
▁일환	-10618
프란	-10619
▁궁전	-10620
백과	-10621
▁알렉산더	-10622
▁오프라인	-10623
▁핸드폰	-10624
립트	-10625
▁사범	-10626
▁타고	-10627
무실	-10628
▁동사	-10629
▁조준경	-10630
▁경찰청	-10631
▁유고	-10632
▁한층	-10633
▁경지	-10634
▁완구	-10635
▁번갈	-10636
▁유해	-10637
▁어린아이	-10638
▁샤를	-10639
디스	-10640
▁자부	-10641
▁텀	-10642
▁훈훈	-10643
무게	-10644
레이트	-10645
▁몸무게	-10646
▁유선	-10647
▁157	-10648
▁1963	-10649
▁숙주	-10650
▁미라이	-10651
▁중심지	-10652
▁체격	-10653
▁술집	-10654
▁죄송	-10655
▁메이트	-10656
▁330	-10657
▁0900	-10658
▁내뿜	-10659
▁중년	-10660
other	-10661
▁모던	-10662
▁세미	-10663
▁카니	-10664
풀이	-10665
▁모양새	-10666
▁연의	-10667
▁혼동	-10668
▁화소	-10669
iew	-10670
▁열세	-10671
▁ab	-10672
▁출고	-10673
▁문신	-10674
ideo	-10675
▁근력	-10676
land	-10677
▁좌파	-10678
▁뮤지션	-10679
▁Sm	-10680
▁순정	-10681
▁정서	-10682
▁방호	-10683
▁외면	-10684
▁앞뒤	-10685
▁배우자	-10686
티넘	-10687
▁양대	-10688
▁전반전	-10689
▁플래티넘	-10690
▁브루스	-10691
▁눈빛	-10692
▁라바	-10693
▁갈리아	-10694
▁사투리	-10695
▁호박	-10696
▁레프	-10697
▁휴스턴	-10698
▁안토니	-10699
애나	-10700
▁하카	-10701
▁브이	-10702
air	-10703
▁창립	-10704
▁패드	-10705
▁Sl	-10706
▁타다	-10707
▁줄리	-10708
지오	-10709
▁연금술사	-10710
▁주한	-10711
▁에일리	-10712
▁대중교통	-10713
▁우천	-10714
▁제우스	-10715
▁1968	-10716
▁제사	-10717
▁270	-10718
▁침해	-10719
▁저조	-10720
▁설탕	-10721
▁성숙	-10722
▁시흥	-10723
▁장례식	-10724
▁출연진	-10725
▁제프	-10726
▁본의	-10727
▁플라스틱	-10728
▁집필	-10729
▁꿰뚫	-10730
▁농민	-10731
▁Blue	-10732
▁냅	-10733
▁투신	-10734
▁타당	-10735
▁Baby	-10736
▁AG	-10737
▁저러	-10738
ator	-10739
▁오키나	-10740
▁고자	-10741
▁나뭇	-10742
▁해독	-10743
▁미니언	-10744
▁박상	-10745
▁외관	-10746
▁코즈	-10747
▁이아	-10748
▁도시락	-10749
▁클라우드	-10750
▁......	-10751
oot	-10752
▁워너	-10753
▁스케이	-10754
ㄴㄷㅏㄴ	-10755
▁신수	-10756
▁전열	-10757
▁환사	-10758
anna	-10759
▁테러리스트	-10760
▁Ac	-10761
▁대진	-10762
▁유코	-10763
▁장풍	-10764
▁헤일	-10765
▁샤워	-10766
▁초교	-10767
▁기피	-10768
▁깨알	-10769
▁선교	-10770
▁김대중	-10771
▁하이브리	-10772
▁동호	-10773
▁벌금	-10774
▁저희	-10775
▁하이브리드	-10776
▁수시로	-10777
▁테루	-10778
▁세스	-10779
▁전라북도	-10780
▁더구나	-10781
▁부사관	-10782
▁무수	-10783
▁방언	-10784
▁청나라	-10785
▁미티	-10786
▁베일	-10787
▁우상	-10788
▁자칫	-10789
ush	-10790
▁히로시마	-10791
▁집합	-10792
▁모어	-10793
▁브레인	-10794
▁취지	-10795
▁담임	-10796
▁하시	-10797
▁149	-10798
▁오비	-10799
▁심상	-10800
▁방공	-10801
▁몰아붙이	-10802
▁하비	-10803
▁강세	-10804
▁브론즈	-10805
▁악하	-10806
▁센트럴	-10807
▁각국	-10808
▁사탄	-10809
▁적성	-10810
▁넉넉	-10811
▁되살리	-10812
▁희대	-10813
▁총독	-10814
▁146	-10815
▁상쇄	-10816
▁후루	-10817
▁푹	-10818
▁허브	-10819
▁경제학	-10820
▁트러블	-10821
▁황실	-10822
▁가혹	-10823
▁로라	-10824
▁모함	-10825
▁확고	-10826
▁Li	-10827
▁OK	-10828
▁야만	-10829
▁조교	-10830
▁멜론	-10831
▁공모	-10832
▁쳐내	-10833
▁마켓	-10834
▁Fire	-10835
르도	-10836
카미	-10837
▁지난	-10838
▁마초	-10839
▁체스	-10840
▁지문	-10841
na	-10842
▁기함	-10843
▁남미	-10844
토리얼	-10845
▁격전	-10846
▁하여금	-10847
▁연회	-10848
▁브레이브	-10849
▁암컷	-10850
▁거품	-10851
▁후쿠시마	-10852
▁튜토리얼	-10853
▁상공	-10854
▁기하	-10855
▁줌	-10856
▁찰리	-10857
▁260	-10858
▁공영	-10859
▁오리진	-10860
▁낡	-10861
▁일삼	-10862
▁주의자	-10863
▁심화	-10864
▁종착	-10865
▁털어놓	-10866
▁프로토타입	-10867
▁리액	-10868
▁장동	-10869
▁유니온	-10870
▁El	-10871
▁섹스	-10872
▁페이커	-10873
▁방화	-10874
▁마테	-10875
▁크롤	-10876
▁sm	-10877
▁소사	-10878
▁월등	-10879
▁프렌즈	-10880
▁루키	-10881
▁빈틈	-10882
▁럴	-10883
▁라프	-10884
▁소리치	-10885
▁말년	-10886
▁경과	-10887
▁병장	-10888
▁웨인	-10889
▁아르카	-10890
▁Dis	-10891
OID	-10892
▁랩터	-10893
글라스	-10894
▁쎄	-10895
▁초상화	-10896
▁레이너	-10897
▁맥락	-10898
▁슈터	-10899
▁인체	-10900
전트	-10901
ady	-10902
▁공손	-10903
▁밀어주	-10904
▁실력자	-10905
▁일레븐	-10906
넘기	-10907
더슨	-10908
▁일품	-10909
▁클러	-10910
▁주가	-10911
▁BEMAN	-10912
단지	-10913
▁kr	-10914
▁원자력	-10915
▁고추	-10916
▁브랜	-10917
▁오세	-10918
▁미스터리	-10919
▁개미	-10920
▁합법	-10921
▁타카시	-10922
▁오의	-10923
▁석상	-10924
▁중학생	-10925
▁고성	-10926
▁파격	-10927
▁신병	-10928
▁핸들	-10929
▁포워드	-10930
두사	-10931
▁운반	-10932
▁적재	-10933
▁프로모	-10934
▁별칭	-10935
▁하라	-10936
베트	-10937
▁켄지	-10938
▁격기	-10939
▁속력	-10940
▁편견	-10941
▁수량	-10942
▁자질	-10943
▁DJMAX	-10944
▁미즈키	-10945
▁BEMANI	-10946
▁문법	-10947
나리	-10948
▁무선	-10949
▁생선	-10950
▁져	-10951
▁부친	-10952
티노	-10953
▁미로	-10954
▁파손	-10955
▁도검	-10956
토랑	-10957
▁뒷면	-10958
▁레스토랑	-10959
▁fl	-10960
▁빈번	-10961
▁Champ	-10962
메어	-10963
▁속공	-10964
▁말아먹	-10965
▁불화	-10966
▁가성	-10967
▁연말	-10968
▁우편	-10969
▁리바운드	-10970
▁성기	-10971
▁다이노스	-10972
ution	-10973
▁프랜차	-10974
▁다면	-10975
▁통행	-10976
▁STR	-10977
▁cc	-10978
▁호출	-10979
▁본가	-10980
앙스	-10981
▁주고	-10982
▁므	-10983
▁명명	-10984
▁아까	-10985
▁하반기	-10986
▁발차기	-10987
▁유유	-10988
▁수령	-10989
레드	-10990
▁스트리밍	-10991
▁쐐	-10992
▁격리	-10993
레슬링	-10994
▁가브리	-10995
▁피카츄	-10996
▁유승	-10997
▁소령	-10998
▁박명수	-10999
▁데스티니	-11000
스틴	-11001
▁Pre	-11002
▁매기	-11003
▁북구	-11004
사벽	-11005
▁넘사벽	-11006
▁재빨리	-11007
▁Ev	-11008
▁프랜차이즈	-11009
▁프로레슬링	-11010
▁205	-11011
▁뚜껑	-11012
▁수컷	-11013
▁맴	-11014
▁1967	-11015
저드	-11016
더링	-11017
구역	-11018
▁나이트메어	-11019
▁자각	-11020
▁솜씨	-11021
▁평창	-11022
▁퇴역	-11023
▁당국	-11024
▁뉘앙스	-11025
엘라	-11026
▁추출	-11027
▁DB	-11028
▁정형	-11029
▁대승	-11030
▁독립운동	-11031
▁앤디	-11032
▁선곡	-11033
와라	-11034
▁증인	-11035
▁앞면	-11036
▁니나	-11037
▁프리즘	-11038
▁경질	-11039
▁박용	-11040
▁신임	-11041
▁이방	-11042
▁잊어버리	-11043
▁정체불명	-11044
▁일례	-11045
▁전염	-11046
▁하와	-11047
▁뽐	-11048
▁원흉	-11049
▁탯이	-11050
▁클립	-11051
석민	-11052
치아	-11053
▁단식	-11054
▁무죄	-11055
▁간호사	-11056
ium	-11057
▁550	-11058
▁우파	-11059
▁RP	-11060
▁애국	-11061
▁GG	-11062
▁정재	-11063
▁네코	-11064
▁아메리칸	-11065
▁부관	-11066
▁타나카	-11067
▁교통사고	-11068
▁운석	-11069
▁질환	-11070
▁Summer	-11071
듈럼	-11072
▁동로	-11073
▁우가	-11074
▁가의	-11075
▁147	-11076
▁광전사	-11077
▁나열	-11078
▁강점기	-11079
▁디비전	-11080
▁석사	-11081
▁나레이션	-11082
▁개개	-11083
▁츠바사	-11084
▁여관	-11085
▁메우	-11086
▁수수료	-11087
미르	-11088
▁몹시	-11089
▁오시	-11090
▁드릴	-11091
▁Grand	-11092
▁블래	-11093
▁Rock	-11094
▁노블	-11095
▁범행	-11096
▁호그	-11097
▁조그	-11098
▁미들	-11099
▁퓨리	-11100
▁콕	-11101
▁원작자	-11102
▁back	-11103
리드	-11104
▁넥서스	-11105
▁게임즈	-11106
▁미팅	-11107
▁우체	-11108
▁푼	-11109
▁무고	-11110
▁서두르	-11111
▁잖	-11112
▁추궁	-11113
▁펜듈럼	-11114
▁플레어	-11115
▁하드웨어	-11116
▁뭔	-11117
▁저것	-11118
▁타고나	-11119
▁동년	-11120
▁무명	-11121
▁토마토	-11122
▁입국	-11123
통수	-11124
▁SCP	-11125
▁211	-11126
퍼드	-11127
▁쫓아오	-11128
gain	-11129
▁동등	-11130
▁멀리서	-11131
모어	-11132
▁내셔널	-11133
▁ㅅㅜ	-11134
▁페인	-11135
▁브라우	-11136
▁버릇	-11137
▁유신	-11138
▁전두	-11139
▁탄탄	-11140
▁줄어드	-11141
▁총평	-11142
현우	-11143
▁now	-11144
▁특이점	-11145
▁폴리스	-11146
▁통수	-11147
▁배속	-11148
▁복면	-11149
▁떄	-11150
▁원종	-11151
▁유무	-11152
▁Over	-11153
▁공습	-11154
▁만루	-11155
▁전례	-11156
▁체형	-11157
▁This	-11158
▁대외	-11159
▁메모	-11160
▁아이폰	-11161
▁권능	-11162
▁코지	-11163
▁day	-11164
▁군림	-11165
▁인어	-11166
▁싣	-11167
▁재활	-11168
▁사슴	-11169
▁감전	-11170
▁퓨어	-11171
▁환수	-11172
▁게시물	-11173
▁영등포	-11174
▁은메달	-11175
▁강팀	-11176
고래	-11177
▁심문	-11178
노스케	-11179
ction	-11180
▁더하	-11181
▁십자가	-11182
▁텅	-11183
▁대패	-11184
▁호노	-11185
▁에바	-11186
▁그리드	-11187
▁사교	-11188
▁무슬	-11189
▁포식	-11190
▁아래쪽	-11191
▁힐링	-11192
▁LED	-11193
▁Dance	-11194
▁말레이시아	-11195
▁But	-11196
평가	-11197
▁실루	-11198
▁온몸	-11199
▁속박	-11200
▁제보	-11201
▁살인마	-11202
▁레이첼	-11203
▁리키	-11204
▁한강	-11205
▁방과	-11206
▁광속	-11207
▁알렉산드	-11208
▁루팡	-11209
▁관절	-11210
▁파문	-11211
▁함재기	-11212
▁DR	-11213
▁별자리	-11214
▁동북	-11215
▁배송	-11216
▁염색	-11217
▁무제한	-11218
▁대군	-11219
▁홀딩	-11220
▁보구	-11221
▁옌	-11222
ne	-11223
결승	-11224
▁점사	-11225
irst	-11226
▁셰프	-11227
▁노비	-11228
▁미스트	-11229
▁진도	-11230
▁내구력	-11231
▁밀치	-11232
▁VOC	-11233
▁길거리	-11234
▁호투	-11235
▁픽셀	-11236
▁이창	-11237
▁교내	-11238
파리	-11239
▁격침	-11240
▁박탈	-11241
▁SL	-11242
▁화내	-11243
▁직속	-11244
▁노트북	-11245
▁우물	-11246
▁어느새	-11247
▁새우	-11248
▁통증	-11249
트랙	-11250
▁Wii	-11251
▁불평	-11252
▁채취	-11253
▁경순	-11254
▁라파	-11255
▁오디오	-11256
▁MSL	-11257
▁속편	-11258
▁요리사	-11259
▁공천	-11260
▁발현	-11261
▁발라드	-11262
▁박찬	-11263
▁미수	-11264
▁박재	-11265
▁가창	-11266
ount	-11267
▁Ste	-11268
▁무슬림	-11269
▁쫄	-11270
▁여배우	-11271
▁목재	-11272
기사	-11273
츠카	-11274
▁카우	-11275
▁Gold	-11276
▁보행	-11277
▁리엘	-11278
▁박영	-11279
▁기괴	-11280
▁클레이	-11281
▁자격증	-11282
▁라드	-11283
▁성직자	-11284
자동	-11285
▁네놈	-11286
▁시초	-11287
▁해적단	-11288
▁성비	-11289
박히	-11290
▁3164	-11291
▁머릿	-11292
▁HG	-11293
▁캐스트	-11294
느님	-11295
▁포효	-11296
▁격투기	-11297
콥터	-11298
▁하행	-11299
▁교양	-11300
▁상행	-11301
▁무사시	-11302
현진	-11303
▁DX	-11304
▁닉스	-11305
▁왕좌	-11306
▁Just	-11307
▁누명	-11308
▁스퀘어	-11309
▁동문	-11310
▁셋째	-11311
▁구타	-11312
▁안드로	-11313
▁증가량	-11314
▁지지자	-11315
▁남발	-11316
▁줄줄	-11317
▁스네이크	-11318
▁동메달	-11319
▁타치바나	-11320
▁단말	-11321
▁하느님	-11322
let	-11323
▁첫날	-11324
▁1966	-11325
▁HK	-11326
ring	-11327
▁농락	-11328
▁성수	-11329
▁뒤통수	-11330
줌마	-11331
▁동조	-11332
▁국민당	-11333
▁대공포	-11334
▁지온	-11335
▁일일이	-11336
▁news	-11337
▁빌보드	-11338
▁FL	-11339
▁달라붙	-11340
▁좁히	-11341
▁어설프	-11342
▁미사키	-11343
▁둥글	-11344
▁여친	-11345
▁증발	-11346
▁기획사	-11347
▁방송인	-11348
저것	-11349
▁창세	-11350
▁204	-11351
▁이것저것	-11352
▁삼촌	-11353
▁아줌마	-11354
▁수강	-11355
▁륙	-11356
▁돌아보	-11357
▁찢어지	-11358
▁멸종	-11359
▁손톱	-11360
플렉스	-11361
▁명나라	-11362
▁별점	-11363
eng	-11364
▁물가	-11365
▁번식	-11366
▁제스	-11367
▁DNA	-11368
▁대쉬	-11369
어쓰	-11370
▁쇼트	-11371
▁리턴	-11372
무네	-11373
DS	-11374
▁회견	-11375
▁샌프란	-11376
▁샌프란시스코	-11377
▁몰아내	-11378
▁혼합	-11379
▁뷔	-11380
▁166	-11381
레일	-11382
▁공존	-11383
▁크리스토	-11384
▁스킵	-11385
▁독수리	-11386
▁회복력	-11387
▁카구라	-11388
▁한숨	-11389
▁휩싸	-11390
▁비즈	-11391
▁경감	-11392
▁사망자	-11393
▁TW	-11394
ports	-11395
▁책정	-11396
▁기합	-11397
▁스크립트	-11398
▁쓸어버리	-11399
▁커트	-11400
두리	-11401
▁복용	-11402
▁급히	-11403
▁시가	-11404
메스	-11405
▁pt	-11406
▁괴력	-11407
▁오키나와	-11408
▁사모	-11409
▁친목	-11410
▁후대	-11411
▁셸	-11412
▁공자	-11413
▁직무	-11414
▁소서	-11415
▁정정	-11416
▁재사	-11417
소수	-11418
▁프로모션	-11419
▁정크	-11420
▁동족	-11421
▁Can	-11422
▁사료	-11423
자재	-11424
▁트렌	-11425
▁다이스케	-11426
▁Korea	-11427
산동	-11428
▁주심	-11429
▁회귀	-11430
▁명곡	-11431
▁반짝이	-11432
▁인쇄	-11433
▁롤링	-11434
▁악어	-11435
▁현상금	-11436
▁단과	-11437
▁기술자	-11438
▁회오리	-11439
▁FB	-11440
▁코바야시	-11441
▁접어들	-11442
▁계란	-11443
▁CA	-11444
▁사우루스	-11445
▁슬로우	-11446
파크	-11447
ina	-11448
▁카이토	-11449
프라	-11450
▁호프	-11451
▁VOCAL	-11452
스트림	-11453
▁포대	-11454
▁이례	-11455
▁만행	-11456
▁비로소	-11457
▁실습	-11458
▁키트	-11459
▁박치기	-11460
▁헬리콥터	-11461
▁회심	-11462
▁아카리	-11463
▁토이	-11464
ally	-11465
▁카르마	-11466
▁분장	-11467
▁도라에몽	-11468
▁연고지	-11469
▁필터	-11470
▁김원	-11471
▁박해	-11472
상가상	-11473
▁설상가상	-11474
▁하리	-11475
▁얕	-11476
▁KTX	-11477
▁캐리어	-11478
ERO	-11479
▁고조	-11480
▁인천광역시	-11481
보그	-11482
▁반군	-11483
▁장원	-11484
▁부류	-11485
▁Sec	-11486
▁피스트	-11487
▁미하	-11488
▁경보	-11489
▁홍진호	-11490
▁가나	-11491
▁스냅	-11492
ㅋㅓ	-11493
OO	-11494
▁비타	-11495
▁로컬	-11496
UR	-11497
▁니카	-11498
▁미판	-11499
▁진수	-11500
▁650	-11501
▁빠뜨리	-11502
▁브릿	-11503
▁듀크	-11504
▁문어	-11505
▁신정	-11506
조합	-11507
▁슬퍼	-11508
▁광대	-11509
▁유정	-11510
▁난감	-11511
▁MHz	-11512
소문	-11513
▁프린스	-11514
▁시부	-11515
▁At	-11516
▁디렉터	-11517
▁Music	-11518
▁++	-11519
▁타시	-11520
▁EBS	-11521
▁똑똑	-11522
▁재직	-11523
▁병살타	-11524
▁셉	-11525
▁선우	-11526
▁우메	-11527
티콘	-11528
▁루마니아	-11529
▁이속	-11530
▁미성년	-11531
▁천마	-11532
▁박경	-11533
▁유영	-11534
▁분홍색	-11535
네이터	-11536
▁살상	-11537
▁가급	-11538
▁유난	-11539
마당	-11540
▁Su	-11541
▁ㅋㅋ	-11542
▁감행	-11543
▁태극	-11544
▁보살	-11545
▁엘리스	-11546
▁개연	-11547
▁무진	-11548
▁퍼센트	-11549
▁김형	-11550
▁파수	-11551
▁로저	-11552
니카	-11553
▁아이유	-11554
▁퐁	-11555
▁1962	-11556
▁짚	-11557
▁Ep	-11558
▁바티	-11559
▁리플렉	-11560
▁입양	-11561
▁괴상	-11562
▁실루엣	-11563
▁프랑크	-11564
▁딸기	-11565
▁총열	-11566
▁갈아타	-11567
▁조직원	-11568
▁홈즈	-11569
▁망령	-11570
▁아타	-11571
▁피치	-11572
▁열람	-11573
▁해치우	-11574
▁습관	-11575
바다	-11576
▁쿠시	-11577
▁스완	-11578
▁끼어들	-11579
▁로코	-11580
▁츠나	-11581
▁한발	-11582
▁텍스	-11583
▁Live	-11584
▁뽕	-11585
▁대마	-11586
▁레이트	-11587
▁학점	-11588
▁get	-11589
▁레즈	-11590
ART	-11591
▁장학	-11592
▁그리하여	-11593
누르	-11594
▁항아리	-11595
▁춘천	-11596
▁악의	-11597
▁단정	-11598
▁Comm	-11599
▁진리	-11600
널드	-11601
▁험하	-11602
▁GN	-11603
▁어퍼	-11604
▁에도	-11605
얼거리	-11606
▁관직	-11607
▁달빛	-11608
▁가미	-11609
▁야외	-11610
▁예지	-11611
▁암울	-11612
▁고토	-11613
▁목동	-11614
▁케이지	-11615
▁카가미	-11616
▁서태	-11617
▁콜롬	-11618
장난	-11619
▁레기	-11620
▁양보	-11621
▁저렇게	-11622
▁판권	-11623
젤레스	-11624
▁요시다	-11625
▁BF	-11626
use	-11627
▁고릴라	-11628
▁발광	-11629
▁세탁	-11630
▁갈라	-11631
▁금색	-11632
▁경유지	-11633
▁후문	-11634
▁주거	-11635
▁MX	-11636
▁위키백과	-11637
▁기법	-11638
▁강수	-11639
▁빼내	-11640
▁파벌	-11641
▁대인배	-11642
son	-11643
▁키무라	-11644
▁돌격소총	-11645
▁리티	-11646
▁UF	-11647
▁천공	-11648
▁169	-11649
▁사이보그	-11650
▁클라이	-11651
▁받치	-11652
▁용감	-11653
▁응하	-11654
▁`	-11655
▁바그	-11656
▁도청	-11657
▁진성	-11658
▁오케스트라	-11659
▁저서	-11660
▁고든	-11661
▁연발	-11662
▁뇌물	-11663
▁안보	-11664
▁man	-11665
▁요시노	-11666
▁사스케	-11667
▁똘	-11668
▁1800	-11669
일라	-11670
▁김명	-11671
▁투니	-11672
▁산책	-11673
▁레이나	-11674
▁카에	-11675
▁바주	-11676
▁구급	-11677
▁전속	-11678
▁북아	-11679
▁경쟁자	-11680
▁gr	-11681
▁한탄	-11682
▁코요	-11683
문트	-11684
▁단속	-11685
▁천둥	-11686
▁소절	-11687
▁바니	-11688
▁서민	-11689
▁베이더	-11690
itch	-11691
▁코다	-11692
관총	-11693
▁섀도	-11694
▁실업	-11695
▁디펜스	-11696
tr	-11697
▁번트	-11698
▁영진	-11699
▁but	-11700
▁커비	-11701
▁1944	-11702
ㅇㅘ	-11703
▁꽂히	-11704
▁돌이	-11705
▁타니	-11706
reen	-11707
▁GR	-11708
▁어미	-11709
▁잠재력	-11710
▁외롭	-11711
==	-11712
▁Res	-11713
▁Power	-11714
▁수용소	-11715
▁1940	-11716
▁Leg	-11717
▁Af	-11718
▁로저스	-11719
attle	-11720
▁그랜	-11721
▁급기	-11722
▁우습	-11723
▁주황색	-11724
▁재사용	-11725
▁귀하	-11726
▁숙이	-11727
inn	-11728
▁스퍼	-11729
▁페이트	-11730
▁슬퍼하	-11731
▁차용	-11732
▁배상	-11733
▁결사	-11734
▁법안	-11735
▁볼텍스	-11736
▁남작	-11737
▁행방불명	-11738
▁제다이	-11739
▁처절	-11740
▁은혜	-11741
▁치사	-11742
▁Hard	-11743
▁추적자	-11744
▁RC	-11745
▁교관	-11746
▁조력자	-11747
▁MR	-11748
▁송출	-11749
▁영남	-11750
▁월급	-11751
▁Pv	-11752
▁열악	-11753
▁자판	-11754
▁청원	-11755
▁히토미	-11756
▁접점	-11757
▁혹사	-11758
▁따라다니	-11759
못미	-11760
▁감히	-11761
▁런닝	-11762
▁거스르	-11763
▁지못미	-11764
▁고산	-11765
▁넓히	-11766
▁장제스	-11767
▁UI	-11768
▁공약	-11769
▁저상	-11770
▁크리스티	-11771
▁마요	-11772
▁쿠루	-11773
▁전산	-11774
▁냉각	-11775
▁닫히	-11776
▁리조	-11777
▁준결승	-11778
▁ARM	-11779
▁마운드	-11780
▁워낙에	-11781
아라	-11782
▁경선	-11783
▁채집	-11784
▁코이	-11785
▁호로	-11786
징어	-11787
▁수복	-11788
▁쐐기	-11789
▁직결	-11790
쌔신	-11791
▁Ma	-11792
▁카즈마	-11793
▁Sing	-11794
▁어쌔신	-11795
▁편안	-11796
▁카를로스	-11797
▁배기	-11798
▁카밀	-11799
놀이	-11800
▁Che	-11801
▁여정	-11802
▁노려보	-11803
▁베인	-11804
▁출근	-11805
▁출중	-11806
장이	-11807
75	-11808
▁매너	-11809
▁켈리	-11810
▁진행자	-11811
▁Life	-11812
니클	-11813
ern	-11814
▁co	-11815
▁구두	-11816
▁동요	-11817
▁기복	-11818
XT	-11819
▁공과	-11820
▁보잉	-11821
▁준공	-11822
▁미코토	-11823
▁천주교	-11824
▁독서	-11825
▁블래스트	-11826
▁제원	-11827
▁Master	-11828
▁응원가	-11829
▁트리스	-11830
▁쪼개	-11831
▁선방	-11832
TC	-11833
▁ADV	-11834
▁모닝	-11835
▁가호	-11836
규모	-11837
▁무르	-11838
큘라	-11839
ars	-11840
▁김두한	-11841
▁키사	-11842
▁미끄	-11843
▁실정	-11844
▁여권	-11845
▁주고받	-11846
▁무효화	-11847
▁정확도	-11848
토르	-11849
▁제라	-11850
▁im	-11851
▁망가	-11852
▁나들	-11853
▁슬리	-11854
▁호기심	-11855
▁무빙	-11856
▁Rem	-11857
준표	-11858
▁전두환	-11859
▁설화	-11860
▁부럽	-11861
▁코파	-11862
▁전세	-11863
▁튜닝	-11864
▁나들목	-11865
▁예언자	-11866
▁VOCALOID	-11867
▁탈당	-11868
asy	-11869
▁화나	-11870
▁광탈	-11871
▁불신	-11872
▁징징	-11873
▁휴게소	-11874
니스트	-11875
to	-11876
▁훅	-11877
▁토로	-11878
▁LCK	-11879
▁출루율	-11880
총리	-11881
▁Lo	-11882
▁한도	-11883
▁농사	-11884
▁동탁	-11885
▁일어서	-11886
rain	-11887
▁헤매	-11888
▁반대편	-11889
▁러시아어	-11890
▁형편없	-11891
▁불어	-11892
▁뷰티	-11893
▁데우스	-11894
▁민정	-11895
▁Fem	-11896
▁시가지	-11897
▁비장	-11898
▁원활	-11899
▁야심	-11900
▁사출	-11901
▁동체	-11902
IE	-11903
▁사안	-11904
▁당첨	-11905
▁1930	-11906
▁충청북도	-11907
▁네이트	-11908
▁부흥	-11909
▁Out	-11910
▁카오리	-11911
▁쩔	-11912
▁노기	-11913
▁다짐	-11914
UE	-11915
▁이변	-11916
▁리전	-11917
▁소매	-11918
▁픽업	-11919
▁실명	-11920
▁더욱이	-11921
▁증기	-11922
▁지주	-11923
▁카디	-11924
ana	-11925
▁부당	-11926
▁열등	-11927
▁카노	-11928
▁교향	-11929
▁테일러	-11930
▁근성	-11931
▁더비	-11932
▁탬	-11933
▁매칭	-11934
▁댄서	-11935
심장	-11936
▁농협	-11937
▁시에	-11938
▁자처	-11939
▁늦추	-11940
▁창병	-11941
▁무림	-11942
▁매출액	-11943
▁체리	-11944
▁금호	-11945
▁차후	-11946
▁OPS	-11947
마침	-11948
▁일절	-11949
차례	-11950
▁마차	-11951
▁뽐내	-11952
▁센티	-11953
▁궤적	-11954
▁사당	-11955
▁서지	-11956
▁저리	-11957
▁포트리스	-11958
▁상용	-11959
▁태자	-11960
테이	-11961
▁OB	-11962
▁금화	-11963
▁포맷	-11964
▁151	-11965
▁자회사	-11966
cl	-11967
▁간선	-11968
ield	-11969
▁구단주	-11970
▁친정	-11971
▁목적지	-11972
▁매달	-11973
▁보리	-11974
▁음주	-11975
▁이질	-11976
▁득점자	-11977
▁때마침	-11978
▁동지	-11979
▁등교	-11980
▁문고	-11981
▁999	-11982
▁내수	-11983
▁모범	-11984
▁어리석	-11985
▁유방	-11986
▁학술	-11987
▁허공	-11988
▁막아	-11989
▁아델	-11990
24	-11991
년기	-11992
▁괴리	-11993
▁End	-11994
▁준하	-11995
▁256	-11996
▁중전차	-11997
▁지극히	-11998
riend	-11999
▁숀	-12000
▁POP	-12001
▁Hell	-12002
▁성역	-12003
▁이은	-12004
▁군복	-12005
▁세레	-12006
▁인벤토리	-12007
무소	-12008
▁신칸	-12009
대기	-12010
▁팔찌	-12011
▁유난히	-12012
atic	-12013
▁코타로	-12014
▁아이리스	-12015
▁사극	-12016
▁깽판	-12017
▁1964	-12018
▁just	-12019
▁교감	-12020
▁동갑	-12021
▁초선	-12022
▁1965	-12023
코어	-12024
클럽	-12025
▁Fi	-12026
▁수험	-12027
▁잔디	-12028
▁이노우	-12029
▁지표	-12030
▁부대원	-12031
▁부호	-12032
▁서해	-12033
▁세세	-12034
▁필연	-12035
▁스타팅	-12036
▁소시	-12037
▁못지않	-12038
▁이용해	-12039
▁아이언맨	-12040
▁수식	-12041
지부	-12042
▁안성	-12043
▁충북	-12044
▁함포	-12045
▁김일성	-12046
▁클레어	-12047
▁신칸센	-12048
▁불로	-12049
▁법학	-12050
▁시스터	-12051
▁""	-12052
▁확립	-12053
▁휩싸이	-12054
▁배열	-12055
▁PVP	-12056
▁Miss	-12057
33	-12058
▁빅토르	-12059
▁가뜩	-12060
▁세일	-12061
▁억지	-12062
▁sc	-12063
▁애교	-12064
ittle	-12065
▁숏	-12066
▁본성	-12067
▁엿보	-12068
▁아몬	-12069
▁커먼	-12070
▁리마	-12071
▁절규	-12072
▁야마구치	-12073
▁발악	-12074
▁퀄컴	-12075
▁향기	-12076
▁구절	-12077
▁파파	-12078
▁Air	-12079
▁night	-12080
▁타나	-12081
▁쑥	-12082
▁반갑	-12083
▁순교	-12084
▁q	-12085
▁SG	-12086
▁스캔들	-12087
▁개개인	-12088
▁애시	-12089
▁포토	-12090
▁집중력	-12091
▁what	-12092
▁대법원	-12093
▁영동	-12094
▁웨어	-12095
▁가뜩이나	-12096
▁교직	-12097
▁아카이	-12098
▁6000	-12099
▁신대	-12100
▁카스미	-12101
▁조폭	-12102
LS	-12103
동원	-12104
▁에일리언	-12105
▁반항	-12106
▁중견수	-12107
▁설비	-12108
▁김택	-12109
▁오징어	-12110
▁팔라딘	-12111
▁Vo	-12112
▁아홉	-12113
▁케로	-12114
▁서정	-12115
▁후예	-12116
▁연구실	-12117
▁이치고	-12118
▁380	-12119
▁트로이	-12120
▁럼블	-12121
▁가급적	-12122
▁일본식	-12123
▁랜턴	-12124
▁악랄	-12125
▁액셀	-12126
▁Hy	-12127
▁바비	-12128
▁역병	-12129
▁콜드	-12130
▁초당	-12131
▁자크	-12132
▁신흥	-12133
▁직역	-12134
▁학번	-12135
블릿	-12136
▁스타크	-12137
▁VR	-12138
▁왠만	-12139
▁쿠파	-12140
▁소감	-12141
▁소동	-12142
▁Mod	-12143
▁손아	-12144
▁수녀	-12145
▁출몰	-12146
▁자주포	-12147
뮤직	-12148
▁바주카	-12149
▁샤크	-12150
▁고폭탄	-12151
▁국산	-12152
▁레몬	-12153
▁직구	-12154
▁EMP	-12155
▁볼륨	-12156
▁야드	-12157
▁임원	-12158
▁폿	-12159
▁넥슨	-12160
레스트	-12161
▁스콧	-12162
▁1920	-12163
▁게릴라	-12164
▁설계도	-12165
▁성형	-12166
▁차관	-12167
▁패미	-12168
▁포지	-12169
▁양측	-12170
▁즉각	-12171
▁토오루	-12172
▁쏠쏠	-12173
▁토네	-12174
▁로딩	-12175
▁페르난	-12176
28	-12177
▁강행	-12178
▁노엘	-12179
▁서대	-12180
▁시코	-12181
▁챌린저	-12182
▁승려	-12183
▁YOU	-12184
▁라틴어	-12185
▁상체	-12186
▁Di	-12187
▁MT	-12188
▁차선	-12189
▁페니	-12190
▁따돌리	-12191
▁접근성	-12192
▁강판	-12193
▁전폭	-12194
▁한심	-12195
▁무전	-12196
▁마도사	-12197
▁그려	-12198
▁뮬	-12199
▁연비	-12200
▁퍼부	-12201
사관	-12202
▁하타	-12203
▁패기	-12204
▁King	-12205
▁자신감	-12206
▁Sy	-12207
▁가르침	-12208
▁조영	-12209
▁공산주의	-12210
▁칙	-12211
▁예장	-12212
▁총탄	-12213
▁Ang	-12214
▁드라군	-12215
▁수상자	-12216
▁매스	-12217
▁살피	-12218
▁소규모	-12219
▁일렉트로	-12220
▁최영	-12221
▁XXX	-12222
▁마에다	-12223
▁노조미	-12224
▁상가	-12225
▁도요	-12226
▁정동	-12227
▁자수	-12228
▁타케시	-12229
▁EA	-12230
▁기성	-12231
▁노이즈	-12232
▁밋	-12233
이센	-12234
▁진료	-12235
▁바루	-12236
▁건재	-12237
▁악용	-12238
▁파이브	-12239
▁승천	-12240
▁오로라	-12241
▁수고	-12242
▁페가	-12243
▁용맹	-12244
숨에	-12245
포드	-12246
▁리에	-12247
▁시몬	-12248
▁적진	-12249
▁호쿠	-12250
▁단숨에	-12251
ony	-12252
▁tvN	-12253
▁에밀리	-12254
란트	-12255
▁첨단	-12256
▁IG	-12257
▁빈사	-12258
무기	-12259
▁리우	-12260
테이너	-12261
▁전리	-12262
▁광신	-12263
▁밀집	-12264
▁박격	-12265
▁펠리	-12266
▁먹방	-12267
▁다비	-12268
▁허위	-12269
▁카타르	-12270
▁파인	-12271
▁초사	-12272
▁퇴출	-12273
▁태조	-12274
▁0000	-12275
▁샤프	-12276
▁크루즈	-12277
▁인터페이스	-12278
로프	-12279
▁타국	-12280
▁밉	-12281
▁콘티	-12282
▁깁	-12283
▁딱딱	-12284
▁생산력	-12285
▁UFC	-12286
▁퇴사	-12287
▁밀란	-12288
▁말미	-12289
▁동인지	-12290
▁카무이	-12291
▁서킷	-12292
▁수비진	-12293
▁타노스	-12294
▁운운	-12295
▁리쿠	-12296
▁사임	-12297
▁우아	-12298
▁안산	-12299
▁오인	-12300
▁길들이	-12301
▁사사키	-12302
어먹	-12303
mania	-12304
▁소극	-12305
▁카린	-12306
▁대상자	-12307
▁스피커	-12308
▁STER	-12309
▁플루	-12310
ma	-12311
▁원내	-12312
▁와이어	-12313
▁안면	-12314
▁은밀	-12315
▁선대	-12316
▁실황	-12317
▁원고	-12318
▁총격	-12319
미스	-12320
▁선제골	-12321
▁드라큘라	-12322
▁로사	-12323
▁대대로	-12324
▁만료	-12325
▁재위	-12326
▁옵티	-12327
▁자연수	-12328
▁재난	-12329
▁웨이트	-12330
▁저격총	-12331
▁카탈	-12332
▁ㄹㅏㅁ	-12333
▁대주	-12334
▁이우	-12335
▁이선	-12336
▁대출	-12337
▁솔라	-12338
▁유토	-12339
▁프랭	-12340
▁아이작	-12341
▁투하	-12342
▁덫	-12343
▁멀쩡히	-12344
▁학회	-12345
▁Cy	-12346
▁낙인	-12347
▁보증	-12348
▁게리온	-12349
▁카지노	-12350
▁일진	-12351
▁변질	-12352
곡동	-12353
타르	-12354
▁방금	-12355
▁태세	-12356
▁Run	-12357
▁관동	-12358
▁천계	-12359
▁1600	-12360
단체	-12361
▁벅스	-12362
▁진가	-12363
▁소용돌이	-12364
▁가브리엘	-12365
▁포럼	-12366
▁IDOL	-12367
밀리아	-12368
▁치명상	-12369
▁태블릿	-12370
▁되살아나	-12371
be	-12372
▁공성전	-12373
▁카이사르	-12374
터스	-12375
▁초래	-12376
▁야쿠자	-12377
▁염려	-12378
▁목요일	-12379
▁스티커	-12380
ual	-12381
인드	-12382
▁캐롤	-12383
▁메테오	-12384
▁131	-12385
ret	-12386
서야	-12387
▁생산량	-12388
▁스위트	-12389
▁든	-12390
▁부평	-12391
▁주방	-12392
▁무궁화	-12393
▁남동	-12394
▁좌표	-12395
▁축적	-12396
▁사에	-12397
▁청산	-12398
▁다단	-12399
▁마사키	-12400
▁물리학	-12401
하하	-12402
▁장편	-12403
▁마이트	-12404
회장	-12405
▁SV	-12406
▁민원	-12407
▁자유자재	-12408
▁케이트	-12409
▁광복	-12410
▁아야카	-12411
▁UM	-12412
▁지그	-12413
▁수요일	-12414
▁white	-12415
▁우체국	-12416
▁샴	-12417
▁괴담	-12418
▁경성	-12419
▁칠레	-12420
▁MLB	-12421
▁램프	-12422
▁서초	-12423
페르	-12424
▁벡터	-12425
▁우루과이	-12426
▁빅뱅	-12427
▁외래	-12428
▁사로잡히	-12429
▁MASTER	-12430
▁전교	-12431
▁호전	-12432
▁전편	-12433
▁골리	-12434
미즈	-12435
▁다중	-12436
▁don	-12437
▁내야수	-12438
ecial	-12439
ㅈㅓㅇ	-12440
▁단골	-12441
▁부도	-12442
▁이승만	-12443
▁대각	-12444
▁뒤덮	-12445
▁School	-12446
▁하야토	-12447
▁동창	-12448
▁원호	-12449
▁인맥	-12450
무장	-12451
▁SO	-12452
▁가축	-12453
권자	-12454
▁제르	-12455
셔츠	-12456
징가	-12457
▁마징가	-12458
▁통신사	-12459
ane	-12460
▁입학식	-12461
▁궁지	-12462
▁물들	-12463
▁미타	-12464
▁백합	-12465
▁분기점	-12466
▁달걀	-12467
▁욕하	-12468
▁테이크	-12469
▁대파	-12470
▁흑화	-12471
내리	-12472
▁결함	-12473
▁영미	-12474
▁세나	-12475
▁경매	-12476
▁강성	-12477
▁Rec	-12478
▁꺾이	-12479
▁마커	-12480
▁미시	-12481
▁렀다	-12482
범죄	-12483
▁장타율	-12484
▁도도	-12485
▁소실	-12486
▁탄도	-12487
▁고속도	-12488
▁지상파	-12489
▁증권	-12490
▁막바지	-12491
▁홍준표	-12492
▁김전	-12493
▁way	-12494
질기	-12495
ope	-12496
▁Sound	-12497
▁김희	-12498
▁여고생	-12499
▁합당	-12500
▁끈질기	-12501
▁제시카	-12502
▁쉘	-12503
▁박준	-12504
▁인내	-12505
▁Art	-12506
▁Arm	-12507
▁마운트	-12508
▁마이너스	-12509
▁Yeah	-12510
▁피에	-12511
▁피드백	-12512
▁사쿠라이	-12513
▁루카스	-12514
▁아루	-12515
티어	-12516
행위	-12517
▁일련	-12518
퇴근	-12519
▁매수	-12520
▁시집	-12521
Fat	-12522
▁이과	-12523
▁괄	-12524
▁설레	-12525
▁히노	-12526
▁둘러싸이	-12527
▁어인	-12528
▁완수	-12529
▁헌신	-12530
▁소설가	-12531
▁베가	-12532
▁계열사	-12533
니즘	-12534
어찌	-12535
▁공로	-12536
▁프로리그	-12537
▁계좌	-12538
▁이마트	-12539
려드	-12540
부시	-12541
▁바이스	-12542
바퀴	-12543
▁레지스	-12544
elf	-12545
▁강적	-12546
▁리트	-12547
베르트	-12548
▁BAS	-12549
▁소피아	-12550
▁박주	-12551
▁적료	-12552
▁고속버스	-12553
▁고어	-12554
▁그닥	-12555
▁기밀	-12556
▁동래	-12557
일으키	-12558
▁당나라	-12559
▁마모루	-12560
수수	-12561
▁EM	-12562
▁루이지	-12563
▁불러일으키	-12564
▁두부	-12565
▁컨트롤러	-12566
ision	-12567
▁Femme	-12568
재판	-12569
▁작별	-12570
▁로스앤	-12571
▁로스앤젤레스	-12572
▁오너	-12573
▁아멜	-12574
▁튀기	-12575
▁Rev	-12576
▁1961	-12577
▁부츠	-12578
▁Cat	-12579
대교	-12580
▁리베	-12581
▁양국	-12582
▁레이터	-12583
▁허구	-12584
▁스코프	-12585
▁편대	-12586
▁어찌어찌	-12587
▁부식	-12588
▁소행	-12589
▁대본	-12590
▁자진	-12591
▁플래닛	-12592
▁세르비아	-12593
▁Ge	-12594
▁간략	-12595
▁경희	-12596
▁모친	-12597
▁슈퍼스타	-12598
▁WE	-12599
▁VIP	-12600
▁브라더	-12601
▁그놈	-12602
▁원천	-12603
▁아그	-12604
▁총괄	-12605
야샤	-12606
▁이누야샤	-12607
에이터	-12608
▁발칸	-12609
▁실무	-12610
▁불멸	-12611
▁꽝	-12612
▁극소수	-12613
▁김전일	-12614
▁술법	-12615
▁입술	-12616
▁구마	-12617
▁비시	-12618
▁공방전	-12619
즈카	-12620
▁빨강	-12621
▁후일담	-12622
▁어드밴스	-12623
▁DO	-12624
we	-12625
▁야시	-12626
▁태그팀	-12627
▁뒤집히	-12628
▁식신	-12629
▁파산	-12630
▁카가	-12631
▁우크라	-12632
수스	-12633
▁쿠르	-12634
▁지령	-12635
▁무작정	-12636
▁여당	-12637
▁요하	-12638
▁석궁	-12639
▁돌아서	-12640
▁페더	-12641
▁군기	-12642
▁족장	-12643
▁사용법	-12644
카즈	-12645
▁제멋	-12646
▁경량	-12647
▁할리우드	-12648
▁시궁	-12649
▁피처	-12650
▁발전기	-12651
Fatale	-12652
▁자취	-12653
▁FemmeFatale	-12654
꿈치	-12655
▁진작	-12656
▁쓸데없	-12657
쿠로	-12658
▁무언	-12659
▁허세	-12660
▁아의	-12661
str	-12662
ㄴㅔ	-12663
▁반말	-12664
▁수락	-12665
▁정명	-12666
▁다이나	-12667
ational	-12668
같이	-12669
▁회화	-12670
▁일보	-12671
▁방황	-12672
▁정계	-12673
▁대잠	-12674
▁이에	-12675
▁크로니클	-12676
▁예명	-12677
▁하세	-12678
ouse	-12679
▁dis	-12680
수아	-12681
▁황태자	-12682
SS	-12683
▁메꾸	-12684
▁가명	-12685
▁신디	-12686
▁성도	-12687
▁양파	-12688
▁연금술	-12689
▁에이전트	-12690
▁소진	-12691
appy	-12692
▁껄	-12693
▁마작	-12694
▁하워드	-12695
▁넵	-12696
▁NHK	-12697
▁뛰쳐	-12698
▁검은색	-12699
▁그려지	-12700
▁얼핏	-12701
▁이스터	-12702
AG	-12703
▁섬유	-12704
▁헬스	-12705
▁급기야	-12706
ORE	-12707
▁혼종	-12708
▁로만	-12709
▁반환	-12710
▁악세	-12711
▁스칼렛	-12712
▁키리토	-12713
▁소심	-12714
▁창업	-12715
▁효과음	-12716
ㄴㅈㅓㅇ	-12717
▁하임	-12718
▁미츠루	-12719
▁br	-12720
▁후타	-12721
▁네모	-12722
▁호노카	-12723
▁화수	-12724
▁광석	-12725
▁병단	-12726
축구	-12727
▁배지	-12728
스트로	-12729
케인	-12730
▁애당초	-12731
▁유로파	-12732
▁Order	-12733
▁교섭	-12734
▁상회	-12735
ness	-12736
휴일	-12737
▁당원	-12738
▁점거	-12739
▁카도	-12740
▁하부	-12741
투아	-12742
▁수준급	-12743
▁1100	-12744
▁삼거리	-12745
▁신주쿠	-12746
▁난전	-12747
▁팝픈	-12748
▁팝픈뮤직	-12749
제국	-12750
▁스플래시	-12751
▁키퍼	-12752
▁교주	-12753
▁택배	-12754
▁MD	-12755
▁초필	-12756
▁미지수	-12757
▁제정신	-12758
▁바하	-12759
▁좌익수	-12760
ㅇㅓㄴㅈㅓㅇ	-12761
라이나	-12762
▁아즈사	-12763
▁자잘	-12764
▁주범	-12765
▁주작	-12766
▁기미	-12767
▁토론토	-12768
▁천적	-12769
▁성채	-12770
▁호세	-12771
▁양키스	-12772
▁김혜	-12773
▁양현	-12774
ㅅㅔ	-12775
▁엄지	-12776
▁Elect	-12777
▁폭동	-12778
▁조운	-12779
▁적발	-12780
▁펄스	-12781
▁이치로	-12782
▁매진	-12783
▁코카	-12784
▁콜로니	-12785
▁기마	-12786
델피아	-12787
▁필라델피아	-12788
먹이	-12789
▁소피	-12790
▁^	-12791
▁당주	-12792
▁시엘	-12793
▁정립	-12794
▁한몫	-12795
▁완전체	-12796
▁요미우리	-12797
사이드	-12798
시계	-12799
▁과부	-12800
▁미라클	-12801
▁히데요시	-12802
▁깊숙	-12803
▁종일	-12804
inc	-12805
▁들려오	-12806
▁다인	-12807
▁흐리	-12808
▁TCG	-12809
▁빼돌리	-12810
▁파고들	-12811
▁블레이즈	-12812
▁까닭	-12813
저트	-12814
▁이안	-12815
▁EXH	-12816
▁ㄷㅡㄴㄱㅏ	-12817
▁프로세서	-12818
▁기한	-12819
▁복싱	-12820
▁빌라	-12821
▁서드	-12822
▁피곤	-12823
▁쓸모없	-12824
▁어비스	-12825
▁옵티머스	-12826
▁CON	-12827
투수	-12828
▁연예계	-12829
▁프랑켄	-12830
▁광범	-12831
▁기온	-12832
▁말장난	-12833
▁전리품	-12834
▁시한	-12835
▁수평	-12836
▁태종	-12837
▁프론트	-12838
▁본디	-12839
▁도리어	-12840
▁적색	-12841
▁선발투수	-12842
▁결장	-12843
▁대사관	-12844
▁운항	-12845
날드	-12846
▁지망	-12847
▁휴일	-12848
▁신이치	-12849
▁world	-12850
데아	-12851
▁지기	-12852
▁스왑	-12853
▁양호	-12854
▁214	-12855
▁RG	-12856
▁연하	-12857
▁일쑤	-12858
▁고령	-12859
▁볼프	-12860
▁후궁	-12861
▁씁	-12862
▁부추	-12863
히트	-12864
▁냉전	-12865
▁조형	-12866
▁유포	-12867
▁She	-12868
그룹	-12869
▁스크래	-12870
▁폴더	-12871
▁리노	-12872
▁손흥	-12873
▁사이퍼	-12874
▁작살	-12875
우루스	-12876
▁SHOW	-12877
▁정은	-12878
▁경장	-12879
▁당분	-12880
▁키워드	-12881
▁강유	-12882
▁교란	-12883
IV	-12884
▁재고	-12885
▁리브	-12886
▁돌려보내	-12887
▁루터	-12888
▁다이브	-12889
▁한조	-12890
day	-12891
omb	-12892
▁고독	-12893
▁비토	-12894
▁정거	-12895
▁1943	-12896
▁산악	-12897
▁공휴일	-12898
▁스폰지	-12899
▁제식	-12900
▁불사조	-12901
▁도호	-12902
its	-12903
▁탄종	-12904
사의	-12905
▁성추	-12906
▁후안	-12907
▁이노우에	-12908
▁노숙	-12909
▁프런트	-12910
▁건전	-12911
▁승기	-12912
▁들이대	-12913
▁압살	-12914
▁유서	-12915
▁Da	-12916
▁임창	-12917
▁아지트	-12918
▁속삭	-12919
▁언행	-12920
▁대표작	-12921
▁손흥민	-12922
▁섭외	-12923
▁ap	-12924
▁명작	-12925
▁더스트	-12926
▁도쿠가와	-12927
▁탄소	-12928
▁예비군	-12929
▁다툼	-12930
▁코시	-12931
▁도전자	-12932
퍼런스	-12933
▁초토	-12934
투표	-12935
▁셀프	-12936
▁naver	-12937
▁정교회	-12938
인간	-12939
▁**	-12940
▁340	-12941
▁정류소	-12942
▁행태	-12943
▁beatmania	-12944
▁직감	-12945
▁상속	-12946
▁에리카	-12947
▁제이드	-12948
▁1942	-12949
ham	-12950
▁141	-12951
스톤	-12952
▁해수	-12953
▁확연히	-12954
▁오버로드	-12955
▁여사	-12956
▁토탈	-12957
▁박격포	-12958
▁콜라보레이션	-12959
▁미성년자	-12960
▁텔레비전	-12961
▁트린	-12962
ious	-12963
▁툼	-12964
▁겨누	-12965
▁쟁탈	-12966
▁사부	-12967
▁애프	-12968
▁엑소	-12969
▁폭발물	-12970
▁좀비	-12971
▁레스터	-12972
▁개인전	-12973
▁윌슨	-12974
댓말	-12975
▁존댓말	-12976
▁프로이센	-12977
▁공익	-12978
EX	-12979
투르	-12980
▁SW	-12981
▁어처	-12982
▁출퇴근	-12983
▁오클	-12984
아티아	-12985
▁올라서	-12986
▁크로아티아	-12987
▁게임기	-12988
▁장병	-12989
▁현명	-12990
▁불가사의	-12991
▁도피	-12992
▁캐서	-12993
세데스	-12994
▁메르세데스	-12995
▁증세	-12996
▁창당	-12997
▁서원	-12998
▁te	-12999
▁폭사	-13000
▁셜록	-13001
▁신축	-13002
▁상대식	-13003
▁상권	-13004
▁양주	-13005
▁합하	-13006
▁프로그래밍	-13007
▁지자	-13008
▁액세서리	-13009
▁까먹	-13010
▁글러브	-13011
▁다정	-13012
▁저번	-13013
▁Not	-13014
▁광범위	-13015
▁진군	-13016
▁평원	-13017
▁입맛	-13018
지원	-13019
▁캡콤	-13020
▁위즈	-13021
▁합창	-13022
▁정거장	-13023
▁러셀	-13024
▁스파르타	-13025
▁자연스레	-13026
▁김창	-13027
▁하드코어	-13028
▁오모	-13029
▁옥타	-13030
주리	-13031
▁군함	-13032
▁거느리	-13033
▁동봉	-13034
▁술탄	-13035
▁송구	-13036
▁미끄러지	-13037
aut	-13038
▁종사	-13039
▁든든	-13040
▁디디	-13041
▁시그마	-13042
ivers	-13043
▁스크래치	-13044
▁싱어	-13045
▁장안	-13046
▁국력	-13047
던트	-13048
▁반다이	-13049
▁피라미	-13050
▁표본	-13051
▁DEF	-13052
▁리액션	-13053
요환	-13054
▁막부	-13055
▁위탁	-13056
▁Ke	-13057
▁바우	-13058
▁사이오	-13059
▁로망	-13060
▁네메	-13061
▁주되	-13062
▁공동체	-13063
패스	-13064
▁With	-13065
27	-13066
▁위화	-13067
▁질량	-13068
▁상반기	-13069
▁글래	-13070
▁아부	-13071
▁RAW	-13072
23	-13073
ERS	-13074
▁프리즈	-13075
데르	-13076
▁상표	-13077
▁윌리엄스	-13078
▁세션	-13079
▁화자	-13080
▁브릿지	-13081
▁랫	-13082
▁마음껏	-13083
▁Every	-13084
ANC	-13085
olution	-13086
▁체질	-13087
레미	-13088
▁군사력	-13089
매니아	-13090
▁ㄴㅡㄴㄱㅜㄴ	-13091
▁오재	-13092
▁내걸	-13093
▁정세	-13094
▁와우	-13095
▁꼭두	-13096
▁마이어	-13097
▁아역	-13098
▁임요환	-13099
▁전전	-13100
▁캐서린	-13101
▁열받	-13102
▁탈옥	-13103
▁ㅇㅏㅅ	-13104
▁망자	-13105
▁프리스트	-13106
▁정장	-13107
▁외출	-13108
▁관념	-13109
▁뾰	-13110
▁체이	-13111
▁카바	-13112
▁재임	-13113
olog	-13114
▁어처구니	-13115
▁넘쳐	-13116
▁우시	-13117
45	-13118
▁손바닥	-13119
▁호르	-13120
▁뢰	-13121
▁ph	-13122
▁왼팔	-13123
UC	-13124
▁랏	-13125
▁평민	-13126
▁킹스	-13127
▁310	-13128
무늬	-13129
▁백미	-13130
▁제구	-13131
▁코이치	-13132
▁ㄲㅗ	-13133
▁방정	-13134
▁김준호	-13135
▁대문	-13136
라이어	-13137
▁집결	-13138
▁커리	-13139
▁윈스턴	-13140
▁진정하	-13141
▁고장나	-13142
▁표출	-13143
▁논하	-13144
▁시즈카	-13145
▁사다	-13146
▁환각	-13147
▁원제	-13148
▁소수자	-13149
▁신원	-13150
무니	-13151
지리	-13152
▁if	-13153
▁수원시	-13154
▁최면	-13155
▁나나미	-13156
▁구자	-13157
▁순진	-13158
▁무상	-13159
▁듀티	-13160
▁박병	-13161
▁옐로	-13162
▁피츠	-13163
▁Get	-13164
▁낙원	-13165
▁생사	-13166
▁불상	-13167
▁헌데	-13168
▁경찰관	-13169
▁보답	-13170
▁나날	-13171
▁Chr	-13172
▁류현진	-13173
▁1946	-13174
29	-13175
▁EB	-13176
▁007	-13177
▁도모	-13178
▁정중	-13179
▁주파수	-13180
▁촛	-13181
▁스루	-13182
66	-13183
▁짤방	-13184
▁쾌속	-13185
▁르네	-13186
데기	-13187
▁FR	-13188
▁안나	-13189
▁어우	-13190
▁가솔	-13191
▁CT	-13192
▁커터	-13193
▁해커	-13194
▁미야자키	-13195
▁분경	-13196
▁김정은	-13197
▁최우수	-13198
▁메라	-13199
▁사과문	-13200
▁시저	-13201
▁추석	-13202
▁대부	-13203
▁대명사	-13204
▁시노부	-13205
▁김세	-13206
▁줄곧	-13207
조각	-13208
ely	-13209
▁TB	-13210
▁가출	-13211
▁화요일	-13212
▁ㄴㅡㄴㄱㅜ	-13213
ty	-13214
▁Har	-13215
▁흡연	-13216
▁탐욕	-13217
▁자발	-13218
▁Boy	-13219
▁굳어지	-13220
▁키메라	-13221
▁무자비	-13222
▁해운대	-13223
▁반칙	-13224
나드	-13225
아아	-13226
▁토네이도	-13227
▁벵	-13228
베르토	-13229
▁비하인드	-13230
리에	-13231
킨스	-13232
▁예배	-13233
▁양아치	-13234
icro	-13235
▁빡빡	-13236
ny	-13237
▁기총	-13238
▁1954	-13239
▁스님	-13240
▁영화판	-13241
▁연희	-13242
▁작아지	-13243
▁당당히	-13244
의사	-13245
▁마더	-13246
▁걸어오	-13247
▁담당자	-13248
▁Skill	-13249
즈마	-13250
▁아폴로	-13251
▁슈타인	-13252
▁중앙선	-13253
▁바오	-13254
ters	-13255
받침	-13256
▁민영	-13257
▁한스	-13258
▁홍대	-13259
▁후유증	-13260
▁720	-13261
▁금기	-13262
▁지침	-13263
▁추첨	-13264
▁켄타	-13265
▁부여받	-13266
▁Des	-13267
▁비오	-13268
▁에덴	-13269
▁무협	-13270
▁혜성	-13271
▁1958	-13272
노기	-13273
▁발상	-13274
▁육지	-13275
▁취직	-13276
베리아	-13277
▁괴도	-13278
▁>,	-13279
▁방어선	-13280
▁영분	-13281
▁의미심장	-13282
▁Ab	-13283
▁굴복	-13284
▁마누	-13285
▁리포트	-13286
▁이동하	-13287
▁걸작	-13288
▁섬세	-13289
▁만세	-13290
▁초고	-13291
ㄴㅡ	-13292
소스	-13293
▁전태	-13294
▁설득력	-13295
▁북방	-13296
▁CCTV	-13297
▁단선	-13298
▁리젠	-13299
▁유대인	-13300
▁웨일	-13301
▁매복	-13302
▁추이	-13303
▁츠루	-13304
▁사마의	-13305
▁인즈	-13306
▁이어인	-13307
▁대용	-13308
▁예리	-13309
▁1941	-13310
▁영기	-13311
▁진흙	-13312
▁단테	-13313
테스	-13314
▁젤다	-13315
▁지름	-13316
▁만류	-13317
▁171	-13318
버린	-13319
▁=,	-13320
▁가든	-13321
▁졸개	-13322
ient	-13323
▁단조	-13324
▁다이어트	-13325
▁480	-13326
▁피어	-13327
▁생물학	-13328
▁충성심	-13329
▁DA	-13330
▁미디	-13331
▁체가	-13332
▁성체	-13333
▁시력	-13334
▁OO	-13335
▁교화	-13336
▁부메	-13337
▁수작	-13338
▁기라	-13339
▁미상	-13340
▁Big	-13341
▁트림	-13342
라이즈	-13343
▁잉크	-13344
▁조율	-13345
리우스	-13346
▁양념	-13347
체스	-13348
▁듀엣	-13349
▁id	-13350
▁석화	-13351
▁1900	-13352
르기	-13353
▁성녀	-13354
▁차종	-13355
▁PSP	-13356
▁총사령	-13357
▁견인	-13358
▁자문	-13359
▁협곡	-13360
▁부메랑	-13361
▁카운티	-13362
▁Tri	-13363
▁메스	-13364
▁빡세	-13365
▁유행어	-13366
▁피리	-13367
▁드리프트	-13368
▁png	-13369
▁kn	-13370
▁선공	-13371
▁임관	-13372
▁라오	-13373
▁복음	-13374
▁라자	-13375
▁클락	-13376
▁튜너	-13377
▁제이스	-13378
▁오피스	-13379
▁181	-13380
▁8000	-13381
▁세간	-13382
▁경쟁력	-13383
▁UR	-13384
▁데카	-13385
▁문헌	-13386
▁바바	-13387
▁빅터	-13388
▁수다	-13389
크리트	-13390
▁틀어지	-13391
▁DT	-13392
▁시동	-13393
▁입체	-13394
ful	-13395
uch	-13396
▁기만	-13397
▁만회	-13398
▁태연	-13399
▁채소	-13400
▁동참	-13401
▁어워드	-13402
▁미련	-13403
▁군벌	-13404
칼리	-13405
▁씁쓸	-13406
▁상원	-13407
▁스탠다드	-13408
▁파장	-13409
▁연혁	-13410
▁격돌	-13411
▁원격	-13412
▁조장	-13413
▁고분	-13414
▁천황	-13415
▁방랑	-13416
▁샤이닝	-13417
▁봉기	-13418
▁염소	-13419
▁초식	-13420
▁Ext	-13421
▁스펙터	-13422
▁난동	-13423
▁모라	-13424
무진	-13425
▁XP	-13426
▁부화	-13427
▁오디	-13428
▁가치관	-13429
bl	-13430
▁격노	-13431
▁낯설	-13432
▁성모	-13433
▁귀중	-13434
클레스	-13435
▁생몰	-13436
▁증원	-13437
▁직관	-13438
토시	-13439
프레스	-13440
▁창의	-13441
▁통용	-13442
▁불러들이	-13443
▁RS	-13444
ship	-13445
기업	-13446
▁봉황	-13447
▁기관차	-13448
▁ㅅㅏ	-13449
▁원년	-13450
85	-13451
▁성균	-13452
▁선체	-13453
슬러	-13454
▁유감	-13455
▁가토	-13456
▁STAR	-13457
▁아제	-13458
▁제비	-13459
▁츠카사	-13460
▁박세	-13461
▁윤종	-13462
▁자위대	-13463
▁성균관	-13464
▁만두	-13465
▁송병	-13466
▁샤아	-13467
▁양면	-13468
▁회고	-13469
테리	-13470
▁장기간	-13471
▁퍼스	-13472
▁나츠미	-13473
자카	-13474
▁학창	-13475
▁이성계	-13476
▁1948	-13477
▁야하	-13478
▁갈래	-13479
▁비숍	-13480
▁디테일	-13481
▁잠복	-13482
▁흑백	-13483
기지	-13484
▁역기	-13485
▁qu	-13486
▁부풀	-13487
▁풍자	-13488
▁클로즈	-13489
▁려	-13490
▁송이	-13491
▁255	-13492
▁느긋	-13493
▁배분	-13494
▁정인	-13495
▁수리검	-13496
리케이션	-13497
▁Inf	-13498
▁모호	-13499
▁히로유키	-13500
▁조제	-13501
▁벌칙	-13502
▁Bar	-13503
▁Sil	-13504
▁우익수	-13505
▁뫼	-13506
▁타라	-13507
▁서커스	-13508
▁프레디	-13509
▁웍	-13510
▁시궁창	-13511
▁군산	-13512
▁퇴근	-13513
레트	-13514
▁KS	-13515
▁베니	-13516
▁즐거	-13517
▁청량	-13518
▁그리스도	-13519
정역	-13520
▁전년	-13521
▁왕궁	-13522
▁텔레콤	-13523
▁아테네	-13524
▁커브	-13525
▁ㄱㅡ	-13526
▁OR	-13527
▁White	-13528
▁손녀	-13529
▁오드	-13530
니트	-13531
▁토템	-13532
▁다이너	-13533
▁판도라	-13534
버릇	-13535
▁진과	-13536
▁Win	-13537
▁솔로몬	-13538
▁프레데	-13539
▁요일	-13540
▁창시	-13541
▁송도	-13542
▁Back	-13543
ump	-13544
▁크래	-13545
▁농어	-13546
▁스테이트	-13547
co	-13548
▁여의도	-13549
▁좀처럼	-13550
▁작렬	-13551
혁명	-13552
공격	-13553
▁왕따	-13554
▁콘크리트	-13555
▁파키스탄	-13556
▁치중	-13557
▁PO	-13558
▁늘어놓	-13559
모사	-13560
산물	-13561
▁떠들	-13562
26	-13563
▁타쿠미	-13564
▁바이올린	-13565
▁특촬	-13566
▁공병	-13567
▁피에르	-13568
▁재팬	-13569
▁하와이	-13570
튀기	-13571
ift	-13572
▁접시	-13573
▁태고	-13574
▁PM	-13575
▁바늘	-13576
▁연루	-13577
▁jp	-13578
▁단신	-13579
▁고양시	-13580
▁폭포	-13581
▁샨	-13582
▁아틀레	-13583
▁최전	-13584
▁Fre	-13585
▁간식	-13586
▁down	-13587
▁박민	-13588
▁뻥튀기	-13589
▁초원	-13590
▁제이크	-13591
▁NG	-13592
▁나기사	-13593
호도	-13594
노미야	-13595
RAM	-13596
▁초급	-13597
▁허영	-13598
▁이윽	-13599
▁420	-13600
▁실험실	-13601
틀링	-13602
▁학계	-13603
▁이윽고	-13604
▁215	-13605
▁러블리	-13606
도스	-13607
▁색채	-13608
▁마비노기	-13609
▁제멋대로	-13610
▁금전	-13611
▁지독	-13612
▁GL	-13613
▁카세	-13614
▁거슬리	-13615
▁관악	-13616
▁맥도	-13617
▁어지간히	-13618
▁맏	-13619
▁갈고리	-13620
ENT	-13621
▁백색	-13622
▁심리학	-13623
따르	-13624
▁텐션	-13625
▁컨테이너	-13626
▁집정	-13627
▁소음기	-13628
▁어중간	-13629
▁횡단	-13630
▁거주지	-13631
▁켄이치	-13632
▁FE	-13633
▁도타	-13634
▁off	-13635
▁1949	-13636
▁앞마당	-13637
마츠	-13638
▁오덕	-13639
▁하르	-13640
▁사토시	-13641
ATION	-13642
▁친밀	-13643
▁트레이서	-13644
▁every	-13645
▁서독	-13646
▁포털	-13647
▁수소	-13648
▁포고	-13649
레인지	-13650
▁사육	-13651
▁Met	-13652
▁중얼거리	-13653
▁흘러나오	-13654
▁강변	-13655
▁욕구	-13656
▁자드	-13657
▁실천	-13658
edia	-13659
▁정유	-13660
▁자손	-13661
▁시구	-13662
▁헤딩	-13663
▁쇼핑몰	-13664
▁성서	-13665
▁메아리	-13666
▁성폭행	-13667
각시	-13668
▁나츠키	-13669
▁빌미	-13670
득점	-13671
▁Sky	-13672
모니	-13673
바위	-13674
▁Hey	-13675
▁테크노	-13676
▁가차	-13677
▁열풍	-13678
▁인장	-13679
▁틀림	-13680
▁하코	-13681
링크	-13682
▁쇠퇴	-13683
▁유엔	-13684
▁CEO	-13685
▁늘어지	-13686
▁나고	-13687
▁육박	-13688
▁후려	-13689
▁인프라	-13690
▁퍼뜨리	-13691
▁듬	-13692
▁라운	-13693
▁아론	-13694
▁선구	-13695
▁안도	-13696
▁인기투표	-13697
▁양동	-13698
▁제휴	-13699
▁이승엽	-13700
▁남용	-13701
▁변종	-13702
▁최성	-13703
ALL	-13704
▁병맛	-13705
▁208	-13706
▁현존	-13707
▁럽	-13708
▁무의	-13709
▁오퍼레이터	-13710
▁광부	-13711
▁235	-13712
▁Act	-13713
▁서진	-13714
▁동선	-13715
ERT	-13716
▁파업	-13717
▁UFO	-13718
▁}{	-13719
▁FN	-13720
▁패거리	-13721
▁대한항공	-13722
▁향수	-13723
▁거제	-13724
▁편제	-13725
▁육식	-13726
▁수배	-13727
▁1936	-13728
▁시중	-13729
▁체이스	-13730
▁비늘	-13731
▁되돌아가	-13732
케이	-13733
▁뇌격	-13734
▁대여	-13735
▁대머리	-13736
▁런닝맨	-13737
▁바시	-13738
▁정현	-13739
▁333	-13740
▁갭	-13741
BM	-13742
▁거물	-13743
▁삽화	-13744
▁사다리	-13745
▁하렘	-13746
oud	-13747
▁출생지	-13748
▁도르트	-13749
사우루스	-13750
▁병영	-13751
▁알아듣	-13752
드래	-13753
▁메소	-13754
여행	-13755
▁ve	-13756
▁마장	-13757
▁처단	-13758
▁FX	-13759
less	-13760
▁유쾌	-13761
▁휩쓸리	-13762
▁비행선	-13763
▁That	-13764
▁ㄹㅏㄹㄲㅏ	-13765
▁TD	-13766
니스탄	-13767
▁206	-13768
▁철회	-13769
지대	-13770
▁덩크	-13771
네트	-13772
▁아픔	-13773
ize	-13774
▁카멜	-13775
▁NL	-13776
▁본국	-13777
▁코지마	-13778
▁아이리	-13779
▁합방	-13780
▁개틀링	-13781
▁어머	-13782
▁난폭	-13783
▁Song	-13784
▁초동	-13785
▁세츠나	-13786
▁em	-13787
▁김하	-13788
▁살라	-13789
▁항속	-13790
▁극찬	-13791
린스	-13792
▁나루호도	-13793
95	-13794
▁비약	-13795
변속기	-13796
▁디스코	-13797
▁기겁	-13798
▁오마주	-13799
▁설사	-13800
▁심플	-13801
▁con	-13802
천동	-13803
▁경인	-13804
▁참패	-13805
▁May	-13806
▁성문	-13807
▁떨어트리	-13808
▁키바	-13809
▁미쓰	-13810
공화국	-13811
▁문의	-13812
▁아울러	-13813
러드	-13814
bps	-13815
의회	-13816
▁영리	-13817
▁속옷	-13818
▁올라타	-13819
▁피라미드	-13820
▁커넥	-13821
▁젊은이	-13822
방향	-13823
▁부치	-13824
▁161	-13825
▁멸자	-13826
▁김인	-13827
▁헛소리	-13828
▁마츠모토	-13829
▁와일드카드	-13830
▁성검	-13831
▁누마	-13832
▁쭈	-13833
▁소이	-13834
VEL	-13835
▁계보	-13836
▁이따	-13837
▁개드	-13838
▁베라	-13839
▁유목	-13840
ape	-13841
▁라트	-13842
▁팀킬	-13843
빠르	-13844
▁GAM	-13845
▁850	-13846
▁상대편	-13847
▁위나라	-13848
▁마그마	-13849
▁내년	-13850
▁스플릿	-13851
UB	-13852
▁우로	-13853
▁리오스	-13854
▁얀데레	-13855
▁김태균	-13856
▁배급사	-13857
▁페인트	-13858
▁want	-13859
▁유우야	-13860
▁God	-13861
▁감시자	-13862
▁데이브	-13863
▁명인	-13864
▁크러	-13865
▁끝판	-13866
▁표방	-13867
▁풀백	-13868
▁좌석버스	-13869
▁송곳	-13870
▁스릴	-13871
▁정벌	-13872
ger	-13873
▁장래	-13874
▁카에데	-13875
▁가까스로	-13876
▁밴시	-13877
▁불가리아	-13878
IST	-13879
타자	-13880
96	-13881
▁토와	-13882
▁일자리	-13883
▁야기	-13884
▁다나카	-13885
▁디에	-13886
▁모터스	-13887
▁가물	-13888
▁벽돌	-13889
▁여진	-13890
▁선발전	-13891
▁도마뱀	-13892
▁Rain	-13893
▁북극	-13894
aka	-13895
▁독성	-13896
▁호대	-13897
▁RAM	-13898
▁버금	-13899
▁소인	-13900
▁이복	-13901
▁되려	-13902
▁영장	-13903
▁오미	-13904
▁지아	-13905
실히	-13906
ita	-13907
▁언락	-13908
▁내려놓	-13909
▁영창	-13910
▁손수	-13911
▁무법	-13912
▁비욘	-13913
▁보태	-13914
▁징병	-13915
▁때우	-13916
▁인피니트	-13917
때로	-13918
▁청색	-13919
▁어린애	-13920
▁북두	-13921
▁290	-13922
▁플라워	-13923
▁경위	-13924
▁복종	-13925
▁마드	-13926
▁도르트문트	-13927
zy	-13928
▁RF	-13929
▁불운	-13930
▁신시	-13931
▁정렬	-13932
▁심심찮	-13933
모자	-13934
▁난해	-13935
▁Top	-13936
▁무난히	-13937
▁망원	-13938
76	-13939
▁수레	-13940
▁괴로	-13941
ORM	-13942
▁단간	-13943
▁여건	-13944
▁알프레	-13945
주군	-13946
▁서면	-13947
▁열전	-13948
▁하데스	-13949
▁친일	-13950
▁당분간	-13951
▁코스타	-13952
▁페로	-13953
▁좆	-13954
▁."	-13955
▁선도	-13956
▁대강	-13957
▁고려대	-13958
▁마니	-13959
▁포이	-13960
▁퀑	-13961
▁more	-13962
▁콘테	-13963
▁대각선	-13964
▁젯	-13965
▁데이즈	-13966
레인저	-13967
rop	-13968
▁한가	-13969
▁정규군	-13970
▁울부	-13971
▁절묘	-13972
▁특출	-13973
▁책임자	-13974
▁석탄	-13975
▁야채	-13976
▁유추	-13977
▁칼럼	-13978
▁줄줄이	-13979
연합	-13980
▁버디	-13981
▁순교자	-13982
▁Pe	-13983
운전	-13984
▁남구	-13985
▁WAR	-13986
▁친위대	-13987
▁이제동	-13988
▁전용기	-13989
▁내륙	-13990
▁역학	-13991
▁위화감	-13992
▁바실	-13993
▁피고	-13994
▁축구단	-13995
렉트	-13996
암동	-13997
▁1955	-13998
▁스몰	-13999
▁존속	-14000
▁게리	-14001
토록	-14002
▁드레이크	-14003
▁Battle	-14004
▁스케치	-14005
▁자부심	-14006
▁특공대	-14007
▁뒤틀리	-14008
버거	-14009
▁라이터	-14010
▁꼭두각시	-14011
무스	-14012
▁매트릭스	-14013
작전	-14014
IGHT	-14015
▁갑판	-14016
▁칭송	-14017
▁Moon	-14018
▁미셸	-14019
▁역전승	-14020
▁중성	-14021
▁Game	-14022
포스	-14023
▁화속	-14024
▁가창력	-14025
bo	-14026
▁최재	-14027
net	-14028
▁일직	-14029
ward	-14030
▁자아내	-14031
기어	-14032
비우스	-14033
▁행동력	-14034
▁코로나	-14035
▁노브	-14036
ara	-14037
▁선풍	-14038
▁총통	-14039
▁TEC	-14040
▁성추행	-14041
▁플레이트	-14042
▁곡선	-14043
▁과실	-14044
row	-14045
▁이신	-14046
▁인테르	-14047
OK	-14048
▁호타	-14049
▁영락	-14050
▁스케이팅	-14051
블랜드	-14052
com	-14053
▁분사	-14054
▁새로이	-14055
▁클리블랜드	-14056
ren	-14057
▁SUP	-14058
▁킬로	-14059
리아나	-14060
▁부추기	-14061
▁경이	-14062
▁골대	-14063
▁인민공화국	-14064
메다	-14065
▁허리케인	-14066
▁Dragon	-14067
▁새해	-14068
▁KG	-14069
▁레트	-14070
▁카야	-14071
▁태수	-14072
▁나데	-14073
▁내심	-14074
▁212	-14075
버드	-14076
▁독재자	-14077
▁반자동	-14078
▁유명세	-14079
▁NS	-14080
▁터미네이터	-14081
▁max	-14082
▁경호원	-14083
▁북유럽	-14084
▁밸리	-14085
▁개드립	-14086
▁LS	-14087
▁의리	-14088
▁코나미	-14089
▁진나라	-14090
▁데프	-14091
▁Bra	-14092
▁오반	-14093
▁왕녀	-14094
▁치부	-14095
▁강당	-14096
▁본문	-14097
▁흑룡	-14098
▁1959	-14099
▁루시퍼	-14100
▁광저우	-14101
▁울부짖	-14102
클리	-14103
▁부과	-14104
led	-14105
▁대담	-14106
▁소중히	-14107
▁캬	-14108
▁나고야	-14109
▁교육부	-14110
▁they	-14111
러기	-14112
▁LCD	-14113
▁팩토리	-14114
▁뭣	-14115
ㅇㅗㄴ	-14116
▁가메	-14117
▁니키	-14118
▁추월	-14119
부대	-14120
▁피겨	-14121
▁가솔린	-14122
▁사이언	-14123
▁티코	-14124
짜기	-14125
▁Special	-14126
니엄	-14127
▁보단	-14128
▁김현수	-14129
▁치타	-14130
▁토요타	-14131
▁푸른	-14132
▁관제	-14133
▁할당	-14134
▁베이스볼	-14135
▁해임	-14136
▁호스트	-14137
▁목표물	-14138
▁크림슨	-14139
▁발산	-14140
▁원동	-14141
▁조달	-14142
▁밀레니엄	-14143
▁광화	-14144
▁자석	-14145
▁파괴자	-14146
▁민지	-14147
▁협공	-14148
▁잔당	-14149
▁앙리	-14150
▁요건	-14151
▁핵무기	-14152
▁001	-14153
테나	-14154
▁도미니	-14155
▁연방군	-14156
▁온전히	-14157
▁서점	-14158
▁와이드	-14159
▁마티	-14160
코프	-14161
▁십상	-14162
▁의석	-14163
▁서울역	-14164
▁플로리	-14165
▁무찌	-14166
aven	-14167
▁스트레이트	-14168
▁탤	-14169
▁펜스	-14170
▁데이빗	-14171
▁전투원	-14172
▁가변	-14173
▁지갑	-14174
▁들려주	-14175
▁무성	-14176
히사	-14177
▁광양	-14178
▁종자	-14179
럭스	-14180
▁여리	-14181
▁1956	-14182
▁마포	-14183
▁단단히	-14184
▁행선	-14185
▁이치카	-14186
▁카트라이더	-14187
▁빈스	-14188
▁휘둘	-14189
▁베드	-14190
▁우사	-14191
▁쿠미	-14192
▁활주	-14193
▁아산	-14194
▁뒷받침	-14195
▁강연	-14196
▁서사	-14197
▁주군	-14198
▁특허	-14199
▁슐	-14200
▁wiz	-14201
그레	-14202
▁Hot	-14203
LD	-14204
▁레고	-14205
▁무심	-14206
▁Amer	-14207
▁미완	-14208
▁피니시	-14209
▁뮤즈	-14210
▁머들	-14211
▁벨벳	-14212
▁기와	-14213
▁레미	-14214
▁협약	-14215
▁카즈키	-14216
▁안드로메다	-14217
▁신공	-14218
▁장막	-14219
▁Pop	-14220
▁부회장	-14221
▁Track	-14222
카스	-14223
▁등산	-14224
▁심리전	-14225
▁사파이어	-14226
▁되돌아오	-14227
▁에우	-14228
패드	-14229
하이	-14230
▁조회	-14231
▁DAY	-14232
▁플러그	-14233
그래	-14234
▁임프	-14235
▁tw	-14236
▁귀도	-14237
▁탈것	-14238
▁인분	-14239
▁칠흑	-14240
▁토의	-14241
▁물려주	-14242
여지	-14243
▁나시	-14244
▁석방	-14245
▁스켈	-14246
▁FFFF	-14247
▁온화	-14248
▁오스카	-14249
▁이상민	-14250
▁입성	-14251
▁포르노	-14252
▁TG	-14253
▁코리	-14254
▁파드	-14255
▁국사	-14256
▁음양	-14257
▁게이밍	-14258
▁아란	-14259
▁합산	-14260
▁랄프	-14261
▁백신	-14262
▁선진국	-14263
▁발간	-14264
▁무찌르	-14265
▁신령	-14266
▁유민	-14267
▁차남	-14268
▁익스트림	-14269
내기	-14270
바키아	-14271
▁계약자	-14272
▁이시다	-14273
▁Cont	-14274
▁바이올렛	-14275
▁첩보	-14276
▁에스파	-14277
▁대적	-14278
▁1939	-14279
▁적정	-14280
▁경신	-14281
▁마늘	-14282
▁이분	-14283
▁나폴리	-14284
왜란	-14285
▁가네	-14286
▁우와	-14287
▁트리오	-14288
▁TN	-14289
▁네메시스	-14290
▁단절	-14291
▁프랑스군	-14292
▁각기	-14293
▁주스	-14294
▁리바이	-14295
▁임진왜란	-14296
▁아치	-14297
▁사면	-14298
▁멧돼지	-14299
▁마고	-14300
▁뛰어다니	-14301
▁빵빵	-14302
▁역관	-14303
지물	-14304
▁황무지	-14305
▁증후	-14306
play	-14307
▁위인	-14308
▁와타루	-14309
▁".	-14310
▁감도	-14311
▁초회	-14312
ands	-14313
▁Yes	-14314
▁명령어	-14315
▁팔꿈치	-14316
▁내려찍	-14317
▁너구리	-14318
▁금성	-14319
▁뾰족	-14320
▁오피	-14321
▁기병대	-14322
▁패트릭	-14323
▁모티	-14324
▁이화	-14325
▁날아오르	-14326
▁두드리	-14327
▁광주광역시	-14328
▁207	-14329
▁이지스	-14330
34	-14331
▁화장품	-14332
▁교재	-14333
▁차세대	-14334
▁창세기	-14335
▁황자	-14336
▁플라잉	-14337
▁baby	-14338
▁노랑	-14339
▁위생	-14340
▁COM	-14341
두근	-14342
▁단백	-14343
▁청동	-14344
▁외야	-14345
▁풋볼	-14346
▁동물원	-14347
▁티탄	-14348
▁단말기	-14349
쿠버	-14350
▁불기	-14351
ze	-14352
▁구세	-14353
▁넵튠	-14354
▁배고	-14355
▁기타리스트	-14356
바시	-14357
▁매지컬	-14358
▁분자	-14359
▁새신	-14360
▁터무니	-14361
▁래스	-14362
▁서문	-14363
▁520	-14364
▁슈타	-14365
▁유세	-14366
▁ㄴㅜ	-14367
▁네타	-14368
▁푸드	-14369
▁각색	-14370
▁겉보기	-14371
▁good	-14372
▁바사	-14373
▁초중	-14374
▁로자	-14375
▁인신	-14376
▁루리웹	-14377
▁777	-14378
ien	-14379
▁과하	-14380
▁이터널	-14381
▁지휘자	-14382
▁정진	-14383
▁채굴	-14384
그러지	-14385
▁over	-14386
▁영재	-14387
▁무어	-14388
▁트레버	-14389
▁박기	-14390
▁타협	-14391
▁붕대	-14392
▁무언가	-14393
▁나우	-14394
▁PA	-14395
아스	-14396
▁고스란히	-14397
교육	-14398
용차	-14399
▁타츠야	-14400
▁버금가	-14401
▁동거	-14402
캐스트	-14403
▁제품군	-14404
▁재해	-14405
큐버스	-14406
▁BASIC	-14407
▁들통	-14408
▁체급	-14409
▁상정	-14410
▁문호	-14411
▁친근	-14412
▁조비	-14413
▁포화	-14414
방사기	-14415
▁화염방사기	-14416
▁천체	-14417
ited	-14418
▁그래프	-14419
▁최적화	-14420
▁그지	-14421
▁송파	-14422
▁철벽	-14423
▁항로	-14424
▁Mir	-14425
▁집정관	-14426
▁몰아치	-14427
▁단연	-14428
▁자의	-14429
▁독설	-14430
▁비정	-14431
▁..'	-14432
▁IDOLM	-14433
▁보유자	-14434
▁도널드	-14435
▁성급	-14436
▁애프터	-14437
▁정제	-14438
겨지	-14439
▁배럴	-14440
▁일부분	-14441
▁구치	-14442
▁로로	-14443
▁한결	-14444
▁동포	-14445
▁호라이	-14446
▁크레이지	-14447
▁블라디미르	-14448
▁209	-14449
▁강호동	-14450
▁뿜어내	-14451
▁다트	-14452
▁김택용	-14453
르바	-14454
▁부딪치	-14455
▁전투복	-14456
준호	-14457
▁상류	-14458
둘기	-14459
위치	-14460
▁그토록	-14461
▁소모품	-14462
▁미공	-14463
▁Bur	-14464
▁감속	-14465
▁순순	-14466
거진	-14467
파니	-14468
▁다이렉트	-14469
▁심슨	-14470
▁배틀필드	-14471
au	-14472
▁~'	-14473
▁선비	-14474
▁장동민	-14475
중국	-14476
▁이가	-14477
▁터리	-14478
▁중령	-14479
▁col	-14480
▁자라나	-14481
▁콜롬비아	-14482
▁사시	-14483
▁선명	-14484
▁일갈	-14485
▁Project	-14486
▁억압	-14487
▁사설	-14488
블랑	-14489
▁휴전	-14490
▁로드리	-14491
▁버니	-14492
ㄸㅏ	-14493
▁탈리	-14494
▁주시	-14495
▁골리앗	-14496
▁로마자	-14497
▁민병대	-14498
▁TF	-14499
▁투타	-14500
로이	-14501
▁두텁	-14502
▁김영삼	-14503
▁대제	-14504
▁류지	-14505
▁시세	-14506
▁당근	-14507
▁모방	-14508
▁전류	-14509
▁스탠딩	-14510
▁Sur	-14511
▁간장	-14512
▁신촌	-14513
▁장단	-14514
▁1400	-14515
▁안토니오	-14516
▁미유	-14517
36	-14518
▁비범	-14519
▁정직	-14520
▁단거리	-14521
▁시프트	-14522
▁마코	-14523
▁주성	-14524
▁이어폰	-14525
▁시제	-14526
▁Off	-14527
▁백수	-14528
▁차마	-14529
▁솔리드	-14530
▁최우선	-14531
▁탄수	-14532
▁투기	-14533
▁yeah	-14534
▁황족	-14535
ius	-14536
▁긴장감	-14537
▁세이지	-14538
▁관대	-14539
▁현질	-14540
드리히	-14541
▁군중	-14542
▁끊이	-14543
▁운전자	-14544
▁행정부	-14545
▁비즈니스	-14546
▁톡톡	-14547
▁사바	-14548
▁창원시	-14549
▁콥	-14550
▁증후군	-14551
▁짓밟	-14552
▁랜디	-14553
▁군단장	-14554
▁역전패	-14555
▁노마	-14556
▁써니	-14557
▁이나즈마	-14558
21	-14559
▁나탈	-14560
▁칸나	-14561
▁인스	-14562
▁KD	-14563
▁자민	-14564
▁락스	-14565
▁아노	-14566
▁글리	-14567
▁노사	-14568
▁정연	-14569
▁침식	-14570
▁유스케	-14571
▁결별	-14572
▁찾아다니	-14573
▁가가	-14574
▁사카모토	-14575
▁출세	-14576
▁아르테	-14577
▁FFFFFF	-14578
▁제네시스	-14579
▁체조	-14580
▁대두	-14581
▁미토	-14582
▁선형	-14583
▁탈탈	-14584
▁Bad	-14585
▁프론티어	-14586
▁아르메	-14587
▁치히로	-14588
▁심포	-14589
▁액트	-14590
oney	-14591
HD	-14592
UK	-14593
▁루드	-14594
▁에로게	-14595
▁눌	-14596
▁재빠르	-14597
ata	-14598
▁마호	-14599
▁매사	-14600
▁분전	-14601
▁템플러	-14602
AA	-14603
▁동대문	-14604
▁전갈	-14605
▁천도	-14606
▁스탠스	-14607
▁저력	-14608
▁WOR	-14609
▁안중	-14610
▁1938	-14611
▁가산	-14612
▁공석	-14613
▁휘둘리	-14614
▁엠파이어	-14615
▁bo	-14616
▁산화	-14617
▁순순히	-14618
▁코브라	-14619
▁노이	-14620
▁매개	-14621
▁배척	-14622
▁구애	-14623
▁관건	-14624
▁지체	-14625
▁피버	-14626
▁파열	-14627
▁데뷔작	-14628
▁Po	-14629
▁명품	-14630
▁안치	-14631
▁학업	-14632
▁유노	-14633
▁요동	-14634
▁성가시	-14635
틱스	-14636
▁Int	-14637
▁결투장	-14638
▁프리드리히	-14639
▁페루	-14640
드래곤	-14641
준혁	-14642
방식	-14643
페스트	-14644
▁ac	-14645
▁버즈	-14646
▁치프	-14647
▁리조트	-14648
INE	-14649
▁쏠리	-14650
▁티나	-14651
제이	-14652
▁산산	-14653
▁섹터	-14654
▁비올	-14655
vent	-14656
마트	-14657
▁현행	-14658
▁Are	-14659
▁졸지	-14660
▁단번에	-14661
▁메이크	-14662
렁이	-14663
▁영령	-14664
▁조류	-14665
▁오아	-14666
▁자본주의	-14667
감치	-14668
▁올리버	-14669
▁ㅁㅕㄴㅇㅡㄴ	-14670
▁Ul	-14671
▁응징	-14672
▁조로	-14673
▁마리사	-14674
▁걸스	-14675
▁멀린	-14676
찌감치	-14677
▁때때로	-14678
▁메두사	-14679
▁튜브	-14680
▁DDR	-14681
토미	-14682
▁입법	-14683
▁say	-14684
▁꼼짝	-14685
▁외래어	-14686
▁어도	-14687
▁두께	-14688
▁총구	-14689
고루	-14690
▁275	-14691
▁성유	-14692
▁카논	-14693
▁츠바키	-14694
▁#,	-14695
▁WCS	-14696
▁하늘색	-14697
▁잿	-14698
▁외침	-14699
▁마공	-14700
line	-14701
▁즉석	-14702
▁다이크	-14703
▁블루스	-14704
▁애틀	-14705
▁노스케	-14706
▁팻	-14707
컨대	-14708
▁샌디	-14709
ㄴㄷㅐ	-14710
▁Ass	-14711
▁음모론	-14712
▁JC	-14713
▁대장장이	-14714
▁브리핑	-14715
▁쌩	-14716
▁엇갈리	-14717
▁광학	-14718
비언	-14719
▁'-	-14720
▁소량	-14721
▁갱단	-14722
▁프라이즈	-14723
▁거듭나	-14724
▁TWICE	-14725
▁PvP	-14726
▁법무부	-14727
▁아츠시	-14728
▁신한은행	-14729
▁로미	-14730
▁베른	-14731
홍철	-14732
▁org	-14733
▁용품	-14734
▁만화책	-14735
▁가와	-14736
▁괴멸	-14737
▁시발	-14738
▁221	-14739
툭튀	-14740
▁치아	-14741
▁쿼드	-14742
▁행각	-14743
▁릭스	-14744
▁애틀랜	-14745
UL	-14746
▁래쉬	-14747
▁몬테	-14748
▁건립	-14749
▁수뇌	-14750
▁사생활	-14751
▁노후	-14752
▁레베	-14753
▁재혼	-14754
▁쪽지	-14755
ague	-14756
▁란트	-14757
▁교직원	-14758
▁수군	-14759
▁척하	-14760
▁노동당	-14761
▁즘	-14762
규어	-14763
▁갑툭튀	-14764
▁폭투	-14765
세이더	-14766
▁AMD	-14767
▁크루세이더	-14768
▁캉	-14769
▁발트	-14770
▁패미컴	-14771
▁거유	-14772
▁정자	-14773
▁아쉬워하	-14774
▁에프	-14775
▁폭군	-14776
▁부합	-14777
▁최진	-14778
▁뒤바	-14779
ton	-14780
▁케미	-14781
어들이	-14782
▁see	-14783
▁번거	-14784
▁Eng	-14785
▁빼놓	-14786
▁시애	-14787
▁헬로	-14788
▁여행자	-14789
▁샌드박스	-14790
▁시오리	-14791
▁대관	-14792
▁Match	-14793
ck	-14794
UST	-14795
▁셔츠	-14796
▁제드	-14797
▁경전차	-14798
▁수영장	-14799
▁경비원	-14800
78	-14801
▁희미	-14802
▁중소기업	-14803
▁커맨더	-14804
▁길목	-14805
▁피크	-14806
▁클로버	-14807
▁Char	-14808
▁모치	-14809
▁힘쓰	-14810
▁짤막	-14811
▁케르	-14812
▁릉	-14813
▁제각	-14814
▁요르	-14815
▁타케루	-14816
▁홈구장	-14817
매매	-14818
피탈	-14819
▁세토	-14820
▁시르	-14821
▁여명	-14822
▁치밀	-14823
▁막아서	-14824
의지	-14825
▁시립	-14826
▁앞쪽	-14827
▁진공	-14828
▁하얀	-14829
▁바이퍼	-14830
▁부녀	-14831
▁플로리다	-14832
▁고원	-14833
▁fr	-14834
▁수도원	-14835
▁기린	-14836
매치	-14837
▁아재	-14838
▁부두	-14839
▁메르시	-14840
▁1952	-14841
und	-14842
▁조원	-14843
▁퇴마	-14844
▁아카기	-14845
▁데스매치	-14846
▁탈주	-14847
▁힘겹	-14848
▁방대	-14849
▁데이비스	-14850
▁XY	-14851
▁케어	-14852
장구	-14853
▁가쿠	-14854
▁슬쩍	-14855
▁Now	-14856
나들	-14857
레즈	-14858
▁유시	-14859
▁헤븐	-14860
▁볼일	-14861
▁RED	-14862
erm	-14863
▁여덟	-14864
▁타가	-14865
▁슬래시	-14866
▁엘소드	-14867
ute	-14868
▁일선	-14869
▁앨리	-14870
▁노드	-14871
▁레비	-14872
▁최형	-14873
▁금곡	-14874
▁욕먹	-14875
▁리벤	-14876
▁트레인	-14877
▁티타	-14878
▁자판기	-14879
▁저스틴	-14880
천역	-14881
▁묵직	-14882
▁넘쳐나	-14883
▁사업자	-14884
▁일직선	-14885
▁히이	-14886
자루	-14887
▁리언	-14888
▁리히	-14889
▁우동	-14890
▁조인	-14891
ILL	-14892
▁브란	-14893
▁농촌	-14894
▁위조	-14895
▁시애틀	-14896
▁일정량	-14897
▁루즈	-14898
▁216	-14899
맹이	-14900
▁흉터	-14901
▁Core	-14902
▁정적	-14903
▁선하	-14904
▁세단	-14905
▁스스	-14906
▁환불	-14907
▁햇빛	-14908
▁재규어	-14909
▁right	-14910
일관	-14911
▁소름	-14912
▁매거진	-14913
▁명장면	-14914
▁발렌시아	-14915
▁츠치	-14916
▁도보	-14917
▁매점	-14918
▁화랑	-14919
▁바흐	-14920
▁수속	-14921
▁스노	-14922
▁눈부시	-14923
▁악인	-14924
▁유배	-14925
▁Blood	-14926
▁가주	-14927
▁댈	-14928
▁부끄	-14929
▁현수	-14930
▁티셔츠	-14931
▁다크니스	-14932
▁모건	-14933
▁농어촌	-14934
▁고모	-14935
▁눕히	-14936
▁센트리	-14937
red	-14938
▁관전	-14939
▁누님	-14940
▁오일	-14941
▁BW	-14942
▁마토	-14943
▁럭스	-14944
▁416	-14945
▁충실히	-14946
▁}}}}	-14947
▁대장군	-14948
▁2021	-14949
▁해저	-14950
아내리	-14951
hy	-14952
▁213	-14953
▁아틀라스	-14954
▁고베	-14955
▁무모	-14956
▁헤라클레스	-14957
▁숙명	-14958
▁충동	-14959
▁Joh	-14960
▁our	-14961
▁서스	-14962
▁심부	-14963
▁후후	-14964
▁세무	-14965
▁우이	-14966
▁코칭	-14967
▁동국	-14968
▁헌병	-14969
▁기공	-14970
▁장녀	-14971
▁}}}}}}	-14972
▁조슈	-14973
▁아득	-14974
▁BRV	-14975
▁충공	-14976
▁Rob	-14977
▁분수	-14978
▁능동	-14979
▁건너편	-14980
▁학부모	-14981
▁선글라스	-14982
▁애리	-14983
▁햄버거	-14984
▁국물	-14985
▁후리	-14986
▁에테르	-14987
▁ㅇㅜㄹ	-14988
정동	-14989
▁평안	-14990
▁기염	-14991
▁시빌	-14992
▁아리사	-14993
▁레그	-14994
▁마사무네	-14995
▁간편	-14996
▁퍼시픽	-14997
55	-14998
게임넷	-14999
▁Ook	-15000
▁온게임넷	-15001
▁국정원	-15002
▁세실	-15003
▁야자	-15004
애미	-15005
▁사납	-15006
▁BBC	-15007
▁비둘기	-15008
ism	-15009
수엘라	-15010
▁짊	-15011
▁경의	-15012
▁친선	-15013
▁보이드	-15014
▁마이애미	-15015
▁선천	-15016
▁소망	-15017
코스	-15018
▁둔화	-15019
▁사쿠야	-15020
▁Last	-15021
▁모탈	-15022
▁속사	-15023
▁1300	-15024
▁재화	-15025
▁중사	-15026
▁강남구	-15027
▁병신	-15028
▁필기	-15029
▁1953	-15030
▁급상	-15031
▁방어전	-15032
▁cr	-15033
▁여하	-15034
▁친화	-15035
▁여느	-15036
▁회자	-15037
▁블리츠	-15038
III	-15039
▁테츠야	-15040
▁익스프레스	-15041
조작	-15042
▁슬라이딩	-15043
▁돌풍	-15044
▁라지	-15045
OCK	-15046
▁앞장	-15047
어내리	-15048
▁미니게임	-15049
▁리시	-15050
▁임상	-15051
▁레이크	-15052
▁근래	-15053
▁필승	-15054
▁악질	-15055
▁완패	-15056
▁기생충	-15057
▁디트로	-15058
▁승부조작	-15059
▁승부차기	-15060
▁디트로이트	-15061
▁찜	-15062
▁튀김	-15063
▁검찰청	-15064
미사	-15065
뿌리	-15066
▁기통	-15067
▁과다	-15068
▁서유	-15069
▁소아	-15070
▁순삭	-15071
▁자자	-15072
▁기판	-15073
▁벤트	-15074
▁국수	-15075
▁타오르	-15076
▁서인	-15077
ets	-15078
▁쓸쓸	-15079
▁자가	-15080
▁직계	-15081
88	-15082
▁안식	-15083
▁경영학	-15084
▁통학	-15085
▁암흑기	-15086
타기	-15087
▁가세	-15088
▁세레나	-15089
▁재판소	-15090
▁구미호	-15091
▁단백질	-15092
▁두근두근	-15093
▁pe	-15094
▁토코	-15095
▁표명	-15096
미츠	-15097
▁조선일보	-15098
▁무네	-15099
▁호우	-15100
▁전고	-15101
괭이	-15102
add	-15103
▁마취	-15104
▁백룡	-15105
▁알비	-15106
▁사병	-15107
▁그해	-15108
▁눈썹	-15109
▁진해	-15110
▁풍속	-15111
▁극성	-15112
▁아종	-15113
▁희생양	-15114
▁피신	-15115
▁해프	-15116
▁유소년	-15117
▁데스크	-15118
▁토사	-15119
▁잽	-15120
OWN	-15121
▁NA	-15122
▁엘런	-15123
▁료마	-15124
▁시라이	-15125
▁업종	-15126
▁홉	-15127
그마	-15128
▁비석	-15129
▁재선	-15130
▁총대	-15131
▁베네수엘라	-15132
▁암기	-15133
▁이천	-15134
▁동산	-15135
▁나뭇잎	-15136
이프	-15137
▁활주로	-15138
▁데일리	-15139
▁Magic	-15140
포로	-15141
▁팬클럽	-15142
▁권고	-15143
▁7000	-15144
▁RR	-15145
▁가넷	-15146
▁초딩	-15147
▁침체	-15148
▁양도	-15149
▁이의	-15150
▁재미없	-15151
▁중화기	-15152
▁피칭	-15153
▁볼리	-15154
니지	-15155
ama	-15156
▁덤벼	-15157
▁이대호	-15158
▁농부	-15159
▁사위	-15160
▁서약	-15161
▁경희대	-15162
▁드래곤즈	-15163
▁총사령관	-15164
▁고갈	-15165
▁날라	-15166
▁포진	-15167
▁Like	-15168
▁there	-15169
▁ㅁㅐ	-15170
▁메탈기어	-15171
외선	-15172
▁박태	-15173
▁차출	-15174
▁프라이드	-15175
▁사력	-15176
▁이메	-15177
▁영화관	-15178
▁조세	-15179
▁거미줄	-15180
▁갈아입	-15181
▁사단장	-15182
▁그물	-15183
▁HOT	-15184
▁Alb	-15185
▁불안감	-15186
▁방관	-15187
▁니즘	-15188
▁드래그	-15189
▁첨가	-15190
▁히코	-15191
▁자멸	-15192
▁금하	-15193
▁아킬	-15194
▁자정	-15195
▁매그넘	-15196
장판	-15197
▁반달	-15198
▁정종	-15199
▁방정식	-15200
▁불허	-15201
니르	-15202
▁몽땅	-15203
▁화룡	-15204
▁카츠키	-15205
▁낙하산	-15206
▁잔여	-15207
▁프랭클린	-15208
▁케니	-15209
▁수송선	-15210
▁잘생기	-15211
ㅇㅜ	-15212
▁신종	-15213
▁원어	-15214
▁거리표	-15215
▁관광지	-15216
▁Soul	-15217
▁이범	-15218
▁Happy	-15219
ther	-15220
▁해프닝	-15221
탕스	-15222
▁상하이	-15223
▁성남시	-15224
▁레지스탕스	-15225
▁권역	-15226
▁몸집	-15227
▁사역	-15228
▁악보	-15229
▁혼나	-15230
▁남극	-15231
▁RPM	-15232
▁화판	-15233
▁토토	-15234
▁퍼니	-15235
▁연안	-15236
▁뒤쳐지	-15237
▁테슬라	-15238
▁정윤	-15239
ader	-15240
▁쌈	-15241
▁텐더	-15242
ERF	-15243
▁대입	-15244
▁장기전	-15245
▁범주	-15246
▁성동	-15247
▁순조	-15248
▁음란	-15249
▁사비	-15250
▁마키나	-15251
▁이목	-15252
▁Nor	-15253
▁기어이	-15254
▁베르크	-15255
▁포레스트	-15256
이인	-15257
▁223	-15258
▁대의	-15259
▁룽	-15260
▁미나토	-15261
▁비대	-15262
▁철퇴	-15263
▁하자드	-15264
▁이로	-15265
▁리포	-15266
▁막말	-15267
▁본드	-15268
▁클라우	-15269
▁임용	-15270
▁체구	-15271
▁큰일	-15272
▁아레스	-15273
자국	-15274
▁미달	-15275
▁비룡	-15276
▁역설	-15277
▁전과	-15278
▁TT	-15279
▁법정동	-15280
▁체로	-15281
니치	-15282
▁사요	-15283
▁엑셀	-15284
▁영조	-15285
▁his	-15286
▁깜빡	-15287
▁조나	-15288
▁읊	-15289
트리스	-15290
▁김소	-15291
▁치키	-15292
▁바트	-15293
▁선역	-15294
▁정대	-15295
▁코로	-15296
▁골고루	-15297
부리	-15298
▁who	-15299
▁산체스	-15300
▁하이브	-15301
▁계승자	-15302
▁마크로스	-15303
▁코팅	-15304
▁Party	-15305
▁네로	-15306
▁삽입곡	-15307
▁맨날	-15308
▁무당	-15309
▁임페	-15310
▁쿠도	-15311
▁365	-15312
▁주임	-15313
▁레프트	-15314
▁멱	-15315
ocal	-15316
베이스	-15317
▁시종일관	-15318
▁net	-15319
벅지	-15320
▁수법	-15321
▁일찌감치	-15322
▁ㄹㅑ	-15323
▁충공깽	-15324
▁watch	-15325
▁문성	-15326
▁got	-15327
▁크리드	-15328
▁Side	-15329
▁미용	-15330
▁투석	-15331
▁해결책	-15332
▁쩌	-15333
▁남친	-15334
▁식인	-15335
▁용왕	-15336
▁음식점	-15337
▁GX	-15338
▁교향곡	-15339
▁감염자	-15340
▁동명이인	-15341
▁내리치	-15342
▁1957	-15343
▁덕택	-15344
▁산호	-15345
▁성희	-15346
▁girl	-15347
▁아르메니아	-15348
▁연성	-15349
▁역과	-15350
▁도입부	-15351
uz	-15352
▁Sim	-15353
▁붉은색	-15354
▁장학금	-15355
▁Show	-15356
형제	-15357
▁폐하	-15358
▁시위대	-15359
▁공중전	-15360
▁청문	-15361
OWER	-15362
▁크로노스	-15363
▁노원	-15364
▁여대	-15365
▁장담	-15366
▁사우디아	-15367
▁격납	-15368
▁수납	-15369
▁며느리	-15370
▁IF	-15371
▁민트	-15372
▁적기	-15373
ga	-15374
▁성범죄	-15375
▁얌전	-15376
▁에티	-15377
▁이쁘	-15378
▁경합	-15379
▁후려치	-15380
▁Edition	-15381
BOX	-15382
▁Open	-15383
ONE	-15384
▁에러	-15385
▁아유미	-15386
▁feel	-15387
▁남아공	-15388
▁보급품	-15389
▁진행하	-15390
▁뜬공	-15391
ated	-15392
▁링컨	-15393
▁특출나	-15394
▁쟁탈전	-15395
▁에어리어	-15396
▁전복	-15397
▁370	-15398
▁브라이	-15399
▁이츠키	-15400
▁잣	-15401
▁크리에이터	-15402
▁일기토	-15403
▁카메오	-15404
더리	-15405
rew	-15406
▁작물	-15407
▁타지	-15408
▁스피리	-15409
▁위태	-15410
▁플랫폼	-15411
84	-15412
▁레타	-15413
▁재무	-15414
▁토카	-15415
▁능욕	-15416
▁시커	-15417
▁내려지	-15418
▁임페리얼	-15419
▁터프	-15420
▁헤지	-15421
▁Cap	-15422
▁알파벳	-15423
▁부러	-15424
▁Way	-15425
▁급상승	-15426
▁김호	-15427
▁카터	-15428
▁왕건	-15429
▁빽	-15430
▁충주	-15431
▁Und	-15432
▁만악	-15433
▁바람직	-15434
▁인플레	-15435
ASS	-15436
▁평정	-15437
ley	-15438
▁유수	-15439
▁윤성	-15440
▁대변인	-15441
▁라이토	-15442
amu	-15443
▁구루	-15444
▁백지	-15445
▁신년	-15446
▁Mark	-15447
▁민족주의	-15448
▁키쿠	-15449
work	-15450
▁구라	-15451
▁떨리	-15452
▁베르나	-15453
▁아프가	-15454
▁변함	-15455
▁이도	-15456
▁바운드	-15457
▁복권	-15458
▁주루	-15459
▁특권	-15460
▁활약상	-15461
▁효력	-15462
▁무서	-15463
▁시드니	-15464
▁쿠폰	-15465
▁총재	-15466
▁토우마	-15467
▁남짓	-15468
▁전령	-15469
ster	-15470
▁푸쉬	-15471
▁후카	-15472
▁지자체	-15473
▁짊어지	-15474
hammer	-15475
▁카트리	-15476
▁몸체	-15477
▁의존도	-15478
▁ㅇㅡㄴㄱㅏ	-15479
▁헤더	-15480
ird	-15481
▁알맞	-15482
▁맞대결	-15483
▁1947	-15484
▁경순양함	-15485
▁잠식	-15486
▁정경	-15487
▁플레인	-15488
▁맞춤	-15489
▁상임	-15490
▁익명	-15491
▁Angel	-15492
선거	-15493
피드	-15494
▁누락	-15495
▁소주	-15496
▁화끈	-15497
▁Pol	-15498
▁디에고	-15499
▁하시모토	-15500
▁꼭대기	-15501
▁이끌리	-15502
▁출연자	-15503
▁프레드	-15504
▁천연가스	-15505
▁퍼트	-15506
▁희박	-15507
벨트	-15508
▁생포	-15509
▁도호쿠	-15510
▁벌어들이	-15511
▁소탕	-15512
▁입상	-15513
▁중추	-15514
▁SKE	-15515
▁근황	-15516
▁저항군	-15517
▁기각	-15518
▁옵스	-15519
▁항우	-15520
▁FBI	-15521
▁성주	-15522
▁유하	-15523
▁그리폰	-15524
▁의류	-15525
▁에어컨	-15526
▁자위	-15527
▁Val	-15528
▁무패	-15529
▁미카엘	-15530
▁알루미	-15531
▁블루투스	-15532
▁어쩌다	-15533
▁Na	-15534
▁화질	-15535
▁알코	-15536
▁엠마	-15537
▁헌납	-15538
▁버퍼	-15539
▁벼락	-15540
▁분과	-15541
▁허니	-15542
▁아야노	-15543
▁하반신	-15544
▁부디	-15545
▁수족	-15546
▁절약	-15547
▁행세	-15548
▁방영일	-15549
▁배수량	-15550
▁댈러스	-15551
▁이유로	-15552
▁Comp	-15553
▁micro	-15554
▁통역	-15555
▁오리콘	-15556
▁한성	-15557
라비아	-15558
▁명은	-15559
▁복각	-15560
▁투표율	-15561
▁흐트	-15562
레톤	-15563
▁교무실	-15564
IVE	-15565
▁유교	-15566
▁화보	-15567
더스트	-15568
▁950	-15569
▁역전재판	-15570
▁선별	-15571
▁재주	-15572
▁그제서야	-15573
▁스켈레톤	-15574
▁봄버	-15575
▁비열	-15576
▁234	-15577
▁금서	-15578
▁공시	-15579
▁수분	-15580
▁활기	-15581
▁트라웃	-15582
▁점포	-15583
▁추위	-15584
▁과잉	-15585
▁상경	-15586
▁물음	-15587
▁비운	-15588
▁예매	-15589
▁촛불	-15590
▁틀어막	-15591
▁애틀랜타	-15592
혀가	-15593
▁꾀하	-15594
▁엑스맨	-15595
▁아프가니스탄	-15596
캐슬	-15597
▁Stage	-15598
▁상고	-15599
부수	-15600
▁레테	-15601
▁연기자	-15602
▁잡혀가	-15603
▁로버	-15604
▁수박	-15605
▁양평	-15606
▁개화	-15607
▁부토	-15608
▁경비병	-15609
▁내공	-15610
▁Fly	-15611
▁엎드리	-15612
▁구비	-15613
▁불분	-15614
▁상승세	-15615
▁아스타	-15616
▁알몸	-15617
▁전념	-15618
▁반대쪽	-15619
▁미공개	-15620
▁life	-15621
▁시연	-15622
▁엄폐물	-15623
▁249	-15624
74	-15625
고생	-15626
▁후작	-15627
해군	-15628
▁치토	-15629
지기	-15630
▁가중	-15631
▁키시	-15632
▁박병호	-15633
▁베아	-15634
▁무방비	-15635
▁온전	-15636
▁피쳐	-15637
▁번영	-15638
▁신민	-15639
▁수뇌부	-15640
▁Fall	-15641
▁090	-15642
▁전염병	-15643
▁Legend	-15644
ㄱㅓㄹ	-15645
▁검도	-15646
▁엘더스	-15647
▁First	-15648
▁단타	-15649
▁머릿속	-15650
▁뉴캐슬	-15651
▁쥴	-15652
▁유한	-15653
▁ㄹㅏㅂㅅㅣ	-15654
무로	-15655
▁사죄	-15656
▁김구라	-15657
▁219	-15658
▁중공업	-15659
▁겸비	-15660
▁미처	-15661
▁좌완	-15662
▁중론	-15663
▁245	-15664
닥치	-15665
▁막론	-15666
▁승승	-15667
▁이석	-15668
▁중순양함	-15669
▁키사라기	-15670
치오	-15671
▁개더링	-15672
stem	-15673
▁엘릭	-15674
▁웨딩	-15675
▁조현	-15676
▁검기	-15677
▁마운틴	-15678
▁불분명	-15679
ura	-15680
▁불가피	-15681
▁어설트	-15682
▁호라이즌	-15683
▁전경	-15684
▁빅토리	-15685
▁갑주	-15686
▁이관	-15687
▁빌헬	-15688
▁포메	-15689
▁껴	-15690
▁진범	-15691
▁바드	-15692
▁Free	-15693
▁Perf	-15694
건설	-15695
소니	-15696
▁코일	-15697
▁유다	-15698
▁투르	-15699
▁후세	-15700
▁오바마	-15701
▁급습	-15702
▁세조	-15703
▁오카다	-15704
▁그리스어	-15705
tm	-15706
▁부기	-15707
▁덩달	-15708
▁이문	-15709
▁자바	-15710
▁판과	-15711
▁경전철	-15712
슬쩍	-15713
▁손책	-15714
▁총회	-15715
▁알루미늄	-15716
▁오리지날	-15717
▁자유주의	-15718
▁겁쟁이	-15719
▁Break	-15720
▁메츠	-15721
▁죄인	-15722
▁540	-15723
▁스튜어트	-15724
▁Er	-15725
▁김신	-15726
▁티거	-15727
udio	-15728
만다	-15729
▁복부	-15730
▁만화가	-15731
▁프리드	-15732
▁준장	-15733
▁질질	-15734
▁허술	-15735
▁카자마	-15736
▁선지	-15737
▁언론사	-15738
레일리아	-15739
▁콩두	-15740
▁아벨	-15741
▁top	-15742
▁송병구	-15743
▁Class	-15744
▁로페	-15745
▁명백히	-15746
▁노프	-15747
▁체내	-15748
▁푸른색	-15749
가요	-15750
▁부우	-15751
▁How	-15752
▁성우진	-15753
▁명실	-15754
▁무소	-15755
▁소폭	-15756
▁운임	-15757
ling	-15758
▁Final	-15759
▁수혜	-15760
▁대리인	-15761
▁무리수	-15762
▁유죄	-15763
▁케로로	-15764
err	-15765
▁비평	-15766
▁선상	-15767
피어	-15768
▁쇼군	-15769
▁쌍용	-15770
▁악수	-15771
▁열렬	-15772
▁졸리	-15773
페어	-15774
▁나지	-15775
▁잠자	-15776
▁유체	-15777
▁오우거	-15778
▁베끼	-15779
▁GDP	-15780
▁If	-15781
▁더러	-15782
▁440	-15783
▁동유럽	-15784
▁파워레인저	-15785
▁법조	-15786
▁뛰어내리	-15787
TH	-15788
▁창출	-15789
yes	-15790
▁신격	-15791
ㄲㅏㄴ	-15792
▁Never	-15793
▁수제	-15794
▁앤더슨	-15795
▁지명타자	-15796
▁루기	-15797
▁망각	-15798
▁베레	-15799
▁자치령	-15800
▁쥬라기	-15801
▁로토	-15802
▁엠블럼	-15803
▁City	-15804
▁뚱뚱	-15805
▁세가	-15806
▁잔재	-15807
▁한승	-15808
▁Spring	-15809
▁나카노	-15810
▁빈센트	-15811
▁평지	-15812
▁힘내	-15813
▁김정일	-15814
arius	-15815
▁밀러	-15816
▁슬래	-15817
▁조니	-15818
영수	-15819
▁또래	-15820
▁하얀색	-15821
ux	-15822
▁번번	-15823
▁벤츠	-15824
▁중파	-15825
▁Cor	-15826
▁사우디아라비아	-15827
▁봉하	-15828
▁Down	-15829
▁제복	-15830
▁카라스	-15831
▁김제	-15832
▁224	-15833
▁동급생	-15834
AGE	-15835
▁MAN	-15836
▁안테나	-15837
▁사냥터	-15838
▁이니셜	-15839
▁무안타	-15840
▁품종	-15841
그라드	-15842
ause	-15843
▁이시카와	-15844
▁하나님	-15845
▁분화	-15846
▁1951	-15847
고쿠	-15848
▁일개	-15849
▁Mon	-15850
▁AW	-15851
▁린다	-15852
▁자재	-15853
▁한국군	-15854
▁띵	-15855
▁신태	-15856
▁난장판	-15857
▁광폭	-15858
▁우먼	-15859
▁PRO	-15860
▁체크카드	-15861
▁선후	-15862
▁우려먹	-15863
▁의뢰인	-15864
▁걷어	-15865
▁지중	-15866
▁삿포로	-15867
▁티라노	-15868
▁청주시	-15869
피온	-15870
▁버겁	-15871
▁시녀	-15872
▁섣	-15873
▁어로	-15874
▁뛰어오르	-15875
▁하쿠	-15876
즐리	-15877
tain	-15878
▁팰리스	-15879
제리	-15880
영향	-15881
▁sk	-15882
▁직진	-15883
▁편도	-15884
▁나오키	-15885
스부르크	-15886
▁도메	-15887
▁마석	-15888
▁세이부	-15889
▁KCC	-15890
▁대전광역시	-15891
▁굴러가	-15892
▁cont	-15893
▁바알	-15894
▁한중	-15895
▁GOT	-15896
▁베토	-15897
▁전우	-15898
현동	-15899
▁오스틴	-15900
▁1914	-15901
▁성품	-15902
▁메가트론	-15903
REME	-15904
라이언트	-15905
▁최원	-15906
▁사복	-15907
▁연호	-15908
▁니퍼	-15909
▁BP	-15910
▁승계	-15911
▁오산	-15912
블루	-15913
▁맥시	-15914
▁성령	-15915
▁반납	-15916
▁끝없이	-15917
▁클라이언트	-15918
▁젓	-15919
▁엠블렘	-15920
▁9000	-15921
▁불발	-15922
▁저음	-15923
IME	-15924
▁염동	-15925
▁서스펜	-15926
▁레니	-15927
▁이형	-15928
▁숙지	-15929
▁226	-15930
재욱	-15931
▁베로	-15932
▁청취	-15933
▁판본	-15934
▁행군	-15935
▁노라	-15936
▁짱구	-15937
▁건축물	-15938
▁투여	-15939
▁결단	-15940
리히	-15941
▁Sn	-15942
▁주주	-15943
칼리버	-15944
raft	-15945
갔다	-15946
▁인승	-15947
신기	-15948
▁수전	-15949
▁밸브	-15950
▁저널	-15951
▁현무	-15952
▁알트	-15953
▁애시당초	-15954
▁순항	-15955
▁Swe	-15956
▁야스오	-15957
▁시리우스	-15958
나시	-15959
다듬	-15960
▁구이	-15961
▁마카오	-15962
▁코우지	-15963
▁위닝	-15964
▁이송	-15965
▁입당	-15966
▁end	-15967
erry	-15968
▁신봉	-15969
▁Mem	-15970
▁위저드	-15971
▁소란	-15972
▁허벅지	-15973
김없이	-15974
▁"'	-15975
▁말살	-15976
▁서동	-15977
▁스투	-15978
▁시프	-15979
iny	-15980
▁정치력	-15981
안군	-15982
▁곡사	-15983
▁광동	-15984
▁악장	-15985
▁회유	-15986
▁공채	-15987
▁밀접	-15988
▁어지럽	-15989
코스터	-15990
▁가늠	-15991
▁최형우	-15992
▁니즈	-15993
▁야인	-15994
▁국무총리	-15995
평균	-15996
▁꾹	-15997
▁박하	-15998
요리	-15999
▁체하	-16000
▁make	-16001
▁명왕	-16002
▁샬롯	-16003
▁슬러	-16004
▁다이빙	-16005
▁예술가	-16006
▁훈련소	-16007
▁티모	-16008
▁롤러코스터	-16009
▁사생	-16010
▁슬립	-16011
▁몸싸움	-16012
▁변속기	-16013
대표	-16014
▁라니	-16015
▁리제	-16016
▁월터	-16017
▁서재	-16018
▁페달	-16019
▁숨결	-16020
▁요양	-16021
▁후하	-16022
▁쇼타	-16023
▁브래드	-16024
83	-16025
▁합금	-16026
▁보호자	-16027
▁그레이브	-16028
테라	-16029
▁011	-16030
▁빙글	-16031
▁허다	-16032
▁시메	-16033
▁평준	-16034
▁얍	-16035
▁양양	-16036
▁블로킹	-16037
▁자택	-16038
▁베네치아	-16039
소통	-16040
▁1937	-16041
▁의사소통	-16042
▁칼질	-16043
▁호각	-16044
▁APC	-16045
▁검색어	-16046
de	-16047
▁반죽	-16048
▁험악	-16049
▁고뇌	-16050
▁생계	-16051
▁에버튼	-16052
▁미약	-16053
▁방망	-16054
▁오스트레일리아	-16055
▁과반	-16056
▁폴라	-16057
▁노선도	-16058
ival	-16059
테리어	-16060
▁세계수	-16061
살렘	-16062
▁play	-16063
▁탄두	-16064
▁토바	-16065
▁포자	-16066
▁사츠키	-16067
▁보성	-16068
▁어시	-16069
▁조개	-16070
▁착수	-16071
▁제너럴	-16072
▁코요미	-16073
▁RX	-16074
루살렘	-16075
리즘	-16076
▁크리스토퍼	-16077
걸음	-16078
▁반려	-16079
▁캠핑	-16080
▁키치	-16081
▁중산	-16082
▁애리조	-16083
▁ㄷㅏㄴㄷㅏ	-16084
▁착취	-16085
▁끌어오	-16086
▁강령	-16087
▁카르텔	-16088
▁어우러지	-16089
▁뺑	-16090
▁간절	-16091
▁린이	-16092
▁이강	-16093
▁큐트	-16094
가르드	-16095
▁만우	-16096
▁연구자	-16097
▁건의	-16098
▁양말	-16099
▁피그	-16100
▁잔소리	-16101
▁Christ	-16102
▁김은	-16103
▁PT	-16104
▁원성	-16105
▁야마자키	-16106
▁톱니	-16107
사람	-16108
▁사상자	-16109
ATE	-16110
▁일생	-16111
▁part	-16112
▁차오르	-16113
▁원상	-16114
▁판단력	-16115
▁츳	-16116
▁쌍검	-16117
▁펠트	-16118
▁375	-16119
RO	-16120
▁라리	-16121
▁받아치	-16122
▁근위	-16123
▁래리	-16124
▁면도	-16125
▁지하실	-16126
▁경시	-16127
▁생방송	-16128
먼드	-16129
하니	-16130
▁박차	-16131
▁춘추	-16132
▁디럭스	-16133
모델	-16134
▁매도	-16135
22	-16136
▁사찰	-16137
▁위아	-16138
▁흉기	-16139
▁aqu	-16140
que	-16141
▁편애	-16142
▁ㅇㅣㄴ	-16143
▁233	-16144
▁외장	-16145
▁이롭	-16146
▁찬사	-16147
▁정무	-16148
▁미도	-16149
▁사하	-16150
▁컬링	-16151
▁410	-16152
▁Hol	-16153
▁골짜기	-16154
▁Come	-16155
썰트	-16156
임수	-16157
▁고안	-16158
나가와	-16159
▁어썰트	-16160
넌트	-16161
▁성원	-16162
▁유승민	-16163
▁러스트	-16164
▁EXTREME	-16165
ONG	-16166
▁again	-16167
린더	-16168
▁김한	-16169
▁슈리	-16170
▁충원	-16171
이즈미	-16172
▁애니메이터	-16173
▁노획	-16174
▁태후	-16175
▁줄리아	-16176
▁예루살렘	-16177
전함	-16178
▁설진	-16179
▁오보	-16180
▁악영향	-16181
▁스테이크	-16182
▁악평	-16183
▁투수진	-16184
▁애니플러스	-16185
▁고철	-16186
▁곧장	-16187
▁한복	-16188
▁아르타	-16189
▁이달	-16190
▁Club	-16191
lo	-16192
▁KE	-16193
▁필적	-16194
idd	-16195
▁레코	-16196
▁북서	-16197
▁싱크로	-16198
▁앤드류	-16199
▁깍	-16200
ino	-16201
▁급여	-16202
▁성시	-16203
erg	-16204
▁조승	-16205
▁화가	-16206
▁만우절	-16207
▁물러서	-16208
이라	-16209
▁진전	-16210
▁노홍철	-16211
▁겉모습	-16212
▁이메일	-16213
▁식별	-16214
▁실탄	-16215
▁전패	-16216
▁대구경	-16217
▁포상	-16218
▁편집자	-16219
▁MIX	-16220
▁레이카	-16221
▁앞장서	-16222
일기	-16223
▁명확히	-16224
▁hp	-16225
▁순례	-16226
▁파탄	-16227
▁소프	-16228
▁스맥	-16229
▁황소	-16230
▁둔기	-16231
▁블레	-16232
▁스맥다운	-16233
▁린치	-16234
▁백병	-16235
▁never	-16236
▁류우	-16237
▁수퍼	-16238
▁Cry	-16239
▁코러스	-16240
▁레전더리	-16241
▁적과	-16242
▁항쟁	-16243
ya	-16244
▁알코올	-16245
▁에노	-16246
▁오승	-16247
▁진기	-16248
▁김종국	-16249
▁레볼루션	-16250
▁수산	-16251
▁폰트	-16252
베르크	-16253
▁스미레	-16254
▁다그	-16255
▁차우	-16256
aker	-16257
▁그분	-16258
▁재차	-16259
▁성희롱	-16260
▁개칭	-16261
▁참모총장	-16262
▁블랑	-16263
▁성취	-16264
▁세카	-16265
▁코만	-16266
▁미완성	-16267
▁어부	-16268
▁본거지	-16269
▁멩	-16270
▁유원	-16271
▁절감	-16272
▁적어지	-16273
▁안장	-16274
▁퍼플	-16275
▁슬로건	-16276
▁교목	-16277
▁시어터	-16278
MC	-16279
▁귤	-16280
▁SMG	-16281
▁미네랄	-16282
▁성소	-16283
▁인원수	-16284
해야	-16285
▁xx	-16286
▁WHIP	-16287
▁음력	-16288
▁이바	-16289
▁heart	-16290
▁땜	-16291
▁이장	-16292
▁라이덴	-16293
▁강서구	-16294
▁마우	-16295
▁젠지	-16296
▁증표	-16297
▁틈새	-16298
공주	-16299
▁티격	-16300
▁CIA	-16301
▁독도	-16302
▁밧줄	-16303
▁어려	-16304
▁치과	-16305
▁악세사리	-16306
▁환원	-16307
▁어휘	-16308
▁동탄	-16309
▁루시안	-16310
▁벳	-16311
▁거머	-16312
▁불거지	-16313
회의	-16314
▁KA	-16315
▁카오	-16316
▁신드	-16317
▁정시	-16318
▁has	-16319
▁뻐	-16320
▁머독	-16321
BY	-16322
▁관용	-16323
▁제명	-16324
▁이에야스	-16325
▁밤중	-16326
▁신빙	-16327
▁이탈리아어	-16328
▁Ah	-16329
▁쇼코	-16330
▁수당	-16331
▁실감	-16332
▁동결	-16333
▁설문	-16334
ㄷㅡㄴㅇㅛ	-16335
▁하남	-16336
▁격변	-16337
관계	-16338
▁흥하	-16339
▁시정	-16340
▁동남아	-16341
▁지상군	-16342
▁수렴	-16343
▁윤종신	-16344
▁무로	-16345
▁호문	-16346
▁di	-16347
▁은혼	-16348
▁미워하	-16349
HN	-16350
cy	-16351
▁동그	-16352
▁대도	-16353
▁쿄스케	-16354
열차	-16355
▁눈보라	-16356
▁마사토	-16357
▁개종	-16358
▁끌어당기	-16359
르슈	-16360
▁bb	-16361
▁경대	-16362
▁몰입	-16363
▁채무	-16364
▁최연	-16365
▁수사관	-16366
자치단체	-16367
▁only	-16368
▁에너	-16369
▁일루	-16370
▁데니스	-16371
▁쁘	-16372
▁평이	-16373
▁고아원	-16374
NG	-16375
▁돗	-16376
일본	-16377
▁순차	-16378
▁Will	-16379
▁민심	-16380
anger	-16381
▁PH	-16382
▁납품	-16383
▁미우	-16384
▁세련	-16385
▁빨아들이	-16386
▁뜬금없	-16387
▁간첩	-16388
▁마자	-16389
▁유부	-16390
▁NORM	-16391
▁\]	-16392
▁매입	-16393
▁옴니	-16394
▁투항	-16395
▁해설자	-16396
▁1919	-16397
▁페미니스트	-16398
▁볶음	-16399
▁적시	-16400
▁올인	-16401
▁카프	-16402
▁다이노	-16403
전쟁	-16404
▁카모	-16405
▁콘테스트	-16406
▁유키노	-16407
▁Girls	-16408
▁개리	-16409
▁뻔뻔	-16410
▁브로드	-16411
▁우크	-16412
▁체이서	-16413
▁화전	-16414
OUR	-16415
▁전쟁터	-16416
▁나주	-16417
▁수료	-16418
▁점치	-16419
▁컨퍼런스	-16420
▁우크라이나	-16421
▁각별	-16422
▁자음	-16423
▁전황	-16424
▁용호	-16425
▁우대	-16426
▁마이티	-16427
▁MY	-16428
▁외환	-16429
▁차크라	-16430
▁XC	-16431
▁김종민	-16432
ORA	-16433
▁게재	-16434
▁다마	-16435
▁열광	-16436
▁최하위	-16437
▁복수심	-16438
쩌둥	-16439
▁임재	-16440
▁마오쩌둥	-16441
▁메트	-16442
▁미코	-16443
▁포커	-16444
86	-16445
▁체르	-16446
▁랠	-16447
전대	-16448
▁동하	-16449
▁우선시	-16450
▁트롤링	-16451
ument	-16452
▁음악가	-16453
onder	-16454
메리카	-16455
▁NORMAL	-16456
▁뿌요	-16457
▁포메이션	-16458
▁부전	-16459
▁페이퍼	-16460
▁인테리어	-16461
▁라파엘	-16462
▁서큐버스	-16463
ㄷㅐ	-16464
▁천진	-16465
▁첨부	-16466
▁here	-16467
푸스	-16468
▁에이미	-16469
▁제후	-16470
▁스턴트	-16471
▁월등히	-16472
▁프렌드	-16473
▁켐	-16474
▁해인	-16475
▁성공회	-16476
▁RB	-16477
▁자백	-16478
▁정근	-16479
▁타쿠야	-16480
▁시술	-16481
▁짝퉁	-16482
폴리스	-16483
▁난쟁이	-16484
▁배반	-16485
팔로	-16486
▁액수	-16487
▁Sol	-16488
▁Great	-16489
▁스커	-16490
불리	-16491
▁활력	-16492
▁아이젠	-16493
▁후지와라	-16494
▁여중	-16495
▁연장전	-16496
▁Best	-16497
▁소대장	-16498
▁알라딘	-16499
ball	-16500
▁문과	-16501
▁수년	-16502
▁초심	-16503
▁한판	-16504
▁보크	-16505
▁MUS	-16506
▁부상자	-16507
▁비서관	-16508
▁사드	-16509
▁우의	-16510
▁EXO	-16511
▁장대	-16512
▁궤멸	-16513
▁연마	-16514
▁SEED	-16515
▁개전	-16516
▁피노	-16517
▁조짐	-16518
▁나츠메	-16519
▁연화	-16520
디우스	-16521
▁거머쥐	-16522
▁미식축구	-16523
▁사대	-16524
osh	-16525
▁제네레이션	-16526
샤인	-16527
▁고하	-16528
▁악연	-16529
▁증강	-16530
오버	-16531
▁비터	-16532
▁어르	-16533
▁남산	-16534
▁페트	-16535
▁한눈	-16536
고스	-16537
▁북동	-16538
▁시미즈	-16539
▁억양	-16540
▁옥타브	-16541
▁철혈	-16542
▁세이야	-16543
▁낙서	-16544
▁스팟	-16545
▁호화	-16546
▁과열	-16547
▁환산	-16548
▁217	-16549
▁Net	-16550
UD	-16551
▁올리브	-16552
▁다듬	-16553
▁데미안	-16554
▁스콜피온	-16555
▁Ind	-16556
▁끊어지	-16557
▁ㅅㅡㅁ	-16558
▁OM	-16559
▁업자	-16560
날리	-16561
▁이동기	-16562
▁Dest	-16563
▁슬라이더	-16564
▁내용물	-16565
▁1911	-16566
▁Little	-16567
월드	-16568
▁물류	-16569
▁미스테리	-16570
▁주부	-16571
▁초전	-16572
▁추기	-16573
▁교원	-16574
▁소나무	-16575
세포	-16576
▁고요	-16577
▁플랜트	-16578
▁승하	-16579
▁패권	-16580
▁부적절	-16581
light	-16582
▁산전	-16583
▁카니발	-16584
▁레닌	-16585
▁미술관	-16586
▁오컬	-16587
▁이보	-16588
▁발령	-16589
▁별거	-16590
▁파나	-16591
▁str	-16592
▁메모리얼	-16593
▁낭만	-16594
니컬	-16595
▁검거	-16596
▁전곡	-16597
▁해밀	-16598
▁red	-16599
▁gu	-16600
▁우여	-16601
▁정선	-16602
▁초라	-16603
티티	-16604
▁고마	-16605
▁로어	-16606
▁은빛	-16607
장치	-16608
▁독단	-16609
▁서프	-16610
▁클러치	-16611
▁오자	-16612
▁고참	-16613
▁'~	-16614
▁정승	-16615
▁라이엇	-16616
▁KN	-16617
▁대기실	-16618
▁베이커	-16619
▁괴이	-16620
▁소품	-16621
▁파주	-16622
▁부록	-16623
▁생리	-16624
▁브룩	-16625
▁폐업	-16626
▁잡아	-16627
▁통찰	-16628
▁우치하	-16629
와르	-16630
▁하노	-16631
▁허약	-16632
소년단	-16633
▁음료수	-16634
▁교명	-16635
▁나성	-16636
▁미움	-16637
▁러시아군	-16638
▁다량	-16639
▁약수	-16640
▁Take	-16641
▁지탱	-16642
▁해지	-16643
▁꼬시	-16644
▁노노	-16645
▁228	-16646
▁냉혹	-16647
▁사주	-16648
▁픽처	-16649
▁변모	-16650
▁미하일	-16651
HC	-16652
▁내쫓	-16653
▁요지	-16654
▁아라시	-16655
데라	-16656
▁소셜	-16657
▁앵글	-16658
▁정민	-16659
▁맹수	-16660
▁let	-16661
아오르	-16662
▁야나기	-16663
▁상반	-16664
▁재상	-16665
▁BMW	-16666
ANCED	-16667
▁기교	-16668
▁투덜	-16669
▁서태지	-16670
▁ad	-16671
▁체류	-16672
▁조선소	-16673
▁오아시스	-16674
▁FO	-16675
▁골수	-16676
▁Mix	-16677
▁카즈미	-16678
▁크류	-16679
서리	-16680
▁어떡	-16681
▁화합	-16682
▁ㄴㅡㄴㅋㅓ	-16683
▁Single	-16684
▁뮐	-16685
eek	-16686
▁액스	-16687
▁GPS	-16688
▁세바스	-16689
▁고드	-16690
▁010	-16691
▁야구부	-16692
▁남아프리카	-16693
세움	-16694
▁예민	-16695
ASY	-16696
▁유창	-16697
▁Sam	-16698
▁나리타	-16699
▁Inv	-16700
▁게르만	-16701
▁래빗	-16702
▁무트	-16703
▁로켓단	-16704
▁익산	-16705
▁NFL	-16706
▁승낙	-16707
▁환장	-16708
비지	-16709
▁가야	-16710
▁드미	-16711
▁오컬트	-16712
▁정국	-16713
▁형벌	-16714
▁야구단	-16715
브론	-16716
▁강정	-16717
▁없음	-16718
▁피파	-16719
▁영국인	-16720
▁내레이션	-16721
▁세터	-16722
▁저축	-16723
▁마스터즈	-16724
▁티르	-16725
▁폐인	-16726
▁하계	-16727
▁Ult	-16728
▁헌트	-16729
▁광란	-16730
▁출입구	-16731
▁밝혀	-16732
▁301	-16733
▁CGV	-16734
▁백두	-16735
▁특색	-16736
▁Aut	-16737
IO	-16738
▁굴림	-16739
▁의거	-16740
▁둘째치	-16741
▁타카히로	-16742
▁요령	-16743
▁뉴타입	-16744
▁촉진	-16745
ena	-16746
▁뜯어	-16747
▁빌헬름	-16748
▁페라리	-16749
94	-16750
▁프레데터	-16751
시장	-16752
▁마방	-16753
lex	-16754
▁신천	-16755
▁방탄소년단	-16756
▁반주	-16757
▁소홀	-16758
▁집요	-16759
ㄴㄷㅏㅂㅅㅣ	-16760
▁YG	-16761
▁이트	-16762
▁파기	-16763
uture	-16764
▁우디	-16765
▁타카오	-16766
▁밀가루	-16767
▁유니버	-16768
▁호위함	-16769
▁담원	-16770
▁수차례	-16771
▁하야테	-16772
▁껌	-16773
▁252	-16774
▁를	-16775
▁들여오	-16776
▁퍼블	-16777
▁케네	-16778
▁재보	-16779
▁토드	-16780
▁라다	-16781
▁하즈	-16782
▁EPL	-16783
▁서유럽	-16784
▁니르	-16785
▁하로	-16786
각형	-16787
▁거창	-16788
▁촉구	-16789
▁초계	-16790
▁폭언	-16791
▁공직	-16792
▁백종	-16793
▁항성	-16794
▁속임수	-16795
▁aquarius	-16796
빠지	-16797
▁지효	-16798
▁통솔력	-16799
모트	-16800
▁껄끄럽	-16801
▁아틀란	-16802
▁헤이세이	-16803
교사	-16804
▁교제	-16805
▁그딴	-16806
▁얼룩	-16807
▁츠네	-16808
▁대성공	-16809
▁Real	-16810
▁알프레드	-16811
▁녹스	-16812
덱스	-16813
▁메커	-16814
▁광화문	-16815
▁처방	-16816
▁스트림	-16817
▁한국식	-16818
▁사이먼	-16819
▁ADVANCED	-16820
▁재발	-16821
▁mA	-16822
▁걷어차	-16823
대왕	-16824
▁멜리	-16825
▁사카이	-16826
곡절	-16827
ital	-16828
▁512	-16829
▁지저	-16830
▁포구	-16831
▁|[	-16832
▁왕성	-16833
▁DSP	-16834
▁Dec	-16835
▁우여곡절	-16836
▁Storm	-16837
▁스냅드래곤	-16838
98	-16839
▁멘토	-16840
▁코미디언	-16841
▁아날	-16842
▁카르타	-16843
▁2022	-16844
▁섬뜩	-16845
▁제때	-16846
▁최장	-16847
▁하원	-16848
세우스	-16849
▁로젠	-16850
▁문관	-16851
▁나오미	-16852
니케이션	-16853
▁스케이트	-16854
▁다라	-16855
▁학파	-16856
▁저상버스	-16857
▁여차	-16858
▁정관	-16859
ano	-16860
▁야가미	-16861
네즈	-16862
▁김시	-16863
▁아카이브	-16864
레오	-16865
▁커뮤니케이션	-16866
▁꼬박	-16867
▁횡령	-16868
▁틀림없	-16869
▁밝혀내	-16870
▁프란츠	-16871
▁텐트	-16872
▁츳코	-16873
▁any	-16874
▁운동가	-16875
▁윤석민	-16876
▁손길	-16877
▁급속도	-16878
▁닛산	-16879
▁도넛	-16880
▁브록	-16881
▁Med	-16882
▁켓	-16883
▁가즈	-16884
▁강급	-16885
▁신승	-16886
▁절도	-16887
요이	-16888
aid	-16889
▁베풀	-16890
▁쇼우	-16891
▁Def	-16892
▁Gun	-16893
▁야요이	-16894
지우	-16895
▁명지	-16896
▁샤르	-16897
▁스탬	-16898
성어	-16899
소연	-16900
▁다람	-16901
▁사춘	-16902
조림	-16903
▁등용	-16904
공학	-16905
▁아로	-16906
▁htm	-16907
▁거액	-16908
▁ㅈㅔ	-16909
▁아토	-16910
ude	-16911
▁선샤인	-16912
▁정찰기	-16913
▁라티	-16914
▁QP	-16915
▁매료	-16916
▁경관	-16917
▁만신	-16918
▁트렌드	-16919
▁포식자	-16920
▁youtu	-16921
소타	-16922
▁정몽	-16923
▁착공	-16924
경민	-16925
▁돌변	-16926
▁자릿	-16927
▁when	-16928
러미	-16929
▁관습	-16930
▁산출	-16931
▁베토벤	-16932
▁정착지	-16933
▁애플리케이션	-16934
▁HR	-16935
▁youtube	-16936
▁ER	-16937
▁요가	-16938
▁짜이	-16939
▁초구	-16940
▁Hero	-16941
▁부설	-16942
▁Zero	-16943
▁클럭	-16944
▁Rad	-16945
▁샌드위치	-16946
UG	-16947
마사	-16948
▁보그	-16949
▁내비치	-16950
65	-16951
apan	-16952
▁미네소타	-16953
unt	-16954
▁크래시	-16955
▁ㄹㅏㄴㄷㅏ	-16956
▁공안	-16957
▁오거	-16958
▁데이지	-16959
▁ㄱㅣㄹㄹㅐ	-16960
▁오정	-16961
노트	-16962
▁시급	-16963
ning	-16964
32	-16965
▁추격전	-16966
쩐지	-16967
▁재탕	-16968
▁어쩐지	-16969
▁루팅	-16970
▁압승	-16971
▁스프레이	-16972
▁보이즈	-16973
▁사이비	-16974
▁프리킥	-16975
▁EXTRA	-16976
▁엄연	-16977
리스크	-16978
▁송곳니	-16979
▁램지	-16980
▁시놉	-16981
▁Cal	-16982
DDR	-16983
▁급증	-16984
▁암석	-16985
▁은색	-16986
ours	-16987
▁대장간	-16988
▁툭하면	-16989
arm	-16990
ett	-16991
ler	-16992
▁은신처	-16993
ather	-16994
▁크로스오버	-16995
▁레터	-16996
▁욘	-16997
병기	-16998
▁Warhammer	-16999
폴트	-17000
▁차고	-17001
▁태백	-17002
▁풀이	-17003
▁동맹군	-17004
▁대련	-17005
▁블룸	-17006
▁390	-17007
▁보리스	-17008
▁정명훈	-17009
unk	-17010
▁콴	-17011
▁냅다	-17012
▁다채	-17013
▁탐험가	-17014
▁자습	-17015
▁붙여지	-17016
▁시놉시스	-17017
▁백악	-17018
▁227	-17019
▁1934	-17020
▁Ry	-17021
▁총점	-17022
▁롱주	-17023
▁예하	-17024
▁Ag	-17025
▁만장	-17026
▁멱살	-17027
▁Park	-17028
▁예거	-17029
▁표준어	-17030
▁투영	-17031
레마	-17032
▁우등	-17033
▁합숙	-17034
헤치	-17035
▁숙제	-17036
▁주름	-17037
▁용납	-17038
▁경부선	-17039
▁프리퀄	-17040
▁비밀리	-17041
▁피고인	-17042
▁Sweet	-17043
▁ㅇㅡㄹㅅㅣ	-17044
▁분양	-17045
▁인삼	-17046
▁!!!!	-17047
lection	-17048
▁신노스케	-17049
BE	-17050
▁오현	-17051
▁웍스	-17052
▁치요	-17053
▁사춘기	-17054
irect	-17055
▁나크	-17056
▁실컷	-17057
▁게으	-17058
▁뜻밖	-17059
▁조슈아	-17060
▁주변인	-17061
▁Mbps	-17062
▁시부야	-17063
방지	-17064
une	-17065
▁BLACK	-17066
▁정보원	-17067
▁노보	-17068
▁백웅	-17069
▁윤영	-17070
▁파비	-17071
▁휴지	-17072
▁John	-17073
▁반쪽	-17074
▁위임	-17075
▁파이팅	-17076
▁아틀란티스	-17077
하늘	-17078
▁사칭	-17079
▁서북	-17080
▁자객	-17081
▁홍련	-17082
▁최민	-17083
▁쿠보	-17084
▁포섭	-17085
▁보좌관	-17086
▁연막탄	-17087
ouble	-17088
살이	-17089
▁교가	-17090
▁난도	-17091
▁세균	-17092
▁심복	-17093
ords	-17094
▁op	-17095
▁안즈	-17096
▁우터	-17097
▁떠나가	-17098
▁미시마	-17099
▁아랍어	-17100
나타	-17101
▁공적	-17102
▁유상	-17103
▁Hel	-17104
▁명심	-17105
ople	-17106
▁홍수	-17107
▁계약서	-17108
▁핍	-17109
▁==	-17110
▁리비	-17111
▁영수	-17112
▁대지진	-17113
▁마사히로	-17114
▁몽환	-17115
▁아오키	-17116
▁주재	-17117
▁Say	-17118
▁min	-17119
▁구스	-17120
▁달려드	-17121
▁정부군	-17122
▁쿠퍼	-17123
▁샤이니	-17124
▁짓거리	-17125
▁Space	-17126
▁자물	-17127
▁햐	-17128
▁Gal	-17129
▁양방향	-17130
▁레이브	-17131
▁페가수스	-17132
ㅇㅕ	-17133
▁보름	-17134
▁ㄸㅏ	-17135
▁재기	-17136
▁진명	-17137
▁깐	-17138
사노	-17139
▁토치	-17140
ames	-17141
▁밴쿠버	-17142
▁이리스	-17143
▁거침	-17144
▁린드	-17145
▁에디터	-17146
▁중대장	-17147
uct	-17148
▁낙사	-17149
▁용족	-17150
▁수송기	-17151
▁개머리	-17152
▁연대기	-17153
▁은근슬쩍	-17154
▁바래	-17155
▁올려	-17156
▁노리코	-17157
▁자물쇠	-17158
▁컷인	-17159
▁231	-17160
▁경상도	-17161
▁장민	-17162
▁판명	-17163
▁효용	-17164
▁하가	-17165
thing	-17166
▁옅	-17167
▁뭉개	-17168
▁구스타	-17169
uff	-17170
▁앉히	-17171
▁제련	-17172
▁흡입	-17173
▁쿠루미	-17174
▁웬디	-17175
▁Feel	-17176
▁후진	-17177
br	-17178
▁가르시아	-17179
▁PG	-17180
▁료코	-17181
▁사념	-17182
▁유족	-17183
▁베가스	-17184
▁폄	-17185
▁교활	-17186
▁아와	-17187
▁need	-17188
▁코스모스	-17189
▁근방	-17190
▁오라클	-17191
▁페드로	-17192
▁비견	-17193
▁서바이버	-17194
▁걔	-17195
▁고영	-17196
oj	-17197
▁불러내	-17198
KO	-17199
▁다다르	-17200
▁관람객	-17201
립스	-17202
▁간직	-17203
▁약품	-17204
▁옥수수	-17205
▁Je	-17206
▁코타	-17207
oe	-17208
▁브라우저	-17209
개골	-17210
▁안톤	-17211
▁LEVEL	-17212
TER	-17213
▁이부키	-17214
▁코스모	-17215
▁HT	-17216
▁오소	-17217
▁이그	-17218
나우	-17219
▁방주	-17220
거스	-17221
▁함경	-17222
▁근로자	-17223
▁피쉬	-17224
▁금단	-17225
▁법령	-17226
END	-17227
vil	-17228
▁두각	-17229
▁집게	-17230
▁설립자	-17231
yr	-17232
▁식구	-17233
▁나가사키	-17234
▁즐거움	-17235
▁텝	-17236
▁경멸	-17237
▁타타	-17238
▁견고	-17239
▁최준	-17240
▁뜸	-17241
교도	-17242
▁출진	-17243
▁Kim	-17244
후미	-17245
▁마쓰	-17246
▁햄튼	-17247
▁투지	-17248
▁라몬	-17249
▁주점	-17250
▁도봉	-17251
▁앙쥬	-17252
▁mAh	-17253
▁뜯어내	-17254
▁손발	-17255
▁판다	-17256
▁꼬맹이	-17257
▁저질	-17258
▁소양	-17259
▁남녀공학	-17260
▁지출	-17261
비슷	-17262
▁잭스	-17263
▁오사무	-17264
▁나카지마	-17265
▁트리니티	-17266
▁바카	-17267
▁Sport	-17268
▁대첩	-17269
▁사루	-17270
▁신스	-17271
▁양지	-17272
▁조공	-17273
▁청문회	-17274
▁협의회	-17275
▁난데	-17276
▁똑바로	-17277
▁병합	-17278
▁모리스	-17279
▁일간	-17280
▁피통	-17281
리아스	-17282
▁JYP	-17283
▁구식	-17284
자스	-17285
▁부착물	-17286
▁them	-17287
▁막스	-17288
▁아누	-17289
▁조그맣	-17290
분투	-17291
▁로더	-17292
▁조련	-17293
▁Ret	-17294
▁치솟	-17295
▁카나코	-17296
▁벗겨지	-17297
부르	-17298
▁some	-17299
▁외지	-17300
▁흑발	-17301
▁크레인	-17302
▁조동	-17303
▁형주	-17304
▁레베카	-17305
▁변기	-17306
로그램	-17307
▁지원군	-17308
곡리	-17309
태격	-17310
▁티격태격	-17311
▁말라	-17312
▁명계	-17313
▁를르슈	-17314
▁억누르	-17315
▁마즈	-17316
▁백스	-17317
▁Dem	-17318
▁여제	-17319
▁골절	-17320
▁겸임	-17321
▁사서	-17322
▁평면	-17323
▁성물	-17324
▁지네	-17325
▁GTX	-17326
▁Sou	-17327
▁카로	-17328
▁스타킹	-17329
설수	-17330
▁어려우	-17331
▁비화	-17332
▁코아	-17333
▁하강	-17334
마니	-17335
▁누비	-17336
▁후사	-17337
▁나이지	-17338
▁나이지리아	-17339
▁서남	-17340
로리	-17341
▁동률	-17342
▁셔먼	-17343
▁컬트	-17344
▁톰슨	-17345
▁Kill	-17346
▁Tour	-17347
노프	-17348
▁규율	-17349
▁덴마	-17350
▁발열	-17351
▁끌어안	-17352
ODE	-17353
▁남원	-17354
▁버팔로	-17355
▁무서워하	-17356
▁프랑켄슈타인	-17357
▁닳	-17358
▁전광판	-17359
▁동남아시아	-17360
▁껴안	-17361
▁부포	-17362
▁어정	-17363
▁위아래	-17364
▁견습	-17365
▁도가	-17366
▁개머리판	-17367
뚜기	-17368
▁횃	-17369
▁잘나	-17370
▁로밍	-17371
▁역마	-17372
arth	-17373
▁GC	-17374
▁뒤바뀌	-17375
▁탤런트	-17376
▁430	-17377
▁ㅇㅜㄴ	-17378
▁초밥	-17379
▁LOL	-17380
▁근육질	-17381
동물	-17382
▁매튜	-17383
▁포커스	-17384
린트	-17385
▁더듬	-17386
▁만년	-17387
▁입점	-17388
비야	-17389
▁마일리	-17390
▁부대장	-17391
제트	-17392
메이트	-17393
▁원가	-17394
▁ㅇㅏㄴ	-17395
▁포이즌	-17396
▁236	-17397
▁라카	-17398
▁방아	-17399
▁엘사	-17400
aser	-17401
▁지중해	-17402
▁참치	-17403
▁KBL	-17404
▁치아키	-17405
onna	-17406
▁짭	-17407
▁르블랑	-17408
▁노동조합	-17409
▁철구	-17410
▁정근우	-17411
▁아스가르드	-17412
ner	-17413
▁극하	-17414
도어	-17415
▁놀러	-17416
▁스메	-17417
▁팔다리	-17418
▁사절	-17419
▁요요	-17420
▁테디	-17421
▁파병	-17422
▁Orig	-17423
▁인턴	-17424
▁타깃	-17425
▁이북	-17426
▁하피	-17427
▁플리트	-17428
▁마커스	-17429
▁스틸러스	-17430
슬로	-17431
▁한인	-17432
▁격납고	-17433
▁치어리	-17434
▁마로	-17435
▁간과	-17436
▁her	-17437
▁기대감	-17438
ways	-17439
▁연주자	-17440
▁Beat	-17441
▁뒤집어쓰	-17442
▁목장	-17443
▁미니건	-17444
▁엑스칼리버	-17445
▁열화	-17446
슐리	-17447
▁이윤열	-17448
▁감찰	-17449
▁포츈	-17450
▁방탄복	-17451
▁군세	-17452
▁사오	-17453
▁WORLD	-17454
▁드럼매니아	-17455
▁이규	-17456
▁매크로	-17457
▁원정대	-17458
▁가로지르	-17459
▁싯	-17460
▁라나	-17461
▁아브	-17462
▁사일런트	-17463
▁파라오	-17464
▁표류	-17465
▁상병	-17466
▁코라	-17467
▁265	-17468
▁옐로우	-17469
▁일파	-17470
▁질럿	-17471
숭아	-17472
▁NAS	-17473
▁다비드	-17474
▁주유소	-17475
다카	-17476
▁일전	-17477
ormal	-17478
▁뫼비우스	-17479
▁올레	-17480
▁장문	-17481
팽이	-17482
▁<<	-17483
▁내신	-17484
▁로니	-17485
▁메커니즘	-17486
▁엘라	-17487
▁원사	-17488
▁하르트	-17489
▁구실	-17490
▁복식	-17491
iful	-17492
▁블러디	-17493
▁김건	-17494
▁루디	-17495
▁세이프	-17496
▁PERF	-17497
▁Luc	-17498
▁경기관총	-17499
▁통통	-17500
▁Story	-17501
UND	-17502
▁하네	-17503
▁마츠다	-17504
▁아날로그	-17505
▁로아	-17506
▁위안부	-17507
▁이리야	-17508
▁본뜨	-17509
▁3500	-17510
▁서슴	-17511
▁지석	-17512
구멍	-17513
▁신야	-17514
▁항소	-17515
▁넥스트	-17516
배기	-17517
▁수트	-17518
▁MAD	-17519
▁스트롱	-17520
▁밀리터리	-17521
44	-17522
▁티베트	-17523
▁When	-17524
▁쿡	-17525
▁루가	-17526
▁저술	-17527
문화	-17528
▁노미	-17529
▁바바리	-17530
▁앞머리	-17531
▁위드	-17532
▁공평	-17533
▁막시	-17534
▁she	-17535
▁편찬	-17536
▁곧이어	-17537
▁Tech	-17538
ANG	-17539
▁백과	-17540
▁약사	-17541
▁어진	-17542
▁사이킥	-17543
뉴스	-17544
▁공연장	-17545
▁피스톨	-17546
▁폭죽	-17547
▁강민호	-17548
천리	-17549
▁쓸리	-17550
▁순전히	-17551
▁온건	-17552
▁한미	-17553
▁WWF	-17554
▁리비아	-17555
▁구기	-17556
입구역	-17557
▁사우디	-17558
▁한없이	-17559
▁선율	-17560
▁정설	-17561
▁족족	-17562
▁출국	-17563
주니어	-17564
▁케네디	-17565
▁개관	-17566
레스타인	-17567
리역	-17568
발리	-17569
▁땅굴	-17570
▁수첩	-17571
▁조라	-17572
▁Album	-17573
fl	-17574
▁이모티콘	-17575
▁레티	-17576
ations	-17577
▁재결	-17578
▁DIO	-17579
▁희한	-17580
▁시속	-17581
▁참수	-17582
▁불굴	-17583
▁사학	-17584
▁Who	-17585
▁마레	-17586
▁외화	-17587
▁훌쩍	-17588
▁팔아먹	-17589
▁갈비	-17590
▁상디	-17591
▁돌려받	-17592
▁겐지	-17593
▁암묵	-17594
▁대나무	-17595
▁코코로	-17596
▁풀타임	-17597
▁김장	-17598
▁세인	-17599
▁얼른	-17600
포동	-17601
▁급감	-17602
▁라르	-17603
▁로데	-17604
▁GE	-17605
▁아디	-17606
▁테드	-17607
▁정준하	-17608
▁기껏해야	-17609
▁샛	-17610
ait	-17611
▁실기	-17612
▁조부	-17613
▁Step	-17614
▁즌	-17615
▁내려치	-17616
▁픽처스	-17617
▁마개	-17618
▁가희	-17619
39	-17620
▁쿠즈	-17621
▁로드리게	-17622
시간	-17623
▁뒤이	-17624
▁볼링	-17625
▁헤엄	-17626
▁곁들이	-17627
▁칼데아	-17628
실록	-17629
▁번쩍	-17630
▁232	-17631
통일	-17632
▁금세	-17633
▁art	-17634
▁역적	-17635
▁맥크리	-17636
▁명하	-17637
▁드로이드	-17638
▁맨서	-17639
▁숙적	-17640
▁공구	-17641
▁물결	-17642
▁음파	-17643
▁의병	-17644
▁진중	-17645
▁호루스	-17646
▁행렬	-17647
▁힛	-17648
▁의약	-17649
▁일괄	-17650
▁전위	-17651
▁다르크	-17652
▁두개골	-17653
▁산산조각	-17654
▁무례	-17655
▁손대	-17656
▁Death	-17657
▁노어	-17658
페르노	-17659
▁마성	-17660
▁엽기	-17661
▁육신	-17662
▁sec	-17663
▁언뜻	-17664
프스	-17665
▁옥스	-17666
▁공격대	-17667
▁왕정	-17668
▁원산	-17669
▁총애	-17670
▁투혼	-17671
▁인기가요	-17672
▁인페르노	-17673
▁홍차	-17674
사무소	-17675
▁세리카	-17676
▁조건부	-17677
▁독살	-17678
예프	-17679
투사	-17680
body	-17681
▁찻	-17682
▁괄호	-17683
▁금빛	-17684
▁변속	-17685
▁도맡	-17686
▁쫒아	-17687
▁푸딩	-17688
▁플롯	-17689
게일	-17690
▁심영	-17691
▁대북	-17692
▁서강	-17693
▁1931	-17694
▁결번	-17695
▁소굴	-17696
사전	-17697
OSS	-17698
▁비행장	-17699
▁조성주	-17700
▁about	-17701
▁푸시	-17702
▁불륜	-17703
▁노우	-17704
▁양육	-17705
▁스캇	-17706
▁비타민	-17707
시즘	-17708
▁벨리	-17709
▁수없이	-17710
▁들어올리	-17711
▁넬슨	-17712
▁바빌	-17713
▁천자	-17714
ene	-17715
▁대영	-17716
▁수식어	-17717
▁구가	-17718
▁최승	-17719
▁뮐러	-17720
▁승승장구	-17721
▁팔레스타인	-17722
▁디나	-17723
▁510	-17724
▁퍼레이드	-17725
▁서경	-17726
▁혼잡	-17727
▁사이렌	-17728
▁이불	-17729
▁거너	-17730
▁무마	-17731
▁외교관	-17732
▁조각상	-17733
▁종로구	-17734
▁콘스탄티노	-17735
▁매혹	-17736
틀린	-17737
▁남서	-17738
▁안영	-17739
▁착안	-17740
▁포박	-17741
▁Champion	-17742
바야시	-17743
37	-17744
상부	-17745
uss	-17746
▁이크	-17747
▁리더십	-17748
▁1935	-17749
▁황녀	-17750
▁SNK	-17751
▁양현종	-17752
▁교묘	-17753
▁도면	-17754
▁삼국사기	-17755
그래피	-17756
▁엘더	-17757
rough	-17758
스틱	-17759
▁메기	-17760
▁에델	-17761
▁첩자	-17762
▁파커	-17763
▁댁	-17764
ume	-17765
▁니콜라	-17766
▁쿠토	-17767
AE	-17768
▁기색	-17769
▁족보	-17770
▁질책	-17771
▁케일	-17772
▁하야시	-17773
▁박원	-17774
▁비방	-17775
▁타츠미	-17776
▁Line	-17777
빙글	-17778
▁자결	-17779
▁철자	-17780
IDE	-17781
▁꼼꼼	-17782
▁카툰	-17783
▁Tra	-17784
▁1700	-17785
파일	-17786
▁환율	-17787
▁다이어	-17788
▁미츠키	-17789
▁신뢰도	-17790
▁come	-17791
마을	-17792
▁닷컴	-17793
▁흑색	-17794
▁쟤	-17795
▁캡쳐	-17796
▁내던지	-17797
▁클래시	-17798
슬라비아	-17799
lease	-17800
▁유고슬라비아	-17801
하임	-17802
▁자하	-17803
▁장발	-17804
▁왼발	-17805
▁이코	-17806
▁LCS	-17807
▁토모코	-17808
▁프리티	-17809
▁선량	-17810
▁타사	-17811
▁305	-17812
▁XBOX	-17813
▁밀짚	-17814
▁워페어	-17815
▁전면전	-17816
상스	-17817
▁Du	-17818
▁나즈	-17819
▁추축	-17820
▁사고방식	-17821
주곡	-17822
▁존기	-17823
▁떠넘기	-17824
▁탈락자	-17825
▁변칙	-17826
▁코만도	-17827
orever	-17828
ESS	-17829
▁섬머	-17830
욕장	-17831
▁Apple	-17832
▁겨냥	-17833
▁신진	-17834
▁자일	-17835
▁경비대	-17836
▁아오바	-17837
▁감격	-17838
▁딱지	-17839
▁모사	-17840
▁재킷	-17841
▁지겹	-17842
▁이민자	-17843
▁이클	-17844
self	-17845
▁Bus	-17846
ral	-17847
▁셧	-17848
▁횃불	-17849
▁TRA	-17850
▁대구광역시	-17851
▁권혁	-17852
▁달랑	-17853
▁에리스	-17854
▁된	-17855
▁747	-17856
▁추기경	-17857
윤수	-17858
▁괴짜	-17859
▁급소	-17860
▁쾌락	-17861
INAL	-17862
▁238	-17863
▁이따금	-17864
▁바퀴벌레	-17865
▁버크	-17866
▁셀렉	-17867
▁증차	-17868
▁공전	-17869
▁실물	-17870
▁바가지	-17871
▁아이슬	-17872
▁러프	-17873
▁애덤	-17874
▁못생기	-17875
▁물어뜯	-17876
▁모로코	-17877
▁원안	-17878
▁RT	-17879
▁국지	-17880
▁오기	-17881
▁기폭	-17882
▁니지	-17883
▁ind	-17884
▁공모전	-17885
▁Electr	-17886
▁짠	-17887
▁래더	-17888
▁일찍이	-17889
▁2400	-17890
▁스트링	-17891
▁자행	-17892
▁히로미	-17893
덴티티	-17894
▁얌전히	-17895
▁아이덴티티	-17896
▁혈압	-17897
▁노련	-17898
▁팽팽	-17899
▁양의지	-17900
▁SB	-17901
▁사오리	-17902
▁데스노트	-17903
▁가신	-17904
법인	-17905
▁개표	-17906
▁SUPER	-17907
▁절제	-17908
▁뜯기	-17909
▁백호	-17910
elie	-17911
▁합격자	-17912
▁에볼루션	-17913
▁나선	-17914
▁640	-17915
▁Green	-17916
▁설날	-17917
▁수만	-17918
▁몰아가	-17919
▁타이가	-17920
▁화성시	-17921
비어	-17922
위원	-17923
▁완승	-17924
▁콜로세움	-17925
▁황천	-17926
▁Mal	-17927
▁주저앉	-17928
▁발효	-17929
▁장영	-17930
▁초음	-17931
▁디스트로	-17932
▁페널티가	-17933
▁극동	-17934
▁망신	-17935
▁오도	-17936
▁이바라	-17937
ander	-17938
훈련	-17939
▁조경	-17940
▁삼각형	-17941
다이스	-17942
▁325	-17943
▁바사라	-17944
▁예비역	-17945
▁디스트로이어	-17946
▁악재	-17947
▁이연	-17948
▁장화	-17949
▁천왕	-17950
▁원로원	-17951
▁Dead	-17952
펙터	-17953
▁내치	-17954
▁채권	-17955
▁초연	-17956
▁Tem	-17957
▁각본가	-17958
▁아이카	-17959
▁그레이스	-17960
▁오클랜드	-17961
autiful	-17962
▁신룡	-17963
▁Pass	-17964
▁유괴	-17965
▁윤지	-17966
▁인계	-17967
▁루시우	-17968
▁사벨	-17969
▁잔존	-17970
ines	-17971
▁ㄴㅛ	-17972
▁연못	-17973
▁공격진	-17974
▁타케우치	-17975
▁독립운동가	-17976
▁무예	-17977
▁황폐	-17978
▁각주	-17979
▁간수	-17980
▁아우구	-17981
▁전주시	-17982
▁1910	-17983
바탕	-17984
▁NV	-17985
▁Ant	-17986
▁마구잡이	-17987
▁허물	-17988
▁하루히	-17989
다주	-17990
▁단도	-17991
▁비어	-17992
▁지니어스	-17993
▁강대국	-17994
▁클로이	-17995
awn	-17996
▁카자흐	-17997
▁노기자카	-17998
▁당부	-17999
▁총수	-18000
▁파충	-18001
ortex	-18002
▁이클립스	-18003
▁사업가	-18004
▁스펙트	-18005
▁에그맨	-18006
▁정신기	-18007
▁새턴	-18008
▁NAT	-18009
▁장시간	-18010
▁혹시나	-18011
▁아이슬란드	-18012
리언	-18013
▁1918	-18014
▁쏙	-18015
▁불계	-18016
▁IEM	-18017
▁토머스	-18018
▁렴	-18019
▁굳건	-18020
▁Home	-18021
▁EXPERT	-18022
▁아키코	-18023
▁들이닥치	-18024
더미	-18025
▁완주	-18026
▁개인차	-18027
▁무리뉴	-18028
▁우즈베	-18029
▁노을	-18030
▁동자	-18031
▁샤인	-18032
▁껍데기	-18033
▁제각각	-18034
▁복판	-18035
▁시우	-18036
▁코퍼	-18037
현수	-18038
▁가온	-18039
▁바운	-18040
▁Lee	-18041
▁제국주의	-18042
▁League	-18043
▁넛	-18044
▁마천	-18045
▁이어주	-18046
▁흑기사	-18047
▁ah	-18048
▁da	-18049
▁각광	-18050
▁고척	-18051
▁일회	-18052
▁아이파크	-18053
▁AAA	-18054
▁시즈쿠	-18055
▁하룻	-18056
▁이하일	-18057
▁EASY	-18058
▁sw	-18059
▁비들	-18060
▁송신	-18061
▁심해	-18062
▁앙상	-18063
▁종속	-18064
▁시티즌	-18065
▁큘	-18066
▁야유	-18067
▁사토미	-18068
▁실비아	-18069
▁검출	-18070
▁스쿠	-18071
▁죠셉	-18072
▁과부하	-18073
▁백종원	-18074
▁ma	-18075
▁Tom	-18076
▁Wanna	-18077
▁자초	-18078
▁돌이키	-18079
▁솔루션	-18080
▁다리우스	-18081
▁갉	-18082
▁EL	-18083
▁숙박	-18084
▁코쿠	-18085
▁스구	-18086
▁북벌	-18087
ily	-18088
▁분실	-18089
▁장지	-18090
▁TEAM	-18091
▁이산	-18092
▁바그너	-18093
▁룰렛	-18094
▁인제	-18095
▁컬쳐	-18096
▁중심부	-18097
▁지도부	-18098
▁프라모델	-18099
볼트	-18100
▁미분	-18101
창민	-18102
▁뒤섞	-18103
▁Del	-18104
▁발사체	-18105
▁추대	-18106
▁분대장	-18107
▁선호도	-18108
▁호조	-18109
▁!!"	-18110
▁뒤떨어지	-18111
▁랠리	-18112
▁정주	-18113
▁말뚝	-18114
▁평온	-18115
▁Level	-18116
백호	-18117
▁무구	-18118
▁이효	-18119
▁트와	-18120
▁건달	-18121
▁알려주	-18122
츠미	-18123
▁ㅈㅑ	-18124
▁눈여	-18125
▁장진	-18126
▁단호	-18127
▁IMF	-18128
▁밀라노	-18129
아르	-18130
▁이를	-18131
▁들이받	-18132
IAL	-18133
▁디언	-18134
▁제이미	-18135
▁로스쿨	-18136
트릭	-18137
▁설교	-18138
eter	-18139
테면	-18140
▁자선	-18141
▁강국	-18142
▁눈길	-18143
▁코피	-18144
▁허접	-18145
▁마리나	-18146
▁GAME	-18147
▁모자이크	-18148
▁사이코패스	-18149
▁기념일	-18150
▁정훈	-18151
▁스무	-18152
▁황룡	-18153
▁조만	-18154
▁마니아	-18155
▁자릿수	-18156
▁이를테면	-18157
▁맹렬	-18158
▁박동	-18159
▁서커	-18160
▁하오	-18161
▁히키	-18162
리카와	-18163
▁무법자	-18164
▁토착	-18165
▁용인시	-18166
벌이	-18167
▁리라	-18168
▁묵묵	-18169
▁키네	-18170
▁나오토	-18171
▁품목	-18172
▁Friend	-18173
▁독소	-18174
▁히데키	-18175
문서	-18176
▁격분	-18177
▁나돌	-18178
▁에비	-18179
▁컨버	-18180
▁타코	-18181
▁229	-18182
▁결정력	-18183
▁동떨어지	-18184
ISS	-18185
▁가관	-18186
▁기시	-18187
▁발포	-18188
▁태반	-18189
▁사이키	-18190
▁디셉	-18191
▁Cha	-18192
마드	-18193
rol	-18194
▁로건	-18195
▁bit	-18196
▁백설	-18197
▁사보	-18198
▁제아	-18199
▁조지아	-18200
▁무토	-18201
▁이면	-18202
ible	-18203
ider	-18204
▁비틀즈	-18205
▁시그널	-18206
보잡	-18207
ㅓㄴ	-18208
해머	-18209
▁엄하	-18210
▁장난치	-18211
▁정신병	-18212
▁라키	-18213
▁244	-18214
▁크리스티나	-18215
▁기권	-18216
▁신영	-18217
▁컵스	-18218
▁불량배	-18219
▁캅	-18220
▁듣보잡	-18221
▁라이저	-18222
▁대물	-18223
▁김상수	-18224
▁기울어지	-18225
▁Univers	-18226
콜로	-18227
▁레츠	-18228
▁벼슬	-18229
▁재래	-18230
ouch	-18231
▁BMS	-18232
▁박진영	-18233
▁their	-18234
72	-18235
▁실격	-18236
▁승자전	-18237
▁맥도날드	-18238
▁뎁	-18239
▁골격	-18240
▁나자	-18241
▁에라	-18242
▁Mac	-18243
▁황인	-18244
▁클라라	-18245
▁분하	-18246
▁요크	-18247
▁정액	-18248
▁제이콥	-18249
▁글래스	-18250
▁불곰	-18251
▁hell	-18252
▁완력	-18253
▁레일건	-18254
▁풀어내	-18255
▁마르크스	-18256
31	-18257
ves	-18258
▁성계	-18259
onic	-18260
▁알제리	-18261
▁Chap	-18262
▁에마	-18263
▁오줌	-18264
▁이큐	-18265
세이돈	-18266
▁포세이돈	-18267
▁렬	-18268
▁고군	-18269
▁돌기	-18270
▁빈민	-18271
▁765	-18272
▁DL	-18273
▁Pack	-18274
▁사이다	-18275
▁조종당	-18276
▁AO	-18277
▁속출	-18278
▁보살피	-18279
▁후타바	-18280
▁치세	-18281
▁스코어링	-18282
▁핑거	-18283
▁TBS	-18284
▁조선인	-18285
사관학교	-18286
▁강북	-18287
▁머큐	-18288
my	-18289
▁뒤돌	-18290
▁영도	-18291
▁계책	-18292
▁뱃지	-18293
▁일컬	-18294
▁차차	-18295
▁251	-18296
▁마르셀	-18297
▁미야코	-18298
도니아	-18299
▁르브론	-18300
▁사카키	-18301
▁조준기	-18302
▁괴로워하	-18303
▁결선	-18304
▁그늘	-18305
▁쿠노	-18306
▁루시아	-18307
▁파헤치	-18308
마이트	-18309
▁바깥쪽	-18310
▁약탈자	-18311
oom	-18312
▁한류	-18313
▁마츠리	-18314
▁뒤엎	-18315
▁Young	-18316
▁발랄	-18317
▁버지	-18318
▁외동	-18319
▁ABC	-18320
bsp	-18321
▁업소	-18322
▁펑펑	-18323
▁클리프	-18324
▁NXT	-18325
▁Japan	-18326
▁무궁화호	-18327
▁놀림	-18328
▁야미	-18329
▁케이스케	-18330
구석	-18331
독스	-18332
DER	-18333
▁반신	-18334
▁아이오	-18335
그럽	-18336
▁모선	-18337
▁ATM	-18338
▁부르크	-18339
▁잠정	-18340
▁제동	-18341
▁틈타	-18342
icle	-18343
▁굶주리	-18344
▁소니아	-18345
▁신검	-18346
▁순발	-18347
▁바닷가	-18348
▁스테판	-18349
▁아이코	-18350
▁빙글빙글	-18351
에트	-18352
▁대칭	-18353
▁승용차	-18354
▁잠자리	-18355
▁스트레인지	-18356
ubl	-18357
▁이타치	-18358
▁신재	-18359
도나	-18360
잣집	-18361
▁매뉴	-18362
alent	-18363
▁시게루	-18364
▁ㅁㅐㄴ	-18365
트니	-18366
▁살벌	-18367
▁저편	-18368
키오	-18369
회전	-18370
▁상수	-18371
▁서산	-18372
▁혐한	-18373
▁느와르	-18374
▁설리	-18375
▁징집	-18376
▁순발력	-18377
▁특혜	-18378
▁스릴러	-18379
▁유희열	-18380
▁서주	-18381
▁어웨이	-18382
플러	-18383
▁윅	-18384
▁마담	-18385
▁보류	-18386
▁hats	-18387
송이	-18388
▁매춘	-18389
▁역행	-18390
▁켈트	-18391
▁피콜로	-18392
▁660	-18393
▁구축전차	-18394
▁이남	-18395
▁Que	-18396
▁Full	-18397
▁밀짚모자	-18398
▁동호회	-18399
▁nbsp	-18400
▁펠레	-18401
▁개헌	-18402
▁금정	-18403
▁전조	-18404
▁퇴임	-18405
▁홍익	-18406
ement	-18407
일라잇	-18408
▁프리랜	-18409
▁트와일라잇	-18410
▁낙동	-18411
▁주권	-18412
ha	-18413
▁안대	-18414
▁야루	-18415
▁형법	-18416
▁마음먹	-18417
▁뉴비	-18418
leep	-18419
▁가차없이	-18420
▁셰이	-18421
▁이반	-18422
▁560	-18423
St	-18424
선스	-18425
▁반반	-18426
▁헤카	-18427
▁res	-18428
▁Champions	-18429
▁리빌	-18430
▁분식	-18431
▁에지	-18432
▁츠지	-18433
▁아라이	-18434
▁동독	-18435
▁세속	-18436
▁루돌프	-18437
▁서스펜션	-18438
▁포제	-18439
▁블리치	-18440
▁스노우볼	-18441
▁매매	-18442
▁밀수	-18443
▁은인	-18444
▁노태우	-18445
press	-18446
▁피시	-18447
▁.?	-18448
▁264	-18449
▁노지	-18450
▁정가	-18451
▁로렌스	-18452
헤드	-18453
▁기형	-18454
▁황색	-18455
▁관세	-18456
▁끼얹	-18457
▁생소	-18458
▁라이선스	-18459
▁아구	-18460
▁척추	-18461
▁레이팅	-18462
▁다이애나	-18463
수염	-18464
▁긍지	-18465
▁로미오	-18466
▁리투아	-18467
▁리투아니아	-18468
▁다이너마이트	-18469
▁신해	-18470
▁여군	-18471
▁포톤	-18472
▁가격대	-18473
▁하룻밤	-18474
uj	-18475
제품	-18476
▁황재	-18477
▁르네상스	-18478
OTH	-18479
▁길가	-18480
▁리디	-18481
▁TSM	-18482
▁소방서	-18483
▁이광수	-18484
▁럿	-18485
수아비	-18486
▁집어던지	-18487
▁허수아비	-18488
▁버들	-18489
태인	-18490
gg	-18491
▁탁구	-18492
▁상반신	-18493
▁카이바	-18494
▁ㄱㅓㄴㅁㅏㄴ	-18495
▁스도	-18496
로트	-18497
▁희소	-18498
▁소고	-18499
▁des	-18500
▁경제력	-18501
▁심부름	-18502
▁어정쩡	-18503
▁차징	-18504
▁사이클론	-18505
툴루	-18506
▁남코	-18507
▁야오	-18508
▁성운	-18509
▁웬리	-18510
▁코니	-18511
▁반년	-18512
▁봉투	-18513
▁분출	-18514
▁재일	-18515
▁절실	-18516
▁지브	-18517
▁콩고	-18518
▁사토루	-18519
▁호시노	-18520
ots	-18521
▁OT	-18522
▁왕세	-18523
▁지바	-18524
▁브리스	-18525
▁줄리엣	-18526
▁잔잔	-18527
▁창시자	-18528
38	-18529
IF	-18530
▁도살	-18531
▁상층	-18532
▁hatsan	-18533
매기	-18534
펠러	-18535
▁심볼	-18536
▁오웬	-18537
그러	-18538
▁Ho	-18539
▁장자	-18540
▁판교	-18541
레이브	-18542
▁수호신	-18543
▁아카시	-18544
▁티아라	-18545
▁스타더스트	-18546
▁살육	-18547
▁환술	-18548
▁피어스	-18549
▁경산	-18550
▁도래	-18551
▁html	-18552
멘션	-18553
▁-,	-18554
▁농도	-18555
▁모조	-18556
▁디멘션	-18557
▁호타루	-18558
▁패러독스	-18559
▁요네	-18560
▁237	-18561
▁칵	-18562
▁레진	-18563
▁마네	-18564
▁ㅠ	-18565
▁짜장	-18566
▁레인저스	-18567
바인	-18568
거래	-18569
▁발당	-18570
▁살포	-18571
▁난징	-18572
▁넷째	-18573
▁지원자	-18574
삭스	-18575
▁GA	-18576
▁범퇴	-18577
▁성의	-18578
▁마라톤	-18579
디난	-18580
폭풍	-18581
▁박건	-18582
▁히브리	-18583
▁316	-18584
▁Ele	-18585
▁미우라	-18586
▁20000	-18587
▁송정	-18588
플라이	-18589
▁앞부분	-18590
▁POWER	-18591
보스	-18592
▁감마	-18593
▁그렌	-18594
▁선단	-18595
▁큐라	-18596
▁대항해	-18597
▁로트	-18598
▁일평균	-18599
▁문파	-18600
▁수기	-18601
▁직종	-18602
▁티오	-18603
▁알고리	-18604
▁근친	-18605
▁가발	-18606
▁애착	-18607
▁충이	-18608
▁호르몬	-18609
▁덜하	-18610
▁명치	-18611
▁지드	-18612
▁하운드	-18613
▁담그	-18614
▁김광현	-18615
▁쳇	-18616
▁약혼자	-18617
▁아사쿠라	-18618
▁유이치	-18619
▁활발히	-18620
▁파우스트	-18621
▁찬란	-18622
▁추론	-18623
▁쿠지	-18624
▁단축키	-18625
라이어티	-18626
▁Shad	-18627
▁반입	-18628
▁프리랜서	-18629
▁일면	-18630
▁버라이어티	-18631
▁보아	-18632
▁여운	-18633
▁정상급	-18634
▁배고프	-18635
▁아우라	-18636
▁금천	-18637
▁송지	-18638
▁망원경	-18639
▁아사미	-18640
▁파라다이스	-18641
▁카나타	-18642
▁뛰쳐나가	-18643
▁노미야	-18644
▁빗대	-18645
▁유린	-18646
▁꽃잎	-18647
▁아코	-18648
▁양분	-18649
▁헤드폰	-18650
▁아르테미스	-18651
▁덤블	-18652
▁SUV	-18653
▁라이스	-18654
▁해밀턴	-18655
▁조나단	-18656
▁DH	-18657
매김	-18658
▁김남	-18659
▁유투	-18660
▁boy	-18661
▁강진	-18662
▁제천	-18663
▁체면	-18664
▁떄문	-18665
▁속죄	-18666
▁Mad	-18667
▁NMB	-18668
▁덤벼들	-18669
▁1917	-18670
▁Att	-18671
▁스타터	-18672
▁펠릭스	-18673
▁람보	-18674
바위보	-18675
▁쿠사나기	-18676
▁가위바위보	-18677
▁재계	-18678
▁한라	-18679
▁자리매김	-18680
▁건너오	-18681
▁사나다	-18682
▁과거사	-18683
▁메사	-18684
▁레이서	-18685
▁동성애자	-18686
대군	-18687
▁주화	-18688
▁콜트	-18689
hn	-18690
▁발도	-18691
▁두루마리	-18692
▁결속	-18693
▁미적	-18694
▁사타	-18695
▁전라도	-18696
▁시베리아	-18697
▁늄	-18698
▁계엄	-18699
▁브금	-18700
▁목욕탕	-18701
ground	-18702
▁우왕	-18703
▁배틀로	-18704
▁압둘	-18705
▁Lun	-18706
▁자이로	-18707
▁타카미	-18708
관리	-18709
▁발병	-18710
▁타도	-18711
▁254	-18712
▁There	-18713
▁연장포	-18714
▁알고리즘	-18715
▁MUSIC	-18716
▁주리	-18717
▁특례	-18718
▁김재환	-18719
▁시트콤	-18720
yo	-18721
럴드	-18722
▁실례	-18723
총사	-18724
▁도류	-18725
▁아키야마	-18726
볶이	-18727
▁내무	-18728
▁다분	-18729
▁연두	-18730
▁이재명	-18731
ori	-18732
▁향신	-18733
▁이지만	-18734
▁거하	-18735
▁워스	-18736
▁퇴직	-18737
▁미역	-18738
▁주지	-18739
▁Mil	-18740
덕이	-18741
▁통장	-18742
▁Mel	-18743
▁1933	-18744
▁모차	-18745
▁포신	-18746
▁한문	-18747
▁바이트	-18748
▁표지판	-18749
▁광교	-18750
▁작자	-18751
▁팬더	-18752
▁ESP	-18753
▁오레	-18754
▁하나같이	-18755
▁하세가와	-18756
▁옆집	-18757
▁릴레이	-18758
▁넷플	-18759
▁알렌	-18760
▁넷플릭스	-18761
파르	-18762
▁명절	-18763
▁외무	-18764
▁HKT	-18765
스코	-18766
▁갈망	-18767
▁냉철	-18768
▁크라이시스	-18769
▁견주	-18770
▁베로니카	-18771
▁혼내	-18772
▁곡괭이	-18773
▁센고쿠	-18774
▁스크랩	-18775
▁카디널	-18776
▁뿅	-18777
▁통폐	-18778
▁매뉴얼	-18779
▁탐지기	-18780
▁국보	-18781
▁짬뽕	-18782
▁관리인	-18783
가짐	-18784
▁Hi	-18785
▁동강	-18786
▁쿠우	-18787
▁워해머	-18788
▁쟝	-18789
▁호밍	-18790
▁크툴루	-18791
산리	-18792
네이션	-18793
▁Mer	-18794
▁더욱더	-18795
▁카미야	-18796
▁한국사	-18797
▁크리스티안	-18798
▁카미조	-18799
고로	-18800
▁라이브러리	-18801
▁비겁	-18802
▁수학여행	-18803
▁보람	-18804
▁시이	-18805
▁혹독	-18806
▁깨뜨리	-18807
▁그리워하	-18808
▁난데없이	-18809
▁동아일보	-18810
▁Pa	-18811
▁가맹	-18812
▁도네	-18813
▁몰두	-18814
▁치하	-18815
▁242	-18816
▁맹독충	-18817
▁일렉트릭	-18818
▁신탁	-18819
▁펌웨어	-18820
▁유품	-18821
▁저속	-18822
▁주둔지	-18823
▁증식	-18824
▁예컨대	-18825
▁네기	-18826
▁니티	-18827
▁전범	-18828
▁왕창	-18829
▁판넬	-18830
▁디바인	-18831
▁카나메	-18832
▁루니	-18833
▁성북	-18834
▁장작	-18835
▁블로우	-18836
▁클라크	-18837
▁노장	-18838
▁커밍	-18839
▁식용	-18840
▁티비	-18841
▁산지	-18842
▁안주	-18843
▁무기고	-18844
▁고비	-18845
▁설원	-18846
▁아귀	-18847
▁은둔	-18848
ility	-18849
▁서든	-18850
▁거북이	-18851
▁마르티	-18852
▁불명예	-18853
▁인조인간	-18854
▁낙양	-18855
▁불릿	-18856
▁기정	-18857
▁이국	-18858
▁엘리시	-18859
아프	-18860
▁가샤	-18861
[...]
