[UNK]
[CLS]
[SEP]
[PAD]
[MASK]
!
"
#
$
%
&
'
(
)
*
+
,
-
.
/
0
1
2
3
4
5
6
7
8
9
:
;
<
=
>
?
@
A
B
C
D
E
F
G
H
I
J
K
L
M
N
O
P
Q
R
S
T
U
V
W
X
Y
Z
[
\
]
^
_
`
a
b
c
d
e
f
g
h
i
j
k
l
m
n
o
p
q
r
s
t
u
v
w
x
y
z
{
|
}
~

ᄀ
ᄁ
ᄂ
ᄃ
ᄄ
ᄅ
ᄆ
ᄇ
ᄈ
ᄉ
ᄊ
ᄋ
ᄌ
ᄍ
ᄎ
ᄏ
ᄐ
ᄑ
ᄒ
ᅡ
ᅢ
ᅣ
ᅤ
ᅥ
ᅦ
ᅧ
ᅨ
ᅩ
ᅪ
ᅬ
ᅭ
ᅮ
ᅯ
ᅰ
ᅱ
ᅲ
ᅳ
ᅴ
ᅵ
ᆨ
ᆩ
ᆫ
ᆭ
ᆮ
ᆯ
ᆷ
ᆸ
ᆹ
ᆺ
ᆻ
ᆼ
ᆽ
ᇀ
ᇂ
ㄱ
ㄲ
ㄳ
ㄴ
ㄵ
ㄶ
ㄷ
ㄸ
ㄹ
ㄺ
ㄻ
ㄼ
ㄽ
ㄾ
ㄿ
ㅀ
ㅁ
ㅂ
ㅃ
ㅄ
ㅅ
ㅆ
ㅇ
ㅈ
ㅉ
ㅊ
ㅋ
ㅌ
ㅍ
ㅎ
ㅏ
ㅐ
ㅑ
ㅒ
ㅓ
ㅔ
ㅕ
ㅖ
ㅗ
ㅘ
ㅙ
ㅚ
ㅛ
ㅜ
ㅝ
ㅞ
ㅟ
ㅠ
ㅡ
ㅢ
ㅣ
가
각
갂
갃
간
갅
갆
갇
갈
갉
갊
갋
갌
갍
갎
갏
감
갑
값
갓
갔
강
갖
갗
갘
같
갚
갛
개
객
갞
갟
갠
갡
갢
갣
갤
갥
갦
갧
갨
갩
갪
갫
갬
갭
갮
갯
갰
갱
갲
갳
갴
갵
갶
갷
갸
갹
갺
갻
갽
갾
갿
걀
걁
걂
걃
걄
걅
걆
걇
걈
걉
걊
걋
걌
걍
걎
걏
걐
걑
걒
걓
걔
걕
걖
걗
걙
걚
걛
걝
걞
걟
걠
걡
걢
걣
걤
걥
걦
걧
걨
걩
걪
걫
걬
걭
걮
걯
거
걱
걲
걳
건
걵
걶
걷
걸
걹
걺
걻
걼
걽
걾
걿
검
겁
겂
것
겄
겅
겆
겇
겈
겉
겊
겋
게
겍
겎
겏
겐
겑
겒
겓
겔
겕
겖
겗
겘
겙
겚
겛
겜
겞
겟
겠
겡
겢
겣
겤
겥
겦
겧
겨
격
겪
겫
견
겭
겮
겯
결
겱
겲
겳
겴
겵
겶
겷
겸
겹
겺
겻
겼
경
겾
겿
곀
곁
곂
곃
계
곅
곆
곇
곈
곉
곊
곋
곌
곍
곎
곏
곐
곑
곒
곓
곔
곕
곖
곗
곘
곙
곚
곛
곜
곝
곞
곟
고
곡
곢
곣
곤
곥
곦
곧
골
곩
곪
곫
곬
곭
곮
곯
곰
곱
곲
곳
곴
공
곶
곷
곸
곹
곺
곻
과
곽
곾
곿
관
괁
괂
괃
괄
괅
괆
괇
괈
괉
괊
괋
괌
괍
괎
괏
괐
광
괒
괓
괔
괕
괖
괗
괘
괙
괚
괛
괜
괝
괞
괟
괠
괡
괢
괣
괤
괥
괦
괧
괨
괩
괪
괫
괬
괭
괮
괯
괰
괱
괲
괳
괴
괵
괶
괷
괸
괹
괺
괻
괼
괽
괾
괿
굀
굁
굂
굃
굄
굅
굆
굇
굈
굉
굊
굋
굌
굍
굎
굏
교
굑
굒
굓
굔
굕
굖
굗
굘
굙
굚
굛
굜
굝
굞
굟
굠
굡
굢
굣
굤
굥
굦
굧
굨
굩
굪
굫
구
국
굮
굯
군
굱
굲
굳
굴
굵
굶
굷
굸
굹
굺
굻
굼
굽
굾
굿
궀
궁
궂
궃
궄
궅
궆
궇
궈
궉
궊
궋
권
궍
궎
궏
궐
궑
궒
궓
궔
궕
궖
궗
궘
궙
궚
궛
궜
궝
궞
궟
궠
궡
궢
궣
궤
궥
궦
궧
궨
궩
궪
궫
궬
궭
궮
궯
궰
궱
궲
궳
궴
궵
궶
궷
궸
궹
궺
궻
궼
궽
궾
궿
귀
귁
귂
귃
귄
귅
귆
귇
귈
귉
귊
귋
귌
귍
귎
귏
귐
귑
귒
귓
귔
귕
귖
귗
귘
귙
귚
귛
규
귝
귞
귟
균
귡
귢
귣
귤
귥
귦
귧
귨
귩
귪
귫
귬
귭
귮
귯
귰
귱
귲
귳
귴
귵
귶
귷
그
극
귺
귻
근
귽
귾
귿
글
긁
긂
긃
긄
긅
긆
긇
금
급
긊
긋
긌
긍
긎
긏
긐
긑
긒
긓
긔
긕
긖
긗
긘
긙
긚
긛
긜
긝
긞
긟
긠
긡
긢
긣
긤
긥
긦
긧
긨
긩
긪
긫
긬
긭
긮
긯
기
긱
긲
긳
긴
긵
긶
긷
길
긹
긺
긻
긼
긽
긾
긿
김
깁
깂
깃
깄
깅
깆
깇
깈
깉
깊
깋
까
깍
깎
깏
깐
깑
깒
깓
깔
깕
깖
깗
깘
깙
깚
깛
깜
깝
깞
깟
깡
깢
깣
깤
깥
깦
깧
깨
깩
깪
깫
깬
깭
깮
깯
깱
깲
깳
깴
깵
깶
깷
깸
깹
깺
깻
깽
깾
깿
꺀
꺁
꺂
꺃
꺄
꺅
꺆
꺇
꺈
꺉
꺊
꺋
꺌
꺍
꺎
꺏
꺐
꺑
꺒
꺓
꺔
꺕
꺖
꺗
꺘
꺙
꺚
꺛
꺜
꺝
꺞
꺟
꺠
꺡
꺢
꺣
꺤
꺥
꺦
꺧
꺨
꺩
꺪
꺫
꺬
꺭
꺮
꺯
꺰
꺱
꺲
꺳
꺴
꺵
꺶
꺷
꺸
꺹
꺺
꺻
꺼
꺽
꺾
꺿
껀
껁
껂
껃
껄
껅
껆
껇
껈
껉
껊
껋
껌
껍
껎
껏
껑
껒
껓
껔
껕
껖
껗
께
껙
껚
껛
껝
껞
껟
껠
껡
껢
껣
껤
껥
껦
껧
껨
껩
껪
껫
껬
껭
껮
껯
껰
껱
껲
껳
껴
껵
껶
껷
껸
껹
껺
껻
껼
껽
껾
껿
꼀
꼁
꼂
꼃
꼄
꼅
꼆
꼇
꼈
꼉
꼊
꼋
꼌
꼍
꼎
꼏
꼐
꼑
꼒
꼓
꼔
꼕
꼖
꼗
꼘
꼙
꼚
꼛
꼜
꼝
꼞
꼟
꼠
꼡
꼢
꼣
꼤
꼥
꼦
꼧
꼨
꼩
꼪
꼫
꼬
꼭
꼮
꼯
꼰
꼱
꼲
꼳
꼴
꼵
꼶
꼷
꼸
꼹
꼺
꼻
꼼
꼽
꼾
꼿
꽀
꽁
꽂
꽃
꽄
꽅
꽆
꽇
꽈
꽉
꽊
꽋
꽌
꽍
꽎
꽏
꽐
꽑
꽒
꽓
꽔
꽕
꽖
꽗
꽘
꽙
꽚
꽛
꽜
꽝
꽞
꽟
꽠
꽡
꽢
꽣
꽤
꽥
꽦
꽧
꽨
꽩
꽪
꽫
꽬
꽭
꽮
꽯
꽰
꽱
꽲
꽳
꽴
꽵
꽶
꽷
꽸
꽹
꽺
꽻
꽼
꽽
꽾
꽿
꾀
꾁
꾂
꾃
꾄
꾅
꾆
꾇
꾈
꾉
꾊
꾋
꾌
꾍
꾎
꾏
꾐
꾑
꾒
꾓
꾔
꾕
꾖
꾗
꾘
꾙
꾚
꾛
꾜
꾝
꾞
꾟
꾠
꾡
꾢
꾣
꾤
꾥
꾦
꾧
꾨
꾩
꾪
꾫
꾬
꾭
꾮
꾯
꾰
꾱
꾲
꾳
꾴
꾵
꾶
꾷
꾸
꾹
꾺
꾻
꾼
꾽
꾾
꾿
꿀
꿁
꿂
꿃
꿄
꿅
꿆
꿇
꿈
꿉
꿊
꿋
꿌
꿍
꿎
꿏
꿐
꿑
꿒
꿓
꿔
꿕
꿖
꿗
꿘
꿙
꿚
꿛
꿜
꿝
꿞
꿟
꿠
꿡
꿢
꿣
꿤
꿥
꿦
꿧
꿨
꿩
꿪
꿫
꿬
꿭
꿮
꿯
꿰
꿱
꿲
꿳
꿵
꿶
꿷
꿹
꿺
꿻
꿼
꿽
꿾
꿿
뀀
뀁
뀂
뀃
뀅
뀆
뀇
뀈
뀉
뀊
뀋
뀌
뀍
뀎
뀏
뀐
뀑
뀒
뀓
뀕
뀖
뀗
뀘
뀙
뀚
뀛
뀜
뀝
뀞
뀟
뀠
뀡
뀢
뀣
뀤
뀥
뀦
뀧
뀨
뀩
뀪
뀫
뀬
뀭
뀮
뀯
뀰
뀱
뀲
뀳
뀴
뀵
뀶
뀷
뀸
뀹
뀺
뀻
뀼
뀽
뀾
뀿
끀
끁
끂
끃
끄
끅
끆
끇
끈
끉
끊
끋
끌
끍
끎
끏
끐
끑
끒
끓
끔
끕
끖
끗
끘
끙
끚
끛
끜
끝
끞
끟
끠
끡
끢
끣
끤
끥
끦
끧
끨
끩
끪
끫
끬
끭
끮
끯
끰
끱
끲
끳
끴
끵
끶
끷
끸
끹
끺
끻
끼
끽
끾
끿
낀
낁
낂
낃
낄
낅
낆
낇
낈
낉
낊
낋
낌
낍
낎
낏
낐
낑
낒
낓
낔
낕
낖
낗
나
낙
낚
낛
난
낝
낞
낟
날
낡
낢
낣
낤
낥
낦
낧
남
납
낪
낫
났
낭
낮
낯
낰
낱
낲
낳
내
낵
낶
낷
낸
낹
낺
낻
낼
낽
낾
낿
냀
냁
냂
냃
냄
냅
냆
냇
냈
냉
냊
냋
냌
냍
냎
냏
냐
냑
냒
냓
냔
냕
냖
냗
냘
냙
냚
냛
냜
냝
냞
냟
냠
냡
냢
냣
냤
냥
냦
냧
냨
냩
냪
냫
냬
냭
냮
냯
냱
냲
냳
냴
냵
냶
냷
냸
냹
냺
냻
냼
냽
냾
냿
넀
넁
넂
넃
넄
넅
넆
넇
너
넉
넊
넋
넌
넍
넎
넏
널
넑
넒
넓
넔
넕
넖
넗
넘
넙
넚
넛
넜
넝
넞
넟
넠
넡
넢
넣
네
넥
넦
넧
넨
넩
넪
넫
넬
넭
넮
넯
넰
넱
넲
넳
넴
넵
넶
넷
넸
넹
넺
넻
넼
넽
넾
넿
녀
녁
녂
녃
년
녅
녆
녇
녈
녉
녊
녋
녌
녍
녎
녏
념
녑
녒
녓
녔
녕
녖
녗
녘
녙
녚
녛
녜
녝
녞
녟
녠
녡
녢
녣
녤
녥
녦
녧
녨
녩
녪
녫
녬
녭
녮
녯
녰
녱
녲
녳
녴
녵
녶
녷
노
녹
녺
녻
논
녽
녾
녿
놀
놁
놂
놃
놄
놅
놆
놇
놈
놉
놊
놋
놌
농
놎
놏
놐
놑
높
놓
놔
놕
놖
놗
놘
놙
놚
놛
놜
놝
놞
놟
놠
놡
놢
놣
놤
놥
놦
놧
놨
놩
놪
놫
놬
놭
놮
놯
놰
놱
놲
놳
놴
놵
놶
놷
놸
놹
놺
놻
놼
놽
놾
놿
뇀
뇁
뇂
뇃
뇄
뇅
뇆
뇇
뇈
뇉
뇊
뇋
뇌
뇍
뇎
뇏
뇐
뇑
뇒
뇓
뇔
뇕
뇖
뇗
뇘
뇙
뇚
뇛
뇜
뇝
뇞
뇟
뇠
뇡
뇢
뇣
뇤
뇥
뇦
뇧
뇨
뇩
뇪
뇫
뇬
뇭
뇮
뇯
뇰
뇱
뇲
뇳
뇴
뇵
뇶
뇷
뇸
뇹
뇺
뇻
뇼
뇽
뇾
뇿
눀
눁
눂
눃
누
눅
눆
눇
눈
눉
눊
눋
눌
눍
눎
눏
눐
눑
눒
눓
눔
눕
눖
눗
눘
눙
눚
눛
눜
눝
눞
눟
눡
눢
눣
눤
눥
눦
눧
눨
눩
눪
눫
눬
눭
눮
눯
눰
눱
눲
눳
눵
눶
눷
눸
눹
눺
눻
눼
눽
눾
눿
뉀
뉁
뉂
뉃
뉄
뉅
뉆
뉇
뉈
뉉
뉊
뉋
뉌
뉍
뉎
뉏
뉐
뉑
뉒
뉓
뉔
뉕
뉖
뉗
뉘
뉙
뉚
뉛
뉜
뉝
뉞
뉟
뉡
뉢
뉣
뉤
뉥
뉦
뉧
뉨
뉩
뉪
뉫
뉬
뉭
뉮
뉯
뉰
뉱
뉲
뉳
뉴
뉵
뉶
뉷
뉸
뉹
뉺
뉻
뉼
뉽
뉾
뉿
늀
늁
늂
늃
늄
늅
늆
늇
늈
늉
늊
늋
늌
늍
늎
늏
느
늑
늒
늓
는
늕
늖
늗
늘
늙
늚
늛
늜
늝
늞
늟
늠
늡
늢
늣
늤
능
늦
늧
늨
늩
늪
늫
늬
늭
늮
늯
늰
늱
늲
늳
늴
늵
늶
늷
늸
늹
늺
늻
늼
늽
늾
늿
닀
닁
닂
닃
닄
닅
닆
닇
니
닉
닊
닋
닌
닍
닎
닏
닐
닑
닒
닓
닔
닕
닖
닗
님
닙
닚
닛
닜
닝
닞
닟
닠
닡
닢
닣
다
닥
닦
닧
단
닩
닪
닫
달
닭
닮
닯
닰
닱
닲
닳
담
답
닶
닷
닸
당
닺
닻
닼
닽
닾
닿
대
댁
댂
댃
댄
댅
댆
댇
댈
댉
댊
댋
댌
댍
댎
댏
댐
댑
댒
댓
댔
댕
댖
댗
댘
댙
댚
댛
댜
댝
댞
댟
댠
댡
댢
댣
댤
댥
댦
댧
댨
댩
댪
댫
댬
댭
댮
댯
댰
댱
댲
댳
댴
댵
댶
댷
댸
댹
댺
댻
댼
댽
댾
댿
덀
덁
덂
덃
덄
덅
덆
덇
덈
덉
덊
덋
덌
덍
덎
덏
덐
덑
덒
덓
더
덕
덖
덗
던
덙
덚
덛
덜
덝
덞
덟
덠
덡
덢
덣
덤
덥
덦
덧
덨
덩
덪
덫
덬
덭
덮
덯
데
덱
덲
덳
덴
덵
덶
덷
델
덹
덺
덻
덼
덽
덾
덿
뎀
뎁
뎂
뎃
뎄
뎅
뎆
뎇
뎈
뎉
뎊
뎋
뎌
뎍
뎎
뎏
뎐
뎑
뎒
뎓
뎔
뎕
뎖
뎗
뎘
뎙
뎚
뎛
뎜
뎝
뎞
뎟
뎠
뎡
뎢
뎣
뎤
뎥
뎦
뎧
뎨
뎩
뎪
뎫
뎬
뎭
뎮
뎯
뎰
뎱
뎲
뎳
뎴
뎵
뎶
뎷
뎸
뎹
뎺
뎻
뎼
뎽
뎾
뎿
돀
돁
돂
돃
도
독
돆
돇
돈
돉
돊
돋
돌
돍
돎
돏
돐
돑
돒
돓
돔
돕
돖
돗
돘
동
돚
돛
돜
돝
돞
돟
돠
돡
돢
돣
돤
돥
돦
돧
돨
돩
돪
돫
돬
돭
돮
돯
돰
돱
돲
돳
돴
돵
돶
돷
돸
돹
돺
돻
돼
돽
돾
돿
됀
됁
됂
됃
됄
됅
됆
됇
됈
됉
됊
됋
됌
됍
됎
됏
됐
됑
됒
됓
됔
됕
됖
됗
되
됙
됚
됛
된
됝
됞
됟
될
됡
됢
됣
됤
됥
됦
됧
됨
됩
됪
됫
됬
됭
됮
됯
됰
됱
됲
됳
됴
됵
됶
됷
됸
됹
됺
됻
됼
됽
됾
됿
둀
둁
둂
둃
둄
둅
둆
둇
둈
둉
둊
둋
둌
둍
둎
둏
두
둑
둒
둓
둔
둕
둖
둗
둘
둙
둚
둛
둜
둝
둞
둟
둠
둡
둢
둣
둤
둥
둦
둧
둨
둩
둪
둫
둬
둭
둮
둯
둰
둱
둲
둳
둴
둵
둶
둷
둸
둹
둺
둻
둼
둽
둾
둿
뒁
뒂
뒃
뒄
뒅
뒆
뒇
뒈
뒉
뒊
뒋
뒌
뒍
뒎
뒏
뒐
뒑
뒒
뒓
뒔
뒕
뒖
뒗
뒘
뒙
뒚
뒛
뒜
뒝
뒞
뒟
뒠
뒡
뒢
뒣
뒤
뒥
뒦
뒧
뒨
뒩
뒪
뒫
뒬
뒭
뒮
뒯
뒰
뒱
뒲
뒳
뒴
뒵
뒶
뒷
뒸
뒹
뒺
뒻
뒼
뒽
뒾
뒿
듀
듁
듂
듃
듄
듅
듆
듇
듈
듉
듊
듋
듌
듍
듎
듏
듐
듑
듒
듓
듔
듕
듖
듗
듘
듙
듚
듛
드
득
듞
듟
든
듡
듢
듣
들
듥
듦
듧
듨
듩
듪
듫
듬
듭
듮
듯
듰
등
듲
듳
듴
듵
듶
듷
듸
듹
듺
듻
듼
듽
듾
듿
딀
딁
딂
딃
딄
딅
딆
딇
딈
딉
딊
딋
딌
딍
딎
딏
딐
딑
딒
딓
디
딕
딖
딗
딘
딙
딚
딛
딜
딝
딞
딟
딠
딡
딢
딣
딤
딥
딦
딧
딨
딩
딪
딫
딬
딭
딮
딯
따
딱
딲
딳
딴
딵
딶
딷
딸
딹
딺
딻
딼
딽
딾
딿
땀
땁
땂
땃
땅
땆
땇
땈
땉
땊
땋
때
땍
땎
땏
땐
땑
땒
땓
땔
땕
땖
땗
땘
땙
땚
땛
땜
땝
땞
땟
땠
땡
땢
땣
땤
땥
땦
땧
땨
땩
땪
땫
땬
땭
땮
땯
땰
땱
땲
땳
땴
땵
땶
땷
땸
땹
땺
땻
땼
땽
땾
땿
떀
떁
떂
떃
떄
떅
떆
떇
떈
떉
떊
떋
떌
떍
떎
떏
떐
떑
떒
떓
떔
떕
떖
떗
떘
떙
떚
떛
떜
떝
떞
떟
떠
떡
떢
떣
떤
떥
떦
떧
떨
떩
떪
떫
떬
떭
떮
떯
떰
떱
떲
떳
떵
떶
떷
떸
떹
떺
떻
떼
떽
떾
떿
뗀
뗁
뗂
뗃
뗄
뗅
뗆
뗇
뗈
뗉
뗊
뗋
뗌
뗍
뗎
뗏
뗑
뗒
뗓
뗔
뗕
뗖
뗗
뗘
뗙
뗚
뗛
뗜
뗝
뗞
뗟
뗠
뗡
뗢
뗣
뗤
뗥
뗦
뗧
뗨
뗩
뗪
뗫
뗭
뗮
뗯
뗰
뗱
뗲
뗳
뗴
뗵
뗶
뗷
뗸
뗹
뗺
뗻
뗼
뗽
뗾
뗿
똀
똁
똂
똃
똄
똅
똆
똇
똈
똉
똊
똋
똌
똍
똎
똏
또
똑
똒
똓
똔
똕
똖
똗
똘
똙
똚
똛
똜
똝
똞
똟
똠
똡
똢
똣
똤
똥
똦
똧
똨
똩
똪
똫
똬
똭
똮
똯
똰
똱
똲
똳
똴
똵
똶
똷
똸
똹
똺
똻
똼
똽
똾
똿
뙀
뙁
뙂
뙃
뙄
뙅
뙆
뙇
뙈
뙉
뙊
뙋
뙌
뙍
뙎
뙏
뙐
뙑
뙒
뙓
뙔
뙕
뙖
뙗
뙘
뙙
뙚
뙛
뙜
뙝
뙞
뙟
뙠
뙡
뙢
뙣
뙤
뙥
뙦
뙧
뙨
뙩
뙪
뙫
뙬
뙭
뙮
뙯
뙰
뙱
뙲
뙳
뙴
뙵
뙶
뙷
뙸
뙹
뙺
뙻
뙼
뙽
뙾
뙿
뚀
뚁
뚂
뚃
뚄
뚅
뚆
뚇
뚈
뚉
뚊
뚋
뚌
뚍
뚎
뚏
뚐
뚑
뚒
뚓
뚔
뚕
뚖
뚗
뚘
뚙
뚚
뚛
뚜
뚝
뚞
뚟
뚠
뚡
뚢
뚣
뚤
뚥
뚦
뚧
뚨
뚩
뚪
뚫
뚬
뚭
뚮
뚯
뚰
뚱
뚲
뚳
뚴
뚵
뚶
뚷
뚸
뚹
뚺
뚻
뚼
뚽
뚾
뚿
뛀
뛁
뛂
뛃
뛄
뛅
뛆
뛇
뛈
뛉
뛊
뛋
뛌
뛍
뛎
뛏
뛐
뛑
뛒
뛓
뛔
뛕
뛖
뛗
뛘
뛙
뛚
뛛
뛜
뛝
뛞
뛟
뛠
뛡
뛢
뛣
뛤
뛥
뛦
뛧
뛨
뛩
뛪
뛫
뛬
뛭
뛮
뛯
뛰
뛱
뛲
뛳
뛵
뛶
뛷
뛸
뛹
뛺
뛻
뛼
뛽
뛾
뛿
뜀
뜁
뜂
뜃
뜄
뜅
뜆
뜇
뜈
뜉
뜊
뜋
뜌
뜍
뜎
뜏
뜐
뜑
뜒
뜓
뜔
뜕
뜖
뜗
뜘
뜙
뜚
뜛
뜜
뜝
뜞
뜟
뜠
뜡
뜢
뜣
뜤
뜥
뜦
뜧
뜨
뜩
뜪
뜫
뜬
뜭
뜮
뜯
뜰
뜱
뜲
뜳
뜴
뜵
뜶
뜷
뜸
뜹
뜺
뜻
뜼
뜽
뜾
뜿
띀
띁
띂
띃
띄
띅
띆
띇
띉
띊
띋
띍
띎
띏
띐
띑
띒
띓
띔
띕
띖
띗
띘
띙
띚
띛
띜
띝
띞
띟
띠
띡
띢
띣
띤
띥
띦
띧
띨
띩
띪
띫
띬
띭
띮
띯
띰
띱
띲
띳
띴
띵
띶
띷
띸
띹
띺
띻
라
락
띾
띿
란
랁
랂
랃
랄
랅
랆
랇
랈
랉
랊
랋
람
랍
랎
랏
랐
랑
랒
랓
랔
랕
랖
랗
래
랙
랚
랛
랜
랝
랞
랟
랠
랡
랢
랣
랤
랥
랦
랧
램
랩
랪
랫
랬
랭
랮
랯
랰
랱
랲
랳
랴
략
랶
랷
랸
랹
랺
랻
랼
랽
랾
랿
럀
럁
럂
럃
럄
럅
럆
럇
럈
량
럊
럋
럌
럍
럎
럏
럐
럑
럒
럓
럔
럕
럖
럗
럘
럙
럚
럛
럜
럝
럞
럟
럠
럡
럢
럣
럤
럥
럦
럧
럨
럩
럪
럫
러
럭
럮
럯
런
럱
럲
럳
럴
럵
럶
럷
럸
럹
럺
럻
럼
럽
럾
럿
렀
렁
렂
렃
렄
렅
렆
렇
레
렉
렊
렋
렌
렍
렎
렏
렐
렑
렒
렓
렔
렕
렖
렗
렘
렙
렚
렛
렜
렝
렞
렟
렠
렡
렢
렣
려
력
렦
렧
련
렩
렪
렫
렬
렭
렮
렯
렰
렱
렲
렳
렴
렵
렶
렷
렸
령
렺
렻
렼
렽
렾
렿
례
롁
롂
롃
롄
롅
롆
롇
롈
롉
롊
롋
롌
롍
롎
롏
롐
롑
롒
롓
롔
롕
롖
롗
롘
롙
롚
롛
로
록
롞
롟
론
롡
롢
롣
롤
롥
롦
롧
롨
롩
롪
롫
롬
롭
롮
롯
롰
롱
롲
롳
롴
롵
롶
롷
롸
롹
롺
롻
롼
롽
롾
롿
뢀
뢁
뢂
뢃
뢄
뢅
뢆
뢇
뢈
뢉
뢊
뢋
뢌
뢍
뢎
뢏
뢐
뢑
뢒
뢓
뢔
뢕
뢖
뢗
뢘
뢙
뢚
뢛
뢜
뢝
뢞
뢟
뢠
뢡
뢢
뢣
뢤
뢥
뢦
뢧
뢨
뢩
뢪
뢫
뢬
뢭
뢮
뢯
뢰
뢱
뢲
뢳
뢴
뢵
뢶
뢷
뢸
뢹
뢺
뢻
뢼
뢽
뢾
뢿
룀
룁
룂
룃
룄
룅
룆
룇
룈
룉
룊
룋
료
룍
룎
룏
룐
룑
룒
룓
룔
룕
룖
룗
룘
룙
룚
룛
룜
룝
룞
룟
룠
룡
룢
룣
룤
룥
룦
룧
루
룩
룪
룫
룬
룭
룮
룯
룰
룱
룲
룳
룴
룵
룶
룷
룸
룹
룺
룻
룼
룽
룾
룿
뤀
뤁
뤂
뤃
뤄
뤅
뤆
뤇
뤈
뤉
뤊
뤋
뤌
뤍
뤎
뤏
뤐
뤑
뤒
뤓
뤔
뤕
뤖
뤗
뤘
뤙
뤚
뤛
뤜
뤝
뤞
뤟
뤠
뤡
뤢
뤣
뤤
뤥
뤦
뤧
뤨
뤩
뤪
뤫
뤬
뤭
뤮
뤯
뤰
뤱
뤲
뤳
뤴
뤵
뤶
뤷
뤸
뤹
뤺
뤻
뤼
뤽
뤾
뤿
륀
륁
륂
륃
륄
륅
륆
륇
륈
륉
륊
륋
륌
륍
륎
륏
륐
륑
륒
륓
륔
륕
륖
륗
류
륙
륚
륛
륜
륝
륞
륟
률
륡
륢
륣
륤
륥
륦
륧
륨
륩
륪
륫
륬
륭
륮
륯
륰
륱
륲
륳
르
륵
륶
륷
른
륹
륺
륻
를
륽
륾
륿
릀
릁
릂
릃
름
릅
릆
릇
릈
릉
릊
릋
릌
릍
릎
릏
릐
릑
릒
릓
릔
릕
릖
릗
릘
릙
릚
릛
릜
릝
릞
릟
릠
릡
릢
릣
릤
릥
릦
릧
릨
릩
릪
릫
리
릭
릮
릯
린
릱
릲
릳
릴
릵
릶
릷
릸
릹
릺
릻
림
립
릾
릿
맀
링
맂
맃
맄
맅
맆
맇
마
막
맊
맋
만
맍
많
맏
말
맑
맒
맓
맔
맕
맖
맗
맘
맙
맚
맛
맜
망
맞
맟
맠
맡
맢
맣
매
맥
맦
맧
맨
맩
맪
맫
맬
맭
맮
맯
맰
맱
맲
맳
맴
맵
맶
맷
맹
맺
맻
맼
맽
맾
맿
먀
먁
먂
먃
먄
먅
먆
먇
먈
먉
먊
먋
먌
먍
먎
먏
먐
먑
먒
먓
먔
먕
먖
먗
먘
먙
먚
먛
먜
먝
먞
먟
먠
먡
먢
먣
먤
먥
먦
먧
먨
먩
먪
먫
먬
먭
먮
먯
먰
먱
먲
먳
먴
먵
먶
먷
머
먹
먺
먻
먼
먽
먾
먿
멀
멁
멂
멃
멄
멅
멆
멇
멈
멉
멊
멋
멌
멍
멎
멏
멐
멑
멒
멓
메
멕
멖
멗
멘
멙
멚
멛
멜
멝
멞
멟
멠
멡
멢
멣
멤
멥
멦
멧
멨
멩
멪
멫
멬
멭
멮
멯
며
멱
멲
멳
면
멵
멶
멷
멸
멹
멺
멻
멼
멽
멾
멿
몀
몁
몂
몃
몄
명
몆
몇
몈
몉
몊
몋
몌
몍
몎
몏
몐
몑
몒
몓
몔
몕
몖
몗
몘
몙
몚
몛
몜
몝
몞
몟
몠
몡
몢
몣
몤
몥
몦
몧
모
목
몪
몫
몬
몭
몮
몯
몰
몱
몲
몳
몴
몵
몶
몷
몸
몹
몺
못
몼
몽
몾
몿
뫀
뫁
뫂
뫃
뫄
뫅
뫆
뫇
뫈
뫉
뫊
뫋
뫌
뫍
뫎
뫏
뫐
뫑
뫒
뫓
뫔
뫕
뫖
뫗
뫘
뫙
뫚
뫛
뫜
뫝
뫞
뫟
뫠
뫡
뫢
뫣
뫤
뫥
뫦
뫧
뫨
뫩
뫪
뫫
뫬
뫭
뫮
뫯
뫰
뫱
뫲
뫳
뫴
뫵
뫶
뫷
뫸
뫹
뫺
뫻
뫼
뫽
뫾
뫿
묀
묁
묂
묃
묄
묅
묆
묇
묈
묉
묊
묋
묌
묍
묎
묏
묐
묑
묒
묓
묔
묕
묖
묗
묘
묙
묚
묛
묜
묝
묞
묟
묠
묡
묢
묣
묤
묥
묦
묧
묨
묩
묪
묫
묬
묭
묮
묯
묰
묱
묲
묳
무
묵
묶
묷
문
묹
묺
묻
물
묽
묾
묿
뭀
뭁
뭂
뭃
뭄
뭅
뭆
뭇
뭈
뭉
뭊
뭋
뭌
뭍
뭎
뭏
뭐
뭑
뭒
뭓
뭔
뭕
뭖
뭗
뭘
뭙
뭚
뭛
뭜
뭝
뭞
뭟
뭠
뭡
뭢
뭣
뭤
뭥
뭦
뭧
뭨
뭩
뭪
뭫
뭬
뭭
뭮
뭯
뭰
뭱
뭲
뭳
뭴
뭵
뭶
뭷
뭸
뭹
뭺
뭻
뭼
뭽
뭾
뭿
뮀
뮁
뮂
뮃
뮄
뮅
뮆
뮇
뮈
뮉
뮊
뮋
뮌
뮍
뮎
뮏
뮐
뮑
뮒
뮓
뮔
뮕
뮖
뮗
뮘
뮙
뮚
뮛
뮜
뮝
뮞
뮟
뮠
뮡
뮢
뮣
뮤
뮥
뮦
뮧
뮨
뮩
뮪
뮫
뮬
뮭
뮮
뮯
뮰
뮱
뮲
뮳
뮴
뮵
뮶
뮷
뮸
뮹
뮺
뮻
뮼
뮽
뮾
뮿
므
믁
믂
믃
믄
믅
믆
믇
믈
믉
믊
믋
믌
믍
믎
믏
믐
믑
믒
믓
믔
믕
믖
믗
믘
믙
믚
믛
믜
믝
믞
믟
믠
믡
믢
믣
믤
믥
믦
믧
믨
믩
믪
믫
믬
믭
믮
믯
믰
믱
믲
믳
믴
믵
믶
믷
미
믹
믺
믻
민
믽
믾
믿
밀
밁
밂
밃
밄
밅
밆
밇
밈
밉
밊
밋
밌
밍
밎
및
밐
밑
밒
밓
바
박
밖
밗
반
밙
밚
받
발
밝
밞
밟
밠
밡
밢
밣
밤
밥
밦
밧
밨
방
밪
밫
밬
밭
밮
밯
배
백
밲
밳
밴
밵
밶
밷
밸
밹
밺
밻
밼
밽
밾
밿
뱀
뱁
뱂
뱃
뱅
뱆
뱇
뱈
뱉
뱊
뱋
뱌
뱍
뱎
뱏
뱐
뱑
뱒
뱓
뱔
뱕
뱖
뱗
뱘
뱙
뱚
뱛
뱜
뱝
뱞
뱟
뱠
뱡
뱢
뱣
뱤
뱥
뱦
뱧
뱨
뱩
뱪
뱫
뱬
뱭
뱮
뱯
뱰
뱱
뱲
뱳
뱴
뱵
뱶
뱷
뱸
뱹
뱺
뱻
뱼
뱽
뱾
뱿
벀
벁
벂
벃
버
벅
벆
벇
번
벉
벊
벋
벌
벍
벎
벏
벐
벑
벒
벓
범
법
벖
벗
벘
벙
벚
벛
벜
벝
벞
벟
베
벡
벢
벣
벤
벥
벦
벧
벨
벩
벪
벫
벬
벭
벮
벯
벰
벱
벲
벳
벴
벵
벶
벷
벸
벹
벺
벻
벼
벽
벾
벿
변
볁
볂
볃
별
볅
볆
볇
볈
볉
볊
볋
볌
볍
볎
볏
볐
병
볒
볓
볔
볕
볖
볗
볘
볙
볚
볛
볜
볝
볞
볟
볠
볡
볢
볣
볤
볥
볦
볧
볨
볩
볪
볫
볬
볭
볮
볯
볰
볱
볲
볳
보
복
볶
볷
본
볹
볺
볻
볼
볽
볾
볿
봀
봁
봂
봃
봄
봅
봆
봇
봈
봉
봊
봋
봌
봍
봎
봏
봐
봑
봒
봓
봔
봕
봖
봗
봘
봙
봚
봛
봜
봝
봞
봟
봠
봡
봢
봣
봤
봥
봦
봧
봨
봩
봪
봫
봬
봭
봮
봯
봰
봱
봲
봳
봴
봵
봶
봷
봸
봹
봺
봻
봼
봽
봾
봿
뵁
뵂
뵃
뵄
뵅
뵆
뵇
뵈
뵉
뵊
뵋
뵍
뵎
뵏
뵐
뵑
뵒
뵓
뵔
뵕
뵖
뵗
뵘
뵙
뵚
뵛
뵝
뵞
뵟
뵠
뵡
뵢
뵣
뵤
뵥
뵦
뵧
뵨
뵩
뵪
뵫
뵬
뵭
뵮
뵯
뵰
뵱
뵲
뵳
뵴
뵵
뵶
뵷
뵸
뵹
뵺
뵻
뵼
뵽
뵾
뵿
부
북
붂
붃
분
붅
붆
붇
불
붉
붊
붋
붌
붍
붎
붏
붐
붑
붒
붓
붔
붕
붖
붗
붘
붙
붚
붛
붜
붝
붞
붟
붠
붡
붢
붣
붤
붥
붦
붧
붨
붩
붪
붫
붬
붭
붮
붯
붰
붱
붲
붳
붴
붵
붶
붷
붸
붹
붺
붻
붼
붽
붾
붿
뷀
뷁
뷂
뷃
뷄
뷅
뷆
뷇
뷈
뷉
뷊
뷋
뷌
뷍
뷎
뷏
뷐
뷑
뷒
뷓
뷔
뷕
뷖
뷗
뷘
뷙
뷚
뷛
뷜
뷝
뷞
뷟
뷠
뷡
뷢
뷣
뷤
뷥
뷦
뷧
뷨
뷩
뷪
뷫
뷬
뷭
뷮
뷯
뷰
뷱
뷲
뷳
뷴
뷵
뷶
뷷
뷸
뷹
뷺
뷻
뷼
뷽
뷾
뷿
븀
븁
븂
븃
븄
븅
븆
븇
븈
븉
븊
븋
브
븍
븎
븏
븐
븑
븒
븓
블
븕
븖
븗
븘
븙
븚
븛
븜
븝
븞
븟
븠
븡
븢
븣
븤
븥
븦
븧
븨
븩
븪
븫
븬
븭
븮
븯
븰
븱
븲
븳
븴
븵
븶
븷
븸
븹
븺
븻
븼
븽
븾
븿
빀
빁
빂
빃
비
빅
빆
빇
빈
빉
빊
빋
빌
빍
빎
빏
빐
빑
빒
빓
빔
빕
빖
빗
빘
빙
빚
빛
빜
빝
빞
빟
빠
빡
빢
빣
빤
빥
빦
빧
빨
빩
빪
빫
빬
빭
빮
빯
빰
빱
빲
빳
빴
빵
빶
빷
빸
빹
빺
빻
빼
빽
빾
빿
뺀
뺁
뺂
뺃
뺄
뺅
뺆
뺇
뺈
뺉
뺊
뺋
뺌
뺍
뺎
뺏
뺐
뺑
뺒
뺓
뺔
뺕
뺖
뺗
뺘
뺙
뺚
뺛
뺜
뺝
뺞
뺟
뺠
뺡
뺢
뺣
뺤
뺥
뺦
뺧
뺨
뺩
뺪
뺫
뺬
뺭
뺮
뺯
뺰
뺱
뺲
뺳
뺴
뺵
뺶
뺷
뺸
뺹
뺺
뺻
뺼
뺽
뺾
뺿
뻀
뻁
뻂
뻃
뻄
뻅
뻆
뻇
뻈
뻉
뻊
뻋
뻌
뻍
뻎
뻏
뻐
뻑
뻒
뻓
뻔
뻕
뻖
뻗
뻘
뻙
뻚
뻛
뻜
뻝
뻞
뻟
뻠
뻡
뻢
뻣
뻤
뻥
뻦
뻧
뻨
뻩
뻪
뻫
뻬
뻭
뻮
뻯
뻰
뻱
뻲
뻳
뻴
뻵
뻶
뻷
뻸
뻹
뻺
뻻
뻼
뻽
뻾
뻿
뼀
뼁
뼂
뼃
뼄
뼅
뼆
뼇
뼈
뼉
뼊
뼋
뼌
뼍
뼎
뼏
뼐
뼑
뼒
뼓
뼔
뼕
뼖
뼗
뼘
뼙
뼚
뼛
뼜
뼝
뼞
뼟
뼠
뼡
뼢
뼣
뼤
뼥
뼦
뼧
뼨
뼩
뼪
뼫
뼬
뼭
뼮
뼯
뼰
뼱
뼲
뼳
뼴
뼵
뼶
뼷
뼸
뼹
뼺
뼻
뼼
뼽
뼾
뼿
뽀
뽁
뽂
뽃
뽄
뽅
뽆
뽇
뽈
뽉
뽊
뽋
뽌
뽍
뽎
뽏
뽐
뽑
뽒
뽓
뽔
뽕
뽖
뽗
뽘
뽙
뽚
뽛
뽜
뽝
뽞
뽟
뽠
뽡
뽢
뽣
뽤
뽥
뽦
뽧
뽨
뽩
뽪
뽫
뽬
뽭
뽮
뽯
뽰
뽱
뽲
뽳
뽴
뽵
뽶
뽷
뽸
뽹
뽺
뽻
뽼
뽽
뽾
뽿
뾀
뾁
뾂
뾃
뾄
뾅
뾆
뾇
뾈
뾉
뾊
뾋
뾌
뾍
뾎
뾏
뾐
뾑
뾒
뾓
뾔
뾕
뾖
뾗
뾘
뾙
뾚
뾛
뾜
뾝
뾞
뾟
뾠
뾡
뾢
뾣
뾤
뾥
뾦
뾧
뾨
뾩
뾪
뾫
뾬
뾭
뾮
뾯
뾰
뾱
뾲
뾳
뾴
뾵
뾶
뾷
뾸
뾹
뾺
뾻
뾼
뾽
뾾
뾿
뿀
뿁
뿂
뿃
뿄
뿅
뿆
뿇
뿈
뿉
뿊
뿋
뿌
뿍
뿎
뿏
뿐
뿑
뿒
뿓
뿔
뿕
뿖
뿗
뿘
뿙
뿚
뿛
뿜
뿝
뿞
뿟
뿡
뿢
뿣
뿤
뿥
뿦
뿧
뿨
뿩
뿪
뿫
뿬
뿭
뿮
뿯
뿰
뿱
뿲
뿳
뿴
뿵
뿶
뿷
뿸
뿹
뿺
뿻
뿼
뿽
뿾
뿿
쀀
쀁
쀂
쀃
쀄
쀅
쀆
쀇
쀈
쀉
쀊
쀋
쀌
쀍
쀎
쀏
쀐
쀑
쀒
쀓
쀔
쀕
쀖
쀗
쀘
쀙
쀚
쀛
쀜
쀝
쀞
쀟
쀠
쀡
쀢
쀣
쀤
쀥
쀦
쀧
쀨
쀩
쀪
쀫
쀬
쀭
쀮
쀯
쀰
쀱
쀲
쀳
쀴
쀵
쀶
쀷
쀸
쀹
쀺
쀻
쀼
쀽
쀾
쀿
쁀
쁁
쁂
쁃
쁄
쁅
쁆
쁇
쁈
쁉
쁊
쁋
쁌
쁍
쁎
쁏
쁐
쁑
쁒
쁓
쁔
쁕
쁖
쁗
쁘
쁙
쁚
쁛
쁜
쁝
쁞
쁟
쁠
쁡
쁢
쁣
쁤
쁥
쁦
쁧
쁨
쁩
쁪
쁫
쁬
쁭
쁮
쁯
쁰
쁱
쁲
쁳
쁴
쁵
쁶
쁷
쁸
쁹
쁺
쁻
쁼
쁽
쁾
쁿
삀
삁
삂
삃
삄
삅
삆
삇
삈
삉
삊
삋
삌
삍
삎
삏
삐
삑
삒
삓
삔
삕
삖
삗
삘
삙
삚
삛
삜
삝
삞
삟
삠
삡
삢
삣
삤
삥
삦
삧
삨
삩
삪
삫
사
삭
삮
삯
산
삱
삲
삳
살
삵
삶
삷
삸
삹
삺
삻
삼
삽
삾
삿
상
샂
샃
샄
샅
샆
샇
새
색
샊
샋
샌
샍
샎
샏
샐
샑
샒
샓
샔
샕
샖
샗
샘
샙
샚
샛
생
샞
샟
샠
샡
샢
샣
샤
샥
샦
샧
샨
샩
샪
샫
샬
샭
샮
샯
샰
샱
샲
샳
샴
샵
샶
샷
샸
샹
샺
샻
샼
샽
샾
샿
섀
섁
섂
섃
섄
섅
섆
섇
섈
섉
섊
섋
섌
섍
섎
섏
섐
섑
섒
섓
섔
섕
섖
섗
섘
섙
섚
섛
서
석
섞
섟
선
섡
섢
섣
설
섥
섦
섧
섨
섩
섪
섫
섬
섭
섮
섯
섰
성
섲
섳
섴
섵
섶
섷
세
섹
섺
섻
센
섽
섿
셀
셁
셂
셃
셄
셅
셆
셇
셈
셉
셊
셋
셍
셎
셏
셐
셑
셒
셓
셔
셕
셖
셗
션
셙
셚
셛
셜
셝
셞
셟
셠
셡
셢
셣
셤
셥
셦
셧
셨
셩
셪
셫
셬
셭
셮
셯
셰
셱
셲
셳
셴
셵
셶
셷
셸
셹
셺
셻
셼
셽
셾
셿
솀
솁
솂
솃
솄
솅
솆
솇
솈
솉
솊
솋
소
속
솎
솏
손
솑
솒
솓
솔
솕
솖
솗
솘
솙
솚
솛
솜
솝
솞
솟
솠
송
솢
솣
솤
솥
솦
솧
솨
솩
솪
솫
솬
솭
솮
솯
솰
솱
솲
솳
솴
솵
솶
솷
솸
솹
솺
솻
솼
솽
솾
솿
쇀
쇁
쇂
쇃
쇄
쇅
쇆
쇇
쇈
쇉
쇊
쇋
쇌
쇍
쇎
쇏
쇐
쇑
쇒
쇓
쇔
쇕
쇖
쇗
쇘
쇙
쇚
쇛
쇜
쇝
쇞
쇟
쇠
쇡
쇢
쇣
쇤
쇥
쇦
쇧
쇨
쇩
쇪
쇫
쇬
쇭
쇮
쇯
쇰
쇱
쇲
쇳
쇴
쇵
쇶
쇷
쇸
쇹
쇺
쇻
쇼
쇽
쇾
쇿
숀
숁
숂
숃
숄
숅
숆
숇
숈
숉
숊
숋
숌
숍
숎
숏
숐
숑
숒
숓
숔
숕
숖
숗
수
숙
숚
숛
순
숝
숞
숟
술
숡
숢
숣
숤
숥
숦
숧
숨
숩
숪
숫
숬
숭
숮
숯
숰
숱
숲
숳
숴
숵
숶
숷
숸
숹
숺
숻
숼
숽
숾
숿
쉀
쉁
쉂
쉃
쉄
쉅
쉆
쉇
쉈
쉉
쉊
쉋
쉌
쉍
쉎
쉏
쉐
쉑
쉒
쉓
쉔
쉕
쉖
쉗
쉘
쉙
쉚
쉛
쉜
쉝
쉞
쉟
쉠
쉡
쉢
쉣
쉤
쉥
쉦
쉧
쉨
쉩
쉪
쉫
쉬
쉭
쉮
쉯
쉰
쉱
쉲
쉳
쉴
쉵
쉶
쉷
쉸
쉹
쉺
쉻
쉼
쉽
쉾
쉿
슀
슁
슂
슃
슄
슅
슆
슇
슈
슉
슊
슋
슌
슍
슎
슏
슐
슑
슒
슓
슔
슕
슖
슗
슘
슙
슚
슛
슜
슝
슞
슟
슠
슡
슢
슣
스
슥
슦
슧
슨
슩
슪
슫
슬
슭
슮
슯
슰
슱
슲
슳
슴
습
슶
슷
슸
승
슺
슻
슼
슽
슾
슿
싀
싁
싂
싃
싄
싅
싆
싇
싈
싉
싊
싋
싌
싍
싎
싏
싐
싑
싒
싓
싔
싕
싖
싗
싘
싙
싚
싛
시
식
싞
싟
신
싡
싢
싣
실
싥
싦
싧
싨
싩
싪
싫
심
십
싮
싯
싰
싱
싲
싳
싴
싵
싶
싷
싸
싹
싺
싻
싼
싽
싾
싿
쌀
쌁
쌂
쌃
쌄
쌅
쌆
쌇
쌈
쌉
쌊
쌋
쌍
쌎
쌏
쌐
쌑
쌒
쌓
쌔
쌕
쌖
쌗
쌘
쌙
쌚
쌛
쌜
쌝
쌞
쌟
쌠
쌡
쌢
쌣
쌤
쌥
쌦
쌧
쌩
쌪
쌫
쌬
쌭
쌮
쌯
쌰
쌱
쌲
쌳
쌴
쌵
쌶
쌷
쌸
쌹
쌺
쌻
쌼
쌽
쌾
쌿
썀
썁
썂
썃
썄
썅
썆
썇
썈
썉
썊
썋
썌
썍
썎
썏
썐
썑
썒
썓
썔
썕
썖
썗
썘
썙
썚
썛
썜
썝
썞
썟
썠
썡
썢
썣
썤
썥
썦
썧
써
썩
썪
썫
썬
썭
썮
썯
썰
썱
썲
썳
썴
썵
썶
썷
썸
썹
썺
썻
썼
썽
썾
썿
쎀
쎁
쎂
쎃
쎄
쎅
쎆
쎇
쎈
쎉
쎊
쎋
쎌
쎍
쎎
쎏
쎐
쎑
쎒
쎓
쎔
쎕
쎖
쎗
쎙
쎚
쎛
쎜
쎝
쎞
쎟
쎠
쎡
쎢
쎣
쎤
쎥
쎦
쎧
쎨
쎩
쎪
쎫
쎬
쎭
쎮
쎯
쎰
쎱
쎲
쎳
쎴
쎵
쎶
쎷
쎸
쎹
쎺
쎻
쎼
쎽
쎾
쎿
쏀
쏁
쏂
쏃
쏄
쏅
쏆
쏇
쏈
쏉
쏊
쏋
쏌
쏍
쏎
쏏
쏐
쏑
쏒
쏓
쏔
쏕
쏖
쏗
쏘
쏙
쏚
쏛
쏜
쏝
쏞
쏟
쏠
쏡
쏢
쏣
쏤
쏥
쏦
쏧
쏨
쏩
쏪
쏫
쏬
쏭
쏮
쏯
쏰
쏱
쏲
쏳
쏴
쏵
쏶
쏷
쏸
쏹
쏺
쏻
쏼
쏽
쏾
쏿
쐀
쐁
쐂
쐃
쐄
쐅
쐆
쐇
쐉
쐊
쐋
쐌
쐍
쐎
쐏
쐐
쐑
쐒
쐓
쐔
쐕
쐖
쐗
쐘
쐙
쐚
쐛
쐜
쐝
쐞
쐟
쐠
쐡
쐢
쐣
쐤
쐥
쐦
쐧
쐨
쐩
쐪
쐫
쐬
쐭
쐮
쐯
쐱
쐲
쐳
쐵
쐶
쐷
쐸
쐹
쐺
쐻
쐼
쐽
쐾
쐿
쑀
쑁
쑂
쑃
쑄
쑅
쑆
쑇
쑈
쑉
쑊
쑋
쑌
쑍
쑎
쑏
쑐
쑑
쑒
쑓
쑔
쑕
쑖
쑗
쑘
쑙
쑚
쑛
쑜
쑝
쑞
쑟
쑠
쑡
쑢
쑣
쑤
쑥
쑦
쑧
쑨
쑩
쑪
쑫
쑭
쑮
쑯
쑰
쑱
쑲
쑳
쑴
쑵
쑶
쑷
쑸
쑹
쑺
쑻
쑼
쑽
쑾
쑿
쒀
쒁
쒂
쒃
쒄
쒅
쒆
쒇
쒈
쒉
쒊
쒋
쒌
쒍
쒎
쒏
쒐
쒑
쒒
쒓
쒕
쒖
쒗
쒘
쒙
쒚
쒛
쒜
쒝
쒞
쒟
쒠
쒡
쒢
쒣
쒤
쒥
쒦
쒧
쒨
쒩
쒪
쒫
쒬
쒭
쒮
쒯
쒰
쒱
쒲
쒳
쒴
쒵
쒶
쒷
쒸
쒹
쒺
쒻
쒽
쒾
쒿
쓀
쓁
쓂
쓃
쓄
쓅
쓆
쓇
쓈
쓉
쓊
쓋
쓌
쓍
쓎
쓏
쓐
쓑
쓒
쓓
쓔
쓕
쓖
쓗
쓘
쓙
쓚
쓛
쓜
쓝
쓞
쓟
쓠
쓡
쓢
쓣
쓤
쓥
쓦
쓧
쓨
쓩
쓪
쓫
쓬
쓭
쓮
쓯
쓰
쓱
쓲
쓳
쓴
쓵
쓶
쓷
쓸
쓹
쓺
쓻
쓼
쓽
쓾
쓿
씀
씁
씂
씃
씄
씅
씆
씇
씈
씉
씊
씋
씌
씍
씎
씏
씑
씒
씓
씔
씕
씖
씗
씘
씙
씚
씛
씜
씝
씞
씟
씠
씡
씢
씣
씤
씥
씦
씧
씨
씩
씪
씫
씬
씭
씮
씯
씰
씱
씲
씳
씴
씵
씶
씷
씸
씹
씺
씻
씼
씽
씾
씿
앀
앁
앂
앃
아
악
앆
앇
안
앉
않
앋
알
앍
앎
앏
앐
앑
앒
앓
암
압
앖
앗
았
앙
앚
앛
앜
앝
앞
앟
애
액
앢
앣
앤
앥
앦
앧
앨
앩
앪
앫
앬
앭
앮
앯
앰
앱
앲
앳
앵
앶
앷
앸
앹
앺
앻
야
약
앾
앿
얀
얁
얂
얃
얄
얅
얆
얇
얈
얉
얊
얋
얌
얍
얎
얏
얐
양
얒
얓
얔
얕
얖
얗
얘
얙
얚
얛
얜
얝
얞
얟
얡
얢
얣
얤
얥
얦
얧
얨
얩
얪
얫
얬
얭
얮
얯
얰
얱
얲
얳
어
억
얶
얷
언
얹
얺
얻
얼
얽
얾
얿
엀
엁
엂
엃
엄
업
없
엇
었
엉
엊
엋
엌
엍
엎
엏
에
엑
엒
엓
엔
엕
엖
엗
엘
엙
엚
엛
엜
엝
엞
엟
엠
엡
엢
엣
엤
엥
엦
엧
엨
엩
엪
엫
여
역
엮
엯
연
엱
엲
엳
열
엵
엶
엷
엸
엹
엺
엻
염
엽
엾
엿
였
영
옂
옃
옄
옅
옆
옇
예
옉
옊
옋
옌
옍
옎
옏
옐
옑
옒
옓
옔
옕
옖
옗
옘
옙
옚
옛
옜
옝
옞
옟
옠
옡
옢
옣
오
옥
옦
옧
온
옩
옪
옫
올
옭
옮
옯
옰
옱
옲
옳
옴
옵
옶
옷
옸
옹
옺
옻
옼
옽
옾
옿
와
왁
왂
왃
완
왅
왆
왇
왈
왉
왊
왋
왌
왍
왎
왏
왐
왑
왒
왓
왔
왕
왖
왗
왘
왙
왚
왛
왜
왝
왞
왟
왠
왡
왢
왣
왤
왥
왦
왧
왨
왩
왪
왫
왬
왭
왮
왯
왰
왱
왲
왳
왴
왵
왶
왷
외
왹
왺
왻
왼
왽
왾
왿
욀
욁
욂
욃
욄
욅
욆
욇
욈
욉
욊
욋
욌
욍
욎
욏
욐
욑
욒
욓
요
욕
욖
욗
욘
욙
욚
욛
욜
욝
욞
욟
욠
욡
욢
욣
욤
욥
욦
욧
욨
용
욪
욫
욬
욭
욮
욯
우
욱
욲
욳
운
욵
욶
욷
울
욹
욺
욻
욼
욽
욾
욿
움
웁
웂
웃
웄
웅
웆
웇
웈
웉
웊
웋
워
웍
웎
웏
원
웑
웒
월
웕
웖
웗
웘
웙
웚
웛
웜
웝
웞
웟
웠
웡
웢
웣
웤
웥
웦
웧
웨
웩
웪
웫
웬
웭
웮
웯
웰
웱
웲
웳
웴
웵
웶
웷
웸
웹
웺
웻
웼
웽
웾
웿
윀
윁
윂
윃
위
윅
윆
윇
윈
윉
윊
윋
윌
윍
윎
윏
윐
윑
윒
윓
윔
윕
윖
윗
윘
윙
윚
윛
윜
윝
윞
윟
유
육
윢
윣
윤
윥
윦
윧
율
윩
윪
윫
윬
윭
윮
윯
윰
윱
윲
윳
윴
융
윶
윷
윸
윹
윺
윻
으
윽
윾
윿
은
읁
읂
읃
을
읅
읆
읇
읈
읉
읊
읋
음
읍
읎
읏
읐
응
읒
읓
읔
읕
읖
읗
의
읙
읚
읛
읜
읝
읞
읟
읠
읡
읢
읣
읤
읥
읦
읧
읨
읩
읪
읫
읬
읭
읮
읯
읰
읱
읲
읳
이
익
읶
읷
인
읹
읺
읻
일
읽
읾
읿
잀
잁
잂
잃
임
입
잆
잇
있
잉
잊
잋
잌
잍
잎
잏
자
작
잒
잓
잔
잕
잖
잗
잘
잙
잚
잛
잜
잝
잞
잟
잠
잡
잢
잣
장
잦
잧
잨
잩
잪
잫
재
잭
잮
잯
잰
잱
잲
잳
잴
잵
잶
잷
잸
잹
잺
잻
잼
잽
잾
잿
쟁
쟂
쟃
쟄
쟅
쟆
쟇
쟈
쟉
쟊
쟋
쟌
쟍
쟎
쟏
쟐
쟑
쟒
쟓
쟔
쟕
쟖
쟗
쟘
쟙
쟚
쟛
쟜
쟝
쟞
쟟
쟠
쟡
쟢
쟣
쟤
쟥
쟦
쟧
쟩
쟪
쟫
쟬
쟭
쟮
쟯
쟰
쟱
쟲
쟳
쟴
쟵
쟶
쟷
쟸
쟹
쟺
쟻
쟼
쟽
쟾
쟿
저
적
젂
젃
전
젅
젆
젇
절
젉
젊
젋
젌
젍
젎
젏
점
접
젒
젓
젔
정
젖
젗
젘
젙
젚
젛
제
젝
젞
젟
젠
젡
젢
젣
젤
젥
젦
젧
젨
젩
젪
젫
젬
젭
젮
젯
젰
젱
젲
젳
젴
젵
젶
젷
져
젹
젺
젻
젼
젽
젾
젿
졀
졁
졂
졃
졄
졅
졆
졇
졈
졉
졊
졋
졌
졍
졎
졏
졐
졑
졒
졓
졔
졕
졖
졗
졘
졙
졚
졛
졜
졝
졞
졟
졠
졡
졢
졣
졤
졥
졦
졧
졨
졩
졪
졫
졬
졭
졮
졯
조
족
졲
졳
존
졵
졶
졷
졸
졹
졺
졻
졼
졽
졾
졿
좀
좁
좂
좃
좄
종
좆
좇
좈
좉
좊
좋
좌
좍
좎
좏
좐
좑
좒
좓
좔
좕
좖
좗
좘
좙
좚
좛
좜
좝
좞
좟
좠
좡
좢
좣
좤
좥
좦
좧
좨
좩
좪
좫
좬
좭
좮
좯
좰
좱
좲
좳
좴
좵
좶
좷
좸
좹
좺
좻
좼
좽
좾
좿
죀
죁
죂
죃
죄
죅
죆
죇
죈
죉
죊
죋
죌
죍
죎
죏
죐
죑
죒
죓
죔
죕
죖
죗
죙
죚
죛
죜
죝
죞
죟
죠
죡
죢
죣
죤
죥
죦
죧
죨
죩
죪
죫
죬
죭
죮
죯
죰
죱
죲
죳
죴
죵
죶
죷
죸
죹
죺
죻
주
죽
죾
죿
준
줁
줂
줃
줄
줅
줆
줇
줈
줉
줊
줋
줌
줍
줎
줏
줐
중
줒
줓
줔
줕
줖
줗
줘
줙
줚
줛
줜
줝
줞
줟
줠
줡
줢
줣
줤
줥
줦
줧
줨
줩
줪
줫
줬
줭
줮
줯
줰
줱
줲
줳
줴
줵
줶
줷
줸
줹
줺
줻
줼
줽
줾
줿
쥀
쥁
쥂
쥃
쥄
쥅
쥆
쥇
쥈
쥉
쥊
쥋
쥌
쥍
쥎
쥏
쥐
쥑
쥒
쥓
쥔
쥕
쥖
쥗
쥘
쥙
쥚
쥛
쥜
쥝
쥞
쥟
쥠
쥡
쥢
쥣
쥤
쥥
쥦
쥧
쥨
쥩
쥪
쥫
쥬
쥭
쥮
쥯
쥰
쥱
쥲
쥳
쥴
쥵
쥶
쥷
쥸
쥹
쥺
쥻
쥼
쥽
쥾
쥿
즀
즁
즂
즃
즄
즅
즆
즇
즈
즉
즊
즋
즌
즍
즎
즏
즐
즑
즒
즓
즔
즕
즖
즗
즘
즙
즚
즛
즜
증
즞
즟
즠
즡
즢
즣
즤
즥
즦
즧
즨
즩
즪
즫
즬
즭
즮
즯
즰
즱
즲
즳
즴
즵
즶
즷
즸
즹
즺
즻
즼
즽
즾
즿
지
직
짂
짃
진
짅
짆
짇
질
짉
짊
짋
짌
짍
짎
짏
짐
집
짒
짓
짔
징
짖
짗
짘
짙
짚
짛
짜
짝
짞
짟
짠
짡
짢
짣
짤
짥
짦
짧
짨
짩
짪
짫
짬
짭
짮
짯
짱
짲
짳
짴
짵
짶
짷
째
짹
짺
짻
짼
짽
짾
짿
쨀
쨁
쨂
쨃
쨄
쨅
쨆
쨇
쨈
쨉
쨊
쨋
쨌
쨍
쨎
쨏
쨐
쨑
쨒
쨓
쨔
쨕
쨖
쨗
쨘
쨙
쨚
쨛
쨜
쨝
쨞
쨟
쨠
쨡
쨢
쨣
쨤
쨥
쨦
쨧
쨨
쨩
쨪
쨫
쨬
쨭
쨮
쨯
쨰
쨱
쨲
쨳
쨴
쨵
쨶
쨷
쨸
쨹
쨺
쨻
쨼
쨽
쨾
쨿
쩀
쩁
쩂
쩃
쩄
쩅
쩆
쩇
쩈
쩉
쩊
쩋
쩌
쩍
쩎
쩏
쩐
쩑
쩒
쩓
쩔
쩕
쩖
쩗
쩘
쩙
쩚
쩛
쩜
쩝
쩞
쩟
쩠
쩡
쩢
쩣
쩤
쩥
쩦
쩧
쩨
쩩
쩪
쩫
쩬
쩭
쩮
쩯
쩰
쩱
쩲
쩳
쩴
쩵
쩶
쩷
쩸
쩹
쩺
쩻
쩼
쩽
쩾
쩿
쪀
쪁
쪂
쪃
쪄
쪅
쪆
쪇
쪈
쪉
쪊
쪋
쪌
쪍
쪎
쪏
쪐
쪑
쪒
쪓
쪔
쪕
쪖
쪗
쪘
쪙
쪚
쪛
쪜
쪝
쪞
쪟
쪠
쪡
쪢
쪣
쪤
쪥
쪦
쪧
쪨
쪩
쪪
쪫
쪬
쪭
쪮
쪯
쪰
쪱
쪲
쪳
쪴
쪵
쪶
쪷
쪸
쪹
쪺
쪻
쪼
쪽
쪾
쪿
쫀
쫁
쫂
쫃
쫄
쫅
쫆
쫇
쫈
쫉
쫊
쫋
쫌
쫍
쫎
쫏
쫐
쫑
쫒
쫓
쫔
쫕
쫖
쫗
쫘
쫙
쫚
쫛
쫜
쫝
쫞
쫟
쫠
쫡
쫢
쫣
쫤
쫥
쫦
쫧
쫨
쫩
쫪
쫫
쫭
쫮
쫯
쫰
쫱
쫲
쫳
쫴
쫵
쫶
쫷
쫸
쫹
쫺
쫻
쫼
쫽
쫾
쫿
쬀
쬁
쬂
쬃
쬄
쬅
쬆
쬇
쬈
쬉
쬊
쬋
쬌
쬍
쬎
쬏
쬐
쬑
쬒
쬓
쬔
쬕
쬖
쬗
쬙
쬚
쬛
쬜
쬝
쬞
쬟
쬡
쬢
쬣
쬤
쬥
쬦
쬧
쬨
쬩
쬪
쬫
쬬
쬭
쬮
쬯
쬰
쬱
쬲
쬳
쬴
쬵
쬶
쬷
쬸
쬹
쬺
쬻
쬼
쬽
쬾
쬿
쭀
쭁
쭂
쭃
쭄
쭅
쭆
쭇
쭈
쭉
쭊
쭋
쭌
쭍
쭎
쭏
쭐
쭑
쭒
쭓
쭔
쭕
쭖
쭗
쭘
쭙
쭚
쭛
쭜
쭝
쭞
쭟
쭠
쭡
쭢
쭣
쭤
쭥
쭦
쭧
쭨
쭩
쭪
쭫
쭬
쭭
쭮
쭯
쭰
쭱
쭲
쭳
쭴
쭵
쭶
쭷
쭸
쭹
쭺
쭻
쭼
쭽
쭾
쭿
쮀
쮁
쮂
쮃
쮄
쮅
쮆
쮇
쮈
쮉
쮊
쮋
쮌
쮍
쮎
쮏
쮐
쮑
쮒
쮓
쮔
쮕
쮖
쮗
쮘
쮙
쮚
쮛
쮜
쮝
쮞
쮟
쮠
쮡
쮢
쮣
쮤
쮥
쮦
쮧
쮨
쮩
쮪
쮫
쮬
쮭
쮮
쮯
쮰
쮱
쮲
쮳
쮴
쮵
쮶
쮷
쮸
쮹
쮺
쮻
쮼
쮽
쮾
쮿
쯀
쯁
쯂
쯃
쯄
쯅
쯆
쯇
쯈
쯉
쯊
쯋
쯌
쯍
쯎
쯏
쯐
쯑
쯒
쯓
쯔
쯕
쯖
쯗
쯘
쯙
쯚
쯛
쯜
쯝
쯞
쯟
쯠
쯡
쯢
쯣
쯤
쯥
쯦
쯧
쯨
쯩
쯪
쯫
쯬
쯭
쯮
쯯
쯰
쯱
쯲
쯳
쯴
쯵
쯶
쯷
쯸
쯹
쯺
쯻
쯼
쯽
쯾
쯿
찀
찁
찂
찃
찄
찅
찆
찇
찈
찉
찊
찋
찌
찍
찎
찏
찐
찑
찒
찓
찔
찕
찖
찗
찘
찙
찚
찛
찜
찝
찞
찟
찠
찡
찢
찣
찤
찥
찦
찧
차
착
찪
찫
찬
찭
찮
찯
찰
찱
찲
찳
찴
찵
찶
찷
참
찹
찺
찻
창
찾
찿
챀
챁
챂
챃
채
책
챆
챇
챈
챉
챊
챋
챌
챍
챎
챏
챐
챑
챒
챓
챔
챕
챖
챗
챘
챙
챚
챛
챜
챝
챞
챟
챠
챡
챢
챣
챤
챥
챦
챧
챨
챩
챪
챫
챬
챭
챮
챯
챰
챱
챲
챳
챴
챵
챶
챷
챸
챹
챺
챻
챼
챽
챾
챿
첀
첁
첂
첃
첄
첅
첆
첇
첈
첉
첊
첋
첌
첍
첎
첏
첐
첑
첒
첓
첔
첕
첖
첗
처
척
첚
첛
천
첝
첞
첟
철
첡
첢
첣
첤
첥
첦
첧
첨
첩
첪
첫
첬
청
첮
첯
첰
첱
첲
첳
체
첵
첶
첷
첸
첹
첺
첻
첼
첽
첾
첿
쳀
쳁
쳂
쳃
쳄
쳅
쳆
쳇
쳈
쳉
쳊
쳋
쳌
쳍
쳎
쳏
쳐
쳑
쳒
쳓
쳔
쳕
쳖
쳗
쳘
쳙
쳚
쳛
쳜
쳝
쳞
쳟
쳠
쳡
쳢
쳣
쳤
쳥
쳦
쳧
쳨
쳩
쳪
쳫
쳬
쳭
쳮
쳯
쳰
쳱
쳲
쳳
쳴
쳵
쳶
쳷
쳸
쳹
쳺
쳻
쳼
쳽
쳾
쳿
촀
촁
촂
촃
촄
촅
촆
촇
초
촉
촊
촋
촌
촍
촎
촏
촐
촑
촒
촓
촔
촕
촖
촗
촘
촙
촚
촛
촜
총
촞
촟
촠
촡
촢
촣
촤
촥
촦
촧
촨
촩
촪
촫
촬
촭
촮
촯
촰
촱
촲
촳
촴
촵
촶
촷
촸
촹
촺
촻
촼
촽
촾
촿
쵀
쵁
쵂
쵃
쵄
쵅
쵆
쵇
쵈
쵉
쵊
쵋
쵌
쵍
쵎
쵏
쵐
쵑
쵒
쵓
쵔
쵕
쵖
쵗
쵘
쵙
쵚
쵛
최
쵝
쵞
쵟
쵠
쵡
쵢
쵣
쵤
쵥
쵦
쵧
쵨
쵩
쵪
쵫
쵬
쵭
쵮
쵯
쵰
쵱
쵲
쵳
쵴
쵵
쵶
쵷
쵸
쵹
쵺
쵻
쵼
쵽
쵾
쵿
춀
춁
춂
춃
춄
춅
춆
춇
춈
춉
춊
춋
춌
춍
춎
춏
춐
춑
춒
춓
추
축
춖
춗
춘
춙
춚
춛
출
춝
춞
춟
춠
춡
춢
춣
춤
춥
춦
춧
춨
충
춪
춫
춬
춭
춮
춯
춰
춱
춲
춳
춴
춵
춶
춷
춸
춹
춺
춻
춼
춽
춾
춿
췀
췁
췂
췃
췄
췅
췆
췇
췈
췉
췊
췋
췌
췍
췎
췏
췐
췑
췒
췓
췔
췕
췖
췗
췘
췙
췚
췛
췜
췝
췞
췟
췠
췡
췢
췣
췤
췥
췦
췧
취
췩
췪
췫
췬
췭
췮
췯
췰
췱
췲
췳
췴
췵
췶
췷
췸
췹
췺
췻
췼
췽
췾
췿
츀
츁
츂
츃
츄
츅
츆
츇
츈
츉
츊
츋
츌
츍
츎
츏
츐
츑
츒
츓
츔
츕
츖
츗
츘
츙
츚
츛
츜
츝
츞
츟
츠
측
츢
츣
츤
츥
츦
츧
츨
츩
츪
츫
츬
츭
츮
츯
츰
츱
츲
츳
츴
층
츶
츷
츸
츹
츺
츻
츼
츽
츾
츿
칀
칁
칂
칃
칄
칅
칆
칇
칈
칉
칊
칋
칌
칍
칎
칏
칐
칑
칒
칓
칔
칕
칖
칗
치
칙
칚
칛
친
칝
칞
칟
칠
칡
칢
칣
칤
칥
칦
칧
침
칩
칪
칫
칬
칭
칮
칯
칰
칱
칲
칳
카
칵
칶
칷
칸
칹
칺
칻
칼
칽
칾
칿
캀
캁
캂
캃
캄
캅
캆
캇
캈
캉
캊
캋
캌
캍
캎
캏
캐
캑
캒
캓
캔
캕
캖
캗
캘
캙
캚
캛
캜
캝
캞
캟
캠
캡
캢
캣
캥
캦
캧
캨
캩
캪
캫
캬
캭
캮
캯
캰
캱
캲
캳
캴
캵
캶
캷
캸
캹
캺
캻
캼
캽
캾
캿
컀
컁
컂
컃
컄
컅
컆
컇
컈
컉
컊
컋
컌
컍
컎
컏
컐
컑
컒
컓
컔
컕
컖
컗
컘
컙
컚
컛
컜
컝
컞
컟
컠
컡
컢
컣
커
컥
컦
컧
컨
컩
컪
컫
컬
컭
컮
컯
컰
컱
컲
컳
컴
컵
컶
컷
컹
컺
컻
컼
컽
컾
컿
케
켁
켂
켃
켄
켅
켆
켇
켈
켉
켊
켋
켌
켍
켎
켏
켐
켑
켒
켓
켔
켕
켖
켗
켘
켙
켚
켛
켜
켝
켞
켟
켠
켡
켢
켣
켤
켥
켦
켧
켨
켩
켪
켫
켬
켭
켮
켯
켰
켱
켲
켳
켴
켵
켶
켷
켸
켹
켺
켻
켼
켽
켾
켿
콀
콁
콂
콃
콄
콅
콆
콇
콈
콉
콊
콋
콌
콍
콎
콏
콐
콑
콒
콓
코
콕
콖
콗
콘
콙
콚
콛
콜
콝
콞
콟
콠
콡
콢
콣
콤
콥
콦
콧
콨
콩
콪
콫
콬
콭
콮
콯
콰
콱
콲
콳
콴
콵
콶
콷
콸
콹
콺
콻
콼
콽
콾
콿
쾀
쾁
쾂
쾃
쾄
쾅
쾆
쾇
쾈
쾉
쾊
쾋
쾌
쾍
쾎
쾏
쾐
쾑
쾒
쾓
쾔
쾕
쾖
쾗
쾘
쾙
쾚
쾛
쾜
쾝
쾞
쾟
쾠
쾡
쾢
쾣
쾤
쾥
쾦
쾧
쾨
쾩
쾪
쾫
쾬
쾭
쾮
쾯
쾰
쾱
쾲
쾳
쾴
쾵
쾶
쾷
쾸
쾹
쾺
쾻
쾼
쾽
쾾
쾿
쿀
쿁
쿂
쿃
쿄
쿅
쿆
쿇
쿈
쿉
쿊
쿋
쿌
쿍
쿎
쿏
쿐
쿑
쿒
쿓
쿔
쿕
쿖
쿗
쿘
쿙
쿚
쿛
쿜
쿝
쿞
쿟
쿠
쿡
쿢
쿣
쿤
쿥
쿦
쿧
쿨
쿩
쿪
쿫
쿬
쿭
쿮
쿯
쿰
쿱
쿲
쿳
쿴
쿵
쿶
쿷
쿸
쿹
쿺
쿻
쿼
쿽
쿾
쿿
퀀
퀁
퀂
퀃
퀄
퀅
퀆
퀇
퀈
퀉
퀊
퀋
퀌
퀍
퀎
퀏
퀐
퀑
퀒
퀓
퀔
퀕
퀖
퀗
퀘
퀙
퀚
퀛
퀜
퀝
퀞
퀟
퀠
퀡
퀢
퀣
퀤
퀥
퀦
퀧
퀨
퀩
퀪
퀫
퀬
퀭
퀮
퀯
퀰
퀱
퀲
퀳
퀴
퀵
퀶
퀷
퀸
퀹
퀺
퀻
퀼
퀽
퀾
퀿
큀
큁
큂
큃
큄
큅
큆
큇
큈
큉
큊
큋
큌
큍
큎
큏
큐
큑
큒
큓
큔
큕
큖
큗
큘
큙
큚
큛
큜
큝
큞
큟
큠
큡
큢
큣
큤
큥
큦
큧
큨
큩
큪
큫
크
큭
큮
큯
큰
큱
큲
큳
클
큵
큶
큷
큸
큹
큺
큻
큼
큽
큾
큿
킀
킁
킂
킃
킄
킅
킆
킇
킈
킉
킊
킋
킌
킍
킎
킏
킐
킑
킒
킓
킔
킕
킖
킗
킘
킙
킚
킛
킜
킝
킞
킟
킠
킡
킢
킣
키
킥
킦
킧
킨
킩
킪
킫
킬
킭
킮
킯
킰
킱
킲
킳
킴
킵
킶
킷
킸
킹
킺
킻
킼
킽
킾
킿
타
탁
탂
탃
탄
탅
탆
탇
탈
탉
탊
탋
탌
탍
탎
탏
탐
탑
탒
탓
탔
탕
탖
탗
탘
탙
탚
탛
태
택
탞
탟
탠
탡
탢
탣
탤
탥
탦
탧
탨
탩
탪
탫
탬
탭
탮
탯
탰
탱
탲
탳
탴
탵
탶
탷
탸
탹
탺
탻
탼
탽
탾
탿
턀
턁
턂
턃
턄
턅
턆
턇
턈
턉
턊
턋
턌
턍
턎
턏
턐
턑
턒
턓
턔
턕
턖
턗
턘
턙
턚
턛
턜
턝
턞
턟
턠
턡
턢
턣
턤
턥
턦
턧
턨
턩
턪
턫
턬
턭
턮
턯
터
턱
턲
턳
턴
턵
턶
턷
털
턹
턺
턻
턼
턽
턾
턿
텀
텁
텂
텃
텅
텆
텇
텈
텉
텊
텋
테
텍
텎
텏
텐
텑
텒
텓
텔
텕
텖
텗
텘
텙
텚
텛
템
텝
텞
텟
텠
텡
텢
텣
텤
텥
텦
텧
텨
텩
텪
텫
텬
텭
텮
텯
텰
텱
텲
텳
텴
텵
텶
텷
텸
텹
텺
텻
텼
텽
텾
텿
톀
톁
톂
톃
톄
톅
톆
톇
톈
톉
톊
톋
톌
톍
톎
톏
톐
톑
톒
톓
톔
톕
톖
톗
톘
톙
톚
톛
톜
톝
톞
톟
토
톡
톢
톣
톤
톥
톦
톧
톨
톩
톪
톫
톬
톭
톮
톯
톰
톱
톲
톳
톴
통
톶
톷
톸
톹
톺
톻
톼
톽
톾
톿
퇀
퇁
퇂
퇃
퇄
퇅
퇆
퇇
퇈
퇉
퇊
퇋
퇌
퇍
퇎
퇏
퇐
퇑
퇒
퇓
퇔
퇕
퇖
퇗
퇘
퇙
퇚
퇛
퇜
퇝
퇞
퇟
퇠
퇡
퇢
퇣
퇤
퇥
퇦
퇧
퇨
퇩
퇪
퇫
퇬
퇭
퇮
퇯
퇰
퇱
퇲
퇳
퇴
퇵
퇶
퇷
퇸
퇹
퇺
퇻
퇼
퇽
퇾
퇿
툀
툁
툂
툃
툄
툅
툆
툇
툈
툉
툊
툋
툌
툍
툎
툏
툐
툑
툒
툓
툔
툕
툖
툗
툘
툙
툚
툛
툜
툝
툞
툟
툠
툡
툢
툣
툤
툥
툦
툧
툨
툩
툪
툫
투
툭
툮
툯
툰
툱
툲
툳
툴
툵
툶
툷
툸
툹
툺
툻
툼
툽
툾
툿
퉀
퉁
퉂
퉃
퉄
퉅
퉆
퉇
퉈
퉉
퉊
퉋
퉌
퉍
퉎
퉏
퉐
퉑
퉒
퉓
퉔
퉕
퉖
퉗
퉘
퉙
퉚
퉛
퉜
퉝
퉞
퉟
퉠
퉡
퉢
퉣
퉤
퉥
퉦
퉧
퉨
퉩
퉪
퉫
퉬
퉭
퉮
퉯
퉰
퉱
퉲
퉳
퉴
퉵
퉶
퉷
퉸
퉹
퉺
퉻
퉼
퉽
퉾
퉿
튀
튁
튂
튃
튄
튅
튆
튇
튈
튉
튊
튋
튌
튍
튎
튏
튐
튑
튒
튓
튔
튕
튖
튗
튘
튙
튚
튛
튜
튝
튞
튟
튠
튡
튢
튣
튤
튥
튦
튧
튨
튩
튪
튫
튬
튭
튮
튯
튰
튱
튲
튳
튴
튵
튶
튷
트
특
튺
튻
튼
튽
튾
튿
틀
틁
틂
틃
틄
틅
틆
틇
틈
틉
틊
틋
틌
틍
틎
틏
틐
틑
틒
틓
틔
틕
틖
틗
틘
틙
틚
틛
틜
틝
틞
틟
틠
틡
틢
틣
틤
틥
틦
틧
틨
틩
틪
틫
틬
틭
틮
틯
티
틱
틲
틳
틴
틵
틶
틷
틸
틹
틺
틻
틼
틽
틾
틿
팀
팁
팂
팃
팄
팅
팆
팇
팈
팉
팊
팋
파
팍
팎
팏
판
팑
팒
팓
팔
팕
팖
팗
팘
팙
팚
팛
팜
팝
팞
팟
팠
팡
팢
팣
팤
팥
팦
팧
패
팩
팪
팫
팬
팭
팮
팯
팰
팱
팲
팳
팴
팵
팶
팷
팸
팹
팺
팻
팽
팾
팿
퍀
퍁
퍂
퍃
퍄
퍅
퍆
퍇
퍈
퍉
퍊
퍋
퍌
퍍
퍎
퍏
퍐
퍑
퍒
퍓
퍔
퍕
퍖
퍗
퍘
퍙
퍚
퍛
퍜
퍝
퍞
퍟
퍠
퍡
퍢
퍣
퍤
퍥
퍦
퍧
퍨
퍩
퍪
퍫
퍬
퍭
퍮
퍯
퍰
퍱
퍲
퍳
퍴
퍵
퍶
퍷
퍸
퍹
퍺
퍻
퍼
퍽
퍾
퍿
펀
펁
펂
펃
펄
펅
펆
펇
펈
펉
펊
펋
펌
펍
펎
펏
펐
펑
펒
펓
펔
펕
펖
펗
페
펙
펚
펛
펜
펝
펞
펟
펠
펡
펢
펣
펤
펥
펦
펧
펨
펩
펪
펫
펬
펭
펮
펯
펰
펱
펲
펳
펴
펵
펶
펷
편
펹
펺
펻
펼
펽
펾
펿
폀
폁
폂
폃
폄
폅
폆
폇
평
폊
폋
폌
폍
폎
폏
폐
폑
폒
폓
폔
폕
폖
폗
폘
폙
폚
폛
폜
폝
폞
폟
폠
폡
폢
폣
폤
폥
폦
폧
폨
폩
폪
폫
포
폭
폮
폯
폰
폱
폲
폳
폴
폵
폶
폷
폸
폹
폺
폻
폼
폽
폾
폿
퐀
퐁
퐂
퐃
퐄
퐅
퐆
퐇
퐈
퐉
퐊
퐋
퐌
퐍
퐎
퐏
퐐
퐑
퐒
퐓
퐔
퐕
퐖
퐗
퐘
퐙
퐚
퐛
퐜
퐝
퐞
퐟
퐠
퐡
퐢
퐣
퐤
퐥
퐦
퐧
퐨
퐩
퐪
퐫
퐬
퐭
퐮
퐯
퐰
퐱
퐲
퐳
퐴
퐵
퐶
퐷
퐸
퐹
퐺
퐻
퐼
퐽
퐾
퐿
푀
푁
푂
푃
푄
푅
푆
푇
푈
푉
푊
푋
푌
푍
푎
푏
푐
푑
푒
푓
푔
푕
푖
푗
푘
푙
푚
푛
표
푝
푞
푟
푠
푡
푢
푣
푤
푥
푦
푧
푨
푩
푪
푫
푬
푭
푮
푯
푰
푱
푲
푳
푴
푵
푶
푷
푸
푹
푺
푻
푼
푽
푾
푿
풀
풁
풂
풃
풄
풅
풆
풇
품
풉
풊
풋
풌
풍
풎
풏
풐
풑
풒
풓
풔
풕
풖
풗
풘
풙
풚
풛
풜
풝
풞
풟
풠
풡
풢
풣
풤
풥
풦
풧
풨
풩
풪
풫
풬
풭
풮
풯
풰
풱
풲
풳
풴
풵
풶
풷
풸
풹
풺
풻
풼
풽
풾
풿
퓀
퓁
퓂
퓃
퓄
퓅
퓆
퓇
퓈
퓉
퓊
퓋
퓌
퓍
퓎
퓏
퓐
퓑
퓒
퓓
퓔
퓕
퓖
퓗
퓘
퓙
퓚
퓛
퓜
퓝
퓞
퓟
퓠
퓡
퓢
퓣
퓤
퓥
퓦
퓧
퓨
퓩
퓪
퓫
퓬
퓭
퓮
퓯
퓰
퓱
퓲
퓳
퓴
퓵
퓶
퓷
퓸
퓹
퓺
퓻
퓼
퓽
퓾
퓿
픀
픁
픂
픃
프
픅
픆
픇
픈
픉
픊
픋
플
픍
픎
픏
픐
픑
픒
픓
픔
픕
픖
픗
픘
픙
픚
픛
픜
픝
픞
픟
픠
픡
픢
픣
픤
픥
픦
픧
픨
픩
픪
픫
픬
픭
픮
픯
픰
픱
픲
픳
픴
픵
픶
픷
픸
픹
픺
픻
피
픽
픾
픿
핀
핁
핂
핃
필
핅
핆
핇
핈
핉
핊
핋
핌
핍
핎
핏
핐
핑
핒
핓
핔
핕
핖
핗
하
학
핚
핛
한
핝
핞
핟
할
핡
핢
핣
핤
핥
핦
핧
함
합
핪
핫
핬
항
핮
핯
핰
핱
핲
핳
해
핵
핶
핷
핸
핹
핺
핻
핼
핽
핾
핿
햀
햁
햂
햃
햄
햅
햆
햇
했
행
햊
햋
햌
햍
햎
햏
햐
햑
햒
햓
햔
햕
햖
햗
햘
햙
햚
햛
햜
햝
햞
햟
햠
햡
햢
햣
햤
향
햦
햧
햨
햩
햪
햫
햬
햭
햮
햯
햰
햱
햲
햳
햴
햵
햶
햷
햸
햹
햺
햻
햼
햽
햾
햿
헁
헂
헃
헄
헅
헆
헇
허
헉
헊
헋
헌
헍
헎
헏
헐
헑
헒
헓
헔
헕
헖
헗
험
헙
헚
헛
헝
헞
헟
헠
헡
헢
헣
헤
헥
헦
헧
헨
헩
헪
헫
헬
헭
헮
헯
헰
헱
헲
헳
헴
헵
헶
헷
헹
헺
헻
헼
헽
헾
헿
혀
혁
혂
혃
현
혅
혆
혇
혈
혉
혊
혋
혌
혍
혎
혏
혐
협
혒
혓
혔
형
혖
혗
혘
혙
혚
혛
혜
혝
혞
혟
혠
혡
혢
혣
혤
혥
혦
혧
혨
혩
혪
혫
혬
혭
혮
혯
혰
혱
혲
혳
혴
혵
혶
혷
호
혹
혺
혻
혼
혽
혾
혿
홀
홁
홂
홃
홄
홅
홆
홇
홈
홉
홊
홋
홌
홍
홎
홏
홐
홑
홒
홓
화
확
홖
홗
환
홙
홚
홛
활
홝
홞
홟
홠
홡
홢
홣
홤
홥
홦
홧
홨
황
홪
홫
홬
홭
홮
홯
홰
홱
홲
홳
홴
홵
홶
홷
홸
홹
홺
홻
홼
홽
홾
홿
횀
횁
횂
횃
횄
횅
횆
횇
횈
횉
횊
횋
회
획
횎
횏
횐
횑
횒
횓
횔
횕
횖
횗
횘
횙
횚
횛
횜
횝
횞
횟
횠
횡
횢
횣
횤
횥
횦
횧
효
횩
횪
횫
횬
횭
횮
횯
횰
횱
횲
횳
횴
횵
횶
횷
횸
횹
횺
횻
횼
횽
횾
횿
훀
훁
훂
훃
후
훅
훆
훇
훈
훉
훊
훋
훌
훍
훎
훏
훐
훑
훒
훓
훔
훕
훖
훗
훘
훙
훚
훛
훜
훝
훞
훟
훠
훡
훢
훣
훤
훥
훦
훧
훨
훩
훪
훫
훬
훭
훮
훯
훰
훱
훲
훳
훴
훵
훶
훷
훸
훹
훺
훻
훼
훽
훾
훿
휀
휁
휂
휃
휄
휅
휆
휇
휈
휉
휊
휋
휌
휍
휎
휏
휐
휑
휒
휓
휔
휕
휖
휗
휘
휙
휚
휛
휜
휝
휞
휟
휠
휡
휢
휣
휤
휥
휦
휧
휨
휩
휪
휫
휬
휭
휮
휯
휰
휱
휲
휳
휴
휵
휶
휷
휸
휹
휺
휻
휼
휽
휾
휿
흀
흁
흂
흃
흄
흅
흆
흇
흈
흉
흊
흋
흌
흍
흎
흏
흐
흑
흒
흓
흔
흕
흖
흗
흘
흙
흚
흛
흜
흝
흞
흟
흠
흡
흢
흣
흤
흥
흦
흧
흨
흩
흪
흫
희
흭
흮
흯
흰
흱
흲
흳
흵
흶
흷
흸
흹
흺
흻
흼
흽
흾
흿
힀
힁
힂
힃
힄
힅
힆
힇
히
힉
힊
힋
힌
힍
힎
힏
힐
힑
힒
힓
힔
힕
힖
힗
힘
힙
힚
힛
힜
힝
힞
힟
힠
힡
힢
힣
##O
##N
##Y
##이
##일
##산
##박
##리
##다
##매
##1
##5
##2
##0
##6
##월
##우
##실
##터
##정
##초
##던
##트
##형
##태
##루
##룽
##굴
##령
##강
##브
##능
##력
##계
##한
##인
##기
##독
##교
##총
##연
##합
##회
##세
##안
##D
##A
##C
##E
##레
##노
##c
##h
##i
##z
##o
##p
##e
##l
##m
##a
##척
##보
##오
##스
##톰
##편
##부
##지
##n
##J
##t
##크
##시
##키
##성
##갑
##포
##검
##사
##어
##임
##워
##츠
##선
##종
##족
##국
##가
##모
##바
##치
##주
##군
##단
##후
##살
##d
##S
##r
##해
##항
##각
##서
##속
##켜
##화
##효
##율
##신
##영
##T
##u
##s
##P
##마
##에
##진
##체
##비
##언
##도
##호
##텔
##로
##쿠
##르
##딘
##랜
##디
##드
##대
##켠
##v
##아
##갈
##있
##B
##F
##출
##표
##림
##반
##멸
##룡
##역
##자
##프
##병
##면
##래
##택
##라
##하
##간
##혜
##수
##금
##순
##토
##카
##차
##굽
##타
##험
##벨
##륭
##달
##씨
##철
##거
##공
##증
##f
##전
##그
##슈
##준
##학
##업
##취
##동
##방
##구
##원
##퇴
##꿍
##b
##섬
##R
##g
##넬
##닉
##천
##행
##민
##파
##중
##장
##맛
##테
##활
##킬
##법
##문
##론
##러
##요
##버
##녀
##빼
##k
##제
##경
##너
##본
##웅
##나
##룻
##약
##발
##휘
##니
##심
##조
##물
##저
##당
##권
##미
##즈
##야
##승
##불
##위
##염
##울
##고
##등
##y
##Z
##Q
##x
##M
##G
##상
##료
##캐
##릭
##퀴
##엣
##과
##폰
##w
##탱
##커
##츄
##코
##곡
##j
##U
##K
##빈
##만
##황
##징
##청
##줄
##투
##현
##베
##략
##획
##무
##피
##양
##닐
##페
##놀
##와
##의
##소
##격
##궁
##랑
##탈
##른
##템
##멤
##두
##팩
##재
##협
##평
##응
##외
##쿤
##배
##혈
##틸
##륨
##존
##싸
##움
##량
##명
##환
##술
##여
##펀
##란
##남
##작
##뿌
##잦
##틀
##8
##덕
##넷
##컴
##퓨
##게
##설
##밴
##같
##믹
##쪽
##습
##향
##음
##때
##쇼
##핑
##센
##좌
##길
##머
##관
##색
##틴
##십
##암
##빨
##유
##식
##채
##널
##는
##낙
##묘
##련
##케
##블
##욕
##킹
##락
##팀
##혼
##직
##값
##맥
##더
##멋
##통
##앞
##집
##넌
##걀
##닭
##생
##솔
##룩
##빛
##석
##내
##류
##개
##추
##둑
##7
##멍
##즘
##송
##점
##I
##L
##록
##용
##몇
##을
##네
##딩
##튜
##왕
##입
##패
##턴
##참
##뢰
##규
##올
##탐
##콴
##데
##침
##은
##착
##텝
##메
##걸
##넘
##욱
##3
##4
##9
##폭
##탄
##온
##난
##티
##맵
##들
##캇
##ㅐ
##ㄷ
##벽
##뜸
##담
##골
##듸
##쌀
##밀
##렌
##흡
##쥐
##복
##말
##엔
##린
##득
##를
##텍
##축
##좀
##날
##괘
##컬
##붕
##괴
##봇
##맴
##농
##건
##품
##목
##또
##함
##악
##홍
##랙
##션
##립
##절
##망
##헌
##김
##례
##꾸
##쓰
##넣
##맞
##딱
##쯔
##봉
##운
##팝
##년
##분
##푸
##뉴
##몽
##팔
##처
##열
##풍
##광
##덜
##삼
##럼
##헤
##예
##완
##흥
##랩
##찰
##견
##홀
##벡
##링
##슨
##측
##런
##컨
##클
##럽
##잡
##몹
##벌
##퍼
##밝
##백
##근
##히
##윈
##팬
##닥
##려
##듀
##막
##뱅
##누
##킷
##빌
##멜
##몰
##휴
##폐
##딜
##판
##윌
##듈
##창
##렉
##뜨
##껏
##떼
##잎
##접
##놈
##ㅑ
##ㅕ
##ㅗ
##ㅛ
##ㅜ
##ㅠ
##ㅡ
##렐
##숙
##깨
##찬
##뎅
##애
##얼
##팟
##손
##촌
##룬
##꼴
##펙
##별
##툰
##특
##엑
##필
##잇
##탠
##큐
##샵
##즌
##귀
##감
##탓
##뮤
##H
##윗
##람
##q
##섯
##틱
##셋
##돌
##결
##헝
##엘
##닝
##범
##델
##곤
##닛
##끊
##켈
##렵
##W
##북
##픽
##질
##릿
##념
##텀
##곱
##익
##굉
##젤
##겜
##플
##볘
##ᅡ
##ᄃ
##V
##논
##괄
##적
##슐
##급
##갤
##으
##램
##쳐
##책
##빵
##콥
##딴
##릉
##앨
##랍
##썩
##뒷
##딸
##육
##]
##,
##[
##충
##혁
##ㅇ
##ㅍ
##옹
##변
##늄
##핀
##둔
##갓
##톤
##름
##둥
##멘
##슬
##쉽
##챕
##셈
##극
##얀
##잉
##춘
##번
##롤
##좋
##^
##'
##닌
##X
##캠
##윤
##큼
##옆
##칙
##뎀
##뚤
##첩
##콜
##헬
##팅
##냥
##렁
##먹
##째
##덱
##럭
##딕
##쇄
##붐
##ㅒ
##ㄽ
##뇨
##칠
##새
##샤
##펠
##폴
##맨
##렙
##훈
##댁
##옷
##횡
##벤
##웨
##융
##촉
##맹
##겐
##롬
##톱
##즙
##것
##허
##콘
##앤
##옥
##글
##든
##슢
##혹
##룹
##흠
##앙
##눈
##찌
##없
##밥
##탑
##삭
##벼
##쟁
##ㅋ
##엄
##횟
##밍
##녹
##옵
##희
##층
##친
##탕
##켓
##컵
##팃
##겔
##뽀
##겨
##셸
##ㅝ
##ㄾ
##켐
##폼
##핵
##칸
##껍
##끝
##쉬
##펜
##슛
##젠
##알
##셀
##썰
##댄
##님
##잔
##흐
##쓸
##콰
##되
##틈
##혀
##앗
##겸
##겹
##섭
##탁
##궶
##궫
##궻
##랤
##궢
##뺴
##꾼
##쟈
##믈
##굿
##귤
##팡
##궐
##읍
##엇
##쾅
##멕
##곰
##퀘
##렬
##몐
##롱
##젝
##액
##빡
##죄
##먼
##엠
##콤
##쿨
##뼈
##랫
##샷
##킥
##둘
##캔
##팰
##ᅥ
##ᄀ
##ᅮ
##ᆫ
##릴
##몫
##멀
##륜
##균
##륙
##몸
##덫
##싱
##ㅖ
##.
##"
##잼
##덤
##캄
##쿵
##룸
##쭘
##뉘
##쵸
##멧
##찾
##쩡
##져
##옌
##ᆺ
##쌈
##놋
##몬
##똥
##숭
##뜰
##밖
##짱
##답
##녕
##볼
##할
##랄
##깔
##꽃
##빙
##덩
##헨
##덴
##늑
##쉼
##쉐
##힐
##늪
##낄
##촬
##느
##쿄
##빗
##캉
##눅
##빠
##뒤
##샘
##덥
##짜
##슴
##꼬
##숫
##펄
##춤
##돛
##맘
##떨
##받
##롯
##렛
##킨
##뇌
##못
##납
##긔
##확
##률
##첸
##젓
##ㅂ
##컷
##객
##읽
##뻥
##힘
##쩌
##죽
##첨
##듣
##따
##뻉
##쿰
##넉
##빅
##뤽
##툴
##냉
##짬
##썸
##봄
##힛
##곽
##챠
##잠
##흑
##뭇
##튼
##븐
##캡
##칼
##롭
##펫
##까
##끼
##엽
##쳇
##쇠
##풀
##숍
##냐
##돈
##최
##톨
##럴
##셰
##윅
##씬
##팽
##짤
##띵
##딥
##압
##콩
##및
##휠
##톡
##싹
##뿐
##묵
##럿
##끈
##텟
##꿉
##퓰
##왁
##셔
##땅
##웹
##팁
##렇
##뤼
##짐
##숨
##ㅎ
##긴
##ㅈ
##ㄱ
##쌍
##닷
##맺
##퉁
##겅
##펌
##끄
##흉
##컹
##턱
##셜
##슘
##풋
##ㅞ
##ㅊ
##땡
##핰
##셉
##쿼
##룰
##쁘
##ㄲ
##툽
##녜
##텐
##흔
##릇
##텁
##밸
##푹
##쥬
##돔
##뮬
##옐
##촙
##왑
##촨
##찢
##랴
##밤
##샹
##랏
##떻
##켄
##붉
##얍
##?
##죠
##뷰
##_
##-
##;
##ㄹ
##밭
##~
##!
##잘
##ᅳ
##ᄉ
##ᅵ
##윙
##낫
##뱃
##뷔
##삐
##/
##쑤
##햄
##읓
##떡
##볶
##혐
##셍
##빻
##짓
##췌
##늘
##젼
##렘
##챦
##륵
##듐
##ㄴ
##붇
##놓
##)
##:
##꿈
##띠
##숀
##귄
##쭈
##톳
##뎌
##숑
##깐
##꺼
##찍
##왈
##팸
##칭
##챡
##낭
##줍
##꿇
##웬
##쳔
##숲
##샛
##챵
##쌓
##갖
##햐
##픈
##왜
##눔
##땜
##앱
##댐
##댕
##{
##쥔
##깡
##랭
##냅
##힌
##딧
##곳
##뺏
##삽
##빤
##털
##졸
##갯
##흣
##깃
##쁨
##뚝
##쯤
##쇤
##퐁
##뵈
##슌
##팜
##핸
##갱
##꽤
##녘
##뛰
##늬
##ㅣ
##ㅌ
##튬
##쏘
##셴
##렴
##밟
##넥
##웃
##떠
##땃
##돕
##떤
##듬
##엥
##릅
##억
##줌
##닦
##즐
##겁
##헥
##ㄵ
##콕
##퀼
##켤
##얄
##홉
##훼
##쩐
##갸
##뇰
##펭
##홈
##넨
##냄
##뷸
##깝
##(
##쭉
##쾨
##윕
##낱
##혔
##쎄
##샥
##뱀
##첼
##툼
##옭
##숄
##얘
##칩
##깊
##걷
##웸
##뿔
##찜
##앵
##ᄋ
##앳
##돼
##훔
##벅
##ㅔ
##빚
##솽
##핫
##=
##펴
##밧
##뫼
##큄
##텅
##꺽
##첵
##푼
##섹
##뽐
##푀
##싶
##촐
##팥
##뤄
##&
##ᆷ
##넛
##챔
##높
##욘
##덮
##쟝
##윰
##뚜
##껑
##벵
##@
##캣
##펍
##챙
##붙
##잭
##큥
##캑
##윽
##딤
##앰
##ᅢ
##ᄂ
##젬
##훌
##쭐
##흘
##멦
##샌
##였
##꼰
##엌
##었
##ㅟ
##쌤
##겠
##쏠
##짝
##옴
##욜
##샨
##빔
##솜
##섥
##굳
##멱
##궤
##삿
##께
##덟
##웰
##엙
##퀸
##낼
##웜
##짚
##씽
##퍽
##핏
##냏
##큰
##똬
##꼭
##흙
##둠
##촛
##|
##띄
##엉
##쥰
##뽑
##씌
##긱
##뜩
##끔
##쩔
##쬐
##픔
##쾌
##꽈
##튀
##낌
##밑
##벳
##듭
##뿡
##곁
##쐐
##찣
##멈
##낮
##않
##ᅭ
##슭
##므
##뀌
##웁
##뽕
##며
##툭
##껚
##떽
##옛
##탬
##귁
##짠
##큔
##엮
##숏
##욤
##씸
##꿀
##쿡
##꿰
##웡
##뤠
##굇
##훠
##좁
##$
##%
##써
##킵
##쑹
##\
##ㅙ
##헣
##벰
##ᅦ
##퉤
##쉘
##쎃
##>
##꼽
##큘
##껌
##ㅁ
##ᆩ
##앉
##펑
##륀
##쨩
##땀
##폽
##캘
##꽝
##훅
##윳
##왓
##쳉
##퀄
###
##ᆯ
##컥
##붓
##쉴
##ㅘ
##곧
##뽜
##솅
##쉔
##폄
##텡
##밋
##룀
##챗
##깽
##샐
##듦
##멩
##ㅅ
##낚
##탭
##뽄
##좡
##뉵
##즉
##칫
##닫
##냠
##괵
##짹
##+
##돗
##껴
##퀵
##쫌
##섞
##핍
##햇
##씰
##닼
##ㅃ
##썹
##ᄅ
##ᅩ
##찡
##ㅓ
##캬
##챌
##괭
##눕
##졋
##쪼
##쨌
##캅
##깎
##췐
##ㅆ
##칰
##ᆼ
##횬
##넓
##벙
##쟌
##묽
##끅
##낸
##맷
##굼
##믐
##ㄼ
##쩍
##쏙
##ᆻ
##섀
##뻐
##펔
##앟
##뎁
##맬
##ㄶ
##솟
##ㄺ
##빰
##뭉
##뜻
##볜
##잌
##젯
##꽁
##솨
##돋
##잊
##ᅧ
##꼿
##칵
##뭐
##눌
##뎃
##긁
##뗑
##놉
##햅
##샴
##ᄆ
##샬
##싯
##젖
##튠
##둡
##뻔
##좆
##뻗
##돤
##롄
##텨
##졌
##넝
##뺨
##잣
##긋
##댓
##흰
##ㅄ
##걱
##뚠
##믄
##묺
##홥
##붛
##쌥
##깥
##덧
##웍
##꾹
##캥
##헉
##탤
##ㅏ
##ㄻ
##얌
##셤
##킴
##끌
##낏
##갔
##곶
##뀨
##}
##쓴
##솥
##엿
##뜬
##햘
##맡
##팻
##헐
##졀
##밉
##ᆸ
##흫
##쨔
##왔
##졍
##홋
##벗
##좇
##꿩
##겪
##핌
##뫃
##찝
##꽉
##믿
##똘
##랗
##겟
##겋
##뿝
##눗
##죈
##썽
##뻑
##셩
##퉈
##쫘
##밌
##갠
##뎡
##쇳
##ᅬ
##ᅣ
##갭
##훤
##쬲
##뱉
##꽂
##뽁
##빱
##쨋
##끠
##밈
##틔
##썬
##싼
##큅
##쫑
##씻
##팍
##닮
##듕
##ㅢ
##ㄳ
##휫
##뮐
##슉
##큭
##퀀
##묻
##ㅚ
##쌕
##헴
##힝
##쉰
##곻
##쩨
##뚱
##<
##믕
##떵
##찔
##얽
##쌔
##욺
##깍
##톈
##ㄸ
##뿜
##첫
##봅
##슝
##ㅀ
##많
##뚫
##읃
##쓔
##걔
##춥
##퓸
##퐈
##콧
##휩
##죤
##쮸
##츔
##듯
##뇸
##폿
##냇
##얏
##츤
##넴
##겡
##츈
##윹
##꺄
##튤
##뎐
##궈
##깜
##몌
##릐
##쬬
##ᄊ
##씀
##젊
##쏭
##솝
##엡
##햏
##뷉
##뇽
##읏
##뀪
##났
##븀
##룔
##ᄌ
##ᆭ
##슷
##앚
##꼼
##퓌
##릎
##쌩
##ㄿ
##찮
##튕
##챳
##긍
##뎬
##큇
##잃
##껄
##ᄁ
##훙
##앓
##킦
##끾
##늙
##묶
##솀
##뱁
##젱
##띡
##했
##왝
##똑
##츨
##얻
##륄
##휼
##깁
##툠
##ㅉ
##쑥
##춧
##뀍
##눙
##핳
##뷴
##힙
##귈
##깟
##쫄
##좃
##줏
##낀
##았
##켑
##쭝
##빕
##뿅
##괜
##*
##맑
##훗
##짢
##짧
##뮌
##쑈
##꺾
##뙈
##맣
##찟
##꽌
##혓
##닙
##꽥
##셱
##챈
##뺀
##탉
##옳
##뷜
##쫓
##옙
##혬
##윔
##핡
##늠
##얗
##긤
##삑
##쿈
##쏜
##헹
##낵
##낳
##갚
##챃
##짖
##끙
##뱌
##녁
##쯩
##랠
##뮴
##깅
##앍
##퐳
##륌
##깻
##튈
##삡
##욍
##헛
##팎
##뢴
##쑨
##삥
##쟤
##왼
##찻
##뜯
##된
##챤
##씹
##펼
##슥
##쌰
##퀑
##끗
##앆
##띤
##딈
##둣
##숯
##윷
##잽
##뿍
##옇
##땐
##솩
##렸
##핥
##뤕
##쿱
##즤
##쭙
##됨
##찹
##넹
##씩
##쾃
##홑
##숩
##ᄒ
##슙
##쑝
##찐
##쥴
##젹
##읒
##뵐
##늣
##뻘
##겍
##욥
##ᄇ
##웻
##빳
##뿮
##뱦
##옻
##쓱
##벚
##닿
##좨
##늦
##ᅪ
##푝
##쾡
##쏴
##앜
##즛
##펩
##읭
##뭄
##겉
##뮈
##뉼
##묭
##싀
##멎
##쩜
##옅
##몃
##엎
##힣
##ᅨ
##렝
##쥭
##켕
##쉿
##콸
##쪄
##쉭
##팹
##될
##웩
##쒸
##짊
##얇
##씅
##뭔
##뉨
##뢸
##둍
##싫
##뫄
##뉸
##꾿
##붑
##렫
##볏
##캰
##끽
##젧
##옮
##겼
##퍄
##꺅
##탔
##녠
##귿
##쥘
##뮨
##흩
##휙
##닳
##푯
##됀
##귕
##숴
##켁
##튐
##좐
##샙
##쳤
##겻
##뭅
##긑
##맙
##탸
##왐
##틉
##꽹
##츙
##갛
##휨
##껀
##얜
##쏨
##댑
##뒹
##쫀
##핼
##숟
##댜
##ᅲ
##꾀
##꿘
##굄
##츰
##굵
##춰
##솁
##썅
##멬
##뷁
##뗏
##볍
##탯
##칞
##텃
##괏
##긶
##궉
##멥
##넵
##릏
##삔
##홓
##잖
##`
##춍
##뮹
##랖
##곀
##롣
##콱
##튽
##곷
##줴
##픤
##딛
##먁
##죡
##쌋
##곬
##솰
##껫
##뜐
##죳
##낰
##룺
##뻬
##헯
##믓
##뼝
##짭
##끓
##쨍
##빽
##굶
##컁
##뛔
##녈
##덛
##잰
##깬
##띔
##뺑
##휏
##껰
##칡
##킁
##슻
##잩
##큣
##븨
##볕
##삶
##씉
##흄
##뺩
##힠
##쭤
##얕
##곗
##펨
##힉
##땩
##눟
##욧
##껸
##뼉
##댧
##댯
##깸
##뇬
##꿔
##몯
##훳
##헠
##섧
##킈
##좔
##푱
##찷
##땔
##룅
##툐
##츹
##섶
##쳘
##듳
##겊
##쯧
##죵
##뵤
##췻
##훟
##봐
##딲
##믜
##냔
##귓
##잿
##ᄎ
##냘
##웽
##듄
##뙤
##롮
##쫙
##궂
##괌
##솧
##훵
##쩝
##얔
##퉅
##먀
##퓐
##뼛
##좍
##뷘
##녑
##뜀
##곈
##벫
##쯥
##읖
##쉥
##젭
##쥠
##둬
##갇
##슼
##왱
##겿
##벋
##얹
##틷
##뎨
##닻
##닢
##샅
##몆
##슽
##큉
##쯋
##냈
##릣
##휀
##젴
##삯
##챰
##쎼
##쫍
##늡
##룟
##낑
##캭
##뽈
##옾
##됭
##촤
##촥
##쏟
##퇘
##쫭
##롸
##칣
##뀐
##훽
##쟉
##헙
##낯
##뀽
##넒
##갹
##쇽
##줵
##랸
##촵
##푴
##삠
##
##핲
##뺌
##쿳
##첬
##믱
##봤
##웝
##옺
##왯
##쨘
##삵
##ᄏ
##찧
##뾰
##씁
##뱡
##춉
##귬
##멓
##뺘
##쀼
##깣
##쨉
##뫙
##갬
##ᆨ
##헷
##끨
##똔
##넙
##뾱
##쾰
##뗘
##훨
##촘
##쐑
##쪘
##닯
##욋
##랒
##뜽
##쭵
##쏼
##놔
##녤
##쮹
##벞
##띰
##걲
##춋
##즹
##엻
##죨
##뭍
##퐝
##맻
##쩬
##쏀
##쫒
##섄
##줛
##놗
##솫
##뗛
##몼
##돇
##돣
##뢐
##홳
##잓
##웫
##룫
##뺃
##뗣
##쁜
##랕
##묄
##탇
##읔
##엨
##푄
##밬
##푷
##섁
##븅
##낟
##뢔
##떙
##궃
##싕
##츼
##굘
##닺
##붘
##흗
##딪
##떄
##둗
##잴
##궝
##꼳
##쉑
##롹
##촹
##닽
##껨
##갰
##홰
##굥
##슶
##짒
##뉻
##뒨
##쯕
##뵘
##꿋
##렷
##읶
##댔
##왂
##짙
##줘
##뷫
##촾
##뵹
##켸
##쁠
##꺠
##걕
##잋
##ᅤ
##뵷
##샄
##섴
##얅
##챘
##됴
##낪
##밊
##큮
##섕
##쥣
##륍
##쑴
##슾
##쩠
##횃
##췄
##쭌
##췰
##ᄈ
##삣
##훍
##묜
##텤
##먕
##냫
##쎌
##갉
##닏
##ᅯ
##숱
##흇
##쒹
##돿
##촡
##멨
##뻣
##쟐
##짼
##읋
##엃
##갗
##렀
##쩟
##낡
##볈
##볓
##쓩
##맢
##엷
##셥
##녔
##슳
##먐
##쯪
##낛
##읷
##덗
##늉
##젏
##폵
##숧
##싮
##퓬
##솃
##쫣
##똵
##뽧
##꽑
##뽭
##꼐
##셭
##놑
##룍
##셒
##붏
##셨
##덞
##놘
##쳄
##윿
##엓
##츌
##탙
##딯
##폔
##꿏
##싟
##큿
##롼
##왠
##벧
##뿟
##놨
##짇
##휑
##횔
##묑
##쿙
##훑
##엏
##삘
##돵
##ᆹ
##쯉
##짞
##뿎
##웆
##휭
##꽐
##킼
##츩
##챸
##왇
##ᄄ
##솬
##숎
##넽
##빋
##땽
##ᅱ
##곯
##츳
##댈
##쀏
##꼇
##엾
##읗
##줬
##웠
##퐅
##늅
##뽝
##뒑
##욷
##겯
##퓩
##쨕
##잍
##챱
##톄
##짗
##츺
##끍
##홁
##뭣
##븍
##읎
##엳
##뺵
##뺙
##퐐
##좟
##횸
##뽓
##픠
##둅
##췩
##돖
##캆
##왒
##댱
##듧
##셧
##훓
##삒
##헿
##냑
##샻
##씤
##줆
##옘
##쩧
##딨
##슆
##넡
##뎂
##닶
##쉏
##헵
##튝
##띙
##꾁
##뺭
##떱
##챨
##쥿
##읊
##쵁
##쥉
##뫌
##놏
##걋
##잫
##룝
##ᄍ
##뗀
##윱
##뼘
##꿎
##붹
##휗
##ᅰ
##긷
##ᄐ
##봙
##틍
##홧
##뽂
##돓
##뱔
##넋
##쎠
##헔
##섰
##엪
##졉
##볫
##싣
##즁
##밯
##깄
##퇀
##쳣
##쥽
##죌
##륑
##풔
##텰
##픋
##땋
##픓
##볌
##뵙
##괳
##븟
##퀌
##듫
##뒿
##볐
##뱍
##욹
##냣
##맏
##퀠
##냌
##뜫
##몔
##쉟
##렣
##죗
##곺
##뚯
##읕
##꾜
##귝
##뒬
##췃
##돠
##쥑
##듥
##쫏
##썀
##샇
##욿
##횽
##섣
##꼍
##켰
##됬
##썻
##퇵
##뿁
##쉠
##튿
##붱
##ᆽ
##햝
##쿸
##웳
##쬰
##빩
##웟
##쳰
##땠
##앝
##휜
##헑
##귪
##궸
##궭
##궼
##퓔
##팈
##쳅
##괼
##췁
##앛
##곲
##읪
##뫅
##튄
##땝
##퓍
##숕
##탵
##륶
##똏
##놰
##뒈
##퓽
##뛟
##빧
##뾸
##끕
##싰
##귖
##궺
##긲
##깒
##깛
##긛
##퀜
##잆
##좂
##쮜
##쮝
##횻
##콬
##렞
##픖
##릾
##쵮
##빖
##젮
##곪
##칟
##쎈
##됐
##펐
##벱
##뜜
##떅
##앎
##졬
##븝
##믁
##훕
##꺌
##돚
##뗻
##띧
##뚧
##궨
##욀
##콻
##풹
##흧
##튭
##륽
##칯
##콫
##쯱
##곖
##횞
##삾
##콦
##뿀
##밐
##튺
##힡
##왷
##븞
##듮
##쬭
##쐬
##깤
##돫
##셕
##긕
##뀫
##킄
##컼
##컄
##캌
##왘
##엊
##묀
##ᆮ
##뛣
##홣
##꾫
##폯
##맇
##뚸
##퍝
##뤂
##봫
##툥
##탒
##킅
##뙇
##봬
##띱
##뺄
##먏
##봑
##똠
##꾱
##틋
##뫞
##뿷
##땞
##밪
##뒗
##렜
##됵
##롊
##쒜
##웈
##싄
##툇
##풱
##졈
##녓
##뾲
##뗠
##텹
##틊
##둩
##쁑
##쳑
##쨈
##혯
##짘
##씍
##ᄑ
##땍
##혠
##돝
##엫
##쉡
##븃
##끜
##싁
##훛
##풉
##늏
##괸
##톼
##퉱
##휽
##췽
##뒝
##켬
##쁴
##땛
##졔
##뎍
##옠
##롷
##욣
##롇
##쌘
##깩
##ᅴ
##왹
##꺘
##눼
##붴
##샆
##췬
##삗
##괂
##읳
##쒀
##넸
##쵹
##덭
##윻
##뎻
##뿓
##땁
##죰
##뱐
##탼
##닑
##닊
##뚬
##쀳
##볽
##쵠
##걍
##픗
##췍
##엤
##줜
##땨
##퍅
##둴
##헗
##좹
##핤
##퍗
##햣
##햑
##꺢
##컭
##븰
##돡
##쳡
##뺐
##뎧
##뼜
##폕
##덿
##뛃
##괧
##긇
##뭭
##뫟
##덦
##헱
##롻
##졷
##힁
##뗄
##큪
##핔
##묠
##렡
##튱
##긧
##뜳
##쭁
##꼮
##훰
##쁟
##엗
##쪠
##숌
##쯸
##겆
##넠
##슁
##컿
##껠
##딫
##횦
##풒
##윘
##눤
##쒕
##췅
##쳌
##벜
##젔
##삷
##돨
##켚
##밻
##샒
##씃
##냟
##랔
##칽
##럐
##쨰
##쌱
##뤩
##뗶
##뗵
##퐄
##쑊
##쭓
##츀
##횅
##쥥
##꿨
##얃
##갷
##싴
##늧
##얒
##꽦
##픅
##쎅
##꺐
##뻴
##꿝
##뭏
##덯
##긞
##긏
##귺
##캎
##웉
##퉷
##먄
##벴
##쎔
##귱
##켣
##랋
##끤
##벲
##랃
##깆
##쪨
##뢍
##맠
##졧
##쳬
##홐
##뻡
##뼤
##쌉
##뢱
##뭘
##묏
##뇻
##뇾
##즑
##쏵
##떫
##럯
##셷
##둙
##썷
##귯
##삮
##멉
##굣
##릯
##쀽
##붸
##듶
##뎜
##봊
##둈
##뾘
##겄
##귡
##긮
##깑
##풮
##댸
##둏
##뺚
##쇅
##뒥
##얺
##뜝
##푈
##먳
##뮻
##뭋
##듁
##맗
##쟣
##쁙
##읅
##됩
##퇼
##닾
##끵
##뿗
##큠
##쭛
##햟
##줓
##탹
##믯
##뼬
##딮
##콣
##뀩
##봡
##줭
##댬
##춱
##숳
##띨
##뼸
##눞
##썪
##폘
##뿛
##춸
##긿
##딍
##낻
##뚥
##쑁
##퓻
##뤀
##풑
##븓
##흟
##툑
##찎
##늴
##뒓
##헼
##끎
##쁐
##륷
##턻
##싈
##몊
##팂
##쭊
##웗
##꽯
##꿱
##뉜
##쨥
##죔
##뤌
##뒫
##맫
##릵
##됸
##퇸
##숡
##똟
##벐
##듟
##떈
##홝
##솎
##낲
##랰
##쬽
##쩅
##솹
##밇
##꺵
##딺
##핚
##펏
##큾
##벖
##텂
##롓
##텬
##쬴
##됼
##굑
##핧
##갋
##촷
##횢
##괆
##툵
##랐
##얫
##뙳
##홂
##뚀
##꺕
##젂
##픨
##쟛
##롑
##뀰
##젋
##녯
##푠
##킳
##뷀
##쭨
##뀜
##쌜
##얖
##쑜
##컫
##먗
##늰
##뒁
##얶
##뭬
##얐
##랼
##돘
##잏
##챞
##곂
##찿
##떰
##롈
##삜
##밦
##롫
##뇓
##닜
##핻
##챝
##쟙
##휵
##힗
##돩
##벍
##깈
##겴
##꼈
##텽
##얭
##맄
##횩
##왉
##뫀
##흓
##뛩
##냙
##싐
##붝
##귐
##툉
##퍙
##쿜
##깏
##늿
##쏩
##뻤
##뵥
##췛
##돜
##퇗
##뤯
##룱
##돐
##쪙
##둉
##훁
##잨
##뺅
##읫
##뷓
##핱
##뎋
##톹
##퐆
##팉
##졎
##쥩
##훜
##맆
##뇩
##랣
##땗
##웤
##궖
##궋
##톻
##쏫
##삧
##껒
##ᇂ
##쏚
##릘
##댠
##쑼
##굠
##섐
##뀻
##밗
##춈
##믌
##꺆
##엒
##뎊
##뿨
##꺙
##쵤
##뚞
##귶
##뙓
##눝
##벓
##혻
##쟘
##궬
##셣
##큽
##썄
##뤨
##쫜
##맓
##싧
##댋
##핿
##줊
##셟
##갊
##핣
##닚
##닧
##잙
##윾
##듹
##샢
##앸
##찓
##뚮
##쐙
##뽟
##뚷
##붖
##핟
##밣
##뗔
##샠
##릊
##둇
##쯰
##떳
##ᇀ
##굛
##댦
##쀠
##왧
##뷃
##벩
##펡
##툿
##쬷
##홅
##쌻
##풇
##튮
##팣
##흨
##끆
##뎔
##뤵
##옿
##몀
##쭀
##겕
##좊
##뼥
##꼉
##냬
##쁌
##뜵
##뽱
##퉹
##좸
##쫩
##쌐
##늕
##쵼
##탘
##뺼
##롁
##럇
##섟
##뷇
##섈
##꽇
##뮺
##썼
##픳
##쁶
##붚
##꽊
##됫
##웋
##쿶
##뛸
##뜷
##뙗
##퀙
##캢
##욦
##썝
##뿉
##홱
##흿
##뤙
##뱨
##팠
##룐
##빎
##겧
##몄
##껙
##랆
##쁅
##뺡
##뗡
##룳
##띾
으
이
##ᅳᆫ
에
는
다
의
을
어
아
##서
##ᅳᆯ
를
은
가
고
##다
##로
었
에서
로
으로
ᆫ다
도
았
며
지
라
기
게
##ᅡᆫ
과
면
와
20
##고
##는
##며
##만
지만
##지
더
##게
에게
##데
던
여
##나
201
으며
만
는데
19
까
까지
아서
때문
##00
아니
라고
라는
자
다고
나오
면서
보이
10
경우
어서
사용
##터
##ᅮ터
##가
다는
나
##도
##레이
이후
자신
##니
그리
##면
였
공격
사람
위하
##스트
대하
부터
##야
정도
시키
가능
다른
12
못하
으나
이나
200
등장
는다
보
11
보다
그리고
##어지
그러
버리
아이
..
서
가지
만들
경기
##er
하나
사실
게임
다가
니
거
시작
일본
모습
##니다
이름
함께
##라
한국
따르
##스터
려
사이
상대
##어나
##지만
15
이상
거나
##in
으면
하지만
문제
생각
또한
시간
겠
##러
프로
가장
##학교
들어
다시
##대로
##라이
ᆫ데
당시
아야
캐릭
##ᅥ러
처러
처럼
18
당하
##on
캐릭터
ᆫ지
모두
그렇
아도
시즌
야
플레이
상황
모든
##이트
결국
추가
##an
16
##미지
##or
현재
상태
많이
ᆫ다는
통하
30
그러나
다만
스킬
다음
##리아
존재
전투
13
미국
능력
여기
카드
14
199
##리즈
세계
매우
선수
효과
##ar
17
그런
상당
ᄇ니다
달리
##he
##거리
##리스
##at
인하
지역
##요
물론
##ᅳ로
이용
##이스
의하
처음
기록
다면
시
이유
레벨
100
마
이것
이런
필요
실제
자체
시리즈
여러
부르
25
해당
일반
들어가
ᆫ다고
어야
돌아
라이
모르
##부분
역시
주인
거의
##이지
기술
바로
##en
마법
특히
영화
2017
무기
기본
##야기
다르
관련
##록
##ou
아무
그래
2018
진행
같이
방송
##시아
는지
이야기
냐
##지막
스타
음
##까
나가
피해
위치
방어
제작
부분
사건
##가지
대부분
##al
작품
레이
알리
마지막
증가
본인
2019
일부
계속
인간
ᆫ가
자기
지나
21
떨어지
##es
서울
2016
국가
올리
50
참고
주인공
내용
활동
##전히
스
우리
그냥
중국
어도
습
이전
비슷
어느
으니
생기
지금
비하
라면
강하
대신
22
성공
##토리
만나
수준
타이
밝히
습니다
감독
이루
도록
그녀
198
상당히
24
대한
올라
##민국
최대
대표
이동
없이
기준
공격력
너무
##it
므로
배우
제외
란
##버지
빠르
인물
죽이
의미
##에
그대로
나타
리그
결과
실제로
##라지
로서
직접
2015
##랜드
23
대한민국
어렵
소속
원래
전체
이미
마다
평가
승리
보내
##부터
그것
언급
체력
동안
##ing
애니
##st
전쟁
##le
시절
##이드
자리
##ic
관계
40
싸우
마음
설정
ᆫ다면
도시
##re
멤버
과거
영상
##메이
##주의
유저
##운드
러
지원
데미지
선택
문서
유닛
발매
포함
몬스터
##dd
끝나
여자
불리
성우
개발
엄청
힘들
설명
##등학교
방법
출연
머리
바뀌
플레이어
아버지
최고
연구
보스
우승
차이
드
이러
기사
##우스
유명
든
여성
스럽
공식
2014
장면
##없이
속도
사망
영향
이렇
메이
발생
이때
려고
조금
사랑
프랑
26
##ff
000
주장
일어나
주로
남자
28
##스타
인터
전부
##el
아이템
27
초반
출신
##리어
##am
제대로
운영
동시
##머니
빠지
31
결정
아직
중요
자주
프리
나타나
오르
the
##벤트
걸리
정보
공개
만큼
서로
또는
버전
최종
새롭
강화
친구
대상
독일
학교
##이도
구성
##아가
학생
유지
최초
##om
##어
강력
소리
##프트
역할
##버스
파괴
노래
사회
이벤트
정말
다니
역사
누구
그런데
마이
기존
쓰이
스토리
영국
##다가
대
비교
마찬
마찬가지
느끼
##la
형태
어떤
라도
바람
당연
##었
소환
엄청나
##is
후반
인기
보통
회복
변경
듯
이기
대사
2013
오히
대로
바꾸
조선
특성
정신
슈퍼
오히려
##시간
거리
파이
어떻
##라도
방식
정치
가깝
197
드래
월드
음악
이번
발견
29
##너지
사라지
아래
##나라
스테
게다가
32
아들
##동안
이제
자유
##et
##라마
00
나이
성능
프랑스
행동
특수
확률
성격
유일
활약
##ol
마리
2012
일단
모양
다이
##ion
##지어
확인
아예
시스
구하
##레이드
##레스
따라
이렇게
부족
차지
정부
##디오
입장
노선
맞추
내리
스트
##소리
돌아오
심지어
주변
##로스
모드
먼저
영웅
##리카
수록
##니아
발동
2010
거기
어요
과정
어리
완전히
반대
드러
생산
##ow
들어오
구
##그램
##인트
개인
60
##통령
대회
##nd
적용
##써
km
모델
바이
##20
##il
제국
##ig
떠나
으로서
속성
##ed
시스템
대학
그래서
난이도
바
한번
라며
혹은
자세
35
##메이션
실패
어디
지키
전혀
돌아가
차량
하이
장비
감소
원작
패배
##리그
덕분
현대
국내
사진
얼굴
##스크
TV
건물
동일
대통령
##소드
얼마
열리
더라도
##나마
도움
초기
무엇
마을
중심
앨범
우주
지속
##ac
데뷔
날리
##as
오브
인정
표현
모으
애니메이션
##BS
출시
참여
##어가
버스
196
굉장
획득
물리
나라
세트
그렇게
of
루
2011
밖
밖에
작중
계획
시대
설치
다양
요구
순간
스페
반응
##아내
안되
데이
Lv
정확
기능
자동
움직
##들이
기억
발표
축구
##므로
하루
드라마
선발
올라가
시점
##ve
그나마
영어
라인
아마
에피
아군
담당
명칭
##대학교
상승
##비스
으므로
판매
##자
다며
작가
중앙
시기
진출
01
그림
경찰
세우
##이
았었
##속도
The
조건
가격
특징
려는
##뜨리
대체
상위
한
##테
##파이
대전
##ot
한테
고려
지구
조
관리
##차
조차
확실
드래곤
##위기
참가
500
##리오
수비
에피소드
로부터
이거
남기
지니
80
단계
##피언
2000
어떻게
항목
실력
라서
##으키
어머니
아르
더욱
묘사
피하
활용
던지
연기
경험
각각
##ad
미치
37
처리
러시아
패치
비판
심하
45
밀리
후보
가족
만화
폭발
회사
문화
굉장히
세대
디자
결혼
##스로
이미지
교육
이어지
구조
##라인
진짜
프로그램
아주
내려
라운드
##위원
위험
챔피언
단순
선거
약하
여담
이라
이루어지
발사
참조
무시
ᆯ지
St
다루
목적
오리
히로
현실
준비
주요
194
##아오
크리스
민주
기간
불구
##머지
사실상
나쁘
나머지
일으키
마스터
대미지
방영
제공
삼성
계약
약간
혼자
랑
시청
##id
부산
70
중간
뛰어나
##다리
시도
패턴
##ᅳᆷ
09
방향
세이
논란
일정
##ay
지하
범위
동료
유럽
여전히
연속
당연히
한정
90
으면서
한편
이해
분위기
성장
아프
소모
훨씬
FC
##ER
##러지
##보이
그룹
국민
유리
##려
세기
보호
특별
노리
파워
학년
##마
그래도
##인물
오
블랙
mm
##러스
02
2009
03
바라
##ch
##트리
가져
조합
향하
기대
운동
잘못
자연
300
경제
가리
브라
##시
출전
기타
생명
디자인
최근
기에
##드리
싸움
해결
취급
##us
48
국제
도망
##ir
자면
##티브
ᆯ까
스테이지
부상
그거
성적
부대
태어나
05
195
33
사고
나무
연결
for
지방
이르
2008
생활
##자기
의견
예정
규모
36
추정
운행
주의
이탈
08
순위
변하
수정
타입
종류
마치
07
##ur
네
인구
충분
거대
움직이
방면
스스로
##ᅮᆫ
구간
아이돌
올라오
죽음
대화
수상
펼치
##리티
넘어가
오래
나중
야구
조직
안정
##큼
속하
전용
세력
거치
표기
변화
느낌
지도
HP
##너스
터지
당신
장착
벌어지
미션
퀘스트
도중
전문
나누
비롯
등급
##..
##od
세상
##지션
절대
유니
06
항공
만큼
붙이
달성
##BC
직업
벌이
안타
특정
만드
지내
일행
관하
엔딩
th
부활
##능력
##im
##란드
##비아
독립
포인트
무장
##저
발전
종료
지지
근접
전하
더불
졸업
관심
방어력
04
##라스
만약
케이
포켓
##어들
##다니
수도
반면
미사
따라서
##un
##ut
SK
스피
번역
싱글
제목
보상
엔진
##데이트
소설
내부
이끌
거두
에너지
목소리
투수
남성
2007
배틀
you
업데이트
배경
똑같
가끔
정상
##디어
미래
어찌
저지
충격
무리
34
##정도
##카이
타격
계열
득점
전설
정체
##리트
오늘
비행
지휘
##나이
목표
황제
##게임
공중
그만
항상
느
분노
##ro
최소
각성
공연
배치
으려
예상
조사
등장인물
이어
돌리
소재
마저
북한
##공격
으로써
전국
정식
위기
넘기
생존
얘기
##대학
##조건
로마
늘어나
전작
포켓몬
군사
신경
##ag
##igh
38
##나가
높이
##ver
작곡
##림픽
애초
스포
ᆯ로
지정
괜찮
##ec
버프
가르
인터뷰
cm
##르크
시전
듯이
자랑
지상
기관
75
결승
점수
각종
리
악마
비밀
요소
전사
다리
##운데
건설
분류
##ent
2006
인도
##시스
과학
소녀
##시마
##야마
교체
##르트
55
요리
연출
정하
in
이외
무대
전기
전차
부여
전반
##학생
193
하늘
레어
정작
수치
클래
##ak
클리어
확정
##로드
별로
뿐
니까
작전
드러나
홈런
갖추
개념
행정
##회의
훈련
소개
건담
링크
야마
제일
따로
2020
to
##um
타카
종족
외국
이적
아키
##자리
군대
갑자기
##젝트
##무리
변신
',
##루스
카이
나름
언제
이탈리아
제한
단점
##스티
기업
##화국
바르
완전
##파트
vs
장소
크기
누르
인천
기계
##이즈
명령
냐고
##타임
서비스
##아들이
평균
##시대
기체
노력
근처
##어로
동물
가수
수행
포지션
사냥
파티
아카
작업
보유
트리
압도
표시
다크
##ST
##모토
기동
집중
연합
특이
오른
화력
##em
##ub
살리
시장
끝내
병력
##니스
이하
어쩌
사업
설립
이쪽
잠시
기회
베이
부모
부정
기반
공간
더니
##레인
본래
필드
파일
경쟁
치명
판단
느리
카운
##이치
무슨
감정
가운데
직전
##000
목록
##카드
이닝
물건
나서
의외
ㅏㅆ
인식
단어
고양
상관
탈출
월드컵
판정
사례
옮기
##ᅥᆫ
기다리
소련
주문
##요일
던전
2005
주제
효율
차원
포기
제거
강제
정리
가문
키우
앞서
##역시
임무
##ight
진화
42
려면
마르
다수
대구
새로
위력
도전
41
##고등학교
##냐
도입
프레
때리
라이브
##세계
도쿄
별명
##러스트
원인
중반
호선
정의
레드
완성
제품
##그레이드
발언
고정
스타일
39
지배
##이션
##기사
받아들이
유사
촬영
에게서
##드시
숨기
2004
골드
무려
복귀
사이트
동생
어둠
시험
##대표
연습
직후
분명
도착
EX
LG
역대
아스
버티
전개
은데
삭제
으로부터
접근
모이
ㅓㅆ
바다
인사
요시
사정
해군
랭크
현상
추천
마시
##ce
예전
왕국
정규
살아
##로우
음식
확장
교수
회피
마나
해외
##AR
안전
코스
빨리
업그레이드
책임
오버
병사
이곳
반드시
##os
##바이
줄이
일러스트
조종
유튜
완벽
자원
부탁
점프
저항
44
타이틀
올림픽
##방송
롯데
##ri
도로
극장
고대
##AN
장점
파트
심각
잡히
비용
탈락
차전
##던
우선
##ula
Ch
인터넷
신체
아내
죠
##ON
의사
##무라
통합
##하나
언어
리더
추측
공동
##대전
전력
의원
##아하
No
전략
##ap
43
주민
치료
이라고
99
곤
실험
환경
##트라
미니
몇몇
의식
연장
히어로
마무리
합류
연재
##and
구매
2002
소유
st
점점
스코
즐기
##버리
살인
장갑
##러리
사격
##ᅮ록
최강
form
철도
대기
종교
사기
##광역시
전자
그야
화면
취하
수많
다소
마법사
기념
구분
좋아하
공포
티어
kg
에이
종종
엘리
47
자마
46
개최
51
191
사거리
마사
암살
걱정
오프
formula
평범
가치
##말로
##퓨터
전통
가사
스크
자마자
형식
KBS
개봉
아쉽
##무기
부하
그야말로
##아지
그리스
개월
선정
녀석
사상
채우
스페인
여행
##ter
재미
##위원회
워낙
아무리
##선수
다행
미드
고자
복수
입히
루트
##오르
##아보
##메라
and
##스케
요청
미사일
한계
프로젝트
무조건
본격
정당
정확히
대중
냐는
한글
##ul
개그
MA
평소
사무
영혼
실점
시청자
##시장
밴드
거부
비중
굳이
##IN
##운동
지적
무한
공주
옵션
1000
##수록
로봇
2003
데이터
줄어들
하드
##모리
컴퓨터
충분히
고르
##op
위협
투입
상징
버그
는가
##니티
##관계
시설
히트
달러
연주
행위
범죄
##ck
도망치
선언
대형
##쿠라
불가
%,
명중
실수
모자
설계
폭탄
150
콤보
드리
네이
형제
65
특유
##FA
대결
언론
##ation
원정
트위
해석
선생
성향
##로그
조작
운용
희생
시민
##오스
##정부
##일러
MBC
광주
스포츠
SP
행사
##려가
전원
일종
##아이
인상
대응
##ra
192
보병
태양
보조
##이상
봉인
##남도
이사
광고
행성
##다르
나이트
##페이지
얼마나
가면
벗어나
##든
개조
플래
##이크
오리지
단지
64
II
##시브
그때
로써
마력
드러내
##기관
차례
대로
##동생
##미널
##경기
와중
##특별
##머리
구단
보너스
단체
화염
빼앗
노트
간단
점령
을지
시나
통과
프로듀
소비
경기도
##려오
ㅏ서
치르
오랜
육군
발음
생성
서술
뿌리
##올리
가하
근데
52
방문
##라이더
클럽
합치
서버
유튜브
조정
장르
##텐츠
불과
의도
재료
투표
소년
금지
반복
가정
You
의지
정책
함정
지명
한국어
는다는
년대
저격
영입
디지
400
최후
##레이션
에어
보컬
분리
초대
제안
보다
따지
##드로
##웨이
채널
##세이
##art
##래프트
원하
박사
##마스
##교육
무사
그저
대비
##런스
사태
편성
##지역
여름
외모
가져오
놀라
VS
음반
일차
장기
후속
센터
찾아오
소식
##학자
##도우
##부대
49
두번
숫자
고양이
##사이
흡수
느냐
적극
목숨
뉴스
지나가
AP
독자
56
눈물
공략
진입
데스
장난
스위
모험
바닥
디스
##센터
패러
은퇴
적절
##사카
생물
왼쪽
크로
괴물
군단
주력
오토
2001
고등학교
오오
대학교
컨셉
거짓
아름
##마트
##이터
저지르
살아남
기자
ᆫ지라
흐르
의심
확보
자료
서브
전화
미리
53
약점
노동
원거리
54
개선
코드
필살
더블
오리지널
제도
...
사과
형성
대단
쓰러지
##달리
관통
단순히
In
PC
걸치
교통
대장
##어내
다운
수호
저주
전술
황금
##피아
페르
계기
만원
마침
들이
잘하
질문
부수
조각
브레이
구축
알렉
##피스
착용
꾸준
85
상대방
작성
유도
시티
솔로
풀리
##나다
##ia
타임
1990
방해
기원
집단
##문화
##즈키
비난
##믹스
삼국
역전
인류
먹이
##ill
##무원
전환
편하
아프리카
습격
##워드
필수
경상
열차
##ie
##전자
선보이
승부
##소년
라디오
규정
##북도
홈페이지
##RA
진정
ST
실시
라이트
##회사
클래스
##IA
아나
공부
확실히
회전
유우
모티브
아름답
무력
감안
들리
190
요
##ik
엄마
경계
수원
등록
블루
병원
##영상
##스테
완료
편집
어느정도
##전사
남편
비고
승강
스카
번호
표정
무섭
쿨타임
##플레이
임명
지나치
기지
오른쪽
비트
딱히
행복
##술사
멈추
허용
본선
친하
희망
사장
##붙이
59
방패
상처
##연히
바탕
코스트
포스
당장
##울리
의문
데리
태도
고통
탑재
유래
이스
장군
에이스
##트롤
유키
##ab
아시아
인지
##라이트
날아가
기점
평화
국회의
가까
비싸
아요
분야
120
선물
제압
고유
58
민주당
##아리
트랙
대답
성인
을까
제시
멸망
그레이
하위
레인
로드
##est
챙기
가슴
##크래프트
##대회
주목
빌리
57
꺼내
수리
잠깐
자라
아웃
후지
##th
MP
##나미
중단
##라리
마크
##all
날개
이론
어라
멀티
나뉘
##ea
거주
사령
66
한화
95
##니어
측면
사항
##터리
회장
당선
검사
시나리오
주도
멀리
겨우
포르
##디아
뮤직
내려가
액션
다가
##소녀
스파이
##전쟁
투자
년간
주연
공화국
뉴욕
눈치
동맹
에다
보급
일본어
##철도
달라지
약속
Sh
듀얼
학원
ᆯ수록
건
우수
교회
테마
드라이
보수
궁극
Lo
텔레
온라인
##ct
##나무
가볍
최악
ddd
on
##보스
시체
##토스
나타내
카운터
늘리
크리
1999
망하
Re
##하라
가져가
순서
위주
배신
좀비
##스키
종합
소울
대놓
##초등학교
가드
해제
견제
퍼지
110
함대
##ddd
dddddd
Sp
##바로
1998
현장
오후
보도
##두르
카메라
##AL
##타로
산업
##라우
지식
코너
처치
계산
연계
핵심
베이스
##오리
##지원
최대한
살해
##어리
ㅓ서
##AT
62
##다이
##PS
예선
귀족
##워하
나카
자이
해금
국회의원
직원
인원
필살기
중화
##OR
에스
전장
진실
##VE
귀엽
외부
분석
거절
컨트롤
##어스
##트로
국가대표
드물
##유키
건너
쓰러
특기
이성
이치
스케
##고기
##주시
유용
출생
SS
용병
제조
SBS
가르치
어울리
소프트
출발
통일
상하
수사
증거
개편
부리
인형
애매
는다고
##들리
기분
부담
##시즌
고서
스탠
##ate
쿠
지옥
광역
##선거
레이저
극장판
흔히
##ess
한자
커뮤
겨울
안하
Th
##ell
##번호
##래도
61
세계관
불명
어린
민족
##ard
76
아라
진영
타자
##사키
끼리
단독
버튼
자살
영역
타이밍
##ang
얼음
피해자
발휘
아무래도
서울특별
겹치
##IC
카즈
자동차
##민주
크로스
레전
##바람
##다수
##연구
아침
오스트
홍콩
##ue
조준
무게
고급
순수
##기술
##ant
##ack
제로
비록
##대장
공통
##츠키
##ers
스펙
부진
패시브
Al
NP
코치
77
장전
시내
##ine
로켓
소수
88
케이스
두산
1997
구입
72
반란
##아나
##서관
##생활
##심히
레
브랜드
여왕
자고
##아
##나오
##가락
카페
게이
탑승
충돌
한명
혼란
스피드
몰리
후반부
상자
통신
##오프
장치
##시티
기획
기절
만족
서울특별시
문자
내주
협력
외치
인생
파악
군인
테크
탄생
끌어
막히
꾸준히
조지
게이지
생일
판타
BG
ㅕ서
왕자
우려
##디션
근거
##웨어
##ok
코어
##OS
아오
부인
안습
업무
닥터
무너지
실질
##카와
관광
be
납치
강조
##포트
등등
373
FI
채용
반영
붕괴
공산
더하
스프
게시
or
##자키
자르
위키
돌격
아라
미군
##노스
98
fff
##거
훌륭
온갖
CD
gt
장수
브라질
마이크
대공
점차
마왕
갈리
스킨
맡기
밸런스
##ive
수단
랜덤
##파이어
없애
600
반격
자격
패러디
##상태
주어지
##메달
##사건
용도
경향
댄스
홍보
구역
지하철
아메
공군
##도시
대다수
##리안
##스카
찾아가
내놓
##정보
공항
1996
설득
위원
권력
어차
살짝
##스코
제주
아사
입학
##시코
고민
어차피
주년
##ast
언니
승강장
체제
지시
PS
돌파
표준
##세우
##AS
가까이
대놓고
가로
1995
지급
커버
화살
영원
감염
실행
가입
또다
적당
엑스
가스
대륙
입수
충전
##중학교
응원
그다
작사
ㅓ야
제기
##uby
",
베르
##오카
캐나다
집안
우
##가능
##ED
##은행
##tt
당황
울트라
갤러리
아야
68
즉시
##ee
내려오
자식
은근
lt
800
불안
신화
열심히
연방
##교통
체인
스페셜
군
뒤집
리어
별도
여러가지
여부
오프닝
##시지
신뢰
폐지
북미
63
매치
증명
1980
명예
유형
경력
##아먹
돌진
정령
한때
##친구
##ong
보물
##호사
##AM
ruby
괴롭
단일
##독교
도구
운명
##돌리
이승
찌르
가면라이더
후쿠
이슬
모션
마련
##ort
김성
선배
군주
##레기
라이벌
교환
비율
##데스
플라
카르
계승
흘리
마녀
##트남
댓글
##효과
##관리
##ith
##미야
근무
횟수
재생
##스트라
오해
##드라
경유
중계
71
##if
##아버지
74
트레이
습득
드랍
수입
주전
함선
불만
정말로
내내
##ly
트위터
커뮤니티
##스탄
##비전
##브리
시행
##fff
오픈
조조
....
MV
##ld
하수
전라
재판
장식
마츠
##히로
그곳
73
67
고속
ffffff
혁명
고전
레전드
박살
절반
가리키
추진
격투
딜러
짜리
메이저
남부
주위
지우
아우
붙잡
테러
울산
로스
##보내
외국인
심장
단위
별개
계급
취소
NC
처하
##ain
메탈
일대
그라
##ist
96
##겨나
민간
##공사
파이터
회의
등판
암흑
##버트
1994
##ind
소문
##시안
가득
재능
##보드
TH
정권
북쪽
그다지
연예
쌓이
안드로
##퍼스
예술
감사
##서트
마주
180
고치
공유
해방
피해량
격파
##기간
지켜
지점
남쪽
AC
건강
##지컬
문명
##스턴
그동안
외교
스코어
스트라이
##레나
하
81
AT
##베르
네이버
초월
장애
강원
사운드
든지
아리
파리
발매되
공작
일부러
그만큼
결승전
##타이
다행히
차별
크리티
전방
##per
##티나
##바르
압박
임시
소멸
널리
전달
##아웃
하트
##ps
##구역
기독교
화장
공장
##EN
##가리
레오
##워크
입단
문제점
흔하
쓰러뜨리
그림자
##가와
적히
지켜보
피아
카나
판타지
타점
##식간
공사
페이
무적
따위
맞서
화려
##EC
물러
갑옷
헤드
자는
치명타
78
91
스튜
##거나
프로듀서
##OL
갈등
거래
##마을
순식간
말리
본명
지형
여동생
따오
무난
##ew
오로
건축
여론
선호
##때문
일상
유비
트레
공기
연사
컨텐츠
폭풍
여신
드립
러브
시야
패스
##투스
##모드
84
CP
체육
##일랜드
최상
체포
사단
##LC
관객
me
##ry
크리티컬
스파
용어
첫번
드디어
유로
전투력
아케
##려움
수있
체계
##레이터
82
불꽃
바라보
삼진
##lo
페이스
전역
추적
복잡
##타인
##영화
매력
늑대
97
파이널
대만
한국인
아무런
##사항
제이
경영
##덜란드
전함
86
도달
고향
화이트
영토
맞이
상향
사쿠라
대원
파견
##공항
폭주
해설
크루
##병대
##프로
떡밥
작동
##둥이
동원
사전
네덜란드
단
테이
##모로
it
변형
푸르
현지
69
##피
다시
다시피
##어버리
한방
##프레
추락
메가
인수
수용
조용
그치
요새
몰래
연관
페이지
아무것
쿠로
수학
참전
개통
is
추격
아티
NPC
출판
막장
달하
프라
생명력
께
##어오
출현
##IT
상품
##더스
충청
교황
일제
고기
##동차
작용
##릭스
둘러
##바일
돌아다니
해체
잖
매일
잉글
만든
US
프리미
##과학
미스
##아파트
##디언
향상
통제
박스
경험치
스카이
MS
중학교
복장
신인
놓치
##티드
리버
An
옛날
구현
왕조
녹음
동쪽
##가스
아파트
입력
김정
미야
##어도
북부
알아
##먼트
조성
##ust
오빠
서부
환상
교사
오류
스마트
와이
베트남
##교회
크레
오스
##고리
신규
##일리
수업
예외
언제나
보정
환자
노출
##크스
##국가
범인
250
기초
종점
총기
KT
출장
연애
이시
구체
##연합
##50
나루
##니까
되찾
메타
##단체
일원
##수록
회원
에드
토모
인근
##구리
심리
타워
시각
편지
##병원
##라드
영문
##티아
##라크
##리스트
여러모로
기어
##시타
신고
##류장
189
대립
쓰레기
거짓말
수요
가이
제자
한마
쿠키
##과정
보장
신라
마인
##요시
사토
의상
불편
불과하
신청
전형
연락
수집
202
그래픽
접하
편의
신분
1992
##전차
어깨
##야구
평타
##일드
전면
유희
양산
무료
##사기
##조리
창작
천사
차단
서쪽
##버프
신성
기여
92
##BO
검색
##ore
##톨릭
##저히
모바일
부품
영업
이중
Ar
##펙트
띄우
반지
대체로
노예
세월
동부
전직
진지
반발
학살
자이언
83
감시
##코드
고생
이날
주먹
마리오
심판
랄
폴란드
마리아
대량
Te
##베이
구속
호평
##조사
상상
제하
89
대우
제작진
잖아
하고
블록
클로
내구
##FF
101
휘두르
93
반하
정지
기기
1993
다섯
제법
브리
출처
무효
승격
##사고
프린
De
MAX
테스트
콘서트
침공
식물
기습
닌자
동영상
이득
94
스폰
한타
이랑
잉글랜드
##시설
더빙
이래
##스팅
보석
창조
링
##성기
어그
잠수
경기장
코믹스
com
79
적어도
알파
마도
파라
연상
지도자
은하
요즘
폭력
조심
##FC
저장
실드
re
동방
합격
꼬리
##구치
다이아
비디오
다면서
87
엔터
##란색
이리
메카
극단
##사업
볼넷
헌터
뛰어
멋지
##로나
마이클
하수인
공급
통상
##가미
노멀
박근
##라이언
글로
음성
똑같이
##사자
구출
##one
##데이
대략
훔치
On
시위
파일럿
이재
교전
니시
회차
##공원
동작
##se
##그룹
전투기
런던
결성
경비
##ip
##활동
합성
길이
토론
상점
지휘관
후기
사령관
##AC
유령
국립
도망가
AI
DJ
물질
고용
어드
아크
##RE
익숙
운전
아머
이슬람
어지
##임스
##ᇀ이
같이
바보
었었
서양
수영
##ere
##창기
나아가
탄약
득표
모리
윌리
동네
##PG
폭격
갤럭
소화
##널티
프레임
BGM
MC
회수
인공
신경쓰
장관
사마
##오
어둡
SN
경고
이내
활성
##의원
의혹
법률
묻히
##ity
권총
불법
냐며
##ath
조절
태우
규칙
##지마
##가드
조치
콜라
플레이오프
디지털
##미스
성과
##바라
전적
스웨
타케
라이더
동기
유행
수송
김영
들어서
엘프
으니까
호감
부문
간부
투구
##공화국
문장
FIFA
요괴
지르
##사회
##인민
려다
웬만
##스킬
##부장
##스토
##end
##부르크
결론
##끄럽
1991
종이
##마법
이명
취임
불러
빛나
움직임
터키
스티
원소
자매
##마이
다하
앞두
##리온
글자
멕시코
가톨릭
곧바로
저그
매니
제어
!!
##메이크
탱커
정면
찾아보
일시
키스
포탑
특화
진심
키리
##장치
##기
##대사
여유
너무나
THE
700
FA
소닉
예측
문학
메인
##프리
##배우
오랫
박정
절망
소드
신문
흥행
수술
가시
ㅕㅆ
도발
전공
구원
근육
신호
착각
시드
정복
커맨
사자
총리
끼치
1988
의무
유대
어떠
제임스
개체
개정
MVP
외계
듯이
리메이크
국방
홀로
요정
연대
##마루
##지방
아끼
떠오르
육성
##라노
넘치
##타자
그대
초창기
좌우
고백
출력
소형
강철
여지
##커스
팀원
##네스
차라리
##페인
실리
Ro
물러나
긍정
##OT
인정받
베스트
아기
스토
피부
초등학교
인연
목격
파트너
예비
##러드
정착
##팩트
##행위
##아시아
번개
챕터
탱크
연도
아일랜드
요코
CC
에서부터
계정
상호
플랫
바치
##속도로
Wh
타이거
플레
어린이
발달
전시
위장
헤이
안드로이드
파이어
##작용
영향력
길드
이주
는다면
AK
예고
묘지
식민
신설
슬롯
세이브
내장
대항
헌법
##세스
떠올리
##자드
몰아
미츠
##마크
박근혜
##ect
차트
각자
DLC
오사카
하필
깨지
대폭
명중률
htt
라면서
고문
Se
##포터
1970
##카리
코인
##평가
청년
사양
예능
농구
갤럭시
양쪽
##잡이
후속작
으려고
히데
최소한
Le
##저스
마침내
##지로
##티스
호주
수록곡
분기
의뢰
아바
어다
'.
본작
강의
게스트
악역
관할
##대상
주간
전후
##시리즈
##위키
협박
##도르
현역
##닉스
누적
##브라
국왕
공지
용사
저녁
He
인증
##무장
오랫동안
세르
그럼
PD
막차
골든
루타
##시오
안내
##age
##의회
##IS
##그리
아빠
미카
##미니
우리나라
신기
기원전
주말
부서
al
트로
역임
일자
방출
육체
의존
구멍
가속
괴롭히
##필드
전선
메모리
카오스
분량
적대
웨이
어쨌
세종
##나카
kt
감옥
##지대
부부
망치
##어나오
커플
연인
장교
올해
Go
다가오
터치
해리
Me
간혹
이지
비행기
장악
오늘날
이끄
요원
##밀리
실버
명성
년만
강남
##무르
코미
##크로
##박스
빌드
개방
일본군
융합
##물관
정글
노부
원자
ᆫ다며
예쁘
틀리
정치인
놀랍
노르
##워치
GT
처벌
가량
더라
대처
출마
오가
김태
1989
형사
KIA
떨어
투어
마구
써먹
놓이
은행
지능
##og
포스트
##ake
##몬드
##ide
배트
상당수
한동안
트레이드
개성
이집
희귀
스튜디오
외형
재미있
자치
오전
전문가
먹히
##OM
Be
십자
##구
My
무덤
피격
##경찰
WW
커지
패하
사제
호텔
준수
이즈
접촉
##타입
환승
섞이
##가시
부위
의료
130
##제국
환영
갇히
고교
가게
윌리엄
##려주
꼽히
소원
대지
담기
포르투
대표팀
바위
AR
##ss
둘째
허리
SC
이집트
최다
##ark
합의
소총
오스트리아
초간
플로
##ime
인조
필리
깨닫
##ire
따라가
안티
SM
편곡
선전
##천시
##문제
화제
정류장
국회
##우드
##치기
수련
188
논리
웹툰
으러
wh
아니면
116
손가락
확대
알렉산
까다
구도
전진
my
Su
문재
##랭크
##네임
##ES
핸드
은근히
전신
삼국지
##누스
스톰
SD
어른
귀신
ㅓ도
알아보
상업
##노우
흐름
##산업
##ID
입구
극복
고등
성립
태그
소지
##안타
소중
더더
권리
대개
치우
연타
Tr
미디어
는지라
스웨덴
국가대표팀
청소년
##ite
아가
축제
새벽
접속
##던가
독특
별다르
고구
튀어나오
##다랗
변호사
무렵
할아버지
수수
익히
##덩이
무겁
모모
일격
태평
라이프
굴리
조언
수십
160
##ound
블레이드
작곡가
편입
리치
연극
멀쩡
SR
페이즈
칭하
##iv
동의
일찍
바이러스
더더욱
HD
''
팬덤
퀄리티
평가받
사카
카라
차리
##쳐지
빼앗기
병기
까다롭
원수
음원
보안
팔리
혐의
원본
블로그
##협회
##큐어
시즈
##OP
##iz
카타
##ge
한마디
훗날
권한
위상
기사단
트윈
허나
랭킹
검찰
첫차
적군
절대로
IC
돼지
##항공
##속성
클래식
손해
살아가
##리얼
챔피언스
브레이크
주식
대가
##지구
클리
식사
##OW
대충
구나
보관
##시로
##스톤
합체
면역
##주인
느라
일일
증언
##사관
애플
주포
처형
갈수록
죄다
##감독
각본
시선
적응
하얗
계단
한쪽
무릎
미술
참석
금속
##아프
아트
리듬
공공
매직
##리나
과연
##키아
신세
결코
모자라
개시
네임
우위
##사령
마이너
한참
내성
카미
개입
결합
##무시
누나
전철
스승
##코토
후방
기적
##법원
##LL
유이
해안
토르
##ome
활발
동화
지진
미소
헤비
사도
수익
슈팅
다음날
천재
정수
Gr
불교
##공학
연구소
해상
##고속
경기력
내세우
##머스
크리스마스
치유
with
김민
우연히
##전대
사이즈
원칙
루시
스태
##BA
최종보스
유물
디버프
##지사
이영
##그마
털리
##UN
시계
루수
캐스팅
자금
유치
보고
캠페인
개막
트랜
통치
커맨드
연료
김종
오래되
스타크래프트
사막
데려오
이민
세포
이글
비추
디아
##범위
컬러
##싸움
##비드
선출
위대
IS
지위
투명
칭찬
의회
으라
인지도
게이트
결말
##일보
회상
메뉴
충성
하야
전성기
이자
해적
##양함
1987
플랫폼
업체
##리우스
추가바람
de
##데미
녹색
전멸
##비치
BE
##우리
흔들리
##방식
px
정찰
어지간
140
열쇠
김동
오카
나치
정비
겟
이정
눈치채
##MA
구사
Pr
도서관
미나
흔적
##말리
##테르
거인
이식
상태이상
신비
##ord
무작
Love
방사
##어서
상급
어쨌든
자국
오직
일반인
새기
호위
웃음
##ud
주기
어마
취미
##타카
작화
구경
##주의자
지속시간
포트
제정
고수
네오
농담
후계
대대
프리큐어
안경
어려움
레이드
##마리
사이드
ch
날짜
화성
으시
도주
##멘트
챌린
행적
본체
패션
회말
개량
불타
##mp
##주민
고스트
모조리
매년
##사람
스틸
거점
하락
대리
##10
사후
당일
생존자
모래
##ame
UE
##반도
##ance
개수
의대
니코
SKT
##ax
남북
네트
로그
상성
진보
코우
동굴
자세히
an
##려나
코코
스마트폰
아이스
JR
가짜
##ure
기울
일본인
흥미
##ix
900
##회장
GS
관중
시달리
##시스트
기르
##문학
메르
##기업
##ick
누리
##mer
비례
브루
채택
캡틴
일방
덧붙이
국적
개혁
식량
몽골
##ice
포격
아티스트
가을
예시
임대
아미
스프링
##게이
업적
재현
##our
화학
##음악
Bo
행하
레이스
유나이
유니폼
##월드
궤도
귀찮
방지
기용
런
영구
바깥
잘못되
울리
루이
집어
생겨나
피아노
승점
##버스터
연패
스톤
##아다니
EP
노인
식민지
소속사
1986
추구
##지르
협상
거듭
##위대
날아오
리드
볼트
##로디
미안
자리잡
##인민공화국
##랑이
잠재
자극
##투수
사형
선택지
1960
다름
단편
특집
##역사
OST
양성
신부
무방
신앙
##류탄
데모
저작
잡지
이익
엔터테
빨갛
KO
야스
##{{
Un
제갈
예수
취향
공원
할머니
종목
##차량
쌍둥이
간신
중장
##버그
스턴
라이온
Ex
보라
아즈
##시험
비주
출입
제작자
일치
프라이
기병
소장
스트리
넥센
##개발
소위
명확
##AD
정원
##그라
##qu
타인
전주
무역
캐리
강요
ᆫᄃ
어택
몰락
포항
##럼프
예산
그러니
##oc
다치
총선
사신
{{{
콜라보
안타깝
잘리
판매량
유희왕
즐겁
그만두
사우
##처리
막대
포로
##80
타락
조약
##우승
가상
실망
터뜨리
GB
##학원
재산
색깔
곡명
찾아내
##라엘
크라
UEFA
##자치
##센트
연승
단단
화물
세이버
##레벨
슈
깔끔
기도
즉위
##병기
휴대
유나이티드
DS
##버전
귀환
비상
186
##own
##도로
칼리
초보
sh
##거지
##ys
##블린
##작전
포르투갈
백성
너희
신장
챔피언십
아마도
CPU
중독
미루
색상
##터스
클레
게시판
블리
드라
##테일
ᄇ시
명단
래
아카데미
항복
##든가
##수사
공성
##ber
식당
고구려
외전
미스터
##레일
김재
강원도
통산
인격
등지
베네
##레드
유적
칭호
항공기
조별
##이너
적합
We
AM
구석
##슬러
커다랗
##교사
아쿠
로고
교장
사라
중대
타율
대선
김대
105
하단
새끼
건조
##av
##OC
둘러싸
일명
수장
오타
유효
탈퇴
교류
카트
끊기
레알
##old
커리어
포위
탄창
커피
무지
시내버스
.."
타수
로즈
인치
체크
호수
고작
개국
CF
흑인
면모
공무원
반사
마키
LI
추억
측정
그러니까
##orld
예언
##인간
나무위키
##로봇
박히
구글
포수
라인업
기종
주사
후술
자폭
기생
라스
트라이
히어로즈
휴식
지대
상술
아저
##드리드
적당히
다름없
용기
##학과
##시절
흘러
저런
배터리
화장실
마약
고맙
사유
메시지
과목
실전
일기
##여자
면적
데드
승객
다스
성남
1984
##같이
##고지
아메리카
형상
차이점
선고
주소
##ont
1985
마비
더럽
반동
리얼
최신
어이
국경
철수
##려들
남녀
아랍
매니저
근본
##포르
187
도적
보존
##번트
SH
추종
##유럽
##어마
증오
피터
3000
승률
용서
강도
매장
한글판
소프트웨어
##축구
하차
##폭탄
AD
##ies
떨어뜨리
LC
사정거리
DF
급격
입지
메리
서포터
아서
유통
크리스탈
만명
후원
또다시
##에르
이슈
마드리드
lo
치루
KBO
본사
##베스
관람
미라
부각
도끼
서구
미묘
영주
연예인
시너지
##동물
아르헨
후배
토끼
생략
쓸모
아이콘
아테
집행
##통신
루카
잠수함
데려가
후손
액티브
It
부지
##lay
주역
네요
자전
XX
중첩
이스라엘
##경제
꾸미
왕위
허락
##여객
언더
그랜드
천만
저렴
마린
##기지
##비디오
중립
##본부
기아
##사무
동성
뜬금
오랜만
네트워크
공세
상단
클랜
기량
들키
튕기
총알
##하면
이수
아케이드
간신히
##페이
음모
##OD
신사
무척
MF
##걸이
##니시
숙련
수류탄
##포스
방어구
발행
마술
##US
서식
##슬링
글로벌
부딪
거미
배차
생년
취약
##모스
관측
구르
##산시
터미널
상인
텔레비전
알아내
해피
물리치
혹시
마주치
흡혈
CV
가만
회초
블러드
##카오
자막
맛있
상실
##라기
##크라
아이언
WWE
창원
행보
곤란
일족
##디스
##다운
.....
학자
##PM
법정
##ann
관찰
아틀
공룡
논의
지경
금융
바퀴
머무르
##사이드
스페이스
NE
사귀
수출
애정
아르헨티나
재정
어마어마
SE
나폴
자본
강등
아시안
소라
이란
곳곳
##40
##타운
오버워치
타마
##사랑
잡아먹
고위
파크
이마
##마스터
125
##pe
##도리
멘탈
텍스트
##30
##태우
깨어나
대수
슈트
인종
잡아내
간접
공방
내보내
관점
자이언츠
침략
경상북도
##체육
라기
결심
스트라이크
철학
시노
문구
차기
격추
단장
토벌
리스
시마
##sh
유학
표지
your
##하마
되돌리
산하
##전기
##불명
악당
##그나
던지
기숙
하루카
##NA
중세
위반
##노트
오크
앨리스
##신교
트랜스
가동
상관없
소스
##그래
김현
백제
##기구
정화
찍히
평생
상영
헤어지
얻어
약화
##VD
정차
연합군
냄새
CJ
연금
메달
미터
AS
니콜
##에이
##란
충실
타선
이혼
안기
드라이브
언덕
쿼터
금방
파츠
거울
##어하
드래프트
##벌레
에리
엘리트
DE
##월일
##승부
동인
간주
와타
##싱턴
담배
서서
##ng
보호막
강자
낮추
##io
스플
성별
초록
문재인
배포
##사이트
침입
뽑히
빠져
소
긴장
묘하
상기
스팀
제작사
반전
존재감
인민
구리
루나
다카
주둔
본부
호기
내전
##검사
상세
로우
야생
##젠가
기관총
마법소녀
복구
##너먼트
;&
엮이
백작
##아키
##바닥
정기
##공간
언젠가
에요
해치
제출
티켓
판결
폐쇄
##oo
양자
제약
화재
##팡이
동양
천안
균형
레이더
지불
후계자
재밌
악명
짜증
모시
170
뮤직비디오
Pro
이듬
엑스트라
조연
##누리
로버트
부적
은신
##터미널
잔뜩
##히코
심사
표면
두개
전세계
펀치
유력
지뢰
##바나
불사
##열차
##하르트
에르
세인트
저택
##ave
##전선
뮤지컬
##포인트
맥스
행운
백인
업로드
변환
프로필
에다가
답변
쏟아지
경주
매체
##LE
##구장
뱀파이어
소유자
##스럽
사쿠
프란
휘말리
인용
LV
계통
윈도우
합병
##훈련
위성
심심
스키
that
##운서
뜨겁
본관
천하
체결
UP
해명
##방향
태평양
프로토스
난입
정황
생년월일
헨리
부임
##방어
분명히
바리
브로
코리아
창단
유독
히나
임신
##ION
라인전
동점
##주교
##쿠스
건드리
노동자
금메달
상관없이
캐논
부자
##ream
선두
보완
##플렉
려던
ED
1500
##가루
구축함
견디
괴수
호칭
EN
잃어버리
다니
용인
디지몬
우라
오라
내지
와일드
수백
한나라
공허
대인
말투
악화
서번트
해골
정예
이듬해
항의
다이아몬드
외계인
하향
##갈리
전승
개설
준우승
##부로
##ond
미쿠
1982
영광
전파
호흡
어뢰
->
살펴
선거구
##르타
여우
찬스
살펴보
바이오
발렌
끔찍
유발
통계
착하
경로
##체제
##iss
Com
머신
5000
딜링
##다나
##국제
도루
칼날
왠지
삽입
기믹
뛰어넘
카스
실종
창설
##하시
##드레
민첩
스크린
지치
돌입
부드
##재판
##레인저
파르
##슈타인
##이동
참가자
유인
아저씨
혐오
막내
마루
호환
##코어
간격
인디
존경
그렇지만
수호자
##대원
##중간
집착
걸맞
여객
사살
성질
##래
1950
법원
도박
미키
##즈마
##블로
시상
##IP
##11
정통
청소
채팅
기숙사
단축
토너먼트
트럭
허가
사원
반박
경남
##전투
아츠
수면
주차
배트맨
드럼
##중앙
낚시
1983
깔리
##니카
우정
감추
전북
##60
이종
##ian
##드립
??
by
동명
시원
아나운서
디젤
he
##다보
싫어하
##쟁이
드라이버
##나리
사용자
세븐
께서
부드럽
기상
분쟁
##디움
문단
요약
버스터
기름
##레이크
퇴장
##장비
철저
라틴
진압
용량
BL
##키스
물고기
건국
탄환
플래시
분신
&#
완결
로얄
##고속도로
작년
자녀
##페이스
##카이도
go
입대
전제
덩치
##토르
불펜
그럭
미네
##파크
중력
탐험
관계자
스텔
##저럭
경상남도
공정
만남
선제
원딜
트럼프
조이
리뷰
갑작
분열
스위스
##런트
펼쳐지
시라
##세서
그럭저럭
오디션
배정
중형
웃기
제트
##Hz
모노
이토
안녕
노벨
##TV
미만
카와
##토미
##마르
국군
적중
##노리
사이버
##후반
아키라
아동
##사리
학과
평양
나츠
그린
##틀러
벌레
유격
호소
##유닛
헝가리
##세대
더이상
##ory
소속팀
깨달
축복
비주얼
##TE
피안타
이와
구름
태국
##ace
##시즈
단행
손상
##rom
또다른
어빌
##키지
신전
Co
유전자
리타
웨스트
콜로
무관
샌드
인질
도둑
Bl
스트레스
배역
##동자
##마치
##텐도
발리
침묵
익스
코르
어필
;&#
휘하
기운
대거
##필더
야수
DVD
##정책
Br
감각
트롤
##베리
안전하
급하
워싱턴
교차
고도
토니
어그로
##먼스
발굴
학력
하이퍼
##야수
스위치
기동성
트리플
드롭
승자
##계열
옹호
진학
##키퍼
위안
상식
주자
Or
근거리
##패스
##화점
본진
두르
속이
암시
커녕
갈아
영어판
##oth
공격속도
부스터
복제
##ows
두들
##데드
결투
무시무시
크림
장거리
솔직
카를
마디
##셔널
동남
##MP
안나
재단
요인
신나
날카
세부
삼각
미드필더
이펙트
지라
##사거리
간단히
비치
팬텀
##돌이
##우치
##투표
##차기
후퇴
파동
철거
협회
시신
감지
##TS
처지
보스전
밀어
주니어
시카
할인
망가지
##미터
관리자
무작위
치즈
큐브
공산당
요금
차체
동급
기둥
우에
출격
마블
##워즈
##크리
##예술
루비
괜히
##제도
한반도
열매
##IG
블라
논문
개발자
##틀랜드
함수
##단지
항구
CG
바쁘
더군
하우스
무사히
##aw
185
날카롭
발매일
올스타
테일
##코스
##지수
##조직
파편
기재
##공업
최상위
독일군
##기어
##라이드
마감
수능
실책
간간
야마토
레지
즉사
연습생
끼우
과도
국정
##ale
SNS
보충
##페라
지칭
부근
마케
PV
##미르
파생
원리
에서
장탄
록맨
논쟁
##ike
##자동차
타쿠
온도
##즈니
기세
특별히
더군다나
아쉬
약탈
상륙
영원히
개별
1945
후자
증상
루이스
유성
Cl
성당
임기
선행
페이스북
인피
For
구미
소요
무인
진주
대치
자전거
막판
무산
내일
축하
퍼포
피우
RPG
부장
학문
##사우
매번
왜냐
안양
세계대전
흰색
##OU
여러분
오키
##래시
##메가
방송국
Dr
##지만
##하루
만주
데이비드
유산
모토
요한
첼시
암살자
서서히
배출
놀이
##ep
##종합
중복
출루
소음
중시
##기록
에그
구슬
##irl
선조
동경
악몽
##자와
##man
임팩트
근대
주류
최적
중국어
신도
##ach
##ile
175
##든지
영지
에반
1981
우세
Sc
BB
##부인
수비력
OP
슬프
승인
과장
102
그날
교과
교실
필리핀
스즈
117
조리
신발
##히트
##피해
부착
골키퍼
##타마
세번
베이징
코미디
노스
##12
Team
106
만일
##하이
프리미엄
끌려가
이브
과학자
##VA
수명
##네시아
LA
일당
플래그
##ink
그레
Sk
잠입
며칠
미즈
사사
고객
브라운
의외로
Mo
금액
페널티
ᆯ게
복무
악기
GP
감싸
무라
멜로디
권위
가만히
교토
라면
라이플
헬기
지리
챌린지
프로토
코난
천연
DD
##어놓
위원회
싱크
115
ᄇ시오
권장
##이어
김경
베타
연맹
퍼포먼스
물량
미나미
##법인
구별
마다
청와
닌텐도
카츠
여야
스트리트
원형
고개
질병
공용
소방
진격
잠들
장인
##모함
##ial
해킹
전망
FM
##숭이
건네
놀리
##렐라
##ish
가방
언데드
귀국
##클럽
SU
여인
1979
부실
엘리자
가공
냐면
규격
청와대
개신교
좌석
UN
디스크
대조
파란색
##의식
##아트
엔젤
직장
타석
만만
최우
응용
##릴라
선임
오스만
당대
한두
에릭
옵
억지로
오마
김진
시그
억제
법칙
한일
육상
##루미
새누리
합계
뽑아내
프렌
##우라
인권
##ower
안개
취득
신입
학부
가루
치킨
다가가
가죽
통화
왜곡
토리
양상
행방
지팡이
궁금
여자친구
입주
이웃
##라이브
가디언
헤어
##오루
##II
더러
Bla
아이러
사립
패널
독재
가라
긴급
시리아
명백
##저리
일화
제독
회색
김상
방치
콘텐츠
체험
연령
계시
이터
후임
##바야
야간
혼돈
##키리
대단히
마물
기갑
##슬라
공백
즈음
##GE
캐스터
동계
프리미어
##여행
##로이드
양식
야구장
출구
##계획
해내
강점
원조
노
하츠
커스
이란
##우트
고장
##공주
##호환
수동
부동
주관
수급
##계약
CH
김기
일람
전무
##조합
변수
고지
경직
we
임금
확산
재회
클릭
모스크
끊임
BS
##IM
부서지
Ne
공수
처참
##!!
우르
감동
Star
##업체
관여
여학생
마우스
##체스터
랜드
평점
모로
발목
싸이
코멘트
나나
오염
시합
부산광역시
##포드
비틀
기후
조상
독점
슬로
비웃
로빈
##저기
돌연
##천군
전라남도
포켓몬스터
PR
기동전사
미국인
##차례
장신
ID
##노선
사법
##베이터
뒤지
호랑이
##어드
질투
타이거즈
조롱
생명체
스파이더
화산
통틀
##만화
##번에
가요
Wind
공화
기쁘
사이코
##전설
대포
ᆫ데다
안좋
감상
350
##리포
##카락
깜짝
에디
##슬리
##99
두
일본판
임의
##소설
과제
내각
공립
교도
손오
엄격
택하
up
##민족
우주선
카운트
평일
데이트
풍부
분당
소송
유언
폭행
출간
청주
개장
피닉스
##마츠
리오
##야스
LP
등번호
함께하
##자료
##라이즈
마스크
서클
DC
노바
승무원
파멸
나비
War
격차
##배치
분해
fe
And
##나이트
약물
복원
전남
체감
##사단
신자
어떻게들
남매
서포트
배달
메이플
상한
##세력
카구
머리카락
##구미
도저히
정발
##ass
조기
어드벤
뚫리
추방
##티어
손실
토지
##구조
라이온즈
뒤늦
##ms
##me
모험가
성경
360
Man
테라
치열
아레나
만지
오로지
에픽
시크
재학
원더
112
투사
바르셀
질리
장미
고소
조용히
배급
특전
극도
##기능
##정치
디바
##전문
마코토
##gh
구성원
나노
중량
따뜻
사용시
이라크
티
리버풀
조명
##CG
천년
##렉션
다운로드
시인
##진영
프레이
##리스타
뭉치
108
##모델
##하하
All
박물관
유기
나마
인력
집합
그중
AKB
권유
##아프리카
디즈니
소용
캠프
##tle
스탠드
##pp
고블린
##ble
분포
##amp
경북
##업자
묶이
스펠
일요일
##를린
세라
중순
넘버
반감
바르셀로나
##려받
##ft
충청남도
마냥
패전
추리
##천사
창고
안쪽
##바지
해산
증폭
지목
단종
##소총
103
상하이
합리
하마
극중
보이스
레스
루머
수월
붙잡히
##데타
비유
트위치
출범
자꾸
축소
##yle
딜레이
##센스
##70
인방
루피
##ous
폐기
##코프
당사자
학기
기력
어시스트
막아내
조우
##코치
##상황
세금
수직
타츠
##now
##제한
##atch
서머
##후보
##sp
전대
##혁명
##케이션
넘어지
One
킬러
넘어서
투척
Mar
이나
집권
본토
불행
##orm
기묘
##스티벌
전당
벌리
자비
얻어맞
수색
폭파
New
To
학습
ON
##민주당
여파
직선
승진
##수리
##히토
세팅
##방법
주최
##란히
김용
ex
무승부
##사격
세뇌
패키지
꼬이
##차이
장사
낙선
나루토
대기시간
IN
야쿠
순환
막상
물체
범죄자
던가
##간격
BR
모집
농업
경악
Part
절차
후회
되살
유의
##블리
KR
키타
부딪히
반짝
수석
가난
두렵
배제
Gam
##레인지
채보
살아나
SF
##토니
##모어
실현
토요일
비명
국당
유출
까이
하나하나
복선
##ING
광산
당당
함락
수립
잠실
집어넣
극히
헤르
CS
##반기
손자
우호
ᆫ다거나
##비용
엄밀
워커
모듈
좌절
일렉
##트론
포드
리스트
##위원장
토큰
비극
우월
우익
파울
결전
산탄
선사
오이
복합
##장갑
##ment
##생기
PP
하여
##테스
해병대
명목
블래
실시간
##ae
중동
##관광
무술
인접
제네
##64
수비수
##자체
유재
자책
메이드
128
이동속도
지향
빨간
##트릭
장탄수
배려
나요
나르
한국판
##ase
기호
동아리
하인
지연
택시
레코드
스티븐
마땅
##카미
##ree
피트
조커
중화민국
쳐들
유망
되돌
##리
생전
모
##아들
안심
분산
닉네임
루크
수염
달려가
신속
동반
짐작
김해
##버드
히틀러
핑크
철권
불량
엔드
의자
En
##장면
태풍
울프
서울시
제갈량
크레딧
와카
때려
##느리
##게이트
드루
슈퍼로봇
사회주의
양손
캠퍼스
연산
확장팩
1978
기부
네티
1973
ᄇ니까
각오
상담
##리포니아
주택
JT
웨이브
여섯
날씨
함부로
각지
##미네
히메
암호
역습
바론
##뻐하
기뻐하
합동
어쩌면
184
근원
조카
##az
케인
##bo
돌보
마스
유니크
거론
처분
##라라
센스
제치
동해
벤치
##키스탄
그외
##깨비
아가씨
스타디움
저하
보라색
뜬금없이
첫째
AN
오락
유전
공격수
알바
호남
World
##ason
구장
호불
##사스
중후반
##AY
111
매출
방탄
수습
체중
##놀이
##데레
220
이글스
힙합
도시철도
오브젝트
##iki
초콜
고증
##도라
호불호
여럿
명의
캐시
##저우
교단
183
사인
대성
배드
말레이
공업
샷건
##기에
퇴각
트라
거칠
로이
여전
짐승
스캔
JP
트라우
시상식
혈액
사무실
낙하
여의
깊이
유미
온천
난사
##르드
##지기
사키
원시
중상
##스레
여기저기
##ear
So
##러브
거든
##실점
##성군
추세
사야
##장군
검술
네티즌
마계
##규모
공인
##hen
카자
흡사
갈색
보드
캘리포니아
빨간색
스나이
240
조르
꼬마
빠져나가
##운트
##스타일
노란색
하계
동서
##아아
##나기
레일
찬성
탐사
막강
##아치
##MS
##생명
조회
명문
sp
평하
##립스
장난감
퍼즐
심의
모니
네임드
##토리아
사이클
박살내
전날
날뛰
시공
##사르
##are
프린세스
노조
케이블
려다가
FW
토우
장례
공감
밀어내
포장
두들기
맥주
썬더
차갑
장로
하프
토미
GO
골렘
체인지
트루
올드
ᆯ려
포획
##직자
견해
유혹
이세
베를린
아베
터널
매주
원문
인자
##신문
키보드
강렬
경호
세리
연봉
스미스
##가다
호시
타이탄
훈장
##추어
개척
번지
핀란드
드론
1974
구조물
가두
돋보이
스쿨
##헤이
감수
우유
인재
샤이
오메가
뮌헨
스코틀랜드
tv
프랑스어
이모
사로
통로
포스터
당기
히가시
##냥
물품
일가
마냥
베어스
그랑
아이러니
베테
마오
벨트
트라우마
고로
##환경
##라딘
후반기
http
우측
트레이너
##범죄
##주인공
진상
김준
주행
1972
신용
조선시대
보건
키미
책임지
끌리
##반대
##90
트로피
##ven
비스
성씨
힐러
소니
##ife
시종
완공
##스토리
흔들
전락
통칭
토마
말기
https
##의자
사퇴
위로
결혼식
토대
콘솔
##건설
서바이
튼튼
진급
원곡
허무
배수
##ade
가담
혜택
왕실
왕복
코트
학생회
##AP
##맥스
##상자
Wi
트리거
##연구소
체육관
강경
밀려나
##츠카
이순
신데
토크
로맨
중지
##차리
##머신
시카고
이경
##미사
##구간
다투
스즈키
##요소
##무부
행정구역
트윈스
대령
잭슨
스텝
연쇄
중부
##요원
동행
베리
쓸데
##act
##버스터미널
MB
~!
나아지
##레오
##ai
##게이머
##ank
##gin
드로우
##어트
버섯
%/
덴마크
유입
박살나
포스트시즌
바둑
do
시비
압력
고리
센서
##aby
플라이
목사
최저
천천
리즈
아바타
산타
##소수
부작용
국도
코믹
재개
인도네시아
104
한창
라니
##도사
##out
수여
단행본
탐정
##캐릭
사악
청나라
##아메
상주
Fate
no
이점
영감
교복
소재지
손꼽
시바
대시
타일
##선생
히든
렌즈
백업
##산역
##무스
##에른
실내
##퍼드
깎이
넘어오
손쉽
제물
김일
시로
워크래프트
이누
1975
배차간격
민주주의
프로듀스
##보호
##타리
##명사
도라
되
##테이
대책
##lect
어벤
##그르
트레일러
LIVE
간간히
##미아
도덕
넉백
##저런
123
기수
벨기에
징역
설령
리처
신데렐라
세월호
##페르
##므로
쿠데타
탐색
##보우
##총장
침대
끊임없이
##ET
포탄
등극
범용
을수록
입자
폴리
해양
##oll
전동차
약자
실상
NH
페스티벌
끌어들이
##바야시
입문
관통력
반도
일주
##치아
##른바
대타
##UM
Up
##루션
노무
OS
이른바
그레이트
업계
##탐정
장애물
##액션
1976
필요없
여타
##더라
##사우루스
마피아
are
재직
알렉스
레온
전향
스타리그
신중
III
##ork
다스리
성실
이런저런
우승자
오우
토키
원주민
소금
년도
이어받
섀도우
최선
노르웨이
창문
그러므로
깃발
클린
알레
##소스
Do
듀오
##ary
##에어
왼손
콤비
장성
커스텀
거북
Oh
공통점
왜냐하면
부재
##way
침투
우치
##타르
아스카
카더라
피스
신선
홀리
마일
##이치로
이병
일간
캐치
119
끌어올리
밀도
츠바
따라오
전격
초등
참모
후일
##프라
브라이언
맞붙
불태우
##조선
##틀리
특급
디시
##ey
관우
##ich
할리
모스크바
이현
해머
동력
사로잡
다지
##께끼
135
스트라이커
딸리
109
베테랑
엔지
시호
올바르
##시기
수수께끼
장남
승차
ES
발명
##조각
슬라
박정희
주교
강릉
##대교
Mk
으려는
김수
비전
##장애
아이디어
##생물
##세기
왕비
탄핵
저자
##요리
##상시
중화인민공화국
초인
우스
중고
변동
이대
바이올
확신
잔인
##으로
보험
콘스탄
##대기
복사
바이에른
소통
릴리
스핀
입증
Ad
꿈꾸
사천
계수
##그러
##아라
능력자
당초
다큐
기구
단발
페미니
손오공
땅볼
lv
형편
한나라당
대학원
재건
프라임
유연
클라우
##레일리아
코스튬
all
##물리
Day
##체계
규제
드림
패널티
포즈
명분
친절
피로
AFC
와이번
##루트
##다드
유망주
구동
보스턴
##무지
전송
광선
고종
점유
중위
##군가
후미
##로프
##란트
위엄
부유
##올림픽
아비
nd
천천히
우울
##변이
실은
굴욕
아시
##pt
고는
182
##리칸
##대문
어드벤처
##orn
흩어지
오더
초상
폭스
브레
비비
대전차
선수단
고무
슈퍼로봇대전
##라가
대접
소대
갑작스럽
쇼핑
모니터
##레옹
##지오
##통합
중거리
스피릿
상무
선장
억원
강간
조종사
도트
쇼크
##가포르
레인저
글씨
양반
근접전
##이사
주일
토요
프로게이머
어색
친분
구상
아스트
##운수
클론
중심지
충족
케빈
수하
휴가
센트
##시피
##지능
121
삼성전자
취업
초콜릿
리카
영양
일곱
##나베
1971
오페라
싱가포르
마틴
Windows
나폴레옹
홋카이도
##사령관
항해
광물
##링크
토마스
FF
라그나
달아나
방송사
대동
검토
광장
소련군
머물
##로마
스탈
리라
145
열정
개교
107
##라미
##부키
파밍
일관
##렌지
무공
레벨업
유료
하급
검열
어나
패밀리
="
결제
세로
RA
##모노
##네마
광기
##토시
우회
독일어
강전
스마
크라이
비서
강림
도쿠
구독
무지막
1977
엑시즈
##ah
##EM
##민주주의
단검
기울이
동전
##연맹
크레이
선박
맹세
##구청
DP
천황
으라고
까지
쫓겨나
##뉴스
##사장
산맥
하이라이트
##바이트
공헌
##바시
발레
잉여
ML
##노동
씌우
사촌
출산
AA
망명
터트리
연설
엘리베이터
비기
손님
의학
##very
##론가
무지막지
모임
표절
##uck
부패
게이머
총합
그후
발판
봉쇄
임진
보좌
타이틀곡
##불가
누군가
흑역사
현금
##떨어지
##아스
##복지
관료
자제
고집
해병
여포
##사용
대왕
황후
겸하
찰스
ne
여서
엔트리
극대
잊히
국제공항
IT
성배
이대로
본질
토시
##뉴얼
생체
경연
지역구
소모량
김포
할로
br
쥬
감탄
##ph
##모습
Sw
지붕
DPS
##이나
포도
에이지
BPM
농장
도깨비
디펜
JTBC
창립
자존
시뮬
제왕
리틀
대변
210
##정지
토하
평행
조국
간섭
전라북도
인게임
178
멍청
떨치
질서
##ero
페어
화해
지인
##인드
##성능
스태프
몸통
프로리그
1969
로리
면하
113
그릇
인칭
".
##플러스
카리스
오스트레일리아
대박
안동
트릭
노무현
무실점
##테이션
##ool
토트
레이블
압축
##마귀
##서스
천장
외우
음료
165
리처드
스포일러
##세포
##지점
##왕국
##군
1968
품질
유격수
1963
일리
메카닉
맨체스터
##ical
철저히
동아
##오버
스티브
라이언
손꼽히
분대
여러번
힘입
불쌍
바나
중점
민중
주축
역량
NBA
태클
시골
냉정
카카오
김유
혈통
저렇
체코
##urn
꺼리
마그
디자이너
##ype
Ph
##ARD
##클리
인천광역시
##방울
Con
홀드
안나오
2021
정석
파랗
##드래
페르시아
슬픔
바지
##anc
고고
블리자드
아깝
변태
데빌
걸즈
에버
군수
카메
나리
임하
깨끗
다이스
정사
에드워드
##작가
드레
##대왕
수인
매니아
병역
조화
{{{#
##거래
은지
실체
광경
히로시
박지
변이
동정
##은색
155
도장
신동
파티원
타운
입사
존중
운송
제재
Cr
와인
##ung
출혈
닥치
엄연히
위원장
사우스
열혈
날아다니
이라도
호의
의장
김승
명시
물어
OVA
##조작
답답
울트라맨
변장
코토
##태자
국어
우루
하스
예약
앤드
방위
종결
사리
##세트
122
Qu
납득
연간
초능력
마유
모순
서울대학교
조별리그
매드
말씀
##소나
##티노
이오
##아메리카
Station
단원
181
##드컵
개명
주체
##저항
##행정
마라
##끼리
시게
TVA
뚜렷
압권
##미나
##히메
훼손
너머
스택
모형
광명
144
결계
마산
##속기
주사위
초청
미궁
얼티
파도
명명
이단
##위치
엔지니어
수천
스폰서
드레스
보편
LO
애니판
오지
존스
스노우
프로레
질량
##ww
엘리자베스
카지
절친
한가
미미
청구
아인
KOF
주목받
강민
소집
촉수
##앨범
해소
강호
금강
플러스
헷갈리
##즈카
아오이
##iver
제노
오죽
치안
##판정
친척
챔피언스리그
장타
at
메이지
애칭
이원
지분
방심
작정
쓰리
사투
##사무소
셔틀
##철수
토스
투쟁
##DD
##텍스
그립
152
가설
마에
테이블
덤비
셔
화상
박성
어이없
타구
패자
에로
드래곤볼
프로그래
love
시사
프랜
지력
##멘터리
이틀
##주자
##모션
##ens
이동속
과자
##노스케
좌측
스케일
이명박
강사
좌익
퍼스트
일주일
as
민간인
롤드컵
신학
교리
편리
##시스코
##ost
##중심
액체
사연
신하
기하
재앙
향후
##드러지
TR
자칭
트래
테츠
아지
포터
항공모함
블로
직책
턴간
도색
부속
빌딩
마술사
매각
114
미성
멋대로
엄밀히
낭비
검증
용암
유니버스
##ence
1930
일컫
스쿼
인스타
##마니아
wiki
애쉬
아마추어
이케
##트랙
학위
어나더
지혜
과일
##리스크
##운동장
##려워하
스미
IM
##nt
시간대
##산동
마음대로
사명
##극장
녹화
변명
발발
백만
선진
##리코
초록색
사무라이
##과이
##비행
외곽
신지
from
샤
노가다
##ise
습니까
로보
##젤레스
의정부
##int
히카
돌연변이
모델링
우연
옥상
완화
몰살
알아채
나미
1920
브래
작위
정성
둘다
라스트
##상가
##동맹
에미
179
분할
시조
기차
선회
실사
!"
달려들
성분
텍사스
##AK
##하여
석유
죄책
어스
##돌프
잘못하
원피스
씨앗
통째
##국민
인공지능
Super
션
오케
국토
##의사
총독
MG
매달리
Fr
1940
BJ
##시민
can
거스
엉망
##oy
고등학생
##엔딩
불참
아자
버스트
집계
##진호
유엔
아쿠아
슈퍼맨
제주도
www
##ign
정반대
CM
플라스
몇번
침몰
적절히
한국시리즈
리스크
기본기
미오
정신력
자아
##르도
##ans
아담
비스트
유튜버
계층
어설
이어서
177
은폐
발탁
아처
##도전
휩쓸
##시스템
##아머
중원
죄책감
피카
##수단
목걸이
최종전
저기
##ug
전생
Dream
들여
##가수
카네
코노
덮치
탄압
식품
##가요
다거나
실용
남동생
혼인
스카우트
##스크림
워프
124
추후
상사
##바스
중구
1967
때로
다시금
생김
총장
착륙
참사
억울
##바다
좀더
##인사
이윤
오른손
##물질
127
그해
원숭이
##말
##직원
USB
챔프
감자
##이후
감당
흘러가
아무튼
격려
극한
대구광역시
뛰어들
오노
인벤
지장
플랜
갱신
##보병
발키리
인성
수위
아리아
this
##IR
##캠퍼스
##대신
##질랜드
오렌지
이태
##등급
1200
최순
##공장
아스날
##vel
수감
##워프
##레이트
450
만능
무용
##자원
안무
투기
연전
리퍼
도심
저서
##차별
원전
동성애
빈도
중국인
대위
용이
구형
더빙판
민감
에도
고아
문양
마케팅
내버리
히로시마
욕설
각인
ERA
##ode
폭격기
곤충
신곡
비우
##결과
##uk
##대학원
컴백
##VER
분홍
이세계
바디
##매치
##뱅크
##시청
##고생
유탄
발각
이타
이별
##엘라
Fl
사직
##고사
Pl
오다
산소
조차
천명
풍기
표적
잔혹
##말로
마하
물려받
Ver
메시
##부르
상금
성전
제니
공속
망토
시크릿
녹이
##부리
##베트
CE
내외
진에어
이노
뉴질랜드
관장
왕족
합작
터보
그러면
스컬
정밀
이온
##클린
급격히
##베르크
애완
궁극기
가구
블레이
시외
뺏기
##마사
전이
##치오
진동
리프
소비자
박수
##끔
게끔
##모르
EC
메일
특공
마찰
시트
취재
리모
발급
EXP
카리스마
아사히
결의
용자
##도서관
style
##하우스
##사진
에디션
##ᆸ시
젤리
##파티
가이드
서방
대세
유재석
초점
정점
일체
실존
리나
##당초
##ier
얽히
개구리
맞히
도약
경사
면허
부스트
측근
##기스
코스프레
자네
지오
방사능
독립운동
호러
신한
경부
김구
Sch
##일본
격렬
선포
Girl
Season
##도어
두드러지
##카스
오죽하
대차
골프
포탈
군요
명나라
1962
##먹이
##ash
IP
만점
협조
유우키
##기준
ar
맨유
카테
메이저리그
잔류
La
농민
후쿠오카
DM
헬멧
청춘
##학부
연소
NO
162
##테크
약혼
피지컬
##스트로
선동
미러
이빨
절벽
황당
tr
서명
##스틴
118
##폭력
##박물관
##우주
##와라
##와이
연동
치
궁합
페어리
그루
반성
WC
##군주
수신
이놈
아이디
이사장
##장소
한양
불러오
호드
##reat
1966
##순위
##IX
정규시즌
종전
친애
흡혈귀
선로
기질
벙커
아랫
##노미야
고립
##헤드
기동력
유카
이소
잠기
복지
##ib
혁신
벗기
미정
##왕후
자존심
점심
중견
에메
철도역
한하
314
돌려주
러시
##보기
벌써
오퍼
부작
지선
생김새
기리
유진
##usic
모욕
Max
위쪽
질주
흥분
일조
유아
반역
정조
거세
사방
대피
할로윈
트릴
사수
##구니
##베리아
##밴드
고난
하사
750
모종
##무늬
##렉터
요미
징계
레이디
##백질
춤추
스매
예의
1964
부천
##백과
디스플레이
##당기
머
미인
국방부
로렌
쉴드
래퍼
##제품
주석
마야
미노
리본
##ᆸ시고
그간
한강
이이
##글링
정문
부러지
한꺼
월간
Vol
##금지
TS
금요일
아포
##그레
수중
이용자
DNA
##국어
가위
리사
망설
문신
침착
스파이더맨
다니엘
##세지
토트넘
파운드
집회
교과서
사치
루프
##폴리스
스나이퍼
필름
Ed
화폐
##전력
##캐릭터
기소
각도
##}}
무지개
--
빙결
강대
##ose
ld
##대체
그쪽
서류
천상
서열
교역
카운티
우두
탱킹
김지
아유
건지
##바퀴
##니즘
리코
적시타
이야
AV
자이언트
갈라지
능가
##우지
한꺼번에
트윗
두려워하
부동산
##데미지
노랗
김주
방안
원로
amp
소생
왕가
자율
모터
Col
##니스트
서적
종로
통솔
블럭
##te
so
기껏
현자
GM
경성
중소
네크로
여자아이
서기
HE
오만
홈경기
도감
진단
##해자
샤오
여태
극심
선원
욕망
츠키
##ail
##msys
##플러
부끄럽
영국군
##ition
ldmsys
##발전
불길
내셔널
섬기
팔레
사물
모음
남동
테마곡
함장
유고
애인
출판사
학급
평등
환생
다녀
rd
서울대
탈환
숙소
##시내
Night
##현상
태생
충청북도
##칼리
##안전
##닐라
바텀
판사
##공개
BC
혼합
##들목
초과
워리어
상냥
키요
스탈린
학년도
직위
not
특수능력
알렉산드
필사
##기념
##오피스
재즈
계절
줄기
고인
말레이시아
제의
##IL
##자카
달려오
협동
김광
학대
키라
소나
지루
공대
프론
앨런
아마존
##타니
중간중간
항공사
메트로
암컷
##ild
유니콘
뻔하
168
하여금
정그르
한정판
강인
##베르트
##파일
Let
유메
탈취
##제스
청하
##정당
살인사건
저글링
등재
과시
소소
페르소나
##사령부
인텔
유틸
안쓰
월호
ᆯ래
보강
스텟
급행
##아니
병행
시범
##ody
데
##수라
프로야구
돌려
유동
##바루
남양
##프란
관직
Black
간판
##수준
법인
159
##다스
오토바이
각국
요격
입원
시온
일환
탐지
존슨
희생자
##가족
퇴치
지지율
이행
도서
스네
박쥐
BD
##해군
요코하마
##리건
대검
케이크
##본인
전지
보고서
재배
##항목
라인하르트
리버스
만렙
문화재
도배
##등록
이념
윤리
연고
맛보
##총리
브론
이승만
로키
라틴어
##베이스
출동
마도카
어원
노부나가
승패
빅토리아
##바리
매그
부친
1948
디아블로
mar
##ough
아무렇
종영
##각형
야당
원판
중재
집필
동구
이천
AF
욕심
##볼트
MM
챔스
포션
1944
신작
1965
##수수
아카네
OG
##33
두껍
삼키
##파리
교도소
로스앤
인쇄
카피
검정
##통수
퍼펙트
전담
포착
##재료
엉덩이
##지도
##ㅋㅋ
RE
카일
협정
배구
무능
연이
##메스
히드라
##카라
와이번스
##기병
##드라마
눈앞
프랑크
로스앤젤레스
오니
밀리언
4000
도대체
대니
아메리칸
섭취
미소녀
애용
Op
부채
##실장
##이센
신생
다케
어서
##gr
##결정
##플렉스
성사
리바
세자
피자
피난
진술
본능
성벽
레이싱
멸종
객관
포크
##aster
##데르
ㅔ요
외야수
지크
아니하
내밀
점검
아슬
##app
스텔스
평상시
안토니
##orts
사이토
이계
##퍼니
빌보드
목욕
그리핀
쿄코
해운
바닷
그란
프롤
해전
주저
그림체
괴인
유스
##uc
##은이
인피니티
목포
소득
사용가능
국무
테니스
조립
1946
##회담
##연대
계곡
물자
화석
동북
걸어가
##서비스
세르비아
레버
학사
화신
PK
##작업
성명
페리
##예선
흑막
##보라
성지
헬리
대학생
열대
난민
##삼거리
원한
부시
수성
##CE
박자
##소문
울음
대승
최상급
독백
##형제
##ject
달콤
en
##어택
드워프
디오
타로
그리스도
역명
##OO
강동
EXT
제발
몬
부제
폭로
##애나
##개혁
..?
스타워즈
##확률
김대중
##ari
##뮤직
math
##로소
##긋나
컨디션
약체
나이프
##래스
평택
레나
믿음
무신
블라디
민폐
단백질
##행성
##플레
##스티스
le
AL
테란
장판
CR
과금
금발
순간이동
아쉬움
아울
다큐멘터리
메디
편의점
##마당
휴대폰
EZ
확립
스타트
아르바이트
두려움
하이드
바쿠
펌프
수컷
알렉산더
모빌
점멸
필라
와타나베
전임
게르
##iel
떠돌
궁전
라이너
마인드
사임
유머
##공단
##미트
가오
적이
테오
한신
적자
151
##국장
분배
##장고
로스트
아리스
남학생
개막전
##형태
138
꺼지
권하
뭐하
Gu
출석
장본인
프랭크
으려면
평판
SA
##인원
두루
##도스
스카웃
던지라
숙청
##부족
드라
한대
격퇴
타치
##무네
조회수
남한
##주군
320
172
회복량
직행
모나
##교수
동아시아
GSL
##타스
가해자
가마
에코
이쿠
마쓰
##어인
코끼리
신념
득표율
눈동자
년전
막부
무도
철갑
순천
##TA
##테스트
##성이
우즈
퀴즈
배후
주입
개업
자사
ATK
가령
고사
##ats
단자
해변
##ye
살아오
호크
라라
고의
메이커
단서
무한도전
축구선수
아폴
점하
타카하시
EU
##eah
샘플
김치
천국
##회관
315
시련
혼혈
1961
빡치
고가
평론가
##따르
둥글
##슈트
GD
티저
최순실
##은
대안
어벤져
##문서
TOP
Mag
158
동상
케
기인
##순환
내정
주머니
추모
엘레
##그라운드
##스피
얼티밋
##무대
강서
그리하여
그로
CL
##라이나
##모니
##스테이션
탁월
란스
정답
큐어
마타
찔리
얼리
##미즈
항성
강아지
변호
배리
방언
AB
영화제
NT
섬멸
대면
경찰서
관광객
ver
##박사
오비
건너가
오공
응답
##재단
사나
##모양
UC
엠블
##oh
치고
##eth
악행
호리
투고
다녀오
비단
하지
어기
##ron
샤를
하느
##상승
##재기
퓨전
둥지
##회복
박스오피스
관계없이
찬양
여수
##카타
충고
사가
소꿉
중도
##ings
짜증나
파고
공명
리믹스
이순신
우승팀
경전
##홈런
노릇
공학
조항
베이비
독보
시아
##고래
스쿼드
데미
쿠바
뒤쪽
공산주의
광복
루마니아
##빨리
도리
##강화
자작
##시키
176
##ᅳᆺ
총선거
마을버스
##리오스
천지
결과물
그랑프리
단역
데몬
##정식
병살
카사
##풀이
클라
will
다저스
섬광
김일성
저승
Is
ME
감성
##무이
카시
성대
바이킹
믹스
흉내
구로
솔저
마저
김병
##inal
유치원
로비
유즈
용산
##==
126
상대팀
폴아웃
1949
지면
십자군
유마
##주로
예고편
Am
반경
완벽히
사관
ᆯ라
##과대학
##활약
김윤
과격
##내리
고이
후면
10000
응급
하느님
김씨
도요
Don
우두머리
조수
균열
전두
학술
##순양함
##ult
국장
계략
미녀
##네트
비리
소마
친일
##스타인
김성근
고속도로
무녀
일각
상시
154
봉사
헤라
like
수확
LE
##부문
거꾸
##고스
이광
접수
공국
##부지
WH
흉악
후유
도마
이니
트랩
##티지
몸매
##박이
{{{-
KB
간파
깃털
연수
Time
생태
무늬
##던지
132
충남
건립
끌어내
##MAN
물약
보루
##덕션
사슬
##자책
주황
##일기
이래저
사망자
삽질
##행동
관문
카레
표하
고발
빗나가
안젤
신조
아테나
new
절단
브레이커
군부
오세
세컨
강타
##서쪽
표기법
타키
##포머
##13
컬렉션
서바이벌
쫓기
##과제
크로아
이용객
응시
알라
반기
스윙
지수
은메달
이리저리
이래저래
218
라이트닝
손목
역시나
Mi
주식회사
감금
완성도
##GA
##교차
풀려나
##레븐
지상역
##ov
##oul
좌파
급식
로열
시어
##하임
어찌되
안보
##18
호응
##니버스
보복
브레이브
두뇌
이영호
거듭하
짝사랑
어느새
서리
양심
##ob
당나라
##처럼
코로나
스터
야망
##슬림
성직자
신임
##리드
과언
##ould
후쿠시마
거지
##리언
동메달
마르크
으리
156
드루이드
##방지
유능
..!
iOS
승려
안드레
##조정
##라이언스
통행
마족
순양함
##시드
##셉트
통틀어
Ser
##루기
불상
one
164
벡터
##alk
예방
나들목
정우
##결승
핑계
천문
##아르
피오
##tern
레시피
승급
슬라이드
장신구
##yn
##인형
139
##던지
나란히
어제
렀다
분자
유카리
ᆫ가요
이나마
##15
블랙홀
##교도
후반전
열세
리볼
원주
몰려오
히라
##미사일
##up
선봉
153
주술
Gaming
자력
##돼지
충격파
성숙
##reak
맷집
오키나
실적
##엔진
김두
##티넘
고시
거꾸로
놔두
인채
##der
하츠네
불화
##able
GK
크롬
##마드
어드밴
##영웅
나열
교향
근로
##레아
고통받
벨라
하나님
사이타마
엉뚱
츠쿠
ᆫ듯
능하
이그
프로이센
신상
전염
무슬림
초등학생
합법
컴뱃
사일
##니코
지각
148
미세
필두
##무게
면제
김선
마스코
유해
Car
최하
##ions
맞먹
##동기
##널드
##테오
##민주주의인민공화국
가히
커플링
차분
저격수
석사
제조사
상의
##자재
연달
##공연
하드웨어
창당
Your
초반부
스톡
버드
##카페
재질
롤
167
ᆫ단
203
천체
셋째
마당
콜롬
##출연
맞대
몰아넣
코디
풍경
##생산
어긋나
쫓아내
##프란시스코
취지
조선민주주의인민공화국
년동안
##사상
SSR
크로아티아
우미
통보
벌금
##PA
공격시
##요미
메리트
1958
조던
여주인공
##메이트
##득점
상원
데뷔전
제너
1941
대등
지배자
레슬링
운반
한층
##운전
174
동등
##니혼
난리
포텐
자산
타르
##ull
숙련도
황혼
##노프
##횟수
생각나
주파
영화배우
평창
테크닉
주유
##버거
세키
##러그
se
천주교
시간동안
전학
섹시
##단계
Min
동년
코파
최우수
##랄드
브라우
심정
루리
샌프란시스코
앞세우
##비시
시끄럽
이진
RO
142
도미
##목록
사령부
어빌리티
병과
태조
라마
세례
뱅가드
휴스턴
기법
아수라
LTE
극초
##보험
냉장고
행진
토론토
문법
##퀘어
도모
헤드샷
딜량
키르
##플라이
달인
스케줄
빈약
163
과감
투사체
쳐들어오
타이어
사야카
시네마
##차원
떨구
깨우
스페인어
창작물
타당
맹활약
집사
내면
모의
봉하
가라앉
절정
##ube
##ECT
야마모토
혼동
##로로
##서버
1954
제자리
무선
BGA
염두
상속
연고지
일련
간지
##멤버
디비전
디
##제르
##ll
마스코트
have
월요일
pr
능숙
무색
상부
마미
연구원
out
##립트
이만
만년
로맨스
들르
졸업식
매트
지지자
굳히
고우
부가
##구나
##스트림
##미츠
##ICE
마수
윈드
전례
이오리
##전트
국기
범하
패왕
NM
메모
지성
밀어붙이
공로
유신
정서
앞면
레인보우
비자
143
쥬얼
137
##유리
공교
혼다
##투아
고스
방침
스칼
쟁이
##정권
##문자
노골
찰나
스탭
초상화
포병
##너뜨리
오즈
아그
해고
무너뜨리
만장
약칭
##파워
워터
루스
하나같이
사탕
구제
라비
꼴찌
영등
##에트
리부
매기
##배차
313
영문명
대역
이인
부처
공짜
환호
##케이
일베
##보그
대외
따내
한달
Sum
쳐다보
솔직히
무죄
캡슐
혹평
단련
스콜
배율
다지만
망설이
스피어
렉스
사소
##메이커
능력치
장례식
인체
오로치
득표수
접전
소꿉친구
##지않
##유저
국민당
풍선
강수
년식
테리
HS
카렌
##거스
운동장
박종
ALL
##더슨
내뱉
우드
하도
레이지
무궁
CN
IV
운수사
음향
주술사
##콥터
1943
##악기
##부시
230
아테네
본편
재수
전반기
박탈
고래
리볼버
##쿠리
북동
평균자책
외국어
알아차리
설마
지로
광주광역시
맥락
인과
##미디어
고질
이션
반란군
크라운
157
침해
잘생기
확고
133
ᆯ까요
궁수
##FL
##여부
인스타그램
##드래곤
빙의
황실
##관련
오리온
갈구
설탕
연막
몰아내
플레이버
부스
슬슬
외관
un
모에
재벌
호날
146
상어
수아
129
칠레
해역
극악
갈기
##단총
000000
센트럴
1942
맹독
진하
##반신
##STER
##문화재
갤러
##수아
종말
##돌파
173
프레스
거스르
광범위
BO
별칭
의의
전법
##타우
얼라이언스
##세자
##통일
시모
음력
스트리머
시뮬레이션
##더링
스타즈
카오루
죄수
오딘
염색
레이븐
후대
격하
대목
미남
사무소
제인
플라스틱
펑크
##제작
제대
제프
기관포
가나
진로
##동원
클리셰
번식
히사
가로막
극우
margin
know
수라
발현
테일즈
##왜란
##카즈
보직
유타
원화
운수사명
##MAX
공손
set
제지
지극
볼드
##DX
공동체
구독자
개판
##하트
프로덕션
명사
##티콘
몸무게
##워커
사내
나카무라
노비
이준
미호
해태
OF
원자력
##이름
시초
바나나
박명
##에몽
기쁨
화기
힌트
136
Play
##집단
호날두
야만
구호
폐허
BT
멘붕
기관단총
숭배
끝장
##무실
##ica
CB
양국
##che
태권
번갈
비참
Of
끓이
##ock
출제
난투
##권자
As
la
년차
잔해
##사태
라크
##YP
빈번
중반부
Red
남미
Type
오바
인명
지사
BM
오른팔
강탈
일러스트레이터
##14
##벨트
이방
##점수
스파크
생애
중급
애쓰
##호쿠
##프레스
강습
히카루
공모
정전
##쿠로
키노
미도리
##개인
149
다만
원년
달래
루터
마카
무단
테러리
발하
전속
탄막
페미니즘
청룡
꾸리
저조
텔레포트
박해
표창
대법원
##플로
정준
랜서
한손
델타
리뉴얼
운영체제
칼라
BA
공습
##케인
##ict
시흥
프레데
넓히
대패
테레
##테츠
##17
기술력
시오
134
군복
연안
신관
##이팅
손잡이
하후
카테고리
##받침
1900
차대전
1956
##리학
크리스티
오케스트라
금고
오키나와
발톱
##중국
맞물리
모든것
라이센스
TP
불쾌
럭키
때려잡
수영복
껍질
노말
얼터
노아
##파괴
DI
##ster
처녀
마모
거느리
##ange
##ater
EV
##차이즈
먼지
십자가
산탄총
취급받
타고
한발
바티
이스트
비꼬
상위호환
진짜로
##글라스
브랜
##정리
##빌딩
##함대
앵커
우크라
하비
방화
스기
해상도
High
##운영
호출
잠그
##세서리
##ons
리셋
이데
##입구
제사
크로우
##서부
가혹
프로레슬링
까마귀
루키
전수
pro
브루스
레오나
스마일
조력
역대급
##박히
##처스
##사와
로제
공격기
제이슨
친정
##소송
서치
##연구원
장벽
미끼
##참모
러쉬
사와
직무
프로스트
feat
여장
TE
인터페이스
아이폰
이호
삼촌
하치
플래티넘
이때문
NEW
성기사
심히
플레임
그랜
##메르
한가지
추출
태종
김천
수시로
원망
일삼
##싸이
##ple
가브리
##메인
테이프
망상
전두환
나락
##레스트
저항력
오디오
아래쪽
수령
어찌보
임진왜란
%.
영등포
보르
박영
##리에
미식
로그인
너클
어느날
파괴력
트렌
147
책상
천공
##더기
안철수
비로소
지난
포맷
Light
우기
스바루
오역
위시
감기
김도
##러블
트레이닝
앞뒤
경질
##브리드
이력
채찍
AE
##린스
##화학
문헌
외면
280
##브레
길가
수소
원내
당국
##국제공항
마지
퇴역
덩어리
세일러
파랑
2500
##경기장
이즈미
MO
팬티
GHz
##실험
##곡동
레스토
Gen
상대식
나뭇
222
뮤지션
퍼시
##to
CO
무수
의아
폐선
배우자
증기
배신자
다짐
##넘기
##일스
##두리
##타워
지미
사당
입국
~"
연말
워너
초래
미르
순정
1939
범주
드리블
편견
남아
메구미
불리우
최정
해독
증인
발전소
##CC
was
보잉
What
심야
하지메
굴러
찰리
김연
미쓰
사료
유선
사천왕
법안
요미우리
따라잡
자회사
제우스
감행
양대
##주택
##니스탄
신세계
주고
##에로
저스티스
Kor
166
음색
라든가
두명
##유지
목재
##안군
도우
1959
지요
수상자
##ics
1936
불가리아
페이크
오프라인
순찰
데스티
특수부대
연기력
차림
##카제
개그맨
##특별자치
청원
멀리서
물어보
깃들
##로지
##녀
##용차
##ACK
공자
Heart
크리스토
흑마법
##인구
Tw
##대부
단기
심화
##les
프로그래밍
치카
무자
도쿠가와
LOVE
경지
반론
북구
입시
정교회
oh
1955
GPU
수지
일산
영남
##ex
용의자
한성
##파이트
거르
##BM
##어붙
만루
전광
케리건
##칸센
직통
트랜스포머
퍼붓
NHK
테일러
AG
##ᅥ녀
어벤져스
레스토랑
##ᅥ녕
배속
어레인지
재임
타우
##사전
냉기
팩션
그리드
##바위
##플라
브레스
투성이
명탐정
##조치
야전
퍼센트
개미
##빠르
바이크
Mr
치바
사육
숙주
격리
착지
어린아이
슬라임
Blo
롤링
마르코
페르난
미숙
둘러싸이
메세지
종사
PL
##당시
준공
일어
체격
타이완
여단
카리
락
강세
##기획
탈당
##lass
프랜차이즈
겨루
더구나
한복
패스트
미스터리
##레타
##행사
고음
무명
파스
뒷면
무식
##16
아아
##메다
##아슬
##프라이즈
주되
틀어
##니트
FPS
협의
보살
아이스크림
MK
##연방
방벽
##해방
세컨드
##터널
##AND
번타자
##귤러
콘셉트
TO
정신나가
교대
##제이
아랑
유대인
회담
##자동
아슬아슬
쇼트
전열
Par
소령
하이브리드
남자친구
쫓아가
##nder
이과
현직
생선
교통사고
##볼루션
미아
1952
##실력
미모
진리
##고시
time
운항
직격
엘더
##드리히
버블
항모
이동력
주차장
복도
##리다
##기인
##누르
인구수
전반전
정교
뇌물
되살리
술집
준결승
ll
스콧
330
##문트
최대치
내뿜
반군
##사냥
하반기
동사
지표
찌질
##성장
270
신칸센
한해
##포츠
##ors
스트리밍
Fe
쿠니
얼어붙
표식
##패드
통증
카즈야
##ME
모양새
가르침
야마다
접어들
애국
파손
##건물
안습하
##규어
##메일
LED
자질
사나이
회계
닫히
시집
몹시
경선
광대
둘이
입양
카토
##무진
스테이
허브
쿠마
진형
휴게
##청장
심상
더욱이
서민
##미션
교정
마기
미들
1947
GTA
멋있
파격
##에스
두근
바그
아카이
##퍼트
#!
죠죠
##모자
##체육관
자부
방공
덕후
파문
225
현존
##무사
Good
응하
오타쿠
적재
특훈
##캐스트
##코인
윈터
소리치
##펀치
##리어스
함성
골치
갯수
넉넉
후루
말년
골목
부당
신주
이드
테러리스트
##대륙
##플리
양측
파키스탄
재빨리
리가
##산물
우산
##두사
Per
백화점
헐크
제단
평안
위키백과
공존
자각
##황후
서두르
저희
공격받
##려보
##개조
리자
마마
비키
##투르
쓰러트리
다중
달라
우물
##포로
에메랄드
##노이
제리
다이노스
박상
기행
카를로스
##노카
사랑받
핸드폰
냉동
자칫
카이저
프리드리히
##리히
##자이
무비
##메어
##렉트
책략
서해
월등
##일라
애틀
##프스
발간
카탈
하행
##니치
여배우
SL
프랑스군
짤리
am
사지
##HT
스치
담임
정형
나인
##장관
소설가
##주리
로테이션
털어놓
상쇄
##통제
##카시
소규모
적색
260
장원
수도원
##eep
급히
발렌타인
악곡
##파라
1800
##강점
다면
메우
MSL
##찌르
##클릭
미하
##캠프
저거
히나타
##군단
##백화점
후드
레이어
꼼수
군림
라이즈
웨인
1919
츠카
##캐슬
##충전
##저드
복용
##로이
호투
엄폐
워크
단식
분쇄
##네이션
장편
##바키아
IIDX
몰아붙이
잡몹
서태
중학생
하하
아타
자켓
하와이
##나스
여캐
##ott
##현우
##진화
Kn
ab
두목
차용
몇년
필립
실력자
0900
Li
일례
ㅓㅆ었
미유키
차이나
##니발
동조
쳐내
##사정
EBS
군데
눈빛
초중
꿰뚫
벚꽃
지부
카이사르
wid
채취
헤일
되게
직속
대행
Wii
유지비
휴먼
##장난
심연
두가지
##리가
레슨
이례
ᆯ려고
프로토타입
전국동
앤디
원장
##앙스
보디
추궁
##일으키
간호사
화약
로저
시가지
인문
This
에필
ㅏ야
훈훈
리플렉
모던
프롤로그
ᆯ지라도
어빌리
양보
길거리
스크롤
징크스
즉각
본가
##IV
산악
유방
컴퍼니
더라면
Baby
안성
##25
중성
##킨스
도어
##IK
화소
타고나
공천
##푸르
라던가
재활
##단위
유니온
쐐기
그라운드
##anna
미끄
출고
유
냉각
단선
김원
유벤
펭귄
스모
병종
기함
머릿
스틱
츤데레
소노
HARD
Sm
실정
사투리
요르
증발
아르메
##부사
ONE
불평
섹스
히데요시
더미
비즈
결정전
방울
부류
산화
배리어
1953
리터
##폭풍
비아
유코
스파이크
##등장
무고
웨폰
지문
##사실
##화면
##델피아
교훈
에필로그
근력
라구
베기
상행
적립
##용사
빈틈
탄탄
GN
유승
1938
##웨이트
##other
필라델피아
##강점기
복음
리부트
Rock
이화
##럭스
원작자
단말
169
us
##채널
##19
운석
구절
발라드
차일드
##토리얼
프로세서
관절
선형
바닐라
오클
격침
##정신
다이스케
소매
줄어드
그런것
거품
교내
배열
방어막
프랭
550
부흥
범행
야외
##쿠니
고산
홈즈
인디언
호세
동이
면접
릴리스
정계
허위
리바운드
첫날
치마
width
랜스
에바
일품
신흥
에레
참으로
##icro
Live
박용
##살인
양호
상호작용
##방위
태극
멜론
받치
밀어주
헬리콥터
클러
악령
파이트
피드
러닝
##전공
Ac
밀레
축적
왕관
요우
런처
노트북
죄송
온몸
##따위
뉘앙스
##ins
후안
##시계
템포
##심장
##가이
##그대로
실천
육지
이카
저러
##자유
##oss
성균
오락실
패닉
##ru
DB
본의
물리학
대중교통
영동
우파
고든
희대
##던트
유배
토비
##차지
말미
책정
카게
시가
수평
불문
좁히
술탄
##회견
멀티플레이
일일이
연금술사
연세
가이아
물가
cc
실로
주거
키드
황태자
장안
수용소
발칸
##부상
화내
자루
트러블
##하드
##시지방
밀치
OK
필터
##정원
##gain
##ction
Blue
##미치
쇠퇴
Dark
##EL
움
호구
잊어버리
1957
##시지방선거
브라더스
정체불명
블러
가창
일제강점기
KTX
제보
##현진
##프터
경쟁자
페이커
갈아타
윌슨
영화관
난무
살피
부여받
##0000
은혜
그레이드
원활
""
직결
##분야
남작
방호
속박
클레이
의석
##가치
뚜껑
할리우드
우루과이
장풍
사탄
Champ
방송인
로컬
석방
##지리
도라에몽
으리라
##na
진정하
RC
유니버
미라이
박재
상공
르네
중기
쿠라
Im
동호
에일리
Sun
탄소
##ood
도시락
##agon
원흉
##어쓰
##UT
파이프
##아주
전국동시지방선거
탯이
성수
포니
북극
요하
++
장제스
저술
OCG
우천
켄지
진수
Can
주무기
이질
가축
빠뜨리
쫓아오
Bat
깨알
시부
유비트
MHz
back
모친
열악
옥타
호박
슬퍼
##이자
누명
##ky
화염방
독서
동지
DR
공신
자발
무사시
실루
용감
질풍
205
플레이스테이션
신병
넘사
쓸데없이
버릇
기술자
팀명
부원
카마
파벌
특이사항
김명
이창
요시다
권능
##판매
어워드
채집
멘트
바이올린
강팀
좌표
브론즈
갈라
##크리트
na
아까
미니언
주고받
라파
미성년
연루
음주
##휴일
##자치단체
Summer
달라붙
RP
반장
클라우드
본성
진도
흠좀
우편
구타
튜토리얼
##ty
불러일으키
교육과정
찢어지
하부
한국군
##irst
분홍색
게시물
무제한
이속
성비
제작비
식스
장동
편안
정재
포식
##DS
반짝이
야심
넘사벽
발차기
첩보
한탄
##내용
##스틱
올림
니코니코
시시
슈가
카우
한미
##ady
타카시
##래쉬
##슬로
진행자
게릴라
소실
##구단
##land
Korea
바바
헌신
##때로
##연기
농사
천마
공약
흠좀무
안그러
마트
##베르토
Music
사족
##석민
기괴
엿보
말아먹
매달
양키스
돌아보
밀집
충북
회로
빅토르
아르카
유로파
모범
요리사
사안
프린스
슬라이
시구
유유
##공신
아울러
줄리
글리
자처
부관
##부장관
BEMAN
왕좌
자손
레이첼
##징어
저것
리키
유라
1914
베일
바오
어미
줄줄
##라이어
반환
대전광역시
유나
##르기
호르
하워드
개칭
##인식
동족
기자회견
결함
아루
선우
BEMANI
금색
유정
##블릿
제구
빼내
웹사이트
요시노
##브로
##OID
##동네
넥서스
늦추
평균자책점
Fire
##나드
##예프
##니르
시외버스
반대편
파워업
나레이션
설상가
해운대
악의
설상가상
소비에트
레바
##뿌리
##테나
유벤투스
후예
블래스터
OB
카타르
덜하
홀딩
now
신수
남발
민정
가의
타나카
안산
일레븐
필연
히카리
표본
유난
650
##다카
에스파
스파르타
반항
대군
##테라
오시
##지아
합하
이복
지름
##커녕
대진
데스티니
말그대로
##자루
##듈럼
교양
전전
##츠나
친목
킹덤
함재기
211
엘리스
연하
나사
##주공
총격
하시
환수
아이리스
만회
카디
##히사
##저것
펜듈럼
롤러
슬퍼하
간호
##콤보
호기심
유영
##ium
프로모션
법학
윌리엄스
휩싸이
##고야
##차트
로스터
버터
여권
센티
잠재력
목동
##폭행
미로
##진흥
사모
##리아스
나폴리
##빠지
싱어
루이지
회귀
GG
야마구치
리리
아이유
Life
보트
CA
걸음
동래
후타
불신
힘쓰
##비어
##준표
스토커
대마
3164
기피
회고
##줌마
##ush
첨단
경제학
특이점
진나라
농락
대국
뒤통수
##자르
일렉트로
서독
원천
STR
##기야
저주받
입법
주파수
춘천
장갑차
##기리
여관
조준경
대표작
##블레이드
베지
주심
##와
Ma
##순간
조직원
##ount
콜롬비아
후궁
피에르
플로리다
만행
중년
어설프
파산
형편없
##파르
창시
가성
But
박찬
1951
리우
봉기
생산량
디스하
목적지
까닭
베네치아
강행
쪼개
Just
동요
별점
204
##수정
여정
동로마
당주
아이작
선곡
##산화
##수원
리아
##못하
백신
서초
수식
스크립트
이도
똑똑
##불능
태자
성균관
농촌
진행중
귀하
라우
체형
개개인
염려
진구
일본식
선제골
깡패
적성
DX
##CH
오마주
혜성
지극히
사로잡히
옵티
발광
북방
박명수
특허
##의학
Ste
복면
장학
자본주의
올스타전
day
말소
박경
총괄
##레어
Sy
##ger
귀중
레이너
해적단
냉전
독수리
감전
##청년
구마
로저스
세레
이것저것
캔디
베이스볼
인어
##퍼런스
생물학
FFF
대대로
정립
하스스톤
pt
열등
한숨
대각
지상파
진군
##스퍼
Dance
새우
디렉터
쓸어버리
감히
나이트메어
선방
이반
피카츄
##스크롤
FB
험하
준하
Gold
끼어들
전자기
##장이
수수료
산책
현상금
개연
##초교
CON
중추
##퀘스트
송출
행방불명
##마침
분장
가급
기온
네놈
마운드
##베기
Grand
청산
남극
츠바사
하우
주황색
사슴
이은
##아래
실루엣
Pre
젤다
암울
##비트
Ev
1600
구단주
미즈키
명곡
입체
VOC
달걀
설화
##ne
##ally
히스
HK
전세
##ution
##서리
##그라드
증가량
계란
힐링
계열사
핸들
천원
LCK
차후
마신
대쉬
##지휘
경감
##십자
따라다니
난감
마요
##양군
경과
망원
커트
##pr
##경찰서
일진
홍성
괴상
괴력
고조
밀란
심사위원
스킵
메이플스토리
가브리엘
광전사
도전과제
스윕
인트
이적료
이용해
##하우
세세
슬레이
get
사르
아델
내걸
사범
##언스
심문
##체인
박진
##후군
##가타
##얼거리
고분
월급
주가
자격증
TW
우마
카밀
Over
논하
마초
선고받
##천동
##치료
파우
##체국
도검
석상
스이
대사관
로이드
신정
노블
기타리스트
이노우
하리
##패턴
1937
습관
##니클
교시
마주하
##ator
아프가
ARM
에우
체스
애드
때마침
소피아
사역
소우
고자
목요일
##식품
일어서
카이토
beat
외롭
홍진호
오리진
부호
수녀
정의당
광속
편찬
오쿠
꽂히
아틀레
해치우
동탁
시타
조원
폭동
UF
##조약
ᆫ들
손톱
출근
##로즈
내수
고토
진성
##신기
##취소
DJMAX
페루
네코
##air
수강
Sec
카르마
예지
총재
접점
음악가
개인전
##로크
석탄
총열
##걸음
공익
tvN
화나
시중
어리석
은밀
차선
##미코
일절
임원
북한군
속력
완구
리쿠
마차
처절
출연진
기성
유무
프리미어리그
차관
아홉
남아프리카
러셀
출중
열기
우타
열람
그런거
교섭
더비
예언자
추기
피고
주한
BBC
뒤덮
##유산
출루율
Out
지중
##공격력
김형
부사관
뽐내
입힙
느니
코바야시
##마시
##페어
우지
수락
최영
실업
맨손
히토
선구
포효
금호
헤매
##inc
리츠
치트
##서린
슬로우
우습
그려
##대군
간략
라임
##매매
코마
비타
이변
딱딱
투하
##꿈치
등교
수복
커비
##작품
안면
고령
##헬름
##재판소
단속
##격포
##함수
수량
신축
##아서
검은색
모닝
아프가니스탄
El
금화
노엘
Dis
but
Win
구두
##더스트
프리즘
기복
파장
##라비아
유난히
호프
바비
##거장
VOCAL
보우
아드
클라이
수요일
아줌마
##...
군함
창업
무스
스냅
##라트
점거
천계
ᆫ다던가
키즈
한스
저렇게
야기
새누리당
사이보그
라이드
스켈
##ART
항아리
하원
UI
시몬
##셔츠
백색
제다이
용맹
##렉스
사스케
##전함
자신감
##use
세션
외래
이정도
폭딜
sc
##이프
##밀리아
##삭스
스텔라
6000
향기
스와
##파니
성도
Mon
김두한
빅뱅
##나가와
끝날
제휴
이형
호전
수험
퇴출
##담당
HG
워낙에
노려보
아부
자진
오래전
##ring
##병력
배송
조영
픽업
따돌리
##XT
카인
##여지
man
~~
천둥
##LS
전년
Af
딸기
##티오
퍼부
접근성
실명
평원
전도
평민
곡선
미지
토오
하의
예명
완수
후딜
Power
##매니아
차남
컨트롤러
안가
슈퍼아머
루팡
정동
##경영
##나르
변질
스릴
탐구
만료
##ina
몇개
Res
때때로
동문
매수
부과
##역학
##하늘
스토어
해임
사
##소프트
장기간
중견수
극초반
고추
경희
가와
##설정
헤어스타일
380
위나라
내야수
달빛
##구스
퀄컴
호무
At
판권
못지않
정벌
##금융
질환
경매
어쌔
##내기
듀크
영리
OPS
연회
}}}
전리
단정
허공
신원
무상
학점
256
속공
태블릿
사출
켈리
혈액형
대인배
SCP
NG
런닝
분화
성형
연발
러너
북미판
방과
##모사
안치
노래방
킬로
대공포
명대사
Fem
여당
아카리
##상대
스캔들
물들
회오리
이성계
스피커
마누
이동하
적발
##릿지
섬세
##퇴근
머스
극딜
##캐리
부평
##타케
##광장
토마토
##탱크
이야말로
캐서린
혹사
일보
세조
치이
콘크리트
다기
동참
##ittle
##신경
기합
##이터스
원고
회심
sm
조제
인종차별
직역
##변경
단숨
스커
입성
##르바
김영삼
##수치
##데기
Fi
MR
투기장
매진
파수
김택
##로트
이에
MX
하드코어
동갑
##기시
문어
##보도
어쌔신
##피드
베니
각기
영조
고베
자취
플레이어블
##회전
##클레스
##터지
교향곡
가급적
한도
Sing
##좌석
1910
FL
행정부
존속
고안
리베
##셀러
거니
매너
단숨에
아이언맨
##ERO
설계도
SG
케이지
##de
카지노
스네이크
망령
스팅
경찰관
##출력
##be
gr
##교자
통용
지주
넥슨
##ello
건재
##식물
젊은이
애교
##토크
볼륨
타치바나
근성
러시아어
대본
할당
MT
부추
어우
아르메니아
부리그
승천
##나시
##reen
SV
패트
가솔
악하
##비우스
타국
##ual
집중력
스리
##고쿠
악용
조력자
미사키
궁지
IG
##슬롯
상류
파업
강연
오피스
적진
포토
##선언
김정은
##체스
오아
절규
##러미
괴리
상표
입술
피치
마에다
부도
허구
반부
나고야
세미
스완
템플
##날드
내구력
아멜
학계
플레어
강성
모스
에밀리
##기동
병합
토네
##황제
분만
궤적
매개
사찰
##산군
낙인
막바지
색채
MLB
그닥
Pv
건전
소동
##기계
선대
Rem
저상
라지만
프렌즈
성서
오인
이안
노조미
우상
줄거리
소환수
광탈
퇴사
군사력
마징
돌격소총
영미
중전차
##방면
표방
##공무원
고장나
가미
##단장
슈퍼스타
Ep
가뜩
당첨
코스타
##ational
유포
##교차로
999
현황
피드백
거제
바실
투신
스태미
##로리
돌려보내
원격
##riend
선인
##af
##의장
꺾이
경기수
##ars
사사키
네타
##bs
앙리
하위호환
팀장
##질기
어퍼
Vo
무궁화
##에이터
##노르
정렬
##IE
연예계
둘러보
깊숙
##리조
보구
가뜩이나
돌아서
##보살
##콜라
##패치
정확도
채소
##어먹
##가르드
실장
억지
초당
급기야
##테이너
고려대학교
가명
##ivers
악어
주방
자유자재
베토
임관
루카스
소용돌이
우크
홍준표
히토미
##파치
##고르
##외선
뒤이
플루
##목적
##한정
투니버스
##교환
##되게
태그팀
##무트
VOCALOID
동체
유서
인벤토리
제후
서울역
고양시
IDOL
악랄
그려지
리바이
##녀석
풍자
고릴라
초코
발악
##라이너
Leg
King
카오리
맥도
##노기
추기경
##평군
소절
클립
페이트
##분석
관동
동인지
##라이터
HT
YOU
격전
김희
BF
세탁
분경
튜닝
just
출몰
선발투수
##산면
깽판
초선
상용
##라이프
평정
##준비
크루즈
쏠쏠
에이전트
버젼
집결
거주지
되살아나
극소수
샤워
왠만
피라미
##SS
##송이
School
##계승
##MC
모방
람
콤보가
Miss
오로라
레닌
속편
제라
CEO
끈질기
##장교
1935
##리츠
수비진
##atic
경량
미시
UFC
광신
Rec
GR
모호
정자
비장
합창
방어선
스타크
##페스트
서정
what
##미술
나이츠
???
전과
허리케인
뒷받침
스타팅
1918
##코트
기이
##ern
참패
새로이
밀접
##itch
치명상
세나
이치고
최초수록
결장
네모
##산리
##ts
철회
STER
무빙
쿠파
미수
1934
서킷
차종
코타로
##전일
Che
김창
도도
배기
##무니
131
캐롤
철갑탄
반갑
부럽
##르노
ADV
동계올림픽
'''
아폴로
뷰티
인맥
재난
수원시
방금
마가
페인
이누야
공방전
광저우
당분
발상
##부수
피처
한심
무효화
인내
핵무기
아이오
연호
차장
운운
창의
천적
##살렘
##비언
End
##대비
운영진
우아
조폭
코카
##폴리
예배
##후미
VR
다다르
역병
##rain
응원가
샤프
조교
클레어
한가운데
Ge
쓸모없
Di
캐리어
개발사
아몬
생산력
미야자키
##정관
득실
##디스크
탄도
가호
제시카
도리어
화자
표출
##에너지
펠리
Air
##큘라
퓨어
행렬
##케이드
자주포
##tr
##도구
살상
##루살렘
함경
##서야
굴복
바스
솜씨
여고생
##주카
기획사
불러들이
별자리
##고등
알고리
단골
##제리
경유지
조류
로브
##니지
경신
맨시티
전교
카에
매칭
일자리
##oot
Mod
방황
줄곧
콜드
##류소
올라서
로만
일개
if
니나
##레미
##파이터
트로이
마르크스
드릴
빨강
발사기
요동
레이나
양파
무성
키사
리턴
추첨
유토
멀쩡히
소극
세간
게임기
양주
청색
국정원
타다
손아
키워드
마이너스
##구멍
보증
뒤집히
야쿠자
여진
정명
그리스어
못쓰
카가미
친선
이노우에
가득하
코이
##전이
화합
##ren
에일리언
발전기
메르세
레아
##변속기
무언
서장
##비안
드라큘라
한중
##치카
##정
타케시
억압
엄지
##처분
##방패
col
##학회
노이즈
상임
작별
흑백
자판
##UE
소서
위탁
토로
##려드
EMP
욕하
상반기
공고
권고
우크라이나
소진
취직
카즈마
아포칼
쇼군
##55
알고리즘
##보정
명령어
장타율
##시카
라미
부풀
불로
우츠
PVP
부식
교관
솔로몬
기미
임상
##UR
흐리
##이야기
독성
벽돌
카스미
한몫
사쿠라이
민원
옵티머스
레몬
방정식
넓이
##rist
night
리오
스티커
동창
도피
이문
##걸리
미성년자
##정동
##ony
강유
여론조사
##ma
##장판
소피
점사
Sound
서사
##변화
##리아나
국산
##필살
POP
블루스
##쿠마
##수엘라
예리
느냐는
어드밴스
Hy
예루살렘
청주시
##영역
토오루
강판
비즈니스
반다이
배상
무작정
워드
수고
시드니
만류
피겨
뛰쳐
왕궁
##반응
수준급
##의정
직관
착수
홈구장
##블랜드
각색
서원
성문
##요금
도미니
진가
##카운트
랜턴
블래스트
블라디미르
##수입
##폭격
성채
불멸
사위
##진행
킹스
##iew
정세
지휘자
주범
##어찌
그놈
토착
DO
메꾸
송도
포워드
##축제
신체능력
챌린저
메르세데스
don
##ope
##준혁
사사구
##카쿠
좌익수
MASTER
작아지
공휴일
빼돌리
분전
출퇴근
##바인
한국전쟁
소녀시대
간선
상장
##호도
실무
치사
하세
##시온
포트리스
글렌
##암동
##갤러
MD
디펜스
EM
자크
프로듀싱
과부
##투자
##ana
직업군
나날
인테르
여러개
징징
코지
##정역
소설판
##레즈
나기사
##atale
건축물
민법
##고교
법무
연금술
견인
미스트
티베트
개관
##화기
미코토
##해머
에이미
사극
유소년
일쑤
##블루
애틀랜
제멋
##도니아
미끄러지
굳어지
화요일
일부분
Femme
현명
##oon
조지아
하야토
단조
빈사
합당
##레이스
기관차
조운
##핸드
레즈
베토벤
의거
섭외
오일
스크래
자민
SO
무르
이씨
중앙선
Cat
미셸
스위트
안토니오
way
##비키
##여자고등학교
그제
정유
길들이
노숙
총애
과학기술
설비
정인
공지사항
고독
신디
##ox
BAS
다이나
다비
##유기
사다
##실록
##제일
어찌어찌
살인마
대출
사이좋
##ield
반말
천도
브레인
손바닥
##자국
기술배치
여의도
유목
선공
##덩어리
금전
복싱
##명령
마사키
들려오
실황
bl
흡연
진흙
얼핏
단절
숙이
##22
연구실
애당초
퓨리
파고들
사우디아
학번
EA
1100
국력
궁병
레스터
미지수
이윽
골리
티아
채굴
회복력
극찬
스퀘어
1932
창원시
겨누
이누야샤
WE
자잘
언행
함포
도사
친밀
팔라딘
타협
서인
##olog
군산
즐거
알프레
1931
##각시
비례대표
1933
XP
몬테
베네수엘라
역설
##거진
데이비스
##투어
보답
복종
사에
##에고
겉보기
##연상
양팀
엣지
이윽고
셰프
병장
성추
내려지
확연히
되돌아가
##화문
걸작
베스
카린
##사의
연구자
가치관
##ᆫ정
재혼
학업
효력
화가
##흥민
후일담
누이
등산
##Fatale
대파
그래프
FemmeFatale
해커
방학
콜로니
With
허세
든가
Hard
자바
Run
다던가
자연스레
서북
황족
##수지
전리품
체리
교란
육식
이블
##격투
잔디
금성
추대
##코르
컨테이너
##언정
XXX
지중해
병살타
다나카
##화력
프랑켄
초토
링컨
후세
쿠르
회화
##쿠버
오너
CT
슬리
레지스
비판받
##구나
김전일
성폭행
악장
##분해
마모루
##AA
안도
캐슬
직감
피곤
##튀기
말장난
연의
위화
대두
양도
콘티
소심
카구라
후유증
낯설
빅터
임페
매복
340
도전자
백미
실험실
고폭탄
리안
욕구
##소개
Not
흑화
급속
##자스
벼슬
술법
쾌속
##업무
서드
클리블랜드
탈옥
차세대
효과음
아벨
App
풋볼
오징어
오재
튀기
##먼드
매스
##elf
경쟁력
로프
Rev
테르
루미
성기
##평균
아즈사
칭송
##틱스
##ouse
제정신
진료
RS
무찌르
사우디아라비아
1928
설득력
신이치
조형
자문
##게리온
폭발물
214
손녀
가솔린
본디
총탄
CCTV
행태
기간동안
##네
##라시
아이즈
배분
RG
셜록
자유주의
갈리아
전념
##우먼
기마
고원
재사용
본국
환각
조선일보
dis
경인
다단
장병
사면
##디자
도널드
전태
진작
히노
중심부
다정
유교
육박
##시트
Da
##투사
세일
자가
##박쥐
동봉
든든
압살
##광고
브라더
마징가
손흥민
유한
키리토
피츠
징병
첨가
하쿠
실험체
들이대
##75
피라미드
VIP
첫사랑
캡콤
청량
##토니아
치중
뾰족
아티팩트
##댓말
추적자
디디
##훈장
쓸데없
연세대학교
아치
양현
게재
평면
장래
##종합운동장
충성심
SHOW
입맛
피신
설레
스케이팅
바주카
좀처럼
추석
애완동물
북유럽
강적
리온
횡단
듀엣
##전환
##완성
옐로
잠복
가출
조달
토탈
토머스
민족주의
아역
증원
한조
결별
의욕
두부
UM
반칙
##리시
원호
##노코
##보건
두께
##라면
앞마당
##둘기
예술가
Elect
악수
성공회
스테이터스
커리
폴더
꾀하
꼭두
마음껏
##고로
순진
성모
임창
RAW
사마의
물려주
재고
순조
사용법
선체
시궁
번영
솔라
공성전
어처
윈스턴
데이브
크로니클
##서기
호노카
난전
##배틀
교차로
광양
아지트
기장
패기
허영
co
##ORE
흑마법사
빌미
##컨대
Ke
141
She
미라클
310
병영
##공작
##티코
에반게리온
대용
학창
여사
온화
정크
족장
##마니
김혜
생사
아다
8000
##여고
시에
농어
##당하
안보이
현행
##푸스
리마스터
망가
오의
##we
##ecial
네메
오스카
##메탈
간행
아이카
김세
시그마
울산광역시
스매시
팔찌
임요
도르트
건의
자카
크립
혼종
##세
애플리
구급
워즈
불가사의
Get
연희
제이크
아종
##수도
정은
도호쿠
변종
저번
##오우
존댓말
초식
게리
스플래시
이선
저격총
버거
입학식
라이징
액세서리
양념
유하
입당
늘어지
송구
##asy
아포칼립스
전편
##코올
승계
##ane
대부
점포
동대문
로딩
라거나
완전체
##네이
부화
##66
승부차기
새해
##브스
##지부
##꼬리
박격포
카부
미니게임
틀어지
서식지
패미
리모데
사과문
넘쳐
만세
앞쪽
폭사
##its
패트릭
##보리
DT
표명
하코
Ang
여덟
유감
칼럼
##대대
콜라보레이션
world
무자비
퍼뜨리
##엔터
플래닛
대잠
포털
##28
##병호
에리카
타노스
##명칭
어처구니
임요환
코토리
이동기
왼팔
외출
##과목
##드릭
그밖
커먼
##리즘
안장
시위대
##현장
1924
불사조
채팅창
식신
##짜기
걸어오
작살
애플리케이션
남구
##제트
울음소리
탐욕
대상자
조율
선진국
불어
white
오디
카무이
민병대
이신
480
##증가
##학위
재위
##해제
공중전
메테오
##윈드
##멘탈
봉황
악세
열받
계보
득점자
##토모
##피오
당당히
이우
##감소
속삭
사이퍼
시애
##무역
##EX
미스테
느냐고
임시정부
파인
염소
인프라
해수
##ze
부합
빡세
SW
예비군
##버섯
모터스
앞장
전류
풀백
프런트
007
진공
가까스로
휴일
까먹
##러시
책임자
0000
Cy
##신청
자위대
##태수
향수
부추기
마커
본문
그전
내륙
황무지
오리콘
레귤러
정적
주작
틀림
기밀
상정
댄서
되돌아오
거물
서남
##저트
ᆫ다면서
백호
정장
자니
프레디
밀라노
버닝
비정
콘스탄티노
호로
##레프
드라군
지그
서진
뒤틀리
성역
su
손수
##틀링
##ness
볼텍스
##마켓
야하
엑소
중령
지망
720
##아일랜드
##양이
제멋대로
폭포
기타사항
촉진
니트
아픔
의병
스튜어트
처단
Song
Big
##키타
흘러나오
아론
Comm
대강
섬유
격돌
센터백
이분
유년
##바디
삿포로
##24
섬식
##비오
Back
공채
쉐도우
##인사이드
담당자
##장구
##표기
##루미늄
##appy
그르
420
스칼렛
부회장
데이빗
##트로이트
의미심장
협약
Arm
코이치
추산
탄종
류현진
베어
도르트문트
시애틀
발렌시아
셀프
송파
소감
우익수
낙원
재선
##더미
꼬
스테이션
상위항목
마포
##제어
보리
설사
디트로이트
송병
신주쿠
엑셀
이장
삼각형
빌헬름
아세
팔꿈치
안중
촉구
##병사
여도
##ny
##느
##의료
##운행
마티
##판사
##라이언트
다이어트
국무총리
대한항공
연주자
닉스
유명세
로드리
박주
유쾌
초고
오버로드
관습
다다
##ke
##평화
민국
토막
사이오
스크래치
여주
스몰
플라즈마
사다리
Order
성주
클로즈
늘어놓
황자
##버린
그레이스
##디우스
##RAM
##슬라비아
##sc
##협정
두텁
수군
##보상
제식
호스트
1929
박준
##이용
으라는
떠들
1911
목성
방영일
##이론
##울프
헤딩
서재
선비
착공
이제동
##보트
로마자
자라나
방대
사각
Skill
겸임
대담
무림
히로유키
비약
램프
와우
휴게소
총통
광석
박세
빡빡
유죄
시전자
포르노
망자
##서울
휩쓸리
삽화
협곡
법정동
한개
##고개
암석
위도우
베지터
아킬
con
미련
초사이
>,
볼리
##35
명작
KS
괴로
증세
샌디
유고슬라비아
경위
환사
디테일
##정류장
##자금
목표물
김제
##가르
##chor
##소통
씁쓸
##곡리
TB
군중
##날리
제국군
지온
##누이
##애미
거듭나
조장
##실히
##소모
시저
유추
정규군
카노
UR
당원
상권
석궁
##키치
1925
안드로메다
보태
Every
백합
차출
김준호
케네
##위성
##소재
커브
##학습
##블랑
사토시
##let
사상자
임용
##무로
듀티
태연
격노
출입구
대각선
대머리
가왕
버금
에덴
사설
##느니
PSP
평행세계
cl
당분간
애시
동점골
저널
배지
##보수
##종료
빌라
##쿠사
베이더
선천
홍대
##UC
추이
##AG
꼭대기
마더
큐베
상회
윤종
나나미
난폭
이관
상대편
That
위즈
김정일
##눅스
자택
시노부
로망
파이터즈
드레드
양아치
알루미늄
쿠사
사교
1917
내년
느긋
##비히
기병대
난해
프리즈
키트
qu
208
##티티
시안
충주
대관
독재자
패드
헌데
판도라
석화
이에야스
##주곡
바하
리에
내려놓
##피탈
단테
안드
졸개
한인
##코딩
쇼핑몰
프랭클린
연비
리조
쿠루
마운트
서커스
선도
난동
te
가차
스폰지
온전히
포커
기각
다이너
비석
TCG
조세
##비지
스탠다드
##트럼
벌칙
##프리트
##바흐
노기
두드리
르노
펄스
제스
자부심
212
음양
시스터
적정
##소환
서부터
마는
성체
거슬리
텔레콤
과실
##줄기
동물원
##출신
서면
선교사
환원
이의
중간보스
##융합
마이애미
농부
괴도
수다
성추행
세이부
시즈카
갱킹
##bps
Des
포대
총사령관
리액션
페니
Har
리미
##ert
##기기
대명사
주성
##일지
##천역
갈고리
동거
인기있
동남아시아
토네이도
교감
단거리
정현
단신
##버릇
나츠미
매출액
나이지
##독립
##ious
강당
숙종
해설위원
FX
콩고
보행
상경
열풍
자아내
##점프
171
##기둥
##ient
올라타
NL
Top
마그마
끊이
##폭발
가물
235
간식
대여
동국
아스타
##net
다툼
서경
불운
일지
##노키
방영분
아야카
수렴
호스
공영
문과
샤아
식별
토요타
GL
웨일스
일직
강남구
##프로그램
유행어
정제
지독
초사이어인
엇갈리
이마트
양동
침식
850
분수
타쿠미
영락
최면
Tri
블레이즈
역전승
흑마
##카이저
##장수
EXH
왕따
토이
##ᆸ니다
##ret
##누마
행정동
크리스토퍼
255
내기
조선인
1927
어중간
##방학
##약품
##페스
FR
중얼거리
키메라
##탈출
##복무
속옷
##ideo
올리버
배틀그라운드
개종
내역
스케치
NS
나기
년작
조슈
##공영
..'
구자
배척
##토록
합산
야구선수
후렴
##크루
태고
일찍이
영화판
능동
##진구
발산
집정관
짤방
포화
비행선
신한은행
가산
들려주
어휘
알코올
##석기
서문
대칭
모건
##pl
교주
##엔드
RF
퇴근
도마뱀
왕건
츠카사
튜너
##olution
Amer
##성향
는군
##나단
##현동
리눅스
서스
현대자동차
##투아니아
##동강
프리스트
와일드카드
떨어트리
어지간히
오나라
결승골
교육부
Em
내심
조그
원산
206
##바이러스
##라오
##나우
늑대인간
남원
특출
포럼
하얀
##노벨
##경비
대표이사
하타
마츠모토
도청
조인
리포트
해밀
발매국가
잔당
자며
애틀랜타
클라이언트
경이
활주로
##정의
PO
DEF
세균
직계
##나들
##IST
LCD
##비나
이승엽
off
##기체
게임즈
뻥튀기
##왕조
##악단
##co
퍼시픽
낭만
##천지
##협력
작화감독
무협
##상스
##ERS
한지
화수
구애
글러브
##기아
##공군
앗
축구단
##지방법원
소인
리투아니아
시한
크로노
모빌슈트
사구
샤크
햇빛
소량
##겨지
스님
신종
신민
자연수
333
각본가
용인시
전염병
Act
##메랑
투구수
켄이치
##준호
##더리
UFO
이목
성남시
##특기
오바마
공직
##토키
##매체
해협
수레
어비스
##고도
209
항우
비늘
알파벳
잘되
장녀
길가메
방랑
##예정
##ful
야구부
##mania
ve
노후
절묘
플러그
새정치
전복
품종
해저
심리학
후려
여자애
심포
290
아슬아슬하
##근무
마늘
부딪치
Pe
나탈
기겁
카쿠
나이지리아
kn
LS
북두
커넥
##집행
##회원
줄줄이
관대
##브르
세스
무난히
에인
KG
노랑
쿠스
데뷔작
가로지르
카터
경호원
갱단
면은
엘런
장단
##ner
##바오
##ham
TD
문의
야채
##수술
##비야
버금가
출세
과반
광학
카멜
##달러
Bar
Fre
관제
버지
브란
잉크
215
창병
##어들이
##루가
##감치
기통
꼭두각시
##러기
친근
운전자
합방
휘둘
##삭제
##살이
인테
푸른
가창력
결사
런닝맨
소음기
랴
가변
유우야
단단히
정직
페스
##영수
기만
천만원
패거리
Ext
비틀즈
시궁창
##사포
##웨이브
주재
첫등장
후작
##문회
소중히
AMD
편제
치밀
후문
인기투표
비올
의리
종착
God
동독
##타기
라쿠
##고문
Str
1926
희미
시리
일선
##총독
베드
##산맥
##스테르
마이트
나루호도
수분
##영향
트레이서
되려
호조
재팬
##ning
GDP
먹튀
철학자
##마키
친위대
특권
Hot
근래
Bea
뇌격
안주
뉴캐슬
연기자
못되
Ab
발효
##덕후
##보컬
##판서
##ERT
STAR
잔여
홍수
RAM
저리
끝내기
위화감
사주
체질
anchor
택배
페인트
##책임
##ump
급제
대적
비숍
유가
어린애
말라
때우
초원
화랑
##미오
Char
분기점
라자
다이묘
고스란히
법조
'-
덴노
일찌
##단의
ᆯ지도
스트라
괴멸
##그러지
##ward
##모으
심심찮
비아냥
Met
Rain
번길
침체
푸쉬
힘내
##day
인플
판본
##보고
독립운동가
Sil
##발사
##히어로
every
샤이닝
먹방
학생회장
마비노기
가가
원제
ᆯ게요
위생
##ATION
다그
알맞
더스트
헛소리
FN
도르
명장
반자동
악보
인신
전산
랄까
메아리
매입
오드
최성
휴전
머니
##동력
**
동유럽
위임
클락
알아듣
부메랑
코시
##대책
코즈
##발리
최우선
want
세계선수
FE
하남
##결전
White
##88
단말기
Inf
마테
지자체
매지션
요일
초급
##샤인
이녀석
세단
심슨
1400
인피니트
라바
정종
형법
yout
정경
디시인사이드
케네디
타나
찬사
해결책
##식사
여건
ᄇ시다
외야
트린
조승
최적화
골대
##사관학교
계좌
프리저
코나미
대한제국
뮤직뱅크
##임무
##수학
이민자
제르
##지물
KD
##사라
나주
비하인드
바람직
바늘
리비아
스캐
채무
데카
##전생
##피온
##전용
제각
##가격
##면허
##반사
만화책
브로드
##민주연합
히가시니혼
down
##핑크
##길이
헤라클레스
more
긴장감
행선
팔레스타인
번트
유체
May
자정
게르만
병맛
##차장
영국인
김태균
불분
경상도
경의
사생활
정정
최재
시력
207
간편
성녀
추월
상체
울부
Pop
##기수
노이
IDOLM
고어
베가
찾아다니
##미네이터
애리조
##부모
왕녀
증후군
한계돌파
악명높
##군사
Master
저스틴
중산
뒤바
전폭
항로
터무니
오퍼레이터
영기
재해
##이즈미
몸빵
##노부
##son
포지
무진
##리사
##성적
파열
코다
트림
우천취소
명품
부치
관광지
리노
##au
단연
스베
마카오
##ANC
카자흐
이시다
PA
무심
심플
##oud
불분명
감속
길목
로라
냐면서
앞장서
소셜
미하일
도스
##확인
과하
성종
##ves
앤더슨
항소
미얀
생계
투여
Game
유수
정거장
끝없
치세
마인크래프트
터렛
이라든가
개봉일
로사
선하
진해
##프닝
외교관
삼지
이스터
제비
##발매
무언가
헌납
##카르
##게스
풍속
만화가
OR
사부
##프레임
하라
즉석
##보안
몸체
이가
는데도
보유자
건너편
충실히
161
금하
이강
후하
참수
they
드레이크
볼프
1922
##ift
하렘
스코프
박민
일갈
칸나
몰아치
의사소통
시동
재빠르
뛰어다니
메소
진전
칼데
##즐리
##ship
무법
주군
카바
##재산
경찰청
명확히
서유럽
선택받
그토록
뱅크
세토
##파스
##ape
가즈
COM
창세기
행동력
마케도니아
##소니
Are
##무쌍
사건사고
울부짖
가중
##전투기
여명
##천리
통신사
마오쩌
GAM
야드
요크
작렬
인분
하데스
##대행
##과장
스폰지밥
##트니
수뇌
##소타
위조
아시안컵
숙명
차마
1923
애덤
열렬
광역기
대변인
끝판
들통
아이치
리젠
팀내
##구성
일정시간
카에데
나가사키
TN
불능
중소기업
WAR
공적
오우거
스트레이트
재화
##장전
1921
이치카
위인
랜디
김택용
TG
백수
불가피
순순
체내
##고루
##구르
비밀번호
##lock
##디자인
한결
##타고
시발
인장
화장품
완패
중의원
마작
Bu
촛불
아르테
세실
창간
##텐더
망원경
Bra
나츠키
평지
수송선
몸집
개틀링
드리프트
520
쏠리
역관광
외래어
only
사이오닉
미분
##오오
제품군
##ien
명하
알비
##문고
척하
코지마
아이슬
부츠
뿜어내
Yeah
마오쩌둥
성령
픽셀
휘둘리
산산
이지스
상가
##국적
심리전
##일관
##경험
한국사
DA
사바
선풍
비대
##선스
출시일
단번에
티탄
##less
밀러
복권
키쿠
##찰청
ㅏ요
선교
랄프
토라
한겨
조비
##ize
news
도보
동선
##렁이
방어전
카트라이더
짓밟
##교체
##니케이션
안테나
부대원
콤보로
역전패
스플릿
헬게이트
고모
징집
##zy
##람쥐
익스프레스
Cont
##LD
이코
##지에
위태
익스트림
강변
##진출
관악
엠파이어
##고양이
인
편집자
pl
신촌
여친
재상
지령
##EE
##레우스
타이베이
베인
이송
전용기
수법
배고
##경쟁
감시자
Hea
부녀
##여름
근접공격
편대
괴담
##오류
아틀레티코
##남자
구스타
##메트
##린트
오스틴
팀킬
##45
남아공
##여단
##일체
프란츠
호타
하얀색
##led
온게임
지방선거
유민
한승
##omb
성취
팩트
이상민
##큐버스
누
랩터
보병사단
##강의
뉴비
##전적
비범
##입장
스펙터
수영장
ᆫ대
##워스
승부조작
이륙
##종이
자책점
경합
며느리
아날
##조절
##개그
설정상
트레버
등용
리스폰
피고인
가토
##지옥
##호텔
초연
##헌터
시세
스펙트럼
수년
##ited
Project
##HD
메커
세련
투항
출생지
활기
##여우
애니메이
온게임넷
7000
실습
주주
붉은색
체하
학부모
피니시
##슬러그
크림슨
Joh
솔리드
온전
댈러스
인기가요
눈부시
힘겹
지못
##ALL
Off
아산
Battle
바이스
안들
와타루
TEC
테이크
##지선
궁정
1912
유스케
한마리
TF
독설
##시점
마스터리
법무부
불안감
순순히
리프트
##ita
##카게
##수송
##형식
##엑스
선명
터미네이터
헤더
JC
오피
##콜로
예하
다이브
Open
이범
자음
샌드박스
일생
특색
선발전
##ORM
재차
##ton
DDR
~'
월터
이유로
연장전
카프
##29
생포
wiz
##맹이
협공
회유
마우
Sky
독도
천연가스
빼놓
캠핑
아이리
언론사
사카모토
Moon
모기
##의지
##스프
끝부분
번거
체이
지못미
소망
미네소타
크레이지
백두
##세우스
##딜러
산출
설문
##태후
......
##또한
번하
정연
##식당
221
##큐리
##ENT
BASIC
응징
##원지
##두근
단간
날아오르
순차
우투
##스토어
여객철도
일직선
그지
다인
##구슬
##닥치
777
히트곡
양면
기생충
제네시스
증권
매거진
멧돼지
good
성품
##23
바우
리듬게임
법령
초회
칠흑
송곳
어새
이따
화속
통역
트이
관련기사
맞대결
과잉
기염
게임판
관건
데스크
##27
##row
1300
성가시
##호크
미얀마
꼼짝
윤성
아쉬워하
하늘색
짤막
##우
이북
##세키
외침
비둘기
지갑
종로구
Like
섀도
힌두
애프터
##com
레베
저력
##공산
타츠야
브라우저
분가
포괄
##토끼
개인기
WCS
영창
선별
우메
천문학
##툭튀
밴시
벌어들이
희박
##ling
마켓
스카이림
수료
안식
접시
##주행
라든지
##랑크
성급
익명
정선
##부원
##신고
Special
정도전
김현수
내려찍
농어촌
체류
향토
이어폰
2022
창출
##린더
강호동
수없
급진
어머
##상품
##메이드
갈래
갑판
여느
오보
이츠
토템
개드립
비밀리
전라도
매트릭스
##증권
두개골
강점기
원로원
beatmania
수작
얀데레
텍스
톡톡
다듬
본거지
Bad
도타
스릴러
노원
직구
일정량
아이슬란드
소사
청동
가세
나선
##롤러
여행자
르네상스
구세
멀린
##댄스
스핀오프
헤지
막말
##혐오
붙여지
아틀라스
TT
의류
전투원
레기
코리
탈탈
디에고
원어
이나즈마
Soul
##풍선
##나타
##협의회
승강전
노라
에로게
백지
수반
데이즈
피어
##터치
##프스키
초동
루리웹
나뭇잎
##코스트
밝혀
조현
붕대
스왑
Med
라이선스
과다
는구나
##rop
##토라
싱어송
광동
당근
사병
군단장
섭정
전투복
병신
서지
순항
감염자
마도사
카즈키
슈터
ᆫ다든가
##취급
서브컬
##어내리
문호
##연장
진행하
버지니아
무패
네메시스
손책
213
특촬
##스부르크
##이인
##망이
##탕스
반대쪽
##파츠
##벅지
재주
##UB
막아서
산체스
이조
##쿠르
##수업
바이올렛
무모
생방송
루시퍼
거창
부상자
end
간장
고성
모함
줄리아
Po
남짓
체구
##vent
Hey
낙하산
over
일만
앵글
##대리
##수산
FBI
분사
디메
##럼비아
검거
##line
##진우
##ute
음모론
Now
WOR
알제리
복부
##코쿠
치키
항속
Dragon
가야
펜타
마사무네
노드
러브라이브
Bur
사죄
##케이스
미카엘
223
발령
빵빵
##play
눕히
##네즈
넵튠
오덕
전우
##기사단
our
명장면
세이지
명백히
반달
##xt
삼국시대
와이어
티나
275
티타
그
승하
세속
형벌
##프로야구
계승자
이메일
여하
케이트
프리킥
장동민
멸자
번번
통학
##연령
baby
네팔
배경음악
##게시
자기장
어우러지
체급
현무
##감정
##stem
001
원나라
팬클럽
##노래
##테루
밝혀내
서점
시라이
#,
벤츠
수없이
탈것
리아
중장갑
모티
카도
##발표
##oney
이끌리
Eng
버디
에테르
보단
서약
넘쳐나
부통령
세츠나
남캐
밀양
퓨처
차차
##벌이
리온
fl
에임
##붕괴
마천
베풀
##글리
지체
##내셔널
키시
흉터
스로
셔츠
1907
맞춤
발트
에티오
캐스트
##96
작물
##결합
드래곤즈
계약자
고속도
둔화
프론트
거머
햄버거
##나크
일찌감치
치히로
파파
ac
호라이
구비
눈썹
부두
에너
철벽
수차례
Way
유다
이로
화염방사기
비평
정윤
티셔츠
##계통
##아내리
콘테스트
현수
아카기
이시카와
메커니즘
##우타
##노오
##데우스
부적절
현질
그분
악인
가장자리
Alb
##FFF
##엔터테
##환승
##IGHT
일컬
춘추
##소연
어새신
##홍철
가네
돌풍
매사
##때리
성희
탤런트
뜬금없
모로코
다테
예장
##eng
커터
소탕
바깥쪽
급습
웬디
see
피쳐
1905
농도
무제
사절
싱어송라이터
##탈전
스노
쿼드
대구경
교직원
해프닝
포이
쪽지
환불
##클래스
브래드
##포고
매도
폐위
재미없
교재
##전철
##lt
##궤도
도메인
플라잉
만두
##폴트
##라이스
DAY
##그림
레슬러
몇가지
야자
주권
소아
시빌
아득
동대
준장
Int
이터널
에티오피아
히이
365
타오르
군벌
반납
이사회
Cent
뒤쳐지
런칭
max
너구리
아츠시
관용
##블러
고려대
Comp
희생양
대장장이
선두타자
향년
태백
니콜라
슬쩍
포진
문성
앨리
Match
쓸쓸
서스펜
바빌
가주
엠마
골고루
공안
시베리아
유세
테슬라
마리사
성원
종속
류우
미처
남용
청취
##토가
내리치
Ass
갑툭튀
자자
##제프
급증
우로
216
최하위
피크
고갈
##26
성범죄
옥수수
인승
지탱
선글라스
거행
사생
장막
##프레이
다이빙
극동
"'
불거지
러시아군
블루투스
거니와
결단
내구도
Yes
방관
배반
변모
##소득
##모트
370
##아이템
##세이더
슬레이어
골리앗
##권력
치부
톱니
민심
바니
앤드류
슬라이딩
리벤
막론
욕먹
정무
케미
타니
say
명실
전령
츠루
##그로
##건강
NAS
##에리
##후드
라파엘
지폐
최형
##덱스
레지스탕스
Fla
아날로그
##닌자
right
##코스터
미유
하시모토
빈센트
한국어판
##만다
제너럴
다량
우즈베
회자
물음
변함
##유물
##다오
kr
시오리
효소
##혀가
다이크
간첩
팽창
##심사
ᆫ다든지
끝판왕
악질
페더
##ude
경전차
소행
어태
절약
혼나
조니
스켈레
그렌
CIA
팬아트
##츠구
푸른색
Ook
언락
거머쥐
국물
밴쿠버
전패
트리오
흥하
음식점
##바드
##여왕
##운틴
보급품
스맥
PvP
##ata
##콘서트
신봉
오모
SUP
나스
하천
왕립
겸비
태세
하버드
수퍼
치아
급상승
##독스
##주니어
##요정
##올로
라이브러리
Last
가든
데니스
좌완
총구
프라이드
메두사
박태
선지
잡혀가
세레나
자수
XY
##광선
시종일관
스탠딩
동아일보
포유
덤벼
짊어지
초동안
##철학
##투쟁
IF
극성
마취
##청사
상승세
연대기
마장
TWICE
##히데
자멸
티라노
헬로
##차고지
이탈리아어
무안타
북서쪽
##ius
오카다
실바
##결혼
케니
권역
부끄
##인과
##날개
매점
메이크
어지럽
매지컬
몽땅
440
상반
##대
조선총독
동성애자
네로
마코
도입부
못생기
##스기
보호자
밀가루
수납
##III
##red
거미줄
막시
오차
패권
하반신
아랍어
격납
누락
무당
정관
##소년단
배급사
올리브
소름
근로자
기린
##브레이
##가로
##록스
##감사
수속
슬램
두각
기어이
##브론
모라
모리스
카논
##클로
##가게
우클릭
코브라
##던전
##트리스
Core
골짜기
박치기
BRV
요지
간직
##엘프
##ets
올인
후진
덕택
산호
왕성
장대
##주민센터
이남
곡인
Mir
법사
음역
Show
##76
##ated
자석
##몬스터
there
미완성
쿠퍼
이치로
##ara
자치령
수혜
엎드리
장담
##인터
국내외
사관학교
스맥다운
본뜨
양육
추위
Nor
오산
1908
##미팅
리더십
크루세이더
콜업
고려시대
테크노
##cl
##시현
##푸르트
경보
발병
##맞추
타케루
갈아입
his
김호
케로로
검출
울
HOT
불발
압둘
가신
광자
반죽
포상
##지스
수뇌부
암기
루즈
##불교
MI
원상
해발
##레트
##선택
안톤
에어컨
아리사
바스티
결투장
원종
후카
##전시
##구름
일괄
##44
전주시
시간표
크로노스
묵직
케르
폐하
##와르
가득차
장기전
경비원
순삭
비잔
척추
특출나
pe
교구
조공
얌전
일등
수배
수리검
##배기
사서
영령
사이먼
##어가드
micro
기판
레프트
##타치
지명타자
스탠스
##교실
카메오
무서
트리스
##ely
대북
##알라
영문판
산지
##수염
tw
센트리
페로
##노미
엘소드
아소
##공동
라트
타리
Mark
반려
소란
##원장
정몽
학파
대입
이를
##테면
슬로건
시제
신빙
파병
소모품
##진군
무방비
자치구
불허
합금
메르시
은가
If
비운
코칭
또래
카트리
##UST
일기토
이를테면
리어가드
필적
##스코어
시부야
발해
파이브
##화물
##골드
##괴수
견고
깜빡
##사유
Art
장학금
일파
##기도
이대호
Best
##디난
후지와라
First
알바니아
성동
섹터
##제비
##픈뮤직
티거
다크니스
하르
##마타
사비
팝픈뮤직
RPM
공민
##현대
크리스티안
##게시판
허술
열화
요건
Sur
노획
충공
퍼스
고하
got
료마
호화
##KO
흉내내
일회
정중
##타나
서태지
##코로
나리타
악영향
##소속
오사
##기자
How
한족
뛰어내리
자백
허벅지
바이퍼
승낙
##칠리아
다구
##라이징
무리수
원성
스킬명
이니셜
탑솔
##카운
삼국사기
그제서야
비열
적기
단타
메탈슬러그
납품
폭군
##무장관
테츠야
플레인
오클랜드
대장군
시녀
크리에이터
who
재발
저항군
마토
제국주의
전갈
##OCK
##여래
id
##궐선거
승기
고속버스
간절
직면
쇼코
잠자
중사
유족
송병구
관전
북아메리카
한장
-.
재규어
뜬공
김인
맨날
음란
포텐셜
Sl
김하
박기
어플
주름
지출
Christ
에어리어
기총
##85
Ap
큰일
팩토리
##경민
요양
장민
내쫓
예거
죄인
219
##INE
아유미
##루오
아키텍
베끼
선역
가늠
결선
##리치
##사인
고뇌
김신
제드
파기
소주
##모프
##저지
들여오
인페르
##권총
##ga
마호
노태우
알몸
##직업
##udio
강령
잔재
지바
중론
##ERF
로코
잘나
틀어막
국수
덩달
##도르프
니아
라이터
데이터베이스
머릿속
레미
안맞
주시
Down
잠식
드래그
##럴드
RED
선후
##임수
시작시
FFFFFF
신약
이규
##상부
임페리얼
사카이
곧장
급속도
Never
NA
시리우스
프론티어
류지
브룩
소폭
##ric
Sam
950
일어판
포레스트
누님
레이무
탈주
통근
##디나
Tour
겉모습
착취
##다듬
##젤리
feel
더러
브리핑
명왕
##work
뛰어오르
해밀턴
Free
NAT
분하
십상
끊어지
지침
한동
경전철
궤멸
망각
##강도
540
대제
밸브
자위
##불리
에러
##시위
##ther
열광
조문
활약상
수족
통찰
##ley
후려치
한눈
##분투
전위
진흥
활발히
ᆫ데다가
Na
전황
외환
Side
##구동
개찰
미워하
박차
원자로
근방
##ux
황소
베놈
채권
GX
독단
직진
##릿수
416
GPS
##사병
Magic
난징
질질
칠곡
정부군
보름
동남아
##보장
군세
여리
충동
##NG
##HC
데일리
##시즘
##표현
뚱뚱
관객수
여운
주립
나오키
연합국
노브
##버터
##erm
커뮤니케이션
yeah
##hy
의존도
동급생
감독직
배틀필드
복각
유창
Track
운임
피칭
공전
끝없이
##너드
김한
청사
개월간
나데
##니컬
설립자
남산
아레스
철퇴
전쟁터
금서
디스트로
이롭
책봉
행세
국내판
Sim
##잡지
##마이트
트라웃
몸싸움
그러다가
특별출연
빈곤
가르시아
고마
엑스맨
바그너
얼룩
두근두근
9000
##루이스
블리츠
개화
장려
화끈
##하니
지하실
개더링
닛산
부피
유노
페드로
##산드라
##즈미
데스매치
KN
루루
##슬쩍
라그나로크
드로
모용
백마
최고속도
창시자
KCC
상수
##교육청
통수
##시에
투표율
분간
틈새
##산성
##난무
시연
##니엄
##용품
엑스박스
레비
수박
첨부
데미안
##추가
##ird
KA
거액
랍시고
콩두
##계급
정류소
알프레드
문경
부러
##하치
Pol
족보
주조
조선총독부
마크로스
민사
게임내
girl
반주
적어지
해지
##마르크
City
부디
적도
행군
엄폐물
PM
거유
활동중
듀얼리스트
다채
연세대
245
##김없이
Happy
##비서
신격
고요
자선
##랜서
##간지
니키
##위안
Party
나우
아르타
##BOX
신령
컨퍼런스
##복합
아란
예매
이어주
야말로
정치가
호그
##재림
Edition
인테리어
##UL
변속기
기공
심부
충공깽
##rew
사업가
리빌딩
일전
Perf
한판
험악
끌어오
메탈기어
AW
스케이트
오아시스
##21
제주특별자치
곁들이
임프
어려
키바
바트
온건
잔존
090
싱크로
축출
##세츠
##UK
시미즈
##중독
##사이즈
고아원
투르크
폴라
##헤치
탐험가
Cap
태양계
BP
YG
버겁
치하
세계수
경비병
야스오
관념
밧줄
앉히
총회
Fall
##재욱
234
정착지
성희롱
di
추상
포섭
짱구
##창고
##수호
방탄소년단
Final
헌법재판소
메딕
소홀
졸리
드러머
지상군
##aka
실감
쥬라기
차오르
##수스
야마자키
키퍼
##칼리버
RT
판명
##yes
츠나
편도
엔터프라이즈
제주특별자치도
life
끌어당기
박병호
제복
EB
##스트리
설교
허다
##란티스
##걸스
감마
토우마
이보
226
롤러코스터
Will
##요코
비타민
넷째
미토
##ris
249
조선소
고성능
동명이인
의뢰인
삽입곡
진범
##국수
전곡
톰슨
페미니스트
각별
잠정
적시
##스피어
김은
##코미
광화문
대나무
성검
피버
##라우드
굴러가
알트
자결
코팅
##묘지
PT
내공
우선시
즐거움
츠바키
리조트
송나라
##승리
우여
본드
샬롯
위안부
그리폰
##포시
##훼손
로스쿨
거라
인터내셔널
골수
받침
연못
예민
근접무기
북동쪽
바알
Angel
이룩
저명
##종교
##남부
##날레
RX
메가트론
버니
루드
조짐
오자
차우
난장판
탄두
대지진
자유당
카드군
Stage
Net
롱주
Spring
make
캄보
보이드
소나무
##펠러
서동
##조림
맥시
##곡절
걷어
이쁘
##법사
물러서
미식축구
네번
##que
매그넘
##arius
소이
##영화제
SEED
동하
해설자
217
##데라
곧이어
다비드
민영
쇼타
점치
적과
##포동
WHIP
막타
##애니
410
미술관
헬스
유승민
신태
사쿠야
식인
영장
유상
정승
##리니
BMW
조로
호각
내한
말살
투수진
##ONE
카르텔
난쟁이
##tain
마르티
하룻
Boy
Club
엠블럼
공석
네이션
박하
교황청
생몰
일식
##ision
홀로그램
우여곡절
##노바
인간관계
다단히트
정대
승리투수
엠블렘
사납
위닝
오리지날
처방
##사살
최원
##러쉬
시어터
만엔
목조
##티움
선전포고
클로버
벼락
겁쟁이
만성
뮤즈
##정복
애시당초
통영
플레이트
개리
베라
##다가
ff
넬슨
무어
베로
타도
블로킹
픽처스
##무관
##농구
로렌스
분비
검열삭제
호라이즌
경순양함
##게이지
1906
엘더스크롤
월등히
화질
228
ABC
BW
표준어
경부선
Come
Great
기스
##str
RR
빨아들이
##팽이
233
새마을
사드
영수
펜스
선발출
코믹스판
압승
빅토리
숙지
##깐
자행
애니플러스
보전
퍼니
##베트남
초라
##자격
##95
##링턴
Cor
경멸
동률
선율
##리역
##종족
##예산
커맨더
맨몸
##프로스
##봉사
##버튼
켈트
클라크
허니
분출
##ASS
몬트리
##말라
##ader
아노
파라오
중순양함
재래
##시도
##ama
브이
##마왕
##OWN
구미호
관세
액수
내용물
야구단
규율
루돌프
페라리
개헌
우이
이아
미약
참격
##ague
크리드
아돌프
이다
사고방식
레바논
괴이
보리스
폰트
형주
사이비
괄호
둘째치
공시
##섞이
받아치
오컬
이츠키
퇴임
##리프트
##슐리
part
미달
삼척
##정상
##연의
화성시
잡아
추론
웨딩
판다
##스텝
마니
물결
##춘기
크로스오버
Class
휴대전
##노이드
##ause
##수석
가넷
##질환
##임금
##IME
황색
224
칼리지
체크카드
어썰
예컨대
효용
##일전쟁
##전략
IMF
별거
원반
공단
실바나
함유
##데시
Break
MY
글래스
Fly
##코리아
##어뜨리
역전재판
375
##ross
잔소리
주공
##랑카
카스티
항쟁
##시노
사업자
##ival
has
SKE
장문
티모
베이커
애니메이터
im
밑바닥
나카노
Legend
캄보디아
신드
흑룡
##다이스
##내역
메츠
오사무
편애
팬미팅
도봉
시엘
##해야
노트수
cont
속임수
Little
써니
PH
위아래
단다
매료
억양
코러스
##원수
만악
##사슬
독살
인천국제공항
짜이
##ism
미네랄
옥타브
이매
황폐
##83
##ᆯ래
##기관총
고철
충원
아이젠
##드라이브
최형우
##거미
##충류
영재
aqu
복수심
광폭
천진
디럭스
만우
탄수
##보르
##유예
칼질
##성우
모금
들어올리
발포
사복
언론인
속주
허약
##락스
이즈리얼
샌드위치
궁궐
실탄
이달
##아오르
우려먹
헤이세이
나지
리제
사우디
애비
발동시
개인정보
남아메리카
종자
취항
환산
##다라
##마비
사냥터
레고
슬라이더
차크라
##요이
센고쿠
아브
원정경기
라우
Girls
스켈레톤
약수
그물
리히
양방향
##부진
틀림없
부천시
##att
Univers
리미티드
조개
##테인
시종착
키사라기
군기
##비리
무로
음료수
과열
리트
엘릭
용납
낙양
파워레인저
하인리히
휴대전화
철자
##다발
##IVE
유역
파커
발열
오승
외장
강서구
증강
피리
라이토
대교
덮이
은색
##부여
##걸
바티칸
횡령
거든요
고고학
티격
공황
능욕
퍼플
노동당
RB
안
임재
라운
정주
초구
는커녕
다이어
발족
필승
Swe
##erry
'~
ER
##스포츠
NFL
담원
동결
미움
사시
##래스카
몬트리올
급여
선더
악평
염동
##제하
우디
공연장
매
fr
##서양
김구라
##지배
는다며
자리매
무네
모차
에마
반공
집요
코요미
##번역
John
백룡
정신병
EXO
APC
가맹
북벌
소요시간
윤종신
광해군
연성
##자락
사단장
한수
이레
절제
개월만
프랑크푸르트
관현
공공기관
코미디언
출연자
never
전동
쾌락
투영
301
에버튼
##나이츠
재림
폭언
전투시
겨냥
빙글
##영업
##렌즈
##지인
확인사살
정진
초심
팔콘
##람회
주부
##티스트
암흑기
만우절
##인권
##오토
##uch
##장식
보스니아
김규
소품
패미컴
냉혹
again
심복
점성
경관
스쿠
총학생
지도부
로버
선딜
신승
쌍용
우왕
##구이
삼장
저속
흑색
미공개
##현수
##폐합
해피엔딩
인스턴
푸드
성우진
방사선
내비치
heart
공평
착안
##민수
Gl
신년
폭넓
##피어
몰두
##이키
포식자
##정호
승승
치솟
퇴직
판단력
강대국
정국
총대
CGV
자리매김
석가
십중
지석
복식
직캠
비행장
낙서
박원
중하
##부위
227
대주교
교통카드
##ords
PRO
조그맣
하강
##서니
##밀도
Mem
Take
##한번
램지
로젠
매끄럽
##조노
마라톤
추축
##큐브
바흐
구실
노선도
##세움
##중대
자서
쿠도
소나타
황해
도요토미
##일치
TBS
홍익
구식
초음
컵스
390
1913
용호
카자흐스탄
도래
##바탕
주제가
