[PAD]	0
[UNK]	0
[BOS]	0
[EOS]	0
[CLS]	0
[SEP]	0
[MASK]	0
▁▃	-0
▁ㅇ	-1
▁ㄱ	-2
▁ㄷ	-3
▁ㅇㅣ	-4
▁ㅎ	-5
▁ㅈ	-6
▁ㅅ	-7
▁ㄴ	-8
ㅡㄴ	-9
ㅡㄹ	-10
▁ㅎㅏ	-11
▁ㅁ	-12
⊸⊸	-13
▁⊸⊸	-14
▁ㅂ	-15
▁ㄹ	-16
▁.	-17
▁ㅇㅏ	-18
▁ㄷㅏ	-19
▁ㅇㅔ	-20
▁ㄴㅡㄴ	-21
▁ㅇㅓ	-22
▁ㄱㅏ	-23
ㅇㅣ	-24
ㅏㄴ	-25
ㅏㅇ	-26
▁ㅇㅢ	-27
ㅓㄴ	-28
ㅕㄴ	-29
▁ㅇㅡㄹ	-30
ㅅㅓ	-31
▁ㅊ	-32
▁ㄱㅗ	-33
ㄹㅣ	-34
▁,	-35
ㄹㅗ	-36
▁ㅈㅣ	-37
▁ㅍ	-38
ㅕㅇ	-39
ㅈㅣ	-40
▁ㄷㅗ	-41
ㄷㅏ	-42
ㅜㄴ	-43
▁ㅅㅣ	-44
▁ㅌ	-45
▁ㄹㅡㄹ	-46
▁ㅇㅡㄴ	-47
▁ㅇㅡ	-48
ㅅㅣ	-49
▁ㄱㅣ	-50
ㅓㅇ	-51
▁ㅋ	-52
▁1	-53
ㅅㅡ	-54
ㅏㄹ	-55
ㅗㅇ	-56
ㅏㄱ	-57
▁ㄹㅗ	-58
ㅜㄹ	-59
▁2	-60
▁ㄱㅓ	-61
▁ㅇㅣㅆ	-62
▁ㄷㅚ	-63
ㅕㄱ	-64
▁ㄱㅡ	-65
▁ㅈㅜ	-66
▁ㅂㅗ	-67
▁ㅅㅏ	-68
ㅎㅏ	-69
▁ㅇㅓㅆ	-70
ㄴㄷㅏ	-71
ㅗㄱ	-72
ㄱㅣ	-73
▁ㄴㅏ	-74
ㄴㅏ	-75
▁ㄸ	-76
ㅡㅇ	-77
ㅇㅓ	-78
ㅓㄱ	-79
▁ㅇㅏㅆ	-80
ㄱㅏ	-81
▁ㅁㅏ	-82
▁ㅈㅏ	-83
▁ㄷㅐ	-84
▁ㄱㅘ	-85
▁ㄷㅡㄹ	-86
▁ㅅㅜ	-87
ㄱㅗ	-88
ㅐㅇ	-89
ㄹㅏ	-90
▁ㄹㅏ	-91
▁ㄱㅔ	-92
▁ㅁㅗ	-93
▁ㄱㅓㅅ	-94
ㄷㅗ	-95
ㅓㅁ	-96
ㅜㄱ	-97
ㄹㅡ	-98
ㄴㅣ	-99
ㄷㅡ	-100
▁ㅇㅣㄹ	-101
▁ㅇㅘ	-102
▁ㅈㅓㄴ	-103
ㅝㄴ	-104
ㅗㄴ	-105
ㅌㅡ	-106
▁-	-107
ㅇㅜ	-108
ㅓㄹ	-109
ㅇㅛ	-110
▁ㅇㅕ	-111
▁ㅅㅡ	-112
ㅅㅏ	-113
▁ㅇㅗ	-114
ㅈㅏㅇ	-115
▁ㅁㅕㄴ	-116
▁ㅂㅏ	-117
▁ㄲ	-118
▁ㅂㅜ	-119
ㅊㅣ	-120
▁3	-121
▁ㅈㅓㄱ	-122
ㅁㅏㄴ	-123
ㅈㅏ	-124
ㄷㅐ	-125
▁ㅁㅏㄴ	-126
ㅇㅣㄴ	-127
▁ㅎㅘ	-128
▁ㅁㅣ	-129
▁ㅈㅓㅇ	-130
ㄹㅓ	-131
▁ㅈㅗ	-132
▁ㅅㅏㅇ	-133
ㅁㅣ	-134
▁20	-135
ㅇㅗ	-136
ㅕㄹ	-137
▁ㅇㅠ	-138
ㅎㅘ	-139
ㅅㅜ	-140
▁:	-141
▁ㄴㅕㄴ	-142
ㅌㅓ	-143
▁ㅂㅣ	-144
ㅈㅓㅇ	-145
▁ㄱㅗㅇ	-146
▁'	-147
ㅑㅇ	-148
▁ㄸㅐ	-149
ㅇㅏ	-150
ㅅㅏㅇ	-151
ㄱㅡ	-152
ㅎㅣ	-153
ㄴㅡㄴ	-154
ㅈㅓㄴ	-155
ㄷㅔ	-156
ㅐㄱ	-157
ㅈㅜ	-158
▁ㅈㅔ	-159
▁ㅇㅟ	-160
▁ㄱㅕㅇ	-161
ㄹㅕㄱ	-162
▁ㅇㅣㄴ	-163
ㄱㅔ	-164
▁ㅈㅜㅇ	-165
▁ㅎㅏㄴ	-166
▁ㅊㅏ	-167
ㅇㅛㅇ	-168
ㅋㅣ	-169
▁ㅅㅗ	-170
▁ㅁㅜ	-171
▁ㅆ	-172
▁4	-173
ㅈㅔ	-174
▁ㅇㅓㅄ	-175
▁ㄴㅗ	-176
▁ㅅㅔ	-177
ㄱㅜㄱ	-178
ㅝㄹ	-179
ㅅㅣㄴ	-180
ㅁㅕㄴ	-181
ㅅㅓㅇ	-182
▁ㄷㅡㅇ	-183
▁ㅅㅓㅇ	-184
ㄱㅜ	-185
ㄹㄹㅣ	-186
ㅁㅜㄴ	-187
ㅂㅜ	-188
ㅇㅑ	-189
▁ㄱㅐ	-190
ㄱㅕㄱ	-191
ㄹㅔ	-192
ㄹㅐ	-193
▁5	-194
ㅁㅏ	-195
ㄱㅘ	-196
▁ㅇㅏㄶ	-197
▁ㅌㅡ	-198
▁ㅁㅕ	-199
▁0	-200
▁ㅌㅏ	-201
ㅌㅏ	-202
▁ㄷㅓㄴ	-203
▁ㅅㅓ	-204
▁ㄷㅡ	-205
ㄷㅗㅇ	-206
▁ㄹㅣ	-207
ㅇㅝㄴ	-208
▁ㄱㅜ	-209
ㅓㅂ	-210
▁ㅇㅝㄹ	-211
▁201	-212
▁/	-213
▁"	-214
▁ㄴㅐ	-215
▁ㅍㅣ	-216
▁ㅈㅏㅇ	-217
ㅡㅁ	-218
▁ㅂㅏㅇ	-219
ㄱㅏㄴ	-220
▁ㅋㅏ	-221
ㄱㅓ	-222
▁ㄷㅗㅇ	-223
▁ㄹㅔ	-224
ㅂㅣ	-225
▁ㅅㅓㄴ	-226
▁ㅇㅕㄴ	-227
▁ㅇㅜ	-228
ㅣㅁ	-229
▁ㅂㅓ	-230
ㅇㅠ	-231
▁ㅇㅕㅇ	-232
▁ㅎㅜ	-233
▁ㅁㅏㄹ	-234
▁ㅇㅛ	-235
▁ㅅㅣㄴ	-236
ㅇㅣㄹ	-237
▁ㅇㅏㄴ	-238
▁ㅃ	-239
▁ㅅㅐㅇ	-240
ㅊㅔ	-241
▁ㄲㅏ	-242
▁ㅇㅑ	-243
▁ㅂㅏㄹ	-244
ㅅㅗ	-245
▁ㄷㅏㅇ	-246
▁ㄷㅔ	-247
▁ㄷㅓ	-248
ㅈㅏㄱ	-249
ㅋㅡ	-250
▁ㅊㅣ	-251
▁6	-252
ㅁㅕㅇ	-253
▁ㅊㅜ	-254
▁ㅍㅏ	-255
▁ㄴㅡㄴㄷㅔ	-256
ㅁㅜ	-257
▁ㅎㅚ	-258
▁ㅋㅡ	-259
▁ㅇㅝㄴ	-260
▁10	-261
▁ㅍㅗ	-262
▁ㅊㅓ	-263
ㅂㅗ	-264
▁ㄱㅏㅇ	-265
ㄱㅖ	-266
▁ㅁㅕㅇ	-267
ㅈㅐ	-268
ㅌㅣ	-269
▁ㅊㅚ	-270
▁ㅁㅐ	-271
▁ㅎㅐ	-272
ㄷㅡㄹ	-273
ㅈㅡ	-274
▁ㅉ	-275
▁7	-276
ㅅㅣㄱ	-277
ㅇㅟ	-278
ㅋㅏ	-279
▁ㅋㅗ	-280
▁ㅁㅜㄴ	-281
▁ㅂㅐ	-282
ㄹㅜ	-283
ㄷㅏㅇ	-284
▁ㅅㅣㄹ	-285
▁ㅂㅓㄴ	-286
ㅁㅕ	-287
ㅇㅣㅁ	-288
ㅁㅜㄹ	-289
▁S	-290
ㄴㅡㅇ	-291
▁ㄱㅏㅌ	-292
ㅎㅜ	-293
▁ㅍㅐ	-294
▁ㅎㅗ	-295
ㅍㅡ	-296
▁8	-297
▁ㄷㅏㄴ	-298
ㅇㅢ	-299
ㅅㅣㄹ	-300
▁ㅂㅜㄹ	-301
▁ㅁㅔ	-302
▁ㄱㅘㄴ	-303
▁ㅈㅣㄴ	-304
▁ㅌㅡㄱ	-305
▁!	-306
ㅎㅐㅇ	-307
ㅇㅡㅁ	-308
▁ㅊㅗ	-309
▁ㅂㅏㄷ	-310
ㅅㅓㄴ	-311
ㄷㅣ	-312
▁ㅁㅏㄶ	-313
ㅍㅣ	-314
ㄹㅏㅁ	-315
ㅁㅗ	-316
▁ㅈㅏㄱ	-317
ㄴㅐ	-318
▁ㄱㅕㄹ	-319
▁ㅂㅏㄴ	-320
ㅌㅗ	-321
ㅂㅓ	-322
▁ㅍㅡ	-323
ㄹㅕ	-324
▁19	-325
ㄷㅏㄴ	-326
ㄱㅛ	-327
ㅇㅕㄱ	-328
ㄱㅗㅇ	-329
ㅅㅗㄱ	-330
▁ㅇㅕㄱ	-331
▁ㅆㅡ	-332
ㅊㅏ	-333
ㅈㅓㅁ	-334
▁9	-335
ㅅㅔ	-336
ㅂㅏㄴ	-337
ㅌㅔ	-338
▁ㄱㅖ	-339
▁ㅁㅕㄴㅅㅓ	-340
▁ㄴㅣ	-341
ㅎㅏㄱ	-342
▁ㄱㅕㅇㅇㅜ	-343
▁ㄱㅗㅇㄱㅕㄱ	-344
ㅂㅜㄴ	-345
▁ㅂㅜㄴ	-346
ㅅㅐㅇ	-347
ㅎㅏㄴ	-348
▁A	-349
ㅎㅚ	-350
ㄹㅗㄱ	-351
▁ㄴㅏㅁ	-352
ㅈㅗ	-353
▁ㅋㅐ	-354
▁ㄷㅜ	-355
▁ㅊㅜㄹ	-356
ㅈㅜㅇ	-357
ㄱㅏㄱ	-358
ㄷㅜ	-359
ㅂㅗㄴ	-360
▁ㅁㅜㄹ	-361
▁M	-362
▁ㅈㅓ	-363
ㅇㅕㄴ	-364
ㅈㅣㄴ	-365
ㅅㅏㄴ	-366
▁ㄱㅜㄱ	-367
ㅔㄹ	-368
▁%	-369
▁ㅎㅕㄴ	-370
ㅈㅓ	-371
ㅎㅗ	-372
ㅌㅐ	-373
▁ㅍㅕㄴ	-374
ㄹㅠ	-375
▁ㅇㅐ	-376
▁ㅈㅗㅎ	-377
▁ㅁㅗㅅ	-378
▁ㅈㅓㅁ	-379
▁ㅇㅏㄹ	-380
▁ㅋㅣ	-381
▁ㅇㅖ	-382
▁ㄱㅏㅁ	-383
ㄹㅓㄴ	-384
▁ㅎㅏㄱ	-385
▁ㅈㅐ	-386
▁ㄷㅣ	-387
ㄹㅡㅁ	-388
ㄱㅘㄴ	-389
ㅇㅕㅇ	-390
ㄴㅗ	-391
▁ㄸㅏ	-392
ㅋㅗ	-393
ㄱㅡㅂ	-394
▁ㄱㅛ	-395
▁C	-396
ㅇㅏㄴ	-397
ㅂㅡ	-398
ㄹㅡㄴ	-399
▁ㅈㅓㅇㄷㅗ	-400
▁B	-401
ㄱㅡㅁ	-402
▁ㄴㅓ	-403
▁ㅌㅗㅇ	-404
ㅂㅏ	-405
ㅈㅓㄱ	-406
▁ㅅㅗㄱ	-407
▁ㅇㅣㅂ	-408
▁T	-409
ㄱㅜㄴ	-410
ㅜㅁ	-411
▁ㄸㅗ	-412
ㅎㅐ	-413
ㅂㅓㅂ	-414
ㄱㅕㅇ	-415
ㅡㄱ	-416
▁ㅍㅡㄹ	-417
ㅅㅡㅂ	-418
ㅂㅏㄹ	-419
▁ㄱㅣㅁ	-420
ㅈㅗㅇ	-421
▁ㅊㅏㅁ	-422
▁ㅅㅓㄹ	-423
▁ㄷㅡㅇㅈㅏㅇ	-424
▁D	-425
ㅂㅏㅇ	-426
▁ㄴㅔ	-427
▁ㅌㅗ	-428
▁ㅎㅕㅇ	-429
ㅁㅣㄴ	-430
▁~	-431
ㅔㄴ	-432
▁+	-433
▁ㅇㅚ	-434
ㅁㅐ	-435
▁ㅎㅏㅁ	-436
▁ㅂㅗㄴ	-437
▁ㅍㅕㅇ	-438
ㅅㅡㅇ	-439
ㅌㅗㅇ	-440
▁12	-441
ㅍㅗ	-442
ㅅㅜㄹ	-443
▁ᄆ	-444
▁..	-445
ㅇㅓㅂ	-446
ㅅㅕㄴ	-447
ㅈㅜㄴ	-448
ㄹㅗㄴ	-449
▁ㅇㅡㅁ	-450
▁?	-451
▁ㅈㅗㅇ	-452
er	-453
▁ㄱㅜㄴ	-454
ㄹㅛ	-455
▁ㅅㅡㅇ	-456
▁ㅊㅔ	-457
ㄱㅓㄴ	-458
▁11	-459
ㅇㅑㅇ	-460
ㅍㅏ	-461
▁ㅎㅣ	-462
▁200	-463
▁L	-464
▁ㅈㅜㄱ	-465
▁ㄱㅝㄴ	-466
ㅇㅘ	-467
▁ㄹㅜ	-468
00	-469
ㅌㅜ	-470
▁ㅌㅣㅁ	-471
ㄴㅕ	-472
▁ㄴㅡㄴㄷㅏ	-473
ㅈㅣㄱ	-474
▁ㅅㅏㄹ	-475
▁ㅇㅛㅇ	-476
▁ㅈㅣㄱ	-477
▁ㅍㅏㄴ	-478
▁ㅌㅔ	-479
ㄱㅐ	-480
▁ㄷㅟ	-481
ㅇㅣㅂ	-482
in	-483
ㅅㅣㅁ	-484
▁ㅎㅘㄱ	-485
▁ㅈㅏㄹ	-486
▁ㄷㅗㄹ	-487
▁F	-488
▁ㅁㅏㅈ	-489
ㅇㅜㄴ	-490
ㅂㄴㅣ	-491
▁ㅅㅣㅁ	-492
▁ㅎㅐㅇ	-493
▁ㅂㅕㄴ	-494
▁P	-495
▁ㄱㅕㅇㄱㅣ	-496
ㅍㅏㄴ	-497
▁ㅂㅏㄱ	-498
▁ㅂㅔ	-499
▁ㄷㅡㅅ	-500
▁ㅇㅜㄴ	-501
▁ㅊㅐ	-502
ㅍㅛ	-503
▁ㄲㅡ	-504
▁ㅁㅏㄴㄷㅡㄹ	-505
ㄹㅣㄱ	-506
ㄹㅓㅎ	-507
▁ㅁㅗㅅㅎㅏ	-508
ㄹㅕㄴ	-509
ㅊㅡ	-510
▁ㅌㅜ	-511
ㅅㅓㄱ	-512
▁ㄷㅏㄹ	-513
ㄹㅏㅇ	-514
ㄴㅓ	-515
▁ㅇㅕㅆ	-516
ㅇㅑㄱ	-517
ㅇㅕ	-518
ㅎㅕㅇ	-519
▁ㅍㅣㄹ	-520
▁G	-521
▁ㄴㅏㄹ	-522
▁ㄱㅓㄴ	-523
ㅈㅗㄱ	-524
ㄷㅓ	-525
ㄷㅡㄴ	-526
ㄹㅑㅇ	-527
▁ㅁㅗㄱ	-528
ㅅㅓㄹ	-529
ㅎㅘㅇ	-530
ㄹㅓㅁ	-531
ㅇㅔ	-532
▁E	-533
▁ㅈㅣㅂ	-534
an	-535
▁ㄴㅗㅍ	-536
▁ㅎㅘㄹ	-537
ㅁㅔ	-538
▁ㄱㅏㄴ	-539
▁ㅇㅑㄱ	-540
ㅂㅗㄱ	-541
ㄲㅏ	-542
on	-543
▁ㅍㅛ	-544
ㅍㅜㅁ	-545
▁ㄱㅏㄱ	-546
ㄹㅕㅇ	-547
ㄴㅈㅣ	-548
ㅎㅕㄴ	-549
ㅊㅓㅇ	-550
▁15	-551
▁ㅇㅑㅇ	-552
▁ㅇㅓㄴ	-553
▁ㅅㅜㄴ	-554
ㄱㅓㅅ	-555
ㅊㅜ	-556
▁ㅎㅛ	-557
ㅊㅜㄹ	-558
ㅈㅓㄹ	-559
ㄴㅔ	-560
ㄹㅏㄴ	-561
▁ㄴㅡㅇ	-562
ㅁㅏㅇ	-563
ㄲㅔ	-564
ㅎㅑㅇ	-565
ㅇㅚ	-566
▁ㅅㅏㅇㄷㅐ	-567
▁ㅅㅐ	-568
ㄹㄹㅏ	-569
▁ㅇㅣㄹㅂㅗㄴ	-570
ㅎㅏㅂ	-571
▁#	-572
▁ㅈㅗㄴ	-573
ㅇㅓㄴ	-574
▁H	-575
▁ㅍㅔ	-576
▁ㄹㅕ	-577
▁ㅌㅣ	-578
▁ㅈㅡㅇ	-579
▁ㅌㅓ	-580
▁ㅎㅏㅁㄲㅔ	-581
ㅎㅘㄴ	-582
▁ㅂㅕㄹ	-583
▁R	-584
▁ㅇㅘㅇ	-585
▁ㅌㅐ	-586
ㅁㅓ	-587
▁ㅎㅏㄴㄱㅜㄱ	-588
▁ㅁㅜㄴㅈㅔ	-589
▁ㅈㅏㅂ	-590
ㅡㄹㄹㅣ	-591
▁ㅅㅗㄴ	-592
▁ㅍㅡㄹㄹㅔ	-593
▁K	-594
▁ㅎㅣㅁ	-595
ㅈㅡㄴ	-596
▁ㅂㅕㅇ	-597
▁t	-598
▁ㅂㅡ	-599
ㅇㅜㄹ	-600
▁ㄴㅡ	-601
▁ㄱㅔㅆ	-602
▁ㅅㅐㅇㄱㅏㄱ	-603
▁ㅊㅓㄴ	-604
ㄹㅣㄱㅌㅓ	-605
ㅋㅣㄹ	-606
ㅁㅗㄱ	-607
▁I	-608
▁N	-609
▁ㅍㅗㄱ	-610
▁ㄴㅡㅇㄹㅕㄱ	-611
▁ㅇㅘㄴ	-612
▁ㅁㅏㄱ	-613
ㄴㄷㅔ	-614
▁ㄲㅡㅌ	-615
▁ㅊㅗㅇ	-616
ㅋㅔ	-617
▁m	-618
ㅂㅕㅇ	-619
▁ㄷㅗㄱ	-620
▁ㄷㅡㄹㅇㅓ	-621
▁ㅎㅏㅇ	-622
▁ㅋㅜ	-623
ㅅㅗㅇ	-624
▁ㄱㅘㅇ	-625
ㅊㅓㄴ	-626
▁ㄴㅜ	-627
▁ㅁㅓㄱ	-628
or	-629
ㄷㅗㄱ	-630
ㅎㅓㅁ	-631
▁ㄱㅡㄴ	-632
ㅂㅔㄹ	-633
▁ㅂㅗㄱ	-634
ㅁㅏㄱ	-635
▁ㅆㅏ	-636
▁ㄱㅓㅁ	-637
ㅂㅐ	-638
▁ㅂㅡㄹ	-639
▁ㅅㅣㄱ	-640
▁ㅃㅏ	-641
▁ㅅㅏㅁ	-642
ㅍㅔ	-643
ar	-644
ㄹㅏㄱ	-645
▁ㄷㅏㅇㅎㅏ	-646
ㄷㅏㅁ	-647
▁ㅆㅣ	-648
ㄹㅓㅂ	-649
ㅁㅏㄹ	-650
ㄴㅕㄴ	-651
▁ㅅㅏㅇㅌㅐ	-652
▁ㅁㅓ	-653
▁ㅋㅓ	-654
▁ㄱㅗㄱ	-655
ㅍㅓ	-656
▁ㅅㅠ	-657
▁ㄷㅏㅇㅅㅣ	-658
▁ㅅㅏㅇㅎㅘㅇ	-659
▁18	-660
ㅅㅐㄱ	-661
▁16	-662
▁ㄱㅣㄹ	-663
ㄴㅅㅡ	-664
▁ㅂㅐㄱ	-665
▁ㅇㅓㅂ	-666
ㄴㄷㅡ	-667
ㄱㅏㅁ	-668
▁ㅇㅓㄹ	-669
▁ㅊㅜㅇ	-670
▁O	-671
at	-672
▁ㅇㅕㄹ	-673
▁30	-674
ㅅㅏㄹ	-675
ㅋㅜ	-676
▁ㄱㅕㄹㄱㅜㄱ	-677
▁ㄱㅡㅁ	-678
▁ㅇㅏㄱ	-679
ㅌㅏㄴ	-680
▁ㅇㅏㅍ	-681
▁ㄹㅓ	-682
ㄱㅡㄴ	-683
▁ㅊㅣㄴ	-684
▁13	-685
he	-686
ㄱㅕㄹ	-687
▁]	-688
ㄹㅣㅂ	-689
▁s	-690
▁ㅁㅏㄶㅇㅣ	-691
▁ㅁㅣㅊ	-692
▁ㅅㅟ	-693
▁ㄴㅜㄴ	-694
▁ㅈㅓㄴㅌㅜ	-695
▁ㄴㅓㅁ	-696
▁W	-697
▁[	-698
▁ㅇㅣㅁ	-699
▁ㅅㅏㄴ	-700
ㅕㅂ	-701
ㅇㅏㄱ	-702
ㄴㅑㅇ	-703
▁14	-704
ㅊㅗ	-705
▁ㄱㅡㅂ	-706
ㅓㄹㅇㅓ	-707
▁ㅅㅓㄴㅅㅜ	-708
▁ㅎㅏㅂ	-709
ㅈㅣㄹ	-710
ㅍㅕㄴ	-711
▁ㅈㅗㄴㅈㅐ	-712
▁ㅎㅕㄴㅈㅐ	-713
ㅉㅗㄱ	-714
▁ㅁㅣㄴ	-715
ㅌㅐㄱ	-716
ㄷㅡㅇ	-717
en	-718
▁ㅊㅟ	-719
ㅈㅓㅂ	-720
▁c	-721
▁17	-722
▁ㅋㅡㄹ	-723
▁ㄱㅚ	-724
▁ㅎㅓ	-725
▁ㄷㅏㄹㄹㅣ	-726
ㄴㅏㅁ	-727
ㅎㅏㅁ	-728
▁ㅅㅏㅇㄷㅏㅇ	-729
▁ㅊㅓㅅ	-730
▁00	-731
ㅇㅖ	-732
ㅎㅏㅇ	-733
▁ㅇㅔㄴ	-734
ㅈㅐㅇ	-735
▁100	-736
▁ㅁㅜㄹㄹㅗㄴ	-737
ㄹㅣㅁ	-738
ㄱㅡㄹ	-739
▁ㄱㅡㄱ	-740
ㅊㅓ	-741
▁ㅌㅗㅇㅎㅏ	-742
▁ㅋㅔ	-743
▁ㅎㅘㅇ	-744
▁ㅈㅓㄹ	-745
▁ㅍㅐㄴ	-746
▁ㅇㅓㄷ	-747
▁ㅊㅏㅇ	-748
ㅂㅓㅁ	-749
ㅌㅔㅁ	-750
▁ㄴㅏㄴ	-751
ou	-752
ㅍㅐ	-753
▁ㅇㅓㅁ	-754
▁25	-755
▁ㄱㅗㄹ	-756
ㅈㅗㄴ	-757
al	-758
▁ㅇㅝ	-759
▁ㅊㅓㅇ	-760
▁V	-761
ㄷㅡㄱ	-762
▁ㅊㅏㅈ	-763
ㄱㅅㅡ	-764
▁ㄱㅘㄴㄹㅕㄴ	-765
▁U	-766
▁ㅅㅣㄹㅈㅔ	-767
ㅜㅇ	-768
ㅇㅜㅁ	-769
ㄱㅏㅇ	-770
▁ㅃㅜㄴ	-771
ㅋㅓ	-772
▁ㅈㅜㄹ	-773
ㄹㄹㅗ	-774
▁ㄴㅗㅎ	-775
▁ㅂㅏㅇㅅㅗㅇ	-776
ㅈㅣㅂ	-777
▁ㄸㅡ	-778
ㄴㅓㄹ	-779
ㄱㅠ	-780
ㅇㅝ	-781
▁ㄱㅏㅌㅇㅣ	-782
▁ㅌㅏㄹ	-783
ㅇㅘㅇ	-784
ㅂㅕㄹ	-785
▁ㅇㅣㄴㅎㅏ	-786
▁2017	-787
▁ㅍㅣㄹㅇㅛ	-788
▁ㄲㅗ	-789
ㄱㅗㄱ	-790
▁ㅂㅓㅂ	-791
ㄲㅣ	-792
▁ㅂㅏㅇㅇㅓ	-793
ㄱㅕㄴ	-794
▁ㅊㅓㄹ	-795
▁199	-796
▁ㅇㅣㄹㅂㅏㄴ	-797
▁ㅉㅐ	-798
▁ㄱㅟ	-799
ㅎㅏㄱㄱㅛ	-800
▁ㄱㅗㅅ	-801
ㅌㅏㄹ	-802
▁ㅎㅘㄴ	-803
▁2018	-804
▁ㅎㅔ	-805
▁ㅇㅕㄱㅅㅣ	-806
ㅋㅡㅁ	-807
ㅇㅡㄴ	-808
ㄴㅡ	-809
ㅇㅕㄹ	-810
▁ㅈㅏㅁ	-811
▁ㅇㅗㄹㄹㅣ	-812
▁ㄹㅐ	-813
▁ㄷㅗㄹㅇㅏ	-814
ㅌㅡㄹ	-815
▁ㅂㅜㄱ	-816
▁ㅂㅓㅁ	-817
ㄴㄱㅏ	-818
ㅂㅓㄴ	-819
▁ㅈㅗㅁ	-820
ㅊㅣㅇ	-821
es	-822
▁k	-823
▁ㄹㅠ	-824
▁ㅂㅜㅌ	-825
▁ㅎㅗㄴ	-826
▁ㄹㅏㄴ	-827
▁ㅌㅏㄴ	-828
it	-829
▁2019	-830
▁ㅈㅡㅇㄱㅏ	-831
▁ㄱㅕㄱ	-832
▁ㅉㅣ	-833
▁ㅇㅕㅇㅎㅘ	-834
▁ㄴㅑ	-835
▁ㅎㅏㄱㄱㅛ	-836
ㅇㅡ	-837
▁ㅈㅣㄴㅎㅐㅇ	-838
ㅂㅏㄱ	-839
▁ㅌㅡㄱㅎㅣ	-840
▁ㄴㅡㄴㅈㅣ	-841
▁ㅊㅏㅁㄱㅗ	-842
▁ㅅㅣㅍ	-843
▁ㄱㅡㄹ	-844
ㅇㅣㄴㄱㅗㅇ	-845
ㅊㅏㄱ	-846
ㅊㅏㅇ	-847
▁ㄸㅓㄹㅇㅓ	-848
▁ㅂㅏㄲ	-849
▁ㅅㅑ	-850
▁ㅇㅓㅄㅇㅣ	-851
▁21	-852
▁ㅂㅗㄴㅇㅣㄴ	-853
▁ㅇㅣㄴㄱㅏㄴ	-854
▁ㄷㅏㅁ	-855
ㄱㅚ	-856
▁ㄱㅠ	-857
▁X	-858
▁ㅍㅜㄹ	-859
▁ㄷㅜㄹ	-860
ㄹㅗㅂ	-861
▁50	-862
▁ㅅㅟㅂ	-863
▁ㅍㅏㄹ	-864
▁ㅅㅗㄱㄷㅗ	-865
▁ㅈㅡㄱ	-866
▁ㅇㅞ	-867
▁ㅈㅏㄱㅍㅜㅁ	-868
ㄹㅓㅎㄱㅔ	-869
▁2016	-870
▁ㄱㅕ	-871
ㄴㅏㄴ	-872
ㅈㅣㅇ	-873
▁ㄱㅓㄹ	-874
▁ㄱㅗㅇㄱㅕㄱㄹㅕㄱ	-875
is	-876
ㅂㅕㄴ	-877
▁ㅈㅜㄴ	-878
▁ㅅㅐㅇㄱㅣ	-879
▁ㅁㅏㄴㅋㅡㅁ	-880
▁ㅅㅡㅂㄴㅣ	-881
re	-882
ㅊㅏㄴ	-883
ㄹㅠㄹ	-884
▁&	-885
▁ㄷㅓㄱ	-886
ㅎㅢ	-887
▁ㅁㅗㅁ	-888
▁ㅂㅏㄺ	-889
ㄸㅐ	-890
ㅂㅔ	-891
ㅌㅓㄴ	-892
▁w	-893
ㄷㅏㄹ	-894
le	-895
ㄹㅣㄴ	-896
▁22	-897
▁ㄴㅓㅎ	-898
ㄹㅖ	-899
▁ㅇㅣㄴㅁㅜㄹ	-900
ㅎㅗㄴ	-901
ㅅㅡㅅ	-902
ㅎㅘㄹ	-903
▁ㅈㅓㅂ	-904
ㅊㅏㄹ	-905
ㄹㅕㅂ	-906
ㅇㅠㄱ	-907
ㅇㅓㅄ	-908
ㅂㅡㄹ	-909
▁ㅇㅏㅁ	-910
ㄹㄹㅓ	-911
▁ㅎㅗㅁ	-912
▁J	-913
ㅊㅓㄹ	-914
▁d	-915
ㄴㅣㅅ	-916
▁ㅁㅕㅊ	-917
ㅂㅔㄴ	-918
▁ㄷㅗㅇㅇㅏㄴ	-919
▁ㅉㅗㄱ	-920
ㄱㅝㄴ	-921
ㅇㅐ	-922
ㅇㅝㄹ	-923
▁ㅇㅜㄹ	-924
▁ㅇㅕㅇㅅㅏㅇ	-925
▁ㅇㅣㄹㅂㅜ	-926
▁24	-927
▁ㅎㅘㄹㄷㅗㅇ	-928
▁ㅊㅜㄱ	-929
▁ㅂㅓㄹ	-930
▁ㅁㅜㄴㅅㅓ	-931
▁ㅅㅡㄹ	-932
ㄱㅘㅇ	-933
▁ㄱㅜㄱㄱㅏ	-934
ㅈㅓㄴㅎㅣ	-935
▁ㅎㅡ	-936
▁ㅎㅢ	-937
▁ㅅㅏㅇㄷㅏㅇㅎㅣ	-938
▁ㅇㅏㄹㄹㅣ	-939
▁ㅍㅕㅇㄱㅏ	-940
ㅅㅜㄴ	-941
▁ㄱㅏㅇㅎㅏ	-942
ㅁㅂㅓ	-943
ing	-944
ic	-945
▁ㅉㅏ	-946
▁f	-947
▁ㄱㅘㄴㄱㅖ	-948
▁ㄴㅏㅈ	-949
ㄴㅏㄹ	-950
▁ㅁㅓㄹ	-951
▁ㅁㅏㄴㄴㅏ	-952
▁ㅁㅏㅌ	-953
ㅅㅡㄴ	-954
▁ㄱㅏㅁㄷㅗㄱ	-955
▁ㅇㅗㄹㄹㅏ	-956
as	-957
ㄱㅡㄱ	-958
▁ㅊㅡ	-959
▁ㅁㅗㄴㅅㅡ	-960
▁b	-961
▁ㅁㅡ	-962
ㄲㅜ	-963
▁ㅎㅗㅇ	-964
ㄷㅗㄹ	-965
ㅍㅡㄹ	-966
▁ㄸㅟ	-967
ㅂㅜㄹ	-968
ㄹㅑ	-969
ㅇㅗㄴ	-970
ㅇㅡㅇ	-971
▁23	-972
ㅇㅠㄹ	-973
▁ㅅㅓㅇㄱㅗㅇ	-974
ㅂㅓㄹ	-975
▁ㅂㅏㄺㅎㅣ	-976
▁ㄸㅓ	-977
▁ㅈㅓㅇㅂㅗ	-978
▁2015	-979
▁ㅈㅜㅇㄱㅜㄱ	-980
▁ㅅㅓㄹㅈㅓㅇ	-981
▁ㅈㅣㄹ	-982
▁ㅁㅏㅇ	-983
ㄹㅑㄱ	-984
▁ㅈㅜㄱㅇㅣ	-985
▁40	-986
ㅆㅣ	-987
▁ㅁㅔㅁㅂㅓ	-988
▁ㅁㅗㄹ	-989
▁ㅅㅓㅇㅇㅜ	-990
▁ㄱㅕㄹㄱㅘ	-991
ㄱㅟ	-992
▁a	-993
▁ㅅㅡㅇㄹㅣ	-994
▁ㄴㅗㄴ	-995
▁ㅁㅐㄴ	-996
▁ㄴㅣㅁ	-997
▁ㅁㅣㄹ	-998
▁ㄹㅣㅇ	-999
▁ㅈㅓㄴㅈㅐㅇ	-1000
▁ㅇㅓㄴㄱㅡㅂ	-1001
▁ㅇㅝㄴㄹㅐ	-1002
ㄱㅜㄹ	-1003
▁ㅇㅗㄴ	-1004
▁ㅍㅓ	-1005
▁ㅅㅓㄹㅁㅕㅇ	-1006
▁ㅋㅏㄹ	-1007
▁ㅋㅓㄴ	-1008
ㅁㅗㄴ	-1009
ㅈㅡㅇ	-1010
▁ㅈㅓㄴㅊㅔ	-1011
▁ㅇㅠㄱ	-1012
▁<	-1013
▁ㅁㅝ	-1014
▁ㅈㅣㄱㅈㅓㅂ	-1015
▁ㅅㅓㄴㅌㅐㄱ	-1016
ㅇㅜㄴㄷㅡ	-1017
ㅇㅡㄹ	-1018
▁ㅆㅣㄱ	-1019
▁ㄴㅠ	-1020
ㄴㅣㅇ	-1021
ㅇㅜㅇ	-1022
ㅂㅐㄱ	-1023
ㅉㅏ	-1024
▁ㅊㅜㄹㅇㅕㄴ	-1025
om	-1026
ㅉㅣ	-1027
▁ㅎㅠ	-1028
▁ㅁㅛ	-1029
▁ㄲㅐ	-1030
am	-1031
▁ㅂㅗㅇ	-1032
▁ㅅㅛ	-1033
ㅎㅏㄹ	-1034
▁p	-1035
ㄷㅣㅇ	-1036
▁ㅈㅡ	-1037
▁h	-1038
▁ㅎㅕㅂ	-1039
▁ㅊㅣㄴㄱㅜ	-1040
▁ㄷㅡㄷ	-1041
▁ㅇㅙ	-1042
ㄴㅡㄹ	-1043
▁ㅂㅏㅇㅂㅓㅂ	-1044
▁ㅃㅐ	-1045
▁ㅈㅏㅇㅁㅕㄴ	-1046
▁ㅇㅓㅁㅊㅓㅇ	-1047
ㄲㅟ	-1048
ㅋㅔㅅ	-1049
ㅊㅜㄱ	-1050
el	-1051
ㅂㅜㄱ	-1052
▁ㄱㅗㅇㅅㅣㄱ	-1053
▁ㄲㅙ	-1054
▁ㅎㅣㅁㄷㅡㄹ	-1055
▁ㄷㅡㄴ	-1056
ㅊㅐㄱ	-1057
ㅊㅗㅇ	-1058
▁ㄱㅏㅂ	-1059
▁ㅌㅏㅂ	-1060
▁ㅊㅡㄱ	-1061
▁198	-1062
▁o	-1063
▁ㄷㅏㅂ	-1064
▁ㄷㅗㄴ	-1065
ㅇㅜㄱ	-1066
▁ㅎㅑㅇ	-1067
ㅎㅚㄱ	-1068
▁ㅅㅗㅇ	-1069
ㅂㅔㄴㅌㅡ	-1070
▁26	-1071
ㄴㅕㅁ	-1072
ㅌㅣㅇ	-1073
▁ㅅㅗㄱㅅㅓㅇ	-1074
▁ㅎㅗㄱ	-1075
ㅅㅡㄹ	-1076
ㄲㅏㅂ	-1077
▁n	-1078
▁2014	-1079
▁28	-1080
ㅅㅟ	-1081
▁ㅇㅕㄴㄱㅜ	-1082
ㅍㅕㅇ	-1083
▁the	-1084
ㄸㅓ	-1085
▁ㅈㅓㄴㅂㅜ	-1086
▁ㄱㅏㅈ	-1087
▁ㅇㅏㅂ	-1088
▁27	-1089
▁ㅊㅐㄱ	-1090
▁ㄴㅏㅁㅈㅏ	-1091
ㄱㅏㅂ	-1092
▁ㄱㅏㅇㅎㅘ	-1093
▁31	-1094
ㄹㅐㄱ	-1095
▁ㅅㅐㄱ	-1096
ㅇㅏㅇ	-1097
▁ㄱㅏㄹ	-1098
▁ㅊㅡㅇ	-1099
▁ㅊㅣㅁ	-1100
▁ㄱㅓㄹㄹㅣ	-1101
▁ㅇㅕㄱㅅㅏ	-1102
ㅋㅓㄹ	-1103
ㅍㅣㄹ	-1104
▁ㅂㅜㄹㄹㅣ	-1105
▁=	-1106
ㅃㅡ	-1107
ㅂㅗㅇ	-1108
ㄱㅗㄴ	-1109
▁ㄷㅗㅇㅅㅣ	-1110
ㄴㅜ	-1111
▁ㄱㅜㅇ	-1112
ㅊㅣㅁ	-1113
ㅇㅓㄹ	-1114
▁ㅅㅓㅇㄴㅡㅇ	-1115
▁ㅅㅔㄴ	-1116
▁ㄷㅣㄹ	-1117
▁ㅅㅓㄱ	-1118
▁ㅆㅗ	-1119
ol	-1120
▁ㅃㅗ	-1121
▁ㅊㅜㄹㅅㅣㄴ	-1122
▁ㅇㅜㄴㅇㅕㅇ	-1123
▁ㅎㅏㄱㅅㅐㅇ	-1124
▁ㅈㅓㅇㅁㅏㄹ	-1125
▁ㅍㅜ	-1126
▁ㄱㅗㅇㄱㅐ	-1127
▁ㅉㅣㄱ	-1128
▁ㅂㅏㄹㅁㅐ	-1129
▁000	-1130
▁ㅎㅘㄱㄹㅠㄹ	-1131
▁ㅌㅡㄱㅅㅓㅇ	-1132
▁ㄴㅗㅇ	-1133
▁ㅇㅔㄹ	-1134
ion	-1135
ㅇㅕㅁ	-1136
▁ㅇㅣㄴㅌㅓ	-1137
ㅎㅜㄴ	-1138
et	-1139
ㅁㅓㄱ	-1140
▁ㅋㅗㄴ	-1141
ㅁㅍㅣ	-1142
▁ㄲㅣ	-1143
ac	-1144
ㅁㅣㄹ	-1145
ㄹㅐㄴㄷㅡ	-1146
▁ㅎㅟ	-1147
ㄹㅓㄴㄷㅔ	-1148
▁ㄷㅏㅇㅇㅕㄴ	-1149
▁ㅊㅏㄱ	-1150
ㅁㅕㄴㅅㅓ	-1151
▁ㅌㅡㄱㅅㅜ	-1152
▁ㄱㅏㅇㄹㅕㄱ	-1153
ㅡㄹㅇㅓ	-1154
▁ㅇㅣㄹㅇㅓ	-1155
ㅁㅐㄴ	-1156
▁ㅂㅗㄹ	-1157
▁32	-1158
▁ㅂㅕㄴㄱㅕㅇ	-1159
ㅂㅕㄱ	-1160
▁ㅇㅝㄹㄷㅡ	-1161
▁ㅈㅏㄴ	-1162
▁ㅇㅜㅁ	-1163
▁ㅂㅏㅇㅅㅣㄱ	-1164
▁ㅇㅕㅇㅇㅜㅇ	-1165
▁ㅂㅏㄹㅅㅐㅇ	-1166
▁ㅈㅏㅇㅂㅣ	-1167
ㅊㅏㄴㄱㅏ	-1168
▁ㅇㅓㅁㅊㅓㅇㄴㅏ	-1169
▁Y	-1170
ㄷㅔㄹ	-1171
▁ㄸㅡㅅ	-1172
il	-1173
us	-1174
ㅇㅓㅆ	-1175
ㅋㅡㄹ	-1176
▁ㅇㅕㅇㅎㅑㅇ	-1177
ㅎㅘㄱ	-1178
▁ㅇㅣㄴㄱㅣ	-1179
▁ㄹㅡ	-1180
▁ㅈㅏㄱㅈㅜㅇ	-1181
▁29	-1182
▁ㄱㅕㄹㅈㅓㅇ	-1183
ig	-1184
▁ㅈㅓㅇㅅㅣㄴ	-1185
▁ㅅㅣㅇ	-1186
ow	-1187
▁ㅁㅐㅂ	-1188
▁ㄴㅏㄴㅇㅣ	-1189
▁ㅃㅏㄹ	-1190
▁v	-1191
▁ㅇㅕㄱㅎㅏㄹ	-1192
▁ㅎㅕㅇㅌㅐ	-1193
ed	-1194
ㄸㅡ	-1195
ㅈㅏㅂ	-1196
▁ㅅㅓㅁ	-1197
▁ㅁㅓㄴ	-1198
ㅇㅓㄱ	-1199
▁ㅈㅘ	-1200
▁2013	-1201
ㄸㅓㅎ	-1202
▁ㅅㅓㅇㄱㅕㄱ	-1203
▁ㅇㅓㄱ	-1204
▁ㅇㅐㄱ	-1205
▁ㅇㅡㅁㅇㅏㄱ	-1206
▁ㅅㅜㄹ	-1207
▁l	-1208
ㅁㅣㄴㄱㅜㄱ	-1209
ㄸㅓㄴ	-1210
▁ㅇㅗㄹ	-1211
▁ㅈㅜㅇㅇㅛ	-1212
▁ㅎㅡㄱ	-1213
ㄱㅐㄱ	-1214
ㅍㅜㅇ	-1215
▁ㅈㅣㅅ	-1216
▁ㅂㅣㅊ	-1217
▁ㅎㅐㅇㄷㅗㅇ	-1218
▁ㅂㅏㄹㄷㅗㅇ	-1219
▁x	-1220
▁ㅇㅐㄹ	-1221
▁ㅇㅣㄹㄷㅏㄴ	-1222
ㅐㅇㅋㅡ	-1223
ㅍㅗㄱ	-1224
▁ㅃㅗㅂ	-1225
▁ㅍㅜㅇ	-1226
▁ㅎㅏㅇㅁㅗㄱ	-1227
▁ㅎㅚㄱ	-1228
▁Lv	-1229
▁60	-1230
ㄷㅓㄱ	-1231
▁ㅍㅖ	-1232
ㅊㅡㄱ	-1233
▁35	-1234
▁ㅁㅏㅈㅊㅜ	-1235
▁ㄲㅡㅌㄴㅏ	-1236
▁ㅅㅣㅁㅈㅣ	-1237
▁ㅅㅜㅁ	-1238
ㅎㅕ	-1239
id	-1240
▁ㅎㅘㄱㅇㅣㄴ	-1241
▁ㅇㅠㄴ	-1242
ㄷㅏㅂ	-1243
▁ㅁㅕㅇㅊㅣㅇ	-1244
ay	-1245
▁ㅁㅠ	-1246
▁ㅇㅝㄴㅈㅏㄱ	-1247
ㅎㅏㄴㅁㅣㄴㄱㅜㄱ	-1248
▁ㄱㅏㅁㅅㅗ	-1249
ad	-1250
▁ㅇㅡㅇ	-1251
ㅎㅟ	-1252
▁01	-1253
▁ㅋㅡㄹㄹㅣ	-1254
▁ㅊㅏㅈㅇㅏ	-1255
▁ㅇㅣㅂㅈㅏㅇ	-1256
▁ㄴㅓㅁㅇㅓ	-1257
▁2012	-1258
ㅅㅜㄱ	-1259
▁ㅎㅘㄹㅇㅑㄱ	-1260
▁ㅎㅡㄴ	-1261
ㄹㅐㅁ	-1262
ㅇㅣㄴㅌㅡ	-1263
▁ㄷㅡㄱ	-1264
▁ㄴㅗㄱ	-1265
▁of	-1266
▁r	-1267
▁ㅈㅓㅇㅊㅣ	-1268
▁ㅌㅡㄱㅈㅣㅇ	-1269
▁ㄷㅠ	-1270
▁ㅎㅜㄴ	-1271
▁ㅁㅓㄴㅈㅓ	-1272
ㅌㅚ	-1273
ㅇㅓㅅ	-1274
▁ㅇㅕㅇㅇㅓ	-1275
▁ㄷㅓㄱㅂㅜㄴ	-1276
ㅇㅈㅏㅇ	-1277
ㅇㅗㄱ	-1278
ot	-1279
ㅌㅡㄴ	-1280
ve	-1281
and	-1282
ㅅㅐ	-1283
▁ㅈㅓㄱㅇㅛㅇ	-1284
ㅁㅕㄹ	-1285
▁ㅇㅓㄹㄱㅜㄹ	-1286
▁ㄷㅓㄴㅈㅣ	-1287
▁ㄱㅘㄴㄹㅣ	-1288
ㄱㅌㅡ	-1289
▁ㅇㅐㄹㅂㅓㅁ	-1290
▁ㅇㅘㄴㅈㅓㄴㅎㅣ	-1291
▁ㅈㅛ	-1292
▁ㄱㅕㅇㅊㅏㄹ	-1293
▁y	-1294
▁ㄷㅗㄱㅇㅣㄹ	-1295
ㅅㅗㄴ	-1296
▁ㄴㅏㄹㄹㅣ	-1297
▁ㅎㅚㄱㄷㅡㄱ	-1298
ㄹㅐㄴ	-1299
ㄹㅚ	-1300
ㅁㅡ	-1301
ㅗㅊ	-1302
ㅈㅕ	-1303
▁TV	-1304
▁ㅊㅏㅁㅈㅗ	-1305
▁ㅅㅏㅇㅅㅡㅇ	-1306
ㅇㅜㅅ	-1307
▁ㄱㅚㅇㅈㅏㅇ	-1308
20	-1309
▁ㅇㅣㅀ	-1310
▁ㅅㅜㄴㄱㅏㄴ	-1311
ch	-1312
▁ㅈㅓㄴㅎㅕ	-1313
ㄷㅓㄴ	-1314
▁ㅈㅏㄱㄱㅏ	-1315
▁ㄱㅗㄴ	-1316
▁ㄱㅜㄱㄴㅐ	-1317
▁ㅌㅓㄴ	-1318
▁ㅅㅐㅇㅅㅏㄴ	-1319
ㄲㅡㅁ	-1320
▁ㄱㅓㄴㅁㅜㄹ	-1321
ㄹㅛㅇ	-1322
▁ㅋㅞ	-1323
▁ㄷㅔㄱ	-1324
ㄱㅗㄹ	-1325
▁ㅁㅏㄴㅎㅘ	-1326
▁ㅈㅓㅇㅂㅜ	-1327
▁ㅁㅜㄹㄹㅣ	-1328
▁ㅅㅣㄹㅍㅐ	-1329
▁ㄷㅗㅇㅇㅣㄹ	-1330
ㅇㅓㅄㅇㅣ	-1331
▁ㅎㅗㄱㅇㅡㄴ	-1332
ㄹㅓㄱ	-1333
un	-1334
▁ㅊㅜㄹㅅㅣ	-1335
▁ㅈㅓㅇㅎㅘㄱ	-1336
ㅁㅓㄴ	-1337
▁ㄷㅏㅁㄷㅏㅇ	-1338
▁ㅅㅓㄴㅂㅏㄹ	-1339
▁ㅇㅓㄹㅁㅏ	-1340
▁37	-1341
▁ㅎㅕㄴㄷㅐ	-1342
▁The	-1343
▁ㅋㅜㄹ	-1344
ㅌㅏㄱ	-1345
ㅊㅏㄶ	-1346
▁ㅋㅏㄴ	-1347
▁ㄲㅜ	-1348
▁ㅋㅣㅇ	-1349
▁ㅂㅏㄹㄱㅕㄴ	-1350
▁ㄷㅏㄴㄱㅖ	-1351
▁ㄱㅕㄴ	-1352
▁ㄹㅏㅇ	-1353
▁ㅇㅕㅇㄱㅜㄱ	-1354
▁ㄹㅑㅇ	-1355
BS	-1356
▁ㅅㅡㅂ	-1357
▁g	-1358
▁ㅂㅏㄴㅇㅡㅇ	-1359
ㅌㅠ	-1360
▁ㅂㅏㄴㄷㅐ	-1361
▁ㅂㅏㄲㅇㅔ	-1362
ㄹㅗㅅ	-1363
ㅊㅜㅇ	-1364
▁ㅁㅏㅅ	-1365
▁ㅅㅣㄹㄹㅕㄱ	-1366
▁ㅍㅏㄴㅁㅐ	-1367
▁2010	-1368
▁St	-1369
▁ㅂㅓㅁㅇㅟ	-1370
▁ㅁㅐㄱ	-1371
▁ㅂㅏㅁ	-1372
ㄱㅗㅅ	-1373
▁ㄷㅡㅇㄱㅡㅂ	-1374
▁ㅅㅏㅇㅇㅟ	-1375
▁ㄸㅏㄹ	-1376
▁ㄸㅏㅇ	-1377
ㅆㅓ	-1378
▁500	-1379
▁45	-1380
ER	-1381
▁80	-1382
▁*	-1383
ㄹㅜㅂ	-1384
▁09	-1385
▁ㄸㅏㄱ	-1386
dd	-1387
▁ㄹㅗㅂ	-1388
▁ㅎㅏㄴㅌㅔ	-1389
ㄴㅗㅎ	-1390
▁)	-1391
▁ㅌㅏㅁ	-1392
ㅇㅞ	-1393
▁ㅇㅜㅁㅈㅣㄱ	-1394
▁ㅌㅚ	-1395
▁ㅁㅣㄹㄹㅣ	-1396
▁ㅁㅜㄴㅎㅘ	-1397
▁ㅇㅏㅆㅇㅓㅆ	-1398
▁02	-1399
▁03	-1400
ㅇㅔㄹ	-1401
ㄷㅓㅁ	-1402
▁ㅍㅗㄱㅂㅏㄹ	-1403
ㅇㅣㄱ	-1404
▁km	-1405
▁ㅂㅏㄹㅅㅏ	-1406
ㅇㅣㄴㅁㅜㄹ	-1407
ff	-1408
ㄱㅠㄴ	-1409
ㄱㅏㄹ	-1410
ㄹㅈㅣ	-1411
▁197	-1412
ㅂㅟ	-1413
▁ㅋㅓㅁ	-1414
▁ㅌㅡㄱㅂㅕㄹ	-1415
▁ㅈㅣㄴㅉㅏ	-1416
ㄱㅓㅁ	-1417
ㅆㅏ	-1418
▁ㅎㅏㄴㅈㅓㅇ	-1419
▁ㄱㅚㅇㅈㅏㅇㅎㅣ	-1420
▁2011	-1421
▁ㄱㅕㅇㅎㅓㅁ	-1422
▁ㄷㅡㅇㅈㅏㅇㅇㅣㄴㅁㅜㄹ	-1423
ir	-1424
▁ㅎㅘㄱㅅㅣㄹ	-1425
▁05	-1426
▁ㄴㅏㄱ	-1427
ㅊㅐ	-1428
▁ㅈㅗㄱ	-1429
▁ㅅㅐㅇㅎㅘㄹ	-1430
▁ㅂㅔㄹ	-1431
▁ㅈㅓㄹㄷㅐ	-1432
▁ㅂㅣㄹ	-1433
ㄹㅔㄴ	-1434
▁ㅇㅕㄴㄱㅣ	-1435
ㅍㅗㄴ	-1436
▁ㅈㅜㅇㅇㅏㅇ	-1437
▁ㅇㅔㄴㄷㅣㅇ	-1438
ㄴㅔㅅ	-1439
▁ㄲㅜㅁ	-1440
▁ㅅㅐㅇㅁㅕㅇ	-1441
▁ㅇㅣㄴㅈㅓㅇ	-1442
▁ㅂㅏㅇㅎㅑㅇ	-1443
▁ㅍㅕㄹ	-1444
os	-1445
ㅁㅗㅅ	-1446
▁ㅎㅓㄴ	-1447
▁ㅎㅘㄹㅇㅛㅇ	-1448
▁ㅇㅜㄴㄷㅗㅇ	-1449
▁ㄱㅜㄹ	-1450
ㄹㅏㅇㅅㅡ	-1451
▁ㅈㅜㅇㄱㅏㄴ	-1452
ㄸㅓㅎㄱㅔ	-1453
▁ㅈㅣㄴㅊㅜㄹ	-1454
▁08	-1455
▁ㅅㅓㄴㄱㅓ	-1456
▁Z	-1457
ㅈㅚ	-1458
im	-1459
ㄷㅡㅇㅎㅏㄱㄱㅛ	-1460
▁07	-1461
▁ㅅㅜㄴㅇㅟ	-1462
ㅁㅣㅇ	-1463
ㅌㅏㅇ	-1464
ㅎㅛ	-1465
▁ㅅㅣㅁㅎㅏ	-1466
▁ㅇㅜㅅ	-1467
▁ㄱㅙ	-1468
ㅅㅠ	-1469
ㅅㅣㄹㅅㅏㅇ	-1470
▁ㅎㅗㄴㅈㅏ	-1471
▁ㅅㅜㄱ	-1472
▁ㅇㅏㄴㅌㅏ	-1473
ㄷㅡㄹㅇㅣ	-1474
▁ㄴㅏㅁㄱㅣ	-1475
▁70	-1476
ㅂㅠ	-1477
ㅇㅏㅂ	-1478
▁ㄷㅡㅅㅇㅣ	-1479
▁ㄴㅗㄴㄹㅏㄴ	-1480
▁90	-1481
▁ㅇㅑㄱㅎㅏ	-1482
ㅎㅗㄱ	-1483
▁48	-1484
▁ㅈㅜㄴㅂㅣ	-1485
ㅇㅛㄱ	-1486
▁ㅇㅕㅍ	-1487
▁ㅁㅣㄷ	-1488
▁ㄹㅣㅇㅋㅡ	-1489
▁ㅎㅏㄱㄴㅕㄴ	-1490
ter	-1491
▁HP	-1492
▁ㅎㅐㄱ	-1493
▁ㅊㅐㅁㅍㅣ	-1494
▁ㅊㅏㅁㅇㅕ	-1495
▁ㅂㅡㄹㄹㅐㄱ	-1496
▁ㄹㅓㄴ	-1497
▁ㅎㅡㅂ	-1498
▁ㅂㅏㅇㅁㅕㄴ	-1499
▁06	-1500
ㅌㅗㅇㄹㅕㅇ	-1501
▁ㅎㅔㄹ	-1502
▁ㅈㅣㄱㅇㅓㅂ	-1503
▁ㅁㅣㄴㅈㅜ	-1504
▁ㄷㅏㅇㅇㅕㄴㅎㅣ	-1505
▁ㅁㅜㄷ	-1506
▁ㅅㅣㅀ	-1507
▁ㅇㅛㄱ	-1508
ㄹㅣㅇ	-1509
▁ㅎㅕㄴㅅㅣㄹ	-1510
▁ㄲㅓ	-1511
▁ㅈㅚ	-1512
▁ㄱㅙㄴ	-1513
▁ㅂㅜㄴㅇㅟ	-1514
▁33	-1515
▁ㅇㅠㄹ	-1516
ㄱㅜㅇ	-1517
▁ㅇㅑㄱㄱㅏㄴ	-1518
▁ㅈㅓㄴㅇㅛㅇ	-1519
ur	-1520
ㅆㅣㄴ	-1521
▁ㅇㅕㄹㄹㅣ	-1522
ㄹㄲㅏ	-1523
▁ㅈㅗㄹ	-1524
▁ㅅㅓㄹㅊㅣ	-1525
▁mm	-1526
▁ㄷㅗㅇㄹㅛ	-1527
▁ㅋㅠ	-1528
▁300	-1529
▁ㅈㅜㅇㅅㅣㅁ	-1530
▁04	-1531
▁ㅎㅡㅇ	-1532
▁...	-1533
▁ㅂㅣㄴ	-1534
▁2000	-1535
▁ㅋㅗㅁ	-1536
▁ㄷㅏㄴㅅㅜㄴ	-1537
ㅉㅏㄱ	-1538
▁ㅇㅕㅁ	-1539
▁36	-1540
▁ㅎㅏㄹ	-1541
▁ㅇㅒ	-1542
▁ㄸㅗㄱ	-1543
▁ㅈㅡㄹ	-1544
ㅅㅓㅂ	-1545
▁ㅇㅣㄹㅈㅓㅇ	-1546
▁ㅊㅜㄱㄱㅜ	-1547
od	-1548
▁e	-1549
▁ㅈㅗㅇㄹㅠ	-1550
▁ㅇㅣㄺ	-1551
▁ㅎㅝㄹ	-1552
▁ㄱㅕㄹㅎㅗㄴ	-1553
ㄲㅣㅁ	-1554
▁th	-1555
ag	-1556
▁ㅇㅕㄴㅅㅗㄱ	-1557
▁ㅇㅗㅂ	-1558
▁ㅅㅏㅁㅅㅓㅇ	-1559
▁ㅅㅓㅇㅈㅓㄱ	-1560
▁ㄷㅗㅂ	-1561
ㅋㅣㅇ	-1562
▁you	-1563
▁ㅆㅏㅇ	-1564
▁ㅍㅐㄱ	-1565
▁ㄱㅏㄱㄱㅏㄱ	-1566
▁ㄹㅣㄴ	-1567
▁ㅎㅝㄹㅆㅣㄴ	-1568
▁ㄲㅡㄹ	-1569
▁ㄹㅠㄹ	-1570
▁ㅁㅗㄱㅈㅓㄱ	-1571
ㅎㅖ	-1572
▁ㅅㅏㄹㅇㅏ	-1573
▁ㅌㅏㅅ	-1574
ㄷㅏㄱ	-1575
▁ㅂㅏㅇㅇㅕㅇ	-1576
▁ㅈㅣㅇ	-1577
▁ㅊㅏㅁㄱㅏ	-1578
▁ㅇㅣㄱ	-1579
▁ㅂㅕㄱ	-1580
▁ㅂㅏㄹㅍㅛ	-1581
ub	-1582
▁ㅇㅔㄹㄹㅣ	-1583
▁ㅈㅓㄴㅅㅓㄹ	-1584
▁ㅌㅟ	-1585
▁ㅂㅜㄹㄱㅜ	-1586
▁ㄷㅏㅇㅅㅣㄴ	-1587
▁ㅇㅜㄴㅎㅐㅇ	-1588
▁FC	-1589
▁ㅇㅓㄴㅈㅔ	-1590
ㅎㅕㄹ	-1591
▁ㄴㅕ	-1592
▁ㅅㅓㅇㅈㅏㅇ	-1593
▁ㅈㅗㅇㅈㅗㄱ	-1594
▁ㅅㅔㄴㅌㅓ	-1595
▁ㄹㅕㄱ	-1596
ㅎㅕㄱ	-1597
ㄱㅏㅌ	-1598
ㅌㅣㄴ	-1599
▁ㅍㅕㄹㅊㅣ	-1600
▁ㄱㅏㄱㅅㅓㅇ	-1601
▁ㅈㅏㄹㅁㅗㅅ	-1602
ㅇㅐㄱ	-1603
▁ㅈㅓㄴㅁㅜㄴ	-1604
igh	-1605
▁cm	-1606
▁ㅂㅕㄴㅎㅏ	-1607
▁ㅉㅏㄼ	-1608
▁ㅇㅓㅂㄷㅔ	-1609
▁ㅈㅗㅇㄹㅛ	-1610
ㄹㄹㅔ	-1611
▁ㅈㅏㅇㅊㅏㄱ	-1612
▁ㅇㅗㄱ	-1613
▁ㅋㅐㅁ	-1614
ㅂㅣㄴ	-1615
▁ㄴㅡㄹㅇㅓ	-1616
▁ㄹㅗㄴ	-1617
ㅌㅔㄴ	-1618
ver	-1619
▁ㅈㅠ	-1620
ㄴㅑ	-1621
▁ㄱㅡㄴㅈㅓㅂ	-1622
▁ㅁㅗㄱㄹㅗㄱ	-1623
ㅂㅗㅅ	-1624
ㅊㅣㄱ	-1625
▁ㅅㅏㄱ	-1626
▁ㅂㅓㄴㅎㅗ	-1627
ㅇㅣㄹㄹㅓ	-1628
ak	-1629
▁ㅇㅜㅁㅈㅣㄱㅇㅣ	-1630
ㅂㅗㄹ	-1631
▁ㅈㅜㄱㅇㅡㅁ	-1632
▁ㅇㅣㄹㅇㅡ	-1633
ㄲㅇㅣ	-1634
ㅎㅕㅂ	-1635
ㅊㅏㅁ	-1636
▁ㅊㅣㅇ	-1637
▁ㅈㅓㅁㅅㅜ	-1638
▁ㅇㅣㄹㅎㅐㅇ	-1639
▁ㄷㅏㄹㅅㅓㅇ	-1640
▁ㅂㅓㅅ	-1641
ㅁㅐㅇ	-1642
▁34	-1643
▁ㄱㅜㄷ	-1644
ㅉㅐ	-1645
▁ㅈㅓㄴㅎㅏ	-1646
▁SK	-1647
ㅋㅣㄴ	-1648
▁ㅎㅏㅇㄱㅗㅇ	-1649
▁ㅍㅣㄱ	-1650
ㄱㅌㅓ	-1651
▁ㄲㅡㄶ	-1652
ent	-1653
▁ㅂㅓㄴㅇㅕㄱ	-1654
▁ㅎㅑㅇㅎㅏ	-1655
ㅊㅓㄱ	-1656
ㅅㅑ	-1657
▁ㅈㅓㅇㅅㅏㅇ	-1658
▁196	-1659
ㅇㅓㅁ	-1660
▁ㅊㅓㄱ	-1661
▁ㅂㅓㄹㅇㅓ	-1662
▁ㅋㅔㄴ	-1663
▁ㅇㅔㄴㅈㅣㄴ	-1664
▁ㅅㅗㄹ	-1665
▁ㄷㅓㅁ	-1666
▁ㄱㅜㄱㅁㅣㄴ	-1667
ㅋㅔㅅㅁㅗㄴ	-1668
▁ㅂㅜㅌㅇㅣ	-1669
ㅇㅘㄴ	-1670
▁ㅍㅗㄹ	-1671
▁ㅇㅏㄴㅈㅓㅇ	-1672
▁ㅊㅜㅇㅂㅜㄴ	-1673
▁ㅁㅗㄱㅅㅗ	-1674
um	-1675
▁ㅋㅡㄹㄹㅐ	-1676
▁ㅊㅜㄹㅈㅓㄴ	-1677
▁ㄹㅔㄴ	-1678
▁ㅁㅏㄴㄷㅡ	-1679
▁ㅈㅓㄴㅈㅏㄱ	-1680
ut	-1681
▁ㅍㅡㄹㄹㅐ	-1682
▁ㅂㅣㅇ	-1683
▁75	-1684
ㅅㅔㄴ	-1685
▁ㄱㅕㅇㅈㅔ	-1686
▁ㅇㅏㄱㅁㅏ	-1687
▁ㅊㅜㅇㄱㅕㄱ	-1688
▁ㄸㅗㄱㄱㅏㅌ	-1689
BC	-1690
ㄷㅜㅇ	-1691
▁ㄹㅐㄴ	-1692
ec	-1693
ㅂㅏㄷ	-1694
▁ㄱㅗㅇㅈㅜㅇ	-1695
▁ㅈㅏㄱㅈㅓㄴ	-1696
▁ㅎㅗㅁㄹㅓㄴ	-1697
▁ㅈㅓㄴㅅㅏ	-1698
▁ㅈㅓㅇㅊㅔ	-1699
▁ㄷㅗㄹㄹㅣ	-1700
ㄹㅗㄹ	-1701
▁38	-1702
▁ㅅㅣㅂ	-1703
▁ㄴㅏㅁㅅㅓㅇ	-1704
▁ㄴㅏㄹㅇㅏ	-1705
▁vs	-1706
▁ㄷㅗㅇㅁㅜㄹ	-1707
▁ㄱㅓㄴㄷㅏㅁ	-1708
ㄱㅓㅂ	-1709
▁ㄴㅗㄹ	-1710
▁ㅌㅓㄹ	-1711
▁ㅍㅜㅁ	-1712
▁ㅅㅔㅁ	-1713
▁ㅅㅕㄴ	-1714
ㅋㅠ	-1715
▁ㅈㅓㄴㅊㅏ	-1716
ㄴㅣㄱ	-1717
▁ㅍㅣㄹㄷㅡ	-1718
▁in	-1719
▁ㅅㅣㅇㄱㅡㄹ	-1720
▁55	-1721
▁ㅎㅕㄹ	-1722
▁ㅎㅜㄴㄹㅕㄴ	-1723
ㄱㅣㄹ	-1724
▁ㄱㅙㄴㅊㅏㄶ	-1725
ㅌㅗㄴ	-1726
▁ㅂㅕㄴㅎㅘ	-1727
▁ㄱㅗㄷ	-1728
▁ㄷㅡㄱㅈㅓㅁ	-1729
▁ㅇㅣㄴㅅㅏ	-1730
▁ㄹㅛ	-1731
▁2009	-1732
▁ㅅㅐㅇㅈㅗㄴ	-1733
▁ㅈㅓㄴㄱㅣ	-1734
ㅇㅠㄴ	-1735
ㅊㅟ	-1736
▁ㅈㅏㅇㄱㅏㅂ	-1737
▁ㄱㅜㄱㅈㅔ	-1738
▁ㅂㅣㄱ	-1739
ㄲㅡ	-1740
ㅇㅕㅂ	-1741
ro	-1742
ST	-1743
▁ㄸㅜ	-1744
▁ㄹㅗㅅ	-1745
▁ㅂㅓㄹㅇㅣ	-1746
▁to	-1747
▁ㄱㅗㅇㅇㅕㄴ	-1748
▁ㅌㅡㄱㅈㅓㅇ	-1749
▁ㄷㅟㅅ	-1750
▁ㅁㅏㄴㅇㅑㄱ	-1751
▁ㅇㅕㄴㄱㅕㄹ	-1752
▁Q	-1753
▁ㄲㅗㅊ	-1754
▁ㅅㅣㄴㄱㅕㅇ	-1755
▁ㄷㅓㄴㅈㅓㄴ	-1756
▁ㅊㅓㄹㄷㅗ	-1757
▁ㅈㅏㅇㅅㅗ	-1758
▁ㅂㅜㄴㄴㅗ	-1759
▁ㅂㅔㄴ	-1760
▁ㄷㅏㄴㅈㅓㅁ	-1761
▁ㅈㅏㄱㄱㅗㄱ	-1762
▁ㅍㅏㄴㅈㅓㅇ	-1763
▁ㅁㅗㄱㅍㅛ	-1764
▁ㅇㅕㄴㅎㅏㅂ	-1765
▁ㅇㅕㄴㅊㅜㄹ	-1766
▁ㄴㅐㅇ	-1767
▁ㅎㅏㅇㅅㅏㅇ	-1768
ㅇㅏㄹ	-1769
▁ㅁㅐㅇ	-1770
▁ㅁㅕㄹ	-1771
▁ㅈㅓㅇㅅㅣㄱ	-1772
▁ㅇㅣㄹㄹㅓ	-1773
ㅋㅗㄴ	-1774
▁_	-1775
▁ㅂㅕㄴㅅㅣㄴ	-1776
▁ㅈㅓㅇㅈㅏㄱ	-1777
ㅃㅏ	-1778
ㄴㅠ	-1779
▁ㅎㅏㄴㅍㅕㄴ	-1780
ㅉㅓ	-1781
▁ㅎㅗㄹ	-1782
▁ㄴㅓㅁㄱㅣ	-1783
▁ㄱㅘㄴㅅㅣㅁ	-1784
em	-1785
▁ㅂㅕㄹㄹㅗ	-1786
▁ㅈㅗㄹㅇㅓㅂ	-1787
ㅎㅏㄱㅅㅐㅇ	-1788
▁ㅂㅏㄴㅁㅕㄴ	-1789
▁ㅈㅣㄴㅎㅘ	-1790
▁ㄹㅗㄱ	-1791
ㅘㄹ	-1792
ㄹㅕㄹ	-1793
▁ㅌㅡㄱㅇㅣ	-1794
▁ㄱㅕㄹㅅㅡㅇ	-1795
▁EX	-1796
▁ㄴㅓㄼ	-1797
▁ㅇㅗㅅ	-1798
ight	-1799
ㄹㅠㄱ	-1800
ㅂㅜㅌ	-1801
ㅈㅡㅁ	-1802
ㅅㅔㅂ	-1803
▁ㅊㅏㄴ	-1804
▁ㅎㅘㄱㅈㅓㅇ	-1805
ㅅㅟㅂ	-1806
ㅇㅏㅁ	-1807
▁ㅋㅟ	-1808
▁2008	-1809
AN	-1810
▁ㄱㅏㄱㅈㅗㅇ	-1811
▁ㅌㅡㄹ	-1812
▁ㄴㅗㅁ	-1813
▁ㅎㅕ	-1814
▁ㄴㅗㄹㄹㅏ	-1815
ㅁㅠ	-1816
AR	-1817
▁ㄱㅓㄴㅅㅓㄹ	-1818
ㅂㅡㄴ	-1819
▁ㅆㅏㅎ	-1820
▁ㅇㅚㄴ	-1821
ㄷㅗㅇㅇㅏㄴ	-1822
▁ㅇㅕㄱㄷㅐ	-1823
▁ㅇㅏㄹㅇㅏ	-1824
ㅅㅙ	-1825
▁ㄱㅗㄹㄷㅡ	-1826
▁ㅅㅏㄱㅈㅔ	-1827
▁ㅎㅘㅇㅈㅔ	-1828
ㅍㅖ	-1829
▁ㄲㅏㄹ	-1830
ap	-1831
ON	-1832
ㅎㅓ	-1833
ㄷㅜㅁ	-1834
▁ㅂㅏㄹㅈㅓㄴ	-1835
▁ㅂㅜㄴㄹㅠ	-1836
▁ㅈㅓㄴㅂㅏㄴ	-1837
ㅌㅔㄹ	-1838
▁42	-1839
▁41	-1840
▁ㅉㅡㅁ	-1841
▁ㄹㅐㅇㅋㅡ	-1842
▁ㅌㅔㄴ	-1843
▁ㅂㅜㄱㅎㅏㄴ	-1844
▁ㄱㅏㅂㅈㅏ	-1845
▁No	-1846
ㅈㅣㅅ	-1847
ㅎㅡㅇ	-1848
▁ㄱㅡㄱㅈㅏㅇ	-1849
▁ㅈㅓㅁㅍㅡ	-1850
▁ㅈㅓㅇㅎㅏ	-1851
▁ㄸㅢ	-1852
▁ㅈㅓㄴㄱㅜㄱ	-1853
▁Ch	-1854
▁ㅇㅣㅁㅁㅜ	-1855
▁ㅅㅏㄹㄹㅣ	-1856
▁39	-1857
▁ㅂㅕㄹㅁㅕㅇ	-1858
ㅈㅔㄱㅌㅡ	-1859
▁',	-1860
▁ㅋㅓㄹ	-1861
▁ㅇㅣㅇ	-1862
ㅁㅏㄹㄹㅗ	-1863
ㄴㅏㄱ	-1864
▁ㅌㅏㄹㅊㅜㄹ	-1865
▁ㅈㅣㄱㅈㅓㄴ	-1866
▁ㅇㅏㅂㄷㅗ	-1867
▁ㅇㅣㄴㅊㅓㄴ	-1868
ㄹㄹㅣㅇ	-1869
▁ㄴㅚ	-1870
▁ㅇㅣㅅ	-1871
ul	-1872
▁ㄱㅏㅁㅈㅓㅇ	-1873
▁ㄱㅘㄴㅎㅏ	-1874
▁ㅁㅗㄴ	-1875
▁ㄴㅏㅂ	-1876
▁ㄷㅏㄴㅇㅓ	-1877
▁ㄱㅣㅍ	-1878
ㅇㅏㅅ	-1879
▁st	-1880
▁ㅈㅏㄱㅇㅓㅂ	-1881
▁ㅇㅕㄴㅅㅡㅂ	-1882
▁kg	-1883
▁ㅇㅓㅂㄱㅡ	-1884
▁ㅊㅘㄹ	-1885
▁ㅇㅘㄴㅈㅓㄴ	-1886
▁ㅎㅐㅇㅈㅓㅇ	-1887
▁44	-1888
▁ㅇㅣㄴㄱㅜ	-1889
▁ㅂㅕㅇㄹㅕㄱ	-1890
ce	-1891
▁ㅅㅏㅇㄱㅘㄴ	-1892
▁ㅍㅗㄴ	-1893
▁ㄱㅗㅇㄱㅏㄴ	-1894
▁ㅋㅓㅂ	-1895
▁ㅈㅣㅂㅈㅜㅇ	-1896
▁ㅂㅜㄹㄱㅏ	-1897
ㅋㅓㅂ	-1898
▁;	-1899
▁194	-1900
▁ㅂㅣㄹㄹㅣ	-1901
ㄲㅡㄹ	-1902
▁ㅁㅜㄹㄱㅓㄴ	-1903
▁ㅎㅗㅁㅍㅔ	-1904
▁ㄹㅗㄹ	-1905
▁ㄴㅗㅍㅇㅣ	-1906
▁ㅁㅗㅇ	-1907
▁ㅍㅔㄴ	-1908
ㅊㅣㄴ	-1909
▁ㅇㅖㅅ	-1910
▁2020	-1911
ㄱㅕ	-1912
ㅊㅗㄴ	-1913
000	-1914
▁ㄲㅜㄴ	-1915
ㄹㅣㅅ	-1916
▁ㅈㅓㄴㅈㅏ	-1917
▁ㅇㅣㄴㅅㅣㄱ	-1918
ik	-1919
▁ㅁㅕㅇㄹㅕㅇ	-1920
▁ㅈㅏㅇㅈㅓㅁ	-1921
▁ㅊㅘㄹㅇㅕㅇ	-1922
▁ㅂㅕㅇㅇㅝㄴ	-1923
▁ㅍㅡㄹㄹㅏ	-1924
▁ㅅㅣㄴㅊㅔ	-1925
▁ㄱㅕㅇㅈㅐㅇ	-1926
ㅂㅏㅂ	-1927
▁>	-1928
ㄹㅔㄱ	-1929
▁ㅈㅏㅁㅅㅣ	-1930
▁ㄱㅕㅁ	-1931
ㅂㅓㅂㅅㅏ	-1932
▁99	-1933
▁ㄱㅡㄴㅊㅓ	-1934
▁ㅅㅏㄹㅇㅣㄴ	-1935
all	-1936
▁LG	-1937
▁ㅂㅗㄴㄹㅐ	-1938
▁ㄱㅗㅇㅈㅜ	-1939
▁ㅈㅓㅇㄹㅣ	-1940
▁ㄱㅜㄴㅅㅏ	-1941
▁2007	-1942
▁ㄹㅗㅅㄷㅔ	-1943
▁43	-1944
▁ㅎㅏㄱㅇㅝㄴ	-1945
▁ㅈㅓㄴㄱㅐ	-1946
▁ㅇㅡㄴㄷㅔ	-1947
IN	-1948
▁ㅇㅞㅂ	-1949
▁ㅅㅜㅁㄱㅣ	-1950
▁195	-1951
▁ㅂㅏㄹㅇㅓㄴ	-1952
▁ㅅㅓㄴㅅㅐㅇ	-1953
▁ㅁㅣㅌ	-1954
▁ㅃㅜ	-1955
▁ㄴㅣㄴ	-1956
▁MA	-1957
▁ㅍㅕㅇㄱㅠㄴ	-1958
▁ㄴㅏㅅ	-1959
▁ㅅㅔㅅ	-1960
▁ㅇㅗㅂㅅㅕㄴ	-1961
▁ㅈㅓㄴㄹㅕㄱ	-1962
▁ㅂㅜㅇ	-1963
▁ㅇㅘㅇㄱㅜㄱ	-1964
ㅋㅛ	-1965
▁ㅂㅜㄺ	-1966
▁ㅁㅔㄴ	-1967
▁ㅅㅗㄱㅎㅏ	-1968
▁ㄱㅏㅇㅈㅔ	-1969
▁ㅍㅗㄱㅌㅏㄴ	-1970
nd	-1971
ㅎㅡ	-1972
▁ㄷㅗㄱㄹㅣㅂ	-1973
▁ㄷㅏㄴㅊㅔ	-1974
▁ㄲㅗㄱ	-1975
▁ㅈㅏㅂㅎㅣ	-1976
▁ㄷㅗㅇㅅㅐㅇ	-1977
▁46	-1978
▁ㅃㅏㄹㄹㅣ	-1979
▁ㄸㅓㄱ	-1980
ㅌㅏㄹㄹㅣ	-1981
▁ㅎㅏㄴㄱㅡㄹ	-1982
▁ㅇㅡㅁㅅㅣㄱ	-1983
▁47	-1984
ㅅㅡㅁ	-1985
▁ㅌㅏㄹㄹㅏㄱ	-1986
▁ㅇㅕㄴㅈㅐ	-1987
▁ㅈㅣㅁ	-1988
th	-1989
ㅊㅡㅇ	-1990
ㄱㅓㄹ	-1991
▁ㄱㅏㅈㅊㅜ	-1992
▁ㅍㅏㄴㄷㅏㄴ	-1993
▁ㅈㅜㅇㅂㅏㄴ	-1994
ㄷㅗㅇㅊㅏ	-1995
▁ㅌㅗㅇㅎㅏㅂ	-1996
▁ㅎㅕㄴㅅㅏㅇ	-1997
▁ㅅㅏㅇㅅㅔ	-1998
▁ㄲㅡㅌㄴㅐ	-1999
▁2006	-2000
▁51	-2001
ㅁㅛ	-2002
▁ㅂㅏㄴㄷㅡ	-2003
▁ㅂㅕㅇㅅㅏ	-2004
▁ㅌㅐㅇ	-2005
▁ㄷㅏㄴㅈㅣ	-2006
▁ㄱㅘㅇㅇㅕㄱ	-2007
▁ㅂㅜㄴㅁㅕㅇ	-2008
op	-2009
▁ㅇㅘㄴㅅㅓㅇ	-2010
▁ㅂㅏㄷㅇㅏ	-2011
ㅅㅜㅁ	-2012
▁ㅎㅐㅇㅇㅟ	-2013
▁ㅇㅘㄴㅂㅕㄱ	-2014
▁ㄱㅜㄴㄷㅐ	-2015
▁ㅈㅜㄹㅇㅓ	-2016
ㅊㅓㅂ	-2017
▁ㅉㅗㅊ	-2018
st	-2019
▁ㅈㅓㅇㄱㅠ	-2020
▁ㅇㅝㄴㅇㅣㄴ	-2021
▁ㄴㅡㄹ	-2022
ㄹㅏㄴㄷㅡ	-2023
▁ㅇㅏㅍㅅㅓ	-2024
▁ㅂㅗㄱㄱㅟ	-2025
▁ㄱㅕㄲ	-2026
▁ㅇㅕㄴㅈㅏㅇ	-2027
▁ㅌㅔㅁ	-2028
▁SP	-2029
▁ㅈㅜㅇㅎㅏㄱㄱㅛ	-2030
▁ㅇㅣㅂㅎㅣ	-2031
ation	-2032
ㅁㅔㄴ	-2033
tt	-2034
▁ㅎㅘㄴㄱㅕㅇ	-2035
ㄱㅈㅓㅇ	-2036
▁ㅎㅣㄹ	-2037
▁ㅈㅣㄱㅎㅜ	-2038
ra	-2039
▁ㅂㅗㄱㅅㅜ	-2040
▁ㅍㅣㄹㅅㅏㄹ	-2041
ㅉㅣㄱ	-2042
ia	-2043
▁ㅇㅣㄴㄷㅗ	-2044
ㅅㅓㅅ	-2045
▁ㅍㅕㅇㅂㅓㅁ	-2046
ack	-2047
▁ㅋㅐㅂ	-2048
▁ㅈㅓㄴㄹㅑㄱ	-2049
ㅅㅣㅇ	-2050
ㄷㅠ	-2051
ㅎㅗㅇ	-2052
▁ㄱㅗㅇㅍㅗ	-2053
▁ㄴㅡㅈ	-2054
▁ㅅㅑㅅ	-2055
▁ㅈㅜㄹㅇㅣ	-2056
▁ㅂㅏㅂ	-2057
▁ㅇㅗㄻ	-2058
▁ㅇㅔㄱㅅㅡ	-2059
▁ㅌㅗㄴ	-2060
▁ㄱㅜㄱㅎㅚ	-2061
▁ㅍㅗㅁ	-2062
▁ㅅㅣㄹㅎㅓㅁ	-2063
▁ㅈㅗㅎㅇㅏ	-2064
▁ㅋㅗㄹ	-2065
▁and	-2066
▁ㄷㅓㄹ	-2067
▁ㅈㅏㅇㄹㅡ	-2068
ㅊㅕ	-2069
▁ㅅㅖ	-2070
▁ㄱㅓㄱㅈㅓㅇ	-2071
▁1000	-2072
▁ㄱㅘㅇㄱㅗ	-2073
▁ㅌㅐㄱ	-2074
▁ㅅㅣㄹㅈㅓㅁ	-2075
▁ㅈㅡㄹㄱㅣ	-2076
▁ㅇㅕㅇㅎㅗㄴ	-2077
▁65	-2078
ㅅㅕㄹ	-2079
▁ㅎㅏㅁㅈㅓㅇ	-2080
ㅈㅘ	-2081
▁ㅈㅐㄱ	-2082
ㅍㅣㄱ	-2083
▁ㅈㅓㅇㅎㅘㄱㅎㅣ	-2084
▁150	-2085
▁ㅁㅓㅅ	-2086
oc	-2087
ㅇㅑㅇㅇㅣ	-2088
▁VS	-2089
▁ㅅㅜㅍ	-2090
▁ㅈㅓㅁㅈㅓㅁ	-2091
ㅂㅣㅇ	-2092
▁ㅈㅓㅇㅇㅢ	-2093
ㅌㅏㅂ	-2094
ㅊㅚ	-2095
ㄲㅗㅊ	-2096
▁ㅎㅏㄴㄱㅖ	-2097
ㅈㅜㄱ	-2098
ㅁㅏㅈ	-2099
ㅇㅜㄴㄷㅔ	-2100
▁ㅅㅓㅇㅎㅑㅇ	-2101
▁ㅇㅏㅇ	-2102
▁ㅊㅐㄱㅇㅣㅁ	-2103
▁ㅅㅣㅁㄱㅏㄱ	-2104
▁ㅃㅓㄴ	-2105
▁ㄱㅜㄷㅇㅣ	-2106
ㅊㅓㅇㅈㅏ	-2107
ie	-2108
ill	-2109
▁ㅈㅓㅂㄱㅡㄴ	-2110
▁ㅎㅘㄱㅈㅏㅇ	-2111
▁ㅇㅗㄻㄱㅣ	-2112
▁ㅍㅕㅇㅅㅗ	-2113
▁ㅇㅏㅁㅅㅏㄹ	-2114
▁ㄱㅐㄹㄹㅓ	-2115
▁ㄱㅡㄴㄷㅔ	-2116
▁ㅎㅕㄱ	-2117
▁ㅋㅡㄹㄹㅓㅂ	-2118
▁ㅂㅗㅇㅇㅣㄴ	-2119
▁ㄱㅓㅁㅅㅏ	-2120
▁ㄱㅗㅇㄹㅑㄱ	-2121
▁ㅂㅡㄹㄹㅜ	-2122
art	-2123
▁ㅊㅣㄹ	-2124
▁52	-2125
▁ㅈㅗㅇㅈㅗㅇ	-2126
▁ㄱㅡㅁㅈㅣ	-2127
▁II	-2128
ㅁㅕㅊ	-2129
▁ㅁㅕㅊㅁㅕㅊ	-2130
▁ㅇㅜㄴㅇㅛㅇ	-2131
▁ㅈㅏㅇㅊㅣ	-2132
▁ㅃㅏㅇ	-2133
▁KBS	-2134
▁ㅂㅓㅁㅈㅚ	-2135
ㅡㄹㄹㅣㅇ	-2136
▁ㅇㅔㅁ	-2137
▁ㅎㅏㅂㄹㅠ	-2138
▁2005	-2139
▁ㅈㅓㄴㅎㅘ	-2140
▁64	-2141
▁%,	-2142
ㅈㅔㄹ	-2143
ㅇㅣㅆ	-2144
ㅌㅡㄱ	-2145
▁ㅂㅏㄹㅇㅡㅁ	-2146
▁ㅌㅡㄱㅇㅠ	-2147
▁ㅇㅣㅈ	-2148
▁ㅈㅓㄴㅇㅝㄴ	-2149
ㅇㅗㄹㄹㅣ	-2150
▁ㅈㅟ	-2151
▁ㅂㅐㄴㄷㅡ	-2152
ㅍㅔㄴ	-2153
▁ㅈㅗㅇㅎㅏㅂ	-2154
ㅅㅈㅏ	-2155
uby	-2156
ㄹㅗㅇ	-2157
ri	-2158
▁ㅇㅣㄹㅂㅗㄴㅇㅓ	-2159
▁ㅈㅓㅇㄷㅏㅇ	-2160
▁You	-2161
▁ㅂㅗㄴㄱㅕㄱ	-2162
▁ㅂㅡㄹㄹㅔ	-2163
ab	-2164
▁ㅎㅐㅇㅅㅏ	-2165
▁ㅎㅕㅇㅈㅔ	-2166
▁ㅇㅡㄹㅈㅣ	-2167
▁ㅅㅏㅇㅈㅣㅇ	-2168
▁ㅌㅠ	-2169
▁49	-2170
▁ㅇㅣㄴㅅㅏㅇ	-2171
▁ㅂㅜㄹㅁㅕㅇ	-2172
AL	-2173
▁ㅂㅐㄹ	-2174
▁dd	-2175
▁ST	-2176
est	-2177
▁2004	-2178
▁ㅅㅣㄹㅅㅜ	-2179
▁ruby	-2180
ㄲㅏㄴ	-2181
ㅌㅓㄹ	-2182
▁ㄸㅜㅀ	-2183
▁56	-2184
ㅌㅔㄴㅊㅡ	-2185
▁ㅈㅗㅇㄱㅛ	-2186
▁ㄱㅘㅇㅈㅜ	-2187
▁ㅇㅝㄴㅈㅓㅇ	-2188
ㅂㅎㅣ	-2189
OR	-2190
▁In	-2191
▁ㅎㅠㅇ	-2192
ㅍㅠ	-2193
▁ㅎㅕㅇㅅㅣㄱ	-2194
▁ㅊㅜㅇㅂㅜㄴㅎㅣ	-2195
▁ㅋㅓㄴㅅㅔㅂ	-2196
ㅁㅏㄶ	-2197
ㄴㅕㅇ	-2198
ㅎㅓㄴ	-2199
▁AP	-2200
ㅂㅣㅊ	-2201
▁ㅅㅐㅇㅁㅜㄹ	-2202
ㅁㅗㅇ	-2203
▁MBC	-2204
▁400	-2205
▁ㅂㅏㅇㅍㅐ	-2206
ㅁㅏㅇㅊㅣ	-2207
▁ㅋㅜㄹㅌㅏ	-2208
▁ㄱㅘㄴㅌㅗㅇ	-2209
▁ㄱㅜㄴㄷㅏㄴ	-2210
▁ㅌㅗㅇㅅㅣㄴ	-2211
▁ㅅㅏㅇㅈㅏ	-2212
▁85	-2213
▁ㄴㅡㄴㄱㅏ	-2214
ㅅㅣㅂ	-2215
▁ㅇㅐㄱㅅㅕㄴ	-2216
▁53	-2217
▁ㅈㅏㅇㄴㅏㄴ	-2218
ㄱㅅㅣ	-2219
▁ㄱㅏㄹㄹㅣ	-2220
ㄷㅗㄴ	-2221
▁ㅇㅣㄴㅇㅝㄴ	-2222
▁54	-2223
▁ㄷㅡㅇㄹㅗㄱ	-2224
ㅇㅝㄴㅎㅚ	-2225
▁ㅇㅣㄴㅎㅕㅇ	-2226
ㄲㅓ	-2227
▁ㄷㅏㄹㄹㅏ	-2228
▁ㅂㅏㄱㅅㅏ	-2229
▁ㄹㅐㅇ	-2230
▁ㅁㅓㄱㅇㅣ	-2231
ㄴㅓㅁ	-2232
▁ㅁㅗㅂ	-2233
ㄹㅓㄴㅅㅡ	-2234
▁ㅁㅕㅇㅈㅜㅇ	-2235
▁ㄴㅣㄱ	-2236
▁dddd	-2237
▁dddddd	-2238
▁ㄹㅏㅂ	-2239
ㄲㅗ	-2240
▁ㄹㅏㄱ	-2241
ㅁㅐㄱ	-2242
▁ㅎㅏㄴㄱㅜㄱㅇㅓ	-2243
ㅅㅅㅜ	-2244
▁ㅎㅐㅇㅅㅓㅇ	-2245
▁ㄱㅗㅇㄷㅗㅇ	-2246
▁ㄴㅜㄴㅁㅜㄹ	-2247
▁ㅋㅛ	-2248
▁2002	-2249
▁ㅇㅕㄹㅊㅏ	-2250
ㅈㅜㄹ	-2251
▁Sh	-2252
ㄲㅐ	-2253
▁ff	-2254
ttp	-2255
▁193	-2256
▁ㄷㅡㄹㄹㅣ	-2257
▁ㅇㅑㄱㅈㅓㅁ	-2258
▁http	-2259
ㅍㅣㅇ	-2260
▁ㅇㅝㄴㄱㅓ	-2261
▁ㄷㅏㄹㄹㅓ	-2262
ㅇㅗㅅ	-2263
▁ㅈㅓㄻ	-2264
▁ㄱㅏㄴㄷㅏㄴ	-2265
▁ㅈㅓㅇㅊㅐㄱ	-2266
▁ㄷㅏㄻ	-2267
▁ㅇㅏㄵ	-2268
▁ㅇㅓㄴㅇㅓ	-2269
▁ㅇㅕㅇㅇㅣㅂ	-2270
up	-2271
ㅋㅟ	-2272
ㄷㅡㅁ	-2273
▁ㅌㅐㅅ	-2274
▁ㅍㅠ	-2275
ㅌㅓㅁ	-2276
▁ㄱㅏㅄ	-2277
▁ㄸㅔ	-2278
ㅍㅏㄹ	-2279
ㅡㄹㄹㅣㄴ	-2280
▁ㅇㅗㄹㄹㅣㅁㅍㅣ	-2281
▁ㅇㅘㄴㄹㅛ	-2282
▁ㅂㅏㄴㅂㅗㄱ	-2283
▁ㅍㅣㄹㅅㅏㄹㄱㅣ	-2284
▁ㅆㅡㄹ	-2285
▁ㅎㅘㅇㄱㅡㅁ	-2286
▁ㅂㅓㅅㅇㅓ	-2287
▁ㅎㅖ	-2288
▁ㅅㅐㅇㅅㅓㅇ	-2289
ㅋㅐ	-2290
▁59	-2291
ㅍㅣㄴ	-2292
▁ㅅㅓㄹㄱㅖ	-2293
▁ㅇㅓㄴㄹㅗㄴ	-2294
▁ㅇㅕㄴㄱㅖ	-2295
▁ㅈㅓㄴㅅㅜㄹ	-2296
ㅇㅜㄴㅌㅓ	-2297
▁ㅎㅡㅂㅅㅜ	-2298
▁ㅋㅡㄹㄹㅏ	-2299
▁ㄱㅡㄴㄱㅓ	-2300
▁ㅇㅞㄴ	-2301
▁ㅎㅐㅇㅈㅓㄱ	-2302
▁ㄴㅏㄹㄱㅐ	-2303
▁ㅊㅐㅇ	-2304
▁ㅊㅏㄱㅇㅛㅇ	-2305
ㅋㅗㅇ	-2306
ㄹㅏㅎ	-2307
▁ㅋㅓㅁㅍㅠ	-2308
▁ㅎㅏㅂㅊㅣ	-2309
▁ㅅㅜㅅㅈㅏ	-2310
▁MP	-2311
▁i	-2312
▁ㄹㅏㄹ	-2313
▁PC	-2314
▁ㅍㅕㄴㅅㅓㅇ	-2315
▁ㅅㅓㄴㅇㅓㄴ	-2316
VE	-2317
▁ㅍㅕㄴㅎㅏ	-2318
▁ㅍㅜㄹㄹㅣ	-2319
ㄷㅔㄴ	-2320
▁ㅇㅓㅁㅁㅏ	-2321
▁Sp	-2322
▁Re	-2323
▁ㅌㅡㄱㄱㅣ	-2324
▁ㅌㅔㄹ	-2325
▁ㅎㅕㅁ	-2326
▁ㅋㅓㅅ	-2327
▁ㅅㅏㄴㅇㅓㅂ	-2328
▁ㅂㅏㅇㅎㅐ	-2329
AT	-2330
ㄷㅗㅇㅅㅐㅇ	-2331
ㅆㅡ	-2332
▁ㅅㅓㄴㅈㅓㅇ	-2333
▁ㄱㅕㅂ	-2334
▁58	-2335
▁ㅇㅕㄱㅈㅓㄴ	-2336
▁ㄴㅔㄱ	-2337
▁ㅅㅣㄹㅅㅣ	-2338
▁ㅍㅣㅇ	-2339
ㅏㅅㅓ	-2340
▁ㅅㅡㅇㅂㅜ	-2341
AM	-2342
▁ㅁㅏㅇㅎㅏ	-2343
▁ㅇㅕㄴㅈㅜ	-2344
▁ㅁㅗㄱㅅㅜㅁ	-2345
ㅁㅣㄱㅅㅡ	-2346
▁re	-2347
ang	-2348
ㅂㅣㄹ	-2349
▁ㅈㅣㄴㅇㅣㅂ	-2350
ㅌㅣㄱ	-2351
▁ㄷㅓㅇ	-2352
▁ㄱㅗㅇㅎㅘ	-2353
ate	-2354
▁ㅍㅣㄹㅅㅜ	-2355
ㅋㅏㄴ	-2356
▁ㅂㅏㄱㅅㅡ	-2357
▁57	-2358
▁ㄱㅕㅇㄹㅕㄱ	-2359
▁ㅇㅚㄴㅉㅗㄱ	-2360
▁ㅁㅐㅈ	-2361
ㄷㅚ	-2362
▁ㅅㅓㄴㅁㅜㄹ	-2363
ㄴㅗㄴ	-2364
▁ㅅㅗㄹㄹㅗ	-2365
▁120	-2366
▁ㅅㅓㄹㄹㅣㅂ	-2367
▁ㅇㅝㄴㅎㅏ	-2368
▁ㅎㅚㅅㅅㅜ	-2369
ㅂㅌㅓ	-2370
▁ㅈㅓㄱㅈㅓㄹ	-2371
▁66	-2372
▁ㅈㅏㅇㄱㅣ	-2373
▁ㅇㅏㄴㄷㅡ	-2374
▁ㅊㅕ	-2375
▁ㅈㅓㄴㅎㅘㄴ	-2376
▁ㅁㅓㅁ	-2377
▁ㄷㅗㄱㅈㅏ	-2378
ard	-2379
ㄴㅣㅁ	-2380
ㅇㅕㄴㅎㅣ	-2381
▁ㄸㅏㄱㅎㅣ	-2382
▁95	-2383
▁ㅇㅣㄴㄹㅠ	-2384
▁ㅎㅜㄹ	-2385
▁ㅇㅗㄹㄹㅣㅁㅍㅣㄱ	-2386
▁2003	-2387
ㅅㅕ	-2388
▁ㅈㅏㅂㅇㅏ	-2389
ㅁㅓㄹ	-2390
▁ㅈㅣㄹㅁㅜㄴ	-2391
▁ㅎㅐㅇㅂㅗㄱ	-2392
▁ㅈㅏㅁㄲㅏㄴ	-2393
▁ㅅㅡㅂㄱㅕㄱ	-2394
▁ㅇㅏㄴㅈㅓㄴ	-2395
▁ㄱㅗㅇㅎㅏㅇ	-2396
▁ㄷㅗㄹㅍㅏ	-2397
▁ㄱㅗㅇㅅㅏ	-2398
▁ㅂㅜㄹㄱㅘ	-2399
▁ㄱㅓㄷ	-2400
▁ㅁㅜㄴㅁㅕㅇ	-2401
▁ㅍㅕㄴㅈㅣㅂ	-2402
▁ㅇㅣㄹㅈㅗㅇ	-2403
▁ㅎㅏㅁㄷㅐ	-2404
▁ㄲㅡㄹㅇㅓ	-2405
▁ㄷㅏㄴㅅㅜㄴㅎㅣ	-2406
▁ㅎㅘㄱㅅㅣㄹㅎㅣ	-2407
▁ㅌㅗㅇㄱㅘ	-2408
▁ㄷㅡㄹㅇㅣ	-2409
▁be	-2410
ess	-2411
▁ㅎㅏㄴㅈㅏ	-2412
▁Bl	-2413
▁ㅊㅣㄴㅎㅏ	-2414
ant	-2415
▁ㄲㅗㄹ	-2416
▁ㅈㅣㅂㄷㅏㄴ	-2417
▁ㄱㅏㅁㅇㅏㄴ	-2418
▁BG	-2419
ㅁㅗㄹ	-2420
ㄱㅜㄱㅇㅣㄴ	-2421
▁ㅈㅏㄱㅅㅓㅇ	-2422
▁ㄱㅣㄴ	-2423
▁110	-2424
▁ㅍㅓㄴ	-2425
▁ㅇㅡㄹㄲㅏ	-2426
▁ㅈㅓㄴㅌㅗㅇ	-2427
▁ㅈㅏㅇㄱㅜㄴ	-2428
ㅍㅜㄹ	-2429
▁ㅋㅓㄴㅌㅡ	-2430
IA	-2431
▁on	-2432
▁ㄹㅗㅇ	-2433
▁ㅋㅗㅇ	-2434
▁ㅂㅐㅁ	-2435
▁373	-2436
▁ㅇㅜㄹㅌㅡ	-2437
ell	-2438
ㅇㅜㄹㄹㅣ	-2439
IC	-2440
▁ㅅㅓㄴㅂㅗ	-2441
▁ㅁㅓㄹㅌㅣ	-2442
▁ㅅㅏㅁㄱㅜㄱ	-2443
▁ㅈㅏㅇㅈㅓㄴ	-2444
▁ㅁㅓㅁㅊㅜ	-2445
▁ㅂㅏㅇㅁㅜㄴ	-2446
ㅊㅣㄹ	-2447
▁ㄷㅐㅅ	-2448
ㄹㅏㄹ	-2449
ue	-2450
ct	-2451
▁ㅇㅣㄴㅈㅣ	-2452
ine	-2453
▁ㅈㅓㄴㅈㅏㅇ	-2454
▁or	-2455
▁ㅎㅘㄱㅂㅗ	-2456
▁ㅊㅐㅇㄱㅣ	-2457
▁ㅈㅣㄴㅈㅓㅇ	-2458
▁ㅂㅜㄴㄹㅣ	-2459
▁ㄱㅡㄱㅈㅏㅇㅍㅏㄴ	-2460
▁ㅊㅗㄱ	-2461
▁ㅇㅐㄴ	-2462
▁62	-2463
▁ㅅㅏㅇㅊㅓ	-2464
ㄹㅡㅁㄷㅏㅂ	-2465
▁ㄸㅓㄹ	-2466
▁SS	-2467
PS	-2468
▁ㅅㅕ	-2469
▁ㄷㅣㄹㄹㅓ	-2470
▁Al	-2471
ㅅㅚ	-2472
▁ㅇㅓㅇ	-2473
▁ㅊㅓㅇㅅㅗ	-2474
▁ㅎㅕㄴㅈㅏㅇ	-2475
▁ㄷㅏㅇㅈㅏㅇ	-2476
▁ㅈㅣㄴㅇㅕㅇ	-2477
▁ㄷㅐㄴㅅㅡ	-2478
▁ㅈㅓㄱㄱㅡㄱ	-2479
ist	-2480
▁ㅇㅠㄱㄱㅜㄴ	-2481
▁ㅌㅏㅂㅈㅐ	-2482
▁ㄱㅞ	-2483
ㄹㅡㄴㅉㅗㄱ	-2484
▁ㄱㅐㅇ	-2485
▁ㅅㅜㄴㅅㅓ	-2486
ㄹㅣㄹ	-2487
ove	-2488
▁ㅊㅜㅁ	-2489
▁ㅇㅗㄴㄹㅏ	-2490
▁ㅅㅓㅇㅇㅣㄴ	-2491
▁ㄹㅜㄹ	-2492
ore	-2493
AS	-2494
▁Th	-2495
ㅅㅏㅁ	-2496
▁ㅈㅏㄶ	-2497
▁ㅍㅕㅇㅎㅘ	-2498
▁ㄴㅜㄴㅊㅣ	-2499
▁76	-2500
▁ㄱㅗㅇㅂㅜ	-2501
▁ㄷㅗㅇㅁㅐㅇ	-2502
ㅇㅔㄴ	-2503
▁{	-2504
▁ㅎㅏㄴㅎㅘ	-2505
oo	-2506
▁ㅇㅟㄴ	-2507
▁ㅊㅜㅇㅈㅓㄴ	-2508
▁NP	-2509
▁61	-2510
▁77	-2511
▁ㅈㅓㅇㄹㅕㅇ	-2512
▁ㅇㅛㅇㅂㅕㅇ	-2513
▁ㅂㅡㄹㄹㅗ	-2514
ㅇㅣㄴㅈㅣ	-2515
▁⊸	-2516
▁ㄱㅘㄴㄱㅘㅇ	-2517
ㅁㅕㄴㄹㅏ	-2518
ㅌㅣㅁ	-2519
ㄹㅅㅜ	-2520
▁ㄱㅜㅇㄱㅡㄱ	-2521
▁ㅇㅡㄴㅌㅚ	-2522
▁ㅇㅓㄹㅇㅡㅁ	-2523
▁ㅁㅓㄹㄹㅣ	-2524
ㅊㅜㄴ	-2525
▁com	-2526
▁....	-2527
▁72	-2528
▁ffff	-2529
▁}	-2530
ㅂㅏㄴㅂㅜ	-2531
▁88	-2532
▁ㅍㅏㄴㅌㅏ	-2533
▁ㄱㅕㄱㅌㅜ	-2534
ㅂㅕㅂ	-2535
▁ㅈㅣㄴㅅㅣㄹ	-2536
▁ㅅㅐㅇㅇㅣㄹ	-2537
▁ㅈㅣㄱㅇㅝㄴ	-2538
ㅁㅕㅇㅌㅏ	-2539
▁ffffff	-2540
ive	-2541
ㅎㅡㄱ	-2542
▁ㄱㅏㅅ	-2543
▁ㅂㅣㅁ	-2544
ㅓㅅㅓ	-2545
▁ㅂㅗㄴㅅㅓㄴ	-2546
▁2001	-2547
▁ㄴㅏㅁㅍㅕㄴ	-2548
ong	-2549
ort	-2550
▁ㅈㅓㅁㄹㅕㅇ	-2551
▁ㅂㅐㄹㄹㅓㄴㅅㅡ	-2552
▁ㄴㅡㄹㄹㅣ	-2553
▁ㅇㅠㅇ	-2554
ㅍㅡㄴ	-2555
▁ㄹㅐㄴㄷㅓㅁ	-2556
▁ㅊㅑ	-2557
▁ㅇㅣㅂㅅㅜ	-2558
ers	-2559
▁ㅁㅕㄹㅁㅏㅇ	-2560
▁ㄷㅡㅇㄷㅡㅇ	-2561
OS	-2562
▁SBS	-2563
▁ㄱㅕㄴㅈㅔ	-2564
▁ㅅㅡㅇㄱㅏㅇ	-2565
▁ㄱㅜㄱㅈㅓㄱ	-2566
▁ㄴㅔㅅ	-2567
ip	-2568
▁ㅈㅜㅇㄷㅏㄴ	-2569
ㅎㅔ	-2570
ㅈㅓㄴㄷㅡ	-2571
▁ㅊㅜㄹㅅㅐㅇ	-2572
▁ㅈㅏㄱㅅㅏ	-2573
▁ㅇㅑㄱㅅㅗㄱ	-2574
▁ㄷㅗㄹㄱㅕㄱ	-2575
▁ㅂㅕㅇㄱㅣ	-2576
ain	-2577
ㄹㅓㄹ	-2578
▁ㄱㅗㅇㅇㅝㄴ	-2579
▁PS	-2580
▁ㅇㅓㄴㄴㅣ	-2581
▁98	-2582
▁ㅈㅏㅇㅇㅐ	-2583
ED	-2584
▁ㅌㅡㅁ	-2585
ㅈㅓㄴㅈㅏ	-2586
if	-2587
▁ㄱㅗㅇㅌㅗㅇ	-2588
▁|	-2589
▁ㅅㅏㅂ	-2590
ㅁㅏㄴㅋㅡㅁ	-2591
▁ㅂㅜㄴㅇㅑ	-2592
▁191	-2593
ee	-2594
▁ㄱㅕㅂㅊㅣ	-2595
▁CD	-2596
ㄴㅚ	-2597
EN	-2598
▁ㅁㅏㄱㅎㅣ	-2599
▁600	-2600
▁ㅅㅡㅂㄷㅡㄱ	-2601
▁ㅅㅏㄻ	-2602
ㄹㅠㅇ	-2603
▁ㅇㅣㄴㅅㅐㅇ	-2604
▁ㄷㅏㄱㅌㅓ	-2605
▁ㅇㅟㅇ	-2606
▁ㅂㅗㅁ	-2607
▁ㄷㅏㅇㅅㅓㄴ	-2608
▁ㅉㅗ	-2609
ㅅㅣㅁㅎㅣ	-2610
▁ㅈㅗㅇㅈㅓㅁ	-2611
ㅂㅜㅌㅇㅣ	-2612
▁ㄱㅏㅂㅇㅗㅅ	-2613
▁63	-2614
▁ㄱㅜㄴㅈㅜ	-2615
▁ㅈㅏㅇㅅㅜ	-2616
ㅅㅛ	-2617
▁ㄱㅕㅇㅇㅠ	-2618
▁ㅋㅣㄱ	-2619
▁ㅅㅏㅇㅎㅏ	-2620
▁ㅌㅏㄴㅅㅐㅇ	-2621
▁ㅇㅛㅇㄷㅗ	-2622
▁ㄱㅗㅇㅈㅏㅇ	-2623
▁ㄷㅏㄴㄷㅗㄱ	-2624
▁ㅂㅏㄹㅎㅟ	-2625
▁ㅇㅡㄴㅎㅐㅇ	-2626
▁68	-2627
ith	-2628
▁ㅊㅜㄹㅊㅓ	-2629
▁ㄱㅕㅇㄱㅖ	-2630
▁ㅊㅜㄹㅂㅏㄹ	-2631
ld	-2632
ㄹㅕㅇㄱㅘㄴ	-2633
▁ㅎㅏㅁㅅㅓㄴ	-2634
ly	-2635
ㅇㅣㄹㄹㅣ	-2636
▁ㅎㅗㅇㅂㅗ	-2637
▁1990	-2638
▁ㅊㅡㄱㅁㅕㄴ	-2639
ㄷㅓㄹ	-2640
▁71	-2641
▁ㅇㅡㄴㄱㅡㄴ	-2642
▁ㅅㅏㄹㅎㅐ	-2643
ㄹㅐㅅ	-2644
▁MV	-2645
ㅋㅕ	-2646
▁ㅅㅏㄹㅉㅏㄱ	-2647
▁ㅋㅝ	-2648
▁ㅇㅕㄴㄷㅗ	-2649
▁ㄱㅓㄴㄴㅓ	-2650
▁ㅅㅣㄴㅎㅘ	-2651
▁ㅂㅗㄴㅁㅕㅇ	-2652
▁ㅇㅕㅇㅇㅕㄱ	-2653
ind	-2654
ㄷㅏㄹㄹㅣ	-2655
ㅍㅜ	-2656
▁ㅋㅡㄹㄹㅗ	-2657
ㅍㅡㄹㄹㅔ	-2658
▁ㅅㅓㄴㅂㅐ	-2659
ㅋㅏㄹ	-2660
▁ㅎㅐㄱㅅㅣㅁ	-2661
▁ㅂㅜㅇㄱㅚ	-2662
OL	-2663
▁74	-2664
▁800	-2665
▁67	-2666
▁ㄴㅏㅎ	-2667
▁ㅂㅜㄴㅅㅓㄱ	-2668
▁ㅈㅓㅇㄹㅠ	-2669
ㄴㅟ	-2670
▁ㅇㅕㅇㅇㅝㄴ	-2671
ㄴㅗㅎㄱㅗ	-2672
▁AC	-2673
▁ㅁㅣㄴㅈㅗㄱ	-2674
ㅈㅏㄴ	-2675
ㅈㅜㄴㅎㅣ	-2676
▁ㅇㅓㅂㅁㅜ	-2677
▁ㅅㅜㄴㅅㅜ	-2678
▁ㅋㅝㄹ	-2679
ew	-2680
▁TH	-2681
▁ㅍㅗㄱㅍㅜㅇ	-2682
ry	-2683
ㅇㅣㄴㅈㅓ	-2684
ㅋㅓㄴ	-2685
▁ㅇㅡㅇㅇㅝㄴ	-2686
▁ㅅㅓㅂ	-2687
ㅅㅗㄹ	-2688
▁73	-2689
▁ㄷㅏㄹㄹㅕ	-2690
▁ㅇㅘㅇㅈㅏ	-2691
▁ㅇㅗㄴㄱㅏ	-2692
ㅎㅏㄱㅈㅏ	-2693
ast	-2694
▁ㄷㅐㅅㄱㅡㄹ	-2695
RA	-2696
▁ㅎㅡㄴㅎㅣ	-2697
ㄹㅡㄹ	-2698
▁ㄴㅏㅂㅊㅣ	-2699
▁ㅇㅗㄴㄱㅏㅈ	-2700
IT	-2701
▁ㅎㅕㅂㄹㅕㄱ	-2702
▁ㄷㅗㅇㅇㅏ	-2703
▁ㅌㅏㅂㅅㅡㅇ	-2704
ㄹㅡㅅ	-2705
ㅇㅟㄴ	-2706
▁me	-2707
▁ㅁㅗㄹㄹㅣ	-2708
▁ㅌㅣㄱ	-2709
▁ㄱㅐㄹ	-2710
▁ㅎㅜㄹㄹㅠㅇ	-2711
▁ㄹㅐㅂ	-2712
▁ㅋㅓㄴㅌㅔㄴㅊㅡ	-2713
ㄷㅡㄹㄹㅣ	-2714
▁96	-2715
▁ㅂㅏㄼ	-2716
▁ㅈㅏㅇㄱㅘㄴ	-2717
▁ㅈㅜㅇㄱㅖ	-2718
▁ㄱㅜㄴㅇㅣㄴ	-2719
ㄷㅜㄱ	-2720
ㅁㅣㄹㄹㅣ	-2721
▁ㅇㅣㄹㅈㅏ	-2722
▁ㄹㅐㄴㄷㅡ	-2723
▁ㅈㅡㅇㄱㅓ	-2724
EC	-2725
▁ㅈㅓㄱㄷㅏㅇ	-2726
▁ㅆㅗㄷ	-2727
▁81	-2728
▁ㄱㅏㅁㅅㅏ	-2729
▁ㅇㅕㄹㅅㅣㅁㅎㅣ	-2730
▁NC	-2731
▁AT	-2732
ㅓㅇㅑ	-2733
▁ㅈㅓㄴㄱㅗㅇ	-2734
▁ㅅㅐㅇㅁㅕㅇㄹㅕㄱ	-2735
▁ㅇㅜㄴㅁㅕㅇ	-2736
▁ㅁㅏㄹㄹㅣ	-2737
▁ㅅㅡㄹㄹㅗㅅ	-2738
▁j	-2739
ㄹㅔㅁ	-2740
▁ㅇㅕㄴㅇㅖ	-2741
▁ㅁㅏㄴㅈㅗㄱ	-2742
▁ㅂㅜㄹㄲㅗㅊ	-2743
ㄹㅣㅁㅈㅏ	-2744
▁ㄴㅡㄱ	-2745
▁ㅎㅏㄱㄱㅘ	-2746
ㅅㅔㄹ	-2747
end	-2748
▁an	-2749
ㅍㅐㄱ	-2750
▁78	-2751
▁ㅇㅓㅄㅇㅐ	-2752
▁ㅉㅏㄱ	-2753
▁ㅇㅏㄴㅅㅡㅂ	-2754
▁ㅁㅗㄹㅇㅏ	-2755
LC	-2756
▁1999	-2757
▁ㅁㅏㅌㄱㅣ	-2758
▁ㄷㅔㄴ	-2759
▁ㅈㅓㅇㅁㅏㄹㄹㅗ	-2760
▁84	-2761
▁ㅁㅜㄴㅈㅏ	-2762
▁ㅈㅓㄴㅎㅏㅁ	-2763
▁ㅎㅡㄹㄹㅣ	-2764
▁ㅎㅗㅇㅋㅗㅇ	-2765
▁91	-2766
▁ㄱㅣㅁㅅㅓㅇ	-2767
▁ㅅㅣㄹㅈㅣㄹ	-2768
▁ㅋㅐㄴ	-2769
▁ㅂㅏㄴㅇㅕㅇ	-2770
▁ㄷㅗㄹㅈㅣㄴ	-2771
▁ㅎㅗㄴㄹㅏㄴ	-2772
FA	-2773
▁ㄱㅗㅇㄱㅜㄴ	-2774
ㅎㅐㅇㅎㅣ	-2775
▁ㅍㅕㄴㅇㅢ	-2776
▁ㄷㅏㄴㅇㅟ	-2777
▁192	-2778
▁CP	-2779
▁it	-2780
▁ㅇㅗㅇ	-2781
▁ㅅㅞ	-2782
▁An	-2783
▁ㅈㅗㅂ	-2784
▁ㅆㅓ	-2785
▁ㅈㅡㄱㅅㅣ	-2786
▁ㅂㅜㄹㅇㅏㄴ	-2787
▁ㄱㅠㄴ	-2788
▁ㅌㅗㅇㅇㅣㄹ	-2789
▁ㅂㅏㄴㄱㅕㄱ	-2790
ㄹㅡㅇ	-2791
▁ㄷㅏㅎ	-2792
▁ㅅㅡㄹㄹㅏ	-2793
▁ㄱㅣㅅ	-2794
▁1998	-2795
▁ㄷㅏㅇㅎㅘㅇ	-2796
▁ㄸㅓㄱㅂㅏㅂ	-2797
▁ㅂㅐㄴ	-2798
▁ㅍㅏㅂ	-2799
▁ㅇㅝㄴㅅㅜ	-2800
▁ㄷㅜㄹㄹㅓ	-2801
▁ㅇㅏㅁㅎㅡㄱ	-2802
▁ㅊㅏㅇㅈㅏㄱ	-2803
▁NPC	-2804
▁ㅇㅕㄴㅅㅏ	-2805
▁ㄱㅓㄹㅊㅣ	-2806
▁ㅅㅏㅇㅎㅑㅇ	-2807
ㅌㅗㅁ	-2808
ㅁㅓㅇ	-2809
▁ㅊㅜㅇㄷㅗㄹ	-2810
▁ㄱㅗㅁ	-2811
ㄱㅘㅇㅇㅕㄱ	-2812
▁Ar	-2813
▁ㅊㅏㄹ	-2814
▁ㄴㅣㄴㅈㅏ	-2815
▁ㄱㅕㅇㅎㅓㅁㅊㅣ	-2816
▁ㄷㅡㅇㅍㅏㄴ	-2817
▁ㅅㅣㅁㅈㅏㅇ	-2818
▁He	-2819
▁97	-2820
▁ㅈㅓㅇㅈㅣ	-2821
ㅌㅜㄴ	-2822
▁69	-2823
ㅍㅏㅇ	-2824
ㅍㅔㄱ	-2825
▁ㅈㅏㅇㅅㅣㄱ	-2826
▁ㅁㅏㅁ	-2827
▁82	-2828
▁ㄹㅛㅇ	-2829
▁ㄱㅕㄱㅍㅏ	-2830
▁ㅅㅣㄹㄷㅡ	-2831
▁ㅋㅗㄹㄹㅏ	-2832
▁ㅊㅓㄴㅅㅏ	-2833
▁ㅉㅏㅇ	-2834
▁ㅂㅗㄴㅂㅜ	-2835
▁ㄴㅓㄹ	-2836
ㄴㅗㅁ	-2837
▁ㅇㅔㄹㅍㅡ	-2838
▁ㄱㅘㄴㄱㅐㄱ	-2839
ㅅㅜㄹㅅㅏ	-2840
▁ㅅㅣㄴㄱㅗ	-2841
▁ㄴㅡㄱㄷㅐ	-2842
▁ㄷㅗㅇㄴㅔ	-2843
ㄹㅓㅇ	-2844
ㄱㅘㅇㅇㅕㄱㅅㅣ	-2845
ㅂㅅㅣ	-2846
▁for	-2847
▁MAX	-2848
ㄹㄹㅣㄴ	-2849
▁is	-2850
ㅁㅜㄱ	-2851
▁ㅅㅏㅇㅍㅜㅁ	-2852
▁ㄱㅓㄴㄱㅏㅇ	-2853
▁ㅂㅕㄹㄱㅐ	-2854
▁250	-2855
▁ㅇㅣㅂㅎㅏㄱ	-2856
▁ㅅㅣㄴㄹㅚ	-2857
▁!!	-2858
▁ㅇㅓㅂㅊㅔ	-2859
▁86	-2860
▁ㅇㅔㄴㅌㅓ	-2861
▁ㅈㅓㄴㅈㅓㄱ	-2862
ㅎㅠ	-2863
▁ㅅㅔㄹ	-2864
ㅅㅗㄱㄷㅗ	-2865
▁180	-2866
▁ㅈㅏㄶㅇㅏ	-2867
▁190	-2868
▁ㅈㅑ	-2869
▁ㅁㅔㄹ	-2870
ㅊㅗㄱ	-2871
▁ㄱㅡㄴㅁㅜ	-2872
▁ㄷㅓㅍ	-2873
RE	-2874
▁BGM	-2875
▁ㅈㅓㄱㅎㅣ	-2876
av	-2877
ath	-2878
▁ㄱㅔㅅ	-2879
▁ㅁㅜㄱ	-2880
ㅁㅊㅣ	-2881
▁ㅂㅗㄱㅈㅏㅇ	-2882
ㅋㅗㅁ	-2883
▁Te	-2884
▁ㄴㅏㄲ	-2885
▁ㅈㅓㄴㅂㅏㅇ	-2886
▁ㅈㅣㅂㅇㅏㄴ	-2887
ㅍㅔㄱㅌㅡ	-2888
▁ㅅㅓㄹㄷㅡㄱ	-2889
▁ㅅㅣㄴㅅㅔ	-2890
▁De	-2891
▁ㅇㅕㄴㅅㅏㅇ	-2892
50	-2893
▁SN	-2894
▁ㅁㅏㄱㅈㅏㅇ	-2895
▁ㅇㅔㄱ	-2896
▁ㄱㅕㅇㅅㅏㅇ	-2897
ㅇㅡㅂ	-2898
▁ㅋㅣㄹ	-2899
▁ㅊㅜㄹㅎㅕㄴ	-2900
▁ㅈㅔㄴ	-2901
▁ㄹㅜㄴ	-2902
ㄴㅏㅂ	-2903
▁ㄹㅣㄱ	-2904
▁ㄱㅏㄴㄱㅕㄱ	-2905
▁ㄷㅏㄴㅇㅣㄹ	-2906
se	-2907
▁ㅇㅜㄹㅅㅏㄴ	-2908
▁ㄴㅏㅇ	-2909
▁ㄷㅡㄴㅈㅣ	-2910
▁ㅂㅕㄹㄷㅗ	-2911
ㅈㅔㄴ	-2912
▁ㄱㅏㅁㅇㅕㅁ	-2913
ㄷㅎㅣ	-2914
▁ㅌㅣㅇ	-2915
ㅕㅅㅓ	-2916
▁ㅎㅓㄴㅌㅓ	-2917
▁1997	-2918
▁ㅌㅡㄹㄹㅣ	-2919
one	-2920
ㄷㅗㄹㄹㅣ	-2921
▁ㅈㅡㅇㅁㅕㅇ	-2922
▁ㅂㅜㅌㅈㅏㅂ	-2923
▁ㅂㅏㄴㄹㅏㄴ	-2924
▁ㅎㅕㅇㅅㅓㅇ	-2925
▁ㅈㅓㄹㅂㅏㄴ	-2926
▁Be	-2927
▁ㄹㅕㅇ	-2928
▁ㅊㅜㄹㅈㅏㅇ	-2929
▁ㅂㅏㄴㅈㅣ	-2930
▁ㄱㅕㅇㅎㅑㅇ	-2931
▁ㅎㅏㄴㄸㅐ	-2932
▁ㅆㅏㅎㅇㅣ	-2933
og	-2934
▁ㅂㅡㄹㄹㅗㄱ	-2935
▁ㄱㅗㅇㄱㅣ	-2936
▁ㅅㅣㄹㅎㅐㅇ	-2937
ㄴㅏㅁㄷㅗ	-2938
ㅅㅣㄱㄱㅏㄴ	-2939
▁ㄱㅗㅇㅇㅠ	-2940
▁ㅍㅣㄹㄹㅣ	-2941
▁ㅅㅜㄴㅅㅣㄱㄱㅏㄴ	-2942
ㄸㅏ	-2943
▁83	-2944
▁ㅇㅕㅇㅇㅓㅂ	-2945
▁ㅅㅓㄴㅎㅗ	-2946
▁ㅆㅓㄹ	-2947
ㄹㅕㅁ	-2948
ust	-2949
▁ㅈㅓㄴㄷㅐ	-2950
▁ㅅㅣㄴㅊㅓㅇ	-2951
ㅁㅅㅐ	-2952
▁ㅂㅜㄹㅁㅏㄴ	-2953
▁ㅅㅡㅇㄱㅏㅇㅈㅏㅇ	-2954
▁89	-2955
▁ㅅㅏㅇㅈㅓㅁ	-2956
▁ㅅㅚ	-2957
▁ㄱㅏㅇㅈㅗ	-2958
▁92	-2959
▁ㅎㅡㄴㅎㅏ	-2960
ide	-2961
▁ㅍㅕㅇㅌㅏ	-2962
▁ㅇㅕㄴㅇㅐ	-2963
▁ㄱㅕㅇㅇㅕㅇ	-2964
▁Le	-2965
▁ㅁㅕㅇㅇㅖ	-2966
▁ㅅㅣㄴㄱㅠ	-2967
▁ㅊㅗㅇㄱㅣ	-2968
▁ㅍㅣㄴ	-2969
▁ㅇㅏㅂㅂㅏㄱ	-2970
ㄲㅓㅅ	-2971
▁ㅈㅓㄴㅎㅕㅇ	-2972
▁79	-2973
ㅐㅇㅇㅣ	-2974
▁ㅌㅐㅇㅋㅡ	-2975
▁ㄲㅔ	-2976
▁94	-2977
▁Se	-2978
ㄷㅣㄴ	-2979
ity	-2980
ㄷㅜㅇㅇㅣ	-2981
▁ㅈㅏㄱㅇㅛㅇ	-2982
▁MS	-2983
▁ㄱㅝㄴㅊㅗㅇ	-2984
ㅂㅅㅡ	-2985
▁ㅈㅓㄴㅅㅓㄴ	-2986
▁ㄱㅗㅇㅈㅏㄱ	-2987
▁ㅌㅏㄱ	-2988
▁ㅇㅣㅂㄹㅕㄱ	-2989
ㅁㅍㅡ	-2990
▁ㄷㅗㅇㄱㅣ	-2991
▁ㅂㅕㄴㅎㅕㅇ	-2992
▁ㅎㅘㄴㅅㅏㅇ	-2993
▁ㅌㅏㄴㅇㅑㄱ	-2994
▁ㅋㅟㄴ	-2995
▁ㅅㅣㅁㅍㅏㄴ	-2996
▁ㅌㅗㅇㅅㅏㅇ	-2997
▁ㅇㅣㄹㅅㅏㅇ	-2998
▁93	-2999
ㅎㅔㄴ	-3000
ㄸㅡㄱ	-3001
▁ㅈㅓㅇㄱㅝㄴ	-3002
ㅍㅔㄹ	-3003
▁ㅈㅓㄱㅇㅓ	-3004
▁ㅂㅜㄱㅁㅣ	-3005
▁ㅂㅡㄹㄹㅓ	-3006
OT	-3007
▁ㅅㅣㄴㅈㅏㅇ	-3008
▁ㄹㅔㅂ	-3009
▁ㅍㅗㄱㅈㅜ	-3010
▁87	-3011
▁ㅍㅗㄱㄱㅕㄱ	-3012
ㅂㅜㄱㄷㅗ	-3013
▁ㅂㅠ	-3014
▁ㄱㅕㅇㅂㅣ	-3015
▁DJ	-3016
▁ㄷㅜㅇ	-3017
▁101	-3018
▁ㅂㅏㄱㅅㅏㄹ	-3019
▁ㅂㅓㅁㅇㅣㄴ	-3020
ㅋㅜㄹ	-3021
▁US	-3022
▁ㅇㅛㅇㅅㅏ	-3023
ere	-3024
ㅇㅣㄹㄷㅡ	-3025
▁ㅋㅗㄴㅅㅓ	-3026
▁ㅇㅜㄴㅈㅓㄴ	-3027
AC	-3028
▁ㅇㅐㅇ	-3029
▁1996	-3030
▁On	-3031
▁ㅇㅡㅁㅂㅏㄴ	-3032
▁ㅂㅕㄴㅎㅗ	-3033
age	-3034
ㅇㅣㄹㄹㅓㅅ	-3035
▁ㄱㅓㅁㅅㅐㄱ	-3036
▁ㄷㅗㅇㅂㅏㅇ	-3037
▁1995	-3038
▁KT	-3039
▁ㅊㅐㅂㅌㅓ	-3040
PG	-3041
▁ㅁㅗㄹㄹㅐ	-3042
ㅈㅣㅅㅁㅏㄹ	-3043
ㅇㅕㅇㅅㅏㅇ	-3044
▁ㅅㅣㅁㄹㅣ	-3045
ㅊㅏㅈ	-3046
▁ㅇㅖㅅㄴㅏㄹ	-3047
▁ㅇㅕㄴㄷㅐ	-3048
▁ㅈㅏㄱㄷㅗㅇ	-3049
▁ㅁㅣㄱ	-3050
▁ㅁㅜㄲ	-3051
▁ㄱㅝㄴㄹㅕㄱ	-3052
▁ㄱㅗㅇㅎㅏㄱ	-3053
▁ㅃㅣ	-3054
▁@	-3055
ㅈㅏㄱㅈㅣㄴ	-3056
▁ㅇㅡㅁㅅㅓㅇ	-3057
▁ㄴㅗㅎㅊㅣ	-3058
▁px	-3059
▁ㅇㅛㅇㅇㅓ	-3060
▁ㅁㅓㅅㅈㅣ	-3061
▁MC	-3062
▁.....	-3063
▁ㄷㅗㅇㅇㅕㅇㅅㅏㅇ	-3064
▁ㅃㅕ	-3065
▁ㅎㅕㄱㅁㅕㅇ	-3066
▁ㅁㅏㄴㄷㅡㄴ	-3067
▁ㅌㅐㅇㅋㅓ	-3068
▁ㅂㅜㄹㅍㅕㄴ	-3069
▁ㅅㅣㄴㅇㅣㄴ	-3070
▁ㅌㅔㄹㄹㅔ	-3071
qu	-3072
▁ㅈㅣㄴㅈㅣ	-3073
▁ㄱㅏㄹㄷㅡㅇ	-3074
▁ㅎㅏㄴㄱㅜㄱㅇㅣㄴ	-3075
ㄹㅔㅅ	-3076
▁ㅇㅣㅂㄱㅜ	-3077
▁ㄱㅣㄹㄷㅡ	-3078
▁ㅍㅗㄱㄹㅕㄱ	-3079
▁ㅂㅓㄴㄱㅐ	-3080
▁ㅂㅡㄹㄹㅣ	-3081
ood	-3082
▁",	-3083
▁ㄱㅏㅇㅊㅓㄹ	-3084
▁ㅎㅕㄴㅈㅣ	-3085
▁THE	-3086
▁ㅌㅗㅇㅈㅔ	-3087
▁ㅁㅏㄱㅊㅏ	-3088
▁ㄱㅣㅁㅈㅓㅇ	-3089
▁ㅂㅗㄹㅌㅡ	-3090
▁AI	-3091
▁ㅎㅏㄱㅅㅏㄹ	-3092
ㄲㅏㄹ	-3093
▁ㅁㅏㅈㅅㅓ	-3094
▁ㅁㅣㄹㅇㅓ	-3095
▁ㄹㅣㄹㄹㅣ	-3096
▁ㄷㅓㅅ	-3097
▁ㅁㅣㄴㄱㅏㄴ	-3098
▁ㄱㅜㅂ	-3099
▁ㅌㅡㄱㅎㅘ	-3100
▁ㅍㅕㄴㅈㅣ	-3101
▁ㅎㅐㄴㄷㅡ	-3102
▁ㄴㅗㅇㄱㅜ	-3103
▁ㄱㅐㄹㄹㅓㄱ	-3104
ㅉㅓㅇ	-3105
▁ㅂㅗㄹㄴㅔㅅ	-3106
▁AK	-3107
▁ㄱㅏㅁㅅㅣ	-3108
▁ㅅㅓㅇㅂㅕㄹ	-3109
▁ㅎㅡㅇㅎㅐㅇ	-3110
▁'.	-3111
▁ㅅㅏㅁㅈㅣㄴ	-3112
ㄷㅓㅇ	-3113
▁ㅇㅣㅂㄷㅏㄴ	-3114
▁ㅇㅐㅂ	-3115
▁ㄱㅡㄹㅈㅏ	-3116
▁ㄷㅗㅇㅇㅝㄴ	-3117
▁ㅅㅣㄴㅁㅜㄴ	-3118
▁ㅇㅕㄴㄱㅘㄴ	-3119
ㅍㅗㅁ	-3120
PM	-3121
▁ㅈㅗㅇㅇㅣ	-3122
▁$	-3123
▁ㅂㅣㅊㄴㅏ	-3124
▁ㄲㅏㄲ	-3125
ㅇㅇㅣ	-3126
▁ㅈㅏㅁㅅㅜ	-3127
▁ㄱㅡㅇ	-3128
are	-3129
▁DLC	-3130
IS	-3131
▁ㅈㅓㄴㅈㅣㄱ	-3132
▁ㅇㅕㄴㅂㅏㅇ	-3133
▁ㄱㅕㄹㅅㅡㅇㅈㅓㄴ	-3134
▁ㅎㅑㅇㅅㅏㅇ	-3135
▁ㅊㅜㄹㄹㅕㄱ	-3136
▁ㅅㅏㅇㅅㅏㅇ	-3137
▁Wh	-3138
ㅋㅓㅁ	-3139
▁ㅇㅑㅇㅅㅏㄴ	-3140
▁ㅅㅣㄹㅂㅓ	-3141
▁ㅅㅣㄴㄱㅣ	-3142
BO	-3143
ㄹㅏㄴㅅㅐㄱ	-3144
▁ㄸㅗㄱㄱㅏㅌㅇㅣ	-3145
▁ㅁㅏㅈㅇㅣ	-3146
▁ㅁㅜㄹㄹㅓ	-3147
▁ㅎㅘㄴㅅㅡㅇ	-3148
▁ㄱㅐㄹㄹㅓㄱㅅㅣ	-3149
▁ㅍㅡㄹㄹㅗ	-3150
ㅇㅣㅇ	-3151
ㅌㅗㅂ	-3152
▁ㅎㅏㅅ	-3153
▁ㅅㅣㄴㅅㅓㅇ	-3154
▁ㅂㅣㄹㄷㅡ	-3155
▁ㅋㅡㄹㄹㅔ	-3156
▁ㄷㅗㅇㅈㅏㄱ	-3157
ㄹㅠㄴ	-3158
▁ㅎㅜㅁㅊㅣ	-3159
ㅈㅓㄴㅊㅏ	-3160
▁ㅋㅙ	-3161
ㅇㅛㅇㅈㅏ	-3162
▁1994	-3163
▁ㅁㅕㅇㅈㅜㅇㄹㅠㄹ	-3164
▁Tr	-3165
▁ㄴㅏㄹㅉㅏ	-3166
▁ㄱㅏㄴㅂㅜ	-3167
OM	-3168
▁ㅎㅏㄴㅂㅏㅇ	-3169
▁ㅇㅣㄱㅅㅜㄱ	-3170
▁ㄷㅙ	-3171
▁ㄱㅏㅇㅇㅝㄴ	-3172
▁ㅋㅕ	-3173
▁ㅊㅠ	-3174
▁ㄴㅓㅁㅊㅣ	-3175
▁ㅎㅔㄴ	-3176
▁ㅇㅏㄹㅍㅏ	-3177
▁MVP	-3178
ock	-3179
▁ㅅㅠㅅ	-3180
▁ㄱㅓㅌ	-3181
▁ㅈㅓㄴㅅㅣ	-3182
▁ㅇㅣㅁㅅㅣ	-3183
▁ㅇㅠㅇㅎㅏㅂ	-3184
▁ㄱㅗㅇㅅㅏㄴ	-3185
▁ㅇㅣㅁㅁㅕㅇ	-3186
▁ㅂㅏㄱㄱㅡㄴ	-3187
▁ㅅㅣㄴㅂㅜㄴ	-3188
▁ㄱㅗㅇㅈㅣ	-3189
▁ㅇㅕㄴㄹㅏㄱ	-3190
ㅊㅏㅇㄱㅣ	-3191
▁700	-3192
ake	-3193
▁ㄷㅡㄱㅍㅛ	-3194
▁ㄱㅡㄹㄹㅗ	-3195
▁ㅂㅜㄴㄱㅣ	-3196
OW	-3197
▁ㄱㅓㅂ	-3198
▁ㅈㅓㄴㄷㅏㄹ	-3199
ect	-3200
ass	-3201
oy	-3202
▁he	-3203
ark	-3204
▁''	-3205
▁ㅈㅓㄴㅇㅕㄱ	-3206
ite	-3207
our	-3208
ㅇㅜㄴㅌㅡ	-3209
▁ㅂㅗㅅ	-3210
ob	-3211
ire	-3212
▁ㅅㅐㅁ	-3213
▁ㅎㅘㄴㅈㅏ	-3214
▁ㅋㅝㄹㄹㅣ	-3215
ㅁㅣㄱ	-3216
▁ㅇㅓㅆㅇㅓㅆ	-3217
▁ㅇㅏㄹㄹㅔㄱ	-3218
▁CC	-3219
▁ㄹㅓㄱ	-3220
▁ㅇㅣㄴㅈㅡㅇ	-3221
▁ㅈㅜㅇㅎㅘ	-3222
▁ㅇㅣㄴㅇㅕㄴ	-3223
▁ㅇㅣㄴㅅㅜ	-3224
▁1980	-3225
▁ㅇㅠㄱㅅㅓㅇ	-3226
▁ㅎㅕㅂㅎㅚ	-3227
▁ㄹㅏㅁ	-3228
▁ㄱㅡㄴㅇㅠㄱ	-3229
▁ㅂㅗㄱㅈㅏㅂ	-3230
▁ㅍㅕㄴㄱㅗㄱ	-3231
▁ㅊㅏㅇㅈㅗ	-3232
▁ㅇㅞㅂㅌㅜㄴ	-3233
▁SR	-3234
ㅂㅕㅇㄷㅐ	-3235
▁ㅊㅏㄱㄱㅏㄱ	-3236
▁FI	-3237
▁ㅁㅏㅇㅊㅣ	-3238
▁ㅎㅗㄹㄹㅗ	-3239
ㅎㅗㄹ	-3240
▁Cl	-3241
▁ㄱㅡㄱㄷㅏㄴ	-3242
▁ㅁㅜㄷㅎㅣ	-3243
▁ㅂㅏㄴㅎㅏ	-3244
ah	-3245
▁ㅎㅏㅂㅊㅔ	-3246
ㅁㅏㅇㄱㅏ	-3247
▁ㅈㅏㅇㄱㅛ	-3248
▁ㅁㅓㅇ	-3249
UN	-3250
▁ㅈㅓㄹㅁㅏㅇ	-3251
▁ㄴㅏㅁㅂㅜ	-3252
▁ㅎㅏㅂㅅㅓㅇ	-3253
▁wh	-3254
▁AR	-3255
▁ㅁㅜㄹㅈㅣㄹ	-3256
ES	-3257
▁ㅈㅣㄴㅅㅣㅁ	-3258
▁ㅅㅏㅁㄱㅜㄱㅈㅣ	-3259
▁ㅌㅣㅁㅇㅝㄴ	-3260
ㅁㅓㄴㅌㅡ	-3261
▁ㅂㅜㄴㄹㅑㅇ	-3262
ound	-3263
ㄴㅓㅎ	-3264
▁ㄱㅣㅁㅇㅕㅇ	-3265
▁ㅅㅓㅇㄱㅘ	-3266
ㄹㄹㅣㄱ	-3267
ㅅㅗㄱㅈㅏㄱ	-3268
▁ㅊㅜㄴ	-3269
▁ㅊㅏㅁㅈㅓㄴ	-3270
iz	-3271
▁ㄷㅜㄴ	-3272
▁ㅊㅜㄹㅍㅏㄴ	-3273
▁ㅊㅓㅇㄴㅕㄴ	-3274
▁ㅎㅏㅂㄱㅕㄱ	-3275
ime	-3276
ㄷㅜㅂ	-3277
▁ㅌㅔㄱㅅㅡ	-3278
▁ㅇㅏㄱㅇㅕㄱ	-3279
▁ㅅㅒ	-3280
▁ㄹㅐㅇㅋㅣㅇ	-3281
▁ㅎㅡㅁ	-3282
▁ㅊㅜㄱㅈㅔ	-3283
FC	-3284
▁ㅇㅐㄱㅌㅣ	-3285
▁ㅂㅣㅅ	-3286
ㅇㅑㅎ	-3287
▁Gr	-3288
▁my	-3289
ㄱㅘㄴㅊㅗㅇ	-3290
▁ㄴㅗㄱㅇㅡㅁ	-3291
▁ㄷㅗㅇㅎㅘ	-3292
▁SD	-3293
▁ㄱㅐㄱ	-3294
▁ㅃㅏㄱ	-3295
▁ㄱㅗㄱㅁㅕㅇ	-3296
iv	-3297
▁GT	-3298
▁Me	-3299
▁ㅁㅜㄴㅈㅏㅇ	-3300
ㅅㅏㄱ	-3301
ㅇㅠㅇ	-3302
ㅂㅏㄴㄱㅣ	-3303
LL	-3304
▁116	-3305
▁ㅍㅡㄹㄹㅐㅅ	-3306
▁ㅇㅡㄴㅎㅏ	-3307
▁ㄱㅕㅇㄱㅗ	-3308
▁ㅋㅓㄹㄹㅓ	-3309
▁ㅍㅔㄹ	-3310
▁ㅈㅓㅇㅂㅗㄱ	-3311
▁kt	-3312
▁FA	-3313
ㄹㅜㄱ	-3314
▁ㅇㅏㄹㄹㅔ	-3315
▁ㅊㅓㄹㅈㅓ	-3316
▁ㄱㅏㅇㅇㅢ	-3317
▁ㄷㅏㄴㅈㅏㅇ	-3318
ㅎㅐㅇㄱㅣ	-3319
▁ㅂㅗㄴㅈㅏㄱ	-3320
ID	-3321
▁ㅈㅓㅁㅊㅏ	-3322
▁ㅇㅞㄴㅁㅏㄴ	-3323
▁My	-3324
▁KIA	-3325
▁ㅎㅘㄹㅅㅓㅇ	-3326
▁{{	-3327
▁ㅈㅜㅇㄷㅐ	-3328
▁ㅁㅜㄴㅎㅏㄱ	-3329
▁ㅇㅕㄴㅌㅏ	-3330
▁ㅈㅏㅈ	-3331
▁ㄹㅔㅅ	-3332
▁ㅅㅣㄱㅁㅜㄹ	-3333
ㅁㅐㄴㄷㅡ	-3334
▁SC	-3335
▁ㅅㅓㄲ	-3336
▁ㄱㅣㅁㅌㅐ	-3337
▁ㅅㅣㄱㅅㅏ	-3338
▁ㅎㅏㄴㅂㅓㄴ	-3339
▁ㄹㅜㅁ	-3340
▁{{{	-3341
ㅋㅙ	-3342
▁ㅁㅓㄱㅎㅣ	-3343
▁Pr	-3344
▁ㅆㅓㄱ	-3345
▁ㅇㅣㄴㄱㅗㅇ	-3346
▁ㅈㅓㄱㄱㅜㄴ	-3347
▁ㄲㅏㅁ	-3348
▁ㄱㅏㅁㅇㅗㄱ	-3349
▁ㄱㅣㅁㅁㅣㄴ	-3350
▁ㅇㅣㄹㅅㅣ	-3351
▁ㅌㅡㄱㅈㅣㅂ	-3352
ㄷㅏㄷ	-3353
ㄷㅗㅇㅈㅏ	-3354
▁ㅎㅚㅇ	-3355
▁ㅈㅓㄴㅊㅓㄹ	-3356
▁ㄱㅘㄴㅈㅜㅇ	-3357
▁ㅁㅜㅇ	-3358
▁130	-3359
ge	-3360
▁ㅅㅣㄹㄹㅣ	-3361
▁PD	-3362
▁ㄱㅏㄴㅎㅗㄱ	-3363
▁ㅇㅣㄹㅇㅝㄴ	-3364
OP	-3365
▁ㅇㅕㅇㅁㅜㄴ	-3366
▁ㄱㅗㅇㄱㅡㅂ	-3367
ax	-3368
MA	-3369
▁BE	-3370
▁ㅈㅓㄴㅁㅕㄴ	-3371
▁ㄴㅓㄱ	-3372
▁ㄴㅗㄹㅇㅣ	-3373
▁ㅅㅣㄴㅎㅗ	-3374
▁ㅅㅗㄴㄱㅏ	-3375
ㄴㅕㄱ	-3376
▁ㅇㅣㄱㅅㅡ	-3377
ㅅㅓㅇㄱㅣ	-3378
▁DF	-3379
▁ㅂㅜㄹㄹㅓ	-3380
▁ㄱㅕㅌ	-3381
▁ㄱㅗㅇㅁㅜ	-3382
▁MF	-3383
ㄹㅗㅂㅎㅣ	-3384
▁ㄱㅕㄹㄹㅗㄴ	-3385
ome	-3386
▁ㅂㅏㄴㅂㅏㄹ	-3387
ance	-3388
▁ㅍㅓㄴㅊㅣ	-3389
▁ㅂㅏㄴㅅㅏ	-3390
▁ㄸㅡㄴ	-3391
ㄷㅓㄴㄱㅏ	-3392
▁ㅇㅝㄴㅂㅗㄴ	-3393
▁ㅇㅘㅇㅈㅗ	-3394
ㅅㅏㅇㅈㅏ	-3395
▁ㅇㅕㄴㅇㅣㄴ	-3396
▁ㅊㅓㅅㅊㅏ	-3397
▁ㅎㅕㅂㅂㅏㄱ	-3398
ㅈㅏㅂㅇㅣ	-3399
uc	-3400
▁ㅈㅓㅇㅁㅕㄴ	-3401
ick	-3402
▁ㅈㅓㅂㅅㅗㄱ	-3403
▁ㅇㅣㄴㄱㅡㄴ	-3404
▁ㅅㅣㄴㄹㅏ	-3405
ㅋㅗㄹ	-3406
▁ㅇㅡㄴㄱㅡㄴㅎㅣ	-3407
▁ㅂㅏㄱㄱㅡㄴㅎㅖ	-3408
▁ㅋㅐㅁㅍㅓ	-3409
▁ㅈㅏㄱㅎㅘ	-3410
▁ㅈㅜㄴㅅㅜ	-3411
▁ㅍㅐㄴㄷㅓㅁ	-3412
▁ㅍㅔㅅ	-3413
▁ㄱㅓㄴㅊㅜㄱ	-3414
ㅇㅝㄴㅈㅏㅇ	-3415
ㅇㅗㅇ	-3416
▁ㄴㅑㅇ	-3417
ㅌㅣㄹ	-3418
▁ㄴㅓㄹㄹㅣ	-3419
▁Pl	-3420
▁ㅈㅓㅇㄱㅡㄹ	-3421
▁ㅂㅐㅇ	-3422
ㅉㅐㅆ	-3423
▁ch	-3424
▁ㄱㅗㄹㄷㅡㄴ	-3425
▁ㅌㅏㄴㅊㅏㅇ	-3426
ix	-3427
▁ㄷㅏㄹㅎㅏ	-3428
ㄹㅣㄴㅇㅣ	-3429
mer	-3430
ord	-3431
▁ㅅㅓㄲㅇㅣ	-3432
▁ㅁㅕㄴㅇㅕㄱ	-3433
▁ㅂㅏㄱㅈㅓㅇ	-3434
▁ㄱㅗㄷㅂㅏ	-3435
▁ㅇㅡㅁㅇㅝㄴ	-3436
▁ㄱㅔㄴ	-3437
▁ㄱㅜㄹㄹㅣ	-3438
▁ㅎㅘㄴㅇㅕㅇ	-3439
▁ㄱㅡㅇㅈㅓㅇ	-3440
▁ㅅㅏㅇㅅㅓㅇ	-3441
▁ㄱㅏㅇㄴㅏㅁ	-3442
▁ㅇㅣㄹㄱㅕㄱ	-3443
▁ㄹㅣㅁ	-3444
▁ㅇㅠㄱㅊㅔ	-3445
▁ㅃㅐㅅ	-3446
▁ㅁㅗㄱㄱㅕㄱ	-3447
▁ㄷㅣㅇ	-3448
▁ㄷㅗㅇㅂㅜ	-3449
▁ㅇㅏㄴㄴㅐ	-3450
▁HD	-3451
ㅇㅣㅁㅅㅡ	-3452
ure	-3453
▁ㅇㅜㅁㅈㅣㄱㅇㅣㅁ	-3454
▁ㅂㅜㄹㅂㅓㅂ	-3455
ㅓㄷㅗ	-3456
▁ㅎㅕㅇㅅㅏ	-3457
▁ㅎㅜㅅ	-3458
▁ㅊㅓㅁ	-3459
▁ㅇㅐㄹㄹㅣ	-3460
▁160	-3461
ㅌㅡㄱㅂㅕㄹ	-3462
▁ㅎㅏㄱㅂㅜ	-3463
10	-3464
▁ㅈㅔㄹ	-3465
▁ㅉㅗㅊㅇㅏ	-3466
▁ㄱㅏㄱㅈㅏ	-3467
▁with	-3468
▁OST	-3469
▁GB	-3470
▁ㅈㅓㅇㅊㅏㄹ	-3471
▁ㄱㅕㄹㅁㅏㄹ	-3472
ㅇㅣㄹㄹㅐㄴㄷㅡ	-3473
ㅈㅣㅁ	-3474
ㅇㅣㄴㅇㅓㅂ	-3475
▁ㄴㅗㄹㄹㅏㅂ	-3476
▁WW	-3477
▁ㅋㅏㄹㄹㅣ	-3478
▁ㅊㅛ	-3479
ud	-3480
▁ㅎㅕㄴㅇㅕㄱ	-3481
▁ㅌㅓㄹㄹㅣ	-3482
▁ㅁㅔㄴㅌㅏㄹ	-3483
ㄷㅜㄴ	-3484
▁SM	-3485
▁ㄸㅡㄷ	-3486
▁ㅈㅓㄱㄷㅐ	-3487
▁ㄱㅜㄱㅇㅓ	-3488
▁ㅁㅓㄹㅉㅓㅇ	-3489
▁ㅇㅏㄴㄱㅕㅇ	-3490
▁ㅇㅣㄹㄱㅣ	-3491
▁ㄱㅜㄱㄱㅜㄴ	-3492
▁ㄷㅣㄴ	-3493
▁ㅆㅢ	-3494
▁ㅅㅡㅇㄱㅕㄱ	-3495
▁1992	-3496
▁\	-3497
▁ㅎㅏㄹㅇㅏ	-3498
▁ㅍㅕ	-3499
▁ㅇㅟㄹㄹㅣ	-3500
ㄴㅣㄱㅅㅡ	-3501
▁ㅈㅓㄴㄹㅏ	-3502
▁1993	-3503
▁Ex	-3504
▁ㅍㅡㄹㄹㅓ	-3505
▁ㅊㅣㅁㄱㅗㅇ	-3506
ㄷㅓㄹㄹㅏㄴㄷㅡ	-3507
▁https	-3508
▁ㅋㅗㄹㄹㅗ	-3509
▁ㅎㅓㅁ	-3510
▁ㄲㅏㅇ	-3511
▁ㅅㅣㄴㅂㅣ	-3512
▁??	-3513
ame	-3514
ㅈㅓㅇㄱㅓ	-3515
▁ㅇㅕㅇㅌㅗ	-3516
▁ㅅㅣㄱㄷㅏㅇ	-3517
ㄱㅏㅎ	-3518
AD	-3519
▁ㅊㅗㄴ	-3520
▁140	-3521
▁ㅋㅐㅁㅍㅔ	-3522
▁JR	-3523
▁sh	-3524
▁ㅊㅓㄴㅈㅐ	-3525
80	-3526
▁ㅇㅕㄹㅅㅚ	-3527
▁ㄱㅓㅁㅊㅏㄹ	-3528
▁ㅊㅗㅇㅅㅓㄴ	-3529
▁ㅉㅏㄹ	-3530
▁de	-3531
▁ㄱㅏㄷㅎㅣ	-3532
▁ㅇㅜㅇ	-3533
▁ㅂㅏㅇㅈㅣ	-3534
▁ㅈㅓㄴㅁㅜㄴㄱㅏ	-3535
▁ㅇㅛㅇㄱㅣ	-3536
▁ㅅㅏㅇㄱㅡㅂ	-3537
ost	-3538
▁ㅂㅏㅇㅅㅏ	-3539
▁ㄱㅣㅁㄷㅗㅇ	-3540
▁ㅎㅏㄴㄷㅗㅇㅇㅏㄴ	-3541
▁ㅇㅗㄹㅎㅐ	-3542
▁ㄹㅔㄱ	-3543
▁ㅂㅏㅇㅊㅜㄹ	-3544
▁ㅋㅣㄴ	-3545
▁Love	-3546
old	-3547
▁ㄹㅣㅅ	-3548
ㅁㅔㄴㅌㅡ	-3549
out	-3550
▁KO	-3551
▁ㄷㅗㅇㄱㅜㄹ	-3552
ㄹㅣㄱㅅㅡ	-3553
▁ㅅㅏㅇㄷㅏㅇㅅㅜ	-3554
▁ㅈㅓㄴㅈㅣㄴ	-3555
▁ㅋㅡㄹㄹㅣㄱ	-3556
ㅁㅔㄹ	-3557
▁ㄴㅗㅇㄷㅏㅁ	-3558
ㅉㅓㄱ	-3559
ㅇㅠㄱㄱㅘㄴ	-3560
▁ㅅㅣㄴㅅㅓㄹ	-3561
▁ㅎㅡㄹ	-3562
▁ㅇㅑㅇㅉㅗㄱ	-3563
▁ㄸㅣ	-3564
▁ㄲㅓㄲ	-3565
▁ㅈㅓㅇㅇㅝㄴ	-3566
▁Un	-3567
▁ㅇㅘㄹ	-3568
▁ㅇㅣㄱㅎㅣ	-3569
▁IC	-3570
▁ㅊㅣㅇㅎㅏ	-3571
ㄷㅓㅇㅇㅣ	-3572
▁ㅋㅐㅂㅌㅣㄴ	-3573
own	-3574
▁ㄲㅗㅈ	-3575
▁ㅈㅓㄴㅅㅣㄴ	-3576
▁ㅂㅕㄹㄷㅏ	-3577
ㅈㅏㅇㅅㅣㄹ	-3578
▁GS	-3579
▁900	-3580
▁ㅇㅝㄴㅅㅗ	-3581
▁ㄲㅗㅂㅎㅣ	-3582
▁ㅎㅏㄴㅊㅏㅁ	-3583
▁ㅂㅜㄱㅂㅜ	-3584
▁ㅈㅜㅇㄷㅗㄱ	-3585
▁ㅃㅓ	-3586
ㅈㅏㄱㅈㅏ	-3587
▁ㅁㅏㅇㄱㅏ	-3588
▁ㅈㅏㄱㄱㅗㄱㄱㅏ	-3589
▁ㅇㅕㄴㄹㅛ	-3590
▁ㅊㅜㅇㅊㅓㅇ	-3591
ㅈㅟ	-3592
▁ㅇㅜㅅㅇㅡㅁ	-3593
ㅂㅜㅇ	-3594
ㄹㅐㅅㄷㅗㅇㅇㅏㄴ	-3595
▁202	-3596
▁ㅌㅗㅁ	-3597
▁ㅎㅏㄴㅁㅏ	-3598
ㅋㅓㅅ	-3599
▁ㅍㅏㄹㄹㅣ	-3600
ㅇㅑㅇㅎㅏㅁ	-3601
▁ㅁㅜㄴㅈㅐ	-3602
▁LI	-3603
ㅁㅗㄴㄷㅡ	-3604
▁SH	-3605
▁ㅅㅓㄴㅌㅐㄱㅈㅣ	-3606
US	-3607
▁ㄱㅏㄹㅅㅜ	-3608
▁ㅁㅔㄱㅅㅣ	-3609
ㅇㅑㄹ	-3610
▁ㅇㅟㄹ	-3611
▁ㄱㅜㄱㅂㅏㅇ	-3612
▁ㅂㅣㅈ	-3613
▁FF	-3614
▁ㄷㅏㅁㄱㅣ	-3615
ㅅㅡㄹㄹㅏㅁ	-3616
▁ㅇㅣㄹㅈㅔ	-3617
ok	-3618
▁ㄷㅗㄹㄹㅕ	-3619
▁ㅇㅏㄴㅌㅣ	-3620
▁ㅈㅓㅂㅊㅗㄱ	-3621
▁ㅂㅗㄴㅊㅔ	-3622
ㄷㅗㄱㄱㅛ	-3623
▁ㄱㅣㅁㅈㅗㅇ	-3624
ave	-3625
ㄴㄷㅡㄹ	-3626
▁ㅎㅣㅂ	-3627
ㅌㅗㄹㄹㅣㄱ	-3628
pe	-3629
▁ㅈㅣㅂㅇㅓ	-3630
▁EP	-3631
▁ㅅㅐㅇㅈㅗㄴㅈㅏ	-3632
ace	-3633
▁ㅅㅣㄱㄹㅑㅇ	-3634
▁ㅇㅕㅇㅎㅑㅇㄹㅕㄱ	-3635
ㅇㅏㅅㄱㅣ	-3636
per	-3637
▁ㅇㅣㄴㅈㅓㅇㅂㅏㄷ	-3638
ㅇㅣㄴㄷㅡ	-3639
ng	-3640
▁ㄴㅔㄱㅅㅔㄴ	-3641
▁ㅌㅜㄹ	-3642
▁ㅂㅜㄹㅌㅏ	-3643
▁ㅇㅏㅍㄷㅜ	-3644
ㅎㅡㅂ	-3645
ㅇㄱㅣ	-3646
▁ㅇㅓㅂㅈㅓㄱ	-3647
ice	-3648
▁ㅂㅏㄴㄷㅗㅇ	-3649
▁ㅌㅔㄱ	-3650
▁CV	-3651
▁ㅂㅡㄹㄹㅏ	-3652
ㅈㅓㅇㅂㅜ	-3653
▁.."	-3654
▁ㅃㅏㄹㄱㅏㅎ	-3655
ㅊㅣㅁㄴㅐ	-3656
ㅉㅐㅆㄷㅡㄴ	-3657
▁ㄷㅏㅇㅇㅣㄹ	-3658
ㄷㅣㅅ	-3659
ㅁㅏㅅ	-3660
ov	-3661
▁ㄱㅡㄱㅂㅗㄱ	-3662
▁XX	-3663
▁ㅅㅣㄴㅂㅜ	-3664
▁ㅈㅓㄴㅅㅓㅇㄱㅣ	-3665
▁ㅈㅏㅂㅈㅣ	-3666
▁ㅇㅝㄴㅈㅜ	-3667
▁We	-3668
▁ㄲㅘ	-3669
▁ㅊㅣㅇㅊㅏㄴ	-3670
▁SKT	-3671
▁ㅇㅜㄹㄹㅣ	-3672
▁ㄷㅏㄱ	-3673
▁CF	-3674
▁ㅇㅕㄴㄱㅡㅁ	-3675
▁ㅎㅡㄴㄷㅡㄹㄹㅣ	-3676
▁ㄷㅗㄷ	-3677
ont	-3678
▁ㅈㅓㅇㅂㅣ	-3679
▁ㅊㅜㄹㅁㅏ	-3680
▁1991	-3681
▁ㅁㅕㅇㅅㅓㅇ	-3682
▁ㅈㅓㄴㅁㅕㄹ	-3683
ㄹㅡㅍ	-3684
▁ㅅㅣㅇㅋㅡ	-3685
ㄹㅗㅁ	-3686
▁ㅇㅣㄴㄷㅣ	-3687
▁ㅇㅣㄹㄹㅏㅁ	-3688
ㅋㅔㄴ	-3689
OD	-3690
ㅈㅛ	-3691
▁ㅍㅣㅅ	-3692
▁ㅎㅓㅅ	-3693
▁ㄱㅘㄱ	-3694
▁ㅅㅏㅇㅇㅓㅂ	-3695
▁AD	-3696
▁ㅅㅐㅇㄴㅕㄴ	-3697
▁1988	-3698
▁ㅈㅓㅇㅅㅜ	-3699
orld	-3700
▁ㅁㅐㄱㅅㅡ	-3701
▁ㅈㅓㅂㅎㅏ	-3702
▁IS	-3703
▁ㅇㅣㄹㅂㅏㄴㅇㅣㄴ	-3704
▁ㅆㅏㅇㄷㅜㅇㅇㅣ	-3705
ies	-3706
ㅁㅏㅂ	-3707
▁ㅈㅏㅇㅇㅏㄱ	-3708
▁ㅂㅜㄱㅉㅗㄱ	-3709
▁ㄱㅡㅁㅅㅗㄱ	-3710
▁ㄱㅕㄹㅅㅓㅇ	-3711
▁ㅅㅗㄴㅎㅐ	-3712
▁ㅂㅓㅂㄹㅠㄹ	-3713
ann	-3714
▁ㅇㅣㄴㅈㅗ	-3715
▁ㄱㅕㄹㅋㅗ	-3716
▁ㅎㅏㄹㅁㅓ	-3717
▁ㄴㅏㄲㅅㅣ	-3718
▁ㄷㅏㄺ	-3719
▁ㅌㅗㅂ	-3720
▁ㅈㅏㄹㄹㅣ	-3721
▁105	-3722
▁ㅊㅜㅇㅅㅓㅇ	-3723
▁ㅂㅓㄹㄹㅔ	-3724
▁ㅅㅐㄴ	-3725
▁ㄷㅜㄹㅉㅐ	-3726
ㅌㅡㄱㅂㅕㄹㅅㅣ	-3727
▁ㄴㅏㅁㅉㅗㄱ	-3728
▁ㅎㅕㄹㅇㅐㄱ	-3729
▁ㅎㅏㅂㅇㅢ	-3730
▁ㅋㅔㄹ	-3731
▁ㅂㅓㅂㅇㅝㄴ	-3732
▁ㄱㅜㄱㄹㅣㅂ	-3733
▁ㅈㅓㄴㅈㅜ	-3734
▁ㄱㅏㄱㅂㅗㄴ	-3735
▁ㄷㅗㅇㅇㅢ	-3736
ㅃㅏㄹ	-3737
▁ㅅㅡㄹㄹㅗ	-3738
▁ㄷㅗㅇㄹㅕㄱ	-3739
ㄲㅏㅌ	-3740
ㄷㅡㄴㄱㅏ	-3741
ㅇㅜㄹㅌㅡㄱㅂㅕㄹㅅㅣ	-3742
▁ㄷㅗㄱㅌㅡㄱ	-3743
▁ㅍㅓㅇ	-3744
▁ㅈㅓㄱㅇㅡㅇ	-3745
▁ㅅㅐㄱㅅㅏㅇ	-3746
▁ㅎㅏㄱㄹㅕㄱ	-3747
▁ㄴㅗㄱㅅㅐㄱ	-3748
▁ㄴㅏㅁㄴㅕ	-3749
▁wik	-3750
ㄷㅠㄹ	-3751
OC	-3752
▁AM	-3753
ㅂㅡㄹㄹㅣㄴ	-3754
▁ㅈㅡㅇㅇㅓㄴ	-3755
ㅎㅏㄱㅇㅝㄴ	-3756
▁ㅅㅡㅇㅈㅓㅁ	-3757
▁ㄱㅘㅇㅇㅕㄱㅅㅣ	-3758
▁ㄱㅗㅇㄹㅛㅇ	-3759
▁ㅉㅣㅈ	-3760
▁ㅅㅓㄴㅈㅓㄴ	-3761
▁ㄸㅗㅇ	-3762
▁ㅇㅓㄱㅈㅣ	-3763
▁ㄷㅣㄹㄹㅔ	-3764
ㅈㅏㄱㅅㅏ	-3765
▁ㅋㅡㄹㄹㅐㄴ	-3766
ㅁㅏㄴㄷㅜ	-3767
LE	-3768
▁ㅅㅐㄱㄲㅏㄹ	-3769
▁DS	-3770
ㅆㅏㅇ	-3771
▁ㄲㅏㄹㄲㅡㅁ	-3772
▁ㅎㅡㄴㅈㅓㄱ	-3773
▁ㅍㅗㄹㄹㅣ	-3774
▁ㅈㅡㄹㄱㅓㅂ	-3775
▁ㅂㅗㄱㅁㅜ	-3776
▁ㅈㅓㄴㅎㅜ	-3777
▁ㅊㅣㅂ	-3778
▁ED	-3779
▁DE	-3780
▁ㄱㅣㅁㅈㅐ	-3781
▁ㄴㅗㄴㄹㅣ	-3782
ㄱㅕㄱㅅㅜ	-3783
▁ㅎㅜㅅㄴㅏㄹ	-3784
▁ㄹㅓㄴㄷㅓㄴ	-3785
ㅋㅡㄴ	-3786
ㄹㅏㅇㅇㅣ	-3787
▁ㅇㅕㄴㅍㅐ	-3788
▁ㅂㅏㄱㅎㅣ	-3789
ㄱㅡㄹㄹㅐㄴㄷㅡ	-3790
▁LV	-3791
▁ㅎㅐㅁ	-3792
▁ㅇㅣㄴㄱㅕㄱ	-3793
▁ㄴㅐㅁㅅㅐ	-3794
ys	-3795
▁ㅇㅕㄴㅅㅡㅇ	-3796
ㄸㅡㅅ	-3797
ㄷㅡㅂ	-3798
▁ㅌㅡㄱㅈㅓㄴ	-3799
ber	-3800
▁ㄱㅣㄹㅇㅣ	-3801
ㅌㅗㄱ	-3802
▁SNS	-3803
▁ㅅㅏㅇㅎㅗ	-3804
ION	-3805
ㄱㅡㅅ	-3806
▁ㅈㅓㅇㅊㅏㄱ	-3807
▁ㅊㅔㄹ	-3808
▁your	-3809
▁ㄱㅘㄴㄹㅏㅁ	-3810
▁ㅈㅜㅇㄹㅑㅇ	-3811
▁ㄱㅏㅇㄷㅗ	-3812
▁NE	-3813
der	-3814
▁ㅈㅏㅁㅈㅐ	-3815
▁ㅅㅡㅇㄹㅠㄹ	-3816
ㅅㅖ	-3817
ㄹㅐㅂ	-3818
▁ㅁㅣㄴㅊㅓㅂ	-3819
▁ㅌㅟㅇㄱㅣ	-3820
ㅁㅏㄹㄹㅣ	-3821
▁ㄱㅗㅇㅅㅓㅇ	-3822
▁ㅅㅜㅇ	-3823
▁ㄱㅡㅁㅇㅠㅇ	-3824
▁ㅇㅕㅇㄱㅜ	-3825
▁ㅍㅗㄹㄹㅏㄴㄷㅡ	-3826
▁ㅊㅣㅇㅎㅗ	-3827
▁BPM	-3828
▁ㅃㅜㄹ	-3829
aw	-3830
▁ㅂㅏㄹㄹㅣ	-3831
▁SE	-3832
FF	-3833
▁ㅇㅣㄹㅉㅣㄱ	-3834
▁It	-3835
▁189	-3836
60	-3837
▁ㅆㅓㄴ	-3838
▁CPU	-3839
▁ㅈㅜㅇㅊㅓㅂ	-3840
ㅊㅠ	-3841
▁ㄱㅝㄴㅎㅏㄴ	-3842
▁ㄷㅏㄴㅍㅕㄴ	-3843
▁ㅎㅡㅂㅎㅕㄹ	-3844
▁ㅅㅜㄱㄹㅕㄴ	-3845
40	-3846
ream	-3847
▁ㅎㅡㅇㅁㅣ	-3848
▁EN	-3849
ㅇㅝㄹㅇㅣㄹ	-3850
ike	-3851
▁ㄴㅗㅎㅇㅣ	-3852
▁ㅁㅗㄹㄹㅏㄱ	-3853
▁ㅅㅣㅁㅅㅏ	-3854
▁ㄸㅡㄴㄱㅡㅁ	-3855
▁ㅈㅜㅇㄱㅜㄱㅇㅓ	-3856
▁ㅇㅣㄹㅂㅏㅇ	-3857
BA	-3858
▁ㅅㅏㅇㅅㅜㄹ	-3859
▁ㅇㅣㄹㄹㅔ	-3860
▁Com	-3861
▁ㅅㅐㅇㄹㅑㄱ	-3862
▁ㅇㅓㄴㄷㅓ	-3863
▁ㅇㅕㄴㄹㅕㅇ	-3864
ㄹㅐㅇㅋㅡ	-3865
ㄷㅡㅇㅎㅏㄱㅅㅐㅇ	-3866
ㄹㅐㄴㅁㅏㄴ	-3867
▁ㅆㅗㄷㅇㅏ	-3868
▁ㅅㅐㅇㄴㅕㄴㅇㅝㄹㅇㅣㄹ	-3869
▁125	-3870
▁ㅎㅐㅇㅂㅗ	-3871
▁ㅍㅓㄹ	-3872
▁ㅈㅓㄱㄷㅏㅇㅎㅣ	-3873
▁ㅇㅣㄴㅁㅣㄴ	-3874
▁ㅅㅏㅇㄷㅏㄴ	-3875
▁ㅍㅓㅁ	-3876
▁ㅆㅡㄹㅁㅗ	-3877
▁ㅌㅏㄹㅌㅚ	-3878
▁ㅅㅣㄴㅅㅏ	-3879
▁ㅇㅝㄴㅁㅜㄴ	-3880
▁ㅍㅕㄴㅇㅣㅂ	-3881
iss	-3882
▁ㄱㅜㄱㅇㅘㅇ	-3883
▁ㅎㅞ	-3884
▁ww	-3885
▁UP	-3886
▁ㅁㅜㄴㄱㅜ	-3887
▁1989	-3888
▁ㅇㅓㄴㅅㅡ	-3889
ㅂㅓㄴㅌㅡ	-3890
▁ㄱㅜㅅ	-3891
▁ㅁㅏㅅㅇㅣㅆ	-3892
▁ㄷㅏㅁㅂㅐ	-3893
▁ㅇㅣㅁㄷㅐ	-3894
▁ㄱㅗㅇㄱㅗㅇ	-3895
ㄷㅗㅇㅅㅓㅇ	-3896
▁ㅅㅣㄹㅁㅏㅇ	-3897
▁ㅇㅣㅇㄱㅡㄹㄹㅐㄴㄷㅡ	-3898
▁ㅇㅛㅇㄹㅑㅇ	-3899
▁ㄱㅣㅁㅎㅕㄴ	-3900
chor	-3901
▁ㄷㅏㄴㄷㅏㄴ	-3902
▁LC	-3903
▁ㅁㅏㄱㅇㅏ	-3904
▁ㄲㅡㄶㄱㅣ	-3905
▁ㅅㅣㅂㅈㅏ	-3906
▁ㅎㅕㅁㅇㅢ	-3907
▁www	-3908
▁ㅎㅕㅁㅇㅗ	-3909
▁ㅇㅏㄴㄴㅕㅇ	-3910
▁ㄱㅏㄴㅅㅣㄴ	-3911
▁ㅈㅓㅇㅎㅘ	-3912
▁ㄷㅗㅇㅉㅗㄱ	-3913
ian	-3914
ㄹㅡㅁㅇㅓㅄ	-3915
▁3000	-3916
▁PV	-3917
ㅂㅡㄹㄹㅣ	-3918
ㅌㅏㅁ	-3919
▁ㅅㅏㅇㅇㅣㄴ	-3920
▁ㅋㅐㅁㅍㅡ	-3921
▁ㅇㅣㄴㅊㅣ	-3922
30	-3923
▁ㄴㅗㄹㄹㅣ	-3924
▁ㅁㅕㄴㅁㅗ	-3925
▁ㅂㅐㅁㅍㅏ	-3926
▁ㅊㅗㅇㅇㅏㄹ	-3927
▁ㅆㅣㅂ	-3928
▁BL	-3929
ㄱㅣㅁ	-3930
io	-3931
ㄱㅏㅄ	-3932
▁that	-3933
▁ㄷㅓㅅㅂㅜㅌㅇㅣ	-3934
▁ㅈㅐㅇ	-3935
▁ㅈㅡㅇㅇㅗ	-3936
▁ㄱㅗㅇㅅㅔ	-3937
▁ㅅㅣㄹㅈㅓㄴ	-3938
▁ㄱㅗㅇㅇㅛㅇ	-3939
▁ㄷㅔㅁ	-3940
▁AS	-3941
▁ㅋㅏㄹㄴㅏㄹ	-3942
0000	-3943
▁ㅅㅓㅇㄴㅏㅁ	-3944
▁Pro	-3945
▁ㅅㅜㄴㅎㅘㄴ	-3946
▁ㅇㅏㄱㄷㅏㅇ	-3947
▁ㅌㅓㄱ	-3948
▁ㅎㅗㄱㅅㅣ	-3949
▁ㅎㅐㅇㅇㅜㄴ	-3950
▁;&	-3951
▁ㅇㅕㅅ	-3952
▁ㅊㅗㅇㄹㅣ	-3953
▁anchor	-3954
▁ㄱㅕㄹㅈㅓㄴ	-3955
▁ㄱㅗㅇㅂㅏㅇ	-3956
▁ㄷㅣㄹㄹㅣㅇ	-3957
ㄹㅓㅁㅍㅡ	-3958
▁ㅈㅣㅂㅎㅐㅇ	-3959
ㅎㅓㅁㄱㅏ	-3960
ory	-3961
▁Fl	-3962
▁ㅇㅕㅇㅈㅜ	-3963
▁ㅁㅏㄱㄷㅐ	-3964
▁ㄱㅗㄴㄹㅏㄴ	-3965
▁ㄲㅗㅂ	-3966
ㄹㅐㄴㅅㅡ	-3967
▁ㄷㅡㄹㅋㅣ	-3968
ㄸㅏㅇ	-3969
▁Br	-3970
▁->	-3971
▁ㅎㅡㄹㄹㅓ	-3972
ㄱㅏㄴㅎㅣ	-3973
▁ㅎㅘㄹㅂㅏㄹ	-3974
▁ㅅㅏㅇㄱㅘㄴㅇㅓㅄ	-3975
▁ㅎㅏㄱㅈㅏ	-3976
▁&#	-3977
▁ㅊㅓㅇㅈㅜ	-3978
▁ㄱㅏㅇㅈㅏ	-3979
▁ㅂㅗㄱㅈㅣ	-3980
▁ㅇㅣㄹㅈㅗㄱ	-3981
▁ㅌㅗㅇㅅㅏㄴ	-3982
▁ㅊㅓㅂ	-3983
ㄷㅣㅈ	-3984
▁ㅇㅛㅇㅅㅓ	-3985
▁ㄱㅡㅁㅂㅏㅇ	-3986
ㅍㅏㅇㅇㅣ	-3987
ㅊㅜㄱㅎㅏㅁ	-3988
▁ㅈㅜㅇㄹㅣㅂ	-3989
ㅁㅣㅆ	-3990
▁ㅎㅕㅂㅅㅏㅇ	-3991
▁ㅇㅕㄲㅇㅣ	-3992
▁ㅇㅝㄴㅊㅣㄱ	-3993
▁ㅁㅕㅇㄷㅏㄴ	-3994
▁ㅅㅣㄴㅇㅏㅇ	-3995
ㄴㅅㅐㄱ	-3996
▁ㅈㅏㅇㅌㅏㄴ	-3997
▁ㅂㅣㄱㅌㅗ	-3998
ㄴㅔㄹ	-3999
▁ㅈㅜㄴㅇㅜ	-4000
▁ㅇㅔㄴㅈㅔㄹ	-4001
▁ㅅㅏㅇㅅㅣㄹ	-4002
▁ㅈㅓㅇㅇㅖ	-4003
▁ㅇㅏㅅ	-4004
▁ㅊㅏㄴㅅㅡ	-4005
▁ㅈㅣㄴㅂㅗ	-4006
ㅍㅐㄱㅌㅡ	-4007
▁ㅇㅓㅂㄹㅗ	-4008
UM	-4009
▁Or	-4010
ㅇㅓㄴㅌㅡ	-4011
ㅆㅡㄹ	-4012
ㅅㅡㄹㄹㅣ	-4013
▁ㅇㅏㄹㄹㅔㄱㅅㅏㄴ	-4014
ㄱㅓㄹㅇㅣ	-4015
▁ㅉㅣㄱㅎㅣ	-4016
IG	-4017
▁le	-4018
▁ㅇㅙㄴㅈㅣ	-4019
▁ㅁㅔㄹㄹㅗ	-4020
ㅅㅜㄱㅅㅏ	-4021
ㄸㅜㅇ	-4022
▁ㅌㅏㄴㅎㅘㄴ	-4023
▁ㅂㅜㄴㅅㅣㄴ	-4024
▁170	-4025
▁ㅍㅐㅇ	-4026
▁by	-4027
ㄹㅏㅂ	-4028
▁ㅂㅜㄹㅅㅏ	-4029
▁ㅇㅣㅂㅈㅣ	-4030
▁ㅊㅏㄱㅎㅏ	-4031
▁ㄲㅡㄴ	-4032
▁;&#	-4033
▁CJ	-4034
▁ㅇㅣㄹㅂㅗㄴㅇㅣㄴ	-4035
▁ㅈㅗㅇㅁㅗㄱ	-4036
▁ㅂㅏㄴㅈㅓㄴ	-4037
▁ㄱㅗㅇㅎㅓ	-4038
ㄹㄱㅔ	-4039
IP	-4040
▁ㄱㅕㅇㄹㅗ	-4041
▁ㅇㅡㅁㅁㅗ	-4042
▁ㅁㅏㄹㅌㅜ	-4043
az	-4044
▁ㅅㅐㅇㄱㅕ	-4045
▁ㄱㅕㄱㅊㅜ	-4046
▁~!	-4047
▁ㅂㅜㅅ	-4048
▁WWE	-4049
man	-4050
▁1970	-4051
ale	-4052
▁ㄱㅏㅇㅇㅛ	-4053
▁ㅇㅓㄴㅈㅔㄴㄱㅏ	-4054
▁ㅎㅔㄹㄱㅣ	-4055
▁ㅁㅣㅇ	-4056
▁ㅅㅣㅁㅅㅣㅁ	-4057
oth	-4058
▁ㅊㅜㄹㅇㅣㅂ	-4059
VD	-4060
▁ㅊㅏㅁㅅㅓㄱ	-4061
ep	-4062
▁ㅇㅜㄴㄷㅗㅇㅈㅏㅇ	-4063
▁ㅎㅕㅇㅅㅏㅇ	-4064
ㄴㅜㄴ	-4065
▁Dr	-4066
OU	-4067
▁ㅆㅣㄴ	-4068
▁ㅇㅓㄷㅇㅓ	-4069
▁ㄱㅓㄴㅈㅗ	-4070
▁ㅁㅟ	-4071
▁ㅇㅕㄴㄱㅡㄱ	-4072
▁ㅇㅕㄴㅁㅐㅇ	-4073
ㅅㅡㅇㅈㅏ	-4074
▁ㅎㅘㄱㄷㅐ	-4075
ㅈㅣㅂㅌㅡ	-4076
▁ㅈㅏㄴㄸㅡㄱ	-4077
▁ㅇㅡㄴㅅㅣㄴ	-4078
▁1987	-4079
▁ㄱㅓㄹㅇㅓ	-4080
arg	-4081
ky	-4082
▁ㅁㅜㄴㄷㅏㄴ	-4083
▁ㅉㅜㄱ	-4084
▁ㅍㅐㄴㅌㅓㅁ	-4085
TE	-4086
▁ㅎㅏㄹㅇㅣㄴ	-4087
ach	-4088
▁ㅎㅟㅂ	-4089
▁ㅂㅜㄴㄷㅐ	-4090
▁ㅅㅣㄴㅈㅓㄴ	-4091
▁ㅂㅗㄱㄱㅜ	-4092
▁ㅇㅑㅇㅅㅓㅇ	-4093
▁ㄷㅏㄴㅊㅜㄱ	-4094
▁ㄹㅗㄱㅁㅐㄴ	-4095
ㅍㅡㅁ	-4096
▁ㄱㅣㅁㄷㅐ	-4097
▁ㅇㅝㄴㅈㅏ	-4098
▁Sc	-4099
ㅅㅔㅅ	-4100
VA	-4101
ㅇㅓㄴㅊㅡ	-4102
▁ㅇㅣㄹㅊㅣ	-4103
70	-4104
▁ㅇㅏㄱㅁㅕㅇ	-4105
▁ㄱㅏㄴㅈㅓㅂ	-4106
▁ㅊㅓㄴㅎㅏ	-4107
▁ㅅㅏㅇㅇㅕㅇ	-4108
▁ㅅㅏㅇㄱㅣ	-4109
▁ㅍㅕㅇㅈㅓㅁ	-4110
▁ㄱㅕㅇㅈㅜ	-4111
ㅈㅡㄹ	-4112
▁ㅃㅜㅁ	-4113
ㅂㅓㅂㅅㅗ	-4114
▁OP	-4115
ㅅㄱㅏㄹ	-4116
▁ㄱㅓㄴㄷㅡ	-4117
orm	-4118
ㄹㅐㅇ	-4119
▁ㅊㅓㄴㅁㅏㄴ	-4120
▁ㅂㅏㄱㅁㅜㄹ	-4121
▁ㄲㅡㅁ	-4122
▁ㅅㅐㄴㄷㅡ	-4123
▁ㅇㅟㅅ	-4124
▁}}	-4125
ㅋㅣㅅ	-4126
▁ㄱㅏㄴㅅㅣㄴㅎㅣ	-4127
▁ㅈㅓㄴㅇㅣ	-4128
▁ㄱㅝㄴㄹㅣ	-4129
▁ㄴㅓㅁㅂㅓ	-4130
▁Team	-4131
ㅇㅔㅅ	-4132
▁ㅇㅜㄹㅍㅡ	-4133
ae	-4134
▁ㅈㅓㄱㅎㅏㅂ	-4135
ish	-4136
▁ㅅㅡㅇㅈㅏ	-4137
ows	-4138
▁1500	-4139
ㅇㅜㄴㅅㅓ	-4140
▁111	-4141
▁ㅎㅣㄴ	-4142
▁ㅅㅕㄹ	-4143
▁ㅊㅜㄱㅂㅗㄱ	-4144
▁ㅂㅏㄹㄷㅏㄹ	-4145
▁ㅈㅓㅇㅎㅘㅇ	-4146
▁5000	-4147
▁ㄴㅏㄴㅇㅣㅂ	-4148
GE	-4149
▁ㄱㅗㅅㄱㅗㅅ	-4150
ook	-4151
ㄸㅟ	-4152
▁ㄱㅘㄴㅎㅏㄹ	-4153
▁ㅇㅜㅅㄱㅣ	-4154
▁ㅇㅗㅀ	-4155
▁ㅁㅣㄱㅅㅡ	-4156
ade	-4157
ㅊㅓㅁ	-4158
▁ㄱㅝㄴㅈㅏㅇ	-4159
▁ㅊㅜㄹㄱㅕㄱ	-4160
ug	-4161
▁ㅇㅏㅁㅅㅣ	-4162
ㄹㄷㅡ	-4163
▁ㅁㅏㄴㄴㅏㅁ	-4164
▁RPG	-4165
▁ㅎㅓㄴㅂㅓㅂ	-4166
▁ㅅㅣㄱㅁㅣㄴ	-4167
yle	-4168
Hz	-4169
▁BB	-4170
rom	-4171
ile	-4172
▁ㅇㅓㄴㄷㅓㄱ	-4173
▁ㅈㅣㄴㅈㅜ	-4174
▁ㅇㅘㄴㄱㅕㄹ	-4175
▁ㄱㅡㅁㅇㅐㄱ	-4176
▁ㅅㅣㄴㄴㅏ	-4177
▁ㄱㅏㅇㅈㅓㅁ	-4178
▁ㅇㅕㄹㅁㅐ	-4179
▁ㅎㅏㅇㄱㅗㅇㄱㅣ	-4180
▁ㅅㅡㅇㄱㅐㄱ	-4181
▁wiki	-4182
▁ㅋㅣㄹㄹㅓ	-4183
▁ㄸㅏㄴ	-4184
▁ㅅㅔㄴㅌㅡ	-4185
ㄱㅔㄴ	-4186
irl	-4187
ㄹㅓㄱㅈㅓ	-4188
▁ㅃㅗㅂㅎㅣ	-4189
ㄹㅓㅅ	-4190
▁ㄱㅓㄹㅁㅏㅈ	-4191
ㅈㅏㄱㅇㅟ	-4192
ash	-4193
▁ㅁㅕㅇㅎㅘㄱ	-4194
ower	-4195
▁ㄷㅡㅇㅈㅣ	-4196
▁ㄹㅓㅁ	-4197
▁ㅅㅣㄹㅊㅐㄱ	-4198
▁ㅂㅓㅂㅇㅣㄴ	-4199
▁ㅈㅓㄱㅈㅜㅇ	-4200
ink	-4201
▁ㅍㅕㅇㅅㅐㅇ	-4202
▁ㅇㅣㅂㄷㅐ	-4203
▁ㄲㅜㄹ	-4204
▁ㅎㅣㄹㄹㅓ	-4205
▁ㅊㅜㅇㅅㅣㄹ	-4206
▁ㅈㅓㅇㅊㅏ	-4207
▁ㅇㅣㄹㄷㅐ	-4208
▁CH	-4209
▁ㄲㅡㅁㅉㅣㄱ	-4210
▁ㄱㅗㅂ	-4211
▁ㅇㅛㅇㅇㅣㄴ	-4212
▁ㅃㅓㄷ	-4213
▁ㅈㅜㅇㅎㅕㅇ	-4214
▁ㅎㅏㄱㄱㅣ	-4215
▁ㄷㅓㅇㅊㅣ	-4216
▁KBO	-4217
ㅈㅐㅇㅇㅣ	-4218
▁ㄱㅏㅁㄱㅏㄱ	-4219
▁ㅇㅣㅀㅇㅓ	-4220
atch	-4221
▁ㅎㅡㅌ	-4222
▁ㅈㅓㅇㄱㅣ	-4223
▁ㅊㅓㄴㅇㅏㄴ	-4224
▁ㄷㅏㄷ	-4225
▁ㅂㅗㄴㅅㅏ	-4226
▁ㅅㅓㅇㄹㅣㅂ	-4227
▁ㅇㅔㄴㄷㅡ	-4228
▁ㄱㅕㄹㅎㅏㅂ	-4229
▁FW	-4230
▁we	-4231
ial	-4232
sh	-4233
▁ㄲㅏㄹㄹㅣ	-4234
▁ㅁㅏㄱㄴㅐ	-4235
▁ㅅㅣㅀㅇㅓ	-4236
▁1986	-4237
IM	-4238
▁ㅂㅏㄱㅁㅜㄹㄱㅘㄴ	-4239
▁ㄷㅏㅂㅂㅕㄴ	-4240
CG	-4241
ㅃㅏㅇ	-4242
▁ㅁㅕㄴㅈㅓㄱ	-4243
▁ㅍㅏㅅ	-4244
ㅈㅏㅁ	-4245
▁FIFA	-4246
▁ㅇㅕㄴㅅㅡㅂㅅㅐㅇ	-4247
▁ㅂㅕ	-4248
▁ㄹㅣㄹ	-4249
ㅋㅔㅅㅁㅗㄴㅅㅡ	-4250
▁ㅂㅜㄹㅍㅔㄴ	-4251
▁ㅊㅏㅇㄱㅗ	-4252
▁ㅅㅓㄴㄱㅗ	-4253
▁ㅅㅣㄹㅈㅗㅇ	-4254
▁ㅇㅏㄴㄱㅣ	-4255
▁ㅈㅏㄱㄴㅕㄴ	-4256
ㅁㅣㅅ	-4257
▁ㅂㅕㄴㅎㅘㄴ	-4258
▁Star	-4259
▁DD	-4260
▁ㅅㅔㄴㅅㅡ	-4261
▁War	-4262
▁ㅎㅓㅇ	-4263
▁ㄴㅏㅈㅊㅜ	-4264
▁ㄷㅗㅇㅅㅓㅇ	-4265
▁ㅇㅏㄱㅁㅗㅇ	-4266
ㅇㅣㄹㅂㅗ	-4267
▁ㅎㅓㄹ	-4268
▁ㄲㅗㅁ	-4269
▁ID	-4270
▁ㅂㅐㄱㅅㅓㅇ	-4271
▁ㅊㅏㅇㅇㅝㄴ	-4272
ㅍㅐㄴ	-4273
▁CG	-4274
▁ㅅㅐㅇㅁㅕㅇㅊㅔ	-4275
▁ㅊㅜㄹㄱㅜ	-4276
ㅅㅏㄴㅅㅣ	-4277
▁ㅂㅜㄹㄱㅛ	-4278
▁ㅁㅐㅅ	-4279
▁ㅇㅑㄱㅎㅘ	-4280
▁ㅂㅏㄹㄹㅔㄴ	-4281
TS	-4282
▁ㅍㅣㅇㅋㅡ	-4283
▁ㄱㅣㄴㅈㅏㅇ	-4284
▁ㄱㅕㄴㄷㅣ	-4285
▁106	-4286
▁ㅅㅏㅂㅇㅣㅂ	-4287
▁ㅊㅣㅁㅁㅜㄱ	-4288
ㄹㅓㅎㅈㅣ	-4289
▁ㅇㅣㄴㅍㅣ	-4290
▁ㄱㅡㅂㄱㅕㄱ	-4291
▁up	-4292
ㄲㅡㄴ	-4293
▁ㅁㅜㄹㄱㅗ	-4294
▁ㅇㅏㄴㄱㅐ	-4295
ㅅㄱㅏㄹㄹㅣ	-4296
▁ㅅㅏㅇㅅㅣㄱ	-4297
▁ㅈㅣㅂㅊㅏㄱ	-4298
▁ㅇㅕㅇㄱㅘㅇ	-4299
▁ㅈㅏㅇㄱㅓ	-4300
ㅍㅡㄹㄹㅓ	-4301
▁ㄱㅕㄹㅌㅜ	-4302
▁ㄱㅕㅇㄴㅏㅁ	-4303
▁ㅇㅡㅂ	-4304
▁ㅇㅏㅁㅅㅏㄹㅈㅏ	-4305
▁ㅆㅓㄴㄷㅓ	-4306
▁ㅅㅗㅁ	-4307
▁ㄱㅏㅁㅊㅜ	-4308
ㅇㅟㅅ	-4309
ㄹㅕㅇㅂㅜ	-4310
ㄹㄹㅣㄴㅈㅣ	-4311
▁ㄷㅗㅇㅁㅕㅇ	-4312
▁ㅅㅣㄴㅂㅏㄹ	-4313
ㅇㅡㄴㅎㅐㅇ	-4314
▁PR	-4315
ㅌㅠㅁ	-4316
▁ㅈㅜㅂ	-4317
▁ㅂㅓㅂㅈㅓㅇ	-4318
ㄷㅗㅇㅈㅓㄴ	-4319
▁ㄷㅣㄱ	-4320
▁ㄲㅡㄹㄹㅕ	-4321
▁fe	-4322
▁ㄱㅕㅇㅈㅣㄱ	-4323
▁ㅌㅗㅇㄱㅖ	-4324
▁ㅆㅏㄱ	-4325
ㄱㅘㄹ	-4326
▁ㅇㅓㄴㄷㅔ	-4327
▁ㅈㅏㅇㅇㅣㄴ	-4328
▁ㄹㅣㅂ	-4329
▁115	-4330
ING	-4331
▁}}}	-4332
▁ㅅㅗㄹㅈㅣㄱ	-4333
▁102	-4334
▁ㅌㅔㅅ	-4335
▁ㄱㅏㄹㅇㅏ	-4336
▁ㅊㅏㅁㅁㅗ	-4337
▁ON	-4338
ㅊㅓㄴㅅㅣ	-4339
▁ㅇㅣㅁㅍㅐㄱㅌㅡ	-4340
ous	-4341
▁ㄷㅗㅇㄱㅡㅂ	-4342
ㅂㅏㄹㅈㅏ	-4343
amp	-4344
ㅅㅡㄹㄹㅣㅇ	-4345
▁ㄱㅕㄹㅅㅣㅁ	-4346
▁ㅎㅏㄴㅉㅗㄱ	-4347
▁For	-4348
ㄷㅓㄴㅈㅣ	-4349
att	-4350
▁ㄴㅣㄱㄴㅔ	-4351
▁ㅈㅜㅇㅂㅗㄱ	-4352
▁Ne	-4353
▁ㅌㅣㅂ	-4354
▁DVD	-4355
▁ㄱㅗㄹㄹㅔㅁ	-4356
▁ㅊㅐㄹㄹㅣㄴㅈㅣ	-4357
▁And	-4358
▁ㅊㅣㅁㄹㅑㄱ	-4359
ㄷㅗㅇㄹㅕㄱ	-4360
▁ㅊㅣㅁㅇㅣㅂ	-4361
▁Go	-4362
▁ㅅㅏㅇㅎㅏㄴ	-4363
▁ㅂㅜㄴㅁㅕㅇㅎㅣ	-4364
▁ㅇㅕㄴㅎㅏㅂㄱㅜㄴ	-4365
▁ㅌㅗㅇㅎㅘ	-4366
▁ㅅㅓㄴㅎㅐㅇ	-4367
ㅁㅏㄴㅎㅣ	-4368
ㄴㅢ	-4369
▁LA	-4370
▁ㅈㅏㅇㅌㅏㄴㅅㅜ	-4371
▁ㄴㅏㅁㅂㅜㄱ	-4372
ㄷㅡㄴㅈㅣ	-4373
ㅅㅔㄴㅌㅡ	-4374
▁ㄱㅙㄴㅎㅣ	-4375
▁ㄱㅏㅁㅈㅣ	-4376
▁ㄴㅜㅂ	-4377
▁ㅇㅣㅂㅈㅜ	-4378
▁Cr	-4379
▁ㅈㅏㅇㅅㅣㄴ	-4380
ㄱㅗㅂ	-4381
▁ㄱㅣㅁㄱㅕㅇ	-4382
▁ㅈㅓㄴㅅㅡㅇ	-4383
▁ㅂㅗㄱㅅㅓㄴ	-4384
▁ㅇㅣㄴㅇㅛㅇ	-4385
ㄹㅔㄹㄹㅏ	-4386
▁175	-4387
▁ㅇㅣㄴㅂㅏㅇ	-4388
▁wid	-4389
▁ㅎㅡㄱㅇㅣㄴ	-4390
ㅍㅕ	-4391
me	-4392
▁ㄴㅏㅁㅁㅐ	-4393
▁ㄷㅗㅇㅈㅓㅁ	-4394
▁ㅎㅏㄱㅅㅡㅂ	-4395
ms	-4396
▁ㄷㅗㄹㅇㅣㅂ	-4397
▁ㅈㅓㅇㅂㅏㄹ	-4398
▁ㄷㅏㄴㅎㅐㅇ	-4399
▁ㅈㅓㄴㅂㅜㄱ	-4400
ㅈㅓㄴㄱㅓ	-4401
▁ㅂㅗㄱㅈㅔ	-4402
▁ㄹㅐㅁ	-4403
▁ㅇㅕㅇㅇㅝㄴㅎㅣ	-4404
64	-4405
▁bl	-4406
AY	-4407
▁ㅍㅏㄴㄱㅕㄹ	-4408
▁188	-4409
ㅌㅔㅂ	-4410
▁ㄷㅗㅇㅇㅑㅇ	-4411
▁ㄱㅏㄹㄹㅏ	-4412
▁width	-4413
ㄸㅏㄱ	-4414
▁ㅊㅜㄹㄹㅜ	-4415
▁ㅂㅓㅇ	-4416
▁ㅈㅔㄹㄹㅣ	-4417
ㅅㅓㅁ	-4418
ㄸㅜㄱ	-4419
▁ㅅㅓㄴㄷㅜ	-4420
▁Wind	-4421
▁ㄷㅏㄴㅇㅝㄴ	-4422
ㅂㅏㄴㄷㅗ	-4423
ㅍㅡㄹㄹㅣ	-4424
▁ㅈㅗㄴㄱㅕㅇ	-4425
ㄱㅜㄴㄷㅏ	-4426
▁ㅇㅣㅁㅅㅣㄴ	-4427
▁GP	-4428
▁ㅈㅣㄹㄹㅣ	-4429
ㅍㅣㄹㄷㅡ	-4430
▁ㅂㅗㄴㅈㅣㄴ	-4431
▁ㅍㅏㅇ	-4432
▁ㅌㅡㄴ	-4433
ㅁㅓㄴㅅㅡ	-4434
ㅌㅡㄹㄹㅓ	-4435
▁ㅂㅔㄹㅌㅡ	-4436
▁ㅊㅜㄱㅎㅏ	-4437
▁al	-4438
▁1985	-4439
▁ㅅㅡㄹㅍㅡ	-4440
▁ㄱㅠㄴㅎㅕㅇ	-4441
▁ㅎㅐㅇㅎㅏ	-4442
ib	-4443
▁ㅋㅗㄴㅌㅔㄴㅊㅡ	-4444
▁ㅅㅗㄱㅇㅣ	-4445
ft	-4446
12	-4447
ㅎㅐㄱ	-4448
now	-4449
▁ㅁㅗㅇㄱㅗㄹ	-4450
ㅁㅗㅁ	-4451
▁ㅊㅓㄹㅅㅜ	-4452
▁Gam	-4453
▁ㄴㅣㅅ	-4454
▁ㄴㅏㄹㅋㅏ	-4455
▁ㅈㅜㅇㄹㅕㄱ	-4456
▁ㄱㅗㅇㅇㅓㅂ	-4457
▁ㅂㅏㅇㅇㅟ	-4458
▁ㅇㅔㄹㄹㅔ	-4459
ㄱㅕㅂ	-4460
▁ㅇㅣㄴㄹㅕㄱ	-4461
▁ㅇㅏㄱㄱㅣ	-4462
▁ㅇㅣㄹㄷㅏㅇ	-4463
▁ㅁㅏㄱㅍㅏㄴ	-4464
▁ㅃㅗㅂㅇㅏ	-4465
▁ㅅㅏㄹㅍㅕ	-4466
▁ㄱㅡㄴㅂㅗㄴ	-4467
▁ㅌㅏㅇ	-4468
▁ㅍㅕㄹㅊㅕ	-4469
▁".	-4470
▁ㄱㅜㄱㄷㅏㅇ	-4471
▁ㅅㅡㅇㅁㅜ	-4472
▁ㅌㅗㅇㅊㅣ	-4473
oll	-4474
▁ㄱㅣㅁㅅㅏㅇ	-4475
▁ㄱㅏㅇㅇㅝㄴㄷㅗ	-4476
▁BS	-4477
ㅇㅝㄴㅈㅓㄴ	-4478
▁350	-4479
▁ㅌㅏㅁㅈㅓㅇ	-4480
▁ㄱㅕㄱㅊㅏ	-4481
▁ㅈㅏㅇㅁㅣ	-4482
▁ㅎㅗㄴㄷㅗㄴ	-4483
▁IN	-4484
▁ㄷㅗㅁ	-4485
▁ㄱㅡㅂㅎㅏ	-4486
▁Man	-4487
ㄴㅡㄹㄴㅏㄹ	-4488
▁ㅋㅘ	-4489
▁ㅇㅜㄴㅅㅜ	-4490
▁ㅇㅣㄴㅈㅗㅇ	-4491
▁ㅈㅡㄱㅅㅏ	-4492
▁ㅂㅐㅇㅋㅡ	-4493
▁ㅎㅏㅇㅂㅗㄱ	-4494
ㅌㅔㄴㄷㅗ	-4495
▁ㄴㅣㄴㅌㅔㄴㄷㅗ	-4496
▁BR	-4497
▁ㅅㅏㅇㄷㅏㅁ	-4498
▁ㅎㅏㅁㅂㅜ	-4499
▁ㅌㅣㄹ	-4500
▁ㅇㅣㄴㅈㅣㄹ	-4501
▁ㄱㅏㅂㅈㅏㄱ	-4502
pl	-4503
ㅈㅏㄹ	-4504
▁ㄲㅞ	-4505
▁AKB	-4506
▁ㄱㅜㄱㅍㅏㄴ	-4507
▁All	-4508
▁ㅅㅏㄴㅎㅏ	-4509
ㅌㅐㄴ	-4510
▁ㄱㅏㄴㄷㅏㄴㅎㅣ	-4511
▁ㅎㅕㄹㅇㅐㄱㅎㅕㅇ	-4512
▁KR	-4513
ps	-4514
▁ㄱㅡㅁㅁㅔ	-4515
▁ㅂㅏㄱㅈㅣ	-4516
▁ㅁㅜㅇㅊㅣ	-4517
▁Part	-4518
▁ㅅㅓㅇㅈㅓㄴ	-4519
▁1984	-4520
▁ㅅㅣㄴㅇㅣㅂ	-4521
▁PP	-4522
▁ㅂㅜㄴㅇㅕㄹ	-4523
▁ㅁㅜㄹㄹㅑㅇ	-4524
▁ㅇㅣㄹㅂㅗㄴㄱㅜㄴ	-4525
▁ㄱㅘㅇㅅㅓㄴ	-4526
▁ㅂㅜㄴㅎㅐ	-4527
▁ㅂㅐㄱㅇㅣㄴ	-4528
▁ㅂㅏㄴㅂㅏㄱ	-4529
▁En	-4530
▁ㅇㅔㄱㅅㅣ	-4531
▁ㅇㅡㄴㅈㅣ	-4532
ond	-4533
ㅂㅓㄹㄹㅔ	-4534
▁ㅎㅜㄴㅈㅏㅇ	-4535
▁Sup	-4536
▁112	-4537
ㅌㅐㄴㄷㅡ	-4538
▁ㄱㅣㅁㅈㅣㄴ	-4539
▁ㅈㅏㅁㅇㅣㅂ	-4540
▁Mar	-4541
▁ㅈㅓㅇㅌㅗㅇ	-4542
▁ㅌㅗㅇㄹㅗ	-4543
▁ㅈㅏㅁㄷㅡㄹ	-4544
▁ㅈㅡㅇㅍㅗㄱ	-4545
▁Fate	-4546
▁ㅊㅔㄹㅅㅣ	-4547
▁ㅁㅗㄹㄹㅕ	-4548
▁ㄱㅜㅇㄱㅡㅁ	-4549
▁ex	-4550
▁ㅈㅜㄹㄱㅓ	-4551
▁ㅂㅏㅇㅅㅗㅇㄱㅜㄱ	-4552
ase	-4553
▁SU	-4554
▁ㄹㅗㅁ	-4555
ool	-4556
ㅇㅓㅂㅈㅏ	-4557
ㅇㅜㄴㄹㅗ	-4558
▁ㅁㅕㅇㅇㅢ	-4559
▁ㅊㅓㄹㅎㅏㄱ	-4560
▁ㄱㅣㅁㄱㅣ	-4561
▁ㅂㅜㄴㅈㅐㅇ	-4562
▁UN	-4563
▁ㅈㅣㄴㅇㅏㅂ	-4564
▁ㅎㅏㄹㄹㅗ	-4565
▁ㅅㅓㄴㅈㅔ	-4566
TV	-4567
ㅅㅏㅇㅅㅣㄱ	-4568
▁ㄴㅣㅇ	-4569
▁108	-4570
▁ㅂㅏㄴㅉㅏㄱ	-4571
▁ㅅㅏㄴㅌㅏㄴ	-4572
▁AN	-4573
ㅇㅗㄴㅈㅡ	-4574
▁ㅈㅓㄴㅍㅏ	-4575
▁ㅁㅕㄴㅎㅓ	-4576
▁ㅈㅣㄴㅎㅏㄱ	-4577
▁ㅎㅏㅂㄱㅖ	-4578
▁ㅎㅐㅇㅂㅏㅇ	-4579
▁sp	-4580
▁ㄲㅏㅁㅉㅏㄱ	-4581
ㅅㅈㅣ	-4582
ㅆㄷㅏ	-4583
▁ㄱㅓㅁㅅㅜㄹ	-4584
▁ㅊㅡㄱㅈㅓㅇ	-4585
ㄱㅡㄹㅅㅡ	-4586
▁117	-4587
MP	-4588
▁ㄴㅡㅇㄹㅕㄱㅈㅏ	-4589
▁One	-4590
ㅇㅣㄹㅈㅡ	-4591
ㅅㅏㅇㅇㅟ	-4592
▁DC	-4593
▁ㅂㅏㄴㅂㅜ	-4594
▁ㄱㅘㅇㅈㅏㅇ	-4595
▁ㅊㅏㅇㄷㅏㄴ	-4596
▁ㄱㅏㅁㅅㅏㅇ	-4597
ㅅㄱㅏ	-4598
▁ㅎㅏㅇㅇㅢ	-4599
ㅅㅓㅇㅇㅝㄴ	-4600
▁ㄷㅐㄴ	-4601
▁ㄴㅗㄴㅇㅢ	-4602
▁ㄴㅏㄴㅅㅏ	-4603
▁ㅂㅜㄴㄷㅏㅇ	-4604
▁ㅇㅏㄱㅎㅘ	-4605
▁ㅍㅕㅇㅇㅣㄹ	-4606
ㅂㅓㄱ	-4607
ㅂㅡㄹㄹㅗ	-4608
▁ㅈㅜㄹㄹㅣ	-4609
▁ㄴㅏㅁㅇㅏ	-4610
▁ㅊㅓㄹㄱㅝㄴ	-4611
▁360	-4612
▁ㅌㅡㄱㄱㅡㅂ	-4613
▁ㅁㅏㄴㅈㅣ	-4614
ph	-4615
▁ㅂㅜㅁ	-4616
ㅈㅗㄹ	-4617
▁ㅈㅜㅇㅈㅏㅇ	-4618
▁ㅇㅗㄴㅊㅓㄴ	-4619
ree	-4620
ㅎㅔㄴㅌㅣ	-4621
▁LP	-4622
▁As	-4623
ㅇㅟㅇ	-4624
▁ㅈㅜㅇㅅㅔ	-4625
▁ㅇㅓㅂㄱㅖ	-4626
▁ㅅㅐㅇㅇㅐ	-4627
ㅇㅓㄴㅅㅡ	-4628
aby	-4629
▁ㅌㅐㄱㅅㅣ	-4630
▁ㅇㅣㄹㅇㅛ	-4631
▁ㅇㅏㄴㅇㅑㅇ	-4632
▁ㄱㅓㄹㅈㅡ	-4633
ason	-4634
▁New	-4635
ㅍㅕㅇㅇㅑㅇ	-4636
▁ㄱㅜㄺ	-4637
▁Oh	-4638
▁ㄱㅏㅁㅆㅏ	-4639
▁ㄱㅗㅇㅅㅜ	-4640
ㄷㅗㄹㅇㅏ	-4641
▁ㅅㅣㄴㄷㅗ	-4642
▁ㅇㅝㄴㄷㅓ	-4643
▁ㄷㅔㄹ	-4644
ㄱㅕㅇㄱㅣ	-4645
▁ㅍㅗㄱㅎㅐㅇ	-4646
ㅅㅡㅇㅂㅜ	-4647
▁ㅂㅏㅇㅊㅣ	-4648
ㄷㅏㄴㅎㅣ	-4649
▁ㅂㅜㄹㄹㅑㅇ	-4650
▁ㄹㅜㄱ	-4651
▁ㅈㅓㄴㅈㅔ	-4652
▁ㅈㅣㄹㅌㅜ	-4653
▁JP	-4654
ㄸㅜ	-4655
ai	-4656
▁ㅎㅏㄴㄴㅏ	-4657
▁ㅋㅐㅅ	-4658
▁ㅇㅑㅇㅅㅏㅇ	-4659
ㄱㅣㅅ	-4660
▁ㅅㅑㅅㄱㅓㄴ	-4661
▁ㅅㅣㄱㅍㅜㅁ	-4662
▁ㅋㅣㅅ	-4663
▁ㄱㅏㅁㄷㅗㅇ	-4664
▁ㅇㅕㄴㄱㅗ	-4665
ㄴㅓㄹㅌㅣ	-4666
▁ㅈㅏㅁㅅㅣㄹ	-4667
▁ㅁㅏㄴㅁㅏㄴ	-4668
ㅂㅣㅅ	-4669
▁ㄱㅏㄴㅎㅗ	-4670
▁ㅅㅏㅇㄱㅘㄴㅇㅓㅄㅇㅣ	-4671
ment	-4672
▁ㄷㅗㄹㅇㅕㄴ	-4673
▁ㄱㅓㄴㄴㅔ	-4674
▁ㅈㅓㄴㅁㅜ	-4675
▁ㅁㅣㄹㄹㅕ	-4676
▁103	-4677
▁ㅇㅗㄹㅅㅡ	-4678
▁ㅁㅗㄳ	-4679
ㄹㅣㄴㅅㅔ	-4680
▁ㅇㅗㅇㅎㅗ	-4681
ㅅㅣㄴㄱㅛ	-4682
▁220	-4683
▁ㄷㅏㅇㅅㅏ	-4684
▁ㅎㅘㄱㅈㅏㅇㅍㅐㄱ	-4685
▁ㅇㅑㄱㅌㅏㄹ	-4686
▁GO	-4687
▁ㄱㅗㅇㅈㅓㅇ	-4688
▁ㅎㅏㅂㅂㅕㅇ	-4689
oon	-4690
▁ㄷㅗㄱㅈㅐ	-4691
▁ㅇㅣㄹㅎㅘ	-4692
▁ㅇㅝㄴㄹㅣ	-4693
▁ㅊㅓㄹㄱㅓ	-4694
▁un	-4695
▁FM	-4696
▁ㅇㅝㄴㅈㅗ	-4697
▁ㄷㅜㅁ	-4698
ㅅㅇㅣ	-4699
▁ㅌㅣㄴ	-4700
▁ㅎㅏㄴㄷㅜ	-4701
▁z	-4702
▁ㄸㅜㅀㄹㅣ	-4703
ㄹㅔㄹ	-4704
▁ㅂㅏㄹㅁㅗㄱ	-4705
ㅋㅣㄱ	-4706
▁240	-4707
▁tv	-4708
ㄷㅜㄹ	-4709
▁ㄱㅏㅇㄹㅣㅁ	-4710
▁ㅇㅝㄴㄱㅗㄱ	-4711
▁ㅇㅞㄹ	-4712
▁ㅁㅜㄹㄹㅕ	-4713
▁ㅃㅓㅇ	-4714
▁ㅎㅢㄴㅅㅐㄱ	-4715
ㄷㅗㄹㅇㅣ	-4716
▁ㅂㅐㄱㅎㅘ	-4717
▁ㅂㅗㄱㅎㅏㅂ	-4718
90	-4719
▁128	-4720
ㄹㅓㄴㅌㅡ	-4721
ARD	-4722
▁ㄱㅣㄴㄱㅡㅂ	-4723
ㅋㅗㄹㄹㅣ	-4724
▁ㅅㅣㄹㅈㅗㄴ	-4725
ㅂㅓㄴㅇㅔ	-4726
▁ㅈㅏㅇㅅㅏ	-4727
act	-4728
▁ㅈㅓㄴㅁㅏㅇ	-4729
▁ㅎㅏㄱㅅㅐㅇㅎㅚ	-4730
▁ㅊㅓㅇㅇㅘ	-4731
ox	-4732
▁ㄷㅓㄴㄱㅏ	-4733
▁ㅇㅘㅇㅇㅟ	-4734
ㅇㅏㄵ	-4735
▁%/	-4736
▁ㅅㅣㄹㅇㅡㄴ	-4737
▁ㄴㅏㄱㅎㅏ	-4738
▁ㄱㅗㅇㅇㅣㄴ	-4739
hen	-4740
▁ㅈㅓㄹㅊㅏ	-4741
▁ㄱㅗㅇㅂㅐㄱ	-4742
ㅌㅟ	-4743
▁ㅇㅏㄹㄹㅏ	-4744
▁ㅂㅏㄹㄱㅜㄹ	-4745
▁ㅈㅡㅇㅅㅏㅇ	-4746
▁ㅅㅓㅇㄷㅏㅇ	-4747
▁ㄱㅘㄴㅈㅓㅁ	-4748
▁ㅈㅜㅇㅅㅣ	-4749
ㅂㅔㅅ	-4750
▁ㅅㅡㄹㄹㅣ	-4751
▁UE	-4752
ㅋㅔㄹ	-4753
▁ㅅㅣㄹㅈㅏㅇ	-4754
ㅍㅣㄹㄷㅓ	-4755
ㅇㅛㅇㅎㅣ	-4756
▁ㅅㅜㄹㅅㅏ	-4757
▁ㅎㅗㄹㄷㅡ	-4758
ㄱㅘㄱ	-4759
▁ㅅㅣㄱㅁㅣㄴㅈㅣ	-4760
▁1960	-4761
ank	-4762
ㄴㅡㅈ	-4763
▁ㄱㅏㅂㅈㅏㄱㅅㅡ	-4764
▁ㅂㅓㄹㄹㅣ	-4765
ㅃㅓ	-4766
▁ㅍㅗㄱㅍㅏ	-4767
▁World	-4768
ㅅㅔㄹㄹㅗ	-4769
lect	-4770
MS	-4771
▁ㅂㅐㄱㅈㅏㄱ	-4772
▁ㅎㅔㄴㄹㅣ	-4773
▁ㄹㅔㄴㅈㅡ	-4774
ich	-4775
▁TVA	-4776
▁ㅅㅣㅁㅇㅢ	-4777
▁ㅇㅟㄴㄷㅡ	-4778
▁ㅇㅟㄴㄷㅗ	-4779
▁ㅈㅣㄱㅈㅏㅇ	-4780
ary	-4781
▁ㄷㅗㅇㄱㅕㅇ	-4782
ㅇㅗㄹ	-4783
ㅂㅜㄹㅁㅕㅇ	-4784
▁ㄲㅘㄱ	-4785
▁ㅇㅑㅇㅅㅗㄴ	-4786
ife	-4787
▁ㄴㅣㄹ	-4788
ㅊㅜㅁ	-4789
ㅂㅜㄹㅎㅗ	-4790
▁ㅌㅗㅇㅌㅡㄹ	-4791
ear	-4792
ㅅㅡㄹㄹㅓ	-4793
▁CS	-4794
▁ㅅㅑㅂ	-4795
▁ㅌㅡㄱㅂㅕㄹㅎㅣ	-4796
ㄹㅣㄹㄹㅏ	-4797
▁ㄱㅗㄹㅋㅣ	-4798
▁ㅅㅓㄴㅅㅏ	-4799
▁ㅅㅓㅇㅈㅣㄹ	-4800
▁ㅇㅣㄴㄱㅝㄴ	-4801
▁ㄱㅘㅇㅅㅏㄴ	-4802
uk	-4803
▁ㅍㅜㅅ	-4804
▁ㄱㅣㅁㅇㅛㅇ	-4805
▁LIVE	-4806
▁ㅇㅣㅁㄱㅡㅁ	-4807
▁ㅇㅑㅇㅈㅏ	-4808
▁ㄱㅘㄴㅊㅏㄹ	-4809
▁ㄱㅜㄱㅈㅏㅇ	-4810
▁ㅊㅐㅁ	-4811
▁ㄷㅏㅇㄷㅏㅇ	-4812
11	-4813
▁ㅆㅡㄹㄷㅔ	-4814
▁all	-4815
▁ㅁㅏㄱㅅㅏㅇ	-4816
▁1982	-4817
▁ㅂㅓㅂㅊㅣㄱ	-4818
way	-4819
ㅇㅓㄴㅅㅣㅂ	-4820
▁ㄸㅡㄴㄱㅡㅁㅇㅓㅄㅇㅣ	-4821
▁ㅁㅏㄹㅆ	-4822
▁ㅁㅐㄱㅈㅜ	-4823
▁Mk	-4824
▁ㄱㅓㄴㄱㅜㄱ	-4825
ET	-4826
▁ㅇㅏㄹㅂㅏ	-4827
▁{{{#	-4828
▁ㅁㅏㄴㅇㅣㄹ	-4829
ㅅㅣㅇㅌㅓㄴ	-4830
ple	-4831
▁ㄱㅜㄱㄱㅕㅇ	-4832
▁ㅈㅣㅁㅅㅡㅇ	-4833
▁ㅌㅐㄱㅎㅏ	-4834
▁ㅈㅜㅇㅅㅜㄴ	-4835
▁lv	-4836
▁ㅁㅜㄹㅍㅜㅁ	-4837
▁ㅇㅓㅁㅁㅣㄹ	-4838
ㅌㅡㄹㄹㅣ	-4839
▁Day	-4840
▁ㅈㅏㅇㅍㅏㄴ	-4841
▁Fr	-4842
ㄷㅣㅈㅎㅣ	-4843
▁ㅋㅜㄴ	-4844
▁185	-4845
▁ㄷㅗㅇㅅㅗㄱ	-4846
▁ㅅㅣㄴㅅㅓㄴ	-4847
▁ㅃㅏㄹㄱㅏㄴ	-4848
▁ㅈㅓㅇㅂㅏㄴ	-4849
▁ㅅㅣㄴㄷㅔ	-4850
▁ㅈㅏㅇㄹㅗ	-4851
▁ㄱㅕㄹㄱㅖ	-4852
▁ㅈㅓㄱㅅㅣ	-4853
▁ㄱㅕㅇㅇㅏㄱ	-4854
▁ㄱㅜㄱㅈㅓㅇ	-4855
▁ㅋㅡㄹㄹㅗㄴ	-4856
▁ㅎㅏㅇㄱㅜ	-4857
ype	-4858
ens	-4859
▁ㄷㅏㄴㅈㅗㅇ	-4860
▁ㅌㅏㅁㅎㅓㅁ	-4861
▁JT	-4862
▁ㅈㅡㄱㅇㅟ	-4863
▁ㄴㅏㄱㅅㅓㄴ	-4864
▁nd	-4865
▁ㅅㅗㄴㅅㅏㅇ	-4866
▁ㅇㅣㅁㄱㅣ	-4867
ㅅㄷㅐ	-4868
aster	-4869
▁ㅇㅓㅍ	-4870
ㄱㅜㄱㅇㅓ	-4871
▁go	-4872
▁ㄱㅘㄴㅌㅗㅇㄹㅕㄱ	-4873
▁ㄱㅣㅁㅈㅜㄴ	-4874
orn	-4875
ork	-4876
▁ㅅㅣㄴㅇㅛㅇ	-4877
▁ㅇㅕㄱㅅㅡㅂ	-4878
▁SF	-4879
▁1983	-4880
▁ㅌㅏㅁㅈㅣ	-4881
▁ㅂㅏㅇㅅㅗㅇㅅㅏ	-4882
▁ㄷㅏㄴㄱㅓㅁ	-4883
▁ㄴㅡㄺ	-4884
▁ㄱㅣㅁㅎㅐ	-4885
▁style	-4886
▁ㅌㅐㅂ	-4887
▁119	-4888
▁ㅈㅏㅇㄴㅏㄴㄱㅏㅁ	-4889
▁are	-4890
▁ㄱㅡㄱㄷㅗ	-4891
▁ㄱㅕㅇㅂㅜㄱ	-4892
▁ㄷㅗㄷㅂㅗ	-4893
▁ㄴㅏㄹㅆㅣ	-4894
▁Sw	-4895
▁ㅇㅕㄴㅂㅗㅇ	-4896
▁ㄲㅡㄶㅇㅣㅁ	-4897
▁ㄷㅏㄴㄱㅣ	-4898
▁Up	-4899
▁ㅅㅡㄹㄹㅓ	-4900
▁ㅋㅗㅁㅂㅣ	-4901
▁Ad	-4902
▁ㅇㅡㅁㄹㅛ	-4903
ans	-4904
ㅁㅠㄹㄹㅔ	-4905
▁104	-4906
▁123	-4907
▁ㄲㅏㄲㅇㅣ	-4908
ons	-4909
▁ㅁㅜㄲㅇㅣ	-4910
▁ㅇㅕㄱㅇㅣㅁ	-4911
▁do	-4912
▁ㅂㅏㅇㅌㅏㄴ	-4913
▁DP	-4914
▁ㅇㅏㄹㄹㅔㄱㅅㅡ	-4915
ㄷㅡㄹㄱㅣ	-4916
▁ㅈㅣㄴㄱㅕㄱ	-4917
▁Wi	-4918
▁ㄹㅔㄹ	-4919
▁ㅈㅓㄴㄴㅏㅁ	-4920
▁ㅁㅕㅇㅂㅐㄱ	-4921
very	-4922
ey	-4923
▁ㄱㅏㄴㅈㅜ	-4924
▁MB	-4925
ung	-4926
▁ㅅㅔㄴㅅㅓ	-4927
▁ㅅㅣㄹㄴㅐ	-4928
▁ㅌㅡㄱㅂㅕㄹㅅㅣ	-4929
▁109	-4930
▁OVA	-4931
▁ㄱㅏㄱㅇㅗ	-4932
ㄸㅓㄱ	-4933
▁ㅅㅐㅇㅈㅓㄴ	-4934
▁ㅇㅕㅂ	-4935
▁ㄷㅏㄴㅎㅐㅇㅂㅗㄴ	-4936
▁ㅎㅡㅂㅅㅏ	-4937
▁RA	-4938
▁ㄴㅏㄹㄸㅟ	-4939
▁III	-4940
▁ㅂㅜㅌㅈㅏㅂㅎㅣ	-4941
▁ㅉㅑㅇ	-4942
▁ㅅㅓㅇㅂㅐ	-4943
▁ㄲㅡㅀ	-4944
▁ㅎㅡㄴㄷㅡㄹ	-4945
▁ㄱㅕㄹㅈㅔ	-4946
ㅇㅏㅍ	-4947
▁ㅇㅝㄴㅎㅕㅇ	-4948
ㄹㅗㄱㅅㅐㄱ	-4949
▁ㅂㅐㄱㅈㅔ	-4950
ㅋㅗㄹㄹㅏ	-4951
▁ㅅㅣㄴㅈㅏ	-4952
▁ㅎㅗㄹㄹㅣ	-4953
▁ㄷㅗㄱㅈㅓㅁ	-4954
AK	-4955
▁ㅂㅗㄴㄱㅘㄴ	-4956
▁ㅇㅕㅇㅈㅣ	-4957
▁ㅅㅗㄴㅅㅣㄹ	-4958
▁ㅇㅏㄴㅅㅣㅁ	-4959
▁ㅇㅔㄴㅌㅡ	-4960
▁ㅃㅏㄹㄱㅏㄴㅅㅐㄱ	-4961
ll	-4962
▁ㄱㅡㄴㅇㅝㄴ	-4963
▁ㅂㅏㄴㄱㅏㅁ	-4964
anc	-4965
▁ㅂㅏㄱㅅㅏㄹㄴㅏ	-4966
▁ㅅㅣㄴㅅㅗㄱ	-4967
▁ㅅㅏㅇㅅㅏ	-4968
▁AA	-4969
▁ㅁㅜㄹㅊㅔ	-4970
argin	-4971
▁ㅎㅟㄹ	-4972
▁KOF	-4973
▁ㅇㅕㄱㅁㅕㅇ	-4974
▁ㅊㅏㅇㅅㅓㄹ	-4975
▁ne	-4976
▁ㅂㅔㄴㅊㅣ	-4977
▁ㅅㅓㄴㅇㅣㅁ	-4978
▁ㅅㅗㄴㅇㅗ	-4979
ㅇㅟㄴㅅㅡ	-4980
▁ㅂㅓㅁㅇㅛㅇ	-4981
ㄱㅏㄹㄹㅑㅇ	-4982
▁as	-4983
ㄱㅗㅇㅎㅏㅇ	-4984
ㄴㅛ	-4985
▁ㄱㅕㅇㅅㅏㅇㅂㅜㄱㄷㅗ	-4986
▁ㄱㅏㄴㄱㅏㄴㅎㅣ	-4987
▁Station	-4988
ㄹㅏㄴㅎㅣ	-4989
▁ㅎㅏㅂㄷㅗㅇ	-4990
▁ㅅㅏㅁㄱㅏㄱ	-4991
35	-4992
▁en	-4993
▁margin	-4994
▁ㅊㅜㄹㅎㅕㄹ	-4995
▁ㅊㅗㅇㅎㅏㅂ	-4996
ero	-4997
▁UEFA	-4998
▁ㄷㅏㅇㄷㅐ	-4999
▁ㄱㅏㅇㅅㅏ	-5000
▁ㄱㅝㄴㅇㅠ	-5001
▁ㅇㅝㄴㅍㅣ	-5002
▁ㅌㅏㅁㅅㅐㄱ	-5003
▁ㅅㅏㅇㄹㅠㄱ	-5004
▁ㅂㅣㄹㄷㅣㅇ	-5005
▁ㅇㅓㄺ	-5006
EM	-5007
▁ES	-5008
▁ㅈㅣㄹㅈㅜ	-5009
ㄹㄹㅕ	-5010
▁no	-5011
▁Qu	-5012
oss	-5013
▁ㄱㅏㅇㄹㅕㄹ	-5014
▁ㅂㅗㄱㅇㅝㄴ	-5015
▁Ph	-5016
▁ㅂㅕㄴㅌㅐ	-5017
ㅂㅏㅌ	-5018
▁Windows	-5019
ㅈㅗㅇㅅㅏ	-5020
▁ㅈㅓㄴㄱㅕㄱ	-5021
▁ㅅㅓㄴㅈㅏㅇ	-5022
▁ㅅㅜㄴㅇㅑㅇㅎㅏㅁ	-5023
▁ㄹㅔㄱㅅㅡ	-5024
▁ㅌㅡㄱㄱㅗㅇ	-5025
▁So	-5026
NA	-5027
▁ㅉㅡ	-5028
▁DPS	-5029
▁ㅍㅡㄹㄹㅣ	-5030
▁ㅋㅗㄴㅅㅗㄹ	-5031
ㅈㅣㄱㅇㅝㄴ	-5032
▁ㅈㅣㄹㅂㅕㅇ	-5033
▁ㄱㅏㅍ	-5034
▁ㄷㅏㅇㄱㅣ	-5035
▁ㅊㅣㅁㄷㅐ	-5036
▁ㅅㅐㅇㅊㅔ	-5037
▁ㅇㅑㄱㅁㅜㄹ	-5038
▁LO	-5039
▁ㅈㅓㄴㅅㅐㅇ	-5040
▁ㅈㅣㄱㅅㅓㄴ	-5041
ise	-5042
▁ㄷㅗㅇㄴㅏㅁ	-5043
▁ㅈㅣㄴㅅㅏㅇ	-5044
ㅂㅔㄴㅊㅓ	-5045
▁ㅇㅡㄹㅅㅜ	-5046
▁ㅇㅑㄱㅈㅏ	-5047
ㅅㅑㅅ	-5048
▁187	-5049
ㅅㅏㄴㅇㅕㄱ	-5050
▁ㅈㅣㅁㅈㅏㄱ	-5051
port	-5052
▁ㅌㅗㄹ	-5053
▁ㅌㅡㄹㅇㅓ	-5054
▁ㅁㅏㄱㄱㅏㅇ	-5055
▁135	-5056
▁ㄴㅗㄴㅈㅐㅇ	-5057
▁ㄷㅏㄴㅂㅏㄹ	-5058
ㅌㅗㄹ	-5059
▁ㅎㅔㄹㄹㅣ	-5060
▁ㄸㅐㅇ	-5061
pt	-5062
▁ㅇㅕㄴㅅㅙ	-5063
▁ㅎㅏㅂㄹㅣ	-5064
▁210	-5065
▁ㅋㅟㄱ	-5066
▁ㅂㅕㄴㄷㅗㅇ	-5067
ㅎㅡㄴ	-5068
▁ㅈㅓㅈ	-5069
▁ㄱㅘㄴㅊㅡㄱ	-5070
▁ㄷㅗㅇㅎㅐㅇ	-5071
▁121	-5072
ical	-5073
▁ㅅㅏㅇㅈㅜ	-5074
▁ㅈㅓㅇㅅㅓㄱ	-5075
▁ㅈㅓㄴㄴㅏㄹ	-5076
▁ㅅㅏㄴㅌㅏ	-5077
▁ㄱㅡㄱㅎㅣ	-5078
▁ㅅㅓㅇㅆㅣ	-5079
▁ㅂㅓㄱ	-5080
▁ㄱㅡㄴㅈㅓㅂㅈㅓㄴ	-5081
▁ㅇㅣㅇㅇㅕ	-5082
ㅂㅏㄱㅅㅡ	-5083
▁ㄱㅘㅇㄱㅣ	-5084
▁ㄱㅜㄱㅁㅜ	-5085
ㄴㅡㅇㄹㅕㄱ	-5086
▁Ver	-5087
▁ㄲㅡㄹㄹㅣ	-5088
▁ㄱㅗㅇㄷㅐ	-5089
▁ㅊㅓㄴㅇㅕㄴ	-5090
▁ㅆㅏㄹ	-5091
▁ㅌㅗㅇㅊㅣㅇ	-5092
▁ㅌㅡㄴㅌㅡㄴ	-5093
▁ㄷㅗㄱㅇㅣㄹㄱㅜㄴ	-5094
▁ㄱㅝㄴㅇㅟ	-5095
▁ㅇㅣㄴㅈㅏ	-5096
▁ㅂㅕㄴㅅㅜ	-5097
ㄱㅗㄴㅂㅗㄹ	-5098
99	-5099
▁ㅂㅣㅇㅍㅏㄴ	-5100
▁ㅎㅣㅂㅎㅏㅂ	-5101
▁ㄱㅜㄴㅅㅜ	-5102
ㅍㅡㄹㄹㅣㅇ	-5103
▁ㅈㅓㄴㄷㅏㅇ	-5104
▁107	-5105
ㅂㅗㄴㄱㅣ	-5106
ㅋㅗㄹㄹㅣㅅ	-5107
▁ㅌㅡㄱㅎㅜㄴ	-5108
▁ㅈㅣㅇㅇㅕㄱ	-5109
ㄴㅠㅁ	-5110
AP	-5111
▁ㅈㅔㅁ	-5112
▁ㅇㅡㅇㅇㅛㅇ	-5113
IR	-5114
▁ㅇㅑㅇㅂㅏㄴ	-5115
▁ㅅㅡㅇㅊㅏ	-5116
▁ㄱㅔㅁ	-5117
▁ㅈㅏㅇㅅㅓㅇ	-5118
▁ㅈㅜㅇㅅㅏㅇ	-5119
▁ㅈㅣㄴㄱㅡㅂ	-5120
▁ㄲㅓㅂ	-5121
▁ㅈㅜㅇㅈㅣ	-5122
▁ㅇㅓㅁㄱㅕㄱ	-5123
▁ㅊㅗㄱㅅㅜ	-5124
ign	-5125
▁ㄱㅏㅁㅅㅜ	-5126
▁ㅅㅓㄴㅈㅗ	-5127
▁ㅈㅜㅇㄱㅗ	-5128
▁ㅈㅓㅇㄱㅛ	-5129
ㅋㅝ	-5130
▁ㅅㅣㄹㅅㅏㅇ	-5131
▁ㄱㅣㅅㅂㅏㄹ	-5132
▁ㅂㅜㄹㅎㅐㅇ	-5133
▁ㅊㅣㄴㅈㅓㄹ	-5134
▁--	-5135
▁ㄱㅡㅂㅎㅐㅇ	-5136
ㄷㅡㄹㅇㅓ	-5137
▁ㄱㅘㄴㅇㅕ	-5138
▁ㄱㅗㅇㅌㅗㅇㅈㅓㅁ	-5139
▁ㅁㅕㅇㅁㅗㄱ	-5140
▁pl	-5141
ㅅㅏㅇㅅㅣ	-5142
ㄹㄹㅐ	-5143
▁ㄴㅏㅇㅂㅣ	-5144
▁love	-5145
▁ㄹㅏㄴㅅㅡ	-5146
▁ㅈㅓㄱㅈㅏ	-5147
▁ㅈㅣㅌ	-5148
▁ㅅㅓㅇㅅㅣㄹ	-5149
▁1981	-5150
▁ㅎㅏㄴㅂㅏㄴㄷㅗ	-5151
▁ㄱㅗㅇㄱㅏㅁ	-5152
▁ML	-5153
▁ㄱㅕㅇㅎㅗ	-5154
▁ㅊㅜㄱㅅㅗ	-5155
▁ㅇㅓㄹㄹㅏ	-5156
▁ㅈㅣㅂㄱㅝㄴ	-5157
▁ㅎㅘㄱㅅㅏㄴ	-5158
▁ㅂㅏㄹㅎㅐㅇ	-5159
▁ㄱㅗㅇㄷㅏㄴ	-5160
▁ㅍㅗㄱㅅㅡ	-5161
gh	-5162
ㄹㅡㄹㄹㅗ	-5163
▁ㅆㅓㅁ	-5164
▁ㅂㅐㄱㅇㅓㅂ	-5165
▁Sk	-5166
▁ㄱㅏㅇㄷㅡㅇ	-5167
▁ㄴㅗㄴㅁㅜㄴ	-5168
▁ㅇㅕㄹㅎㅕㄹ	-5169
▁ㅂㅣㄴㄷㅗ	-5170
▁ㅇㅗㄴㄷㅗ	-5171
▁ㅇㅗㄹㄷㅡ	-5172
ㅅㅡㄹㄹㅏ	-5173
▁ㅋㅜㅇ	-5174
▁TR	-5175
ㅈㅏㄱㅇㅛㅇ	-5176
▁ㅇㅏㄴㅉㅗㄱ	-5177
▁ㅂㅗㄴㅌㅗ	-5178
▁ㄴㅗㅇㅈㅏㅇ	-5179
▁ㅂㅓㄴㅈㅣ	-5180
▁ㅇㅣㄹㄹㅣ	-5181
▁ㅎㅏㄴㅊㅏㅇ	-5182
▁ㅂㅏㄹㅍㅏㄴ	-5183
▁MG	-5184
▁ㄱㅏㅇㅎㅗ	-5185
▁ㄱㅕㅇㅇㅕㄴ	-5186
urn	-5187
ㅍㅗㄹㄹㅣ	-5188
ail	-5189
▁ㅇㅣㄴㅊㅣㅇ	-5190
▁ㅇㅣㅈㅎㅣ	-5191
▁ㅂㅏㄹㅋㅣ	-5192
▁ㅇㅔㄴㅈㅣ	-5193
▁ㄷㅔㄴㅁㅏ	-5194
ㅁㅣㄴㅈㅜ	-5195
▁ㅂㅜㄹㅆㅏㅇ	-5196
ode	-5197
▁Super	-5198
▁ㅈㅓㄴㄹㅏㄱ	-5199
▁ㄷㅗㅇㅂㅏㄴ	-5200
▁ㄷㅗㄹㅂㅗ	-5201
▁="	-5202
▁To	-5203
▁ㅁㅕㅇㅁㅜㄴ	-5204
▁ㅇㅝㄴㅅㅣ	-5205
▁ㄱㅡㄺ	-5206
ㄹㅠㅁ	-5207
▁ㅅㅣㄴㄷㅗㅇ	-5208
▁ㄸㅏㄹㄹㅣ	-5209
▁ㅂㅕㄴㅇㅣ	-5210
ence	-5211
▁(	-5212
▁ㅌㅗㄱ	-5213
▁ㅍㅕㅇㅇㅑㅇ	-5214
▁ㄱㅣㅁㅈㅣ	-5215
▁ㅇㅣㄴㅈㅐ	-5216
▁math	-5217
VER	-5218
▁186	-5219
ㅇㅣㄴㅂㅗ	-5220
▁ㄷㅗㅇㅎㅐ	-5221
▁ㅊㅏㅇㅁㅜㄴ	-5222
▁Dream	-5223
▁ㄹㅔㅁ	-5224
▁ㄱㅣㅁㅅㅜ	-5225
▁ㅂㅜㄴㅅㅏㄴ	-5226
▁ㄹㅟ	-5227
▁ㄸㅏㅇㅂㅗㄹ	-5228
▁EXP	-5229
ㅈㅓㄴㅅㅏ	-5230
▁ㅎㅏㄹㄹㅣ	-5231
▁ㅊㅜㄹㄱㅏㄴ	-5232
ㄷㅔㄹㄹㅣㅇ	-5233
▁ㄱㅏㄴㅈㅣ	-5234
▁ㅇㅛㅇㅈㅏ	-5235
▁!"	-5236
▁122	-5237
▁ㄱㅕㄹㅎㅗㄴㅅㅣㄱ	-5238
▁ㅁㅗㄱㄱㅓㄹㅇㅣ	-5239
ier	-5240
▁LE	-5241
▁ㅅㅗㄴㅅㅟㅂ	-5242
▁ㄷㅗㅇㅇㅣㄴ	-5243
▁ㅎㅘㅇㅎㅜ	-5244
▁ㄲㅜㅁㄲㅜ	-5245
▁ㅊㅐㄱㅇㅣㅁㅈㅣ	-5246
▁ㅈㅓㅁㄱㅓㅁ	-5247
▁ㅂㅏㄱㅅㅏㄹㄴㅐ	-5248
▁ㄱㅘㅇㅁㅜㄹ	-5249
ㅁㅔㅅ	-5250
!!	-5251
▁ㅇㅚㄴㅅㅗㄴ	-5252
▁ㄱㅜㄴㅇㅛ	-5253
▁ㄱㅣㅁㅅㅡㅇ	-5254
ㅇㅣㄱㅅㅜ	-5255
▁ㅅㅓㄴㅊㅜㄹ	-5256
▁ㅅㅓㄹㄹㅕㅇ	-5257
IX	-5258
ble	-5259
ㄸㅣ	-5260
▁ㄱㅓㅁㅇㅕㄹ	-5261
▁ㅎㅔㅅㄱㅏㄹㄹㅣ	-5262
▁ㅅㅗㄴㄴㅣㅁ	-5263
▁ㅎㅕㅇㅍㅕㄴ	-5264
▁ㄱㅜㄹㅇㅛㄱ	-5265
ㅁㅏㅇㅈㅜ	-5266
ㄴㅎㅔㄴ	-5267
ㅅㅔㄴㅅㅡ	-5268
ㅁㅏㄱㅈㅣ	-5269
▁can	-5270
▁ㅁㅏㅇㅌㅗ	-5271
▁ㄷㅏㅅ	-5272
▁ㅅㅣㄹㅅㅏ	-5273
ㄱㅝㄹ	-5274
oun	-5275
▁ㅅㅗㄴㄲㅗ	-5276
▁ㅅㅏㅇㅁㅜ	-5277
▁ㅍㅕㅇㅎㅏ	-5278
▁ㅇㅣㅁㅇㅢ	-5279
▁ㅊㅓㄴㅊㅓㄴ	-5280
▁ㅊㅔㄴ	-5281
▁145	-5282
▁EC	-5283
iver	-5284
▁ㅎㅗㅅ	-5285
▁ㅅㅣㄴㅈㅣ	-5286
▁ㅇㅏㅂㄱㅝㄴ	-5287
ott	-5288
ㄴㅗㄹ	-5289
▁JTBC	-5290
▁ㅈㅜㅇㄱㅓ	-5291
▁ㅈㅏㄴㅇㅣㄴ	-5292
▁ㅂㅗㅇㅅㅙ	-5293
▁Ap	-5294
▁ㅅㅙ	-5295
▁ㅇㅕㄱㄹㅑㅇ	-5296
▁ㄱㅏㅇㅁㅣㄴ	-5297
▁ㅁㅣㄴㄱㅜㄱ	-5298
▁ㄷㅏㄹㅇㅏ	-5299
▁ㄱㅓㅁㅈㅓㅇ	-5300
▁165	-5301
▁1979	-5302
▁ㅈㅏㅇㅌㅏ	-5303
▁ㅂㅗㄱㅅㅏ	-5304
▁ㄱㅘㄴㅇㅜ	-5305
▁BJ	-5306
▁ㅅㅏㅁㅅㅓㅇㅈㅓㄴㅈㅏ	-5307
▁ㅍㅕㅇㄹㅗㄴ	-5308
▁113	-5309
▁Max	-5310
▁ㅎㅓㅇㄱㅏ	-5311
▁ㄱㅗㄱㅇㅣㄴ	-5312
ㅊㅣㅅ	-5313
▁ㅅㅣㄴㅈㅜㅇ	-5314
▁ㄱㅣㅁㅍㅗ	-5315
▁ㄱㅕㅇㅊㅏㄹㅅㅓ	-5316
▁ㅋㅡㄴ	-5317
▁ㅇㅣㄴㄱㅘ	-5318
▁144	-5319
ㅅㅣㄹㅈㅓㅁ	-5320
▁ATK	-5321
▁ㅁㅓㅇㅊㅓㅇ	-5322
▁at	-5323
▁ㅎㅡㄺ	-5324
▁ㅎㅏㅇㄱㅗㅇㅁㅗ	-5325
▁ㄴㅏㄴㅁㅜ	-5326
▁ㅎㅕㄹㅌㅗㅇ	-5327
ㅍㅗㄴㅅㅓ	-5328
▁ㅊㅓㄹㄱㅏㅂ	-5329
▁ㅊㅓㄴㅊㅓㄴㅎㅣ	-5330
▁ㅇㅝㄴㅅㅜㅇㅇㅣ	-5331
▁ㅈㅓㅇㅅㅣㄴㄹㅕㄱ	-5332
▁ㅇㅣㄴㅂㅔㄴ	-5333
oh	-5334
▁NO	-5335
▁ㅂㅡㄹㄹㅓㄱ	-5336
eah	-5337
▁ㅎㅏㄱㄱㅡㅂ	-5338
▁ㄹㅗㄹㄹㅓ	-5339
▁ㅁㅗㅁㅌㅗㅇ	-5340
uck	-5341
▁155	-5342
▁ㅊㅜㄹㅂㅓㅁ	-5343
▁ㅇㅝㅁ	-5344
▁ㅇㅕㄹㅈㅓㅇ	-5345
▁ㅊㅣㄴㅂㅜㄴ	-5346
ㄱㅜㄴㄱㅏ	-5347
▁ㅊㅏㅇㅈㅏㄱㅁㅜㄹ	-5348
II	-5349
▁114	-5350
▁ㄱㅡㄹㅆㅣ	-5351
ㄲㅓㅂ	-5352
▁ㅋㅡㄹㄹㅣㄴ	-5353
▁ㄱㅘㅇㅁㅕㅇ	-5354
▁GK	-5355
▁ㅊㅓㅅㅉㅐ	-5356
▁ㅊㅣㄴㅇㅐ	-5357
ㄹㅏㄴㅅㅣ	-5358
▁ㅈㅣㄴㅇㅔ	-5359
▁CM	-5360
▁ㅂㅜㄹㅌㅐ	-5361
▁ㅂㅓㅂㅅㅏ	-5362
ㄴㅏㄴㅎㅣ	-5363
▁ㄴㅟ	-5364
▁ㅋㅗㄴㅅㅡ	-5365
ㅇㅣㅅ	-5366
▁ㅂㅏㄱㅅㅓㅇ	-5367
▁ㅅㅓㄴㅈㅣㄴ	-5368
▁ㅍㅡㄹㄹㅐㄴ	-5369
▁ㅅㅔㄱ	-5370
▁this	-5371
▁ㅊㅓㅇㄱㅜ	-5372
▁ㅁㅏㅈㅂㅜㅌ	-5373
▁ㄱㅣㅁㅇㅠ	-5374
▁ㄱㅗㅇㅅㅗㄱ	-5375
▁ㅍㅗㄱㄱㅕㄱㄱㅣ	-5376
▁BD	-5377
▁ERA	-5378
▁ㅇㅘㅇㅂㅗㄱ	-5379
▁ㅇㅕㅇㄱㅏㅁ	-5380
ㄴㅓㄴ	-5381
▁ㄱㅗㅇㅅㅏㄴㄷㅏㅇ	-5382
▁ㄱㅏㅇㄱㅕㅇ	-5383
▁ㅊㅣㅁㅌㅜ	-5384
▁ㄷㅓㅁㅂㅣ	-5385
▁ㅁㅕㅇㅅㅏ	-5386
▁750	-5387
▁ㅈㅗㄴㅅㅡ	-5388
▁IT	-5389
bs	-5390
▁ㅅㅟㄹㄷㅡ	-5391
▁ㅈㅕㄴ	-5392
▁ㅍㅔㅇ	-5393
ㅌㅡㄹㄹㅐㄴㄷㅡ	-5394
▁ㅈㅜㅇㅇㅟ	-5395
▁ㅈㅜㅇㄷㅗㅇ	-5396
int	-5397
▁{{{-	-5398
▁ㅇㅓㅁㅇㅕㄴㅎㅣ	-5399
▁ㅍㅜㅇㅅㅓㄴ	-5400
ㅈㅠ	-5401
▁ㅂㅗㄴㄴㅡㅇ	-5402
▁ㅂㅜㄹㄴㅡㅇ	-5403
▁ㅍㅜㅇㅂㅜ	-5404
▁from	-5405
▁ㄱㅏㅇㄱㅏㄴ	-5406
▁ㅁㅜㄹㅇㅓ	-5407
▁Season	-5408
ㄱㅡㄹㄹㅏ	-5409
▁ㅅㅏㅇㄱㅡㅁ	-5410
▁ㅎㅔㄹㅁㅔㅅ	-5411
▁ㅊㅜㅂ	-5412
▁ㅂㅏㄱㅅㅜ	-5413
▁ㄴㅐㅇㅈㅓㅇ	-5414
▁ㅁㅐㅇㅅㅔ	-5415
ㄹㅔㄴㅈㅣ	-5416
▁ㄷㅗㅇㅈㅓㄴ	-5417
▁EXT	-5418
▁ㅂㅕㄴㅈㅏㅇ	-5419
▁ㅈㅣㄹㅅㅓ	-5420
▁ㅇㅕㄴㅅㅏㄴ	-5421
▁ㄲㅡㄶㅇㅣㅁㅇㅓㅄㅇㅣ	-5422
▁..?	-5423
▁AB	-5424
▁ㅁㅏㄴㄴㅡㅇ	-5425
▁ㅇㅕㄴㅅㅜ	-5426
▁ㅂㅗㅇㅅㅏ	-5427
▁tr	-5428
▁ㅇㅗㄹㅂㅏ	-5429
▁ㄷㅗㄱㅇㅣㄹㅇㅓ	-5430
▁1950	-5431
ose	-5432
▁ㅇㅣㄴㅈㅓㅂ	-5433
ㅍㅗㄹ	-5434
▁ㅊㅐㅁㅍㅡ	-5435
▁314	-5436
itt	-5437
ㅊㅔㄹ	-5438
▁ㄱㅗㅇㄱㅕㄱㅅㅜ	-5439
ㅇㅕㄱㅅㅏ	-5440
▁ㅈㅓㅁㅇㅠ	-5441
▁ㅇㅓㅁㅁㅣㄹㅎㅣ	-5442
▁ㅈㅜㅇㅈㅓㅁ	-5443
ㅂㅐㅅ	-5444
IL	-5445
▁450	-5446
▁HE	-5447
▁EZ	-5448
▁ㅈㅓㄴㄷㅗㅇㅊㅏ	-5449
▁ㅊㅡㄴ	-5450
▁ㅊㅗㅇㅈㅏㅇ	-5451
▁La	-5452
▁ㄷㅏㅂㄷㅏㅂ	-5453
▁ㅇㅏㅁㅎㅗ	-5454
▁ㅇㅣㄹㄱㅗㅂ	-5455
ㅂㅏㅁ	-5456
ㅈㅜㅁ	-5457
▁Vol	-5458
▁ㅁㅣㄹㄹㅔ	-5459
▁Im	-5460
▁ㄱㅏㅁㅌㅏㄴ	-5461
▁ㅂㅏㅇㅎㅏㄱ	-5462
▁ㅅㅡㄹㅍㅡㅁ	-5463
ats	-5464
▁ld	-5465
▁ㅍㅓㄱ	-5466
▁ㅇㅜㄴㅅㅗㅇ	-5467
▁ㅅㅗㄴㅈㅏ	-5468
ㅂㅏㅇㅅㅗㅇ	-5469
▁ㅈㅏㅇㄹㅖ	-5470
▁ㅋㅏㅁ	-5471
▁ㄱㅡㄱㄷㅐ	-5472
▁IM	-5473
▁ㄷㅗㅇㄷㅐ	-5474
▁Sch	-5475
▁Con	-5476
▁ㅂㅐㅇㄱㅏ	-5477
ㅇㅞㄹ	-5478
▁ㅇㅕㅇㅇㅑㅇ	-5479
▁Ed	-5480
▁new	-5481
ㅌㅏㅁㅈㅓㅇ	-5482
▁ㄱㅏㄱㅇㅣㄴ	-5483
▁ㄱㅏㅁㅈㅏ	-5484
ㅈㅣㄴㅎㅗ	-5485
▁ㅂㅕㅇㅇㅕㄱ	-5486
ㅇㅣㅁㅈㅡ	-5487
▁ㅂㅓㅇㅋㅓ	-5488
msys	-5489
▁ㅍㅔㄹㄹㅣ	-5490
▁ㅇㅝㄴㅈㅓㄴ	-5491
▁ldmsys	-5492
▁ㄷㅡㄹㄹㅕ	-5493
▁ㅇㅣㄹㄱㅏ	-5494
▁ㅁㅔㅅ	-5495
▁124	-5496
ㅊㅓㄹㄷㅗ	-5497
▁ㅇㅓㄹㅌㅣ	-5498
▁Girl	-5499
ari	-5500
▁ㅇㅣㅂㅁㅜㄴ	-5501
▁ㅉㅗㅈ	-5502
▁ㄷㅗㅇㅈㅓㅇ	-5503
15	-5504
ㄲㅡㅅ	-5505
ube	-5506
▁ㅈㅣㅂㅎㅚ	-5507
▁ㅈㅓㄹㅊㅣㄴ	-5508
▁Night	-5509
▁Gre	-5510
▁rd	-5511
▁ㅂㅜㄴㅎㅗㅇ	-5512
▁ㅇㅛㅇㅇㅏㅁ	-5513
▁ㅈㅗㅇㅇㅕㅇ	-5514
usic	-5515
ition	-5516
▁ㅇㅕㄴㅈㅓㄴ	-5517
▁ㅈㅓㅇㅁㅜㄴ	-5518
▁OS	-5519
▁ㄱㅡㄴㄷㅐ	-5520
▁RE	-5521
▁ㅅㅗㅅ	-5522
ㄹㅔㄱㅅㅕㄴ	-5523
13	-5524
▁ㅁㅓㅅㄷㅐ	-5525
▁ㅅㅣㄴㄱㅗㄱ	-5526
▁ㅎㅕㄱㅅㅣㄴ	-5527
ㅅㅣㄴㅈㅏ	-5528
▁ㅊㅓㄴㅈㅏㅇ	-5529
▁ㅁㅗㄱㅅㅏ	-5530
▁ㄱㅏㄹㅅㅐㄱ	-5531
▁183	-5532
▁ㅊㅜㄹㅅㅏㄴ	-5533
▁ㅍㅕㅇㅎㅐㅇ	-5534
ㅎㅠㅇ	-5535
▁ㄱㅜㅇㅎㅏㅂ	-5536
▁ㅇㅑㅇㅅㅣㄱ	-5537
▁ㅊㅏㄴㅅㅓㅇ	-5538
25	-5539
▁ㄱㅘㅇㄱㅕㅇ	-5540
▁ㅅㅣㄹㅎㅕㄴ	-5541
▁ㄴㅗㄱㅎㅘ	-5542
▁ㅇㅣㄴㅅㅓㅇ	-5543
▁ㅌㅜㄴ	-5544
▁ㅎㅏㅇㅁㅗ	-5545
▁ㅎㅕㄴㄱㅡㅁ	-5546
▁ㅁㅟㄴㅎㅔㄴ	-5547
ㅂㅕㄴㅇㅣ	-5548
▁ㄷㅗㄹㅇㅕㄴㅂㅕㄴㅇㅣ	-5549
ㄱㅡㄹㄹㅣㅇ	-5550
▁ㅁㅏㄹㄹㅔ	-5551
▁ㅁㅏㄴㅈㅓㅁ	-5552
▁ㅎㅕㅂㅇㅢ	-5553
ㅉㅏㅇ	-5554
▁ㄱㅏㅇㄹㅡㅇ	-5555
▁ㄷㅏㄱㅊㅣ	-5556
▁ㅂㅏㅇㅅㅣㅁ	-5557
▁ㅍㅜㅁㅈㅣㄹ	-5558
▁ㅇㅝㄴㅈㅏㅇ	-5559
ㅅㅂㅜㄹ	-5560
▁ㅇㅕㄴㅅㅔ	-5561
ㅇㅜㄴㄷㅗㅇ	-5562
▁ㅊㅏㅁㅅㅏ	-5563
▁ㅎㅡㅌㅇㅓ	-5564
▁Black	-5565
ㅅㅗㄱㄱㅣ	-5566
▁ㅅㅡㅇㅇㅣㄴ	-5567
▁ㅇㅑㄴ	-5568
▁ㅈㅗㅇㄱㅕㄹ	-5569
ㅃㅏㄱ	-5570
▁ㅁㅕㅇㅂㅜㄴ	-5571
yn	-5572
▁ㅌㅗㅇㅉㅐ	-5573
▁ㅈㅓㄴㅎㅑㅇ	-5574
ㅍㅗㄱㅌㅏㄴ	-5575
▁ㅍㅜㅇㄱㅣ	-5576
▁ㅎㅏㄱㄴㅕㄴㄷㅗ	-5577
ㅊㅐㄱㄱㅏㅁ	-5578
ㅇㅡㄴㅅㅐㄱ	-5579
▁ㄷㅗㅇㅅㅓ	-5580
▁ㅁㅏㄴㅈㅜ	-5581
▁ㅊㅜㄹㅍㅏㄴㅅㅏ	-5582
▁ㅅㅓㅇㄱㅕㅇ	-5583
▁ㅇㅗㄱㅅㅏㅇ	-5584
▁ㄱㅓㅁㅈㅡㅇ	-5585
▁ㄴㅏㅂㄷㅡㄱ	-5586
▁ㅅㅡㅇㅈㅣㄴ	-5587
▁ㅈㅏㄱㅈㅓㅇ	-5588
▁1200	-5589
DD	-5590
▁ㅎㅕㄴㅈㅏ	-5591
18	-5592
▁ver	-5593
▁ㅁㅗㄹㅅㅏㄹ	-5594
▁ㅇㅓㅇㅁㅏㅇ	-5595
▁ㅅㅗㄴㄲㅗㅂㅎㅣ	-5596
▁127	-5597
app	-5598
ㄱㅗㅇㅅㅏ	-5599
ㅇㅡㅁㄷㅐ	-5600
ㄷㅗㅇㅅㅏㄴ	-5601
CE	-5602
▁Let	-5603
▁ㅂㅏㄹㄹㅔ	-5604
▁ㅎㅏㅂㅈㅏㄱ	-5605
▁ㅍㅓㅁㅍㅡ	-5606
▁ㅎㅏㅇㅎㅐ	-5607
▁ㅁㅣㄹㄷㅗ	-5608
▁ㅈㅓㅇㅅㅓㅇ	-5609
▁ㄱㅣㅍㅇㅣ	-5610
▁WC	-5611
▁ㅎㅡㅂㅎㅕㄹㄱㅟ	-5612
▁ㅈㅐㅁ	-5613
▁ㄷㅗㅇㄱㅜ	-5614
ㅅㅠㄹ	-5615
▁ㅁㅜㄹㅇㅑㄱ	-5616
▁ㅎㅘㄱㅅㅣㄴ	-5617
▁ㅅㅣㄹㅊㅔ	-5618
▁ㅉㅗㅊㄱㅕ	-5619
ㄴㅗㅇ	-5620
▁ㅂㅣㅇㄱㅕㄹ	-5621
▁ㄱㅡㅁㅇㅛ	-5622
▁USB	-5623
ㅋㅡㄹㄹㅣ	-5624
▁ㅈㅓㅇㅂㅏㄴㄷㅐ	-5625
▁Am	-5626
▁ㅈㅣㅂㄱㅖ	-5627
▁ㅎㅕㄴㅎㅘㅇ	-5628
▁ㅎㅡㄱㅁㅏ	-5629
▁118	-5630
▁ㅁㅏㄹㅆㅡㅁ	-5631
▁Col	-5632
▁Str	-5633
▁ㅇㅣㄴㅌㅔ	-5634
▁ㅅㅐㅇㄱㅣㅁㅅㅐ	-5635
ㄹㅔㅂ	-5636
▁ㅎㅐㅅ	-5637
▁Op	-5638
gr	-5639
ye	-5640
▁ㅅㅔㄹㄹㅔ	-5641
ㅈㅣㄱㅈㅏ	-5642
ㅅㅁㅏㄹ	-5643
▁ㄱㅏㄴㅅㅓㅂ	-5644
▁not	-5645
▁ㄷㅏㄲ	-5646
▁SSR	-5647
▁ㅇㅣㄹㄹㅔㄱㅌㅡ	-5648
ㅊㅐㄱㅈㅓㅁ	-5649
ough	-5650
▁NH	-5651
ㅌㅐㅂ	-5652
▁ㅁㅏㅈㅎㅣ	-5653
▁000000	-5654
▁ㅎㅏㅁㄹㅏㄱ	-5655
▁Mag	-5656
▁ㅊㅜㅇㅈㅗㄱ	-5657
▁ㅇㅑㄼ	-5658
▁ㅇㅡㄴㅍㅖ	-5659
▁184	-5660
▁ㅂㅕㄴㅁㅕㅇ	-5661
▁ㄱㅕㅇㅂㅜ	-5662
iel	-5663
ㅎㅏㅇㄱㅗㅇ	-5664
ㅇㅝㄴㄱㅜㄴ	-5665
▁ㄱㅐㅅ	-5666
▁ㄸㅓㄹㅊㅣ	-5667
ㅇㅜㄹㅇㅣ	-5668
▁ㅇㅏㅂㅊㅜㄱ	-5669
▁ㅈㅐㄱㅅㅡㄴ	-5670
▁NBA	-5671
▁ㅂㅐㅅ	-5672
▁ㅍㅏㄴㄷㅗ	-5673
▁ㄱㅏㅇㅌㅏ	-5674
▁ㅇㅝㄴㅍㅏㄴ	-5675
▁BC	-5676
vel	-5677
ㅇㅡㄹㅂㅓ	-5678
▁ㅈㅓㄱㅈㅓㄹㅎㅣ	-5679
▁..!	-5680
▁ㄱㅗㄹㅍㅡ	-5681
▁ㅈㅓㅇㅅㅏ	-5682
▁ㄱㅏㅇㅈㅓㄴ	-5683
▁ㅇㅕㄴㄷㅗㅇ	-5684
▁ㅁㅜㄴㅇㅑㅇ	-5685
▁ㅈㅓㅁㅅㅣㅁ	-5686
▁DM	-5687
ㄸㅓㄹㅇㅓ	-5688
▁ㅇㅣㄴㄱㅗㅇㅈㅣ	-5689
▁ㅍㅏㄹㄹㅏ	-5690
ull	-5691
▁OG	-5692
▁MM	-5693
▁#!	-5694
▁ㅈㅏㄴㅎㅗㄱ	-5695
▁ㅎㅏㄱㅁㅜㄴ	-5696
▁ㅇㅛㄱㅅㅓㄹ	-5697
ㄴㅣㄴ	-5698
▁182	-5699
ㅊㅓㄹㅅㅜ	-5700
▁AF	-5701
▁ㄸㅜㅇ	-5702
▁ㅂㅏㄱㅈㅏ	-5703
▁ㅂㅓㅂㅁㅜ	-5704
▁152	-5705
ult	-5706
▁ㅅㅏㄴㅁㅐㄱ	-5707
▁CR	-5708
▁ㅂㅕㅇㅅㅏㄹ	-5709
▁ㄱㅏㄱㅈㅣ	-5710
▁ㄱㅣㅁㅈㅜ	-5711
▁ㅎㅗㅅㅋㅏ	-5712
▁ㅊㅓㅇㅊㅜㄴ	-5713
ㅔㅇㅛ	-5714
ㅉㅜㄱ	-5715
▁ㅂㅏㄱㅈㅣㄴ	-5716
▁ㅎㅕㅂㅈㅓㅇ	-5717
▁ㅋㅏㄹㄹㅏ	-5718
▁ㅎㅏㅁㅈㅏㅇ	-5719
▁TS	-5720
able	-5721
▁ㄷㅓㅍㅊㅣ	-5722
▁178	-5723
▁ㅊㅓㄴㅅㅏㅇ	-5724
▁ㅊㅣㅁㅊㅏㄱ	-5725
▁ㄴㅗㄱㅇㅣ	-5726
▁ㄴㅏㅁㄷㅗㅇㅅㅐㅇ	-5727
▁ㅅㅏㅇㄴㅑㅇ	-5728
▁ㅋㅓㅁㅂㅐㅅ	-5729
..	-5730
ㄹㅡㄴㅅㅗㄴ	-5731
▁ㅂㅓㄹㅆㅓ	-5732
▁ㅇㅣㄹㅈㅣ	-5733
▁ㄱㅕㅇㅅㅏㅇㄴㅏㅁㄷㅗ	-5734
▁ㅃㅐㅅㄱㅣ	-5735
▁ㅎㅣㅁㅇㅣㅂ	-5736
ject	-5737
▁ㅇㅣㅁㅎㅏ	-5738
ㅎㅔㄹ	-5739
▁ㅇㅣㅍ	-5740
▁ㅊㅜㅁㅊㅜ	-5741
▁1978	-5742
▁ㅁㅏㄴㄹㅔㅂ	-5743
▁ㅈㅜㅇㄱㅕㄴ	-5744
▁ㅎㅏㄱㄷㅐ	-5745
▁ㅂㅏㄹㅁㅕㅇ	-5746
▁ㄱㅘㄴㅈㅏㅇ	-5747
▁ㄱㅡㄱㅎㅏㄴ	-5748
ㅆㅇㅓㅆ	-5749
▁ㅎㅏㄱㅅㅏ	-5750
ㅅㅏㅇㄱㅡㅂ	-5751
ㄱㅏㄴㄷㅐ	-5752
ㅎㅏㅇㄹㅕㄱ	-5753
▁ㅂㅜㄹㄱㅣㄹ	-5754
eth	-5755
oot	-5756
▁ㄷㅓㅇㅇㅓ	-5757
▁se	-5758
▁ㅋㅣㅁ	-5759
ㄹㅜㅁ	-5760
▁AL	-5761
▁ㅌㅗㅇㅅㅗㄹ	-5762
▁ㅎㅘㄴㅅㅐㅇ	-5763
▁ㄱㅕㄱㄹㅕ	-5764
ㅁㅂㅣ	-5765
MAN	-5766
▁cl	-5767
▁Co	-5768
▁ㄱㅡㅁㅂㅏㄹ	-5769
▁AV	-5770
▁ㅇㅣㅂㅈㅡㅇ	-5771
▁ㄴㅔㄹ	-5772
▁ㄱㅑ	-5773
ㅇㅜㄹㄷㅐ	-5774
▁GM	-5775
▁ㄱㅣㅁㄷㅗ	-5776
▁BGA	-5777
▁ㅆㅣㅅ	-5778
▁ㅁㅕㄴㅎㅏ	-5779
▁ㄷㅡㅇㅈㅐ	-5780
▁ㅇㅏㅂㄹㅕㄱ	-5781
▁ㅁㅜㄹㅈㅏ	-5782
▁ㄷㅡㅇㄱㅡㄱ	-5783
▁ㄴㅗㅇㅇㅓㅂ	-5784
▁ㄱㅐㅇㅅㅣㄴ	-5785
▁ㄱㅣㅁㄱㅘㅇ	-5786
▁ㄱㅏㄱㄷㅗ	-5787
▁ㅈㅓㄴㄷㅏㅁ	-5788
ㅎㅏㄴㄷㅗ	-5789
▁BO	-5790
ild	-5791
▁ㅂㅏㄹㄱㅡㅂ	-5792
inal	-5793
▁ㅇㅐㄱㅅㅔ	-5794
▁ㅂㅏㄴㄱㅕㅇ	-5795
▁ㅇㅣㄹㄱㅘㄴ	-5796
▁ㅎㅐㅇㅈㅣㄴ	-5797
▁ㅈㅜㅇㄱㅜ	-5798
ㅇㅣㄴㅎㅏ	-5799
▁ㄷㅏㄴㅈㅏ	-5800
▁Is	-5801
▁ㅇㅓㄱㅇㅜㄹ	-5802
▁ㅍㅗㄹㅇㅏ	-5803
▁ㅅㅣㄹㅇㅛㅇ	-5804
▁ㅂㅏㄹㄹㅏ	-5805
▁ㅇㅓㄹㄹㅣ	-5806
▁ㅍㅣㄹㄹㅡㅁ	-5807
▁ㅈㅗㄴㅈㅜㅇ	-5808
ㅈㅏㅇㄱㅗ	-5809
▁ㅎㅕㅂㄷㅗㅇ	-5810
▁ㅇㅗㅁ	-5811
ㅋㅞ	-5812
▁Do	-5813
▁ㅎㅘㅇㄷㅏㅇ	-5814
DX	-5815
▁ㅅㅣㅇㄱㅏ	-5816
ㄹㅡㄴㅂㅏ	-5817
▁ㄱㅔㄹ	-5818
▁ㅊㅜㄹㄷㅗㅇ	-5819
▁Gaming	-5820
▁315	-5821
▁ㄱㅕㅇㅈㅓㄴ	-5822
▁ㅅㅓㅁㄱㅘㅇ	-5823
▁ㅈㅣㄱㅊㅐㄱ	-5824
▁ㅇㅣㅂㅅㅣ	-5825
▁ㅅㅓㅇㅁㅕㅇ	-5826
ings	-5827
▁ㅈㅏㅇㅂㅕㄱ	-5828
▁TOP	-5829
▁ㅅㅓㄴㅂㅏㄱ	-5830
▁ㅇㅘㄴㄱㅗㅇ	-5831
▁ㄱㅣㅁㅊㅣ	-5832
▁ㅇㅕㄴㅅㅓㄹ	-5833
▁CE	-5834
▁ㅇㅘㅇㅂㅣ	-5835
▁ㅈㅓㅇㅁㅣㄹ	-5836
14	-5837
▁Gl	-5838
▁ㄷㅗㅇㄱㅖ	-5839
▁ㅈㅓㄴㅅㅗㅇ	-5840
▁ㄱㅏㅇㅇㅣㄴ	-5841
ㅂㅓㄴㅅㅡ	-5842
ㅌㅔㄹㅅㅡ	-5843
▁ㅅㅣㄴㅈㅏㄱ	-5844
▁ㅍㅕㄴㄹㅣ	-5845
▁ㅋㅓㅁㅂㅐㄱ	-5846
▁ㅅㅡㅇㅍㅐ	-5847
▁ㅊㅓㄴㄱㅜㄱ	-5848
▁ㅇㅏㅀ	-5849
▁1945	-5850
▁Gu	-5851
▁AFC	-5852
▁ㅈㅓㅁㅁㅕㄹ	-5853
ㅋㅡㄹㄹㅔ	-5854
ㅌㅡㅁ	-5855
ㄷㅟ	-5856
▁ㅇㅏㄹㄹㅔㄱㅅㅏㄴㄷㅡ	-5857
▁ㅈㅓㄴㅈㅣ	-5858
▁ㅎㅡㄱㅇㅕㄱㅅㅏ	-5859
reak	-5860
▁CL	-5861
▁ㅅㅣㄴㄱㅘㄴ	-5862
▁GSL	-5863
▁ㅇㅜㄱ	-5864
▁ㅎㅑㅇㅎㅜ	-5865
▁ㅃㅓㄹ	-5866
▁ㅈㅓㄹㅂㅕㄱ	-5867
▁ㅁㅣㄴㄱㅏㄴㅇㅣㄴ	-5868
▁320	-5869
▁ㅊㅏㄱㄹㅠㄱ	-5870
ㅂㅏㅇㅇㅜㄹ	-5871
▁ㄷㅡㄹㅇㅕ	-5872
▁ㅊㅐㅁㅅㅡ	-5873
ron	-5874
▁ㅈㅜㅇㅇㅝㄴ	-5875
▁ㅌㅏㅁㅅㅏ	-5876
▁ME	-5877
▁ㅁㅐㄴㅊㅔ	-5878
▁ㅇㅏㄴㅁㅜ	-5879
▁ㅇㅓㄱㅈㅔ	-5880
▁ㄱㅏㅁㄷㅏㅇ	-5881
▁ㅊㅣㅁㅁㅗㄹ	-5882
▁ㅁㅏㅇㅅㅓㄹ	-5883
ㅌㅔㄱ	-5884
▁ㅎㅡㄱㅁㅏㄱ	-5885
▁4000	-5886
▁ㅋㅓㄹㄹㅔㄱㅅㅕㄴ	-5887
ㅈㅗㄴㅅㅣㅁ	-5888
▁ㅇㅓㄺㅎㅣ	-5889
▁ㅌㅏㄴㅎㅐㄱ	-5890
▁ㅅㅓㄴㅇㅝㄴ	-5891
▁ㅇㅘㅇㅅㅣㄹ	-5892
▁ㅇㅣㄴㅁㅜㄴ	-5893
▁ㅅㅓㄴㄷㅗㅇ	-5894
▁ㅇㅑㅁ	-5895
▁ㅇㅛㅇㅇㅣ	-5896
▁ㅁㅣㅁ	-5897
▁so	-5898
▁1973	-5899
▁ㅂㅜㄹㅊㅏㅁ	-5900
▁ㅅㅗㄹㅈㅓ	-5901
▁ㅇㅑㄹ	-5902
ㅂㅕ	-5903
17	-5904
▁ㄷㅏㄹㅋㅗㅁ	-5905
▁NM	-5906
▁218	-5907
▁ㅈㅣㄱㅎㅐㅇ	-5908
▁ㅅㅓㅁㅁㅕㄹ	-5909
▁ㄴㅜㄴㄷㅗㅇㅈㅏ	-5910
▁ㅇㅘㄴㅎㅘ	-5911
▁ㅅㅜㄱㅅㅗ	-5912
▁SA	-5913
ㄹㅡㄹㄹㅣㄴ	-5914
▁ㅅㅣㄴㅎㅏㄴ	-5915
▁ㅈㅏㅁㄱㅣ	-5916
▁like	-5917
▁ㄱㅗㄴㅊㅜㅇ	-5918
▁ㅊㅣㄴㅊㅓㄱ	-5919
▁ㅂㅓㅅㄱㅣ	-5920
▁168	-5921
ㄷㅏㅇㅊㅗ	-5922
▁Min	-5923
▁ㅋㅐㅂㅅㅠㄹ	-5924
ㅅㅏㄴㄱㅘㅇㅇㅕㄱㅅㅣ	-5925
▁ㄱㅏㄴㅍㅏㄴ	-5926
▁ㅈㅏㅇㅅㅣㄴㄱㅜ	-5927
▁ㅈㅓㅇㄷㅏㅂ	-5928
ㅊㅓㄴㄱㅜㄴ	-5929
▁ㅎㅏㅁㅅㅜ	-5930
ㅂㅔㄴㅈㅕ	-5931
▁will	-5932
TA	-5933
ㅇㅜㄴㅅㅜ	-5934
▁ㅈㅏㅇㄴㅏㅁ	-5935
▁ㅁㅣㄴㅍㅖ	-5936
▁ㅊㅜㅇㅊㅓㅇㄴㅏㅁㄷㅗ	-5937
▁203	-5938
PA	-5939
▁ㄹㅕㄴ	-5940
▁ㅎㅏㄴㄲㅓ	-5941
▁ㅌㅜㄱ	-5942
▁ㅍㅕㅇㅌㅐㄱ	-5943
▁ㅇㅓㅇㄷㅓㅇㅇㅣ	-5944
▁ㅅㅡㄹㄹㅐ	-5945
▁ㅇㅜㄹㅇㅡㅁ	-5946
▁ㄱㅘㄴㅁㅜㄴ	-5947
MAX	-5948
ECT	-5949
▁ㄴㅡㅍ	-5950
ㅍㅐㅇ	-5951
▁PK	-5952
▁ㅇㅣㄹㅊㅔ	-5953
ㅗㄹ	-5954
▁ㅇㅣㅂㅅㅏ	-5955
▁ㅇㅛㄱㅅㅣㅁ	-5956
ㄹㅕㅅ	-5957
▁ㅎㅏㄴㅎㅏ	-5958
▁ㅈㅣㅂㅅㅏ	-5959
▁ㅍㅕㅇㄹㅗㄴㄱㅏ	-5960
ㅇㅐㄴ	-5961
▁ㅈㅣㄴㄷㅗㅇ	-5962
▁ㄱㅜㄱㄷㅗ	-5963
▁ㅇㅖㄹㄹㅗ	-5964
▁ㅎㅡㅇㅂㅜㄴ	-5965
▁one	-5966
ㄸㅏㄴ	-5967
AND	-5968
GA	-5969
ㅇㅕㅇㅎㅗ	-5970
▁ㅅㅏㅁㅋㅣ	-5971
▁ㄴㅡㅇㄱㅏ	-5972
ㅌㅐㅇ	-5973
▁ㅂㅏㄴㅅㅓㅇ	-5974
▁ㅇㅓㄵ	-5975
▁ㅅㅓㄴㅎㅚ	-5976
▁ㄱㅡㅂㅅㅣㄱ	-5977
▁na	-5978
▁Type	-5979
▁ㅈㅜㅇㅂㅜ	-5980
▁ㄱㅡㅁㄱㅏㅇ	-5981
ㄲㅜㅂ	-5982
oul	-5983
▁ㄱㅓㄴㅈㅣ	-5984
▁ㅇㅕㄴㅇㅣ	-5985
▁ㄷㅏㄴㅇㅕㄱ	-5986
▁ㅅㅣㄱㅅㅡ	-5987
▁ㅋㅐㄹㄹㅣ	-5988
▁10000	-5989
▁ㅍㅕㅇㅅㅏㅇㅅㅣ	-5990
▁ㄱㅣㅁㅇㅣㄹ	-5991
ㄱㅏㄴㅍㅛ	-5992
▁ㅇㅣㄹㅇㅣㄹ	-5993
ㅉㅏㄹ	-5994
ody	-5995
▁iOS	-5996
ㄴㅣㄹㄹㅏ	-5997
ICE	-5998
▁ALL	-5999
ㅇㅛㅇㄱㅐㄱ	-6000
te	-6001
▁Ser	-6002
▁Red	-6003
▁ㅂㅏㄴㅇㅕㄱ	-6004
ater	-6005
▁ㄱㅜㄴㅂㅜ	-6006
16	-6007
▁ㅁㅣㄴㄱㅏㅁ	-6008
▁ㅇㅣㄹㅁㅕㅇ	-6009
▁Car	-6010
▁ㄱㅜㅇㅅㅜ	-6011
ㅇㅝㄴㅅㅣ	-6012
▁ㅇㅑㄱㅊㅔ	-6013
▁ㅂㅜㄹㅇㅓ	-6014
▁ㅈㅓㅇㅇㅜ	-6015
ㅋㅗㅅ	-6016
ㅅㅏㅇㄷㅗ	-6017
▁ㄴㅏㅁㅎㅏㄱㅅㅐㅇ	-6018
ould	-6019
▁ㅅㅣㄹㅈㅓㄱ	-6020
ㄸㅏㄹ	-6021
▁177	-6022
▁ㅈㅓㅇㅈㅓㅁ	-6023
▁Don	-6024
▁ㄱㅗㅇㄱㅛ	-6025
ㅅㅐㅇㅎㅘㄹ	-6026
▁ㅂㅔㄹㄱㅣ	-6027
▁ㅇㅑㄱㅎㅗㄴ	-6028
ㅈㅜㅇㄱㅏㄴ	-6029
STER	-6030
▁ㄷㅏㄴㄹㅕㄴ	-6031
ㅌㅜㅁ	-6032
ions	-6033
▁ㅌㅏㄹㄹㅣ	-6034
▁ㅅㅜㄱㄹㅕㄴㄷㅗ	-6035
▁ㅈㅏㅇㅂㅗㄴ	-6036
▁ㅁㅕㅇㅈㅏㅇ	-6037
▁ㅇㅛㄱㅁㅏㅇ	-6038
▁Play	-6039
▁ㅁㅗㄱㅇㅛㄱ	-6040
▁ㄱㅏㅇㄷㅗㅇ	-6041
▁ㅂㅏㄹㄱㅏㄱ	-6042
▁ㅈㅜㅇㄱㅣ	-6043
▁ㄷㅡㄹㄹㅡ	-6044
▁ㄷㅓㅂ	-6045
▁ㄷㅏㅇㅊㅗ	-6046
▁ㅁㅕㅇㅅㅣ	-6047
▁ㅇㅔㅁㅂㅡㄹ	-6048
▁ㅅㅏㅇㅅㅣ	-6049
▁ㅅㅓㅇㅂㅜㄴ	-6050
▁ㅃㅛ	-6051
▁ㅁㅏㅅㅂㅗ	-6052
▁ㄱㅓㅁㅌㅗ	-6053
▁ㅎㅏㄱㅇㅟ	-6054
▁ㅇㅐㄴㄷㅡ	-6055
ㅌㅔㄱㅅㅡ	-6056
▁ㄱㅣㅁㅂㅕㅇ	-6057
▁ㅌㅏㄹㅊㅟ	-6058
ㅌㅔㄹㄹㅏ	-6059
ㄷㅏㅇㄱㅣ	-6060
▁ㅇㅏㄴㅌㅗ	-6061
▁us	-6062
▁ㅅㅡㅇㄱㅡㅂ	-6063
▁Es	-6064
▁ㄱㅏㅇㅇㅏ	-6065
▁ㅈㅜㅇㅅㅗ	-6066
▁138	-6067
▁1974	-6068
▁ㄸㅡㄷㅇㅓ	-6069
ㄴㄷㅡㅅ	-6070
▁ㄱㅗㅇㅅㅣㄴ	-6071
▁ㅃㅑ	-6072
▁UC	-6073
▁ㅇㅓㅅ	-6074
alk	-6075
▁ㅎㅘㅇㅎㅗㄴ	-6076
ㅇㅕㄴㅅㅜ	-6077
ㅇㅝㄴㅈㅏ	-6078
ven	-6079
ㅁㅕㅇㅂㅏㄱ	-6080
▁ㅁㅗㅁㅁㅐ	-6081
▁ㅈㅏㄴㄹㅠ	-6082
▁ㅂㅏㄱㅈㅓㅇㅎㅢ	-6083
▁ㄱㅕㅁㅎㅏ	-6084
▁ㄹㅓㄴㅊㅓ	-6085
▁ㅇㅣㄴㅌㅡ	-6086
ㄷㅗㄱㅈㅏ	-6087
▁ㅈㅏㅇㅂㅗㄴㅇㅣㄴ	-6088
▁ㅈㅓㄱㅇㅣ	-6089
▁ㅈㅣㄴㄷㅏㄴ	-6090
▁ㄱㅏㅇㄷㅐ	-6091
▁KB	-6092
▁ㅍㅏㄴㅅㅏ	-6093
▁ㄷㅏㄴㅊㅗㅇ	-6094
▁Time	-6095
▁ㅎㅗㄴㅎㅕㄹ	-6096
▁ㅅㅓㅇㄷㅐ	-6097
ㄲㅜㅁ	-6098
▁ㄴㅘ	-6099
af	-6100
▁ㅋㅏㅅ	-6101
ㅍㅔㄱㅌㅓ	-6102
▁NT	-6103
ㅍㅗㄹㄹㅔ	-6104
▁ㅅㅏㅂㅈㅣㄹ	-6105
▁ㅈㅣㅇㄱㅖ	-6106
▁ㄱㅜㄱㅌㅗ	-6107
▁ㅈㅜㅇㄷㅗ	-6108
▁RO	-6109
▁162	-6110
▁ㅅㅠㄴ	-6111
▁ㅈㅗㄹㅇㅓㅂㅅㅣㄱ	-6112
▁ㄴㅜㄴㅇㅏㅍ	-6113
▁ㅁㅐㅅㅈㅣㅂ	-6114
▁ㄱㅜㄻ	-6115
▁ㅁㅣㄴㅈㅜㅇ	-6116
▁ㅂㅓㅈ	-6117
▁1975	-6118
▁???	-6119
▁'''	-6120
▁ㅂㅏㅌ	-6121
▁ㅂㅗㄲ	-6122
▁ㄱㅗㅇㅎㅓㄴ	-6123
▁ㄹㅐㄴㅅㅓ	-6124
▁ㄱㅣㅅㅌㅓㄹ	-6125
ㄱㅕㄱㅈㅓㄴ	-6126
ㅂㅐㅇ	-6127
▁126	-6128
▁ㅌㅏㄴㅁㅏㄱ	-6129
▁ㅊㅓㄴㅈㅣ	-6130
▁ㅊㅜㅇㄱㅕㄱㅍㅏ	-6131
▁Sum	-6132
ㅊㅣㄴㄱㅜ	-6133
▁ㅇㅠㄱㅅㅏㅇ	-6134
▁ㄴㅏㅊ	-6135
▁ㄷㅗㄱㅂㅐㄱ	-6136
▁IIDX	-6137
▁ㅍㅓㅇㅋㅡ	-6138
ㅇㅑㄴ	-6139
ics	-6140
▁WH	-6141
▁ㅋㅓㄴㄷㅣ	-6142
ACK	-6143
▁ㅅㅣㄴㅎㅏ	-6144
▁ㅊㅜㄹㅅㅓㄱ	-6145
▁ㅂㅏㅇㅊㅣㅁ	-6146
▁have	-6147
▁ㅇㅝㄴㅎㅘ	-6148
▁ㄷㅏㄹㅇㅣㄴ	-6149
▁ㅂㅏㄹㅌㅗㅂ	-6150
▁ㅈㅓㅇㅈㅓㄴ	-6151
▁ㅇㅣㄴㅁㅕㅇ	-6152
▁ㅉㅏㅁ	-6153
▁ㅈㅐㅇㅇㅣ	-6154
▁ㅅㅓㄹㅁㅏ	-6155
▁ㅇㅝㄹㄱㅏㄴ	-6156
▁ㅎㅏㄴㅇㅑㅇ	-6157
▁ㅅㅓㄴㄹㅗ	-6158
▁ㅁㅏㄺ	-6159
▁313	-6160
▁ㄷㅣㅂ	-6161
▁oh	-6162
ㅅㅓㅇㅇㅣ	-6163
▁ㅇㅐㄱㅊㅔ	-6164
▁Bo	-6165
▁ㅅㅗㄴㅈㅏㅂㅇㅣ	-6166
ㅊㅓㄴㅇㅘㅇ	-6167
▁ㄱㅠㄴㅇㅕㄹ	-6168
▁ㅅㅓㅇㅈㅣ	-6169
tern	-6170
▁ㅁㅕㄴㅈㅔ	-6171
ㅅㅐㅇㅈㅏ	-6172
▁ㄱㅓㄹㅇㅡㅁ	-6173
▁ㄱㅕㅇㅅㅏ	-6174
▁DI	-6175
▁CB	-6176
▁ㅈㅓㄹㄷㅏㄴ	-6177
▁ㄸㅓㄹㄱㅜ	-6178
ㅁㅏㅇㅈㅏ	-6179
▁ㅅㅏㄴㅌㅏㄴㅊㅗㅇ	-6180
YP	-6181
▁ㅅㅏㅇㅇㅓ	-6182
▁ㅃㅓㄴㅎㅏ	-6183
▁ㄱㅜㄱㅂㅏㅇㅂㅜ	-6184
▁ㅅㅏㅇㅇㅢ	-6185
▁know	-6186
▁ㅂㅔㄹㄹㅏ	-6187
ange	-6188
ict	-6189
▁BT	-6190
▁out	-6191
▁Kore	-6192
ㄷㅗㅇㄱㅣ	-6193
▁ㄱㅗㅇㄱㅕㄱㄱㅣ	-6194
▁ㅈㅜㅇㄱㅜㄱㅇㅣㄴ	-6195
▁ㅎㅗㅁㄱㅕㅇㄱㅣ	-6196
▁set	-6197
▁ㄱㅡㅂㄱㅕㄱㅎㅣ	-6198
▁ㅎㅠㅇㄴㅐ	-6199
ator	-6200
ins	-6201
ㅇㅕㅇㅂㅗㄱ	-6202
▁ㅆㅜ	-6203
▁ㅅㅡㅂㅎㅏ	-6204
▁132	-6205
▁feat	-6206
▁Sun	-6207
▁ㅎㅕㅂㅈㅗ	-6208
▁pr	-6209
▁ㅎㅠㅇㅇㅏㄱ	-6210
▁ㄷㅜㅇㅈㅣ	-6211
▁ㅇㅠㄴㄹㅣ	-6212
▁ㅊㅏㄹㅅㅡ	-6213
▁ㅇㅑㅇㅇㅏ	-6214
ㄹㅔㄴㄷㅡ	-6215
▁ㅎㅗㄴㄷㅏ	-6216
ㅈㅏㅇㄱㅜㄴ	-6217
ㄹㅏㅇㅋㅡ	-6218
ㅈㅓㄴㅅㅓㄹ	-6219
▁ㄱㅏㅁㅅㅓㅇ	-6220
▁BA	-6221
▁ㄷㅗㄱㅂㅗ	-6222
▁ㄱㅏㅇㅅㅡㅂ	-6223
▁ㅇㅑㄱㅊㅣㅇ	-6224
▁EV	-6225
ㅂㅗㄹㅂㅓ	-6226
▁ㅉㅣㄹㄹㅣ	-6227
▁LTE	-6228
▁ㄴㅏㄴㄹㅣ	-6229
ㅂㅜㅅ	-6230
▁ㅇㅣㄴㅅㅡ	-6231
▁ㄱㅗㅇㅁㅕㅇ	-6232
▁ㅍㅕㅇㅍㅏㄴ	-6233
▁ㅇㅝㄴㅎㅏㄴ	-6234
▁ㅇㅘㅅ	-6235
▁ㄱㅏㄹㄱㅣ	-6236
ㄹㅏㄹㄷㅡ	-6237
▁ㄱㅣㅁㅅㅓㄴ	-6238
▁ㅎㅏㄴㅈㅓㅇㅍㅏㄴ	-6239
▁ㄱㅣㅁㅇㅠㄴ	-6240
▁ㅂㅏㅇㅇㅜㄹ	-6241
▁ㅅㅓㅁㄱㅣ	-6242
▁1976	-6243
▁ㅈㅏㄱㅇㅟ	-6244
ㄴㅡㄴㄷㅔ	-6245
▁ㅉㅏㄱㅅㅏ	-6246
▁ㅈㅣㄴㅎㅕㅇ	-6247
ㅁㅕㅇㅅㅜ	-6248
ㄹㅜㄴ	-6249
▁ㄴㅏㄴㅌㅜ	-6250
ㅅㅏㅇㄱㅏ	-6251
▁ㅇㅣㅂㅇㅝㄴ	-6252
▁ㅋㅓㅁㅍㅓ	-6253
▁ㅁㅐㅇㄷㅗㄱ	-6254
19	-6255
▁158	-6256
ㄱㅟㄴ	-6257
▁ㅈㅓㅂㅅㅜ	-6258
ㅈㅣㅈ	-6259
ㅅㅣㄴㄱㅏㅁ	-6260
ㅅㅏㄴㅁㅜㄹ	-6261
▁ㅍㅔㄱ	-6262
▁ㅇㅕㄴㅅㅗ	-6263
▁High	-6264
▁ㅅㅐㅇㄱㅏㄱㄴㅏ	-6265
ㅍㅣㅅ	-6266
ㅁㅐㄱㅅㅡ	-6267
▁MO	-6268
▁IV	-6269
▁ㅅㅓㅇㅅㅏ	-6270
▁HS	-6271
▁ㅇㅣㅂㅈㅏ	-6272
▁Light	-6273
▁ㅂㅏㄴㄷㅗ	-6274
▁230	-6275
▁ㄷㅏㄴㅅㅓ	-6276
▁EU	-6277
che	-6278
ㅌㅗㅇㅅㅜ	-6279
ㄹㅗㄹㄹㅗ	-6280
▁ㅈㅗㅇㄹㅗ	-6281
▁172	-6282
▁ㅂㅏㄴㅈㅏㅇ	-6283
▁~"	-6284
▁ㄱㅕㄴㅎㅐ	-6285
▁ㅊㅡㄴㄷㅔ	-6286
ㄷㅡㅁㅎㅐ	-6287
▁ㅂㅜㄴㅎㅏㄹ	-6288
▁TP	-6289
▁1972	-6290
ㅅㅣㄱㅎㅚ	-6291
▁ㅋㅐㄴㄷㅣ	-6292
▁TE	-6293
▁ㅇㅕㄴㅁㅏㄱ	-6294
▁ㄱㅡㅁㄱㅗ	-6295
▁ㄲㅚ	-6296
▁ㅇㅘㅇㅈㅗㄱ	-6297
ㄴㅓㅅ	-6298
ㄱㅘㄴㅍㅗ	-6299
ㅋㅐㄴ	-6300
▁ㅅㅜㄴㄱㅏㄴㅇㅣ	-6301
▁ㅂㅐㄱㅁㅏㄴ	-6302
▁ㅈㅓㄴㅂㅓㅂ	-6303
▁ㄱㅕㄱㄹㅕㄹ	-6304
▁ㅇㅏㄱㅎㅐㅇ	-6305
▁ㅇㅝㄴㄹㅗ	-6306
▁ㄷㅗㅇㅅㅏㅇ	-6307
▁Your	-6308
▁1977	-6309
▁ㅈㅜㅇㅈㅐ	-6310
▁la	-6311
▁ㅂㅣㅅㄴㅏ	-6312
▁ㄹㅓㄱㅋㅣ	-6313
▁133	-6314
▁ㅂㅕㅇㄱㅘ	-6315
ㄲㅜㅂㅊㅣㄴㄱㅜ	-6316
ㄹㅏㅇㅍㅡ	-6317
▁LOVE	-6318
▁ㅍㅏㄱ	-6319
▁ㅌㅏㄴㅇㅏㅂ	-6320
▁ㅁㅕㅇㄷㅐ	-6321
▁ㅌㅏㄹㅎㅘㄴ	-6322
▁NEW	-6323
ㅍㅔㄴㅅㅡ	-6324
▁148	-6325
▁Tw	-6326
▁OF	-6327
▁ㅇㅘㄴㅅㅓㅇㄷㅗ	-6328
ㅎㅕㄴㅇㅜ	-6329
▁ㅈㅣㄱㅇㅟ	-6330
▁ㅂㅣㅇㅇㅢ	-6331
ㅅㅔㅂㅌㅡ	-6332
▁ㄱㅏㄹㄱㅜ	-6333
ica	-6334
▁ㅇㅝㄹㅇㅛ	-6335
▁ㅍㅣㄹㅅㅏ	-6336
▁ㅅㅓㄱㅇㅠ	-6337
▁ㅅㅣㄴㅈㅗ	-6338
▁ㅂㅗㄹㄷㅡ	-6339
▁ㅊㅏㄴㅇㅑㅇ	-6340
IK	-6341
ㄱㅗㅁ	-6342
▁ㅍㅏㅁ	-6343
▁ㅇㅘㄴㅂㅕㄱㅎㅣ	-6344
▁Mr	-6345
▁Gen	-6346
▁ㄱㅡㅅ	-6347
▁ㅅㅣㄹㅂㅏ	-6348
▁ㅅㅣㄴㅅㅐㅇ	-6349
▁179	-6350
▁ㅅㅣㄴㅇㅣ	-6351
▁ㄱㅏㄴㅍㅏ	-6352
▁ㅇㅛㅇㅅㅏㄴ	-6353
ㄴㄷㅏㄴ	-6354
▁ㅍㅐㄴㅌㅣ	-6355
▁ㅇㅏㄴㅈㅔ	-6356
▁HARD	-6357
ㄱㅠㄹㄹㅓ	-6358
▁ㅂㅕㅇㅎㅐㅇ	-6359
ex	-6360
▁ㄹㅏㅅ	-6361
▁ㅈㅜㅇㄱㅡㅂ	-6362
▁Par	-6363
▁ㅇㅘㅇㄱㅏ	-6364
▁ㅊㅜㅇㄴㅏㅁ	-6365
▁ㅅㅗㄹㅈㅣㄱㅎㅣ	-6366
▁ㅇㅣㄹㄱㅏㄱ	-6367
▁ㅇㅕㄴㄱㅏㄴ	-6368
▁ㄷㅗㅇㅅㅓㅇㅇㅐ	-6369
▁ㅈㅗㅇㅅㅏ	-6370
▁%.	-6371
▁ㄱㅡㄱㅅㅣㅁ	-6372
▁ㅂㅟ	-6373
▁ㅅㅣㄴㅅㅏㅇ	-6374
ㅁㅏㄱㅈㅓㄴ	-6375
▁156	-6376
▁ㅇㅏㄱㅅㅔ	-6377
▁ㅁㅏㄹㄱㅣ	-6378
ㄷㅓㄱㅅㅕㄴ	-6379
▁ㄱㅏㅁㄱㅣ	-6380
ㅇㅕㄱㄱㅜ	-6381
▁ㅈㅣㄴㄹㅗ	-6382
▁Em	-6383
▁154	-6384
HT	-6385
▁ㅊㅡㄱㄱㅡㄴ	-6386
▁ㅇㅣㄹㅋㅓ	-6387
▁ㄱㅣㅁㄱㅜ	-6388
▁ㅇㅣㄹㅋㅓㄷ	-6389
▁ㅂㅏㄹㅈㅓㄴㅅㅗ	-6390
ㅈㅜㄴㄱㅕㅇ	-6391
▁OCG	-6392
▁ㅇㅡㅇㄱㅡㅂ	-6393
▁ㅂㅏㄴㄷㅏ	-6394
▁ㅊㅏㅁㅇㅡ	-6395
▁ㄲㅓㅂㅈㅣㄹ	-6396
▁am	-6397
▁176	-6398
▁ㅇㅓㄹㅌㅓ	-6399
ㄹㅣㄴㅅㅡ	-6400
ㅊㅓㄴㅅㅏ	-6401
ㅁㅏㅎ	-6402
▁ㄲㅗㄹㅉㅣ	-6403
▁ㅇㅓㅇㄸㅜㅇ	-6404
▁ㅂㅕㅇㅈㅗㅇ	-6405
▁ar	-6406
ㄴㅣㄹ	-6407
▁ㄴㅐㅇㄱㅣ	-6408
▁ㅋㅔㄴㅈㅣ	-6409
ㅂㅐㅁ	-6410
▁ㅅㅗㄴㅁㅗㄱ	-6411
▁ㄱㅗㅇㅉㅏ	-6412
▁ㅅㅜㄴㅊㅓㄴ	-6413
▁ㅇㅛㅇㅇㅢ	-6414
▁222	-6415
▁ㅁㅏㅈㅁㅓㄱ	-6416
▁ㄱㅏㅇㅅㅓ	-6417
▁IP	-6418
CH	-6419
▁ㅂㅏㄱㅈㅟ	-6420
ㄷㅏㄺ	-6421
▁u	-6422
ㅂㅐㅌ	-6423
▁ㅇㅐㄹㄹㅓㄴ	-6424
▁DR	-6425
▁129	-6426
ㅌㅜㅇ	-6427
▁ㅍㅗㄱㄹㅗ	-6428
▁ㄱㅝㄴㅎㅏ	-6429
▁AE	-6430
▁173	-6431
▁ㅈㅓㅁㅎㅏ	-6432
▁ㄱㅡㄱㅇㅏㄱ	-6433
▁ㅂㅏㄱㅈㅗㅇ	-6434
▁ㅇㅡㅇㄷㅏㅂ	-6435
ME	-6436
▁159	-6437
▁ㅊㅜㅇㄱㅗ	-6438
▁ㅇㅣㄹㅅㅏㄴ	-6439
▁ㅈㅠㄴ	-6440
UT	-6441
▁ㄱㅕㄹㅇㅢ	-6442
ㅇㅡㄴㅇㅣ	-6443
▁ㄱㅜㄴㄷㅔ	-6444
▁GTA	-6445
▁ll	-6446
▁ㄱㅡㄴㄹㅗ	-6447
▁Kn	-6448
▁ㅇㅐㅇㅋㅓ	-6449
ㅇㅣㄴㅂㅐ	-6450
▁Mi	-6451
▁ㅂㅜㄴㅂㅐ	-6452
▁Of	-6453
▁153	-6454
▁ㅈㅓㅇㅈㅜㄴ	-6455
▁ㅅㅏㄴㅅㅗ	-6456
▁ㅅㅓㄴㅂㅗㅇ	-6457
ㅇㅣㄴㅇㅓ	-6458
▁ㅈㅣㄴㅎㅡㅇ	-6459
▁GD	-6460
▁ㅁㅕㅇㅌㅏㅁㅈㅓㅇ	-6461
eep	-6462
ㅈㅏㄱㅂㅣ	-6463
▁ㅈㅗㅇㅈㅓㄴ	-6464
▁ㅅㅣㅁㅈㅓㅇ	-6465
▁ㅇㅏㄴㄷㅗㅇ	-6466
pr	-6467
▁137	-6468
▁1971	-6469
ㅇㅠㄱㅊㅓㅇ	-6470
▁ㅎㅣㄴㅌㅡ	-6471
▁ㄱㅗㅇㄹㅣㅂ	-6472
▁ㅍㅐㄱㅅㅕㄴ	-6473
ㅈㅗㅁ	-6474
ㅁㅐㄴㅅㅡ	-6475
▁ㅁㅔㄴㅂㅜㅇ	-6476
ㄹㅔㄱㅌㅓ	-6477
les	-6478
▁ㄹㅐㄴㅅㅡ	-6479
▁ㄱㅏㅇㅌㅏㄹ	-6480
▁ㅌㅜㅇ	-6481
▁MK	-6482
▁ㅋㅗㄹㄹㅔ	-6483
▁ㅈㅜㄹㄱㅣ	-6484
▁ㅅㅡㄹㅅㅡㄹ	-6485
▁ㅇㅡㅁㅎㅑㅇ	-6486
▁ㅍㅕㅇㄷㅡㅇ	-6487
▁Ro	-6488
▁ㄱㅣㅁㄷㅜ	-6489
▁ㄴㅐㅇㅈㅏㅇㄱㅗ	-6490
▁ㅈㅓㅇㅈㅗ	-6491
▁GHz	-6492
▁was	-6493
▁ㅅㅏㅇㅂㅜ	-6494
ㅎㅐㅇㅈㅏ	-6495
▁ㅇㅣㅁㅈㅣㄴ	-6496
FL	-6497
▁ㅌㅏㅁㄱㅜ	-6498
▁ㅈㅗㄴㅅㅡㄴ	-6499
▁ㅉㅗㅊㄱㅣ	-6500
ㅎㅘㄹㅇㅑㄱ	-6501
ㅂㅏㄴㅈㅓㄴ	-6502
▁ㅂㅗㄴㅈㅣㄹ	-6503
▁PL	-6504
▁ㄴㅏㅁㅇㅑㅇ	-6505
▁174	-6506
▁Per	-6507
▁ㅅㅔㄱㅅㅣ	-6508
ㄹㅔㄴㅈㅡ	-6509
}}	-6510
▁ㄹㅣㅂㅅㅡ	-6511
▁ㄷㅐㅁ	-6512
ㅅㅏㅇㅎㅘ	-6513
▁143	-6514
▁ㄸㅜㄱ	-6515
▁ㅌㅏㄱㅇㅝㄹ	-6516
▁ㅍㅔㅇㄱㅟㄴ	-6517
▁ㅇㅣㄹㅈㅗ	-6518
▁225	-6519
▁ㅇㅠㄹㄹㅣ	-6520
▁280	-6521
▁Fe	-6522
▁Heart	-6523
▁beat	-6524
▁ㅎㅘㅇㅌㅐ	-6525
ㅅㅐㅇㄱㅣ	-6526
▁ㅎㅘㄴㅎㅗ	-6527
▁139	-6528
▁163	-6529
▁134	-6530
▁167	-6531
ㄱㅡㅅㄴㅏ	-6532
▁ㄱㅣㅁㅅㅓㅇㄱㅡㄴ	-6533
▁ㅂㅣㄴㅇㅑㄱ	-6534
▁ㅁㅏㄹㅅㅗ	-6535
▁Good	-6536
▁ㅈㅓㅂㅈㅓㄴ	-6537
ㅃㅏㄹㄹㅣ	-6538
ㅇㅏㄶ	-6539
ㅂㅏㄱㅇㅣ	-6540
▁142	-6541
▁ㄷㅗㅇㅇㅣ	-6542
▁ㅍㅜㅇㄱㅕㅇ	-6543
agon	-6544
▁ㅇㅕㄲ	-6545
ㅇㅣㄹㄹㅏ	-6546
▁ㅊㅗㅇㅅㅓㄴㄱㅓ	-6547
▁1969	-6548
ㅂㅕㄴㅇㅣㄴ	-6549
▁ㄹㅡㄴ	-6550
▁ㄱㅗㅇㄱㅜㄱ	-6551
ㄹㅏㄱㅅㅣㄹ	-6552
ㄷㅗㄹㅍㅡ	-6553
▁ㅂㅏㅅ	-6554
▁What	-6555
▁ㅎㅕㄴㅈㅣㄱ	-6556
▁ㅊㅓㄴㅈㅜ	-6557
▁ㅇㅏㄱㄱㅗㄱ	-6558
▁ㅊㅓㄹㄱㅏㅂㅌㅏㄴ	-6559
ㅋㅡㄹㄹㅣㄴ	-6560
▁ㅅㅣㄴㅈㅜ	-6561
▁ㅂㅏㄴㄱㅣ	-6562
ㅍㅣㄹㄹㅗ	-6563
▁ㅇㅏㄹㅍㅡ	-6564
▁ㅇㅑㅇㅋㅣ	-6565
▁ㅍㅣㅇㄱㅖ	-6566
ert	-6567
▁ㅅㅜㄱㅊㅓㅇ	-6568
▁ㅍㅣㄴㄹㅏㄴㄷㅡ	-6569
▁ㄲㅏㅇㅍㅐ	-6570
▁yout	-6571
▁ㅂㅏㄹㄹㅔㄴㅌㅏ	-6572
EL	-6573
▁~~	-6574
ㅂㅗㄹㄹㅜ	-6575
▁ㅈㅏㅁㄱㅡ	-6576
▁ㅅㅜㄴㅊㅏㄹ	-6577
▁ㅇㅕㅇㄷㅡㅇ	-6578
▁GPU	-6579
▁ㅇㅟㄴㅌㅓ	-6580
ㅁㅔㄴㅌㅓ	-6581
ㅅㅓㅇㄱㅜㄴ	-6582
ㄹㅡㄴㅍㅏㄹ	-6583
▁ㅋㅔㄴㅌㅏ	-6584
ㅌㅜㄹ	-6585
▁ㅌㅣㅁㅈㅏㅇ	-6586
▁ㅈㅏㅇㄱㅏㅂㅊㅏ	-6587
▁164	-6588
▁ㅍㅣㄹㄷㅜ	-6589
▁ㅅㅐㅇㅌㅐ	-6590
▁0900	-6591
▁CO	-6592
▁ㅎㅗㄱㅍㅕㅇ	-6593
▁ㄴㅡㅇㅅㅜㄱ	-6594
▁Dark	-6595
▁ㅅㅣㄴㄴㅕㅁ	-6596
▁ㅎㅏㅁㅅㅓㅇ	-6597
▁ㅅㅓㅂㅊㅟ	-6598
ㄲㅓㅇ	-6599
▁pro	-6600
▁ㄷㅡㄱㅅㅣㄹ	-6601
▁ㅂㅗㄱㄷㅗ	-6602
OK	-6603
▁ㄱㅏㅁㄱㅡㅁ	-6604
▁ㄱㅣㅁㅊㅓㄴ	-6605
▁ㅅㅣㄴㅎㅏㄱ	-6606
▁ㅈㅗㅇㅁㅏㄹ	-6607
▁ㅅㅑㅇ	-6608
ideo	-6609
▁ㅇㅕㅅㅂㅗ	-6610
▁ㅎㅓㄹㅋㅡ	-6611
ㅅㅏㄴㄷㅗㅇ	-6612
▁136	-6613
▁ㅌㅔㄱㅅㅏ	-6614
▁ㅇㅔㄹㄷㅓ	-6615
▁FPS	-6616
▁ㄱㅘㄴㄹㅛ	-6617
▁ㅇㅑㅇㅅㅣㅁ	-6618
▁ㅈㅏㅇㅅㅣ	-6619
▁ㅊㅏㄱㅈㅣ	-6620
▁ㅂㅏㄹㅌㅏㄱ	-6621
▁time	-6622
▁ㅂㅡㄹㄹㅐㄱㅎㅗㄹ	-6623
▁ONE	-6624
ㅅㅜㄴㅅㅣㄴ	-6625
▁ㅈㅕ	-6626
▁ㅇㅔㅅㅈㅣ	-6627
▁2500	-6628
ㄴㅕㄴㄱㅣ	-6629
▁ㅅㅣㅁㅎㅣ	-6630
▁BM	-6631
▁ㅈㅣㄹㅍㅜㅇ	-6632
▁ㅁㅏㅇㅅㅏㅇ	-6633
▁ㅊㅓㄴㅁㅜㄴ	-6634
▁ㅊㅜㄹㅈㅔ	-6635
▁CN	-6636
▁ㅈㅣㄱㅌㅗㅇ	-6637
▁ㅇㅡㅇㅅㅣ	-6638
▁ㅈㅓㄴㅎㅏㄱ	-6639
▁ㅁㅗㄱㅍㅗ	-6640
▁ㅇㅕㄴㄷㅏㄹ	-6641
▁ㅁㅐㅇㅎㅘㄹㅇㅑㄱ	-6642
▁ㅍㅏㄹㄹㅔ	-6643
▁ㄴㅡㅇㅎㅏ	-6644
▁ㄴㅏㄴㅁㅣㄴ	-6645
▁Sl	-6646
▁ㅂㅏㄹㅊㅏ	-6647
▁157	-6648
ors	-6649
ㄱㅗㅇㅍㅗ	-6650
▁Sm	-6651
▁ㅈㅓㄴㅂㅏㄴㄱㅣ	-6652
▁ㅊㅓㅇㅅㅏ	-6653
air	-6654
▁ㄷㅔㄹㅌㅏ	-6655
▁ㅊㅓㅇㄹㅛㅇ	-6656
▁Baby	-6657
▁ㅁㅏㅇㅅㅓㄹㅇㅣ	-6658
ㅂㅐㄱㄱㅘ	-6659
ㅇㅜㄹㅅㅣ	-6660
▁Blue	-6661
other	-6662
▁ㅊㅐㄱㄹㅑㄱ	-6663
▁ㅂㅓㅈㄲㅗㅊ	-6664
▁ㅅㅣㅁㅇㅕㄴ	-6665
▁ㅌㅗㅇㅌㅡㄹㅇㅓ	-6666
▁ab	-6667
ㅇㅓㄴㅈㅏ	-6668
▁ㄲㅜㅀ	-6669
anna	-6670
▁ㅅㅡㄹㄹㅐㅁ	-6671
▁ㅈㅓㄴㅇㅣㅁ	-6672
▁ㅈㅜㅇㅎㅜ	-6673
▁ㄱㅕㄱㅌㅚ	-6674
ㅋㅓㄴㄷㅡ	-6675
▁ㅇㅓㄹㅇㅓ	-6676
▁ㅅㅓㅇㅂㅕㄱ	-6677
▁Ac	-6678
ㅅㅡㄹㅇㅏ	-6679
ㅅㅜㄹㄹㅕㄱ	-6680
▁ㄴㅐㅇㄷㅗㅇ	-6681
▁ㅁㅏㅇㅁㅕㅇ	-6682
ㅆㅜ	-6683
▁ㅂㅜㄴㅍㅗ	-6684
land	-6685
▁ㅁㅓㅅㅇㅣㅆ	-6686
▁330	-6687
▁ㅇㅣㅈㅇㅓ	-6688
▁ㅇㅘㅇㄱㅘㄴ	-6689
▁ㄲㅗㅇ	-6690
▁ㅋㅣㅇㄷㅓㅁ	-6691
▁ㅌㅓㄹㅇㅓ	-6692
▁ㅁㅓㄴㅈㅣ	-6693
▁ㅂㅏㄹㅂㅏㄹ	-6694
ㅇㅣㄹㅅㅡ	-6695
ush	-6696
▁ㄷㅗㅇㅅㅏ	-6697
▁ㅅㅣㅁㅇㅑ	-6698
▁ㄷㅗㄱㅅㅜ	-6699
▁ㅇㅕㄹㄱㅣ	-6700
▁270	-6701
▁ㅈㅓㄴㄷㅗ	-6702
▁ㅊㅓㅇㅈㅏㅇ	-6703
▁ㄲㅗㅁㅅㅜ	-6704
ㄱㅕㅁ	-6705
ㅊㅗㅇㅈㅏㅇ	-6706
▁ㅇㅕㅁㄷㅜ	-6707
▁ㅅㅓㅇㅍㅗㄱ	-6708
iew	-6709
ㄴㅏㄹㄷㅜ	-6710
▁ㄷㅏㄴㅇㅢ	-6711
▁ㄱㅐㄱㄱㅘㄴ	-6712
▁1963	-6713
▁ㅊㅐㄱㅅㅏㅇ	-6714
▁Li	-6715
ㅅㅔㅁ	-6716
▁ㄱㅜㄱㄱㅣ	-6717
▁ㅈㅣㄴㅅㅜㄹ	-6718
▁ㅇㅘㄴㄱㅜ	-6719
ㅈㅣㄹㄹㅐㄴㄷㅡ	-6720
▁ㅈㅣㄴㅎㅏ	-6721
▁KC	-6722
▁ㅁㅗㅁㅁㅜ	-6723
▁ㅇㅙㄴ	-6724
▁149	-6725
ㅇㅟㅂ	-6726
OID	-6727
▁AG	-6728
▁ㄱㅕㅇㅊㅏㄹㅊㅓㅇ	-6729
na	-6730
ㄹㅕㄱㅈㅏ	-6731
▁BEMAN	-6732
ㄱㅗㅇㅎㅘ	-6733
▁ㅂㅜㄴㅅㅙ	-6734
▁ㅊㅓㅇㅎㅏ	-6735
▁Fire	-6736
▁ㅈㅏㄴㅎㅐ	-6737
ㅃㅡㅁ	-6738
ㅁㅜㄹㄹㅣ	-6739
▁146	-6740
▁ㅍㅣㄹㄹㅏ	-6741
ㅂㅏㄴㅅㅣㄴ	-6742
▁1968	-6743
▁ㅂㅣㄹㅂㅗ	-6744
▁Dis	-6745
▁STR	-6746
ㅈㅗㅁㅁㅜ	-6747
▁ㅎㅡㅁㅈㅗㅁㅁㅜ	-6748
▁DJMAX	-6749
▁ㄱㅗㅇㅅㅏㄴㅈㅜ	-6750
▁BEMANI	-6751
▁ㅈㅣㄴㄷㅗ	-6752
▁ㅋㅗㄴㅅㅔㅂㅌㅡ	-6753
▁ㅅㅣㄴㅅㅜ	-6754
▁ㅌㅗㅇㅂㅗ	-6755
▁El	-6756
ㄹㅗㄴㅈㅡ	-6757
▁ㅅㅓㄴㅇㅣㄴ	-6758
▁ㄲㅡㅀㅇㅣ	-6759
▁ㅁㅣㄹㅊㅣ	-6760
▁ㅉㅏㄹㄹㅣ	-6761
▁ㅈㅓㄴㄱㅘㅇ	-6762
▁ㅊㅏㅇㄹㅣㅂ	-6763
▁ㄱㅕㅇㅂㅗ	-6764
▁260	-6765
▁ㅎㅗㄴㄷㅗㅇ	-6766
▁ㅈㅜㅇㄱㅗㅇ	-6767
▁ㅇㅘㅇㅎㅜ	-6768
▁ㅎㅏㅇㄱㅗㅇㅅㅏ	-6769
ㄱㅔㄹ	-6770
ㅌㅠㄴ	-6771
▁ㅇㅡㅁㅅㅐㄱ	-6772
▁ㅇㅕㄴㄱㅡㅁㅅㅜㄹㅅㅏ	-6773
▁Champ	-6774
▁ㄱㅜㄷㅎㅣ	-6775
ady	-6776
▁ㅊㅜㄹㄱㅗ	-6777
▁sm	-6778
▁ㄱㅜㄹㄹㅓ	-6779
▁ㅈㅓㄹㅈㅓㅇ	-6780
▁ㄱㅗㄹㅁㅗㄱ	-6781
▁ㅈㅏㅁㅈㅏ	-6782
ㄹㅣㅂㅌㅡ	-6783
▁ㅊㅏㄹㄴㅏ	-6784
▁ㅂㅜㄹㅁㅜㄴ	-6785
▁ㅊㅜㄹㅇㅕㄴㅈㅣㄴ	-6786
▁fl	-6787
▁ㅁㅕㄴㅈㅓㅂ	-6788
▁ㅈㅓㄴㅅㅜ	-6789
▁ㅅㅓㄹㅌㅏㅇ	-6790
▁ㅂㅏㄴㄹㅗㄴ	-6791
ㅍㅡㄹㄹㅔㄱ	-6792
▁ㅁㅣㄷㅇㅡㅁ	-6793
ㅃㅜ	-6794
▁ㅂㅏㄱㅅㅏㅇ	-6795
ution	-6796
ㅇㅑㅇㅅㅣ	-6797
▁ㄱㅕㄱㅎㅏ	-6798
▁ㄱㅗㅇㄱㅗ	-6799
▁ㅂㅏㄹㅎㅏ	-6800
▁Ev	-6801
▁ㄴㅏㅁㅎㅏㄴ	-6802
▁ㅁㅏㅈㄷㅐ	-6803
▁ㄱㅗㅇㅇㅕㅇ	-6804
▁ㅈㅗㅇㅊㅏㄱ	-6805
UR	-6806
▁ㅁㅔㄹㄹㅗㄴ	-6807
▁ㅅㅓㄴㅍㅗ	-6808
▁ㄸㅏㅁ	-6809
▁ㅆㅗㄹ	-6810
▁Pre	-6811
▁ㅅㅏㅅ	-6812
ㄴㄷㅏㄹ	-6813
▁ㅅㅏㅇㅈㅏㅇ	-6814
▁kr	-6815
ㅈㅜㅇㄱㅛ	-6816
▁ㅇㅑㅇㅈㅜ	-6817
▁ㅅㅜㄴㅈㅓㅇ	-6818
▁ㅅㅜㅇㅂㅐ	-6819
ium	-6820
▁ㄷㅗㅇㄴㅏㅁㅇㅏ	-6821
▁ㅌㅓㅁ	-6822
▁ㄷㅏㄹㄹㅐ	-6823
▁ㅈㅣㅇㅋㅡ	-6824
▁ㅁㅜㄴㅅㅣㄴ	-6825
▁ㅎㅘㄴㅅㅏ	-6826
ㄷㅏㅅ	-6827
▁ㅈㅣㅂㅍㅣㄹ	-6828
▁ㅇㅣㄹㅎㅘㄴ	-6829
ㄱㅗㄷ	-6830
▁ㅇㅏㅍㅅㅔ	-6831
▁ㄱㅣㅅㄷㅡㄹ	-6832
▁ㅅㅣㄹㄹㅗ	-6833
▁ㄷㅗㅇㄱㅓ	-6834
▁ㅂㅏㅇㅂㅕㄱ	-6835
▁ㅊㅗㅇㅅㅏ	-6836
▁ㅍㅜㄹㄹㅕ	-6837
▁ㄱㅜㅇㅈㅓㄴ	-6838
▁205	-6839
▁ㄱㅘㄴㄱㅘㅇㄱㅐㄱ	-6840
▁ㅇㅏㄹㄹㅔㄱㅅㅏㄴㄷㅓ	-6841
▁ㅈㅜㅇㅅㅣㅁㅈㅣ	-6842
▁ㅂㅏㅇㅇㅓㄴ	-6843
▁ㅇㅕㄴㅇㅢ	-6844
▁Grand	-6845
ㄴㅓㄱ	-6846
▁ㄹㅐㄱ	-6847
▁ㅇㅐㅁ	-6848
ㅅㅏㄹㄹㅣ	-6849
▁ㄱㅗㅇㅁㅗ	-6850
▁ㅂㅓㅁㅎㅏ	-6851
▁ㅆㅔ	-6852
▁ㅅㅜㄱㅈㅜ	-6853
▁ㅂㅐㅌ	-6854
▁Rock	-6855
ㄹㅗㄹㄹㅓ	-6856
▁Summer	-6857
▁ㅂㅓㄴㄱㅏㄹ	-6858
▁550	-6859
▁ㅂㅕㄹㅊㅣㅇ	-6860
▁ㄱㅗㄹㅊㅣ	-6861
▁ㅇㅓㅁㅍㅖ	-6862
▁ㅇㅏㅍㅁㅕㄴ	-6863
ㄹㅣㄴㅇㅏ	-6864
▁ㅇㅑㅇㄷㅐ	-6865
▁ㅎㅘㄴㅅㅜ	-6866
▁211	-6867
▁ㅈㅣㅂㅎㅏㅂ	-6868
▁back	-6869
▁147	-6870
▁ㅎㅜㄴㅎㅜㄴ	-6871
ㅍㅡㄹㄹㅔㄱㅅㅡ	-6872
▁ㅅㅗㄹㄹㅏ	-6873
▁ㅂㅜㄱㄱㅜ	-6874
▁1967	-6875
▁Over	-6876
ㅃㅜㅁ	-6877
▁Dance	-6878
ㄸㅜㅀ	-6879
▁ㄴㅜㄴㅂㅣㅊ	-6880
ㅌㅣㄹㄹㅓ	-6881
▁ㅊㅗㅇㅍㅕㅇ	-6882
▁ㅌㅔㅁㅍㅗ	-6883
▁OK	-6884
▁ㄷㅗㅇㅎㅗ	-6885
gain	-6886
ㅇㅑㅇㅅㅐ	-6887
▁ㄱㅡㄴㄹㅕㄱ	-6888
▁DB	-6889
▁ㄱㅕㅇㄱㅘ	-6890
▁ㅅㅓㅇㅅㅜㄱ	-6891
▁ㄷㅟㅅㅁㅕㄴ	-6892
▁ㅇㅏㅁㅋㅓㅅ	-6893
▁ㅎㅗㄴㅇㅣㄴ	-6894
▁ㄷㅏㅇㄴㅏ	-6895
▁ㅎㅏㄴㅊㅡㅇ	-6896
▁ㅁㅏㅈㅁㅜㄹㄹㅣ	-6897
▁day	-6898
▁ㅂㅏㅇㅎㅗ	-6899
▁VOC	-6900
▁ㄱㅣㅁㅇㅕㄴ	-6901
▁now	-6902
▁ㅇㅏㄱㄹㅕㅇ	-6903
▁ㅌㅐㅅㅇㅣ	-6904
ction	-6905
ㅇㅗㄹㄹㅔ	-6906
▁ㅇㅏㄴㅊㅓㄹㅅㅜ	-6907
▁ㅈㅓㄱㄹㅣㅂ	-6908
▁RP	-6909
▁ㄲㅐㅇ	-6910
▁ㅁㅚ	-6911
▁3164	-6912
▁ㅅㅜㄹㅈㅣㅂ	-6913
ㄷㅏㄴㅈㅣ	-6914
ㅈㅓㄴㅌㅡ	-6915
▁ㅈㅗㄴㄷㅐ	-6916
▁ㅅㅓㄴㄱㅗㄱ	-6917
▁This	-6918
▁ㅂㅏㄴㄹㅏㄴㄱㅜㄴ	-6919
▁ㅂㅕㄹㅈㅏ	-6920
▁ㅂㅓㄹㄱㅡㅁ	-6921
▁ㅁㅕㅇㅁㅕㅇ	-6922
ne	-6923
▁ㅇㅣㄹㅍㅜㅁ	-6924
▁But	-6925
▁ㅍㅕㅇㅊㅏㅇ	-6926
▁Gold	-6927
▁ㅇㅕㄴㅎㅚ	-6928
ㅎㅕㄴㅈㅣㄴ	-6929
▁ㅈㅜㅇㄴㅕㄴ	-6930
ㅅㅜㄹㅈㅏ	-6931
▁ㄹㅚ	-6932
▁ㄲㅡㅌㅈㅏㅇ	-6933
▁ㄷㅏㅁㅇㅣㅁ	-6934
▁ㄱㅡㄱㅇㅜ	-6935
▁ㅂㅏㅇㅇㅏㄴ	-6936
▁ㅂㅜㄹㅋㅙ	-6937
▁ㅅㅓㄱㅅㅏ	-6938
▁ㄱㅕㅇㅈㅣ	-6939
▁ㅇㅡㄴㅁㅔ	-6940
▁ㅍㅜㄱ	-6941
▁ㅇㅝㄴㅁㅏㅇ	-6942
irst	-6943
▁ㅅㅗㄱㄹㅕㄱ	-6944
▁ㅈㅣㄱㄱㅕㄱ	-6945
▁ㅇㅏㅍㄷㅟ	-6946
ㅆㅐ	-6947
▁ㅂㅗㄴㅇㅢ	-6948
ㅍㅏㄱ	-6949
ount	-6950
▁ㅂㅏㅇㅎㅘ	-6951
▁ㅂㅡㄹㄹㅐ	-6952
▁Ste	-6953
▁ㅇㅕㄴㅁㅏㄹ	-6954
▁ㅎㅏㅁㅈㅐ	-6955
▁cc	-6956
▁ㅈㅜㅇㅎㅏㄱㅅㅐㅇ	-6957
▁ㅉㅣㅈㅇㅓ	-6958
▁ㅅㅓㄴㄱㅛ	-6959
ㅍㅜㄹㅇㅣ	-6960
ㅌㅏㄹㄹㅣㄴ	-6961
▁ㅁㅜㄴㅂㅓㅂ	-6962
▁ㄴㅏㄺ	-6963
▁ㅅㅓㄹㄹㅔ	-6964
▁ㅈㅓㅇㅈㅐ	-6965
▁ㅈㅓㄱㅈㅐ	-6966
▁ㅍㅜㄹㅇㅓ	-6967
▁ㄹㅓㄹ	-6968
ㄴㅔㄴ	-6969
▁ㅇㅏㄱㅎㅏ	-6970
▁ㄹㅑ	-6971
▁ㅎㅐㄴㄷㅡㄹ	-6972
▁ㅅㅏㅇㅎㅐㅇ	-6973
▁ㅈㅏㅇㄷㅗㅇ	-6974
▁ㅊㅣㅁㅎㅐ	-6975
▁SCP	-6976
▁ㅆㅙ	-6977
▁ㅅㅗㄱㄱㅗㅇ	-6978
▁ㅅㅓㄱㅅㅏㅇ	-6979
ㄴㅐㅂ	-6980
▁ㅅㅣㅁㅅㅏㅇ	-6981
▁Just	-6982
▁ㅅㅓㅇㄱㅏ	-6983
▁ㅈㅓㅂㅇㅓ	-6984
ㅇㅔㄹㄹㅏ	-6985
▁ㅈㅓㄱㅅㅓㅇ	-6986
ㅌㅓㄴㅌㅡ	-6987
▁LED	-6988
▁ㅎㅏㅇㅇㅏ	-6989
ring	-6990
ㅃㅐ	-6991
▁ㅍㅣㄱㅅㅔㄹ	-6992
eng	-6993
▁ㅅㅐㅇㅅㅓㄴ	-6994
let	-6995
▁FL	-6996
▁ㅂㅗㄱㅁㅕㄴ	-6997
▁Wii	-6998
▁ㅅㅔㄱㅅㅡ	-6999
▁ㅇㅝㄴㅈㅏㄱㅈㅏ	-7000
▁ㅅㅓㅇㅂㅣ	-7001
▁ㅊㅏㄹㄹㅣ	-7002
▁ㅇㅜㄴㅅㅓㄱ	-7003
▁ㅅㅣㅁㅎㅘ	-7004
▁ㅇㅕㅇㄷㅡㅇㅍㅗ	-7005
▁ㅂㅏㄱㅇㅛㅇ	-7006
▁ㄱㅕㄱㅈㅓㄴ	-7007
▁ㅅㅓㅇㄱㅣ	-7008
▁pt	-7009
ㄷㅠㄹㄹㅓㅁ	-7010
▁ㅍㅔㄴㄷㅠㄹㄹㅓㅁ	-7011
▁ㄷㅗㅇㄴㅕㄴ	-7012
ㄱㅣㄴ	-7013
ㄴㄷㅏㅁ	-7014
▁ㅊㅓㅇㄴㅏ	-7015
▁ㅂㅗㄴㄱㅏ	-7016
▁ㅊㅗㅇㄷㅗㄱ	-7017
▁OR	-7018
▁ㅇㅣㄴㅊㅔ	-7019
▁ㄱㅏㅇㅅㅔ	-7020
▁VOCAL	-7021
ㄹㅐㄴㅊㅏ	-7022
▁ㅁㅜㄴㄱㅗ	-7023
▁ㅇㅐㄴㄷㅣ	-7024
▁ㅂㅕㄹㅈㅓㅁ	-7025
ㅃㅜㄹ	-7026
▁HK	-7027
▁HG	-7028
▁204	-7029
ㅁㅜㄴㅅㅓ	-7030
ㄴㅏㅇ	-7031
▁ㄱㅏㄱㄱㅜㄱ	-7032
▁ㄱㅏㅁㅈㅓㄴ	-7033
▁ㅈㅏㅇㅍㅜㅇ	-7034
▁ㅎㅘㅇㅅㅣㄹ	-7035
▁ㅅㅏㅇㅅㅙ	-7036
▁ㅇㅣㄴㅇㅓ	-7037
▁ㅌㅗㅇㅎㅐㅇ	-7038
▁ㄷㅗㅇㅁㅔ	-7039
▁ㅅㅣㄹㄹㅜ	-7040
▁166	-7041
▁ㅇㅕㅁㅅㅐㄱ	-7042
▁ㄷㅏㄴㅅㅣㄱ	-7043
▁Can	-7044
ina	-7045
▁ㅋㅡㄹㄹㅣㅂ	-7046
ㅅㅓㄱㅁㅣㄴ	-7047
▁ㅎㅐㄴ	-7048
ㅌㅗㅇㅅㅏ	-7049
▁Korea	-7050
▁ㅆㅡㄹㅇㅓ	-7051
▁ㄴㅏㅁㅁㅣ	-7052
▁CA	-7053
▁ㅅㅗㅁㅆㅣ	-7054
▁ㅁㅐㅁ	-7055
▁ㄸㅒ	-7056
▁ㅈㅓㅇㅅㅓ	-7057
▁ㄱㅏㅇㅈㅓㅁㄱㅣ	-7058
▁ㅂㅕㅇㅈㅏㅇ	-7059
▁ㅅㅣㄹㄹㅕㄱㅈㅏ	-7060
▁DX	-7061
▁ㅋㅡㄹㄹㅓ	-7062
ㅈㅔㄹㄹㅔ	-7063
▁ㅈㅓㄴㅇㅕㄹ	-7064
▁ㄷㅗㄱㄹㅣㅂㅇㅜㄴㄷㅗㅇ	-7065
▁ㅇㅣㄴㅈㅡ	-7066
▁SL	-7067
▁ㅅㅏㅇㄱㅗㅇ	-7068
▁ㅇㅜㄴㅂㅏㄴ	-7069
▁ㅂㅏㅇㄱㅗㅇ	-7070
ㅅㅓㄹㄱㅏ	-7071
▁ㅇㅕㄹㅅㅔ	-7072
▁ㅂㅏㄱㅁㅕㅇㅅㅜ	-7073
▁ㅅㅣㄴㅂㅕㅇ	-7074
▁ㅂㅏㅇㄱㅘ	-7075
▁ㅇㅣㄴㅊㅓㄴㄱㅘㅇㅇㅕㄱㅅㅣ	-7076
▁MHz	-7077
▁news	-7078
ㅇㅏㅇㅅㅡ	-7079
▁ㄱㅕㅇㅅㅜㄴ	-7080
▁TW	-7081
▁Sec	-7082
▁ㄹㅐㅂㅌㅓ	-7083
▁ㅈㅣㄹㅎㅘㄴ	-7084
▁ㄴㅓㄱㄴㅓㄱ	-7085
▁1966	-7086
▁ㄱㅕㄱㄱㅣ	-7087
▁ㄴㅗㅇㅁㅣㄴ	-7088
▁ㅋㅗㄱ	-7089
▁ㅇㅣㄴㅍㅡㄹㄹㅔ	-7090
▁Music	-7091
▁ㄴㅐㅂ	-7092
▁ㅁㅏㄹㅇㅏ	-7093
ally	-7094
▁ㅂㅏㄱㅈㅐ	-7095
▁ㅁㅏㄹㄴㅕㄴ	-7096
ㅍㅜㄴ	-7097
▁ㅎㅗㄹㄷㅣㅇ	-7098
ㅏㅇㅑ	-7099
ㅅㅡㅇㅁㅣㄴ	-7100
▁ㄱㅕㄱㄹㅣ	-7101
ㅈㅓㄱㄷㅏㄴ	-7102
▁At	-7103
▁ㅅㅓㅇㅅㅜ	-7104
▁ㅈㅜㅁ	-7105
ㅈㅏㅇㅇㅣ	-7106
DS	-7107
ㄱㅕㄹㅅㅡㅇ	-7108
▁ㅈㅓㄴㅇㅕㅁ	-7109
▁ㅅㅗㄱㅍㅕㄴ	-7110
▁ㄱㅘㅇㅅㅗㄱ	-7111
▁ㅃㅗㅁ	-7112
▁Ep	-7113
▁ㄱㅗㅇㅅㅗㄴ	-7114
▁ㅁㅗㄱㅈㅐ	-7115
▁650	-7116
▁ㅈㅓㅇㅎㅕㅇ	-7117
▁ㅈㅏㅇㅈㅔ	-7118
▁ㄱㅘㅇㅈㅓㄴㅅㅏ	-7119
▁Live	-7120
▁ㅇㅝㄹㄷㅡㅇ	-7121
▁ㅈㅡㅇㅇㅣㄴ	-7122
▁Comm	-7123
ART	-7124
▁ㅇㅝㄴㅈㅗㅇ	-7125
▁ㅁㅕㅇㄱㅗㄱ	-7126
▁ㅂㅏㄱㅊㅏㄴ	-7127
▁ㅊㅏㅇㅅㅔ	-7128
ㄱㅕㄱㅈㅡㅇ	-7129
ㅂㅗㄱㄹㅕㄱ	-7130
▁ㄴㅔㄱㅅㅓ	-7131
ㅌㅜㄱ	-7132
▁ㅌㅓㅇ	-7133
▁ㅂㅜㄹㅎㅘ	-7134
ERO	-7135
ㄸㅗㄱ	-7136
▁ㅎㅘㄱㄱㅗ	-7137
▁ㅎㅏㄴㄱㅏㅇ	-7138
▁ㅂㅏㄴㅉㅏㄱㅇㅣ	-7139
▁ㅂㅣㄴㅂㅓㄴ	-7140
▁ㅎㅣㄹㄹㅣㅇ	-7141
▁ㄷㅜㅇㄱㅡㄹ	-7142
▁get	-7143
son	-7144
▁ㄱㅕㅇㅈㅣㄹ	-7145
▁ㅈㅓㄴㅂㅏㄴㅈㅓㄴ	-7146
▁GR	-7147
▁MX	-7148
ㄱㅏㄱㅎㅕㅇ	-7149
ㅍㅕㅇㄱㅏ	-7150
ㅎㅘㅇㅅㅐㄱ	-7151
▁ㄱㅡㄴㅇㅟ	-7152
▁......	-7153
▁ㅂㅏㄱㅇㅕㅇ	-7154
▁ㄴㅓㅁㅅㅏ	-7155
ㄴㅓㅁㄱㅣ	-7156
▁ㅂㅣㄴㅌㅡㅁ	-7157
use	-7158
ㅇㅣㄴㅈㅓㄴ	-7159
▁ㅂㅜㄴㅎㅗㅇㅅㅐㄱ	-7160
▁ㅅㅏㄹㅇㅣㄴㅁㅏ	-7161
ㅇㅡㄱ	-7162
▁ㅇㅣㄴㅌㅔㄹ	-7163
▁ㅅㅗㄱㅂㅏㄱ	-7164
▁ㅁㅐㄱㄹㅏㄱ	-7165
▁gr	-7166
▁ㅇㅝㄴㅎㅠㅇ	-7167
▁ㅇㅘㅇㅈㅘ	-7168
▁ㅎㅏㅂㅂㅓㅂ	-7169
▁ㅅㅣㄴㅇㅣㅁ	-7170
▁ㄱㅗㅇㅊㅓㄴ	-7171
▁ㅎㅗㄴㅎㅏㅂ	-7172
ㅋㅣㅂ	-7173
▁ㄱㅕㅇㄱㅏㅁ	-7174
▁ㅂㅓㅁㅎㅐㅇ	-7175
▁GN	-7176
▁Su	-7177
▁ㄷㅏㅇㄱㅜㄱ	-7178
▁Leg	-7179
▁EBS	-7180
▁ㄷㅏㄴㅁㅏㄹ	-7181
▁ㄹㅗㄹㄹㅣㅇ	-7182
ㄷㅗㅇㅎㅏ	-7183
▁GG	-7184
itch	-7185
▁ㄹㅠㄱ	-7186
▁ㅁㅏㄴㄹㅜ	-7187
▁Af	-7188
ㅋㅗㅂㅌㅓ	-7189
▁ㄱㅘㄴㅈㅓㄹ	-7190
▁ㅈㅣㄱㅅㅗㄱ	-7191
▁ㅇㅣㅂㄱㅜㄱ	-7192
▁ㅂㅏㅇㅅㅗㅇㅇㅣㄴ	-7193
inn	-7194
▁ㅈㅓㄴㄷㅜ	-7195
▁ㅇㅣㄹㅅㅏㅁ	-7196
▁ㅅㅐㄴㅍㅡ	-7197
▁169	-7198
▁1962	-7199
attle	-7200
▁Res	-7201
▁ㄷㅏㄹㅂㅣㅊ	-7202
▁ㄱㅣㅁㅎㅕㅇ	-7203
▁Hard	-7204
▁Power	-7205
▁ㅁㅕㄹㅈㅗㅇ	-7206
▁ㅇㅗㄴㅁㅗㅁ	-7207
ㄹㄹㅣㄴㅈㅓ	-7208
▁ㄸㅏㄹㄱㅣ	-7209
▁ㅍㅕㄴㄱㅕㄴ	-7210
ana	-7211
▁ㅅㅔㅅㅉㅐ	-7212
▁ADV	-7213
▁ㅇㅏㄱㅇㅓ	-7214
▁ㄱㅗㅇㅅㅡㅂ	-7215
▁ㅊㅜㄴㅊㅓㄴ	-7216
ㅈㅜㅁㅁㅏ	-7217
▁ㅅㅗㄴㅌㅗㅂ	-7218
ㅎㅚㄱㅅㅏ	-7219
▁DNA	-7220
▁ㅍㅗㅇ	-7221
▁ㄷㅗㅇㅂㅜㄱ	-7222
▁ㄱㅝㄴㄴㅡㅇ	-7223
75	-7224
▁1800	-7225
▁ㄱㅡㅁㅅㅐㄱ	-7226
▁ㅂㅏㄹㅎㅕㄴ	-7227
▁BF	-7228
▁ㅁㅗㅂㅅㅣ	-7229
▁ㅂㅏㄱㄱㅕㅇ	-7230
▁ㅁㅝㄴ	-7231
▁ㅈㅣㄱㅁㅜ	-7232
▁Sing	-7233
▁ㅅㅓㅇㅈㅣㄱㅈㅏ	-7234
▁ㄱㅜㄴㄹㅣㅁ	-7235
▁ㅅㅣㄷ	-7236
▁ㅊㅓㅅㄴㅏㄹ	-7237
▁ㄱㅕㄱㅊㅣㅁ	-7238
tr	-7239
▁but	-7240
▁MSL	-7241
▁ㅅㅗㄹㄹㅣ	-7242
▁ㅂㅏㄱㅊㅣ	-7243
▁ㅂㅗㄹㅌㅔㄱㅅㅡ	-7244
ㅈㅏㅇㄴㅏㄴ	-7245
▁ㄱㅣㅁㅇㅝㄴ	-7246
▁Ma	-7247
▁ㄴㅣㄱㅅㅡ	-7248
▁VOCALOID	-7249
▁ㅈㅏㅇㅇㅝㄴ	-7250
▁ㅇㅣㄹㄹㅖ	-7251
▁ARM	-7252
▁ㅁㅜㄴㅇㅓ	-7253
▁`	-7254
▁Che	-7255
▁ㄱㅣㄹㄱㅓ	-7256
▁++	-7257
▁ㄱㅘㅇㄷㅐ	-7258
▁Life	-7259
▁Fem	-7260
▁ㅅㅣㄴㅈㅓㅇ	-7261
▁ㅍㅜㄴ	-7262
ㄸㅡㄱㅇㅣ	-7263
ㄷㅡㄷ	-7264
▁ㅌㅗㅇㅅㅜ	-7265
▁VR	-7266
▁ㅎㅕㄴㅅㅏㅇㄱㅡㅁ	-7267
▁ㅅㅣㄹㅅㅡㅂ	-7268
▁ㅌㅗㅇㅈㅡㅇ	-7269
ern	-7270
ars	-7271
▁Master	-7272
▁ㅈㅣㄴㄱㅜ	-7273
▁ㅌㅏㄴㅌㅏㄴ	-7274
▁ㄷㅏㄴㄱㅘ	-7275
▁ㅈㅓㄴㄹㅖ	-7276
ㅊㅜㄹㅇㅐㄱ	-7277
▁ㅂㅓㄴㅅㅣㄱ	-7278
▁ㅊㅓㄴㅁㅏ	-7279
▁ㅊㅐㄱㅈㅓㅇ	-7280
▁ㅇㅣㄴㅅㅙ	-7281
ㅃㅕ	-7282
asy	-7283
ㅓㄴㅈㅣ	-7284
▁ㅍㅣㄹㅌㅓ	-7285
▁Rem	-7286
ㅑㄹ	-7287
▁ㅊㅗㅇㅇㅕㄹ	-7288
ㅁㅗㅅㅁㅣ	-7289
▁ㅇㅡㅇㅇㅝㄴㄱㅏ	-7290
▁MR	-7291
rain	-7292
▁ㅍㅏㄴㄱㅝㄴ	-7293
▁ㄷㅗㅇㄷㅡㅇ	-7294
▁im	-7295
▁ㅅㅏㅁㅊㅗㄴ	-7296
▁Out	-7297
▁FB	-7298
▁ㅇㅕㄹㄹㅏㅁ	-7299
▁ㅂㅕㅇㅅㅏㄹㅌㅏ	-7300
24	-7301
OO	-7302
▁man	-7303
to	-7304
▁ㅈㅓㅁㅅㅏ	-7305
UE	-7306
▁ㅊㅜㅇㅊㅓㅇㅂㅜㄱㄷㅗ	-7307
▁co	-7308
▁UF	-7309
▁ㅊㅓㄴㄱㅗㅇ	-7310
IE	-7311
▁ㅈㅣㄴㅅㅜ	-7312
▁ㅊㅣㄴㅁㅗㄱ	-7313
▁RC	-7314
▁ㅁㅗㄱㄷㅗㅇ	-7315
▁UI	-7316
▁ㅅㅔㅂ	-7317
TC	-7318
ㄱㅓㅅㅈㅓ	-7319
▁Lo	-7320
cl	-7321
▁ㅈㅡㅇㅂㅏㄹ	-7322
▁ㅎㅗㅇㅈㅣㄴㅎㅗ	-7323
▁ㄷㅗㄹㄱㅕㄱㅅㅗ	-7324
▁ㄷㅡㄱㅈㅓㅁㅈㅏ	-7325
ㅅㅛㅂ	-7326
ㅅㅣㄹㄹㅣ	-7327
▁ㄷㅗㅇㅁㅜㄴ	-7328
▁ㅈㅜㄴㄱㅗㅇ	-7329
ㅉㅗㅊ	-7330
▁ㅈㅔㄱ	-7331
ㄴㅓㄹㄷㅡ	-7332
ㄷㅡㄹㅁㅗㄱ	-7333
▁ㅂㅏㄹㄱㅘㅇ	-7334
▁ㅈㅓㅇㅈㅓㅇ	-7335
▁ㅇㅖㄴ	-7336
ield	-7337
XT	-7338
▁End	-7339
▁ㅇㅛㅇㄱㅏㅁ	-7340
▁""	-7341
▁151	-7342
▁KTX	-7343
▁ㄱㅗㅇㅈㅗㄴ	-7344
▁ㅅㅣㅁㅁㅜㄴ	-7345
▁ㅈㅏㅇㅎㅏㄱ	-7346
riend	-7347
ㅈㅓㅇㅅㅣㄱ	-7348
▁ㅊㅓㄴㄷㅜㅇ	-7349
▁ㅁㅏㅇㄹㅕㅇ	-7350
▁ㄷㅡㅇㄱㅛ	-7351
ㅋㅗㄱ	-7352
ㅈㅏㅂㅎㅣ	-7353
▁ㅅㅓㄴㅇㅜ	-7354
▁ㅂㅏㄱㅌㅏㄹ	-7355
▁ㄴㅏㅁㅂㅏㄹ	-7356
▁ㅁㅜㄹㄱㅏ	-7357
▁ㅂㅜㄹㅍㅕㅇ	-7358
▁ㅎㅏㄱㅈㅓㅁ	-7359
▁Hell	-7360
▁ㅈㅣㄴㅅㅓㅇ	-7361
ㅈㅣㅇㅇㅓ	-7362
▁1940	-7363
▁ㅂㅗㄱㅇㅛㅇ	-7364
▁ㅊㅣㄴㅇㅟ	-7365
▁ㅅㅗㅇㅊㅜㄹ	-7366
▁ㅈㅓㄴㅅㅏㄴ	-7367
▁256	-7368
▁ㅎㅗㅁㅈㅡ	-7369
▁ㅁㅗㄱㅇㅛ	-7370
▁Miss	-7371
▁night	-7372
ㅇㅣㅍ	-7373
▁ㅃㅗㅇ	-7374
▁ㅁㅕㅇㄴㅏ	-7375
▁ㅈㅜㄹㅈㅜㄹ	-7376
33	-7377
ㅂㅏㄱㅎㅣ	-7378
ㅅㅓㅇㄴㅕㄴ	-7379
ㅇㅛㅇㅅㅗ	-7380
atic	-7381
▁ㅈㅣㄴㄹㅣ	-7382
▁Air	-7383
▁ㄱㅡㄱㅅㅗ	-7384
ㅇㅓㅇ	-7385
▁ㅋㅝㄹㅋㅓㅁ	-7386
▁ㄱㅘㄴㅈㅣㄱ	-7387
▁Fi	-7388
▁ㄷㅗㄱㅅㅓ	-7389
ittle	-7390
▁just	-7391
▁ㅎㅟㅂㅆㅏ	-7392
▁ㄱㅡㅁㅎㅗ	-7393
▁sc	-7394
ㄹㅏㄴㅌㅡ	-7395
▁ㅂㅜㄱㅇㅏ	-7396
ㅇㅛㅇㄷㅗㄹㅇㅣ	-7397
▁ㅂㅏㄱㅎㅐ	-7398
▁ㅇㅏㄹㅂㅔ	-7399
▁ㅇㅕㅇㅈㅣㄴ	-7400
ㄹㅗㄴㅌㅡ	-7401
▁ㅈㅜㄴㄱㅕㄹㅅㅡㅇ	-7402
▁ㄱㅏㄴㅅㅓㄴ	-7403
▁ㅎㅏㄴㅅㅜㅁ	-7404
▁ㅎㅗㅇㅅㅓㅇ	-7405
▁ㅈㅣㄴㅎㅐㅇㅈㅏ	-7406
ㅁㅜㄴㅌㅡ	-7407
ㅎㅐㅇㅇㅓ	-7408
▁ㄷㅐㄴㅅㅓ	-7409
▁ㅅㅓㄹㅎㅘ	-7410
▁ㄸㅗㄱㄸㅗㄱ	-7411
▁ㅅㅏㄴㅊㅐㄱ	-7412
▁ㅇㅣㄹㅇㅣㄹㅇㅣ	-7413
▁Hy	-7414
▁ㄷㅗㅇㅈㅗㄱ	-7415
▁ㄴㅗㅇㄹㅏㄱ	-7416
▁POP	-7417
▁ㄱㅏㅇㅌㅣㅁ	-7418
▁ㅇㅕㅇㄴㅏㅁ	-7419
▁ㅇㅑㅌ	-7420
▁ㄹㅓㄴㄴㅣㅇ	-7421
▁ㅋㅔㄹㄹㅣ	-7422
▁ㅇㅣㅂㅇㅑㅇ	-7423
ㅌㅡㄹㄹㅏ	-7424
▁ㅈㅓㄴㅅㅗㄱ	-7425
ㄴㅗㄹㅇㅣ	-7426
ㅃㅣ	-7427
▁ㄷㅗㅇㄹㅗ	-7428
ㅁㅐㅅ	-7429
▁ㅅㅣㄴㅋㅏㄴ	-7430
▁ㅈㅓㅇㅎㅘㄱㄷㅗ	-7431
28	-7432
▁999	-7433
▁ㄱㅏㅇㅅㅜ	-7434
▁Vo	-7435
ㅈㅓㄱㅈㅏ	-7436
▁ㅅㅡㅂㄱㅘㄴ	-7437
▁1964	-7438
▁ㄱㅗㅇㄱㅘ	-7439
▁ㅌㅏㄹㄷㅏㅇ	-7440
ㅇㅜㄴㄷㅐ	-7441
▁ㅈㅣㄴㅈㅓㅇㅎㅏ	-7442
▁ㅌㅔㅁㅍㅡㄹ	-7443
▁Mod	-7444
ㅅㅓㄹㅍㅡ	-7445
▁ㄷㅗㅇㅈㅗ	-7446
▁ㅎㅓㅁㅎㅏ	-7447
▁Di	-7448
▁ㅂㅣㄹㄹㅏ	-7449
▁ㅅㅜㄴㄱㅛ	-7450
▁what	-7451
▁ㄴㅗㅇㅎㅕㅂ	-7452
▁ㅎㅐㅇㅂㅏㅇㅂㅜㄹㅁㅕㅇ	-7453
▁ㅇㅗㅂㅌㅣ	-7454
▁ㅅㅣㄴㅋㅏㄴㅅㅔㄴ	-7455
▁1965	-7456
▁380	-7457
▁ㅇㅣㄴㅂㅔㄴㅌㅗ	-7458
ㅇㅜㄴㅌㅣ	-7459
▁q	-7460
▁ㅎㅏㄴㅂㅏㄹ	-7461
▁ㅎㅑㅇㄱㅣ	-7462
▁Sy	-7463
▁ㄱㅕㅇㅅㅓㄴ	-7464
ㅊㅗㅇㄹㅣ	-7465
▁ㅂㅏㄱㅈㅜㄴ	-7466
▁YOU	-7467
▁ㄱㅡㄹㄹㅏ	-7468
▁ㄴㅏㄴㄱㅏㅁ	-7469
mania	-7470
▁ㅉㅗㄹ	-7471
ony	-7472
▁ㅅㅡㄹㅍㅓ	-7473
▁ㅈㅣㄱㄱㅕㄹ	-7474
▁SG	-7475
▁Ang	-7476
▁ㅂㅓㅂㅎㅏㄱ	-7477
▁tvN	-7478
▁ㅅㅐㄹㄹㅓ	-7479
▁ㄸㅗㄹ	-7480
▁1944	-7481
▁Pv	-7482
▁ㅇㅏㄱㅇㅢ	-7483
▁ㅈㅓㅂㅈㅓㅁ	-7484
▁ㅍㅣㄱㅇㅓㅂ	-7485
▁ㅊㅜㅇㅂㅜㄱ	-7486
▁ㄱㅕㄹㅅㅏ	-7487
▁OPS	-7488
▁ㅇㅏㅁㅇㅜㄹ	-7489
LS	-7490
▁ㅇㅕㄴㅂㅏㄹ	-7491
▁ㅈㅡㅇㄱㅣ	-7492
ㅁㅐㄴㄷㅓ	-7493
▁ㅂㅜㄴㅈㅏㅇ	-7494
▁ㄷㅗㅇㄱㅏㅂ	-7495
▁ㄱㅜㄱㅁㅣㄴㄷㅏㅇ	-7496
▁ㅎㅔㄱ	-7497
▁1930	-7498
▁ㅈㅣㅍ	-7499
▁STER	-7500
ㅋㅡㄹㄹㅓㅂ	-7501
▁OB	-7502
▁ㄷㅗㅇㅊㅔ	-7503
▁0000	-7504
▁ㅈㅓㅇㅋㅡ	-7505
▁ㅅㅣㄹㅇㅓㅂ	-7506
▁ㅁㅏㄴㅎㅐㅇ	-7507
▁King	-7508
ㅍㅡㄹㄹㅐ	-7509
▁XXX	-7510
▁ㅁㅣㄹㄹㅏ	-7511
▁ㅋㅣㅇㅅㅡ	-7512
▁ㄱㅗㅇㅇㅑㄱ	-7513
ma	-7514
ㄹㄹㅓㅅ	-7515
▁ㅇㅡㄴㅎㅖ	-7516
▁ㅈㅣㄱㅇㅕㄱ	-7517
▁6000	-7518
▁ㄷㅏㄷㅎㅣ	-7519
▁ㄱㅡㄴㅅㅓㅇ	-7520
▁ㄱㅡㅁㅎㅘ	-7521
▁ㅍㅡㄹㄹㅜ	-7522
ㅈㅓㅇㅅㅣㄴ	-7523
▁ㄴㅐㅇㄱㅏㄱ	-7524
▁ㅎㅏㄴㄷㅗ	-7525
▁ㄴㅏㅁㅈㅏㄱ	-7526
▁ㅇㅕㅇㄷㅗㅇ	-7527
▁IDOL	-7528
▁ㄱㅕㅇㅈㅐㅇㅈㅏ	-7529
▁ㅅㅛㅅ	-7530
▁ㅅㅣㄹㅁㅕㅇ	-7531
▁white	-7532
▁ㄷㅏㅇㅊㅓㅁ	-7533
▁Cy	-7534
▁ㅅㅛㄴ	-7535
ㄴㅏㄱㅇㅔ	-7536
ㅌㅣㄴㅇㅓ	-7537
ㅇㅓㄹㄱㅓ	-7538
▁ㅈㅏㄴㄷㅣ	-7539
▁ㄷㅏㄴㅈㅓㅇ	-7540
▁ㅈㅗㅂㅎㅣ	-7541
▁ㄷㅗㅇㅇㅛ	-7542
▁ㄷㅏㄴㅅㅗㄱ	-7543
▁ㅊㅜㄹㄱㅡㄴ	-7544
ㄷㅏㄴㅈㅜ	-7545
▁ㅋㅗㄴㅌㅣ	-7546
▁ㅈㅣㅇㅈㅣㅇ	-7547
be	-7548
ㄷㅗㅇㅇㅝㄴ	-7549
▁ㅅㅏㄹㅅㅏㅇ	-7550
▁ㄱㅘㅇㅌㅏㄹ	-7551
▁ㅅㅓㅇㅇㅕㄱ	-7552
▁ㄴㅓㄼㅎㅣ	-7553
▁ㅅㅣㄴㄷㅐ	-7554
ㄹㅔㄴㅅㅡ	-7555
▁ㄱㅡㅂㅎㅣ	-7556
▁ㄷㅗㅇㅌㅏㄱ	-7557
ㅎㅗㅂ	-7558
▁ㅍㅣㄹㄹㅣㅂ	-7559
▁ㅍㅕㄴㅇㅏㄴ	-7560
▁ㄲㅗㅈㅎㅣ	-7561
▁131	-7562
▁ㅇㅏㄴㅂㅗ	-7563
▁ㅍㅏㄹㅉㅣ	-7564
ㅈㅣㄴㅇㅕㅇ	-7565
▁ㅅㅏㅇㅇㅛㅇ	-7566
▁ㅇㅝㄹㄱㅡㅂ	-7567
▁ㅊㅜㄹㅈㅜㅇ	-7568
▁ㅇㅑㅇㅂㅗ	-7569
▁ㅂㅓㅂㅇㅏㄴ	-7570
ual	-7571
▁ㅅㅑㄴ	-7572
▁ㅎㅏㄱㅂㅓㄴ	-7573
▁ㅋㅗㄹㄷㅡ	-7574
▁MT	-7575
▁Run	-7576
▁ㅅㅜㄱㅇㅣ	-7577
▁School	-7578
▁ㄹㅐㄴㅌㅓㄴ	-7579
▁ㅅㅔㄴㅌㅣ	-7580
▁ㅇㅣㄹㅂㅗㄴㅅㅣㄱ	-7581
ecial	-7582
Fat	-7583
▁ㄷㅗㄹㅇㅣ	-7584
▁ㅇㅏㄴㅅㅓㅇ	-7585
▁ㅎㅜㄱ	-7586
▁ㅎㅏㄱㅅㅜㄹ	-7587
ㄱㅗㄱㄷㅗㅇ	-7588
▁MASTER	-7589
▁ㅂㅏㄴㄱㅜㄴ	-7590
▁ㅊㅐㄹㄹㅣㄴㅈㅓ	-7591
ㅅㅡㄹㄹㅣㅁ	-7592
▁ㅂㅓㄴㅌㅡ	-7593
▁ㅇㅏㄴㅅㅏㄴ	-7594
ㅆㅏㄱ	-7595
ㄹㅟ	-7596
▁ㄱㅏㅁㅎㅐㅇ	-7597
▁ㅇㅡㅇㅎㅏ	-7598
ㅎㅞ	-7599
▁ㄷㅏㄹㄱ	-7600
▁ㅅㅓㄹㅂㅣ	-7601
▁Sound	-7602
▁ㅅㅏㅇㄱㅏ	-7603
▁ㄴㅔㄱㅅㅡㄴ	-7604
ane	-7605
▁ㅇㅣㅂㅎㅏㄱㅅㅣㄱ	-7606
▁Rec	-7607
▁Femme	-7608
▁ㅂㅏㄷㅊㅣ	-7609
▁ㄷㅗㅇㅇㅣㄴㅈㅣ	-7610
▁1600	-7611
▁Art	-7612
▁don	-7613
▁BAS	-7614
▁PVP	-7615
ㅅㅣㅁㅈㅏㅇ	-7616
ope	-7617
▁ㅈㅜㅇㅈㅓㄴㅊㅏ	-7618
ㅋㅠㄹㄹㅏ	-7619
▁ㄴㅏㅁㄷㅗㅇ	-7620
▁ㅇㅡㅁㅈㅜ	-7621
▁ㅈㅓㄴㄹㅣ	-7622
▁ㅊㅣㄴㅈㅓㅇ	-7623
▁ㄱㅗㅇㅈㅏ	-7624
▁ㅎㅏㅁㅍㅗ	-7625
▁ㅅㅣㄹㅎㅘㅇ	-7626
▁ㄱㅜㄴㅂㅗㄱ	-7627
▁1920	-7628
▁ㅎㅏㄴㅌㅏㄴ	-7629
▁ㅂㅓㄱㅅㅡ	-7630
▁ㅅㅣㄴㅎㅡㅇ	-7631
ret	-7632
▁ㅉㅓㄹ	-7633
▁ㅈㅏㅇㅍㅕㄴ	-7634
▁ㅊㅏㅇㅂㅕㅇ	-7635
▁ㅃㅏㄹㅇㅏ	-7636
▁ㄷㅗㅇㅈㅣ	-7637
▁ㅇㅝㄴㅎㅘㄹ	-7638
▁ㅃㅗㅁㄴㅐ	-7639
▁ㅁㅣㅅ	-7640
▁ㅇㅣㄹㅈㅓㄹ	-7641
▁ㅅㅓㄴㄷㅐ	-7642
▁ㅁㅣㄴㅈㅓㅇ	-7643
▁ㅇㅕㄱㅂㅕㅇ	-7644
▁ㅈㅓㄴㅅㅔ	-7645
ision	-7646
ㅌㅓㄱ	-7647
▁Arm	-7648
ㄷㅏㄴㅊㅔ	-7649
Fatale	-7650
▁way	-7651
▁EA	-7652
▁ㅂㅜㄹㄹㅗ	-7653
▁FemmeFatale	-7654
▁ㄴㅗㅇㅅㅏ	-7655
▁Cat	-7656
▁ㅊㅜㄹㅁㅗㄹ	-7657
ㅅㅈㅣㅂ	-7658
▁ㅈㅓㄴㅍㅗㄱ	-7659
ㅋㅐㄴㄷㅡㄹ	-7660
ㅇㅓㅍ	-7661
▁ㅁㅓㄱㅂㅏㅇ	-7662
▁ㅂㅗㄹㄹㅠㅁ	-7663
elf	-7664
ㅆㅗㄹ	-7665
▁Ge	-7666
▁ㅆㅗㄹㅆㅗㄹ	-7667
▁UFC	-7668
▁ㅁㅏㄴㄹㅛ	-7669
▁ㄱㅣㅁㅇㅣㄹㅅㅓㅇ	-7670
▁SV	-7671
▁ㄴㅡㅈㅊㅜ	-7672
▁ㅅㅣㄴㅅㅣ	-7673
ㄱㅜㅇㅎㅘ	-7674
▁ㅂㅏㄴㅈㅏ	-7675
ㄷㅣㄱ	-7676
we	-7677
▁Yeah	-7678
str	-7679
▁ㅁㅗㅅㅈㅣ	-7680
▁ㅇㅣㅁㅇㅝㄴ	-7681
ㅅㅞ	-7682
▁ㅇㅛㅇㅁㅐㅇ	-7683
▁ㅅㅓㄹㅅㅏㅇㄱㅏ	-7684
▁ㅈㅜㅇㄱㅕㄴㅅㅜ	-7685
▁ㅈㅜㄴㅎㅏ	-7686
▁ㅅㅡㅇㄹㅕ	-7687
▁UM	-7688
ㅇㅕㄹㅅㅏ	-7689
ㅈㅜㅇㅎㅣ	-7690
▁ㅅㅗㄴㅇㅏ	-7691
ㄱㅜㄱㅈㅜ	-7692
▁ㅅㅓㅇㅎㅕㅇ	-7693
▁Rev	-7694
▁ㄱㅘㅇㅂㅗㄱ	-7695
▁ㅊㅓㅁㄷㅏㄴ	-7696
▁ㅎㅕㅇㅍㅕㄴㅇㅓㅄ	-7697
▁ㅆㅜㄱ	-7698
▁ㅎㅘㄱㄹㅣㅂ	-7699
ㄷㅓㅍ	-7700
▁ㄱㅡㅂㄱㅣ	-7701
▁ㅁㅗㄱㅈㅓㄱㅈㅣ	-7702
▁ㅎㅏㄱㅎㅚ	-7703
▁ㅎㅓㅅㅅㅗ	-7704
ational	-7705
▁ㄱㅣㅁㅁㅕㅇ	-7706
▁LCK	-7707
▁ㅅㅓㄴㅂㅏㅇ	-7708
ouse	-7709
▁ㄹㅓㅁㅂㅡㄹ	-7710
ㅍㅡㄴㅁㅠ	-7711
▁ㅍㅏㅂㅍㅡㄴㅁㅠ	-7712
▁ㅎㅗㄱㅅㅏ	-7713
▁Order	-7714
appy	-7715
▁IG	-7716
▁ㄱㅜㄱㅅㅏㄴ	-7717
ㅂㅐㄴㅅㅡ	-7718
▁ㅅㅑㅁ	-7719
▁ㄱㅏㅇㅍㅏㄴ	-7720
▁ㅂㅐㄱㅎㅏㅂ	-7721
▁ㅁㅣㄹㄹㅏㄴ	-7722
ORE	-7723
▁ㄱㅏㄹㄱㅗ	-7724
▁Elect	-7725
▁ㅇㅕㄴㅂㅣ	-7726
▁ㄱㅏㅁㅎㅣ	-7727
AG	-7728
▁ㅅㅏㅇㅊㅔ	-7729
ㅇㅓㄴㅁㅐㄴ	-7730
▁ㅂㅏㄱㄱㅕㄱ	-7731
▁ㄲㅐㅇㅍㅏㄴ	-7732
▁EXH	-7733
▁ㅋㅔㄴㅇㅣ	-7734
▁ㄱㅕㅇㅎㅢ	-7735
▁ㄹㅏㄱㅅㅡ	-7736
▁ㅅㅣㄹㅈㅓㅇ	-7737
▁ㅇㅕㄹㅇㅏㄱ	-7738
▁EM	-7739
ness	-7740
▁ㅅㅏㅁㄱㅓ	-7741
▁ㅇㅝㄴㅎㅗ	-7742
▁ㅇㅕㄹㄷㅡㅇ	-7743
▁ㄱㅣㅁㅎㅢ	-7744
▁br	-7745
ㅁㅕㅇㅅㅏ	-7746
▁ㅈㅣㄱㄱㅜ	-7747
▁SO	-7748
▁1961	-7749
▁ㅅㅣㄱㅅㅣㄴ	-7750
▁ㅈㅡㅇㄱㅝㄴ	-7751
▁ㅈㅓㅂㄱㅡㄴㅅㅓㅇ	-7752
▁ㄸㅏㄱㄸㅏㄱ	-7753
ㅇㅐㄴㅈㅔㄹㄹㅔ	-7754
▁TCG	-7755
▁ㅂㅏㄴㄱㅏㅂ	-7756
▁CON	-7757
ㄱㅡㅂㅈㅓㄱ	-7758
▁TO	-7759
ㄷㅙ	-7760
ㄹㅡㄱ	-7761
ㅅㅏㅇㅍㅏ	-7762
inc	-7763
▁ㅃㅏㄹㄱㅏㅇ	-7764
▁ㅇㅡㄴㅁㅣㄹ	-7765
▁ㅅㅐㅇㅅㅏㄴㄹㅕㄱ	-7766
▁ㄱㅣㄹㄷㅡㄹㅇㅣ	-7767
▁WE	-7768
▁ㅂㅗㄴㅅㅓㅇ	-7769
ㅈㅣㅇㄱㅏ	-7770
▁ㅃㅑㅁ	-7771
▁ㅁㅣㅂ	-7772
▁ㅇㅝㄴㄴㅐ	-7773
▁ㅂㅣㄱㅂㅐㅇ	-7774
▁FR	-7775
▁ㅌㅗㅇㅅㅣㄴㅅㅏ	-7776
ㅇㅛㅇㅎㅐ	-7777
▁ㄷㅏㄹㄱㅑㄹ	-7778
▁1100	-7779
▁ㅂㅔㄱㅌㅓ	-7780
▁ㄱㅘㅇㅅㅓㄱ	-7781
▁beatmania	-7782
▁ㅈㅓㄴㄱㅛ	-7783
▁ㅈㅣㄴㄹㅛ	-7784
▁ㅈㅓㄴㅍㅕㄴ	-7785
▁ㄹㅐㅁㅍㅡ	-7786
▁ㄱㅣㅁㅈㅓㄴ	-7787
▁ㅇㅏㄱㄹㅏㄹ	-7788
▁dis	-7789
ㅈㅜㄴㅎㅗ	-7790
▁NHK	-7791
▁ㅊㅜㅇㅈㅜ	-7792
▁ㅇㅕㅇㅁㅣ	-7793
▁ㄷㅗㅇㅊㅏㅇ	-7794
▁world	-7795
▁ㅈㅓㄱㄹㅛ	-7796
ㅇㅐㄱㅅㅕㄴ	-7797
▁MLB	-7798
▁ㄱㅗㅇㅅㅓㅇㅈㅓㄴ	-7799
▁She	-7800
▁ㅈㅣㄴㄱㅏ	-7801
▁SHOW	-7802
day	-7803
▁ㄱㅘㄴㄷㅗㅇ	-7804
▁ㄷㅏㄴㄱㅗㄹ	-7805
▁ㄱㅘㄹ	-7806
ㅇㅛㅇㅂㅓㅂ	-7807
omb	-7808
▁EMP	-7809
ㄱㅡㄱㅎㅣ	-7810
▁ㅊㅗㅇㅌㅏㄴ	-7811
▁ㄱㅗㅇㅎㅠ	-7812
▁ㅇㅏㄴㅁㅕㄴ	-7813
its	-7814
▁214	-7815
▁ㄷㅗㅇㄹㅐ	-7816
ㅇㅑㄱㅈㅏ	-7817
▁ㅅㅐㅇㅅㅏㄴㄹㅑㅇ	-7818
ham	-7819
▁ㄷㅓㅊ	-7820
▁ㅈㅓㄹㄱㅠ	-7821
▁Da	-7822
ㅇㅠㄱㅂㅜ	-7823
ㄹㅗㄴㅌㅗ	-7824
▁ㅊㅣㄱ	-7825
▁ㅇㅣㅂㅅㅜㄹ	-7826
▁ㄱㅗㄹㄹㅣ	-7827
▁ㅁㅜㄹㄷㅡㄹ	-7828
==	-7829
▁ㅁㅏㄹㅁㅣ	-7830
▁ㅇㅝㄴㄱㅗ	-7831
ㅅㅏㄹㅇㅏ	-7832
▁ㅇㅑㅇㅍㅏ	-7833
▁ㄱㅕㅇㅅㅓㅇ	-7834
ㅍㅗㄹㄹㅗ	-7835
ㅌㅣㄱㅅㅡ	-7836
▁ㄱㅣㅁㅎㅖ	-7837
▁VIP	-7838
▁ㄱㅕㅇㅁㅐ	-7839
ㄱㅕㄱㅊㅗㅇ	-7840
ㅈㅏㅇㅍㅜㅁ	-7841
ㅅㅗㄱㅂㅓ	-7842
▁RG	-7843
ㅅㅡㅇㅎㅕㄴ	-7844
▁MD	-7845
▁ㅇㅙㄴㅁㅏㄴ	-7846
▁ㄱㅓㄴㅈㅐ	-7847
▁ㅂㅣㄴㅅㅏ	-7848
▁ㅈㅣㅂㅈㅜㅇㄹㅕㄱ	-7849
▁ㄱㅏㄴㄹㅑㄱ	-7850
▁141	-7851
ious	-7852
▁ㅊㅗㅇㄱㅘㄹ	-7853
SS	-7854
▁ㅇㅏㄱㅇㅛㅇ	-7855
ㅅㅜㅁㅇㅔ	-7856
▁ㄷㅏㄴㅅㅜㅁㅇㅔ	-7857
▁ㄱㅣㅁㅈㅓㄴㅇㅣㄹ	-7858
ㅎㅐㅇㅅㅓㄴ	-7859
▁ㅂㅏㄹㅇㅏㄱ	-7860
▁ㄱㅣㅁㅌㅐㄱ	-7861
▁ㅁㅣㄹㅈㅣㅂ	-7862
▁ㅊㅓㅇㅇㅝㄴ	-7863
▁340	-7864
▁ㅎㅡㄱㅎㅘ	-7865
ㅈㅓㅇㅇㅕㄱ	-7866
ㅎㅡㄺ	-7867
▁ㄱㅕㅇㄹㅑㅇ	-7868
▁ㄱㅏㅇㅈㅓㄱ	-7869
▁ㅅㅡㅇㅊㅓㄴ	-7870
▁ㅁㅏㄹㅈㅏㅇㄴㅏㄴ	-7871
▁ㅅㅓㅁㅇㅠ	-7872
ANC	-7873
ㅂㅔㄹㄹㅣ	-7874
▁ㅁㅣㄴㅇㅝㄴ	-7875
▁naver	-7876
▁ㄱㅓㅁㅇㅡㄴㅅㅐㄱ	-7877
▁te	-7878
▁ㅅㅣㄴㄷㅣ	-7879
▁Not	-7880
▁ㅂㅜㄹㅁㅕㄹ	-7881
▁ㅇㅑㅇㅊㅡㄱ	-7882
▁ㅊㅓㅇㅅㅏㄴ	-7883
▁ㅅㅖㄹ	-7884
27	-7885
IV	-7886
ivers	-7887
ㅇㅜㄱㅇㅣ	-7888
aut	-7889
▁ㅌㅏㄴㄷㅗ	-7890
▁ㅇㅣㄴㄴㅐ	-7891
olution	-7892
ㅅㅇㅣㅍ	-7893
▁ㅍㅣㄹㅇㅕㄴ	-7894
23	-7895
ERS	-7896
ㅂㅡㄹㄹㅣㅅ	-7897
▁ㅂㅏㄴㅎㅏㅇ	-7898
ㅍㅡㄹㄹㅏ	-7899
▁With	-7900
▁ㅈㅓㄱㅅㅐㄱ	-7901
▁ㄱㅏㅇㅎㅐㅇ	-7902
▁ap	-7903
ㅆㅓㄹ	-7904
▁Every	-7905
▁ㅇㅘㄴㅅㅜ	-7906
▁ㅈㅡㄱㄱㅏㄱ	-7907
▁ㅇㅑㅇㅎㅕㄴ	-7908
▁ㅊㅏㅇㅇㅓㅂ	-7909
▁ㅅㅣㄹㅁㅜ	-7910
▁ㅂㅏㄹㅋㅏㄴ	-7911
▁ㅅㅓㄱㄱㅜㅇ	-7912
▁ㅎㅏㄴㅅㅣㅁ	-7913
ATION	-7914
▁ㅍㅗㄹㄷㅓ	-7915
▁ㅌㅏㄴㅈㅗㅇ	-7916
ㅅㅖㄹ	-7917
EX	-7918
▁^	-7919
ㅇㅣㄹㄷㅏㅁ	-7920
▁ㄷㅗㅇㅂㅗㅇ	-7921
ㅊㅜㄱㄱㅜ	-7922
▁ㅂㅕㄴㅈㅣㄹ	-7923
▁DEF	-7924
▁ㅂㅏㄹㅈㅓㄴㄱㅣ	-7925
▁ㅇㅣㄹㅈㅣㄴ	-7926
▁ㅇㅓㅁㅈㅣ	-7927
▁ㅊㅣㄹㄹㅔ	-7928
▁ㅊㅜㄱㅈㅓㄱ	-7929
▁DO	-7930
▁ㅈㅓㄱㅈㅣㄴ	-7931
UC	-7932
ㅍㅓㅇ	-7933
▁ㅅㅓㅇㄷㅗ	-7934
ㅅㅡㅇㅁㅏㄴ	-7935
olog	-7936
▁ㄲㅘㅇ	-7937
▁ㅇㅕㄴㄱㅡㅁㅅㅜㄹ	-7938
▁Ke	-7939
▁ㅁㅓㄹㅉㅓㅇㅎㅣ	-7940
▁ㅊㅓㄴㄱㅖ	-7941
29	-7942
45	-7943
▁ㄴㅏㄱㅇㅣㄴ	-7944
▁ㅍㅕㄴㄷㅐ	-7945
▁Skill	-7946
▁ㅇㅕㄴㅎㅏ	-7947
▁ㅎㅏㅂㄷㅏㅇ	-7948
▁ㅁㅐㄱㅅㅣ	-7949
▁310	-7950
▁ㅎㅔㄹㅅㅡ	-7951
ㅁㅕㅇㅅㅏㅇ	-7952
▁ㄲㅓㄲㅇㅣ	-7953
▁ㅅㅏㄹㅍㅣ	-7954
▁ㅈㅗㄱㅈㅏㅇ	-7955
▁ㅇㅜㄴㅎㅏㅇ	-7956
▁ㄱㅏㅇㅅㅓㅇ	-7957
66	-7958
ㅍㅗㄴㅈㅣ	-7959
icro	-7960
ㅇㅡㅁㄱㅣ	-7961
ㅖㄴ	-7962
ㅅㅣㄴㄱㅣ	-7963
▁ㅇㅝㄴㅈㅔ	-7964
▁ㅇㅕㅁㄹㅕ	-7965
▁Chr	-7966
▁ㄴㅔㅂ	-7967
▁ㅅㅜㄹㅂㅓㅂ	-7968
▁Get	-7969
▁ㅅㅓㄴㅂㅏㄹㅌㅜ	-7970
ㅇㅣㄴㅈㅡ	-7971
▁ㄱㅕㄹㅎㅏㅁ	-7972
ㄷㅏㄴㅈㅏㅇ	-7973
▁ㅁㅏㄱㅂㅏ	-7974
▁ㅇㅣㄹㄹㅕㄴ	-7975
▁ㅅㅗㄱㅅㅏㄱ	-7976
ㅂㅓㅁㅈㅚ	-7977
▁SW	-7978
▁Boy	-7979
▁ㅇㅣㄹㅂㅗ	-7980
▁=,	-7981
ely	-7982
▁ㅂㅏㄱㅈㅜ	-7983
▁ㅅㅣㅇㅇㅓ	-7984
▁ㄱㅕㅇㅈㅏㅇ	-7985
▁ㅇㅘㄴㅈㅓㄴㅊㅔ	-7986
▁Har	-7987
▁ㄹㅓㅆㄷㅏ	-7988
▁ㅂㅏㄴㅎㅘㄴ	-7989
▁ㅈㅣㄴㄴㅏ	-7990
ㅅㅜㅇ	-7991
▁ㅇㅏㄴㄴㅏ	-7992
▁ㄱㅗㅇㅂㅏㅇㅈㅓㄴ	-7993
▁ㅎㅗㅇㅈㅜㄴ	-7994
ㅇㅜㄹㄹㅓ	-7995
ny	-7996
ㅋㅝㄹ	-7997
▁007	-7998
ㅋㅏㄹㄹㅔㅅ	-7999
▁**	-8000
reat	-8001
▁Des	-8002
ㄲㅜㅁㅊㅣ	-8003
▁ㅅㅓㅇㅊㅐ	-8004
▁ㅌㅐㄱㅂㅐ	-8005
ty	-8006
▁ㅂㅏㄴㅁㅏㄹ	-8007
ㅇㅣㄹㅇㅡ	-8008
ㄷㅔㄹㅍㅣ	-8009
▁ㅂㅏㅇㅎㅘㅇ	-8010
▁ㅈㅓㅇㅇㅡㄴ	-8011
▁ㅊㅏㅇㄷㅏㅇ	-8012
▁ㄱㅡㄹㄹㅓ	-8013
▁ㅎㅏㅂㅊㅏㅇ	-8014
▁if	-8015
▁ㅅㅔㄹㅍㅡ	-8016
▁ㅁㅕㅇㅈㅏㄱ	-8017
▁ㅈㅓㄱㅂㅏㄹ	-8018
▁ㅇㅝㄴㅊㅓㄴ	-8019
▁ㅈㅓㅇㄱㅓ	-8020
▁ㅇㅣㅁㅊㅏㅇ	-8021
▁Ab	-8022
▁ㅇㅓㄹㅍㅣㅅ	-8023
▁ㅈㅏㄱㅂㅕㄹ	-8024
▁ㅎㅏㄴㅅㅡ	-8025
▁ㅂㅏㅇㄱㅡㅁ	-8026
▁ㅋㅑ	-8027
▁ㅇㅛㄱㅎㅏ	-8028
▁ㄱㅡㄹㄹㅐ	-8029
▁ㅅㅏㅇㅂㅏㄴㄱㅣ	-8030
ㄱㅡㄹㄹㅓ	-8031
▁ㅇㅣㄴㅁㅐㄱ	-8032
▁png	-8033
▁ㅋㅐㅂㅋㅗㅁ	-8034
ㄴㅏㄹㄷㅡ	-8035
▁ㄱㅗㅇㄹㅗ	-8036
ㅇㅗㄹㄹㅣㄴ	-8037
▁ㅅㅏㅇㅍㅛ	-8038
▁ㅇㅔㄱㅅㅗ	-8039
▁ㅋㅗㄹㄹㅗㅁㅂㅣ	-8040
ient	-8041
ㅇㅝㄴㅇㅕㄱ	-8042
▁ㅇㅑㅇㅎㅗ	-8043
▁ㄴㅡㄴㄱㅜㄴ	-8044
▁ㅇㅟㄹㅅㅡㄴ	-8045
▁720	-8046
▁ㅍㅣㄱㅅㅣ	-8047
ㅈㅜㄴㄱㅡㅂ	-8048
▁171	-8049
▁ㅉㅏㄹㅂㅏㅇ	-8050
▁ㅌㅜㅁ	-8051
▁RAW	-8052
ㅈㅣㅂㅎㅣ	-8053
▁ㄱㅣㅁㅊㅏㅇ	-8054
ㅎㅣㄹ	-8055
▁ㅈㅗㅁㅂㅣ	-8056
▁ㅂㅕㅇㄷㅏㄴ	-8057
▁ㅇㅑㅇㄱㅜㄱ	-8058
ㄱㅝㄴㅈㅏ	-8059
ㅇㅣㄴㄱㅏㄴ	-8060
▁ㅎㅓㄴㅅㅣㄴ	-8061
ters	-8062
▁ㅈㅓㅇㅁㅕㅇ	-8063
▁ㅇㅜㄴㅇㅜㄴ	-8064
ㅇㅘㅂ	-8065
▁Tri	-8066
▁ㅌㅏㄴㅅㅗ	-8067
▁181	-8068
▁ㅂㅗㄴㄷㅣ	-8069
▁480	-8070
▁ㅂㅗㄹㅍㅡ	-8071
▁Big	-8072
ㄹㅣㅅㅈㅣ	-8073
▁ㄹㅕㅁ	-8074
▁ㅎㅏㄴㅁㅗ	-8075
▁ㅅㅐㅇㅁㅗㄹ	-8076
▁ㅎㅗㅇㅈㅜㄴㅍㅛ	-8077
ㅇㅓㅁㅅㅡ	-8078
▁ㅍㅓㄹㅅㅡ	-8079
ㅇㅣㅁㄱㅣ	-8080
ㅎㅐㅇㅇㅟ	-8081
▁ㅅㅣㄴㅊㅜㄱ	-8082
ㅈㅣㄹㄱㅣ	-8083
ㅅㅡㅇㅇㅕㅂ	-8084
▁Ext	-8085
▁ㄲㅡㄴㅈㅣㄹㄱㅣ	-8086
▁ㄷㅏㅇㅈㅜ	-8087
▁ㄱㅕㄹㅈㅏㅇ	-8088
▁TB	-8089
▁PSP	-8090
▁ㅇㅗㄱㅌㅏ	-8091
▁ㅇㅕㄴㅎㅕㄱ	-8092
ful	-8093
▁ㅎㅗㄴㅈㅗㅇ	-8094
▁ㅇㅕㅇㄱㅣ	-8095
▁ㅊㅓㄴㅈㅓㄱ	-8096
ship	-8097
ㅋㅏㄹㄹㅣ	-8098
▁ㅈㅏㅇㅇㅏㄴ	-8099
uch	-8100
▁DA	-8101
▁kn	-8102
85	-8103
ㅍㅓㄹ	-8104
ㄱㅘㄴㅊㅏ	-8105
▁ㅅㅐㅁㅍㅡㄹ	-8106
ㅂㅕㅇㅎㅗ	-8107
▁ㅂㅏㄱㄱㅕㄱㅍㅗ	-8108
▁ㅈㅗㄴㄷㅐㅅㅁㅏㄹ	-8109
▁ㄱㅜㅇㅈㅣ	-8110
▁ㄱㅓㄴㅈㅓㄴ	-8111
▁ㅈㅐㅇㅌㅏㄹ	-8112
bl	-8113
▁1954	-8114
▁STAR	-8115
▁ㅈㅓㅇㄱㅖ	-8116
▁ㄱㅜㄴㄱㅣ	-8117
ㅋㅜㄴ	-8118
▁UR	-8119
▁ㄱㅗㅇㅇㅣㄱ	-8120
▁ㅊㅜㄹㅌㅚ	-8121
▁ㅅㅓㅇㅊㅜ	-8122
▁1943	-8123
ㄷㅓㄴㅌㅡ	-8124
▁ㅅㅡㄹㄹㅔ	-8125
▁ㅂㅗㄱㅅㅣㅇ	-8126
▁ㅅㅏㄴㅇㅏㄱ	-8127
▁1958	-8128
ㅈㅓㅇㅎㅕㄴ	-8129
▁ㅈㅗㅇㅇㅣㄹ	-8130
ports	-8131
▁ㅈㅓㅇㄹㅣㅂ	-8132
▁1900	-8133
▁ㅎㅏㄴㅁㅗㄳ	-8134
▁ㄱㅣㅁㅅㅔ	-8135
▁1946	-8136
▁Inf	-8137
▁id	-8138
ㅅㅜㄹㄱㅏ	-8139
▁White	-8140
▁ㄱㅘㅇㅂㅓㅁ	-8141
▁ㅇㅕㅇㅂㅜㄴ	-8142
▁ㅇㅕㄴㅎㅢ	-8143
ㅁㅏㅌ	-8144
▁Sil	-8145
▁ㅈㅓㅇㅈㅏㅇ	-8146
▁ㅉㅗㅈㅇㅏ	-8147
ㄹㅏㅇㅋㅔㄴ	-8148
▁ㅅㅓㅂㅇㅚ	-8149
▁EB	-8150
ㄱㅞ	-8151
▁ㄱㅣㅁㅈㅜㄴㅎㅗ	-8152
26	-8153
▁ㅅㅏㅇㄱㅝㄴ	-8154
▁ㅎㅘㅇㅁㅜ	-8155
▁CT	-8156
▁ㄷㅏㅇㅂㅜㄴ	-8157
ㄱㅏㅌㅇㅣ	-8158
▁ㅍㅗㄱㅅㅏ	-8159
ump	-8160
ㅅㅓㅇㄴㅕㄴㅈㅏ	-8161
▁ㅍㅗㄱㅂㅏㄹㅁㅜㄹ	-8162
▁ㅈㅣㄴㅈㅏㄱ	-8163
▁ㅇㅠㄴㅈㅗㅇ	-8164
▁XP	-8165
▁ㅈㅜㅇㅇㅏㅇㅅㅓㄴ	-8166
▁255	-8167
▁Bar	-8168
▁ㅎㅏㅂㅎㅏ	-8169
ㅅㅏㅇㅁㅣㄴ	-8170
co	-8171
▁RS	-8172
▁ㄱㅜㄴㅎㅏㅁ	-8173
▁qu	-8174
▁1942	-8175
▁ㄲㅓㄹ	-8176
▁Fre	-8177
▁ㅎㅗㅇㄷㅐ	-8178
▁ㅈㅓㅁㄱㅓ	-8179
▁ㄴㅏㄱㅇㅝㄴ	-8180
▁jp	-8181
▁8000	-8182
▁ㅁㅏㄴㅅㅔ	-8183
▁ㅁㅏㄱㅂㅜ	-8184
▁ㅁㅏㅇㅈㅏ	-8185
▁Win	-8186
▁Back	-8187
ENT	-8188
▁>,	-8189
ㅇㅕㄴㅅㅡ	-8190
▁ㄷㅡㄴㄱㅏ	-8191
▁ㄷㅏㅇㅇㅝㄴ	-8192
▁ㄱㅣㅍㅅㅜㄱ	-8193
▁ㅋㅏㅇ	-8194
ㅌㅐㄴㄷㅏ	-8195
▁420	-8196
▁ㄱㅜㄴㅅㅏㄴ	-8197
ㅌㅡㄹㄹㅔ	-8198
edia	-8199
▁ㅇㅣㅁㅇㅛ	-8200
▁ㅇㅚㄴㅍㅏㄹ	-8201
▁ㅈㅏㄱㅅㅏㄹ	-8202
ALL	-8203
▁ㅇㅕㅁㅅㅗ	-8204
ㅇㅓㄹㄹㅣ	-8205
ERT	-8206
▁ㅅㅣㄴㅅㅡ	-8207
▁ㅈㅣㄹㄹㅑㅇ	-8208
▁Sky	-8209
▁down	-8210
▁ㅅㅐㅇㅅㅏ	-8211
▁DT	-8212
▁ㅅㅏㅇㅅㅗㄱ	-8213
▁ㅅㅓㅇㄱㅠㄴ	-8214
▁ㄴㅐㅇㅈㅓㄴ	-8215
▁ㅇㅓㄴㅎㅐㅇ	-8216
ift	-8217
ㄲㅗㄹ	-8218
▁ㅅㅗㄴㅂㅏ	-8219
ㅈㅏㄱㅈㅓㅇ	-8220
ㅎㅐㅇㅅㅏ	-8221
▁ㅇㅝㄴㄴㅕㄴ	-8222
▁ㄱㅘㅇㅂㅓㅁㅇㅟ	-8223
▁ㅅㅗㅇㄷㅗ	-8224
▁ㅈㅡㅇㅅㅔ	-8225
ㅅㅡㅇㅎㅘㄴ	-8226
▁ㅅㅓㅇㄱㅠㄴㄱㅘㄴ	-8227
▁215	-8228
ㅌㅏㄴㅌㅣ	-8229
▁ㄱㅓㄹㅈㅏㄱ	-8230
▁ㅅㅕㄹㄹㅗㄱ	-8231
▁ㅅㅗㅇㅇㅣ	-8232
▁ㄲㅗㄱㄷㅜ	-8233
ㅆㅓㅂ	-8234
ㅈㅓㅇㄷㅗㅇ	-8235
ㅊㅘㄹ	-8236
▁off	-8237
ㄹㅣㅅㅅㅜ	-8238
▁Met	-8239
▁ㅆㅡㅂ	-8240
▁ㅂㅏㅇㄹㅏㅇ	-8241
▁ㅍㅗㄱㄷㅗㅇ	-8242
▁ㅋㅗㅅ	-8243
▁ㅊㅓㅇㄹㅑㅇ	-8244
▁OO	-8245
ㅇㅣㄴㄱㅣ	-8246
▁}{	-8247
▁ㅋㅣㄹㄹㅗ	-8248
▁ㅅㅏㅇㅎㅚ	-8249
▁ㅅㅓㄱㅎㅘ	-8250
▁every	-8251
▁ㅎㅘㄱㅇㅕㄴㅎㅣ	-8252
ㅋㅣㄴㅅㅡ	-8253
▁333	-8254
▁ㅍㅗㅅ	-8255
▁ㅈㅏㄱㅇㅏ	-8256
▁ㄴㅛ	-8257
▁KS	-8258
ㅈㅏㅇㄴㅏ	-8259
▁ㅂㅐㄱㅁㅣ	-8260
▁ㅂㅗㅇㅎㅘㅇ	-8261
▁ㄴㅡㄴㄱㅜ	-8262
▁GL	-8263
▁ㅇㅏㅂㅅㅏㄹ	-8264
▁ㅋㅡㄹㄹㅏㄱ	-8265
▁ㅂㅜㄹㅅㅣㄴ	-8266
ㅁㅓㅅㄷㅐ	-8267
▁ㅎㅕㅂㄱㅗㄱ	-8268
▁ㄷㅏㄴㅌㅔ	-8269
▁ㅈㅣㄴㅎㅡㄺ	-8270
▁ㄱㅣㅁㅈㅓㅇㅇㅡㄴ	-8271
▁ㄴㅗㅇㅇㅓ	-8272
▁ㄷㅏㅁㄷㅏㅇㅈㅏ	-8273
ㅈㅓㅇㄱㅘㄴ	-8274
▁Song	-8275
ize	-8276
▁ㅂㅗㄱㅇㅡㅁ	-8277
▁ㅊㅜㄹㅅㅐㅇㅈㅣ	-8278
▁ㄷㅡㄴㄷㅡㄴ	-8279
▁ㄱㅕㅇㅊㅏㄹㄱㅘㄴ	-8280
ㅊㅓㄴㄷㅗㅇ	-8281
▁ㅎㅡㅂㅇㅕㄴ	-8282
▁1948	-8283
▁ㄱㅏㅇㅇㅠ	-8284
▁ㅅㅜㄴㅈㅣㄴ	-8285
▁208	-8286
▁1941	-8287
oud	-8288
VEL	-8289
▁FN	-8290
less	-8291
▁235	-8292
▁Act	-8293
▁ㅌㅡㄱㅊㅘㄹ	-8294
▁FE	-8295
▁ㄱㅜㄷㅇㅓ	-8296
▁206	-8297
▁May	-8298
▁ㄷㅏㄴㅈㅗ	-8299
▁ㅂㅏㄱㅅㅔ	-8300
ㅇㅡㅁㄲㅓㅅ	-8301
▁ㅅㅣㄴㅇㅝㄴ	-8302
95	-8303
ㅇㅞㄴ	-8304
▁ㅁㅠㄹ	-8305
▁ㅎㅘㄴㄱㅏㄱ	-8306
▁ㅊㅓㄴㅎㅘㅇ	-8307
▁ㅇㅠㄱㅈㅣ	-8308
▁ㅇㅣㅇㅋㅡ	-8309
▁ㅈㅏㅇㅂㅕㅇ	-8310
▁ㅎㅕㄴㅁㅕㅇ	-8311
ㅇㅣㄹㄹㅗ	-8312
▁ㅈㅓㅇㅅㅔ	-8313
▁ㅈㅗㄹㄱㅐ	-8314
▁em	-8315
▁ㅈㅓㅇㄷㅗㅇ	-8316
▁ve	-8317
▁ㄱㅣㅁㅎㅏ	-8318
▁ㅇㅟㄴㅅㅡ	-8319
▁NG	-8320
▁ㅈㅓㄴㅈㅓㄴ	-8321
▁ㅅㅓㅇㅁㅗ	-8322
▁ㅌㅏㅁㅇㅛㄱ	-8323
▁ㅁㅏㄴㄷㅜ	-8324
▁ㅅㅜㄹㅌㅏㄴ	-8325
▁161	-8326
▁ㅁㅣㄴㅇㅕㅇ	-8327
▁ㅎㅏㄴㅈㅗ	-8328
ㅇㅕㅇㅈㅏㅇ	-8329
▁ㅂㅜㄴㄱㅕㅇ	-8330
▁ㅅㅏㅂㅎㅘ	-8331
▁ㅈㅣㄱㄱㅏㅁ	-8332
▁ㅁㅜㄴㅎㅓㄴ	-8333
ape	-8334
aka	-8335
▁ㄴㅓㅁㅊㅕ	-8336
▁ㅇㅣㅂㅁㅏㅅ	-8337
▁ㄱㅘㄴㅇㅏㄱ	-8338
MC	-8339
ger	-8340
▁ㅂㅜㄹㅅㅏㅇ	-8341
ㅁㅓㄱㅇㅣ	-8342
▁ㅅㅓㄴㅊㅔ	-8343
▁Rain	-8344
▁Hey	-8345
▁That	-8346
▁ㅇㅑㅇㄴㅕㅁ	-8347
▁ㅅㅏㄹㄹㅏ	-8348
▁ㅌㅏㄹㅇㅗㄱ	-8349
ORM	-8350
▁ㅎㅡㄱㅂㅐㄱ	-8351
▁ㅅㅓㅇㅊㅔ	-8352
UB	-8353
ㄱㅡㅂㅅㅏ	-8354
▁ㄱㅗㅇㄷㅗㅇㅊㅔ	-8355
▁ㅇㅝㄴㄱㅕㄱ	-8356
▁ㅂㅜㄱㅂㅏㅇ	-8357
▁ㅇㅣㅁㄱㅘㄴ	-8358
▁ㅅㅓㅇㄴㅕ	-8359
▁ㅇㅣㅁㅍㅡ	-8360
▁con	-8361
▁ㅅㅓㅁㅅㅔ	-8362
IST	-8363
▁ㅈㅓㄴㅌㅐ	-8364
▁TD	-8365
▁1949	-8366
bps	-8367
▁850	-8368
96	-8369
▁ㅇㅣㄹㅆㅜ	-8370
ㄱㅗㅇㄱㅕㄱ	-8371
▁FX	-8372
▁ㅅㅡㅇㄱㅣ	-8373
▁ㅂㅜㄴㅅㅏ	-8374
▁ㅍㅜㅇㅈㅏ	-8375
▁1936	-8376
▁ㅍㅕㅇㅇㅝㄴ	-8377
▁ㄱㅏㄹㄹㅐ	-8378
ㅇㅕㅇㅅㅜ	-8379
▁ㅋㅏㄴㄴㅏ	-8380
▁ㅈㅓㅇㅇㅠ	-8381
ㅂㅏㅇㅎㅑㅇ	-8382
▁ㄱㅡㅁㄱㅣ	-8383
ㅈㅜㅇㄱㅜㄱ	-8384
▁ㄷㅏㅇㄷㅏㅇㅎㅣ	-8385
▁ㅌㅗㅇㅇㅛㅇ	-8386
▁God	-8387
▁ㄷㅏㄴㄷㅏ	-8388
zy	-8389
▁ㅂㅚ	-8390
ㅇㅏㄴㄱㅜㄴ	-8391
▁ㅅㅐㄱㅊㅐ	-8392
▁ㅈㅣㄴㄱㅜㄴ	-8393
▁ㅈㅣㅂㄱㅕㄹ	-8394
ita	-8395
▁want	-8396
▁ㅊㅏㅇㅇㅢ	-8397
▁GAM	-8398
ㅇㅣㄴㄷㅓ	-8399
▁ㅅㅗㄴㅎㅡㅇ	-8400
rop	-8401
▁ㅌㅔㄴㅅㅕㄴ	-8402
▁ㄱㅕㄴㅇㅣㄴ	-8403
▁ㄷㅏㄴㅅㅓㄴ	-8404
▁ㅊㅏㅇㅅㅣ	-8405
76	-8406
▁ㅎㅏㄱㅊㅏㅇ	-8407
ㅅㅓㄴㄷㅗ	-8408
▁ㄱㅏㅇㅂㅕㄴ	-8409
▁ㄱㅘㅇㅂㅜ	-8410
ㅅㅓㄱㅂㅓ	-8411
▁ㄴㅏㄹㄹㅏ	-8412
▁ㅈㅜㄹㄱㅗㄷ	-8413
▁ㅎㅏㅇㅅㅗㄱ	-8414
▁ㅂㅐㄱㅅㅐㄱ	-8415
▁ㅅㅐㅇㅁㅜㄹㅎㅏㄱ	-8416
IGHT	-8417
▁ㅍㅗㄱㅍㅗ	-8418
▁290	-8419
▁ㅈㅔㄹㄷㅏ	-8420
ㄱㅙ	-8421
▁ㅃㅏㄱㅃㅏㄱ	-8422
▁ㅈㅓㅂㅅㅣ	-8423
▁ㅎㅐㅇㅌㅐ	-8424
▁ㅂㅔㅇ	-8425
▁ㅂㅣㄱㅌㅓ	-8426
▁ㅂㅓㄹㅊㅣㄱ	-8427
▁ㄴㅏㅊㅅㅓㄹ	-8428
▁ㅂㅏㄱㅁㅣㄴ	-8429
▁ㅇㅣㅂㅊㅔ	-8430
ㅅㅣㄴㅎㅕㅇ	-8431
▁Battle	-8432
▁Pe	-8433
▁ㅅㅗㅇㄱㅜ	-8434
net	-8435
▁ㄷㅏㄴㄱㅏㄴ	-8436
▁Moon	-8437
▁more	-8438
ara	-8439
▁ㅂㅏㄴㅊㅣㄱ	-8440
ㄱㅡㅇ	-8441
▁ㅅㅗㄴㅎㅡㅇㅁㅣㄴ	-8442
▁Game	-8443
▁ㅇㅣㄴㅈㅏㅇ	-8444
▁ㅅㅗㄴㄴㅕ	-8445
▁CCTV	-8446
ward	-8447
ㄹㅓㄱㅅㅡ	-8448
▁Bra	-8449
▁ㅇㅕㄹㅂㅏㄷ	-8450
com	-8451
▁RF	-8452
▁ㅇㅕㄱㄱㅣ	-8453
▁ㄴㅗㄱㅇㅏ	-8454
▁ㅁㅐㄱㄷㅗ	-8455
▁ㅉㅜ	-8456
ren	-8457
▁ㅈㅣㄱㄱㅘㄴ	-8458
▁max	-8459
▁ㄱㅏㄴㅅㅣㄱ	-8460
▁ㅅㅏㅇㅇㅝㄴ	-8461
▁ㅂㅕㄴㅈㅗㅇ	-8462
▁ㄹㅐㅅ	-8463
▁ㅂㅕㅇㅁㅏㅅ	-8464
▁ㅇㅏㄹㅂㅣ	-8465
▁ㅈㅓㄴㄴㅕㄴ	-8466
row	-8467
ㅇㅓㄴㅈㅓㅇ	-8468
▁ㅍㅕㅇㅁㅣㄴ	-8469
▁UFO	-8470
ㅇㅜㄹㅇㅕㄱ	-8471
▁RAM	-8472
▁TEC	-8473
▁ㅈㅏㅁㅂㅗㄱ	-8474
▁ㅁㅏㄷ	-8475
ㄱㅜㅇㅊㅏㅇ	-8476
▁ㅅㅗㅇㅂㅕㅇ	-8477
bo	-8478
▁ㅋㅗㄴㅌㅔ	-8479
ㅍㅣㅇㅁㅗㄹ	-8480
▁ㄱㅕㄱㄷㅗㄹ	-8481
ㅈㅓㄴㄱㅣ	-8482
▁ㅃㅏㄱㅅㅔ	-8483
▁Top	-8484
▁Dragon	-8485
▁CEO	-8486
▁ㅊㅜㅇㅅㅓㅇㅅㅣㅁ	-8487
▁ㄱㅕㅇㅇㅣㄴ	-8488
▁ㄱㅕㄱㄴㅗ	-8489
▁SUP	-8490
▁ㄴㅏㄴㅈㅓㄴ	-8491
▁ㅋㅗㄴㅋㅡ	-8492
▁Special	-8493
▁ㅇㅕㄴㄹㅜ	-8494
ㅇㅏㅁㄷㅗㅇ	-8495
ㅍㅣㅇㅋㅡ	-8496
▁ㅅㅓㄴㄱㅜ	-8497
▁ㅊㅓㅇㅅㅐㄱ	-8498
▁ㄹㅏㄹㄲㅏ	-8499
▁212	-8500
▁Track	-8501
ㅍㅡㄹㄹㅣㅅ	-8502
▁FFFF	-8503
ㅇㅙ	-8504
ㅇㅔㅁ	-8505
ㅇㅛㄴ	-8506
▁ㄱㅐㅂ	-8507
▁ㅇㅓㄴㄹㅏㄱ	-8508
▁ㄴㅗㄴㅎㅏ	-8509
▁ㅂㅏㄹㅅㅏㅇ	-8510
▁ㅈㅓㅇㅈㅏ	-8511
▁ㅈㅡㄹㄱㅓ	-8512
▁ㅅㅣㄹㅎㅓㅁㅅㅣㄹ	-8513
▁ㅇㅘㅇㄱㅜㅇ	-8514
▁ㅈㅓㅇㄹㅕㄹ	-8515
LD	-8516
▁ㅅㅞㄹ	-8517
▁ㄹㅓㄴㄴㅣㅇㅁㅐㄴ	-8518
▁ㅎㅕㄴㅈㅗㄴ	-8519
▁ㅍㅏㄹㅇㅏ	-8520
▁ㅅㅗㅇㄱㅗㅅ	-8521
led	-8522
▁ㄴㅏㅁㄱㅜ	-8523
▁ㅅㅓㅇㅅㅓ	-8524
▁Pop	-8525
ㅌㅡㄹㄹㅣㅇ	-8526
aven	-8527
▁ㅋㅓㄴㅌㅔ	-8528
▁ㅇㅑㅇㅁㅕㄴ	-8529
▁1955	-8530
ㅂㅏㄷㅊㅣㅁ	-8531
▁ㄴㅔㄱㅅㅡ	-8532
▁ㅎㅚㅇㄷㅏㄴ	-8533
▁ㄷㅏㄴㅅㅣㄴ	-8534
▁ㅅㅓㄴㄱㅗㅇ	-8535
▁ㄷㅡㅁ	-8536
▁ㅇㅕㄹㅍㅜㅇ	-8537
▁ㅂㅐㄹㄹㅣ	-8538
▁ㅊㅣㄴㅁㅣㄹ	-8539
▁ㅎㅑㅇㅅㅜ	-8540
▁ㅎㅓㄴㄷㅔ	-8541
▁ㄱㅜㄱㄹㅕㄱ	-8542
▁ㅈㅏㄱㄹㅕㄹ	-8543
▁ㄹㅓㅂ	-8544
ㅈㅓㅇㅅㅏ	-8545
▁ㄷㅗㄱㅅㅓㅇ	-8546
▁ㅇㅑㄴㄷㅔ	-8547
▁001	-8548
▁PO	-8549
ㅈㅔㅅ	-8550
▁ㄷㅗㅇㅊㅏㅁ	-8551
▁DAY	-8552
▁ㄱㅘㄴㄴㅕㅁ	-8553
▁they	-8554
▁ㄴㅏㅁㅇㅑㅇㅈㅜ	-8555
▁Amer	-8556
▁ㅂㅗㅇㄱㅣ	-8557
▁NS	-8558
▁ㄴㅏㄴㄷㅗㅇ	-8559
ㄱㅅㅕㄴ	-8560
▁LS	-8561
▁ㅂㅜㄱㄱㅡㄱ	-8562
▁1959	-8563
▁ㅃㅓㅇㅌㅟ	-8564
▁ㅈㅓㅇㅎㅕㄴ	-8565
▁baby	-8566
▁ㅇㅑㅇㄷㅗㅇ	-8567
ㄱㅏㄱㅅㅣ	-8568
▁wiz	-8569
ㅈㅣㅂㅇㅓ	-8570
▁ㅆㅡㅂㅆㅡㄹ	-8571
▁ㅇㅏㄹㄹㅜ	-8572
▁ㅎㅏㅂㅂㅏㅇ	-8573
▁ㄷㅓㅇㅋㅡ	-8574
▁ㅎㅔㄹㄹㅔ	-8575
ㅎㅡㄹ	-8576
▁ㅈㅓㄴㅇㅛㅇㄱㅣ	-8577
▁ㅇㅠㄱㅅㅣㄱ	-8578
▁..'	-8579
BM	-8580
▁tw	-8581
ㅇㅓㄴㄱㅏ	-8582
▁ㅇㅕㄹㅈㅓㄴ	-8583
▁ㅁㅜㄴㅇㅢ	-8584
ㄷㅗㅇㅂㅕㄴ	-8585
▁ㅅㅓㅇㅈㅜ	-8586
▁ㄱㅘㅇㅈㅓ	-8587
▁WAR	-8588
▁Cont	-8589
▁ㅈㅣㄴㄱㅘ	-8590
ㄷㅗㅇㅂㅕㄴㅅㅗㄱㄱㅣ	-8591
34	-8592
▁LCD	-8593
ㅁㅜㄴㅈㅏ	-8594
ㄱㅏㄱㅅㅓㄴ	-8595
▁ㅇㅘㅇㄸㅏ	-8596
▁ㄴㅏㅁㅇㅛㅇ	-8597
▁ㅂㅕㄱㄷㅗㄹ	-8598
ㅇㅐㅇ	-8599
▁ㅈㅗㅈ	-8600
▁BASIC	-8601
▁ㅎㅏㄱㄱㅖ	-8602
▁ㅂㅜㄱㄷㅜ	-8603
ㅊㅓㄴㅇㅕㄱ	-8604
▁ㅅㅓㄴㄷㅗ	-8605
ands	-8606
ㅎㅕㄱㅁㅕㅇ	-8607
▁ㄴㅏㄴㅍㅗㄱ	-8608
ien	-8609
▁ㅇㅏㄴㄷㅗ	-8610
▁ㅌㅣㅁㅋㅣㄹ	-8611
▁IDOLM	-8612
▁ㄱㅜㄹㅂㅗㄱ	-8613
▁ㅅㅣㄹㅊㅓㄴ	-8614
ㅁㅕㅇㅅㅔ	-8615
▁ㄱㅗㄱㅅㅓㄴ	-8616
▁ㅈㅔㅅ	-8617
▁ㅅㅣㅁㅍㅡㄹ	-8618
ㅂㅏㅇㅅㅏ	-8619
ㅌㅣㄹㄹㅣ	-8620
▁ㅎㅏㄴㄱㅏ	-8621
▁ㅇㅕㅇㅈㅏㅇ	-8622
▁ㅅㅓㄴㅂㅏㄹㅈㅓㄴ	-8623
▁207	-8624
▁ㅎㅐㅇㅅㅓㄴ	-8625
▁KG	-8626
▁1956	-8627
▁ㅎㅔㄹㄹㅗ	-8628
▁ㅎㅐㅇㄷㅗㅇㄹㅕㄱ	-8629
ㄷㅡㄱㅈㅓㅁ	-8630
▁ㅁㅣㄴㅈㅣ	-8631
ze	-8632
▁NL	-8633
▁ㅈㅏㅇㄹㅐ	-8634
▁ㄱㅕㅇㅈㅐㅇㄹㅕㄱ	-8635
▁520	-8636
▁ㅇㅕㅇㄹㅣ	-8637
▁ㅅㅓㅇㅍㅗㄱㅎㅐㅇ	-8638
▁ㄱㅡㅁㅈㅓㄴ	-8639
▁ㅅㅓㄹㄷㅡㄱㄹㅕㄱ	-8640
▁ㅅㅑㄹ	-8641
▁good	-8642
ㅁㅜㅅ	-8643
ㄱㅕㅇㅁㅣㄴ	-8644
▁ㅎㅐㅁㅂㅓ	-8645
▁ㅅㅓㄱㅌㅏㄴ	-8646
▁Bur	-8647
▁ㄱㅏㅇㄷㅏㅇ	-8648
▁TG	-8649
▁ㅅㅗㄱㅇㅗㅅ	-8650
▁ㄲㅡㅌㅍㅏㄴ	-8651
play	-8652
▁ㅁㅏㄴㅎㅚ	-8653
▁COM	-8654
▁ㅅㅓㅇㄱㅓㅁ	-8655
▁ㅌㅡㄹㄹㅣㅁ	-8656
▁ㅍㅕㄴㅈㅔ	-8657
ㅅㅓㅇㄱㅖ	-8658
▁ㄴㅏㄴㅎㅐ	-8659
▁ㄱㅣㅁㅇㅣㄴ	-8660
▁ㅅㅓㄴㅍㅜㅇ	-8661
▁ㅂㅕㅇㅇㅕㅇ	-8662
ㅈㅏㄱㅈㅓㄴ	-8663
ㄲㅡㅌ	-8664
▁ㄱㅘㅇㅎㅘ	-8665
▁ㅅㅣㄴㄴㅗ	-8666
▁col	-8667
ㅅㅏㅇㅎㅕㄴ	-8668
au	-8669
▁ㅂㅜㄱㅇㅠ	-8670
▁ㅁㅏㄴㄹㅠ	-8671
▁FFFFFF	-8672
▁ㅂㅗㄴㅁㅜㄴ	-8673
ㅇㅜㄴㅈㅓㄴ	-8674
ㄱㅐㅇ	-8675
▁ㅍㅐㄱㅌㅗ	-8676
▁ㅇㅣㄴㅁㅣㄴㄱㅗㅇㅎㅘ	-8677
▁ㅇㅕㄱㅎㅏㄱ	-8678
▁Hot	-8679
orts	-8680
▁209	-8681
▁ㄱㅜㄴㅂㅓㄹ	-8682
▁Project	-8683
▁Mir	-8684
▁over	-8685
▁ㅈㅜㅇㅅㅓㅇ	-8686
▁ㄱㅜㄱㅅㅏ	-8687
▁Yes	-8688
▁ㅋㅏㄹㄹㅓㅁ	-8689
▁ㅇㅕㅇㅊㅏㅇ	-8690
▁ㄱㅡㄹㄹㅣ	-8691
ㅊㅏㅇㄹㅕㄱ	-8692
ㅏㅇㅛ	-8693
▁ㅊㅓㄹㅎㅚ	-8694
▁ㅂㅐㄴㅅㅣ	-8695
ited	-8696
ㅋㅘ	-8697
▁ㅈㅜㅇㅇㅢ	-8698
ㅈㅜㄴㅎㅕㄱ	-8699
ius	-8700
▁ㅇㅡㅁㅇㅑㅇ	-8701
▁ㅇㅣㄹㅈㅣㄱ	-8702
▁ㅇㅔㅁㅍㅏ	-8703
▁ㅁㅕㅇㄹㅕㅇㅇㅓ	-8704
▁Sur	-8705
▁ㅇㅛㄱㄱㅜ	-8706
▁ㄱㅕㅇㅇㅟ	-8707
UK	-8708
▁yeah	-8709
▁ㅇㅠㄱㅂㅏㄱ	-8710
▁ㄱㅡㄱㅊㅏㄴ	-8711
21	-8712
ㅅㅗㄹㄹㅣㄴ	-8713
▁ㅈㅓㄻㅇㅡㄴㅇㅣ	-8714
▁ㅇㅕㄴㅂㅏㅇㄱㅜㄴ	-8715
ㄷㅣㅈㅊㅣ	-8716
▁ㅈㅗㄴㅅㅗㄱ	-8717
ㄹㅣㅁㅅㅡㄴ	-8718
36	-8719
ㅈㅗㅇㅇㅣㄹ	-8720
▁ㅈㅓㅇㅇㅣㄴ	-8721
ㄹㅣㄴㅇㅐ	-8722
▁777	-8723
ㅆㅡㄹㄹㅣ	-8724
▁ㅂㅜㄹㄱㅣ	-8725
▁ㅂㅏㄹㄱㅏㄴ	-8726
▁ㅎㅟㅂㅆㅡㄹㄹㅣ	-8727
▁ㅎㅡㄱㄹㅛㅇ	-8728
▁ㅆㅐ	-8729
▁Off	-8730
▁ㅂㅔㄹㅂㅔㅅ	-8731
▁ㅇㅕㅇㄹㅏㄱ	-8732
▁ㅅㅣㄴㄹㅕㅇ	-8733
▁PA	-8734
▁Int	-8735
ㅂㅏㄹㄹㅣ	-8736
INE	-8737
▁ㄱㅘㅇㅅㅣㄴ	-8738
▁ㅌㅡㄱㅎㅓ	-8739
▁ㅈㅡㅇㅎㅜ	-8740
▁ㅊㅣㄹㅎㅡㄱ	-8741
▁ㅋㅚ	-8742
▁ㄷㅗㅇㅅㅓㄴ	-8743
▁1939	-8744
oney	-8745
ㅇㅣㄴㅅㅡ	-8746
ㅇㅣㅂㄱㅜ	-8747
▁ㅈㅗㅁㅊㅓ	-8748
ata	-8749
▁ㅎㅏㅂㅅㅏㄴ	-8750
ㅂㅡㄹㄹㅐㄴㄷㅡ	-8751
▁TN	-8752
ㅇㅕㄴㅎㅏㅂ	-8753
▁ㅌㅡㄱㄱㅗㅇㄷㅐ	-8754
▁1400	-8755
▁ㅈㅗㅇㅈㅏ	-8756
▁ㄷㅗㅇㅁㅜㄹㅇㅝㄴ	-8757
▁WOR	-8758
▁ㅁㅏㅇㅇㅝㄴ	-8759
▁Ul	-8760
▁Bad	-8761
▁ㅈㅜㅇㅇㅓㄹㄱㅓ	-8762
vent	-8763
ㄴㅏㄴㄷㅗ	-8764
▁ㅇㅐㄴㄷㅓ	-8765
▁ㅅㅣㅁㅅㅣㅁㅊㅏㄶ	-8766
▁ㅎㅘㄹㅈㅜ	-8767
▁TF	-8768
▁ㅋㅏㄹㄹㅗ	-8769
▁ㅁㅗㄴㅌㅔ	-8770
▁ㅂㅐㄱㅅㅣㄴ	-8771
▁ac	-8772
ㄹㅗㄴㅌㅣ	-8773
ㅍㅜㅁㄱㅜㄴ	-8774
▁ㅂㅜㄹㅇㅜㄴ	-8775
UL	-8776
ㄸㅔ	-8777
▁ㅂㅏㄹㅅㅏㄴ	-8778
▁ㅈㅏㅇㅁㅏㄱ	-8779
ㄱㅕㄱㄱㅣ	-8780
▁ㅊㅏㅇㅇㅝㄴㅅㅣ	-8781
ㅎㅏㄴㅎㅏㅇㄱㅗㅇ	-8782
▁Match	-8783
▁Po	-8784
▁ㄱㅡㅁㅅㅓㅇ	-8785
▁ㅇㅣㄴㅍㅡ	-8786
ㄹㅔㄱㅌㅡ	-8787
▁ㅊㅣㄴㅇㅣㄹ	-8788
▁ㅎㅏㄹㄷㅏㅇ	-8789
▁ㄱㅕㅇㅇㅣ	-8790
▁ㄷㅏㅇㅂㅜㄴㄱㅏㄴ	-8791
line	-8792
▁ㅁㅕㄹㅈㅏ	-8793
▁ㅅㅗㄴㅅㅜ	-8794
▁ㅊㅏㅁㅍㅐ	-8795
ague	-8796
▁org	-8797
ㅌㅓㅂ	-8798
▁ㅅㅗㅇㅍㅏ	-8799
▁275	-8800
▁ㅂㅣㄹㅁㅣ	-8801
UST	-8802
▁say	-8803
▁ㅌㅡㄱㅊㅜㄹ	-8804
▁DDR	-8805
▁ㅇㅘㅇㄴㅕ	-8806
▁WCS	-8807
▁ㅊㅓㄴㅊㅔ	-8808
▁ㅌㅏㄹㄱㅓㅅ	-8809
▁ㅊㅐㄱㅇㅣㅁㅈㅏ	-8810
▁ㄷㅡㅇㅅㅏㄴ	-8811
ㄸㅜㄹ	-8812
▁Ass	-8813
▁ㄱㅘㄴㅈㅔ	-8814
▁ㅎㅕㅂㅇㅑㄱ	-8815
▁ㅂㅗㄴㄱㅜㄱ	-8816
▁ㅊㅗㅇㅌㅗㅇ	-8817
▁ㄱㅏㅂㅍㅏㄴ	-8818
▁ㅅㅓㅇㅁㅜㄴ	-8819
▁Are	-8820
▁JC	-8821
▁ㅇㅗㄱㅅㅜ	-8822
▁ㅊㅣㅇㅅㅗㅇ	-8823
▁ㅈㅓㅇㅂㅓㄹ	-8824
▁ㄴㅔㅂㅌㅠㄴ	-8825
▁ㅇㅗㄴㅎㅘ	-8826
▁ㅈㅓㄱㅈㅓㅇ	-8827
▁221	-8828
▁ㅈㅓㄴㅇㅜ	-8829
ㅂㅗㄴㅈㅜ	-8830
▁ㅇㅜㄹㅂㅜ	-8831
▁ㅅㅓㅇㅇㅠ	-8832
▁ㅂㅏㄱㄱㅣ	-8833
ㄴㅡㄹㅅㅐㄱ	-8834
▁ㅅㅣㄴㅊㅗㄴ	-8835
ton	-8836
▁ㅈㅓㄹㅁㅛ	-8837
▁ㅁㅕㅇㅇㅣㄴ	-8838
▁ㄱㅕㅇㅅㅣㄴ	-8839
▁ㄹㅏㄹㅍㅡ	-8840
▁ㄷㅏㄴㅁㅏㄹㄱㅣ	-8841
▁ㅅㅣㄹㅂㅣ	-8842
▁ㄹㅐㄴㄷㅣ	-8843
▁ㅅㅣㅁㅅㅡㄴ	-8844
▁ㅊㅓㅂㅂㅗ	-8845
▁ㅇㅕㄱㅈㅓㄴㅅㅡㅇ	-8846
▁ㅇㅕㅇㅈㅐ	-8847
▁ㄴㅜㄴㅂㅜ	-8848
▁'-	-8849
ㅈㅓㅇㅎㅗ	-8850
▁ㅁㅔㅅㄷㅙ	-8851
ck	-8852
▁KD	-8853
ㄸㅗ	-8854
▁Eng	-8855
78	-8856
▁ㅁㅝㅅ	-8857
▁ㅍㅔㄴㅅㅡ	-8858
▁Char	-8859
▁ㄷㅏㄴㄱㅓ	-8860
ㄷㅜㄹㄱㅣ	-8861
▁}}}}	-8862
ㅌㅐㄴㄷㅣㅇ	-8863
▁ㅅㅓㄴㅁㅕㅇ	-8864
▁ㅈㅜㄹㅈㅜㄹㅇㅣ	-8865
▁see	-8866
▁Core	-8867
▁RED	-8868
▁ㅇㅏㅇㄹㅣ	-8869
▁}}}}}}	-8870
HD	-8871
▁ㄱㅡㅁㄱㅗㄱ	-8872
▁TWICE	-8873
erm	-8874
ㄱㅡㅂㅍㅜㅁ	-8875
▁ㄱㅏㅁㅅㅗㄱ	-8876
▁ㅈㅣㅇㅂㅕㅇ	-8877
ㅊㅔㄴ	-8878
▁ㅅㅣㅁㅍㅗ	-8879
▁ㅍㅜㄹㅂㅐㄱ	-8880
▁~'	-8881
▁ㄱㅏㄱㄱㅣ	-8882
▁ㄱㅗㅇㅂㅕㅇ	-8883
ㅇㅡㄱㄱㅗ	-8884
▁ㅇㅐㄱㅌㅡ	-8885
▁ㄱㅏㅇㅇㅕㄴ	-8886
▁ㅁㅜㄴㅎㅗ	-8887
▁ㄱㅏㄱㅅㅐㄱ	-8888
hy	-8889
▁ㅂㅗㄱㅈㅗㅇ	-8890
ute	-8891
▁Now	-8892
▁ㄱㅗㅇㅅㅓㄱ	-8893
▁BRV	-8894
ㄲㅜㄹ	-8895
ㅅㅡㅇㅇㅜ	-8896
▁ㅈㅓㅇㅇㅕㄴ	-8897
und	-8898
▁216	-8899
▁ㅇㅕㅇㄹㅕㅇ	-8900
▁ㅊㅓㄹㅂㅕㄱ	-8901
▁ㅎㅏㅇㄹㅗ	-8902
▁ㄱㅣㅁㅅㅗ	-8903
ㅇㅞㅂ	-8904
▁1938	-8905
▁ㄷㅏㄴㅂㅐㄱ	-8906
ㅈㅜㄴㅅㅓㄱ	-8907
▁ㅈㅓㄴㄹㅠ	-8908
ㅇㅗㄹㄹㅔㅅ	-8909
▁ㄱㅓㄹㅅㅡ	-8910
ㄷㅗㅇㄷㅏㅇ	-8911
▁213	-8912
ㅅㅣㄹㅎㅣ	-8913
▁ㄱㅏㄴㅈㅏㅇ	-8914
▁Blood	-8915
ㅂㅣㄱ	-8916
▁ㅃㅏㅇㅃㅏㅇ	-8917
ILL	-8918
▁Rob	-8919
▁our	-8920
▁ㅂㅜㄴㅈㅏ	-8921
▁ㅂㅐㄱㅅㅜ	-8922
▁ㅇㅣㅂㅅㅓㅇ	-8923
red	-8924
▁ㅈㅓㅇㅈㅔ	-8925
▁ㅈㅏㄴㄷㅏㅇ	-8926
ㅅㅓㅇㅅㅣ	-8927
ㄸㅗㅇ	-8928
▁ㅂㅏㄹㄷㅗ	-8929
▁ㅁㅣㄴㅈㅗㄱㅈㅜ	-8930
▁Joh	-8931
ㅇㅕㅁㅂㅏㅇㅅㅏ	-8932
▁ㄱㅓㅌㅂㅗ	-8933
▁ㅇㅏㄴㅌㅔ	-8934
ㅂㅏㄼ	-8935
▁ㅅㅓㄹㅅㅏ	-8936
▁ㅈㅓㄴㄱㅏㄹ	-8937
▁ㅂㅗㄹㄹㅣ	-8938
▁ㅎㅑ	-8939
▁1952	-8940
▁ㅂㅜㅇㄷㅐ	-8941
▁Last	-8942
▁2021	-8943
▁ㅈㅜㄴㅇㅣ	-8944
▁ㅎㅕㅂㄱㅗㅇ	-8945
▁ㄱㅣㅁㅎㅕㄴㅅㅜ	-8946
▁ㅅㅣㄴㄱㅗㅇ	-8947
55	-8948
▁fr	-8949
ㅈㅓㄱㅎㅘ	-8950
AA	-8951
▁ㅍㅜㅅㅂㅗㄹ	-8952
ㅌㅡㄹㅍㅣㄹㄷㅡ	-8953
▁ㅇㅛㄴ	-8954
▁ㅇㅘㄴㅈㅜ	-8955
ism	-8956
▁ㅎㅗㅁㄱㅜ	-8957
▁ㅅㅓㄱㅂㅏㅇ	-8958
▁ㅍㅏㄹㄲㅜㅁㅊㅣ	-8959
add	-8960
▁ㄷㅏㅇㄱㅡㄴ	-8961
▁416	-8962
▁ㅌㅏㄴㅅㅜ	-8963
▁ㅇㅣㅁㅈㅣㄴㅇㅙ	-8964
OCK	-8965
▁ㄱㅜㄴㄷㅏㄴㅈㅏㅇ	-8966
▁BW	-8967
▁right	-8968
▁ㄱㅏㅁㄷㅗ	-8969
▁ㅅㅣㄴㅎㅏㄴㅇㅡㄴㅎㅐㅇ	-8970
ㅋㅣㅁ	-8971
ㅂㅓㅂㅇㅝㄴ	-8972
ets	-8973
▁ㅂㅣㄴㅅㅡ	-8974
▁ㅈㅔㄴㅈㅣ	-8975
ㄹㅓㅇㅇㅣ	-8976
▁ㅆㅗㄹㄹㅣ	-8977
▁ㅁㅔㄹㄹㅣ	-8978
▁ㅇㅣㄹㄹㅜ	-8979
III	-8980
▁Magic	-8981
▁XY	-8982
ㅇㅜㅅㅇㅡㅁ	-8983
ㄷㅓㄼ	-8984
ㅅㅏㄴㄹㅣ	-8985
▁ㄷㅗㅇㅍㅗ	-8986
▁ㅎㅐㄱㅁㅜ	-8987
▁ㅇㅏㄴㅊㅣ	-8988
▁ㅅㅓㄴㅎㅕㅇ	-8989
▁ㅎㅟㅂㅆㅡㄹ	-8990
▁ㄷㅗㅇㄱㅜㄱ	-8991
ama	-8992
▁cr	-8993
ㄹㅣㄴㅌㅡ	-8994
ㅌㅐㄴㅅㅡ	-8995
▁ㅅㅓㄴㅂㅣ	-8996
▁ㅇㅏㄴㅈㅜㅇ	-8997
▁ㅊㅓㄴㄷㅗ	-8998
▁ㄱㅘㅇㅎㅏㄱ	-8999
ㅅㅓㅇㅈㅜ	-9000
ㄱㅡㄴㄷㅜ	-9001
▁ㅊㅣㄴㄱㅡㄴ	-9002
88	-9003
▁ㅊㅣㅁㅅㅣㄱ	-9004
ㄹㅏㄴㅊㅡ	-9005
▁ㅈㅜㅇㄹㅕㅇ	-9006
xt	-9007
ASS	-9008
ㅇㅛㅇㅊㅏ	-9009
▁ㅃㅜㅁㅇㅓ	-9010
▁ㅈㅏㅇㄷㅏㄴ	-9011
▁pe	-9012
ㄹㅏㄴㅌㅣ	-9013
ㅂㅏㅇㅅㅣㄱ	-9014
▁Alb	-9015
▁Like	-9016
▁ㅂㅏㄹㅌㅡ	-9017
▁ㅈㅓㄴㄱㅗ	-9018
▁ㅈㅓㅇㅈㅣㄱ	-9019
▁ㅇㅕㄱㄱㅘㄴ	-9020
ㅌㅡㄹㄹㅐㄴ	-9021
▁ㅇㅛㅇㅍㅜㅁ	-9022
OWN	-9023
▁ㅎㅘㅇㅈㅏ	-9024
ㄱㅡㅁㄱㅏ	-9025
▁ㄱㅓㄴㄹㅣㅂ	-9026
ader	-9027
▁ㄱㅕㄹㅂㅕㄹ	-9028
ㅎㅕㄴㄷㅗㅇ	-9029
▁Happy	-9030
▁ㄱㅕㅇㅈㅓㄴㅊㅏ	-9031
▁ㅇㅣㅁㅍㅔ	-9032
▁ㅉㅏㄹㅁㅏㄱ	-9033
▁ㅎㅘㅇㅈㅗㄱ	-9034
▁AMD	-9035
▁ㄷㅏㄴㄷㅏㄴㅎㅣ	-9036
▁ㅇㅔㄹㅅㅗ	-9037
OWER	-9038
ㄱㅗㄴㅈㅡ	-9039
▁ㅌㅗㄱㅌㅗㄱ	-9040
▁ㄱㅣㅁㅇㅕㅇㅅㅏㅁ	-9041
▁ㅅㅐㄴㄷㅣ	-9042
ㅈㅏㅇㅈㅏㅇㅇㅣ	-9043
▁there	-9044
▁Soul	-9045
▁ㅇㅣㄹㅈㅓㅇㄹㅑㅇ	-9046
ther	-9047
▁1300	-9048
▁ㄷㅏㄴㅈㅓㄹ	-9049
▁ㅁㅕㅇㅍㅜㅁ	-9050
▁ㅇㅜㄹㅂㅓ	-9051
▁ㅈㅡㅇㅇㅝㄴ	-9052
ㅍㅏㄴㅅㅗ	-9053
▁NA	-9054
ocal	-9055
▁Nor	-9056
▁ㄱㅘㄴㄷㅐ	-9057
ㅂㅏㄲ	-9058
▁1953	-9059
▁ㄹㅓㄱㅅㅡ	-9060
ㅎㅗㅇㅊㅓㄹ	-9061
ㄴㅕㄴㄷㅏㄴ	-9062
▁ㅅㅓㅇㄱㅡㅂ	-9063
▁ㅈㅏㅇㄷㅗㅇㅁㅣㄴ	-9064
▁HOT	-9065
▁ㅅㅏㄴㅎㅘ	-9066
ㅈㅓㅇㅎㅜㄴ	-9067
ga	-9068
▁ㅈㅏㅇㄴㅕ	-9069
ㄴㅕㅁㅇㅣㄹ	-9070
▁#,	-9071
ㄱㅜㄱㅁㅣㄴ	-9072
▁ㄱㅓㅁㅊㅏㄹㅊㅓㅇ	-9073
▁ㅂㅓㅂㅈㅓㅇㄷㅗㅇ	-9074
▁ㄱㅗㄹㄷㅐ	-9075
▁RR	-9076
▁ㄱㅜㄻㅈㅜ	-9077
ㄱㅗㅇㅈㅜ	-9078
▁223	-9079
▁ㄱㅕㅇㅇㅕㅇㅎㅏㄱ	-9080
ㅋㅔㄹㄹㅔ	-9081
ㅍㅏㄴㄱㅣ	-9082
▁BBC	-9083
▁ㅍㅗㄱㅌㅜ	-9084
▁ㄷㅏㄴㅇㅕㄴ	-9085
▁Party	-9086
▁ㅍㅕㅇㅇㅏㄴ	-9087
▁ㅎㅏㄱㅇㅓㅂ	-9088
▁ㅎㅕㄴㅈㅣㄹ	-9089
▁ㅇㅏㅍㅁㅏ	-9090
▁ㅎㅕㄴㅈㅓ	-9091
▁ㄷㅟㅅㅂㅏㄷㅊㅣㅁ	-9092
uz	-9093
▁ㅅㅏㄴㅊㅔ	-9094
▁ㄱㅏㅇㄴㅏㅁㄱㅜ	-9095
▁ph	-9096
ㅁㅣㄴㅎㅗ	-9097
▁ㅎㅏㄴㄱㅕㄹ	-9098
▁ㅅㅏㅂㅇㅣㅂㄱㅗㄱ	-9099
▁ㅇㅗㄴㅈㅓㄴㅎㅣ	-9100
▁PvP	-9101
▁ㅅㅏㄴㅅㅏㄴ	-9102
▁ㅊㅣㄴㅅㅓㄴ	-9103
▁ㅅㅏㅇㄹㅠ	-9104
▁ㅅㅜㄱㅁㅕㅇ	-9105
▁ㅁㅔㄱ	-9106
▁ㅇㅣㄴㅂㅜㄴ	-9107
▁Edition	-9108
▁girl	-9109
▁ㄲㅡㄶㅇㅣ	-9110
▁ㅇㅣㄴㅅㅣㄴ	-9111
▁Sim	-9112
▁ㅊㅗㅇㄱㅜ	-9113
▁Show	-9114
▁ㅁㅣㄴㅂㅕㅇㄷㅐ	-9115
▁ㅊㅓㄴㄹㅣ	-9116
ㅂㅡㄹㄹㅜ	-9117
▁ㄱㅚㅇ	-9118
▁7000	-9119
▁ㅇㅗㅁㄴㅣ	-9120
▁ㅈㅡㅁ	-9121
▁feel	-9122
ㄱㅗㅇㄱㅐ	-9123
▁ㄱㅜㄴㅈㅜㅇ	-9124
▁ㅅㅏㅇㅈㅓㅇ	-9125
▁ㅎㅕㄴㅎㅐㅇ	-9126
▁Side	-9127
rew	-9128
ㅌㅜㄱㅌㅟ	-9129
▁ㄱㅕㅇㅅㅣ	-9130
▁got	-9131
▁ㅎㅐㅅㅂㅣㅊ	-9132
work	-9133
▁ㅎㅐㅇㅈㅓㅇㅂㅜ	-9134
ㅜㄹㄹㅣ	-9135
▁ㅍㅗㄱㄱㅜㄴ	-9136
▁ㅁㅓㄹㄹㅣㄴ	-9137
▁ㄱㅏㅂㅌㅜㄱㅌㅟ	-9138
▁ㄷㅗㅇㅁㅕㅇㅇㅣ	-9139
ㅌㅏㄹㄱㅣ	-9140
▁ㄷㅜㄴㅎㅘ	-9141
▁ㅇㅕㄱㅈㅓㄴㅍㅐ	-9142
▁net	-9143
ated	-9144
▁ㅈㅡㄱㅅㅓㄱ	-9145
▁ㅂㅏㄹㄹㅔㄴㅅㅣ	-9146
▁ㅇㅓㅂㅈㅗㅇ	-9147
ㅋㅡㄹㄹㅐㄴㄷㅡ	-9148
▁Und	-9149
▁his	-9150
▁ㄹㅡㅇ	-9151
ONE	-9152
▁365	-9153
▁ㅊㅜㄹㅇㅕㄴㅈㅏ	-9154
▁ㅅㅔㄱㅌㅓ	-9155
▁ㅍㅐㄴㅋㅡㄹㄹㅓㅂ	-9156
▁ㄱㅜㄱㅅㅜ	-9157
▁ㅇㅓㅅㄱㅏㄹㄹㅣ	-9158
▁ㅂㅔㄴㅌㅡ	-9159
▁ㅈㅣㅂㅈㅓㅇㄱㅘㄴ	-9160
▁ㅍㅣㄹㄱㅣ	-9161
hammer	-9162
ley	-9163
▁GX	-9164
ㅇㅝㄴㅅㅜ	-9165
▁ㅇㅣㄹㅈㅣㄱㅅㅓㄴ	-9166
▁ㅌㅐㄹ	-9167
▁ㄱㅝㄴㄱㅗ	-9168
▁ㅂㅏㅇㅇㅕㅇㅇㅣㄹ	-9169
ERF	-9170
ster	-9171
▁who	-9172
ㅈㅏㅇㄱㅜ	-9173
▁ㅈㅗㄹㅈㅣ	-9174
ㄹㅗㄹㄹㅏ	-9175
98	-9176
ㅁㅐㅇㅇㅣ	-9177
▁TT	-9178
▁ㅉㅓ	-9179
▁micro	-9180
▁Mark	-9181
ㅈㅗㅇㅅㅓㄱ	-9182
▁ㅅㅓㅇㄴㅏㅁㅅㅣ	-9183
▁ㄹㅏㄴㅌㅡ	-9184
ㅅㅣㄴㅈㅓㄴ	-9185
▁370	-9186
ㅂㅡㄹㄹㅏㅇ	-9187
▁RPM	-9188
▁Cap	-9189
▁Open	-9190
▁ㅅㅓㄴㄱㅡㄹㄹㅏ	-9191
▁ㅌㅗㅇㅎㅏㄱ	-9192
▁ㅈㅣㄴㄱㅗㅇ	-9193
▁ㄱㅘㄴㄱㅓㄴ	-9194
▁ㅁㅜㄱㅈㅣㄱ	-9195
▁Pol	-9196
▁ㅆㅐㅇ	-9197
▁Way	-9198
▁ㄷㅡㄹㅌㅗㅇ	-9199
▁Val	-9200
▁Angel	-9201
▁ㅂㅏㅇㄷㅐ	-9202
▁watch	-9203
▁SKE	-9204
▁ㅇㅡㅇㅈㅣㅇ	-9205
▁ㅅㅓㄴㅈㅣㄴㄱㅜㄱ	-9206
▁Na	-9207
▁ㅈㅣㄴㅎㅐ	-9208
▁ㄹㅣㄱㅅㅡ	-9209
▁ㅇㅜㄴㅈㅓㄴㅈㅏ	-9210
▁ㅇㅡㄴㄱㅏ	-9211
▁ㅅㅐㅇㅂㅏㅇㅅㅗㅇ	-9212
▁ㅂㅔㄱ	-9213
ㅅㅜㄹㄱㅘㄴ	-9214
ㅅㅓㄴㅇㅣㄹㅂㅗ	-9215
48	-9216
▁ㅍㅐㄹㄹㅣ	-9217
▁ㅈㅣㅅㅂㅏㄼ	-9218
▁ㅌㅏㄹㅌㅏㄹ	-9219
▁ㄱㅣㅁㅌㅐㄱㅇㅛㅇ	-9220
ㄴㅜㄱ	-9221
▁ㅇㅕㄱㄱㅘ	-9222
▁ㅇㅏㅍㅉㅗㄱ	-9223
BOX	-9224
▁ㅇㅗㄴㄱㅔ	-9225
ㅁㅜㅅㅇㅣㅍ	-9226
ㅇㅣㅁㄴㅔㅅ	-9227
▁ㄴㅜㄴㅆㅓㅂ	-9228
▁ㅎㅠㅇㅌㅓ	-9229
▁1957	-9230
▁090	-9231
▁ㅎㅣㅁㅆㅡ	-9232
▁Legend	-9233
▁Stage	-9234
▁ㅊㅜㄹㅅㅔ	-9235
▁ㅌㅔㄴㄷㅓ	-9236
▁ㄱㅘㄴㅈㅓㄴ	-9237
▁ㅂㅕㅇㅅㅣㄴ	-9238
▁ㅊㅜㅇㄱㅗㅇ	-9239
ㅅㅓㄴㄱㅓ	-9240
▁ㄱㅣㄴㅈㅏㅇㄱㅏㅁ	-9241
ATE	-9242
▁Comp	-9243
▁ㅇㅏㄴㅅㅣㄱ	-9244
ㄹㅐㅇㅋㅡㄹㄹㅣㄴ	-9245
▁ㅁㅣㄴㅌㅡ	-9246
▁ㄱㅏㄴㅍㅕㄴ	-9247
▁ㅈㅓㅇㅈㅗㅇ	-9248
ird	-9249
ㄱㅡㄹㄹㅣ	-9250
▁ㅅㅓㅇㄷㅗㅇ	-9251
▁ㄱㅘㄴㄱㅘㅇㅈㅣ	-9252
▁ㅈㅜㅇㅅㅏ	-9253
▁ㄱㅐㅇㄷㅏㄴ	-9254
AGE	-9255
ㄱㅏㅁㅊㅣ	-9256
▁ㅂㅜㄴㅅㅜ	-9257
▁ㅇㅝㄴㅇㅓ	-9258
ㅎㅕㅇㅇㅜ	-9259
ura	-9260
▁ㄱㅜㄱㅈㅓㅇㅇㅝㄴ	-9261
▁ㅂㅓㄴㄱㅓ	-9262
▁ㄴㅏㅁㄱㅡㄱ	-9263
▁Fall	-9264
ㄷㅡㅂㄴㅏ	-9265
▁ㅍㅜㅇㅅㅗㄱ	-9266
ㄷㅜㄹㄹㅣ	-9267
▁ㅅㅏㄴㅎㅗ	-9268
▁ㅎㅘㄴㅂㅜㄹ	-9269
ㅅㅐㅇㅊㅜㅇ	-9270
▁ㄱㅝㄴㅇㅕㄱ	-9271
▁ㄷㅗㅇㅅㅏㄴ	-9272
▁life	-9273
stem	-9274
▁245	-9275
▁Sam	-9276
ㅈㅣㅍ	-9277
▁ㅂㅐㄱㄹㅛㅇ	-9278
▁950	-9279
▁Fly	-9280
▁ㅇㅕㄱㅈㅓㄴㅈㅐ	-9281
▁ㅂㅏㅇㅈㅓㅇㅅㅣㄱ	-9282
▁First	-9283
▁ㅈㅗㄹㄹㅣ	-9284
▁ㅂㅗㄹㅇㅣㄹ	-9285
▁Perf	-9286
▁ㅂㅜㄴㅈㅓㄴ	-9287
▁ㅌㅐㅁ	-9288
▁ㅅㅗㄱㅅㅏ	-9289
▁ㅊㅗㅇㅎㅚ	-9290
▁ㅅㅏㅇㄱㅗ	-9291
▁ㅊㅓㄴㅇㅕㄴㄱㅏ	-9292
▁ㅎㅐㅇㄱㅏㄱ	-9293
▁ㅅㅣㅁㅂㅜ	-9294
▁ㄱㅕㅇㅇㅢ	-9295
▁ㅂㅗㄱㄱㅏㄱ	-9296
▁ㄷㅏㄴㅂㅐㄱㅈㅣㄹ	-9297
▁ㅂㅗㄴㄷㅡ	-9298
▁ㅌㅔㅁㅍㅡㄹㄹㅓ	-9299
ㄴㅏㄴㄷㅔ	-9300
▁-!	-9301
▁ㄱㅡㅂㅅㅏㅇ	-9302
▁ㅉㅗㄱㅈㅣ	-9303
▁ㅅㅓㄴㅊㅓㄴ	-9304
▁ㅈㅓㅇㅈㅜㅇ	-9305
arius	-9306
▁ㅇㅣㄹㅉㅣ	-9307
ㅁㅐㅂ	-9308
ㅌㅏㅇㅅㅡ	-9309
▁ㅊㅓㅁㄱㅏ	-9310
▁ㅊㅣㄴㅎㅘ	-9311
▁ㄱㅗㄹㄱㅗ	-9312
▁ㅇㅏㄱㅂㅗ	-9313
ㄱㅕㄱㄷㅐ	-9314
udio	-9315
ㅇㅣㅂㅂㅜ	-9316
▁ㅂㅏㄱㅌㅐ	-9317
▁ㅂㅜㄺㅇㅡㄴㅅㅐㄱ	-9318
ㅅㅏㅇㄱㅜㄴ	-9319
▁ㅁㅗㅁㅈㅣㅂ	-9320
err	-9321
ㅇㅓㅂㄱㅏ	-9322
▁ㄷㅏㄴㅂㅓㄴㅇㅔ	-9323
▁ㅅㅓㄴㅎㅏ	-9324
▁Class	-9325
▁ㅇㅓㄱㅇㅏㅂ	-9326
ㅎㅑㅇㄱㅗㄱ	-9327
▁!!!	-9328
▁Spring	-9329
▁234	-9330
▁ㅈㅣㄱㄱㅖ	-9331
▁ㅈㅏㄹㅅㅐㅇㄱㅣ	-9332
▁City	-9333
▁Break	-9334
▁ㅆㅡㄹㅆㅡㄹ	-9335
▁540	-9336
▁Er	-9337
▁ㄴㅗㅇㅂㅜ	-9338
▁ㅌㅏㄹㅈㅜ	-9339
▁ㅂㅗㅁㅂㅓ	-9340
▁ㄲㅗㅁㅉㅏㄱ	-9341
▁ㄱㅣㄹㅁㅗㄱ	-9342
▁ㅁㅕㅇㅈㅏㅇㅁㅕㄴ	-9343
ㄹㅜㅅ	-9344
▁ㅊㅓㄱㅎㅏ	-9345
▁Final	-9346
ㅁㅓㅁ	-9347
▁ㄱㅗㅇㅅㅣ	-9348
▁ㅈㅏㄴㅇㅕ	-9349
ㅋㅐㅅ	-9350
▁ㄱㅡㅁㅅㅓ	-9351
▁ㄴㅗㅇㅊㅗㄴ	-9352
ㅁㅣㅌ	-9353
▁ㅅㅣㄴㄴㅕㄴ	-9354
▁ㅊㅜㅇㅅㅣㄹㅎㅣ	-9355
▁ㅎㅕㄴㅅㅜ	-9356
ㄲㅐㅇ	-9357
▁~?	-9358
REME	-9359
▁ㅇㅏㅁㅅㅡ	-9360
▁Free	-9361
▁ㅇㅑㅇㄷㅗ	-9362
▁ㅈㅓㅇㅇㅠㄴ	-9363
▁Down	-9364
▁ㅈㅓㄴㄱㅕㅇ	-9365
▁top	-9366
▁ㄹㅏㄴㄷㅏ	-9367
▁ㅅㅜㄴㅅㅜㄴ	-9368
yes	-9369
▁ㅊㅓㄹㅌㅚ	-9370
▁ㅋㅗㄴㄷㅗ	-9371
ling	-9372
ㅅㅗㅇㅅㅓㄴ	-9373
▁ㅈㅓㅇㅈㅓㄱ	-9374
▁440	-9375
▁ㅅㅑㄹㄹㅗ	-9376
▁ㄱㅜㄱㅁㅜㄹ	-9377
▁ㅇㅑㅇㅍㅕㅇ	-9378
TH	-9379
▁ㄷㅗㄹㅍㅜㅇ	-9380
▁ㅇㅛㄱㅁㅓㄱ	-9381
▁ㄱㅕㅇㅅㅜㄴㅇㅑㅇㅎㅏㅁ	-9382
▁Never	-9383
▁ㅇㅣㄹㅅㅓㄴ	-9384
ㅋㅓㄴㄷㅐ	-9385
ㄱㅓㄴㅅㅓㄹ	-9386
▁249	-9387
▁MAN	-9388
▁ㅂㅐㄱㅈㅣ	-9389
▁If	-9390
▁ㅊㅜㅇㄷㅗㅇ	-9391
▁ㅅㅡㄹㅉㅓㄱ	-9392
ux	-9393
▁ㅅㅣㄴㅈㅗㅇ	-9394
▁Cor	-9395
▁How	-9396
▁Mon	-9397
ㅅㅂㅣㅊ	-9398
▁1947	-9399
ㅎㅕㅇㅈㅔ	-9400
▁ㅉㅣㅁ	-9401
▁ㅇㅡㅁㄹㅏㄴ	-9402
ㅇㅣㄴㅅㅜ	-9403
▁IF	-9404
tm	-9405
ㅅㅓㄹㅌㅡ	-9406
▁ㄱㅡㄱㅅㅓㅇ	-9407
▁ㅁㅕㄴㅇㅡㄴ	-9408
▁-.	-9409
ㅅㅓㄹㅈㅏ	-9410
▁ㅇㅣㄹㄱㅏㄹ	-9411
ㄴㄷㅐ	-9412
▁ㄱㅡㄴㄹㅐ	-9413
ㄹㅡㄴㅅㅐㄱ	-9414
▁ㄲㅕ	-9415
ㅇㅣㄹㄱㅣ	-9416
ause	-9417
▁ㅇㅏㅁㄱㅣ	-9418
▁ㄹㅣㅇㅋㅓㄴ	-9419
▁ㅇㅔㄱㅅㅔㄹ	-9420
IME	-9421
▁PRO	-9422
▁ㄱㅣㅁㅎㅗ	-9423
▁ㅂㅏㄴㄷㅏㄹ	-9424
▁ㄴㅡㅇㄷㅗㅇ	-9425
tain	-9426
▁ㅁㅕㅇㅇㅡㄴ	-9427
▁Swe	-9428
▁ㅈㅓㅇㄷㅐ	-9429
▁ㅍㅡㄹㄹㅐㅅㅍㅗㅁ	-9430
erry	-9431
▁ㄱㅡㄴㅎㅘㅇ	-9432
▁GOT	-9433
▁Mem	-9434
▁ㅊㅗㅇㅈㅐ	-9435
▁ㅇㅏㄱㅇㅣㄴ	-9436
▁ㅇㅗㅂㅅㅡ	-9437
▁ㅇㅏㅁㅎㅡㄱㄱㅣ	-9438
ㅈㅓㄴㄱㅘㅇㅇㅕㄱㅅㅣ	-9439
▁ㄲㅏㅁㅃㅏㄱ	-9440
▁ㅊㅜㅇㄱㅗㅇㄲㅐㅇ	-9441
▁ㅁㅐㄴㄴㅏㄹ	-9442
▁011	-9443
▁ㅇㅣㅁㅇㅛㅇ	-9444
▁ㅅㅜㄴㅅㅜㄴㅎㅣ	-9445
▁ㅆㅏㅁ	-9446
ㅅㅐㅇㅇㅑㅇ	-9447
▁226	-9448
iny	-9449
▁ㅇㅔㅁㅂㅡㄹㄹㅓㅁ	-9450
▁219	-9451
▁ㅇㅡㄿ	-9452
▁ㅍㅣㄹㅅㅡㅇ	-9453
ㅇㅑㅇㄱㅜㄴ	-9454
▁sk	-9455
▁ㅈㅣㄻ	-9456
▁ㅈㅏㄱㅁㅜㄹ	-9457
▁Sn	-9458
▁ㅂㅏㄱㅎㅏ	-9459
▁ㄱㅕㄱㄴㅏㅂ	-9460
▁ㅈㅏㅇㅎㅏㄱㄱㅡㅁ	-9461
▁ㅅㅓㅇㅎㅢ	-9462
ㅎㅏㅇㄱㅜㄴ	-9463
▁ㅁㅏㅈㅊㅜㅁ	-9464
ㅇㅝㄴㅈㅣ	-9465
ㅂㅓㄱㅈㅣ	-9466
▁ㅈㅣㄴㅎㅐㅇㅎㅏ	-9467
▁ㅅㅏㅅㅍㅗ	-9468
▁ㄱㅣㅁㅈㅔ	-9469
▁ㄸㅓㄹㄹㅣ	-9470
raft	-9471
▁ㅇㅘㄴㅍㅐ	-9472
▁ㅎㅗㄴㄴㅏ	-9473
▁ㅎㅣㅁㄱㅕㅂ	-9474
▁ㅂㅜㄴㄱㅘ	-9475
▁ㅇㅕㄴㅇㅏㄴ	-9476
▁ㅈㅐㅇㅌㅏㄹㅈㅓㄴ	-9477
▁ㄹㅜㅇ	-9478
▁BP	-9479
▁ㅇㅕㄴㅅㅓㅇ	-9480
▁ㄱㅕㅇㅈㅓㄴㅊㅓㄹ	-9481
ㅈㅣㄴㅇㅜ	-9482
▁ㅈㅓㅇㄱㅕㅇ	-9483
▁ㅂㅓㅁㅈㅜ	-9484
▁ㅎㅣㅁㄴㅐ	-9485
▁ㅇㅑㅁㅈㅓㄴ	-9486
▁ㄱㅏㄴㅅㅏ	-9487
▁ㅍㅏㄴㄱㅘ	-9488
▁end	-9489
▁ㅅㅏㄴㅌㅗ	-9490
de	-9491
▁aqu	-9492
ㅌㅡㄹㄹㅐㄴㅌㅏ	-9493
▁ㅈㅓㅁㅍㅗ	-9494
ㅇㅜㄴㅌㅣㄴ	-9495
▁ㅁㅗㅁㅊㅔ	-9496
74	-9497
▁ㅇㅔㅁㅂㅡㄹㄹㅔㅁ	-9498
▁ㅎㅙ	-9499
ival	-9500
▁make	-9501
▁EXTREME	-9502
▁ㅇㅐㄱㅅㅔㄹ	-9503
▁ㄱㅡㅁㅎㅏ	-9504
▁ㅁㅏㄴㅇㅏㄱ	-9505
▁ㅎㅏㄴㅅㅓㅇ	-9506
▁ㅇㅏㄹㅋㅗ	-9507
▁ㅇㅏㄱㅈㅣㄹ	-9508
▁ㅇㅛㅇㅇㅘㅇ	-9509
▁ㄷㅐㄹㄹㅓ	-9510
▁cont	-9511
▁9000	-9512
ㅍㅕㅇㄱㅠㄴ	-9513
que	-9514
▁ㅈㅜㅇㅍㅏ	-9515
ㅇㅑㄴㅅㅐㄱ	-9516
▁ㅅㅓㄴㅇㅕㄱ	-9517
▁ㄸㅡㄴㄱㅗㅇ	-9518
▁ㄱㅏㅁㅇㅕㅁㅈㅏ	-9519
ㄲㅡㄹㄹㅣ	-9520
▁"..	-9521
▁1951	-9522
▁ㅎㅘㄹㄱㅣ	-9523
▁ㅈㅜㄴㅈㅏㅇ	-9524
▁ㅈㅜㅇㅅㅜㄴㅇㅑㅇㅎㅏㅁ	-9525
▁Hol	-9526
▁play	-9527
ㅇㅏㄴㅌㅏ	-9528
▁Christ	-9529
▁ㄴㅏㅁㅊㅣㄴ	-9530
▁ㄱㅡㅂㅅㅏㅇㅅㅡㅇ	-9531
▁ㅁㅜㄴㅈㅣ	-9532
▁ㅂㅕㄴㅎㅏㅁ	-9533
22	-9534
▁ㄱㅏㅂㅈㅜ	-9535
▁ㅇㅏㅍㅈㅏㅇ	-9536
▁ㄱㅗㅇㅈㅜㅇㅈㅓㄴ	-9537
▁375	-9538
▁ㅂㅜㄹㅎㅓ	-9539
▁AW	-9540
▁MIX	-9541
▁part	-9542
▁ㅅㅏㅇㄱㅕㅇ	-9543
▁233	-9544
▁ㅊㅗㅅㅂㅜㄹ	-9545
▁228	-9546
ㄷㅗㅇㄷㅐ	-9547
▁ㅅㅜㄴㅈㅗ	-9548
▁ㅁㅗㅇㄸㅏㅇ	-9549
RO	-9550
▁1914	-9551
▁ㅆㅏㅇㅇㅛㅇ	-9552
▁ㅇㅜㄴㅇㅣㅁ	-9553
▁ㅎㅘㄹㅇㅑㄱㅅㅏㅇ	-9554
▁ㅊㅓㅇㅁㅜㄴ	-9555
▁ㅇㅡㅁㅅㅣㄱㅈㅓㅁ	-9556
▁ㄴㅜㅂㅎㅣ	-9557
▁ㅊㅣㅁㅊㅔ	-9558
▁ㅇㅏㄹㅁㅏㅈ	-9559
▁ㅇㅑㅇㅈㅣ	-9560
▁ㅈㅓㄴㄱㅘ	-9561
▁ㄴㅡㅇㅇㅛㄱ	-9562
▁ㅅㅏㅇㅇㅣㅁ	-9563
▁224	-9564
idd	-9565
ino	-9566
▁ㅁㅏㄴㅇㅜ	-9567
▁again	-9568
▁ㅂㅗㄱㄱㅝㄴ	-9569
erg	-9570
▁ㅋㅡㄴㅇㅣㄹ	-9571
▁ㅈㅓㄹㅇㅑㄱ	-9572
▁ㅇㅏㄱㅈㅏㅇ	-9573
▁ㅂㅏㄱㅂㅕㅇㅎㅗ	-9574
▁ㅂㅗㅇㅎㅏ	-9575
▁ㄷㅏㄴㅌㅏ	-9576
▁ㅉㅏㅇㄱㅜ	-9577
ㅈㅏㅇㅍㅏㄴ	-9578
▁ㄱㅗㅇㅊㅐ	-9579
ORA	-9580
▁ㅂㅣㄹㅎㅔㄹ	-9581
▁ㅅㅣㄱㅇㅣㄴ	-9582
▁ㅅㅜㄴㅅㅏㄱ	-9583
▁ㄸㅣㅇ	-9584
▁ㅈㅐㅂ	-9585
▁Club	-9586
▁ㅅㅣㄴㅁㅣㄴ	-9587
▁ㅍㅗㄹㄹㅏ	-9588
▁ㅈㅓㄴㄹㅕㅇ	-9589
ONG	-9590
▁ㅂㅓㄴㅇㅕㅇ	-9591
▁ㅅㅓㄴㅂㅕㄹ	-9592
▁ㅇㅣㄱㅁㅕㅇ	-9593
▁ㄱㅗㄷㅇㅣ	-9594
▁ㄱㅡㄹㅆ	-9595
ya	-9596
▁ㅋㅓㄹㄹㅣㅇ	-9597
▁ㅈㅜㅇㄱㅗㅇㅇㅓㅂ	-9598
ㄹㅓㅂㅎㅣ	-9599
▁RX	-9600
▁ㅇㅕㄴㅎㅗ	-9601
▁ㄱㅘㅇㅍㅗㄱ	-9602
▁ㄷㅗㅇㄱㅡㅂㅅㅐㅇ	-9603
▁heart	-9604
ㅅㅋㅗ	-9605
▁410	-9606
▁ㅍㅕㄴㄷㅗ	-9607
▁ㅇㅝㄹㅌㅓ	-9608
▁Cry	-9609
▁Come	-9610
HN	-9611
▁ㄱㅓㅁㄷㅗ	-9612
▁ㅁㅔㄴㅌㅗ	-9613
ㅅㅡㅇㅎㅜㄴ	-9614
▁WHIP	-9615
▁ㅊㅗㅇㄷㅐ	-9616
▁ㅈㅜㅇㅊㅜ	-9617
▁ㅌㅡㄱㅊㅜㄹㄴㅏ	-9618
▁ㄱㅓㅁㄱㅣ	-9619
▁ㅎㅏㅂㄱㅡㅁ	-9620
lo	-9621
ㅁㅍㅣㅇ	-9622
▁NORM	-9623
▁KE	-9624
▁ㅋㅗㅇㄷㅜ	-9625
▁ㅍㅏㄴㅂㅗㄴ	-9626
▁APC	-9627
▁ㅃㅐㄱ	-9628
▁ㄱㅓㅂㅈㅐㅇㅇㅣ	-9629
ㄱㅕㄹㅅㅏ	-9630
▁ㅇㅣㄴㅅㅡㅇ	-9631
ㄸㅡㄷ	-9632
▁ㅂㅏㅇㄱㅘㄴ	-9633
▁ㅈㅏㅁㅅㅣㄱ	-9634
▁ㅂㅔㄴㅊㅡ	-9635
▁never	-9636
▁ㅈㅓㅇㅁㅜ	-9637
ㅂㅔㄹㅌㅡ	-9638
▁ㅌㅗㅇㅇㅕㄱ	-9639
▁ㅅㅓㅇㅂㅓㅁㅈㅚ	-9640
▁ㅇㅏㄹㅁㅗㅁ	-9641
▁ㅇㅡㅁㄹㅕㄱ	-9642
▁ㅍㅐㄹ	-9643
▁ㅃㅡ	-9644
▁ㄲㅗㄱㄷㅐ	-9645
ㅅㅏㄴㅁㅕㄴ	-9646
▁ㅅㅗㄴㅊㅐㄱ	-9647
▁ㅈㅏㄴㅈㅐ	-9648
BY	-9649
▁1937	-9650
ㅁㅏㄴㄷㅏ	-9651
ㅅㅗㅅ	-9652
▁ㄹㅣㄴㄷㅏ	-9653
ㄹㅣㅇㅋㅡ	-9654
▁ㅈㅓㄴㄴㅕㅁ	-9655
▁ㅁㅏㄱㅁㅏㄹ	-9656
▁ㅇㅔㄹㄹㅣㄱ	-9657
▁ㅈㅓㄱㄱㅣ	-9658
▁ㄱㅣㅂ	-9659
▁ㅎㅕㄴㅁㅜ	-9660
▁ㅂㅜㄹㅂㅜㄴ	-9661
ㅁㅣㄴㅅㅜ	-9662
▁ㅅㅜㅁㄱㅕㄹ	-9663
▁NORMAL	-9664
OUR	-9665
▁ㄱㅓㄷㅇㅓ	-9666
▁ㅇㅏㄹㅌㅡ	-9667
▁ㅇㅡㄴㅎㅗㄴ	-9668
▁ㅈㅓㄴㅂㅗㄱ	-9669
▁ㅈㅣㄱㅈㅣㄴ	-9670
▁ㅂㅓㅂㅈㅗ	-9671
▁ㅋㅏㄹㄷㅔ	-9672
▁ㅇㅣㅂㄷㅏㅇ	-9673
▁ㄱㅓㅌㅁㅗ	-9674
▁ㅇㅣㅂㅂㅓㅂ	-9675
▁ㄱㅓㄴㅊㅜㄱㅁㅜㄹ	-9676
▁KCC	-9677
▁ㅈㅓㄴㅇㅕㅁㅂㅕㅇ	-9678
ㅅㅡㅇㅎㅗ	-9679
ㅅㅏㅇㅇㅣㄹ	-9680
ㅈㅡㄹㄹㅣ	-9681
▁ㅇㅣㅁㅅㅏㅇ	-9682
▁ㅅㅓㅇㅇㅝㄴ	-9683
ㄷㅗㅇㅈㅗ	-9684
ㅈㅗㄴㄷㅗ	-9685
▁ㅂㅗㄱㅂㅜ	-9686
▁ㄴㅏㅁㅈㅣㅅ	-9687
ㅇㅑㄱㅅㅓ	-9688
▁hp	-9689
cy	-9690
▁ㅊㅓㅇㅊㅟ	-9691
▁ㅂㅜㄹㅂㅜㄴㅁㅕㅇ	-9692
▁ㅇㅕㅇㅈㅗ	-9693
▁ㅁㅏㅇㄱㅏㄱ	-9694
▁ㄱㅕㅁㅂㅣ	-9695
▁ㅅㅓㅇㅅㅣ	-9696
▁ㅇㅠㄴㅈㅗㅇㅅㅣㄴ	-9697
ㄹㅏㅁㅈㅣㄱ	-9698
▁ㅂㅣㅇㄱㅡㄹ	-9699
IVE	-9700
▁ㄷㅓㄱㅌㅐㄱ	-9701
▁ㅌㅡㄱㄱㅝㄴ	-9702
▁ㄷㅗㅇㅌㅏㄴ	-9703
▁ㅇㅕㅁㄷㅗㅇ	-9704
ㄴㅑㅇㅌㅓ	-9705
▁has	-9706
▁ㅁㅣㄹㄹㅓ	-9707
▁ㅍㅕㅇㅈㅓㅇ	-9708
▁ㅅㅓㅇㄹㅕㅇ	-9709
▁ㅇㅏㄴㅈㅔㄹㄹㅣ	-9710
▁GDP	-9711
▁ㅇㅔㄹㄹㅏ	-9712
▁ㅍㅜㅁㅈㅗㅇ	-9713
▁KA	-9714
▁PH	-9715
▁ㅇㅕㄱㅅㅓㄹ	-9716
▁ㄱㅓㅁㅅㅐㄱㅇㅓ	-9717
ㅈㅓㄴㄷㅓ	-9718
▁ㅇㅗㄴㅈㅓㄴ	-9719
▁Will	-9720
▁ㅂㅏㄹㅈㅏ	-9721
ㄴㅓㄴㅌㅡ	-9722
▁Girls	-9723
onder	-9724
▁ㅍㅏㄴㄷㅏ	-9725
▁only	-9726
▁ㅂㅜㄹㅇㅏㄴㄱㅏㅁ	-9727
▁Ah	-9728
▁ㅈㅣㄻㅇㅓ	-9729
ㄹㅗㄹㄹㅣㅇ	-9730
▁ㄸㅜㅇㄸㅜㅇ	-9731
▁ㅅㅡㅁ	-9732
▁ㅇㅓㄴㄹㅗㄴㅅㅏ	-9733
▁ㅍㅕㅇㅈㅣ	-9734
▁ㅍㅗㄴㅌㅡ	-9735
▁ㅅㅓㄴㅅㅏㅇ	-9736
ㅅㅓㄱㄱㅣ	-9737
▁ㅇㅑㅇㅁㅏㄹ	-9738
▁ㄱㅗㄹㅉㅏ	-9739
▁ㄱㅕㅇㅎㅏㅂ	-9740
▁FBI	-9741
▁Sol	-9742
▁ㅌㅗㅂㄴㅣ	-9743
▁ㄷㅓㅁㅂㅕ	-9744
▁ㄷㅗㅇㅇㅠ	-9745
▁ㄷㅓㅇㄷㅏㄹ	-9746
▁PT	-9747
▁ㅇㅓㅍㄷㅡ	-9748
▁ㄱㅣㅁㅈㅓㅇㅇㅣㄹ	-9749
▁ㄲㅜㄱ	-9750
▁MY	-9751
▁ㄷㅗㅇㄱㅡ	-9752
▁ㅂㅣㄴㅅㅔㄴㅌㅡ	-9753
ㅈㅗㅇㅇㅣㄹㄱㅘㄴ	-9754
▁MUS	-9755
▁XC	-9756
anger	-9757
▁PM	-9758
ㅈㅓㅇㅁㅣㄴ	-9759
▁ㅂㅜㄴㅎㅘ	-9760
▁ㅎㅏㅇㅇㅜ	-9761
▁ㄱㅣㅁㅇㅡㄴ	-9762
65	-9763
▁ㅇㅘㅇㄱㅓㄴ	-9764
ㅏㄹㅏ	-9765
▁ㅇㅔㄹㄹㅓㄴ	-9766
▁Best	-9767
▁Net	-9768
▁ㅇㅑㅂ	-9769
ball	-9770
ㅋㅡㄹㄹㅏ	-9771
▁ㅇㅔㅁㅁㅏ	-9772
▁ㅅㅑㄹㄹㅗㅅ	-9773
▁ㄱㅗㄱㅅㅏ	-9774
▁ㅇㅣㅁㅈㅐ	-9775
▁Dest	-9776
▁ㅅㅡㄹㄹㅣㅂ	-9777
ANCED	-9778
▁ㅎㅘㅇㅅㅗ	-9779
▁Little	-9780
▁red	-9781
▁ㅈㅣㄴㅂㅓㅁ	-9782
▁ㅌㅏㄴㄷㅜ	-9783
ㅅㅓㅇㅁㅣㄴ	-9784
▁ㅍㅔㄹㅌㅡ	-9785
osh	-9786
ㅍㅏㄹㄹㅗ	-9787
▁ㅇㅏㄹㅂㅓ	-9788
▁ㅇㅑㄱㅅㅜ	-9789
ㄹㄹㅣㄴㄷㅓ	-9790
▁ㄱㅏㅇㄹㅕㅇ	-9791
▁ㅇㅓㅄㅇㅡㅁ	-9792
▁Ind	-9793
▁ㅅㅐㅇㅍㅗ	-9794
ㄹㅣㅅㅅㅗㄱ	-9795
▁ㅅㅡㅇㄱㅖ	-9796
▁ㅅㅗㅇㅂㅕㅇㄱㅜ	-9797
▁ㅇㅕㄹㄹㅕㄹ	-9798
▁"'	-9799
▁217	-9800
light	-9801
ㅇㅘㄴㅅㅓㅇ	-9802
▁ㅁㅕㅇㅇㅘㅇ	-9803
▁ㅂㅜㄹㅂㅏㄹ	-9804
▁ㅇㅠㄴㅈㅣ	-9805
▁xx	-9806
▁ㅅㅏㅇㅅㅡㅇㅅㅔ	-9807
▁ㅅㅣㄴㅌㅐ	-9808
▁ㅈㅏㅂㅎㅕ	-9809
▁ㅈㅜㅇㄹㅗㄴ	-9810
▁ㅁㅕㄱ	-9811
▁ㅈㅡㅇㅍㅛ	-9812
ㅇㅣㄹㅂㅗㄴ	-9813
▁ㅅㅡㅇㅅㅡㅇ	-9814
▁here	-9815
ㅂㅏㅇㅂㅣ	-9816
ㅊㅏㅇㅁㅣㄴ	-9817
ASY	-9818
▁ㅎㅐㅇㅅㅔ	-9819
▁ㅆㅏㅇㄱㅓㅁ	-9820
▁ㅂㅐㄹㅂㅡ	-9821
▁ㅊㅜㄴㅊㅜ	-9822
▁ㅊㅏㅁㅅㅜ	-9823
ㅅㅡㄹㅉㅓㄱ	-9824
▁ㅁㅜㄹㅇㅡㅁ	-9825
▁SEED	-9826
▁010	-9827
▁ㅅㅜㄴㅎㅏㅇ	-9828
▁RB	-9829
ㄱㅕㄹㅊㅐㄱ	-9830
▁ㅇㅐㄱㅅㅡ	-9831
▁EXO	-9832
▁ㅈㅓㅇㅅㅣ	-9833
▁Mix	-9834
▁Take	-9835
ㄴㅏㄹㄹㅣ	-9836
ㅋㅗㄹㄹㅗ	-9837
▁ㅂㅏㄴㅈㅜㄱ	-9838
ㄲㅗㅁ	-9839
▁ㅅㅣㄴㄱㅕㄱ	-9840
▁ㄷㅜㄴㄱㅣ	-9841
▁ㅂㅏㄴㄴㅏㅂ	-9842
▁ㅎㅜㄴㄹㅕㄴㅅㅗ	-9843
▁Single	-9844
▁aquarius	-9845
▁let	-9846
▁ㄹㅗㄹㄹㅣ	-9847
▁ㅅㅣㄴㅂㅗㅇ	-9848
⊸⊸⊸	-9849
▁ㅍㅣㄱㅊㅓ	-9850
▁ㅇㅣㄹㅅㅐㅇ	-9851
▁bb	-9852
▁Inv	-9853
ㅈㅓㄴㅅㅓㄴ	-9854
▁ㅂㅜㄱㅅㅓ	-9855
▁ㅁㅏㄱㄹㅗㄴ	-9856
▁ㅂㅏㅇㅁㅏㅇ	-9857
ㅍㅏㅅ	-9858
aker	-9859
▁ㅇㅝㄴㅅㅏㅇ	-9860
▁ㅋㅝㅇ	-9861
▁ㄲㅡㄶㅇㅓ	-9862
▁ㄱㅘㅇㄷㅗㅇ	-9863
▁ADVANCED	-9864
ㅁㅐㄱㄷㅏ	-9865
▁di	-9866
▁ㅂㅏㄱㅊㅏ	-9867
▁ㅂㅕㄴㅅㅗㄱㄱㅣ	-9868
ㅁㅜㅇ	-9869
▁ㅍㅕㄴㅈㅣㅂㅈㅏ	-9870
▁ㅈㅏㅇㄷㅏㅁ	-9871
oom	-9872
▁gu	-9873
ㅂㅕㅇㄱㅣ	-9874
▁ㅅㅓㄴㅎㅜ	-9875
ㅈㅓㄴㅎㅏㅁ	-9876
▁Ult	-9877
ㅁㅓㄴㄷㅡ	-9878
▁KN	-9879
▁ㅋㅐㅁㅍㅣㅇ	-9880
▁ㅇㅣㄴㅇㅝㄴㅅㅜ	-9881
▁ㅂㅏㄴㄹㅕ	-9882
UD	-9883
ㅅㅓㅇㅇㅓ	-9884
▁ㅎㅓㄴㄴㅏㅂ	-9885
38	-9886
▁str	-9887
▁ㅎㅏㄴㅈㅜㅇ	-9888
▁ㄲㅡㅌㅇㅓㅄㅇㅣ	-9889
ㄱㅘㅇㅅㅜ	-9890
uture	-9891
▁ㅇㅣㅂㅅㅏㅇ	-9892
▁ㄹㅏㅂㅅㅣ	-9893
IO	-9894
eek	-9895
ㅆㅓㄹㅌㅡ	-9896
▁ㅇㅏㄱㅅㅜ	-9897
ㄸㅡㅁ	-9898
ㅂㅕㅇㅎㅓㄴ	-9899
▁ㅈㅓㄴㄱㅗㄱ	-9900
▁ㄱㅣㅁㅅㅣㄴ	-9901
▁ㄱㅡㅂㅅㅡㅂ	-9902
▁ad	-9903
ㅆㅏㄹ	-9904
▁Aut	-9905
▁ㅎㅏㄴㅂㅗㄱ	-9906
▁ㅅㅓㄴㅈㅣ	-9907
▁ㅅㅜㄱㅈㅣ	-9908
▁ㄱㅣㅁㅎㅏㄴ	-9909
ㅎㅕㄴㅁㅣㄴ	-9910
ㅋㅡㄹㄹㅗㄴ	-9911
ㅇㅕㄹㅊㅏ	-9912
▁ㅅㅓㅇㅍㅜㅁ	-9913
32	-9914
RAM	-9915
lex	-9916
ㄴㅡㅁ	-9917
▁ㅈㅣㄹㅈㅣㄹ	-9918
▁301	-9919
▁1919	-9920
ena	-9921
ㅁㅜㄹㅅㅓㄴ	-9922
▁ㅅㅣㄱㅂㅕㄹ	-9923
▁ㄱㅣㅁㅈㅗㅇㄱㅜㄱ	-9924
▁ㄹㅣㄹㄹㅔ	-9925
▁1911	-9926
▁ㅅㅣㅂㅅㅏㅇ	-9927
▁Dec	-9928
▁ㅅㅜㄴㄹㅖ	-9929
▁mA	-9930
▁ㅊㅏㄱㅅㅜ	-9931
▁Storm	-9932
▁ㅈㅏㄴㅅㅗ	-9933
ㄱㅏㄱㄱㅏㄱ	-9934
▁ㄷㅗㅇㅎㅏ	-9935
▁252	-9936
▁Real	-9937
▁ㅎㅡㅇㅎㅏ	-9938
▁ㅁㅣㄹㅈㅓㅂ	-9939
ㅂㅏㅇㅈㅣ	-9940
▁ㅊㅜㅇㅁㅜ	-9941
▁ㅇㅏㄴㅈㅏㅇ	-9942
▁OM	-9943
▁ㅎㅘㄴㅇㅝㄴ	-9944
ㅈㅗㅇㅇㅝㄴ	-9945
ㄷㅡㄴㅇㅛ	-9946
▁Med	-9947
▁ㄷㅗㄱㄷㅗ	-9948
ㅇㅛㅇㅁㅜㄹ	-9949
▁ㅇㅣㄴㅈㅔ	-9950
▁'~	-9951
ital	-9952
▁ㅇㅏㅂㅅㅜ	-9953
▁ㄷㅗㅇㄱㅕㄹ	-9954
▁ㄱㅠㄹ	-9955
ano	-9956
▁ㅅㅜㄴㅊㅏ	-9957
▁ㅈㅣㄴㄱㅣ	-9958
▁ㅊㅓㅁㅂㅜ	-9959
▁ㅅㅓㅇㅅㅗ	-9960
HC	-9961
▁ㅈㅓㄴㅍㅐ	-9962
▁512	-9963
ㅈㅜㄴㄱㅣ	-9964
ude	-9965
▁Def	-9966
▁ㄹㅣㄴㅇㅣ	-9967
▁ㄱㅡㅂㅅㅗㄱ	-9968
▁ㅎㅘㄹㄹㅕㄱ	-9969
▁Gun	-9970
ㅅㅏㄴㄱㅜㄴ	-9971
▁Hero	-9972
▁ㅎㅠㅇㄱㅣ	-9973
▁ㅂㅗㄲㅇㅡㅁ	-9974
ㅇㅣㅁㅅㅜ	-9975
ㄱㅓㄹㅇㅡㅁ	-9976
DDR	-9977
▁youtu	-9978
▁ㅂㅜㅌㅇㅕ	-9979
▁ㅇㅛㅇㅎㅗ	-9980
▁ㅊㅏㅇㅊㅜㄹ	-9981
ㅇㅗㄹㄹㅏ	-9982
▁ㄱㅓㄴㅇㅢ	-9983
▁ㅎㅢㄴ	-9984
▁ㅅㅓㄹㅁㅜㄴ	-9985
▁ㅇㅡㅁㅇㅏㄱㄱㅏ	-9986
▁ㅇㅏㄱㅍㅕㅇ	-9987
▁ㅊㅣㄴㅇㅏ	-9988
▁ㄸㅐㅁ	-9989
▁ㅅㅣㄹㅌㅏㄴ	-9990
ㅅㅣㄱㅊㅜㄱㄱㅜ	-9991
▁ㅈㅓㄱㄱㅘ	-9992
▁ㄱㅘㄴㅇㅛㅇ	-9993
▁ㅇㅝㄴㅅㅓㅇ	-9994
▁Ry	-9995
▁ㅅㅏㄴㅈㅓㄴ	-9996
▁ㅊㅓㄴㅈㅣㄴ	-9997
▁Cal	-9998
ㅈㅓㅇㄹㅣ	-9999
▁ㅁㅕㅇㅈㅣ	-10000
▁ㄱㅕㄹㄷㅏㄴ	-10001
▁ㄴㅏㄴㅈㅏㅇㅍㅏㄴ	-10002
▁ㅇㅕㄴㅎㅘ	-10003
▁ㅇㅠㄴㅅㅓㅇ	-10004
▁Warhammer	-10005
apan	-10006
▁Rad	-10007
▁ㅂㅓㄴㅂㅓㄴ	-10008
▁Zero	-10009
▁ㅋㅓㄴㅍㅓ	-10010
lection	-10011
▁ㅇㅡㄴㅂㅣㅊ	-10012
▁ㄴㅓㅁㄴㅏ	-10013
▁ㅈㅓㅇㅅㅓㄴ	-10014
ett	-10015
ㅇㅝㄹㄷㅡ	-10016
▁ㅁㅏㄹㅅㅏㄹ	-10017
ㅅㅓㅇㄱㅗㅇ	-10018
ㅅㅏㅇㅂㅓ	-10019
ㅇㅛㅇㄹㅑㅇ	-10020
▁ㅉㅏㄱㅌㅜㅇ	-10021
39	-10022
ㄴㅐㅂㄷㅡ	-10023
▁ㅈㅏㅇㄷㅐ	-10024
ㅈㅜㄴㅇㅓ	-10025
▁ㅇㅑㅅ	-10026
ㅅㅐㅇㅁㅜㄹ	-10027
▁ㅂㅐㄱㅂㅕㅇ	-10028
▁ㅊㅓㄹㅎㅕㄹ	-10029
▁ㅂㅏㅇㅌㅏㄴㅅㅗ	-10030
ler	-10031
▁ER	-10032
▁ㅇㅕㄴㅁㅏ	-10033
▁EXTRA	-10034
ㄴㅗㅂㅅㅣ	-10035
▁Sweet	-10036
▁|[	-10037
▁2022	-10038
▁any	-10039
▁ㅎㅓㅁㅇㅏㄱ	-10040
▁BLACK	-10041
▁ㅋㅏㄹㅈㅣㄹ	-10042
aid	-10043
ning	-10044
▁Park	-10045
ㅋㅗㄹㅍㅣ	-10046
▁ㅇㅕㅇㅅㅏ	-10047
▁ㅂㅜㄱㄷㅗㅇ	-10048
arm	-10049
▁when	-10050
▁ㅋㅓㄴㅂㅓ	-10051
▁ㄱㅏㄴㅈㅓㄹ	-10052
▁ㅍㅣㄹㅈㅓㄱ	-10053
▁ㅍㅡㄹㄹㅐㄴㅌㅡ	-10054
▁390	-10055
ㅇㅕㅇㅎㅑㅇ	-10056
ㄷㅡㅅ	-10057
▁ㅅㅣㄴㅇㅑ	-10058
ㄱㅗㅇㅎㅏㄱ	-10059
unt	-10060
▁Mbps	-10061
oj	-10062
▁ㄱㅜㄹㄹㅣㅁ	-10063
▁Ag	-10064
▁227	-10065
une	-10066
▁ㅂㅐㄱㅅㅡ	-10067
▁\]	-10068
▁ㄱㅡㅂㅇㅕ	-10069
▁ㅂㅜㄹㄱㅓ	-10070
unk	-10071
▁ㄴㅜㄴㅂㅗ	-10072
▁ㅊㅏㄴㅅㅏ	-10073
▁CGV	-10074
▁ㅇㅣㄹㄱㅐ	-10075
▁Gal	-10076
▁GPS	-10077
BE	-10078
▁ㄱㅣㄹㄹㅐ	-10079
▁ㅁㅕㄴㄷㅗ	-10080
▁CIA	-10081
ouble	-10082
▁ㄹㅣㄴㅊㅣ	-10083
▁ㅎㅗㅇㅅㅜ	-10084
▁ㅎㅏㅇㅈㅐㅇ	-10085
▁ㄱㅣㅁㅈㅗㅇㅁㅣㄴ	-10086
▁ㅂㅡㄹㄹㅏㅇ	-10087
▁ㄸㅡㄴㄱㅡㅁㅇㅓㅄ	-10088
▁ㄷㅗㅅ	-10089
▁ㅅㅓㄷ	-10090
▁ㅁㅜㄴㄱㅘ	-10091
▁ㅂㅏㅅㅈㅜㄹ	-10092
▁ㅎㅐㅇㄱㅜㄴ	-10093
▁HR	-10094
▁ㄲㅏㄱ	-10095
▁John	-10096
▁ㅍㅕㅇㅇㅣ	-10097
▁ㄱㅏㄴㅊㅓㅂ	-10098
▁ㄴㅏㄱㅅㅓ	-10099
▁ㅈㅓㄹㄱㅏㅁ	-10100
▁ㅎㅘㄴㅅㅏㄴ	-10101
▁ㅈㅣㄴㅈㅓㄴ	-10102
▁LEVEL	-10103
▁ㅅㅡㅇㅎㅏ	-10104
▁ㅅㅐㅇㄱㅖ	-10105
▁htm	-10106
▁ㅂㅏㄴㅈㅜ	-10107
44	-10108
▁ㅋㅔㅅ	-10109
▁ㅇㅓㄱㅇㅑㅇ	-10110
▁ㅊㅗㅇㅈㅓㅁ	-10111
▁Space	-10112
ather	-10113
▁ㅁㅕㅇㅂㅐㄱㅎㅣ	-10114
ㅅㅓㄴㅅㅗ	-10115
▁SMG	-10116
ㅂㅡㄹㄹㅔ	-10117
▁youtube	-10118
▁ㅌㅡㅁㅅㅐ	-10119
▁ㄴㅣㅅㅅㅏㄴ	-10120
▁ㅅㅓㅇㄱㅗㅇㅎㅚ	-10121
ords	-10122
▁ㅅㅓㄹㅈㅣㄴ	-10123
▁YG	-10124
ㄷㅏㄱㅊㅣ	-10125
▁Hel	-10126
▁Tour	-10127
▁ㅍㅕㅇㅈㅜㄴ	-10128
▁231	-10129
▁Feel	-10130
ㅈㅏㅇㄱㅏㄴ	-10131
UG	-10132
TER	-10133
uct	-10134
▁ㅅㅓㅇㅊㅟ	-10135
▁ㅈㅓㅁㅊㅣ	-10136
ㅈㅓㅇㅇㅜ	-10137
▁ㅇㅗㄹㄹㅔ	-10138
ㅕㅇㅑ	-10139
▁ㅊㅜㄹㅇㅣㅂㄱㅜ	-10140
ames	-10141
▁ㅊㅏㄱㄱㅗㅇ	-10142
▁ㅁㅕㅇㅎㅘㄱㅎㅣ	-10143
END	-10144
ㅅㅜㅍ	-10145
▁Kim	-10146
▁ㅈㅓㅇㄱㅘㄴ	-10147
ㅈㅓㄴㄹㅕㄱ	-10148
ㄲㅗㄱ	-10149
▁ㅈㅓㄴㅇㅟ	-10150
▁ㅈㅓㅇㄱㅡㄴ	-10151
▁Bu	-10152
▁ㅂㅏㅁㅈㅜㅇ	-10153
br	-10154
▁Say	-10155
▁ㅅㅣㄹㄱㅏㅁ	-10156
▁ㅈㅓㅇㅈㅜ	-10157
▁ㅇㅗㄹㅇㅣㄴ	-10158
oe	-10159
ㄴㅓㄹㅅㅡ	-10160
yr	-10161
▁BMW	-10162
▁mAh	-10163
▁ㄲㅓㅁ	-10164
▁ㄴㅏㅇㅁㅏㄴ	-10165
▁ㅇㅓㄹㄹㅜㄱ	-10166
▁need	-10167
▁ㅇㅑㅇㅂㅏㅇㅎㅑㅇ	-10168
▁Je	-10169
▁QP	-10170
▁ㄱㅘㅇㄹㅏㄴ	-10171
▁ㅁㅜㄹㄹㅠ	-10172
ㅅㅏㅇㄱㅡㅁ	-10173
▁ㅅㅣㄴㅂㅣㅇ	-10174
▁ㅂㅗㄴㄱㅓ	-10175
▁ㅅㅏㄴㄷㅡ	-10176
ople	-10177
▁ㄱㅏㄱㅂㅕㄹ	-10178
▁ㅂㅕㄹㄱㅓ	-10179
▁ㅇㅡㄴㅅㅐㄱ	-10180
thing	-10181
▁ㅇㅕㄹㄱㅘㅇ	-10182
▁ㅌㅏㅁㅎㅓㅁㄱㅏ	-10183
ㄱㅏㄴㅇㅣ	-10184
▁ㅅㅓㄴㅅㅑ	-10185
▁min	-10186
▁ㅍㅕㄴㅇㅐ	-10187
ㅆㅜㄱ	-10188
▁ㄷㅏㅁㅇㅝㄴ	-10189
ㄲㅗㅂ	-10190
▁1934	-10191
▁ㅈㅡㅇㄱㅏㅇ	-10192
▁ㅅㅗㅇㄱㅗㅅㄴㅣ	-10193
▁ㅅㅐㅇㄹㅣ	-10194
▁ㅇㅝㄱㅅㅡ	-10195
▁ㄴㅏㅂㅍㅜㅁ	-10196
ㅋㅓㄹㅌㅡ	-10197
ㄱㅘㄴㄱㅖ	-10198
▁ㅁㅣㄹㄱㅏ	-10199
▁ㅊㅗㄱㅈㅣㄴ	-10200
▁ㅌㅗㅇㅅㅗㄹㄹㅕㄱ	-10201
ㄷㅔㄱㅅㅡ	-10202
▁ㅂㅐㄱㄷㅜ	-10203
▁ㅇㅞㄴㄷㅣ	-10204
ㅈㅓㄴㅈㅐㅇ	-10205
vil	-10206
▁Ret	-10207
ㅊㅓㄴㄹㅣ	-10208
irect	-10209
ㅈㅏㅇㅊㅣ	-10210
▁ㅎㅓㄴㅌㅡ	-10211
▁ㅇㅝㄴㅅㅏ	-10212
▁op	-10213
▁ㅍㅏㄴㄷㅏㄴㄹㅕㄱ	-10214
▁FO	-10215
ㅍㅗㄹㅌㅡ	-10216
▁ㅎㅏㄴㄴㅜㄴ	-10217
▁ㅂㅣㄹㅎㅔㄹㄹㅡㅁ	-10218
ODE	-10219
uel	-10220
▁Dem	-10221
ㄹㅏㅂㅇㅓ	-10222
▁ㅇㅑㅇㅇㅢ	-10223
▁ㅁㅗㅇㅎㅘㄴ	-10224
▁ㅎㅏㄴㅍㅏㄴ	-10225
▁ㅊㅏㄱㅊㅟ	-10226
aser	-10227
▁DSP	-10228
▁ㅎㅗㅇㄹㅕㄴ	-10229
▁ㄱㅓㅁㄱㅓ	-10230
▁ㄱㅣㅁㅅㅣ	-10231
▁ㅁㅗㅁㅆㅏ	-10232
▁Sou	-10233
ㅉㅓㄴㅈㅣ	-10234
▁ㅈㅜㅇㅅㅏㄴ	-10235
▁ㅃㅐㅇ	-10236
▁ㅇㅣㅂㅅㅗ	-10237
▁some	-10238
ㄹㅓㅁㅁㅐ	-10239
ㅈㅓㄱㅈㅣ	-10240
▁ㄱㅗㅇㅈㅣㄱ	-10241
▁ㅇㅏㄱㅇㅕㅇㅎㅑㅇ	-10242
▁ㅊㅡㅅㅋㅗ	-10243
▁EPL	-10244
▁ㅇㅣㄱㅅㅏㄴ	-10245
▁ㅈㅓㄴㅈㅐㅇㅌㅓ	-10246
ㅃㅓㄴ	-10247
ㄱㅗㄱㄹㅣ	-10248
▁ㅇㅗㄹㄱㅏ	-10249
▁ㅂㅏㄹㄹㅕㅇ	-10250
▁ㅇㅏㅁㅅㅓㄱ	-10251
▁HT	-10252
ㅅㅏㄹㄹㅔㅁ	-10253
▁ㅇㅏㅍㅈㅏㅇㅅㅓ	-10254
▁NFL	-10255
▁ㅌㅡㄱㅅㅐㄱ	-10256
ㄷㅗㅇㅁㅜㄹ	-10257
▁ㅅㅏㄴㅊㅜㄹ	-10258
ㅍㅔㅅ	-10259
▁ㅅㅓㅁㄸㅡㄱ	-10260
onna	-10261
▁ㅅㅣㄴㅈㅐ	-10262
arth	-10263
▁430	-10264
▁ㅅㅗㄴㄱㅣㄹ	-10265
NG	-10266
▁ㄴㅏㄴㅈㅐㅇㅇㅣ	-10267
ㅃㅗ	-10268
▁ㅇㅏㄱㅇㅕㄴ	-10269
▁ㄴㅗㄱㅅㅡ	-10270
▁ㅎㅘㄴㅈㅏㅇ	-10271
ㅇㅡㅁㅅㅗㄱ	-10272
▁ㅇㅐㄱㅅㅜ	-10273
ㅅㅣㄱㅈㅏ	-10274
▁238	-10275
ormal	-10276
▁Beat	-10277
▁ㅎㅏㅁㄱㅕㅇ	-10278
▁Kill	-10279
▁ㅇㅓㅂㅈㅏ	-10280
▁PERF	-10281
▁ㅇㅕㅇㄱㅜㄱㅇㅣㄴ	-10282
ner	-10283
▁ㅈㅓㅇㅊㅏㄹㄱㅣ	-10284
▁them	-10285
▁ㅇㅠㄴㅅㅓㄱㅁㅣㄴ	-10286
▁ㄱㅒ	-10287
▁ㅋㅡㄹㄹㅓㄱ	-10288
ㅊㅜㄴㄱㅣ	-10289
▁ㅁㅗㄹㅇㅣㅂ	-10290
▁ㅊㅜㅇㅇㅝㄴ	-10291
▁ㄹㅣㄴㄷㅡ	-10292
ㄴㅏㅈ	-10293
▁Story	-10294
ㅋㅔㅅㄷㅏㄴ	-10295
▁ㅇㅝㄹㄷㅡㅇㅎㅣ	-10296
UND	-10297
▁ㄱㅕㄱㅂㅕㄴ	-10298
▁Luc	-10299
▁Orig	-10300
▁236	-10301
▁ㅈㅣㄴㅁㅕㅇ	-10302
ways	-10303
▁ㄱㅘㄴㄹㅏㅁㄱㅐㄱ	-10304
ㅋㅏㅁ	-10305
▁ㅋㅔㄴㅅㅣ	-10306
▁265	-10307
▁ㅁㅐㅇㅅㅜ	-10308
▁Great	-10309
▁ㅊㅗㄱㄱㅜ	-10310
▁ㄱㅗㅇㄱㅜ	-10311
▁her	-10312
▁WORLD	-10313
▁ㄱㅕㅇㄱㅘㄴ	-10314
37	-10315
▁ㅌㅗㅇㅊㅏㄹ	-10316
ㅁㅏㄴㄷㅗ	-10317
▁ㅂㅕㄴㅁㅗ	-10318
iful	-10319
▁ㅅㅣㄴㄷㅡ	-10320
▁ㅇㅡㄹㅅㅣ	-10321
▁Album	-10322
▁ㄴㅐㅇㅎㅗㄱ	-10323
KO	-10324
ㅈㅓㄱㅈㅓㄹ	-10325
▁ㅇㅜㄴㄷㅗㅇㄱㅏ	-10326
▁ㅂㅔㄹㄹㅣ	-10327
▁ㅋㅓㅅㅇㅣㄴ	-10328
▁ㅅㅗㄱㅇㅣㅁㅅㅜ	-10329
▁When	-10330
▁ㅅㅓㅇㅁㅜㄹ	-10331
▁ㅌㅏㄱㄱㅜ	-10332
ㅂㅓㅂㅈㅏ	-10333
▁ㄱㅕㅇㄷㅐ	-10334
▁ㅈㅓㄹㄷㅗ	-10335
fl	-10336
ental	-10337
▁ㄴㅏㄴㄷㅗ	-10338
▁ㅅㅓㄹㄹㅣㅂㅈㅏ	-10339
▁Tech	-10340
▁ㅂㅏㄺㅎㅕ	-10341
▁ㅅㅏㅇㅂㅏㄴ	-10342
ㅊㅏㄱㅁㅜㄹ	-10343
▁LOL	-10344
▁ㅌㅔㅂ	-10345
▁ㅎㅏㄴㄱㅜㄱㄱㅜㄴ	-10346
▁ㄹㅗㄹㅅㅡ	-10347
▁ㅎㅡㄱㅂㅏㄹ	-10348
▁ㅌㅐㄹㄹㅓㄴㅌㅡ	-10349
▁ㅎㅏㅂㅅㅜㄱ	-10350
ANG	-10351
ours	-10352
▁Step	-10353
ㄴㅓㄼ	-10354
▁ㅁㅏㄴㅈㅏㅇ	-10355
▁ㅁㅔㅇ	-10356
▁GTX	-10357
ㅅㅓㄴㅅㅣ	-10358
▁ㄱㅕㅁㅇㅣㅁ	-10359
▁ㅂㅐㄴㅋㅜ	-10360
▁ㅍㅜㄹㅇㅣ	-10361
ene	-10362
▁JYP	-10363
ations	-10364
ㅊㅠㄴ	-10365
▁ㅊㅜㄹㅈㅣㄴ	-10366
▁<<	-10367
▁ㅈㅓㅇㅊㅏㄱㅈㅣ	-10368
▁232	-10369
▁ㄱㅡㅁㄷㅏㄴ	-10370
▁ㅎㅏㄱㅍㅏ	-10371
ㅌㅡㄹㄹㅏㄴㅌㅣ	-10372
ㅇㅕㅇㅈㅣㄴ	-10373
ㅅㅏㄹㅇㅣ	-10374
▁ㄱㅓㄴㄷㅐ	-10375
▁ㅎㅕㅇㅂㅓㄹ	-10376
▁ㅎㅡㄱㄱㅣ	-10377
▁ㄱㅏㅇㄱㅡㅂ	-10378
▁MAD	-10379
▁ㄴㅏㅁㅅㅏㄴ	-10380
▁PG	-10381
ㅁㅣㄴㅊㅓㄹ	-10382
▁ㅅㅣㄴㅊㅓㄴ	-10383
▁ㅇㅗㄹㄹㅕ	-10384
ㅁㅜㄴㅎㅘ	-10385
▁ㅎㅐㅁㅌㅡㄴ	-10386
▁she	-10387
▁ㅇㅣㄹㄹㅏ	-10388
▁ㄱㅗㅇㅇㅏㄴ	-10389
▁ㅇㅘㅇㅅㅓㅇ	-10390
▁ㅇㅕㄱㅁㅏ	-10391
ㅋㅣㄹㄹㅔ	-10392
▁ㄱㅗㄷㅈㅏㅇ	-10393
ㅁㅜㄹㅅㅚ	-10394
▁ㅌㅔㄴㅌㅡ	-10395
▁ㄱㅣㅁㄱㅓㄴ	-10396
OSS	-10397
ㅇㅣㄹㄹㅓㄴㅌㅡ	-10398
▁Champion	-10399
▁ㅍㅏㄴㅁㅕㅇ	-10400
▁Death	-10401
▁ㄱㅗㄹㅅㅜ	-10402
ㅎㅐㅇㅅㅓㅇ	-10403
body	-10404
ㅇㅕㅇㅎㅜㄴ	-10405
▁3500	-10406
▁ㅈㅓㅇㅈㅣㄴ	-10407
ㅂㅗㄹㅌㅡ	-10408
▁ㅇㅛㅇㅈㅗㄱ	-10409
▁ㅌㅡㄹㄹㅣㅁㅇㅓㅄ	-10410
ㄱㅓㄴㅂㅜ	-10411
▁ㅈㅓㅇㄱㅜㄱ	-10412
▁ㅎㅚㅇㄹㅕㅇ	-10413
▁ㅁㅏㄹㄹㅏ	-10414
▁ㅋㅓㄹㅌㅡ	-10415
ait	-10416
▁ㅈㅓㄴㅎㅘㅇ	-10417
▁ㄷㅗㄹㄱㅗ	-10418
▁ㅇㅕㄴㅈㅏㅇㅈㅓㄴ	-10419
▁ㅃㅓㄴㅃㅓㄴ	-10420
▁Tra	-10421
▁ㅂㅐㄱㄱㅘ	-10422
ㅅㅡㄹㄹㅗ	-10423
▁ㅅㅗㅅㅇㅏ	-10424
▁Line	-10425
ume	-10426
rough	-10427
▁ㅇㅏㅍㅁㅓ	-10428
▁ㅊㅏㅁㅊㅣ	-10429
▁ㅁㅜㄴㄱㅘㄴ	-10430
▁ㅇㅣㄴㅅㅏㅁ	-10431
▁ㄱㅘㄹㅎㅗ	-10432
▁ㅇㅠㄴㅇㅕㅇ	-10433
▁ㅁㅗㄴㅌㅡ	-10434
▁ㅇㅏㄴㅈㅡ	-10435
▁ㄲㅏㄴ	-10436
▁ㅂㅗㄴㄸㅡ	-10437
▁ㅂㅜㄴㅇㅑㅇ	-10438
▁ㅈㅓㄴㄱㅘㅇㅍㅏㄴ	-10439
▁KBL	-10440
▁sec	-10441
▁ㄱㅡㄱㅎㅏ	-10442
▁Bus	-10443
▁ㄱㅕㄴㅅㅡㅂ	-10444
▁WWF	-10445
▁Electr	-10446
▁ㅇㅕㅌ	-10447
ㅅㅣㄴㄹㅛ	-10448
ㅇㅓㅂㅅㅗ	-10449
▁ㅂㅏㄴㅉㅗㄱ	-10450
▁ㅇㅕㄴㅁㅏㄱㅌㅏㄴ	-10451
▁ㅂㅏㅇㅈㅜ	-10452
▁ㅅㅓㄴㅇㅠㄹ	-10453
▁ㅇㅣㄹㄱㅏㄴ	-10454
▁ㄱㅡㅂㅈㅡㅇ	-10455
ㅂㅜㄹㄹㅣ	-10456
▁ㄲㅓㄹㄲㅡ	-10457
▁ㄸㅡㅁ	-10458
▁ㅅㅣㅅ	-10459
▁ㅈㅓㅇㅁㅕㅇㅎㅜㄴ	-10460
▁GC	-10461
▁ㄱㅕㅇㅅㅏㅇㄷㅗ	-10462
84	-10463
▁art	-10464
▁about	-10465
ㅍㅐㅇㅇㅣ	-10466
▁ㄸㅗㄱㅂㅏ	-10467
INAL	-10468
orever	-10469
▁510	-10470
▁ㅇㅑㄱㅍㅜㅁ	-10471
IDE	-10472
▁ㅈㅐㄱㅅㅡ	-10473
▁ㄱㅕㄹㅂㅓㄴ	-10474
▁ㄸㅡㅅㅂㅏㄲ	-10475
ESS	-10476
▁ㄱㅘㄴㅅㅡㅂ	-10477
ander	-10478
▁ㅅㅡㅇㄴㅏㄱ	-10479
▁ㅂㅓㅂㄹㅕㅇ	-10480
ㅅㅗㅇㄱㅣ	-10481
▁ㅅㅜㄱㅈㅔ	-10482
▁ㅁㅜㅇㄱㅐ	-10483
▁ㄱㅣㅁㅇㅜ	-10484
▁Who	-10485
▁ㅌㅗㅇㅌㅗㅇ	-10486
▁ㅇㅕㅇㅅㅜ	-10487
▁ㄷㅗㄱㅅㅓㄹ	-10488
▁ㅌㅜㄱㅎㅏ	-10489
ral	-10490
▁come	-10491
▁ㄹㅡㄹㄹㅡ	-10492
▁EXPERT	-10493
▁ㅅㅣㅁㅂㅗㄱ	-10494
▁ㅂㅜㄹㄱㅖ	-10495
▁ㅂㅐㄱㅇㅏㄱ	-10496
▁SUPER	-10497
▁ㄱㅏㄴㅈㅣㄱ	-10498
▁ㄱㅘㅇㅇㅑㅇ	-10499
▁ㅂㅏㄹㅇㅕㄹ	-10500
uss	-10501
▁ㅂㅗㄱㅅㅣㄱ	-10502
▁ㅇㅣㅅㅅㅔ	-10503
▁ㅊㅓㅇㄷㅗㅇ	-10504
▁ㅈㅡㄴ	-10505
lease	-10506
▁ㅇㅏㄴㅌㅗㄴ	-10507
ㄱㅐㅅ	-10508
self	-10509
▁ㅍㅗㄱㅈㅜㄱ	-10510
▁EASY	-10511
▁ㅁㅣㄴㅅㅣㅁ	-10512
▁ㄱㅡㅂㅅㅗㄱㄷㅗ	-10513
▁Apple	-10514
▁ㅌㅗㅁㅅㅡㄴ	-10515
▁Mal	-10516
▁ㅁㅏㄱㅅㅡ	-10517
▁ㄱㅡㄴㅂㅏㅇ	-10518
▁ㅇㅓㅁㅇㅕㄴ	-10519
▁League	-10520
▁305	-10521
▁ㅁㅗㄱㅈㅏㅇ	-10522
▁ㅋㅜㄱ	-10523
▁ㄱㅗㄹㅈㅓㄹ	-10524
▁ㅌㅔㅁㅍㅔ	-10525
▁ㄷㅗㄱㄷㅏㄴ	-10526
94	-10527
▁ㅇㅐㅇㄱㅡㄹ	-10528
▁325	-10529
▁ㄷㅡㅇㅇㅛㅇ	-10530
▁SB	-10531
ortex	-10532
▁ㅁㅣㅌㅂㅏ	-10533
▁ㅂㅜㄹㄱㅜㄹ	-10534
ㅂㅐㄴ	-10535
ines	-10536
▁Dead	-10537
▁ㅊㅗㅇㄱㅕㄱ	-10538
▁Lee	-10539
▁ㅅㅗㅇㅈㅣ	-10540
autiful	-10541
▁ㄱㅡㅁㅂㅣㅊ	-10542
▁ㅁㅏㄴㄴㅕㄴ	-10543
elie	-10544
ㄱㅗㄱㅈㅓㄹ	-10545
ㄴㄷㅏㅂㅅㅣ	-10546
▁ㅂㅕㅇㅎㅏㅂ	-10547
▁ㅇㅕㄹㅎㅘ	-10548
▁ㅎㅏㄴㄱㅜㄱㅅㅣㄱ	-10549
▁Green	-10550
▁ㅁㅕㅇㄱㅖ	-10551
▁ㅂㅏㅁㅅㅐ	-10552
▁ㅊㅓㄹㄱㅜ	-10553
▁Pass	-10554
▁ㄱㅡㄴㅇㅠㄱㅈㅣㄹ	-10555
▁ㅅㅏㅇㄷㅣ	-10556
▁Tom	-10557
▁ㅅㅜㅅ	-10558
▁TEAM	-10559
▁XBOX	-10560
ㄹㅏㅁㅈㅟ	-10561
▁ㅇㅡㄴㅅㅣㄴㅊㅓ	-10562
▁Wanna	-10563
ㅂㅓㅂㅇㅣㄴ	-10564
▁2400	-10565
▁Home	-10566
31	-10567
▁ma	-10568
▁1700	-10569
▁ㅂㅓㅅㄱㅕ	-10570
AE	-10571
▁ㅂㅕㄴㄱㅣ	-10572
▁Ant	-10573
ㅋㅏㅅ	-10574
▁ㅈㅒ	-10575
▁640	-10576
▁ㅈㅏㅇㅈㅣ	-10577
ㅅㅠㄹㄹㅣ	-10578
▁ㅅㅣㄴㅌㅏ	-10579
ㅇㅛㄱㅈㅏㅇ	-10580
IAL	-10581
▁ㄱㅕㄴㄱㅗ	-10582
▁ㅇㅣㅂㅈㅓㅁ	-10583
awn	-10584
▁ㅍㅕㅇㅁㅕㄴ	-10585
▁1935	-10586
ㄴㅏㄹㄹㅗ	-10587
ㅂㅜㄴㅌㅜ	-10588
ㅃㅗㅇ	-10589
eter	-10590
▁ㄴㅗㄹㄹㅓ	-10591
▁ㅍㅕㄴㅊㅏㄴ	-10592
▁da	-10593
▁ㅋㅘㄴ	-10594
ㅅㅓㅇㄱㅜ	-10595
▁ㅇㅣㄴㅍㅔ	-10596
▁TRA	-10597
▁Tem	-10598
▁ㅈㅓㅇㄱㅡㄴㅇㅜ	-10599
ㅅㅣㄱㅇㅓ	-10600
▁ㅈㅣㅂㄱㅔ	-10601
▁ㅈㅏㅇㅁㅜㄴ	-10602
▁ㅍㅗㄱㅇㅓㄴ	-10603
ㅅㅏㅇㅅㅡ	-10604
▁ㅇㅝㄴㅈㅓㅇㄷㅐ	-10605
▁RT	-10606
▁GE	-10607
▁ㄱㅏㄹㅂㅣ	-10608
▁ㄷㅗㄹㅂㅕㄴ	-10609
▁ㄱㅕㄱㄴㅏㅂㄱㅗ	-10610
▁ㅁㅜㄹㄱㅕㄹ	-10611
▁ㅅㅣㅁㅇㅕㅇ	-10612
▁ㄱㅗㅇㅈㅓㄱ	-10613
▁ㅇㅡㄴㄱㅡㄴㅅㅡㄹㅉㅓㄱ	-10614
ㅈㅓㅅ	-10615
▁Del	-10616
▁ㄷㅗㅇㅁㅐㅇㄱㅜㄴ	-10617
▁Cha	-10618
▁ㅅㅔㄹㄹㅔㄱ	-10619
▁ㅅㅏㅁㄱㅜㄱㅅㅏ	-10620
ily	-10621
▁ㅈㅠㄹ	-10622
▁Friend	-10623
▁ㄷㅗㅇㄹㅠㄹ	-10624
▁sw	-10625
▁ㅎㅏㅇㅅㅗ	-10626
▁DIO	-10627
▁ㅅㅓㄴㄷㅓ	-10628
▁ㅇㅝㄴㅅㅏㄴ	-10629
▁ㅊㅓㄹㅈㅏ	-10630
▁ㅎㅏㄴㅈㅣ	-10631
▁ㅁㅕㅇㅅㅣㅁ	-10632
▁ㅇㅝㄴㅇㅏㄴ	-10633
▁ㅂㅔㅅ	-10634
▁ㅅㅣㄹㄱㅣ	-10635
68	-10636
ㅘㄱ	-10637
ㄱㅕㄱㅌㅐ	-10638
▁1931	-10639
▁ㅇㅏㅂㅅㅡㅇ	-10640
bsp	-10641
▁EL	-10642
▁747	-10643
▁SNK	-10644
▁ㅇㅑㄱㅅㅏ	-10645
▁ㄷㅏㅅㅋㅓㅁ	-10646
▁ㅌㅏㄹㄹㅏㄱㅈㅏ	-10647
▁ㅍㅐㅅ	-10648
▁ㅇㅔㅅ	-10649
▁ㅎㅣㅅ	-10650
▁ㅂㅏㅇㅇㅏ	-10651
▁ㅇㅑㅇㅎㅕㄴㅈㅗㅇ	-10652
▁Chap	-10653
▁Level	-10654
▁ㅍㅏㄹㄷㅏ	-10655
▁ㅅㅗㄴㅂㅏㄹ	-10656
ㅅㅣㄹㄹㅗㄱ	-10657
▁229	-10658
ㅇㅣㄴㅎㅚ	-10659
▁ㅇㅔㄹㅅㅏ	-10660
▁ㄷㅏㅀ	-10661
▁ㅇㅗㄱㅅㅡ	-10662
▁ㅈㅣㅂㅇㅛ	-10663
ㅎㅐㅇㅈㅏㅇ	-10664
▁ㄱㅗㅇㅇㅕㄴㅈㅏㅇ	-10665
▁ㅇㅣㄴㅌㅓㄴ	-10666
▁ㄹㅖ	-10667
ves	-10668
▁ㅉㅏㅂ	-10669
▁ㄴㅏㄱㅅㅏ	-10670
▁ㅂㅕㄴㅅㅗㄱ	-10671
onic	-10672
▁Pack	-10673
▁ㅈㅡㅇㅊㅏ	-10674
▁ㄱㅏㅇㅁㅣㄴㅎㅗ	-10675
▁ㅊㅓㅇㅁㅜㄴㅎㅚ	-10676
▁ㄱㅗㅇㄱㅕㄱㄷㅐ	-10677
ㅂㅏㄱㅅㅏ	-10678
▁ㅎㅗㅇㅊㅏ	-10679
▁BMS	-10680
▁ㅊㅓㅇㄹㅑㅇㄹㅣ	-10681
▁."	-10682
▁ㄴㅡㄴㅋㅓ	-10683
▁hell	-10684
▁ㅇㅏㅇㅅㅏㅇ	-10685
alent	-10686
▁ㅂㅓㄴㅉㅓㄱ	-10687
ㅈㅜㅇㅎㅐ	-10688
▁ㄷㅗㅇㅈㅏ	-10689
▁ㅅㅓㅁㅁㅓ	-10690
▁Univers	-10691
▁ㄴㅏㅁㅅㅓ	-10692
ㅅㅓㄹㅅㅜ	-10693
ㅇㅏㄴㅂㅜ	-10694
▁ㅋㅗㅂ	-10695
▁hats	-10696
ㄹㅏㅇㅋㅔㄴㅅㅠ	-10697
rol	-10698
▁ㅇㅏㄴㅇㅕㅇ	-10699
▁Mac	-10700
ider	-10701
ㅅㅗㅇㅇㅣ	-10702
▁nbsp	-10703
ㄱㅏㄱㅅㅏㅇ	-10704
▁ㄴㅔㄹㅅㅡㄴ	-10705
▁ㅈㅏㅇㅂㅏㄹ	-10706
▁ㅅㅏㅁㄱㅏㄱㅎㅕㅇ	-10707
ouch	-10708
▁ㅇㅣㄹㄱㅘㄹ	-10709
▁ㅅㅐㅅ	-10710
▁ㅅㅕㅅ	-10711
ㅇㅜㄴㅅㅡ	-10712
ㅂㅏㄹㄹㅕㄱ	-10713
▁ㅅㅓㄹㄴㅏㄹ	-10714
▁ㅈㅏㅇㅎㅘ	-10715
ㅁㅜㄴㅈㅓㅁ	-10716
ha	-10717
▁ㅈㅏㄹㄴㅏ	-10718
DER	-10719
72	-10720
▁251	-10721
▁NAS	-10722
▁ㅇㅏㄹㅈㅔ	-10723
▁ㅅㅣㄹㅋㅓㅅ	-10724
▁ㅂㅑ	-10725
▁ㄷㅏㄴㄷㅗ	-10726
▁ㅅㅏㅇㅅㅜ	-10727
▁ㄱㅏㅁㅊㅏㄹ	-10728
▁ㅎㅡㄱㅅㅐㄱ	-10729
▁Young	-10730
▁ㄴㅐㅂㄷㅏ	-10731
my	-10732
ible	-10733
▁their	-10734
▁GAME	-10735
▁ㅁㅣㄹㅈㅣㅍ	-10736
▁ㅁㅐㄴㅅㅓ	-10737
▁ㅎㅏㅇㅅㅓㅇ	-10738
▁Japan	-10739
ㅋㅡㄹㄹㅣㅂㅅㅡ	-10740
ISS	-10741
▁ㅂㅏㄱㅇㅝㄴ	-10742
▁1910	-10743
▁ㅇㅡㅁㅍㅏ	-10744
▁ㅇㅛㅇㅇㅣㄴㅅㅣ	-10745
▁ㅊㅏㄱㅇㅏㄴ	-10746
ㅇㅕㅇㅇㅜㅇ	-10747
▁ㅊㅜㄹㄱㅜㄱ	-10748
▁ㅎㅙㅅㅂㅜㄹ	-10749
▁ㅋㅐㅂㅊㅕ	-10750
leep	-10751
▁ㅇㅝㄴㄱㅏ	-10752
▁POWER	-10753
▁ㅇㅕㅂㄱㅣ	-10754
▁ㅁㅏㄱㅅㅣ	-10755
▁ㅁㅗㅅㅅㅐㅇㄱㅣ	-10756
▁hatsan	-10757
ㅋㅗㅂ	-10758
St	-10759
▁NV	-10760
▁ㄴㅏㄴㄷㅔ	-10761
▁ㅍㅜㄹㅌㅏ	-10762
▁ㅇㅓㄴㄸㅡㅅ	-10763
▁Champions	-10764
ㅅㅏㄴㄷㅐ	-10765
ㅈㅗㅇㅇㅜㄱ	-10766
▁ㅎㅐㅇㄹㅕㄹ	-10767
▁TBS	-10768
▁ㅎㅏㄴㅇㅣㄴ	-10769
▁Full	-10770
▁ㅂㅏㅇㅌㅏㄴㅂㅗㄱ	-10771
▁ㅁㅏㄹㅂㅓ	-10772
ㅈㅏㄱㅂㅓㅂ	-10773
▁ㄹㅗㅇㅈㅜ	-10774
ㅇㅜㄹㅈㅡㅇ	-10775
ㅇㅣㄴㅊㅡ	-10776
ㅅㅓㄹㅁㅜㄹ	-10777
ㅇㅣㄴㅊㅏ	-10778
▁bit	-10779
ㅇㅠㄴㅅㅜ	-10780
▁ㅅㅣㄱㄱㅜ	-10781
▁ah	-10782
ement	-10783
ㅈㅏㅇㅈㅏ	-10784
▁ㅍㅏㄴㅌㅔ	-10785
▁1918	-10786
icle	-10787
ㅇㅣㄹㄱㅓㄴ	-10788
by	-10789
ㅌㅗㅇㅇㅣㄹ	-10790
▁res	-10791
▁560	-10792
▁ㅇㅕㄴㅁㅗㅅ	-10793
▁ㄱㅕㅇㅁㅕㄹ	-10794
▁ㅈㅓㅇㅁㅗㅇ	-10795
▁==	-10796
▁!!!!	-10797
ㅁㅏㄱㅎㅣ	-10798
OTH	-10799
▁Que	-10800
ㅇㅛㅇㅅㅏ	-10801
gg	-10802
ubl	-10803
▁ㄱㅕㅌㄷㅡㄹㅇㅣ	-10804
▁ㅈㅓㅇㅈㅜㄴㅎㅏ	-10805
▁ㄱㅝㄴㅎㅕㄱ	-10806
▁ㅊㅓㄴㅇㅘㅇ	-10807
ㅎㅕㅁ	-10808
▁ㅁㅐㄱㅋㅡ	-10809
ㅌㅡㄹㅈㅡ	-10810
▁ㅇㅛㅇㄴㅏㅂ	-10811
ㅇㅣㄴㄹㅣ	-10812
▁ㅅㅜㄱㅈㅓㄱ	-10813
▁ㅅㅏㄴㅅㅏㄴㅈㅗ	-10814
▁des	-10815
▁ㅈㅓㅇㅅㅓㄹ	-10816
ㄹㅣㄹㄹㅓ	-10817
▁ㅇㅣㄹㅍㅏ	-10818
▁ㅅㅣㄹㅁㅜㄹ	-10819
press	-10820
▁ㄹㅐㅁㅈㅣ	-10821
▁ㅋㅗㅇㄱㅗ	-10822
▁ㅊㅗㅇㅅㅜ	-10823
ㅇㅠㄴㅇㅕㄹ	-10824
ㅈㅣㄴㄱㅜ	-10825
▁ㄷㅗㄱㄹㅣㅂㅇㅜㄴㄷㅗㅇㄱㅏ	-10826
▁ㅉㅏㄴ	-10827
▁ㅁㅕㄱㅅㅏㄹ	-10828
▁Ele	-10829
▁ㅋㅓㄹㅊㅕ	-10830
▁ㄹㅜㄹㄹㅔㅅ	-10831
▁ㅇㅣㄹㅍㅕㅇㄱㅠㄴ	-10832
ㄷㅔㄴㅌㅣ	-10833
▁ㄱㅏㄱㅈㅜ	-10834
▁ㅂㅐㄱㅎㅗ	-10835
▁ㅇㅣㄴㅍㅏ	-10836
ㅅㅡㄹㄹㅏㄴㄷㅡ	-10837
▁ㅂㅏㄹㅎㅛ	-10838
▁ㅎㅜㄹㅉㅓㄱ	-10839
▁ㅎㅘㅇㅊㅓㄴ	-10840
▁ㅎㅏㅂㄱㅕㄱㅈㅏ	-10841
▁ㅂㅗㄹㅌㅣ	-10842
▁660	-10843
▁ㄱㅏㄱㅂㅗㄴㄱㅏ	-10844
▁ㅅㅗㄹㄹㅜ	-10845
ㄸㅓㄹ	-10846
▁ㅅㅣㅁㅎㅐ	-10847
▁AO	-10848
▁ㄱㅗㅇㅈㅓㄴ	-10849
▁ㅎㅗㄴㅈㅏㅂ	-10850
▁237	-10851
▁ㅅㅗㅇㅅㅣㄴ	-10852
ㄷㅔㅁ	-10853
ATO	-10854
▁ㄸㅏㄱㅈㅣ	-10855
ㅍㅕㅇㄷㅗㅇ	-10856
▁ㄹㅐㄹㄹㅣ	-10857
▁ㅅㅗㄴㄷㅐ	-10858
▁ㅈㅣㅅㄱㅓ	-10859
▁ㅍㅡㄹㄹㅗㅅ	-10860
▁-,	-10861
▁ㅂㅐㄱㅁㅏ	-10862
▁ㅇㅓㄴㄹㅣ	-10863
▁ㅋㅗㄹㄹㅣ	-10864
ㄱㅘㄴㅎㅏㄱㄱㅛ	-10865
▁ㅈㅣㄴㅈㅜㅇ	-10866
▁ㅅㅏㅇㅂㅕㅇ	-10867
ㄴㅗㅍ	-10868
IF	-10869
▁ㅊㅓㄴㅈㅏ	-10870
uj	-10871
ground	-10872
▁ㅂㅐㅅㅈㅣ	-10873
▁DL	-10874
▁244	-10875
▁Shad	-10876
▁ㅇㅠㄱㅅㅣㄴ	-10877
▁ㄷㅚㄴ	-10878
▁ㅇㅏㄵㅎㅣ	-10879
▁ㄱㅓㅁㅊㅜㄹ	-10880
▁Mad	-10881
ㅁㅏㄴㅇㅣㄴ	-10882
▁ㅇㅗㄹㄹㅣㅁ	-10883
▁ㅎㅏㄴㅇㅓㅄㅇㅣ	-10884
▁LCS	-10885
▁ㄱㅡㅂㅅㅗ	-10886
▁ㅇㅏㄴㄷㅐ	-10887
ㄱㅡㄴㄱㅓ	-10888
▁ㄲㅓㅂㄷㅔ	-10889
▁20000	-10890
▁Att	-10891
ㄹㅐㄴㅌㅡ	-10892
▁ㄱㅡㅁㅅㅔ	-10893
▁NMB	-10894
ㅈㅓㅇㄱㅜ	-10895
▁ㅆㅡㄹㄹㅣ	-10896
▁boy	-10897
▁GA	-10898
▁AAA	-10899
▁ㄱㅡㅂㄱㅏㅁ	-10900
▁ㄸㅏㅇㄱㅜㄹ	-10901
▁ㄱㅔㄴㅈㅣ	-10902
▁ㄴㅓㅅ	-10903
▁ㄱㅡㄱㄷㅗㅇ	-10904
▁ㄱㅓㄴㄷㅏㄹ	-10905
▁ㄷㅗㄱㅅㅏㄹ	-10906
▁ㅈㅗㄱㅂㅗ	-10907
▁Mel	-10908
▁ABC	-10909
▁MUSIC	-10910
▁Mil	-10911
▁ㅊㅗㅇㅇㅐ	-10912
▁ㅇㅏㅁㅁㅜㄱ	-10913
ㅅㅓㄴㅅㅡ	-10914
▁ㄷㅐㄱ	-10915
ㅅㅓㄴㅂㅓ	-10916
▁IEM	-10917
▁ㅂㅏㄱㅈㅣㄴㅇㅕㅇ	-10918
▁ㅅㅜㄴㅈㅓㄴㅎㅣ	-10919
▁ㅁㅟㄹㄹㅓ	-10920
ori	-10921
▁ㄹㅕㄹ	-10922
▁ㅎㅗㅂ	-10923
▁ㄷㅏㄹㄹㅏㅇ	-10924
ㅈㅗㅇㄷㅏㅇ	-10925
▁HKT	-10926
▁ㄱㅕㄹㅅㅓㄴ	-10927
▁ㅍㅜㅁㅁㅗㄱ	-10928
▁ㅎㅗㅇㅇㅣㄱ	-10929
yo	-10930
▁248	-10931
▁ㅇㅓㄱㄴㅜ	-10932
▁ㅇㅣㄹㅈㅓㄴ	-10933
▁ㅂㅜㄴㅅㅣㄹ	-10934
▁NXT	-10935
▁ㅇㅘㄴㅅㅡㅇ	-10936
▁DH	-10937
▁ㅂㅜㄹㄹㅠㄴ	-10938
▁ㅎㅘㅇㅅㅐㄱ	-10939
▁Mer	-10940
▁ㅂㅣㅇㄱㅡㄹㅂㅣㅇ	-10941
▁008	-10942
▁ㅇㅣㄴㄱㅖ	-10943
▁ㅊㅓㅂㅈㅏ	-10944
▁ㅅㅓㅇㅇㅜㄴ	-10945
▁ㄱㅜㄱㅈㅣ	-10946
▁ㅂㅕㄴㅊㅣㄱ	-10947
▁ㅂㅣㅇㄱㅡㄹㅂㅣㅇㄱㅡㄹ	-10948
▁264	-10949
▁ㅈㅓㅇㅅㅣㄴㄱㅣ	-10950
▁ㅈㅜㅇㅅㅣㅁㅂㅜ	-10951
ㅍㅕㅇㄱㅜ	-10952
▁html	-10953
▁ㅅㅓㄹㄱㅛ	-10954
▁ㅋㅓㅂㅅㅡ	-10955
▁ㄱㅣㅁㅅㅏㅇㅅㅜ	-10956
▁242	-10957
▁ㅇㅑㅇㅇㅑㅇ	-10958
▁ㅅㅣㄴㄹㅛㅇ	-10959
▁ㄷㅏㄴㅊㅜㄱㅋㅣ	-10960
ㅇㅣㄴㅅㅓㅇ	-10961
ㅅㅠㅁ	-10962
▁ㅂㅏㄹㄹㅏㄹ	-10963
ㅍㅔㄹㄹㅓ	-10964
ㅌㅡㄹㄹㅣㄴ	-10965
▁ㅋㅏㄱ	-10966
ㅅㅓㅇㅇㅐ	-10967
▁ㅎㅘㅇㄴㅕ	-10968
ㅎㅜㄴㄹㅕㄴ	-10969
▁ㅂㅐㄱㅅㅓㄹ	-10970
▁ㅈㅗㄴㄱㅣ	-10971
▁ㅇㅓㄹㄹㅡㄴ	-10972
▁wanna	-10973
ㅓㅇㅛ	-10974
ㅇㅛㅇㅈㅣ	-10975
ㅁㅔㄴㅅㅕㄴ	-10976
▁ㄱㅏㅇㅂㅜㄱ	-10977
67	-10978
▁ㄱㅣㄹㄹㅣ	-10979
▁ㄲㅗㅊㅇㅣㅍ	-10980
▁Lun	-10981
▁Games	-10982
▁There	-10983
hn	-10984
▁ㅅㅣㅁㅂㅗㄹ	-10985
▁765	-10986
ㅈㅣㅂㄱㅏ	-10987
▁ㅇㅣㄹㅎㅚ	-10988
ㅂㅏㅇㄱㅜㄴ	-10989
▁ㅂㅏㄱㄷㅗㅇ	-10990
▁ㅈㅏㅁㅈㅓㅇ	-10991
▁ㅍㅕㅇㅇㅗㄴ	-10992
▁Easy	-10993
▁ㄴㅏㅁㅋㅗ	-10994
▁ㅋㅔㄹㅌㅡ	-10995
▁ㅁㅣㄹㅈㅣㅍㅁㅗ	-10996
▁ㄱㅏㄱㄱㅘㅇ	-10997
▁ㅍㅕㅁ	-10998
▁ㄲㅗㅁㄲㅗㅁ	-10999
ㄷㅗㄱㅅㅡ	-11000
ility	-11001
ㅁㅣㄴㅈㅏ	-11002
ㄱㅙㅇㅇㅣ	-11003
▁ㅈㅗㄱㅈㅗㄱ	-11004
▁ㅎㅘㄴㅇㅠㄹ	-11005
▁ㄴㅏㅁㅈㅜ	-11006
▁ATM	-11007
▁ㅍㅔㄹㄹㅔ	-11008
▁ㅅㅡㅇㅅㅡㅇㅈㅏㅇㄱㅜ	-11009
▁Pa	-11010
ㄴㅔㄹㄹㅣ	-11011
▁ㅆㅗㄱ	-11012
▁ㅎㅕㄹㅇㅏㅂ	-11013
▁ㅇㅕㅇㄷㅗ	-11014
▁ㅎㅘㅇㅍㅖ	-11015
▁ㄱㅗㄹㄱㅕㄱ	-11016
ㅂㅏㅇㅅㅓ	-11017
▁ㅁㅗㅇㅋㅣ	-11018
avy	-11019
ㅌㅜㄹㄹㅜ	-11020
ㅁㅣㄹㄹㅏ	-11021
▁ㅈㅓㅇㅇㅐㄱ	-11022
▁ㄱㅜㄴㅅㅔ	-11023
▁ㅇㅕㄴㅈㅏㅇㅍㅗ	-11024
▁Spe	-11025
ㄱㅘㄴㄹㅣ	-11026
ㄲㅓㅅㅎㅐ	-11027
▁ㅅㅓㅇㄱㅖ	-11028
▁Brave	-11029
▁OT	-11030
▁ㅊㅏㄴㄹㅏㄴ	-11031
▁ㅅㅜㄱㅂㅏㄱ	-11032
▁ㅇㅕㄴㄷㅜ	-11033
▁ㄱㅗㅇㅍㅕㅇ	-11034
ison	-11035
▁ㅈㅓㄹㅈㅔ	-11036
▁ㄷㅗㄹㄱㅣ	-11037
▁ㅈㅏㄴㅈㅏㄴ	-11038
▁ㄱㅘㅇㄱㅛ	-11039
▁ㅍㅏㄴㄱㅛ	-11040
▁ㅁㅏㄹㄸㅜㄱ	-11041
▁ㅎㅕㅇㅈㅜ	-11042
▁ㅇㅘㅇㅈㅓㅇ	-11043
ense	-11044
ㅅㅡㅇㅈㅜㄴ	-11045
ㅊㅜㄱㅈㅓㄴㅊㅏ	-11046
▁ㅎㅏㄴㄹㅠ	-11047
▁ㅂㅜㄴㅅㅣㄱ	-11048
▁ㄱㅣㅁㅈㅏㅇ	-11049
▁Road	-11050
▁ㅇㅔㄴㄷㅗ	-11051
▁ㄱㅏㅁㄱㅕㄱ	-11052
ㅅㅏㄱㅅㅡ	-11053
▁ㅂㅏㄱㄱㅓㄴ	-11054
▁Ho	-11055
▁ㅎㅘㅇㅈㅐ	-11056
▁ㄱㅜㄷㄱㅓㄴ	-11057
▁ㅇㅣㄹㅋㅓㄹ	-11058
▁316	-11059
ㅌㅡㄹㄹㅗ	-11060
ㅈㅗㅇㅂㅓㅁ	-11061
▁254	-11062
▁ㅇㅕㄱㅈㅓㄱ	-11063
ㄱㅗㅇㄱㅏㄴ	-11064
ㅇㅑㄱㄱㅡㅁ	-11065
▁ㄸㅡㄷㄱㅣ	-11066
▁ㅇㅑㅇㅇㅠㄱ	-11067
▁ㅅㅣㄹㄱㅕㄱ	-11068
▁ㅇㅗㄴㄱㅓㄴ	-11069
▁ㅇㅣㄹㅉㅣㄱㅇㅣ	-11070
▁460	-11071
▁ㅂㅜㄹㄱㅗㅁ	-11072
▁ㅇㅑㄱㅌㅏㄹㅈㅏ	-11073
▁ㄱㅣㅁㄱㅘㅇㅎㅕㄴ	-11074
ㅊㅗㄴㅂㅓ	-11075
▁ㄱㅗㄴㄷㅗ	-11076
▁ㅈㅓㄴㅈㅗ	-11077
▁ㅁㅜㄴㄱㅕㅇ	-11078
▁ㅊㅔㅅ	-11079
▁per	-11080
ㅂㅜㄱㅇㅣ	-11081
▁ㄴㅔㅅㅍㅡㄹ	-11082
▁ㅈㅣㄹㄹㅓㅅ	-11083
▁ㄴㅔㅅㅍㅡㄹㄹㅣㄱㅅㅡ	-11084
uff	-11085
ㅎㅏㅇㅎㅐ	-11086
▁ㅈㅏㅇㄴㅏㄴㅊㅣ	-11087
▁ㄷㅔㄹㄹㅣ	-11088
▁VC	-11089
ㄹㅐㄴㅅㅓ	-11090
▁ㄴㅗㄹㄹㅣㅁ	-11091
▁ㅅㅜㄴㅂㅏㄹㄹㅕㄱ	-11092
▁ㅈㅓㅇㄱㅏ	-11093
▁ㅈㅏㄴㅈㅗㄴ	-11094
▁ㅂㅜㄴㅎㅏ	-11095
▁ㅇㅏㅍㅂㅜ	-11096
▁ㅅㅣㄴㅎㅐ	-11097
▁ㅎㅕㅇㅂㅓㅂ	-11098
▁dr	-11099
▁ㅅㅓㄴㄹㅑㅇ	-11100
▁ㅅㅔㄴㄱㅗ	-11101
▁ㄷㅡㄷㅂㅗ	-11102
▁ㅎㅕㄴㅅㅔ	-11103
▁ㅁㅐㅇㄹㅕㄹ	-11104
▁ㅎㅏㄴㅁㅜㄴ	-11105
▁Esports	-11106
▁ㄱㅣㅁㅂㅗ	-11107
ASH	-11108
▁ㅍㅣㅇㄱㅓ	-11109
▁ㅎㅏㄴㅁㅣ	-11110
▁ㅂㅏㄴㅅㅣㄴ	-11111
ㄱㅓㄱ	-11112
▁ㄱㅣㄹㄱㅏ	-11113
▁ㄴㅔㅅㅉㅐ	-11114
▁ㅇㅏㄹㄱㅗ	-11115
▁ㅍㅕㅇㅇㅢ	-11116
▁ㅅㅓㅇㅂㅜㄱ	-11117
ㅅㅏㄹㅍㅣ	-11118
▁ㅍㅐㄴㄷㅓ	-11119
▁ㄴㅜㄴㅇㅕ	-11120
ㅂㅐㄱㅎㅗ	-11121
ㅊㅗㅇㅅㅏ	-11122
▁ㄱㅡㅁㅊㅓㄴ	-11123
iri	-11124
▁ㅊㅓㄱㅊㅜ	-11125
ㅍㅔㄴㅅㅕㄴ	-11126
92	-11127
▁ㄱㅏㅁㅁㅏ	-11128
▁ㄱㅗㄱㄱㅙㅇㅇㅣ	-11129
▁ㅅㅏㅇㅂㅏㄴㅅㅣㄴ	-11130
▁left	-11131
ㅅㅏㄴㅂㅜ	-11132
▁ㅂㅜㄴㅊㅜㄹ	-11133
▁ㅇㅏㅂㄷㅜㄹ	-11134
▁ㅈㅓㅇㅅㅣㄴㅂㅕㅇ	-11135
▁Call	-11136
▁ㅇㅓㅂㅅㅗ	-11137
▁ㅋㅗㄹㅌㅡ	-11138
▁ㅎㅏㄴㄹㅏ	-11139
▁ㅍㅓㅁㅇㅞ	-11140
ITAD	-11141
ㄷㅏㅅㄱㅏ	-11142
mon	-11143
▁Long	-11144
▁ㅇㅘㅇㅅㅔ	-11145
oup	-11146
ITE	-11147
▁ㅂㅏㄱㅅㅗ	-11148
▁ㅁㅏㅇㅅㅣㄴ	-11149
▁ㅂㅐㄱㅈㅗㅇㅇㅝㄴ	-11150
▁ㄱㅏㄴㅅㅜ	-11151
▁1917	-11152
▁ㅅㅓㄹㄹㅣ	-11153
ㅅㅓㄴㅇㅣㄴ	-11154
▁TECHN	-11155
box	-11156
▁Port	-11157
ㄹㅔㄴㅌㅡ	-11158
▁ㅇㅏㄱㅈㅐ	-11159
▁ㅇㅑㅁㅈㅓㄴㅎㅣ	-11160
▁Arc	-11161
▁pop	-11162
▁ㄱㅡㅇㅈㅣ	-11163
▁ㄹㅏㅁㅂㅗ	-11164
▁ㅃㅛㅇ	-11165
▁ㅂㅣㅅㄷㅐ	-11166
▁et	-11167
▁1933	-11168
▁ㄷㅗㅇㄸㅓㄹㅇㅓ	-11169
▁802	-11170
ㄱㅣㅅㄱㅓ	-11171
ㄷㅡㄱㅎㅣ	-11172
ㅂㅕㅇㄱㅠ	-11173
ㅅㅏㄴㄷㅡ	-11174
▁ㅅㅣㄴㅈㅣㄴ	-11175
ㄹㅓㄹㄷㅡ	-11176
▁ㅅㅏㄴㅈㅣ	-11177
▁ㅂㅏㄹㄷㅏㅇ	-11178
▁ㅁㅓㅇㅎㅏ	-11179
▁ㅂㅏㄱㅎㅕㄴ	-11180
▁243	-11181
▁Bet	-11182
ㅇㅝㄴㄱㅡㅁ	-11183
ㅇㅠㄱㄱㅏㅁ	-11184
▁ㄴㅜㄴㄱㅣㄹ	-11185
ㄹㅡㅂ	-11186
▁Snow	-11187
▁ㅎㅏㄴㅅㅡㅇ	-11188
▁ㅅㅐㄱㅈㅓㄱ	-11189
▁ㅅㅐㅇㅁㅗㄹㄴㅕㄴ	-11190
▁285	-11191
▁ㅋㅡㄹㄹㅜ	-11192
▁ㅂㅜㄹㄹㅣㅅ	-11193
▁ㅂㅜㄹㄹㅑㅇㅂㅐ	-11194
▁been	-11195
▁GITAD	-11196
▁ㄱㅜㄱㅂㅗ	-11197
▁ㅇㅘㄴㄹㅕㄱ	-11198
▁SKY	-11199
▁ㅁㅕㅇㅎㅏ	-11200
▁ESP	-11201
▁ㅌㅡㄱㄹㅖ	-11202
enn	-11203
ㄹㅡㄹㅌㅔ	-11204
▁ㄱㅏㄴㄱㅘ	-11205
VEN	-11206
▁ㅂㅗㄱㅍㅏㄴ	-11207
▁ㅇㅚㄴㅂㅏㄹ	-11208
ㅍㅏㅂ	-11209
▁ㅇㅏㄴㅈㅜ	-11210
▁ㅈㅏㅇㅇㅕㅇ	-11211
▁ㅅㅣㄴㄱㅓㅁ	-11212
ㅋㅓㄹㄹㅗ	-11213
ㅈㅏㅅㅈㅣㅂ	-11214
▁ㅅㅓㄹㅇㅝㄴ	-11215
▁ㄴㅗㅇㄷㅗ	-11216
▁IMF	-11217
▁ㅇㅏㄹㄹㅕ	-11218
LY	-11219
ㅋㅏㅇ	-11220
▁ㄷㅗㄱㅅㅗ	-11221
ㅂㅏㅇㄱㅘㄴ	-11222
▁Secret	-11223
▁ㄱㅣㅁㄴㅏㅁ	-11224
▁308	-11225
▁SDRAM	-11226
▁Her	-11227
▁ㅈㅑㅇ	-11228
▁ㄱㅘㅇㅎㅐ	-11229
▁ㅁㅣㄹㅅㅜ	-11230
▁ㅌㅗㅇㅍㅖ	-11231
▁ㄱㅘㄴㅅㅔ	-11232
▁737	-11233
▁Key	-11234
ㅇㅜㄹㅇㅓ	-11235
▁ㅂㅏㄹㅍㅗ	-11236
▁ㅎㅕㅁㅎㅏㄴ	-11237
▁ㄷㅔㅂ	-11238
▁NCT	-11239
ㄹㅗㄱㅅㅡ	-11240
▁ㄷㅗㅇㅂㅐㄱ	-11241
▁ㅂㅏㄴㅇㅣㅂ	-11242
▁ㅍㅔㄹㄹㅣㄱㅅㅡ	-11243
▁SUV	-11244
▁ㅇㅓㅁㅎㅏ	-11245
▁501	-11246
▁Knight	-11247
▁ㅎㅘㄹㅂㅏㄹㅎㅣ	-11248
▁Gh	-11249
▁!!"	-11250
▁530	-11251
▁ㄷㅏㄴㄱㅜㄱ	-11252
ㄱㅏㄴㅈㅔ	-11253
▁ㄷㅏㅇㅂㅜ	-11254
▁ㅁㅕㅇㅊㅣ	-11255
▁LPDDR	-11256
▁ㅂㅗㅇㅌㅜ	-11257
▁ㅁㅏㅇㅇㅝㄴㄱㅕㅇ	-11258
▁Hi	-11259
▁ACT	-11260
▁ㅅㅣㄴㅌㅏㄱ	-11261
▁ㅂㅏㄹㅂㅕㅇ	-11262
▁ㅅㅡㅇㅇㅛㅇㅊㅏ	-11263
▁EE	-11264
▁FT	-11265
razy	-11266
▁ㅍㅏㄴㄴㅔㄹ	-11267
▁ㅊㅓㄴㅇㅏㄴㅅㅣ	-11268
▁jpg	-11269
▁ㅎㅘㄴㅅㅜㄹ	-11270
▁ㅅㅏㄹㅇㅠㄱ	-11271
▁Bro	-11272
ㄲㅏㅌㅉㅗㄱ	-11273
▁into	-11274
▁ㅎㅏㅇㅁㅏ	-11275
▁ㅂㅓㄴㄷㅡㄹ	-11276
▁ㅈㅡㅇㅅㅣㄱ	-11277
▁ㄱㅏㄺ	-11278
▁ㄷㅏㅁㄱㅡ	-11279
ㅅㅓㅇㅎㅜㄴ	-11280
▁ㅎㅐㅇㅋㅡ	-11281
ㅂㅓㄹㅇㅣ	-11282
▁take	-11283
▁ㅅㅏㄹㅂㅓㄹ	-11284
▁ㅇㅕㄱㅎㅐㅇ	-11285
▁war	-11286
▁Cortex	-11287
▁VI	-11288
▁ㅈㅏㅇㅈㅏ	-11289
▁ㅅㅗㄱㅊㅜㄹ	-11290
▁FS	-11291
▁ㄴㅔㄱㅌㅏ	-11292
▁ㄷㅓㄴㄷㅔ	-11293
▁ㅁㅜㄱㅁㅜㄱ	-11294
▁ㅇㅡㄴㅇㅓ	-11295
▁ㄱㅕㄹㅅㅗㄱ	-11296
▁ㅁㅕㅇㅈㅓㄹ	-11297
▁ㅂㅏㄴㅂㅏㄴ	-11298
AKA	-11299
▁es	-11300
▁ㅊㅜㅇㅇㅣ	-11301
▁ㅅㅓㄴㄷㅏㄴ	-11302
ㅅㅣㄴㅈㅓㄴㅅㅐㅇ	-11303
▁ㅇㅑㅇㅈㅐ	-11304
ember	-11305
ㄹㅜㅅㅂㅏㅁ	-11306
▁GITADORA	-11307
▁ㄴㅠㅁ	-11308
▁MOV	-11309
▁ㅅㅏㄹㅍㅗ	-11310
▁ㄱㅡㄴㅊㅣㄴ	-11311
▁ㅅㅓㅇㅇㅢ	-11312
▁ㅇㅣㄹㅁㅕㄴ	-11313
▁ㅈㅓㄴㅁㅕㄴㅈㅓㄴ	-11314
▁ㅅㅣㄱㅇㅛㅇ	-11315
ㄴㅜㄱㅅㅡ	-11316
▁Normal	-11317
▁ㅍㅓㅇㅍㅓㅇ	-11318
▁ㅇㅣㄴㅅㅜㄹ	-11319
▁580	-11320
ㅊㅜㅇㄹㅠ	-11321
ㅍㅗㄱㅍㅜㅇ	-11322
▁ㅁㅜㄴㅍㅏ	-11323
▁ㅌㅡㄱㅎㅖ	-11324
▁ㅈㅓㅇㅎㅜㄴ	-11325
▁ㅈㅗㅇㅅㅗㄱ	-11326
▁1928	-11327
▁ㅎㅗㄹㅅㅜ	-11328
▁ㄱㅏㅇㄱㅜㄱ	-11329
ㅁㅠㄹㄹㅓ	-11330
▁ㅇㅣㄴㄷㅓ	-11331
ㄷㅗㅇㄱㅏㅇ	-11332
▁LB	-11333
▁ㄱㅕㄹㅈㅓㅇㄹㅕㄱ	-11334
▁Days	-11335
▁ㄱㅗㅇㅁㅣㄴ	-11336
▁ㅅㅓㅇㄷㅏㄴ	-11337
ied	-11338
▁ㅇㅠㅅ	-11339
ㄱㅣㅍ	-11340
▁303	-11341
▁ㅈㅏㅇㅈㅏㄱ	-11342
▁ㅎㅡㅂㅇㅣㅂ	-11343
▁ㄱㅣㄹㅌㅣ	-11344
▁ㅂㅏㅇㅅㅜ	-11345
▁625	-11346
ㅇㅛㅇㄱㅠ	-11347
isode	-11348
▁ㅂㅏㄴㄴㅕㄴ	-11349
ㅇㅗㄹㄹㅗ	-11350
▁ㅇㅑㅇㅂㅜㄴ	-11351
▁ㅍㅐㅇㅍㅐㅇ	-11352
REAM	-11353
▁Fil	-11354
▁ㅅㅐㄴㄷㅓ	-11355
▁ㄷㅏㄴㅎㅗ	-11356
▁ㄷㅗㅇㄷㅜ	-11357
▁ㅁㅜㄹㅂㅏㅇㅇㅜㄹ	-11358
▁ㅉㅏㅁㅃㅗㅇ	-11359
ㄱㅝㄴㄷㅗ	-11360
▁ㄱㅓㄴㅁㅏㄴ	-11361
▁ㅅㅗㄱㅇㅏ	-11362
ㅇㅓㄵ	-11363
▁Kar	-11364
▁stay	-11365
▁Gener	-11366
▁ㅇㅐㄴㅌㅡ	-11367
▁ㅂㅏㅇㅎㅑㅇㅋㅣ	-11368
ㅂㅗㄲㅇㅣ	-11369
WAR	-11370
▁ㅇㅏㄹㅁㅏ	-11371
▁ㅂㅜㄴㄷㅏㅇㅅㅓㄴ	-11372
▁OC	-11373
▁666	-11374
▁1929	-11375
▁Stand	-11376
▁ㅅㅐㅇㅅㅗ	-11377
irc	-11378
▁MI	-11379
▁xC	-11380
▁ㅈㅓㄱㄷㅗ	-11381
ugh	-11382
ether	-11383
▁ㅌㅏㄴㅅㅏㄴ	-11384
▁Eur	-11385
GP	-11386
▁ㅂㅏㄷㅊㅣㅁ	-11387
▁ㅁㅗㄱㅇㅛㄱㅌㅏㅇ	-11388
ella	-11389
ㅎㅘㅇㅎㅜ	-11390
▁ㅇㅕㄱㅈㅏㅇ	-11391
ㄴㅏㄹㄹㅔ	-11392
ㅈㅓㄴㄷㅐ	-11393
▁ㄷㅡㄹㄹㅓ	-11394
▁ㅅㅓㅇㅈㅗㅇ	-11395
▁long	-11396
▁ㅅㅣㄹㄹㅖ	-11397
▁ㅂㅡㄹㄹㅣㅇ	-11398
....	-11399
uction	-11400
▁Hello	-11401
▁Trans	-11402
▁ㅇㅞㄴㄹㅣ	-11403
▁ㅌㅗㅇㅇㅕㅇ	-11404
ㅁㅣㄹㅌㅓㄴ	-11405
▁sl	-11406
ㅆㅓㄱ	-11407
▁247	-11408
▁1925	-11409
▁ㅋㅏㄴㅈㅏ	-11410
▁ㅅㅣㄹㄹㅣㄴㄷㅓ	-11411
ㅅㅣㅂㅈㅏ	-11412
▁color	-11413
▁ㅂㅣㅅㅈㅏ	-11414
ault	-11415
▁ㅇㅏㅇㅅㅏㅇㅂㅡㄹ	-11416
▁ZZ	-11417
▁ㅂㅏㄹㄷㅏㄴ	-11418
▁1932	-11419
▁WCW	-11420
▁ㅅㅗㅇㄹㅏ	-11421
ㅈㅓㅇㅉㅓㅇ	-11422
▁Cup	-11423
▁ㅂㅣㄴㅁㅣㄴ	-11424
▁ㅈㅓㅇㅂㅏㄱ	-11425
als	-11426
▁NR	-11427
▁ㅅㅗㄱㅈㅚ	-11428
▁ㄴㅐㅇㅊㅓㄹ	-11429
icon	-11430
▁STAGE	-11431
▁ㄱㅕㅇㅅㅏㄴ	-11432
▁246	-11433
▁ㅊㅓㅇㅈㅏ	-11434
▁1927	-11435
▁ㅇㅏㄹㅌㅔ	-11436
▁ㄱㅏㄹㅁㅏㅇ	-11437
▁ㄷㅗㅇㄱㅏㅇ	-11438
▁ㅊㅣㅂㅅㅔㅅ	-11439
▁ㅇㅑㄱㅎㅗㄴㅈㅏ	-11440
▁North	-11441
▁ㅋㅝㄴ	-11442
▁ㅍㅏㅌ	-11443
▁ㅈㅣㄱㅈㅗㅇ	-11444
▁ㅇㅣㄱㅅㅏ	-11445
▁Burst	-11446
▁ㅁㅣㄹㅋㅡ	-11447
▁ㄴㅏㄴㅈㅣㅇ	-11448
ka	-11449
▁game	-11450
▁ㅈㅓㄹㅅㅣㄹ	-11451
ㅅㅏㅇㅈㅜ	-11452
▁ㅁㅕㅇㅇㅓㄴ	-11453
▁ㅇㅡㄴㅇㅣㄴ	-11454
▁ㅌㅗㅇㅈㅏㅇ	-11455
▁Jack	-11456
▁ㅅㅣㄴㅇㅑㄱ	-11457
▁ㄹㅓㅅ	-11458
▁ㅇㅕㅍㅈㅣㅂ	-11459
▁ㅌㅏㅂㅅㅡㅇㅈㅏ	-11460
▁ㅌㅗㅇㅈㅗ	-11461
atter	-11462
ㄷㅜㄴㅈㅣ	-11463
▁ㄱㅕㄱㅂㅜㄴ	-11464
▁ㅇㅝㄴㄷㅐ	-11465
▁ㅈㅣㄹㅊㅐㄱ	-11466
▁ㅁㅏㄴㄷㅏㅁ	-11467
ience	-11468
▁ㅂㅓㅁㅌㅚ	-11469
▁ㅎㅏㄴㄱㅜㄱㅅㅏ	-11470
▁Gra	-11471
ㅇㅡㅁㅁㅓㄱ	-11472
▁ㅇㅝㄹㄱㅘㅇ	-11473
▁ㄱㅗㅇㄱㅕㄱㅈㅣㄴ	-11474
▁ㅅㅏㅇㅊㅡㅇ	-11475
▁ㅈㅣㅇㅈㅣㅂ	-11476
▁LM	-11477
ㅂㅏㅇㄷㅗ	-11478
▁ㅊㅓㄹㅎㅏㄱㅈㅏ	-11479
▁ㄷㅓㄹㅎㅏ	-11480
reen	-11481
ㅌㅗㅇㅂㅜ	-11482
▁ㅇㅡㄴㄷㅜㄴ	-11483
▁470	-11484
ㅇㅏㄴㄱㅘㄴ	-11485
▁ㄷㅗㅇㄷㅗㄱ	-11486
▁Ins	-11487
▁Mach	-11488
▁ㅇㅠㄴㅎㅚ	-11489
▁ㅇㅏㄹㄹㅔㄴ	-11490
▁ㅈㅣㅇㅂㅓㄹ	-11491
esh	-11492
▁Only	-11493
▁239	-11494
▁ㅁㅣㄴㅅㅜ	-11495
▁ㄴㅏㅁㄷㅏ	-11496
▁ㅅㅏㅁㅊㅗㅇㅅㅏ	-11497
ince	-11498
▁SHD	-11499
▁ㄷㅏㄴㅅㅜ	-11500
▁ㄴㅐㅁㅂㅣ	-11501
▁ㅎㅑㅇㅅㅣㄴㄹㅛ	-11502
mas	-11503
ents	-11504
▁bet	-11505
▁ㄱㅘㄴㄴㅐ	-11506
▁ㄴㅏㄱㅇㅑㅇ	-11507
▁ㅇㅜㅇㅈㅏㅇ	-11508
ㅈㅏㄶ	-11509
ㄹㅣㄴㅌㅓ	-11510
▁ㅈㅣㄴㅎㅗㅇ	-11511
▁ㅊㅣㄴㅅㅜㄱ	-11512
ELL	-11513
ㅈㅏㅇㅊㅏㅇ	-11514
IKA	-11515
▁ㅌㅡㄱㅂㅕㄹㅈㅏ	-11516
▁ㅎㅗㄴㄴㅐ	-11517
▁ㅇㅏㄹㄹㅔㄱㅅㅣ	-11518
▁ㅈㅏㄱㅈㅏ	-11519
▁ㅂㅜㄱㅂㅓㄹ	-11520
▁ㅈㅏㅇㅇㅣ	-11521
▁ㅌㅡㅁㅌㅏ	-11522
▁ㅌㅏㄴㄹㅕㄱ	-11523
ㅈㅣㄴㄱㅣ	-11524
▁ㅈㅏㄴㅊㅣ	-11525
afe	-11526
▁Ice	-11527
▁ㅌㅗㅇㄱㅡㄴ	-11528
▁Intern	-11529
▁ㄱㅜㅇㅈㅓㅇ	-11530
▁ㅈㅓㅇㅅㅏㅇㄱㅡㅂ	-11531
▁"...	-11532
▁ㄱㅜㄴㅍㅗ	-11533
▁ㄱㅘㄴㅎㅕㄴ	-11534
▁ㅋㅗㄹㄹㅣㄴ	-11535
▁ㅎㅘㄴㅅㅏㅇㅎㅑㅇ	-11536
ㅂㅓㅇ	-11537
▁ㅅㅖㄴ	-11538
▁ㅇㅘㄴㄱㅡㅂ	-11539
▁INT	-11540
▁ㅎㅕㄹㄱㅘㄴ	-11541
emy	-11542
▁ser	-11543
ㅂㅔㄴㅈㅣ	-11544
▁ㅈㅓㄴㅂㅓㅁ	-11545
ㅊㅏㅇㅅㅣㄱ	-11546
▁ㅂㅏㄴㅇㅕㄹ	-11547
▁ㅇㅑㅇㅍㅏㄹ	-11548
▁ㄱㅡㅁㅁㅜㄹ	-11549
▁ㅇㅡㄴㅊㅗㅇ	-11550
su	-11551
ㅂㅣㄴㅅㅡㄴ	-11552
▁GU	-11553
▁look	-11554
▁241	-11555
ㄲㅗㅇ	-11556
▁ㄱㅣㅁㅁㅜㄴ	-11557
▁ㅇㅑㅇㅈㅓㅇ	-11558
▁ㅈㅏㅇㅎㅕㄴ	-11559
▁~.	-11560
ANCE	-11561
▁ㄱㅕㄴㅈㅜ	-11562
▁ㄷㅟㅅㄷㅏㅁ	-11563
uman	-11564
▁{{{#!	-11565
▁VP	-11566
▁Som	-11567
▁ㄱㅣㅁㅎㅏㄱ	-11568
▁ㄱㅏㅇㅈㅘ	-11569
▁ㄱㅜㅇㄱㅝㄹ	-11570
▁ㅂㅕㅇㅍㅜㅇ	-11571
▁ㅇㅘㅇㅊㅏㅇ	-11572
ㅅㅣㄹㅅㅏㅇㅂㅜ	-11573
▁ㅁㅕㅇㅅㅣㄹㅅㅏㅇㅂㅜ	-11574
▁ㅇㅑㅇㅊㅓㄴ	-11575
▁ㅂㅗㄱㅅㅓ	-11576
▁ㅎㅗㅁㅍㅡㄹㄹㅓ	-11577
ㄴㅛㅇ	-11578
▁ㄹㅣㄴㅅㅡ	-11579
▁ㅂㅓㄴㅇㅚ	-11580
▁ㅈㅣㄴㅍㅜㅇ	-11581
▁talent	-11582
▁ㅍㅕㄴㅎㅑㅇ	-11583
▁ㅈㅓㄴㅅㅏㄴㅁㅏㅇ	-11584
ㄴㅑㅇㄱㅏㅁ	-11585
▁ㄱㅕㅇㅂㅗㄱ	-11586
URE	-11587
▁ㅎㅏㅇㄱㅗㅇㄷㅐ	-11588
▁ㅂㅏㄱㅅㅓㄱㅁㅣㄴ	-11589
▁DEX	-11590
▁ㅁㅗㄹㄷㅜ	-11591
▁ㅅㅣㄹㄹㅗㄱ	-11592
▁ㅍㅕㄴㅊㅏ	-11593
▁ㄱㅣㅁㅂㅗㅇ	-11594
ㅊㅡㅁ	-11595
▁ㄱㅣㅁㄱㅏㅇ	-11596
ㅇㅇㅏ	-11597
▁music	-11598
▁ㅊㅗㅇㄱㅓㅁ	-11599
aph	-11600
ㅋㅓㄹㄹㅣ	-11601
ㅉㅣㄹ	-11602
ㄱㅡㅁㅈㅔ	-11603
▁TC	-11604
ㄷㅏㄹㅂㅜ	-11605
ald	-11606
ㅎㅣㅁ	-11607
▁ㄱㅜㅁ	-11608
▁ㄱㅣㅁㅅㅓㅇㅎㅕㄴ	-11609
▁ed	-11610
▁ㅂㅜㄹㅁㅕㅇㅇㅖ	-11611
▁ㅂㅣㅇㄱㅡ	-11612
▁ㅊㅓㄴㅁㅜㄴㅎㅏㄱ	-11613
▁WA	-11614
▁ㅈㅓㅁㅈㅏㅇ	-11615
▁ㅂㅏㄱㅊㅏㄴㅎㅗ	-11616
▁ㅁㅏㄹㄹㅕ	-11617
▁ㄴㅏㅁㅅㅐㄱ	-11618
▁ㄷㅓㅁㅂㅡㄹ	-11619
▁ㄴㅜㄴㅇㅏㄹ	-11620
ology	-11621
▁ㄱㅗㄷㅈㅏㄹ	-11622
ids	-11623
▁1926	-11624
▁ㅅㅜㄴㅇㅑㅇ	-11625
ㄹㅏㄴㄷㅏ	-11626
ㅂㅓㅁㅅㅜ	-11627
ㅇㅜㄱㄷㅓ	-11628
▁Winter	-11629
▁ㅅㅓㅂㅈㅓㅇ	-11630
▁ㅁㅐㅇㄷㅗㄱㅊㅜㅇ	-11631
▁ㅇㅕㄴㅈㅏㅇㅅㅓㄴ	-11632
▁fff	-11633
ㄷㅓㄱㅇㅣ	-11634
▁ㅍㅕㅇㅅㅣ	-11635
▁ㄱㅏㄴㄷㅏㅁ	-11636
▁think	-11637
▁ㅎㅏㄴㅅㅣㄴ	-11638
▁Direct	-11639
▁ㅇㅘㄴㅌㅜ	-11640
▁262	-11641
▁ㅎㅘㅇㅇㅣㄴ	-11642
oph	-11643
▁002	-11644
▁304	-11645
▁ㅈㅓㄴㅅㅗ	-11646
ㅅㅓㅇㅎㅑㅇ	-11647
▁iP	-11648
▁ㅅㅗㄱㅈㅜ	-11649
ㅅㅐㅇㅅㅓㅇ	-11650
▁306	-11651
ㅎㅏㄱㅅㅐㅇㅎㅚ	-11652
▁ㄷㅗㅇㅂㅏㅇㅅㅣㄴㄱㅣ	-11653
ㅅㅓㅇㄷㅗㅇ	-11654
▁ㄱㅡㄹㄹㅔ	-11655
▁PPV	-11656
ㅊㅏㅇㅎㅗ	-11657
▁ㅎㅐㅇㅈㅓㅇㄷㅗㅇ	-11658
▁ㅈㅜㅇㅇㅏㅇㅇㅣㄹㅂㅗ	-11659
WA	-11660
ates	-11661
▁Network	-11662
▁ㅅㅡㄹㄹㅓㅁㅍㅡ	-11663
tus	-11664
▁680	-11665
▁ㅂㅏㄱㅇㅛㅇㅌㅐㄱ	-11666
ARK	-11667
▁1924	-11668
OLD	-11669
▁AH	-11670
ㅂㅣㅁ	-11671
▁980	-11672
▁ㅇㅏㅍㄷㅏㅇㄱㅣ	-11673
▁ㄴㅗㅅ	-11674
INK	-11675
▁ㅊㅗㄴㅈㅏㅇ	-11676
▁Die	-11677
▁ㅇㅛㅇㅅㅣ	-11678
ㅈㅏㄱㅁㅜㄹ	-11679
▁1080	-11680
ㅎㅏㄱㅇㅕ	-11681
▁ㅇㅣㄹㄱㅡ	-11682
▁311	-11683
ㄹㅜㄱㅅㅡ	-11684
▁ㅇㅛㅇㄹㅖ	-11685
▁ㅍㅣㄱㅅㅕㄴ	-11686
▁LF	-11687
▁ㄱㅣㅁㄱㅠ	-11688
ㄷㅓㅇㅇㅓ	-11689
ㅅㅣㄱㅈㅣ	-11690
▁ㅈㅓㄴㄷㅗㅇ	-11691
▁ㅁㅗㄱㄷㅗ	-11692
ㅎㅏㅇㅈㅓㄴ	-11693
▁ㄷㅡㅇㄹㅗㄱㄱㅡㅁ	-11694
ㄱㅜㅈ	-11695
▁ㅊㅗㅇㅊㅔ	-11696
▁ㄱㅗㅇㅎㅘㅇ	-11697
▁ㅅㅓㄴㅅㅜㄹ	-11698
uth	-11699
▁MOD	-11700
▁ㅇㅕㄱㅅㅜㄴ	-11701
ㅌㅗㅇㄹㅕㅇㄹㅕㅇ	-11702
▁ㅈㅓㄹㅍㅏㄴ	-11703
▁253	-11704
ㅅㅗㅌ	-11705
▁ㅁㅏㄴㅅㅣㄴ	-11706
ㅇㅏㅁㄹㅣ	-11707
▁ㄸㅓㄱㅂㅗㄲㅇㅣ	-11708
ㅇㅏㄹㄹㅏ	-11709
▁ㅎㅗㄱㄷㅗㄱ	-11710
▁rev	-11711
▁ㅇㅕㄴㅈㅏㅇㅈㅏ	-11712
iki	-11713
▁ㅇㅐㅅ	-11714
ㅋㅡㄹㄹㅗ	-11715
▁ㅇㅠㄱㅇㅏ	-11716
▁ㅅㅡㄹㄱㅣ	-11717
▁ㅂㅐㄱㅂㅏㄹ	-11718
▁ㅎㅏㄴㅅㅜ	-11719
▁Sports	-11720
▁HA	-11721
▁ㅊㅗㅇㅎㅏㄱㅅㅐㅇㅎㅚ	-11722
▁630	-11723
ki	-11724
ㅅㅔㄴㅌㅓ	-11725
▁ㅁㅏㅈㅇㅏ	-11726
▁ㄹㅏㅇㄱㅡ	-11727
▁Inc	-11728
▁ㄴㅏㅁㄱㅜㅇ	-11729
▁ㅂㅗㄹㄹㅣㅇ	-11730
▁ㅈㅜㅇㅇㅛㅇ	-11731
▁ㅍㅔㄴㅌㅏ	-11732
ami	-11733
▁USS	-11734
ㅅㅓㄴㅈㅓㄴ	-11735
▁ㅈㅡㅇㅈㅣㄴ	-11736
▁ㄱㅣㅁㄷㅗㅇㅎㅕㄴ	-11737
ures	-11738
ㅇㅜㅅㅅㅏ	-11739
▁ㅅㅣㄴㅇㅖ	-11740
ㄹㅅㅔ	-11741
▁SNH	-11742
▁ㅅㅜㄴㅎㅘ	-11743
ㅊㅓㅇㅈㅏㅇ	-11744
▁ㅈㅣㅇㅍㅛ	-11745
▁ㅁㅐㄴㅅㅗㄴ	-11746
▁Cur	-11747
▁After	-11748
▁ㅅㅏㄹㅇㅣㄴㅂㅓㅁ	-11749
▁HL	-11750
▁302	-11751
▁ㅅㅐㄱㄱㅣ	-11752
▁ㅇㅕㄴㅁㅜ	-11753
▁ㅇㅕㄴㅇㅓ	-11754
▁ㅅㅜㄴㅂㅓㄴ	-11755
▁ㄴㅏㅁㅎㅐ	-11756
ㅊㅜㄹㄹㅕㄱ	-11757
▁ㅂㅓㄴㅎㅘ	-11758
▁ㅊㅏㅇㅂㅓㅂ	-11759
ㄱㅏㅇㄷㅐ	-11760
ㅅㅏㄹㅍㅛ	-11761
ㄱㅗㅇㅇㅝㄴ	-11762
lin	-11763
▁ㄷㅗㄱㅈㅜ	-11764
▁ㅂㅡㄹㄹㅜㅁ	-11765
▁Pan	-11766
ㄷㅗㅇㅇㅜㄱ	-11767
▁ㅇㅑㅇㄱㅏㄱ	-11768
▁ㅇㅣㄹㅅㅣㄱ	-11769
▁KGC	-11770
▁ㅇㅡㄱ	-11771
za	-11772
▁ㅎㅝㄴ	-11773
▁TSM	-11774
▁away	-11775
▁ㅆㅘ	-11776
▁ㅂㅜㄴㅍㅏ	-11777
▁ㄱㅣㅁㅇㅡㅇ	-11778
▁blue	-11779
▁House	-11780
▁ㅇㅗㄹㅃㅐ	-11781
ㅅㅓㅇㅇㅜㄱ	-11782
ㅅㅔㅂㅌㅣ	-11783
▁ㅎㅏㄴㅈㅗㄱ	-11784
▁ㅂㅏㅇㅁㅏㅇㅇㅣ	-11785
▁dream	-11786
▁ㄱㅏㅇㅅㅣ	-11787
▁Spir	-11788
ㄱㅡㄱㄱㅣ	-11789
▁ㅎㅐㅁㅅㅡ	-11790
▁RES	-11791
bit	-11792
▁Reg	-11793
ㅂㅏㄱㄲㅗ	-11794
▁ㅇㅔㄹㄷㅏ	-11795
▁Kiss	-11796
▁ㄹㅔㄴㄷㅓ	-11797
▁ㄹㅕㅁㄱㅜ	-11798
▁005	-11799
▁ㅂㅜㄴㄷㅏㅁ	-11800
▁ㅎㅏㄱㄱㅜㄴ	-11801
▁ㅊㅣㄹㄷㅡ	-11802
▁ㅂㅐㄱㅂㅕㅇㅈㅓㄴ	-11803
ㄸㅜㄹㅇㅓ	-11804
▁ㄱㅕㅇㅇㅡㅁ	-11805
▁ㅅㅣㄴㅇㅕㅇ	-11806
▁ㅇㅣㅂㅅㅓㄱ	-11807
▁ㅈㅓㅇㅍㅜㅁ	-11808
▁ㅊㅓㄴㅅㅓㅇ	-11809
▁%]	-11810
▁Roy	-11811
▁ㄱㅓㅂㅁㅓㄱ	-11812
▁ㅂㅕㅇㅇㅡㅁ	-11813
reet	-11814
▁760	-11815
▁ㄷㅗㅇㅂㅗㄱ	-11816
▁ㅍㅏㄱㅍㅏㄱ	-11817
▁Lost	-11818
▁ㅎㅜㄴㄹㅕㄴㅈㅏㅇ	-11819
▁ㅂㅗㅇㅈㅣ	-11820
▁ㅅㅓㄴㅊㅟ	-11821
ㄷㅏㄱㄴㅏ	-11822
▁Ha	-11823
▁IZ	-11824
▁Fun	-11825
▁ㅈㅏㅇㅈㅣㄴ	-11826
▁ㄹㅡㅁ	-11827
▁ㅅㅐㅁㅍㅡㄹㄹㅣㅇ	-11828
▁ㅇㅏㅇㅈㅠ	-11829
ㅂㅡㄹㄹㅓ	-11830
▁Inter	-11831
▁ㅁㅗㅁㄱㅏㅄ	-11832
▁ㅇㅕㄴㅎㅏㅂㅎㅚ	-11833
▁GF	-11834
ㅁㅜㄷ	-11835
▁080	-11836
▁ㅃㅓㄱ	-11837
▁ㄴㅜㄹㄹㅣ	-11838
▁SPEC	-11839
▁ㅂㅏㄹㅂㅓ	-11840
▁ㅅㅓㅇㅂㅜㄹ	-11841
▁ㅊㅓㅇㅎㅗㄴ	-11842
▁ㅅㅡㅇㅈㅗ	-11843
ㅂㅏㄴㅉㅏㄱ	-11844
▁ㄱㅜㄴㅊㅓㅇ	-11845
▁ㄷㅏㅇㅈㅣㄴ	-11846
▁ㄱㅗㅇㅍㅏㄴ	-11847
▁ㅂㅏㄴㅉㅏㄱㅂㅏㄴㅉㅏㄱ	-11848
▁288	-11849
ㅇㅠㄱㅂㅗㄱ	-11850
▁ㅇㅑㅇㄴㅏㄹ	-11851
▁ㅈㅣㄱㄹㅕㄹ	-11852
QU	-11853
▁ㅇㅣㄺㅎㅣ	-11854
ㅁㅣㄴㅇㅜ	-11855
ato	-11856
ㄱㅗㅅㅈㅓ	-11857
▁FINAL	-11858
▁ㅇㅑㄱㅊㅗ	-11859
▁ㅇㅕㄴㅎㅠ	-11860
▁ㅎㅘㅇㄱㅣ	-11861
▁ㅌㅗㄱㅌㅗㄱㅎㅣ	-11862
▁ㅍㅜㅇㅁㅣ	-11863
▁ㅈㅜㅇㅇㅏㅇㅇㅏ	-11864
YS	-11865
▁USA	-11866
ㅈㅓㄴㅇㅕㄱ	-11867
ks	-11868
▁Dan	-11869
ㅌㅡㄱㄱㅣ	-11870
▁ㅅㅗㄹㅌㅡ	-11871
▁Again	-11872
▁ㅇㅐㄱㅈㅏ	-11873
▁ㄹㅔㄹㄹㅡㅁ	-11874
▁IR	-11875
▁555	-11876
▁ㅎㅘㅇㄹㅛㅇ	-11877
▁ㅂㅜㄹㅅㅏㅇㅅㅏ	-11878
▁Dig	-11879
▁ROX	-11880
▁ㅊㅣㄹㄱㅗㄱ	-11881
ORPG	-11882
▁ㄷㅣㅁ	-11883
▁ㄱㅝㄴㅅㅗㄱ	-11884
▁2100	-11885
ㅁㅏㄴㅇㅡㄴ	-11886
▁RGB	-11887
▁ㅁㅣㄴㅅㅏ	-11888
▁rem	-11889
▁ㅁㅏㄴㅇㅕㄴ	-11890
▁ㅊㅓㄴㄴㅕㄴㄱㅣ	-11891
▁ㅁㅕㄴㄷㅏㅁ	-11892
▁ㅁㅗㄱㄱㅕㄱㅈㅏ	-11893
GO	-11894
unch	-11895
▁ㅅㅑㄹㄹㅓㅅ	-11896
▁ㄷㅗㄹㅂㅏㄹ	-11897
▁Wol	-11898
▁ㅅㅗㄱㅊㅣㅇ	-11899
▁ㅇㅝㄴㅂㅏㄴ	-11900
▁ㅎㅏㄱㅅㅣㄹ	-11901
▁ㅇㅜㄹㅅㅏㄴㄱㅘㅇㅇㅕㄱㅅㅣ	-11902
▁ㅇㅔㅇ	-11903
▁ㅌㅡㄱㅁㅜ	-11904
ㄷㅣㄹ	-11905
tor	-11906
▁bo	-11907
▁ㄱㅏㅇㅎㅢ	-11908
▁ㅌㅡㄱㄱㅓㅁ	-11909
va	-11910
order	-11911
▁ㅂㅓㄴㅈㅏㄱ	-11912
▁ㅅㅓㄴㅊㅏㄱ	-11913
▁ㅁㅏㄴㅅㅓㅇ	-11914
ㅃㅜㄴ	-11915
▁TA	-11916
▁Tim	-11917
▁ㅎㅐㄴㄷㅡㄹㄹㅣㅇ	-11918
▁ㄷㅏㄹㄱㅜ	-11919
▁light	-11920
▁ㅈㅣㄱㅅㅏ	-11921
▁ㅍㅏㅂㅋㅗㄴ	-11922
▁ㅂㅏㅇㅋㅗㄱ	-11923
▁ㄱㅝㄴㄹㅕㄱㅈㅏ	-11924
ㅊㅞ	-11925
ㅘㄴ	-11926
ITY	-11927
idae	-11928
▁ㄷㅟㅅㅁㅗ	-11929
▁ㅂㅣㅇㅎㅏ	-11930
▁ㅍㅜㅇㅅㅡㅂ	-11931
▁vol	-11932
▁ㅅㅣㄴㄱㅛ	-11933
▁ㅁㅏㅇㅇㅓㄴ	-11934
ㅌㅡㄱㅂㅕㄹㅈㅏ	-11935
▁ㅇㅕㄱㄷㅗ	-11936
▁ㄷㅏㄴㄱㅕㄹ	-11937
ㄹㅜㄹ	-11938
▁Dri	-11939
▁Anim	-11940
▁ㅌㅖㄴ	-11941
▁ㄱㅜㄱㅇㅚ	-11942
ㄹㅐㄴㄷㅡㄴ	-11943
▁ㄷㅏㅁㅂㅗ	-11944
▁ㅎㅏㄴㄱㅕ	-11945
▁ㅅㅡㅇㅅㅓㄴ	-11946
ㄴㅕㅁㄱㅘㄴ	-11947
ㄷㅗㅁ	-11948
▁ㄱㅗㅇㅅㅗ	-11949
▁ㅈㅓㅇㅅㅣㄴㅈㅜㄹ	-11950
ㅍㅜㅅ	-11951
▁Heaven	-11952
ㅅㅏㅇㅎㅜㄴ	-11953
▁ㅋㅏㅂ	-11954
▁ㅅㅗㄴㅈㅣㄹ	-11955
▁add	-11956
ㅅㅣㅂㄹㅣ	-11957
▁ㅁㅗㄱㅈㅗ	-11958
▁ㅎㅏㅂㅅㅓㅇㅅㅜ	-11959
▁ㅇㅕㄴㅎㅏㅂㄱㅜㄱ	-11960
ㅍㅓㄴ	-11961
▁ㅌㅏㄹㅁㅗ	-11962
▁ㅅㅏㄴㄹㅣㅁ	-11963
▁.?	-11964
▁MOM	-11965
▁ㄹㅜㄹㄹㅜ	-11966
▁mod	-11967
ㅁㅣㅇㄱㅗ	-11968
▁ㅅㅜㄱㅈㅗㅇ	-11969
▁ㅂㅜㅇㅇㅓ	-11970
▁ㅋㅔㅁ	-11971
▁ㅇㅕㅁㄹㅏ	-11972
▁ㅇㅝㄹㅌㅡ	-11973
▁ㅈㅗㅇㅇㅓㅂ	-11974
▁UK	-11975
TLE	-11976
▁Cent	-11977
ㅇㅣㅁㅅㅐ	-11978
ㅈㅓㄹㄹㅗ	-11979
▁ㅈㅓㄱㅇㅢ	-11980
▁ㅅㅓㄴㅈㅓㅁ	-11981
▁stop	-11982
ㄱㅐㅅㅅㅗ	-11983
▁ㄱㅏㅇㄱㅣ	-11984
▁ㅎㅓㄴㅂㅕㅇ	-11985
▁ㅅㅣㄹㅅㅔ	-11986
▁ㅈㅣㄴㅇㅣ	-11987
▁ㅈㅏㅂㄷㅏㅁ	-11988
▁ㅈㅏㄴㅅㅏㅇ	-11989
▁ㅅㅗㅇㅈㅓㅇ	-11990
▁ㅅㅗㄱㅅㅏㄱㅇㅣㅁ	-11991
▁299	-11992
▁Remix	-11993
▁ㅅㅜㅁㅈㅣ	-11994
▁ㅂㅓㄹㅈㅣㅂ	-11995
ething	-11996
▁System	-11997
▁ㄴㅗㅇㅅㅓㅇ	-11998
▁ㅇㅣㄹㅂㅕㅇ	-11999
▁ㅊㅏㄱㅅㅣ	-12000
ㅇㅑㄱㅍㅜㅁ	-12001
▁ㄱㅏㅁㅁㅕㅇ	-12002
▁ㅍㅣㅂ	-12003
▁ㅅㅓㅇㅈㅏ	-12004
▁ㄲㅡㅌㅁㅏ	-12005
▁ㅇㅏㄱㄷㅏㄴ	-12006
▁ㄴㅏㄱㅌㅏ	-12007
▁gl	-12008
▁ㅈㅗㅇㅎㅚ	-12009
ㄹㅡㄴㅂㅏㄹ	-12010
▁ㅂㅏㄴㅊㅏㄴ	-12011
▁QS	-12012
▁MiG	-12013
▁ㅂㅏㄹㄱㅣ	-12014
▁ㅇㅣㄴㄱㅏ	-12015
▁ㅂㅣㄴㄱㅗㄴ	-12016
▁ㅎㅕㄹㅇㅕㄴ	-12017
ury	-12018
▁ㅇㅗㄴㄹㅣ	-12019
ㅎㅓㅁㅈㅏㅇ	-12020
▁ㅂㅗㄴㅇㅓㅂ	-12021
▁ㅅㅜㄹㅈㅏ	-12022
▁Wr	-12023
▁990	-12024
▁sup	-12025
enter	-12026
▁ㅂㅗㄴㄷㅐ	-12027
▁ㅅㅣㄴㅎㅗㄴ	-12028
▁ㅍㅏㄴㄷㅗㄱ	-12029
▁Sal	-12030
▁ㅈㅔㄴㄷㅓ	-12031
▁him	-12032
▁2200	-12033
ㄱㅐㄱㄱㅣ	-12034
▁ㅈㅓㅂㄷㅜ	-12035
ㄷㅏㄹㅇㅡㅁ	-12036
▁were	-12037
▁ㅈㅓㅇㅌㅐ	-12038
▁ㅂㅕㄹㅈㅏㅇ	-12039
acy	-12040
▁ㅇㅏㄴㄱㅓㄴ	-12041
▁ㄱㅗㅇㅎㅏㄱㅂㅜ	-12042
▁ㅂㅗㄱㅅㅜㅇㅇㅏ	-12043
▁Fant	-12044
ㅆㅡㄹㅇㅣ	-12045
▁ㅇㅡㅁㄷㅗㄱ	-12046
iet	-12047
▁ㅁㅗㄱㅅㅓㅇ	-12048
cape	-12049
▁ㅅㅐㄴㅈㅡ	-12050
▁GEN	-12051
▁NATO	-12052
▁ㄱㅝㄴㅅㅜ	-12053
▁ㅅㅗㄴㅈㅏㅂ	-12054
▁ㅍㅐㅇㅊㅏㅇ	-12055
▁ㄱㅓㄴㅂㅏㅇㅈㅣ	-12056
aking	-12057
▁ㅎㅏㄴㄴㅣ	-12058
▁ㄱㅗㅇㅅㅣㄱㅈㅓㄴ	-12059
▁ㅈㅓㅇㅇㅗ	-12060
▁ㄱㅡㅁㅅㅏㅇ	-12061
ㅇㅟㄱ	-12062
ㄴㅑㅇㄱㅐ	-12063
▁display	-12064
▁TM	-12065
▁ㅊㅓㄴㅊㅏ	-12066
▁ㅅㅛㄹ	-12067
ㅇㅑㅇㄱㅖ	-12068
▁ㄱㅕㄹㅈㅓㅇㅌㅏ	-12069
iw	-12070
▁ㅎㅐㄴㄷㅣ	-12071
▁They	-12072
▁ㅅㅣㄹㅋㅡ	-12073
▁ㅋㅓㅁㅍㅡㄹㄹㅔㄱㅅㅡ	-12074
▁Why	-12075
▁GRE	-12076
▁ㅁㅣㄴㅁㅏㅇ	-12077
▁ㅅㅗㄱㅊㅗ	-12078
▁295	-12079
▁ㅂㅜㄴㅌㅜ	-12080
▁PERFECT	-12081
▁ㅂㅓㄴㅇㅕㄱㅂㅗㄴ	-12082
▁ㄱㅣㅁㅁㅣ	-12083
ㅎㅘㅇㅊㅓㅇ	-12084
▁ㅁㅏㅅㅈㅣㅂ	-12085
▁ㅂㅏㄹㅈㅣㄴ	-12086
▁ㄷㅡㅇㄷㅐ	-12087
▁ㅍㅡㄹㄹㅣㄱ	-12088
▁ㅇㅕㄱㅇㅣ	-12089
▁ㅇㅘㅅㅅㅡㄴ	-12090
▁ㄱㅗㅇㅅㅗㄴㅊㅏㄴ	-12091
▁ㅂㅏㄹㅎㅐ	-12092
▁ㅌㅏㄴㅍㅣ	-12093
irth	-12094
▁ㄱㅜㄴㅇㅛㅇ	-12095
▁ㅁㅓㄹㄹㅗㄱ	-12096
▁ㅊㅏㄱㅌㅏㄴ	-12097
ㄱㅜㄱㅅㅜ	-12098
ㅅㅣㄴㅈㅓ	-12099
▁15000	-12100
▁ㅎㅣㄴㄷㅜ	-12101
▁GIR	-12102
▁ㄱㅡㅁㅅㅜ	-12103
▁ㄷㅏㄹㄹㅕㄱ	-12104
▁ㅅㅣㅁㄷㅗ	-12105
77	-12106
82	-12107
▁Series	-12108
▁ㅎㅠㅇㅂㅜ	-12109
▁ㄷㅏㅁㅈㅏㅇ	-12110
▁ㅈㅓㄱㅈㅏㄶ	-12111
ㅅㅑㅂ	-12112
ㅋㅟㄴ	-12113
▁ㅅㅡㅇㅁㅏ	-12114
▁ㄱㅕㅇㅇㅝㄴ	-12115
▁ㅊㅗㅇㅁㅜ	-12116
▁ㄱㅜㄴㅈㅏㅇ	-12117
▁Ann	-12118
▁ㅅㅡㅇㅅㅜ	-12119
▁ㅌㅠㄴ	-12120
ㅂㅐㅇㅇㅣ	-12121
ㄹㅣㅁㄷㅗㅇ	-12122
▁Championship	-12123
org	-12124
▁ㅈㅏㅇㄹㅕ	-12125
hem	-12126
▁ㅁㅕㄴㅅㅏ	-12127
▁ㅅㅓㄴㄷㅗㅇㅇㅕㄹ	-12128
EP	-12129
▁JB	-12130
▁405	-12131
▁ㄱㅑㅇ	-12132
▁ㅈㅏㅁㅈㅓㄱ	-12133
ㄲㅝ	-12134
▁ㅌㅏㄹㅂㅏ	-12135
▁ㅎㅏㄴㄱㅣ	-12136
▁ㅍㅜㅇㅅㅣㄴ	-12137
▁ㅋㅡㅁ	-12138
▁Force	-12139
▁ㅇㅡㄹㄹㅐ	-12140
ㅅㅡㅇㅇㅝㄴ	-12141
▁ㅈㅏㅇㅇㅠㄴ	-12142
▁ㅍㅗㄱㄹㅏㄱ	-12143
ㅅㅏㅇㅇㅜ	-12144
ㅋㅜㄹㄹㅜ	-12145
ㄷㅗㅇㅅㅗ	-12146
▁ㅇㅝㄴㄷㅗㅇㄹㅕㄱ	-12147
WS	-12148
▁Vir	-12149
▁ㄱㅜㄴㅁㅜ	-12150
ㄹㅡㅁㄱㅏㅄ	-12151
▁ㅈㅣㄱㅅㅓㄹ	-12152
cess	-12153
▁ㅇㅐㅁㅍㅡ	-12154
▁ㅅㅐㅇㅎㅘㄹㄱㅘㄴ	-12155
othing	-12156
ㅇㅛㅇㅇㅓㅄ	-12157
▁ㅂㅜㄹㅅㅣ	-12158
ㅅㄱㅏㅁ	-12159
▁ㄴㅏㅁㄷㅐ	-12160
ㄲㅓㄹ	-12161
ㄱㅡㅁㄲㅓㅅ	-12162
▁490	-12163
▁ㅎㅏㅅㅌㅗ	-12164
▁ㅍㅣㄹㅁㅕㄹ	-12165
▁425	-12166
ㅍㅕㅇㄱㅜㄴ	-12167
▁ㅈㅓㄴㄹㅠㄴ	-12168
ㄱㅜㄴㅂㅜㄴㅌㅜ	-12169
▁ㄴㅜㄴㅁㅐ	-12170
▁ㅎㅓㄹㄹㅣ	-12171
▁Future	-12172
ㅅㅡㅇㄱㅣ	-12173
▁ㅂㅜㄴㅂㅣ	-12174
ㄱㅓㄴㅊㅏㅇ	-12175
ㄴㅔㄱㅌㅡ	-12176
adding	-12177
▁BLUE	-12178
▁ㅁㅕㅇㄹㅏㅇ	-12179
▁ㅂㅗㄴㅈㅓㅁ	-12180
▁af	-12181
▁ㅇㅝㄴㅌㅜ	-12182
ㄷㅗㅇㅇㅕㄱ	-12183
▁ㅈㅜㅇㄴㅏㅁ	-12184
▁ㅈㅣㄱㄱㅡㅂ	-12185
▁ㅅㅣㄴㅊㅓㄴㅈㅣ	-12186
pm	-12187
▁ㅈㅣㄱㅁㅕㄴ	-12188
▁MED	-12189
▁ㄹㅔㅇ	-12190
▁ㅅㅣㄴㅊㅏ	-12191
▁ㅇㅕㄱㅂㅜ	-12192
ㄷㅗㅇㅎㅏㄴ	-12193
▁ㅂㅣㅇㅂㅣㅇ	-12194
▁ㄱㅓㄴㄱㅜㄱㄷㅐ	-12195
▁ㅅㅜㄴㅎㅏ	-12196
ICK	-12197
ㅎㅏㄴㅈㅔ	-12198
▁ㅁㅏㄹㅆㅓㅇ	-12199
▁ㅅㅏㅇㄹㅗㄱ	-12200
▁ㅌㅏㄹㅇㅕㅇ	-12201
fore	-12202
ㅊㅓㄴㄴㅕㄴ	-12203
▁ㅎㅏㄴㅅㅜㄹ	-12204
▁ㅇㅕㄹㄷㅡㅇㄱㅏㅁ	-12205
▁TL	-12206
ㅁㅜㄴㄱㅜ	-12207
▁ㅇㅣㄴㄷㅐ	-12208
▁Ta	-12209
▁ㄴㅓㄳ	-12210
▁ㅈㅏㅁㅈㅏㅁ	-12211
▁ㅈㅏㅇㅊㅏㅇ	-12212
umb	-12213
▁ㅅㅓㅇㅁㅐ	-12214
▁ㅇㅏㅇㅋㅗ	-12215
▁ㅅㅜㅁㅌㅗㅇ	-12216
▁ㅉㅏㄼㅇㅏ	-12217
▁ㅊㅜㄱㅊㅜㄹ	-12218
▁Reb	-12219
▁Set	-12220
▁ㅋㅓㄹㅊㅓ	-12221
▁ㅎㅕㄴㅈㅗㅇ	-12222
ㄱㅝㄹㅅㅓㄴㄱㅓ	-12223
▁XI	-12224
▁nm	-12225
▁ㅇㅡㅁㅈㅓㄹ	-12226
▁ㅊㅜㅇㄷㅏㅇ	-12227
▁ㅁㅣㄷㄱㅣ	-12228
▁ㄱㅕㄱㅂㅏㄹ	-12229
ㅇㅕㅇㅇㅜㅇㅈㅓㄴㅅㅓㄹ	-12230
▁ZERO	-12231
▁ㅉㅏㄱㅅㅜ	-12232
▁ㅅㅟㅁ	-12233
ㄹㅏㅇㅋㅗ	-12234
▁ㅇㅕㄹㅍㅗㄱ	-12235
iant	-12236
▁880	-12237
otion	-12238
▁Mnet	-12239
▁ㄷㅏㄴㅊㅜ	-12240
▁ㅊㅣㄴㅂㅜ	-12241
▁ㅇㅑㅇㅂㅗㄱ	-12242
▁ㅊㅓㅇㄱㅏㄱ	-12243
ㅎㅐㅇㄷㅏㄴ	-12244
▁ㅁㅜㄱㅅㅣ	-12245
▁ㅂㅓㄴㅇㅕㄱㄱㅏ	-12246
▁ㅅㅏㄴㅇㅓㅂㄷㅏㄴㅈㅣ	-12247
orce	-12248
▁mg	-12249
ㅍㅔㄴㄷㅓ	-12250
orry	-12251
▁ㅂㅣㄴㅈㅏ	-12252
▁Mc	-12253
▁Video	-12254
▁ㄱㅗㅇㅇㅖ	-12255
▁ㅅㅗㄴㄱㅕㄴ	-12256
▁ㅇㅏㄴㅊㅏㄱ	-12257
SE	-12258
ㅊㅏㅁㅎㅣ	-12259
▁ㅆㅏㅇㅂㅏㅇㅇㅜㄹ	-12260
ㅈㅏㅇㅁㅕㄴ	-12261
▁Mo	-12262
ㅂㅣㄹㄹㅏ	-12263
▁ㅋㅐㄴㅈㅏ	-12264
▁ㅁㅐㄴㅁㅗㅁ	-12265
▁ㅁㅕㅇㅁㅐㄱ	-12266
▁ㅇㅝㄴㄴㅏ	-12267
ㅁㅣㄴㅈㅓㅇ	-12268
▁ㅇㅣㄹㅊㅣㅁ	-12269
▁ㅈㅓㅇㅅㅏㄴ	-12270
▁UB	-12271
ㄴㅏㄴㅎㅐ	-12272
▁ㅍㅏㅅㅋㅐ	-12273
▁ㅍㅕㄴㅍㅏ	-12274
▁ㅊㅜㅇㅅㅣㄹㅎㅏ	-12275
▁More	-12276
▁ㅇㅏㄱㄴㅕ	-12277
▁ㅎㅘㄴㄱㅣ	-12278
▁ㅎㅣㅁㄷㅡ	-12279
▁ㄱㅣㄴㅌㅗ	-12280
▁ㅇㅔㄹㄹㅔㄴ	-12281
ㅁㅜㅁ	-12282
▁ㅅㅏㅇㅅㅓ	-12283
▁ㅇㅜㄹㅌㅏ	-12284
▁ㅈㅏㅇㅂㅗ	-12285
ㅇㅝㄴㅅㅓㄱ	-12286
▁ㅇㅣㄴㅁㅣㄴㄱㅜㄴ	-12287
46	-12288
▁ㄱㅡㄱㅁㅕㅇ	-12289
▁ㅇㅓㄴㄹㅗㄴㅇㅣㄴ	-12290
ㅈㅓㅇㅈㅣ	-12291
▁ㄷㅜㄴㄱㅏㅂ	-12292
▁ㅆㅏㄱㅆㅡㄹㅇㅣ	-12293
▁ㅇㅝㄴㅅㅓ	-12294
ottom	-12295
ㅇㅓㅁㅊㅣ	-12296
▁ㅎㅐㅇㅅㅓㄴㅈㅣ	-12297
read	-12298
ㅁㅐㄴㅌㅣㄱ	-12299
▁ㅁㅐㅇㅈㅏㅇ	-12300
▁}}}}}}}}	-12301
ㅁㅓㄱㅎㅣ	-12302
▁ㅅㅓㅇㅎㅘ	-12303
??	-12304
▁ㅂㅜㄹㅂㅣㅊ	-12305
▁ㄱㅏㄹㅁㅐ	-12306
▁ㅃㅑㅁㅊㅣ	-12307
▁ㅇㅕㅇㄹㅕㄱ	-12308
▁ㅎㅘㄱㅈㅣㄴ	-12309
▁Plus	-12310
ㅂㅏㄹㅈㅓㅁ	-12311
▁ㅇㅏㄴㄹㅏㄱ	-12312
▁ㅇㅕㄴㄱㅕㄱ	-12313
▁ㄴㅏㄱㅌㅐ	-12314
▁ㄷㅓㅍㅇㅣ	-12315
ㅅㅏㄴㅇㅓㅂ	-12316
▁ㅂㅏㅇㅊㅓㅇ	-12317
ㅇㅡㅁㄱㅏ	-12318
▁ㅂㅏㄹㅈㅜ	-12319
ㅈㅓㅇㅇㅏㄴ	-12320
ih	-12321
sy	-12322
▁960	-12323
▁ㅌㅐㅅㅇㅡㄴ	-12324
▁ㄱㅏㅇㄴㅏㅁㅇㅕㄱ	-12325
▁ㅅㅜㄷ	-12326
▁ㅇㅏㄴㄱㅜ	-12327
▁ㅇㅏㄴㅅㅏㄴㅅㅣ	-12328
▁ㅅㅗㄹㄹㅓ	-12329
▁ㅅㅗㄴㅅㅐㄱ	-12330
▁ㅇㅣㅂㅊㅏㄹ	-12331
▁ㅊㅣㅁㄹㅑㄱㅈㅏ	-12332
ㅈㅣㄴㅊㅏㅇ	-12333
▁ㅂㅕㄹㅂㅏㄴ	-12334
▁MMORPG	-12335
▁ㅈㅡㅇㅊㅜㄱ	-12336
▁ㅊㅗㅇㅅㅣㄴ	-12337
▁ㅇㅖㄹ	-12338
▁Card	-12339
ㄱㅡㅂㅎㅣ	-12340
▁ㄱㅏㅇㅈㅣㄴ	-12341
▁ㅂㅏㅇㅎㅏㄴ	-12342
▁266	-12343
▁ㅅㅔㄹㄹㅓ	-12344
ㅂㅏㅇㅇㅝㄴ	-12345
ula	-12346
ㄷㅡㄹㄹㅔ	-12347
▁ㄲㅏㅇㅌㅗㅇ	-12348
ㄱㅣㅁㅇㅓㅄㅇㅣ	-12349
▁ISO	-12350
▁ㄱㅜㅇㅇㅖ	-12351
▁ㅁㅗㄴㄷㅡ	-12352
▁ㅅㅣㄴㅇㅣㄴㅇㅘㅇ	-12353
▁xB	-12354
▁345	-12355
79	-12356
roid	-12357
▁ㄲㅜㅇ	-12358
▁ㅇㅜㅇㅈㅣㄴ	-12359
▁ㅂㅏㄴㅇㅕㄱㅈㅏ	-12360
▁PE	-12361
▁ㅋㅟㄹ	-12362
ㅁㅏㄴㅎㅘ	-12363
ㅍㅏㄹㄱㅜ	-12364
▁ㄱㅜㄺㅈㅣㄱ	-12365
▁1922	-12366
ㄴㅗㄹㄷㅡ	-12367
▁ㅂㅏㅇㅈㅓㄴ	-12368
▁po	-12369
▁TBD	-12370
▁ㅂㅏㅁㅎㅏ	-12371
▁ㅇㅝㄴㅊㅔ	-12372
con	-12373
▁Kr	-12374
▁ㄷㅗㅇㅁㅕㄴ	-12375
▁ㅇㅓㅇㅁㅏㅇㅈㅣㄴㅊㅏㅇ	-12376
▁LPL	-12377
ㅈㅓㅇㄱㅠ	-12378
ㅈㅗㅇㅅㅜ	-12379
▁ㅅㅣㅂㅈㅜㅇ	-12380
ㄱㅓㄹㅅㅡ	-12381
▁ㅈㅓㄱㄴㅏ	-12382
▁ㅅㅣㅂㅈㅜㅇㅍㅏㄹㄱㅜ	-12383
ATA	-12384
▁ㄱㅘㅇㅅㅣㄴㄷㅗ	-12385
ㄹㅑㅇㄱㅣ	-12386
▁ㅇㅕㅇㅌㅗㅇ	-12387
▁Nat	-12388
▁ㅇㅕㅇㅇㅜㅇㅈㅓㄴㅅㅓㄹ	-12389
▁ㅅㅐㅇㅅㅐㅇ	-12390
▁By	-12391
▁ㅇㅣㄴㅇㅟ	-12392
▁ㄱㅗㅇㅂㅓㅁ	-12393
ery	-12394
ㄹㅏㄱㅅㅔ	-12395
▁would	-12396
▁ㅅㅏㅁㄱㅏ	-12397
▁star	-12398
ㄷㅏㅁㄱㅏㅁ	-12399
ke	-12400
aint	-12401
▁ㅈㅣㄴㅇㅟ	-12402
▁ㅊㅏㅇㄱㅏㄴ	-12403
▁ㅎㅏㅇㅁㅏㄴ	-12404
▁SPECIAL	-12405
ender	-12406
▁video	-12407
▁ㄱㅗㄹㅁㅓ	-12408
▁ㅇㅡㄴㅎㅘ	-12409
▁ㅅㅣㄴㅊㅏㅇ	-12410
▁Squ	-12411
▁ㅎㅘㄹㄹㅗ	-12412
▁404	-12413
▁ㅁㅜㄴㅇㅖ	-12414
ta	-12415
▁Year	-12416
▁ㅅㅏㅇㅇㅏ	-12417
▁ㅅㅜㄱㅂㅜ	-12418
▁ㄱㅓㅁㅌㅜ	-12419
▁ㅅㅜㄴㅈㅗㅇ	-12420
TN	-12421
▁610	-12422
erson	-12423
▁ㄱㅕㅇㅋㅙ	-12424
▁Dyn	-12425
▁Ball	-12426
▁ㄱㅕㅇㅎㅘ	-12427
▁272	-12428
▁Band	-12429
ㅌㅏㄹㄹㅗ	-12430
ㅍㅕㅇㅇㅕㄱ	-12431
▁NCR	-12432
▁ㅈㅗㅇㅍㅏ	-12433
▁ㅈㅜㄹㅁㅜ	-12434
ㅂㅏㄴㅅㅡ	-12435
▁ㄱㅏㅇㅈㅣ	-12436
ㄱㅘㅇㅇㅣ	-12437
ㄷㅏㅇㅇㅕㄱ	-12438
ㅅㅣㄱㄱㅣ	-12439
ㅌㅐㄴㄹㅣ	-12440
▁ㅇㅣㄹㅍㅏㄴ	-12441
ㅎㅜㅅ	-12442
▁had	-12443
▁ㅂㅗㄱㄹㅑㅇ	-12444
ㅎㅏㅁㅁㅏ	-12445
▁ㅊㅜㅇㅅㅣㄴ	-12446
▁780	-12447
ㅅㅐㅇㅁㅕㅇ	-12448
▁ㅂㅗㄴㅅㅣㅁ	-12449
▁CBS	-12450
▁ㄱㅡㅂㅅㅜ	-12451
▁ㄱㅣㅁㅇㅕㄴㅇㅏ	-12452
▁ㅈㅏㅇㄷㅏㄴㅈㅓㅁ	-12453
▁ㄷㅗㄱㅅㅏ	-12454
▁ㅁㅣㄴㅂㅓㅂ	-12455
ㅇㅛㅇㅎㅏㄴ	-12456
▁ㅁㅣㄴㅅㅡ	-12457
▁Wonder	-12458
▁ㅂㅏㄱㅎㅏㄴ	-12459
po	-12460
ㅇㅣㄱㅅㅡ	-12461
▁ㅊㅜㄹㅅㅗ	-12462
▁ㅌㅏㅁㅎㅓㅁㄷㅐ	-12463
▁Div	-12464
▁ㅇㅜㄹㄹㅣㅁ	-12465
ㅍㅣㄹㄹㅣ	-12466
▁ㅁㅣㄹㅇㅝ	-12467
▁ㅈㅏㅇㄹㅛ	-12468
els	-12469
▁ㅇㅕㅇㅈㅓㅇ	-12470
▁Lov	-12471
▁ㅂㅜㄴㄱㅛ	-12472
▁ㅅㅓㄱㄱㅏ	-12473
▁ㅅㅗㄴㅍㅐ	-12474
▁ㅌㅡㄱㅊㅘㄹㅁㅜㄹ	-12475
▁ㅊㅏㅁㅅㅣㄴ	-12476
HA	-12477
▁ㅅㅔㄴㄷㅏ	-12478
▁ㅎㅏㄴㅋㅠ	-12479
▁840	-12480
▁ㅂㅗㅇㅎㅘ	-12481
▁ㅂㅜㄺㅎㅣ	-12482
▁ㅈㅏㅇㅈㅗ	-12483
▁ㅈㅡㅇㅈㅓㅇ	-12484
live	-12485
ㅈㅓㅇㅇㅝㄴ	-12486
▁ㅈㅏㄱㅁㅕㅇ	-12487
▁ㄹㅐㄴㄷㅣㅇ	-12488
▁ㅈㅓㄴㅇㅣㄹ	-12489
▁}}}}}}}}}	-12490
ico	-12491
▁ㅉㅣㅂ	-12492
▁ㅅㅗㄱㅅㅏㄱㅇㅣ	-12493
▁ㄱㅗㄹㄷㅡㄴㄱㅡㄹㄹㅓ	-12494
▁ㅇㅗㄴㅇㅢ	-12495
▁ㅇㅕㄴㅇㅗㄱ	-12496
▁padding	-12497
hes	-12498
ㅍㅣㅂ	-12499
▁ㅋㅣㄹㄹㅣㅇ	-12500
▁810	-12501
▁Mons	-12502
▁ㅇㅠㄱㅌㅏㄴ	-12503
▁Vers	-12504
▁ㄹㅣㄴㅋㅗ	-12505
▁America	-12506
▁Shadow	-12507
▁ㅊㅓㄹㅈㅔ	-12508
▁ㄴㅏㄹㄹㅕㅂ	-12509
▁Fort	-12510
▁ㅎㅕㄴㅎㅗㄱ	-12511
ㅅㅓㄲㅇㅣ	-12512
▁Queen	-12513
▁ㅁㅕㅇㅅㅏㅇ	-12514
▁ㅌㅡㄱㄷㅐ	-12515
▁ㅊㅣㅁㅂㅓㅁ	-12516
wn	-12517
▁INF	-12518
▁ㅇㅛㅇㄱㅏ	-12519
▁pre	-12520
▁power	-12521
▁ㅇㅏㄴㄷㅔ	-12522
▁ㄱㅝㄴㅂㅓㅂ	-12523
▁321	-12524
▁Ill	-12525
▁ㅌㅣㅁㅇㅝ	-12526
▁ㅍㅕㅁㅎㅏ	-12527
▁ㅈㅜㅇㅈㅓㄴ	-12528
▁Exper	-12529
▁ㄴㅗㄹㄹㅐ	-12530
▁ㅎㅡㅌㅃㅜ	-12531
ㅈㅣㄹㄱㅏㅁ	-12532
▁ㅎㅏㅇㅈㅓㄴ	-12533
▁ㄷㅏㄹㅍㅐㅇㅇㅣ	-12534
ㅍㅗㅇ	-12535
ican	-12536
▁view	-12537
ㄷㅡㄹㄱㅕ	-12538
▁ㄷㅡㅇㄱㅣ	-12539
▁Player	-12540
▁ㅁㅣㄴㅅㅗㄱ	-12541
▁ㅅㅗㄱㅂㅗ	-12542
▁VF	-12543
86	-12544
▁From	-12545
ㅎㅕㄴㅎㅢ	-12546
▁ㄷㅗㄱㄱㅗ	-12547
▁ㅇㅗㄴㅊㅓㄴㅇㅛㄱ	-12548
ㄱㅕㅇㅇㅜ	-12549
▁ㄱㅜㄱㄱㅛ	-12550
▁ㅂㅏㄹㅅㅓㅇ	-12551
▁ACE	-12552
▁355	-12553
ㄱㅕㅇㄱㅠ	-12554
▁ㅂㅕㄴㅈㅗ	-12555
▁ㅈㅏㅇㅈㅓㅇ	-12556
hed	-12557
▁FD	-12558
▁ㅇㅡㅁㅍㅛ	-12559
▁Chapter	-12560
▁ㄷㅗㅇㅁㅐㅇㄱㅜㄱ	-12561
▁ㅌㅓㅅ	-12562
▁1912	-12563
▁ㅂㅜㄴㄷㅏㄴ	-12564
▁ㄱㅘㄴㅎㅕㄴㅇㅏㄱ	-12565
▁ㅅㅏㄱㅅㅡ	-12566
ㅈㅓㄱㅎㅏㅂ	-12567
▁SSD	-12568
▁ㅎㅏㄴㅂㅏ	-12569
▁ㅇㅏㄴㅁㅏ	-12570
▁820	-12571
▁ㅁㅗㄹㅇㅣ	-12572
▁ㅅㅣㄹㅎㅘ	-12573
▁ㅎㅘㅇㄱㅡㅁㄱㅣ	-12574
▁ㅎㅘㅇㅅㅏㄴ	-12575
ㅎㅡㅁ	-12576
▁ㅅㅣㄴㅂㅕㄴ	-12577
▁LR	-12578
▁ㅇㅓㅁㅎㅗ	-12579
▁ㅅㅏㄹㄹㅣㅁ	-12580
▁ㅎㅐㄱㅍㅗㄱㅌㅏㄴ	-12581
▁Round	-12582
▁ㅂㅜㄹㅍㅐ	-12583
ㅅㅓㅇㅂㅓㅁ	-12584
▁ㅅㅣㄴㅁㅕㅇ	-12585
APP	-12586
▁ㅈㅡㅇㅅㅓㄹ	-12587
oto	-12588
ㅂㅐㄴㅌㅣ	-12589
▁ㅂㅏㄹㄱㅏ	-12590
▁ㅇㅏㄹㄹㅗ	-12591
▁Ever	-12592
▁ㅎㅐㅇㅈㅓㅇㅎㅏㄱ	-12593
▁ARC	-12594
▁FOR	-12595
ask	-12596
▁Aq	-12597
▁EXE	-12598
▁ㄱㅡㅂㅈㅣㄴ	-12599
▁ㅇㅝㄴㅌㅏㅂ	-12600
▁ㄷㅓㅇㄱㅜㄹ	-12601
▁ㅎㅡㅇㄱㅜㄱ	-12602
ㄲㅜㄴ	-12603
▁TFT	-12604
▁ㄷㅏㄴㄹㅏㄱ	-12605
▁ㅇㅡㅁㅈㅣㄹ	-12606
▁ㄱㅏㄴㄱㅏㄴㅇㅣ	-12607
▁570	-12608
▁ㅅㅗㄱㅁㅏ	-12609
ㅂㅜㄹㅂㅗㄱ	-12610
▁ㅎㅗㄴㅇㅛㅇ	-12611
▁San	-12612
ㄷㅓㄱㅈㅣ	-12613
▁ㄴㅏㅂㅂㅜ	-12614
▁ㅇㅑㄴㄷㅏ	-12615
▁ㅍㅜㅇㅇㅛ	-12616
▁ㅎㅓㄴㅌㅣㅇ	-12617
▁ㅂㅗㄱㅂㅜㄹㅂㅗㄱ	-12618
▁ㅇㅣㅁㅊㅏㅇㅇㅛㅇ	-12619
ㅅㅣㄴㅁㅜㄴ	-12620
▁ㅍㅏㄴㅂㅏㄱㅇㅣ	-12621
▁ㄴㅏㄴㄱㅘㄴ	-12622
zer	-12623
▁ㅅㅗㄱㄱㅜㄱ	-12624
ㅁㅏㄴㄱㅏㄴ	-12625
▁JD	-12626
▁UTC	-12627
▁could	-12628
▁911	-12629
▁ㅅㅣㅁㄱㅕㅇ	-12630
▁ㅇㅗㄱㅌㅗ	-12631
▁ㅁㅏㄴㅁㅜㄹ	-12632
ㅘㅇ	-12633
ㄴㅕㅁㅂㅣ	-12634
ㅅㅣㅁㅈㅏ	-12635
ㅈㅏㅇㅅㅜ	-12636
ㅈㅓㅇㅂㅗ	-12637
ㅍㅡㄹㄹㅗ	-12638
▁MOVIE	-12639
▁ㄱㅡㄴㅅㅗ	-12640
▁ㅈㅣㄹㅌㅏ	-12641
▁ㅈㅗㅇㅂㅏㄴ	-12642
▁ㄷㅟㅅㅂㅜ	-12643
▁ㅎㅏㅁㅈㅗㅇ	-12644
▁ㅂㅜㄹㅆㅣ	-12645
▁ㅅㅔㄹㅋㅏ	-12646
ㅎㅕㄴㅈㅜㄴ	-12647
▁ㅍㅜㅇㅅㅓㅇ	-12648
▁ㅅㅓㄷㅂㅜㄹㄹㅣ	-12649
▁004	-12650
ㅈㅜㄴㅇㅕㅇ	-12651
▁ㄷㅗㅇㅎㅑㅇ	-12652
▁ㄲㅗㄴ	-12653
▁Enter	-12654
▁ㅅㅣㅁㄱㅣ	-12655
ㄱㅜㄱㅅㅣㄱ	-12656
ㅅㅓㅇㅈㅏㅇ	-12657
▁ㅇㅑㄱㄱㅜㄱ	-12658
▁ㅎㅘㅇㄱㅜㅇ	-12659
la	-12660
▁IB	-12661
▁ㅍㅏㄴㅇㅣㄴ	-12662
▁%~	-12663
▁how	-12664
▁sky	-12665
▁ㅅㅠㄹ	-12666
ㅇㅣㄹㅂㅣ	-12667
▁ㄱㅗㅇㅁㅜㄹ	-12668
▁ㅅㅣㄴㅎㅕㅇ	-12669
93	-12670
▁ㅇㅑㅇㅅㅜ	-12671
▁ㅅㅣㄴㅇㅡㅁ	-12672
▁ㅍㅗㄱㅇㅕㅁ	-12673
ollow	-12674
▁Under	-12675
▁ㅃㅏㄹㄹㅐ	-12676
ㅈㅜㅇㅅㅣㅁ	-12677
73	-12678
amage	-12679
▁ㅅㅓㅇㄹㅛㅇ	-12680
▁ㅊㅓㅇㅅㅜㄴ	-12681
▁620	-12682
ㅇㅣㅁㅈㅏ	-12683
ㅍㅔㄴㅅㅓ	-12684
▁ㅇㅑㅇㅅㅔ	-12685
aze	-12686
▁ㅇㅝㄹㅎㅘ	-12687
▁BEST	-12688
▁ㅍㅏㄴㄹㅖ	-12689
▁ㅇㅛㅇㅅㅣㄴ	-12690
▁ㅇㅗㅂㅈㅓ	-12691
▁ㅅㅣㄱㅋㅏㄹ	-12692
▁ㄷㅔㄴㅇㅗ	-12693
ㄹㅡㅁㄱㅣㄹ	-12694
▁ㄱㅜㄱㄱㅗㅇ	-12695
ㅁㅜㄴㅋㅜㄹㄹㅜ	-12696
▁ㅉㅣㅇ	-12697
ㅉㅏㄹㅇㅣ	-12698
▁ㄱㅜㄱㅁㅜㄴ	-12699
▁258	-12700
ㅇㅑㄴㅁㅏ	-12701
▁ㄹㅣㄴㄴㅔ	-12702
▁ㅇㅏㄱㄱㅟ	-12703
▁ㅍㅗㄱㄴㅓㄼ	-12704
ㅇㅛㅇㅅㅜ	-12705
▁ㅂㅏㄱㅅㅓㅇㅈㅜㄴ	-12706
▁ㅊㅏㅁㅎㅗ	-12707
▁ㄱㅜㄱㅇㅏㄱ	-12708
▁ㄷㅏㅁㄷㅏㅁ	-12709
▁ㅅㅗㅇㅇㅡㄴ	-12710
▁ㅉㅜㄱㅉㅜㄱ	-12711
LA	-12712
▁ㅁㅏㅁㄷㅐ	-12713
amb	-12714
▁ㅋㅏㅁㅂㅗ	-12715
▁ㄱㅜㄹㅈㅓㄹ	-12716
▁ㅊㅓㄹㅍㅏㄴ	-12717
▁ㅈㅓㄴㅁㅜㄴㅎㅏㄱㄱㅛ	-12718
▁AJ	-12719
ㅅㅡㅇㅎㅢ	-12720
ㅊㅣㄹㄹㅣ	-12721
▁ㅂㅏㄹㅇㅏㅁ	-12722
▁ㅅㅣㄴㄱㅕㅇㅈㅓㄴ	-12723
▁ㅅㅣㄴㅌㅗㅇ	-12724
▁1923	-12725
▁ㅂㅓㅁㅍㅓ	-12726
ㅇㅖㄴ	-12727
▁Ben	-12728
ㅇㅝㄴㄱㅜ	-12729
▁ㅂㅗㅁㅇㅣ	-12730
ㅇㅣㄴㅈㅓㄹ	-12731
▁than	-12732
ㄲㅣㅁㅇㅓㅄㅇㅣ	-12733
▁ㅅㅣㄹㄱㅝㄴ	-12734
▁ㅇㅕㅇㄷㅓㄱ	-12735
▁ㅈㅣㄹㅅㅐㄱ	-12736
▁ㅎㅗㄴㅅㅜ	-12737
▁high	-12738
▁ㅁㅏㄴㅅㅜ	-12739
▁ㄱㅓㅁㅂㅓㅂ	-12740
▁ㅋㅗㅁㅍㅡㄹㄹㅔㄱㅅㅡ	-12741
▁ㅁㅕㄹㅅㅣ	-12742
▁ㅅㅣㄴㅇㅢ	-12743
▁JK	-12744
ㅎㅡㅇㄱㅜㄴ	-12745
uh	-12746
▁Old	-12747
ㅇㅣㄴㅎㅘ	-12748
▁ㄴㅏㄴㄱㅏㄴ	-12749
▁ㅈㅓㅇㅊㅏㄹㅂㅕㅇ	-12750
ㅂㅘ	-12751
▁ㅈㅡㅇㄷㅐ	-12752
▁ㅍㅡㄹㄹㅐㅇㅋㅡ	-12753
UMI	-12754
ㅁㅗㄱㅁㅣㄴ	-12755
▁ㅎㅑㅇㄴㅕㄴ	-12756
▁ㅎㅘㅇㄱㅓㄴ	-12757
▁ㅅㅗㄱㄱㅣ	-12758
ㅅㅣㄱㅇㅣㄴ	-12759
▁ㅎㅕㄴㄹㅏㄴ	-12760
ada	-12761
▁710	-12762
▁ㄱㅗㅇㅍㅛ	-12763
▁ㅍㅏㄴㅈㅏ	-12764
▁KV	-12765
▁312	-12766
▁CLG	-12767
▁ㅁㅕㅇㅅㅐㄱ	-12768
▁ㅇㅟㄱ	-12769
▁ㄱㅣㄹㄷㅗㅇ	-12770
ㄹㅏㅇㅈㅓㄴㅅㅓㄹ	-12771
▁335	-12772
▁ㅊㅣㄴㅇㅘㅇ	-12773
▁ㅇㅘㄹㅊㅡ	-12774
▁ㅇㅡㅁㅇㅕㄱ	-12775
▁ㅌㅡㄱㄱㅏㅇ	-12776
▁ㅎㅟㄹㅊㅔ	-12777
▁ㅇㅝㄴㅌㅏㄱ	-12778
▁ㅎㅔㄹㅅㅣㅇ	-12779
▁ㅂㅡㄹㄹㅐㄱㄹㅣ	-12780
obal	-12781
umber	-12782
▁ㅅㅕㄴㅌㅡ	-12783
▁ㅁㅕㅇㅅㅜ	-12784
▁ㅈㅓㅇㅎㅗ	-12785
▁ㅅㅓㄴㅅㅡㅇ	-12786
ㄸㅏㅇㅎㅣ	-12787
▁ㅊㅓㄴㅅㅜ	-12788
▁read	-12789
▁ㅇㅐㄴㅅㅓ	-12790
▁ㅇㅑㅇㅈㅗ	-12791
▁ㄱㅘㄴㄹㅖ	-12792
ney	-12793
ㅁㅜㅅㄱㅏ	-12794
▁Another	-12795
▁ㅇㅏㄴㅍㅏ	-12796
▁Leader	-12797
▁ㅇㅐㅇㄱㅡ	-12798
▁ㅇㅡㅇㅁㅗ	-12799
▁ㅇㅕㅇㅇㅓㅂㅅㅗ	-12800
▁JAP	-12801
ories	-12802
ㄹㅏㄱㄱㅏ	-12803
▁ㅎㅕㅂㅈㅜ	-12804
ㄸㅜㄱㄸㅜㄱ	-12805
▁ㅇㅕㄱㅅㅔ	-12806
▁ㅎㅔㄱㅌㅓ	-12807
▁Aqours	-12808
▁ㅅㅐㅇㅁㅜㄹㅊㅔ	-12809
ular	-12810
▁ㅅㅏㄴㅌㅣ	-12811
▁ㅈㅏㅇㄷㅗ	-12812
ㅋㅓㄱ	-12813
ㄱㅏㄹㅇㅓ	-12814
ㅇㅣㄴㅅㅣ	-12815
ㅅㅓㄴㅇㅘㅇ	-12816
▁ㄴㅏㅌ	-12817
ㄱㅏㄹㅇㅣ	-12818
aki	-12819
▁AGE	-12820
▁ㄱㅘㅇㅁㅕㅇㅅㅣ	-12821
▁ㅈㅓㅇㅂㅗㄱㅈㅏ	-12822
ㅇㅣㅂㅈㅏ	-12823
▁ㅈㅜㅇㅅㅜ	-12824
▁OGN	-12825
▁ㅇㅏㄴㅍㅏㄲ	-12826
▁ㅊㅓㄴㄹㅛㅇ	-12827
▁ㅊㅣㅁㅇㅣㅂㅈㅏ	-12828
ㅅㅏㄴㅎㅘ	-12829
▁Ra	-12830
▁Plan	-12831
▁ㅊㅓㅇㄱㅖ	-12832
▁EF	-12833
ㅎㅕㄴㅅㅏㅇ	-12834
▁ㅅㅓㄱㅍㅏㄴ	-12835
▁WIN	-12836
ㄷㅗㅇㅎㅕㄴ	-12837
ora	-12838
▁Look	-12839
▁ㅈㅓㅁㅇㅝㄴ	-12840
▁NASA	-12841
▁ㄱㅝㄴㅌㅜ	-12842
▁ㅇㅓㅍㅇㅓ	-12843
▁Lu	-12844
▁RM	-12845
▁1905	-12846
ㅇㅓㅇㅇㅣ	-12847
reas	-12848
▁ㅎㅗㄴㅈㅏㅅㅁㅏㄹ	-12849
▁ep	-12850
▁ㄷㅏㄴㅅㅣ	-12851
▁ㅁㅏㄴㅎㅏ	-12852
▁ㄴㅗㄱㅅㅡㄹ	-12853
ㄱㅓㄴㅅㅗ	-12854
▁ㅇㅏㄴㅇㅑㅇㅅㅣ	-12855
▁ㅂㅡㄹㄹㅐㅇㅋㅡ	-12856
▁ㅂㅐㄱㅅㅏㅇ	-12857
▁ㅈㅓㄴㅎㅏㄱㅅㅐㅇ	-12858
▁ㅈㅏㅇㅁㅏㄴ	-12859
▁ㅈㅣㄴㅍㅜㅇㄱㅕㅇ	-12860
▁ㅂㅕㄴㄷㅓㄱ	-12861
▁401	-12862
▁CHA	-12863
▁ㅇㅕㅇㅊㅏ	-12864
▁ㅊㅗㄱㅎㅏㄴ	-12865
ㅌㅐㄱㄱㅏ	-12866
▁ㄱㅜㅂㅎㅣ	-12867
▁ㄴㅗㄴㅇㅚ	-12868
▁ㅂㅏㄱㅎㅕㅇ	-12869
▁ㅇㅕㄹㄱㅏㅇ	-12870
▁Av	-12871
▁ㅅㅡㄹㅎㅏ	-12872
▁ㅅㅓㅇㅍㅗㄱㄹㅕㄱ	-12873
▁ㅇㅘㅇㄹㅣㅂ	-12874
bow	-12875
▁ㅇㅣㄹㅇㅣㄹㅎㅣ	-12876
ㅇㅣㄴㅅㅠ	-12877
▁ㅇㅐㅇㅁㅜ	-12878
▁ㅎㅏㅁㅇㅠ	-12879
▁ㅁㅜㄴㅎㅏㅇ	-12880
ㅅㅡㄹㄹㅏㄴ	-12881
▁ㅂㅐㅅㅅㅗㄱ	-12882
ㅅㅅㅗㄱ	-12883
▁ㅋㅏㄱㅌㅔ	-12884
▁ㅇㅕㅁㅈㅡㅇ	-12885
▁ㅇㅗㄴㅌㅗㅇ	-12886
elieve	-12887
amu	-12888
ㄴㅜㅂ	-12889
▁die	-12890
▁Tur	-12891
▁Work	-12892
▁ㅈㅓㅇㅅㅡㅇ	-12893
▁ㅈㅓㅇㅇㅠㄴㅈㅗㅇ	-12894
▁APK	-12895
▁1907	-12896
▁ㄷㅡㄹㄸㅡ	-12897
ㅇㅏㄴㄱㅕㅇ	-12898
▁ㅇㅜㄹㄹㅡㅇ	-12899
ayer	-12900
▁ㅎㅜㄴㄹㅕㄴㅂㅕㅇ	-12901
▁ㅅㅓㅇㅇㅏㄱ	-12902
▁Pat	-12903
▁ㅈㅓㄴㄱㅡㄴ	-12904
▁ㅇㅣㄹㅅㅐㄱ	-12905
▁ㅈㅐㅇㅈㅐㅇ	-12906
ㄹㅏㄱㅅㅡ	-12907
ㅅㅣㄴㄹㅗㄴ	-12908
OME	-12909
▁ㄱㅓㄴㄱㅘ	-12910
ㅈㅗㅇㅂㅕㅇㄱㅣ	-12911
ㅅㅐㅇㅇㅏ	-12912
▁050	-12913
▁ㅇㅝㄴㄱㅜㄴ	-12914
▁ㅂㅕㄴㅎㅏㅁㅇㅓㅄ	-12915
▁ㄱㅡㄹㄹㅔㄴ	-12916
▁ㅇㅕㄴㅈㅓㅇ	-12917
▁ㅇㅕㄴㅍㅣㄹ	-12918
▁ㅈㅜㅇㅁㅜ	-12919
▁ㅌㅗㅇㄱㅗㄱ	-12920
IZ	-12921
ote	-12922
▁ㅇㅡㄹㄹㅕ	-12923
ㅂㅓㅂㅂㅜ	-12924
▁ㄱㅣㅁㅎㅗㅇ	-12925
ㅈㅜㅂ	-12926
▁ㄱㅏㄴㄷㅏㅁㅎㅚ	-12927
REAK	-12928
ㄱㅕㄹㅎㅏㅂ	-12929
▁Ka	-12930
▁286	-12931
ㅅㅓㄱㅈㅣㄴ	-12932
▁ㅇㅓㄹㄸㅓㄹ	-12933
▁ㄲㅣㅁ	-12934
▁1921	-12935
ㄹㅔㄹㄹㅣ	-12936
▁ㅈㅜㅇㅈㅡㅇ	-12937
▁ㅎㅕㄴㄱㅘㄴ	-12938
▁ㅎㅕㄹㅈㅗㄱ	-12939
▁ㄷㅔㅅ	-12940
▁ㄱㅣㅁㅅㅏ	-12941
ㅈㅏㄱㄱㅗㄱ	-12942
▁ㄱㅜㄱㅎㅏㄴ	-12943
▁ㅅㅗㄱㅅㅗㄱ	-12944
▁Pal	-12945
▁ㄱㅣㅁㅁㅜ	-12946
▁ㅂㅓㄴㅂㅗㄱ	-12947
ros	-12948
▁MH	-12949
ㅂㅔㄱ	-12950
▁ㅁㅕㄴㅅㅔ	-12951
▁ㅅㅡㅇㄹㅛㅇ	-12952
▁ㅈㅏㅇㄱㅓㅁ	-12953
▁CU	-12954
ister	-12955
▁ㅇㅕㅍㄱㅜ	-12956
▁ㅌㅗㅇㄴㅏ	-12957
▁ㅎㅓㅁㄴㅏㄴ	-12958
▁ㄷㅣㄷ	-12959
▁ㅂㅏㄴㅇㅝㄹ	-12960
ㅎㅘㄴㄱㅕㅇ	-12961
▁ㅈㅏㄱㅅㅓㅇㅈㅏ	-12962
▁003	-12963
▁ㅅㅣㄹㅍㅡ	-12964
▁ㄱㅣㅁㄱㅏㅂ	-12965
▁ㅇㅕㄴㅎㅐㅇ	-12966
▁ㅇㅡㅁㅇㅏㄱㅈㅜㅇㅅㅣㅁ	-12967
▁ㄱㅘㄴㅈㅜㅇㅅㅓㄱ	-12968
▁Mic	-12969
▁Give	-12970
ㅎㅡㄴㄷㅡㄹ	-12971
oog	-12972
▁See	-12973
▁som	-12974
▁ㅊㅓㅇㄹㅏ	-12975
▁Double	-12976
▁Beautiful	-12977
▁ㅂㅏㄹㅎㅘ	-12978
▁ㅅㅡㅂㅈㅣ	-12979
ㅍㅗㄱㄹㅕㄱ	-12980
▁ㄴㅏㅁㅂㅏㅇ	-12981
▁yul	-12982
OTHER	-12983
▁ㄷㅗㄱㅊㅏㅇ	-12984
▁ㄲㅡㅌㅈㅏㅇㄴㅐ	-12985
▁ㅆㅐㅁ	-12986
▁ㅈㅓㄴㅇㅓㅂ	-12987
▁University	-12988
▁ㅅㅜㄹㄹㅐ	-12989
▁ㅈㅓㅇㅁㅣ	-12990
ㅎㅏㅂㅈㅜㅇㄱㅜㄱ	-12991
ㅁㄷㅗㄹ	-12992
▁Arch	-12993
▁ㅍㅓㄴㅌㅡ	-12994
▁ㄱㅗㅇㅂㅐㄱㄱㅣ	-12995
ㅎㅏㄴㅎㅣ	-12996
▁357	-12997
ㄷㅗㅇㅅㅏ	-12998
▁ㄱㅓㄹㄹㅔ	-12999
▁ㄴㅗㅎㅇㅏ	-13000
▁ㅋㅓㅁㅍㅏ	-13001
▁ㅆㅣㅇ	-13002
onight	-13003
▁ㅇㅛㅇㅈㅓㅂ	-13004
▁ㄱㅜㄱㅁㅣㄴㅎㅚ	-13005
▁385	-13006
▁Pur	-13007
▁ㅎㅕㅇㅊㅔ	-13008
▁ㄷㅣㄹㄹㅓㄴ	-13009
▁Sub	-13010
ㅁㅏㄹㄹㅏ	-13011
ㄹㅏㄴㄷㅗ	-13012
▁ㅅㅡㅇㅎㅘ	-13013
▁ㄱㅏㅇㅇㅏㅂ	-13014
ㅈㅓㄱㄱㅓ	-13015
▁ㄱㅗㄹㅁㅜㄴ	-13016
▁ㄱㅓㄹㄹㅣㅁㄷㅗㄹ	-13017
ini	-13018
iness	-13019
▁ㅎㅘㅇㅇㅑ	-13020
42	-13021
▁ㅇㅑㅇㄷㅓㄱ	-13022
▁ㅇㅛㅇㄱㅘㅇ	-13023
▁ㅎㅏㅇㅅㅣ	-13024
▁ㅇㅣㄹㅅㅣㄴ	-13025
▁SSS	-13026
▁ㅅㅓㅇㅅㅣㄴ	-13027
▁ㅇㅝㄴㅈㅓㅁ	-13028
▁ㅁㅜㄴㄱㅓㄴ	-13029
▁ㅅㅓㅇㅅㅏㄴ	-13030
▁ㅎㅕㄹㅈㅓㄴ	-13031
▁ㅇㅕㅇㅇㅜㅇㅈㅓㄴ	-13032
43	-13033
▁ㅈㅣㅈ	-13034
▁ㄸㅡㅅㄷㅐ	-13035
▁ㅅㅗㄱㅅㅜ	-13036
▁ㅇㅕㅇㅍㅏㄴ	-13037
▁FFF	-13038
▁ㅌㅏㄴㅅㅣㄱ	-13039
ㅆㅢ	-13040
▁Here	-13041
▁ㄱㅜㄴㅁㅏ	-13042
▁ㅇㅏㄱㅊㅟ	-13043
▁ㄷㅗㄱㅇㅡㅁ	-13044
ja	-13045
▁ㅉㅣㅈㄱㅣ	-13046
ㄱㅐㅇㅇㅓ	-13047
ㅌㅐㅁㅍㅡ	-13048
ㅍㅡㄹㄱㅐㅇㅇㅓ	-13049
▁MAR	-13050
▁ㅇㅣㅂㄱㅣㅁ	-13051
▁ㅅㅜㄴㅇㅣ	-13052
▁ㅂㅏㄹㅈㅏㄱ	-13053
▁ㅂㅗㄴㅈㅓㄴ	-13054
▁ㅅㅐㄱㄱㅏㅁ	-13055
▁ㅎㅣㅁㄲㅓㅅ	-13056
▁ㄴㅓㄼㅇㅣ	-13057
▁ㅂㅏㄹㅊㅞ	-13058
▁ㅁㅏㄴㅇㅣㄴ	-13059
ror	-13060
▁ㅂㅗㅇㅅㅣㄴ	-13061
▁np	-13062
ㅌㅡㄹㅂㅓ	-13063
ㅇㅕㄴㅅㅓㅇ	-13064
ㄱㅕㅇㅈㅣ	-13065
▁ㅈㅜㅇㄹㅏㅇ	-13066
▁ㅁㅜㄴㅎㅢ	-13067
▁ㅅㅓㄴㄷㅔ	-13068
▁ㅅㅏㄴㅈㅓㄱ	-13069
ㄱㅗㅇㅈㅏ	-13070
▁ㅂㅕㅇㅅㅣㄹ	-13071
▁ㅂㅏㄴㅍㅗ	-13072
▁ㅅㅓㅁㄱㅘㅇㅌㅏㄴ	-13073
ㅇㅗㅁ	-13074
▁Ref	-13075
▁9999	-13076
▁Oper	-13077
▁ㅁㅔㅇㅅㅡ	-13078
▁ㅂㅔㄹㄹㅗ	-13079
▁ㅅㅣㄹㄱㅘ	-13080
▁ㅂㅏㄱㅈㅔ	-13081
▁ㄱㅗㅇㅇㅑㅇ	-13082
▁its	-13083
▁ㅅㅞㄴ	-13084
▁True	-13085
▁ㅅㅔㅅㅅㅛ	-13086
▁ㅅㅏㅇㅂㅗㅇ	-13087
▁OFF	-13088
ellow	-13089
▁ㅈㅓㄱㄱㅜㄱ	-13090
▁ㄱㅏㄱㅅㅓㅇㄱㅣ	-13091
ㄹㄹㅣㅁ	-13092
▁name	-13093
▁ㅅㅗㅇㄱㅘㅇ	-13094
▁ㅎㅏㄱㄱㅘㄴ	-13095
▁ㅅㅏㅇㄱㅡㅂㅈㅏ	-13096
ㅇㅑㄱㅅㅡ	-13097
▁ㅍㅓㄴㄷㅡ	-13098
▁Mov	-13099
▁ㅇㅕㄹㄷㅐ	-13100
▁ㅇㅕㄴㅎㅏㅂㄴㅠ	-13101
▁ㅉㅏㄹㅉㅏㄹㅇㅣ	-13102
▁under	-13103
▁ㅍㅔㄴㄹㅣ	-13104
▁670	-13105
▁ㅂㅗㄴㅈㅡ	-13106
▁MSM	-13107
▁ㅎㅘㅇㅎㅐ	-13108
any	-13109
▁ㅅㅜㄷㄱㅏ	-13110
▁ㅈㅣㄴㅅㅣ	-13111
ㄱㅗㄱㅇㅕㄱ	-13112
▁ㅇㅘㅇㄱㅝㄴ	-13113
▁ㄹㅣㅇㄱㅗ	-13114
▁ㄹㅗㅂㅅㅡ	-13115
ㄴㅏㅁㄷㅗㅇ	-13116
▁Burn	-13117
▁-.-	-13118
▁ㄷㅗㄱㅎㅏ	-13119
▁ㅁㅜㄹㄱㅣ	-13120
▁ㄱㅏㄺㅇㅏ	-13121
▁JAPAN	-13122
▁gonna	-13123
▁ㅅㅐㄱㅅㅗ	-13124
▁ㅋㅣㄹㄹㅣ	-13125
ㅇㅝㄴㄱㅜㄱ	-13126
▁ㄱㅣㅁㅁㅣㄴㅊㅓㄹ	-13127
ㅅㅏㄴㅅㅓㅇ	-13128
KE	-13129
ㅂㅗㄴㅂㅜ	-13130
▁ㅇㅕㅁㅇㅝㄴ	-13131
▁307	-13132
ㅁㅔㄹㄹㅣ	-13133
▁ㄷㅏㅇㄱㅜ	-13134
▁ㅎㅏㅁㄱㅛ	-13135
ㄲㅜㅇ	-13136
▁HERO	-13137
▁ㅂㅕㅇㅇㅏ	-13138
ㄷㅗㅇㅅㅣㄱ	-13139
▁ㅈㅗㅇㅇㅓㅂㅇㅝㄴ	-13140
▁ㅅㅓㄴㄴㅕ	-13141
▁ㅇㅐㄱㅌㅓ	-13142
▁ㅇㅣㄹㄹㅠ	-13143
ㅇㅠㄱㅎㅏㄱ	-13144
▁ㅎㅘㄴㅅㅡㅇㅇㅕㄱ	-13145
ㄹㅓㅇㄱㅓ	-13146
▁ㅇㅝㄴㄹㅛ	-13147
▁ㅇㅛㅇㄷㅗㄴ	-13148
▁ㅎㅕㄴㅇㅏㄱ	-13149
▁TECHNIKA	-13150
ㅇㅕㄴㅇㅢ	-13151
▁ㅎㅔㄱㅌㅗ	-13152
▁ㅅㅡㅇㅅㅏㄴ	-13153
▁ㄱㅜㄴㅈㅏ	-13154
▁ㅍㅐㄴㅅㅓ	-13155
▁ㅍㅕㄴㅎㅣ	-13156
▁ㅈㅜㄱㅊㅏㅇ	-13157
▁ㄲㅏㄹㅂㅗ	-13158
ㅁㅏㄴㅂㅕㄹ	-13159
▁PTS	-13160
▁ㅂㅏㅂㄱㅏㅄ	-13161
▁ㅌㅏㄹㅈㅣㄴ	-13162
▁ㅂㅓㄴㅂㅓㄴㅎㅣ	-13163
ANT	-13164
▁ㄷㅏㄹㄷㅏㄹ	-13165
▁ㅂㅏㄹㄱㅜㄴ	-13166
Boy	-13167
ㅋㅜㅇ	-13168
▁ind	-13169
▁ㄷㅗㅇㅊㅏ	-13170
ㅎㅝㄴ	-13171
▁YES	-13172
▁ㅋㅗㄹㄹㅔㄱㅅㅕㄴ	-13173
ㅂㅡㄴㅅㅡ	-13174
▁ㄱㅗㅇㅇㅛㅇㅇㅓ	-13175
▁ㅇㅏㅇㅌㅜ	-13176
▁ㄷㅗㅇㅇㅑㅇㅇㅣㄴ	-13177
▁ㅈㅏㄱㅍㅜㅁㅅㅏㅇ	-13178
▁Ve	-13179
▁ㄸㅓㄱㅊㅣㄹ	-13180
▁ㅂㅏㄺㄱㅣ	-13181
▁ㅌㅏㄴㅈㅏ	-13182
▁Bon	-13183
▁bbq	-13184
▁icon	-13185
ㅈㅜㄹㄱㅣ	-13186
▁ㅇㅠㄴㅅㅏㅇ	-13187
▁Mind	-13188
▁ㅂㅏㄱㅎㅢ	-13189
▁ㅈㅓㄴㄱㅜ	-13190
▁ㄱㅣㅁㅂㅏㅂ	-13191
ㅇㅣㄴㅈㅓㄹㅅㅡ	-13192
▁ㄲㅑ	-13193
▁Hal	-13194
▁Make	-13195
ㅅㅓㄱㅎㅢ	-13196
▁ㅂㅜㄹㅇㅢ	-13197
▁ㄱㅕㅁㅅㅗㄴ	-13198
ipedia	-13199
▁ㄱㅕㅇㄷㅗ	-13200
ㄱㅕㅇㅊㅏㄹ	-13201
ㄴㅣㅇㄱㅜ	-13202
olding	-13203
▁ㅇㅜㄴㅎㅏ	-13204
uit	-13205
▁525	-13206
▁ㅅㅐㄱㄷㅏ	-13207
▁ㄱㅏㅇㅂㅐㄱㅎㅗ	-13208
▁Hor	-13209
▁DREAM	-13210
RC	-13211
ㅍㅏㄴㅂㅜ	-13212
▁ㄷㅗㄱㅅㅡ	-13213
andy	-13214
▁2600	-13215
▁ㅈㅣㅇㅅㅜ	-13216
▁ㅋㅡㄹㄹㅣㄴㅌㅓㄴ	-13217
ris	-13218
▁ㅁㅏㅇㄴㅏ	-13219
▁ㅂㅏㅇㄹㅏㅇㅈㅏ	-13220
▁ㅅㅔㄴㅌㅗ	-13221
▁ㅊㅣㅁㅅㅜ	-13222
ots	-13223
▁BY	-13224
▁Shin	-13225
▁ㅂㅜㄹㄱㅗ	-13226
▁Silver	-13227
▁ㅇㅕㅇㅇㅕㅇ	-13228
▁ㅈㅗㅇㅅㅣㄱ	-13229
▁miss	-13230
▁OUT	-13231
▁Head	-13232
▁ㅈㅏㅇㅌㅓ	-13233
ㄱㅡㅂㅈㅏㅇ	-13234
▁ㅍㅣㄹㅁㅕㅇ	-13235
▁ㅎㅣㅁㅊㅏ	-13236
97	-13237
FE	-13238
▁ㄱㅝㄴㅅㅓㄴ	-13239
▁ㅂㅓㄴㅅㅓㅇ	-13240
ㅎㅏㄹㅅㅣ	-13241
▁ㅂㅏㅇㄱㅟ	-13242
▁ㅇㅡㅁㄱㅏㄱ	-13243
▁VT	-13244
ㅅㅓㅇㅎㅗ	-13245
▁ㅋㅔㄴㅌㅡ	-13246
ㅅㅣㄱㅁㅜㄹ	-13247
ives	-13248
▁ㄱㅡㄹㅆㅔ	-13249
▁MSI	-13250
▁ㄱㅡㄴㄱㅛ	-13251
▁ㅈㅗㅇㅇㅓㄴ	-13252
▁ml	-13253
ㄱㅡㄴㅊㅏ	-13254
▁ㅅㅗㄴㅅㅡㅇ	-13255
▁VO	-13256
ㅈㅓㅇㄱㅣ	-13257
▁ㄱㅕㄹㅂㅏㅇ	-13258
▁ㅇㅜㄴㄷㅗㅇㅎㅚ	-13259
▁ㄹㅜㅅ	-13260
ㅇㅘㄱ	-13261
▁ㅈㅜㅇㅌㅚ	-13262
▁ㅈㅏㅂㅇㅡㅁ	-13263
▁Cost	-13264
▁ㄱㅏㄴㅎㅐㅇ	-13265
▁ㄱㅗㅇㅅㅐㅇ	-13266
YO	-13267
▁ㅎㅏㄾ	-13268
▁Roll	-13269
▁ㄱㅐㄹㄹㅣ	-13270
▁ㅇㅕㅇㅇㅐ	-13271
▁ㄴㅡㅇㅌㅗㅇ	-13272
▁ㄷㅗㅇㅈㅣㄴ	-13273
ㅁㅏㅈㅊㅜㅁ	-13274
▁ㅅㅗㅇㄴㅏ	-13275
era	-13276
▁ㅂㅜㄱㅇㅟ	-13277
▁Imp	-13278
ㅇㅑㅇㄱㅜ	-13279
▁ㅂㅐㄱㅇㅑ	-13280
▁ㅅㅣㄴㅂㅗ	-13281
▁ㄱㅓㄴㅂㅏㄴ	-13282
▁ㅂㅐㄱㅇㅏㄱㄱㅘㄴ	-13283
ㅂㅔㄹㄹㅏ	-13284
ㅊㅜㄹㅅㅗ	-13285
▁ㅂㅕㅇㅂㅓㅂ	-13286
▁ㅂㅕㅇㅈㅏ	-13287
▁ㅎㅏㄴㅈㅣㄴ	-13288
63	-13289
usion	-13290
ㅂㅏㅇㅇㅟ	-13291
▁ㅇㅘㅇㄷㅗ	-13292
▁ㅁㅜㄴㅅㅓㄴ	-13293
▁ㅇㅝㄴㅁㅏㄴ	-13294
▁ㅅㅣㄴㅁㅜㄴㅅㅏ	-13295
vice	-13296
▁Episode	-13297
▁ㅈㅗㅇㅊㅏㄱㅇㅕㄱ	-13298
▁ㅊㅓㄴㅎㅗ	-13299
▁ㄷㅗㄱㅊㅣㅁ	-13300
▁ㅅㅜㄴㅊㅓㄴㅅㅣ	-13301
▁970	-13302
▁ㄱㅕㅇㄹㅖ	-13303
▁ㄲㅗㅊㅍㅣ	-13304
▁ㅅㅜㄴㅎㅚ	-13305
▁ㅈㅓㅇㅇㅕㄹ	-13306
ㅅㅣㄱㄱㅏ	-13307
ㅅㅡㅇㄷㅏㄹ	-13308
▁ㅎㅜㄴㄷㅗㄱ	-13309
▁ㅅㅣㅁㅅㅏㅇㅈㅓㅇ	-13310
▁ㅂㅐㄱㅈㅗ	-13311
▁ㄱㅜㄹㄱㅗㄱ	-13312
itter	-13313
▁ㅍㅕㅇㅇㅑ	-13314
▁Second	-13315
ㅌㅓㄱㄷㅐ	-13316
▁ㄱㅏㅇㄱㅏ	-13317
ㅍㅏㄴㅈㅣ	-13318
▁Speed	-13319
▁ㄱㅓㄴㄷㅡㄹ	-13320
▁ㄷㅡㅇㅉㅏㄱ	-13321
▁ㅇㅣㄴㅇㅑㅇ	-13322
ㄴㅗㄱ	-13323
▁Doc	-13324
▁PART	-13325
▁ㅍㅣㅅㅂㅣㅊ	-13326
▁ㅎㅘㄴㄱㅘㄴ	-13327
▁ㅌㅏㄹㅇㅢ	-13328
▁ㅁㅜㄴㄷㅗ	-13329
▁ㅇㅛㅇㅁㅜㄴ	-13330
▁870	-13331
▁940	-13332
▁ㅅㅡㄹㄹㅣㅇ	-13333
▁ㅇㅓㅁㅊㅣㄴ	-13334
▁att	-13335
▁ㅈㅗㅇㅇㅛㅇ	-13336
91	-13337
▁1913	-13338
ㄹㅐㄱㅌㅓ	-13339
ㅇㅔㄴㄷㅡ	-13340
▁ㅁㅕㄴㅎㅚ	-13341
▁ㅊㅐㄱㅇㅣㅁㄱㅏㅁ	-13342
ken	-13343
▁263	-13344
▁el	-13345
ㅈㅣㄴㅈㅏㅇ	-13346
▁ㄷㅜㄴㅎㅏ	-13347
▁TUN	-13348
▁ㅁㅜㄴㅊㅔ	-13349
ㄷㅗㅇㅈㅜㄴ	-13350
▁ㅊㅣㄴㅈㅗㄱ	-13351
▁ㄱㅕㅇㅊㅏㄹㅊㅏ	-13352
▁Sea	-13353
ㅍㅜㄹㄹㅣ	-13354
▁ㅇㅣㄹㅅㅜ	-13355
▁ㅇㅏㄴㅈㅔㄹㄹㅏ	-13356
▁ㅂㅏㄷㄷㅡㄹ	-13357
▁ㅎㅕㅂㅇㅓㅂ	-13358
▁RW	-13359
▁730	-13360
ㄷㅔㅇㅇㅣ	-13361
ㅅㅔㄹㄹㅓ	-13362
▁ㅈㅏㅈㅇㅏ	-13363
▁ㄱㅗㅇㅇㅓㄴ	-13364
ava	-13365
▁sy	-13366
▁707	-13367
▁ㅂㅗㄹㄱㅓ	-13368
▁ㅍㅗㄱㅈㅏㅇ	-13369
ㅎㅓㄹ	-13370
ㄱㅐㅇㅇㅣ	-13371
▁ㅅㅗㅇㅇㅡㄴㅂㅓㅁ	-13372
▁283	-13373
▁did	-13374
ㄹㅐㄴㄷㅓ	-13375
▁ㅌㅏㄹㅍㅣ	-13376
▁ㅅㅣㄴㅂㅜㄴㅈㅡㅇ	-13377
USH	-13378
▁015	-13379
▁STAND	-13380
▁ㅍㅕㄴㅂㅓㅂ	-13381
▁ㅋㅚㄹ	-13382
▁ㅌㅗㅇㅈㅣ	-13383
ㅅㅓㄴㅇㅕㅇ	-13384
▁ㄱㅐㄱㅊㅏ	-13385
▁ㄷㅗㅇㅅㅜ	-13386
▁ㅈㅏㄴㄴㅡ	-13387
ific	-13388
▁402	-13389
▁ㅈㅓㄴㅊㅓ	-13390
ㅇㅕㅇㅁㅣㄴ	-13391
▁ㅅㅓㅇㅇㅛㄱ	-13392
▁268	-13393
▁ㄱㅣㅁㅁㅣㄴㅅㅓㅇ	-13394
▁ㄱㅏㅁㅊㅜㄱ	-13395
▁ㄱㅗㅇㄱㅕㄱㅈㅏ	-13396
▁1916	-13397
ㅌㅓㄴㅈㅡ	-13398
ㅌㅓㅇ	-13399
ㄴㅔㄴㅌㅏㄹ	-13400
▁ㅂㅏㅇㄷㅗㄱ	-13401
▁HC	-13402
▁Cloud	-13403
▁Fin	-13404
▁ㅇㅑㅇㄱㅜㅇ	-13405
ese	-13406
▁der	-13407
ㅎㅏㄹㅁㅓ	-13408
▁ㅎㅘㅇㄱㅡㅁㅅㅐㄱ	-13409
▁ㅁㅏㄹㄷㅏ	-13410
ㅅㅣㄹㅅㅣㄴ	-13411
ㅇㅡㄹㄹㅣ	-13412
▁ㄱㅕㅇㅁㅏ	-13413
▁ㄱㅡㄴㅎㅕㄴ	-13414
▁ㅇㅏㄹㄹㅏㅁ	-13415
▁ㅇㅕㄱㄷㅗㅇ	-13416
▁ㅊㅐㄱㅂㅗㅇ	-13417
▁ㄸㅓㄱㅅㅣㄹㅅㅣㄴ	-13418
▁LoL	-13419
▁1915	-13420
▁ㄱㅐㅇㅅㅐㅇ	-13421
ㅇㅠㅇㅎㅏㅂ	-13422
ㅎㅗㅁ	-13423
▁ㅈㅓㅂㅊㅏㄱ	-13424
▁ㅈㅓㄴㅂㅏㄴㅂㅜ	-13425
▁ㅎㅐㄱㅇㅠㅇㅎㅏㅂ	-13426
▁International	-13427
ㅇㅡㄴㅅㅓㅇ	-13428
▁ㄱㅓㅁㅁㅜㄴ	-13429
▁ㄷㅗㄹㅊㅜㄹ	-13430
hel	-13431
ㄹㅓㅇㅋㅡ	-13432
▁Cross	-13433
▁ㄴㅗㄴㅅㅏㄴ	-13434
▁4500	-13435
▁~!!	-13436
ㅎㅘㄱㅇㅣㄴ	-13437
▁257	-13438
▁ㄴㅕㅇ	-13439
form	-13440
▁Sign	-13441
ㅉㅐㅆㄱㅓ	-13442
▁ㅇㅓㅇㅌㅓ	-13443
▁ㅇㅓㅍㅊㅣ	-13444
▁ㅇㅣㄹㄱㅓ	-13445
ㅂㅣㄹㄹㅗㄴ	-13446
▁ㅁㅕㅇㄷㅗㅇ	-13447
▁ㅈㅜㅇㄷㅗㄱㅈㅏ	-13448
▁ㅅㅏㅇㅅㅗ	-13449
go	-13450
▁261	-13451
▁ㅊㅏㅂ	-13452
▁ㅇㅛㅇㄷㅜ	-13453
▁920	-13454
ㅊㅗㄴㄷㅗㅇ	-13455
▁ㅁㅕㅇㅎㅏㅁ	-13456
▁ㅊㅓㄹㅇㅣㄴ	-13457
▁ㅈㅏㅂㅈㅗㄹ	-13458
▁ㅍㅣㄹㅈㅜㅇ	-13459
▁Earth	-13460
▁ㅈㅓㄴㅅㅓ	-13461
▁ㅁㅓㄱㅇㅣㅅㄱㅏㅁ	-13462
▁009	-13463
▁276	-13464
▁ㅌㅗㅅ	-13465
ㄱㅕㄱㅈㅏ	-13466
▁Mid	-13467
▁ㅇㅕㄱㅅㅜ	-13468
▁ㄷㅟㅅㅁㅗㄱ	-13469
▁ㅍㅗㄱㅇㅑㄱ	-13470
▁ㅎㅐㅅㅅㅏㄹ	-13471
▁ㅁㅗㅇㄷㅜㅇㅇㅣ	-13472
▁XM	-13473
ㅂㅕㅇㅇㅝㄴ	-13474
▁ㅋㅓㄹㄹㅓㅁ	-13475
ojo	-13476
▁Rep	-13477
ㄱㅏㅇㅎㅏ	-13478
▁ㄱㅡㅂㅅㅏ	-13479
▁ㅂㅡㄹㄹㅏㄱ	-13480
▁ㅅㅓㅇㅎㅐㅇ	-13481
ㄷㅏㅎ	-13482
▁ㅊㅏㄱㅇㅗ	-13483
▁ㅅㅓㄹㅁㅕㅇㅅㅓ	-13484
▁ㅇㅕㄴㅅㅏㄴㄱㅜㄴ	-13485
▁GSM	-13486
▁ㅈㅡㄱㅂㅏㄹ	-13487
▁XG	-13488
▁ㄱㅣㄹㅉㅜㄱ	-13489
▁ㄷㅏㄴㄱㅜㄴ	-13490
▁ㅂㅓㄹㅈㅓㅁ	-13491
▁ㅇㅕㅇㅊㅓㄴ	-13492
▁ㅇㅣㅁㅈㅗㅇ	-13493
▁ㄹㅔㄴㅈㅣ	-13494
▁ㅈㅓㅇㅊㅏㄴ	-13495
eck	-13496
▁ㅈㅓㄱㅇㅚ	-13497
ㄲㅜㄹㅁㅓㅇ	-13498
▁Tok	-13499
▁bottom	-13500
AMP	-13501
▁ㅈㅡㅅ	-13502
▁ㅂㅏㅇㅈㅣㄴ	-13503
▁Electrical	-13504
▁273	-13505
▁ㅂㅐㄱㅅㅓㄱ	-13506
▁ㅌㅐㅅㅇㅡㄹ	-13507
▁ㄴㅏㄱㄷㅗㅇㄱㅏㅇ	-13508
▁338	-13509
ㅁㅕㅇㄱㅣ	-13510
▁ㅁㅏㄱㅅㅏ	-13511
▁ㅂㅕㄱㅎㅘ	-13512
▁ㄱㅡㅂㄱㅏㅇㅎㅏ	-13513
▁346	-13514
ㅅㅏㄹㅈㅏ	-13515
▁ㅂㅗㄴㅇㅕㄴ	-13516
▁work	-13517
▁ㅁㅜㄴㅁㅜ	-13518
▁ㄷㅏㅇㅈㅣㄱ	-13519
CO	-13520
▁ㄱㅏㅇㄱㅜ	-13521
▁ㄱㅡㅂㅈㅗ	-13522
ㅎㅘㄹㅅㅓㅇ	-13523
▁ㄷㅓㄹㄷㅓㄹ	-13524
▁Water	-13525
▁ㄱㅕㄹㅈㅣㅂ	-13526
▁COL	-13527
▁ㅂㅜㄴㅌㅏㅇ	-13528
▁ㅂㅏㄹㄱㅓㄹㅇㅡㅁ	-13529
▁ㅈㅓㅇㅈㅜㄴㅇㅕㅇ	-13530
▁END	-13531
▁ㅂㅜㄱㅅㅡ	-13532
▁ㅇㅝㄴㅌㅗㅇ	-13533
▁Dav	-13534
▁JO	-13535
▁ㅇㅕㄹㄷㅗ	-13536
▁ㅁㅜㄱㅇㅣㄴ	-13537
ㅊㅓㄴㄴㅕㄴㅁㅣㄴㅈㅜ	-13538
of	-13539
▁277	-13540
▁ㅂㅏㅇㅌㅗㅇ	-13541
▁ㅅㅔㄱㅅㅕㄴ	-13542
▁ㄱㅓㄴㅊㅜㄱㄱㅏ	-13543
ima	-13544
▁Thank	-13545
▁ㅇㅗㅅㅊㅏ	-13546
▁ㅈㅓㄴㅇㅐㄱ	-13547
▁VOL	-13548
ating	-13549
imate	-13550
▁pack	-13551
ㄹㅏㅁㅎㅚ	-13552
▁black	-13553
▁ㅁㅐㅇㄱㅗㅇ	-13554
BLE	-13555
▁-'	-13556
ㄴㅡㅇㅅㅏ	-13557
▁ㄷㅗㅇㄱㅟ	-13558
ㄱㅏㅁㄷㅗㄱ	-13559
ㄱㅕㅇㅎㅘㄴ	-13560
ㅇㅑㅇㅇㅣㄴ	-13561
▁ㅌㅏㅁㅌㅏㄱ	-13562
GHT	-13563
▁930	-13564
▁ㄴㅏㄴㅈㅗ	-13565
HO	-13566
▁Pres	-13567
▁ㄸㅏㅇㅋㅗㅇ	-13568
▁Rel	-13569
▁XIII	-13570
ㅈㅣㄴㅂㅗ	-13571
▁ㄴㅣㅅㅍㅗㄴ	-13572
▁590	-13573
▁big	-13574
ㅍㅏㅁ	-13575
BT	-13576
▁ㅅㅓㅇㅈㅘ	-13577
▁ㄱㅕㄹㅅㅏㄴ	-13578
▁ㅊㅓㄱㅌㅏㄴ	-13579
▁ㅅㅓㅇㅈㅗ	-13580
▁ㅎㅏㄹㅋㅟ	-13581
▁ㅎㅏㄴㄱㅜㄱㅈㅓㄴㄹㅕㄱ	-13582
ㅅㅏㅇㄱㅣ	-13583
ㅍㅣㄴㅅㅡ	-13584
▁Extra	-13585
▁ㅍㅣㄱㅅㅡ	-13586
▁ㅊㅞ	-13587
ㅎㅡㅇㅅㅣ	-13588
▁ㅅㅗㄴㅈㅐ	-13589
▁ㅇㅏㅍㅂㅏ	-13590
arn	-13591
▁ㄷㅔㄱㅅㅡ	-13592
▁ㅈㅐㅇㅊㅟ	-13593
▁ㅊㅓㄱㄷㅗ	-13594
▁wikipedia	-13595
rip	-13596
▁ㅊㅓㅇㅂㅜ	-13597
ㅂㅏㄹㄹㅗㄴ	-13598
▁ㅇㅣㄴㅊㅓㄱ	-13599
oman	-13600
ㅁㅕㄴㅊㅔ	-13601
▁ㅈㅏㅅㄷㅐ	-13602
▁ㅂㅜㄹㄲㅗㅊㄴㅗㄹㅇㅣ	-13603
▁ㅁㅓㅇㅊㅓㅇㅇㅣ	-13604
▁DIS	-13605
▁ㄷㅗㄱㅅㅣㄹ	-13606
41	-13607
▁ㄱㅡㅁㅈㅜ	-13608
▁ㅇㅕㅇㅅㅣㄱ	-13609
▁ㅊㅓㄴㅈㅓㅇ	-13610
▁ㅍㅣㄹㄹㅗ	-13611
▁ㄷㅡㅇㅅㅣㄴ	-13612
▁Qual	-13613
ㅅㅏㅇㅎㅏ	-13614
▁ㄱㅡㅁㅅㅏ	-13615
▁ㅁㅜㄹㄱㅓ	-13616
▁ㅇㅑㅇㅊㅣ	-13617
▁ㅇㅕㄹㅇㅕㄴ	-13618
▁\[	-13619
ㅈㅓㄱㅇㅡ	-13620
▁ㅍㅏㄹㄹㅗ	-13621
▁ㅂㅏㄹㅌㅓ	-13622
▁ㅂㅏㄱㅊㅓㄹ	-13623
▁ㅋㅚㄹㄹㅡㄴ	-13624
47	-13625
▁Wel	-13626
▁ㄱㅣㅁㄷㅗㅇㅈㅜㄴ	-13627
▁ㅈㅜㄴㅁㅏㄹ	-13628
IVER	-13629
ㅂㅜㄹㅅㅏ	-13630
▁ㅇㅣㅇㅇㅓ	-13631
▁ㅅㅣㄴㅊㅏㅁ	-13632
▁ㄱㅏㅁㅊㅏ	-13633
▁#==	-13634
ought	-13635
▁ㅂㅓㄴㅇㅏㄴ	-13636
▁Id	-13637
▁ㅋㅗㄴㅌㅡ	-13638
▁ㄹㅔㄹㄹㅣ	-13639
▁ㄹㅕㅇㅇㅜ	-13640
▁ㅂㅕㄴㅂㅏㅇ	-13641
▁Chall	-13642
▁ㄱㅏㅈㄱㅏ	-13643
▁ㄸㅏㄴㅈㅣ	-13644
▁ㅎㅐㄱㅈㅓㄴㅈㅐㅇ	-13645
▁Two	-13646
▁ㅁㅏㄴㅌㅏ	-13647
▁ㄱㅜㄴㄹㅑㅇ	-13648
IUM	-13649
ㄱㅡㅂㅊㅏ	-13650
▁ㅇㅏㄴㅈㅣ	-13651
▁ㅁㅜㄱㅁㅜㄱㅎㅣ	-13652
▁bu	-13653
▁give	-13654
ㅇㅣㄴㅇㅕㄱ	-13655
▁30000	-13656
▁Guard	-13657
▁ㄱㅐㄱㅅㅣㄹ	-13658
▁ㅎㅏㄴㅇㅑㅇㄷㅐ	-13659
WC	-13660
▁HAPP	-13661
▁ㅂㅏㅂㅅㅏㅇ	-13662
▁ㄷㅗㄱㅇㅣㄹㅇㅣㄴ	-13663
▁PRE	-13664
ㅎㅕㄴㅈㅜ	-13665
▁ㅈㅓㄴㅁㅜㄴㅈㅓㅁ	-13666
▁nhn	-13667
▁ㅎㅏㄱㅁㅕㅇ	-13668
▁Original	-13669
ㄹㅜㅇ	-13670
▁2800	-13671
ㄱㅏㄴㄷㅏ	-13672
▁ㄴㅏㅁㅇㅝㄴ	-13673
▁ㅇㅔㄹㅌㅡㄴ	-13674
ㅌㅏㄴㅂㅜㄹ	-13675
ㅍㅏㄴㄱㅘㄴ	-13676
ㅍㅡㄹㄹㅣㄴ	-13677
▁ㅍㅣㄹㄹㅣㅂㅅㅡ	-13678
▁CI	-13679
▁VOD	-13680
▁ㅅㅓㅇㄱㅛ	-13681
▁ㅍㅡㄹㄹㅣㅅ	-13682
▁ㅊㅜㄴㅊㅓㄴㅅㅣ	-13683
▁TK	-13684
▁415	-13685
▁1909	-13686
▁Prot	-13687
▁ㅈㅓㅇㅂㅕㄴ	-13688
▁ㅂㅏㄹㄹㅗ	-13689
▁ㅅㅣㅁㅈㅐ	-13690
ㄷㅗㅇㅈㅣㄴ	-13691
axy	-13692
come	-13693
▁1908	-13694
▁ㄷㅏㅂㄴㅣ	-13695
ㄱㅘㄴㅅㅣㄱ	-13696
▁ㅁㅏㄴㅊㅏㄴ	-13697
▁through	-13698
▁Ban	-13699
▁Maj	-13700
ㅁㅔㄹㄹㅗ	-13701
ㅎㅐㅁ	-13702
▁ㅋㅐㅇ	-13703
▁ㅇㅠㄴㅅㅓ	-13704
▁ㅂㅕㄹㄱㅘㄴ	-13705
▁ㅅㅜㅌ	-13706
▁ㅁㅣㄹㅊㅏㄱ	-13707
ㅅㅡㄹㄹㅏㅁㄱㅛ	-13708
ㅅㅑㅇ	-13709
▁ㅊㅣㅅ	-13710
▁ㅊㅏㄹㅈㅣ	-13711
▁910	-13712
▁Vita	-13713
▁ㄷㅏㅇㅅㅓㄴㅈㅏ	-13714
ota	-13715
▁ㅂㅜㄹㅅㅡ	-13716
▁ㅅㅏㄴㄷㅗㅇ	-13717
▁ㅇㅚㄴㅅㅗㄴㅈㅏㅂㅇㅣ	-13718
▁ㅎㅓㄱ	-13719
▁ㄷㅗㄱㄱㅏ	-13720
▁Ki	-13721
ㅂㅓㅁㅎㅗ	-13722
ㅅㅏㅇㅇㅓ	-13723
ection	-13724
▁ㅎㅏㄴㄹㅣㅁ	-13725
▁518	-13726
▁ㄷㅡㅇㅂㅜㄹ	-13727
▁HO	-13728
▁ㄱㅝㄹ	-13729
ㅁㅏㄴㅅㅜ	-13730
ㅇㅣㄹㅊㅔ	-13731
▁ㅅㅣㄴㅁㅏ	-13732
▁PTSD	-13733
▁ㅅㅏㄴㅇㅛ	-13734
▁ㅇㅓㄹㄸㅓㄹㄱㅕㄹ	-13735
▁271	-13736
ㅇㅣㄹㅊㅣ	-13737
▁ㅌㅡㅁㅌㅡㅁ	-13738
▁ㅅㅏㅁㄱㅜㄱㅈㅓㄴ	-13739
▁Jump	-13740
▁ㅊㅏㅁㅎㅗㄱ	-13741
▁ㅇㅕㅇㄹㅏㄱㅇㅓㅄ	-13742
▁nic	-13743
▁Dynam	-13744
▁ㅅㅣㄴㅇㅗ	-13745
▁ㅅㅣㄴㅇㅏㄴ	-13746
▁ㅇㅕㄴㅁㅕㅇ	-13747
aeb	-13748
▁Cho	-13749
▁too	-13750
ㄱㅡㅂㅅㅜ	-13751
▁Intel	-13752
▁ㅁㅐㄱㅇㅏ	-13753
enc	-13754
▁ㄷㅏㄹㅅㅓ	-13755
▁ㅁㅜㄲㅇㅡㅁ	-13756
▁ㅈㅓㄴㅇㅏㅂ	-13757
▁KK	-13758
▁Ob	-13759
ㅈㅡㅂ	-13760
▁ㄷㅗㄱㄱㅣ	-13761
▁ㅎㅠㅇㄴㅗ	-13762
▁ㅅㅣㄱㄱㅏㅁ	-13763
▁ㅇㅞㄹㅅㅡ	-13764
▁ㄱㅡㅁㄱㅚ	-13765
▁ㅅㅏㅁㅊㅓㄱ	-13766
▁ㄹㅗㄴㄷㅗ	-13767
▁ㅇㅕㅇㅇㅝㄹ	-13768
▁ㅈㅓㅇㄱㅗㅇ	-13769
▁ㅊㅓㅇㄷㅏㅁ	-13770
▁ㄷㅏㄹㅁㅏ	-13771
ㅅㅏㅇㅈㅓㄴ	-13772
▁ㅇㅏㄹㄹㅗㄴ	-13773
▁ㅈㅣㄹㅅㅣㄱ	-13774
▁ㄱㅏㄴㄱㅕㄹ	-13775
▁ㅇㅕㄴㅇㅑㄱ	-13776
ㄱㅡㄹㄱㅓ	-13777
▁ㅇㅕㅁㄱㅣ	-13778
ㅇㅝㄴㅈㅜㄴ	-13779
▁ㅇㅏㄱㄷㅗㅇ	-13780
▁ㅇㅕㅇㅈㅗㅇ	-13781
▁ㅍㅓㄴㄷㅣㅇ	-13782
ㅇㅏㄴㄱㅏ	-13783
▁ㅈㅣㄱㅈㅏㅇㅇㅣㄴ	-13784
▁RNG	-13785
ㅂㅕㅇㅈㅐ	-13786
ㅈㅣㄴㅍㅛ	-13787
▁ㅁㅗㄱㅁㅏ	-13788
▁friend	-13789
▁ㄱㅏㅇㅈㅓㅇㅎㅗ	-13790
▁ro	-13791
▁Hand	-13792
▁ㅈㅓㅂㄷㅐ	-13793
ved	-13794
▁ㅎㅏㄴㄲㅓㅅ	-13795
▁ㄱㅏㄴㅅㅓㄴㅂㅓ	-13796
▁ㅂㅏㄹㅁㅕㅇㅍㅜㅁ	-13797
▁ㅂㅏㅇㄷㅗㄱㅁㅕㄴ	-13798
▁ㅇㅔㄹㅈㅏ	-13799
▁ㅊㅜㄹㅎㅏㅇ	-13800
▁Ray	-13801
▁ㅂㅐㄱㄷㅗ	-13802
▁ㅎㅗㄴㅁㅏ	-13803
▁ㅇㅑㅇㅎㅏㄱ	-13804
▁Forever	-13805
ㄷㅓㅂ	-13806
▁020	-13807
▁ㅅㅣㄴㅍㅏ	-13808
▁ㅋㅔㄴㅅㅣㄴ	-13809
ㅆㅗ	-13810
▁318	-13811
▁COST	-13812
▁ㅇㅡㅇㅅㅜ	-13813
▁ㅈㅓㄹㄹㅗ	-13814
ㄷㅏㅇㅅㅓㄴ	-13815
▁ㄱㅡㅁㅇㅕㄴ	-13816
▁ㅂㅔㄴㅈㅏ	-13817
ㅅㅓㅇㅇㅕㄹ	-13818
ㅎㅕㄴㅇㅕㄱ	-13819
ㄱㅜㅂ	-13820
▁Mill	-13821
▁Parad	-13822
▁ㅅㅡㅂㅅㅓㅇ	-13823
▁KM	-13824
▁che	-13825
▁mag	-13826
▁ㄱㅜㄴㄱㅏ	-13827
ㅍㅗㄹㄹㅗㄴ	-13828
▁Chaos	-13829
▁ㅂㅡㄹㄹㅓㅁ	-13830
▁ㅅㅣㄱㄷㅏㄴ	-13831
▁ㅎㅏㅇㄹㅕㄹ	-13832
▁ㅂㅗㅇㄱㅓㄴ	-13833
▁ㅇㅝㄴㅋㅣㄹ	-13834
ㄷㅡㄱㅇㅣ	-13835
▁ㅅㅣㄴㅇㅜ	-13836
▁ㅅㅏㅇㄷㅗㅇ	-13837
▁475	-13838
▁Dep	-13839
▁Street	-13840
▁ㅇㅏㄴㅂㅏㅇ	-13841
▁ㅈㅓㄴㄱㅜㄱㄱㅜ	-13842
ㅌㅡㄹㄱㅓ	-13843
ㅈㅓㄱㅂㅜㄴ	-13844
▁ㅇㅕㅇㄱㅓㄹ	-13845
▁TRPG	-13846
ㄷㅗㅇㄱㅜㄱ	-13847
▁fire	-13848
ㅈㅜㄴㅇㅜ	-13849
▁ㄱㅡㅂㅂㅜ	-13850
ㅈㅓㄴㅂㅏㅇ	-13851
▁ㅆㅜㅇ	-13852
▁ㄷㅏㅇㄴㅐ	-13853
▁ㅈㅏㅇㄱㅝㄴ	-13854
▁sur	-13855
▁ㄲㅜㅅ	-13856
ㅌㅔㄱㅊㅓ	-13857
▁ㄹㅗㄴㄷㅡ	-13858
▁ㅊㅣㄴㅇㅣㄹㅍㅏ	-13859
▁ㅅㅜㄴㅇㅑㅇㅈㅓㄴㅎㅏㅁ	-13860
▁ㄱㅕㅇㅊㅣ	-13861
ㅇㅏㅂㄱㅏㅁ	-13862
ㅇㅐㅇㄱㅡㄹ	-13863
▁ㅂㅏㄴㅈㅡㅇ	-13864
▁ㅇㅕㅇㅅㅐㅇ	-13865
▁ㄱㅘㄴㄹㅕㄴㅈㅏ	-13866
▁Cle	-13867
▁lat	-13868
▁ㄷㅗㅊ	-13869
▁ㅁㅏㄹㅆㅏ	-13870
ㅈㅓㅇㅎㅘㄴ	-13871
▁ㅇㅛㅇㅇㅕㄱ	-13872
oft	-13873
▁cb	-13874
▁ㄱㅜㅇㅅㅏ	-13875
▁ㅂㅗㄴㄱㅛ	-13876
▁TJ	-13877
ㅁㅣㄴㅌㅓㄴ	-13878
▁ㄷㅏㅁㅇㅏ	-13879
▁ㅌㅐㄱㅈㅣ	-13880
▁ㅎㅏㅂㅅㅔ	-13881
KA	-13882
▁Jr	-13883
ㄴㅗㄹㄹㅗ	-13884
ㅅㅓㅇㅈㅐ	-13885
▁ㅅㅏㅇㅊㅡㅇㅂㅜ	-13886
▁ㅅㅣㄴㄷㅗㅇㅇㅕㅂ	-13887
▁323	-13888
inity	-13889
▁ㅁㅣㄴㅂㅕㅇㅎㅓㄴ	-13890
▁ㄷㅏㅇㄷㅗ	-13891
ㄱㅗㄹㅁㅗㄱ	-13892
ㅅㅏㅇㅊㅓㄴ	-13893
▁ㅂㅜㄴㅂㅜㄴ	-13894
▁Du	-13895
ㅂㅓㅅ	-13896
▁Sin	-13897
ㄹㅏㄴㅊㅔ	-13898
ㅊㅏㅁㅅㅏ	-13899
ㅊㅜㅇㅈㅓㄴ	-13900
▁ㅂㅕㄹㅂㅣㅊ	-13901
▁ㅁㅜㄹㄷㅡㄹㅇㅣ	-13902
por	-13903
akes	-13904
▁Lab	-13905
ㅃㅜㄹㅅㅗ	-13906
▁Fight	-13907
▁ㅅㅓㄴㅁㅣ	-13908
ㅅㅜㄴㅎㅘㄴ	-13909
ㅋㅐㅂ	-13910
▁Right	-13911
ISE	-13912
▁ㄴㅏㄴㅌㅏ	-13913
▁ㅇㅕㄱㄱㅗㅇ	-13914
▁ㅎㅕㄱㅁㅕㅇㄱㅜㄴ	-13915
▁ㅇㅕㄹㅈㅜㅇ	-13916
▁Cast	-13917
ㅇㅕㅇㅈㅐ	-13918
▁ㅇㅠㄱㅅㅜ	-13919
ael	-13920
▁Ko	-13921
▁ㅅㅗㄱㄴㅐ	-13922
▁ㅈㅓㅇㅍㅏ	-13923
ㅈㅜㄴㅈㅓㅁ	-13924
▁ㄷㅚㄴㅈㅏㅇ	-13925
▁ㅎㅏㅇㅁㅜㄴ	-13926
▁ㅅㅣㅂㅇㅣ	-13927
▁ㄱㅡㅁㄱㅘㅇ	-13928
▁ㄱㅏㅇㅇㅜ	-13929
ㄷㅏㅇㄷㅏㅇ	-13930
▁little	-13931
▁ㅇㅓㄹㅂㅓ	-13932
ㄱㅣㄹㄷㅗㅇ	-13933
▁Global	-13934
over	-13935
▁TER	-13936
▁Circ	-13937
▁GUMI	-13938
▁ㅁㅗㅁㅅㅗ	-13939
▁ㅁㅣㄴㅅㅓㄴ	-13940
▁ㅅㅗㄱㄱㅗㄱ	-13941
▁ㅈㅓㅁㅁㅏㄱ	-13942
▁ㅎㅕㅇㅇㅛㅇㅅㅏ	-13943
▁282	-13944
▁MTV	-13945
▁run	-13946
ㄴㄷㅔㄹ	-13947
under	-13948
▁ㅁㅣㄴㄱㅕㅇ	-13949
iko	-13950
here	-13951
▁ㅇㅛㅇㅁㅗ	-13952
▁Christmas	-13953
▁ㅆㅜㄴ	-13954
▁Iron	-13955
ㅈㅓㅇㅅㅜ	-13956
▁ㅁㅐㄴㅅㅕㄴ	-13957
▁ㅇㅕㅇㅇㅕㄴ	-13958
▁ㅎㅐㅇㅈㅣㄴㄱㅗㄱ	-13959
ㄹㅏㄹㄹㅏ	-13960
▁ㄲㅜㅅㄲㅜ	-13961
▁ㅁㅗㅇㅋㅡ	-13962
ㅍㅜㅇㅅㅓㄴ	-13963
▁ㅈㅣㄴㅌㅗㅇ	-13964
▁ㅁㅕㄹㅊㅣㅇ	-13965
▁ㅇㅏㄹㅍㅗㄴ	-13966
▁298	-13967
▁ㅅㅏㅇㅈㅏㄱ	-13968
▁ㅇㅑㅇㅁㅣㄴ	-13969
▁ElectricalBoy	-13970
▁Ur	-13971
▁ㅁㅜㄴㄷㅐ	-13972
▁ㅈㅣㄴㅇㅕㄹ	-13973
▁WD	-13974
▁size	-13975
▁ㅅㅟㅂㅅㅏ	-13976
▁ㅇㅕㄴㅅㅣ	-13977
▁ee	-13978
▁act	-13979
▁ㄱㅏㄱㅎㅏ	-13980
▁ㄱㅘㄴㅎㅐㅇ	-13981
pha	-13982
▁ㅅㅜㄴㅎㅕㄹ	-13983
▁XL	-13984
▁du	-13985
▁Studio	-13986
▁ㅅㅗㄴㅇㅣㄱ	-13987
▁ㅇㅏㄴㅅㅏㅇ	-13988
▁ㅈㅓㄴㄹㅑㅇ	-13989
▁ㄲㅜㄹㄹㅣ	-13990
ㅈㅏㅇㅇㅕㄱ	-13991
▁ㅂㅓㄹㅂㅓㄹ	-13992
▁ㄱㅗㄱㅁㅜㄹ	-13993
▁ㄱㅡㄱㄷㅏㄴㅈㅜ	-13994
▁006	-13995
▁mind	-13996
ㄹㄹㅓㅁ	-13997
▁278	-13998
▁Plat	-13999
▁ㅍㅏㄴㅊㅣ	-14000
ㅇㅕㅁㅂㅕㅇ	-14001
▁ㄱㅕㅇㅊㅜㄴ	-14002
istory	-14003
ㅈㅓㄴㄷㅡㅇ	-14004
▁ㅌㅗㅇㅎㅐㅇㄹㅛ	-14005
▁ㅋㅜㅁ	-14006
ㅇㅕㅇㅁㅜ	-14007
▁ㅇㅡㅁㅇㅠ	-14008
▁ㅈㅗㅇㅇㅑㅇ	-14009
acle	-14010
▁god	-14011
▁ㅅㅏㄴㅅㅏ	-14012
▁ㅅㅏㅇㅅㅡㅂ	-14013
▁ㅅㅣㄹㅌㅐ	-14014
▁ㅎㅏㅂㅅㅓㅇㅇㅓ	-14015
▁Walk	-14016
▁ㅇㅣㄹㅈㅜ	-14017
▁ㅎㅘㄱㅊㅜㅇ	-14018
▁ㅅㅡㅇㅈㅓㄴ	-14019
▁ㅇㅜㅇㄷㅓㅇㅇㅣ	-14020
ios	-14021
▁Dist	-14022
▁File	-14023
▁ㅈㅜㅇㅎㅏㄱ	-14024
▁ㄱㅣㅁㅈㅓㅇㅇㅜ	-14025
▁ㅂㅏㄼㅎㅣ	-14026
▁ㅇㅣㄹㄱㅜ	-14027
▁ㄱㅘㅇㅇㅕㄱㅈㅏ	-14028
cept	-14029
▁ㅎㅘㄴㅅㅣ	-14030
▁ㅅㅣㄴㅂㅜㄴㄷㅏㅇㅅㅓㄴ	-14031
ㅅㄱㅏㅄ	-14032
ㄴㅏㄴㅂㅓㄴ	-14033
▁ㄷㅗㅇㄹㅕㄱㅇㅝㄴ	-14034
▁sub	-14035
▁ㅈㅓㄴㄴㅚ	-14036
▁ㄷㅗㅇㅇㅡㅁ	-14037
▁ㅈㅜㄴㅋㅗ	-14038
▁ㄱㅗㅇㅅㅏㅇ	-14039
▁ㅇㅘㅇㅈㅓㄴ	-14040
▁ㅈㅜㅇㄴㅏㅁㅁㅣ	-14041
▁RK	-14042
▁ㄱㅜㅇㅈㅜㅇ	-14043
▁ㅂㅐㄱㅇㅜㅇ	-14044
▁ㅈㅏㅇㄹㅕㄹ	-14045
reme	-14046
▁ㅋㅣㅂ	-14047
▁ㅂㅏㄱㅂㅗ	-14048
▁ㅈㅡㅂ	-14049
ㄹㅔㄴㅊㅣ	-14050
ㄴㅕㄴㅊㅡㅇ	-14051
ㄲㅏㄱ	-14052
▁324	-14053
▁Armor	-14054
▁Techn	-14055
▁ㄱㅣㅁㄴㅏ	-14056
▁ㅎㅡㄱㅅㅏ	-14057
▁ㄴㅓㄹㄴㅓㄹ	-14058
▁287	-14059
▁ㄷㅗㅇㄱㅏㅂㄴㅐ	-14060
▁ㅊㅜㄹㅇㅣㅂㅁㅜㄴ	-14061
▁Ak	-14062
▁Hall	-14063
▁ㅁㅣㄹㅍㅖ	-14064
▁ㅇㅝㄴㅊㅗ	-14065
▁ㅋㅔㄴㅊㅣ	-14066
▁Lord	-14067
▁ㄴㅗㄱㅌㅓㄴ	-14068
▁ㄷㅏㄴㅇㅓㄴ	-14069
▁ㅅㅏㄹㅅㅐㅇ	-14070
▁309	-14071
▁ㄱㅏㄴㅎㅓㄹ	-14072
▁TOUR	-14073
▁267	-14074
▁740	-14075
▁ㅇㅝㅇ	-14076
ipp	-14077
▁ㅁㅕㅇㅈㅔ	-14078
▁ㅈㅗㅇㅈㅏㅇ	-14079
Lv	-14080
ㅎㅏㄹㅇㅏ	-14081
▁ㅊㅜㄹㅈㅏㅇㅅㅗ	-14082
▁ㅈㅓㄴㄷㅏㄴ	-14083
62	-14084
▁may	-14085
▁Group	-14086
ㄴㅏㄴㅂㅏㅇ	-14087
▁ㅇㅡㅁㅅㅣㄱㅁㅜㄹ	-14088
yl	-14089
▁ㅇㅣㄴㄱㅗㅇㅇㅟ	-14090
▁Ju	-14091
ㄷㅗㅇㅎㅐ	-14092
▁ㅂㅜㄴㄱㅐ	-14093
HS	-14094
▁ㅈㅓㅂㅅㅓㄴ	-14095
▁Ven	-14096
ㅁㅓㄱㅂㅏㅂ	-14097
ㅎㅏㄴㅈㅓㅇ	-14098
▁ATP	-14099
▁ㅂㅣㅈㅇㅓ	-14100
▁ㅊㅗㅇㅅㅏㄹ	-14101
▁ㅊㅜㅇㅁㅏㄴ	-14102
▁ㅊㅜㅇㅊㅓㅇㄷㅗ	-14103
▁Collection	-14104
ㄱㅏㄴㅈㅣ	-14105
▁ㅎㅓㅅㄷㅚ	-14106
ㅅㅏㅇㅇㅜㄱ	-14107
▁ㅇㅕㅇㅅㅏㅇㅁㅜㄹ	-14108
▁ㅈㅡㄱㅎㅡㅇ	-14109
▁vlive	-14110
▁ㅂㅏㄹㄲㅡㄴ	-14111
▁ㅈㅏㅇㅎㅏㅂ	-14112
▁Cre	-14113
ㅁㅣㄴㅅㅓㄱ	-14114
▁ㅅㅣㅁㅅㅣㄴ	-14115
▁ㅈㅏㅇㅎㅏㅇ	-14116
▁ㅈㅜㅇㅈㅗㅇ	-14117
ㄴㅓㄹㄹㅣ	-14118
ㅁㅜㄴㄴㅏ	-14119
▁ㅇㅡㅁㅇㅑㅇㅅㅏ	-14120
▁259	-14121
▁Mor	-14122
▁ㄴㅐㅂㄷㅜ	-14123
XX	-14124
▁Va	-14125
▁ㅇㅏㄹㄹㅐ	-14126
▁ㅂㅏㄱㄹㅕㄱ	-14127
▁ㅈㅜㅇㄱㅏㄴㅈㅜㅇㄱㅏㄴ	-14128
▁ㅅㅣㄹㅍㅣ	-14129
ba	-14130
raw	-14131
pect	-14132
▁ㄱㅗㄹㅍㅏㄴㅈㅣ	-14133
▁Disc	-14134
▁ㄲㅗㅇㄲㅗㅇ	-14135
▁ㅇㅣㄴㅍㅕㄴ	-14136
▁ㅈㅏㅇㅇㅝㄴㅈㅜㄴ	-14137
▁294	-14138
▁KAC	-14139
▁Bill	-14140
▁ㅇㅏㄴㅈㅐ	-14141
▁ㄱㅘㄴㅇㅣㅂ	-14142
▁ㅈㅓㅁㄹㅕㅇㅈㅣ	-14143
▁ㅈㅓㅇㅅㅐㄱ	-14144
▁ㅇㅏㄴㅆㅡ	-14145
▁ㅎㅗㄱㅅㅓㅇ	-14146
uke	-14147
▁ㄱㅡㄴㄱㅏㄴ	-14148
▁ㅇㅝㄴㅅㅓㄱ	-14149
ㅅㅐㄱㄷㅐ	-14150
ㅅㅣㄱㅈㅏㅇ	-14151
ㅈㅓㄱㅅㅓㄴ	-14152
▁ㄲㅣㅁㅅㅐ	-14153
▁ㅇㅛㅇㅁㅏ	-14154
▁Radio	-14155
▁ㅈㅡㄹㅂㅣ	-14156
ㅍㅣㄹㄹㅔ	-14157
▁ㅅㅕㅅㅇㅏ	-14158
▁ㅎㅗㄹㄷㅓ	-14159
▁ㅍㅕㅇㅌㅐㄱㅅㅣ	-14160
▁GOLD	-14161
▁ㄱㅕㄹㅍㅏㄴ	-14162
▁ㅇㅡㅇㅇㅝㄴㄷㅏㄴ	-14163
▁ㄱㅝㄴㅇㅚ	-14164
▁ㅂㅓㄱㅊㅏ	-14165
▁ㅇㅡㅁㅇㅏㄱㅅㅣㄹ	-14166
▁ㅈㅓㅇㅈㅓㄴㅅㅣㄱ	-14167
▁wr	-14168
▁Where	-14169
▁people	-14170
▁ㅅㅣㅁㅊㅡㅇ	-14171
▁ㅈㅓㄴㄱㅝㄴ	-14172
▁ㅂㅏㄱㅁㅣㄴㅇㅜ	-14173
▁ㅁㅜㄹㅇㅢ	-14174
ㄹㅏㅇㅋㅏ	-14175
▁ㅂㅐㄱㄱㅣ	-14176
ㄷㅗㅇㅎㅜㄴ	-14177
▁ㅂㅜㄹㅎㅜ	-14178
▁YTN	-14179
▁ㅂㅔㄴㅊㅓ	-14180
ㄷㅏㄴㅂㅓㅂㅇㅣㄴ	-14181
ji	-14182
▁Bell	-14183
▁ㅁㅗㄹㅋㅏ	-14184
▁ㅈㅣㄴㄹㅜ	-14185
▁ㅊㅣㄹㅅㅓㅇ	-14186
ㄹㅡㅂㅆㅡ	-14187
▁Flash	-14188
ㅊㅣㅁㅇㅓㅄㅇㅣ	-14189
▁SoC	-14190
ㅎㅏㄴㄷㅐ	-14191
▁ㄱㅡㄹㄱㅟ	-14192
ㅂㅓㅂㄱㅘㄴ	-14193
ior	-14194
▁ㅇㅡㄴㅋㅓ	-14195
▁ㅂㅣㄱㅅㅡ	-14196
▁ㅅㅓㄴㅇㅏㄱ	-14197
▁ㄱㅐㄱㅇㅝㄴ	-14198
▁ㅇㅕㄴㄲㅗㅊ	-14199
▁ㅈㅐㅅ	-14200
ative	-14201
▁ㅁㅏㄹㅂㅓㄹ	-14202
▁ㅈㅣㅂㅎㅐㅇㅇㅠ	-14203
▁ㄱㅗㄹㅊㅣㅅ	-14204
▁ㅅㅜㄴㅇㅜㄱ	-14205
▁ㅇㅝㄴㅅㅑㅅ	-14206
▁ㅎㅡㅁㅈㅣㅂ	-14207
ㄴㅑㅇㅈㅓ	-14208
▁ㅍㅗㄱㅇㅜ	-14209
▁ㅅㅏㄴㅁㅜㄹ	-14210
ㄷㅔㄱ	-14211
▁ㅂㅗㄴㄱㅣ	-14212
▁ㅅㅓㄴㅇㅢ	-14213
▁ㄴㅗㅇㄹㅣㅁ	-14214
▁ㄱㅘㅇㄴㅕㄴ	-14215
▁ㅅㅜㄱㄷㅏㄹ	-14216
▁ㅎㅏㅁㄹㅑㅇ	-14217
▁ㅎㅗㅇㅁㅕㅇ	-14218
▁ㅇㅏㅁㅅㅏㄹㄷㅏㄴ	-14219
▁Style	-14220
▁ㄱㅏㅆㄷㅏ	-14221
ㅇㅜㅅㅈㅣㅂ	-14222
ㄹㅏㄴㅊㅣ	-14223
▁ㄱㅡㅁㅈㅔ	-14224
ouri	-14225
▁ins	-14226
▁South	-14227
ㅇㅣㄹㄹㅣㅇ	-14228
ㅅㅣㅁㅋㅗ	-14229
▁ㅇㅘㄴㅊㅣ	-14230
▁ㅈㅓㄴㅎㅢ	-14231
▁ㄷㅐㄴㅅㅣㅇ	-14232
▁ㅁㅣㄹㅇㅑㅇ	-14233
▁Attack	-14234
kn	-14235
▁ㅎㅏㅂㅅㅡ	-14236
▁ㅍㅔㄴㄷㅓㄴㅌㅡ	-14237
eca	-14238
▁435	-14239
▁ㄲㅗㄴㄷㅐ	-14240
▁Want	-14241
▁ㄷㅓㅍㅇㅓ	-14242
▁ㅂㅜㄱㄱㅕㅇ	-14243
ㅅㅡㄹㄹㅔ	-14244
▁ㄷㅔㄹㄹㅏ	-14245
▁ㅂㅏㄹㅅㅗㅇ	-14246
▁ㅂㅏㅇㅈㅗㅇ	-14247
▁284	-14248
▁Royal	-14249
▁EG	-14250
▁ㅇㅏㄹㅌㅏ	-14251
▁ㄱㅕㄹㅈㅓㅁ	-14252
▁ㅍㅕㄴㅈㅣㅂㅈㅏㅇ	-14253
▁+,	-14254
▁Fa	-14255
▁ㅁㅐㅇㅈㅜ	-14256
▁ㅂㅏㄹㅈㅗㄱ	-14257
▁ㅊㅗㅇㄹㅕㄱ	-14258
▁ㅅㅣㄴㅇㅣㄹㅂㅗㄴ	-14259
▁ㅃㅣㄱ	-14260
ㄹㅗㄴㅎㅚ	-14261
▁ㅂㅏㄱㅇㅣ	-14262
ㅇㅕㅇㅈㅜㄴ	-14263
ㅊㅓㄴㅁㅕㄴ	-14264
▁ㄱㅗㅇㅁㅜㄴ	-14265
▁ㅃㅏㅇㅈㅣㅂ	-14266
▁ㅁㅏㅈㅊㅜㅁㅂㅓㅂ	-14267
apon	-14268
comm	-14269
▁BAT	-14270
ㅎㅏㄱㅅㅏㄹ	-14271
▁ㅂㅏㄱㄱㅓㄴㅇㅜ	-14272
▁Jo	-14273
ㅁㅏㅈㅇㅣ	-14274
▁ㅇㅣㅅㄸㅏ	-14275
▁ㄱㅜㄱㄱㅘ	-14276
▁ㅌㅏㄹㄹㅗ	-14277
▁ㄱㅏㅁㄷㅗㄱㄱㅘㄴ	-14278
PGA	-14279
▁West	-14280
▁ㅈㅣㄴㅈㅓ	-14281
▁ㅎㅗㄱㅈㅏ	-14282
ㄹㄹㅔㅅ	-14283
▁ㅋㅟㄴㅅㅣ	-14284
ㄷㅗㄱㅅㅓㅇ	-14285
▁ㅂㅏㄱㅅㅣ	-14286
▁ㅌㅡㄱㅂㅕㄹㅂㅓㅂ	-14287
▁MIN	-14288
▁Mob	-14289
ㅁㅏㄱㅇㅣ	-14290
ㅁㅜㄴㅇㅔ	-14291
▁ㄱㅡㄹㄹㅜ	-14292
ㅅㅗㄱㅅㅓㄴ	-14293
▁ㄷㅗㄹㄹㅣㅁ	-14294
ief	-14295
▁ㅎㅓㄴㅈㅓㅇ	-14296
ㅈㅗㅎ	-14297
▁ㅅㅏㄴㅈㅐ	-14298
▁ㅍㅗㄱㄹㅕㄹ	-14299
ㅁㅏㅈㅊㅜ	-14300
ㅅㅓㄴㅈㅗㄱ	-14301
▁ㅈㅡㅇㅁㅕㅇㅅㅓ	-14302
▁ㄷㅣㅅ	-14303
▁ㅇㅏㄴㄷㅏㄹ	-14304
▁ㅁㅜㅅ	-14305
▁NEXT	-14306
ㅇㅗㄴㅅㅡ	-14307
▁ㅇㅑㅇㅂㅜ	-14308
▁ㅎㅡㄴㄷㅡ	-14309
▁ㅅㅏㄴㅇㅕㄱ	-14310
▁ㅊㅏㅁㅎㅚ	-14311
awa	-14312
▁Pf	-14313
▁ㅂㅏㄱㄷㅐ	-14314
▁ㅎㅣㄹㄷㅔ	-14315
▁ㅍㅏㄹㅋㅗㄴ	-14316
▁ㄷㅏㄴㄱㅏ	-14317
ㅁㅣㄴㅅㅏㅇ	-14318
ㅈㅜㅇㅇㅣㄹ	-14319
▁ㄱㅜㅇㅇㅣ	-14320
▁ㅈㅏㅇㅁㅏ	-14321
ㅈㅓㅇㅍㅏㄴ	-14322
ORY	-14323
bat	-14324
▁real	-14325
▁ㅌㅏㄹㄹㅔ	-14326
▁ㅂㅏㄴㅇㅑ	-14327
▁ㅅㅜㄱㅅㅓㅇ	-14328
GN	-14329
▁Pet	-14330
▁ㅎㅔㅅ	-14331
▁ㅅㅓㄱㅈㅐ	-14332
▁ㅅㅔㄴㅌㅓㅁ	-14333
▁Us	-14334
▁ㄴㅏㄱㅈㅓㅁ	-14335
▁Rh	-14336
▁HYP	-14337
▁php	-14338
▁ㅈㅓㄹㅁㅕㄹ	-14339
oke	-14340
ㅁㅓㄴㅈㅣ	-14341
▁444	-14342
▁ㅊㅜㄹㅌㅗ	-14343
▁Bas	-14344
▁Know	-14345
▁still	-14346
▁ㄷㅏㄴㅁㅏㅅ	-14347
ㅍㅐㅁ	-14348
▁ㄱㅗㅇㅈㅗ	-14349
▁ㅅㅓㅇㅎㅗ	-14350
▁ㅈㅏㅇㅈㅐ	-14351
ㅇㅣㄴㅅㅓㄴ	-14352
ㅎㅕㄴㅈㅓㅇ	-14353
▁ㅊㅣㄴㄷㅗㅇㅅㅐㅇ	-14354
ule	-14355
▁289	-14356
▁ass	-14357
ㅂㅜㄴㅂㅕㄹ	-14358
▁ㄴㅏㅁㅇㅣㄴ	-14359
roy	-14360
▁690	-14361
▁EDG	-14362
▁Golden	-14363
▁ㅇㅑㅇㅈㅜㄴㅎㅕㄱ	-14364
▁Vi	-14365
▁Dear	-14366
ㄹㅣㄹㄹㅣ	-14367
▁ㅅㅓㄴㄹㅏ	-14368
▁ㅅㅣㄹㅈㅡㅇ	-14369
ones	-14370
▁ㄱㅏㅇㅌㅐ	-14371
▁ㅁㅏㄴㄹㅣ	-14372
▁ㅂㅓㅂㄱㅠ	-14373
▁ㄷㅏㅇㅎㅗㄱ	-14374
▁ㅇㅕㄴㅅㅣㄴ	-14375
▁ㅊㅜㄹㅍㅜㅁ	-14376
▁ㄱㅜㅇㄴㅕ	-14377
▁ㅂㅏㄹㄷㅔ	-14378
▁ㄱㅗㄹㅁㅣㅌ	-14379
▁NFC	-14380
▁HAPPY	-14381
▁ㅊㅗㄱㅁㅐ	-14382
▁ㄱㅐㅁ	-14383
▁2300	-14384
ㅌㅗㄹㄹㅣ	-14385
▁ㄱㅜㄱㅇㅕㅇ	-14386
▁ㅇㅡㄴㅂㅏㄹ	-14387
ㅌㅐㄱㄱㅡㄴ	-14388
▁ㅎㅏㄱㅈㅏㅇ	-14389
ㄷㅗㅇㅎㅘ	-14390
▁ㅎㅏㄱㅇㅜ	-14391
▁ㅁㅐㅇㅁㅗㄱ	-14392
▁ㅈㅣㄱㅎㅏㅁ	-14393
▁APEX	-14394
▁ㄹㅓㄱㅅㅕ	-14395
▁386	-14396
▁ㅎㅚㄱㄱㅣ	-14397
ㅌㅓㄹㄹㅣㅇ	-14398
akao	-14399
▁Rap	-14400
▁ㅇㅓㄺㅁㅐ	-14401
▁ㅈㅜㅇㅂㅗ	-14402
▁ㅍㅣㄴㅊㅣ	-14403
▁ㄱㅏㅇㅅㅣㄴ	-14404
ㅅㅏㅇㅅㅏ	-14405
▁ㅅㅗㄱㅇㅓ	-14406
ㅅㅡㅇㅊㅓㄹ	-14407
▁ㅅㅏㅇㅁㅕㅇ	-14408
▁ㅇㅛㅇㅂㅓㅂ	-14409
▁ㅎㅏㄴㅅㅣㄱ	-14410
▁Tig	-14411
▁sing	-14412
ㅂㅏㄴㅅㅜ	-14413
▁ㄲㅡㅌㅈㅏ	-14414
▁ㅅㅜㄴㅇㅐ	-14415
▁279	-14416
▁song	-14417
▁ㄷㅟㅅㅇㅣ	-14418
▁ㅇㅠㄴㅅㅓㅇㅎㅘㄴ	-14419
▁Gar	-14420
▁ㅂㅐㄹㄹㅠ	-14421
ㅈㅣㄴㄹㅕㄱ	-14422
ㄷㅗㅇㅁㅜㄹㅁㅜㄴ	-14423
ㅇㅓㅋ	-14424
▁ㄱㅗㅇㅍㅏ	-14425
▁ㅁㅣㄴㄴㅏ	-14426
▁Mart	-14427
▁ㄱㅕㄹㅌㅏㄱ	-14428
ㅅㅓㄱㅎㅕㄴ	-14429
▁ㅇㅕㄱㅇㅣㄴ	-14430
▁NTR	-14431
▁fall	-14432
▁ㅂㅕㄱㅁㅕㄴ	-14433
▁ㅊㅣㅁㅅㅣㄹ	-14434
71	-14435
▁281	-14436
▁ㄹㅣㅇㄹㅣㅇ	-14437
TO	-14438
ㅂㅔㄴㅈㅓ	-14439
ㅌㅓㄴㅅㅡ	-14440
▁ㅅㅣㅁㅊㅟ	-14441
ㅇㅣㄹㅁㅜ	-14442
ㅅㅏㅇㅇㅛㅇ	-14443
▁ㅌㅏㅁㅂㅏㅇ	-14444
▁ㅊㅗㅇㄱㅕㄱㅈㅓㄴ	-14445
▁ㅂㅣㄴㅌㅣ	-14446
▁ㅎㅗㄴㄹㅕㅇ	-14447
▁ㅇㅛㅇㅅㅏㄴㄱㅜ	-14448
▁ㄱㅟㄴ	-14449
earch	-14450
▁Born	-14451
▁Fair	-14452
▁tell	-14453
ㅇㅕㄴㄱㅣ	-14454
▁ㄱㅗㅇㅊㅏ	-14455
ㅂㅜㄴㄱㅜㄴ	-14456
▁FU	-14457
ising	-14458
▁ㅈㅓㅇㅇㅛㅇ	-14459
▁car	-14460
▁ㄱㅡㄱㅎㅚ	-14461
▁ㄱㅣㅁㅂㅜ	-14462
▁ㅂㅕㄴㅂㅕㄴ	-14463
▁ㅅㅣㄴㅍㅏㄴ	-14464
▁FP	-14465
▁Log	-14466
▁where	-14467
▁ㅅㅏㅇㄷㅗ	-14468
ㅈㅣㄱㄹㅕㄱ	-14469
▁ㄴㅔㄱㅌㅗㄴ	-14470
▁ㅈㅗㅇㄱㅜㄱ	-14471
▁Hz	-14472
ㅇㅜㄴㅈㅣ	-14473
▁274	-14474
▁Alex	-14475
ㅊㅓㅇㅇㅕㄱ	-14476
▁ㄷㅗㄱㅅㅣㄴ	-14477
▁356	-14478
▁ㅅㅣㄹㅁㅏ	-14479
▁ㅎㅚㅇㅍㅗ	-14480
▁ㅇㅗㅇㄹㅣㅂ	-14481
LV	-14482
mar	-14483
▁Land	-14484
▁ㄷㅏㅇㄴㅛ	-14485
ㄴㅏㄹㄹㅣㄴ	-14486
ㅌㅏㄹㅊㅜㄹ	-14487
min	-14488
▁ㄷㅠㄴ	-14489
▁ㅎㅘㅇㅂㅗ	-14490
▁ㅁㅣㄹㅋㅣ	-14491
▁ㅅㅣㄱㅇㅣ	-14492
▁ㅇㅠㄴㅎㅢ	-14493
▁Android	-14494
▁Some	-14495
▁ㅅㅓㅇㅇㅘㅇ	-14496
▁ㅇㅏㅍㄴㅏㄹ	-14497
▁ㅂㅏㄴㅁㅜㄴ	-14498
▁ㅊㅓㅅㄴㅜㄴ	-14499
ㄷㅏㅅㅁㅜㄹ	-14500
▁ㄱㅏㅇㅂㅏㄱ	-14501
▁ㅊㅏㄱㅅㅣㄹ	-14502
▁LH	-14503
▁Eyes	-14504
ㄱㅏㅇㅎㅗ	-14505
▁ㅁㅣㅅㅁㅣㅅ	-14506
▁Wave	-14507
▁ㅇㅑㅌㅂㅗ	-14508
▁ㅇㅕㄱㄱㅕㅂ	-14509
ARE	-14510
▁Ros	-14511
ㅈㅏㄱㅈㅓㅁ	-14512
▁ㅂㅏㄹㄷㅡ	-14513
▁ㅆㅣㅂㅎㅣ	-14514
ㅅㅐㅁ	-14515
ener	-14516
▁ㅃㅓㄴㅎㅣ	-14517
▁ㅇㅏㅂㄱㅜ	-14518
ㅂㅓㄹㅈㅓㄴ	-14519
▁ㄱㅏㅇㅁㅜㄹ	-14520
▁ㄱㅜㅇㅇㅡㄹ	-14521
▁WOW	-14522
▁ㅅㅣㄱㅌㅏㄱ	-14523
▁ㅈㅓㅇㅅㅏㅇㅇㅣㄴ	-14524
▁ㄱㅘㅇㅎㅟ	-14525
▁ㅅㅓㅇㅈㅏㅇㄱㅣ	-14526
▁ㅇㅝㄴㄷㅏㄴ	-14527
ㅉㅜ	-14528
▁Mini	-14529
ㅁㅔㄹㄹㅔ	-14530
▁ㄱㅣㅁㅇㅣ	-14531
▁ㄷㅏㄴㄷㅜ	-14532
▁ㅂㅗㄴㅅㅐㄱ	-14533
ㅅㅓㅇㅅㅜㄱ	-14534
ㄹㅡㅁㄷㅏㄹ	-14535
▁ㅈㅓㄻㅇㅡㅁ	-14536
▁ㅁㅏㄴㄱㅣ	-14537
ㅇㅕㄴㅅㅏㅇ	-14538
▁ㄱㅣㅍㅅㅜㄱㅎㅣ	-14539
▁ㄱㅏㅁㅎㅘ	-14540
▁ㅁㅏㄴㄷㅏ	-14541
▁ㅇㅠㄱㅅㅗㄴ	-14542
▁ㅊㅓㄴㅁㅕㅇ	-14543
▁PVE	-14544
▁ㄱㅓㅁㅈㅣㄴ	-14545
▁ㅈㅓㅇㄷㅏㄴ	-14546
▁030	-14547
ㅊㅐㅇㅇㅣ	-14548
▁ㅇㅣㄹㅊㅜㄱ	-14549
cal	-14550
▁ㅁㅐㄱㄱㅣ	-14551
▁ㅂㅣㄴㅇㅠ	-14552
▁ㅇㅔㄴㄹㅣ	-14553
ㄱㅜㄱㅈㅓㄱ	-14554
▁ㄱㅘㄴㅅㅓㅇ	-14555
▁ㅁㅜㄹㅂㅕㅇ	-14556
ㅎㅕㅇㅊㅏ	-14557
▁ㅈㅓㄴㅁㅏㄹ	-14558
▁ㅍㅏㅂㅇㅓㅂ	-14559
▁ㅅㅜㄴㅈㅓㅇㅁㅏㄴㅎㅘ	-14560
ues	-14561
ㅂㅏㅇㅇㅣㄴ	-14562
▁ㅍㅣㅅㅈㅜㄹ	-14563
▁ㅅㅓㅁㅁㅕㄹㅈㅓㄴ	-14564
ira	-14565
▁ㅂㅓㅁㄹㅏㅁ	-14566
▁ㅂㅏㄱㅇㅝㄴㅅㅜㄴ	-14567
ㅋㅓㅇ	-14568
▁ㅅㅗㄱㄷㅏㅁ	-14569
▁ㅈㅏㄱㅅㅔㄴ	-14570
OB	-14571
▁List	-14572
▁ㅂㅏㄱㅁㅜ	-14573
▁ㅂㅗㅇㅇㅜ	-14574
ㄱㅕㅂㅅㅏㄹ	-14575
▁ㄱㅡㄱㅂㅗㄴ	-14576
▁ㄷㅏㄴㅍㅜㅇ	-14577
▁ㅊㅏㅇㄴㅕ	-14578
▁ㅅㅗㄴㅅㅡㅇㄹㅏㄱ	-14579
...	-14580
▁ㄷㅏㅅㅈㅣ	-14581
▁ㅂㅜㄹㄱㅕㅇ	-14582
▁ㅎㅗㅇㅅㅣ	-14583
▁ㅎㅘㅇㄱㅡㅂㅎㅣ	-14584
▁two	-14585
ㅇㅕㄱㄲㅜ	-14586
▁ㅂㅜㄹㄷㅗ	-14587
▁Engine	-14588
▁ft	-14589
▁770	-14590
ㅎㅏㅇㅅㅣ	-14591
▁ㅅㅏㅁㄱㅕㅂㅅㅏㄹ	-14592
▁ㅁㅜㄴㅈㅓㅇ	-14593
▁ㅎㅗㄱㅎㅏㄴ	-14594
GM	-14595
▁ㅅㅐㄹㄹㅣ	-14596
▁ㅊㅗㅇㅇㅐㄱ	-14597
ric	-14598
▁LT	-14599
▁ㄱㅓㄹㅍㅡ	-14600
▁ㅇㅛㅇㄱㅓㅁ	-14601
▁ㅎㅘㅇㄱㅓㄴㅈㅓㄱ	-14602
▁269	-14603
▁LD	-14604
▁Wild	-14605
ㅅㅓㄱㄱㅜ	-14606
▁Stars	-14607
▁ㅂㅐㄱㅁㅗ	-14608
▁ㅇㅑㅇㅎㅐ	-14609
▁ㅁㅜㄴㅅㅓㅇ	-14610
▁Element	-14611
ublic	-14612
▁ㄱㅕㅇㅊㅏ	-14613
ㅈㅏㅇㅎㅜㄴ	-14614
▁ㄱㅕㅇㅈㅐㅇㅅㅏ	-14615
▁ㅍㅔㄹㄹㅏ	-14616
▁ㅈㅓㄴㅇㅣㅁㅈㅏ	-14617
alth	-14618
▁Hun	-14619
▁ㅇㅏㅁㄷㅡ	-14620
▁ㅈㅣㄹㄱㅣ	-14621
▁ㄱㅡㅁㅈㅓㅇ	-14622
▁ㅇㅣㅂㄱㅏㄱ	-14623
▁ㅅㅏㅇㄹㅠㄱㅈㅏㄱㅈㅓㄴ	-14624
ㅉㅓㄹ	-14625
▁ㅅㅓㅇㄴㅏ	-14626
▁ㅍㅗㄹㄷㅡ	-14627
▁ㄱㅘㄴㅅㅣㅁㅅㅏ	-14628
ㄷㅡㅇㅂㅕㅇ	-14629
▁ㄴㅏㄲㅇㅣ	-14630
▁ㅇㅕㄱㅈㅜ	-14631
▁;;	-14632
ㅎㅕㅂㅎㅚ	-14633
▁ㄴㅏㄱㅎㅜ	-14634
▁ㅂㅏㅇㄱㅖ	-14635
xy	-14636
▁ㅈㅑㄴ	-14637
▁hellojo	-14638
▁PSY	-14639
▁Crazy	-14640
▁ㅎㅡㅇㅇㅝㄴ	-14641
▁class	-14642
ㄱㅐㄱㅅㅓㄴ	-14643
▁ㄹㅓㄴㄷㅡㄹ	-14644
▁ㅎㅔㄹㄹㅡㅁ	-14645
sw	-14646
▁ㅁㅏㄹㄷㅏㄴ	-14647
▁ㅇㅐㄱㅈㅓㅇ	-14648
▁ㅎㅡㅇㄷㅓㄱ	-14649
▁Evil	-14650
▁Mich	-14651
▁ㅈㅏㅇㅌㅐ	-14652
ㄱㅝㄴㄹㅕㄱ	-14653
▁336	-14654
ㅎㅕㄴㅅㅜ	-14655
▁ㅇㅏㄴㅇㅣㄹ	-14656
trl	-14657
▁ㅂㅔㄴㅊㅕ	-14658
▁ㅅㅜㅌㅎㅏ	-14659
▁ㅋㅗㅅㅅㅜ	-14660
▁ㄴㅐㅇㅁㅕㄴ	-14661
ㄷㅓㅍㅇㅣ	-14662
▁ㅈㅓㅇㅁㅗ	-14663
▁ㄱㅏㅇㄱㅕㅇㅍㅏ	-14664
orrow	-14665
ㄴㅏㄴㅁㅣㄴ	-14666
▁ㅈㅓㅇㄹㅑㄱ	-14667
▁ㅍㅏㄴㄱㅜㄱ	-14668
▁ㅎㅘㄴㅈㅓㄴ	-14669
▁UD	-14670
▁comp	-14671
ㅅㅏㄴㄱㅣ	-14672
▁ㅈㅓㄴㅇㅢ	-14673
▁ㅊㅏㅇㄱㅜ	-14674
▁ㅂㅜㄹㅂㅗㄱ	-14675
▁ㅋㅓㄴㅅㅓㄹ	-14676
56	-14677
▁ㅁㅏㅇㅈㅓㄴ	-14678
▁ㅅㅏㄱㄱㅏㅁ	-14679
▁ㅈㅏㄱㅇㅕㄹ	-14680
▁dark	-14681
▁ㅁㅐㅁㄷㅗㄹ	-14682
▁533	-14683
▁first	-14684
▁ㄱㅕㅇㅁㅜ	-14685
▁ㄷㅏㅇㄱㅘ	-14686
▁ㄹㅏㄹㄹㅏ	-14687
▁ㅁㅜㄴㅅㅜ	-14688
▁ㅅㅏㅇㅅㅓㄴ	-14689
▁ㅇㅣㄹㅈㅏㅇ	-14690
▁ㅇㅐㄹㅂㅓ	-14691
▁ㅎㅕㄴㅇㅜ	-14692
▁ㅁㅣㄴㅈㅏ	-14693
▁ㅈㅓㅁㅍㅓ	-14694
▁VV	-14695
ㅃㅜㄱ	-14696
▁ㄱㅜㄱㅊㅓㄹ	-14697
abe	-14698
▁399	-14699
▁Stop	-14700
▁Princ	-14701
▁ㄹㅔㅅㅊㅡ	-14702
▁ㅉㅓㄹㅉㅓㄹ	-14703
▁?"	-14704
▁KL	-14705
▁BREAK	-14706
cat	-14707
▁PASS	-14708
▁ㄱㅏㄱㄱㅐ	-14709
▁ㄴㅏㅂㅈㅏㄱ	-14710
▁Ze	-14711
ㅇㅜㄴㄷㅓ	-14712
▁ㅇㅘㄴㅈㅏㅇ	-14713
▁ㅋㅓㄴㅂㅔㄴ	-14714
AF	-14715
ovideo	-14716
▁ㅇㅛㅇㅈㅣ	-14717
▁~,	-14718
▁nicovideo	-14719
▁ㅅㅗㄴㅈㅓㄴㄷㅡㅇ	-14720
enz	-14721
▁IBM	-14722
▁bec	-14723
▁ㅈㅏㅂㅎㅘ	-14724
ㅉㅡ	-14725
NER	-14726
ternal	-14727
▁ㅍㅗㄱㅍㅜㅇㅇㅜ	-14728
▁070	-14729
▁ㄱㅏㅇㄹㅛㅇ	-14730
▁296	-14731
▁always	-14732
▁ㅅㅏㅇㅈㅓㅁㄱㅏ	-14733
▁ㄴㅏㅁㄷㅗ	-14734
ㄴㅕㅁㅍㅜㅁ	-14735
▁ㅇㅕㄱㄹㅣㄴ	-14736
ips	-14737
▁ㄹㅐㄴㄷㅓ	-14738
▁project	-14739
▁Adren	-14740
▁Sword	-14741
ㅅㅗㄱㅊㅓㄹㄷㅗ	-14742
AV	-14743
▁ㅅㅏㄴㄷㅗ	-14744
▁OL	-14745
▁317	-14746
▁ㄱㅕㄹㅇㅕ	-14747
▁Code	-14748
ㄴㅗㅍㅇㅣ	-14749
ㄹㅓㄹㅆㅏ	-14750
▁ㅇㅠㄴㅎㅏ	-14751
▁VII	-14752
▁ㅊㅓㄱㅌㅏㄴㅂㅕㅇ	-14753
▁ㄱㅣㅂㅅㅡㄴ	-14754
▁ㅂㅜㄴㄱㅘㅇ	-14755
rap	-14756
▁kill	-14757
ㅎㅏㅁㅅㅜ	-14758
▁Honey	-14759
▁ㅈㅏㅂㅇㅣ	-14760
ㄹㅑㅇㅈㅣㄴ	-14761
mo	-14762
▁ㅁㅜㄴㅇㅣㄴ	-14763
▁ㅇㅣㅂㄷㅏㅁ	-14764
EZ	-14765
▁ㅅㅣㄹㅂㅔ	-14766
ㅇㅓㅂㅇㅣㄴ	-14767
OG	-14768
▁Yo	-14769
▁ㅂㅏㄴㄱㅗㅇ	-14770
▁ㅈㅓㅂㅁㅗㄱ	-14771
▁ㄱㅗㅇㅈㅣㄱㅈㅏ	-14772
▁ㅁㅏㄴㅈㅏㅇㅇㅣㄹㅊㅣ	-14773
▁WS	-14774
▁292	-14775
▁319	-14776
▁ㅁㅏㅈㄷㅏㅎ	-14777
ination	-14778
▁ㅊㅣㄴㄸㅏㄹ	-14779
ㅈㅐㄱ	-14780
▁3200	-14781
▁ㄹㅜㅁㅁㅔ	-14782
▁ㅈㅓㅇㅁㅣㄴ	-14783
▁ㅍㅔㄴㅅㅣㅇ	-14784
ㅌㅗㅇㅋㅏ	-14785
▁ㄱㅡㅁㄱㅘㄴ	-14786
▁ㅅㅏㅇㅋㅡㅁ	-14787
ㅊㅓㄴㅅㅜ	-14788
▁ㅈㅣㅇㅈㅗ	-14789
▁ㅎㅘㅇㄱㅛ	-14790
▁ㄱㅕㄴㅎㅝㄴ	-14791
▁ㄱㅗㄴㅂㅗㅇ	-14792
▁ㄷㅜㄴㄱㅏㅁ	-14793
ㄱㅓㄹㄹㅣ	-14794
ㅇㅣㄴㄱㅜ	-14795
▁ㅁㅕㅇㅅㅗ	-14796
▁ㅇㅡㅁㅊㅏ	-14797
▁ㅈㅗㄴㄴㅏ	-14798
ㅇㅡㄴㅍㅕㄴ	-14799
ITION	-14800
aeboo	-14801
▁1906	-14802
▁ㅎㅕㄹㅌㅜ	-14803
▁LW	-14804
▁CAN	-14805
▁show	-14806
ㅅㅏㅇㅎㅗ	-14807
▁ㅊㅐㄱㅅㅏ	-14808
▁ㄱㅕㅇㅂㅗㄱㄱㅜㅇ	-14809
89	-14810
▁Our	-14811
▁ha	-14812
ashi	-14813
▁ㅂㅏㄱㅈㅓㅇㅎㅕㄴ	-14814
49	-14815
ev	-14816
▁TIME	-14817
▁border	-14818
▁ㅁㅏㅈㅇㅡㄴㅍㅕㄴ	-14819
▁ㅈㅏㄱㅇㅓㅂㅈㅏㅇ	-14820
▁ㅋㅘㅇ	-14821
▁ㅁㅜㄴㄷㅡㄱ	-14822
▁ㅂㅏㅂㅈㅜㄹ	-14823
ffer	-14824
ㅈㅓㅇㅈㅏ	-14825
ㅈㅗㄱㅅㅜ	-14826
▁Lim	-14827
▁ㄷㅓㅍㄱㅐ	-14828
▁ㅂㅕㅇㅁㅜ	-14829
▁ㅂㅣㄹㄷㅓ	-14830
ㅋㅠㄹㄹㅓㅁ	-14831
▁Galaxy	-14832
▁ㅊㅏㅇㅇㅓㅂㅈㅜ	-14833
▁ㅅㅣㄴㅇㅏㅇㅅㅣㅁ	-14834
▁ㄱㅓㅂㄴㅏ	-14835
▁Caeboo	-14836
▁ㅈㅓㅇㅍㅏㄴ	-14837
83	-14838
ole	-14839
▁ever	-14840
▁ㅎㅏㄱㄷㅗ	-14841
▁ㄱㅓㅁㄷㅏㄴ	-14842
▁ㅈㅣㅂㄴㅕㅁ	-14843
sm	-14844
▁mp	-14845
ㅅㅓㅇㄴㅡㅇ	-14846
▁ㄲㅡㄶㅇㅣㅁㅇㅓㅄ	-14847
▁ㄴㅖ	-14848
ㅂㅓㄹㄹㅣ	-14849
▁ㄷㅏㅇㅍㅏ	-14850
▁Dawn	-14851
▁font	-14852
▁50000	-14853
ㅈㅜㄴㅎㅕㅇ	-14854
ㅎㅕㅇㅅㅜ	-14855
▁ㅇㅕㄱㅁㅜ	-14856
▁ㅈㅣㅂㅅㅣ	-14857
▁ㅍㅗㄱㄹㅚ	-14858
▁ㅋㅏㄹㅈㅣㅂ	-14859
▁free	-14860
▁ㅇㅣㄹㄱㅘ	-14861
▁ㅈㅏㅇㅇㅓ	-14862
▁ㅅㅏㅇㅈㅓㄴ	-14863
▁ㅅㅣㄴㅈㅗㄱ	-14864
▁LUK	-14865
ㅁㅏㅇㄷㅣ	-14866
▁ㅂㅓㄴㅈㅡ	-14867
ㅈㅣㄴㅍㅣㅇ	-14868
▁ㅅㅗㅇㄱㅡㅁ	-14869
ㄴㅗㄹㄹㅣㅁ	-14870
▁ㅇㅕㅇㄴㅡㅇ	-14871
▁ㅍㅏㄴㅂㅕㄹ	-14872
/-	-14873
aken	-14874
ubeat	-14875
ㅇㅣㄴㅇㅐ	-14876
▁ㅅㅛㅂ	-14877
▁ㅅㅓㅇㅅㅣㅁ	-14878
▁ㅋㅗㄹㄹㅓㅁ	-14879
▁folding	-14880
ㅈㅣㅁㅇㅓㅄㅇㅣ	-14881
▁ND	-14882
ㅇㅜㄴㅌㅏ	-14883
▁ㅇㅣㄴㄷㅓㄱ	-14884
▁ㅈㅓㅁㅅㅓㅇ	-14885
▁Far	-14886
ㅊㅜㅅㄱㅏ	-14887
ㅎㅏㄱㅂㅜ	-14888
▁ㄲㅡㄴㄲㅡㄴ	-14889
ㄹㅣㅁㅅㅏ	-14890
▁ㄹㅔㄱㅌㅓ	-14891
▁ㅇㅡㅂㄴㅐ	-14892
▁Tit	-14893
▁ㅁㅕㅇㅂㅏㄴ	-14894
▁ㅎㅏㄴㅇㅣㄹ	-14895
▁ㅇㅣㄹㅂㅗㄴㄷㅗ	-14896
▁must	-14897
ㅅㅣㄴㅅㅜ	-14898
ㅇㅣㅁㅊㅏ	-14899
ㅋㅏㄹㄹㅏ	-14900
▁ㄹㅔㄴㅊㅣ	-14901
▁1001	-14902
ㅇㅡㅁㅍㅏ	-14903
ㄷㅏㄱㄸㅡ	-14904
ㅂㅜㄴㅎㅣ	-14905
▁ㅈㅣㄴㅇㅜ	-14906
▁ㅋㅓㅂㄹㅏ	-14907
▁ㅎㅏㄴㄷㅔ	-14908
▁inline	-14909
▁ㅎㅏㅇㅂㅓㅂ	-14910
▁ㅂㅜㄱㄷㅗㅇㅉㅗㄱ	-14911
▁ㅅㅓㄴㅇㅣㄴㅈㅏㅇ	-14912
▁ㅁㅜㄴㅅㅏㄴ	-14913
▁ㅁㅏㅈㄷㅏㄱㄸㅡ	-14914
▁Ham	-14915
▁def	-14916
▁ㅃㅣㅇ	-14917
▁ㄱㅗㅇㅇㅢ	-14918
▁inf	-14919
▁ㅁㅣㄴㅎㅗ	-14920
ㄲㅓㄱ	-14921
▁ㅎㅔㄹㄹㅔㄴ	-14922
▁revision	-14923
▁ㅋㅓㅁㅍㅣㄹㄹㅔ	-14924
▁ㄱㅕㅇㅊㅜㄴㅅㅓㄴ	-14925
87	-14926
▁ZEX	-14927
ㅇㅜㄹㄹㅔㅅ	-14928
▁ㅁㅏㄴㅇㅝㄹ	-14929
ko	-14930
▁MID	-14931
ㅇㅛㅇㅈㅜ	-14932
ㅌㅔㄱㅌㅓ	-14933
▁ㅅㅣㄴㄱㅖ	-14934
▁ㅈㅏㅇㄱㅗ	-14935
ㅅㅗㅂ	-14936
▁505	-14937
▁ㅅㅓㅇㄴㅕㄴ	-14938
▁412	-14939
▁ㄱㅣㅁㅎㅛ	-14940
ㅅㅓㅇㅇㅣㄴ	-14941
▁ㄷㅏㄹㄹㅔㄱ	-14942
▁322	-14943
▁406	-14944
ㅇㅣㄴㄱㅘ	-14945
▁ㅅㅓㄴㄹㅖ	-14946
▁ㅈㅜㅇㅎㅡㅇ	-14947
▁ㅎㅏㅇㅇㅣㄹ	-14948
▁STANDARD	-14949
▁ㅁㅏㄹㅍㅜㅇㅅㅓㄴ	-14950
▁Ring	-14951
▁ㅌㅐㄱㅌㅣㄱㅅㅡ	-14952
▁ㅎㅡㅌㄴㅏㄹㄹㅣ	-14953
▁Child	-14954
▁ㅍㅏㄴㄱㅡㅁ	-14955
▁ㅋㅓㄴㅂㅔㄴㅅㅕㄴ	-14956
dom	-14957
▁349	-14958
▁live	-14959
ㅇㅛㅇㅎㅗ	-14960
▁break	-14961
ㅈㅗㅇㅎㅜㄴ	-14962
▁ㅎㅏㅂㅂㅗㄴ	-14963
▁ㅅㅏㄹㅇㅣㄴㅈㅏ	-14964
▁ㅇㅏㄹㄹㅗㄴㅅㅗ	-14965
▁pp	-14966
▁ㅂㅏㄱㅇㅡㄴ	-14967
▁ㅈㅣㅇㅂㅕㅇㅈㅔ	-14968
▁IX	-14969
ㅊㅣㅇㅅㅡ	-14970
▁ㄱㅏㄴㅅㅗ	-14971
ㅁㅓㄱㅈㅣㄹ	-14972
▁ㄷㅓㅍㅂㅏㅂ	-14973
▁ㅅㅗㅇㅊㅏㅇㅅㅣㄱ	-14974
ㅇㅕㄴㅈㅜ	-14975
▁ㅅㅏㄴㄱㅜㄴ	-14976
▁WBC	-14977
▁ㅅㅏㅇㄱㅖ	-14978
ㅎㅕㄹㅈㅣㄹ	-14979
▁ㅎㅗㅇㅅㅓㄹ	-14980
▁ㄷㅡㄹㅁㅓㄱㅇㅣ	-14981
▁ㄱㅜㄱㅂㅏㅇㄱㅜㄴ	-14982
▁ㅅㅐㄹ	-14983
▁ROCK	-14984
▁ㅅㅣㄹㅈㅐ	-14985
▁ㄱㅣㅁㅊㅓㄴㅅㅣ	-14986
▁ㅈㅓㄴㅁㅏㅇㄷㅐ	-14987
▁Sa	-14988
▁ㅇㅘㅇㄹㅐ	-14989
gin	-14990
▁HYPER	-14991
▁ㄲㅗㅊㅁㅣ	-14992
▁ㅇㅏㅇㄱㅗ	-14993
▁342	-14994
▁830	-14995
ㅌㅣㄹㄷㅏ	-14996
▁ㄷㅡㅇㅂㅜ	-14997
▁ㄱㅕㄹㄹㅕㄹ	-14998
iec	-14999
▁ㅈㅓㄱㅊㅜㄹ	-15000
▁ㅎㅘㅇㅊㅜㅇ	-15001
▁Missouri	-15002
▁Hon	-15003
▁Lady	-15004
▁other	-15005
▁ㅇㅘㄴㅍㅏ	-15006
▁latest	-15007
▁ㄴㅐㅇㅅㅗ	-15008
▁12000	-15009
▁ㄷㅡㅁㅃㅜㄱ	-15010
iter	-15011
ㅁㅜㄹㅁㅕ	-15012
alt	-15013
ㅅㅕㄴㅅㅡ	-15014
▁ㄱㅣㅁㅅㅓㅇㅈㅜ	-15015
▁ㄱㅗㄹㅁㅗㄱㄱㅣㄹ	-15016
▁ㄴㅏㄲㅇㅏ	-15017
▁ㄱㅘㄴㅊㅓㄹ	-15018
▁297	-15019
▁MAG	-15020
ㅂㅏㅇㄷㅐ	-15021
▁ㄴㅏㄴㅂㅏ	-15022
ㅂㅕㅇㄹㅕㄹ	-15023
▁background	-15024
▁SPOT	-15025
ㄱㅜㄴㅇㅛ	-15026
▁ㅋㅐㅅㅊㅡ	-15027
▁ㅌㅏㅁㄴㅐ	-15028
▁Bul	-15029
ㅁㅕㅇㄷㅗ	-15030
ㅇㅘㄴㅈㅣ	-15031
▁ㄹㅓㄱㅂㅣ	-15032
ㅈㅓㄱㅍㅏㄴ	-15033
▁Ber	-15034
▁npc	-15035
ㅌㅏㄹㄹㅏㄴ	-15036
▁ㅅㅓㄴㄷㅓㄱ	-15037
ㄷㅓㄹㄱㅓ	-15038
ㅅㅓㅇㅇㅜ	-15039
oro	-15040
▁KING	-15041
▁ㅁㅕㅇㄱㅏ	-15042
▁ㄹㅗㄹㅂㅐㄱ	-15043
ears	-15044
▁ㄱㅜㄱㅅㅔ	-15045
▁ㅎㅜㄹㄹㅣㄴ	-15046
ua	-15047
▁ㅊㅏㅁㅅㅐ	-15048
▁ㅎㅏㄱㅅㅏㄹㅈㅏ	-15049
▁ㅈㅏㅇㄱㅜ	-15050
ㅉㅏㄹㅇㅓㅄ	-15051
▁ㅇㅑㄹㅉㅏㄹㅇㅓㅄ	-15052
▁OH	-15053
ㄱㅔㅅ	-15054
ㅈㅜㅇㄹㅕㄱ	-15055
▁ㅅㅐㅇㅅㅣㄱ	-15056
▁ㄱㅣㅁㅇㅕㅇㅊㅓㄹ	-15057
▁860	-15058
ㄲㅓㅂㅈㅣㄹ	-15059
▁Monster	-15060
MR	-15061
▁ㅈㅗㅇㅈㅜ	-15062
▁ㅊㅏㅇㅊㅓㄴ	-15063
▁GV	-15064
▁find	-15065
▁ㄱㅡㄱㅊㅣ	-15066
▁ㅇㅠㄴㅂㅗ	-15067
▁ㅍㅔㄴㅌㅣ	-15068
▁ㅇㅣㄴㄱㅓㄴ	-15069
▁ㅁㅣㄴㅇㅕㅇㅎㅘ	-15070
ASE	-15071
▁ㅅㅐㅇㄷㅗ	-15072
▁ㅇㅡㄴㄴㅣㄱ	-15073
▁IL	-15074
▁ㄱㅣㅇ	-15075
▁ㄹㅓㅆ	-15076
ㅅㅏㅁㅋㅣ	-15077
ㄲㅘㅇ	-15078
▁aid	-15079
▁ㅋㅜㄹㄹㅓ	-15080
ㅊㅣㅁㅂㅏㄴ	-15081
▁ㅊㅗㅇㅊㅣㅇ	-15082
URN	-15083
ension	-15084
ㅈㅏㄴㅊㅣ	-15085
▁ㄷㅔㄴㅂㅓ	-15086
▁ㅅㅣㄴㅇㅏ	-15087
▁ㅋㅣㄹㄹㅏ	-15088
ㅊㅏㅇㄱㅜㄴ	-15089
▁ㄴㅏㅁㄱㅕㅇ	-15090
▁SI	-15091
▁SY	-15092
▁291	-15093
▁515	-15094
ㅇㅣㄹㄹㅣㄴ	-15095
▁Hom	-15096
▁blog	-15097
ㄹㅣㅅㅅㅏ	-15098
ㅊㅓㄴㅎㅜ	-15099
▁jubeat	-15100
BL	-15101
cho	-15102
▁Az	-15103
▁ㅅㅏㅇㅇㅣ	-15104
▁Strike	-15105
ㅇㅣㅂㅁㅜㄴ	-15106
▁ㄱㅕㄱㅅㅏㅇ	-15107
▁ㅁㅏㄱㅅㅣㅁ	-15108
▁ㅈㅜㅇㅁㅜㄴ	-15109
▁ㄱㅏㅇㄹㅕㄱㅎㅣ	-15110
ffect	-15111
▁ㅃㅓㄷㅊㅣ	-15112
▁ㅇㅣㄱㄹㅛㅇ	-15113
▁ㅁㅛㄹ	-15114
▁Ghost	-15115
▁ㅂㅣㅇㅈㅏ	-15116
▁ㄱㅏㅇㅅㅓㄱ	-15117
▁ㅂㅐㄱㄱㅡㅁ	-15118
▁ㅈㅏㅇㅅㅡㅇ	-15119
▁>>	-15120
▁DG	-15121
▁DRA	-15122
▁ㄱㅗㄱㅇㅖ	-15123
amond	-15124
▁ㄱㅏㄴㄷㅏ	-15125
▁ㅅㅣㄱㅅㅜ	-15126
▁ㅈㅓㅇㅂㅕㅇ	-15127
▁ㅊㅜㄱㅈㅓㄴ	-15128
▁CPLv	-15129
ㅍㅕㅇㅅㅓㄴ	-15130
IDIA	-15131
▁Prod	-15132
▁ㅊㅜㄹㄷㅗ	-15133
▁ㅅㅓㅇㅈㅓㄴㅅㅏ	-15134
▁ㅋㅓㄹㄹㅓㅁㅂㅣ	-15135
▁485	-15136
reeca	-15137
▁then	-15138
▁ㄱㅓㅁㅅㅜ	-15139
▁ㅇㅡㄴㅇㅝㄹ	-15140
▁ㅈㅣㄴㅊㅓㄴ	-15141
▁line	-15142
▁ㅁㅕㅇㅂㅜ	-15143
▁ㅊㅡㄱㅈㅓㅇㄱㅣ	-15144
▁Mat	-15145
▁Wall	-15146
ㅂㅜㄱㅈㅏ	-15147
▁ㄱㅜㄴㅇㅢ	-15148
▁Tell	-15149
ㅍㅕㅇㄹㅣ	-15150
▁ㄱㅕㄹㅍㅣㅂ	-15151
▁ㄲㅜㅁㅅㅗㄱ	-15152
▁ㅇㅕㅇㅇㅏㅁ	-15153
▁ㅎㅘㄱㅇㅕㄴ	-15154
▁ㅅㅏㄴㄱㅐ	-15155
▁ㅋㅏㄴㅌㅏ	-15156
▁---	-15157
▁ㅅㅓㄱㅇㅑㅇ	-15158
▁ㅅㅣㄹㄱㅏㄱ	-15159
▁TNA	-15160
▁~!"	-15161
ㅇㅟㅇㅋㅡㄹ	-15162
▁ㅇㅕㄹㄹㅏㅁㅅㅣㄹ	-15163
▁ㅈㅓㄹㄱㅣ	-15164
▁ㄱㅓㅁㄱㅐㄱ	-15165
▁ㅌㅗㅇㅊㅏㄹㄹㅕㄱ	-15166
▁ㄴㅏㅁㅈㅏㅇ	-15167
▁ㅌㅗㅇㅎㅏㅂㅈㅣㄴㅂㅗ	-15168
fr	-15169
▁par	-15170
▁ㅁㅏㅇㅈㅓㅇ	-15171
ㅅㅓㄴㅇㅘㅇㅈㅗ	-15172
sung	-15173
▁ㅂㅕㅇㄷㅡㄹ	-15174
▁ㄴㅏㅁㅍㅗ	-15175
YPE	-15176
▁Jin	-15177
▁SUN	-15178
▁rpm	-15179
ㅈㅔㄴㄷㅓ	-15180
▁Block	-15181
▁ㄱㅏㅇㅈㅐ	-15182
▁ㄱㅘㅇㅈㅏ	-15183
▁ㅍㅗㅁㅍㅔ	-15184
ㄴㅜㄴㅁㅜㄹ	-15185
▁ㅂㅗㄱㅇㅡㅁㅅㅓ	-15186
ㄹㅐㄴㄷㅗ	-15187
▁ㅇㅝㄴㅇㅣ	-15188
▁ㅇㅝㄹㄱㅖ	-15189
ㄴㅏㅁㅅㅓㄴ	-15190
▁ㅇㅜㄱㅇㅣㄹㄱㅣ	-15191
▁343	-15192
▁head	-15193
ㅊㅜㄱㄱㅜㄱ	-15194
▁ㄱㅏㅁㅈㅓㅁ	-15195
▁ㅂㅏㄴㅎㅑㅇ	-15196
▁ㅇㅕㄴㅈㅏㄱ	-15197
▁ㄱㅣㅁㅈㅓㅇㅁㅣㄴ	-15198
▁ㄱㅕㄹㅈㅓㅇㅊㅔ	-15199
ts	-15200
▁EVER	-15201
ㄷㅏㄱㄱㅓ	-15202
▁ㅈㅡㅇㄱㅏㅁ	-15203
ique	-15204
▁Jun	-15205
▁Bang	-15206
▁keep	-15207
▁ㄱㅓㅁㅎㅗ	-15208
▁ㅁㅗㅇㄱㅗ	-15209
▁OZ	-15210
ㅇㄱㅜㄹ	-15211
▁Hyper	-15212
▁ㅎㅗㄱㅇㅕ	-15213
▁Low	-15214
▁ㄷㅗㄹㅍㅡ	-15215
▁ㅅㅗㄴㅈㅜ	-15216
▁ㅅㅛㄹㄷㅓ	-15217
ㅇㅛㅇㅅㅣㄹ	-15218
▁ㄱㅜㄱㅁㅕㅇ	-15219
oday	-15220
▁326	-15221
▁Pri	-15222
▁ㅇㅝㄹㄹㅣ	-15223
▁ㅂㅡㄹㄹㅣㄴ	-15224
▁MBT	-15225
ㅂㅏㄷㅇㅏ	-15226
▁ㄱㅜㅇㄱㅣ	-15227
▁ㅂㅔㄴㅈㅔ	-15228
▁ㄱㅓㄹㅊㅜㄹ	-15229
▁ㅇㅠㄱㅈㅓㄴ	-15230
▁MCU	-15231
▁ㅋㅓㄴㅅㅡ	-15232
▁ㅅㅣㄱㅇㅛㄱ	-15233
▁ㅈㅏㄴㄴㅏ	-15234
ㄷㅏㅇㄷㅗㅇ	-15235
▁ㄷㅏㅂㅈㅏㅇ	-15236
▁ㅇㅕㄴㅈㅜㅇ	-15237
▁ㅈㅓㄴㅈㅜㄴㅇㅜ	-15238
▁ㅇㅣㅂㅈㅏㅇㄱㅝㄴ	-15239
ergy	-15240
ㅊㅓㄴㅎㅏ	-15241
▁ㅎㅘㄴㅎㅏ	-15242
▁ㅈㅗㅇㄱㅜㄴ	-15243
▁503	-15244
▁ㅎㅐㄱㅁㅣ	-15245
▁Cam	-15246
▁ㅂㅕㄴㄹㅗㄴ	-15247
▁American	-15248
ㄹㅔㄱㅅㅡ	-15249
▁ㄲㅗㄱㅈㅣ	-15250
▁ㄹㅐㅂㅅㅗ	-15251
▁ㅇㅏㄹㅋㅗㄹ	-15252
▁ㅎㅘㅇㅅㅓㄴ	-15253
▁ㅈㅏㅇㄱㅏㅇ	-15254
lish	-15255
▁Stay	-15256
ㄷㅣㅇㅋㅡ	-15257
ㅂㅐㄱㅁㅏㄴ	-15258
▁ㅎㅏㄴㅅㅏㅇ	-15259
▁ㅇㅕㅇㅇㅕㄴㅂㅏㅇ	-15260
eon	-15261
ㄷㅔㄹㄹㅣ	-15262
ㅇㅕㄴㅈㅐ	-15263
▁ㅇㅝㄴㄱㅣ	-15264
▁ㅌㅏㄱㅈㅏ	-15265
▁ㅇㅗㄱㅎㅘㅇ	-15266
ITH	-15267
▁ㅂㅓㅂㄷㅐ	-15268
▁ㅊㅣㄴㅈㅏ	-15269
▁ㅊㅜㅇㅈㅓㄴㄱㅣ	-15270
▁ㅍㅟ	-15271
▁502	-15272
▁ㅇㅕㄴㅇㅠ	-15273
▁ㅍㅣㄴㅈㅏㄴ	-15274
▁331	-15275
▁ㅇㅠㄴㄷㅗ	-15276
ㅇㅕㅇㅅㅓㄱ	-15277
▁Teaser	-15278
▁ㅇㅏㄴㅁㅗㄱ	-15279
▁ㅇㅘㅇㄹㅡㅇ	-15280
▁article	-15281
▁eyes	-15282
▁384	-15283
▁Box	-15284
ECTION	-15285
▁ㅇㅡㅁㅈㅣㄱ	-15286
▁ㅈㅐㅅㅂㅣㅊ	-15287
▁1904	-15288
▁Cytus	-15289
▁ㅂㅔㄱㅅㅡ	-15290
▁ㅈㅣㅂㅁㅜ	-15291
▁ㅊㅓㅇㄷㅗ	-15292
NO	-15293
gen	-15294
▁NBC	-15295
ㅇㅜㄹㄹㅗ	-15296
▁call	-15297
▁ㄴㅗㄴㅅㅜㄹ	-15298
▁ㅈㅣㄴㅇㅓㄴ	-15299
▁Gate	-15300
▁ㄴㅏㅁㅇㅜ	-15301
▁API	-15302
▁.!	-15303
▁ㄴㅏㅁㅊㅗ	-15304
▁ㅂㅗㄴㅂㅏㅇ	-15305
▁ㅂㅜㄹㅊㅜㄹ	-15306
▁ㅇㅏㅇㅅㅜㄱ	-15307
▁ㄷㅗㄹㄱㅕㄱㄷㅐ	-15308
▁ㅇㅕㄴㄱㅏ	-15309
▁ㅇㅕㅁㅈㅜ	-15310
ㅁㅏㄱㅅㅣㄱ	-15311
▁ㄱㅗㄴㅈㅏㄹ	-15312
▁ㅍㅏㄹㅋㅗㅁ	-15313
▁FK	-15314
▁ㅇㅕㄱㅈㅏ	-15315
▁ㄱㅗㄹㅇㅣㄴ	-15316
strum	-15317
ㅂㅏㄹㅇㅠ	-15318
ㅌㅏㄹㄹㅜ	-15319
▁CHAOS	-15320
▁ㅈㅣㄴㅅㅓ	-15321
▁ㅍㅜㅁㄱㅕㄱ	-15322
▁Train	-15323
▁ㅇㅟㅇㅋㅡ	-15324
▁ㅎㅘㄴㅁㅏ	-15325
▁ㅅㅗㄱㅅㅔㅁ	-15326
▁ㅅㅣㄴㄱㅔㄴ	-15327
anced	-15328
▁ㅊㅏㄴㅌㅏㄹ	-15329
▁Away	-15330
▁ㄱㅏㅄㅆㅏ	-15331
▁ㅂㅐㄱㄱㅟ	-15332
▁ㅈㅜㄱㅈㅓㄴ	-15333
▁Machine	-15334
▁Yout	-15335
▁ㄷㅓㄱㅇㅏ	-15336
▁351	-15337
ㄱㅘㄴㅅㅗ	-15338
▁ㅈㅏㅂㄷㅏ	-15339
▁ㅎㅏㄱㄷㅗㅇ	-15340
▁ㄱㅣㅁㄱㅏㅂㅎㅘㄴ	-15341
81	-15342
ala	-15343
ident	-15344
▁ㄱㅏㄴㅁㅏㄴ	-15345
ㅅㅑㄹ	-15346
▁GBA	-15347
▁Shoot	-15348
▁ㅅㅏㄹㅇㅢ	-15349
▁ㄷㅓㄹㄹㅓㅇ	-15350
▁ㅇㅘㅇㅇㅘㅇ	-15351
▁ㅁㅕㅇㅁㅗㄱㅅㅏㅇ	-15352
▁ㅂㅣㄱㄹㅣ	-15353
▁ㅅㅡㅂㄱㅣ	-15354
▁ㅇㅕㅁㄱㅜ	-15355
ㅈㅓㄴㅈㅏㅇ	-15356
▁ㄱㅣㅁㅊㅓㄹ	-15357
▁ㅈㅓㅇㅅㅣㄹ	-15358
▁ㄷㅟㅅㄱㅗㄹㅁㅗㄱ	-15359
itz	-15360
▁040	-15361
ㅈㅓㅇㅎㅘ	-15362
▁should	-15363
▁ㄱㅡㅂㅈㅓㄴ	-15364
▁ㅂㅗㄴㅍㅏㄴ	-15365
▁ㅊㅐㄱㅈㅏㅇ	-15366
▁ㅌㅓㄱㅇㅓㅄㅇㅣ	-15367
ㅅㅓㄴㅎㅗ	-15368
▁ㅇㅑㅇㅅㅏㄴㅅㅣ	-15369
▁ㄷㅗㅇㅌㅣ	-15370
▁ㅇㅕㅇㅇㅖ	-15371
▁#.	-15372
hone	-15373
▁Lie	-15374
▁ㄷㅗㅇㄱㅗ	-15375
▁ㅈㅓㅇㄴㅕㄴ	-15376
▁Point	-15377
▁ㄱㅘㅇㄱㅐ	-15378
▁1903	-15379
▁align	-15380
▁ㅁㅕㅇㄱㅘ	-15381
▁ㅇㅕㄹㅁㅏㅇ	-15382
▁ㅇㅘㄴㅊㅜㅇ	-15383
▁ㅇㅣㅂㄱㅡㅁ	-15384
▁ㅈㅓㄱㅈㅏㅇ	-15385
▁ㄴㅜㄴㄷㅓㅇㅇㅣ	-15386
▁5500	-15387
▁list	-15388
ㅇㅝㄹㄷㅗㅇ	-15389
▁ㅈㅣㄱㄱㅝㄴ	-15390
▁ㅊㅏㅇㅂㅐㄱ	-15391
▁ㄱㅡㄺㅇㅓ	-15392
▁ㅂㅏㅇㄷㅗ	-15393
▁ㅇㅗㄴㄱㅘ	-15394
▁ㅎㅕㅂㄹㅕㄱㅈㅏ	-15395
▁SideM	-15396
ㄱㅕㅇㅇㅝㄴ	-15397
ㅇㅓㄴㅈㅏㅇ	-15398
▁ㅂㅓㄴㅇㅕㄱㄱㅣ	-15399
▁ㅍㅡㄹㄹㅔㄱㅅㅡ	-15400
▁ㅈㅓㅇㅅㅓㅇㅎㅜㄴ	-15401
▁Ti	-15402
vers	-15403
▁ㅌㅐㅅㅇㅔ	-15404
▁341	-15405
ㅇㅓㅂㅊㅔ	-15406
▁ㅍㅐㅇㅇㅣ	-15407
▁height	-15408
▁bad	-15409
▁ㅈㅓㅇㅎㅢ	-15410
▁ㅈㅡㅇㄹㅠ	-15411
ㄱㅡㅁㅅㅗㄱ	-15412
▁ㅅㅓㄹㅅㅏㄴ	-15413
▁ㅍㅜㅇㅇㅜㄴ	-15414
▁Face	-15415
▁ㅅㅓㄴㅅㅣㄱ	-15416
▁ㅎㅏㄱㅅㅓㄹ	-15417
▁alt	-15418
iddle	-15419
▁ㅇㅕㅁㅂㅗ	-15420
▁ㅅㅣㄴㄹㅏㅇ	-15421
▁ㅊㅗㅇㄷㅗㅇㅇㅝㄴ	-15422
oid	-15423
▁1899	-15424
ㅂㅡㄹㅂㅣ	-15425
▁Touch	-15426
▁ㅇㅕㅇㅎㅏ	-15427
▁ㅈㅜㅇㄱㅐ	-15428
ㄱㅕㄴㅇㅣㄴ	-15429
yp	-15430
▁ㅇㅕㅇㅁㅐ	-15431
▁ㅈㅓㅇㅎㅖ	-15432
▁ㅎㅕㅇㄱㅘㅇ	-15433
idge	-15434
▁Got	-15435
▁ㄱㅘㄴㅅㅓ	-15436
▁ㅋㅏㄹㅊㅗ	-15437
ㅅㅡㅇㅋㅓㅂ	-15438
▁ㅈㅜㅇㅇㅣㄹ	-15439
▁ㅎㅟㄱ	-15440
▁ㄴㅜㄴㄲㅗㅊ	-15441
▁ㅎㅕㄴㅊㅜㅇ	-15442
▁ㅎㅏㅂㅊㅏㅇㄷㅏㄴ	-15443
▁NVIDIA	-15444
▁395	-15445
▁ㅁㅔㅁ	-15446
▁MOON	-15447
ㅁㅕㄴㅈㅔ	-15448
▁ㅅㅣㄱㅊㅗ	-15449
▁ㅇㅣㄴㅋㅗ	-15450
▁"~	-15451
▁Award	-15452
▁ㅍㅐㄱㅌㅓ	-15453
ㅇㅛㅇㅍㅣㄹ	-15454
▁ㅇㅕㅇㅅㅏㄴ	-15455
▁ㅎㅕㅂㅊㅏㄴ	-15456
▁Fn	-15457
▁ㅇㅣㅁㅍㅏ	-15458
▁ㄷㅗㅇㄱㅗㅇ	-15459
▁ㅊㅓㄴㅊㅣㅇ	-15460
▁ㅂㅏㄱㅅㅓ	-15461
▁ㅇㅠㄱㅌㅏㄴㅈㅓㄴ	-15462
ㅇㅕㅎ	-15463
ㄹㅐㄴㅅㅣ	-15464
▁ㄴㅏㄱㅇㅗ	-15465
▁ㄴㅏㄹㅈㅗ	-15466
ㄱㅘㄴㅎㅏㅁ	-15467
▁ㅁㅗㄱㅊㅏ	-15468
▁ㅅㅏㅇㅅㅣㅁ	-15469
▁Afreeca	-15470
▁ㅂㅏㄱㄹㅏㅁㅎㅚ	-15471
▁ㅅㅜㅊ	-15472
▁ㅇㅏㄹㅌㅗ	-15473
▁ㅁㅏㄴㅅㅣㄴㅊㅏㅇ	-15474
▁UL	-15475
▁ㅇㅕㅇㄴㅏㅁㄷㅐ	-15476
▁ㅁㅏㄴㅊㅣ	-15477
▁ㅂㅣㅇㄱㅗ	-15478
ㄱㅡㄱㅅㅏㅇ	-15479
▁JS	-15480
ㄸㅗㄹ	-15481
▁EDGE	-15482
▁ㅈㅔㄴㅌㅡ	-15483
▁ㅂㅜㅌㄷㅡㄹ	-15484
▁ㅇㅕㄱㄱㅕㅇ	-15485
▁ㅇㅘㅇㅅㅣㅂㄹㅣ	-15486
uts	-15487
ㄲㅜㅈ	-15488
▁403	-15489
▁ㅂㅓㄴㄹㅣ	-15490
▁ㅅㅏㅇㅋㅙ	-15491
**	-15492
▁dest	-15493
ㅊㅓㄱㅈㅏ	-15494
CK	-15495
▁ㅂㅜㄴㅈㅣ	-15496
▁ㅎㅏㄱㅂㅣ	-15497
▁AIR	-15498
▁ㅇㅣㅇㅋㅏ	-15499
▁ㅍㅗㄹㄹㅗ	-15500
▁ㅇㅠㅇㅌㅗㅇ	-15501
▁ㅇㅣㄹㅁㅏㄹ	-15502
▁ㅂㅏㅇㅊㅓㅇㄱㅐㄱ	-15503
ㄲㅡㅀ	-15504
▁ㅁㅏㅇㄱㅗ	-15505
▁ㅇㅗㄱㅈㅘ	-15506
▁ㅊㅣㅇㄱㅣ	-15507
ㄱㅏㅇㄴㅏㅁ	-15508
gu	-15509
▁\\	-15510
▁ㅋㅏㄴㅌㅡ	-15511
▁dj	-15512
pire	-15513
ㅎㅏㄴㅂㅜ	-15514
▁ㅈㅓㅅㄱㅏ	-15515
▁ㅇㅓㄴㄷㅗㅇ	-15516
▁ㅂㅡㄹㄹㅗㄱㅂㅓ	-15517
▁ㅇㅏㄱㅅㅜㄴㅎㅘㄴ	-15518
▁Vict	-15519
▁ㄱㅔㄴㅌㅏ	-15520
▁ㅊㅜㄱㅇㅑㄱ	-15521
▁ㄷㅗㅇㅂㅜㄱㅇㅏ	-15522
▁ㅇㅣㅇㄱㅡ	-15523
▁Alt	-15524
▁ㅅㅣㅁㅅㅜ	-15525
ㅉㅣㅁ	-15526
▁ㅇㅘㄱ	-15527
▁ㅇㅣㅁㅅㅜ	-15528
▁ㅇㅝㄴㅅㅣㅁ	-15529
▁ㅊㅏㄴㅁㅜㄹ	-15530
ㄷㅣㅆ	-15531
▁Bel	-15532
▁ㅋㅜㅇㅍㅜ	-15533
▁Island	-15534
cc	-15535
▁ㅂㅏㄹㅂㅏ	-15536
▁ㅈㅓㄱㅅㅜ	-15537
▁Adreno	-15538
▁ㄱㅏㄹㅈㅡㅇ	-15539
▁ㅅㅜㄴㄱㅕㅇ	-15540
▁Youtube	-15541
▁ㅁㅑ	-15542
▁ㄷㅡㅇㅅㅜ	-15543
ㄱㅓㄴㅊㅜㄱ	-15544
▁ㅅㅜㄱㄴㅕ	-15545
▁ㄱㅏㄹㄹㅣㅁ	-15546
▁sn	-15547
ㅇㅣㄴㅌㅓ	-15548
▁AU	-15549
ㅎㅏㅅ	-15550
▁787	-15551
▁PUB	-15552
ㅇㅝㄹㅈㅜ	-15553
▁ㄱㅏㅁㄹㅣ	-15554
▁Blade	-15555
▁ㅇㅠㄴㅅㅓㄱ	-15556
▁ESC	-15557
ookie	-15558
▁fuck	-15559
▁ㄱㅜㄴㄷㅗ	-15560
▁DN	-15561
ㄷㅓㄴㅅㅡ	-15562
iverse	-15563
▁ㅇㅔㄴㄷㅓ	-15564
▁ㅅㅏㄴㄹㅏㄴ	-15565
▁ㅇㅏㄱㄷㅓㄱ	-15566
▁ㄱㅏㄹㄹㅣㅁㄱㅣㄹ	-15567
emo	-15568
ting	-15569
ㅌㅗㅇㅎㅐㅇ	-15570
▁ㅈㅓㅁㅊㅏㄱ	-15571
▁ㄱㅗㄴㅈㅏㄹㄹㅔ	-15572
▁ㅇㅑㄱㄱㅘㄴ	-15573
▁ㄱㅘㅇㄷㅗㅇㅇㅓ	-15574
▁ㄱㅗㅇㅁㅣㄴㅇㅘㅇ	-15575
▁ㄱㅕㅇㅎㅑㅇㅅㅣㄴㅁㅜㄴ	-15576
▁Vis	-15577
▁ㅈㅓㄴㄱㅜㄴ	-15578
arch	-15579
▁Mom	-15580
ㄱㅏㄹㄱㅣ	-15581
ㅅㅗㄴㅈㅏ	-15582
▁ㅇㅓㄴㅈㅓ	-15583
▁ㅊㅓㄹㅊㅏㅇ	-15584
▁ㅇㅐㄱㅅㅔㄹㄹㅓ	-15585
▁face	-15586
▁ㅈㅓㄴㄹㅐ	-15587
▁ㄱㅘㄴㅊㅓㅇ	-15588
▁ㅈㅏㅇㅊㅜㅇ	-15589
▁455	-15590
▁ㅎㅘㅇㄷㅗ	-15591
ㄱㅏㄴㅈㅓㄴ	-15592
ㅈㅣㄴㅎㅕㄱ	-15593
▁ㅅㅏㄴㅇㅑㅇ	-15594
▁ㅅㅓㅇㅈㅣㄴ	-15595
▁ㅇㅣㅁㅂㅏㄱ	-15596
▁sol	-15597
▁going	-15598
▁ㅈㅓㄴㅇㅠ	-15599
▁ㄱㅕㅇㅍㅜㅁ	-15600
▁ㅅㅣㅁㅅㅓㅇ	-15601
▁ㅅㅜㄱㄹㅕㄴㅈㅏ	-15602
▁block	-15603
▁ㄹㅗㄱㅋㅣ	-15604
ㄴㅕㄴㅌㅏㅁㅈㅓㅇ	-15605
▁DU	-15606
▁Sat	-15607
▁cle	-15608
astic	-15609
▁ㄱㅡㅂㅂㅏㄱ	-15610
▁ㄷㅏㄺㄱㅗ	-15611
▁ㄹㅔㄴㅌㅡ	-15612
▁ㅎㅏㅅㄷㅗ	-15613
▁Revolution	-15614
▁Ax	-15615
ㄷㅗㅇㄸㅏㄹ	-15616
▁ㅇㅔㄴㅌㅜ	-15617
▁ㄱㅣㅁㄱㅓㄴㅁㅗ	-15618
▁ㅅㅓㄴㅍㅜㅇㄱㅣ	-15619
ㄷㅔㄹㄹㅏ	-15620
▁Count	-15621
▁ㄷㅗㅇㅌㅐ	-15622
▁ㅋㅓㄴㅌㅣ	-15623
ㄱㅗㅇㅇㅓㅂ	-15624
ㅍㅓㄴㅈㅣ	-15625
ㅇㅣㄹㅈㅓㅁ	-15626
▁ㄷㅗㄱㅇㅑㄱ	-15627
OSH	-15628
ㅇㅛㅇㅈㅜㄴ	-15629
ㅇㅣㄴㅇㅝㄴ	-15630
▁ㅂㅏㄴㅇㅣㄹ	-15631
▁ㅇㅓㅇㅅㅓㅇ	-15632
▁Danc	-15633
ㄹㅓㄴㅌㅏ	-15634
ㅊㅓㅇㅅㅏ	-15635
▁ㄱㅜㄱㅂㅜ	-15636
▁ㅇㅏㄴㅂㅜ	-15637
▁ㅊㅔㄹㄹㅗ	-15638
▁ㄷㅗㄴㄷㅗㄱ	-15639
▁ㅂㅐㄹㄹㅓㄴㅌㅏ	-15640
▁ㅇㅗㄹㄹㅐㄴㄷㅗ	-15641
ㄸㅏㅁ	-15642
▁ㅅㅏㅁㅈㅣ	-15643
▁ㅈㅗㅇㅂㅜㄱ	-15644
ces	-15645
▁Dom	-15646
▁Wake	-15647
▁ㄷㅗㄴㄱㅏ	-15648
▁ㄷㅜㅇㄷㅜㅇ	-15649
▁ㅊㅘㄹㅇㅕㅇㅈㅏㅇ	-15650
ㅂㅏㅇㅊㅏ	-15651
▁ZEXAL	-15652
▁ㅂㅜㄹㅅㅐ	-15653
aper	-15654
▁GDI	-15655
▁ㅁㅛㄹㄴㅣ	-15656
▁Son	-15657
▁ㅇㅣㄹㅁㅜㄴ	-15658
▁ㅁㅣㄴㄱㅏ	-15659
▁ㅇㅣㄴㅋㅏ	-15660
▁ㅈㅗㅇㅍㅕㄴ	-15661
▁ㅎㅗㄴㅅㅣㄴ	-15662
▁ㄱㅏㅇㅅㅓㄴ	-15663
▁ㅂㅏㄱㅈㅗㅇㅎㅜㄴ	-15664
imes	-15665
▁2023	-15666
IGH	-15667
▁ㅉㅚ	-15668
▁ㄱㅏㄴㅊㅔ	-15669
▁ㅎㅑㅇㅌㅗ	-15670
edd	-15671
▁511	-15672
ㄷㅜㅇㅈㅓㄹ	-15673
ㅇㅕㅇㅎㅕㄱ	-15674
▁ㄱㅡㄴㅂㅗㄴㅈㅜ	-15675
▁true	-15676
▁ㄱㅡㄴㅈㅓㄹ	-15677
▁ㅅㅣㄴㄱㅜㅇ	-15678
▁ㄱㅘㅇㅇㅕㄱㅂㅓ	-15679
▁TYPE	-15680
ㅇㅕㅇㅈㅜ	-15681
▁Offic	-15682
▁Shift	-15683
▁ㄱㅏㅇㄱㅘ	-15684
▁ㅈㅓㄱㅅㅓㄹ	-15685
▁ㅇㅕㅇㅈㅏ	-15686
▁Spirit	-15687
▁ㅎㅏㄴㅂㅕㄹ	-15688
▁ㅈㅣㅂㅎㅐㅇㅈㅏ	-15689
ㅎㅏㄹㄹㅏ	-15690
ㅎㅕㅇㅈㅣ	-15691
▁ㅅㅣㄴㄹㅣㅁ	-15692
▁ㅊㅏㅁㄱㅕㄴ	-15693
▁Five	-15694
▁ㅇㅘㄴㄷㅏ	-15695
▁ㄱㅗㅇㄷㅓㄱ	-15696
▁ㅌㅣㅁㅍㅡㄹㄹㅔ	-15697
ops	-15698
▁ㅎㅏㄴㄴㅏㅁ	-15699
▁ㄱㅣㅁㅅㅓㄴㅂㅣㄴ	-15700
▁er	-15701
▁???:	-15702
▁ㅌㅜㅇㅌㅜㅇ	-15703
ML	-15704
onely	-15705
▁ㄷㅐㄴㄷㅣ	-15706
ㄴㅏㄴㅁㅏㄴ	-15707
▁ㄱㅜㄱㅁㅕㄴ	-15708
▁ㅂㅕㅇㅇㅑㄱ	-15709
▁ㅊㅏㅁㅈㅏㄱ	-15710
▁MSX	-15711
ㅍㅏㄹㅇㅣ	-15712
▁Det	-15713
▁ㅅㅣㄱㅎㅣ	-15714
▁ㄱㅡㅂㅈㅏㄱ	-15715
ii	-15716
▁BN	-15717
▁home	-15718
ㅊㅜㅇㅈㅣ	-15719
▁ㅊㅜㄹㅈㅏ	-15720
▁ㄷㅏㄴㅉㅏㄱ	-15721
▁ㅂㅏㄱㅅㅡㅇ	-15722
▁SFC	-15723
▁ㅊㅡㅇㅅㅜ	-15724
▁ㄴㅏㄴㄱㅜㄱ	-15725
▁ㅇㅏㅇㅎㅔㄹ	-15726
▁ㅈㅓㄱㅂㅕㄱ	-15727
▁Eye	-15728
ㅇㅏㅁㅇㅕㄱ	-15729
ㅎㅕㄴㅅㅓㄱ	-15730
▁ㅈㅓㄱㅂㅏㄴ	-15731
iam	-15732
ㅅㅣㄴㅈㅏㄱ	-15733
▁ㅅㅣㄱㅍㅏㄴ	-15734
▁ㄱㅣㅁㅁㅣㄴㅇㅜ	-15735
ㅎㅐㅇㄷㅐ	-15736
▁ㅊㅓㄴㅈㅣㄴㄴㅏㄴㅁㅏㄴ	-15737
ㅁㅝ	-15738
▁kW	-15739
▁MLT	-15740
▁ㄷㅗㄱㅅㅣㄱ	-15741
ㅅㅣㄱㅈㅜ	-15742
▁ㄷㅏㅂㅎㅏ	-15743
▁ㅋㅐㄴㅂㅓ	-15744
▁ㅎㅕㅂㅅㅗ	-15745
▁CCC	-15746
ㄷㅗㅇㅅㅜ	-15747
ㄹㅡㅁㅍㅛ	-15748
▁ㄱㅏㅇㅌㅚ	-15749
▁ㅁㅜㄴㅎㅏ	-15750
▁ㅋㅐㅁㅂㅔㄹ	-15751
berg	-15752
▁ㅂㅕㅇㄷㅗㅇ	-15753
▁ㅇㅏㄹㄹㅔㄱㅅㅔ	-15754
ㄱㅣㄹㅇㅣ	-15755
ㅈㅔㄴㅌㅡ	-15756
▁ㅅㅜㅁㅇㅓ	-15757
▁ㅈㅓㄱㅍㅖ	-15758
▁ㅍㅗㄱㅅㅗ	-15759
▁Perfect	-15760
ju	-15761
▁sun	-15762
▁ㄴㅣㅅㅌㅏ	-15763
▁ㅎㅘㄹㅉㅏㄱ	-15764
▁HQ	-15765
ㅅㅔㅁㅂㅜ	-15766
▁ㅈㅏㅂㅅㅡ	-15767
▁ㄹㅜㄱㅅㅔㅁㅂㅜ	-15768
▁ㄷㅡㄱㅈㅓㅁㄹㅕㄱ	-15769
▁Deep	-15770
adient	-15771
▁ㄷㅓㄱㅅㅓㄴ	-15772
[...]
