[PAD]	0
[UNK]	0
[BOS]	0
[EOS]	0
[CLS]	0
[SEP]	0
[MASK]	0
▁▃	-0
▁ㅇ	-1
▁ㄱ	-2
▁ㄷ	-3
▁ㅎ	-4
▁ㅇㅣ	-5
▁ㅈ	-6
▁ㅅ	-7
▁ㄴ	-8
▁ㅇㅡ	-9
▁ㅎㅏ	-10
▁ㄷㅏ	-11
▁ㅂ	-12
▁.	-13
▁ㅇㅔ	-14
ㅡㄴ	-15
▁ㅁ	-16
▁ㄹ	-17
⊸⊸	-18
▁⊸⊸	-19
▁ㅇㅢ	-20
▁ㄴㅡㄴ	-21
▁ㅇㅏ	-22
ㅕㄴ	-23
ㅡㄹ	-24
ㅓㄴ	-25
ㅏㅇ	-26
ㅏㄴ	-27
▁ㅇㅓ	-28
▁,	-29
ㅗㅇ	-30
▁ㅇㅡㄹ	-31
ㅅㅓ	-32
ㅇㅣ	-33
▁ㅊ	-34
ㅕㅇ	-35
▁ㄱㅏ	-36
ㄹㅗ	-37
ㄹㅣ	-38
▁ㅇㅡㄴ	-39
ㅜㄴ	-40
▁ㅈㅣ	-41
▁ㄱㅗ	-42
ㅎㅏ	-43
▁ㅍ	-44
▁1	-45
ㅈㅣ	-46
ㅓㅇ	-47
▁ㄷㅚ	-48
ㅅㅣ	-49
▁ㄹㅡㄹ	-50
ㅜㄱ	-51
▁ㅅㅣ	-52
ㅅㅡ	-53
▁ㅇㅕ	-54
▁ㅇㅓㅆ	-55
▁ㅌ	-56
▁ㄴㅕㄴ	-57
▁ㄹㅗ	-58
ㅗㄱ	-59
▁ㄱㅣ	-60
▁2	-61
▁ㄱㅘ	-62
ㄷㅏ	-63
▁ㅇㅣㅆ	-64
▁ㄷㅐ	-65
ㅜㄹ	-66
▁ㅅㅏ	-67
▁ㅇㅏㅆ	-68
▁ㅈㅜ	-69
ㅏㄹ	-70
▁ㄱㅡ	-71
▁ㅋ	-72
ㅏㄱ	-73
▁ㄷㅗ	-74
ㅡㅇ	-75
ㄴㅏ	-76
ㅓㄱ	-77
ㄱㅣ	-78
ㅝㄴ	-79
▁ㅇㅣㄹ	-80
ㄹㅡ	-81
ㅐㅇ	-82
ㅗㄴ	-83
ㅇㅓ	-84
▁ㅇㅘ	-85
▁ㄸ	-86
ㄴㄷㅏ	-87
ㄱㅜㄱ	-88
ㄹㅏ	-89
ㅅㅏ	-90
▁ㄱㅓ	-91
ㅕㄱ	-92
▁ㄷㅡㄹ	-93
▁ㅅㅜ	-94
▁ㄴㅏ	-95
▁ㅈㅏ	-96
ㄷㅗ	-97
ㄱㅏ	-98
ㅈㅏ	-99
▁ㅈㅓㄴ	-100
▁ㅁㅣ	-101
ㅊㅣ	-102
▁20	-103
ㅝㄹ	-104
▁ㅈㅓㄱ	-105
▁ㅂㅜ	-106
ㅓㄹ	-107
ㄱㅗ	-108
ㄷㅡ	-109
ㅎㅘ	-110
ㅌㅡ	-111
ㅇㅏ	-112
▁ㅇㅝㄹ	-113
ㅁㅣ	-114
ㅂㅜ	-115
▁ㅁㅏ	-116
ㅈㅏㅇ	-117
ㅈㅜ	-118
▁ㅈㅔ	-119
▁19	-120
ㅇㅛ	-121
▁ㅇㅗ	-122
ㅑㅇ	-123
ㅓㅁ	-124
ㅈㅓㅇ	-125
▁ㄹㅏ	-126
▁ㅂㅗ	-127
▁ㅇㅟ	-128
ㄷㅐ	-129
▁ㅈㅓㅇ	-130
▁ㅈㅜㅇ	-131
ㅅㅜ	-132
ㄱㅜ	-133
▁ㅇㅠ	-134
▁ㅎㅘ	-135
▁ㅅㅔ	-136
ㅕㄹ	-137
ㅇㅜ	-138
ㅇㅝㄴ	-139
▁ㅂㅏ	-140
▁ㅇㅣㄴ	-141
ㅐㄱ	-142
ㅇㅣㄴ	-143
▁ㅇㅕㅆ	-144
▁ㄱㅗㅇ	-145
▁ㅈㅗ	-146
ㅓㅂ	-147
ㅅㅓㅇ	-148
▁ㄱㅔ	-149
ㅈㅓㄴ	-150
▁ㄱㅕㅇ	-151
▁ㅁㅗ	-152
ㅅㅏㅇ	-153
▁ㄱㅐ	-154
ㅈㅔ	-155
ㅌㅓ	-156
ㄱㅘ	-157
ㄴㅣ	-158
▁ㄱㅓㅅ	-159
ㄷㅗㅇ	-160
▁3	-161
ㄱㅡ	-162
ㄹㄹㅣ	-163
ㅎㅏㄱ	-164
▁ㅂㅣ	-165
▁ㅅㅡ	-166
▁"	-167
ㅇㅛㅇ	-168
ㅎㅚ	-169
▁ㄷㅡㅇ	-170
▁ㅅㅓㄴ	-171
▁ㄲ	-172
▁ㅅㅓㅇ	-173
▁ㄱㅜ	-174
ㄱㅛ	-175
▁ㅊㅏ	-176
▁ㅅㅗ	-177
▁ㅁㅏㄴ	-178
▁ㄷㅗㅇ	-179
▁ㅇㅕㄴ	-180
ㄹㅓ	-181
▁ㅅㅓ	-182
ㄹㅔ	-183
ㄴㅡㄴ	-184
▁ㅅㅏㅇ	-185
ㄹㅐ	-186
▁ㅎㅏㄴ	-187
▁ㅁㅕ	-188
ㅁㅕ	-189
▁ㅇㅕㅇ	-190
▁ㄱㅜㄱ	-191
ㅁㅏ	-192
ㅂㅣ	-193
▁ㅂㅏㄹ	-194
ㅋㅣ	-195
▁ㅁㅕㄴ	-196
ㄱㅖ	-197
ㅁㅜㄴ	-198
ㅇㅗ	-199
▁201	-200
ㅅㅓㄴ	-201
▁ㄴㅗ	-202
ㅅㅏㄴ	-203
ㅇㅢ	-204
ㅡㅁ	-205
ㅁㅣㄴ	-206
ㅇㅕㄱ	-207
▁4	-208
ㅎㅏㄴ	-209
ㅇㅠ	-210
▁'	-211
ㅇㅑ	-212
ㄷㅔ	-213
ㅅㅣㄴ	-214
ㅌㅏ	-215
ㅇㅣㄹ	-216
ㅡㄱ	-217
▁ㅎㅜ	-218
▁ㄹㅣ	-219
▁ㄱㅘㄴ	-220
▁ㅁㅕㅇ	-221
ㅁㅏㄴ	-222
ㅅㅗ	-223
▁ㅅㅣㄴ	-224
▁ㅍㅡ	-225
▁5	-226
ㅅㅣㄱ	-227
▁200	-228
▁ㄸㅐ	-229
▁-	-230
ㅊㅔ	-231
ㅇㅡㅁ	-232
ㅈㅐ	-233
▁ㅈㅏㅇ	-234
▁ㅍㅗ	-235
▁ㅂㅏㅇ	-236
▁ㅇㅜ	-237
ㅁㅕㅇ	-238
ㄹㅜ	-239
ㅋㅡ	-240
ㅎㅣ	-241
ㄱㅔ	-242
▁ㅎㅐ	-243
▁ㄷㅓㄴ	-244
ㅇㅟ	-245
▁ㅇㅛ	-246
▁ㄱㅛ	-247
▁ㅁㅜ	-248
ㅈㅗ	-249
ㄱㅜㄴ	-250
ㅋㅏ	-251
▁ㅇㅕㄱ	-252
ㅈㅏㄱ	-253
▁ㅁㅜㄴ	-254
ㄷㅏㄴ	-255
▁ㄴㅐ	-256
ㄱㅘㄴ	-257
ㄱㅏㄴ	-258
▁ㅆ	-259
ㅎㅜ	-260
ㅎㅐㅇ	-261
▁ㅍㅣ	-262
ㅌㅣ	-263
▁ㅎㅗ	-264
▁ㄷㅏㅇ	-265
ㄱㅗㅇ	-266
▁ㅇㅝㄴ	-267
▁ㅎㅕㄴ	-268
ㅍㅡ	-269
▁ㅌㅗㅇ	-270
ㅁㅜ	-271
▁ㄴㅏㅁ	-272
▁ㄱㅖ	-273
ㅂㅗ	-274
ㅁㅜㄹ	-275
▁ㄱㅜㄴ	-276
ㄱㅓ	-277
▁ㅊㅣ	-278
▁ㅂㅜㄴ	-279
ㅂㅗㄴ	-280
▁6	-281
ㄹㅗㄱ	-282
▁ㄲㅏ	-283
ㄹㅕㄱ	-284
▁ㅎㅏㄱ	-285
ㅌㅗ	-286
▁ㄸㅗ	-287
▁ㅇㅑ	-288
ㄷㅏㅇ	-289
▁ㅍㅏ	-290
ㅇㅓㅂ	-291
▁ㅂㅐ	-292
▁ㄷㅔ	-293
▁ㅇㅏㄶ	-294
▁ㅊㅜ	-295
▁ㅅㅐㅇ	-296
▁ㄱㅏㅌ	-297
▁ㅌㅏ	-298
ㅇㅏㄴ	-299
▁ㅈㅏㄱ	-300
▁ㅊㅜㄹ	-301
▁ㄱㅏㅇ	-302
ㅍㅣ	-303
▁ㅎㅚ	-304
▁ㄱㅕㄹ	-305
ㅁㅕㄴ	-306
▁ㅋㅡ	-307
▁ㅊㅓ	-308
ㅂㅏㄴ	-309
ㄷㅣ	-310
▁ㅈㅣㄴ	-311
ㄴㅐ	-312
▁ㅂㅏㄷ	-313
▁7	-314
ㅇㅑㅇ	-315
▁ㄷㅏㄴ	-316
▁ㅂㅓㄴ	-317
ㅅㅔ	-318
▁10	-319
ㅅㅗㄱ	-320
▁ㄷㅜ	-321
ㄹㅠ	-322
▁8	-323
▁ㅇㅖ	-324
▁ㅊㅚ	-325
▁ㅋㅏ	-326
ㅇㅣㅁ	-327
▁ㅂㅏㄴ	-328
▁ㅂㅜㄹ	-329
ㄹㅣㅂ	-330
ㄷㅡㄹ	-331
ㅎㅗ	-332
▁ㅂㅔ	-333
ㅂㅏㅇ	-334
ㅍㅗ	-335
▁ㅊㅗ	-336
▁ㅋㅗ	-337
▁ㅇㅏㄴ	-338
▁ㅎㅕㅇ	-339
ㅁㅗ	-340
ㅍㅛ	-341
▁ㄸㅏ	-342
ㄱㅕㅇ	-343
ㅅㅐㅇ	-344
▁ㅈㅐ	-345
▁ㅁㅏㄹ	-346
ㅌㅗㅇ	-347
ㅈㅣㄴ	-348
ㅋㅗ	-349
ㅂㅜㄴ	-350
▁ㅅㅣㄹ	-351
▁ㅁㅐ	-352
ㅂㅏ	-353
▁ㄹㅔ	-354
ㅈㅗㅇ	-355
▁9	-356
ㅇㅕㅇ	-357
▁ㅇㅓㅄ	-358
▁ㅌㅣ	-359
ㄱㅕㄱ	-360
▁ㅈㅗㅇ	-361
▁ㅇㅡㅁ	-362
ㅇㅕㄴ	-363
ㄱㅏㄱ	-364
ㅌㅔ	-365
▁ㅅㅓㄹ	-366
ㅎㅐ	-367
ㅈㅡ	-368
▁ㅎㅏㅁ	-369
ㄷㅜ	-370
▁ㅁㅔ	-371
ㅂㅓㅂ	-372
ㅎㅏㅂ	-373
ㅂㅓ	-374
ㅈㅓㄱ	-375
▁ㅌㅡㄱ	-376
▁ㅇㅣㄹㅂㅗㄴ	-377
ㄹㅡㄴ	-378
ㅊㅏ	-379
ㅇㅘ	-380
▁ㅉ	-381
▁ㄷㅓ	-382
▁ㅁㅕㄴㅅㅓ	-383
▁ㅅㅏㄴ	-384
ㅂㅏㄹ	-385
ㄹㅡㅁ	-386
▁ㅇㅜㄴ	-387
ㄴㅗ	-388
ㅍㅏ	-389
▁ㄷㅡ	-390
ㅍㅜ	-391
ㄹㅕ	-392
▁ㄱㅝㄴ	-393
ㄹㅕㅇ	-394
ㅇㅕ	-395
▁ㄱㅏㅁ	-396
▁ㄴㅡㄴㄷㅔ	-397
ㅇㅔ	-398
▁ㅎㅘㄹ	-399
ㄹㅏㄴ	-400
▁ㄷㅗㄱ	-401
▁ㅇㅐ	-402
ㅁㅣㄴㄱㅜㄱ	-403
ㅈㅣㄱ	-404
ㄹㅏㅇ	-405
ㄹㅏㅁ	-406
▁ㅇㅘㅇ	-407
▁ㅎㅐㅇ	-408
▁ㅌㅐ	-409
▁199	-410
▁ㄱㅣㅁ	-411
ㅅㅡㅇ	-412
ㅅㅓㄹ	-413
▁ㅇㅑㅇ	-414
ㅎㅏㄴㅁㅣㄴㄱㅜㄱ	-415
ㅌㅐ	-416
▁ㅁㅣㄴ	-417
▁12	-418
▁ㄱㅓㄴ	-419
ㄹㅛ	-420
▁ㅍㅕㅇ	-421
▁ㅌㅔ	-422
▁18	-423
▁ㅁㅏㄶ	-424
▁ㅇㅣㅂ	-425
ㅈㅓㅁ	-426
▁ㅁㅣㅊ	-427
▁ㅊㅏㅁ	-428
ㅅㅣㄹ	-429
▁ㅇㅏㄹ	-430
▁ㄱㅏㄴ	-431
ㅁㅔ	-432
▁ㄱㅕㅇㄱㅣ	-433
ㅈㅗㄱ	-434
▁ㅅㅡㅇ	-435
▁ㅁㅗㄱ	-436
ㅈㅜㅇ	-437
ㅎㅏㄱㄱㅛ	-438
00	-439
ㅂㅔ	-440
ㄴㅕ	-441
ㄴㅔ	-442
▁;	-443
▁ㅌㅗ	-444
ㅅㅜㄹ	-445
or	-446
▁ㅅㅗㄱ	-447
ㅉㅗㄱ	-448
▁ㅊㅗㅇ	-449
▁ㅊㅔ	-450
▁ㅇㅚ	-451
ㅎㅕㅇ	-452
ㅊㅜㄹ	-453
▁ㅂㅜㄱ	-454
▁S	-455
ㅇㅜㄴ	-456
ㄴㅏㅁ	-457
ㅅㅣㅁ	-458
▁ㅈㅓ	-459
ㅎㅕㄴ	-460
ㅇㅑㄱ	-461
ㄷㅗㄱ	-462
ㅂㅡ	-463
ㄹㅗㄴ	-464
▁11	-465
▁ㅎㅣ	-466
ㄱㅓㄴ	-467
▁ㅃ	-468
ㅅㅓㄱ	-469
ㄷㅡㅇ	-470
▁ㅈㅣㅂ	-471
▁ㅂㅓㅂ	-472
▁ㅌㅡ	-473
▁ㄱㅏㄱ	-474
▁ㅊㅓㄴ	-475
ㅎㅑㅇ	-476
▁ㅇㅣㅁ	-477
ㅁㅐ	-478
▁ㄷㅣ	-479
▁ㅍㅛ	-480
▁ㅅㅐ	-481
▁ㅂㅕㄴ	-482
ㅊㅓㄴ	-483
▁ㅁㅜㄹ	-484
ㄴㅡㅇ	-485
ㅇㅣㅂ	-486
▁ㄴㅔ	-487
▁ㅈㅣㄱ	-488
ㄱㅡㅁ	-489
▁ㅂㅓ	-490
▁ㄴㅣ	-491
▁ㅂㅗㄴ	-492
▁ㅍㅔ	-493
ㅍㅜㅁ	-494
ㄴㄷㅡ	-495
▁&	-496
▁A	-497
ㄲㅔ	-498
▁ㅆㅡ	-499
▁)	-500
▁ᄆ	-501
ㅅㅗㅇ	-502
ㅇㅜㄹ	-503
▁ㅎㅏㅁㄲㅔ	-504
▁ㅅㅓㄴㅅㅜ	-505
▁ㅌㅣㅁ	-506
la	-507
▁ㅈㅓㅁ	-508
▁ㅂㅏㄱ	-509
▁ㅌㅜ	-510
▁ㅎㅏㄴㄱㅜㄱ	-511
ㅍㅏㄴ	-512
▁ㅊㅓㅇ	-513
▁ㅇㅕㅇㅎㅘ	-514
▁ㅎㅏㅇ	-515
▁ㅂㅡ	-516
▁ㄹㅜ	-517
▁f	-518
ㄹㅑㅇ	-519
▁ㄱㅘㅇ	-520
▁C	-521
ㅌㅜ	-522
ㅈㅐㅇ	-523
▁M	-524
▁ㅇㅑㄱ	-525
ㄹㅕㄴ	-526
ㄱㅡㅂ	-527
ㄱㅐ	-528
ㅊㅓㅇ	-529
▁ㅇㅛㅇ	-530
▁ㄱㅕㅇㅇㅜ	-531
▁ㅊㅜㄱ	-532
ㅈㅣㄹ	-533
▁ㅎㅕㄴㅈㅐ	-534
▁T	-535
ㅊㅜ	-536
▁F	-537
ㅇㅓㄴ	-538
ㅕㅂ	-539
▁ㅌㅗㅇㅎㅏ	-540
ㅎㅏㅁ	-541
▁_	-542
▁ㅍㅏㄴ	-543
▁198	-544
ㅍㅔ	-545
ㅈㅜㄴ	-546
▁ㄷㅟ	-547
▁ㅂㅗㄱ	-548
▁ㄱㅜㄱㄱㅏ	-549
ㅁㅏㅇ	-550
ㄹㄹㅏ	-551
▁ㅈㅗㄴ	-552
ㅊㅗ	-553
▁(	-554
▁ㅍㅕㄴ	-555
ㄹㅓㅂ	-556
▁ㅅㅏㅁ	-557
▁ㅋㅣ	-558
▁ㅎㅏㄱㄱㅛ	-559
▁for	-560
▁ㅋㅐ	-561
ㅎㅏㅇ	-562
ㅇㅏㄱ	-563
mu	-564
▁ㅎㅘㄱ	-565
▁ㄷㅏㅇㅅㅣ	-566
▁ㅊㅐ	-567
▁ㅎㅘㄹㄷㅗㅇ	-568
▁ㅍㅐ	-569
▁ㅊㅓㄹ	-570
ㅋㅔ	-571
ㄱㅕㄹ	-572
▁15	-573
mula	-574
ㄴㅕㄴ	-575
▁formula	-576
▁ㅁㅏㄴㄷㅡㄹ	-577
ㄱㅏㅇ	-578
▁ㄱㅠ	-579
ㅂㅕㅇ	-580
▁ㄱㅡㅁ	-581
ㅂㅐ	-582
ㄴㅓ	-583
ㅅㅕㄴ	-584
▁ㅇㅕㄹ	-585
▁ㅉㅐ	-586
▁ㅍㅡㄹ	-587
▁ㅎㅏㅂ	-588
▁ㅈㅡㅇ	-589
▁ㅂㅐㄱ	-590
ㄹㄹㅔ	-591
▁ㅊㅏㅇ	-592
▁ㅇㅓㄴ	-593
ㅍㅕㄴ	-594
ㅁㅗㄱ	-595
ㄱㅕㄴ	-596
▁ㅅㅣㄱ	-597
▁16	-598
▁ㅅㅣㅁ	-599
ㅈㅓ	-600
▁ㅍㅜ	-601
ㅅㅐㄱ	-602
▁ㄷㅏㄹ	-603
▁/	-604
▁ㅇㅕㄴㄱㅜ	-605
ㅂㅕㄹ	-606
▁ㄱㅡㄴ	-607
ㅂㅗㄱ	-608
▁ㅂㅕㅇ	-609
ㅈㅓㄹ	-610
▁m	-611
ㄷㅡㄴ	-612
▁ㅅㅏㄹ	-613
ㅋㅜ	-614
ㅊㅡ	-615
ㅈㅡㄴ	-616
▁0	-617
▁ㅎㅘㅇ	-618
ㅎㅘㄴ	-619
▁ㄸㅡ	-620
▁D	-621
▁ㅇㅗㄹㄹㅣ	-622
▁ㅁㅗㅅ	-623
▁ㄹㅓ	-624
ㅇㅠㄱ	-625
▁17	-626
ㄱㅡㄴ	-627
▁ㅊㅜㅇ	-628
ㅂㅜㄱ	-629
▁197	-630
ㅎㅓㅁ	-631
▁B	-632
ㅎㅘㅇ	-633
ㅡㄹㄹㅣ	-634
▁ㅅㅜㄴ	-635
▁ㅎㅔ	-636
▁ㅆㅣ	-637
ㅁㅓ	-638
ㅏㄹㄹㅣ	-639
▁ㅊㅓㅅ	-640
ㄱㅝㄴ	-641
▁ㅇㅏㄹㄹㅣ	-642
ㅇㅚ	-643
▁ㅈㅜㅇㄱㅜㄱ	-644
▁]	-645
ㄱㅠ	-646
▁I	-647
▁[	-648
▁:	-649
▁K	-650
▁ㅇㅘㄴ	-651
ㅇㅘㅇ	-652
ㅁㅍㅣ	-653
▁ㄴㅗㅍ	-654
▁ㅎㅕㅂ	-655
▁ㄱㅣㄹ	-656
ㄹㅏㅇㅅㅡ	-657
ㄷㅏㄹ	-658
▁ㄷㅗㄹ	-659
▁ㄸㅡㅅ	-660
▁k	-661
▁ㅇㅕㅇㄱㅜㄱ	-662
ㄱㅡㄹ	-663
▁ㅈㅓㅇㅂㅜ	-664
ㄷㅓ	-665
▁ㅁㅗㅅㅎㅏ	-666
ㄱㅗㄱ	-667
ㄹㅐㄴㄷㅡ	-668
▁ㄴㅡㄴㄷㅏ	-669
▁ㅍㅣㄹ	-670
▁196	-671
▁14	-672
▁ㄲㅡ	-673
ㅂㅓㅁ	-674
ㅊㅏㄹ	-675
ㄱㅘㅇ	-676
ㅈㅣㅂ	-677
er	-678
ㄹㅓㄴ	-679
▁~	-680
▁ㅊㅜㄱㄱㅜ	-681
▁ㄴㅓ	-682
▁ㅈㅓㄴㅈㅐㅇ	-683
▁ㅋㅔ	-684
▁ㅁㅜㄴㅎㅘ	-685
ㄹㅖ	-686
ㅍㅓ	-687
▁13	-688
▁ㄷㅗㄱㅇㅣㄹ	-689
▁g	-690
in	-691
▁P	-692
▁ㅎㅓ	-693
▁ㄴㅠ	-694
▁ㅂㅕㄹ	-695
▁ㅊㅟ	-696
▁ㅈㅜㄱ	-697
ㄱㅓㅅ	-698
ㅌㅏㄴ	-699
▁ㅋㅡㄹ	-700
▁ㅂㅏㅇㅅㅗㅇ	-701
ㅇㅏㅇ	-702
▁194	-703
ㄹㅏㄱ	-704
▁ㅈㅓㅇㅊㅣ	-705
▁ㅊㅣㄴ	-706
▁ㄱㅏㅁㄷㅗㄱ	-707
▁ㄱㅗㄱ	-708
▁ㄷㅗㅇㅇㅏㄴ	-709
ㅇㅕㄹ	-710
ㄱㅡㄱ	-711
▁ㅇㅣㄹㅂㅜ	-712
▁ㅅㅗㄴ	-713
▁l	-714
▁ㅅㅓㄱ	-715
▁ㅎㅘㄴ	-716
ㄹㄹㅗ	-717
▁L	-718
ㅈㅗㄴ	-719
ㅊㅜㄱ	-720
▁ㄱㅜㄱㅈㅔ	-721
ㅅㅡㅂ	-722
ㅇㅖ	-723
▁ㅁㅜㄴㅈㅔ	-724
▁ㅌㅓ	-725
ㅊㅣㅇ	-726
ㄴㅓㄹ	-727
ㅍㅕㅇ	-728
▁ㄱㅓㅁ	-729
▁ㄴㅗㅇ	-730
▁%	-731
ㅇㅡㄴ	-732
ㅎㅏㄹ	-733
▁ㅇㅣㄹㅂㅏㄴ	-734
ㅊㅓㄹ	-735
▁ㅇㅣㄴㅎㅏ	-736
▁G	-737
▁ㅋㅜ	-738
ㅇㅡ	-739
ㅇㅞ	-740
▁ㅅㅠ	-741
ㄹㅣㅁ	-742
▁ㅇㅣㄴㄱㅜ	-743
ㄱㅏㅁ	-744
▁ㅈㅗㄴㅈㅐ	-745
ㄹㅓㅁ	-746
ㄴㅕㅁ	-747
▁ㅎㅑㅇ	-748
▁ㅈㅏㄱㅍㅜㅁ	-749
▁N	-750
▁ㄴㅗㄴ	-751
▁ㄱㅗㄹ	-752
▁ㄲㅡㅌ	-753
on	-754
▁ㅅㅓㅁ	-755
ㅊㅓ	-756
▁km	-757
▁gt	-758
▁ㅇㅜㄴㄷㅗㅇ	-759
▁ㅇㅕㄱㅅㅏ	-760
▁ㄱㅡㅂ	-761
▁195	-762
▁ㅈㅓㅇㄷㅗ	-763
▁ㄱㅗㅅ	-764
▁ㅍㅗㄱ	-765
ㅇㅐ	-766
▁ㄱㅕ	-767
▁U	-768
▁ㅇㅠㄱ	-769
ㄹㅗㅂ	-770
▁ㅎㅛ	-771
▁ㅈㅡㄱ	-772
ㅅㅏㄹ	-773
▁ㅈㅓㅂ	-774
▁lt	-775
▁ㅁㅏㅌ	-776
ㅎㅚㄱ	-777
ㅌㅐㄱ	-778
▁ㄱㅟ	-779
▁ㅇㅏㅍ	-780
▁ㅇㅡㅁㅇㅏㄱ	-781
▁ㅇㅞ	-782
▁R	-783
▁ㄱㅘㄴㄱㅖ	-784
ㅅㅡㄴ	-785
▁ㅈㅜㅇㅅㅣㅁ	-786
ㅂㅗㅇ	-787
▁30	-788
ㄱㅅㅡ	-789
▁H	-790
▁ㄹㅕ	-791
▁ㄴㅜ	-792
▁ㄴㅏㄹ	-793
ㅁㅏㄱ	-794
▁E	-795
ㅊㅏㅇ	-796
▁ㄱㅡㄱ	-797
▁ㅂㅏㄹㄱㅕㄴ	-798
▁ㅅㅓㄴㄱㅓ	-799
ㅂㅕㄴ	-800
ㅌㅓㄴ	-801
ㅁㅍㅣㄱ	-802
▁ㄷㅏㅁ	-803
▁ㅈㅓㄹ	-804
▁ㅂㅗㅇ	-805
▁ㅎㅗㅇ	-806
ㅊㅐㄱ	-807
ㅌㅗㅇㄹㅕㅇ	-808
▁ㄱㅕㅇㅈㅔ	-809
▁ㅈㅓㄴㅌㅜ	-810
▁ㅂㅏㄹㅍㅛ	-811
ㅈㅡㅇ	-812
▁ㅁㅏㅈ	-813
ㅌㅡㄹ	-814
▁ㄱㅏㅈ	-815
▁ㅇㅏㅁ	-816
ㄹㅣㄴ	-817
▁2010	-818
▁ㅇㅗㄹㄹㅣㅁㅍㅣㄱ	-819
▁ㅂㅡㄹ	-820
ㅊㅏㄱ	-821
▁ㅁㅣㄴㅈㅜ	-822
ㅋㅓ	-823
▁ㅊㅡㄱ	-824
ㅈㅣㅇ	-825
an	-826
ㄹㅐㅁ	-827
ㅇㅝ	-828
▁ㅊㅐㄱ	-829
ㅎㅘㄹ	-830
▁ㅁㅏㄱ	-831
▁ㅇㅕㄹㄹㅣ	-832
▁ㅂㅜㄹㄹㅣ	-833
000	-834
▁ㅁㅓ	-835
▁ㅅㅗㅇ	-836
▁ㅇㅔㄴ	-837
▁ㄱㅡㄹ	-838
▁ㄷㅡㄹㅇㅓ	-839
ㅈㅓㅂ	-840
▁193	-841
▁c	-842
▁ㄱㅗㅇㄱㅕㄱ	-843
▁ㅇㅕㅇㅎㅑㅇ	-844
ㅇㄱㅡㄹ	-845
▁ㅈㅏㄹ	-846
▁ㅈㅜㅇㅇㅏㅇ	-847
ㅅㅜㄴ	-848
▁ㅊㅏㅁㅇㅕ	-849
▁ㄹㅠ	-850
20	-851
ㅆㅡ	-852
▁ㅂㅏㄺ	-853
▁ㄱㅘㄴㄹㅕㄴ	-854
▁ㅈㅏㅂ	-855
▁ㅇㅓㅂ	-856
▁ㄱㅕㄹㄱㅘ	-857
ㅎㅗㄴ	-858
▁ㅂㅏㄹㅅㅐㅇ	-859
▁25	-860
ㄹㅏㄴㄷㅡ	-861
▁ㅈㅣㄴㅎㅐㅇ	-862
▁ㅈㅣㄹ	-863
▁ㅅㅗㄱㅎㅏ	-864
▁ㅅㅓㄹㄹㅣㅂ	-865
▁ㅂㅓㅁ	-866
▁ㅅㅓㄹㅊㅣ	-867
▁ㅈㅜㄴ	-868
▁ㄷㅗㄱㄹㅣㅂ	-869
ㄷㅡㄱ	-870
ㅇㅗㄴ	-871
▁ㅂㅏㄹㅁㅐ	-872
▁ㅎㅡ	-873
▁ㅇㅓㄷ	-874
▁2008	-875
ㅆㅓ	-876
▁W	-877
ㅂㅐㄱ	-878
▁ㅍㅖ	-879
▁ㅋㅓ	-880
▁ㅌㅡㄱㅎㅣ	-881
▁ㅁㅣㄹ	-882
▁ㅎㅕㅇㅌㅐ	-883
▁ㅇㅗㄴ	-884
ㅍㅐ	-885
▁ㅈㅘ	-886
ㄴㅏㄴ	-887
ㅓㄹㅇㅓ	-888
▁21	-889
▁ㅌㅏㄴ	-890
ㅇㅜㅁ	-891
▁ㅇㅐㄹ	-892
▁ㄱㅕㄹㅈㅓㅇ	-893
ㄴㅜ	-894
ㅇㅡㅇ	-895
ㅂㅜㄹ	-896
▁ㄹㅡ	-897
ㅇㅝㄴㅎㅚ	-898
ㅌㅏㄹㄹㅣ	-899
ㅅㅡㄹ	-900
ㄴㅏㄹ	-901
▁ㅅㅏㅇㅌㅐ	-902
▁ㄱㅏㅌㅇㅣ	-903
ㅂㅓㄹ	-904
▁ㅇㅣㄹㅇㅓ	-905
ㅇㅝㄹ	-906
ㄷㅏㅁ	-907
▁ㄷㅏㅇㅎㅏ	-908
▁ㅅㅔㄴ	-909
▁ㅇㅏㄱ	-910
▁ㅈㅜㄹ	-911
▁ㄲㅗ	-912
▁2012	-913
▁ㅇㅣㄴㅁㅣㄴ	-914
▁2011	-915
▁ㅈㅗㅎ	-916
▁ㅊㅏㅁㄱㅏ	-917
▁ㅊㅜㄹㅅㅣㄴ	-918
en	-919
▁ㅊㅣㅁ	-920
▁2007	-921
▁ㅇㅜㄴㅇㅕㅇ	-922
▁t	-923
▁ㄱㅘㄴㄹㅣ	-924
▁2009	-925
▁2014	-926
ㅅㅗㄴ	-927
▁100	-928
ㅂㅏㄱ	-929
▁ㅎㅐㅇㅈㅓㅇ	-930
ㄷㅗㄹ	-931
▁ㅌㅏㄹ	-932
▁ㅎㅗㄴ	-933
ㅂㅟ	-934
▁ㅇㅠㄴ	-935
▁a	-936
▁ㅍㅣㄹㅇㅛ	-937
▁ㄹㅏㄴ	-938
▁ㅇㅡㅁㅂㅏㄴ	-939
▁ㄷㅡㅇㅈㅏㅇ	-940
▁ㅈㅓㅇㅂㅗ	-941
ㄷㅓㄱ	-942
▁ㅅㅐㅇㅅㅏㄴ	-943
▁ㅈㅜㅇㅇㅛ	-944
▁ㅅㅛ	-945
▁2013	-946
▁ㅊㅓㄹㄷㅗ	-947
▁O	-948
ㅎㅢ	-949
ㅌㅚ	-950
ㅇㅡㄹ	-951
he	-952
ㅅㅠ	-953
▁ㅅㅐㅇㄱㅏㄱ	-954
▁ㅍㅏㄹ	-955
▁ㅋㅗㄴ	-956
▁ㅎㅢ	-957
▁ㅅㅏㅇㄷㅐ	-958
ㄴㅏㅁㄷㅗ	-959
ㄹㅜㅂ	-960
ㄲㅏ	-961
ㅁㅐㅇ	-962
▁ㄴㅡ	-963
ㄱㅐㄱ	-964
ㄴㅅㅡ	-965
ㄱㅠㄴ	-966
▁ㅁㅛ	-967
▁191	-968
▁ㄱㅜㄱㅁㅣㄴ	-969
▁23	-970
▁ㅅㅓㅇㄱㅗㅇ	-971
ar	-972
▁2018	-973
▁2015	-974
▁24	-975
ㄸㅐ	-976
▁ㅅㅑ	-977
ㅊㅏㄴ	-978
▁ㄴㅓㅁ	-979
ㅌㅔㅁ	-980
▁2016	-981
▁ㄱㅓㄹ	-982
▁000	-983
▁ㅂㅏㄹㅈㅓㄴ	-984
▁ㅂㅏㄺㅎㅣ	-985
▁ㅁㅕㅊ	-986
ㅊㅡㄱ	-987
ㄷㅡㅇㅎㅏㄱㄱㅛ	-988
▁J	-989
▁ㅎㅓㄴ	-990
ㄷㅔㄹ	-991
▁ㅃㅜㄴ	-992
▁ㅇㅓㄱ	-993
▁ㅇㅝㄹㄷㅡ	-994
es	-995
▁ㅇㅣㄴㄷㅗ	-996
▁ㅂㅏㅇㅂㅓㅂ	-997
▁ㅆㅏ	-998
▁ㅊㅜㄹㅇㅕㄴ	-999
▁ㅇㅐㄹㅂㅓㅁ	-1000
▁ㅊㅏㅈ	-1001
▁ㅇㅝ	-1002
ㅇㅠㄹ	-1003
▁2006	-1004
▁22	-1005
▁ㄴㅡㅇ	-1006
ㄴㅡㄹ	-1007
ㅇㅏㅁ	-1008
▁192	-1009
FA	-1010
ㄹㅑ	-1011
ㅇㅣㄱ	-1012
▁ㄱㅗㅇㅎㅘ	-1013
▁2017	-1014
▁ㅈㅓㄴㅊㅔ	-1015
▁ㅅㅐㅇㅎㅘㄹ	-1016
▁ㅊㅡㅇ	-1017
ㅂㅡㄹ	-1018
▁ㄱㅘㄴㅎㅏ	-1019
ㅊㅚ	-1020
ㅊㅣㅁ	-1021
▁ㄷㅗㄹㅇㅏ	-1022
▁ㅎㅏㅇㄱㅗㅇ	-1023
▁ㄹㅐ	-1024
▁ㅃㅏ	-1025
▁ㅋㅓㅁ	-1026
▁ㅇㅓㄹ	-1027
ㅇㅜㄴㄷㅔ	-1028
▁ㅂㅏㅇㅅㅣㄱ	-1029
▁ㅇㅣㄴㅌㅓ	-1030
▁ㄱㅗㅇㅅㅣㄱ	-1031
▁ㅇㅕㄴㅎㅏㅂ	-1032
▁ㅁㅏㄶㅇㅣ	-1033
ㅍㅡㄹ	-1034
ㄹㅓㅎ	-1035
▁s	-1036
▁ㅍㅜㅇ	-1037
▁ㅊㅜㄹㅈㅓㄴ	-1038
▁ㅎㅏㄴㅍㅕㄴ	-1039
▁ㄱㅕㄱ	-1040
▁ㅁㅗㅁ	-1041
▁ㅎㅠ	-1042
▁ㅍㅡㄹㄹㅔ	-1043
ㄹㅑㄱ	-1044
ㅎㅏㄱㅈㅏ	-1045
▁ㅂㅜㄴㄹㅠ	-1046
ㄱㅟ	-1047
▁ㄱㅕㄹㄱㅜㄱ	-1048
▁ㅇㅕㄱㅎㅏㄹ	-1049
▁ㅈㅏㅁ	-1050
▁ㅁㅣㄴㅈㅗㄱ	-1051
▁ㅅㅐㄱ	-1052
ㄲㅣ	-1053
▁ㅍㅓ	-1054
ㄴㅡ	-1055
▁!	-1056
▁ㄱㅜㄴㅅㅏ	-1057
▁ㅇㅜㄹ	-1058
▁ㅎㅣㅁ	-1059
at	-1060
▁ㅇㅣㄴㄱㅏㄴ	-1061
▁ㄷㅏㄹㄹㅣ	-1062
ㅎㅓㄴ	-1063
▁26	-1064
ㅋㅡㄹ	-1065
▁ㄷㅜㄹ	-1066
▁ㅇㅓㄴㅇㅓ	-1067
▁ㄴㅗㅎ	-1068
▁ㅂㅏㄴㄷㅐ	-1069
▁2019	-1070
▁ㅌㅡㄱㅂㅕㄹ	-1071
▁28	-1072
ㅂㅜㄱㄷㅗ	-1073
ㅊㅣㄱ	-1074
ㅌㅏㄹ	-1075
ㅇㅕㅁ	-1076
▁ㄸㅓㄹㅇㅓ	-1077
▁ㅇㅕㄴㄱㅕㄹ	-1078
ㅎㅔ	-1079
▁ㅎㅕㄴㄷㅐ	-1080
▁ㄴㅗㄱ	-1081
▁27	-1082
▁ㅇㅡㅇ	-1083
▁ㅁㅗㄱㄹㅗㄱ	-1084
▁ㅂㅓㄹ	-1085
▁ㄱㅗㅇㄱㅐ	-1086
▁ㅍㅕㅇㄱㅏ	-1087
▁ㄸㅓ	-1088
ㅆㅣ	-1089
▁ㄱㅕㅇㅅㅏㅇ	-1090
▁ㄱㅏㄱㄱㅏㄱ	-1091
▁ㅎㅗㅁ	-1092
ㅁㅣㄹ	-1093
▁2005	-1094
▁ㄸㅟ	-1095
▁V	-1096
▁ㄷㅗㅇㅅㅣ	-1097
▁ㄷㅏㄴㅊㅔ	-1098
▁ㅈㅓㄴㅎㅏ	-1099
▁2000	-1100
▁ㅂㅜㅌ	-1101
ㅎㅟ	-1102
▁ㅈㅗㄹ	-1103
ㅇㅏㅂ	-1104
▁ㅅㅟ	-1105
ic	-1106
▁ㅇㅣㅁㅁㅕㅇ	-1107
▁ㅎㅐㄱ	-1108
ㅁㅓㄴ	-1109
ㅊㅗㅇ	-1110
al	-1111
▁ㅈㅓㅇㅇㅢ	-1112
ㅁㅏㄹ	-1113
ㄱㅗㄹ	-1114
▁ㅈㅣㄴㅊㅜㄹ	-1115
ㄴㅈㅣ	-1116
▁ㅈㅓㄴㅁㅜㄴ	-1117
▁ㅈㅗㄱ	-1118
▁ㄴㅏㄴ	-1119
ㅂㅓㄴ	-1120
ㅍㅣㄹ	-1121
▁ㅁㅗㄱㅈㅓㄱ	-1122
▁ㅁㅓㄹ	-1123
ㅎㅡㅇ	-1124
ㅍㅜㅇ	-1125
▁ㅇㅣㄴㅈㅓㅇ	-1126
▁ㅅㅏㄴㅇㅓㅂ	-1127
BS	-1128
▁ㅂㅏㄲ	-1129
ㅋㅓㅂ	-1130
▁ㅅㅡㅇㄹㅣ	-1131
▁2004	-1132
ㅇㅛㄱ	-1133
▁ㅍㅗㄹ	-1134
ㅌㅣㄴ	-1135
▁FC	-1136
▁ㅋㅏㄹ	-1137
▁ㄱㅗㅇㄱㅏㄴ	-1138
▁ㅁㅓㄱ	-1139
▁ㄱㅏㄹ	-1140
▁ㅈㅓㅇㅊㅐㄱ	-1141
ㄹㅕㅂ	-1142
▁ㄱㅓㄴㅁㅜㄹ	-1143
▁b	-1144
▁ㄱㅓㄴㅅㅓㄹ	-1145
ㅂㄴㅣ	-1146
ㄱㅚ	-1147
▁ㄴㅜㄴ	-1148
▁ㅈㅣㄱㅈㅓㅂ	-1149
▁ㅎㅕㄱ	-1150
▁ㅌㅔㄹㄹㅔ	-1151
▁31	-1152
▁ㄱㅗㅇㄷㅗㅇ	-1153
ㅊㅜㅇ	-1154
▁50	-1155
▁TV	-1156
▁ㅎㅘㄹㅇㅑㄱ	-1157
ㄹㅗㅅ	-1158
▁ㅈㅗㄹㅇㅓㅂ	-1159
▁ㅁㅏㅇ	-1160
▁ㅇㅏㅂ	-1161
ㄱㅌㅓ	-1162
is	-1163
▁29	-1164
ㄱㅗㅇㅎㅘ	-1165
re	-1166
▁ㅋㅏㄴ	-1167
it	-1168
ㄹㅠㄹ	-1169
ㅎㅕㄱ	-1170
ㄹㅠㄱ	-1171
▁ㄱㅕㅇㅊㅏㄹ	-1172
ㅊㅡㅇ	-1173
▁ㅎㅕㅇㅅㅓㅇ	-1174
▁ㅎㅜㄴ	-1175
▁ㅂㅕㄴㄱㅕㅇ	-1176
▁ㄱㅕㄹㅎㅗㄴ	-1177
▁ㅅㅏㅇㅎㅘㅇ	-1178
ㄱㅗㅅ	-1179
▁ㄱㅜㄱㅎㅚ	-1180
ㄷㅓㄴ	-1181
▁ㅈㅜㅇㅎㅏㄱㄱㅛ	-1182
ㅅㅔㄴ	-1183
ㅇㅓㅁ	-1184
▁2020	-1185
▁ㅇㅗㄹ	-1186
▁190	-1187
ㅇㅔㄹ	-1188
▁ㅇㅣㄴㅁㅣㄴㄱㅗㅇㅎㅘ	-1189
▁ㅇㅣㄴㅁㅜㄹ	-1190
ㄲㅜ	-1191
▁ㅅㅡㄹ	-1192
▁ㅂㅕㄴㅎㅘ	-1193
ou	-1194
▁ㄱㅜㅇ	-1195
ㄹㄹㅓ	-1196
▁ㅇㅘㄴㅈㅓㄴ	-1197
ㅎㅡ	-1198
▁ㅌㅏㅂ	-1199
ㅇㅕㄱㅅㅣ	-1200
▁ㄴㅏㅈ	-1201
ㅋㅛ	-1202
▁ㅁㅐㄱ	-1203
ㄹㅔㄴ	-1204
▁ㅈㅜㅇㅎㅘ	-1205
ㄱㅌㅡ	-1206
▁ㅎㅏㄱㅅㅐㅇ	-1207
▁ㅈㅓㄴㄱㅜㄱ	-1208
▁ㅁㅗㄹ	-1209
ㄱㅜㄹ	-1210
▁ㄱㅕㅁ	-1211
▁ㅅㅣㄹㅈㅔ	-1212
▁ㅇㅕㄱㅅㅣ	-1213
▁ㅅㅣㄹㅅㅣ	-1214
▁ㄱㅕㄴ	-1215
ㄱㅏㄹ	-1216
ㅌㅏㅇ	-1217
ㅌㅣㅇ	-1218
▁ㅇㅗㄱ	-1219
ㄹㅐㄴ	-1220
▁ㅇㅝㄴㄹㅐ	-1221
▁ㅅㅣㅇㄱㅡㄹ	-1222
▁2002	-1223
▁ㅁㅏㄴㄴㅏ	-1224
▁ㅇㅣㄹㅇㅡ	-1225
▁ㄴㅗㅍㅇㅣ	-1226
▁ㅎㅗㄱ	-1227
▁ㅂㅐㄴㄷㅡ	-1228
▁ㅍㅏㄴㅁㅐ	-1229
ㅇㅜㄴㄷㅡ	-1230
ㄱㅜㅇ	-1231
▁ㅈㅓㄴㅌㅗㅇ	-1232
ㅎㅘㄱ	-1233
▁ㅂㅣㄹ	-1234
▁ㄸㅏㄹ	-1235
▁ㅅㅡㅇㄱㅏㅇ	-1236
▁ㅌㅚ	-1237
▁ㅌㅏㅁ	-1238
▁2003	-1239
▁ㅎㅘㅇㅈㅔ	-1240
▁ㅇㅜㄴㅎㅐㅇ	-1241
▁40	-1242
ㅂㅣㄴ	-1243
▁ㅅㅔㄴㅌㅓ	-1244
▁ㅇㅓㅄㅇㅣ	-1245
▁ㄹㅗㄴ	-1246
▁ㅁㅕㅇㅊㅣㅇ	-1247
▁ㅇㅓㅁ	-1248
▁ㅈㅓㄴㄱㅣ	-1249
▁ㅁㅡ	-1250
▁ㅈㅗㅇㄱㅛ	-1251
ㅊㅗㄴ	-1252
ㄸㅓㄴ	-1253
▁ㅁㅠ	-1254
le	-1255
▁ㅋㅓㅂ	-1256
mp	-1257
▁ㅎㅘㄴㄱㅕㅇ	-1258
ㅈㅚ	-1259
▁ㅈㅓㄴㄹㅏ	-1260
▁ㅈㅓㄴㅈㅏ	-1261
▁ㅌㅡㄱㅈㅣㅇ	-1262
ㅇㅗㄱ	-1263
ㅌㅡㄱ	-1264
ㅍㅠ	-1265
▁ㅍㅜㄹ	-1266
▁ㅂㅜㄴㅇㅑ	-1267
▁=	-1268
▁ㄱㅓㄹㅊㅣ	-1269
ㅇㅜㄱ	-1270
▁ㅎㅟ	-1271
ㅅㅐ	-1272
▁ㄴㅏㅁㅈㅏ	-1273
▁ㄲㅜ	-1274
▁ㄱㅔㅆ	-1275
ㄲㅡㄹ	-1276
ㄹㅐㄱ	-1277
▁ㄷㅗㅇㅁㅜㄹ	-1278
▁ㅇㅕㅁ	-1279
ㅈㅟ	-1280
▁ㅇㅕㄴㅂㅏㅇ	-1281
▁ㅅㅡㅇㄱㅏㅇㅈㅏㅇ	-1282
ㅓㄹㄹㅣ	-1283
▁ㄱㅗㅇㅇㅕㄴ	-1284
▁ㄴㅏㅁㅉㅗㄱ	-1285
▁ㅂㅜㄱㅉㅗㄱ	-1286
▁ㅅㅓㄴㅈㅓㅇ	-1287
▁ㅉㅏ	-1288
ㅅㅜㄱ	-1289
ㄹㅕㄹ	-1290
▁ㅊㅜㄹㅅㅣ	-1291
▁ㅅㅜㄱ	-1292
▁ㄴㅓㄼ	-1293
▁ㅇㅕㄱㅇㅣㅁ	-1294
ㄴㄷㅔ	-1295
ㄷㅗㅇㅊㅏ	-1296
ㄴㅠ	-1297
▁ㅈㅏㄱㅇㅛㅇ	-1298
ㅌㅏㄱ	-1299
▁ㅈㅏㄱㅇㅓㅂ	-1300
▁ㅌㅗㅇㅎㅏㅂ	-1301
▁ㅋㅡㄹㄹㅓㅂ	-1302
▁ㅅㅓㄹㅁㅕㅇ	-1303
▁ㅂㅏㅇㅎㅑㅇ	-1304
ㅎㅛ	-1305
▁ㅇㅕㄹㅊㅏ	-1306
ㅈㅏㅂ	-1307
▁ㅋㅓㅁㅍㅠ	-1308
ㅅㅡㅅ	-1309
▁ㅁㅜㄴㅎㅏㄱ	-1310
▁ㅇㅗㄻ	-1311
▁ㅈㅏㄱㄱㅏ	-1312
ㅂㅔㄹ	-1313
ㅎㅜㄴ	-1314
▁ㅈㅡㅇㄱㅏ	-1315
▁ㅎㅕㅇㅅㅣㄱ	-1316
▁ㅊㅏㄱ	-1317
▁ㅎㅐㅇㄷㅗㅇ	-1318
▁ㄱㅜㄱㄴㅐ	-1319
▁ㅅㅣㅂ	-1320
ㄷㅗㄱㄱㅛ	-1321
▁ㄹㅓㄴ	-1322
▁FI	-1323
▁ㄴㅡㅇㄹㅕㄱ	-1324
▁ㅈㅏㄱㄱㅗㄱ	-1325
▁ㅎㅘㄱㅇㅣㄴ	-1326
ㅇㅘㄴ	-1327
ㅇㅔㄴ	-1328
ㅎㅕㅂ	-1329
BC	-1330
▁ㅁㅗㅇ	-1331
▁ㅎㅐㅇㅇㅟ	-1332
▁ㅎㅕㅂㅎㅚ	-1333
▁ㅎㅕㄱㅁㅕㅇ	-1334
▁ㅇㅏㄹㄹㅔ	-1335
▁ㅈㅡ	-1336
▁ㅇㅘㅇㄱㅜㄱ	-1337
▁ㄱㅜㄴㄷㅐ	-1338
ㄷㅡㄹㅇㅣ	-1339
▁ㄴㅏㄱ	-1340
ㅁㅗㄴ	-1341
ㄴㅔㅅ	-1342
▁ㅇㅗㄻㄱㅣ	-1343
ㄷㅡㅁ	-1344
ㅁㅂㅓ	-1345
▁ㄴㅏㅁㅂㅜ	-1346
▁ㄷㅡㄱ	-1347
▁ㅎㅗㄱㅇㅡㄴ	-1348
ㅂㅕㄱ	-1349
▁p	-1350
▁ㅇㅠㄱㄱㅜㄴ	-1351
▁ㅅㅐㅇㄱㅣ	-1352
▁ㄱㅏㅈㅊㅜ	-1353
ㅅㅣㅇ	-1354
▁ㄱㅏㅇㅎㅏ	-1355
▁ㅎㅡㅇ	-1356
▁ㄷㅗㅇㅉㅗㄱ	-1357
▁2001	-1358
▁X	-1359
ㄷㅔㄴ	-1360
▁ㄷㅏㅁㄷㅏㅇ	-1361
▁1990	-1362
▁ㅎㅡㄴ	-1363
▁ㄷㅗㅇㅇㅣㄹ	-1364
▁ㅊㅜㅇㅊㅓㅇ	-1365
ㅌㅠ	-1366
▁ㅂㅣㄴ	-1367
ㅋㅔㅅ	-1368
▁ㄱㅏㅂ	-1369
▁ㅈㅏㅇㄱㅘㄴ	-1370
▁ㄱㅓㄴㅊㅜㄱ	-1371
▁ㅎㅚㄱ	-1372
ㅇㅣㄹㄹㅣ	-1373
ㅌㅓㄹ	-1374
▁ㅁㅜㄹㄹㅣ	-1375
▁ㄱㅗㅇㅅㅏ	-1376
▁189	-1377
▁ㅈㅟ	-1378
ㅊㅐ	-1379
▁ㄱㅗㅇㅅㅏㄴ	-1380
▁ㅊㅐㅁㅍㅣ	-1381
ㅁㅐㄱ	-1382
▁ㅇㅣㄴㄱㅣ	-1383
ㅋㅏㄴ	-1384
▁d	-1385
▁ㄴㅓㅎ	-1386
▁ㅂㅏㅇㅇㅕㅇ	-1387
▁ㅍㅜㅁ	-1388
▁ㅈㅓㅇㄷㅏㅇ	-1389
ㄷㅜㅇ	-1390
ㅂㅏㄷ	-1391
▁ㅇㅐㄱ	-1392
ㅋㅓㄹ	-1393
ㅈㅘ	-1394
ㅌㅔㄴ	-1395
▁ㅉㅗㄱ	-1396
▁ㅅㅓㅇㅈㅏㅇ	-1397
▁ㅂㅗㄹ	-1398
▁ㄱㅜㄱㄹㅣㅂ	-1399
▁ㄱㅚ	-1400
▁ㅎㅡㄱ	-1401
▁ㄱㅗㅇㅎㅏㅇ	-1402
▁ㅈㅓㄱㅇㅛㅇ	-1403
▁ㅁㅐㄴ	-1404
▁ㅊㅣㅇ	-1405
▁ㄹㅗㄱ	-1406
▁ㅈㅣㅇ	-1407
▁FIFA	-1408
et	-1409
ㅇㅐㄱ	-1410
el	-1411
▁ㅈㅏㄴ	-1412
▁ㅆㅏㅇ	-1413
▁ㄷㅓㄱ	-1414
▁ㅅㅏㅇㄷㅏㅇ	-1415
▁ㄸㅏㅇ	-1416
▁ㅈㅗㅇㄹㅠ	-1417
▁ㅇㅜㅁ	-1418
▁ㅋㅓㄴ	-1419
▁ㅍㅣㄹㄹㅣ	-1420
ㅁㅡ	-1421
ㄹㅣㅇ	-1422
ㄲㅏㅂ	-1423
▁ㄷㅗㄴ	-1424
▁ㅂㅏㄴㅇㅡㅇ	-1425
▁ㄱㅗㄷ	-1426
▁ㅈㅏㄱㅈㅓㄴ	-1427
ㄴㅣㅇ	-1428
▁ㅌㅡㄱㅈㅓㅇ	-1429
ㅡㄹㄹㅣㄴ	-1430
▁ㅇㅟㄴ	-1431
ion	-1432
ㅇㅝㄴㅈㅓㄴ	-1433
ㅊㅟ	-1434
▁ㅂㅜㄱㅂㅜ	-1435
ㄴㅑ	-1436
▁ㅅㅓㄴㅊㅜㄹ	-1437
▁ㅇㅕㄴㄱㅣ	-1438
▁ㅅㅓㄴㅇㅓㄴ	-1439
▁ㅁㅔㅁㅂㅓ	-1440
▁ㅅㅗㄱㄷㅗ	-1441
▁ㅇㅕㄴㅅㅗㄱ	-1442
▁ㅇㅕㅇㅇㅓ	-1443
▁ㅅㅟㅂ	-1444
▁ㅇㅕㄴㅈㅜ	-1445
▁ㅇㅣㄴㅊㅓㄴ	-1446
ㅈㅡㅁ	-1447
ㄷㅣㅇ	-1448
▁ㅇㅖㅅ	-1449
▁ㅅㅣㄹㅍㅐ	-1450
ㅇㄱㅡㄹㄹㅐㄴㄷㅡ	-1451
ing	-1452
▁ㅎㅓㄴㅂㅓㅂ	-1453
▁ㅅㅓㄴㅌㅐㄱ	-1454
▁ㄱㅕㄹㅅㅡㅇ	-1455
▁ㄹㅣㅇ	-1456
▁ㅇㅕㄴㄷㅐ	-1457
▁ㅎㅏㅁㅅㅜ	-1458
21	-1459
▁ㅅㅓㄹㄱㅖ	-1460
ol	-1461
ㅍㅣㄴ	-1462
▁1999	-1463
▁ㅂㅔㄹ	-1464
ㅌㅔㄹ	-1465
▁ㄱㅗㅇㄹㅣㅂ	-1466
▁ㄷㅏㄹㄹㅓ	-1467
▁ㄷㅏㄴㄱㅖ	-1468
▁ㅇㅙ	-1469
▁cm	-1470
▁ㅁㅜㄹㅈㅣㄹ	-1471
▁1998	-1472
▁o	-1473
▁ㅍㅕㅇㄱㅠㄴ	-1474
▁ㅊㅜㄹㅍㅏㄴ	-1475
ㄹㅡㄹ	-1476
▁ㄱㅘㄴㅎㅏㄹ	-1477
▁ㄱㅗㅇㅇㅝㄴ	-1478
ㄹㅡㅇ	-1479
▁ㅊㅓㄱ	-1480
▁ㅂㅏㅁ	-1481
ㅇㅓㄹ	-1482
▁ㅁㅕㅇㄹㅕㅇ	-1483
▁Y	-1484
ㄱㅣㄹ	-1485
ㄹㅛㅇ	-1486
▁ㅈㅓㅇㅅㅣㄴ	-1487
▁ㅇㅣㅇㄱㅡㄹㄹㅐㄴㄷㅡ	-1488
ㄷㅓㄹ	-1489
▁ㅇㅣㅂㄷㅏㄴ	-1490
▁ㅂㅜㄴㅅㅓㄱ	-1491
▁ㅊㅣㄴㄱㅜ	-1492
▁ㅁㅓㄴ	-1493
▁ㅅㅜㄹ	-1494
▁ㄴㅡㄴㅈㅣ	-1495
ㅌㅗㄴ	-1496
ㅅㅕ	-1497
▁1980	-1498
▁ㅅㅣㅇ	-1499
ㄷㅏㅂ	-1500
ㅍㅖ	-1501
▁ㅎㅚㄱㄷㅡㄱ	-1502
ㄹㅚ	-1503
▁mm	-1504
▁ㅁㅜㄴㅈㅏ	-1505
▁ㅆㅣㄱ	-1506
▁ㄱㅏㅇㅎㅘ	-1507
ㅊㅓㄱ	-1508
▁60	-1509
▁ㅂㅜㄴㄹㅣ	-1510
▁35	-1511
▁ㄲㅗㅊ	-1512
ㄱㅘㅇㅇㅕㄱㅅㅣ	-1513
▁n	-1514
ㅌㅡㄴ	-1515
▁ㅂㅜㄱㅎㅏㄴ	-1516
▁ㄹㅗㅂ	-1517
▁ㅎㅘㄱㅈㅏㅇ	-1518
ㅅㅙ	-1519
▁ㅂㅓㅂㅇㅝㄴ	-1520
ㅉㅐ	-1521
▁ㄴㅏㅁㄱㅣ	-1522
▁ㅈㅣㅂㄷㅏㄴ	-1523
▁ㅇㅝㄴㅈㅏ	-1524
▁ㅍㅐㄴ	-1525
▁ㅇㅣㄹㅈㅗㅇ	-1526
ㄹㅐㅅ	-1527
ㅍㅗㄴ	-1528
▁ㅇㅓㄴㄱㅡㅂ	-1529
▁ㅇㅞㅂ	-1530
▁ㅎㅕㄴㅅㅏㅇ	-1531
ㅅㅑ	-1532
▁ㅈㅓㅇㄱㅠ	-1533
▁ㄱㅗㄴ	-1534
ㅇㅡㅂ	-1535
▁ㄱㅣㄹㅇㅣ	-1536
ㄲㅟ	-1537
▁ㅁㅐㅈ	-1538
ㅅㅓㅅ	-1539
▁ㅇㅔㄴㅈㅣㄴ	-1540
▁ㅅㅣㄹㅎㅓㅁ	-1541
▁ㅍㅕㄴㅅㅓㅇ	-1542
om	-1543
▁ㅅㅓㄴㅂㅏㄹ	-1544
▁ㄱㅘㄴㅅㅣㅁ	-1545
▁ㅌㅗㅇㅇㅣㄹ	-1546
▁ㅂㅗㄴㅅㅓㄴ	-1547
ㅇㅠㄴ	-1548
▁ㅁㅗㄱㅍㅛ	-1549
▁ㅌㅗㅇㅅㅣㄴ	-1550
▁ㅂㅜㄹㄱㅛ	-1551
▁ㅇㅏㅇ	-1552
▁ㅈㅏㅇㄱㅜㄴ	-1553
▁ㅂㅔㄴ	-1554
ㅆㅏ	-1555
ㄷㅓㄹㄹㅏㄴㄷㅡ	-1556
ㄷㅚ	-1557
▁1997	-1558
ㅎㅖ	-1559
▁ㅇㅣㅅ	-1560
ㅈㅔㄱㅌㅡ	-1561
▁ㅈㅏㅇㅊㅣ	-1562
▁ㅁㅜㄴㅅㅓ	-1563
▁ㄷㅔㄴ	-1564
▁ㄱㅘㅇㅈㅜ	-1565
ㅇㅣㄹㄹㅐㄴㄷㅡ	-1566
▁ㄱㅕㄹㅎㅏㅂ	-1567
st	-1568
▁ㅎㅏㄱㅈㅏ	-1569
▁ㅎㅏㄹ	-1570
ㄲㅗ	-1571
▁ㅎㅐㅇㅅㅏ	-1572
ㅌㅡㄱㅂㅕㄹ	-1573
▁ㅈㅓㅁㄹㅕㅇ	-1574
ㅁㅛ	-1575
ㄱㅏㅂ	-1576
▁ㅅㅖ	-1577
▁1995	-1578
▁ㅇㅔㄹ	-1579
▁ㅎㅕㄹ	-1580
ㄱㅅㅣ	-1581
▁ㅉㅣ	-1582
▁1996	-1583
▁ㅁㅗㄴ	-1584
ㅕㅁ	-1585
▁The	-1586
▁ㅇㅏㄴㅈㅓㅇ	-1587
▁ㅈㅓㅇㄹㅣ	-1588
▁amp	-1589
▁ㅇㅠㄹ	-1590
▁ㄷㅗㅇㅁㅐㅇ	-1591
▁ㅎㅑㅇㅎㅏ	-1592
▁ㅇㅛㅇㅇㅓ	-1593
ㅂㅔㄴ	-1594
ㅌㅗㄹㄹㅣ	-1595
▁ㅋㅐㅁ	-1596
▁32	-1597
▁ㅇㅣㅀ	-1598
▁ㅅㅣㄴㅁㅜㄴ	-1599
▁ㅇㅓㄴㄹㅗㄴ	-1600
▁ㅈㅓㅇㅎㅏ	-1601
▁ㄱㅏㅄ	-1602
▁ㅊㅗㄱ	-1603
ㄹㅓㅎㄱㅔ	-1604
▁70	-1605
▁ㄱㅣㅍ	-1606
▁ㅇㅣㄹㅈㅔ	-1607
▁ㅇㅡㄴㅌㅚ	-1608
▁ㅁㅕㄴㅈㅓㄱ	-1609
▁ㅂㅣㅊ	-1610
ㅎㅓ	-1611
▁ㅂㅏㅇㅁㅜㄴ	-1612
▁ㄲㅡㅌㄴㅏ	-1613
ㄲㅡ	-1614
▁ㅊㅐㄱㅇㅣㅁ	-1615
▁ㅌㅗㅇㄱㅘ	-1616
▁ㅍㅗㄹㄹㅏㄴㄷㅡ	-1617
▁ㅍㅣㄴ	-1618
▁ㄴㅓㄹㄹㅣ	-1619
▁ㄴㅡㄹ	-1620
▁ㅈㅗㅇㅎㅏㅂ	-1621
▁ㅇㅘㅇㅈㅗ	-1622
▁ㅈㅓㅇㅎㅘㄱ	-1623
▁the	-1624
ㄴㅡㄹㄴㅏㄹ	-1625
▁ㅁㅏㄴㅎㅘ	-1626
am	-1627
ㅇㅣㄴㅌㅡ	-1628
▁ㄹㅓㄴㄷㅓㄴ	-1629
▁ㅈㅓㅂㅎㅏ	-1630
▁ㅈㅜㄴㅂㅣ	-1631
▁ㅂㅕㅇㅇㅝㄴ	-1632
▁500	-1633
ㅋㅠ	-1634
▁ㅁㅕㄹ	-1635
▁ㅈㅓㅇㄱㅝㄴ	-1636
▁ㅅㅓㅇㅈㅓㄱ	-1637
▁ㅂㅓㄴㅎㅗ	-1638
▁ㄲㅣ	-1639
ㄴㅟ	-1640
▁ㅍㅕㅇㅎㅘ	-1641
▁ㄷㅡㅅ	-1642
▁ㅅㅣㄴㄹㅏ	-1643
▁ㅅㅡㅂ	-1644
ㅇㅓㅆ	-1645
▁80	-1646
▁ㄱㅕㅇㅎㅓㅁ	-1647
▁ㅇㅝㄴㅇㅣㄴ	-1648
▁ㅇㅔㄹㄹㅣ	-1649
▁ㅇㅗㄹㄹㅏ	-1650
▁+	-1651
ㄸㅓ	-1652
▁ㅇㅕㄴㅁㅐㅇ	-1653
il	-1654
ㅅㅣㅂ	-1655
▁ㅊㅗㅇㄹㅣ	-1656
▁188	-1657
▁UE	-1658
▁ㅊㅏㄴ	-1659
▁ㅊㅡ	-1660
ㅊㅣㄴ	-1661
▁ㅂㅜㄹㄱㅜ	-1662
▁1994	-1663
▁ㅎㅜㄴㄹㅕㄴ	-1664
▁ㅇㅕㅇㅇㅕㄱ	-1665
▁ㄱㅞ	-1666
ㄹㅣㄱ	-1667
▁ㅌㅗㅇㅊㅣ	-1668
▁ㄷㅗㅇㅂㅜ	-1669
▁ㅎㅗㄹ	-1670
▁UEFA	-1671
ㄷㅡㅁㅎㅐ	-1672
▁ㄲㅐ	-1673
▁ㄱㅏㅇㅇㅝㄴ	-1674
ac	-1675
▁ㄱㅕㅇㄱㅖ	-1676
▁ㄱㅕㅇㅈㅐㅇ	-1677
▁ㄱㅕㅇㅇㅕㅇ	-1678
ㅋㅗㅇ	-1679
▁ㄲㅡㄹ	-1680
▁ㅍㅗㄴ	-1681
▁ㅅㅐㅇㅁㅜㄹ	-1682
▁ㅅㅏㅁㅅㅓㅇ	-1683
▁ㅂㅏㅇㅇㅓ	-1684
▁ㅂㅏㄱㅁㅜㄹ	-1685
▁ㅁㅣㄷ	-1686
▁1970	-1687
▁ㄷㅡㅇㄹㅗㄱ	-1688
▁KBS	-1689
▁ㅂㅏㄹㅅㅏ	-1690
▁ㅂㅓㅂㄹㅠㄹ	-1691
▁ㅎㅐㅇㅅㅓㅇ	-1692
▁ㅇㅣㄱ	-1693
ㅎㅔㄴ	-1694
ㅇㅣㅁㅅㅡ	-1695
▁ㄴㅏㅁㅅㅓㅇ	-1696
▁ㅈㅓㅇㅅㅏㅇ	-1697
ㅁㅣㅇ	-1698
ㅉㅣ	-1699
▁ㅅㅣㄱㅁㅣㄴ	-1700
ro	-1701
▁ㅂㅏㄹㄷㅏㄹ	-1702
▁ㅋㅡㄹㄹㅏ	-1703
▁1992	-1704
▁ㅈㅓㅇㅅㅣㄱ	-1705
▁ㅇㅘㄴㅈㅓㄴㅎㅣ	-1706
ㅌㅗㄹㄹㅣㄱ	-1707
▁ㄱㅕㄹㅅㅓㅇ	-1708
ed	-1709
▁ㄱㅡㅁㅈㅣ	-1710
▁ㅈㅜㄱㅇㅣ	-1711
▁ㄴㅚ	-1712
▁ㅈㅣㅂㅎㅏㅂ	-1713
▁45	-1714
▁ㅇㅟㄹㄹㅣ	-1715
▁ㅇㅓㅂㅁㅜ	-1716
ㄴㅣㅁ	-1717
▁ㅂㅜㅌㅇㅣ	-1718
▁ㅇㅣㅂㅈㅏㅇ	-1719
▁ㅂㅏㄱㅁㅜㄹㄱㅘㄴ	-1720
▁ㄷㅗㅂ	-1721
▁of	-1722
ㄸㅡ	-1723
▁ㅂㅕㄱ	-1724
ㅅㅏㅁ	-1725
ㅋㅡㅁ	-1726
▁ㅇㅡㄴㅎㅐㅇ	-1727
▁ㅈㅓㅂㄱㅡㄴ	-1728
ㅊㅏㄴㄱㅏ	-1729
▁ㅂㅓㄹㅇㅣ	-1730
▁ㅉㅏㄼ	-1731
▁36	-1732
▁ㅍㅕㄹ	-1733
▁ㅇㅕㅇㅌㅗ	-1734
▁ㄱㅜㄹ	-1735
▁ㅂㅏㄱㅅㅏ	-1736
ㅅㅓㅂ	-1737
▁ㅇㅏㄹㄹㅔㄱ	-1738
ig	-1739
▁ㅇㅣㅁㅅㅣ	-1740
▁ㅇㅣㄴㅅㅣㄱ	-1741
▁ㅇㅜㅁㅈㅣㄱ	-1742
ㄷㅠ	-1743
▁ㄱㅗㅇㅈㅏㄱ	-1744
ㅁㅔㄴ	-1745
ㄴㄱㅏ	-1746
ㅌㅏㅂ	-1747
ㄹㄹㅣㄴ	-1748
▁ㅈㅏㅇㅇㅐ	-1749
ㅂㅗㄹ	-1750
▁ㅂㅏㄴㅁㅕㄴ	-1751
▁ㅊㅓㄹㅎㅏㄱ	-1752
ㅁㅕㄹ	-1753
ㅋㅣㅇ	-1754
ㅇㅠㅇ	-1755
▁1991	-1756
▁ㅅㅏㅇㅎㅗ	-1757
▁ㅂㅗㄱㄱㅟ	-1758
ㅌㅡㄱㅂㅕㄹㅅㅣ	-1759
▁ㅈㅏㅇㅅㅗ	-1760
▁ㅇㅕㄴㄱㅡㄱ	-1761
▁ㅅㅣㄱㅁㅜㄹ	-1762
▁1960	-1763
ㅇㅜㅇ	-1764
ㅇㅜㄹㅌㅡㄱㅂㅕㄹㅅㅣ	-1765
▁ㅂㅜㄴㅍㅗ	-1766
▁ㅂㅏㄷㅇㅏ	-1767
▁ㄱㅓㅁㅅㅏ	-1768
ㅁㅠ	-1769
▁1993	-1770
▁ㅅㅓㅇㄱㅕㄱ	-1771
▁ㄱㅘㄴㅊㅡㄱ	-1772
▁ㄴㅗㄴㄹㅏㄴ	-1773
ㅁㅕㄴㅅㅓ	-1774
▁ㅊㅏㅈㅇㅏ	-1775
od	-1776
▁33	-1777
▁ㅍㅔㄴ	-1778
▁ㄱㅕㅇㅅㅏㅇㄴㅏㅁㄷㅗ	-1779
▁ㅂㅣㄱ	-1780
ㅈㅏㄴ	-1781
▁ㅍㅡㄹㄹㅏ	-1782
ㅍㅗㄱ	-1783
▁ㅂㅏㄹㅎㅐㅇ	-1784
▁ㄸㅣ	-1785
▁ㅎㅘㄹㅇㅛㅇ	-1786
▁ㅅㅡㅂㄴㅣ	-1787
▁ㅇㅟㄴㄷㅗ	-1788
ㅎㅗㅇ	-1789
▁ㄱㅡㄴㅊㅓ	-1790
ㅎㅗㄱ	-1791
▁ㄱㅕㅇㅅㅏㅇㅂㅜㄱㄷㅗ	-1792
▁ㄷㅏㄴㅅㅜㄴ	-1793
ㄱㅜㄱㅇㅣㄴ	-1794
▁ㅇㅏㄴㅈㅓㄴ	-1795
▁ㅈㅜㅇㄱㅏㄴ	-1796
as	-1797
▁ㄷㅡㄱㅈㅓㅁ	-1798
▁ㄹㅑㅇ	-1799
▁ㄱㅣㄴ	-1800
▁ㄷㅏㄴㅇㅓ	-1801
ve	-1802
▁ㅎㅕㅇㅈㅔ	-1803
ㅅㅗㄱㄷㅗ	-1804
▁186	-1805
▁ㅂㅜㅇ	-1806
▁ㅎㅡㅂ	-1807
▁ㅇㅣㄴㅅㅏ	-1808
▁ㅊㅗㅇㅅㅓㄴ	-1809
ㄹㅣㄱㅌㅓ	-1810
▁ㅈㅜㅇㄷㅏㄴ	-1811
ㅋㅗㄴ	-1812
▁ㅅㅐㅇㅅㅓㅇ	-1813
▁ㄱㅘㄴㄱㅘㅇ	-1814
▁ㄱㅏㅇㄹㅕㄱ	-1815
ㄷㅓㅁ	-1816
▁ㅋㅟ	-1817
▁ㅅㅜㄴㅇㅟ	-1818
▁ㅎㅖ	-1819
▁ㅈㅓㄴㅅㅣ	-1820
▁ㅂㅗㄴㅂㅜ	-1821
▁ㅂㅓㄴㅇㅕㄱ	-1822
ㅇㅝㄴㅈㅏㅇ	-1823
▁ㄱㅡㄴㄱㅓ	-1824
▁ㅇㅣㄹㅈㅓㅇ	-1825
▁ㅎㅕㅂㄹㅕㄱ	-1826
ㄱㅕ	-1827
▁ㄱㅝㄴㄹㅕㄱ	-1828
▁",	-1829
▁1988	-1830
▁ㅂㅏㄴㄹㅏㄴ	-1831
▁ㅊㅗㄴ	-1832
▁ㅇㅕㄴㅈㅏㅇ	-1833
▁ㅁㅔㄱㅅㅣ	-1834
▁ㅇㅝㄴㅅㅗ	-1835
▁ㅁㅏㅈㅊㅜ	-1836
▁ㄱㅗㅇㅈㅏㅇ	-1837
ㅈㅓㄴㅈㅏ	-1838
ㅁㅏㄶ	-1839
▁ㅁㅓㄴㅈㅓ	-1840
ㅘㄹ	-1841
▁ㄷㅗㅇㅅㅐㅇ	-1842
▁ㅇㅗㅇ	-1843
▁187	-1844
ㄱㅗㄴ	-1845
▁ㅎㅏㄱㅇㅟ	-1846
▁ㅁㅏㄴㅋㅡㅁ	-1847
▁ㅈㅜㄱㅇㅡㅁ	-1848
▁ㄱㅡㄱㅈㅏㅇ	-1849
▁ㅇㅑㅇㅅㅣㄱ	-1850
▁ㅈㅗㅇㅁㅗㄱ	-1851
▁ㄱㅏㅁㅅㅗ	-1852
▁ㄱㅡㄴㅁㅜ	-1853
▁ㅅㅏㅇㅈㅣㅇ	-1854
ㅇㅓㅄ	-1855
id	-1856
▁ㄹㅔㄴ	-1857
▁ㅈㅚ	-1858
▁ㄷㅏㄴㅇㅟ	-1859
ㅇㅓㄱ	-1860
▁2021	-1861
▁ㅇㅕㅇㅅㅏㅇ	-1862
▁ㅅㅏㅇㅇㅓㅂ	-1863
ㅇㅏㄹ	-1864
▁ㄱㅠㄴ	-1865
▁ㅅㅏㄻ	-1866
▁ㅊㅘㄹ	-1867
▁34	-1868
ec	-1869
▁ㄷㅠ	-1870
ㅇㅣㄴㄱㅗㅇ	-1871
▁ㅅㅓㅇㄹㅣㅂ	-1872
▁ㅎㅘㄱㄷㅐ	-1873
▁ㅇㅕㅍ	-1874
▁ㄷㅗㅇㄱㅖ	-1875
▁ㅂㅓㄹㅇㅓ	-1876
▁38	-1877
▁ㅎㅕㅁ	-1878
▁ㅅㅡㅇㄱㅕㄱ	-1879
▁ㄷㅏㄹㅅㅓㅇ	-1880
▁ㄱㅕㄲ	-1881
ㅁㅗㅇ	-1882
▁ㅂㅗㄴㄱㅘㄴ	-1883
▁1989	-1884
ㅎㅕㄹ	-1885
ㅇㅜㅅ	-1886
▁ㅌㅗㄴ	-1887
▁ㅌㅡㄱㅅㅜ	-1888
▁ㅅㅜㅁ	-1889
▁ㅇㅘㄴㅅㅓㅇ	-1890
▁90	-1891
and	-1892
▁ㅊㅘㄹㅇㅕㅇ	-1893
▁ㅎㅗㅇㅋㅗㅇ	-1894
▁48	-1895
▁ㅇㅏㄹㄹㅔㄱㅅㅏㄴ	-1896
us	-1897
▁ㄱㅜㄱㅇㅘㅇ	-1898
▁?	-1899
▁ㅈㅓㄴㄹㅑㄱ	-1900
▁ㄱㅓㄹㄹㅣ	-1901
ㅍㅕㅇㅇㅑㅇ	-1902
▁e	-1903
▁ㅈㅣㅅ	-1904
ㅈㅣㅂㅌㅡ	-1905
▁h	-1906
ㅈㅕ	-1907
▁ㄹㅠㄹ	-1908
ㅁㅕㅊ	-1909
▁ㅁㅕㅊㅁㅕㅊ	-1910
▁ㄷㅡㄷ	-1911
▁ㄷㅏㅇㅅㅓㄴ	-1912
▁ㅅㅣㄱㅁㅣㄴㅈㅣ	-1913
▁ㅃㅐ	-1914
▁ㄴㅣㅁ	-1915
▁ㄹㅣㄴ	-1916
ㄷㅗㅇㅈㅏ	-1917
▁ㅈㅓㄴㄷㅏㄹ	-1918
▁ㅊㅡㄱㅈㅓㅇ	-1919
▁ㅁㅣㅌ	-1920
▁ㄴㅏㅎ	-1921
▁ㄱㅝㄴㄹㅣ	-1922
▁ㅅㅓㄹㅈㅓㅇ	-1923
▁|	-1924
▁ㅁㅐㅇ	-1925
▁ㅊㅜㄹㅅㅐㅇ	-1926
▁ㅊㅣㄹ	-1927
▁MBC	-1928
ent	-1929
▁ㅅㅏㅇㅎㅏ	-1930
ad	-1931
ㅍㅜㄹ	-1932
▁ㅅㅐㅇㅁㅕㅇ	-1933
▁ㅈㅡㄹ	-1934
▁ㅈㅣㄱㅎㅜ	-1935
▁ㅋㅗㄹ	-1936
ㅐㅇㅋㅡ	-1937
▁1950	-1938
▁ㅆㅏㅎ	-1939
▁ㄱㅕㄹㅅㅡㅇㅈㅓㄴ	-1940
▁300	-1941
▁ㅈㅗㅇㄹㅛ	-1942
▁ㅊㅜㄴ	-1943
▁ㅌㅡㄱㅅㅓㅇ	-1944
▁ㅅㅓㅇㅇㅜ	-1945
NA	-1946
▁ㅈㅓㄴㅎㅘㄴ	-1947
▁ㅇㅡㄴㅎㅏ	-1948
ㅈㅔㄴ	-1949
▁ㅅㅣㄴㄱㅕㅇ	-1950
ㄹㅗㅇ	-1951
▁ㅊㅓㅇㄴㅕㄴ	-1952
▁',	-1953
▁ㅈㅓㄻ	-1954
▁ㄴㅏㅂ	-1955
▁ㅇㅡㅁㅅㅣㄱ	-1956
▁ㅍㅕㄹㅊㅣ	-1957
▁ㄱㅘㄴㅊㅏㄹ	-1958
▁1945	-1959
ㅊㅜㄴ	-1960
ㅎㅐㄱ	-1961
▁ㅂㅡㄹㄹㅜ	-1962
▁ㄷㅏㄹㅎㅏ	-1963
▁ㅂㅓㅁㅈㅚ	-1964
ㅅㅡㄹㄹㅣ	-1965
▁ㅈㅡㄱㅇㅟ	-1966
▁ㅍㅏㄴㄷㅏㄴ	-1967
ㅇㅕㅂ	-1968
▁ㅁㅕㅇㄷㅏㄴ	-1969
▁ㅎㅓㅇ	-1970
ㅂㅠ	-1971
50	-1972
▁ㅈㅓㄴㅊㅏ	-1973
▁ㅇㅣㄴㄱㅡㄴ	-1974
▁ㄱㅕㅇㅈㅜ	-1975
▁ㅅㅣㅍ	-1976
▁ㄱㅗㅇㄱㅜㄴ	-1977
▁ㄴㅏㅁㅂㅜㄱ	-1978
▁ㅂㅗㄴㄹㅐ	-1979
▁x	-1980
▁ㄱㅗㅇㄱㅡㅂ	-1981
▁ㄱㅗㅇㅂㅜ	-1982
▁ㄴㅗㄱㅇㅡㅁ	-1983
▁ㅇㅏㅆㅇㅓㅆ	-1984
ㅂㅡㄴ	-1985
▁ㅊㅜㅇㄷㅗㄹ	-1986
▁ㅁㅕㅇㅇㅖ	-1987
▁ㄱㅏㅁㅇㅕㅁ	-1988
▁ㅇㅜㄹㅅㅏㄴ	-1989
▁ㄱㅓㄴㄱㅏㅇ	-1990
ㅊㅓㄹㄷㅗ	-1991
▁ㅍㅗㄹㄹㅣ	-1992
▁ㄱㅗㅇㅈㅜ	-1993
ㅇㅣㄹㄹㅓ	-1994
▁ㅎㅏㅂㄹㅠ	-1995
▁ㅁㅏㄴㄷㅡ	-1996
▁ㄱㅏㅇㅇㅝㄴㄷㅗ	-1997
▁ㅇㅓㄹㅁㅏ	-1998
▁ㅊㅓㅇㅅㅗ	-1999
▁ㅇㅐㄴ	-2000
▁ㅈㅏㅇㄱㅣ	-2001
▁St	-2002
ㅁㅐㄴ	-2003
▁ㄴㅏㅁㅇㅏ	-2004
▁ㅈㅏㄱㅅㅓㅇ	-2005
▁ㅊㅓㄴㅎㅘㅇ	-2006
▁ㅇㅣㄴㄷㅣ	-2007
ot	-2008
▁ㅊㅓㄴㅁㅜㄴ	-2009
ㄹㅓㄱ	-2010
ㅂㅜㅇ	-2011
▁ㄱㅜㄱㄱㅕㅇ	-2012
▁ㅇㅚㄴ	-2013
▁ㅅㅣㄴㅎㅗ	-2014
▁ㄷㅏㅂ	-2015
▁ㅎㅔㄹ	-2016
ㅇㅗㅇ	-2017
▁ㅇㅣㅍ	-2018
▁ㄱㅓㄴㄴㅓ	-2019
▁ㅇㅣㅂㅎㅏㄱ	-2020
▁in	-2021
▁ㅎㅔㄴ	-2022
▁ㄱㅏㄱㅈㅗㅇ	-2023
▁ㄱㅜㄴㅇㅣㄴ	-2024
▁ㅈㅣㄹㄹㅑㅇ	-2025
▁ㅇㅣㄴㅅㅜ	-2026
▁ㅋㅗㅇ	-2027
ㄴㅣㄴ	-2028
▁ㅅㅚ	-2029
un	-2030
▁ㅈㅜㄹㅇㅣ	-2031
▁ㄴㅗㅇㅇㅓㅂ	-2032
▁ㅈㅓㄴㅅㅏ	-2033
▁ㅍㅡㄹㄹㅗ	-2034
▁ㄹㅏㅇ	-2035
▁ㅇㅣㄺ	-2036
▁ㅅㅣㄹㅎㅐㅇ	-2037
▁ㄱㅐㄱ	-2038
ㅊㅏㅁ	-2039
▁ㅂㅡㄹㄹㅐㄱ	-2040
ㅅㅡㄹㄹㅏㅁ	-2041
▁ㅊㅜㅇㅊㅓㅇㄴㅏㅁㄷㅗ	-2042
ow	-2043
▁ㅁㅣㄹㄷㅗ	-2044
▁ㅇㅝㄴㅈㅓㅇ	-2045
ㅅㅟ	-2046
▁ㅋㅐㄹㄹㅣ	-2047
▁ㅂㅓㅅ	-2048
▁ㅅㅣㅁㄹㅣ	-2049
▁37	-2050
ㄷㅏㄱ	-2051
▁ㅌㅓㄹ	-2052
ㅌㅣㄱ	-2053
▁ㅅㅣㄴㅎㅏㄱ	-2054
▁ㅍㅕㄴㅈㅣㅂ	-2055
▁ㅎㅏㄱㅁㅜㄴ	-2056
ㅋㅐ	-2057
▁w	-2058
ㅈㅓㄴㅎㅣ	-2059
▁ㅈㅣㅂㅈㅜㅇ	-2060
▁ㅁㅏㄴㅇㅑㄱ	-2061
ㄹㅏㅂ	-2062
▁ㄱㅜㄱㅂㅏㅇ	-2063
▁ㅇㅑㄱㄱㅏㄴ	-2064
▁ㅈㅓㅇㅊㅏㄱ	-2065
▁ㅈㅡㅇㅁㅕㅇ	-2066
▁1987	-2067
▁ㅊㅡㄱㅁㅕㄴ	-2068
▁ㅁㅗㅇㄱㅗㄹ	-2069
ㅎㅏㄱㅇㅝㄴ	-2070
ㅅㅛ	-2071
▁ㅇㅑㅇㅈㅏ	-2072
▁ㅁㅜㄹㄹㅗㄴ	-2073
▁ㄱㅡㅁㅇㅠㅇ	-2074
▁ㅂㅕㄴㅎㅗ	-2075
ur	-2076
▁ㅌㅗㅇㅈㅔ	-2077
▁ㅅㅜㅍ	-2078
▁ㄷㅡㅇㄱㅡㅂ	-2079
▁ㅎㅏㅂㅂㅕㅇ	-2080
▁ㄱㅘㅇㄱㅗ	-2081
▁1984	-2082
ㅋㅓㅅ	-2083
ㄹㅓㄹ	-2084
▁ㅎㅗㅁㄹㅓㄴ	-2085
▁ㅋㅣㅇ	-2086
▁1986	-2087
ㄱㅔㄴ	-2088
▁ㅂㅕㅇㄹㅕㄱ	-2089
▁41	-2090
ㄷㅗㅇㅇㅏㄴ	-2091
▁ㄴㅐㅇ	-2092
ㅂㅜㅌ	-2093
▁ㅎㅏㄱㄴㅕㄴ	-2094
▁51	-2095
▁ㅇㅑㅇㅅㅓㅇ	-2096
ㅂㅣㄹ	-2097
▁ㅅㅗㄹ	-2098
▁ㅎㅘㄴㅈㅏ	-2099
▁ㅇㅏㄴㄷㅡ	-2100
▁ㅇㅔㄴㅌㅓ	-2101
▁ㄹㅕㅇ	-2102
▁ㅈㅓㄴㄹㅕㄱ	-2103
ㅁㅗㅅ	-2104
▁ㄱㅏㅇㅈㅗ	-2105
ㅋㅣㄴ	-2106
ㅅㅕㄹ	-2107
▁ㅂㅕㅇㅅㅏ	-2108
▁ㅅㅓㅇㄱㅘ	-2109
▁ㅍㅣㄴㄹㅏㄴㄷㅡ	-2110
▁ㅌㅟ	-2111
▁ㄱㅗㅇㄱㅗㅇ	-2112
▁ㅂㅜㅇㄱㅚ	-2113
▁ㅁㅣㄴㄱㅏㄴ	-2114
▁ㅈㅓㄴㅇㅕㄱ	-2115
ㄴㅣㄱ	-2116
▁ㅇㅓㅂㅊㅔ	-2117
ㅍㅣㄱ	-2118
▁ㄷㅟㅅ	-2119
▁ㅂㅗㅁ	-2120
▁ㅎㅓㅇㄱㅏ	-2121
▁ㅎㅕㅁㅇㅢ	-2122
ch	-2123
▁ㄷㅗㅇㅇㅏ	-2124
ㄴㅑㅇ	-2125
▁ㄱㅜㄴㅈㅜ	-2126
ㅊㅗㄱ	-2127
ㅍㅔㄴ	-2128
▁ㄱㅕㅇㄹㅕㄱ	-2129
ㅕㅅㅓ	-2130
▁ㅈㅏㅂㅈㅣ	-2131
▁ㅎㅐㅇㅎㅏ	-2132
ㅅㅓㅁ	-2133
▁ㅇㅗㄴㄷㅗ	-2134
▁ㅊㅓㅁ	-2135
ㄴㅚ	-2136
▁ㄸㅜ	-2137
▁39	-2138
▁1985	-2139
▁64	-2140
▁ㅋㅓㄹ	-2141
▁ㅅㅓㅇㅇㅣㄴ	-2142
▁ㅇㅣㅁㅁㅜ	-2143
▁ㅋㅡㄹㄹㅐ	-2144
▁400	-2145
▁ㅅㅡㅇㅇㅣㄴ	-2146
▁ㅈㅓㄴㅂㅏㄴ	-2147
▁br	-2148
▁ㄱㅏㅇㅇㅢ	-2149
▁ㄱㅡㄴㄷㅐ	-2150
▁ㅅㅓㄴㅅㅐㅇ	-2151
▁ㅊㅜㅇㅂㅜㄴ	-2152
▁II	-2153
ㅅㅔㄹ	-2154
ㅍㅣㅇ	-2155
▁ㄱㅏㅇㅈㅔ	-2156
▁ㅂㅓㅁㅇㅟ	-2157
ut	-2158
▁i	-2159
ㄷㅎㅣ	-2160
▁ㅎㅏㅇㅅㅏㅇ	-2161
▁ㅈㅓㄱㄱㅡㄱ	-2162
▁ㅂㅏㄱㅈㅟ	-2163
▁ㅈㅗㅇㅇㅣ	-2164
ㅂㅎㅣ	-2165
ㅇㅜㄴㅌㅣ	-2166
ㅎㅕ	-2167
▁ㅇㅣㄹㅇㅝㄴ	-2168
▁ㅈㅓㄴㅅㅓㄴ	-2169
ay	-2170
▁ㄲㅜㅁ	-2171
ㅈㅣㅅ	-2172
▁ㅅㅓㅂ	-2173
▁ㄱㅏㅇㅈㅓㅁ	-2174
um	-2175
▁ㅊㅜㄹㅂㅏㄹ	-2176
▁ㅂㅜㄺ	-2177
▁ㅁㅏㄴㅈㅗㄱ	-2178
▁ㄴㅏㅁㅍㅕㄴ	-2179
ㄹㅕㅇㄱㅘㄴ	-2180
▁ㅈㅏㅇㅂㅣ	-2181
ㅉㅏ	-2182
▁ㅈㅓㄴㄱㅐ	-2183
▁ㄱㅗㅇㅇㅓㅂ	-2184
▁ㄱㅗㅇㅅㅏㄴㄷㅏㅇ	-2185
▁ㅇㅝㄴㅊㅣㄱ	-2186
▁ㅎㅕㄴㅅㅣㄹ	-2187
▁ㅎㅏㅇㅅㅓㅇ	-2188
▁ㄷㅗㅇㄹㅛ	-2189
▁ㄴㅗㄴㅁㅜㄴ	-2190
ㅈㅓㅇㅂㅜ	-2191
ㅇㅓㅅ	-2192
▁ㄱㅏㄴㅈㅜ	-2193
▁ㅁㅏㅅ	-2194
▁ㅌㅏㅂㅈㅐ	-2195
▁ㅇㅏㅍㄷㅜ	-2196
▁ㅇㅓㄹㄱㅜㄹ	-2197
▁ㅈㅗㅇㅈㅗㅇ	-2198
▁ㅈㅐㄱ	-2199
▁43	-2200
ir	-2201
▁ㅍㅗㄱㅂㅏㄹ	-2202
▁ㅂㅜㄹㄱㅏ	-2203
ㅇㅝㄴㄱㅜㄴ	-2204
▁ㅎㅘㄱㅂㅗ	-2205
▁ㅋㅏㄹㄹㅣ	-2206
▁ㄱㅗㅇㅁㅜ	-2207
▁ㅂㅜㄴㅈㅏ	-2208
▁ㄴㅏㅁㄷㅗㅇ	-2209
ㅂㅐㄱㅈㅣㄹ	-2210
▁ㄷㅜㄹㄹㅓ	-2211
ㅅㅏㅇㅈㅏ	-2212
▁ㅈㅡㅇㄱㅓ	-2213
▁ㄲㅓ	-2214
▁ㅌㅡㄹ	-2215
▁42	-2216
ㄴㅗㄴ	-2217
▁ㅃㅜ	-2218
ㅏㅅㅓ	-2219
ver	-2220
▁ㅇㅛㄱ	-2221
▁ㅈㅓㅁㅊㅏ	-2222
▁ㅍㅕㅇㅇㅑㅇ	-2223
ㄱㅓㅂ	-2224
▁ㄷㅡㄴ	-2225
▁ㅇㅝㄴㅈㅜ	-2226
▁ㄱㅜㄴㄷㅏㄴ	-2227
▁ㅅㅣㄴㅎㅘ	-2228
▁ㅊㅏㄹ	-2229
▁ㅋㅏㅁ	-2230
▁1982	-2231
▁ㅈㅣㄴㅎㅘ	-2232
▁ㄴㅏㅇ	-2233
▁ㅅㅣㄴㅅㅓㄹ	-2234
▁ㄱㅘㅇㅇㅕㄱㅅㅣ	-2235
▁55	-2236
im	-2237
ㅂㅣㅇ	-2238
ㅅㅡㅁ	-2239
▁ㅎㅏㅂㅇㅢ	-2240
▁ㅈㅣㅁ	-2241
▁ㄷㅔㄴㅁㅏ	-2242
▁ㅇㅏㅍㅅㅓ	-2243
▁ㄲㅡㄶ	-2244
ㄴㅠㅁ	-2245
ㅍㅡㄴ	-2246
▁ㅈㅏㅇㅅㅣㄱ	-2247
▁ㅎㅑㅇㅅㅏㅇ	-2248
▁ㅍㅕㄴㅇㅣㅂ	-2249
▁ㅇㅠㅇ	-2250
ㄷㅜㄱ	-2251
▁1983	-2252
▁ㅇㅜㅁㅈㅣㄱㅇㅣ	-2253
▁ㅍㅗㅁ	-2254
ㅂㅅㅡ	-2255
ㄹㅗㄹ	-2256
▁ㅈㅏㅇㅁㅕㄴ	-2257
FC	-2258
▁ㅇㅗㄴㄹㅏ	-2259
▁ㅊㅓㅇㄴㅏ	-2260
ㅌㅡㄹㄹㅐㄴㄷㅡ	-2261
▁ㅅㅣㅁㅎㅏ	-2262
ㄹㅡㅁㄷㅏㅂ	-2263
▁ㄱㅕㅇㅎㅑㅇ	-2264
▁ㅆㅗ	-2265
▁ㄷㅏㄴㅂㅐㄱㅈㅣㄹ	-2266
▁ㅎㅏㅂㅊㅣ	-2267
ㅋㅗㄹ	-2268
ㅍㅗㄹㄹㅣ	-2269
▁ㅁㅏㄴㅈㅜ	-2270
▁ㅊㅏㅇㅅㅓㄹ	-2271
▁ㅅㅜㅇ	-2272
▁44	-2273
▁ㅂㅓㅂㅇㅣㄴ	-2274
▁ㅎㅘㄱㅅㅣㄹ	-2275
ㅁㅜㄴㅎㅘ	-2276
▁ㅊㅣㅁㄱㅗㅇ	-2277
▁ㄱㅏㅇㅈㅓㅁㄱㅣ	-2278
ㄱㅓㅁ	-2279
ㄸㅓㅎ	-2280
▁LG	-2281
▁ㅂㅕㄴㅎㅏ	-2282
▁47	-2283
▁ㅈㅗㅁ	-2284
▁ㄴㅑ	-2285
▁ㄷㅏㄴㅈㅣ	-2286
▁ㅃㅗ	-2287
▁ㅋㅗㄹㄹㅗ	-2288
▁ㅈㅓㄴㅅㅓㄹ	-2289
▁ㅅㅏㄹㅎㅐ	-2290
ㅇㅜㄴㄷㅗㅇ	-2291
ㅅㅜㅇ	-2292
▁Z	-2293
▁ㄷㅗㄱㅈㅏ	-2294
▁ㅅㅏㅁㄱㅜㄱ	-2295
▁ㅇㅘㅇㅇㅟ	-2296
ㅋㅓㄴ	-2297
▁ㅈㅏㅁㅅㅣ	-2298
▁ㄱㅗㅇㅇㅠ	-2299
ㄴㅢ	-2300
▁ㅈㅓㄴㅎㅘ	-2301
▁75	-2302
ㅎㅏㄱㅅㅐㅇ	-2303
▁ㅅㅏㄴㅁㅐㄱ	-2304
▁ㅅㅓㅇㄷㅏㅇ	-2305
▁ㅅㅓㄴㄱㅗ	-2306
▁ㅂㅏㄴㄷㅗ	-2307
▁ㅎㅣㄹ	-2308
ㅅㅖ	-2309
▁ㅇㅠㄱㅅㅏㅇ	-2310
▁ㅇㅕㄴㄱㅗ	-2311
▁ㅎㅘㄱㅈㅓㅇ	-2312
▁ㄴㅡㄹㅇㅓ	-2313
▁ㅎㅏㅁㄷㅐ	-2314
▁ㅅㅗㄹㄹㅗ	-2315
▁ㅅㅣㄴㅇㅏㅇ	-2316
▁ㅅㅜㄴㅅㅓ	-2317
▁1972	-2318
ㄱㅏㄱㅎㅕㅇ	-2319
▁ㅂㅗㄱㅈㅏㅂ	-2320
ㅎㅠ	-2321
ㅅㅣㅇㅌㅓㄴ	-2322
▁ㅇㅕㄱㄷㅐ	-2323
CA	-2324
▁ㅍㅡㄹㄹㅐㅅ	-2325
ㅅㅈㅏ	-2326
▁184	-2327
ㄹㅏㅇㅋㅡ	-2328
ㄱㅗㅂ	-2329
▁180	-2330
▁ㅂㅣㄹㄹㅣ	-2331
▁46	-2332
▁ㄱㅗㅇㅎㅏㄱ	-2333
▁ㄴㅗㄹ	-2334
ㄹㅣㄴㅇㅣ	-2335
ㄷㅜㄴ	-2336
▁ㅈㅓㄴㅇㅛㅇ	-2337
▁ㅁㅏㄹㄱㅣ	-2338
▁ㅂㅜㄹㄱㅘ	-2339
ㅍㅡㄹㄹㅔ	-2340
▁ㅈㅜㅇㅅㅣㅁㅈㅣ	-2341
▁ㄴㅓㅁㅇㅓ	-2342
▁CD	-2343
▁ㅂㅓㅂㅊㅣㄱ	-2344
▁1979	-2345
▁ㅇㅏㅁㅅㅏㄹ	-2346
ㅇㅐㄴ	-2347
ㅎㅔㄴㅌㅣ	-2348
▁ㅊㅏㅁㅅㅓㄱ	-2349
▁ㅎㅐㄱㅅㅣㅁ	-2350
▁ㅇㅣㅇ	-2351
▁ㅈㅓㄹㄷㅐ	-2352
▁ㄱㅡㄹㄹㅗ	-2353
▁ㄱㅏㅁㅈㅓㅇ	-2354
▁ㄷㅗㅇㅇㅢ	-2355
ㅈㅔㄹ	-2356
▁ㅈㅜㅇㅂㅏㄴ	-2357
ra	-2358
▁ㅌㅏㄴㅅㅐㅇ	-2359
▁ㅍㅏㄴㄱㅕㄹ	-2360
▁ㅂㅕㄹㄷㅗ	-2361
▁kg	-2362
▁ㅎㅡㄴㅎㅣ	-2363
▁ㅁㅣㄹㄹㅣ	-2364
▁1920	-2365
ㄹㅡㄹㄹㅣㄴ	-2366
▁ㅅㅣㄹㄹㅣ	-2367
▁ㄴㅗㄴㄹㅣ	-2368
ㅂㅏㄴㄷㅗ	-2369
ㅊㅣㄹ	-2370
▁ㅌㅗㅇㄱㅖ	-2371
▁ㅈㅣㅂㅎㅐㅇ	-2372
▁v	-2373
▁In	-2374
▁ㄱㅡㅁㅁㅔ	-2375
▁ㅂㅗㄴㄱㅕㄱ	-2376
ㄹㅕㅇㅂㅜ	-2377
ㅇㅗㄹ	-2378
▁1981	-2379
▁ㄷㅏㄴㅇㅣㄹ	-2380
▁ㅋㅔㄴ	-2381
ㄲㅗㅊ	-2382
▁ㄹㅗㅅ	-2383
▁ㄱㅘㄴㄹㅛ	-2384
10	-2385
▁ㅂㅏㅇㅁㅕㄴ	-2386
▁ㄱㅗㅇㄱㅣ	-2387
▁ㅅㅏㄹㅇㅏ	-2388
ㄷㅗㄴ	-2389
▁ㅅㅐㄴ	-2390
▁ㄱㅗㅇㅍㅗ	-2391
▁1973	-2392
▁ㄱㅓㅁㅊㅏㄹ	-2393
ㄱㅘㄹ	-2394
ㄹㅜㄱ	-2395
▁ㄷㅓㅍ	-2396
▁1930	-2397
▁ㅅㅏㄴㅎㅏ	-2398
ㅋㅏㄹ	-2399
ㅅㅏㄴㅅㅣ	-2400
BO	-2401
▁ㅎㅕㅂㅅㅏㅇ	-2402
▁ㄱㅝㄴㅎㅏㄴ	-2403
▁ㅈㅣㄱㅇㅝㄴ	-2404
os	-2405
▁150	-2406
em	-2407
▁ㅈㅏㄱㄱㅗㄱㄱㅏ	-2408
▁ㅈㅜㅇㅂㅜ	-2409
▁ㅇㅝㄴㅈㅏㄱ	-2410
▁ㅈㅓㄴㅎㅜ	-2411
▁ㄱㅓㄴㄱㅜㄱ	-2412
▁ㅅㅏㅇㅍㅜㅁ	-2413
▁ㅉㅗ	-2414
ㅎㅗㄹ	-2415
▁ㅎㅕㅂㅈㅓㅇ	-2416
▁ㅊㅏㅇㄹㅣㅂ	-2417
ter	-2418
ㅇㅓㅄㅇㅣ	-2419
▁ㄱㅓㄴㅈㅗ	-2420
ㅆㅣㄴ	-2421
▁ㅈㅓㄴㅊㅓㄹ	-2422
▁ㄱㅣㅁㅈㅓㅇ	-2423
ㄹㅕㅁ	-2424
ㅁㅗㄹ	-2425
ㄹㅠㅁ	-2426
30	-2427
▁ㄱㅜㄴㅅㅜ	-2428
▁1974	-2429
▁ㅇㅗㅅ	-2430
ㄹㅡㄴㅉㅗㄱ	-2431
▁ㅈㅓㅇㄱㅛ	-2432
▁ㅈㅓㄴㅈㅜ	-2433
▁ㅇㅣㄴㅅㅏㅇ	-2434
▁ㅇㅕㄴㅅㅏㄴ	-2435
ㄴㅕㅇ	-2436
ㄹㅣㄹ	-2437
▁ㅂㅜㄱㅅㅓ	-2438
▁ㅇㅣㄴㄱㅝㄴ	-2439
▁ㄴㅗㅎㅇㅣ	-2440
ㄷㅣㄴ	-2441
▁ㅅㅔㅅ	-2442
▁ㅈㅏㅇㅊㅏㄱ	-2443
▁ㄱㅏㄱㅂㅗㄴ	-2444
▁ㅂㅗㄱㅎㅏㅂ	-2445
▁ㅋㅡㄹㄹㅔ	-2446
▁1940	-2447
▁ㅇㅡㅂ	-2448
▁ㅇㅚㄴㅉㅗㄱ	-2449
▁ㅌㅔㄱ	-2450
▁ㅎㅔㄴㄹㅣ	-2451
▁ㅎㅕㅇㅅㅏ	-2452
▁ㄱㅡㅁㅅㅗㄱ	-2453
▁185	-2454
▁ㅈㅜㅇㅅㅔ	-2455
▁ㅎㅏㄴㄸㅐ	-2456
▁ㅎㅕㄴㅈㅏㅇ	-2457
ㅇㅏㅅ	-2458
ㅉㅣㄱ	-2459
▁ㅌㅐㄱ	-2460
▁ㄱㅜㄱㄷㅗ	-2461
▁ㅂㅣㅇ	-2462
▁SBS	-2463
▁ㅇㅣㄴㅈㅗ	-2464
▁ㅈㅏㄹㅁㅗㅅ	-2465
▁ㅅㅓㅇㅈㅣㄹ	-2466
▁ㅌㅏㄱ	-2467
▁ㅊㅏㅇㅈㅗ	-2468
▁ㅇㅔㅁ	-2469
▁ㄹㅐㅇ	-2470
▁ㅇㅜㄴㅇㅛㅇ	-2471
▁1948	-2472
▁1968	-2473
ㅃㅡ	-2474
▁ㅇㅣㄴㅈㅓㅇㅂㅏㄷ	-2475
▁ㅎㅏㅂㅅㅓㅇ	-2476
▁1976	-2477
▁ㅎㅏㅇㅂㅗㄱ	-2478
▁ㅈㅓㄴㅎㅕ	-2479
▁ㅈㅓㅇㅂㅗㄱ	-2480
▁54	-2481
▁ㅂㅏㅇㅊㅜㄹ	-2482
ㅍㅡㄹㄹㅣ	-2483
▁ㅋㅡㄹㄹㅣ	-2484
▁ㅇㅣㄴㄹㅠ	-2485
▁ㅇㅡㅁㄹㅕㄱ	-2486
ㄱㅐㄱㅊㅓㄹㄷㅗ	-2487
ㄲㅐ	-2488
▁ㄱㅕㅇㅅㅓㅇ	-2489
▁ㅈㅓㅇㅂㅣ	-2490
▁ㅁㅜㄹㄹㅓ	-2491
▁ㅅㅓㅇㄱㅕㅇ	-2492
▁ㅅㅜㅅㅈㅏ	-2493
▁ㅇㅣㄴㄱㅗㅇ	-2494
ㅇㅣㄹㅂㅗ	-2495
▁ㅇㅣㅂㅈㅏ	-2496
▁ㅂㅗㅇㅎㅏ	-2497
▁ㅂㅜㄱㄷㅗㅇ	-2498
▁1975	-2499
▁ㅊㅜㄹㅇㅣㅂ	-2500
▁ㄱㅓㄴㄹㅣㅂ	-2501
ㅇㅣㅇ	-2502
▁ㅁㅕㄹㅁㅏㅇ	-2503
▁ㄱㅗㅇㅅㅏㄴㅈㅜ	-2504
op	-2505
ag	-2506
ㄹㅣㅅ	-2507
▁ㅊㅜㄹㅈㅏㅇ	-2508
▁ㅅㅡㄹㄹㅗ	-2509
▁ㅎㅝㄹ	-2510
▁ㅈㅣㄴㅈㅜ	-2511
▁ㅅㅣㅁㄱㅏㄱ	-2512
▁ㅇㅔㄱㅅㅡ	-2513
▁ㅈㅓㄴㄱㅗㅇ	-2514
▁ㅎㅏㄴㅈㅏ	-2515
▁ㅎㅡㅂㅅㅜ	-2516
▁ㅅㅏㄱ	-2517
▁ㅉㅣㄱ	-2518
▁ㅊㅜㄱㅈㅔ	-2519
▁ㅎㅝㄹㅆㅣㄴ	-2520
ㅍㅏㄹ	-2521
▁ㅅㅓㄴㄱㅛ	-2522
▁ㅈㅣㅂㅇㅏㄴ	-2523
▁1978	-2524
▁56	-2525
▁ㅊㅓㅇㅈㅜ	-2526
▁ㄱㅜㄱㅈㅏㅇ	-2527
▁ㅂㅗㄴㅇㅣㄴ	-2528
ㄹㅏㄹ	-2529
▁1963	-2530
▁ㅇㅣㄴㅈㅗㅇ	-2531
▁ㄴㅗㄴㅇㅢ	-2532
▁ㅂㅜㄱㅇㅏ	-2533
▁ㄱㅏㄹㄷㅡㅇ	-2534
▁1971	-2535
▁ㅂㅗㄴㅅㅏ	-2536
▁ㅁㅗㄱㅅㅏ	-2537
ㅊㅓㅂ	-2538
▁ㅁㅔㄹ	-2539
▁ㅇㅝㄴㄹㅣ	-2540
▁ㅂㅏㄴㅂㅗㄱ	-2541
ㅁㅍㅡ	-2542
▁ㅎㅏㄴㄱㅜㄱㅇㅓ	-2543
ㅅㅓㅇㄱㅜㄴ	-2544
▁ㅇㅕㄴㅎㅏㅂㄱㅜㄴ	-2545
▁52	-2546
▁00	-2547
▁65	-2548
▁ㅈㅡㄹㄱㅣ	-2549
▁ㄴㅗㄴㅈㅐㅇ	-2550
▁ㅇㅟㄹ	-2551
▁ㅅㅣㄴㅊㅔ	-2552
ce	-2553
▁ㅁㅟ	-2554
▁ㅎㅘㄹㅅㅓㅇ	-2555
▁ㅁㅕㅇㅅㅓㅇ	-2556
▁ㄱㅜㄱㅁㅜ	-2557
▁ㅇㅕㄴㄱㅘㄴ	-2558
▁Q	-2559
ㄹㄹㅣㅇ	-2560
▁ㄴㅣㄴ	-2561
▁ㅎㅏㄱㅅㅡㅂ	-2562
▁49	-2563
▁ㅌㅔㄴ	-2564
▁ㅊㅗㅇㄷㅗㄱ	-2565
▁ㅈㅜㅇㄷㅐ	-2566
ㅂㅜㅌㅇㅣ	-2567
ㄱㅗㅇㅎㅏㅇ	-2568
▁ㅊㅜㄹㅁㅏ	-2569
▁ㅎㅘㄹㅂㅏㄹ	-2570
▁ㅂㅕ	-2571
▁ㄱㅘㄴㅈㅣㄱ	-2572
ㅈㅔㄹㄹㅔ	-2573
▁ㅊㅜㅇㅊㅓㅇㅂㅜㄱㄷㅗ	-2574
▁ㄹㅛ	-2575
▁ㅂㅓㅅㅇㅓ	-2576
OS	-2577
▁ㅇㅕㄴㅈㅐ	-2578
ㄸㅓㅎㄱㅔ	-2579
▁ㅁㅏㄹㄹㅔ	-2580
▁ㅊㅓㄴㅊㅔ	-2581
▁ㄷㅓㄴㅈㅣ	-2582
▁ㄴㅔㅅ	-2583
▁179	-2584
▁1969	-2585
▁ㅂㅜㄴㅈㅐㅇ	-2586
▁ㅁㅕㅇㅁㅕㅇ	-2587
ㄴㅗㅎ	-2588
ㅅㅣㄱㅎㅚ	-2589
▁ㅇㅕㄴㄹㅛ	-2590
▁ㅂㅜㄹㅅㅏㅇ	-2591
ㅅㅓㅇㅇㅝㄴ	-2592
ㅂㅕㅇㄷㅐ	-2593
ㅅㅡㄹㄹㅏ	-2594
ㄹㅏㅎ	-2595
▁ㅇㅕㅇㅇㅓㅂ	-2596
▁ㅎㅏㅇㄱㅗㅇㄱㅣ	-2597
▁ㅎㅏㄱㅅㅜㄹ	-2598
▁1946	-2599
▁ㅋㅗㄴㅅㅡ	-2600
oc	-2601
▁53	-2602
▁ㄴㅓㅁㄱㅣ	-2603
▁ㅇㅣㄹㅊㅣ	-2604
▁ㅈㅓㄴㅂㅜ	-2605
▁ㅈㅣㄴㅂㅗ	-2606
▁ㄱㅕㄴㅎㅐ	-2607
▁ㄴㅗㅇㅁㅣㄴ	-2608
▁ㅋㅠ	-2609
▁ㄷㅗㅇㅇㅝㄴ	-2610
ri	-2611
▁ㅈㅏㅇㅇㅏㄱ	-2612
ㅁㅂㅣ	-2613
▁and	-2614
▁US	-2615
▁1964	-2616
ㅈㅓㅇㅅㅣㄱ	-2617
▁ㅇㅜㄴㅈㅓㄴ	-2618
▁ㅅㅓㅇㄴㅡㅇ	-2619
▁ㅇㅣㄹㄷㅐ	-2620
▁ㅂㅏㅇㅅㅏ	-2621
ㅋㅟ	-2622
▁ㅂㅜㄹㅂㅓㅂ	-2623
▁ㅈㅣㄱㅈㅓㄴ	-2624
▁ㅈㅏㅇㄱㅛ	-2625
▁ㅂㅐㄱㅈㅏㄱ	-2626
▁ㅅㅣㄴㅅㅓㅇ	-2627
▁ㅈㅓㅇㅇㅝㄴ	-2628
▁ㅂㅏㄱㅈㅓㅇ	-2629
ㅊㅓㄴㄱㅜㄴ	-2630
▁ㅃㅏㄹ	-2631
▁58	-2632
ㄴㅗㅇ	-2633
▁ㅈㅣㄱㅇㅓㅂ	-2634
ㄱㅓㄹ	-2635
▁ㅎㅏㄱㅂㅜ	-2636
▁ㅂㅕㄴㅎㅘㄴ	-2637
▁ㅍㅣㅇ	-2638
▁ㅈㅓㅇㅊㅔ	-2639
▁ㅇㅏㄴㅌㅏ	-2640
▁ㅂㅔㄹㄱㅣ	-2641
▁ㅁㅣㄴㅂㅓㅂ	-2642
▁ㅂㅐㄱㅈㅔ	-2643
▁ㅋㅗㄴㅅㅓ	-2644
▁ㅎㅏㄱㅎㅚ	-2645
▁PC	-2646
▁ㅇㅣㅁㅇㅢ	-2647
▁ㅍㅗㄱㄹㅕㄱ	-2648
▁ㅎㅏㄱㅇㅝㄴ	-2649
▁ㅅㅣㄱㅍㅜㅁ	-2650
▁ㅇㅣㅁㄱㅡㅁ	-2651
▁ㅂㅏㄴㅇㅕㅇ	-2652
▁ㅈㅏㄱㅅㅏ	-2653
▁ㅋㅐㅁㅍㅓ	-2654
▁ㅈㅓㄴㅍㅏ	-2655
▁ㄱㅏㄴㄷㅏㄴ	-2656
▁ㅇㅡㅇㅇㅛㅇ	-2657
▁1977	-2658
▁ㅅㅏㅇㄷㅏㅇㅎㅣ	-2659
▁ㅎㅏㅇㄱㅜ	-2660
ㅈㅜㄹ	-2661
▁ㅊㅓㄹㅅㅜ	-2662
▁ㅈㅓㅇㅈㅣ	-2663
ㅁㅣㄹㄹㅣ	-2664
▁ㅊㅣㄴㅇㅣㄹ	-2665
ㄹㅠㄴ	-2666
▁ㅊㅏㅇㄷㅏㄴ	-2667
ㄴㅏㅂ	-2668
igh	-2669
▁ㅎㅗㄴㄹㅏㄴ	-2670
▁r	-2671
▁ㄱㅘㄴㅈㅓㅁ	-2672
▁ㅂㅏㅇㅅㅗㅇㄱㅜㄱ	-2673
▁ㅈㅓㄴㅁㅜㄴㄱㅏ	-2674
▁ㅅㅡㅇㅈㅣㄴ	-2675
▁ㅁㅓㄱㅇㅣ	-2676
ㅇㅑㄴ	-2677
▁ㅅㅏㄹㅇㅣㄴ	-2678
▁ㄹㅏㄱ	-2679
▁ㄱㅗㅇㅌㅗㅇ	-2680
▁ㅎㅕㅂㅇㅢ	-2681
▁88	-2682
▁ㅎㅚㅇ	-2683
▁ㄲㅡㅌㄴㅐ	-2684
▁ㅁㅜㄴㅈㅏㅇ	-2685
ㅋㅗㄹㄹㅏ	-2686
ation	-2687
ㅇㅐㄴㅈㅔㄹㄹㅔ	-2688
▁ㅍㅕㄴㅈㅣ	-2689
▁ㄲㅗㄱ	-2690
▁ㅇㅏㄹㄹㅔㄱㅅㅏㄴㄷㅡ	-2691
▁ㅂㅏㄲㅇㅔ	-2692
▁1000	-2693
▁ㅇㅣㅁㄷㅐ	-2694
ㅊㅓㄴㅅㅣ	-2695
▁ㅂㅗㄱㅁㅜ	-2696
▁ㅅㅓㄴㅈㅗ	-2697
▁99	-2698
▁ㅎㅏㅂㄱㅕㄱ	-2699
▁ㅌㅗㅇㅅㅏㅇ	-2700
▁ㅈㅣㄹㅂㅕㅇ	-2701
▁ㄱㅣㅁㅇㅕㅇ	-2702
▁ㅈㅏㅇㅅㅜ	-2703
▁1949	-2704
▁ㅍㅏㅂ	-2705
▁ㅎㅏㄱㄱㅘ	-2706
▁ㄹㅗㅅㄷㅔ	-2707
▁ㄷㅗㅇㄴㅏㅁ	-2708
▁ㅅㅣㄴㅂㅜㄴ	-2709
▁ㅇㅑㄱㅅㅗㄱ	-2710
▁ㅈㅣㄴㅇㅣㅂ	-2711
▁ㅇㅏㄹㅇㅏ	-2712
▁ㅁㅏㅇㅁㅕㅇ	-2713
▁ㅁㅜㄴㅎㅓㄴ	-2714
▁1962	-2715
▁62	-2716
▁ㅊㅏㅁㅈㅓㄴ	-2717
▁1967	-2718
▁SK	-2719
▁ㄴㅏㅁㅅㅓ	-2720
▁FA	-2721
▁ㅈㅣㄴㅇㅏㅂ	-2722
▁57	-2723
▁ㄴㅗㅇㄱㅜ	-2724
▁ㅊㅣㅇㅎㅏ	-2725
▁ㅌㅏㄴㅅㅗ	-2726
▁ㅎㅕㄴㅇㅕㄱ	-2727
▁ㄷㅗㅇㅈㅏㄱ	-2728
▁ㅂㅏㄴㅂㅏㄹ	-2729
▁ㅂㅕㄴㅎㅕㅇ	-2730
▁ㅅㅣㅂㅈㅏ	-2731
▁ㄱㅗㅇㄷㅗㅇㅊㅔ	-2732
ㅈㅜㄱ	-2733
▁ㅈㅓㅇㄱㅣ	-2734
▁ㅇㅕㄴㅊㅜㄹ	-2735
▁ㅈㅡㅇㅅㅏㅇ	-2736
▁ㄱㅘㅇㅈㅏㅇ	-2737
▁ㅅㅔㄹ	-2738
▁ㅇㅕㄴㅇㅏㄴ	-2739
▁ㅇㅕㅇㅎㅑㅇㄹㅕㄱ	-2740
▁Ch	-2741
ㅂㅏㅇㅅㅗㅇ	-2742
▁ㅊㅏㄹㅅㅡ	-2743
▁ㅊㅜㄹㄱㅏㄴ	-2744
▁ㅇㅣㄹㅅㅣㄱ	-2745
▁ㅇㅑㄱㅎㅏ	-2746
▁ㅌㅗㅁ	-2747
▁ㅊㅓㄴㅇㅕㄴ	-2748
▁ㅅㅏㅇㄹㅠㄱ	-2749
▁ㅇㅣㅁㅈㅣㄴ	-2750
▁ㅎㅏㄴㅂㅏㄴㄷㅗ	-2751
▁ㅅㅏㅇㅇㅝㄴ	-2752
▁KBO	-2753
▁ㅅㅏㅇㅅㅡㅇ	-2754
▁You	-2755
ㄲㅇㅣ	-2756
▁ㄹㅗㅇ	-2757
▁ㅂㅏㅇㅈㅓㅇㅅㅣㄱ	-2758
▁ㅅㅣㄹㅅㅜ	-2759
▁ㄷㅡㅇㅈㅣ	-2760
nd	-2761
▁ㅇㅕㅇㅇㅣㅂ	-2762
▁ㄸㅢ	-2763
▁ㄹㅐㄴ	-2764
▁ㅎㅘㅇㄱㅡㅁ	-2765
▁ㅇㅝㄴㅎㅏ	-2766
▁ㄱㅡㄹㅈㅏ	-2767
▁..	-2768
▁ㅂㅡㄹㄹㅏ	-2769
▁ㅎㅠㅇ	-2770
▁66	-2771
▁ㅇㅐㅇ	-2772
▁ㅈㅏㅇㄹㅡ	-2773
ㄷㅡㄹㅁㅗㄱ	-2774
▁181	-2775
▁ㅌㅏㄹㄹㅏㄱ	-2776
▁ㅌㅡㄱㅇㅣ	-2777
▁ㅌㅏㄹㅊㅜㄹ	-2778
▁ㅅㅣㄴㅊㅓㅇ	-2779
▁ㄷㅗㄱㄹㅣㅂㅇㅜㄴㄷㅗㅇ	-2780
▁ㅅㅣㄴㅇㅣㄴ	-2781
▁68	-2782
ㅅㅡㅇㅁㅏㄴ	-2783
▁ㅍㅡㄹㄹㅐ	-2784
▁ㄷㅗㅇㅅㅓㅇ	-2785
▁ㅂㅏㄴㄷㅡ	-2786
▁ㅍㅣㄱ	-2787
▁ㅎㅗㅅ	-2788
▁1965	-2789
▁1966	-2790
▁ㅉㅗㅊ	-2791
▁ㅈㅗㅂ	-2792
ST	-2793
▁ㅎㅕㄴㅈㅣ	-2794
▁ㅂㅏㅇㅈㅣ	-2795
▁ㅇㅘㅇㅈㅏ	-2796
ice	-2797
ㄹㅓㄴㄷㅔ	-2798
▁ㄱㅏㄴㅎㅐㅇ	-2799
▁61	-2800
▁ㅁㅏㄱㅂㅜ	-2801
▁ㄴㅗㄱㅅㅐㄱ	-2802
▁ㄱㅗㅂ	-2803
▁ㅈㅓㄹㅊㅏ	-2804
▁ㄱㅕㅇㄹㅗ	-2805
▁ㅂㅜㄴㅇㅕㄹ	-2806
▁ㅊㅓㄴㅈㅜ	-2807
▁ㅊㅓㅇㄱㅜ	-2808
▁ㄷㅗㄹㄹㅣ	-2809
▁ㅂㅔㄱㅌㅓ	-2810
▁ㅌㅠ	-2811
▁ㅅㅗㄴㅈㅏ	-2812
▁ㅂㅏㄹㅇㅓㄴ	-2813
▁%,	-2814
▁ㅍㅏㄴㅅㅓ	-2815
▁ㄷㅜㄹㅉㅐ	-2816
▁ㄱㅏㄹㅅㅐㄱ	-2817
▁ㄱㅏㅁㅅㅏ	-2818
▁ㅂㅓㅁㅈㅜ	-2819
▁ㅇㅣㄹㅂㅗㄴㄱㅜㄴ	-2820
ER	-2821
▁ㅅㅓㄴㅈㅓㄴ	-2822
▁ㄹㅟ	-2823
▁ㄹㅏㅁ	-2824
▁ㅂㅜㄴㅎㅐ	-2825
▁183	-2826
▁ㅅㅐㅇㅈㅗㄴ	-2827
▁ㅁㅜㄱ	-2828
▁IS	-2829
art	-2830
▁ㅂㅓㅂㅈㅓㅇ	-2831
ON	-2832
▁ㄱㅗㅇㅈㅓㅇ	-2833
▁ㅈㅓㄴㅁㅕㄴ	-2834
▁ㄴㅓㄼㅇㅣ	-2835
▁ㄹㅗㄹ	-2836
▁ㅂㅣㄱㅌㅗ	-2837
▁ㅈㅓㄴㅎㅕㅇ	-2838
▁ㅅㅓㄴㅂㅗ	-2839
▁ㄱㅏㄹㄹㅣ	-2840
ㅈㅣㄹㄹㅐㄴㄷㅡ	-2841
▁ㅎㅡㄱㅇㅣㄴ	-2842
▁1961	-2843
▁ㅂㅏㅂ	-2844
▁ㅇㅓㄴㅈㅔ	-2845
▁ㅈㅜㅇㄱㅣ	-2846
ㅎㅕㅇㅁㅜㄴㅎㅘ	-2847
▁ㅂㅕㄹㅁㅕㅇ	-2848
▁ㅅㅏㅂ	-2849
ㅌㅣㄹ	-2850
▁ㅁㅜㄹㅊㅔ	-2851
▁ㄷㅗㄱㅌㅡㄱ	-2852
▁re	-2853
▁ㅂㅜㄴㄱㅣ	-2854
▁ㅇㅘㄴㄱㅗㅇ	-2855
▁ㅇㅘㄴㄹㅛ	-2856
▁ㅂㅜㄴㅎㅏㄹ	-2857
ㅁㅓㄴㅌㅡ	-2858
ㄷㅡㅂ	-2859
▁ㅇㅣㄹㅉㅣㄱ	-2860
▁ㅅㅜㄴㅎㅘㄴ	-2861
ap	-2862
▁86	-2863
est	-2864
▁800	-2865
▁ㅎㅣㅁㄷㅡㄹ	-2866
ak	-2867
▁600	-2868
▁ㅋㅡㄹㄹㅗ	-2869
▁ㄱㅣㅁㅇㅣㄹ	-2870
▁ㄱㅔㄴ	-2871
▁ㅇㅜㅇ	-2872
▁ㄷㅓㅅ	-2873
▁ㅊㅏㅇㅇㅝㄴ	-2874
▁ㅂㅗㄱㅈㅣ	-2875
▁ㅇㅏㅂㄹㅕㄱ	-2876
▁ㅁㅏㅈㅅㅓ	-2877
▁ㄴㅡㅈ	-2878
▁ㅇㅐㄴㄷㅡ	-2879
▁ㅇㅏㄹㅍㅏ	-2880
▁120	-2881
ㅌㅔㄴㅊㅡ	-2882
▁ㄴㅣㅅ	-2883
▁ㅅㅕㄴ	-2884
▁ㅍㅜㅇㅂㅜ	-2885
▁ㅎㅢㄴ	-2886
ia	-2887
ㄹㅐㅇ	-2888
ㅇㅟㄴ	-2889
ㅌㅡㄹㄹㅓ	-2890
▁ㅅㅣㄴㄹㅚ	-2891
ㅊㅕ	-2892
AR	-2893
▁ㅇㅣㄴㅈㅓㅂ	-2894
ㅂㅣㅊ	-2895
ㅇㅡㄴㅎㅐㅇ	-2896
▁ㄴㅏㄹㄱㅐ	-2897
▁ㄴㅡㄴㄱㅏ	-2898
▁ㅇㅣㄴㅈㅣ	-2899
▁ㅈㅜㄹㅇㅓ	-2900
▁ㅁㅗㄱㅅㅗ	-2901
▁98	-2902
▁ㅅㅣㄹㅈㅣㄹ	-2903
TV	-2904
ㅋㅜㄹ	-2905
▁ㅍㅕㄴㅊㅏㄴ	-2906
ct	-2907
ㅅㅣㄹㅅㅏㅇ	-2908
▁ㅇㅣㄴㅈㅡㅇ	-2909
▁ㅎㅏㄴㅈㅓㅇ	-2910
▁63	-2911
▁ㅅㅏㅇㅇㅟ	-2912
▁ㅈㅓㄴㅇㅝㄴ	-2913
▁ㅁㅏㅈㅇㅣ	-2914
▁ㅎㅘㄱㅅㅏㄴ	-2915
ㅅㅣㄴㄱㅛ	-2916
▁1919	-2917
▁ㅎㅐㅇㄹㅕㄹ	-2918
▁ㅋㅐㄴ	-2919
ㄲㅡㅁ	-2920
▁ㅊㅜㄹㅂㅓㅁ	-2921
▁1944	-2922
▁ㄷㅗㅇㅅㅓ	-2923
▁ㅁㅕㅇㄴㅏ	-2924
▁ㅂㅕㄴㅅㅜ	-2925
▁ㅌㅏㅁㅅㅏ	-2926
▁IC	-2927
▁;/	-2928
▁ㄱㅘㅇㅂㅗㄱ	-2929
▁ㅂㅜㄴㅁㅕㅇ	-2930
▁ㅇㅕㄴㄱㅏㄴ	-2931
▁ㅈㅣㅂㄱㅝㄴ	-2932
▁ㄷㅗㅇㄱㅣ	-2933
ㅅㅜㅇㅇㅣ	-2934
▁ㄱㅘㄱ	-2935
▁ㅍㅕㅇㄷㅡㅇ	-2936
▁ㅇㅣㄹㅂㅗㄴㅇㅣㄴ	-2937
▁ㄱㅗㅇㄹㅗ	-2938
▁ㅂㅏㄹㄱㅜㄹ	-2939
▁ㅅㅓㅇㅎㅑㅇ	-2940
▁95	-2941
▁ㅅㅓㅇㅂㅜㄴ	-2942
ㅁㅣㄴㅈㅜ	-2943
▁ㄱㅕㅇㅈㅓㄴ	-2944
▁ㅅㅏㄹㄹㅣ	-2945
▁ㅍㅏㄴㅅㅏ	-2946
ㄹㅠㅇ	-2947
▁1941	-2948
ㅇㅕㄴㅎㅣ	-2949
▁ㅌㅡㄱㅂㅕㄹㅅㅣ	-2950
▁ㅇㅓㅁㅊㅓㅇ	-2951
▁ㅂㅏㅇㅎㅐ	-2952
ㅇㅙ	-2953
▁82	-2954
▁ㅁㅕㅇㅎㅘㄱ	-2955
▁59	-2956
og	-2957
▁74	-2958
ㅋㅓㅁ	-2959
▁ㄱㅗㄹㄷㅡㄴ	-2960
ㄷㅏㄹㄹㅣ	-2961
▁ㅌㅗㅇㅅㅏㄴ	-2962
▁ㅎㅘㄱㄹㅠㄹ	-2963
ㄴㅕㄱ	-2964
▁ㅎㅜㅅ	-2965
ul	-2966
▁ㄱㅡㄴㅂㅗㄴ	-2967
▁ㅅㅐㅁ	-2968
▁to	-2969
▁ㄷㅏㅇㅊㅗ	-2970
▁ㅇㅕㅇㅇㅜㅇ	-2971
▁178	-2972
▁ㅇㅏㄴㄷㅗㅇ	-2973
▁1958	-2974
▁ㅍㅏㄹㄹㅣ	-2975
ㅍㅗㄹㄹㅔ	-2976
▁ㄷㅏㄴㄷㅗㄱ	-2977
▁ㅇㅣㅂㄹㅕㄱ	-2978
ㅂㅗㅅ	-2979
▁ㅌㅔㄱㅅㅏ	-2980
ㄹㅗㅁ	-2981
▁ㅁㅜㄴㅁㅕㅇ	-2982
ㄹㅏㄴㅅㅣ	-2983
▁ㅎㅗㅇㅂㅗ	-2984
▁ㅊㅜㄹㄹㅕㄱ	-2985
▁SS	-2986
▁ㄱㅏㄱㅈㅣ	-2987
▁ㅎㅏㄴㄱㅖ	-2988
▁ㄹㅐㄴㄷㅡ	-2989
▁ㅈㅓㄱㅈㅓㄹ	-2990
▁1947	-2991
▁ㅈㅜㄹㄱㅣ	-2992
ㅅㅗㄹ	-2993
▁ㄹㅓㅆ	-2994
▁ㅅㅐㅇㄱㅕ	-2995
▁76	-2996
▁ㄱㅗㅇㅎㅓㄴ	-2997
▁ㄷㅗㅇㅁㅕㅇ	-2998
▁72	-2999
▁ㅎㅗㄴㅎㅏㅂ	-3000
ㄴㅓㅁ	-3001
ㄴㅛ	-3002
▁ㅎㅏㄴㄱㅜㄱㅇㅣㄴ	-3003
▁ㅊㅜㅇㄱㅕㄱ	-3004
▁ㅇㅗㄹㅎㅐ	-3005
▁ㅇㅣㅁㄱㅣ	-3006
▁ㅈㅏㄱㅇㅟ	-3007
▁1956	-3008
▁ㅇㅝㄴㅎㅕㅇ	-3009
ㅋㅡㄹㄹㅣ	-3010
ie	-3011
▁ㅇㅑㅇㅉㅗㄱ	-3012
ud	-3013
▁77	-3014
▁ㅇㅏㄱㅎㅘ	-3015
▁ㄱㅕㅇㄴㅏㅁ	-3016
▁ㅅㅡㅇㄱㅐㄱ	-3017
ㅋㅡㄹㄹㅔ	-3018
ㅇㅑㅇㅇㅣ	-3019
ㅋㅗㅁ	-3020
▁ㅅㅜㄴㅅㅜ	-3021
▁ㅈㅓㅇㅅㅜ	-3022
▁ㅎㅏㄱㅅㅏㄹ	-3023
▁DNA	-3024
▁ㅈㅓㅁㅈㅓㅁ	-3025
▁ㅂㅏㅇㅇㅟ	-3026
ly	-3027
▁ㅂㅠ	-3028
ㅊㅣㅁㄴㅐ	-3029
▁ㅅㅣㅁㅅㅏ	-3030
▁ㅇㅓㅁㅊㅓㅇㄴㅏ	-3031
ㅇㅣㄹㅅㅡ	-3032
▁ㄷㅏㄴㅍㅕㄴ	-3033
▁ㅈㅓㅂㅊㅗㄱ	-3034
▁67	-3035
▁ㅈㅣㅇㅇㅕㄱ	-3036
▁ㄷㅏㄹㄹㅏ	-3037
▁ㅈㅏㅁㅅㅜ	-3038
▁ㅅㅔㄴㅌㅡ	-3039
ㅅㅔㅂ	-3040
th	-3041
▁ㅋㅗㅁ	-3042
▁160	-3043
▁AFC	-3044
▁ㅎㅏㄴㄱㅡㄹ	-3045
ㅅㅔㅁ	-3046
▁ㅇㅣㅂㅂㅓㅂ	-3047
▁ㄷㅏㅇㄴㅏ	-3048
▁ㅇㅏㄱㄱㅣ	-3049
▁ㅎㅏㅁㄹㅏㄱ	-3050
▁ㄱㅜㄱㄱㅣ	-3051
▁Th	-3052
ㅅㅣㄱㅈㅣ	-3053
▁ㅂㅜㄴㅇㅟ	-3054
▁ㄱㅏㅁㅅㅣ	-3055
▁ㄴㅕ	-3056
▁1939	-3057
▁ㅊㅏㅁㄱㅗ	-3058
▁Lo	-3059
▁ㅎㅜㄹ	-3060
▁ㅂㅕㅇㅎㅏㅂ	-3061
ist	-3062
ㄹㅐㅅㄷㅗㅇㅇㅏㄴ	-3063
ight	-3064
▁ㅇㅏㅁㅎㅗ	-3065
▁ㅅㅣㄹㅎㅕㄴ	-3066
▁ㅍㅐㅇ	-3067
▁ㅂㅐㄱㅅㅓㅇ	-3068
▁ㅂㅗㄱㅇㅝㄴ	-3069
▁ㅇㅘㅇㅅㅣㄹ	-3070
▁85	-3071
▁ㅎㅜㅅㄴㅏㄹ	-3072
▁ㅊㅜㅁ	-3073
▁ㅎㅜㄴㅈㅏㅇ	-3074
▁*	-3075
▁ㅇㅣㅁㅈㅣㄴㅇㅙ	-3076
AS	-3077
▁1954	-3078
▁ㅅㅕ	-3079
▁ㄷㅜㅇ	-3080
▁ㅁㅔㄴ	-3081
▁ㅁㅓㄹㄹㅣ	-3082
ㅎㅡㅂ	-3083
▁ㅂㅏㄹㅂㅏㄹ	-3084
▁ㅅㅏㅇㅇㅕㄱ	-3085
▁ㅇㅣㄴㅅㅙ	-3086
▁ㅍㅕㅇㅇㅏㄴ	-3087
▁ㅍㅗㄱㅌㅏㄴ	-3088
▁ㅈㅣㄴㅈㅓㅇ	-3089
▁ㄷㅡㅇㅍㅏㄴ	-3090
▁ㅈㅓㅁㅅㅜ	-3091
▁ㅆㅏㄹ	-3092
ㅃㅏ	-3093
ㄴㅣㅅ	-3094
ㄲㅏㅌ	-3095
▁ㅂㅏㄹㅇㅡㅁ	-3096
▁ㅇㅝㄴㅅㅜ	-3097
▁ㄱㅡㅂㅈㅔ	-3098
▁ㅅㅣㄴㅂㅜ	-3099
▁ㄲㅓㄲ	-3100
ㄴㅕㅁㅁㅜㄹ	-3101
▁ㅇㅕㄴㅇㅖ	-3102
AT	-3103
▁ㄱㅠㄴㅎㅕㅇ	-3104
▁1952	-3105
▁ㅇㅕㅇㅈㅣ	-3106
▁73	-3107
▁202	-3108
▁ㅅㅏㅇㅈㅜ	-3109
ㅁㅓㄱ	-3110
▁ㅅㅓㄱㅇㅠ	-3111
▁ㄷㅗㄱㅇㅣㄹㄱㅜㄴ	-3112
▁ㅂㅣㄹㅂㅗ	-3113
▁ㄱㅣㅅ	-3114
▁ㅇㅏㄴㅌㅗ	-3115
▁ㅅㅏㄴㅎㅘ	-3116
▁ㄱㅏㄹㄹㅏ	-3117
ㄹㅡㄹㄹㅗ	-3118
▁ㄱㅕㅂ	-3119
▁ㄷㅗㅇㅇㅑㅇ	-3120
▁ㅊㅏㅁㅁㅗ	-3121
▁ㅇㅣㄹㅈㅏ	-3122
▁ㅁㅜㄴㅅㅣㄴ	-3123
▁ㅇㅣㄹㅅㅏㅇ	-3124
ㄴㅗㄹ	-3125
▁ㅅㅜㄴㄱㅏㄴ	-3126
▁ㅋㅟㄴ	-3127
▁ㄴㅗㄹㄹㅏ	-3128
ㄹㄹㅓㄴ	-3129
▁ㅂㅗㄱㅅㅜ	-3130
ㄱㅝㄹ	-3131
▁78	-3132
▁ㅎㅘㄱㄹㅣㅂ	-3133
▁ㅇㅣㄹㅅㅣ	-3134
▁ㅊㅣㅁㅇㅣㅂ	-3135
▁ㄱㅗㅇㅈㅜㅇ	-3136
▁81	-3137
ess	-3138
▁96	-3139
ㅁㅓㅇ	-3140
▁ㅈㅏㅇㄴㅏㅁ	-3141
▁ㅈㅓㄴㅅㅣㄴ	-3142
▁ㅊㅣㅁㄹㅑㄱ	-3143
▁ㅂㅗㄱㅇㅡㅁ	-3144
▁ㅂㅏㄱㅈㅓㅇㅎㅢ	-3145
▁Al	-3146
ㅍㅣㄹㄷㅓ	-3147
▁ㅊㅏㅇㅈㅏㄱ	-3148
▁ㅇㅣㄹㅋㅓ	-3149
▁DV	-3150
▁ㅇㅣㄹㅋㅓㄷ	-3151
▁ㅂㅣㄹㄷㅣㅇ	-3152
▁\	-3153
▁ㄱㅝㄴㅇㅟ	-3154
▁ㅁㅣㄴㅈㅜㅇ	-3155
▁ㅇㅏㄵ	-3156
▁ㅈㅓㄴㅈㅣㄱ	-3157
▁ㅎㅕㄱㅅㅣㄴ	-3158
▁ㄷㅓㄹ	-3159
▁ㄷㅏㅇㄱㅜㄱ	-3160
▁NH	-3161
▁ㅅㅣㄴㅈㅏ	-3162
▁ㅈㅗㅇㅅㅏ	-3163
▁ㅅㅡㅇㅂㅜ	-3164
▁ㅇㅏㄹㅂㅏ	-3165
▁ㅎㅗㅅㅋㅏ	-3166
▁ㅊㅓㄴㅇㅏㄴ	-3167
▁71	-3168
▁ㄱㅜㅂ	-3169
▁Li	-3170
▁1959	-3171
▁st	-3172
▁ㅈㅓㄴㄴㅏㅁ	-3173
▁AT	-3174
▁ㅊㅗㅇㅎㅚ	-3175
ㅎㅐㅇㄱㅣ	-3176
▁ㅎㅘㅇㅎㅜ	-3177
▁ㅇㅐㄱㅅㅕㄴ	-3178
ㄹㅈㅣ	-3179
ㅅㅏㄴㄱㅘㅇㅇㅕㄱㅅㅣ	-3180
ㅇㅣㄴㅁㅜㄹ	-3181
▁91	-3182
BA	-3183
▁ㄹㅕㄱ	-3184
▁ㄷㅗㅇㅂㅏㅇ	-3185
▁ㅇㅟㅅ	-3186
ㅇㅛㅇㅈㅏ	-3187
▁ㅍㅕㅇㄹㅗㄴ	-3188
▁177	-3189
▁ㄷㅗㅇㅎㅐ	-3190
▁ㅂㅜㅅ	-3191
▁ㅅㅣㄴㄱㅗ	-3192
ub	-3193
▁ㄱㅡㅇ	-3194
▁ㅈㅜㅇㄹㅕㄱ	-3195
▁ㅅㅡㅇㄹㅕ	-3196
▁ㅌㅏㄹㅌㅚ	-3197
▁ㅈㅗㅎㅇㅏ	-3198
▁ㅂㅗㄴㅈㅣㄹ	-3199
ㅅㅏㄴㅁㅜㄹ	-3200
▁ㄱㅗㄹㄷㅡ	-3201
▁ㅎㅐㅇㅂㅗㄱ	-3202
ㅖㄴ	-3203
▁ㅈㅣㄹㅎㅘㄴ	-3204
▁ㅅㅐㅇㅁㅜㄹㅎㅏㄱ	-3205
▁AP	-3206
▁ㅈㅓㄹㅂㅏㄴ	-3207
▁ㄷㅡㄹㅇㅣ	-3208
▁ㅅㅣㄴㅅㅏ	-3209
▁ㅇㅘㅇㅎㅜ	-3210
▁ㅈㅓㅇㅊㅏ	-3211
▁1942	-3212
▁ㅂㅐㄱㅁㅏㄴ	-3213
▁87	-3214
▁ㅇㅣㄴㅇㅛㅇ	-3215
▁ㄱㅜㄱㄱㅜㄴ	-3216
▁ㅇㅣㄹㅂㅗㄴㅇㅓ	-3217
▁159	-3218
▁ㅅㅣㅇㄱㅏ	-3219
ㅅㅔㄹㄹㅗ	-3220
▁ㅅㅣㄹㄹㅕㄱ	-3221
▁ㅅㅏㄴㅅㅗ	-3222
ab	-3223
▁1955	-3224
▁ㅇㅣㄴㅅㅐㅇ	-3225
▁ㅇㅕㅇㅈㅜ	-3226
▁ㅅㅏㅇㄱㅘㄴ	-3227
▁ㅅㅗㄴㅅㅏㅇ	-3228
▁ㅇㅘㅇㅂㅣ	-3229
▁ㅈㅏㄱㄷㅗㅇ	-3230
▁ㅅㅣㅁㅈㅏㅇ	-3231
▁ㅍㅠ	-3232
ㅅㅏㄱ	-3233
▁ㅈㅓㄴㄷㅗㅇㅊㅏ	-3234
▁ㅎㅗㄴㅇㅣㄴ	-3235
▁1953	-3236
ㅅㅜㄹㄱㅘㄴ	-3237
IA	-3238
▁84	-3239
ㅇㅓㅂㅈㅏ	-3240
▁ㅇㅝㄴㄴㅕㄴ	-3241
▁1936	-3242
▁ㅇㅑㄱㅁㅜㄹ	-3243
▁ㅇㅏㄹㄱㅗ	-3244
▁1943	-3245
▁ㄱㅘㄴㅇㅕ	-3246
ㅇㅗㄹㄹㅣ	-3247
ew	-3248
▁ㅇㅜㅁㅈㅣㄱㅇㅣㅁ	-3249
▁ㄱㅣㅁㅅㅓㅇ	-3250
▁="	-3251
▁ㅌㅗㅇㅎㅘ	-3252
ine	-3253
▁ㅂㅓㅂㅁㅜ	-3254
▁ㅂㅗㄴㅁㅕㅇ	-3255
▁ㅈㅣㄴㄷㅏㄴ	-3256
▁ㄱㅏㅇㄹㅡㅇ	-3257
▁ㅇㅕㄱㅎㅏㄱ	-3258
▁ㅅㅓㄴㅇㅣㅁ	-3259
▁ㅅㅣㅁㅈㅣ	-3260
▁ㅅㅓㄴㅂㅏㄱ	-3261
▁700	-3262
▁ㅍㅣㄹㄷㅡ	-3263
ㄷㅗㄱㅂㅜ	-3264
▁ㅂㅏㄹㅌㅏㄱ	-3265
▁ㅈㅔㄴ	-3266
▁ㅈㅓㄴㅂㅜㄱ	-3267
▁ㅇㅣㄹㅊㅔ	-3268
▁ㅎㅏㄱㅅㅏ	-3269
▁ㄱㅣㅁㅇㅣㄹㅅㅓㅇ	-3270
▁ㅎㅣㅂ	-3271
ㄸㅏ	-3272
ㅅㄱㅏ	-3273
▁ㄷㅡㅅㅇㅣ	-3274
▁Re	-3275
ㄹㅗㄴㅌㅗ	-3276
IV	-3277
▁ㅈㅓㄱㅎㅏㅂ	-3278
▁1910	-3279
▁ㄱㅕㄹㅇㅢ	-3280
▁ㅈㅓㄴㄷㅏㅇ	-3281
ㅌㅏㄴㅌㅣ	-3282
ㄹㅏㄴㅅㅐㄱ	-3283
▁ㅊㅗㅇㅈㅏㅇ	-3284
▁ㄱㅜㄱㅈㅓㅇ	-3285
▁1957	-3286
▁ㅇㅡㅁㅅㅓㅇ	-3287
▁ㅇㅣㄴㅇㅝㄴ	-3288
▁ㅇㅡㅁㅇㅏㄱㄱㅏ	-3289
ㄲㅣㅁ	-3290
▁ㄱㅣㅁㄷㅐ	-3291
▁ㄱㅣㅁㅈㅗㅇ	-3292
▁ㅊㅏㅇㄷㅏㅇ	-3293
ㄴㅎㅔㄴ	-3294
▁ㅅㅣㅁㅍㅏㄴ	-3295
▁1914	-3296
ㅈㅣㄱㅈㅏ	-3297
▁69	-3298
▁ㅇㅕㄴㅅㅡㅂ	-3299
ue	-3300
▁ㅁㅜㄷ	-3301
ㅇㅓㄴㅅㅣㅂ	-3302
▁ㅅㅏㅇㅅㅣㄹ	-3303
▁ㄷㅣㄴ	-3304
▁1900	-3305
▁ㅇㅣㄹㄱㅣ	-3306
▁ㅈㅓㄴㅅㅗㅇ	-3307
▁97	-3308
▁ㄷㅡㄱㅍㅛ	-3309
▁{	-3310
ㄹㅜㄴ	-3311
ㅇㅞㄹ	-3312
EC	-3313
▁ㅅㅐㅇㅌㅐ	-3314
▁ㄱㅓㅁㅌㅗ	-3315
▁HD	-3316
▁ㄱㅓㅁㅅㅐㄱ	-3317
ㄹㅌㅡ	-3318
▁ㅌㅗㅂ	-3319
ㅅㅜㄹㄱㅏ	-3320
▁ㅎㅡㄴㅎㅏ	-3321
▁ㅇㅕㄴㅍㅕㅇ	-3322
▁ㅅㅓㄱㅅㅏ	-3323
▁ㄱㅜㅇㅈㅓㄴ	-3324
▁01	-3325
▁ㅈㅗㄴㅅㅡ	-3326
▁ㅂㅜㄹㅁㅏㄴ	-3327
▁ㅇㅓㄱㅈㅔ	-3328
▁DVD	-3329
▁ㅋㅗㄴㅌㅔㄴㅊㅡ	-3330
▁ㅋㅙ	-3331
▁ㄷㅗㅇㅂㅜㄱ	-3332
ㅅㅓㄴㅊㅗㅇ	-3333
▁ㅅㅓㄴㅎㅕㅇ	-3334
▁ㄲㅔ	-3335
▁92	-3336
▁ㅂㅏㄹㅁㅕㅇ	-3337
ㄹㅔㅁ	-3338
▁ㅇㅣㄱㅅㅡ	-3339
ㅋㅔㅅㅁㅗㄴ	-3340
ㅅㅓㄴㅊㅗㅇㄷㅗㄱㅂㅜ	-3341
▁1938	-3342
▁ㅂㅜㄴㄱㅛ	-3343
▁ㅍㅜㅅ	-3344
▁ㅅㅣㄴㄷㅗ	-3345
▁;,	-3346
ㅇㅝㄴㄱㅕㅇ	-3347
▁ㅍㅗㄱㄱㅕㄱ	-3348
ㅌㅣㅁ	-3349
▁101	-3350
▁ㅃㅓ	-3351
▁on	-3352
▁ㅈㅐㄱㅅㅡㄴ	-3353
ㄹㅔㄱ	-3354
▁ㅁㅏㄹㄹㅣ	-3355
BM	-3356
▁ㄷㅓㅇ	-3357
▁ㄱㅣㅍㅇㅣ	-3358
ect	-3359
ㅇㅖㄴ	-3360
▁ㅎㅣㄴ	-3361
▁ㄱㅕㄹㄹㅗㄴ	-3362
▁ㅅㅣㄴㅈㅏㅇ	-3363
ㅂㅐㅁ	-3364
▁ㅃㅗㅂ	-3365
▁ㅍㅓㅇ	-3366
▁ㅅㅏㅇㅅㅜ	-3367
▁ㅁㅗㄹㄹㅣ	-3368
▁ㅍㅣㄹㅅㅜ	-3369
▁ㄷㅡㅇㅈㅏㅇㅇㅣㄴㅁㅜㄹ	-3370
ㅊㅗㅇㄹㅣ	-3371
▁ㅅㅏㅇㅅㅗㄱ	-3372
▁ㅎㅘㄴㅅㅡㅇ	-3373
▁ㅎㅏㅅ	-3374
▁ㅊㅓㄴㅁㅏㄴ	-3375
▁ㅇㅕㅇㅇㅑㅇ	-3376
▁ㅅㅓㄹㄷㅡㄱ	-3377
▁ㅇㅟㅇ	-3378
ㅍㅗㅁ	-3379
▁ㅂㅏㅇㅇㅓㄴ	-3380
▁ㅈㅡㄱㅅㅣ	-3381
▁1951	-3382
▁ㅂㅜㄴㄴㅗ	-3383
ㄲㅏㄹ	-3384
▁1932	-3385
▁ㅋㅞ	-3386
▁ㅅㅣㅇㅇㅓ	-3387
▁ㅈㅣㄴㅇㅕㅇ	-3388
▁ㅋㅓㄴㅌㅡ	-3389
▁ㄱㅘㅇㅂㅓㅁ	-3390
▁ㄷㅏㅁㄱㅣ	-3391
▁ㅇㅓㄴㄷㅓㄱ	-3392
▁ㅇㅛㅇㅇㅣㄴ	-3393
▁ㄱㅏㅂㅈㅏ	-3394
▁ㄱㅡㅇㅈㅓㅇ	-3395
▁ㅇㅓㅂㅈㅓㄱ	-3396
▁1918	-3397
▁ㅇㅜㄴㅎㅏㅇ	-3398
ㅌㅣㄴㅇㅓ	-3399
ㅍㅐㄱ	-3400
ㅂㅡㄹㄹㅣ	-3401
▁ㅁㅏㄱㄷㅐ	-3402
▁89	-3403
▁ㅂㅏㄹㄹㅔ	-3404
▁ㅂㅡㄹㄹㅗㄱ	-3405
▁ㄹㅓㅆㄷㅏ	-3406
▁ㅂㅏㄴㅅㅏ	-3407
▁ㅇㅓㄴㅅㅡ	-3408
▁ㅈㅜㅇㅊㅜ	-3409
▁ㅇㅏㅁㅋㅓㅅ	-3410
▁ㄴㅡㄹㄹㅣ	-3411
▁ㅋㅣㄹㄹㅗ	-3412
▁1935	-3413
▁ㅎㅢㄴㅅㅐㄱ	-3414
ㅅㅏㄴㅎㅘ	-3415
▁1937	-3416
▁ㅇㅕㄴㅅㅓㄹ	-3417
ㄱㅘㄱ	-3418
▁ㅂㅓㄴㅈㅣ	-3419
▁FM	-3420
▁ㄱㅜㄱㅈㅓㄱ	-3421
▁ㄴㅣㄱ	-3422
▁ㅂㅜㄹㅇㅏㄴ	-3423
▁ㅇㅕㄴㄹㅏㄱ	-3424
▁ㄷㅜㅇㄱㅡㄹ	-3425
▁ㄷㅗㄱㅈㅐ	-3426
▁ㅇㅗㄹㅅㅡ	-3427
▁ㄱㅗㅇㅅㅣㄴ	-3428
IN	-3429
ㄱㅗㅇㅅㅏ	-3430
▁Be	-3431
▁OS	-3432
ㅍㅔㄱㅌㅡ	-3433
▁93	-3434
▁ㅊㅓㅂ	-3435
▁ㅁㅜㄹㄱㅗ	-3436
▁ㅋㅝ	-3437
▁ㅁㅏㄴㄷㅡㄴ	-3438
▁ㅈㅏㅂㅎㅣ	-3439
▁ㅉㅏㄱ	-3440
▁ㅂㅏㄹㄱㅏㄴ	-3441
▁ㄱㅏㄱㄱㅜㄱ	-3442
ore	-3443
▁ㄱㅕㅇㅂㅣ	-3444
▁182	-3445
ㅌㅐㄴ	-3446
▁ㅊㅣㅇㅎㅗ	-3447
▁ㅍㅏㄹㄹㅔ	-3448
▁ㅁㅟㄴㅎㅔㄴ	-3449
▁ㅇㅣㄹㄹㅕㄴ	-3450
ㅂㅗㄴㅈㅜ	-3451
▁ㄱㅗㄱㅅㅓㄴ	-3452
▁ㅎㅏㅇㄱㅗㅇㅅㅏ	-3453
▁ㅅㅓㅇㄴㅏㅁ	-3454
▁ㅁㅕㄴㅇㅕㄱ	-3455
▁ㅇㅠㄴㄹㅣ	-3456
▁ㅂㅣㅈ	-3457
▁ㅅㅏㅇㅇㅣㄴ	-3458
▁ㅈㅣㄴㅎㅏㄱ	-3459
▁ㅅㅜㅁㄱㅣ	-3460
▁94	-3461
▁ㄱㅡㅂㄱㅕㄱ	-3462
▁ㅂㅓㅂㅎㅏㄱ	-3463
▁1928	-3464
▁ㅅㅣㄹㅊㅓㄴ	-3465
▁ㄸㅗㄱ	-3466
ㅅㅔㄴㅌㅡ	-3467
▁ㅈㅣㄴㄱㅕㄱ	-3468
▁ㅌㅏㅇ	-3469
▁ㅇㅑㅇㅅㅏㄴ	-3470
▁ㅂㅏㄴㅈㅣ	-3471
ㅁㅏㅇㅈㅏ	-3472
▁ㅁㅗㄱㅅㅓㅇ	-3473
ㄷㅗㅇㅅㅐㅇ	-3474
▁ㅂㅜㄴㅎㅘ	-3475
▁ㄴㅏㅁㄴㅕ	-3476
end	-3477
▁ㅂㅐㄱㅇㅣㄴ	-3478
▁ㄱㅓㅌ	-3479
ㄴㅣㄱㅅㅡ	-3480
ㄹㄹㅔㄴ	-3481
▁ㅅㅗㄴㅅㅣㄹ	-3482
▁ㅋㅜㄹ	-3483
▁ㄷㅗㅇㄱㅕㅇ	-3484
our	-3485
▁ㅇㅘㄴㅂㅕㄱ	-3486
▁1933	-3487
▁ㄲㅡㄹㅇㅓ	-3488
▁ㄱㅘㅇㅂㅓㅁㅇㅟ	-3489
▁ㅈㅓㄴㅅㅜㄹ	-3490
ㅂㅔㄴㅌㅡ	-3491
▁ㅍㅐㄱ	-3492
▁CP	-3493
▁ㄱㅏㅇㄴㅏㅁ	-3494
▁ㅁㅜㄹㄱㅓㄴ	-3495
▁1924	-3496
ㅅㅜㅁ	-3497
ell	-3498
ㄷㅜㅂ	-3499
▁79	-3500
▁ㄷㅗㅇㅎㅘ	-3501
▁ㅊㅣㄹㄹㅔ	-3502
▁ㄱㅕㅇㅅㅏ	-3503
▁ㅌㅜㄹ	-3504
▁ㅈㅓㅇㄹㅠ	-3505
ain	-3506
▁09	-3507
ㅍㅏㄴㅅㅗ	-3508
▁ㅊㅏㄴㅅㅓㅇ	-3509
▁ㅅㅓㄴㅍㅗ	-3510
ㅅㅡㄹㄹㅣㅇ	-3511
▁04	-3512
▁ㅇㅕㄹㅁㅐ	-3513
▁110	-3514
▁ㅇㅕㅇㄱㅜ	-3515
ㅌㅗㅂ	-3516
▁ㄱㅕㄱㅍㅏ	-3517
▁ㅂㅗㅇㅅㅏ	-3518
▁ㄷㅏㅇㅇㅝㄴ	-3519
▁ㅁㅜㄲ	-3520
▁ㄷㅗㅇㄱㅜㄹ	-3521
ㅌㅜㄴ	-3522
ㄷㅗㅇㅈㅗ	-3523
▁ㅁㅓㄹㅌㅣ	-3524
▁ㅈㅣㄹㅁㅜㄴ	-3525
ㄴㅔㄹ	-3526
▁ㄹㅐㅂ	-3527
ㅍㅣㄹㄷㅡ	-3528
▁08	-3529
ㅉㅓ	-3530
▁ㅊㅗㄱㅈㅣㄴ	-3531
ill	-3532
ㅇㅣㅍ	-3533
▁ㅇㅛㅇㄷㅗ	-3534
▁ㅌㅏㄴㅇㅏㅂ	-3535
ers	-3536
▁83	-3537
▁ㄱㅣㅁㅎㅐ	-3538
▁ㅍㅕㅇㅁㅕㄴ	-3539
ㄹㅟ	-3540
▁ㅃㅕ	-3541
▁ㅈㅣㅂㅎㅚ	-3542
▁ㅅㅡㄹㄹㅏ	-3543
▁ㅇㅣㄹㄹㅣ	-3544
▁ㅇㅝㄴㅅㅣ	-3545
ID	-3546
▁ㄷㅗㅇㅈㅣ	-3547
▁ㅎㅏㅇㅇㅢ	-3548
▁ㄱㅏㅁㄱㅏㄱ	-3549
▁ㅍㅏㄴㅌㅏ	-3550
▁ㅍㅓㄴ	-3551
ㅌㅗㄹㄹㅣㄱㄱㅛ	-3552
ㅇㅑㅇㅅㅣ	-3553
ㄱㅔㄹ	-3554
▁ㄷㅐㄴㅅㅡ	-3555
▁ㅍㅕ	-3556
▁ㅇㅣㅂㄷㅐ	-3557
AN	-3558
▁ㅇㅏㄴㅌㅣ	-3559
▁Co	-3560
ard	-3561
ㅜㄱㅅㅡ	-3562
▁ㄴㅏㅁㄱㅡㄱ	-3563
▁ㅅㅣㄹㄴㅐ	-3564
▁ㅎㅏㅁㄱㅕㅇ	-3565
▁ㄱㅜㄴㅂㅜ	-3566
▁ㄱㅐㄹ	-3567
▁ㅇㅜㄴㅅㅗㅇ	-3568
▁ㅅㅓㄴㄹㅗ	-3569
▁ㅌㅏㄴㅎㅐㄱ	-3570
▁ㅈㅓㄴㅁㅏㅇ	-3571
▁ㄹㅣㅂ	-3572
▁ㅊㅜㄱㅅㅗ	-3573
ㅁㅕㅇㅅㅏ	-3574
▁170	-3575
▁ㄱㅜㄱㅌㅗ	-3576
▁ㄸㅔ	-3577
▁ㅇㅕㅇㅇㅝㄴ	-3578
▁ㅈㅓㅇㅁㅕㄴ	-3579
▁ㅈㅓㄴㅈㅓㄱ	-3580
▁ㄱㅡㄱㄷㅏㄴ	-3581
▁ㅇㅜㅅ	-3582
▁ㅎㅣㅂㅎㅏㅂ	-3583
▁ㅎㅏㄹㅇㅏ	-3584
▁ㅇㅡㄴㅁㅔ	-3585
▁ㅌㅣㄴ	-3586
ㄷㅗㅇㄷㅏㅇ	-3587
▁ㅃㅏㅇ	-3588
▁ㅊㅗㅇㅈㅐ	-3589
▁MS	-3590
▁ㄱㅕㅇㅂㅜㄱ	-3591
▁ㄱㅏㄴㅂㅜ	-3592
▁ㄷㅗㅇㅁㅔ	-3593
▁ㄷㅓㅅㅂㅜㅌㅇㅣ	-3594
▁ㅃㅓㄷ	-3595
▁ㅅㅓㄴㅎㅗ	-3596
ㅇㅏㄴㄱㅜㄴ	-3597
▁ㄱㅕㅇㅊㅏㄹㅅㅓ	-3598
▁ㅇㅗㅂ	-3599
▁1934	-3600
▁ㅁㅣㄹㄹㅏ	-3601
▁ㄴㅡㄱ	-3602
▁th	-3603
▁cod	-3604
▁ㅅㅡㅂㄱㅕㄱ	-3605
▁ㅈㅡㅇㅇㅓㄴ	-3606
▁130	-3607
ㅇㅑㅇㄱㅜㄴ	-3608
▁ㄴㅗㄹㅇㅣ	-3609
ㅎㅏㅂㅁㅜㄹ	-3610
▁ㅂㅔㄹㄹㅏ	-3611
▁De	-3612
▁ㅎㅕㅇㅅㅏㅇ	-3613
▁ㄷㅗㅇㄱㅜ	-3614
▁ㅈㅣㄹㅅㅓ	-3615
▁ㄹㅏㄹ	-3616
▁ㄱㅜㄱㅂㅏㅇㅂㅜ	-3617
▁ㄱㅡㄹㄹㅣ	-3618
OR	-3619
▁ㅎㅡㄴㅈㅓㄱ	-3620
▁ㅈㅏㅇㄹㅗ	-3621
▁ㅊㅓㄹㄱㅓ	-3622
ㄹㅐㄴㅅㅡ	-3623
▁ㅍㅕㄴㅇㅢ	-3624
▁140	-3625
▁ㅇㅏㄴㅉㅗㄱ	-3626
▁ㅈㅜㅇㄷㅗㅇ	-3627
ne	-3628
▁ㅈㅓㅂㅅㅗㄱ	-3629
ㅋㅗㅅ	-3630
ㄷㅡㄹㄹㅣ	-3631
ㅍㅕㅇㄱㅏ	-3632
▁ㅇㅐㄱㅊㅔ	-3633
▁ㅇㅓㅇ	-3634
▁ㅎㅗㄴㅈㅏ	-3635
▁ㅇㅣㅂㄱㅜ	-3636
▁ㅈㅓㅇㅈㅗ	-3637
ㅎㅔㄹ	-3638
▁ㅌㅔㄹ	-3639
▁Sh	-3640
▁ST	-3641
ㄴㅓㄴ	-3642
▁ㄹㅜㅁ	-3643
▁ㄱㅘㅇㅅㅏㄴ	-3644
▁Me	-3645
▁ㅈㅓㅇㅌㅗㅇ	-3646
▁ㅇㅏㄹㄹㅔㄱㅅㅏㄴㄷㅓ	-3647
AM	-3648
▁ㅈㅐㅇ	-3649
▁ㅂㅏㄹㅈㅓㄴㅅㅗ	-3650
ㅍㅗㄹ	-3651
▁ㄷㅏㅇㄷㅐ	-3652
ㅇㅠㄱㄱㅘㄴ	-3653
▁ㅎㅕㄴㅈㅗㄴ	-3654
▁ㅈㅏㅇㄹㅖ	-3655
▁ㄱㅗㄴㅊㅜㅇ	-3656
▁ㅎㅏㄴㅅㅓㅇ	-3657
ㅁㅜㄱ	-3658
▁ㅈㅜㄹㄹㅣ	-3659
▁ㄴㅗㅇㅈㅏㅇ	-3660
▁ㅎㅏㅂㄷㅗㅇ	-3661
▁ㄱㅡㅁㄱㅏㅇ	-3662
ㄱㅗㅇㅇㅓㅂ	-3663
▁ㅁㅓㅁ	-3664
▁ㅈㅜㅇㅅㅓㅇ	-3665
▁ㅂㅗㄱㅅㅏ	-3666
▁ㄷㅏㄴㅅㅜㄴㅎㅣ	-3667
▁ㅆㅏㅎㅇㅣ	-3668
▁1931	-3669
▁ㅂㅓㅂㅇㅏㄴ	-3670
▁ㅎㅕㄹㅇㅐㄱ	-3671
▁ㅇㅕㄴㅎㅗ	-3672
▁ㄷㅏㄱㅌㅓ	-3673
▁ㄱㅡㄴㅇㅠㄱ	-3674
▁ㅅㅓㅇㅅㅓ	-3675
▁ㅍㅏㄴㅈㅓㅇ	-3676
▁ㅂㅐㄴ	-3677
▁ㅈㅣㄱㅁㅜ	-3678
▁ㅈㅜㅇㅈㅣ	-3679
▁ㅂㅐㅁ	-3680
▁ㄱㅏㅇㄷㅗ	-3681
▁ㅂㅏㄴㅎㅏ	-3682
▁ㅇㅕㄴㅍㅕㅇㄱㅠㄴ	-3683
▁ㄴㅣㄹ	-3684
▁ㅌㅡㅁ	-3685
▁ㄱㅣㅁㄱㅜ	-3686
▁ㅊㅜㅇㅂㅜㄴㅎㅣ	-3687
all	-3688
▁ㅂㅗㄴㅌㅗ	-3689
▁y	-3690
▁ㅈㅠ	-3691
▁ㄱㅏㅇㄷㅡㅇ	-3692
▁ㅁㅕㄹㅈㅗㅇ	-3693
▁ㅈㅡㅇㄱㅝㄴ	-3694
▁ㅈㅓㅇㅎㅘㄱㅎㅣ	-3695
▁ㅂㅜㄱㅁㅣ	-3696
▁ㅍㅔㄹㄹㅣ	-3697
ㅇㅑㅇㅊㅔ	-3698
▁ㄷㅏㅇㅅㅣㄴ	-3699
▁ㄱㅗㄹㅋㅣ	-3700
▁ㅈㅜㅇㄱㅖ	-3701
ㅋㅣㅅ	-3702
▁ㅅㅣㄹㅇㅓㅂ	-3703
▁ㄹㅑ	-3704
▁ㅂㅗㅇㄱㅣ	-3705
ㄹㅣㄴㅅㅡ	-3706
▁ㅂㅡㄹㄹㅗ	-3707
▁ㄷㅏㄴㅅㅓㄴ	-3708
▁An	-3709
ㅘㄴ	-3710
▁ㅁㅗㄱㅍㅗ	-3711
▁ㄱㅐㄹㄹㅓㄱ	-3712
▁05	-3713
▁ㅇㅓㅁㄱㅕㄱ	-3714
▁ㅇㅏㄴㄴㅐ	-3715
▁ㅅㅜㄱㅈㅗㅇ	-3716
ㄱㅜㄱㅇㅓ	-3717
ㄷㅣㄱ	-3718
ㄱㅏㅌ	-3719
ㄹㅡㄴㅂㅏ	-3720
▁ㅁㅗㄹㅇㅏ	-3721
▁ㄱㅓㄷ	-3722
▁ㅌㅡㄱㅎㅓ	-3723
ang	-3724
▁ㄱㅏㄴㄱㅕㄱ	-3725
▁ㅅㅓㄴㅁㅜㄹ	-3726
ss	-3727
ㅌㅗㄱ	-3728
▁ㄷㅗㅁ	-3729
▁ㄱㅐㄹㄹㅓㄱㅅㅣ	-3730
▁ㅊㅓㄹㅎㅏㄱㅈㅏ	-3731
ㅋㅔㄹ	-3732
▁176	-3733
▁ㅇㅣㄹㄹㅔ	-3734
ㅅㅏㄴㄱㅜㄴ	-3735
▁codice	-3736
▁ㅁㅗㅁㅁㅜ	-3737
▁ㅇㅣㅂㅅㅏ	-3738
▁1929	-3739
▁ㅈㅣㄴㅅㅣㄹ	-3740
▁ㅌㅗㄹ	-3741
▁ㅇㅜㄴㄷㅗㅇㄱㅏ	-3742
ㅂㅕㅂ	-3743
▁ㅇㅣㄹㄱㅗㅂ	-3744
ㅂㅐㅇ	-3745
▁ㅍㅓㄹ	-3746
▁07	-3747
ㄷㅗㄹㅍㅡ	-3748
▁ㅈㅗㅇㅈㅓㄴ	-3749
▁1921	-3750
▁ㅅㅏㅁㄱㅏㄱ	-3751
ㅎㅏㄴㅈㅔ	-3752
ity	-3753
▁ㅇㅏㄹㅍㅡ	-3754
▁250	-3755
▁ㅇㅑㅇㅈㅜ	-3756
▁ㅎㅐㅁ	-3757
▁ㅈㅓㄴㅈㅔ	-3758
ㄹㅕㅅ	-3759
ㄴㅓㄹㄷㅡ	-3760
▁ㅌㅡㄱㅂㅕㄹㅎㅣ	-3761
▁ㅎㅑㅇㅌㅗ	-3762
▁SC	-3763
▁ㅁㅐㄴㅊㅔ	-3764
ㄷㅜㅇㅇㅣ	-3765
▁ㅎㅞ	-3766
▁ㅅㅐㅇㅇㅐ	-3767
▁ㅇㅣㄴㅁㅣㄴㄱㅜㄴ	-3768
▁1925	-3769
ㅅㅡㅇㅈㅏ	-3770
ㅅㅚ	-3771
▁ㅌㅏㅅ	-3772
▁ㅎㅏㅇㅎㅐ	-3773
▁ㅁㅏㅌㄱㅣ	-3774
▁ㄷㅏㄻ	-3775
▁ㅇㅑㅇㄱㅜㄱ	-3776
▁ㅂㅜㄹㄹㅓ	-3777
▁ㅈㅗㄴㅅㅡㄴ	-3778
▁ㅂㅡㄹㄹㅔ	-3779
▁ㅎㅏㄹㄹㅣ	-3780
▁ㅍㅣㄹㄹㅏ	-3781
ㅅㅏㅇㅅㅣㄱ	-3782
▁ㅁㅕㅇㅅㅣ	-3783
ㅉㅏㄱ	-3784
▁1923	-3785
▁ㅌㅔㄱㅅㅡ	-3786
▁ㅇㅑㄴ	-3787
ㅈㅏㅇㄱㅜㄴ	-3788
▁ㄴㅗㅇㅊㅗㄴ	-3789
ㄱㅘㄴㅊㅏ	-3790
▁ㅂㅜㄴㅅㅏㄴ	-3791
▁ㄱㅗㅇㄹㅛㅇ	-3792
▁ㅅㅓㄱㅂㅏㅇ	-3793
▁ㅅㅣㄱㄹㅑㅇ	-3794
ㅇㅓㄴㅅㅡ	-3795
▁ㅁㅓㅁㅊㅜ	-3796
ㅇㅣㄹㅂㅗㄴ	-3797
▁ㅇㅣㄹㄷㅏㄴ	-3798
▁ㅈㅣㄴㅎㅡㅇ	-3799
▁ㄱㅗㅁ	-3800
▁ㅈㅓㄱㅇㅓ	-3801
▁ㅋㅗㄹㄹㅗㅁㅂㅣ	-3802
▁ㅋㅐㅁㅍㅡ	-3803
▁ㅊㅏㄱㅇㅛㅇ	-3804
▁ㅈㅏㅇㅈㅓㅁ	-3805
▁ㄱㅕㅇㄱㅗ	-3806
▁ㅂㅜㄱㄱㅡㄱ	-3807
▁ㄷㅏㅇㅅㅏ	-3808
ff	-3809
▁ㅇㅏㅂㅊㅜㄱ	-3810
ㄴㅜㄱㅅㅡ	-3811
▁ㅈㅣㅂㅍㅣㄹ	-3812
▁ㅅㅏㅁㄱㅏㄱㅎㅕㅇ	-3813
▁ㅁㅣㄴㅅㅗㄱ	-3814
▁ㅇㅣㄹㅎㅘㄴ	-3815
▁ㅇㅠㄴㅊㅣ	-3816
▁AC	-3817
▁ㅇㅣㄴㅊㅓㄴㄱㅘㅇㅇㅕㄱㅅㅣ	-3818
▁ㄱㅗㅇㄱㅜㄱ	-3819
▁ㅌㅣㄱ	-3820
▁ㅅㅓㅇㅆㅣ	-3821
▁ㅅㅗㄴㅎㅐ	-3822
▁ㅂㅏㄱㅅㅡ	-3823
▁ㅍㅣㄹㄹㅡㅁ	-3824
▁ㅁㅕㅇㅅㅏ	-3825
▁ㅎㅗㄹㄹㅗ	-3826
ㅎㅐㅇㅅㅓㅇ	-3827
▁ㄷㅗㅇㅇㅣㄹㅂㅗㄴ	-3828
▁ㅈㅗㅇㄹㅗ	-3829
▁ㄹㅗㅁ	-3830
ㅌㅏㄹㄹㅣㄴ	-3831
▁ㅈㅜㅇㄱㅜ	-3832
▁ㄷㅗㄱㅈㅓㅁ	-3833
▁de	-3834
▁ㅂㅜㄹㅎㅘ	-3835
ㅇㅓㄴㅊㅡ	-3836
▁ㄷㅔㄹ	-3837
ㅂㅏㄴㄱㅣ	-3838
▁ㅇㅝㄴㅈㅗ	-3839
▁ㅇㅣㄹㅇㅛ	-3840
▁ㅎㅕㅂㅇㅑㄱ	-3841
▁ㄲㅜㄴ	-3842
▁ㄱㅏㅇㅇㅛ	-3843
▁ㅁㅜㄴㅇㅣㄴ	-3844
▁ㅅㅗㅇㄹㅏ	-3845
▁ㄱㅏㅁㅇㅗㄱ	-3846
▁ㄷㅏㄴㅈㅏㅇ	-3847
▁ㅊㅓㅇㄷㅗㅇ	-3848
▁ㅊㅣㄱ	-3849
▁ㄱㅡㄹㅆㅣ	-3850
▁ㅇㅑㄱㅎㅘ	-3851
▁ㅅㅓㅁㅇㅠ	-3852
▁ㅍㅡㄹㄹㅓ	-3853
▁ㄱㅏㅇㅈㅓㄴ	-3854
▁ㄱㅓㄴㄷㅏㅁ	-3855
▁ㅇㅕㄴㄱㅖ	-3856
ㅎㅑㅇㄱㅗㄱ	-3857
▁ㄷㅗㅇㅂㅏㄴ	-3858
ㄹㅓㄴㅅㅡ	-3859
▁EP	-3860
▁ㅁㅗㄱㅈㅗ	-3861
▁1922	-3862
up	-3863
▁161	-3864
▁ㄱㅕㅁㅎㅏ	-3865
▁ㅅㅞ	-3866
ㄹㅔㅅ	-3867
▁ㅊㅔㄴ	-3868
ㅁㅔㄴㅌㅡ	-3869
▁My	-3870
▁1912	-3871
ㅅㅓㅇㄱㅣ	-3872
ㅋㅡㄹㄹㅣㄴ	-3873
▁ㅎㅡㄹ	-3874
ㅌㅗㅇㅎㅏㄱㄱㅛ	-3875
ㅅㅓㄹㄱㅏ	-3876
▁ㅊㅓㅅㅉㅐ	-3877
▁ㄸㅏㄱ	-3878
▁ㅇㅝㄴㅈㅏㅇ	-3879
▁ㄷㅜㄴ	-3880
▁ㅇㅕㄴㅅㅏㅇ	-3881
▁ㄱㅏㅇㅅㅜ	-3882
▁ㅈㅜㄴㅇㅜ	-3883
▁ㅁㅜㄴㅂㅓㅂ	-3884
▁ㅈㅏㅇㄱㅏㅂ	-3885
▁Go	-3886
▁175	-3887
▁ㅎㅏㄴㄴㅏ	-3888
▁ㄲㅗㅂㅎㅣ	-3889
▁ㄴㅡㄱㄷㅐ	-3890
▁06	-3891
ㅈㅓㄴㄱㅓ	-3892
▁ㅇㅣㅁㅅㅣㄴ	-3893
▁03	-3894
▁ㄱㅐㅇ	-3895
▁ㅇㅞㄹ	-3896
▁ㄱㅓㄴㅊㅜㄱㅁㅜㄹ	-3897
ong	-3898
ip	-3899
▁""	-3900
▁ㄷㅗㅇㅇㅣㄴ	-3901
▁ㅅㅓㅇㅁㅕㅇ	-3902
▁JR	-3903
▁1906	-3904
▁ㄷㅗㅇㅅㅓㅇㅇㅐ	-3905
▁ㅈㅏㅁㅈㅐ	-3906
▁ㅅㅓㄱㅈㅗ	-3907
▁ㅇㅕㄱㅈㅓㄴ	-3908
▁ㅈㅣㄱㅅㅓㄴ	-3909
▁ㄷㅙ	-3910
▁ㄴㅏㅁㄷㅗㅇㅉㅗㄱ	-3911
▁ㅋㅐㅂ	-3912
▁ㅅㅏㄴㅌㅏ	-3913
▁ㅍㅕㅇㄹㅗㄴㄱㅏ	-3914
▁ㅂㅗㄱㄱㅜ	-3915
▁ㅊㅜㅇㅈㅜ	-3916
▁ㄱㅘㄴㄱㅐㄱ	-3917
▁ㅁㅗㄱㅅㅜㅁ	-3918
▁ㅁㅏㅇㅇㅝㄴㄱㅕㅇ	-3919
ㅁㅔㄴㅌㅓ	-3920
▁||	-3921
OM	-3922
▁ㅈㅓㅇㅈㅏ	-3923
▁ㄹㅐㅇㅋㅣㅇ	-3924
▁ㅇㅕㅂ	-3925
▁1908	-3926
▁164	-3927
▁ㅈㅣㄴㄷㅗㅇ	-3928
▁ㅎㅘㅇㅌㅐ	-3929
▁ㅂㅕㄴㅅㅣㄴ	-3930
▁ㅅㅓㄹㅂㅣ	-3931
ㅊㅓㅁ	-3932
▁ㅇㅕㅇㅈㅗ	-3933
▁ㅇㅕㅇㄱㅘㅇ	-3934
ㄹㅡㅅ	-3935
ㅁㅏㅇㅊㅣ	-3936
▁ㅁㅗㄴㅌㅔ	-3937
ld	-3938
IS	-3939
▁ㄱㅡㄴㄹㅗ	-3940
▁ㄱㅕㅇㅇㅠ	-3941
▁KT	-3942
▁Love	-3943
▁ㅂㅜㄱㄷㅗㅇㅉㅗㄱ	-3944
▁ㅅㅏㄱㅈㅔ	-3945
▁ㄹㅓㄱ	-3946
▁ㅉㅡㅁ	-3947
▁ㅂㅏㄹㄹㅔㄴ	-3948
▁ㅍㅕㅇㅅㅐㅇ	-3949
▁ㅎㅜㄹㄹㅠㅇ	-3950
▁ㄱㅗㅇㄱㅕㄱㅅㅜ	-3951
ㅁㅏㅈ	-3952
▁ㅎㅏㅂㄹㅣ	-3953
ㄷㅗㅇㅅㅏㄴ	-3954
▁ㅈㅜㅇㄹㅣㅂ	-3955
▁ㅁㅜㄴㅎㅏ	-3956
▁ㄱㅡㄱㅂㅗㄱ	-3957
▁ㅈㅏㅇㅅㅏ	-3958
ㅅㅐㅇㅁㅜㄹ	-3959
▁ㅇㅕㅇㄱㅏㅁ	-3960
av	-3961
▁ㅂㅣㅅ	-3962
▁ㄷㅗㅇㅅㅏ	-3963
▁SM	-3964
▁1927	-3965
ㅅㅓㄴㅇㅣㄴ	-3966
▁ㅊㅏㅇㄱㅏㄴ	-3967
▁ㅅㅏㄴㅇㅏㄱ	-3968
▁1907	-3969
▁ㅅㅏㄴㅈㅣ	-3970
▁ㅊㅓㅇㅎㅏ	-3971
▁ㅇㅑㄱㅌㅏㄹ	-3972
ㅁㅣㄱㅅㅡ	-3973
▁ㅇㅘㅇㄱㅏ	-3974
▁ㅇㅕㄱㄱㅘ	-3975
ant	-3976
▁ㄱㅗㅇㅅㅔ	-3977
▁ㅌㅗㅇㄹㅗ	-3978
▁ㅇㅕㄴㄹㅕㅇ	-3979
▁ㅅㅓㅇㅈㅣㄱㅈㅏ	-3980
ㅈㅜㅇㅎㅐ	-3981
ㅇㅕㅇㅅㅏㅇ	-3982
▁ㅇㅕㄴㅅㅗ	-3983
▁ㅈㅜㅇㅇㅏㅇㅇㅏ	-3984
▁ㅈㅜㅇㅅㅣ	-3985
ㅁㅏㄹㄹㅣ	-3986
ㄹㅣㄱㅅㅡ	-3987
▁ㅇㅣㄴㅈㅏ	-3988
▁BBC	-3989
ED	-3990
ㄴㅏㄱ	-3991
ㄷㅗㄹㄹㅣ	-3992
▁ㄷㅓㄱㅂㅜㄴ	-3993
AC	-3994
se	-3995
ame	-3996
▁NHK	-3997
ㅌㅔㄴㄷㅗ	-3998
▁ㅅㅏㅂㅇㅣㅂ	-3999
▁ㄴㅣㄴㅌㅔㄴㄷㅗ	-4000
▁ㄱㅜㅅ	-4001
▁ㅂㅏㄱㄱㅡㄴ	-4002
▁He	-4003
▁ㅍㅗㄱㅍㅜㅇ	-4004
▁1926	-4005
▁ㅂㅏㄹㅎㅟ	-4006
▁ㅁㅕㅇㅁㅜㄴ	-4007
▁ㅋㅗㅇㄱㅗ	-4008
▁ㅌㅏㅁㅎㅓㅁ	-4009
▁1917	-4010
ㄹㅡㅍ	-4011
▁ㅂㅐㅇㅋㅡ	-4012
▁ㄸㅗㄱㄱㅏㅌ	-4013
▁ㅈㅛ	-4014
▁ㅈㅓㄴㅈㅏㄱ	-4015
▁ㅎㅡㄺ	-4016
▁ㅇㅕㅇㅎㅗㄴ	-4017
▁ㅎㅏㅇㅁㅗㄱ	-4018
ㄷㅜㄹ	-4019
▁ㅊㅏㅁㅈㅗ	-4020
▁ㅎㅏㅂㄱㅖ	-4021
▁ㅈㅣㄱㅇㅟ	-4022
ㅇㅔㄹㄹㅏ	-4023
ㅅㅡㄹㄹㅗ	-4024
ㅇㅜㄹㄹㅣ	-4025
▁ㄷㅗㄹㅍㅏ	-4026
▁ㄷㅗㅇㅊㅣ	-4027
ㅂㅔㅅ	-4028
▁ㅇㅣㄴㄹㅕㄱ	-4029
ind	-4030
ㄹㅅㅜ	-4031
ㅇㅕㄴㅅㅜ	-4032
▁ㅈㅓㄴㅎㅑㅇ	-4033
▁ㄴㅏㅂㅊㅣ	-4034
ort	-4035
▁ㅇㅘㅇㄹㅣㅂ	-4036
▁MV	-4037
▁SN	-4038
▁ㅂㅟ	-4039
▁ㅈㅓㅇㅅㅏ	-4040
▁ㅅㅏㅇㅇㅕㅇ	-4041
▁ㄷㅗㄱㅇㅣㄹㅇㅓ	-4042
ith	-4043
▁ㅈㅗㅇㅈㅗㄱ	-4044
▁ㅇㅠㄱㅅㅓㅇ	-4045
▁PD	-4046
▁ㅇㅓㅄㅇㅐ	-4047
▁ㅌㅡㄱㄱㅡㅂ	-4048
ㄹㅐㅇㅋㅡ	-4049
▁ㄱㅏㄱㅈㅏ	-4050
ES	-4051
ry	-4052
▁ㅇㅐㄹㄹㅣ	-4053
▁02	-4054
▁ㅈㅣㄴㅅㅜㄹ	-4055
▁ㅇㅡㅁㅁㅗ	-4056
▁ㄷㅗㅇㄴㅏㅁㅇㅏ	-4057
▁ㄱㅜㄱㅁㅣㄴㄷㅏㅇ	-4058
▁ㅇㅝㄴㅅㅏㄴ	-4059
ㅁㅗㄴㄷㅡ	-4060
ok	-4061
▁ㅊㅣㅁㅎㅐ	-4062
▁ㅍㅡㄹㄹㅜ	-4063
ㅇㅝㄴㄱㅜㄱ	-4064
ㄴㅏㅇ	-4065
▁ㅎㅑㅇㄴㅕㄴ	-4066
▁151	-4067
▁ㅅㅏㅇㅁㅜ	-4068
▁ㅇㅐㅂ	-4069
▁ㅇㅏㄹㄹㅏ	-4070
▁ㅅㅓㄱㅌㅏㅂ	-4071
▁Sp	-4072
▁168	-4073
▁ㅅㅐㄱㅅㅏㅇ	-4074
ㅌㅔㄱ	-4075
▁162	-4076
ㅂㅓㅂㅇㅝㄴ	-4077
▁1905	-4078
▁ㄷㅏㄴㅎㅐㅇ	-4079
▁ㅇㅐㄹㄹㅓㄴ	-4080
▁158	-4081
▁ㄹㅣㅇㅋㅡ	-4082
ㅇㅓㄴㅌㅡ	-4083
▁166	-4084
▁ㅁㅜㄷㅎㅣ	-4085
▁ㄱㅕㄹㅅㅣㅁ	-4086
▁ㄱㅘㅇㅇㅕㄱ	-4087
▁ㅂㅕㄹㄹㅗ	-4088
▁ㅈㅓㄱㅇㅡㅇ	-4089
ㅇㅕㄱㄱㅜ	-4090
▁ㅈㅓㅇㅅㅓ	-4091
ㅂㅏㄹㅈㅏ	-4092
▁ㅇㅏㅂㄷㅗ	-4093
▁ㅎㅗㅁㅍㅔ	-4094
▁ㅍㅜㅁㅈㅣㄹ	-4095
▁ㄷㅏㄴㅊㅡㅇ	-4096
▁ㅈㅣㄴㄷㅗ	-4097
ㅊㅗㅇㅈㅏㅇ	-4098
▁ㄱㅏㄴㅅㅓㅂ	-4099
▁ㄹㅣㅁ	-4100
▁ㅈㅡㅇㄱㅣ	-4101
ㄱㅡㄹㄹㅏ	-4102
▁ㅁㅜㄴㄱㅘ	-4103
▁ㅈㅓㄴㅅㅡㅇ	-4104
▁ㅅㅏㅇㅅㅗ	-4105
▁ㄱㅡㅂㅎㅐㅇ	-4106
ㅁㅐㅅ	-4107
ㄹㅗㄹㄹㅏ	-4108
▁1904	-4109
▁ㄷㅗㅇㅇㅕㅇㅅㅏㅇ	-4110
▁ㄹㅣㄱ	-4111
▁ㅁㅜㄴㅈㅐ	-4112
▁ㅇㅣㅂㅁㅜㄴ	-4113
ord	-4114
▁Un	-4115
▁ㅅㅣㅀ	-4116
▁ㄹㅔㄴㅈㅡ	-4117
▁ㅇㅓㅁㅁㅏ	-4118
▁ㅁㅗㄴㅌㅡ	-4119
ate	-4120
▁ㅊㅔㄹ	-4121
▁ㅅㅐㄱㄲㅏㄹ	-4122
▁ㅂㅏㄱㄱㅡㄴㅎㅖ	-4123
ㅇㅜㄴㅌㅡ	-4124
▁ㅊㅣㅂ	-4125
ㅇㅣㄴㄹㅣ	-4126
▁ㅁㅜㄹㄹㅕ	-4127
▁IP	-4128
▁ㅊㅜㄹㅎㅕㄴ	-4129
▁ㄱㅘㄴㅈㅏㅇ	-4130
qu	-4131
▁ㅂㅏㄷㅊㅣㅁ	-4132
▁ㄱㅜㄷ	-4133
ob	-4134
▁ㅅㅏㅇㅊㅓ	-4135
ㄲㅓ	-4136
▁Se	-4137
▁ㅇㅗㅇㅎㅗ	-4138
▁ㅅㅔㅅㅉㅐ	-4139
▁ㄴㅔㄱ	-4140
▁ㄷㅗㅇㅈㅓㄴ	-4141
▁SF	-4142
▁ㅅㅐㄴㅍㅡ	-4143
▁165	-4144
ㅅㅏㄴㄹㅣ	-4145
▁ㅎㅓㅁ	-4146
ㅊㅏㅈ	-4147
▁Wh	-4148
ㄱㅣㄹㅇㅣ	-4149
ㅈㅜㄴㅎㅣ	-4150
▁ㅊㅓㄹㅈㅓ	-4151
▁ㅅㅓㅇㅈㅜ	-4152
▁ㅇㅖㅅㄴㅏㄹ	-4153
▁ㅂㅏㄴㅎㅘㄴ	-4154
▁ㅇㅘㅇㅈㅗㄱ	-4155
▁ㄸㅓㄹ	-4156
▁ㄱㅙ	-4157
ㅇㅈㅏㅇ	-4158
▁ㅇㅏㄴㅂㅗ	-4159
▁ㅊㅜㄹㅍㅏㄴㅅㅏ	-4160
ㅁㅣㄱ	-4161
▁ㅈㅓㄱㅅㅐㄱ	-4162
▁ㄹㅚ	-4163
▁ㄱㅘㄴㅈㅜㅇ	-4164
▁ㄷㅐㄴ	-4165
▁156	-4166
▁ㅍㅗㄱㅅㅡ	-4167
ㅌㅐㅇ	-4168
▁ㅈㅣㄴㅈㅣ	-4169
▁ㅁㅣㄴㅈㅗㄱㅈㅜ	-4170
▁154	-4171
▁ㅅㅓㄴㅈㅣㄴ	-4172
IC	-4173
ㄹㅓㅁㅂㅣ	-4174
▁ㅅㅣㄴㅂㅣ	-4175
ㅁㅜㄴㅎㅏㄱ	-4176
▁ㅇㅕㄴㅇㅐ	-4177
▁ㅊㅜㅇㄴㅏㅁ	-4178
▁ㅍㅜㅇㅅㅗㄱ	-4179
▁163	-4180
▁ㅂㅓㄴㅈㅜ	-4181
▁ㅁㅗㅁㄱㅣㄹㅇㅣ	-4182
▁ㄹㅜㄱ	-4183
▁ㅂㅗㄱㅈㅔ	-4184
▁ㅇㅕㄴㄱㅡㅁ	-4185
▁ㅎㅏㄴㅇㅑㅇ	-4186
▁ㅊㅜㄹㅅㅏㄴ	-4187
▁ㅎㅏㅂㅈㅏㄱ	-4188
▁ㅇㅝㄴㄹㅗ	-4189
▁ㅈㅓㅁㅅㅓㅇ	-4190
▁ㅂㅜㄴㅈㅣ	-4191
▁ㅈㅣㄱㅈㅏㅇ	-4192
ㅋㅔㄴ	-4193
▁167	-4194
▁ㅅㅓㄴㅅㅏ	-4195
ㅅㅏㄴㅁㅕㄴ	-4196
ㄹㅓㅁㅍㅡ	-4197
ㅈㅡㄹ	-4198
▁ㅈㅏㅇㅍㅕㄴ	-4199
▁ㅎㅡㅇㅁㅣ	-4200
▁ㅎㅏㅇㅇㅣㄹ	-4201
▁AM	-4202
ㄹㅏㅇㅇㅣ	-4203
▁139	-4204
▁ㅇㅜㄴㅂㅏㄴ	-4205
▁DJ	-4206
ast	-4207
▁AS	-4208
ET	-4209
▁900	-4210
▁ㄴㅏㅌ	-4211
▁ㅇㅜㄴㅁㅕㅇ	-4212
▁ㅂㅏㄹㅎㅛ	-4213
▁ㅁㅗㄱㄱㅕㄱ	-4214
▁ㅇㅣㄴㅊㅣ	-4215
ㅍㅡㄹㄹㅓ	-4216
▁ㄱㅘㄴㄱㅘㅇㄱㅐㄱ	-4217
ㅈㅗㄹ	-4218
ㅋㅣㄴㅅㅡ	-4219
▁ㅅㅡㅇㅁㅜ	-4220
▁ㅇㅡㅇㅇㅜ	-4221
▁ㅅㅓㅇㅈㅗㅇ	-4222
▁ㄸㅜㅀ	-4223
▁ㄱㅣㄴㄱㅡㅂ	-4224
▁ㅅㅑㅇ	-4225
▁ㅅㅏㅇㅇㅣㅁ	-4226
▁DS	-4227
▁ㅅㅣㄴㅎㅏ	-4228
▁ㅍㅕㅇㅅㅗ	-4229
▁ㅊㅏㄱㄹㅠㄱ	-4230
▁ㄹㅕㄴ	-4231
ㅅㅏㄹㄹㅔㅁ	-4232
▁ㅈㅜㅇㄱㅜㄱㅇㅓ	-4233
ㅋㅙ	-4234
if	-4235
▁ㅂㅜㄴㅂㅐ	-4236
▁ㅇㅛㅇㄹㅑㅇ	-4237
▁145	-4238
▁ㅈㅣㄴㅅㅏㅇ	-4239
▁ㅇㅏㄱㅈㅏㅇ	-4240
▁ㅇㅝㄹㄱㅏㄴ	-4241
ㄴㅣㄹ	-4242
▁ㅅㅣㄴㅇㅛㅇ	-4243
ㄱㅕㅇㄱㅣ	-4244
▁ㅂㅗㄱㅅㅗ	-4245
▁ㅈㅣㄴㄴㅏ	-4246
ㅅㅗㅇㅂㅓㅂ	-4247
▁ㅂㅏㄹㅈㅗㄱ	-4248
DP	-4249
▁ㅌㅣㅇ	-4250
ㅓㅂㅈㅣㄹ	-4251
▁ㄱㅝㄴㄱㅗ	-4252
▁ㄷㅏㄴㅈㅗㅇ	-4253
▁ㅂㅏㅇㅇㅏㄴ	-4254
ure	-4255
▁1896	-4256
ㄹㅏㄴㅌㅡ	-4257
▁ㄱㅗㅇㅇㅛㅇ	-4258
▁ㅌㅔㅁ	-4259
▁ㄱㅕㅂㅊㅣ	-4260
▁ㅇㅛㅇㄱㅣ	-4261
ㄱㅣㅁ	-4262
ㅈㅏㅂㅇㅣ	-4263
ㅈㅏㅂㅎㅣ	-4264
▁ㅃㅏㄹㄹㅣ	-4265
▁ㅈㅓㅇㄱㅖ	-4266
ㅁㅜㄴㄱㅘㄴ	-4267
PS	-4268
▁ㅆㅜ	-4269
ㅅㅣㄱㅁㅜㄹ	-4270
▁ㅇㅣㅁㅅㅏㅇ	-4271
▁ㄱㅗㄷㅂㅏ	-4272
▁ㅇㅛㅇㅅㅏㄴ	-4273
▁ㅇㅓㅂㄷㅔ	-4274
▁ㄱㅗㅇㄱㅘ	-4275
ㅅㅡㄹㄹㅣㅁ	-4276
▁ㅅㅓㄴㅈㅔ	-4277
▁ㄴㅗㅇㄷㅗ	-4278
ㅅㅠㅁ	-4279
▁ㅊㅣㄴㅈㅓㅇ	-4280
▁ㅈㅓㄴㅈㅣ	-4281
▁ㅊㅣㄴㅅㅓㄴ	-4282
▁ㅅㅓㅇㄱㅗㅇㅎㅚ	-4283
ㅍㅐㅇ	-4284
ㄹㅔㄴㅊㅔ	-4285
▁ㅈㅓㄴㅇㅕㅁ	-4286
IT	-4287
▁ㅍㅕㅇㅇㅢ	-4288
iv	-4289
▁UN	-4290
ive	-4291
ㄸㅡㅅ	-4292
ㅇㅜㄹㅅㅣ	-4293
▁ㅊㅏㅁㅇㅢ	-4294
▁ㅇㅣㄹㅎㅐㅇ	-4295
ㅇㅓㅂㄱㅏ	-4296
ack	-4297
ㅇㅗㄹㄹㅣㄴ	-4298
▁ㅅㅣㄴㅇㅣㅁ	-4299
▁j	-4300
ㄷㅓㄼ	-4301
ㅇㅜㄴㅅㅓ	-4302
▁ㄱㅏㅇㅇㅕㄴ	-4303
▁ㅋㅚ	-4304
▁ㅎㅕㅇㅂㅓㅂ	-4305
▁ㅅㅣㄱㅅㅏ	-4306
▁ㅈㅓㄴㅇㅣ	-4307
▁ㅇㅣㅂㅈㅡㅇ	-4308
▁ㅈㅜㅇㄷㅗ	-4309
ㅃㅕ	-4310
ock	-4311
▁ㅁㅣㄹㅈㅓㅂ	-4312
▁ㅅㅣㄴㅋㅏㄴ	-4313
▁ㅇㅣㅂㅎㅣ	-4314
▁ㄱㅗㅇㅈㅓㄴ	-4315
▁ㅇㅓㅆㅇㅓㅆ	-4316
▁ㅌㅏㅂㅅㅡㅇ	-4317
ㅇㅝㄴㅅㅜㅇㅇㅣ	-4318
▁ㅂㅓㄴㄴㅚ	-4319
▁Ar	-4320
ㅇㅗㅅ	-4321
▁ㄴㅏㄹㄹㅣ	-4322
▁ㅂㅐㄱㅅㅣㄴ	-4323
▁ㅇㅕㄴㅅㅜ	-4324
ㄲㅗㄹ	-4325
▁ㄱㅣㅁㄷㅗㅇ	-4326
▁ㅈㅜㄴㄱㅗㅇ	-4327
ㄴㄷㅡㄹ	-4328
ㅇㅜㄹㄹㅓ	-4329
▁ㅇㅠㄹㄹㅣ	-4330
▁ㅈㅓㄴㄹㅠ	-4331
▁ㅆㅢ	-4332
ㅇㅣㄹㄷㅡ	-4333
▁ㅇㅓㄹㅇㅡㅁ	-4334
▁ㅈㅓㄴㄷㅗ	-4335
▁5000	-4336
ㄱㅠㄴㄱㅘㄴ	-4337
ck	-4338
▁ㅎㅏㄴㄱㅏㅇ	-4339
▁ㅈㅓㅇㅂㅓㄹ	-4340
▁174	-4341
▁ㅇㅜㄹㄹㅣ	-4342
▁157	-4343
▁ㅇㅠㅇㅎㅏㅂ	-4344
12	-4345
▁ISO	-4346
ㄱㅝㄴㅈㅏ	-4347
▁ㄱㅡㅁㅅㅓㅇ	-4348
ㅅㅏㅇㅎㅘ	-4349
▁ㅅㅣㄴㅋㅏㄴㅅㅔㄴ	-4350
▁ㅊㅐㄱㅂㅗㅇ	-4351
▁ㄴㅏㅁㅇㅑㅇ	-4352
▁ㅈㅓㄴㅇㅣㅁ	-4353
▁ㅊㅜㄹㄱㅜ	-4354
▁ㅇㅣㄴㅌㅔㄹ	-4355
▁ㄲㅗㄹ	-4356
▁ㅎㅐㅇㅈㅓㅇㅂㅜ	-4357
▁ㅈㅣㅌ	-4358
▁ㅌㅓㄴ	-4359
ㅂㅏㅂ	-4360
▁152	-4361
▁ㅋㅔㄹ	-4362
▁ㄱㅕㅇㅅㅓㄴ	-4363
ㅓㅇㅇㅣ	-4364
▁146	-4365
▁ㅈㅓㅁㅇㅠ	-4366
▁ㅎㅏㄴㅎㅘ	-4367
▁ㄱㅏㄴㅈㅓㅂ	-4368
▁ㅎㅏㄱㅍㅏ	-4369
ime	-4370
ㅇㅑㄴㅁㅏ	-4371
▁ㅈㅓㄴㅁㅜㄴㅎㅏㄱㄱㅛ	-4372
ML	-4373
ㅊㅓㅇㅈㅏ	-4374
ㅍㅐㄱㅌㅡ	-4375
▁ㅈㅓㅇㅊㅏㄹ	-4376
▁ㄱㅜㄱㅇㅓ	-4377
ㅁㅔㄹ	-4378
▁ㅊㅡㄱㄱㅡㄴ	-4379
▁ㄷㅗㅇㅇㅟ	-4380
▁ㄱㅏㄱㅂㅗㄴㄱㅏ	-4381
▁ㅈㅏㅇㅅㅓㅇ	-4382
▁ㅅㅓㅇㄱㅠㄴㄱㅘㄴ	-4383
ㅇㅏㄱㄱㅣ	-4384
▁ㄹㅣㄹㄹㅣ	-4385
▁ㅈㅓㅈ	-4386
ㅋㅗㄱ	-4387
▁125	-4388
▁MVP	-4389
▁ㅁㅐㄱㅅㅡ	-4390
▁ㅊㅏㄱㄱㅗㅇ	-4391
▁ㅊㅏㄱㅅㅜ	-4392
▁ㅎㅏㄹㄷㅏㅇ	-4393
▁MP	-4394
▁Pro	-4395
▁ㅅㅓㄱㅌㅏㄴ	-4396
▁ㅅㅣㄱㄷㅏㅇ	-4397
▁ㅇㅕㅁㅅㅐㄱ	-4398
▁ㅈㅜㅇㄷㅗㄱ	-4399
▁105	-4400
▁ㅅㅓㅇㅂㅕㄱ	-4401
▁ㅅㅡㅇㅊㅏ	-4402
▁ㅂㅏㄱㅇㅕㅇ	-4403
▁ㅌㅗㅇㅎㅐㅇ	-4404
▁Le	-4405
▁ㅅㅣㄹㅈㅓㅁ	-4406
▁ㅅㅜㄴㅊㅓㄴ	-4407
one	-4408
▁ㄱㅏㅇㅅㅏ	-4409
▁ㄱㅘㄴㅊㅏㄹㅅㅏ	-4410
▁ㄴㅏㅁㅇㅣㄴ	-4411
▁ㅇㅣㅈ	-4412
▁ㅊㅜㄹㅇㅣㅂㄱㅜ	-4413
▁ㅈㅡㅇㅎㅜ	-4414
ㄹㅔㄹ	-4415
▁ㅇㅝㄴㄴㅏ	-4416
▁ㅎㅏㅇㄱㅗㅇㅁㅗ	-4417
▁HIV	-4418
▁ㄱㅕㅌ	-4419
▁ㅊㅏㅁㅍㅏㄴ	-4420
▁ㅇㅘㄴㅎㅘ	-4421
▁ㄷㅏㅁㅂㅐ	-4422
▁ㅅㅓㄴㄷㅜ	-4423
ㄱㅕㄹㅅㅡㅇ	-4424
ㄹㅔㄴㅈㅣ	-4425
ㅇㅣㄴㅈㅣ	-4426
▁ㅇㅏㅍㅁㅕㄴ	-4427
▁ㅇㅔㄱ	-4428
▁ㅅㅓㄱㄱㅏ	-4429
▁ㅊㅓㅇㅅㅏ	-4430
▁ㄱㅘㄴㅅㅡㅂ	-4431
ㅊㅏㄹㄱㅜ	-4432
▁1500	-4433
ㅇㅏㄱㄷㅏㄴ	-4434
▁PS	-4435
▁ㅎㅣㅁㅆㅡ	-4436
▁1911	-4437
AP	-4438
▁ㄱㅣㅁㅇㅛㅇ	-4439
▁ㅇㅏㅂㅂㅏㄱ	-4440
▁ㅈㅏㅂㅇㅏ	-4441
ㅈㅏㄴㅌㅣ	-4442
▁ㅅㅣㄹㅇㅛㅇ	-4443
▁ㅇㅟㄹㅅㅡㄴ	-4444
▁ㅈㅏㅇㅇㅣㄴ	-4445
▁ㅇㅖㄴ	-4446
▁WW	-4447
ㅎㅕㄱㅁㅕㅇ	-4448
▁ㄷㅗㄱㄹㅣㅂㅇㅜㄴㄷㅗㅇㄱㅏ	-4449
ㅁㅕㅇㅂㅏㄱ	-4450
▁ㅂㅣㄹㅎㅔㄹ	-4451
▁ㄱㅝㄴㅇㅠ	-4452
ㅁㅊㅣ	-4453
ㄹㅐㄴㅅㅣ	-4454
▁ㄷㅏㄺ	-4455
▁ㅅㅣㄴㅈㅓㄴ	-4456
▁ㄱㅗㅇㅈㅏ	-4457
te	-4458
▁3000	-4459
▁ㅂㅓㄴㅅㅣㄱ	-4460
▁ㅈㅜㅇㅈㅗㅇ	-4461
▁ㅅㅏㅇㄹㅠ	-4462
▁ㄲㅡㄴ	-4463
▁ㅇㅑㄼ	-4464
▁ㄱㅓㅁㅈㅡㅇ	-4465
▁ㄱㅕㅁㅇㅣㅁ	-4466
▁ㅇㅣㄹㄹㅔㄱㅌㅡ	-4467
▁ㅇㅣㄴㄱㅘ	-4468
▁ㅊㅜㅇㅅㅓㅇ	-4469
▁153	-4470
▁ㅂㅕㄴㄷㅗㅇ	-4471
▁ㄱㅜㄺ	-4472
▁ㅎㅑㅇㄱㅛ	-4473
▁ㅎㅐㅇㅈㅣㄴ	-4474
▁ㅂㅜㄱㄷㅗㅇㅂㅜ	-4475
▁ㅅㅣㅁㅇㅢ	-4476
▁ㄱㅘㄴㅎㅕㄴ	-4477
▁ㅁㅣㄴㄱㅜㄱ	-4478
▁ㅃㅜㄹ	-4479
ㄹㅔㄴㅅㅡ	-4480
▁ㅈㅓㄱㅎㅣ	-4481
OC	-4482
ㄷㅠㄹ	-4483
ㅇㅜㄹㅇㅣ	-4484
ㅈㅏㅇㅈㅏ	-4485
▁ㅈㅗㄴㄱㅕㅇ	-4486
▁ㅅㅜㄹㅌㅏㄴ	-4487
▁ㅈㅓㄴㅈㅣㄴ	-4488
▁103	-4489
ㅇㅣㄴㅈㅓ	-4490
▁ㄷㅏㄴㅇㅝㄴ	-4491
▁Con	-4492
ㅈㅏㄱㅈㅏ	-4493
▁ㄱㅡㅂㅈㅣㄴ	-4494
▁ㅈㅓㄴㅈㅏㅇ	-4495
▁ㅇㅕㄴㄹㅜ	-4496
▁MC	-4497
ㅅㅈㅣ	-4498
▁ㅈㅜㅇㅈㅓㅁ	-4499
ㅈㅣㅂㅎㅏㅂ	-4500
▁ㅎㅘㄴㅇㅝㄴ	-4501
▁ㅇㅕㅇㄷㅗㅇ	-4502
▁ㅍㅕㄴㄱㅗㄱ	-4503
ㅅㅓㅇㅈㅓㄴ	-4504
ㄹㅡㄱ	-4505
▁ㅊㅓㄴㅅㅏ	-4506
▁ㅁㅗㄹㄹㅏㄱ	-4507
▁ㅇㅕㄴㅇㅣㄴ	-4508
▁155	-4509
▁ㅊㅓㄴㅁㅜㄴㅎㅏㄱ	-4510
▁ㅂㅏㅌ	-4511
io	-4512
▁ㅈㅓㅁㅍㅡ	-4513
ㅂㅐㄱㄱㅘ	-4514
▁#	-4515
ㄷㅔㄹㅍㅣ	-4516
▁IT	-4517
▁ㅂㅕㄹㅈㅏ	-4518
▁Bo	-4519
ㄷㅗㅇㅁㅜㄹ	-4520
▁ㅈㅜㅇㅈㅏㅇ	-4521
▁ㅊㅜㅇㅈㅗㄱ	-4522
▁ㅇㅡㅇㄷㅏㅂ	-4523
▁108	-4524
▁ㅅㅙ	-4525
▁ㄴㅏㄹㅇㅏ	-4526
ㄴㅔㄴ	-4527
▁ㅌㅐㅇ	-4528
▁ㅎㅡㅇㅎㅐㅇ	-4529
▁ㅍㅕㅇㅎㅐㅇ	-4530
▁128	-4531
ㅁㅏㄴㄷㅜ	-4532
ㅇㅝㄴㅅㅣ	-4533
▁ㅇㅣㄴㅎㅕㅇ	-4534
age	-4535
▁$	-4536
ber	-4537
▁ㄱㅗㅇㅇㅣㄴ	-4538
▁ㅅㅐㅇㅇㅣㄹ	-4539
▁ㅁㅐㅂ	-4540
▁ㅋㅓㅁㅍㅓ	-4541
▁ㅅㅓㅇㅈㅓㄴ	-4542
▁ㅂㅣㄹㅎㅔㄹㄹㅡㅁ	-4543
▁ㅇㅏㄱㅁㅏ	-4544
▁ㅎㅣㄴㄷㅜ	-4545
ㅊㅐㄱㅈㅓㅁ	-4546
sp	-4547
▁ㅋㅗㄹㄹㅏ	-4548
▁ㅁㅣㄴㅇㅕㅇ	-4549
▁ㅊㅕ	-4550
▁ㅅㅓㅇㅁㅗ	-4551
▁ㅇㅣㄴㅌㅔ	-4552
▁ㅂㅏㄹㅇㅝㄴ	-4553
▁ㅎㅡㅌ	-4554
▁ㄷㅏㄹㅇㅏ	-4555
▁ㅇㅏㄴㅈㅏㅇ	-4556
iz	-4557
▁1909	-4558
▁ㄷㅡㄹㄹㅣ	-4559
ㅇㅛㅇㅅㅗ	-4560
▁ㅁㅣㄴㅅㅏ	-4561
▁ㅇㅕㄴㄷㅗ	-4562
▁ㅇㅕㄱㅁㅕㅇ	-4563
▁ㅊㅣㄴㅊㅓㄱ	-4564
▁ㅌㅖㄴ	-4565
▁ㅎㅘㄴㅅㅏㅇ	-4566
▁ㄱㅗㅅㄱㅗㅅ	-4567
▁ㄱㅡㄴㅈㅓㅂ	-4568
▁ㅋㅘ	-4569
ㅍㅏㅇ	-4570
▁ㅌㅡㄱㅇㅠ	-4571
▁ㅂㅕㄹㄱㅐ	-4572
▁ㅈㅓㄱㄷㅐ	-4573
▁ㅈㅓㄴㄷㅜ	-4574
▁102	-4575
ㄱㅡㄹㄹㅣ	-4576
ㄹㅏㅁㅎㅚ	-4577
▁ㅇㅕㄴㅅㅔ	-4578
ㅋㅡㄹㄹㅏ	-4579
▁ㅋㅣㄴ	-4580
▁ㅈㅣㄴㄹㅣ	-4581
ㅈㅓㄴㄷㅡ	-4582
▁ㅅㅏㅇㅈㅏ	-4583
▁149	-4584
▁ㅎㅗㅇㅅㅜ	-4585
▁ㄱㅏㅁㅈㅣ	-4586
▁ㄱㅓㄴㅇㅢ	-4587
▁ㄱㅏㄱㄱㅣ	-4588
ㄹㄲㅏ	-4589
ge	-4590
▁ㄹㅜㅇ	-4591
▁ㅇㅣㄹㅉㅣㄱㅇㅣ	-4592
▁ㅂㅓㅂㄹㅕㅇ	-4593
ㅍㅕ	-4594
▁ㄹㅜㄹ	-4595
ㅁㅐㄴㅅㅡ	-4596
▁ㅁㅣㄷㅇㅡㅁ	-4597
ㅌㅡㄱㅂㅕㄹㅈㅏ	-4598
ㅂㅏㄷㅊㅣㅁ	-4599
ㅌㅡㄹㅈㅡ	-4600
▁ㅈㅣㅂㄱㅖ	-4601
▁ㅅㅏㅇㅂㅜ	-4602
▁ㅇㅜㄴㄷㅗㅇㅈㅏㅇ	-4603
▁ㅂㅗㄱㅈㅏㅇ	-4604
▁ㅅㅏㅇㅅㅏㅇ	-4605
▁Bl	-4606
ㅈㅗㅇㅅㅏ	-4607
AD	-4608
▁ㄱㅏㅅ	-4609
ㄹㅏㅇㅍㅡ	-4610
▁ㅊㅓㅇㅇㅘ	-4611
▁ㅇㅏㅇㄹㅣ	-4612
ㅂㅏㄱㅈㅟ	-4613
▁ㅅㅏㄹㅍㅕ	-4614
▁ㄷㅗㅇㄷㅏㅇ	-4615
▁ㄱㅓㄴㅊㅜㄱㄱㅏ	-4616
ㅅㅕㄴㅅㅡ	-4617
▁ㄱㅕㅇㅂㅜ	-4618
ㅂㅜㄴㄱㅜㄴ	-4619
▁ㄴㅜㄴㅁㅜㄹ	-4620
▁ㄷㅗㅇㄷㅡㅇ	-4621
▁ㅆㅗㄷ	-4622
▁ㅈㅓㄴㄷㅐ	-4623
ㅁㅓㄴㄷㅡ	-4624
▁CPU	-4625
▁ㄷㅜㄹㄹㅔ	-4626
ㅅㅡㄹㄹㅏㅁㄱㅛ	-4627
▁ㅈㅜㄴㄱㅕㄹㅅㅡㅇ	-4628
▁ㄱㅘㅇㄴㅕㄴ	-4629
▁ㅎㅘㅇㅎㅐ	-4630
▁ㅂㅜㄴㄱㅘㅇ	-4631
▁ㅋㅗㄹㄹㅔ	-4632
ㅊㅏㅇㄱㅜㄴ	-4633
▁ㄱㅘㄴㄴㅕㅁ	-4634
▁ㅂㅗㄹㄹㅣ	-4635
▁ㅇㅣㅂㅅㅏㅇ	-4636
ㅅㅏㅇㅅㅡ	-4637
▁ㅋㅐㅁㅍㅔ	-4638
▁147	-4639
orld	-4640
▁ㅈㅓㄴㄹㅖ	-4641
▁ㅊㅏㅇㄱㅓㄴ	-4642
▁al	-4643
▁ㅁㅕㅇㅇㅢ	-4644
▁ㄱㅗㄹㅍㅡ	-4645
ㅍㅕㅇㄱㅜㄴ	-4646
ㅇㅏㅅㄱㅣ	-4647
▁ㅂㅏㄱㅌㅏㄹ	-4648
ㅂㅡㄹㄹㅗ	-4649
▁ㄱㅏㅇㄱㅘ	-4650
▁ㅅㅏㅅ	-4651
▁ㅅㅓㄴㅇㅝㄴ	-4652
ㅎㅏㅇㄱㅗㅇ	-4653
▁ㅌㅗㅇㅊㅣㅇ	-4654
▁ㅅㅐㅇㅁㅕㅇㅊㅔ	-4655
▁ㅇㅣㄴㄱㅕㄱ	-4656
▁171	-4657
ㅇㅓㅁㅅㅡ	-4658
▁ㅁㅜㄴㅎㅏㄱㅅㅏㅇ	-4659
ㄱㅜㄱㅈㅜ	-4660
▁1915	-4661
▁ㅂㅜㄱㄱㅜ	-4662
▁ㅇㅗㄴㅊㅓㄴ	-4663
▁ㅇㅣㄹㅈㅗㄱ	-4664
▁ㄱㅘㅇㅂㅜ	-4665
▁ㄱㅗㅇㄹㅑㄱ	-4666
▁ㅁㅜㄴㅇㅑㅇ	-4667
▁ㅈㅣㄱㅊㅐㄱ	-4668
▁ㅅㅔㅁ	-4669
▁ㅌㅏㅁㅈㅣ	-4670
▁ㅇㅣㄹㄱㅘㄴ	-4671
▁ㅎㅟㅂ	-4672
▁1913	-4673
EN	-4674
▁ㄹㅣㄹ	-4675
▁ㄷㅗㅇㄹㅐ	-4676
▁ㅍㅜㅅㅂㅗㄹ	-4677
▁127	-4678
▁ㅋㅏㄹㄹㅏ	-4679
ik	-4680
▁SP	-4681
▁ㅅㅓㄲㅇㅣ	-4682
ㅊㅏㅇㄱㅣ	-4683
ㅁㅠㄹㄹㅔ	-4684
▁ㅈㅓㄱㅈㅏ	-4685
▁ㅇㅒ	-4686
▁ㅈㅜㅇㄱㅜㄱㅇㅣㄴ	-4687
ㄱㅗㅇㅅㅣㄴ	-4688
▁ㅂㅏㄹㅎㅕㄴ	-4689
▁GT	-4690
▁ㅂㅓㅂㅈㅔ	-4691
▁ㅅㅓㄲ	-4692
▁ㅅㅔㄴㅅㅓ	-4693
▁ㅊㅜㄹㅌㅗ	-4694
▁ㄴㅏㅁㅎㅏㄴ	-4695
▁ㅊㅓㅇㅈㅏㅇ	-4696
▁141	-4697
▁1895	-4698
ㅂㅓㄹㄹㅔ	-4699
ㅊㅣㄹㄹㅣ	-4700
int	-4701
▁ㅈㅓㅇㅁㅣㄹ	-4702
ㅍㅔㄹ	-4703
ㅅㅓㄴㄷㅐ	-4704
ㅇㅣㄴㅁㅕㅇㅅㅏ	-4705
▁ㅊㅣㄴㅇㅣㄹㅇㅣㄴㅁㅕㅇㅅㅏ	-4706
MS	-4707
ㅂㅏㅌ	-4708
ㅇㅜㄴㄹㅗ	-4709
ㅌㅡㄹㄹㅣ	-4710
▁ㄲㅚ	-4711
ㅂㅣㅅ	-4712
▁ㅇㅏㄹㅋㅗ	-4713
▁ㄱㅡㅁㅇㅐㄱ	-4714
▁Tr	-4715
▁ㅋㅏㅁㅂㅗ	-4716
▁ㄸㅏㄴ	-4717
ㄱㅡㄹㅅㅡ	-4718
▁ㅈㅏㅇㅁㅣ	-4719
ㄷㅏㄷ	-4720
▁ㅍㅕㄹㅊㅕ	-4721
▁ㅎㅏㅂㅂㅓㅂ	-4722
▁ㅇㅏㄹㅂㅔ	-4723
▁ㅇㅓㄴㄹㅗㄴㅇㅣㄴ	-4724
▁ㅂㅜㄱㅂㅏㅇ	-4725
▁ㅅㅣㄴㅎㅡㅇ	-4726
GC	-4727
ust	-4728
ㅅㅖㄹ	-4729
▁ㅇㅑㅇㅅㅏㅇ	-4730
ㅋㅘ	-4731
▁ㅎㅡㄹㄹㅓ	-4732
ㅁㅅㅐ	-4733
▁ㄱㅜㄱㅅㅏ	-4734
▁ㄷㅏㄴㄱㅣ	-4735
▁ㄱㅣㅁㅅㅜ	-4736
ㅌㅡㄹㄹㅔ	-4737
▁144	-4738
ep	-4739
ㅈㅏㅁ	-4740
▁ㅅㅗㄴㄱㅏ	-4741
▁ㅇㅣㅂㅊㅔ	-4742
▁ㅇㅝㄴㅂㅏㄴ	-4743
▁ㅍㅣㄹㄹㅣㅂ	-4744
ude	-4745
▁ㄱㅗㅇㅊㅐ	-4746
▁135	-4747
ㄹㅏㅇㅅㅜ	-4748
▁ㄷㅐㅁ	-4749
▁ㅇㅗㄱㅅㅡ	-4750
▁ㅋㅓㄹㄹㅓ	-4751
▁ㅎㅑㅇㅎㅜ	-4752
▁ㄷㅏㄴㅈㅓㅁ	-4753
▁ㅊㅓㄴㅁㅜㄴㅎㅏㄱㅈㅏ	-4754
▁ㅅㅣㄹㅈㅗㅇ	-4755
▁TH	-4756
▁ㄱㅣㅁㅍㅗ	-4757
▁ㅅㅗㄱㅅㅓㅇ	-4758
▁ㅃㅗㅂㅎㅣ	-4759
▁ㅅㅓㅂㅊㅟ	-4760
▁CO	-4761
▁ㄱㅏㄴㅅㅏ	-4762
▁ㅈㅓㅇㅁㅜ	-4763
▁111	-4764
▁169	-4765
▁119	-4766
ㄹㅣㄹㄹㅓ	-4767
▁ㅅㅏㅇㅅㅔ	-4768
▁ㅅㅣㄴㅅㅔ	-4769
▁ㅊㅏㅇㅅㅣ	-4770
▁ㅍㅕㅇㅇㅣㄹ	-4771
▁ㅊㅗㅇㅅㅓㄴㄱㅓ	-4772
▁ㅂㅐㄱㅎㅘ	-4773
▁ㄱㅜㅇㅈㅓㅇ	-4774
▁ㅅㅗㅇㄴㅏ	-4775
▁ㄱㅣㅁㅈㅐ	-4776
ㅅㅏㄴㄷㅗㅇ	-4777
ㅅㅓㄱㄱㅣ	-4778
▁ㄱㅏㅇㄱㅕㅇ	-4779
▁ㄷㅗㅇㄴㅕㄴ	-4780
ㅂㅌㅓ	-4781
▁ㅇㅏㄴㅇㅑㅇ	-4782
▁ㅂㅕㄹㅊㅣㅇ	-4783
▁ㅋㅓㄹㄹㅓㅁㅂㅣ	-4784
▁ㄷㅣㅇ	-4785
▁ㅍㅔㄹ	-4786
▁ㅁㅏㄴㅅㅔ	-4787
▁ㅊㅗㅇㄱㅘㄹ	-4788
▁ㄱㅣㅁㅇㅕㅇㅅㅏㅁ	-4789
▁ㄷㅗㅇㄷㅐ	-4790
▁ㅌㅓㄱ	-4791
▁ㅁㅕㅇㅁㅗㄱ	-4792
▁ㅇㅔㄴㅈㅣ	-4793
▁ㅍㅏㅁ	-4794
▁ㄱㅕㄱㄹㅕㄹ	-4795
ib	-4796
▁ㄱㅣㅁㅈㅣㄴ	-4797
ㄱㅡㄹㄹㅓ	-4798
▁ㅊㅓㅁㄱㅏ	-4799
▁ㄷㅗㅇㄷㅗㄱ	-4800
ㅇㅜㄹㄷㅐ	-4801
▁ㅇㅕㅇㄹㅣ	-4802
▁ㅍㅕㅇㅇㅑ	-4803
▁ㅈㅜㅇㅈㅐ	-4804
▁ㄴㅏㄴㅁㅣㄴ	-4805
▁ㅈㅓㄴㅎㅏㅁ	-4806
ㅅㅡㄹㄹㅏㄴㄷㅡ	-4807
ㅅㅅㅜ	-4808
ㅇㅐㅇ	-4809
ㅁㅣㄴㅈㅏ	-4810
▁ㅊㅓㄴㄷㅗ	-4811
ㅅㅐㅇㅎㅘㄹ	-4812
ㅇㅇㅣ	-4813
▁ㅂㅏㄹㅌㅡ	-4814
▁ㅂㅜㄱㅇㅟ	-4815
▁172	-4816
▁ㅋㅏㅇ	-4817
▁ㅋㅡㄴ	-4818
ㅁㅏㄹㄹㅏ	-4819
▁ㅍㅐㅇㅊㅏㅇ	-4820
▁106	-4821
▁ㅊㅜㅇㅂㅜㄱ	-4822
▁ㅊㅣㅁㅁㅗㄹ	-4823
▁ㄹㅛㅇ	-4824
▁ㄷㅏㄷㅎㅣ	-4825
▁ㄱㅣㅁㅌㅐ	-4826
▁ㅇㅣㄴㅈㅐ	-4827
ㅅㅓㄱㅌㅏㅂ	-4828
ㅅㅓㄴㄱㅓ	-4829
ㅎㅐㅇㅇㅟ	-4830
▁ㅁㅜㄹㅈㅏ	-4831
▁ㅅㅓㅂㅈㅓㅇ	-4832
▁ㄱㅗㅇㅇㅢ	-4833
▁ㄴㅓㄼㅎㅣ	-4834
ㅊㅡㅇㅅㅓㄱㅌㅏㅂ	-4835
ㅇㅣㄴㅇㅓ	-4836
▁ㄴㅏㅌㅁㅏㄹ	-4837
▁ㄷㅡㅇㅈㅐ	-4838
▁ㄱㅣㄴㅈㅏㅇ	-4839
▁ㅅㅣㄱㅂㅕㄹ	-4840
▁ㅈㅓㅇㄹㅕㄹ	-4841
ㅈㅓㄴㄱㅘㅇㅇㅕㄱㅅㅣ	-4842
ment	-4843
ㅓㄱㅈㅓㅇ	-4844
ome	-4845
▁ㄷㅏㅎ	-4846
▁ㅂㅏㄴㄱㅕㄱ	-4847
▁ㅅㅣㄴㅎㅏㄱㄱㅛ	-4848
pe	-4849
▁ㅇㅑㅇㅋㅣ	-4850
▁ㅇㅡㅁㅇㅝㄴ	-4851
▁ㅈㅜㅇㄹㅑㅇ	-4852
▁ㅋㅗㄴㅋㅡ	-4853
▁We	-4854
▁ㄷㅓㅁ	-4855
▁ㅍㅕㄴㄹㅣ	-4856
▁ㅎㅔㄹㄹㅣ	-4857
▁ㄴㅏㅈㅊㅜ	-4858
ㅅㅓㄴㅅㅡ	-4859
ㅊㅔㄴ	-4860
▁ㅈㅜㅇㅅㅗ	-4861
▁ㅂㅕㅇㅇㅕㄱ	-4862
▁ㅈㅓㄴㅇㅏㅂ	-4863
▁ㅈㅗㄴㅈㅜㅇ	-4864
▁ㅋㅡㄹㄹㅣㄴ	-4865
▁HT	-4866
▁ㄷㅗㅇㄹㅕㄱ	-4867
ian	-4868
ㅅㅣㄹㄹㅣ	-4869
▁ㅈㅓㅇㅈㅓㄴ	-4870
▁ㅍㅕㅇㅌㅐㄱ	-4871
ire	-4872
▁It	-4873
▁ㅅㅏㅇㄷㅏㅇㅅㅜ	-4874
▁CE	-4875
▁ㅈㅏㅇㅇㅏㄴ	-4876
▁ㅎㅏㄴㄷㅗㅇㅇㅏㄴ	-4877
▁ㄱㅘㄴㄱㅜ	-4878
▁ㅅㅜㅇㅂㅐ	-4879
▁ㅍㅏㄹㄹㅏ	-4880
▁ㅅㅏㅇㅅㅓ	-4881
▁ㄱㅏㅂㅈㅏㄱ	-4882
▁ㅎㅕㅂㅈㅗ	-4883
▁ㅌㅗㅇㄱㅡㄴ	-4884
ere	-4885
▁ㅇㅓㄴㄷㅓ	-4886
▁ㅅㅣㄴㅈㅜㅇ	-4887
ㄹㅏㅁㅈㅟ	-4888
▁ㅂㅏㅇㅍㅐ	-4889
▁ㅁㅔㄹㄹㅗ	-4890
▁ㄱㅘㄴㄹㅏㅁ	-4891
IM	-4892
cl	-4893
▁ㄱㅐㄹㄹㅓ	-4894
▁ㅎㅏㅁㅂㅜ	-4895
▁ㅎㅏㅁㅇㅠ	-4896
▁ㅎㅕㅂㅈㅜ	-4897
ace	-4898
▁ㅊㅓㅇㅇㅝㄴ	-4899
▁ㄲㅙ	-4900
ㅈㅜㅇㄱㅜㄱ	-4901
ide	-4902
ㄴㅓㄹㄹㅣ	-4903
ㅎㅐㅇㅈㅏ	-4904
▁ㄱㅏㄴㅎㅗ	-4905
▁ㅅㅣㄴㄱㅣ	-4906
▁ㄱㅗㅇㄷㅏㄴ	-4907
▁ㄱㅚㅇㅈㅏㅇ	-4908
▁ㅈㅡㅇㅈㅣㄴ	-4909
▁ㄴㅏㄹㅉㅏ	-4910
▁ㅅㅓㄴㄱㅜ	-4911
▁ㅂㅏㅇㅊㅣㅁ	-4912
▁ㅅㅓㄴㅈㅗㅇ	-4913
ㅅㅣㄹㄹㅗㄱ	-4914
▁ㅍㅜㅇㄱㅕㅇ	-4915
▁ㅅㅐㅇㄹㅣ	-4916
▁ㄷㅏㄴㅅㅣㄱ	-4917
▁ㅅㅣㄹㅈㅓㄴ	-4918
ㅅㅡㅇㅈㅣ	-4919
▁TO	-4920
▁ㄲㅓㅂㅈㅣㄹ	-4921
▁ㅇㅑㄱㅊㅣㅇ	-4922
▁ㄹㅣㅇㅋㅓㄴ	-4923
▁ㅊㅗㄱㄱㅜ	-4924
▁ㅎㅡㅌㅇㅓ	-4925
▁ㅇㅣㄴㅅㅏㄴ	-4926
▁ㄱㅗㅇㅁㅗ	-4927
▁ㄴㅣㅇ	-4928
▁ㅈㅗㅇㄱㅕㄹ	-4929
▁ㄱㅡㅂㅅㅗㄱ	-4930
▁ㅇㅘㄹ	-4931
▁ㅊㅗㅇㅅㅏ	-4932
▁ㅅㅏㅇㅈㅏㅇ	-4933
▁ㄱㅕㅇㅂㅗ	-4934
▁ㅂㅓㄴㅇㅕㅇ	-4935
▁⊸	-4936
▁IBM	-4937
ㄱㅗㄱㄹㅣ	-4938
▁ㄷㅗㅇㅇㅣ	-4939
▁ㅇㅏㄴㅅㅓㅇ	-4940
ㅂㅅㅣ	-4941
▁ㄴㅏㄱㅅㅓㄴ	-4942
▁ㅅㅐㅇㅈㅓㄴ	-4943
▁ㅌㅏㄹㅎㅘㄴ	-4944
▁ㅅㅣㄴㅎㅏㄱㅈㅏ	-4945
▁ㅂㅜㄹㅍㅕㄴ	-4946
▁ㅇㅕㅇㅇㅢ	-4947
▁ㅇㅝㄴㄱㅗ	-4948
ㅋㅣㅁ	-4949
▁ㅈㅜㅇㅇㅢ	-4950
ㄷㅗㄹㅇㅏ	-4951
▁ㄱㅕㄹㅅㅓㄴ	-4952
▁ㅅㅓㅇㄹㅣ	-4953
▁ㅇㅣㄹㅎㅘ	-4954
▁ㄱㅘㄴㅌㅗㅇ	-4955
ㄱㅏㄴㅈㅣ	-4956
▁ㅁㅕㄴㅎㅏ	-4957
▁ㅇㅏㅁㅅㅓㄱ	-4958
▁ㄷㅗㅇㅅㅏㅇ	-4959
▁ㅊㅗㅇㄷㅐ	-4960
ㄱㅞ	-4961
▁ㅁㅣㄹㅇㅑㅇ	-4962
▁ㅌㅡㄱㅈㅣㅂ	-4963
▁ㅎㅕ	-4964
▁la	-4965
▁148	-4966
▁ㄱㅣㅁㅅㅏㅇ	-4967
▁ㅈㅜㅇㅅㅜㄴ	-4968
▁ㄴㅣㅅㅍㅗㄴ	-4969
▁ㅈㅓㄴㅅㅓㅇㄱㅣ	-4970
ㅅㅡㄺ	-4971
▁ㄱㅐㄱㅊㅔ	-4972
▁ㅎㅏㄴㅅㅡ	-4973
▁ㅊㅐㄱㅇㅣㅁㅈㅏ	-4974
ㅁㅕㄴㅊㅔ	-4975
ㅈㅓㅇㅈㅏ	-4976
▁ㅈㅜㅇㅅㅣㅁㅂㅜ	-4977
▁136	-4978
▁ㄲㅡㅀ	-4979
▁ㅇㅠㄱㅈㅣ	-4980
▁138	-4981
▁ㅈㅔㄹ	-4982
▁ㅁㅕㅇㅈㅔ	-4983
▁ㅎㅏㄴㅅㅓㅇㅂㅜ	-4984
▁ㅂㅡㄹㄹㅣ	-4985
▁ㅅㅏㄴㄹㅣㅁ	-4986
ㄱㅕㅁ	-4987
▁ㄹㅡㅇ	-4988
▁ㄱㅗㅇㅈㅣㄱ	-4989
ㄱㅡㅅ	-4990
▁ㅅㅡㅇㅈㅓㅁ	-4991
▁ㅋㅜㄴ	-4992
ㅅㅏㅇㅇㅟ	-4993
▁ㅂㅜㄹㅁㅕㅇ	-4994
▁ㅅㅓㅇㅇㅜㄴ	-4995
▁ㅂㅕㅇㅈㅗ	-4996
▁ㅆㅏㅇㄷㅜㅇㅇㅣ	-4997
▁ㅇㅝㄴㄴㅐ	-4998
▁1916	-4999
▁ㅇㅕㄹㄷㅐ	-5000
▁ㅎㅕㄴㄱㅡㅁ	-5001
ㄸㅜ	-5002
▁ㄱㅕㄱㅌㅜ	-5003
▁ㅅㅜㄴㅎㅚ	-5004
▁ㅈㅏㅇㄴㅏㄴ	-5005
▁DC	-5006
▁En	-5007
ㅇㅜㅇㅈㅓㄴ	-5008
▁ㅇㅕㄱㅅㅓㄹ	-5009
▁ㄷㅓㅍㅇㅣ	-5010
▁ㅇㅓㅂㄱㅖ	-5011
▁ㅂㅜㄴㄷㅏㅇ	-5012
ㄹㅏㅇㅋㅏ	-5013
ㅍㅐㄴ	-5014
▁ㅈㅣㄴㄱㅜㄴ	-5015
▁ㅍㅕㅇㅂㅓㅁ	-5016
▁ㄱㅕㅇㅇㅕㄴ	-5017
▁ㅁㅗㄱㅍㅏㄴ	-5018
▁ㄱㅐㄱㄱㅘㄴ	-5019
▁ㅇㅝㄴㅅㅜㅇㅇㅣ	-5020
ㄹㅣㄹㄹㅏ	-5021
▁ㅇㅣㄴㅇㅕㄴ	-5022
▁ㅍㅜㄴ	-5023
▁ㅅㅗㅅ	-5024
▁ㄴㅏㅁㅎㅐ	-5025
▁ㅇㅣㄹㅈㅗ	-5026
▁ㅊㅔㄹㅅㅣ	-5027
▁ㅍㅕㅇㅇㅝㄴ	-5028
▁ㅎㅕㄴㅈㅗㅇ	-5029
▁ㅁㅏㄱㄴㅐ	-5030
▁ㅈㅏㅇㄹㅕ	-5031
▁ㅊㅜㄴㅊㅓㄴ	-5032
▁NBA	-5033
▁ㅊㅜㅇㅅㅣㄹ	-5034
▁ㅁㅕㅇㄹㅕㅇㅇㅓ	-5035
ㅌㅜㅁ	-5036
▁ㅌㅐㅇㅋㅡ	-5037
▁ㅇㅣㅂㄷㅏㅇ	-5038
▁ㅊㅜㄴㅊㅜ	-5039
▁ㅇㅕㅇㄴㅏㅁ	-5040
▁104	-5041
ㄴㅜㄴ	-5042
▁col	-5043
▁360	-5044
▁ㅈㅜㅇㅇㅟ	-5045
▁ㅅㅣㄴㅅㅐㅇ	-5046
ark	-5047
ㅊㅘㄴ	-5048
▁ㅂㅗㄱㅅㅓㄴ	-5049
▁ㅇㅕㄴㅎㅏㅂㅎㅚ	-5050
▁ㅈㅜㅇㅅㅓㅇㅈㅏ	-5051
▁ㅈㅏㅈ	-5052
▁ㄷㅡㄴㅈㅣ	-5053
▁ㅋㅓㅁㅍㅏ	-5054
▁ㅍㅡㄹㄹㅣ	-5055
▁ㅈㅓㄱㅂㅜㄴ	-5056
▁ㅇㅕㄴㅍㅐ	-5057
▁ㅅㅏㅇㄷㅏㅁ	-5058
▁ㅈㅏㄱㅅㅔㄴ	-5059
▁ㅊㅏㅇㄱㅗ	-5060
▁ㄱㅡㄱㄷㅗㅇ	-5061
ㅌㅡㄹㄹㅐㄴ	-5062
▁ㄷㅗㄹㅇㅕㄴ	-5063
▁ㅈㅓㄴㄴㅕㅁ	-5064
▁ㅇㅕㅇㅈㅏㅇ	-5065
▁143	-5066
▁ㅅㅗㅁ	-5067
▁ㄱㅏㅁㄹㅣ	-5068
▁109	-5069
▁123	-5070
▁ㅂㅏㄴㄱㅏㅁ	-5071
▁ㄷㅏㅇㅇㅣㄹ	-5072
▁AR	-5073
▁ㅅㅏㅇㄱㅗㅇ	-5074
▁ㅇㅑㅇㄷㅗ	-5075
ile	-5076
▁CS	-5077
ㅇㅣㅁㅈㅡ	-5078
▁ㅁㅣㄴㅎㅚ	-5079
▁ㅇㅣㅂㅈㅣ	-5080
▁ㅍㅕㅇㅎㅏ	-5081
▁ㅂㅐㄱㅅㅐㄱ	-5082
ㅌㅏㅁ	-5083
▁ㅅㅣㄴㅈㅜ	-5084
▁ㅇㅣㄱㅎㅣ	-5085
▁ㅊㅣㄴㅎㅏ	-5086
▁ㅂㅕㅇㅎㅐㅇ	-5087
▁ㅎㅏㅂㅊㅏㅇ	-5088
▁ㅇㅏㅁㅅㅡ	-5089
▁ㅌㅐㄱㅅㅣ	-5090
▁ㅁㅕㄴㅎㅓ	-5091
▁AK	-5092
▁ㅍㅓㅁ	-5093
▁ㅇㅔㄴㅌㅡ	-5094
▁ㅇㅔㄹㄹㅔ	-5095
▁ㅎㅐㅇㅈㅓㄱ	-5096
▁ㅅㅓㅁㄱㅣ	-5097
▁ㅅㅗㅇㅅㅣ	-5098
ㅇㅡㄴㅅㅐㄱ	-5099
▁ㅇㅗㅁ	-5100
▁ㅂㅏㄴㅂㅏㄱ	-5101
AL	-5102
▁CON	-5103
ㅅㅣㄹㅂㅔ	-5104
ㅍㅡㅁ	-5105
▁ㄱㅡㅁㅇㅛ	-5106
ㄱㅘㄴㅊㅗㅇ	-5107
▁ㅍㅏㅇ	-5108
ㄲㅓㅂ	-5109
ㄹㅏㅂㅇㅓ	-5110
▁ㅅㅣㄴㅅㅣ	-5111
ㅂㅓㅂㅇㅣㄴ	-5112
▁ㄱㅕㅇㄱㅘㄴ	-5113
▁ㅍㅔㄴㅅㅣㄹㅂㅔ	-5114
▁ㄱㅣㅁㄱㅣ	-5115
▁ㄴㅐㅇㄱㅏㄱ	-5116
▁ㅁㅜㅇ	-5117
ㅅㅗㄱㄱㅣ	-5118
▁ㄱㅕㄴㄷㅣ	-5119
▁ㅇㅕㄴㅎㅏ	-5120
▁ㅅㅏㅁㅊㅡㅇㅅㅓㄱㅌㅏㅂ	-5121
▁ㄱㅓㄱㅈㅓㅇ	-5122
▁ㄲㅡㄶㅇㅣㅁ	-5123
▁ㅅㅣㄴㅅㅗㄱ	-5124
▁ㅊㅜㄹㅊㅓ	-5125
▁ㅇㅕㅍㅁㅕㄴ	-5126
▁is	-5127
▁ㅎㅡㄹㄹㅣ	-5128
ㅎㅓㄴㅂㅜ	-5129
▁NC	-5130
▁ㅊㅓㅇㅊㅜㄴ	-5131
▁ㄱㅕㄹㅎㅗㄴㅅㅣㄱ	-5132
xt	-5133
▁ㄱㅜㄱㅅㅗ	-5134
▁ㅈㅏㅇㄱㅓ	-5135
▁ㄴㅏㅁㄷㅗㅇㅂㅜ	-5136
▁CC	-5137
▁ㅂㅏㄼ	-5138
▁Op	-5139
▁Pr	-5140
▁ㅇㅏㅀ	-5141
▁ㅁㅏㄹㄹㅏ	-5142
▁ㅁㅗㄴㅅㅡ	-5143
ㅈㅣㅁ	-5144
▁ㅂㅏㄹㄹㅏ	-5145
ㅋㅡㄹㄹㅐㄴㄷㅡ	-5146
ㅅㅔㅅ	-5147
▁ㅊㅣㄴㅇㅘㅇ	-5148
ft	-5149
ㅑㄹ	-5150
▁ㅅㅏㄴㄹㅏㄴ	-5151
▁ㅎㅏㄴㅉㅗㄱ	-5152
ㅌㅓㅁ	-5153
▁ㅂㅏㅇㅅㅗㅇㅅㅏ	-5154
ㅅㅏㄹㅇㅣ	-5155
▁ㅈㅓㅇㅈㅜ	-5156
▁ㅂㅜㄴㅂㅣ	-5157
▁ㅈㅣㄴㅉㅏ	-5158
▁ㅎㅚㅅㅅㅜ	-5159
▁ㅅㅐㅇㅅㅣㄱ	-5160
▁ㅈㅏㅇㅎㅏㄱ	-5161
▁ㅅㅣㄴㄱㅠ	-5162
▁ㅇㅗㄹㅂㅏ	-5163
▁ㅅㅣㄹㅈㅏㅇ	-5164
ㅈㅏㅇㅅㅣㄹ	-5165
▁ㅌㅗㅇㅇㅕㅇ	-5166
▁ㅇㅣㅁㅇㅛㅇ	-5167
▁ㅂㅏㄱㄹㅏㅁㅎㅚ	-5168
▁ㅇㅏㄹㄹㅜ	-5169
ㅎㅗㅂ	-5170
▁ㅌㅏㄹㄷㅏㅇ	-5171
ㅈㅓㅇㄹㅣ	-5172
▁ㅅㅜㄴㄱㅛ	-5173
▁ㅅㅣㄴㅈㅗ	-5174
▁ㅇㅏㄹㅈㅔ	-5175
ㅇㅣㄴㅈㅓㄴ	-5176
ㄹㅐㄴㅌㅡ	-5177
ㅇㅝㄴㅅㅜ	-5178
▁ㅂㅏㄱㅎㅐ	-5179
▁ㅁㅕㅇㅂㅐㄱ	-5180
▁ㅅㅏㅇㅈㅓㅁ	-5181
▁ㅂㅗㅇㅅㅙ	-5182
▁ㄱㅗㅇㄱㅘㄴ	-5183
▁ㅃㅏㄹㄱㅏㄴ	-5184
▁ㄹㅜㄴ	-5185
▁ㅅㅏㅇㄷㅏㄴ	-5186
▁ㅊㅣㄴㅇㅣㄹㅍㅏ	-5187
ite	-5188
▁ㅈㅏㄴㄹㅠ	-5189
▁ㄱㅘㅇㅁㅜㄹ	-5190
▁ㅅㅣㄴㅎㅏㄴ	-5191
ㄴㅓㄼ	-5192
ㅇㅑㅇㅎㅏㅁ	-5193
▁ㄸㅏㅅ	-5194
▁ㄴㅏㅇㅁㅏㄴ	-5195
▁ㅅㅓㄹㅌㅏㅇ	-5196
▁ㅎㅕㄹㅌㅗㅇ	-5197
▁ㅌㅣㄹ	-5198
▁ㅅㅏㅁㅈㅣㄴ	-5199
▁ㄱㅗㅇㅅㅜ	-5200
▁ㅅㅏㅇㅇㅛㅇ	-5201
▁ㅍㅓㅇㅋㅡ	-5202
▁ㅌㅗㅇㅈㅡㅇ	-5203
▁LP	-5204
▁ㄷㅏㅅ	-5205
ㅅㅏㅇㄷㅗ	-5206
▁ㅂㅓㅂㅈㅗ	-5207
▁SE	-5208
▁ㅇㅡㅁㄹㅛ	-5209
▁ㅈㅓㅇㅁㅏㄹ	-5210
ㅇㅑㅇㄱㅖ	-5211
▁ㄱㅕㄱㅌㅚ	-5212
▁107	-5213
▁ㅈㅜㄹㅁㅜ	-5214
▁WWE	-5215
▁ㄷㅏㄷ	-5216
▁112	-5217
ㄱㅏㄹㅅㅐㄱ	-5218
▁ㅊㅜㅇㅈㅓㄴ	-5219
▁ㄱㅕㅇㅅㅏㅇㄷㅗ	-5220
ㅇㅝㄴㅈㅏ	-5221
▁ㄷㅏㅇㅈㅜ	-5222
▁ㅅㅓㅇㄷㅏㄴ	-5223
▁Te	-5224
▁126	-5225
▁ㄱㅡㄴㄱㅛ	-5226
▁ㄷㅗㄹㄹㅕ	-5227
▁ㅇㅕㅁㄱㅣ	-5228
▁ㄹㅗㄹㄹㅣㅇ	-5229
▁ㅅㅣㄴㅌㅏㄱ	-5230
▁ㄱㅕㅇㅊㅏㄹㅊㅓㅇ	-5231
▁117	-5232
▁ㅎㅏㅇㅅㅗ	-5233
▁ㅁㅗㄱㅈㅐ	-5234
▁ㅇㅜㄴㅎㅏ	-5235
▁ㅊㅜㄱㅎㅏ	-5236
▁ㄱㅘㅇㅎㅏㄱ	-5237
▁ㅁㅐㄱㅈㅜ	-5238
ㅇㅟㄴㅅㅡ	-5239
▁ㅌㅏㅁㄱㅜ	-5240
▁com	-5241
▁ㅂㅔㄹㄹㅣ	-5242
ㅎㅘㅇㅊㅓㅇ	-5243
▁ㅃㅏㄹㄱㅏㄴㅅㅐㄱ	-5244
ㅍㅗㄹㄹㅗ	-5245
▁ㅇㅡㄹㅈㅣ	-5246
▁ㅈㅗㄴㅅㅗㄱ	-5247
ㅅㅓㄴㅇㅣㄹㅂㅗ	-5248
OL	-5249
▁ㅎㅏㅂㅎㅏ	-5250
▁ㅁㅚ	-5251
▁ㅈㅓㄱㄷㅏㅇ	-5252
ㅆㅜ	-5253
ㅍㅣㅂ	-5254
▁ㄷㅗㅇㄱㅜㄱ	-5255
▁ㅅㅓㅇㅅㅜㄱ	-5256
ies	-5257
▁ㅂㅓㅁㅇㅠ	-5258
▁ㅂㅣㄹㄹㅏ	-5259
▁ㄱㅡㅂㄱㅕㄱㅎㅣ	-5260
ㅊㅜㄱㅎㅏㅁ	-5261
▁ㅈㅓㅇㅈㅓㅁ	-5262
ㅋㅕ	-5263
▁ㄴㅔㄹ	-5264
ㅇㅡㄴㅇㅣ	-5265
▁ㅍㅗㄱㄷㅗㅇ	-5266
▁ㅂㅏㄹㄹㅣ	-5267
▁ㅋㅣㅁ	-5268
▁z	-5269
▁ㅎㅐㅅ	-5270
▁ㅅㅓㅇㅊㅔ	-5271
ond	-5272
▁113	-5273
▁ㅇㅕㄴㅅㅙ	-5274
▁ㄱㅡㄱㅎㅣ	-5275
▁ㅋㅗㄹㄹㅣ	-5276
ㅅㅜㄴㅅㅣㄴ	-5277
▁be	-5278
ound	-5279
▁ㄸㅏㅅㅈㅟ	-5280
ㄷㅗㅇㄹㅕㄱ	-5281
▁ㄷㅗㄹㅂㅗ	-5282
ov	-5283
▁ㅍㅣㄹㅌㅓ	-5284
▁ㅅㅣㄴㅁㅣㄴ	-5285
ㅅㅐㅇㅈㅏ	-5286
ㅊㅔㄹ	-5287
▁ㅅㅐㅇㅅㅏㄴㄹㅑㅇ	-5288
▁ㄱㅗㅇㅇㅣㄱ	-5289
ㄹㅏㄴㅎㅣ	-5290
▁ㅇㅏㄴㄱㅣ	-5291
▁ㅍㅜㅁㅈㅗㅇ	-5292
ㅂㅐㅁㅂㅜㅌㅇㅣ	-5293
▁137	-5294
▁ㄱㅣㅁㄱㅕㅇ	-5295
ath	-5296
ory	-5297
ㅋㅞ	-5298
▁ㄱㅘㅇㅎㅐ	-5299
▁ㄷㅗㅇㅁㅜㄴ	-5300
▁ㅅㅏㅁㅅㅓㅇㅈㅓㄴㅈㅏ	-5301
▁ㅎㅡㅁ	-5302
ㅍㅡㄹㄹㅏ	-5303
▁ㅂㅕㄹㄷㅏ	-5304
▁ㄷㅗㄷ	-5305
▁ㅁㅣㄱㅅㅡ	-5306
▁ㅎㅏㄴㅇㅣㄴ	-5307
▁ㄴㅗㅇㄹㅣㅁ	-5308
▁ㅇㅘㅇㅂㅗㄱ	-5309
ㅍㅓㄹ	-5310
▁ㅊㅏㅇㅇㅝㄴㅅㅣ	-5311
▁ㄱㅘㄴㅇㅡㅁ	-5312
▁ㄲㅏㄹ	-5313
▁1894	-5314
ㅇㅔㅅ	-5315
▁ㄱㅏㅂㅈㅏㄱㅅㅡ	-5316
▁173	-5317
▁ㄱㅏㅇㅅㅓ	-5318
▁ㅌㅐㄹㄹㅓㄴ	-5319
▁ㅇㅓㄴㄴㅣ	-5320
▁ㅊㅜㄱㅈㅓㄱ	-5321
▁ㅇㅣㄴㅊㅔ	-5322
▁ㅌㅐㄹㄹㅓㄴㅌㅡ	-5323
ㅇㅓㅂㅇㅣㄴ	-5324
▁121	-5325
▁ㅅㅓㅇㅊㅟ	-5326
ㅅㅓㅇㄷㅏㅇ	-5327
▁ㅂㅓㄹㄱㅡㅁ	-5328
▁ㅇㅡㅇㅇㅝㄴ	-5329
▁ㅎㅘㅇㅅㅣㄹ	-5330
▁RNA	-5331
▁ㅍㅗㅇ	-5332
▁ㅎㅐㄱㅁㅜ	-5333
▁ㅍㅜㄹㄹㅣ	-5334
ㅂㅔㄱ	-5335
▁ㅎㅐㄴㄷㅡ	-5336
▁ㅇㅕㅇㅅㅏㄴ	-5337
▁ㅊㅗㅇㄷㅗㄱㅂㅜ	-5338
▁ㅂㅏㅇㅎㅘ	-5339
▁ㅇㅘㅅ	-5340
▁ㅇㅓㅂㄱㅡ	-5341
▁ㅈㅓㄱㄷㅗ	-5342
▁ㅎㅘㄴㅇㅕㅇ	-5343
▁CF	-5344
iver	-5345
▁350	-5346
ㄴㅗㅁ	-5347
▁ㄷㅟㅅㅁㅕㄴ	-5348
▁ㅌㅏㅁㅅㅐㄱ	-5349
▁ㅇㅓㄱㅇㅏㅂ	-5350
▁ㅈㅡㅇㅅㅗㄴ	-5351
▁ㄴㅟ	-5352
ㅂㅓㄴㅅㅡ	-5353
▁ㅊㅓㄴㅈㅏㅇ	-5354
▁ㅈㅑ	-5355
ㄹㅜㅁ	-5356
▁ㄱㅔㄹ	-5357
▁ㄷㅏㄴㄷㅏㄴ	-5358
▁ㅇㅣㄹㅂㅏㄴㅇㅣㄴ	-5359
▁ㅊㅏㅇㅇㅓㅂ	-5360
▁ㄹㅠㄱ	-5361
▁ㅅㅏㅇㅅㅏ	-5362
▁ㅎㅚㅇㄷㅏㄴ	-5363
▁ㅎㅕㄴㅈㅓ	-5364
ㅌㅠㅁ	-5365
ㅈㅜㄹㄱㅣ	-5366
▁ㅅㅣㄴㅇㅑㄱ	-5367
▁ㅈㅣㄴㄱㅡㅂ	-5368
▁ㅋㅣㄱ	-5369
▁ㅅㅓㅇㅅㅏ	-5370
▁New	-5371
ㅂㅏㄱㅅㅡ	-5372
MA	-5373
ign	-5374
ㅇㅕㄴㅎㅏㅂ	-5375
▁ㅇㅣㅁㅎㅏ	-5376
▁World	-5377
▁ㄱㅏㅁㅈㅏ	-5378
▁ㄴㅏㄹㅆㅣ	-5379
▁ㅇㅑㅇㅎㅗ	-5380
▁114	-5381
▁ㅁㅏㄹㅆ	-5382
ial	-5383
▁Am	-5384
▁ㅅㅡㅇㄱㅖ	-5385
▁ㅅㅣㄴㅅㅓㄴ	-5386
▁ㅇㅣㅂㅇㅝㄴ	-5387
▁On	-5388
▁ㄱㅕㄴㅈㅔ	-5389
▁ㄱㅗㅇㅁㅣㄴ	-5390
ㅅㅟㅂ	-5391
▁ㅇㅕㄹㅈㅓㅇ	-5392
▁ㅇㅣㄴㅁㅜㄴ	-5393
ㅇㅛㅇㅊㅔ	-5394
▁ㅎㅏㄱㅁㅕㅇ	-5395
▁ㅅㅓㅇㄷㅗ	-5396
▁ㅁㅏㄴㄴㅏㅁ	-5397
▁ㅈㅣㄴㄱㅗㅇ	-5398
▁ㅇㅝㄹㅇㅛ	-5399
▁".	-5400
ㅌㅗㄹ	-5401
ㄷㅏㄴㅊㅔ	-5402
▁ㅈㅗㅇㅊㅏㄱ	-5403
▁ㄱㅡㄱㅈㅏㅇㅍㅏㄴ	-5404
ich	-5405
▁118	-5406
▁ㄱㅣㅁㅈㅓㅇㅇㅣㄹ	-5407
▁ㅇㅠㄱㅊㅔ	-5408
▁124	-5409
ㄸㅜㄱ	-5410
ㅇㅕㄹㅅㅏ	-5411
man	-5412
▁Sc	-5413
▁ㅅㅖㄹ	-5414
▁ㄱㅗㄱㅇㅣㄴ	-5415
▁ㅎㅣㅁㅇㅣㅂ	-5416
▁ㄷㅣㄱ	-5417
▁ㅂㅓㅁㅇㅣㄴ	-5418
▁CR	-5419
▁ㅅㅓㅇㅂㅕㄹ	-5420
▁ㅍㅏㄴㅂㅗㄴ	-5421
▁ㄱㅡㄴㅇㅝㄴ	-5422
▁ㅁㅏㅁ	-5423
▁ㅇㅕㅅ	-5424
▁ㅁㅓㄴㅈㅣ	-5425
▁ㅅㅓㄴㅂㅣ	-5426
▁ㅍㅗㄱㅎㅐㅇ	-5427
▁ㅎㅏㄹㅁㅓ	-5428
ㅇㅑㄱㅍㅜㅁ	-5429
▁EC	-5430
ㅎㅘㅇㅎㅜ	-5431
▁ㄷㅜㅇㅈㅣ	-5432
▁SD	-5433
▁ㅌㅗㅇㅌㅡㄹ	-5434
▁ㅁㅜㄴㅇㅖ	-5435
▁ㄱㅗㅇㅅㅡㅂ	-5436
▁ㄹㅐㅁ	-5437
▁ㅇㅣㄹㄱㅏ	-5438
ㅋㅝ	-5439
▁GP	-5440
ㅅㅜㄹㅈㅏ	-5441
▁ㅅㅏㅇㅍㅛ	-5442
▁ㅇㅏㅁㅅㅣ	-5443
ㅅㅓㅇㄱㅖ	-5444
ㅊㅓㄴㄹㅣ	-5445
ㅊㅜㄱㄱㅜ	-5446
▁ㅊㅐㄹㄹㅣ	-5447
▁ㅁㅜㄴㄱㅜ	-5448
▁ㅈㅣㄴㅎㅏ	-5449
ㅂㅏㅇㅅㅗㅇㄱㅗㅇㅅㅏ	-5450
hn	-5451
▁1890	-5452
▁ㅂㅏㄹㅎㅐ	-5453
ㄷㅏㄺ	-5454
ㅇㅑㅎ	-5455
▁ㅂㅜㄹㅌㅏ	-5456
▁ㅌㅡㄹㄹㅣ	-5457
ㄱㅏㅄ	-5458
▁ㅅㅣㄹㅊㅔ	-5459
▁ㅁㅐㄱㄹㅏㄱ	-5460
▁GS	-5461
▁ㄱㅜㄴㅈㅓㅇ	-5462
▁ㄴㅏㅁㅇㅝㄴ	-5463
▁ㅈㅣㄴㅅㅏ	-5464
ㅎㅏㅇㅅㅣㄱ	-5465
▁ㄴㅏㅁㄱㅜ	-5466
▁ㅈㅡㅇㄷㅐ	-5467
▁ㄴㅗㄹㄹㅏㅂ	-5468
▁ㅎㅕㄹㄱㅘㄴ	-5469
▁ㄷㅗㄱㅇㅣㄹㅇㅣㄴ	-5470
▁SU	-5471
▁ㅁㅏㄺ	-5472
ㅅㅂㅜㄹ	-5473
▁ㅅㅓㅇㅁㅜㄴ	-5474
IP	-5475
ㄹㅣㅂㅌㅡ	-5476
ㅇㅣㅁㅂㅡ	-5477
ㄷㅓㄱㅅㅕㄴ	-5478
▁ㅍㅜㅇㅈㅏ	-5479
▁ㅊㅐㄹㄹㅣㄴㅈㅣ	-5480
ㅎㅏㅁㅅㅜ	-5481
▁1898	-5482
ㅇㅗㄴㅈㅡ	-5483
▁ㄱㅣㅁㄱㅠ	-5484
ㅂㅕㄴㅇㅣㄴ	-5485
▁ㅂㅗㅇㅇㅏㄴ	-5486
▁III	-5487
ㄱㅗㅇㅈㅜ	-5488
▁ㅇㅞㅂㅌㅜㄴ	-5489
ㅆㅏㅇ	-5490
▁ㅇㅏㄱㄷㅏㄴ	-5491
ㅌㅗㅁ	-5492
ㅎㅏㅁㅁㅏ	-5493
▁ㅈㅓㅇㄹㅕ	-5494
▁ㅎㅏㄱㄱㅖ	-5495
ㅅㅡㄹㄹㅓ	-5496
▁ㅇㅗㄴㅌㅏ	-5497
▁ㅎㅔㄹㄱㅣ	-5498
▁ㅅㅣㄴㄴㅕㅁ	-5499
▁ㅋㅛ	-5500
▁ㅂㅗㄹㅍㅡ	-5501
rom	-5502
ㅃㅜㄹ	-5503
▁ㅍㅗㄱㅍㅗ	-5504
▁ㄴㅏㅅ	-5505
▁ㄹㅣㅅ	-5506
▁JT	-5507
▁ㅉㅡ	-5508
ㄷㅣㅈ	-5509
▁115	-5510
▁129	-5511
▁ㅎㅕㅂㅂㅏㄱ	-5512
ㅇㅣㄴㅅㅡ	-5513
▁ㅇㅣㄹㅅㅐㅇ	-5514
ㄹㅏㄴㅊㅡ	-5515
ㅇㅠㄱㅂㅜ	-5516
▁ㅋㅔㄹㄹㅣ	-5517
▁ㄱㅗㅇㅂㅐㄱ	-5518
▁ㅁㅏㄷ	-5519
ction	-5520
urn	-5521
▁ㅅㅒ	-5522
ㅌㅗㄹㄹㅔ	-5523
▁ㄱㅣㅁㅎㅕㄴ	-5524
▁ㅂㅣㄴㄱㅗㄴ	-5525
▁ㅇㅛㅇㅂㅕㅇ	-5526
▁ㅇㅕㄴㅎㅏㅂㄱㅜㄱ	-5527
ㅅㄱㅏㅄ	-5528
▁ㄱㅚㅇㅈㅏㅇㅎㅣ	-5529
▁ㄱㅓㅁㅊㅏㄹㅊㅓㅇ	-5530
▁ㅇㅘㅇㅅㅔ	-5531
▁ㅇㅝㄴㄷㅓ	-5532
▁ㅇㅝㄴㅈㅓㄴ	-5533
▁ㅅㅔㄴㅌㅣ	-5534
▁ㅊㅗㅇㅊㅣㅇ	-5535
▁ㅇㅕㄴㅅㅏㄴㅈㅏ	-5536
ㄴㅣㄹㄹㅏ	-5537
ㅋㅏㄹㄹㅏ	-5538
Pa	-5539
ㅎㅐㅇㅅㅏ	-5540
▁ㄱㅡㄱㅅㅣㅁ	-5541
▁ㅎㅏㅇㅈㅐㅇ	-5542
▁142	-5543
ㅈㅣㄴㄱㅜㄴ	-5544
▁ㅅㅓㄴㄷㅗ	-5545
▁ㅁㅏㄴㄹㅛ	-5546
ㅇㅣㅆ	-5547
▁ㅇㅗㅂㅅㅕㄴ	-5548
▁ㄴㅏㅁㅁㅣ	-5549
▁ㄱㅗㅇㅂㅏㅇ	-5550
▁ㄴㅐㅇㅈㅓㄴ	-5551
▁ㅍㅕㅇㅈㅓㅇ	-5552
▁ㅇㅕㅇㅅㅏ	-5553
▁ㅇㅣㄴㅅㅡ	-5554
▁ㅊㅓㄹㅎㅚ	-5555
▁ㅋㅐㄴㅈㅏ	-5556
▁ㅊㅓㄴㅁㅜㄴㄷㅐ	-5557
ㅈㅏㄱㅇㅛㅇ	-5558
▁ㅇㅑㅇㅊㅡㄱ	-5559
▁ㅊㅜㄱㅁㅜㄹ	-5560
▁ㅇㅡㄴㄷㅔ	-5561
▁ㅇㅣㄴㅁㅕㅇ	-5562
ㅊㅏㄱㅈㅗㅇ	-5563
▁ㄱㅡㄱㅈㅏㄱ	-5564
▁ch	-5565
ㅎㅐㅇㅈㅏㅇ	-5566
▁ㅎㅘㄱㅅㅣㄴ	-5567
▁ㄱㅏㄷㅎㅣ	-5568
pp	-5569
▁ㅅㅡㅇㅈㅏ	-5570
ㅌㅗㅇㄱㅜㄱ	-5571
lic	-5572
▁ㄴㅓㅁㅊㅣ	-5573
▁ㄷㅗㅇㅈㅓㅁ	-5574
▁1899	-5575
▁ㅁㅕㅇㅎㅏ	-5576
ph	-5577
▁ㅊㅓㅁㄷㅏㄴ	-5578
▁ㅎㅘㅇㅈㅗㄱ	-5579
▁ㅌㅜㅇ	-5580
▁ㅂㅏㄺㄱㅣ	-5581
▁ㅅㅜㄴㅈㅗ	-5582
ㅂㅡㄹㄹㅣㄴ	-5583
▁ㅂㅏㄴㄱㅕㅇ	-5584
▁ㅇㅣㄹㅂㅏㅇ	-5585
▁ㄱㅘㅇㅈㅓ	-5586
▁ㅁㅗㄹㄹㅐ	-5587
▁ㅅㅔㄹㄹㅔ	-5588
▁ㅁㅕㅇㅈㅗㅇ	-5589
▁Ne	-5590
ㅈㅓㄴㅊㅏ	-5591
▁ㄱㅕㄹㅎㅏㅁ	-5592
▁CJ	-5593
ㄹㅣㅁㅈㅏ	-5594
▁ㅈㅓㅇㅂㅕㄴ	-5595
▁ㅊㅜㄱㅊㅜㄹ	-5596
TS	-5597
▁ㄱㅘㄴㅅㅔ	-5598
▁ㅍㅣㅇㅋㅡ	-5599
ㅅㅡㅇㅂㅜ	-5600
▁ㄱㅜㅇㄱㅡㄱ	-5601
ㅂㅏㄴㄴㅣ	-5602
▁ㅁㅐㄱㄷㅗ	-5603
▁ㅍㅜㄹㄹㅕ	-5604
▁ㄱㅗㄴㄹㅏㄴ	-5605
▁ㅊㅣㄴㅇㅟ	-5606
▁ID	-5607
▁ㅂㅣㅊㄴㅏ	-5608
▁ㅋㅗㄱ	-5609
▁BS	-5610
▁ㅇㅛㄱㄱㅜ	-5611
▁1902	-5612
▁ㅌㅐㄱㅎㅏ	-5613
▁ㅇㅕㄴㄲㅗㅊ	-5614
▁ㅍㅡㄹㄹㅐㅅㅍㅗㅁ	-5615
▁ㄹㅓㅁ	-5616
ㄱㅜㄱㅅㅏ	-5617
▁ㄱㅘㄴㅈㅔ	-5618
▁ㄱㅡㄹㄹㅜ	-5619
▁ㅇㅛㅇㅇㅣ	-5620
▁ㅂㅔㅇ	-5621
ㅓㅅㅓ	-5622
▁Man	-5623
ㅇㅣㄴㅅㅠ	-5624
ㅈㅐㅇㅇㅣ	-5625
▁ㅂㅏㄹㄱㅣ	-5626
▁ㄱㅘㅇㄷㅜㅇ	-5627
▁`	-5628
lan	-5629
ㅈㅓㄱㅈㅣ	-5630
▁ㅂㅕㄴㅇㅣ	-5631
ㅈㅏㅇㅍㅜㅁ	-5632
▁ㄹㅔㄱ	-5633
▁ㅂㅡㄹㄹㅐㄱㅎㅗㄹ	-5634
▁ㅂㅐㅇ	-5635
ㅂㅏㅇㅅㅓ	-5636
ㅁㅣㄹㅌㅓㄴ	-5637
ens	-5638
▁ㅅㅜㄱㅊㅓㅇ	-5639
▁ㄱㅕㅇㅅㅣㄴ	-5640
▁LC	-5641
▁ㅇㅜㄴㅅㅜ	-5642
ㅎㅡㅇㄱㅜㄴ	-5643
▁ㅍㅗㄱㄴㅓㄼ	-5644
ary	-5645
▁ㄴㅗㅎㅊㅣ	-5646
▁ㄷㅗㄱㅅㅓ	-5647
▁ㅂㅕㄱㄷㅗㄹ	-5648
▁ㅌㅏㄴㄷㅗ	-5649
▁ㄱㅏㅇㄷㅗㅇ	-5650
▁ㄱㅣㅁㅈㅣ	-5651
▁ㅈㅡㄱㄱㅏㄱ	-5652
TC	-5653
ㄹㅓㅇ	-5654
▁ㄸㅓㄹㅊㅣ	-5655
▁ㅈㅓㅇㅅㅔ	-5656
ert	-5657
▁ㅊㅣㅁㅌㅜ	-5658
▁ㄴㅏㄴㅈㅣㅇ	-5659
▁ㅂㅏㄹㅂㅕㅇ	-5660
▁ㅎㅗㄴㄷㅗㅇ	-5661
▁ㄱㅕㅇㅊㅏㄹㄱㅘㄴ	-5662
▁ㄱㅏㅁㅆㅏ	-5663
▁ㅍㅣㄹㅅㅏ	-5664
ㄷㅗㅇㄱㅏㅇ	-5665
▁ㅁㅣㄹㅈㅣㅂ	-5666
▁ㅋㅓㅅ	-5667
ㅇㅑㄹ	-5668
▁ㅅㅣㄹㅂㅓ	-5669
▁ㅇㅣㄹㅋㅓㄹ	-5670
▁ㅈㅜㅇㅅㅏㄴ	-5671
▁ㅊㅓㄱㅊㅜ	-5672
ㅈㅣㅅㅈㅓㅁ	-5673
▁''	-5674
▁ㅇㅕㅇㄷㅡㅇ	-5675
▁ㄲㅗㄱㅈㅣㅅㅈㅓㅁ	-5676
▁ㅅㅓㄹㅎㅘ	-5677
▁ㅇㅑㅇㅂㅏㄴ	-5678
▁ㅇㅝㄴㅈㅗㅇ	-5679
▁ㅇㅜㄹㅅㅏㄴㄱㅘㅇㅇㅕㄱㅅㅣ	-5680
ㅇㅛㄱㅈㅜ	-5681
▁ㅇㅏㄴㅌㅔ	-5682
▁ㅁㅏㄴㅇㅣㄹ	-5683
ㄹㅏㄴㅊㅔ	-5684
ㅅㅔㅁㅂㅜ	-5685
▁ㄹㅜㄱㅅㅔㅁㅂㅜ	-5686
ㅁㅜㄴㅌㅡ	-5687
▁ㅅㅡㅂㅈㅣ	-5688
▁ㄱㅕㅇㅅㅓㅇㅂㅜ	-5689
▁}	-5690
▁ㅊㅓㄴㅎㅏ	-5691
▁ㄷㅗㄹㄱㅕㄱ	-5692
▁ㅇㅗㅇㄹㅣㅂ	-5693
▁ㅈㅜㅇㅂㅗㄱ	-5694
▁ㅋㅓㄴㅅㅔㅂ	-5695
ㄹㅓㄹㄷㅡ	-5696
▁ㄱㅏㅁㅁㅏ	-5697
▁ㅂㅗㄴㄱㅜㄱ	-5698
ㅅㅏㅇㄱㅏ	-5699
▁ㅁㅏㄴㅅㅓㅇ	-5700
▁ㅎㅕㄴㅇㅡㄴ	-5701
ㄱㅡㅅㄴㅏ	-5702
▁ㄱㅏㄴㅅㅓㄴ	-5703
▁ㅈㅓㄴㄴㅕㄴ	-5704
▁ㅈㅓㄻㅇㅡㄴㅇㅣ	-5705
▁ㅇㅓㅅ	-5706
▁ㅎㅏㄱㅇㅓㅂ	-5707
LE	-5708
▁ㅁㅣㅇ	-5709
▁ㅅㅐㅇㅊㅔ	-5710
▁ㅎㅔㄹㄹㅔ	-5711
▁ㅈㅓㄴㅅㅗㄱ	-5712
ach	-5713
▁No	-5714
▁ㅎㅔㄱ	-5715
ㅂㅔㄹㅌㅡ	-5716
▁ㅎㅏㄱㄱㅣ	-5717
▁ㄷㅗㅇㅎㅏㄱ	-5718
▁ㄱㅏㄱㄷㅗ	-5719
▁ㅇㅣㅁㅇㅝㄴ	-5720
▁ㅁㅣㄱ	-5721
▁ㅇㅓㄵ	-5722
▁ㅉㅗㅊㄱㅕ	-5723
ㅂㅔㄹㄹㅏ	-5724
ㅋㅔㅅㅁㅗㄴㅅㅡ	-5725
▁ㄱㅜㄱㅇㅕㅇ	-5726
▁ㄷㅗㅇㅈㅓㅇ	-5727
▁IM	-5728
▁ㅇㅡㅇㅅㅣ	-5729
ㅌㅣㄱㅅㅡ	-5730
▁ㅁㅏㄹㅁㅣ	-5731
▁ㅇㅕㄹㄷㅗ	-5732
▁ㄱㅗㅇㅈㅓㄱ	-5733
▁ㅅㅐㅇㅅㅐㅇ	-5734
▁ㅊㅣㅇㅊㅏㄴ	-5735
▁ㅂㅣㅁ	-5736
▁ㄱㅏㅇㅂㅕㄴ	-5737
▁ㅅㅣㄴㅇㅝㄴ	-5738
▁ㅇㅕㅇㅁㅜㄴ	-5739
TA	-5740
ㅅㅁㅜㄹ	-5741
▁ㄱㅗㅇㄹㅣ	-5742
ㅋㅡㄴ	-5743
▁ㅂㅏㄹㄱㅡㅂ	-5744
ㄱㅑㄹ	-5745
▁ㅂㅕㅇㄱㅣ	-5746
LS	-5747
▁ㅈㅣㅇㄱㅖ	-5748
▁ㅊㅜㄱㅈㅗ	-5749
▁ㅅㅐㅇㄹㅑㄱ	-5750
▁1901	-5751
ㅍㅔㄴㅎㅏ	-5752
ㅁㅏㄱㅈㅓㄴ	-5753
IG	-5754
ㄹㅜㄹ	-5755
▁ㅇㅚㄴㅅㅗㄴ	-5756
▁ㅂㅔㄹㅌㅡ	-5757
▁ㅅㅏㅅㅍㅗ	-5758
▁ㄷㅏㄴㅊㅜㄱ	-5759
▁ㄹㅖ	-5760
▁ㄱㅗㅇㅈㅗ	-5761
▁THE	-5762
out	-5763
ㅁㅓㄴㅅㅡ	-5764
▁ㅈㅗㅇㅅㅗㄱ	-5765
▁MB	-5766
ㅌㅔㄱㅊㅓ	-5767
ㄷㅓㅇㅇㅣ	-5768
ㅋㅏㄹㄹㅣ	-5769
▁ㅇㅑㄱㅈㅏ	-5770
▁ㅂㅗㄴㅁㅜㄴ	-5771
▁ㅈㅓㅇㅁㅜㄴ	-5772
ㅁㅟ	-5773
▁AN	-5774
ㄷㅜㅁ	-5775
▁ㅇㅐㄹㅂㅓ	-5776
▁ㄱㅣㅅㅂㅏㄹ	-5777
ug	-5778
ㄴㄷㅏㄹ	-5779
▁ㅅㅓㅇㅍㅗㄱ	-5780
▁ㅈㅣㄱㄱㅕㄹ	-5781
▁134	-5782
▁ㅊㅗㄱㅁㅐ	-5783
ㄲㅏㅌㅉㅗㄱ	-5784
▁ㅊㅜㅂ	-5785
▁ㅇㅗㄱㅅㅜ	-5786
▁ㄱㅘㄴㄱㅘㅇㅈㅣ	-5787
ㅁㅗㄹㄹㅗ	-5788
▁ㅇㅕㄴㅅㅡㅇ	-5789
▁ㅋㅗㅁㅍㅐㄱㅌㅡ	-5790
▁ㄷㅏㄱ	-5791
▁ㄱㅣㅁㅈㅔ	-5792
▁ㅈㅜㅇㅎㅕㅇ	-5793
▁ㅇㅜㄹㅍㅡ	-5794
▁ㅌㅗㅇㅂㅗ	-5795
▁ㄷㅗㄱㅅㅓㅇ	-5796
▁ㅅㅏㅇㄱㅡㅁ	-5797
ㅋㅣㄱ	-5798
▁ㄲㅗㅂ	-5799
▁ㅇㅞㄴ	-5800
ㅂㅣㄹㄹㅏ	-5801
▁ㅅㅐㄴㄷㅡ	-5802
▁ㅈㅓㅇㅅㅓㄴ	-5803
▁ㅇㅏㅂㄷㅜㄹ	-5804
▁ㄷㅏㄲ	-5805
▁ㅆㅓㄹ	-5806
▁ㄱㅗㅇㄱㅏㅁ	-5807
ase	-5808
▁ㅊㅏㅇㅊㅜㄹ	-5809
▁1903	-5810
ㅋㅗㄹㄹㅣ	-5811
▁ㄷㅗㅇㄴㅔ	-5812
▁ㅌㅏㄹㄹㅣ	-5813
▁ㅎㅏㄴㅈㅗㄱ	-5814
▁ㄷㅏㄴㅇㅢ	-5815
▁ㄷㅔㄹㄹㅏ	-5816
▁ㅊㅓㄴㅈㅐ	-5817
▁ㅇㅣㄹㄹㅓ	-5818
▁ㅇㅝㄴㅊㅓㄴ	-5819
▁ㅅㅡㄹㄹㅣ	-5820
▁ㅇㅕㄴㅇㅣ	-5821
ys	-5822
▁ㅈㅓㅇㅈㅓㄱ	-5823
▁EX	-5824
▁ㅎㅗㅁㄱㅜ	-5825
▁ㅇㅏㅅ	-5826
ㅂㅓㄴㄴㅚ	-5827
▁ㄱㅕㄹㅋㅗ	-5828
▁ㅈㅜㅇㅅㅜ	-5829
▁ㄱㅘㅇㅁㅕㅇ	-5830
▁ㅈㅜㅇㄱㅗㅇ	-5831
▁ㅅㅏㅁㄱㅜㄱㅈㅣ	-5832
▁ㅂㅜㄴㅅㅜ	-5833
▁ㅁㅏㄹㅆㅡㅁ	-5834
▁ㅂㅗㄱㅇㅛㅇ	-5835
▁ㄷㅏㄹㄱㅑㄹ	-5836
▁ㅁㅗㄳ	-5837
▁ㅅㅗㄴㄲㅗ	-5838
▁ㅁㅝ	-5839
ㄸㅏㄹ	-5840
▁ㅊㅗㅇㅁㅜ	-5841
▁ㅇㅔㄴㄷㅣㅇ	-5842
▁Gr	-5843
ㅎㅡㄹ	-5844
ㄴㅏㄴㄷㅗ	-5845
▁ㄱㅏㄴㄷㅏㄴㅎㅣ	-5846
▁ㄱㅗㅇㅇㅖ	-5847
▁ㄱㅝㄴㅊㅗㅇ	-5848
▁ㅈㅓㅇㅅㅓㅇ	-5849
▁1884	-5850
▁ㄱㅣㅁㅊㅏㅇ	-5851
▁ㄷㅏㅂㅂㅕㄴ	-5852
▁ㅇㅕㅁㅈㅡㅇ	-5853
▁ㅅㅔㄱㅅㅡ	-5854
▁ㅂㅜㄴㅁㅕㅇㅎㅣ	-5855
ㅎㅣㄹ	-5856
▁ㄴㅏㅁㅈㅏㄱ	-5857
▁ㅂㅗㅇㄱㅓㄴ	-5858
▁ㅈㅣㄱㅁㅕㄴ	-5859
ree	-5860
▁ㅇㅣㅀㅇㅓ	-5861
▁ㅇㅣㅁㄱㅘㄴ	-5862
▁One	-5863
▁with	-5864
ㅂㅜㄹㄱㅛ	-5865
ㄴㅕㄴㄱㅣ	-5866
▁ㅇㅕㅁㅅㅐㄱㅊㅔ	-5867
11	-5868
▁ㅂㅜㄹㄲㅗㅊ	-5869
▁ㅎㅏㅁㅈㅓㅇ	-5870
▁ㅂㅗㄱㅎㅏㅂㅊㅔ	-5871
▁hPa	-5872
▁ㄴㅏㅁㅁㅐ	-5873
ㄱㅗㄱㄷㅗㅇ	-5874
▁KIA	-5875
▁ㄴㅏㅁㅈㅗ	-5876
▁ㅈㅓㄴㅇㅟ	-5877
▁All	-5878
▁ㅅㅓㅇㅈㅣ	-5879
▁ㅂㅏㄹㄹㅔㄴㅅㅣ	-5880
▁ㅍㅗㄱㄱㅕㄱㄱㅣ	-5881
ke	-5882
▁IN	-5883
ㄴㅕㅁㄱㅘㄴ	-5884
▁ㄱㅜㄴㅅㅏㄴ	-5885
▁ㅈㅣㄱㄱㅕㅇ	-5886
▁ㅊㅏㅇㄴㅕㅇ	-5887
▁ㅈㅓㅇㅇㅠ	-5888
▁ㄱㅕㅇㅇㅣㄴ	-5889
▁ㄷㅏㄴㅈㅓㄹ	-5890
▁ㅈㅓㄹㄷㅗ	-5891
ㅈㅓㅇㄷㅗㅇ	-5892
ㄷㅗㅇㄱㅣ	-5893
▁GO	-5894
ㅈㅏㄱㅈㅣ	-5895
ㅅㅣㄱㅇㅣㄴ	-5896
pt	-5897
ㄴㅓㅎ	-5898
▁ㄱㅘㅇㄷㅐ	-5899
▁ㅁㅜㄹㅍㅜㅁ	-5900
▁ㅅㅓㄱㅂㅜㄹ	-5901
▁ㅇㅓㄺ	-5902
▁ㄱㅡㄱㄷㅐ	-5903
act	-5904
▁Cl	-5905
ㅁㅏㅅ	-5906
▁ㄱㅗㅇㅁㅕㅇ	-5907
▁ㅇㅕㄱㄹㅑㅇ	-5908
ㄷㅏㅎ	-5909
▁ㅅㅓㄴㅇㅜ	-5910
▁ㅇㅣㅂㄱㅜㄱ	-5911
▁ㄹㅔㅁ	-5912
▁ㅍㅏㅅ	-5913
▁ㄷㅏㄴㅁㅕㄴ	-5914
▁Ad	-5915
ㅅㅏㄴㅁㅐㄱ	-5916
▁ㅂㅏㅇㄱㅡㄹㄹㅏ	-5917
▁ㅂㅜㅌㅈㅏㅂㅎㅣ	-5918
▁ㄱㅏㄴㅌㅗ	-5919
▁ㄷㅟㅅㅂㅏㄷㅊㅣㅁ	-5920
▁1800	-5921
▁ㅂㅡㄹㄹㅓ	-5922
▁ㄱㅓㅁㅊㅜㄹ	-5923
ㅎㅡㄱ	-5924
▁ㅇㅗㅀ	-5925
▁ㅎㅕㄴㄱㅏㅁ	-5926
▁ㄷㅗㅇㅎㅕㅇ	-5927
▁ㅇㅕㅁㅅㅗ	-5928
▁ㅇㅣㄹㅅㅏㄴ	-5929
▁ㅇㅣㅂㅅㅓㅇ	-5930
▁LA	-5931
▁ㅂㅜㄱㅈㅗ	-5932
▁ㅅㅏㅇㅌㅡ	-5933
▁ㅅㅓㄴㅂㅐ	-5934
▁ㅈㅜㄴㅈㅜ	-5935
ㅇㅠㄱㅊㅓㅇ	-5936
▁ㄱㅐㅇㅅㅣㄴ	-5937
▁ㅅㅓㄴㅎㅐㅇ	-5938
▁ㅂㅏㄱㅈㅣ	-5939
▁ㅇㅝㄴㅂㅗㄴ	-5940
▁116	-5941
▁ㅁㅕㄴㅈㅔ	-5942
▁ㄲㅗㄱㄷㅐ	-5943
▁ㅊㅜㅇㅊㅓㅇㄷㅗ	-5944
▁ㅎㅟㄹ	-5945
▁ㅂㅏㅇㅅㅗㅇㅇㅣㄴ	-5946
▁ㄷㅔㄹㅌㅏ	-5947
ㄷㅡㅇㅎㅏㄱㅅㅐㅇ	-5948
ㄴㅕㅁㅂㅣ	-5949
ㅅㅏㄴㅅㅓㅇ	-5950
ㄲㅡㅅ	-5951
▁ㄱㅏㄹㅅㅜ	-5952
▁ㄷㅏㅇㅅㅜ	-5953
▁ㅇㅝㄴㄹㅛ	-5954
▁ㅂㅜㄴㅊㅜㄹ	-5955
▁ㅅㅏㅇㅇㅡㅇ	-5956
▁ㅈㅓㅁㅅㅓㅇㅅㅜㄹ	-5957
▁NGC	-5958
ㄱㅕㄱㅅㅜ	-5959
▁ㄱㅜㄴㅈㅜㅇ	-5960
▁ㄱㅣㅁㅎㅗㅇ	-5961
▁ㅎㅘㄱㅅㅣㄹㅎㅣ	-5962
▁2022	-5963
▁ㄱㅓㅁㅇㅕㄹ	-5964
ㅎㅣㅁ	-5965
▁ㄱㅝㄴㅈㅏㅇ	-5966
▁con	-5967
▁ㄱㅡㅂㅅㅜ	-5968
▁ㅈㅗㅇㄹㅐ	-5969
▁ㅈㅣㄹㅅㅗ	-5970
▁ㅈㅓㄴㄱㅜ	-5971
▁ㅋㅗㄴㅌㅔ	-5972
▁ㅁㅣㄴㄱㅏㅁ	-5973
▁ㅈㅜㅇㄹㅕㅇ	-5974
ass	-5975
▁ㄱㅕㅇㄱㅘ	-5976
▁ㅉㅗㅊㅇㅏ	-5977
▁ㄱㅜㄴㅎㅏㅁ	-5978
▁ㅋㅓㅁㅂㅐㄱ	-5979
▁ㄴㅏㅁㄷㅗㅇㅅㅐㅇ	-5980
▁ㅎㅘㄹㅈㅜ	-5981
▁ㄱㅏㄱㅅㅐㄱ	-5982
▁ㄱㅜㅇㅈㅜㅇ	-5983
▁ㅊㅓㄴㅇㅕㄴㄱㅣ	-5984
▁ㅇㅕㅇㄱㅜㄱㅇㅣㄴ	-5985
▁Br	-5986
ㅂㅔㄴㅊㅓ	-5987
▁ㅂㅓㅂㅈㅓㅇㄷㅗㅇ	-5988
▁ㅊㅓㄹㅍㅖ	-5989
ㅅㅓㄴㅇㅘㅇ	-5990
▁ㅈㅗㅇㅈㅓㅁ	-5991
▁CN	-5992
▁ㅍㅕㅇㅊㅏㅇ	-5993
ream	-5994
clude	-5995
▁ㅎㅡㄴㄷㅡㄹㄹㅣ	-5996
▁ㅈㅓㄴㅇㅕㅁㅂㅕㅇ	-5997
▁;&	-5998
▁122	-5999
ㅁㅜㄴㅅㅓ	-6000
▁ㅂㅜㄴㄹㅑㅇ	-6001
ㅂㅏㄴㄱㅜ	-6002
▁ㄱㅏㅇㄴㅏㅁㄱㅜ	-6003
▁ㄲㅜㄹ	-6004
▁1860	-6005
▁1897	-6006
▁ㄴㅗㅇㅂㅜ	-6007
▁ㅅㅏㅇㄱㅏ	-6008
▁ㅇㅡㅇㅎㅏ	-6009
▁Ex	-6010
▁ㄷㅗㅇㅈㅗ	-6011
▁ㅇㅗㄹㄷㅡ	-6012
▁ㅅㅏㅁㅊㅗㄴ	-6013
▁ㅎㅘㄱㅈㅣㄴ	-6014
▁ㅅㅣㄹㅁㅜ	-6015
▁ㅇㅐㄴㄷㅓ	-6016
ㅇㅕㄱㅎㅏㄱ	-6017
▁ㄱㅗㄱㅁㅜㄹ	-6018
▁ㄱㅘㄴㅈㅓㄹ	-6019
▁ㄱㅜㄴㅊㅓㅇ	-6020
▁ㅇㅕㄴㅂㅗㅇ	-6021
▁ㅂㅏㄹㄹㅕㅇ	-6022
▁ㅈㅓㅇㄹㅣㅂ	-6023
▁220	-6024
▁ㅅㅐㄱㅊㅐ	-6025
▁ㅅㅐㄴㄷㅣ	-6026
ㄷㅠㅁ	-6027
▁Is	-6028
▁ㄴㅏㄹㅋㅏ	-6029
▁ㅅㅗㄹㄹㅜ	-6030
▁ㅅㅏㄴㅊㅜㄹ	-6031
▁ㅅㅣㄴㅊㅜㄱ	-6032
▁ㅍㅔㄴㅅㅣㅇ	-6033
▁ㅌㅡㄱㅂㅕㄹㅈㅏ	-6034
▁ㄱㅗㅇㄱㅗ	-6035
▁ㄱㅏㅁㅎㅐㅇ	-6036
▁ㅅㅏㅇㅂㅓㅂ	-6037
▁ㅈㅓㄴㅅㅏㄴ	-6038
▁ㅇㅏㄴㅊㅣ	-6039
▁ㅇㅕㅇㄷㅡㅇㅍㅗ	-6040
▁ㄱㅏㅇㄱㅏㄴ	-6041
▁ㅈㅓㅇㄷㅗㅇ	-6042
ii	-6043
▁ㄱㅏㄹㄹㅐ	-6044
▁ㅎㅏㅁㅇㅑㅇ	-6045
ㄹㅓㄹㄹㅣ	-6046
▁ㅇㅣㅂㄱㅏㄱ	-6047
▁ㅈㅓㄴㅂㅗㄱ	-6048
▁ㄴㅛ	-6049
ㅃㅏㄹ	-6050
▁ㅇㅛㅇㅇㅏㅁ	-6051
▁ㅇㅣㄹㅍㅏ	-6052
▁ㅅㅣㄹㅁㅏㅇ	-6053
▁ㅇㅏㄴㄱㅕㅇ	-6054
ㅌㅣㄹㄹㅣ	-6055
▁ㅊㅓㅇㅅㅏㄴ	-6056
▁ㄱㅗㅇㅇㅛㅇㅇㅓ	-6057
▁133	-6058
▁ㅇㅣㄹㄱㅘㄹ	-6059
▁ㅈㅏㅇㅂㅕㄱ	-6060
▁ㄴㅗㄴㅎㅏ	-6061
▁ㄸㅓㄱ	-6062
▁++	-6063
▁ㅎㅕㅇㅈㅗ	-6064
▁ㅇㅏㄴㅅㅏㄴ	-6065
ㅇㅏㄵ	-6066
ㅈㅏㄱㅅㅏ	-6067
ㅂㅏㅇㅅㅏㄴ	-6068
▁ㄷㅡㅇㅇㅛㅇ	-6069
▁ㅈㅜㅇㄱㅗㅇㅇㅓㅂ	-6070
ake	-6071
ㅋㅗㅂㅌㅓ	-6072
▁ㅇㅠㄴㅂㅗ	-6073
▁ㅎㅕㅁㅇㅗ	-6074
▁ㄴㅏㅁㅇㅑㅇㅈㅜ	-6075
▁ㅈㅓㄴㅂㅏㅇ	-6076
ㅅㅓㅇㅈㅜ	-6077
▁ㅅㅓㄹㄱㅛ	-6078
▁ㅌㅡㄱㄱㅝㄴ	-6079
▁ㅎㅗㄹㄹㅣ	-6080
▁ㅁㅜㄴㄱㅕㅇ	-6081
ㄹㅔㄱㅌㅓ	-6082
▁ㅁㅜㄲㅇㅣ	-6083
▁ㅅㅓㄱㅎㅚ	-6084
ㄱㅏㅎ	-6085
▁ㄱㅡㄹㄹㅐ	-6086
▁ㅇㅣㅂㅈㅜ	-6087
▁ㅎㅓㄴㅅㅣㄴ	-6088
ㅌㅔㄹㄹㅔ	-6089
▁ㄱㅡㄱㄹㅏㄱ	-6090
▁ㅅㅏㅇㄱㅕㅇ	-6091
▁ㅅㅓㄹㄹㅣㅂㅈㅏ	-6092
iss	-6093
▁ㅁㅏㄱㅅㅡ	-6094
▁ㅅㅜㄱㅂㅜ	-6095
▁ㅎㅓㄴㅈㅓㅇ	-6096
▁ㅈㅣㄴㅎㅐㅇㅈㅏ	-6097
▁ㅅㅕㄹ	-6098
▁ㅈㅗㅇㅍㅏ	-6099
▁ㅎㅏㅁㅅㅓㄴ	-6100
▁ㄷㅡㅇㄱㅣ	-6101
▁ㅂㅜㄹㅅㅣㄴ	-6102
▁ㅎㅡㅇㅅㅓㄴㄷㅐ	-6103
CAF	-6104
▁ㄱㅏㅇㄷㅐ	-6105
▁ㄴㅐㅁㅅㅐ	-6106
▁ㅂㅏㄹㅋㅏㄴ	-6107
Hz	-6108
own	-6109
▁ㄹㅏㅂ	-6110
ㅇㅣㄹㅇㅡ	-6111
ㅈㅓㅇㅇㅝㄴ	-6112
▁ㄴㅗㅇㅇㅓ	-6113
▁ㅂㅜㅌㅇㅕ	-6114
▁ㅈㅏㅇㅈㅏ	-6115
▁ㅈㅓㄹㄷㅏㄴ	-6116
▁CBS	-6117
▁ㅁㅗㄱㅇㅛ	-6118
HO	-6119
▁ㅁㅣㄹㄹㅓ	-6120
▁ㅂㅣㄴㄷㅗ	-6121
ㅂㅏㅇㅇㅜㄹ	-6122
ㄹㅓㅅ	-6123
▁1880	-6124
▁or	-6125
▁ㄷㅣㄹ	-6126
▁ㄱㅕㄴㅇㅣㄴ	-6127
▁BM	-6128
ㅇㅗㄹㄹㅗ	-6129
ㄱㅜㅇㅎㅘ	-6130
▁ㄱㅓㅌㅂㅗ	-6131
▁ㄲㅡㄶㅇㅣㅁㅇㅓㅄㅇㅣ	-6132
▁ㄷㅗㄹㄱㅣ	-6133
ㄱㅘㄴㅎㅏㄱㄱㅛ	-6134
ork	-6135
▁pro	-6136
▁ㄱㅕㄱㅈㅏ	-6137
▁ㅂㅏㄴㅈㅓㄴ	-6138
ㅘㅇ	-6139
▁ㅅㅏㅇㄱㅗ	-6140
ㄹㅓㄹㄹㅣㅁㅍㅣㄱ	-6141
GA	-6142
▁ㅊㅓㅇㅈㅏ	-6143
▁ㄱㅏㅇㅊㅓㄹ	-6144
▁ㅅㅓㄴㄷㅗㅇ	-6145
▁ㅅㅣㄴㄷㅗㅇ	-6146
ㅍㅡㄹㄹㅗ	-6147
▁ㄴㅗㅇㅅㅏ	-6148
▁ㅈㅓㅇㅎㅘ	-6149
▁ㅊㅓㅇㅅㅐㄱ	-6150
▁ㅅㅗㄴㄲㅗㅂㅎㅣ	-6151
()	-6152
UR	-6153
▁ㅂㅕㄱㅎㅘ	-6154
▁ㅅㅣㅁㅇㅑ	-6155
▁ㅎㅜㅁㅊㅣ	-6156
ㄷㅗㅇㄱㅜㄴ	-6157
▁ㄱㅗㅇㅎㅘㅇ	-6158
▁ㅂㅜㄹㅇㅓ	-6159
▁ㅂㅏㄴㄱㅜㄴ	-6160
▁ㅎㅕㅂㄷㅗㅇ	-6161
▁ㅁㅜㄹㄱㅏ	-6162
▁ㅇㅑㄱㅅㅏ	-6163
▁ㅎㅏㄴㅌㅔ	-6164
▁ㅁㅏㄱㅅㅣ	-6165
▁ㅂㅗㄹㅅㅖ	-6166
▁ㄱㅡㄱㅈㅏㄱㄱㅏ	-6167
▁ㅋㅣㄹ	-6168
ㅈㅣㄱㅇㅝㄴ	-6169
lo	-6170
▁ㅇㅣㄴㅈㅣㄹ	-6171
▁only	-6172
▁ㄱㅜㄱㅅㅜ	-6173
▁ㅈㅏㅇㅈㅔ	-6174
▁ㅈㅣㄴㅅㅜ	-6175
▁ㅎㅏㄱㄷㅐ	-6176
ㅊㅓㄴㅁㅕㄴ	-6177
▁ㅁㅣㄴㄱㅏㄴㅇㅣㄴ	-6178
ㅇㅟㅇ	-6179
ection	-6180
▁ㅇㅕㄴㅁㅗㅅ	-6181
▁ㄷㅏㄴㅎㅐㅇㅂㅗㄴ	-6182
ㅅㅗㄱㅈㅏㄱ	-6183
▁ㄱㅜㄱㅁㅣㄴㅎㅚ	-6184
▁ㅂㅜㅁ	-6185
ㄷㅗㅇㅎㅏ	-6186
ㅂㅓㅂㅅㅏ	-6187
▁ㅇㅏㄴㄷㅔ	-6188
▁ㅅㅣㄹㅈㅓㄱ	-6189
▁ㄱㅗㅇㅅㅗㄴ	-6190
▁ㅇㅕㄴㄷㅗㅇ	-6191
▁ㅇㅡㅁㅎㅑㅇ	-6192
▁ㅇㅣㅂㅇㅑㅇ	-6193
▁ㅎㅔㄹㄹㅠㅁ	-6194
old	-6195
▁ㅂㅜㄱㄱㅕㅇ	-6196
▁ㅇㅝㄴㄱㅕㄱ	-6197
▁ㅃㅛ	-6198
▁GDP	-6199
▁ㅅㅓㄴㄷㅐ	-6200
ㅌㅡㄹㄹㅐㄴㅌㅏ	-6201
ㅌㅔㅂ	-6202
▁132	-6203
ㄷㅗㅁ	-6204
▁ㅌㅜㄴ	-6205
▁ㅂㅕㅇㅁㅏ	-6206
▁ㅂㅗㄱㄱㅝㄴ	-6207
▁USS	-6208
▁ㅈㅓㅂㅅㅜ	-6209
▁Mus	-6210
▁ㅁㅣㄴㅈㅓㅇ	-6211
ㅇㅣㅂㅈㅏ	-6212
▁ㄱㅏㅁㅇㅏㄴ	-6213
ㅎㅏㄹㅅㅣ	-6214
▁ㅈㅣㄴㅈㅓㄴ	-6215
ix	-6216
ㄱㅗㅁ	-6217
▁ㅅㅣㄹㅈㅐ	-6218
ㅎㅗㄹㄹㅡㅁ	-6219
▁ㅈㅓㅇㄱㅕㅇ	-6220
ㄷㅏㄴㅈㅏㅇ	-6221
▁ㅍㅕㅇㅇㅏㄴㅂㅜㄱㄷㅗ	-6222
▁DM	-6223
▁Ph	-6224
▁ㅂㅔㄱ	-6225
ㄱㅗㅇㅅㅏㄴ	-6226
▁ㅈㅓㄴㄱㅕㄱ	-6227
▁ㄱㅕㄹㅈㅔ	-6228
▁ㅁㅏㅈㅂㅜㅌ	-6229
▁ㅇㅐㅇㄱㅡㄹ	-6230
▁ㅁㅗㅇㄱㅗ	-6231
▁ㅈㅜㅇㅇㅝㄴ	-6232
▁ES	-6233
ㅎㅡㄴ	-6234
▁ㄲㅏㄲ	-6235
▁ㅊㅏㅇㅇㅢ	-6236
▁ㅂㅓㄴㅅㅓㅇ	-6237
▁ㅅㅗㄱㅍㅕㄴ	-6238
ick	-6239
▁ㅂㅗㅇㅅㅜ	-6240
▁PR	-6241
ㅁㅔㄴㅅㅡ	-6242
▁ㅍㅕㅇㅇㅏㄴㄴㅏㅁㄷㅗ	-6243
▁ㅊㅏㄹㄹㅣ	-6244
▁ㄱㅕㄹㅍㅣㅂ	-6245
lass	-6246
▁ㅉㅏㅇ	-6247
▁ㅊㅣㅁㅊㅔ	-6248
▁kt	-6249
▁ㅈㅣㄴㄹㅛ	-6250
▁GN	-6251
ence	-6252
▁ㄴㅏㄲ	-6253
▁ㄱㅣㅁㅇㅗㄱ	-6254
▁ㅅㅏㅁㄱㅜㄱㅅㅏ	-6255
▁ㅈㅣㅁㅈㅏㄱ	-6256
▁ㅎㅕㄴㅎㅘㅇ	-6257
▁ㅇㅗㄹㄹㅣㅁㅍㅣ	-6258
▁NE	-6259
▁Ro	-6260
ㄹㅡㄹㅌㅔ	-6261
▁ㅅㅏㄴㅌㅣ	-6262
▁ㅇㅕㄱㄷㅗ	-6263
▁ㅍㅗㄱㄹㅗ	-6264
▁ㅈㅜㄴㄱㅕㄹㅅㅡㅇㅈㅓㄴ	-6265
ㅇㅓㅂㅅㅗ	-6266
▁ㅎㅏㅁㅈㅏ	-6267
▁ㅂㅗㄱㅅㅣㄱ	-6268
ㄸㅟ	-6269
▁La	-6270
ㅅㅡㄹㄹㅔ	-6271
ㄹㅗㄱㅅㅐㄱ	-6272
▁ㅈㅏㅇㅇㅝㄴ	-6273
▁un	-6274
▁ㅅㅜㄱㅈㅜ	-6275
▁ㅇㅏㅇㄱㅗ	-6276
▁ㅎㅘㅇㄷㅗ	-6277
include	-6278
ㄸㅏㅇ	-6279
▁ㅇㅡㄹㄲㅏ	-6280
▁ㅊㅗㅇㄱㅣ	-6281
▁ㅊㅓㅇㄷㅗㅇㄱㅣ	-6282
ㅇㅣㄹㅈㅡ	-6283
▁ㅅㅏㄹㅍㅣ	-6284
▁ㅇㅘㅇㅈㅓㅇ	-6285
▁ㄴㅗㅇㅅㅏㄴㅁㅜㄹ	-6286
ild	-6287
ㅋㅣㄹ	-6288
▁ㄱㅓㄴㄹㅠㅇ	-6289
▁ㅁㅣㄹㄹㅏㄴ	-6290
▁ㅌㅏㅂㅅㅣㄴ	-6291
▁ㅎㅗㅇㅁㅜㄴㄱㅘㄴ	-6292
ype	-6293
▁ㄷㅏㄴㄱㅘ	-6294
ㅅㅣㄴㅅㅓㅇ	-6295
▁ㅈㅜㅇㅅㅐㅇ	-6296
▁450	-6297
ㅊㅓㄴㅅㅏ	-6298
▁ㄱㅏㅂㅇㅗㅅ	-6299
▁ㅈㅜㅇㅇㅏㅇㅂㅜ	-6300
ㄹㅡㄴㅅㅗㄴ	-6301
ㅎㅓㄴㅇㅕㅇ	-6302
▁ㄱㅕㅇㅈㅐㅇㄹㅕㄱ	-6303
ㅇㅟㅅ	-6304
▁1885	-6305
ㅅㅜㄹㅅㅏ	-6306
▁ㄷㅗㅇㅎㅐㅇ	-6307
▁ㅎㅕㄴㅈㅣㄱ	-6308
▁ㅇㅑㅇㅅㅓㅇㅈㅏ	-6309
▁To	-6310
▁NAS	-6311
▁ㅅㅣㄴㅅㅏㅇ	-6312
▁ㅈㅗㅇㅁㅏㄹ	-6313
▁ㅌㅏㄱㅇㅝㄹ	-6314
▁":	-6315
ㅈㅣㅅㅁㅏㄹ	-6316
▁ㄱㅗㅇㅇㅑㄱ	-6317
▁ㅈㅣㅂㄱㅕㄹ	-6318
ear	-6319
▁SL	-6320
ㅅㅏㅇㅅㅣ	-6321
▁ㅇㅣㄴㅍㅡ	-6322
▁ㅌㅡㄱㅅㅐㄱ	-6323
ance	-6324
▁ㄹㅡㄴ	-6325
▁ㄲㅡㄹㄹㅕ	-6326
▁ㅅㅔㄴㄱㅗ	-6327
▁ㅁㅏㄴㄴㅕㄴ	-6328
▁ㅎㅏㅂㄷㅏㅇ	-6329
ㄹㅐㅇㅋㅡㄹㄹㅣㄴ	-6330
▁EBS	-6331
▁ㅁㅐㄴㅎㅐ	-6332
▁ㅈㅏㅇㄷㅐ	-6333
▁ㅈㅜㅇㅅㅓ	-6334
ㅁㅓㄹ	-6335
▁ㅁㅐㅅ	-6336
▁ㅅㅜㅁㅈㅣ	-6337
▁ㅁㅏㄹㄴㅕㄴ	-6338
▁ㅈㅡㄹㄱㅓㅂ	-6339
▁CEO	-6340
▁1871	-6341
▁@	-6342
▁vs	-6343
▁ㅎㅏㄴㅊㅡㅇ	-6344
OV	-6345
ㄹㅗㅂㅎㅣ	-6346
▁ㄱㅣㅁㅁㅣㄴ	-6347
▁Sy	-6348
▁ㅅㅣㄷ	-6349
▁ㄱㅗㅇㅍㅏ	-6350
▁ㅇㅛㅇㅅㅓ	-6351
ㅅㅣㅂㅈㅏ	-6352
▁ㅁㅜㄴㄱㅗ	-6353
▁ㅅㅣㅁㅎㅘ	-6354
▁ㅇㅏㄹㄹㅐ	-6355
▁Mar	-6356
ㄱㅘㄴㄹㅣ	-6357
ㄱㅜㄱㅁㅣㄴ	-6358
ㅎㅏㅂㅅㅣㄹ	-6359
▁ㄴㅏㅁㅅㅏㄴ	-6360
▁240	-6361
▁ㄱㅜㄱㅇㅠ	-6362
▁ㅂㅜㄹㅅㅏ	-6363
ivers	-6364
▁1200	-6365
▁ㄱㅜㄱㅇㅏㄱ	-6366
▁1870	-6367
ㅇㅜㄱㅇㅣ	-6368
ㄷㅡㅇㅅㅣㄱ	-6369
▁ㅍㅕㅇㅁㅣㄴ	-6370
▁AD	-6371
▁ex	-6372
▁ㅅㅐㅇㅅㅓㄴ	-6373
▁ㅊㅜㄹㅅㅓㄱ	-6374
▁sc	-6375
▁ㅅㅏㅇㄱㅣ	-6376
▁ㅇㅏㅍㅉㅗㄱ	-6377
ㄴㅕㅁㅇㅣㄹ	-6378
▁ㄱㅜㄱㅂㅗ	-6379
ㅅㅓㄴㅈㅓㄴ	-6380
TP	-6381
ans	-6382
ㅌㅓㄱ	-6383
▁ㅅㅑㄹ	-6384
▁1600	-6385
▁ㄱㅏㅁㅊㅜ	-6386
▁ㅈㅓㅇㄱㅜㄱ	-6387
▁ㄷㅐㅅ	-6388
▁ㅅㅓㅇㄴㅏㅁㅅㅣ	-6389
▁ㅋㅜㄱ	-6390
▁ㄷㅡㅇㄱㅡㄱ	-6391
▁ㅅㅣㄴㅈㅗㅇ	-6392
GM	-6393
ㄱㅏㅈ	-6394
ㅈㅓㄴㄱㅣ	-6395
▁ㄲㅜㅁㄲㅜ	-6396
EM	-6397
▁ㄷㅏㅇㅇㅕㄴㅎㅣ	-6398
▁ㅋㅣㅇㅅㅡ	-6399
▁ㅂㅏㄴㅇㅕㄱ	-6400
▁ㄷㅗㅇㅁㅜㄹㅇㅝㄴ	-6401
▁ㅊㅓㅇㄹㅛㅇ	-6402
▁ㅎㅕㄴㅎㅐㅇ	-6403
ish	-6404
▁ㅅㅏㅇㅇㅕㄴ	-6405
▁ㅅㅗㅇㄷㅗ	-6406
ㄱㅏㅇㅇㅏㅁ	-6407
▁ㅂㅏㄹㄱㅏㄱ	-6408
▁ㅍㅕㄴㅈㅣㅂㅈㅏ	-6409
AF	-6410
▁ㅃㅏㄹㄱㅏㅎ	-6411
▁ㅎㅏㅁㄱㅕㅇㄴㅏㅁㄷㅗ	-6412
ㄹㅓㅎㅈㅣ	-6413
ㅈㅏㄱㅁㅜㄹ	-6414
▁ㅂㅗㄱㅇㅡㅁㅅㅓ	-6415
ㄷㅏㄴㅂㅓㅂㅇㅣㄴ	-6416
OD	-6417
ㄱㅅㅕㄴ	-6418
ㅓㄹㄹㅣㅇ	-6419
▁ㄱㅗㅇㅍㅛ	-6420
▁ㄱㅘㄴㅁㅜㄴ	-6421
▁ㅅㅓㄴㅈㅏㅇ	-6422
▁ㅇㅏㅍㅈㅏㅇ	-6423
▁ㅈㅓㄱㄱㅜㄴ	-6424
ㅁㅜㄴㅈㅏ	-6425
▁CM	-6426
ㅇㅓㄴㅈㅏ	-6427
ㅊㅓㄴㄷㅗㅇ	-6428
▁ㄱㅣㅁㅂㅕㅇ	-6429
▁ㅅㅣㄴㅈㅓㅇ	-6430
▁ㅅㅛㄴ	-6431
▁ㄷㅏㄹㄹㅕ	-6432
▁ㄷㅗㄹㅇㅣㅂ	-6433
▁ㄱㅕㅇㅎㅢ	-6434
▁ㄴㅡㅇㅅㅓㄴ	-6435
▁ㅇㅏㅁㅎㅡㄱ	-6436
▁ㅈㅏㅇㄷㅏㄴ	-6437
▁ㄱㅘㄹ	-6438
▁ㅂㅣㄴㅂㅓㄴ	-6439
▁ㅁㅗㅁㅌㅗㅇ	-6440
ㅇㅔㅁ	-6441
ㅈㅜㅇㅊㅜ	-6442
▁ㅅㅗㄱㅇㅣ	-6443
▁ㄷㅗㄹㅊㅜㄹ	-6444
EG	-6445
oun	-6446
▁ㄱㅏㅇㅎㅢ	-6447
▁ㄷㅗㅇㅇㅛ	-6448
▁ㄷㅗㅇㅇㅠ	-6449
ㅌㅗㄱㅎㅗㄹㄹㅡㅁ	-6450
▁ㄴㅏㄴㅇㅣ	-6451
▁ㄱㅜㅇㄱㅝㄹ	-6452
▁ㅌㅗㅇㅌㅡㄹㅇㅓ	-6453
▁ㅃㅓㄴ	-6454
▁ㅈㅓㅇㅈㅔ	-6455
▁ㅇㅏㄹㄹㅔㄱㅅㅡ	-6456
ㅇㅣㄴㄷㅡ	-6457
▁ㄹㅓㄱㅂㅣ	-6458
▁ㄱㅣㅁㅈㅓㅇㅇㅡㄴ	-6459
▁ㅂㅏㄱㅎㅓㄴㅇㅕㅇ	-6460
▁ㅇㅑㅌ	-6461
▁ㄴㅏㄱㅎㅏ	-6462
▁ㅇㅣㅂㅅㅜ	-6463
lat	-6464
▁ㄱㅏㄴㅅㅣㄴ	-6465
ㅇㅣㅅ	-6466
ㅅㅓㅇㅅㅣ	-6467
ㄱㅜㄴㅈㅓㅇ	-6468
▁ㄱㅏㅁㄷㅗㅇ	-6469
▁ㄱㅗㅇㅊㅓㄴ	-6470
▁ㄱㅡㄱㅎㅏㄴ	-6471
▁pr	-6472
ㅁㅜㄴㄱㅜ	-6473
▁ㅇㅛㅇㅇㅣㄴㅅㅣ	-6474
▁ㄱㅗㅇㅁㅣㄴㅇㅘㅇ	-6475
▁DD	-6476
ㅎㅐㅇㅅㅓㄴ	-6477
▁ㄱㅡㄱㄷㅗ	-6478
▁ㅈㅣㄴㅎㅐ	-6479
▁ㅎㅏㅂㅅㅡ	-6480
▁ㅁㅕㅇㅂㅜㄴ	-6481
fe	-6482
▁NT	-6483
ㅇㅗㄹㄹㅏ	-6484
▁ㅅㅏㄴㅎㅗ	-6485
ㅇㅏㅁㄷㅗㅇ	-6486
are	-6487
▁ㅇㅕㄹㅅㅣㅁ	-6488
▁ㅈㅓㅇㄱㅘㄴ	-6489
ㅊㅓㄴㄹㅜ	-6490
▁ㄱㅘㅇㄷㅗ	-6491
▁ㅅㅗㄱㅈㅜ	-6492
▁ㅇㅕㄴㄱㅡㄱㅂㅐ	-6493
▁CH	-6494
▁ㅊㅜㄹㄱㅏ	-6495
▁ㅎㅠㅇㄴㅗ	-6496
▁ㄷㅗㅇㅊㅏㅁ	-6497
▁ㅅㅏㅁㅈㅗㄴ	-6498
▁ㅇㅏㄴㄴㅕㅇ	-6499
ical	-6500
▁ㅈㅡㅁ	-6501
ㅊㅏㅇㅎㅗ	-6502
▁ㄱㅓㅁㅈㅓㅇ	-6503
▁ㅇㅗㄴㄱㅏㅈ	-6504
▁ㅌㅗㅇㅇㅕㄱ	-6505
EE	-6506
▁ㅂㅜㄴㄱㅘ	-6507
▁ㅈㅣㅇㅂㅕㅇ	-6508
▁ㅁㅓㅇ	-6509
ㅈㅓㅇㅅㅏ	-6510
▁ㅈㅡㅇㅈㅗ	-6511
irl	-6512
ㅂㅕㄴㅇㅣ	-6513
▁ㄱㅘㄴㅊㅓㅇ	-6514
▁ㅌㅗㅇㅇㅛㅇ	-6515
▁ㄷㅗㄹㅇㅕㄴㅂㅕㄴㅇㅣ	-6516
▁ㅊㅏㅁㅅㅏ	-6517
▁ㅅㅓㅇㄹㅕㅇ	-6518
▁ㅆㅡㄹ	-6519
▁ㄱㅕㅇㅅㅣ	-6520
IR	-6521
▁Jo	-6522
▁ㅅㅏㅇㄱㅡㅂ	-6523
▁ㅎㅘㄹㅂㅏㄹㅎㅣ	-6524
▁CONCA	-6525
▁ㅁㅣㄴㅇㅛ	-6526
▁210	-6527
▁ㄱㅏㅁㄱㅡㅁ	-6528
▁ㅅㅣㄴㅁㅜㄴㅅㅏ	-6529
ㅇㅠㄱㅈㅏ	-6530
▁ㄱㅡㄴㅅㅏ	-6531
▁ㅂㅗㅇㅎㅘ	-6532
▁ㄱㅣㅁㅇㅝㄴ	-6533
▁CONCACAF	-6534
▁ㄱㅏㄹㄹㅣㄹㄹㅔ	-6535
▁ㅁㅣㄹㄹㅕ	-6536
▁ㅎㅔㄹㅅㅣㅇ	-6537
60	-6538
ㄹㅏㅇㅋㅗ	-6539
▁ㅈㅜㄹㄱㅓ	-6540
▁ㅋㅏㄹㄹㅓㅁ	-6541
ㅂㅏㅁ	-6542
ㅅㅏㄱㅅㅡ	-6543
▁ㅅㅓㅁㅅㅔ	-6544
▁ㅎㅘㄱㄱㅗ	-6545
ㅅㅡㅇㅂㅜㄹㄱㅛ	-6546
▁AV	-6547
▁ㅅㅐㅇㄱㅖ	-6548
ㅎㅕㄴㄷㅗㅇ	-6549
FL	-6550
▁he	-6551
▁ㅅㅣㄹㅎㅓㅁㅅㅣㄹ	-6552
▁ㅅㅏㄹㄹㅏ	-6553
ㄴㅏㄴㅅㅓㅇ	-6554
▁ㄱㅣㄴㅌㅔ	-6555
▁ㅁㅐㅇㅅㅔ	-6556
▁ㅂㅔㄴㅊㅣ	-6557
▁ㅂㅏㅇㅋㅗㄱ	-6558
▁ㅈㅓㄴㄴㅏㄹ	-6559
▁ㅊㅣㄴㅂㅜㄴ	-6560
ㅊㅏㄶ	-6561
ㅌㅏㄹㄹㅜ	-6562
▁ㅍㅕㅇㅎㅕㅇ	-6563
ㄹㄹㅡㄴ	-6564
▁ㄴㅗㅇㄱㅕㅇ	-6565
▁ㅁㅏㅈㄷㅐ	-6566
▁ㅈㅓㄴㄹㅐ	-6567
ㅁㅐㄱㅅㅡ	-6568
▁ㅂㅐㄱㄷㅜ	-6569
▁ㅊㅗㅇㅇㅐ	-6570
ㅌㅗㅇㅂㅜ	-6571
ㅌㅗㅇㅇㅣㄹ	-6572
ㅎㅘㄴㄱㅕㅇ	-6573
▁ㅇㅝㄴㅌㅗㅇ	-6574
▁ㅇㅕㅇㅈㅓㅇ	-6575
▁ㅎㅘㅇㅅㅗ	-6576
▁ㅈㅓㅇㅇㅡㅂ	-6577
ㅇㅜㄴㄷㅐ	-6578
▁ㄱㅏㅁㅅㅜ	-6579
▁ㅈㅓㅂㅇㅓ	-6580
▁ㅋㅡㄹㄹㅣㄴㅌㅓㄴ	-6581
ㅁㅗㅇㅈㅜ	-6582
▁ㅌㅡㄱㅈㅓㄴ	-6583
▁ㅅㅣㄴㅂㅏㄹ	-6584
▁ㅊㅏㅇㅁㅜㄴ	-6585
▁ㅇㅔㅇ	-6586
ㄹㅏㄴㅌㅗ	-6587
▁ㄴㅔㅅㅉㅐ	-6588
▁ㅊㅓㄴㄱㅓ	-6589
▁ㅎㅏㄴㅎㅏ	-6590
▁ㅂㅗㄴㅈㅏㄱ	-6591
▁ㅅㅗㅇㅅㅣㄴ	-6592
▁ㅅㅡㅂㅇㅠㄴ	-6593
▁Ma	-6594
ㅍㅗㄴㅅㅓ	-6595
▁ㅂㅜㄹㅎㅐㅇ	-6596
▁ㅍㅡㄹㄹㅐㄴ	-6597
▁int	-6598
EL	-6599
span	-6600
▁ㅁㅔㅅ	-6601
ㄴㅗㄹㅇㅣ	-6602
▁ㅂㅜㄹㅂㅕㄴ	-6603
▁ㄱㅕㅇㅈㅓㄴㅊㅓㄹ	-6604
ey	-6605
ㄱㅜㄴㄷㅏ	-6606
ㅇㅓㄹㄹㅣ	-6607
▁ㄱㅣㅁㅇㅠ	-6608
▁ㅂㅗㄹㄹㅗ	-6609
▁ㅅㅐㄱㅅㅗ	-6610
▁ㅌㅖㄴㅈㅣㄴ	-6611
▁onlyinclude	-6612
▁ㅂㅚ	-6613
ㅅㅗㄱㅂㅓ	-6614
▁ㅇㅏㄴㄴㅏ	-6615
▁ㅈㅏㅇㅅㅣ	-6616
ㅈㅓㅇㅇㅏㄴ	-6617
ica	-6618
ㅂㅜㄱㄱㅜ	-6619
▁ㄷㅗㄱㄷㅗ	-6620
▁ㅇㅝㄴㅅㅣㅁ	-6621
▁ㅂㅏㄴㄹㅏㄴㄱㅜㄴ	-6622
▁ㅂㅔㄴㅊㅓ	-6623
▁ㅅㅡㄹㅎㅏ	-6624
▁ㄱㅏㄱㅅㅓㅇ	-6625
▁ㅊㅓㄴㅇㅘㅇ	-6626
▁ㅎㅓㅅ	-6627
ㅁㅏㅇㄱㅏ	-6628
▁ㄱㅗㅇㅎㅠ	-6629
▁ㅂㅏㄴㅅㅓㅇ	-6630
▁ㅇㅕㄴㅅㅏㄴㄱㅜㄴ	-6631
ㅆㅡㄹ	-6632
▁ABC	-6633
▁Live	-6634
ㄱㅘㄴㅈㅣ	-6635
▁ㅂㅏㄱㅈㅗㅇ	-6636
▁ㅈㅡㅇㅇㅣㄴ	-6637
▁ㅋㅏㄴㄱㅜㄱ	-6638
▁ㄹㅔㄹ	-6639
▁ㅇㅐㄱㅅㅔ	-6640
▁ㅈㅓㅇㄱㅓ	-6641
▁ㅈㅜㅇㅌㅚ	-6642
▁ㅍㅣㄱㅊㅓ	-6643
▁ㄱㅏㅇㄹㅕㅇ	-6644
▁ㅇㅑㄱㅎㅗㄴ	-6645
▁ㅂㅐㄹㄹㅣ	-6646
▁ㅅㅓㅇㅎㅘ	-6647
▁ㅇㅣㄹㄷㅏㅇ	-6648
▁ㅂㅓㄱ	-6649
▁1889	-6650
▁ㄱㅜㄱㄱㅛ	-6651
▁ㅍㅔㄹㄹㅗ	-6652
▁ㄱㅘㄴㅎㅐㅇ	-6653
▁ㅈㅓㅇㅈㅗㅇ	-6654
▁JTBC	-6655
ㅅㅣㄴㅁㅜㄴ	-6656
▁Fr	-6657
▁ㅁㅏㄱㅎㅣ	-6658
▁ㅋㅓㄴㅌㅔ	-6659
▁ㅇㅓㅁㅁㅣㄹ	-6660
▁ㄷㅏㅇㄴㅐ	-6661
▁ㅂㅜㄴㅍㅏ	-6662
▁ㅇㅕㅅㅂㅗ	-6663
tern	-6664
▁ㅂㅕㄹㅅㅔ	-6665
▁ㄱㅕㅇㅈㅣㄹ	-6666
▁ㄱㅣㅁㅎㅕㅇ	-6667
▁ㅊㅓㄴㄱㅜㄱ	-6668
▁ㅎㅏㄱㅅㅓㄹ	-6669
ㅅㅓㅇㄱㅜ	-6670
▁ㄴㅏㅁㅇㅛㅇ	-6671
▁GB	-6672
▁ㅇㅡㄴㄱㅓ	-6673
▁ㅈㅓㄱㅇㅚ	-6674
▁ㅈㅓㄴㄷㅏㅁ	-6675
▁ㅈㅜㅇㅅㅏㅇ	-6676
bo	-6677
▁ㅊㅠ	-6678
▁ㄱㅕㅇㅎㅗ	-6679
▁ㅂㅏㄴㅍㅗ	-6680
▁ㅅㅓㅇㅅㅣㄹ	-6681
▁ㄱㅏㄹㅇㅏ	-6682
▁ㅂㅐㄴㅋㅜ	-6683
▁ㅈㅣㄱㅌㅗㅇ	-6684
ost	-6685
ous	-6686
ㄹㅜㅇ	-6687
ㄴㅓㄹㅌㅣ	-6688
▁ㅇㅝㄹㅌㅓ	-6689
▁ㅈㅓㄴㅁㅜ	-6690
▁ㅅㅏㅁㄹㅣㅁ	-6691
IL	-6692
▁So	-6693
ㅍㅓㅇ	-6694
▁ㅁㅜㅇㅊㅣ	-6695
▁ㅅㅏㄴㅅㅓㅇ	-6696
▁MTV	-6697
ㅂㅣㄹㄹㅣ	-6698
▁Com	-6699
▁For	-6700
▁ㅁㅏㄴㅈㅏㅇ	-6701
▁ㅅㅗㅇㅊㅜㄹ	-6702
sh	-6703
ㅊㅜㅇㄹㅠ	-6704
▁ㄱㅜㄱㄱㅗㅇ	-6705
▁ㅅㅓㄴㅊㅓㄴ	-6706
▁ㅋㅏㄹㅂㅐㅇ	-6707
▁ㄱㅡㄹㄹㅏ	-6708
▁ㄴㅡㅇㅎㅏ	-6709
▁ㄱㅡㅁㅅㅏㄴ	-6710
▁ㅁㅜㄴㅈㅣㅂ	-6711
▁ㅊㅣㄱㄹㅕㅇ	-6712
ㄱㅗㅇㅅㅏㄴㄷㅏㅇ	-6713
▁ㅍㅏㄴㄹㅖ	-6714
ㅂㅏㅇㄱㅜㄴ	-6715
▁ㅋㅚㄹㄹㅡㄴ	-6716
▁TR	-6717
▁Col	-6718
▁ㄷㅗㄱㅊㅏㅇ	-6719
ㅇㅣㄴㄷㅗㄹ	-6720
▁ㅈㅜㅇㅎㅏㅂ	-6721
▁ㅇㅣㄹㅂㅗㄴㄱㅜㄱ	-6722
▁ATP	-6723
ㄹㅡㄴㅅㅡ	-6724
▁ㅂㅏㄴㄱㅣ	-6725
▁ㅎㅏㄴㄹㅣㅁ	-6726
▁ㅂㅏㄷㅊㅣ	-6727
▁ㅇㅗㄹㄹㅔ	-6728
▁ㄷㅐㄴㅅㅓ	-6729
▁ㅂㅐㄱㄱㅘ	-6730
▁ㅈㅗㅇㅈㅏ	-6731
▁ㅅㅓㅇㄱㅘㄱ	-6732
▁ㅅㅣㄹㄱㅝㄴ	-6733
▁ㅅㅣㄹㄹㅗㄱ	-6734
▁ㅈㅜㄴㅅㅜ	-6735
▁ㅋㅔㄹㅌㅡ	-6736
▁ㅅㅣㄹㅈㅗㄴ	-6737
ㄹㅗㄹㄹㅓ	-6738
▁ㄷㅡㄹㅇㅕ	-6739
▁ㅂㅏㄱㅌㅔ	-6740
▁ㅂㅜㄹㅌㅐ	-6741
ㅅㅏㄴㅇㅓㅂ	-6742
▁ㅎㅏㅇㅁㅏㄴ	-6743
▁AKB	-6744
▁u	-6745
row	-6746
▁Part	-6747
▁Time	-6748
▁ㄱㅕㄱㅊㅏ	-6749
ㄹㅔㄱㅅㅕㄴ	-6750
▁ㅇㅡㅁㅈㅓㄹ	-6751
▁ㅈㅓㅇㅎㅕㅇ	-6752
▁ㅇㅣㄴㄱㅏ	-6753
▁ㄱㅡㄹㄲㅗㄹ	-6754
▁ㄷㅣㅂ	-6755
ㅅㅏㅇㅍㅏ	-6756
ㄱㅏㄴㄷㅏ	-6757
▁ㅍㅓㅁㅍㅡ	-6758
▁ㅂㅐㄹ	-6759
ㅐㅇㅇㅣ	-6760
▁ㅅㅣㄹㅈㅓㅇ	-6761
▁at	-6762
ㄱㅣㅅ	-6763
▁API	-6764
▁ㄱㅗㅇㄷㅐ	-6765
▁ㅇㅕㅇㅇㅠ	-6766
▁ㄱㅣㅁㅈㅜㄴ	-6767
▁ㅇㅣㄴㅊㅣㅇ	-6768
ㅌㅓㄴㅌㅡ	-6769
ㅅㅣㄴㄹㅗㄴ	-6770
▁ㄱㅓㅁㅇㅡㄴㅅㅐㄱ	-6771
▁"&	-6772
ㄴㅏㄹㄹㅗ	-6773
▁ㅇㅕㅇㅇㅖ	-6774
▁ㅅㅏㅁㅈㅜㅇ	-6775
ㅂㅡㄹㄹㅐㄴㄷㅡ	-6776
ㄲㅏㄴ	-6777
▁ㄴㅜㅂ	-6778
▁ㅂㅗㄹㅌㅡ	-6779
▁ㅇㅛㄱㅁㅏㅇ	-6780
ows	-6781
▁ㄱㅕㄹㅂㅕㄹ	-6782
▁ㅇㅣㅁㅈㅓㅇ	-6783
lay	-6784
▁Sou	-6785
▁ㅆㅏㅇㄷㅐ	-6786
▁ㅈㅏㄱㅁㅜㄹ	-6787
▁ㄱㅘㅇㅂㅗㄱㄱㅜㄴ	-6788
az	-6789
ood	-6790
▁ㅇㅘㄴㅈㅜ	-6791
▁ㅊㅐㄱㅇㅣㅁㅈㅣ	-6792
▁ㅂㅕㅇㅈㅏ	-6793
▁ㅅㅠㄹㄹㅔ	-6794
ㅍㅇㅣ	-6795
▁ㄱㅕㄱㄹㅣ	-6796
▁ㅈㅓㄴㅅㅔ	-6797
ㅈㅓㅇㄱㅘㄴ	-6798
▁ㄱㅗㅇㅈㅗㄴ	-6799
uc	-6800
▁ㅁㅕㅇㅅㅗ	-6801
▁ㅎㅏㄴㅁㅣ	-6802
▁ㄱㅏㅁㅊㅏㄹ	-6803
▁ㅂㅜㄹㅊㅏㅁ	-6804
▁ㅈㅗㅇㅅㅣㄱ	-6805
▁ㅇㅏㅍㅈㅏㅇㅅㅓ	-6806
▁ㄱㅓㅂ	-6807
ㅅㅏㄴㄷㅡ	-6808
▁ㅂㅏㅇㅊㅣ	-6809
ㅅㅜㄱㅅㅏ	-6810
▁ㅌㅡㄱㅎㅘ	-6811
▁ㅇㅘㅇㄱㅝㄴ	-6812
▁ㅊㅣㅁㅁㅜㄱ	-6813
▁ㄱㅗㅈ	-6814
CC	-6815
OP	-6816
▁131	-6817
▁ㅅㅐㅁㅍㅡㄹ	-6818
▁ㄱㅕㅇㅂㅗㄱ	-6819
▁ㅈㅗㅇㄱㅜㄴ	-6820
▁ㄹㅣㄹㄹㅔ	-6821
▁ㅅㅏㄴㅅㅣ	-6822
▁ㅂㅜㄹㄹㅑㅇ	-6823
▁ㅅㅡㄹㅍㅡㅁ	-6824
▁ㅈㅓㄴㅎㅏㄴ	-6825
▁ㄱㅕㅇㅇㅕㅇㅈㅏ	-6826
▁ㅇㅕㄲ	-6827
▁ㅌㅡㄴ	-6828
ㅇㅣㄹㄹㅗ	-6829
▁ㅇㅕㄴㅎㅚ	-6830
▁ㅇㅝㄴㄱㅜㄴ	-6831
▁ㅍㅕㅇㅈㅣ	-6832
ㅋㅓㄴㄷㅐ	-6833
▁ㅎㅏㄴㅈㅜㅇ	-6834
olog	-6835
▁ㅊㅏㄴㅅㅏ	-6836
▁ㅌㅏㄴㅈㅏ	-6837
ㅅㅏㅇㅊㅓㅇ	-6838
▁ㅇㅕㄴㅁㅏㄹ	-6839
▁ㅈㅓㄴㅈㅓㄴ	-6840
▁ㅈㅓㄹㅁㅏㅇ	-6841
▁ㅊㅗㅇㅌㅗㅇ	-6842
▁ㄴㅕㅇ	-6843
▁ㅍㅕㅇㅍㅕㅇ	-6844
▁ㅅㅜㄴㅈㅗㅇ	-6845
▁ㅊㅏㄴㅇㅑㅇ	-6846
ㄹㅏㅂㅇㅔ	-6847
▁ㅍㅗㄱㅍㅏ	-6848
▁ㄱㅣㅁㅁㅕㅇ	-6849
80	-6850
▁ㅅㅠㅅ	-6851
▁EM	-6852
▁ㄱㅓㄴㅈㅓㄴ	-6853
▁ㄱㅏㄴㅊㅓㅂ	-6854
ann	-6855
ern	-6856
ㅍㅓㄴ	-6857
▁ㄱㅗㅇㅇㅕㅇ	-6858
▁ㅈㅏㅇㅎㅏㄱㄱㅡㅁ	-6859
ㅅㅔㄴㅅㅡ	-6860
▁ㅈㅣㅇㅅㅜ	-6861
▁Wind	-6862
▁ㅎㅏㅇㅊㅔ	-6863
▁ㅅㅓㅇㄷㅗㅇ	-6864
ㄸㅣ	-6865
▁tv	-6866
ㅁㅣㅅ	-6867
▁Bla	-6868
▁new	-6869
ㄹㅣㄴㅌㅡ	-6870
▁ㅁㅗㄱㅎㅚ	-6871
ㅂㅜㅇㄷㅗㄹ	-6872
▁ㄱㅜㄹㅈㅓㄹ	-6873
▁ㅈㅏㅁㅈㅓㅇ	-6874
▁ㅎㅘㅇㅅㅐㄱ	-6875
▁FK	-6876
▁OST	-6877
▁EU	-6878
ㅇㅜㄹㄹㅜ	-6879
▁ㅅㅏㄴㄷㅜㅇ	-6880
40	-6881
▁ㅎㅗㅂ	-6882
ㅈㅓㄴㅊㅔ	-6883
▁ㄷㅏㅇㄱㅣ	-6884
▁ㅇㅕㄴㅈㅓㅇ	-6885
▁ㅈㅓㅇㅇㅣㄴ	-6886
▁ㅇㅜㄱ	-6887
▁ㄷㅓㅍㄱㅐ	-6888
▁ㅅㅏㄴㅇㅛ	-6889
▁ㅍㅏㄴㅅㅗ	-6890
▁ㅅㅏㅇㄹㅗㄱ	-6891
▁ㅇㅣㄴㄱㅗㅇㅈㅣ	-6892
▁ㅅㅏㄴㅅㅡ	-6893
▁ㅈㅓㄱㄹㅛ	-6894
▁ㅎㅗㄴㄷㅏ	-6895
▁ㅂㅗㄴㅅㅓㅇ	-6896
▁NASA	-6897
▁ㅂㅗㄴㄸㅡ	-6898
▁ㅋㅡㄹㄹㅓ	-6899
ㅂㅔㄹㅅㅏㅇ	-6900
▁ㅎㅜㅇ	-6901
▁ㄱㅘㄴㅁㅗㄱ	-6902
▁ㄴㅏㅁㅂㅏㅇ	-6903
▁ㅇㅝㄴㅅㅏㄴㅈㅣ	-6904
▁ㄴㅡㄺ	-6905
▁Your	-6906
ㅇㅣㄴㅅㅏ	-6907
▁1848	-6908
▁ㅁㅗㄹㅌㅏ	-6909
▁ㅇㅔㄴㄷㅡ	-6910
▁ㅇㅛㅇㅇㅢ	-6911
▁ㅇㅣㅅㄸㅏ	-6912
ㄷㅗㅇㅅㅓㅇ	-6913
▁ㄱㅣㅁㄱㅘㅇ	-6914
▁ㅇㅗㄴㄴㅏㄴ	-6915
▁ㅎㅕㅇㅈㅣㄹ	-6916
▁ㄱㅘㄴㅎㅕㄴㅇㅏㄱㄷㅏㄴ	-6917
▁RP	-6918
▁RS	-6919
▁ㄱㅕㄱㅊㅜ	-6920
▁ㄱㅡㄱㅇㅜ	-6921
▁ㅁㅣㄹㄹㅔ	-6922
ㅈㅓㄴㅌㅡ	-6923
▁ㅇㅕㄴㅎㅢ	-6924
▁ㄷㅏㄴㄱㅜㄴ	-6925
▁ㅇㅛㅇㅇㅐㄱ	-6926
▁colspan	-6927
orn	-6928
ㅎㅐㅁ	-6929
▁ref	-6930
▁ㅎㅓㄹ	-6931
▁ㄱㅏㅁㅅㅓㅇ	-6932
▁ㅇㅏㄴㅂㅏㅇ	-6933
▁ㅅㅐㅇㅈㅗㄴㅈㅏ	-6934
▁ㅅㅏㅂㅎㅘ	-6935
ㄷㅟ	-6936
▁BC	-6937
▁Ge	-6938
▁1883	-6939
▁ㅎㅓㄴㅌㅓ	-6940
ㄱㅏㄹㄹㅑㅇ	-6941
ㅇㅛㅇㄱㅐㄱ	-6942
▁ㄱㅏㄴㄹㅑㄱ	-6943
▁ㄷㅗㅇㅈㅣㄴ	-6944
II	-6945
ink	-6946
ㅈㅏㄹ	-6947
▁ㄷㅗㅇㄹㅗ	-6948
▁ㅎㅏㄴㅅㅣㄴ	-6949
▁ㄴㅏㄱㄷㅗㅇㄱㅏㅇ	-6950
▁ㅋㅏㅂ	-6951
▁ㄴㅏㅁㄱㅜㄴ	-6952
▁ㄷㅗㅇㅅㅏㄴ	-6953
▁ㅅㅓㄴㅁㅕㅇ	-6954
▁ㅈㅓㅇㅇㅡㄴ	-6955
ㅁㅏㄱㅅㅣㄱ	-6956
▁ㄱㅏㅇㄹㅕㄹ	-6957
▁ㄷㅏㅇㅇㅕㄴ	-6958
▁ㅇㅡㅇㄱㅡㅂ	-6959
▁Sch	-6960
ㄷㅡㄹㅇㅓ	-6961
▁ㄱㅡㅁㅎㅗ	-6962
▁ㅅㅣㄱㅅㅡ	-6963
▁ㅇㅑㅇㅅㅜ	-6964
ㅈㅓㄴㅎㅏㄱ	-6965
OT	-6966
ㄷㅏㄴㅇㅟ	-6967
ㅊㅜㅇㅈㅣ	-6968
▁ㅁㅔㄹㅂㅓ	-6969
▁ㅁㅜㄴㄷㅏㄴ	-6970
ㄷㅏㄴㅎㅣ	-6971
▁ㄱㅗㅇㅅㅗ	-6972
▁ㄴㅗㄱㅎㅘ	-6973
▁ㅈㅣㄴㄹㅗ	-6974
▁ㅊㅓㅇㄷㅗ	-6975
ㅂㅏㅇㄱㅘㄴ	-6976
▁ㅈㅓㄹㅂㅕㄱ	-6977
▁ㅈㅓㄹㅈㅓㅇ	-6978
▁end	-6979
▁ㅅㅑㄴ	-6980
ㅁㅣㄴㅅㅡ	-6981
ㅂㅓㅂㄱㅘㄴ	-6982
▁ㅌㅏㄴㅇㅑㄱ	-6983
ㄱㅏㄹㄹㅣ	-6984
ㄷㅗㄹㅇㅣ	-6985
▁ㄱㅝㄴㅎㅏ	-6986
▁ㄴㅏㄲㅅㅣ	-6987
ㅎㅑㅇㅇㅏㄱㄷㅏㄴ	-6988
▁ㄷㅗㄱㅅㅜ	-6989
ㅇㅏㄴㅅㅓㄴ	-6990
▁ㅎㅏㅁㄹㅑㅇ	-6991
▁ㄲㅏㅁ	-6992
▁1882	-6993
▁ㅅㅗㅇㅍㅏ	-6994
ㅁㅐㄴㅌㅣㄱ	-6995
ㅇㅣㄹㄹㅓㅅ	-6996
▁ㄱㅏㅁㅅㅏㅇ	-6997
▁ㄱㅣㅁㅇㅣㄴ	-6998
▁ㅇㅕㅇㄷㅓㄱ	-6999
ㄷㅣㅈㅎㅣ	-7000
ㅈㅡㄹㄹㅣ	-7001
▁ㄱㅘㄴㅇㅏㄱ	-7002
▁ㄱㅜㄱㄷㅏㅇ	-7003
▁ㄱㅡㅂㅇㅕ	-7004
▁ㅇㅏㄴㄱㅐ	-7005
ㅎㅏㅂㅅㅓㅇ	-7006
▁ㅂㅗㅅ	-7007
▁ㅂㅏㅇㄷㅐ	-7008
▁ㅇㅕㅇㅇㅏㅁ	-7009
▁ㅇㅕㅇㅇㅝㄹ	-7010
▁ㅂㅓㅂㅇㅝㄴㅈㅏㅇ	-7011
ㅁㅏㅇㄷㅣ	-7012
ㅂㅣㄴㅅㅡㄴ	-7013
▁ㅇㅘㅇㄱㅓㄴ	-7014
▁ㄱㅏㅇㄷㅏㅇ	-7015
▁ㅇㅑㅇㅇㅠㄱ	-7016
▁ㄸㅗㄱㄱㅏㅌㅇㅣ	-7017
▁ㅇㅏㅇㄱㅗㄹㄹㅏ	-7018
▁ㅂㅜㄹㄱㅖ	-7019
▁ㅇㅏㄱㅂㅗ	-7020
▁ㅇㅕㄴㄹㅣㅂ	-7021
ㅓㅇㅑ	-7022
ㅌㅏㄴㅂㅜㄹ	-7023
▁ㅅㅓㄹㅁㅜㄴ	-7024
▁Day	-7025
▁ㄱㅓㅁㄱㅓ	-7026
ㅈㅓㄴㅅㅓㄴ	-7027
ㄱㅗㅇㄱㅏㄴ	-7028
▁ㅂㅓㄴㅊㅏㅇ	-7029
▁ㅊㅜㅇㄹㅕㄹ	-7030
ㅃㅜ	-7031
▁SNS	-7032
▁ㅈㅓㅁㅍㅗ	-7033
▁Or	-7034
ㄹㅐㄴㅊㅏ	-7035
ㅂㅗㄴㅂㅜ	-7036
▁ㅊㅗㅇㄱㅕㄱ	-7037
▁ㅎㅕㅇㅂㅓㄹ	-7038
▁ㄴㅔㄹㅅㅡㄴ	-7039
▁ㅈㅗㅇㅇㅕㅇ	-7040
▁ㅇㅔㄴㄹㅣ	-7041
▁ㄷㅏㄴㄱㅕㄹ	-7042
▁ㅍㅣㄹㄹㅣㅂㅅㅡ	-7043
▁ㅇㅕㄴㅎㅘ	-7044
▁ㅇㅑㅇㅅㅣㅁ	-7045
ㅍㅜㄹㅇㅣ	-7046
▁ㅈㅓㅇㅇㅝㄹ	-7047
▁ㅁㅕㅇㅎㅘㄱㅎㅣ	-7048
gin	-7049
▁ㅎㅕㅂㅇㅓㅂ	-7050
▁ㅇㅕㄹㄱㅏㅇ	-7051
▁ㅈㅗㅇㅇㅑㅇ	-7052
▁ㅋㅗㄴㅅㅗㄹ	-7053
▁ㅇㅕㄹㅅㅣㅁㅎㅣ	-7054
US	-7055
▁4000	-7056
▁ㅇㅓㅂㅈㅏ	-7057
▁ㄷㅗㅇㅈㅓㄱ	-7058
▁ㅅㅓㄴㅂㅗㅇ	-7059
▁by	-7060
ㄹㅔㄹㄹㅣ	-7061
▁ㅈㅣㄱㅅㅗㄱ	-7062
amp	-7063
▁ㅅㅏㅇㅇㅓ	-7064
▁ㄷㅏㄴㅅㅗㄱ	-7065
▁ㅅㅣㄱㅇㅛㅇ	-7066
▁ㅇㅕㄹㅈㅓㄴ	-7067
▁ㅈㅜㅇㅇㅕㅂ	-7068
RT	-7069
▁ㅎㅏㅇㅇㅝㄴ	-7070
ㅁㅏㄴㅋㅡㅁ	-7071
▁ㅂㅏㄷㄷㅡㄹ	-7072
ㄹㅣㄹㄹㅐㄴㄷㅡ	-7073
▁330	-7074
ㄹㅓㄴㅌㅡ	-7075
ㅇㅛㅇㅅㅜ	-7076
▁ㄱㅜㄱㅎㅏㄴ	-7077
▁ㅁㅜㄴㅈㅗㅇ	-7078
▁ㅈㅓㄹㄱㅏㅁ	-7079
▁ㅂㅜㄴㅅㅏ	-7080
▁ㅅㅓㅇㅅㅏㄴ	-7081
ㅇㅞㄴ	-7082
▁ㅊㅐㅇ	-7083
▁ㄱㅕㅇㅇㅟ	-7084
▁ㅈㅓㄴㅂㅗ	-7085
▁DF	-7086
▁OB	-7087
▁ㅊㅓㄴㅇㅏㄴㅅㅣ	-7088
▁GM	-7089
ㅈㅔㄹㄹㅗ	-7090
ㅍㅕㅇㄹㅣ	-7091
▁ㄱㅘㄴㄹㅖ	-7092
▁ㄱㅜㄱㅇㅚ	-7093
▁ㅂㅣㅇㅎㅏ	-7094
▁ㅊㅓㄴㅅㅜ	-7095
▁ㅇㅕㅇㅊㅓㄴ	-7096
▁ㅈㅓㅂㅈㅗㅇ	-7097
▁ㅊㅣㄴㅈㅗㄱ	-7098
gr	-7099
▁1868	-7100
ㄴㅔㄹㄹㅣ	-7101
▁ㅅㅣㄴㄱㅗㄱ	-7102
▁ㄱㅝㄴㅇㅕㄱ	-7103
▁ㅎㅏㄹㅇㅣㄴ	-7104
OW	-7105
▁320	-7106
ㅇㅠㅇㅎㅏㅂ	-7107
▁ㄱㅗㄹㄱㅕㄱ	-7108
▁SA	-7109
ㄹㅐㅂ	-7110
ㄱㅏㄴㄷㅐ	-7111
▁ㅎㅏㅇㅇㅜ	-7112
ㅍㅡㄹㄹㅣㅇ	-7113
▁ㄷㅣㄹㄹㅓㄴ	-7114
▁ㅈㅓㅇㅈㅏㄱ	-7115
ㅉㅜㄱ	-7116
▁ㅈㅓㅇㄹㅕㅇ	-7117
▁ㅌㅗㅇㅅㅣㄴㅅㅏ	-7118
▁le	-7119
▁203	-7120
ㄷㅡㅇㄱㅛ	-7121
▁ㄱㅣㅁㅇㅗㄱㄱㅠㄴ	-7122
▁ㅎㅐㄱㅇㅠㅇㅎㅏㅂ	-7123
▁Fe	-7124
ㄷㅓㄴㅈㅣ	-7125
▁ㅋㅓㄴㅅㅓㄹ	-7126
▁ㅋㅗㄹㄹㅓㅁ	-7127
oll	-7128
ㅍㅏㅇㅇㅣ	-7129
▁ㄱㅏㅇㅍㅜㅇ	-7130
▁ㄷㅏㄴㅁㅏㄹ	-7131
▁ㅂㅏㄹㅅㅏㅇ	-7132
▁ㅂㅗㅇㅇㅣㄴ	-7133
▁ㅅㅗㄱㄹㅕㄱ	-7134
▁ㄲㅡㅀㅇㅣ	-7135
▁ㅇㅘㅇㄱㅜㅇ	-7136
▁ㄹㅐㅇㅋㅡ	-7137
▁ㅊㅓㄴㅁㅏ	-7138
ublic	-7139
ㄷㅓㅁㅅㅡ	-7140
ㄷㅗㅇㅁㅕㄴ	-7141
ㅇㅜㄹㅈㅡㅇ	-7142
▁ㅈㅗㅇㅅㅣㄴ	-7143
ㄴㅓㅅ	-7144
▁GNU	-7145
ㄷㅏㄴㅈㅣ	-7146
ㅁㅗㄴㅌㅡ	-7147
ung	-7148
▁ㅈㅗㄱㅂㅗ	-7149
▁ㅈㅣㄱㅎㅐㅇ	-7150
▁ㅍㅕㅇㅍㅏㄴ	-7151
▁ㅎㅏㅁㅎㅡㅇ	-7152
ㅈㅣㄴㅇㅜ	-7153
ㅎㅕㅂㅎㅚ	-7154
▁ㅂㅜㄱㅇㅠ	-7155
ㄹㅏㄴㅊㅣ	-7156
▁ㅊㅜㅇㅁㅜ	-7157
ㅊㅓㄴㅇㅘㅇ	-7158
▁ㅇㅣㄱㅅㅜㄱ	-7159
▁ㄴㅏㅁㅎㅏ	-7160
▁ㄱㅜㄴㅂㅓㄹ	-7161
▁ㄷㅏㄴㅈㅓㅇ	-7162
▁ㅂㅜㄹㄱㅕㅇ	-7163
▁ㅇㅠㄱㄱㅜㄴㅅㅏ	-7164
▁ㅎㅏㅁㄱㅕㅇㅂㅜㄱㄷㅗ	-7165
▁ㅇㅡㄴㅎㅖ	-7166
▁ㅎㅏㅇㄹㅗ	-7167
▁ㄱㅡㅁㄷㅗㅇ	-7168
▁ㄱㅣㅁㅊㅣ	-7169
▁ㄱㅕㄹㅎㅐㄱ	-7170
▁ㅊㅡㄱㄹㅑㅇ	-7171
▁ㅂㅏㄹㅈㅓㄴㄱㅣ	-7172
ㄸㅏㄱ	-7173
▁1893	-7174
ㄱㅘㄴㄱㅖ	-7175
ㅋㅗㄴㄷㅡ	-7176
▁ㅈㅓㄴㅁㅣ	-7177
▁Univers	-7178
ㅇㅟㄱ	-7179
▁ㄴㅗㅇㅈㅣ	-7180
▁ㄱㅡㅂㅈㅡㅇ	-7181
ㅇㅏㄴㅂㅜ	-7182
ㅈㅏㄱㅇㅟ	-7183
▁ㄱㅕㄹㅅㅏ	-7184
▁ㄱㅣㅁㅊㅓㄴ	-7185
ㅋㅐㄴㄷㅡㄹ	-7186
▁ㅇㅡㄴㅅㅣㄴ	-7187
▁ㅈㅓㅇㅈㅓㅇ	-7188
▁Rec	-7189
ㅅㅏㅇㄱㅡㅁ	-7190
ㅍㅗㄱㅌㅏㄴ	-7191
▁ㅂㅜㄱㄱㅜㄴ	-7192
▁ㅍㅔㄹㄹㅣㄱㅅㅡ	-7193
▁ㅌㅗㄱ	-7194
▁ㄱㅘㄴㅅㅏㅇ	-7195
▁ㅅㅓㅇㅇㅝㄴ	-7196
▁ㅅㅣㄴㅇㅣㅂ	-7197
▁NP	-7198
▁Girl	-7199
ㅎㅏㄱㅂㅜ	-7200
▁ㅈㅓㅇㅂㅏㄴ	-7201
▁ㅎㅓㄴㅈㅏㅇ	-7202
▁ㅎㅕㄴㅍㅏㄴ	-7203
▁TBS	-7204
▁Rock	-7205
▁ㄱㅘㄴㅇㅜ	-7206
▁ㄱㅣㅁㅅㅓㄴ	-7207
▁ㅈㅡㅇㅍㅗㄱ	-7208
▁ㅅㅣㄹㅈㅡㅇ	-7209
▁ㅊㅓㅇㅅㅗㅇ	-7210
▁ㅎㅏㄱㄹㅕㄱ	-7211
ㅇㅛㅇㅊㅏ	-7212
▁ㅎㅏㄴㅋㅠ	-7213
ㄹㅕㅇㄱㅜㄴ	-7214
▁LED	-7215
▁Comp	-7216
▁ㅈㅜㄴㅈㅏㅇ	-7217
▁ㅂㅗㄱㅇㅡㅁㅈㅜ	-7218
▁ㅈㅏㅇㄴㅕ	-7219
▁ㅂㅓㅂㄱㅘㄴ	-7220
▁IV	-7221
▁ㄷㅓㅂ	-7222
▁from	-7223
ㅇㅣㄱㅅㅡ	-7224
▁ㅂㅐㄱㅈㅏ	-7225
▁ㅊㅓㅇㄱㅖ	-7226
▁ㅌㅏㄹㄹㅔ	-7227
▁ㅅㅏㅇㄱㅜㄱ	-7228
▁ㅅㅓㄴㅈㅣㄴㄱㅜㄱ	-7229
▁ㄹㅔㅅ	-7230
ㄱㅓㄹㅇㅣ	-7231
▁ㅅㅏㄴㅅㅜ	-7232
▁ㅇㅣㄴㄱㅗㅇㅇㅟ	-7233
▁AB	-7234
▁Sup	-7235
▁ㄴㅑㅇ	-7236
▁ㄷㅗㅇㅍㅗ	-7237
▁ㄱㅏㅇㅈㅣㄴ	-7238
▁ar	-7239
▁ㅎㅐㄴ	-7240
▁ㅂㅏㄺㅎㅕ	-7241
▁ㅅㅜㄴㅊㅏ	-7242
ㅋㅗㄹㄹㅣㅅ	-7243
▁ㅅㅏㄴㅊㅓㅇ	-7244
▁ㅎㅏㄱㅈㅏㅇ	-7245
▁ㄱㅗㅇㄱㅜㄴㄱㅣ	-7246
AI	-7247
oth	-7248
▁IOC	-7249
ㅁㅏㄹㄹㅗ	-7250
ㅋㅏㄴㄷㅣ	-7251
▁ㅅㅏㄴㅌㅗ	-7252
▁ㅇㅘㄴㄷㅗ	-7253
▁ㅇㅜㄹㅈㅜ	-7254
▁ㅅㅓㄴㅇㅣㄴ	-7255
▁ㅈㅏㅇㅎㅡㅇ	-7256
▁ㅋㅏㄹㅅㅠㅁ	-7257
▁ㅍㅕㄴㄱㅕㄴ	-7258
▁ㅈㅓㄴㅂㅏㄴㄱㅣ	-7259
▁ㅇㅟㅅㅂㅜ	-7260
ㅅㅏㄹㅅㅏㅇ	-7261
▁ㄷㅗㅇㅎㅑㅇ	-7262
▁ㅂㅏㄱㅅㅏㅇ	-7263
▁ㅈㅏㅇㅂㅕㅇ	-7264
▁ㄴㅗㄱㅅㅐㄱㄷㅏㅇ	-7265
les	-7266
▁ㅇㅓㄺㅎㅣ	-7267
▁ㄱㅏㄴㅅㅣㄴㅎㅣ	-7268
LA	-7269
eth	-7270
▁Mo	-7271
▁ㅁㅓㅅㅈㅣ	-7272
▁ㅇㅗㄴㅎㅘ	-7273
ㅈㅣㄱㄱㅕㅇ	-7274
▁ㄴㅡㅇㄷㅗㅇ	-7275
▁ㅂㅐㄱㅇㅏㄱ	-7276
▁ㅎㅘㅇㅅㅏㄴ	-7277
ㅁㅕㄴㄹㅏ	-7278
▁ㅅㅣㅁㅍㅗ	-7279
▁ㅇㅝㄹㅌㅡ	-7280
▁ㅊㅓㅇㄹㅑㅇ	-7281
▁wh	-7282
ㅅㅔㄹㄹㅓ	-7283
▁ㄲㅡㄶㄱㅣ	-7284
▁ㅇㅏㅂㄹㅗㄱ	-7285
▁ㅍㅡㄹㄹㅏㅇㅋㅡ	-7286
ㅂㅣㄹㄹㅗ	-7287
▁Su	-7288
▁280	-7289
ㅇㅣㅁㅇㅝ	-7290
▁ㄱㅐㄱㅊㅏ	-7291
▁ㅁㅜㄴㅁㅜ	-7292
▁ㅈㅓㄴㅎㅏㄱ	-7293
▁ㅅㅠㄹ	-7294
▁ㅊㅓㄱㄷㅗ	-7295
ㅅㅣㄹㅈㅓㅁ	-7296
▁ㄱㅜㄱㅊㅓㄹ	-7297
ㅃㅏㅇ	-7298
ㅇㅏㄴㄱㅏ	-7299
▁ㅇㅑㅇㄷㅐ	-7300
▁ㄱㅣㅁㅅㅡㅇ	-7301
▁ㄷㅗㅇㅈㅗㅇ	-7302
▁ㅇㅜㄹㄹㅡㅇ	-7303
▁ㅈㅏㅇㄷㅓㄱ	-7304
▁230	-7305
ㅌㅐㄴㄹㅣ	-7306
▁1892	-7307
ㄹㅜㄱㅅㅡ	-7308
ㅇㅏㅁㄹㅣ	-7309
▁ㅈㅓㄴㅅㅜ	-7310
▁ㄱㅣㅁㅇㅠㄴ	-7311
▁ㅈㅏㅁㄲㅏㄴ	-7312
▁ㅈㅜㅇㅇㅏㅇㅇㅡㄴㅎㅐㅇ	-7313
▁ㅂㅜㄴㄷㅏㄴ	-7314
▁ㅌㅗㅁㅅㅡㄴ	-7315
▁IR	-7316
▁co	-7317
▁ㄱㅘㅁ	-7318
▁ㄷㅏㅇㄴㅛ	-7319
▁ㅎㅑㅇㄱㅣ	-7320
ㅈㅏㅇㅅㅏ	-7321
▁ㅆㅗㄷㅇㅏ	-7322
▁ㅎㅡㅂㅅㅏ	-7323
▁ㄱㅡㅂㅅㅗㄱㅎㅣ	-7324
▁ㅈㅜㅇㄱㅗㅇㄱㅜㄴ	-7325
ron	-7326
▁ㅇㅣㄴㅋㅗ	-7327
▁ㅇㅣㄹㄱㅏㄱ	-7328
▁ㅎㅏㅂㅊㅓㄴ	-7329
▁ㅇㅐㄴㅅㅓ	-7330
ㄱㅜㄱㅈㅓㄱ	-7331
▁ㅇㅛㅇㅍㅜㅁ	-7332
▁ㅊㅜㄹㄷㅗㅇ	-7333
▁Sw	-7334
▁1888	-7335
ㅅㅓㄴㄷㅗ	-7336
▁ㅋㅏㅁㅍㅏ	-7337
ㅎㅗㅇㅅㅐㄱ	-7338
▁ㅎㅏㄴㅁㅜㄴ	-7339
▁ㄱㅏㄱㄹㅛ	-7340
▁ㅈㅓㄴㄱㅛ	-7341
▁ㅋㅔㄴㅌㅡ	-7342
▁ㅂㅏㄱㅅㅓㅇ	-7343
▁ㅅㅓㅇㅇㅏㄱ	-7344
▁ㅇㅕㄴㅈㅏㅇㅈㅓㄴ	-7345
▁ㅋㅓㄹㄹㅔㄱㅅㅕㄴ	-7346
EST	-7347
ㄱㅘㅇㅅㅓㅇ	-7348
▁ㄱㅗㅇㅇㅑㅇ	-7349
▁ㅇㅡㅁㅇㅜㄴ	-7350
▁ㅊㅣㅇㅅㅗㅇ	-7351
▁ㅇㅕㅇㅇㅝㄴㅎㅣ	-7352
ㅂㅔㄹㄹㅣ	-7353
ㅇㅡㄹㅂㅓ	-7354
▁CG	-7355
▁ㄹㅣㅁㅍㅡ	-7356
▁ㅅㅣㅁㅂㅜ	-7357
▁ㅊㅜㄹㅈㅏ	-7358
▁ㅂㅗㄱㅅㅣㅇ	-7359
▁ㄴㅡㅍ	-7360
ㅌㅣㄹㄹㅓ	-7361
▁ㄱㅡㄴㅇㅟ	-7362
▁ㅇㅔㄹㄹㅏ	-7363
ㄱㅗㅇㄱㅜㄱ	-7364
▁ㄷㅏㅁㅂㅗ	-7365
ㅇㅣㄴㅇㅓㅂ	-7366
▁ㄱㅏㄴㅈㅣㄱ	-7367
▁ㄴㅗㅇㅊㅜㄱ	-7368
AE	-7369
▁ㅇㅣㄴㅈㅔ	-7370
▁ㅈㅓㄹㅈㅔ	-7371
▁ㄱㅣㄴㅋㅣ	-7372
ㄷㅗㄱㄹㅣㅂ	-7373
▁ㄱㅗㅇㅇㅏㄴ	-7374
▁ㄱㅡㅁㅈㅓㄴ	-7375
ㄹㅡㄹㄹㅔ	-7376
ㅌㅗㅇㅅㅏ	-7377
▁ㅁㅣㄹㅇㅓ	-7378
▁ㅊㅔㄹㄹㅗ	-7379
▁ㅍㅗㄹㄹㅏ	-7380
▁ㅂㅓㅁㅎㅐㅇ	-7381
▁ㅅㅓㄴㅇㅑㅇ	-7382
ㄴㅜㄹ	-7383
ㅎㅡㄺ	-7384
land	-7385
ㄱㅡㅁㅂㅜ	-7386
▁ㅇㅕㅁㄹㅕ	-7387
▁ㅈㅓㅇㅈㅐ	-7388
▁ㅈㅜㅇㄱㅗ	-7389
▁ㅂㅏㄹㄷㅗㅇ	-7390
▁ㅇㅣㄴㅍㅡㄹㄹㅔ	-7391
ah	-7392
▁ㅉㅣㅈ	-7393
ㄷㅗㅇㄹㅣ	-7394
ㅋㅡㄹㄹㅗ	-7395
▁ㅇㅏㄴㅁㅜ	-7396
▁ㅂㅜㅌㅈㅏㅂ	-7397
▁Car	-7398
▁ㅇㅖㄹ	-7399
▁ㅅㅡㅇㄷㅏㄴ	-7400
▁ㅅㅏㅁㄱㅏㄱㅈㅜ	-7401
ㄱㅘㅇㅅㅜ	-7402
▁ㅇㅐㄴㄷㅣ	-7403
▁ㅇㅣㅁㄱㅖ	-7404
▁ㅈㅓㅁㄱㅓ	-7405
▁ㅇㅣㅂㅎㅓㄴ	-7406
mer	-7407
▁KB	-7408
ㅅㄷㅐ	-7409
▁270	-7410
ㅇㅘㅇㅎㅜ	-7411
▁ㅅㅗㄴㄴㅕ	-7412
▁ㅈㅣㅁㅂㅏ	-7413
▁ㅈㅏㄴㅇㅣㄴ	-7414
aw	-7415
▁Gre	-7416
▁ㅍㅔㅇ	-7417
ㄷㅏㅇㄱㅣ	-7418
▁ㄷㅏㄴㄱㅓ	-7419
▁ㅂㅏㄹㅎㅏ	-7420
▁ㅅㅡㅂㄱㅘㄴ	-7421
▁Do	-7422
▁ㄴㅗㅁ	-7423
ㄹㄹㅣㄴㅈㅓ	-7424
▁ㄱㅡㅁㄴㅏ	-7425
▁ㅌㅗㅂㄴㅣ	-7426
▁ㄱㅗㅇㅂㅓㅂ	-7427
▁ㅎㅕㅇㅍㅕㄴ	-7428
▁if	-7429
ㅍㅗㅇ	-7430
▁ㅍㅔㅅ	-7431
ㅇㅝㄴㅅㅏ	-7432
▁ㅍㅔㄹㅌㅡ	-7433
ㄱㅡㅁㅅㅗ	-7434
▁ㅌㅗㅇㅍㅖ	-7435
ㄷㅗㅇㅈㅓㄴ	-7436
▁ㅇㅜㄴㅇㅣㅁ	-7437
▁ㅊㅜㄱㅅㅓㅇ	-7438
ㄲㅓㅅ	-7439
▁260	-7440
▁ㄱㅜㄴㄷㅔ	-7441
▁ㅋㅗㄴㄹㅏ	-7442
▁ㄱㅏㄴㅎㅗㄱ	-7443
19	-7444
▁ㅁㅕㅇㅂㅜ	-7445
▁ㅍㅓㄴㄷㅡ	-7446
ㄴㅓㄹㅅㅡ	-7447
▁ㅎㅕㄴㄱㅘ	-7448
▁ㄱㅕㅇㅇㅕㅇㅎㅏㄱ	-7449
▁ㅅㅜㄴㅇㅑㅇㅎㅏㅁ	-7450
▁ㅎㅐㅇㅈㅓㅇㄷㅗㅇ	-7451
▁ㅂㅓㅁㅎㅏ	-7452
▁ㅅㅐㅇㅁㅗ	-7453
▁it	-7454
▁USB	-7455
▁1876	-7456
▁ㄱㅕㅇㅁㅜ	-7457
▁ㄱㅗㅇㅅㅣ	-7458
▁ㅈㅣㄱㄱㅖ	-7459
▁ㅊㅣㅁㄹㅖ	-7460
▁ㄴㅏㄱㅇㅑㅇ	-7461
▁ㅊㅓㄴㅊㅓㄴ	-7462
ㅇㅣㄴㅊㅡ	-7463
▁ㅈㅣㄱㅅㅏ	-7464
▁ㅇㅝㄴㅎㅘㄹ	-7465
ㅅㅞ	-7466
ble	-7467
▁SH	-7468
▁ㄱㅕㄱㅎㅏ	-7469
ㄴㅛㅇ	-7470
ㅂㅜㄴㅇㅕㄹ	-7471
ㅅㅓㄱㅎㅏㄱ	-7472
▁ㅈㅣㅂㅊㅏㄱ	-7473
▁ㅁㅏㅇㅊㅣ	-7474
▁ㅅㅔㄴㄷㅏ	-7475
▁ㅌㅏㄹㅊㅟ	-7476
▁ㅊㅓㄴㅊㅓㄴㅎㅣ	-7477
▁Wii	-7478
▁1864	-7479
ㄴㅏㄴㄷㅔ	-7480
▁ㅇㅑㅇㅂㅗ	-7481
▁ㅎㅕㅇㅇㅛㅇ	-7482
▁RT	-7483
ㅍㅔㅅ	-7484
ition	-7485
▁1886	-7486
ㅌㅐㄴㄷㅡ	-7487
▁ㅈㅓㅁㄱㅓㅁ	-7488
▁ㅊㅜㄹㅎㅕㄹ	-7489
▁SV	-7490
ㄷㅣㅇㅅㅡ	-7491
▁ㄸㅏㄹㄹㅣ	-7492
▁ㅂㅏㄹㄱㅏ	-7493
▁ㅈㅡㅇㅇㅗ	-7494
▁ㄷㅓㅇㅇㅓ	-7495
▁ㅅㅓㅇㄱㅣ	-7496
▁ㄱㅜㄴㄱㅘㄴ	-7497
▁ㅈㅓㄴㄱㅝㄴ	-7498
▁ㅅㅏㅇㄱㅘㄴㅇㅓㅄㅇㅣ	-7499
▁Up	-7500
ㅇㅕㄹㅊㅏ	-7501
▁ㅂㅓㄹㄹㅔ	-7502
▁ㅈㅏㄹㄹㅣ	-7503
▁ㅂㅗㄱㅈㅗㅇ	-7504
▁ㅇㅓㄹㄹㅜㄱ	-7505
▁ㅇㅣㄹㅈㅣㄴ	-7506
DA	-7507
ㄷㅣㄹ	-7508
▁ㅅㅏㅁㅊㅓㄱ	-7509
▁ㅇㅏㄹㅍㅗㄴ	-7510
▁ㅍㅕㅇㅇㅏㄴㄷㅗ	-7511
ave	-7512
▁1866	-7513
▁ㅇㅑㅇㅈㅗ	-7514
▁ㄱㅘㅇㅇㅑㅇ	-7515
▁ㅅㅣㄴㅈㅣㄴ	-7516
▁ㅇㅘㄴㄱㅕㄹ	-7517
▁ㅂㅐㄱㅇㅏㄱㄱㅣ	-7518
▁ML	-7519
▁ㄹㅔㅂ	-7520
▁Life	-7521
▁ㅈㅣㅁㅅㅡㅇ	-7522
▁ㅍㅕㅇㅌㅏㄴ	-7523
ult	-7524
ㄷㅏㄹㅁㅏ	-7525
▁Dream	-7526
▁ㅇㅝㄴㅇㅠ	-7527
▁AG	-7528
▁ㅎㅏㄴㅂㅓㄴ	-7529
▁ㄷㅗㅇㅁㅐㅇㄱㅜㄱ	-7530
ㅊㅡㅁ	-7531
ject	-7532
▁ㅆㅣㅅ	-7533
ㅇㅗㄴㅅㅡ	-7534
▁ㅂㅗㄹㅌㅣ	-7535
▁ㅅㅓㅇㅁㅐ	-7536
▁ㅁㅗㅁㄷㅗㄹ	-7537
▁ㅂㅏㄴㄷㅗㅇ	-7538
▁ㅂㅓㄴㄱㅏㄹ	-7539
▁ㄷㅗㄱㄹㅣㅂㄱㅜㄴ	-7540
▁ㄱㅔㅅ	-7541
▁1887	-7542
▁ㄴㅏㅁㅂㅔ	-7543
▁ㅇㅣㄱㅅㅏㄴ	-7544
▁Open	-7545
▁ㄹㅗㅁㅂㅏ	-7546
▁ㄱㅣㄴㅁㅣㄹ	-7547
▁ㅎㅗㅇㅅㅓㅇ	-7548
▁ㅁㅣㄴㅂㅕㅇㄷㅐ	-7549
▁ㅋㅓㄴㅌㅔㄴㅊㅡ	-7550
ㅁㅜㅅ	-7551
▁ㄷㅗㅇㅊㅏ	-7552
▁ㅍㅕㄴㅎㅑㅇ	-7553
▁ㅎㅘㄹㄷㅗㅇㄱㅏ	-7554
▁TC	-7555
▁ㅊㅛ	-7556
ㅍㅣㄹㄹㅔ	-7557
▁ㄱㅕㄴㄱㅗ	-7558
▁ㄱㅡㄹㄹㅓ	-7559
▁ㄹㅐㅁㅍㅡ	-7560
▁ㅂㅗㄴㅊㅔ	-7561
ㅍㅡㄹㄹㅣㄴ	-7562
ational	-7563
▁ㄷㅗㅇㅊㅏㅇ	-7564
▁te	-7565
ㅍㅏㄴㄱㅘㄴ	-7566
▁ㄷㅏㅇㅈㅣㄴ	-7567
▁ㅁㅣㄴㅁㅜㄹ	-7568
orm	-7569
ㄹㅣㅁㅅㅏ	-7570
ㅈㅜㅇㄱㅛ	-7571
▁ㄱㅗㅇㅂㅏㅇㅈㅓㄴ	-7572
ㅉㅡ	-7573
▁BL	-7574
▁ㅁㅗㄹㄹㅕ	-7575
▁ㅅㅜㄴㄹㅖ	-7576
▁ㅅㅏㅇㅂㅏㄴ	-7577
▁ㄱㅜㄱㅈㅓㅇㅇㅝㄴ	-7578
ㄷㅜㄹㄱㅣ	-7579
▁ㅂㅜㅇㅇㅓ	-7580
▁ㅁㅜㄹㄱㅕㄹ	-7581
▁ㅅㅐㅇㅅㅓㅇㅁㅜㄹ	-7582
▁Ed	-7583
▁ㅈㅏㄴㄷㅣ	-7584
▁ㅍㅜㅇㅅㅡㅂ	-7585
▁ㄱㅗㅇㅇㅕㄴㅈㅏㅇ	-7586
▁ㅅㅡㅇㅎㅏ	-7587
ㄱㅏㄴㅇㅝㄴ	-7588
▁ㅅㅏㅇㅈㅓㅇ	-7589
ㄸㅓㄱ	-7590
▁1861	-7591
▁ㄱㅗㅂㅅㅔㅁ	-7592
▁ㄱㅣㅅㅌㅓㄹ	-7593
▁ㅂㅏㄹㅌㅗㅂ	-7594
▁ㅅㅣㅁㅁㅜㄴ	-7595
▁ㅈㅏㅇㅈㅓㄴ	-7596
▁ret	-7597
▁ㄱㅐㅅ	-7598
▁ㅅㅗㄹㄹㅏ	-7599
▁ㅈㅏㅇㄹㅐ	-7600
▁ㅊㅏㅁㅅㅜ	-7601
▁ㄱㅏㅇㅎㅐㅇ	-7602
▁ㄷㅐㅅㄱㅡㄹ	-7603
ION	-7604
▁an	-7605
▁en	-7606
▁1881	-7607
ㄷㅣㄱㅌㅗ	-7608
▁ㄱㅘㄴㄴㅐ	-7609
▁ㄷㅗㄷㅂㅗ	-7610
▁ㅂㅗㅇㅇㅜ	-7611
▁ㅌㅡㄱㄱㅣ	-7612
▁ㅋㅐㄹ	-7613
ㅋㅗㄴㅅㅣㄴ	-7614
▁ㅅㅣㅁㅅㅏㅇ	-7615
▁ㅇㅏㄱㄱㅗㄱ	-7616
ㅃㅡㅁ	-7617
▁HTML	-7618
ㄱㅡㅂㅅㅣ	-7619
▁ㄴㅏㅂㅂㅜ	-7620
▁ㅁㅜㄹㄹㅠ	-7621
▁ㅇㅏㅁㅁㅗ	-7622
▁ㅈㅜㅇㄱㅐ	-7623
ㅇㅑㄴㅅㅐㄱ	-7624
▁ㄱㅏㅇㅅㅓㅇ	-7625
ics	-7626
ton	-7627
▁XP	-7628
ㅇㅣㄴㅂㅗ	-7629
▁ㅂㅏㅇㄱㅗㅇ	-7630
▁ㅈㅓㄴㄹㅏㄱ	-7631
▁iOS	-7632
▁Tour	-7633
ㅅㅏㅇㅅㅏ	-7634
▁ㅁㅣㄴㅇㅕㅇㅎㅘ	-7635
ru	-7636
▁ㄱㅏㅍ	-7637
▁Music	-7638
▁ㅁㅗㄹㄷㅗ	-7639
▁ㄱㅗㄱㅁㅕㄴ	-7640
▁ㅂㅏㄷㅊㅣㅁㄷㅗㄹ	-7641
▁ㅅㅏㄴㅁㅏ	-7642
▁ㄱㅐㄱㅇㅝㄴ	-7643
▁ㅂㅜㄹㅂㅜㄴ	-7644
▁ㅅㅡㅇㅅㅏㅇ	-7645
▁ㅊㅓㅇㄴㅕㄴㅎㅚ	-7646
▁ㅃㅣ	-7647
ode	-7648
▁ㅍㅣㅅ	-7649
ㅅㅏㄴㄷㅐ	-7650
▁ㅂㅏㄱㅈㅏ	-7651
▁ㅈㅏㅁㅅㅣㄹ	-7652
ㄴㅗㄹㄹㅗ	-7653
▁ㅇㅗㄴㄷㅐ	-7654
▁ㅎㅡㅇㅂㅜㄴ	-7655
▁ㄱㅕㄱㄹㅕ	-7656
▁ㅇㅗㅇㅈㅜ	-7657
▁ㅊㅓㄴㅈㅣ	-7658
▁ㅌㅡㄱㅅㅏ	-7659
▁ㅍㅏㄴㄱㅘㄴ	-7660
TE	-7661
▁ㄲㅗㅈ	-7662
ㅅㅗㄹㄹㅣ	-7663
ㅇㅣㄴㄱㅜ	-7664
▁ㅁㅕㄴㅁㅗ	-7665
▁ㅈㅡㅇㅅㅔ	-7666
▁ㅇㅘㅇㄱㅘㄴ	-7667
▁ㅇㅜㅅㅇㅡㅁ	-7668
▁ㅁㅔㄹㄹㅏ	-7669
▁ㅁㅣㄹㄱㅏ	-7670
ㄷㅓㄱㅇㅘㅇ	-7671
ㅎㅜㄴㅈㅏㅇ	-7672
▁ㅇㅣㄱㅁㅕㅇ	-7673
▁ㅈㅜㅇㄹㅏㅇ	-7674
▁ㅎㅗㅁㄱㅕㅇㄱㅣ	-7675
▁1850	-7676
▁ㄱㅕㅇㄷㅗ	-7677
▁ㅇㅛㅇㅅㅏ	-7678
▁ㄷㅏㄴㄱㅜㄱ	-7679
▁ㅂㅏㄹㅁㅗㄱ	-7680
▁ㅇㅑㅇㅎㅕㄴ	-7681
▁ㅎㅐㅇㅂㅏㅇ	-7682
▁section	-7683
ㅁㅗㅁ	-7684
ㅈㅣㄴㄱㅜ	-7685
▁ㅋㅔㄴㅌㅓ	-7686
▁ㅍㅣㄹㅎㅏ	-7687
▁ㅂㅐㄱㅇㅓㅂ	-7688
▁ㅍㅏㄹㅈㅏㄱㅈㅣ	-7689
▁ㄱㅘㄴㅎㅕㄴㅇㅏㄱ	-7690
▁1872	-7691
▁ㅅㅗㅇㅎㅘㄴ	-7692
▁ㅂㅏㄱㅇㅕㅇㅎㅛ	-7693
UC	-7694
ㅅㅗㄹㄹㅣㄴ	-7695
▁ㅎㅘㄴㄱㅘㄴ	-7696
QL	-7697
▁"-	-7698
stem	-7699
ㅇㅣㅁㅈㅏ	-7700
▁ㅂㅏㄹㅇㅢ	-7701
▁ㅇㅏㅂㅅㅜ	-7702
▁ㄴㅣㄱㅅㅡㄴ	-7703
▁ㅁㅏㄱㅍㅏㄴ	-7704
▁ㅊㅓㄹㅈㅗㅇ	-7705
EP	-7706
▁ㅍㅜㄱ	-7707
▁ㅈㅏㅇㅆㅜ	-7708
▁ㅂㅕㄴㅈㅗㅇ	-7709
▁ㅍㅣㄱㅅㅔㄹ	-7710
▁ㅌㅏㅁㅎㅓㅁㄱㅏ	-7711
ier	-7712
▁MA	-7713
ㄱㅣㄴ	-7714
▁750	-7715
▁ㄱㅜㄻ	-7716
▁ㄱㅜㄷㅎㅣ	-7717
▁ㅂㅗㄱㅇㅟ	-7718
▁ㅅㅏㄴㄱㅣ	-7719
▁ㄴㅣㅅㅅㅏㄴ	-7720
▁ㅌㅏㅁㅈㅓㅇ	-7721
▁ㅈㅏㅇㄴㅏㄴㄱㅏㅁ	-7722
ㅋㅓㄹㄹㅣ	-7723
▁ㅇㅖㄹㄹㅗ	-7724
▁ㅎㅕㄴㅁㅜ	-7725
▁ㅂㅏㄹㅅㅏㄴ	-7726
▁ㅅㅏㄴㅁㅜㄹ	-7727
▁ㅇㅝㄴㅅㅏㅇ	-7728
▁ㅎㅡㄱㅂㅐㄱ	-7729
▁1863	-7730
ㅈㅓㅇㄱㅜ	-7731
▁ㅂㅏㄱㅅㅜ	-7732
▁ㅎㅏㅇㅇㅏ	-7733
▁ㅅㅡㅂㄷㅡㄱ	-7734
▁ㅅㅣㄹㄱㅏㄱ	-7735
▁NS	-7736
ㅍㅓㄹㄹㅗ	-7737
ㅎㅏㅇㅅㅣ	-7738
▁ㅋㅗㄴㅌㅣ	-7739
▁ㅎㅕㄴㅁㅣ	-7740
▁ㄱㅘㅇㅅㅓㄴ	-7741
ㅅㅣㄴㄹㅛ	-7742
▁ㄱㅏㅇㅅㅔ	-7743
▁ㄱㅡㄴㄹㅐ	-7744
▁ㅂㅗㅇㅎㅘㅇ	-7745
▁ㅅㅡㄹㄹㅐㅁ	-7746
▁ㅇㅡㅁㅇㅏㄱㅇㅝㄴ	-7747
ㅈㅓㄹㄷㅗ	-7748
▁ㄱㅣㅁㅎㅢ	-7749
▁ㅇㅘㄴㅂㅣ	-7750
▁ㅁㅏㄹㄷㅏㄴ	-7751
▁ㅅㅜㄴㅎㅏㅇ	-7752
▁ㅊㅓㄹㄱㅏㅇ	-7753
▁ㅌㅏㄴㅅㅏㄴ	-7754
70	-7755
ool	-7756
▁ㄹㅏㄴㅅㅡ	-7757
▁ㄴㅏㅁㅅㅗㅇ	-7758
▁ㅍㅕㄴㅇㅏㄴ	-7759
▁1830	-7760
▁Night	-7761
▁ㅅㅣㅇㅋㅡ	-7762
ㅈㅓㄹㄷㅏㄴ	-7763
▁ㄷㅗㄹㄱㅗ	-7764
▁ㅊㅏㄱㅎㅏ	-7765
▁ㅂㅏㄴㅈㅜㄱ	-7766
ai	-7767
▁Sm	-7768
ㄴㅡㅈ	-7769
▁705	-7770
▁ㄱㅘㅇㅂㅐ	-7771
▁ㅁㅏㅇㅎㅏ	-7772
▁ㅈㅏㄱㅍㅜㅁㅅㅏㅇ	-7773
▁ㅉㅓㄹ	-7774
ㅅㅓㄴㅅㅗ	-7775
ㅈㅣㄴㅈㅗㄱ	-7776
▁ㄱㅕㅇㄹㅑㅇ	-7777
▁ㅇㅑㅇㄱㅜㅇ	-7778
▁ㄴㅣㄴㅈㅏ	-7779
▁ㄷㅏㄴㅈㅗ	-7780
▁ㅂㅏㄴㅈㅓㅁ	-7781
ise	-7782
▁1865	-7783
ㅇㅠㄱㅎㅚ	-7784
▁ㅈㅓㄴㄹㅣ	-7785
ㅊㅜㅁ	-7786
▁Don	-7787
▁ㄱㅕㅇㅁㅏ	-7788
▁ㅅㅏㅇㅍㅏ	-7789
▁ㅇㅏㄴㅅㅏㄴㅅㅣ	-7790
▁ㄱㅕㅇㅂㅗㄱㄱㅜㅇ	-7791
▁ㅇㅏㅂㄹㅗㄱㄱㅏㅇ	-7792
ㄲㅜㅁㅊㅣ	-7793
▁ㄱㅘㅇㅈㅏ	-7794
▁ㅂㅏㄴㄷㅏ	-7795
▁ㅂㅗㄱㅇㅕㄱ	-7796
▁--	-7797
ㅁㅠㄹㄹㅓ	-7798
▁ㄷㅔㄴㅅㅛ	-7799
▁ㅂㅏㄴㅈㅜ	-7800
▁ㅎㅕㄴㄷㅗ	-7801
▁ㅂㅜㄹㅂㅜㄴㅁㅕㅇ	-7802
NG	-7803
▁1891	-7804
▁ㅂㅓㅁㅇㅓ	-7805
▁ㅇㅔㄹㅂㅣ	-7806
▁ㅈㅗㅇㅁㅛ	-7807
▁ㄱㅗㅇㅍㅏㄴ	-7808
▁ㅎㅐㅅㅂㅣㅊ	-7809
▁DR	-7810
▁qu	-7811
▁ㅋㅡㄹㄹㅣㄱ	-7812
ㅍㅡㄹㄹㅔㄱㅅㅡ	-7813
▁AL	-7814
▁Ab	-7815
ower	-7816
▁ㅅㅡㄹㅍㅡ	-7817
ㄱㅗㄱㅁㅕㄴ	-7818
▁ㄱㅘㄴㄹㅕㄴㅈㅏ	-7819
▁q	-7820
▁ㄷㅏㄴㅈㅏ	-7821
▁ㄷㅗㅇㅁㅐㅇㄱㅜㄴ	-7822
▁-&	-7823
▁MM	-7824
▁ㄷㅡㅇㄷㅏㄴ	-7825
▁ㅅㅡㅇㅈㅓㅇㅇㅝㄴ	-7826
▁ㅁㅡㄹ	-7827
ㅇㅝㄴㅈㅣ	-7828
▁ㅂㅏㄹㅈㅏ	-7829
▁ㅊㅣㅁㄷㅐ	-7830
ㅋㅡㄹㄹㅓㅂ	-7831
▁ㅎㅗㄴㅎㅕㄹ	-7832
▁ㅎㅏㅂㅊㅏㅇㄷㅏㄴ	-7833
ㅌㅓㅂ	-7834
ㄴㅏㄴㅌㅡ	-7835
▁ㄷㅔㄹㄹㅣ	-7836
▁ㄷㅗㅇㅈㅏ	-7837
ㅊㅣㄴㅇㅘㅇ	-7838
▁ㅂㅕㄹㅈㅏㅇ	-7839
▁ㅎㅗㅁㅈㅡ	-7840
▁ㄴㅏㅂㅈㅏㄱ	-7841
▁ㅈㅓㅂㅎㅏㅂ	-7842
▁ㅁㅏㅇㄱㅏ	-7843
▁ㅍㅕㄴㅈㅔ	-7844
▁ㅂㅗㄱㅈㅣㄱ	-7845
ㄴㅗㄱ	-7846
ㄹㅏㅇㄷㅡ	-7847
ㅅㅣㄴㄱㅣ	-7848
▁ㄱㅕㅇㄱㅓㄴ	-7849
▁Good	-7850
▁ㅁㅗㄱㅇㅛㄱ	-7851
▁ㅇㅑㄱㅈㅓㅁ	-7852
ㅁㅟㄴ	-7853
▁ㅋㅗㅂ	-7854
▁ㅁㅐㄱㅇㅏ	-7855
ㅅㅓㅇㄱㅕㅇ	-7856
▁ㅇㅑㅇㅁㅕㄴ	-7857
▁Can	-7858
▁ㄷㅗㅅ	-7859
▁1873	-7860
ㄹㅡㄹㄹㅣ	-7861
ㅅㅏㅇㅇㅓ	-7862
▁Black	-7863
▁ㄱㅡㅁㄱㅗ	-7864
ㄱㅕㄹㅊㅐㄱ	-7865
▁ㅁㅜㄴㅈㅓㅇ	-7866
DS	-7867
▁802	-7868
▁ㅅㅏㄱㅅㅡ	-7869
▁ㅅㅏㅇㅎㅐㅇ	-7870
▁AU	-7871
▁ㄲㅞ	-7872
▁550	-7873
▁ㅅㅣㄴㄷㅐ	-7874
▁ㅇㅔㄹㄹㅓㄴ	-7875
ㅎㅞ	-7876
hem	-7877
▁ㅅㅑㅂ	-7878
ㅅㅔㄴㅌㅓ	-7879
▁ㅈㅓㅇㅇㅖ	-7880
▁ㅍㅕㄴㅎㅏ	-7881
▁ㅎㅘㄹㅈㅏ	-7882
▁ㅇㅛㅇㅅㅏㄴㄱㅜ	-7883
▁ㅂㅕㄴㄱㅘㅇㅅㅓㅇ	-7884
IX	-7885
▁ㄱㅘㄹㅎㅗ	-7886
▁ㅂㅕㅇㄱㅘ	-7887
▁ㅇㅡㅁㅈㅜ	-7888
▁ㄱㅜㄴㅈㅏ	-7889
▁ㄱㅘㄴㅇㅛㅇ	-7890
▁ㅂㅓㅂㅈㅓㄴ	-7891
▁ㅇㅏㄹㅁㅏㅈ	-7892
ky	-7893
▁ㅅㅐㅇㄷㅗ	-7894
ㅂㅜㄱㅁㅕㄴ	-7895
ㅅㅓㄴㅇㅘㅇㅈㅗ	-7896
ㅎㅡㅁ	-7897
ings	-7898
▁ㅉㅣㄱㅎㅣ	-7899
▁ㅌㅗㅇㄷㅗ	-7900
ㄹㄹㅣㄴㄷㅓ	-7901
▁ㅇㅘㅇㅅㅓㅇ	-7902
ㄱㅘㄴㅅㅣㄱ	-7903
▁ㅁㅏㅈㅊㅜㅁ	-7904
ta	-7905
ㅉㅗ	-7906
▁ㅇㅕㅁㅎㅘ	-7907
▁ㅇㅗㄱㅅㅣ	-7908
▁ㅈㅓㅇㅈㅣㄴ	-7909
▁ㅊㅗㅅㅂㅜㄹ	-7910
▁ㅎㅕㅂㄷㅗㅇㅈㅗ	-7911
▁ㄱㅏㅁㅇㅕㅁㅈㅡㅇ	-7912
▁ㅅㅑㅁ	-7913
ㅎㅚㄱㅅㅏ	-7914
ㅇㅕㅇㅈㅏㅇ	-7915
▁ㄱㅜㄱㅁㅣㄴㅎㅏㄱㄱㅛ	-7916
ㄷㅔㄴㅂㅜ	-7917
▁ㅇㅡㄹㅅㅏ	-7918
▁ㅅㅏㄴㅊㅐㄱ	-7919
▁ㄱㅣㅁㅅㅓㅇㅅㅜ	-7920
ㅅㅐㅁ	-7921
▁ㅇㅣㅂㅅㅣ	-7922
ㅋㅣㄴㅅㅡㄴ	-7923
tr	-7924
ㅌㅜㅇ	-7925
▁Let	-7926
▁1867	-7927
▁ㅁㅏㄴㅈㅓㅁ	-7928
▁ㅎㅕㄹㅇㅏㅂ	-7929
▁ㅅㅗㄴㅈㅏㅂㅇㅣ	-7930
ㅋㅣㄴㅌㅗ	-7931
▁ㄱㅓㄹㅍㅡ	-7932
▁ㅂㅜㄱㄷㅐ	-7933
▁ㅅㅓㅇㄱㅏ	-7934
▁ㅇㅗㄴㄷㅜ	-7935
▁ㅈㅣㄱㄱㅛ	-7936
▁ㅇㅏㄴㄷㅗㅇㅅㅣ	-7937
ank	-7938
lar	-7939
ㅈㅓㅇㄱㅣ	-7940
▁ㅎㅣㄹㅂㅔ	-7941
▁ㄲㅗㅊㅇㅣㅍ	-7942
▁ㅇㅑㅇㅇㅑㅇ	-7943
ㅎㅏㅂㅈㅜㅇㄱㅜㄱ	-7944
▁ㅋㅕ	-7945
▁ㅂㅜㄱㅂㅓㄹ	-7946
▁650	-7947
ㅍㅏㄴㅂㅜ	-7948
ㄷㅗㅇㅁㅐㅇ	-7949
ㅅㅓㅇㅈㅣㄹ	-7950
▁ㅇㅕㄴㅊㅜㄹㄱㅏ	-7951
▁El	-7952
▁ㅆㅏㄱ	-7953
▁ㄱㅡㅂㅎㅣ	-7954
▁Ac	-7955
▁Qu	-7956
▁ㅇㅗㄱㅊㅓㄴ	-7957
▁ㅇㅣㄹㅂㅗㄴㅅㅣㄱ	-7958
ㅇㅕㅇㅅㅏ	-7959
ㅎㅡㅂㄱㅣ	-7960
▁ㄱㅜㄱㅎㅗ	-7961
▁ㄷㅗㄱㅈㅜ	-7962
▁ㅁㅗㄹㄷㅜ	-7963
▁ㅅㅏㅁㄱㅜㄱㅇㅠ	-7964
▁ㅎㅗㄹㄷㅣㅇㅅㅡ	-7965
▁ㅂㅐㄱㅇㅏㄱㄱㅘㄴ	-7966
▁ㅈㅣㅂㅈㅓㅇㄱㅘㄴ	-7967
ㅃㅓ	-7968
▁PM	-7969
▁ㅋㅐㅅ	-7970
ㄹㅡㄴㅂㅔ	-7971
ㅈㅏㅇㅈㅗ	-7972
▁ㅁㅣㄴㅅㅡ	-7973
▁ㅅㅡㅇㅈㅣ	-7974
ㄹㅣㅅㅅㅜ	-7975
ㅅㅏㄴㅂㅜ	-7976
▁ㄴㅔㄱㅅㅡ	-7977
▁ㅅㅏㄴㅅㅣㄴ	-7978
▁UC	-7979
▁return	-7980
▁ㅎㅓㄴㄴㅏㅂ	-7981
ㄲㅡㄴ	-7982
▁And	-7983
ㄹㅔㄹㄹㅏ	-7984
▁ㅅㅣㄴㅇㅢ	-7985
▁ㅇㅑㅇㅈㅣ	-7986
▁ㄷㅗㅇㅌㅏㄱ	-7987
▁ㅅㅣㄴㅂㅗㅇ	-7988
▁ㅊㅜㄹㅇㅣㅂㅁㅜㄴ	-7989
ee	-7990
ㄱㅟㄴ	-7991
ㅁㅂㅏ	-7992
▁HMS	-7993
▁Ser	-7994
▁ㅅㅓㅇㅅㅜ	-7995
▁ㅌㅏㄱㄱㅜ	-7996
▁ㅈㅣㄴㅇㅓㄴ	-7997
▁ㅎㅡㅂㅇㅕㄴ	-7998
ㅌㅜㅇㅇㅣ	-7999
ㅍㅣㄱㅅㅡ	-8000
▁ㅅㅜㄹㄹㅏ	-8001
ㅂㅔㄴㅅㅕㄴ	-8002
▁ㅎㅏㅂㄱㅡㅁ	-8003
▁ㄱㅕㅌㄷㅡㄹㅇㅣ	-8004
▁ㅈㅣㅂㅎㅐㅇㅇㅠ	-8005
ㅎㅏㄴㅎㅏㅇㄱㅗㅇ	-8006
▁ㅍㅕㄴㅈㅣㅂㅈㅏㅇ	-8007
rist	-8008
▁1862	-8009
▁6000	-8010
ㅅㅏㄹㄹㅣ	-8011
▁ㅊㅜㅇㅅㅣㄴ	-8012
▁Ag	-8013
▁LS	-8014
▁ㅍㅐㅅ	-8015
ㅇㅝㄴㅎㅜ	-8016
▁ㄴㅔㄱㅅㅔㄴ	-8017
▁ㅈㅏㄱㄴㅕㄴ	-8018
▁ㅈㅗㅇㅇㅓㅂ	-8019
▁ㅌㅡㄴㅌㅡㄴ	-8020
▁ㄷㅏㅇㅅㅓㄴㅈㅏ	-8021
▁AA	-8022
▁tr	-8023
▁ㅊㅜㄱㅅㅏㄴ	-8024
▁ㅊㅜㅇㅊㅣㅇ	-8025
IF	-8026
▁1869	-8027
▁ㄱㅘㄴㅅㅓㅇ	-8028
▁ㅊㅓㅇㅁㅜㄴ	-8029
ㅌㅟ	-8030
▁1878	-8031
▁ㄱㅕㅇㅁㅐ	-8032
▁ㄱㅕㅇㅈㅣ	-8033
▁ㅂㅓㄹㄹㅣ	-8034
ㅇㅏㅁㅅㅏ	-8035
▁ㄱㅜㄱㅎㅘ	-8036
▁ㅅㅣㅁㅅㅗ	-8037
ㅇㅓㅁㄱㅕㅇ	-8038
▁ㄱㅡㅂㅅㅓㅇ	-8039
▁ㅂㅏㄴㅈㅓㅇㅂㅜ	-8040
▁ㅋㅣㅅ	-8041
ㄹㅗㄹㄹㅔ	-8042
ㅂㅓㄴㅇㅔ	-8043
ㅁㅕㄴㅈㅓㄱ	-8044
▁ㅇㅏㄹㅍㅗㄴㅅㅗ	-8045
ae	-8046
▁ㅂㅏㄹㅍㅗ	-8047
▁ㅅㅗㄹㄹㅣ	-8048
▁ㅈㅣㄴㅎㅡㄺ	-8049
▁ㅎㅏㄴㅊㅏㅇ	-8050
▁ㅁㅕㅇㅅㅓㅇㅎㅘㅇㅎㅜ	-8051
▁ㅈㅏㅁㄱㅣ	-8052
▁ㅍㅣㄹㄷㅜ	-8053
▁ㄱㅏㄴㅍㅏㄴ	-8054
▁ㄱㅕㅇㅇㅡㄴ	-8055
▁ㅇㅣㅂㅅㅜㄹ	-8056
▁ㅈㅓㄱㅂㅏㄹ	-8057
▁ㅊㅐㄹㄹㅣㄴㅈㅓ	-8058
ㅈㅓㅇㅂㅗ	-8059
ㅂㅡㄹㄹㅣㅅ	-8060
ㅇㅏㄴㅂㅓㅂ	-8061
▁ㄷㅏㅇㅎㅘㅇ	-8062
▁ㅈㅓㅇㅎㅘㅇ	-8063
▁ㅍㅣㄹㅁㅕㅇ	-8064
▁me	-8065
▁1592	-8066
ㅍㅔㄹㄹㅓ	-8067
▁ㅇㅏㄴㄷㅗ	-8068
▁ㄴㅗㄴㅅㅏㄴ	-8069
▁ㅊㅜㅇㄷㅏㅇ	-8070
▁ㅎㅐㄱㅂㅜㄴㅇㅕㄹ	-8071
▁ab	-8072
ㅍㅕㅇㄱㅜ	-8073
▁ㄱㅓㄹㅈㅏㄱ	-8074
▁ㅂㅣㄱㅂㅐㅇ	-8075
▁ㅈㅓㄹㅇㅑㄱ	-8076
▁ㅈㅡㅇㅅㅣㄱ	-8077
pr	-8078
▁KN	-8079
ㄹㅏㅁㅈㅣㄱ	-8080
ㅇㅣㄹㅅㅣㄴ	-8081
▁ㅅㅏㄹㅉㅏㄱ	-8082
▁ㄱㅗㅇㅌㅗㅇㅈㅓㅁ	-8083
90	-8084
▁RC	-8085
ㅈㅏㅇㅂㅗ	-8086
▁ㅅㅐㅇㅎㅘ	-8087
▁ㅇㅐㅇㅋㅓ	-8088
▁ㅊㅣㅇㄱㅣ	-8089
▁ㅇㅣㄹㅅㅓㄹ	-8090
▁ㅇㅣㅂㅊㅜㄹ	-8091
▁ㄴㅏㅇㅁㅏㄴㅈㅜ	-8092
ㄱㅕㅂ	-8093
▁ㄴㅓㄹ	-8094
▁ㄴㅜㄴㅊㅣ	-8095
▁ㅅㅏㅇㅇㅢ	-8096
▁ㅇㅓㅂㄹㅗ	-8097
▁ㄱㅘㅇㅇㅓㅂ	-8098
ade	-8099
▁ㅆㅓㄴ	-8100
ㅅㅣㄴㅈㅏ	-8101
▁ㅇㅏㅇㅌㅜ	-8102
▁ㄱㅜㄱㅇㅣㄴ	-8103
▁ㅈㅗㅇㅊㅏㄱㅇㅕㄱ	-8104
▁ㅊㅣㄴㅅㅓㄴㄱㅕㅇㄱㅣ	-8105
OU	-8106
▁ㅂㅗㄲ	-8107
▁ㅍㅏㄱ	-8108
ㅌㅔㄹㄹㅏ	-8109
▁ㅎㅕㅇㅈㅜ	-8110
▁ㄱㅏㄴㄱㅕㄹ	-8111
▁ㅇㅘㄴㅁㅏㄴ	-8112
che	-8113
ount	-8114
▁Mon	-8115
▁ㅇㅐㅁ	-8116
▁ㄱㅜㄱㅂㅜ	-8117
▁ㄴㅏㅁㄷㅐ	-8118
▁ㄷㅡㅇㄷㅡㅇ	-8119
▁ㅈㅏㅇㅅㅣㄴ	-8120
▁ㄱㅡㄴㅂㅗㄴㅂㅓㄴㄴㅚ	-8121
ㄲㅓㅇ	-8122
▁MSL	-8123
ㅊㅗㄴㄹㅣ	-8124
▁ㄷㅏㅇㄷㅏㅇ	-8125
▁ㅇㅑㅇㄱㅜㄴ	-8126
▁ㅊㅓㅇㄱㅏㄱ	-8127
▁ㅇㅜㄴㄷㅗㅇㄹㅑㅇ	-8128
▁ㅂㅓㄴㄱㅐ	-8129
▁ㅇㅘㅅㅅㅡㄴ	-8130
▁ㅇㅛㅇㄱㅏㅁ	-8131
▁ㅈㅜㄴㄷㅗㅇ	-8132
▁ㅊㅣㄴㅁㅣㄹ	-8133
ㄷㅡㄹㄹㅔ	-8134
▁ㅂㅔㄹㄹㅔ	-8135
▁ㅂㅕㅇㅍㅜㅇ	-8136
▁ㄱㅝㄹ	-8137
▁ㅅㅣㄴㅈㅣ	-8138
ㅇㅣㄴㅅㅏㄴ	-8139
ㅂㅕ	-8140
ata	-8141
▁DB	-8142
ㅉㅗㅊ	-8143
▁ㄱㅜㄴㅅㅔ	-8144
▁ㄴㅣㄱㅅㅡ	-8145
▁ㅊㅐㅇㄱㅣ	-8146
▁ㅌㅔㄴㅅㅓ	-8147
ㅂㅕㅇㅈㅏㅇ	-8148
▁ㅈㅡㅇㅂㅏㄹ	-8149
per	-8150
▁ㄴㅓㅁㅂㅓ	-8151
▁ㅇㅛㅇㅎㅐ	-8152
▁ㅅㅏㅇㄱㅘ	-8153
▁ㅇㅜㄹㅌㅡ	-8154
▁ㅂㅏㄹㅊㅏㄱ	-8155
▁ㅎㅓㄴㅂㅕㅇ	-8156
▁ㅅㅣㄴㅎㅏㄴㅇㅡㄴㅎㅐㅇ	-8157
ㅌㅏㄴㄷㅜ	-8158
ㅌㅡㄹㄹㅏ	-8159
ㅅㅓㄹㅁㅜㄹ	-8160
▁ㅈㅓㅇㅁㅕㅇ	-8161
▁ㅈㅣㄱㄱㅘㄴ	-8162
▁Windows	-8163
ㄹㅣㄴㄹㅏㄴㄷㅡ	-8164
▁ㅇㅣㅂㅂㅓㅂㅂㅜ	-8165
▁As	-8166
▁sh	-8167
▁ㄹㅐㄱ	-8168
▁ㄱㅗㄹㅉㅏ	-8169
▁ㄷㅏㅇㄱㅘ	-8170
▁ㄷㅏㄴㅇㅕㄱ	-8171
▁ㅂㅜㄴㄱㅕㅇ	-8172
▁ㅊㅏㅇㄹㅣㅂㅈㅏ	-8173
▁ㅂㅜㄱㄱㅡㄱㅈㅓㅁ	-8174
▁ㄱㅏㅇㅎㅗ	-8175
▁ㅇㅏㅍㅂㅏ	-8176
▁ㅇㅏㅍㅅㅔ	-8177
▁ㅋㅗㄹㄷㅡ	-8178
ㅇㅛㄱㅈㅏㅇ	-8179
ㅎㅘㄴㅎㅘㄴ	-8180
▁ㅇㅗㄴㄱㅓㄴ	-8181
▁ㅇㅠㄱㅅㅣㄱ	-8182
▁ㄹㅣㄴㄷㅏ	-8183
▁ㅇㅣㅇㅋㅡ	-8184
▁ㅈㅡㅇㄱㅏㅇ	-8185
▁ㄱㅡㅁㄱㅏㅇㅅㅏㄴ	-8186
▁ㄱㅡㅂㅎㅏ	-8187
▁ㅂㅣㄱㅌㅓ	-8188
▁ㅇㅛㅇㅅㅜ	-8189
▁ㅇㅕㄴㅈㅜㅇ	-8190
▁ㅎㅟㅂㅆㅡㄹ	-8191
▁ㅇㅓㄴㄹㅗㄴㅅㅏ	-8192
▁ㅋㅓㅁㅍㅣㄹㄹㅔ	-8193
▁516	-8194
▁Heart	-8195
▁ㅎㅘㅇㅈㅏ	-8196
▁ㅇㅕㄹㄹㅕㄹ	-8197
▁ㅈㅏㄱㅈㅜㅇ	-8198
▁ㅈㅏㄴㅈㅗㄴ	-8199
▁ㅈㅓㄴㄷㅏㄴ	-8200
▁AMD	-8201
▁ㄱㅓㄴㄴㅔ	-8202
▁ㄱㅘㅇㅁㅜ	-8203
▁ㅅㅓㅇㅍㅜㅁ	-8204
ㄷㅏㄴㅌㅓㄹ	-8205
▁ㄱㅐㄱㅅㅣㄹ	-8206
ㅇㅣㄹㄹㅏ	-8207
▁ㅁㅗㅁㅊㅔ	-8208
▁ㅇㅝㄱㅅㅡ	-8209
▁ㅇㅝㄹㅎㅘ	-8210
▁ㄱㅡㄴㅂㅏㅇ	-8211
▁ㄱㅡㅁㅅㅐㄱ	-8212
▁ㅂㅜㄴㅂㅕㄹ	-8213
▁ㅎㅡㅇㅇㅝㄴ	-8214
ㄷㅏㄴㅌㅓㄹㅈㅟ	-8215
▁ㅇㅣㄴㅁㅣㄴㅎㅐ	-8216
▁ㅇㅘㄴㅅㅜ	-8217
▁ㄱㅕㅇㅈㅏㄱ	-8218
▁ㅁㅕㄴㅈㅣㄱ	-8219
▁ㅊㅗㄱㅂㅏㄹ	-8220
▁ㅊㅜㄱㅇㅣㄹ	-8221
▁ㅍㅣㄹㅇㅕㄴ	-8222
▁Aw	-8223
▁ㅇㅣㄴㅇㅟ	-8224
▁ㅍㅜㅇㄱㅣ	-8225
▁ㅎㅡㄴㄷㅡㄹ	-8226
▁ㅈㅗㅇㅇㅓㅂㅇㅝㄴ	-8227
ium	-8228
▁Song	-8229
▁ㄷㅗㅇㄱㅓ	-8230
▁ㅇㅗㄱㅅㅏ	-8231
▁ㅁㅜㄴㅈㅜㅇ	-8232
▁ㅂㅏㄱㅈㅣㄴ	-8233
able	-8234
▁Out	-8235
ㄱㅏㄹㅇㅓ	-8236
ㄹㅔㄴㅌㅡ	-8237
▁ㄲㅗㅊㅊㅏ	-8238
▁ㅂㅜㄱㅁㅏ	-8239
▁ㅎㅏㅇㅅㅐㅇ	-8240
▁Pe	-8241
▁ㅅㅠㄴ	-8242
▁8000	-8243
ㄱㅘㅇㅈㅗ	-8244
▁ㄱㅘㅇㅎㅘ	-8245
▁ㅇㅕㄹㅅㅚ	-8246
▁ㅊㅓㄹㅈㅏ	-8247
▁ㅈㅓㅇㅊㅣㄱ	-8248
▁708	-8249
ㅈㅓㅇㅈㅣ	-8250
▁ㅍㅗㅁㅍㅔ	-8251
▁ㅂㅏㄴㄱㅏㅁㄱㅣ	-8252
▁ㅅㅡㅇㅇㅛㅇㅊㅏ	-8253
▁Gl	-8254
▁ㄱㅙㄴ	-8255
▁ㄹㅔㄱㅅㅡ	-8256
▁ㄱㅡㄹㄹㅔㄴ	-8257
ㄷㅏㄴㅈㅜ	-8258
▁ㄱㅏㅇㅇㅜ	-8259
▁ㅇㅕㅇㅁㅣ	-8260
▁ㅌㅗㅇㅈㅣ	-8261
ㅈㅏㅇㄱㅕㅇ	-8262
▁ㄱㅜㄹㅂㅗㄱ	-8263
▁ㅋㅓㄴㅂㅔㄴㅅㅕㄴ	-8264
ㄱㅐㄱㄱㅣ	-8265
▁ㄷㅏㅇㅍㅏ	-8266
▁ㅂㅜㄹㄹㅗ	-8267
▁ㅈㅓㄱㅈㅓㅇ	-8268
▁VS	-8269
▁ㄷㅏㄴㅇㅑㅇ	-8270
▁ㅂㅏㄱㅇㅝㄴ	-8271
▁ㅆㅏㅇㅅㅓㅇ	-8272
▁ㅈㅓㄴㅁㅕㄹ	-8273
▁ㅈㅜㅇㅇㅛㅇ	-8274
▁ㅇㅏㄴㅊㅏㅇㅎㅗ	-8275
ㅎㅏㄱㅅㅏ	-8276
ㅈㅏㄱㅈㅓㄴ	-8277
▁ㅅㅗㄴㄴㅣㅁ	-8278
▁ㅇㅕㄴㅎㅐㅇ	-8279
▁ㅈㅣㄱㅁㅜㄹ	-8280
ng	-8281
▁"()	-8282
▁IMF	-8283
▁1840	-8284
▁ㄴㅗㅇㄱㅏ	-8285
▁ㄷㅐㄹㄹㅓ	-8286
▁ㅇㅝㄴㅎㅛ	-8287
▁ㅇㅠㄴㅎㅠ	-8288
▁ㄱㅡㅁㅎㅘㄴ	-8289
▁ㅂㅏㄴㅎㅏㅇ	-8290
▁ㅎㅚㅇㄹㅕㅇ	-8291
▁ㅇㅓㅅㄱㅏㄹㄹㅣ	-8292
▁JC	-8293
ㅂㅏㄱㅅㅏ	-8294
▁ㅇㅏㅁㅅㅜ	-8295
▁ㅈㅓㅇㅇㅔ	-8296
▁ㅊㅏㄱㅊㅟ	-8297
▁ㅊㅜㄹㅅㅔ	-8298
▁ㅁㅗㄱㅈㅓㄱㅈㅣ	-8299
▁ㄱㅗㅇㅅㅣㄱㅈㅓㄴ	-8300
▁ㅁㅐㄹ	-8301
ㅇㅕㄴㅅㅏ	-8302
ㅇㅣㅁㄱㅣ	-8303
▁ㄱㅣㅁㄷㅜ	-8304
▁ㅅㅓㅇㄷㅐ	-8305
▁ㅇㅐㄱㅌㅣ	-8306
▁ㅇㅑㅇㅍㅏ	-8307
▁ㅇㅗㄱㅌㅏ	-8308
▁ㅎㅘㅇㅍㅖ	-8309
ㄴㅕㅁㅈㅏㅇ	-8310
ㅎㅘㄹㅇㅑㄱ	-8311
▁ㅈㅓㄹㅊㅣㄴ	-8312
▁ㄱㅕㅇㅈㅐㅇㅈㅏ	-8313
▁ㄴㅏㅁㄱㅡㄱㅈㅓㅁ	-8314
▁ㅇㅕㄴㅅㅗㄱㄱㅡㄱ	-8315
itt	-8316
ㄹㅔㄴㅈㅡ	-8317
ㅇㅣㄹㅊㅣ	-8318
▁ㄷㅗㅇㅎㅗ	-8319
▁ㅅㅓㅇㄱㅛ	-8320
▁ㅁㅣㅅ	-8321
ㄷㅓㄴㅌㅡ	-8322
ㄹㅗㄱㄷㅐ	-8323
ㅇㅠㄱㅎㅏㄱ	-8324
▁ㅂㅣㄴㅁㅣㄴ	-8325
▁ㅈㅓㅇㅂㅏㄱ	-8326
▁ㅁㅐㅇㅎㅘㄹㅇㅑㄱ	-8327
ㅅㅑㄴ	-8328
▁ㅂㅐㅅ	-8329
▁ㅇㅗㄴㅅㅣㄹ	-8330
▁ㅎㅏㅇㄱㅗㅇㄷㅐ	-8331
▁AI	-8332
ㅁㅜㄴㅅㅏ	-8333
ㅇㅏㄹㄹㅏ	-8334
ㅊㅓㅇㅅㅏ	-8335
▁ㅊㅓㅇㅊㅟ	-8336
▁ㄱㅡㄱㅊㅏㄴ	-8337
▁ㄱㅘㅇㄷㅜㅇㅅㅓㅇ	-8338
ale	-8339
▁PL	-8340
▁ㄱㅣㅂ	-8341
ㄹㅗㄴㄱㅏ	-8342
▁ㅂㅕㄴㅁㅗ	-8343
▁ㅅㅐㅇㅈㅟ	-8344
▁ㄱㅕㅁㅈㅣㄱ	-8345
▁ㅅㅏㅇㅅㅓㄴ	-8346
▁ㅅㅣㄴㅅㅓㄱㄱㅣ	-8347
▁ATC	-8348
ㅎㅐㅇㅍㅏ	-8349
▁ㅅㅓㄹㄹㅣ	-8350
ㅍㅣㅇㅁㅗㄹ	-8351
▁ㅇㅕㄴㄷㅏㄹ	-8352
▁ㅋㅗㄹㄹㅣㄴ	-8353
▁ㅈㅓㄱㅅㅣㅂㅈㅏ	-8354
▁Par	-8355
▁1875	-8356
ㄷㅏㅅㅁㅜㄹ	-8357
▁ㅂㅗㄹㄴㅔㅅ	-8358
▁ㅎㅗㄴㅈㅏㅂ	-8359
▁ㄱㅘㄴㅇㅡㅁㅂㅗ	-8360
▁ㅎㅏㅂㅅㅓㅇㅇㅓ	-8361
▁ㅎㅕㅇㅇㅛㅇㅅㅏ	-8362
son	-8363
ㅂㅌㅏ	-8364
▁ㅅㅣㄴㅎㅐ	-8365
▁ㅈㅣㅂㅇㅓ	-8366
▁ㅎㅏㄹㄹㅗ	-8367
ㅋㅡㄹㄹㅗㄴ	-8368
ㅍㅕㅇㅁㅕㄴ	-8369
▁ㄱㅝㄴㅇㅣㄱ	-8370
▁ㅇㅣㄹㅅㅓㄴ	-8371
▁ㅈㅓㅁㅈㅣㄴ	-8372
▁Gen	-8373
▁ㅆㅓㄱ	-8374
ㄴㅏㄹㄷㅡ	-8375
ㅍㅡㄹㄹㅜ	-8376
▁ㅈㅏㄴㅎㅐ	-8377
▁ㅂㅔㅇㄱㅗㄹ	-8378
▁ㅇㅗㄹㄹㅣㅁ	-8379
▁ㅇㅣㅁㅈㅗㅇ	-8380
▁ㅊㅜㄹㄱㅜㄱ	-8381
so	-8382
ㅇㅑㅇㄱㅜ	-8383
ㅇㅕㅂㅅㅜ	-8384
ㅇㅡㄴㅅㅏ	-8385
ㅊㅏㄴㅅㅓㅇ	-8386
ㅊㅓㄹㅇㅕㄱ	-8387
▁University	-8388
ㅅㅑㅇ	-8389
ㅂㅏㄴㅅㅜ	-8390
▁ㄹㅏㄴㅌㅡ	-8391
▁ㅇㅕㅇㅅㅜ	-8392
▁ㅇㅛㅇㅈㅣ	-8393
▁ㅁㅗㄱㅈㅏㅇ	-8394
▁ㅂㅗㄹㄹㅗㄱ	-8395
▁ㅅㅓㄴㅅㅏㅇ	-8396
▁ㅇㅏㄴㅈㅜㅇ	-8397
▁Vol	-8398
▁ㄴㅏㄺ	-8399
ㅈㅣㄹㅎㅏㄱ	-8400
ㅌㅔㄴㅅㅕㄹ	-8401
ㅎㅏㄹㄹㅣㄴ	-8402
▁ㄷㅏㄹㅋㅗㅁ	-8403
▁ㄷㅗㄱㅅㅏㄹ	-8404
▁ㅁㅜㄴㅅㅜ	-8405
▁ㅎㅟㅂㅆㅏ	-8406
▁ㅎㅏㅁㄱㅕㅇㄷㅗ	-8407
▁ㅊㅑ	-8408
ㄷㅔㄹㄹㅣ	-8409
▁ㄱㅗㅇㅅㅏㅇ	-8410
▁ㅇㅑㅇㅍㅕㅇ	-8411
▁ㅇㅏㄹㄹㅔㄱㅅㅔ	-8412
▁ㅊㅣㄴㅎㅘㄴㄱㅕㅇ	-8413
▁ㅌㅡㄱㅂㅕㄹㅂㅓㅂ	-8414
▁TS	-8415
ㄱㅗㄷ	-8416
ㄹㅗㄴㅌㅡ	-8417
▁ㅂㅔㄴㅊㅡ	-8418
▁ㅎㅐㅇㅎㅐ	-8419
▁ㅎㅕㄴㅇㅏㄱ	-8420
▁At	-8421
▁NBC	-8422
▁ㄱㅣㄹㄷㅡ	-8423
▁ㅁㅏㅅㅂㅗ	-8424
▁ㄷㅡㅇㅅㅏㄴ	-8425
▁ㅊㅜㄹㅍㅜㅁ	-8426
▁205	-8427
▁ㅂㅔㅅ	-8428
ㄴㅏㄹㄹㅔ	-8429
▁ㅂㅐㄱㅈㅗ	-8430
▁ㅅㅏㅇㄱㅖ	-8431
▁ㅇㅕㄹㄱㅣ	-8432
ㅂㅏㅇㅎㅑㅇ	-8433
ㅁㅠㅁ	-8434
ㅍㅔㄱ	-8435
▁380	-8436
ㄴㅓㄴㅌㅡ	-8437
▁ㅇㅝㄴㄷㅏㄴ	-8438
ㅍㅡㄹㄹㅣㄱㅅㅡ	-8439
▁ㅅㅓㅇㅍㅗㄱㅎㅐㅇ	-8440
▁ㅈㅜㅇㅇㅏㅇㅅㅓㄴ	-8441
▁ㄴㅔㅅㅍㅡㄹㄹㅣㄱㅅㅡ	-8442
yn	-8443
ala	-8444
ㅇㅔㄴㅈㅏ	-8445
ㅇㅜㄴㅅㅜ	-8446
▁ㄱㅡㄱㅅㅗ	-8447
▁ㅇㅔㄴㅈㅔㄹ	-8448
▁ㅌㅗㅇㅅㅣㄴㅁㅏㅇ	-8449
BI	-8450
▁DOS	-8451
▁ㅂㅏㅅ	-8452
ㅂㅓㄹㄹㅣ	-8453
ㅇㅣㄹㄱㅣ	-8454
ㅊㅓㄹㅅㅜ	-8455
▁ㄱㅜㄱㅅㅔ	-8456
▁ㅈㅗㅇㄱㅏ	-8457
▁ㅋㅗㄴㅍㅓ	-8458
very	-8459
▁KTX	-8460
▁ㄴㅜㄹ	-8461
▁name	-8462
ㅈㅣㅇㅇㅓ	-8463
▁ㅋㅓㅂㅅㅡ	-8464
▁ㄱㅕㅇㅅㅜㄴ	-8465
▁ㄷㅗㅇㅂㅐㄱ	-8466
18	-8467
▁235	-8468
ㄹㅏㄴㄷㅏ	-8469
ㄴㅏㅁㅁㅕㄴ	-8470
▁ㅂㅕㅇㄹㅕㄹ	-8471
▁ㅈㅏㅇㄱㅏㅂㅊㅏ	-8472
▁WC	-8473
▁tvN	-8474
ㄴㄷㅏㄴ	-8475
ㅋㅓㄹㄹㅔ	-8476
▁ㅊㅏㅇㄱㅜ	-8477
▁ㅌㅏㄴㄷㅜ	-8478
▁ㅂㅏㅇㅇㅜㄹ	-8479
▁GR	-8480
▁ㅂㅏㅇㅎㅗ	-8481
▁ㅇㅣㅇㅇㅕ	-8482
co	-8483
ㄹㅔㄴㄷㅡ	-8484
ㅇㅣㄴㅈㅜ	-8485
▁ㄱㅏㅇㅅㅡㅂ	-8486
▁ㄱㅏㅇㅇㅣㄴ	-8487
▁APG	-8488
▁ㅇㅝㄹㄹㅣ	-8489
ㅁㅗㅇㄱㅗㄹ	-8490
▁ㅇㅕㅇㄹㅏㄱ	-8491
▁ㅇㅣㄹㅁㅕㅇ	-8492
ㄱㅓㄴㅅㅓㄹ	-8493
▁ㅎㅘㄴㅇㅠㄹ	-8494
ax	-8495
oid	-8496
▁ㅇㅏㄹㄹㅗ	-8497
ㅇㅛㅇㄹㅑㅇ	-8498
▁ㄴㅏㅁㄷㅏㄴ	-8499
▁ㅅㅓㄴㅇㅠㄹ	-8500
22	-8501
ㅇㅕㄴㄱㅜ	-8502
ㅎㅏㄱㅅㅏㅇ	-8503
IVE	-8504
▁ㄱㅜㄱㄹㅕㄱ	-8505
▁ㅁㅕㅇㅇㅣㄴ	-8506
▁ㅇㅝㄹㄴㅏㅁ	-8507
▁ㅇㅏㄴㅇㅑㅇㅅㅣ	-8508
▁ㅍㅏㄹㄲㅜㅁㅊㅣ	-8509
ㅁㅜㄹㄹㅣ	-8510
▁ㅁㅜㄴㅊㅔ	-8511
ㄱㅏㄱㅅㅏㅇ	-8512
▁ㅈㅓㅇㄱㅡㄹ	-8513
▁ㅊㅣㅁㅅㅣㄱ	-8514
ㄹㅏㄴㄷㅔㄴㅂㅜ	-8515
▁ㅌㅓㅇ	-8516
▁ㅅㅓㄱㄱㅣ	-8517
▁ㅈㅓㄱㅅㅣ	-8518
ㅈㅏㄱㅈㅣㄴ	-8519
▁ㄱㅘㄴㄷㅗㅇ	-8520
▁ㅎㅐㅇㄱㅜㄴ	-8521
▁ㄹㅝ	-8522
▁ㅊㅏㅁㅍㅐ	-8523
▁ㅅㅏㅇㅂㅏㄴㄱㅣ	-8524
ATO	-8525
▁us	-8526
▁ㄴㅏㅊ	-8527
▁ㅌㅐㅂ	-8528
ㅈㅓㄴㄷㅗ	-8529
ㅎㅕㄴㅈㅜ	-8530
▁ㅇㅡㄴㅁㅣㄹ	-8531
▁ㅈㅣㅂㅈㅓㄴ	-8532
▁ㄷㅗㅇㄴㅏㅁㅉㅗㄱ	-8533
ㅂㅕㄴㅅㅜ	-8534
▁ㅅㅏㄹㄹㅔ	-8535
▁ㅅㅣㄹㅅㅏ	-8536
▁ㅊㅓㄴㄹㅣ	-8537
ㄷㅗㅇㅇㅝㄴ	-8538
▁ㅅㅣㄹㅁㅕㅇ	-8539
ㄱㅕㄱㅈㅡㅇ	-8540
ㅅㅓㄴㅇㅓㄴ	-8541
ㅇㅏㄱㅅㅏㄴ	-8542
ㅎㅘㅇㅅㅐㄱ	-8543
▁ㄴㅗㅇㅅㅓㅇ	-8544
▁ㅁㅣㄴㅅㅣㅁ	-8545
▁ㅊㅣㄹㅅㅓㅇ	-8546
▁ㅎㅗㅇㅇㅣㄱ	-8547
▁ㄱㅗㅇㅎㅏㄱㅈㅏ	-8548
▁ㅎㅏㄱㅅㅜㄹㅈㅣ	-8549
ㅅㅓㄴㄱㅗㅇㅅㅏㄴㄷㅏㅇ	-8550
EEE	-8551
▁sp	-8552
▁ㅅㅖㄴ	-8553
▁ㄱㅕㅇㅎㅘ	-8554
▁ㅅㅣㅀㅇㅓ	-8555
ㅎㅏㅇㅈㅓㄴ	-8556
▁ㅁㅜㄴㄱㅘㄴ	-8557
▁ㅇㅜㄴㅈㅓㄴㅈㅏ	-8558
ㅌㅔㄹㅅㅡ	-8559
▁ㄷㅏㄴㅅㅓ	-8560
▁ㅂㅣㄹㅂㅏ	-8561
▁ㅈㅏㅁㅂㅣ	-8562
▁ㅊㅓㅂㅂㅗ	-8563
ㅋㅡㄴㄹㅗㄹ	-8564
▁ㅈㅜㅇㄴㅏㅁ	-8565
ㅇㅓㅋ	-8566
▁ㅂㅓㅇ	-8567
▁ㅂㅓㅈ	-8568
▁ㄴㅡㅇㄱㅏ	-8569
▁ㅈㅔㄹㄹㅣ	-8570
▁ㅎㅏㄴㅁㅣㄴ	-8571
▁ㄷㅏㅁㄷㅏㅇㅈㅏ	-8572
▁KS	-8573
▁1874	-8574
▁ㅊㅣㄴㅎㅘ	-8575
▁ㅌㅏㄹㅅㅜ	-8576
ㅇㅠㄱㄱㅏㅁ	-8577
▁ㅇㅣㄴㅅㅡㅇ	-8578
▁ㄱㅙㄴㅊㅏㄶ	-8579
▁ㅂㅏㄴㄹㅗㄴ	-8580
▁ㅈㅣㄱㄹㅕㄹ	-8581
▁ㅋㅏㄹㄹㅠㅁ	-8582
▁ㅅㅗㅇㅇㅣ	-8583
▁ㅇㅘㅇㄹㅐ	-8584
▁ㅋㅐㅁㅂㅔㄹ	-8585
ㅈㅣㅈ	-8586
ㅌㅜㄹ	-8587
ㅇㅕㄹㄷㅐ	-8588
ㅎㅕㅇㅈㅔ	-8589
▁ㄱㅏㅁㄱㅣ	-8590
▁ㅅㅜㄱㅅㅗ	-8591
▁ㅇㅏㄴㅈㅜ	-8592
▁ㄱㅕㅇㅈㅗㅇ	-8593
▁ㅅㅏㅇㅅㅣㄱ	-8594
▁ㅇㅏㄱㅁㅕㅇ	-8595
▁ㅇㅣㄴㅁㅓㄴ	-8596
▁ㅈㅜㅇㅇㅣㄹ	-8597
PA	-8598
▁KO	-8599
▁204	-8600
▁This	-8601
▁ㅉㅗㅊㄱㅣ	-8602
▁ㄹㅗㄹㄹㅓ	-8603
▁ㅇㅣㄹㅈㅜ	-8604
▁ㅈㅓㄴㅈㅗ	-8605
▁ㅈㅡㄹㄱㅓ	-8606
▁ㅁㅕㅇㅅㅏㅇ	-8607
▁ㅅㅜㄱㄹㅕㄴ	-8608
15	-8609
ㄴㅖ	-8610
▁IEEE	-8611
▁ㅋㅓㄴㅍㅓ	-8612
▁ㅌㅏㄴㅅㅜ	-8613
▁ㅇㅡㅂㅅㅓㅇ	-8614
▁ㅈㅜㅇㄱㅕㄴ	-8615
▁ㅈㅣㅇㅈㅣㅂ	-8616
▁ㅎㅏㄱㄷㅏㅇ	-8617
▁ㅎㅐㄱㅌㅏㄴㄷㅜ	-8618
▁^	-8619
▁ㄷㅡㄹㄹㅡ	-8620
▁ㅈㅜㅇㄱㅓ	-8621
▁ㄱㅓㄹㅇㅡㅁ	-8622
▁ㄱㅗㄴㅅㅏㄹ	-8623
▁ㅅㅏㄴㄴㅏㅁ	-8624
▁ㅎㅏㅇㄱㅗㅇㅍㅕㄴ	-8625
14	-8626
GB	-8627
▁ㅂㅣㄹㄷㅡ	-8628
▁ㅇㅣㄹㅊㅏ	-8629
▁ㅈㅓㅂㅁㅣ	-8630
▁ㅇㅏㄴㅅㅣㄱ	-8631
▁ㅈㅓㄹㅊㅜㅇ	-8632
▁ㅇㅣㄴㅍㅡㄹㄹㅜ	-8633
▁ㅈㅣㅂㄷㅏㄴㄱㅜㄴ	-8634
ash	-8635
ㅇㅜㄹㄹㅗ	-8636
▁ㅈㅓㅂㄷㅜ	-8637
▁ㅍㅜㄹㅂㅐㄱ	-8638
▁ㅍㅜㅁㅁㅗㄱ	-8639
▁et	-8640
▁ㅅㅓㄴㄱㅘ	-8641
▁ㅈㅓㅇㅇㅗ	-8642
ㄱㅝㄴㅂㅓㅂ	-8643
▁ㄱㅣㅁㅇㅕㄴ	-8644
▁ㅈㅜㅇㄱㅓㄴ	-8645
▁ㅊㅏㄱㄱㅏㄱ	-8646
▁ㅎㅘㄴㅅㅡㅇㅇㅕㄱ	-8647
▁Best	-8648
ㄹㅗㄹㄹㅣ	-8649
▁ㅈㅔㄴㄷㅓ	-8650
▁ㅇㅑㅇㅊㅓㄴ	-8651
▁ㅈㅓㅇㅅㅡㅇ	-8652
▁ㄱㅏㅇㄹㅕㄱㅎㅣ	-8653
ps	-8654
▁ㅇㅑㅇㅅㅓ	-8655
ㅈㅓㄱㅈㅓㄹ	-8656
▁ㅅㅓㅇㅎㅐㅇ	-8657
▁ㅇㅕㄹㅇㅕㄱㅎㅏㄱ	-8658
HL	-8659
ㅁㅜㅁ	-8660
▁ㅁㅕㄱ	-8661
▁ㄱㅕㅇㄴㅐ	-8662
▁ㅅㅓㄴㅊㅔ	-8663
▁ㅈㅣㄹㄹㅣ	-8664
▁ㅊㅜㄹㅅㅏ	-8665
ㅅㅏㅇㅎㅏㄱ	-8666
▁ㅅㅏㅇㄱㅏㅁ	-8667
▁ㅇㅏㄴㅌㅗㄴ	-8668
ict	-8669
ㅁㅔㄱㅅㅣ	-8670
▁ㅊㅏㅁㅈㅓㄴㅎㅏ	-8671
▁ㅋㅓㄴㅅㅓㄹㅌㅣㅇ	-8672
ㄱㅏㄱㄱㅏ	-8673
▁ㅅㅏㅁㄱㅓ	-8674
ㅍㅕㅇㅅㅓㄴ	-8675
▁ㄱㅗㄹㅈㅓㄹ	-8676
▁ㅂㅗㄴㅈㅗㄴ	-8677
▁ㅅㅏㄱㄱㅏㅁ	-8678
VA	-8679
▁se	-8680
ㅅㅓㄱㅁㅛ	-8681
ㅅㅣㄴㅈㅓ	-8682
▁ㄱㅘㄴㅇㅏ	-8683
▁ㅋㅏㄹㄷㅔ	-8684
▁ㅂㅕㄴㅈㅡㅇ	-8685
▁ㅅㅜㄱㅂㅏㄱ	-8686
▁ㅇㅣㄹㄱㅏㄴ	-8687
▁ㅈㅓㅇㅇㅕㄱ	-8688
▁ㅎㅕㅂㄱㅗㄱ	-8689
▁ad	-8690
ㅎㅚㅇ	-8691
▁ㄹㅐㄴㄷㅓ	-8692
▁ㅅㅏㄴㅈㅗ	-8693
▁ㅇㅝㄴㅅㅏ	-8694
au	-8695
ㅈㅓㅇㄷㅐ	-8696
▁ㅈㅣㅂㅅㅏ	-8697
ㅅㅣㄴㅈㅓㅇ	-8698
ㄹㅖㄴ	-8699
▁Bab	-8700
ㅈㅣㅂㄱㅏ	-8701
ㄴㅡㄴㅈㅓㅁ	-8702
ㅅㅏㅁㅁㅜㄴ	-8703
ㅇㅝㄴㄱㅡㅁ	-8704
▁ㄱㅜㄴㅂㅗㄱ	-8705
▁ㄷㅏㄴㅂㅏㄹ	-8706
▁ㅅㅣㄹㅇㅡㄴ	-8707
▁7000	-8708
▁Hell	-8709
▁ㅇㅏㄴㅍㅏ	-8710
▁ㅋㅟㄴㅅㅡ	-8711
ㅊㅘㄴㅅㅓㅇ	-8712
▁ㄷㅏㅁㅇㅑㅇ	-8713
▁AF	-8714
ㅋㅗㅂㅅㅡ	-8715
▁ㅇㅏㅇㄷㅡ	-8716
▁ㅍㅏㄴㄷㅗ	-8717
ㅇㅘㄴㅇㅛㅇ	-8718
▁ㅁㅕㅇㅇㅘㅇ	-8719
▁ㄱㅘㄴㅅㅣㅁㅅㅏ	-8720
▁ㅅㅜㄴㅊㅓㄴㅅㅣ	-8721
ody	-8722
ose	-8723
▁ㅅㅗㅁㅆㅣ	-8724
▁ㅇㅣㅇㅋㅏ	-8725
▁ㅎㅐㅇㅂㅗ	-8726
ㄹㅣㅇㄱㅔㄴ	-8727
ㅇㅔㄴㄱㅜㄴ	-8728
▁ㅁㅏㄱㄱㅏㅇ	-8729
▁ㅎㅐㅇㅅㅓㄴ	-8730
anc	-8731
▁1877	-8732
▁ㅅㅏㄴㅊㅔ	-8733
▁ㅍㅣㄹㄹㅗ	-8734
▁ㅈㅏㅁㅇㅣㅂ	-8735
▁ㅊㅜㄹㅈㅏㅇㅅㅗ	-8736
me	-8737
ail	-8738
▁ㅇㅕㅁㄷㅜ	-8739
▁ㅋㅝㄹ	-8740
▁ㄱㅏㄹㄹㅔ	-8741
▁ㄱㅕㅇㅇㅢ	-8742
▁ㄲㅡㄹㄹㅣ	-8743
ㅁㅜㄹㅅㅓㄴ	-8744
▁ㅁㅜㄴㅁㅐㄱ	-8745
▁ㅅㅏㄴㅅㅜㄹ	-8746
▁ㅈㅗㄱㅈㅏㅇ	-8747
▁ㅈㅣㄴㅊㅓㄴ	-8748
▁ㅌㅡㄱㅁㅕㅇ	-8749
▁ㅋㅗㄹㄹㅓㅁㅂㅓ	-8750
▁SR	-8751
▁as	-8752
▁ㄹㅏㅅ	-8753
▁ㄱㅡㅁㅎㅏ	-8754
▁ㅂㅗㄱㅂㅜ	-8755
▁ㅊㅜㄱㅂㅗㄱ	-8756
reak	-8757
▁ㅁㅐㅁ	-8758
ㄴㅣㄴㄱㅡ	-8759
▁ㅁㅏㅈㅂㅐ	-8760
▁ㅂㅏㄱㅈㅐ	-8761
ㅂㅐㄱㅁㅏㄴ	-8762
▁ㄱㅕㄹㅈㅓㄴ	-8763
▁ㄴㅏㄴㅈㅐㅇㅇㅣ	-8764
▁ㅋㅗㄹㄹㅣㄴㅅㅡ	-8765
59	-8766
▁ㅅㅣㅅ	-8767
ㅅㅏㅇㅈㅜ	-8768
▁ㅎㅑㅇㅅㅣㄴㄹㅛ	-8769
TF	-8770
de	-8771
net	-8772
ㅇㅡㄱ	-8773
▁209	-8774
ㄱㅕㄱㄷㅐ	-8775
▁ㅅㅏㄴㅈㅐ	-8776
▁ㅅㅣㄹㅎㅛ	-8777
▁ㅎㅏㄴㄱㅕ	-8778
▁ㅂㅏㄴㄱㅗㅇ	-8779
▁ㅅㅏㅇㅎㅏㄴ	-8780
▁ㅅㅜㄱㅁㅕㅇ	-8781
▁FF	-8782
▁SO	-8783
▁ㄱㅏㅇㅈㅘ	-8784
▁ㅁㅏㄱㅇㅏ	-8785
▁ㅇㅘㄴㅈㅏㅇ	-8786
oo	-8787
▁ㅈㅐㅁ	-8788
ㄴㅗㅍㅇㅣ	-8789
▁ㅂㅕㅇㄹㅣ	-8790
▁ㅈㅏㄴㅇㅕ	-8791
▁ㅁㅕㅇㄹㅠㄴ	-8792
▁ㅅㅣㄴㅂㅕㅇ	-8793
▁ㅈㅓㅂㅈㅓㄴ	-8794
▁ㅌㅡㄱㄱㅗㅇ	-8795
▁ㅎㅏㄴㅂㅗㄱ	-8796
ㅅㅠㄹ	-8797
ㄱㅘㄴㅅㅏ	-8798
ㅈㅣㄴㅂㅗ	-8799
▁ㅇㅏㅍㄷㅟ	-8800
▁ㄱㅠㄴㅇㅣㄹ	-8801
▁ㅇㅘㅇㅁㅕㅇ	-8802
ㅅㅣㄱㅅㅡ	-8803
▁ㅂㅜㄹㅋㅙ	-8804
▁ㅂㅗㄱㅅㅗㄱ	-8805
▁ㅇㅑㅇㄱㅡㄱ	-8806
▁ㅌㅗㅇㅅㅗㄹ	-8807
uck	-8808
ㅇㅛㄴ	-8809
ㅂㅣㄴㅅㅡ	-8810
ㅋㅣㄹㄹㅔ	-8811
▁ㅈㅣㄹㅌㅜ	-8812
▁ㅍㅗㄹㄹㅗ	-8813
▁ㅁㅕㄴㄷㅏㅁ	-8814
▁ㅂㅏㅇㅎㅏㄱ	-8815
▁ㅇㅏㄴㅅㅣㅁ	-8816
13	-8817
▁ㅅㅑㅅ	-8818
ㄱㅗㅇㅈㅏ	-8819
▁ㅁㅔㄹㄹㅣ	-8820
▁ㅈㅏㅇㅈㅣ	-8821
▁ㅂㅣㄴㅅㅔㄴㅌㅡ	-8822
▁1859	-8823
▁Super	-8824
▁ㅅㅡㄹㄹㅓ	-8825
▁ㅇㅐㄹㄹㅏ	-8826
▁ㅂㅐㄱㅇㅜㄴ	-8827
▁ㅇㅏㄴㅍㅏㄲ	-8828
▁my	-8829
▁Her	-8830
▁ㅇㅝㅁ	-8831
▁ㅂㅏㄹㅈㅏㄱ	-8832
▁ㅍㅔㅇㄱㅟㄴ	-8833
▁ㅇㅏㄹㄹㅔㄱㅅㅏㄴㄷㅔ	-8834
▁206	-8835
▁ICBM	-8836
ㄹㅣㄴㅌㅓ	-8837
▁ㅂㅏㄱㅎㅣ	-8838
▁ㅂㅐㄹㅂㅡ	-8839
▁ㅈㅣㄴㅇㅟ	-8840
▁ㅁㅜㄴㅁㅜㄹ	-8841
▁ㅂㅏㄱㅇㅛㅇ	-8842
▁ㅂㅐㄱㅎㅕㄹ	-8843
▁ㅁㅣㄴㅇㅢ	-8844
▁ㅇㅏㄱㄷㅏㅇ	-8845
▁ㅇㅝㄴㅁㅜㄴ	-8846
▁ㄱㅑ	-8847
▁Sun	-8848
ㅇㅘㄴㄷㅏ	-8849
▁ㅇㅓㄹㄹㅏ	-8850
▁ㅇㅣㄴㄱㅖ	-8851
▁ㅎㅘㄹㄱㅣ	-8852
▁ㅂㅕㄴㅎㅕㄱ	-8853
▁ㅇㅣㄴㅅㅓㅇ	-8854
▁ㅈㅏㅇㄱㅕㅇ	-8855
ㅍㅏㄱ	-8856
▁518	-8857
▁CIA	-8858
▁1700	-8859
▁ㅁㅗㅂㅅㅣ	-8860
▁ㅂㅔㄹㄹㅗ	-8861
▁ㅃㅏㄹㄱㅏㅇ	-8862
▁ㅈㅏㄴㅎㅗㄱ	-8863
▁ㅊㅜㄹㄱㅕㄱ	-8864
▁ㄱㅓㄴㄱㅜㄱㅎㅜㄴㅈㅏㅇ	-8865
ㅋㅐㄴ	-8866
▁ㄱㅏㅁㅊㅜㄱ	-8867
▁ㅅㅓㄴㄷㅏㄴ	-8868
▁ㅅㅡㅇㄹㅠㄹ	-8869
▁ㅇㅕㄹㅇㅏㄱ	-8870
▁ㅋㅜㅁ	-8871
ㄱㅘㅇㅅㅏ	-8872
ㅅㅏㄴㄱㅣ	-8873
ㅅㅣㄱㅈㅏ	-8874
▁ㄷㅏㄱㅊㅣ	-8875
▁ㅅㅗㄱㅊㅗ	-8876
▁ㅈㅓㄴㅅㅓ	-8877
ㅈㅓㅇㄴㅏㄴ	-8878
▁ㄱㅗㄱㅅㅣㄱ	-8879
▁ㅂㅕㅇㄷㅏㄴ	-8880
▁ㅈㅓㅇㅊㅓㅇ	-8881
▁ㅈㅜㄹㄱㅗㄷ	-8882
▁ㅊㅣㅁㅂㅓㅁ	-8883
EA	-8884
ㅇㅝㄴㄱㅜ	-8885
▁ㄹㅔㄴㄷㅓ	-8886
▁ㅁㅗㄹㅅㅜ	-8887
▁ㅅㅏㄴㄹㅣ	-8888
▁ㅅㅏㄴㅌㅜ	-8889
▁ㅉㅏㄱㅅㅜ	-8890
▁ㄱㅓㄴㄹㅠㅇㅈㅔ	-8891
TR	-8892
▁cc	-8893
▁310	-8894
▁340	-8895
▁ㅎㅗㄹㅅㅜ	-8896
▁ㅊㅜㄹㅍㅏㄴㅁㅜㄹ	-8897
▁"|	-8898
▁ㅍㅟ	-8899
ㄹㅡㅂ	-8900
▁Star	-8901
ㅅㅣㄹㅈㅜ	-8902
▁print	-8903
▁ㅂㅗㄴㅎㅚ	-8904
▁ㅇㅡㄴㅍㅖ	-8905
▁ㅎㅏㄹㄱㅜ	-8906
▁ㅎㅚㄱㄱㅣ	-8907
▁ㄷㅗㅇㄱㅜㄴ	-8908
▁ㅅㅔㄱㅅㅕㄴ	-8909
▁ㅇㅠㄹㅂㅓㅂ	-8910
▁ㅈㅓㄴㅂㅗㅇ	-8911
▁ㅊㅓㄴㅅㅏㅇ	-8912
▁ㅍㅏㄴㅁㅕㅇ	-8913
▁ㅎㅏㅁㅈㅏㅇ	-8914
▁ㅎㅗㄴㅎㅏㅂㅁㅜㄹ	-8915
OK	-8916
▁you	-8917
▁ㅎㅑㅇㅅㅜ	-8918
▁ㅈㅓㅇㅅㅣㄹ	-8919
▁ㅍㅕㅇㅂㅏㅇ	-8920
▁ㅇㅡㅁㅅㅣㄱㅈㅓㅁ	-8921
▁Kn	-8922
▁App	-8923
▁des	-8924
ㅂㅜㄴㅈㅏ	-8925
ㅈㅓㅇㅈㅔ	-8926
▁ㄱㅗㄷㅇㅣ	-8927
▁ㅂㅓㅂㄱㅠ	-8928
ㅅㅓㅇㅁㅕㄴ	-8929
▁public	-8930
▁ㅇㅘㅇㄷㅏㅇ	-8931
vel	-8932
ㅇㅜㄹㅇㅓ	-8933
▁ㅅㅓㅇㅈㅗ	-8934
ㅇㅜㄴㅎㅕㅇ	-8935
▁ㄱㅕㅇㅇㅝㄴ	-8936
▁ㅈㅏㅇㅈㅓㅇ	-8937
▁ㅈㅓㅇㅇㅓㄴ	-8938
▁625	-8939
ㅂㅓㅁㅈㅚ	-8940
ㅅㅓㄴㄱㅛ	-8941
ㅅㅓㅇㄴㅕㄴ	-8942
▁ㅂㅜㄱㅇㅣㄴ	-8943
▁ㅋㅗㄹㄹㅗㄴ	-8944
▁ㅌㅔㅁㅍㅡㄹ	-8945
▁ㅎㅔㄹㅅㅡ	-8946
▁ㄱㅘㄴㄱㅜㄴ	-8947
▁ㅁㅣㄴㅇㅝㄴ	-8948
▁ㅅㅗㄴㅁㅗㄱ	-8949
▁ㅅㅜㄴㅅㅣㄱ	-8950
▁ㅎㅘㄱㅊㅜㅇ	-8951
ㄷㅡㄹㄹㅐㄴㄷㅡ	-8952
▁ㅅㅗㅇㅈㅣㄴㅇㅜ	-8953
▁Soul	-8954
ㅇㅓㅂㅊㅔ	-8955
▁ㅅㅔㄴㅌㅏ	-8956
▁ㅎㅏㄹㄹㅔ	-8957
▁ㄴㅗㄴㅈㅡㅇ	-8958
▁ㅂㅏㄱㅊㅏㄴ	-8959
▁ㅂㅜㄱㅊㅡㄱ	-8960
▁ㅇㅣㄹㅅㅏㅁ	-8961
▁ㅇㅣㅁㅅㅣㄹ	-8962
▁ㅋㅓㄹㄹㅣㅇ	-8963
▁ㅅㅏㄴㅇㅣㄴ	-8964
▁ㅅㅗㄱㄱㅜㄱ	-8965
▁ㅊㅗㅇㄱㅏㅁ	-8966
▁po	-8967
ㄹㅣㅅㅈㅣ	-8968
ㅇㅕㄴㅈㅜ	-8969
ㅊㅏㅁㅊㅏㄴ	-8970
▁ㅈㅣㅂㅈㅓㄱ	-8971
▁ㅅㅣㄹㄹㅣㄴㄷㅓ	-8972
ute	-8973
▁ON	-8974
▁1879	-8975
ㅂㅏㅇㅅㅡ	-8976
▁ㄱㅣㅁㅈㅜ	-8977
▁ㅅㅜㄴㅊㅏㄹ	-8978
HC	-8979
▁ㅂㅗㄹㄷㅡ	-8980
▁ㅇㅜㄹㄹㅜ	-8981
▁ㅂㅏㄹㄱㅘㅇ	-8982
▁ㅇㅏㄹㄹㅔㄱㅅㅣ	-8983
▁AE	-8984
▁HP	-8985
▁ㄲㅘㅇ	-8986
▁ㄸㅏㅁ	-8987
▁ㄱㅓㄴㅈㅣ	-8988
▁ㄱㅜㅇㅈㅜ	-8989
▁ㄱㅡㄴㅅㅔ	-8990
▁ㄱㅣㅁㄷㅗ	-8991
▁Christ	-8992
▁ㄱㅕㄱㅈㅓㄴ	-8993
▁ㄱㅣㅁㄷㅓㄱ	-8994
▁ㅇㅕㅇㅈㅗㅇ	-8995
▁ㅁㅏㄴㅈㅏㅇㅇㅣㄹㅊㅣ	-8996
▁IF	-8997
ㅋㅗㄹㄹㅗ	-8998
▁ㄱㅣㄹㄱㅓ	-8999
▁ㄲㅏㄹㄹㅣ	-9000
▁ㄱㅕㄹㅁㅏㄹ	-9001
▁ㄱㅗㅇㅂㅕㅇ	-9002
▁ㄱㅡㅁㅊㅓㄴ	-9003
▁ㅅㅏㄴㅁㅜㄴ	-9004
▁ㅈㅓㄴㅂㅓㅁ	-9005
ㅅㅗㄱㅊㅓㄹㄷㅗ	-9006
▁ㅇㅝㄴㅈㅗㅇㄱㅗㅇㅅㅣㄴ	-9007
gh	-9008
ㅂㅣㄱ	-9009
ㄱㅓㄴㅂㅜ	-9010
ㅅㅠㄹㄹㅣ	-9011
▁ㅂㅏㄹㅌㅓ	-9012
▁ㅇㅓㅁㅈㅣ	-9013
▁ㅇㅕㄹㅅㅔ	-9014
▁Record	-9015
▁ㅂㅏㄹㅈㅣㄴ	-9016
▁ㅊㅜㄱㅈㅓㄴ	-9017
ㅃㅐ	-9018
▁Tw	-9019
ㄴㄷㅐ	-9020
ogle	-9021
ㄹㅗㅂㅅㅡ	-9022
ㅂㅜㄴㅌㅜ	-9023
▁ㄹㅗㄱㅎㅣ	-9024
▁ㅅㅣㄹㅂㅔ	-9025
▁ㅍㅣㄹㄱㅣ	-9026
ㅂㅣㄹㄹㅗㄴ	-9027
▁ㅂㅏㄴㅇㅣㅂ	-9028
▁ㅅㅏㅇㅅㅓㄹ	-9029
▁Mi	-9030
ㅍㅜㄴ	-9031
▁ㅌㅐㅁ	-9032
▁ㄱㅘㄴㅇㅟ	-9033
▁ㄱㅝㄴㅌㅜ	-9034
▁ㅇㅕㅇㄷㅗ	-9035
▁ㅈㅓㅁㅌㅗ	-9036
▁ㄱㅣㅁㅎㅏㄱ	-9037
▁ㅈㅏㅇㄱㅏㅇ	-9038
▁ㅆㅜㅇ	-9039
ㄹㅔㄴㅊㅡ	-9040
▁ㅂㅐㄱㅈㅣ	-9041
▁ㅇㅏㄹㅈㅏ	-9042
▁ㅇㅟㄴㅌㅓ	-9043
▁ㅈㅓㅇㅊㅏㄱㅈㅣ	-9044
▁ㅇㅕㄴㅂㅏㅇㄱㅜㄴ	-9045
▁ㅎㅏㄴㄱㅜㄱㄱㅜㄴ	-9046
16	-9047
▁ㅇㅡㄴㅈㅣ	-9048
▁ㄱㅡㄴㄱㅏㄴ	-9049
▁ㅂㅏㄹㅍㅏㄴ	-9050
▁ㅂㅓㅂㅅㅏㅇ	-9051
▁ㅇㅝㄴㅈㅓㅁ	-9052
▁ㅋㅡㄹㄹㅓㄱ	-9053
▁ㅅㅓㅇㅍㅗㄱㄹㅕㄱ	-9054
ull	-9055
▁ㅍㅔㄱ	-9056
▁1812	-9057
ㅇㅣㄱㅅㅜ	-9058
ㅊㅓㄱㅈㅏ	-9059
▁ㄱㅘㅇㅅㅣ	-9060
▁ㅊㅗㅇㅇㅕㅇㅅㅏ	-9061
ㄷㅣㅅ	-9062
▁ㅇㅏㄹㅁㅏ	-9063
▁ㅊㅓㄹㄱㅣ	-9064
ㄱㅕㄹㅎㅏㅂ	-9065
▁ㄱㅏㅇㄱㅜㄱ	-9066
▁ㅂㅕㄴㅅㅓㅇ	-9067
▁ㅇㅣㅂㅊㅏㄹ	-9068
ㄷㅏㅅ	-9069
ㅍㅓㅁ	-9070
ㅂㅡㄴㅅㅡ	-9071
▁ㄱㅜㄴㅍㅗ	-9072
ㅂㅗㅇㅇㅏㅁ	-9073
▁ㄷㅏㅅㅋㅓㅁ	-9074
▁ㅎㅘㄴㅅㅏㄴ	-9075
▁ㄷㅏㄴㅁㅏㄹㄱㅣ	-9076
▁ㅊㅓㅇㅁㅜㄴㅎㅚ	-9077
▁PA	-9078
▁Per	-9079
▁Win	-9080
▁John	-9081
▁ㅎㅘㄴㅊㅗ	-9082
▁ㅅㅣㄴㅇㅣㄱ	-9083
▁ㅅㅜㄴㅅㅣㄱㄱㅏㄴ	-9084
▁420	-9085
▁ㅂㅓㅅㄱㅣ	-9086
ㅂㅏㄴㅈㅓㅇ	-9087
ㅅㅏㄴㅇㅕㄱ	-9088
ㅈㅏㄴㅌㅣㄴ	-9089
▁ㅅㅓㄱㄱㅝㄴ	-9090
▁ㅇㅏㄴㅁㅕㄴ	-9091
VID	-9092
▁ㄹㅡㅁ	-9093
ㅎㅏㄹㅇㅏ	-9094
▁ㄴㅏㅇㅂㅣ	-9095
▁ㅁㅏㄴㅈㅣ	-9096
ㅅㅐㅇㅅㅏㄴ	-9097
ㅌㅏㄴㅇㅗㄹ	-9098
ㅍㅕㅇㄷㅗㅇ	-9099
▁ㅇㅑㅇㅇㅝㄴ	-9100
▁ㅊㅓㄴㅁㅜㄴㄷㅏㄴㅇㅟ	-9101
25	-9102
▁Gu	-9103
ㄷㅏㅅㄱㅏ	-9104
▁ㄱㅜㄴㅁㅏ	-9105
ㅅㅣㅁㅇㅝㄴ	-9106
▁ㅂㅕㄴㅈㅣㄹ	-9107
ㄹㅜㅅ	-9108
ㅇㅓㅇ	-9109
▁ㄱㅣㅁㅅㅣ	-9110
▁ㅁㅟㄹㄹㅓ	-9111
▁ㅅㅗㄴㅅㅜ	-9112
▁ㅅㅣㄹㅂㅣ	-9113
▁ㅎㅣㄹㅅㅡ	-9114
ㅁㅣㄴㅈㅓㅇ	-9115
ㅇㅕㄴㅁㅐㅇ	-9116
▁ㅅㅓㅇㅎㅕㄴ	-9117
▁ㅇㅝㄴㅁㅏㄴ	-9118
▁Str	-9119
▁ㅋㅜㅇ	-9120
▁ㅁㅏㄴㄹㅠ	-9121
▁ㅁㅗㄱㄷㅗㅇ	-9122
iel	-9123
ual	-9124
ㄹㅡㄹㄹㅜ	-9125
▁ㅇㅑㅇㄱㅜ	-9126
▁ㅈㅏㅁㅈㅏ	-9127
▁ㅋㅏㄴㅌㅡ	-9128
▁256	-9129
ㅇㅣㄴㅌㅓ	-9130
▁ㄱㅜㄴㄱㅣ	-9131
▁ㅌㅜㄹㄹㅜ	-9132
▁ㅌㅗㅇㄱㅏㅁ	-9133
▁ㅇㅝㄴㅈㅓㅇㄷㅐ	-9134
▁ㅎㅏㅂㅂㅕㅇㅈㅡㅇ	-9135
UN	-9136
▁HS	-9137
▁ㅈㅣㅍ	-9138
▁ㅍㅜㄹㅇㅣ	-9139
▁ㄷㅗㅇㅁㅐㄱ	-9140
ㅎㅝㄴ	-9141
▁ㅇㅐㅅ	-9142
ㄹㅣㄴㅅㅔ	-9143
ㅇㅡㄱㄱㅗ	-9144
▁ㅅㅏㄴㅅㅏ	-9145
▁ㅇㅕㄴㅎㅐ	-9146
▁ㅇㅣㄹㅂㅗ	-9147
▁ㅋㅣㄹㄹㅓ	-9148
▁ㅎㅕㄴㅅㅜ	-9149
▁ㄱㅕㄹㅈㅏㅇ	-9150
▁ㅈㅓㄱㅂㅓㅂ	-9151
ㅅㅣㄴㅈㅓㅇㅂㅕㄴ	-9152
▁ㅈㅜㅇㅇㅏㅇㅇㅣㄹㅂㅗ	-9153
ㄸㅜㅇ	-9154
ㅅㅐㅇㅊㅜㅇ	-9155
▁ㅅㅏㄴㅈㅓㅇ	-9156
▁ㅅㅏㅇㅎㅘㄴ	-9157
▁ㅅㅣㅁㅈㅓㅇ	-9158
▁ㅇㅓㄱㅇㅜㄹ	-9159
▁KD	-9160
▁mu	-9161
▁208	-9162
▁ㄱㅗㅇㄱㅛ	-9163
▁ㄱㅘㄴㄱㅐ	-9164
▁ㄱㅡㄱㅎㅚ	-9165
▁ㄷㅏㅁㅅㅜ	-9166
▁ㅈㅓㅁㅎㅏ	-9167
ㅂㅡㄹㄹㅣㄱ	-9168
ㅍㅡㄹㄹㅔㄱ	-9169
▁ㅂㅏㄴㅈㅓㅇ	-9170
▁CoA	-9171
▁ㄱㅣㅁㅇㅜ	-9172
▁ㅂㅏㅇㅌㅏㄴ	-9173
▁YG	-9174
ㅎㅏㄱㅍㅏ	-9175
▁ㄱㅜㄴㄷㅗ	-9176
▁ㄷㅗㅇㅎㅏ	-9177
▁ㅁㅣㄴㄷㅏ	-9178
ㄴㅕㄴㄷㅏㄴ	-9179
▁ㄱㅗㅇㅅㅓㄱ	-9180
▁ㅂㅏㄱㄱㅕㅇ	-9181
▁ㅇㅣㄴㅊㅓㄱ	-9182
▁ㅁㅑ	-9183
ㅅㅓㅅㅉㅐ	-9184
ㅇㅣㄴㅈㅡ	-9185
ㄱㅡㄱㅈㅏㅇ	-9186
ㄷㅓㄱㄱㅜㅇ	-9187
ㄷㅗㅇㅅㅣㄱ	-9188
ll	-9189
ㅅㅛㅂ	-9190
ㅂㅏㄱㅇㅣ	-9191
ㅈㅜㅇㅈㅜ	-9192
▁ㄴㅏㅁㄱㅕㅇ	-9193
▁ㅂㅓㅁㄹㅏㅁ	-9194
▁ㅇㅑㅇㅅㅏㄴㅅㅣ	-9195
▁ER	-9196
▁nm	-9197
▁ㅇㅔㅅ	-9198
▁ㅁㅜㄴㅇㅓ	-9199
ㄷㅗㅇㅂㅕㄴ	-9200
▁Mr	-9201
▁Kore	-9202
ㅇㅕㄴㅎㅘ	-9203
ㅇㅕㅇㅎㅗ	-9204
▁ㄴㅗㅇㅎㅕㅂ	-9205
▁ㅇㅑㅇㅈㅓㅇ	-9206
▁ㅇㅣㄹㅁㅕㄴ	-9207
▁ㅊㅜㄴㅊㅓㄴㅅㅣ	-9208
▁DO	-9209
ㄷㅔㄹㄹㅏ	-9210
▁ㅇㅘㅇㄴㅕ	-9211
▁ㅈㅏㅇㅇㅣ	-9212
ㄱㅣㄹㅈㅜㄴ	-9213
▁ㅅㅏㅇㄷㅗㅇ	-9214
▁ㅈㅓㅇㅁㅐㄱ	-9215
▁ㅇㅑㅇㅍㅕㅇㄱㅜㄴ	-9216
▁ㄱㅡㅅ	-9217
▁ㅇㅣㄴㄷㅓ	-9218
ㄴㅏㅁㄷㅗㅇ	-9219
▁ㅂㅗㅇㅂㅜㄴ	-9220
▁ㅅㅓㄴㅂㅕㄹ	-9221
▁ㅇㅛㅇㅁㅐㅇ	-9222
▁ㅊㅗㅇㄱㅜㄱ	-9223
17	-9224
ㅂㅏㅇㄷㅗ	-9225
▁ㄱㅗㅂㅎㅏ	-9226
▁ㄷㅗㅇㄷㅜ	-9227
ㅁㅏㅇㄹㅠㄹ	-9228
ㅂㅕㅇㅇㅗㄱ	-9229
▁Intern	-9230
▁ㅅㅓㅇㅎㅕㅇ	-9231
▁ㅊㅓㅇㅇㅣㄹ	-9232
▁ㄱㅜㄱㅂㅏㅇㄱㅜㄴ	-9233
ㄱㅜㅅ	-9234
lect	-9235
▁ㅆㅜㄴ	-9236
▁ㅎㅔㄹㄹㅗ	-9237
▁ㅇㅣㄴㅅㅏㅁ	-9238
▁ㅈㅏㅇㅅㅡㅇ	-9239
▁ㅆㅓㅁ	-9240
▁ㄱㅓㄹㅅㅡ	-9241
▁ㄷㅏㄴㅅㅜ	-9242
▁ㅁㅏㄴㄷㅏ	-9243
▁ㅅㅓㅇㄴㅐ	-9244
▁ㅋㅏㄹㄹㅔ	-9245
▁ㅂㅕㄴㄹㅗㄴ	-9246
▁ㅊㅣㄹㄱㅗㄱ	-9247
▁ㅌㅗㅇㅊㅏㄹ	-9248
ox	-9249
▁ㅊㅜㄴㄱㅖ	-9250
▁ㅎㅑㅇㄹㅗ	-9251
▁ㄷㅏㄹㄹㅕㄱ	-9252
▁ㅅㅏㅇㅊㅡㅇ	-9253
▁ㅈㅗㅇㅅㅣㄹ	-9254
▁ㅇㅕㅇㅁㅜㄴㅎㅏㄱ	-9255
ㅇㅣㅇㄱㅡㄹㄹㅐㄴㄷㅡ	-9256
▁Fl	-9257
▁ㅊㅓㄴㅈㅏ	-9258
ㅂㅗㄴㅂㅓㅂ	-9259
ㅎㅘㅇㄹㅕㅇ	-9260
▁ㄷㅗㅇㄱㅡㅂ	-9261
▁ㅁㅣㄴㅅㅓㄴ	-9262
▁ㅂㅏㄴㄴㅏㅂ	-9263
▁370	-9264
▁ㅋㅐㅇ	-9265
ㄴㅣㄴㅈㅜ	-9266
ㄷㅗㅇㅅㅏ	-9267
▁ㄷㅓㅍㅊㅣ	-9268
▁ㅂㅏㄹㄹㅜ	-9269
▁ㅅㅐㄹㄹㅓ	-9270
ㄴㅡㅇㄹㅕㄱ	-9271
ㅇㅜㄴㅌㅣㄴ	-9272
▁ㄷㅏㅇㅅㅏㅇ	-9273
▁ㅂㅣㅊㄲㅏㄹ	-9274
▁ㅊㅜㅇㄷㅗㅇ	-9275
ames	-9276
ature	-9277
▁ㅇㅏㄴㅅㅣ	-9278
▁ㅍㅔㄹㄹㅔ	-9279
ty	-9280
▁440	-9281
▁ㄹㅕㄹ	-9282
▁NATO	-9283
ㄷㅔㄱㅅㅡ	-9284
ㅂㅏㄹㄹㅣ	-9285
▁ㅁㅏㄴㅅㅜ	-9286
▁ㅅㅏㅇㅇㅣ	-9287
ㅂㅓㅁㅅㅓㄱ	-9288
▁ㅁㅜㄴㄱㅓㄴ	-9289
▁2500	-9290
▁ㄱㅏㅇㄱㅏ	-9291
▁ㅅㅣㄱㅇㅣ	-9292
▁ㅋㅏㅂㅋㅏ	-9293
ㄴㅏㅁㅅㅓㄴ	-9294
▁ㄱㅗㅇㄱㅕㅇ	-9295
▁ㄴㅗㅇㄷㅏㅁ	-9296
ㅅㅣㄱㅊㅜㄱㄱㅜ	-9297
▁ㄱㅏㅇㅇㅠ	-9298
▁ㄸㅜㅀㄹㅣ	-9299
▁ㅇㅕㄹㄱㅓ	-9300
ㅇㅕㄴㅅㅏㅇ	-9301
▁ㅇㅘㅇㄹㅡㅇ	-9302
▁ㅎㅏㅇㄱㅗㅇㅇㅜ	-9303
▁ㅎㅏㅇㅅㅐㅇㅈㅔ	-9304
ㅂㅏㄹㅌㅡ	-9305
▁ㅅㅔㄹㅈㅜ	-9306
▁ㄱㅠㄴㄷㅡㅇ	-9307
▁ㄸㅏㄱㄸㅏㄱ	-9308
▁ㅂㅜㄹㅁㅜㄴ	-9309
▁ㅇㅏㅇㅅㅏㅇ	-9310
▁ㅇㅝㄴㅎㅏㄴ	-9311
▁ㄴㅏㅁㅂㅜㄱㅈㅗ	-9312
ove	-9313
▁MD	-9314
▁Hot	-9315
▁ㅌㅜㅁ	-9316
ㅎㅘㅇㅈㅔ	-9317
▁ㄱㅣㄹㅂㅓ	-9318
▁ㅇㅡㄹㅅㅜ	-9319
▁ㅇㅑㅇㄴㅕㅁ	-9320
▁ㅇㅕㄹㄹㅏㅁ	-9321
▁ㅇㅡㅇㄹㅕㄱ	-9322
▁ㅊㅓㅇㅈㅓㅇ	-9323
▁ㅈㅓㅂㄱㅡㄴㅅㅓㅇ	-9324
24	-9325
▁Mag	-9326
▁ㄱㅜㄴㅇㅟ	-9327
▁ㄱㅡㅁㄱㅣ	-9328
▁ㄹㅗㄹㄹㅣ	-9329
▁ㅇㅘㅇㄷㅏㅇㅍㅏ	-9330
▁ㄱㅘㅇㅎㅏㅂㅅㅓㅇ	-9331
▁ㅅㅣㄴㅇㅏㄴㄱㅜㄴ	-9332
▁NM	-9333
▁ㄴㅖ	-9334
ㅂㅓㄱ	-9335
ㅇㅛㅁ	-9336
▁747	-9337
▁Get	-9338
ㄷㅜㄴㅈㅣ	-9339
▁ㅇㅗㅁㄴㅣ	-9340
ㅊㅜㄱㄱㅜㄱ	-9341
ㄷㅗㅇㅂㅕㄴㅅㅗㄱㄱㅣ	-9342
ㄹㄹㅣㅁ	-9343
▁1400	-9344
ㄴㅕㅁㅅㅏ	-9345
ㅇㅣㄹㅊㅔ	-9346
▁ㄱㅕㄹㅇㅕ	-9347
▁ㄷㅗㅇㅊㅔ	-9348
▁ㅈㅓㅂㅅㅣ	-9349
▁ㅍㅜㅇㅇㅛ	-9350
▁ㅎㅓㄹㄹㅣ	-9351
▁ㅎㅔㄴㄷㅡ	-9352
ㅎㅏㅂㅇㅝㄴ	-9353
▁ㄱㅕㅇㅎㅏㅂ	-9354
▁ㅈㅡㅇㅊㅜㄱ	-9355
▁ㅍㅜㅅㅅㅏㄹ	-9356
▁ㄱㅏㅇㄹㅡㅇㅅㅣ	-9357
▁ㅇㅏㄹㅋㅏㄹㄹㅣ	-9358
▁MIT	-9359
▁ㄱㅘㄴㅈㅓ	-9360
ㅅㅡㅇㅎㅜㄴ	-9361
ㅇㅣㄴㄷㅏㄴ	-9362
ㅊㅓㅇㅈㅏㅇ	-9363
▁ㅈㅓㄴㄱㅗㄱ	-9364
▁CA	-9365
▁DA	-9366
ㄸㅡㅁ	-9367
▁Back	-9368
▁class	-9369
▁ㅊㅓㅇㄱㅛ	-9370
▁ㅋㅗㅁㅂㅣ	-9371
ㄱㅡㄱㄷㅏㄴ	-9372
ㅅㅜㄹㅍㅜㅁ	-9373
ㅈㅓㄴㄹㅕㄱ	-9374
▁System	-9375
▁ㅂㅏㄹㅇㅕㄹ	-9376
▁ㅂㅜㄹㅂㅗㄱ	-9377
▁ㅇㅏㅂㄷㅜㄹㄹㅏ	-9378
BN	-9379
▁ㅇㅔㅂ	-9380
▁ㅅㅡㅇㅁㅏ	-9381
▁ㄱㅜㄱㅁㅜㄴ	-9382
▁ㄱㅡㅁㄱㅘㄴ	-9383
▁ㅈㅣㄴㅇㅝㄴ	-9384
▁ㅎㅏㅇㅁㅜㄴ	-9385
▁ㄱㅣㅁㅈㅗㅇㅈㅣㄱ	-9386
ㄷㅙ	-9387
▁207	-9388
ㄱㅗㄴㅈㅡ	-9389
▁ㄱㅜㅇㅅㅜ	-9390
▁ㅂㅗㄴㄱㅓ	-9391
▁ㅅㅓㄱㅈㅐ	-9392
▁ㅊㅓㄴㅌㅐ	-9393
▁ㅂㅏㄴㄷㅏㄹ	-9394
▁ㅇㅑㄱㅍㅜㅁ	-9395
▁ㄴㅏㅁㅎㅏㄴㅅㅏㄴㅅㅓㅇ	-9396
ology	-9397
▁1801	-9398
ㅍㅔㄴㅅㅓ	-9399
▁ㄱㅘㄴㅇㅝㄴ	-9400
▁ㅈㅏㅇㄹㅗㄴ	-9401
▁ㅈㅓㄴㄷㅗㅇ	-9402
▁ㅈㅣㄴㅅㅓㅇ	-9403
▁ㅋㅣㅂ	-9404
▁ㅁㅓㄴㄹㅗ	-9405
ㄹㅣㅁㄷㅗㅇ	-9406
ㅅㅏㄴㅇㅡㅂ	-9407
▁ㅁㅕㅇㄷㅗㅇ	-9408
▁ㅅㅣㄴㅊㅓㄴ	-9409
▁ㄷㅗㅇㅂㅜㄱㅂㅜ	-9410
ors	-9411
▁NA	-9412
▁225	-9413
▁365	-9414
▁1789	-9415
ㅅㅓㄴㅅㅏ	-9416
▁ㄱㅓㄹㅇㅓ	-9417
▁ㅇㅑㄱㅅㅜ	-9418
▁ㅇㅘㅇㅈㅘ	-9419
ㅇㅑㅇㄱㅘㅇ	-9420
▁ㅎㅏㅂㅈㅏㅇ	-9421
ㅅㅓㅇㅈㅣㄹㅊㅔ	-9422
▁ㅂㅓㄱㅅㅡ	-9423
▁ㅊㅓㄹㄱㅡㄴ	-9424
▁ㅎㅕㄹㅇㅐㄱㅎㅕㅇ	-9425
ART	-9426
app	-9427
▁IEC	-9428
ㄸㅓㄹㅇㅓ	-9429
ㅁㅕㅇㅅㅔ	-9430
▁ㅅㅓㅇㅈㅏ	-9431
ㅂㅐㄱㅅㅐㄱ	-9432
ㅍㅜㅁㄱㅜㄴ	-9433
▁ㅅㅗㄴㅅㅟㅂ	-9434
▁ㅌㅏㄴㄱㅘㅇ	-9435
ㄴㅈㅣㅂㅎㅏㅂ	-9436
▁Cent	-9437
▁type	-9438
ㄷㅡㄴㅂㅓ	-9439
ㅌㅗㅇㅅㅜ	-9440
ㅍㅐㄱㅅㅡ	-9441
▁ㅅㅐㅇㄱㅏ	-9442
▁ㅁㅐㅇㄹㅕㄹ	-9443
▁ㅇㅛㅇㅇㅕㄱ	-9444
▁ㅇㅝㄴㄱㅗㄱ	-9445
▁ㅇㅝㄹㄱㅕㅇ	-9446
▁ㅋㅐㅂㅌㅣㄴ	-9447
YP	-9448
let	-9449
▁'-	-9450
▁Cr	-9451
▁Baby	-9452
ㄹㅗㄱㅅㅣ	-9453
ㅂㅓㅂㅂㅜ	-9454
ㄹㅐㄴㅅㅣㅅ	-9455
▁ㅂㅏㅇㅁㅜㄴㄱㅐㄱ	-9456
▁ㅈㅓㄴㅊㅓㄹㅇㅕㄱ	-9457
ㅍㅏㅂ	-9458
▁ㄷㅔㄱ	-9459
ㅂㅗㄴㄱㅏ	-9460
▁ㅂㅕㄴㅈㅗ	-9461
▁ㅋㅐㄴㅌㅓ	-9462
▁ㅅㅣㄴㄱㅜㅇ	-9463
za	-9464
▁SW	-9465
▁GPS	-9466
ㄹㅏㄱㅂㅜ	-9467
▁ㅇㅕㄴㅇㅓ	-9468
▁Google	-9469
▁ㅇㅘㄴㅅㅏㄴ	-9470
▁ㅈㅓㅂㅁㅗㄱ	-9471
FS	-9472
▁Res	-9473
▁ㄲㅡㅁ	-9474
ㅅㅏㄹㅍㅣ	-9475
▁ㅋㅡㄹㄹㅜ	-9476
▁ㅈㅓㄴㄷㅗㅇㄱㅣ	-9477
▁ㅅㅐㅇㅁㅜㄹㅎㅏㄱㅈㅏ	-9478
enn	-9479
▁BO	-9480
▁Ke	-9481
▁ㄲㅡㄶㅇㅣ	-9482
▁ㄷㅓㄱㅅㅜ	-9483
▁ㅂㅣㄹㄹㅔ	-9484
▁ㅅㅓㅇㅈㅔ	-9485
▁ㅈㅜㄴㅎㅏ	-9486
▁ㄱㅗㅇㅎㅜㄴ	-9487
▁ㄱㅜㄱㅅㅏㄴ	-9488
▁ㄱㅣㅁㅈㅏㅇ	-9489
▁ㄴㅗㄱㅁㅏㄹ	-9490
▁ㅂㅜㄱㅅㅗㅇ	-9491
▁ㅌㅏㄴㅅㅓㅇ	-9492
▁ㅎㅏㅇㅈㅓㄴ	-9493
▁ㅎㅕㄴㄱㅘㄴ	-9494
▁ㅅㅣㄴㅇㅣㄱㅎㅢ	-9495
▁ㅇㅕㅇㅈㅏㅇㄹㅠ	-9496
▁ㅂㅜㄺㅇㅡㄴㅅㅐㄱ	-9497
▁ㅇㅏㅇㅅㅏㅇㅂㅡㄹ	-9498
RNA	-9499
inal	-9500
ㄷㅓㄱㄱㅜ	-9501
▁ㅅㅓㄱㄷㅡㅇ	-9502
▁ㅇㅗㄴㅈㅓㄴ	-9503
▁ㅈㅓㄴㄱㅡㄱ	-9504
GO	-9505
▁Amer	-9506
ㅍㅕㅇㅊㅓㄴ	-9507
▁ㄱㅏㅁㄷㅏㅇ	-9508
▁ㄴㅏㅊㅅㅓㄹ	-9509
▁ㄴㅡㅇㅅㅜㄱ	-9510
▁ㅈㅓㄴㅁㅏㅇㄷㅐ	-9511
▁1815	-9512
ㅈㅏㅁㅂㅣ	-9513
▁ㅁㅔㄴㅌㅗ	-9514
▁ㅇㅓㄹㄹㅣ	-9515
ㅊㅗㄴㄷㅗㅇ	-9516
▁ㅂㅕㄴㅊㅓㄴ	-9517
▁ㅅㅣㄴㅇㅏㄴ	-9518
▁ㅇㅑㅇㄷㅗㅇ	-9519
▁ㅈㅜㅇㅅㅣㄴ	-9520
▁ㄱㅗㅇㅅㅓㅇㅈㅓㄴ	-9521
▁ㅂㅏㅇㅂㅓㅂㄹㅗㄴ	-9522
MP	-9523
▁911	-9524
▁Mac	-9525
▁ㅆㅣㄴ	-9526
ㅈㅓㄴㄹㅣ	-9527
▁ㄴㅡㅈㅊㅜ	-9528
▁ㄷㅗㅇㅍㅡ	-9529
▁ㅂㅏㄴㅈㅏ	-9530
▁ㅁㅏㅈㄷㅏㅎ	-9531
▁ㅇㅏㄴㄹㅏㄱ	-9532
▁ㅅㅐㅇㅅㅏㄴㅈㅏ	-9533
ina	-9534
▁ㅂㅓㅂㅎㅘ	-9535
▁ㄱㅣㅁㅇㅡㄴ	-9536
▁ㅂㅏㄴㅎㅑㅇ	-9537
▁ㅈㅓㄴㅇㅕㄹ	-9538
▁ㅅㅓㅇㅂㅜㄱㄱㅜ	-9539
ux	-9540
▁FS	-9541
▁SG	-9542
▁ㅇㅏㄱㅇㅓ	-9543
▁ㅇㅏㄹㅂㅣ	-9544
▁ㅈㅓㅇㅇㅜ	-9545
▁ㅎㅘㅇㅇㅟ	-9546
ㅂㅜㄹㅁㅕㅇ	-9547
▁ㄷㅏㅁㅈㅏㅇ	-9548
▁ㅇㅕㄱㄷㅗㅇ	-9549
▁ㅈㅣㄴㅅㅣㅁ	-9550
▁OK	-9551
ange	-9552
▁Tra	-9553
▁ㅂㅗㄴㅊㅗ	-9554
▁ㅇㅔㅁㅁㅏ	-9555
▁ㅇㅗㅂㅌㅣ	-9556
▁ㅇㅕㅇㅅㅓㅇ	-9557
▁ㄱㅜㄴㅅㅏㄴㅅㅣ	-9558
▁Dr	-9559
▁ㄴㅗㄱㅇㅣ	-9560
▁ㅅㅏㅇㅎㅚ	-9561
▁ㅈㅏㄴㅊㅣ	-9562
▁ㅈㅓㄴㄱㅘ	-9563
▁ㅊㅏㅇㅆㅣ	-9564
▁ㅎㅏㄴㄹㅏ	-9565
ㄴㅓㄹㅁㅗㄱ	-9566
▁ㅇㅣㅅㄷㅏㄹ	-9567
▁ㄱㅓㄴㄴㅓㄹㅁㅗㄱ	-9568
ons	-9569
▁ㅂㅑ	-9570
ㅁㅔㅅ	-9571
ㄴㅗㄹㄷㅡ	-9572
ㅈㅔㄹㄹㅣ	-9573
▁ㅅㅡㅂㄷㅗ	-9574
▁ㅈㅏㅇㅅㅓ	-9575
▁ㅈㅣㄴㄱㅜ	-9576
▁ㅋㅐㄴㄷㅣ	-9577
ㄱㅕㅇㅊㅏㄹ	-9578
▁ㄴㅗㄴㅍㅕㅇ	-9579
▁ㄷㅏㅁㅇㅣㅁ	-9580
▁ㅂㅜㄹㄴㅡㅇ	-9581
▁ㄷㅗㅇㅇㅣㄹㅅㅣ	-9582
▁ㅈㅣㄱㅎㅏㄹㅅㅣ	-9583
ㅅㅠㅇ	-9584
▁WHO	-9585
▁ㄷㅜㅁ	-9586
ㄱㅡㄱㅎㅣ	-9587
▁ㄴㅏㅁㅍㅗ	-9588
▁ㅇㅑㅇㅇㅟ	-9589
▁ㅈㅓㅇㄱㅘ	-9590
▁ㅊㅏㄴㄷㅡ	-9591
▁ㄱㅕㅇㅅㅏㄴ	-9592
▁ㅇㅜㄴㅅㅓㄱ	-9593
▁ㅈㅡㅇㅈㅣㄱ	-9594
▁ㅇㅣㄴㅅㅏㄴㅎㅘ	-9595
▁ㅎㅕㄱㅁㅕㅇㄱㅏ	-9596
ㄴㅛㄹ	-9597
ㅇㅏㅍ	-9598
▁1858	-9599
ㄹㅑㅇㄱㅣ	-9600
ㅅㅏㄹㅂㅏ	-9601
ㅌㅓㄴㅅㅡ	-9602
▁ㅈㅏㄱㅈㅏ	-9603
▁ㅈㅣㄱㄹㅠ	-9604
▁ㅈㅓㅇㅈㅜㅇ	-9605
▁ㅂㅜㄴㅎㅗㅇㅅㅐㄱ	-9606
▁ㄸㅡㄷ	-9607
ㅇㅝㄹㄷㅡ	-9608
▁ㄱㅗㄴㄷㅗ	-9609
▁ㅇㅏㅁㅊㅗ	-9610
▁ㅅㅡㅇㅅㅓㄴ	-9611
▁ㅊㅜㄹㅈㅓㅇ	-9612
yle	-9613
ater	-9614
▁Int	-9615
ㄷㅏㅇㄹㅠ	-9616
▁ㅁㅕㅇㅈㅜ	-9617
▁ㅊㅣㅁㅅㅜ	-9618
▁ㅆㅏㅇㅇㅛㅇ	-9619
ㅂㅓㅂㅇㅝㄴㅈㅏㅇ	-9620
▁ㅊㅗㅇㅅㅐㅇㅅㅏㄴ	-9621
▁Dis	-9622
▁ㅍㅐㄹ	-9623
▁ㅈㅡㅇㄹㅠ	-9624
ㄱㅡㅁㅅㅗㄱ	-9625
▁ㅇㅟㅅㅁㅕㄴ	-9626
▁ㅈㅣㄱㄱㅏㄱ	-9627
▁ㅎㅐㅇㅇㅜㄴ	-9628
▁ㅎㅡㄱㅅㅐㄱ	-9629
▁ㅇㅣㄹㅈㅣㄴㅎㅚ	-9630
▁ㅆㅓ	-9631
▁MHz	-9632
ㅈㅡㅇㄱㅣ	-9633
▁ㄱㅜㅇㄴㅐ	-9634
▁ㄷㅏㅁㄱㅡ	-9635
▁ㅁㅗㄱㅎㅘ	-9636
▁ㅋㅏㅁㅍㅗ	-9637
ㅎㅜㄴㄹㅕㄴ	-9638
▁ㄴㅏㅁㄱㅜㅇ	-9639
▁ㅈㅓㅇㅈㅣㄱ	-9640
▁ㅈㅓㅇㅁㅗㅇㅈㅜ	-9641
▁kW	-9642
▁Not	-9643
ㄱㅐㅇㅇㅣ	-9644
ㄹㅏㄹㄷㅡ	-9645
▁ㄱㅏㄴㅈㅣ	-9646
▁ㅇㅟㄴㅅㅡ	-9647
▁ㅎㅘㅇㅎㅏ	-9648
ㄷㅔㄹㄹㅣㅇ	-9649
ㅈㅣㄹㄹㅑㅇ	-9650
▁ㅊㅓㄴㅈㅓㄱ	-9651
ㄷㅔㄱ	-9652
▁ㄱㅏㅇㅌㅏ	-9653
▁ㅂㅏㄱㅌㅐ	-9654
▁ㅇㅏㄴㅈㅐ	-9655
▁ㅊㅣㄴㅎㅣ	-9656
▁ㅌㅏㄹㅍㅣ	-9657
▁ㅊㅐㄱㅈㅓㅇ	-9658
TN	-9659
ret	-9660
ions	-9661
▁TBC	-9662
▁USA	-9663
▁Way	-9664
▁ㅇㅛㄴ	-9665
ㅇㅜㄴㅌㅓ	-9666
▁ㄱㅗㅇㅂㅗ	-9667
▁ㅈㅏㄱㅇㅏ	-9668
▁ㅎㅠㅇㄴㅐ	-9669
▁ㅁㅕㅇㅈㅏㅇ	-9670
▁ㅅㅣㄹㅅㅏㅇ	-9671
▁ㅇㅏㄴㄱㅓㄴ	-9672
▁ㅇㅠㄴㄱㅘㄱ	-9673
▁ㅇㅣㄱㅅㅏㄴㅅㅣ	-9674
26	-9675
ㅋㅗㅂ	-9676
▁238	-9677
▁War	-9678
▁What	-9679
▁ㅂㅐㄹㄹㅓㄴ	-9680
▁ㅈㅡㄱㅎㅡㅇ	-9681
▁ㅊㅜㄹㅂㅕㅇ	-9682
▁ㅍㅡㄹㄹㅏㅇㄷㅡ	-9683
▁ㅂㅜㄹㅂㅓㅂㅎㅐㅇㅇㅟ	-9684
▁ㄷㅗㄱㄹㅣㅂㅅㅓㄴㅇㅓㄴ	-9685
▁ㅆㅙ	-9686
ㅈㅓㅇㄱㅠ	-9687
ㅌㅏㄹㄹㅗ	-9688
▁ㅂㅕㄴㅈㅜ	-9689
▁ㅅㅔㄹㄹㅓ	-9690
ㄱㅗㅇㅇㅝㄴ	-9691
▁ㄱㅠㄴㅇㅕㄹ	-9692
▁ㅊㅓㅅㄴㅏㄹ	-9693
▁ㅍㅕㅇㅌㅐㄱㅅㅣ	-9694
ㅊㅞ	-9695
ㄱㅡㄱㄱㅣ	-9696
ㄷㅡㅂㄴㅏ	-9697
ㄹㅔㄴㅊㅗ	-9698
▁ㄱㅏㅇㅈㅏ	-9699
▁ㄱㅗㅇㅈㅣ	-9700
▁ㄱㅡㅁㄹㅣ	-9701
▁ㅅㅓㄹㄱㅘ	-9702
ㅅㅓㅇㄷㅗㅇ	-9703
ㅅㅡㄹㄹㅗㄴ	-9704
ㅅㅣㄹㅎㅓㅁ	-9705
▁ㅁㅕㄴㅇㅡㄴ	-9706
▁ㅂㅔㄹㅂㅔㅅ	-9707
▁ㅈㅗㅇㄷㅏㄴ	-9708
IO	-9709
UI	-9710
ㅂㅏㄴㅂㅜ	-9711
▁ㄱㅕㅇㄱㅜ	-9712
ㄷㅡㄱㅈㅓㅁ	-9713
ㄹㅓㅁㅍㅔㅅ	-9714
▁ㄷㅓㅇㄱㅜㄹ	-9715
▁ㅅㅡㅇㄴㅏㄱ	-9716
▁ㅈㅓㅇㄱㅗㅇ	-9717
▁ㅌㅏㄴㄹㅕㄱ	-9718
▁ㅎㅕㅇㄱㅘㅇ	-9719
▁ㅎㅗㅇㅊㅓㄴ	-9720
▁ㅁㅏㅈㅁㅜㄹㄹㅣ	-9721
ㅈㅜㅁ	-9722
▁High	-9723
▁time	-9724
ㅋㅓㄴㄷㅡ	-9725
▁ㄱㅏㄹㅂㅣ	-9726
▁ㅅㅓㄴㄷㅔ	-9727
▁ㄱㅕㄱㅊㅣㅁ	-9728
▁ㄷㅓㄴㅈㅓㄴ	-9729
▁ㅈㅓㄴㅈㅣㅂ	-9730
ㅂㅓㅂㅇㅕㄴㅎㅘ	-9731
▁ㅎㅔㄹㅅㅣㅇㅋㅣ	-9732
▁ㅇㅣㄴㅁㅜㄴㅎㅏㄱ	-9733
▁ㅎㅏㅂㅊㅓㄴㄱㅜㄴ	-9734
▁ㅅㅏㄴㅇㅓㅂㄷㅏㄴㅈㅣ	-9735
att	-9736
ㄹㅏㅅ	-9737
▁ㅋㅔㅅ	-9738
▁1300	-9739
▁1820	-9740
▁MPEG	-9741
▁COVID	-9742
▁ㄱㅣㅁㅅㅔ	-9743
▁ㅅㅏㅇㅌㅜ	-9744
ㅇㅡㅁㅅㅗㄱ	-9745
▁ㄷㅗㅇㄹㅠㄹ	-9746
▁ㅈㅓㅇㅎㅕㄴ	-9747
▁ㅎㅏㄴㅈㅓㅇㅍㅏㄴ	-9748
ger	-9749
ㄱㅏㄴㅈㅜ	-9750
▁ㅂㅏㄴㅇㅑ	-9751
▁ㅂㅏㄹㄷㅔ	-9752
▁ㅇㅏㄵㅎㅣ	-9753
▁ㄱㅕㄱㅅㅏㅇ	-9754
▁ㅂㅗㅇㅎㅓㄴ	-9755
▁ㅎㅡㅂㅇㅣㅂ	-9756
ye	-9757
ㅊㅠ	-9758
ley	-9759
▁PH	-9760
▁ㄷㅜㄱ	-9761
ㄹㅐㄴㅈㅣ	-9762
ㅇㅑㄱㅅㅓ	-9763
▁ㅁㅣㄴㄱㅏ	-9764
▁ㅇㅣㄹㄹㅏ	-9765
▁ㅈㅓㅇㅇㅕ	-9766
▁ㄱㅘㅇㅌㅐㄱ	-9767
▁ㅈㅏㅇㅈㅜㄴ	-9768
▁ㅈㅓㅇㅇㅣㄹ	-9769
▁ㅍㅕㅇㅅㅏㅇㅅㅣ	-9770
▁BB	-9771
▁EN	-9772
▁Blue	-9773
▁ㅅㅏㅇㅎㅐ	-9774
▁ㅇㅑㅇㅊㅣ	-9775
▁ㅊㅏㅇㅅㅔ	-9776
▁ㅎㅐㄹㄹㅣ	-9777
▁ㅎㅘㄴㄱㅣ	-9778
ㅅㅏㅁㅊㅗㄴ	-9779
▁ㄱㅘㅇㄷㅗㅇ	-9780
▁ㄱㅣㅍㅅㅜㄱ	-9781
▁ㄱㅜㄱㅁㅜㄴㅎㅏㄱ	-9782
▁Of	-9783
▁ㄱㅏㅇㄱㅜ	-9784
▁ㄷㅏㄹㅁㅏ	-9785
▁ㄷㅗㅇㅌㅣ	-9786
▁ㅅㅐㅇㅍㅗ	-9787
▁ㅇㅓㄹㅅㅡ	-9788
▁ㅇㅕㄱㅁㅜ	-9789
▁ㅍㅐㄹㄹㅣ	-9790
ㅇㅑㄱㅈㅓㅁ	-9791
▁ㄱㅣㅁㅅㅓㄱ	-9792
▁ㅇㅝㄴㅅㅐㅇ	-9793
▁ㄴㅏㅁㅂㅏㄴㄱㅜ	-9794
▁ㅂㅜㄱㅂㅏㄴㄱㅜ	-9795
enc	-9796
▁MR	-9797
▁COM	-9798
▁1814	-9799
▁ㄴㅏㅁㅌㅐ	-9800
▁ㄱㅜㄴㄹㅣㅁ	-9801
▁ㅁㅏㄴㅁㅜㄹ	-9802
▁ㅌㅗㅇㅋㅣㅇ	-9803
▁ㄴㅗㅇㅁㅣㄴㄱㅜㄴ	-9804
▁480	-9805
▁With	-9806
ㅇㅔㄹㄹㅔ	-9807
▁ㅅㅓㄴㅅㅓ	-9808
▁ㅅㅐㅇㅈㅏㅇ	-9809
▁ㅋㅔㄹㅂㅣㄴ	-9810
▁ㅌㅗㅇㅅㅣㄴㅂㅜ	-9811
▁ㅎㅗㅂㅋㅣㄴㅅㅡ	-9812
28	-9813
ㄷㅓㄴㅅㅡ	-9814
▁ㄱㅏㅂㅇㅗ	-9815
▁ㅇㅏㄱㅇㅢ	-9816
▁ㅇㅕㅇㅈㅐ	-9817
▁ㅇㅞㄹㅅㅡ	-9818
▁ㅌㅡㄱㅇㅟ	-9819
▁ㅍㅜㅇㅅㅜ	-9820
ㅌㅏㅁㅈㅓㅇ	-9821
▁ㅂㅏㄱㄷㅗㅇ	-9822
▁290	-9823
▁ㅃㅜㅁ	-9824
ㄹㅗㄹㄹㅜ	-9825
ㅁㅜㄴㄱㅗ	-9826
ㅎㅐㅇㅎㅣ	-9827
ㄱㅏㄱㅅㅓㄴ	-9828
▁ㄱㅣㅂㅅㅡㄴ	-9829
▁ㄷㅡㄱㅅㅣㄹ	-9830
▁ㅇㅛㅇㅈㅓㅂ	-9831
▁ㅈㅏㅇㅌㅐㄱ	-9832
▁ㅎㅏㅂㅅㅏㄴ	-9833
▁ㄹㅗㄹㅍㅡㄹㄹㅔ	-9834
▁1795	-9835
ㅎㅏㅇㅎㅐ	-9836
▁ㅅㅜㄹㅈㅣㅂ	-9837
▁ㅇㅡㅁㅇㅕㄱ	-9838
▁ㅋㅗㄴㅅㅔㅂ	-9839
▁ㅊㅏㅇㅇㅓㅂㅈㅏ	-9840
▁ㅊㅓㄴㅇㅕㄴㄱㅏ	-9841
der	-9842
ㅊㅜㄹㅅㅗ	-9843
▁ㄱㅗㄹㅅㅜ	-9844
▁ㄷㅗㅅㅌㅗ	-9845
▁ㅇㅠㅇㄱㅣ	-9846
▁ㅇㅣㄴㄴㅗ	-9847
▁ㅍㅗㄱㅈㅜ	-9848
ㅌㅣㄹㄹㅔㄴ	-9849
OVE	-9850
▁850	-9851
ㅈㅓㄴㅈㅜ	-9852
▁ㅁㅗㄴㅌㅐ	-9853
▁ㅊㅜㄴㅎㅑㅇ	-9854
▁ㅊㅜㄹㅎㅏㅇ	-9855
▁ㅎㅔㄹㄹㅔㄴ	-9856
▁ㅅㅏㄴㄷㅜㅇㅅㅓㅇ	-9857
ING	-9858
ㅋㅜㄴ	-9859
ㅇㅑㅇㅈㅣ	-9860
ㅇㅛㅇㅎㅣ	-9861
▁ㄷㅏㄴㅅㅏ	-9862
▁ㅅㅣㄴㅇㅣ	-9863
▁ㅊㅗㅇㅅㅜ	-9864
▁ㅊㅏㅇㄷㅓㄱㄱㅜㅇ	-9865
alk	-9866
ump	-9867
▁214	-9868
▁MLB	-9869
▁ㅋㅗㅅ	-9870
▁1846	-9871
ㅂㅗㄹㄹㅏ	-9872
▁ㄱㅜㄴㄹㅏㄱ	-9873
▁ㅁㅕㅇㅈㅜㅇ	-9874
▁ㅅㅏㅇㅈㅏㄱ	-9875
▁ㅊㅗㄴㅇㅡㄴ	-9876
▁ㅊㅜㅇㄹㅕㄹㅇㅘㅇ	-9877
23	-9878
ough	-9879
▁737	-9880
▁Art	-9881
ㄷㅗㄱㅈㅏ	-9882
ㅂㅏㄴㅌㅡ	-9883
▁ㅅㅓㅇㅂㅜ	-9884
ㅅㅡㅇㅋㅓㅂ	-9885
ㅎㅏㄱㅅㅏㄹ	-9886
▁ㄱㅕㄹㄹㅕㄹ	-9887
ㅅㅣㄴㄷㅗ	-9888
ㅇㅣㄴㅈㅏ	-9889
▁ㅂㅜㄹㄱㅓ	-9890
▁ㅇㅓㄹㅌㅓ	-9891
▁ㅇㅕㅇㅇㅟ	-9892
▁ㅍㅐㄴㅇㅏ	-9893
▁ㅎㅏㄱㄷㅗ	-9894
ㄷㅏㄹㅇㅡㅁ	-9895
ㅇㅜㄹㅊㅓㄹ	-9896
ㅊㅜㄹㅇㅐㄱ	-9897
▁ㄱㅗㅇㄷㅓㄱ	-9898
▁ㅂㅜㄹㄱㅣㄹ	-9899
▁ㅇㅕㄴㅅㅡㅂㅅㅐㅇ	-9900
▁NL	-9901
▁ㄱㅡㅂㅅㅏ	-9902
▁ㅅㅣㄴㄱㅜ	-9903
▁ㅎㅏㄴㄲㅓ	-9904
▁ㄱㅜㄴㄹㅑㅇ	-9905
▁ㄲㅡㅁㅉㅣㄱ	-9906
▁ㅅㅗㄴㅊㅐㄱ	-9907
▁ㅈㅗㄴㅅㅏㅇ	-9908
ㄹㅓㅂㅇㅕㄴㅎㅏㅂ	-9909
▁ㅇㅣㅂㅊㅜㄹㄹㅕㄱ	-9910
▁ㅂㅏㄹㅊㅞ	-9911
ㅈㅓㄱㅂㅜㄴ	-9912
▁ㄷㅏㅇㅈㅏㅇ	-9913
▁ㅅㅣㄴㄱㅘㄴ	-9914
▁ㅊㅓㅇㅈㅜㅇ	-9915
▁'.	-9916
▁BR	-9917
ㅃㅏㄹㄹㅣ	-9918
ㅋㅏㄴㅅㅗ	-9919
ㅎㅐㅇㄷㅐ	-9920
▁ㅅㅣㄹㅋㅡ	-9921
▁ㄱㅏㄴㅇㅕㅁ	-9922
ㅈㅣㄱㅎㅏㄹㅅㅣ	-9923
▁ㄱㅡㅂㅅㅗㄱㄷㅗ	-9924
▁"'	-9925
▁Vf	-9926
▁ㄱㅘㅇㅅㅓ	-9927
▁ㅇㅕㄱㅁㅗ	-9928
▁ㅋㅣㄹㄹㅣ	-9929
▁ㅈㅣㄱㅎㅏㅁ	-9930
▁ㅊㅗㅇㅅㅏㄹ	-9931
ㄱㅏㄱㅊㅗㅇㄹㅣ	-9932
▁ㅂㅏㄹㄹㅔㄴㅌㅣ	-9933
▁ㅈㅜㅇㅅㅣㅁㅎㅐㄱ	-9934
▁Di	-9935
ㄴㅏㅈ	-9936
ㅌㅠㄴ	-9937
ㅇㅛㅇㄱㅣ	-9938
▁ㅁㅣㄹㅅㅡ	-9939
▁ㅈㅏㅇㅈㅗ	-9940
▁ㅍㅐㄱㅌㅗ	-9941
▁ㅂㅗㄴㄷㅏㅇ	-9942
▁ME	-9943
▁ㅈㅘㅇ	-9944
ㄹㅓㅇㅇㅣ	-9945
▁ㄱㅗㅇㅎㅐ	-9946
▁ㅈㅏㅇㅊㅏ	-9947
▁ㅊㅓㅁㅂㅜ	-9948
▁ㅎㅗㄴㅁㅏ	-9949
ㄱㅓㄴㅈㅓㄱ	-9950
▁ㄹㅐㄴㄷㅓㅁ	-9951
▁ㅅㅜㅇㅅㅣㄹ	-9952
ㅍㅐㅇㅇㅣ	-9953
▁ㄷㅡㅇㄷㅐ	-9954
▁ㅌㅡㅁㅌㅏ	-9955
▁ㅅㅜㄴㅈㅓㅇ	-9956
▁ㅈㅏㅇㅎㅏㅇ	-9957
▁ㅎㅏㄱㅅㅐㅇㅎㅚ	-9958
▁ㅎㅐㄱㅍㅗㄱㅌㅏㄴ	-9959
▁Min	-9960
ㄹㅗㄴㅎㅚ	-9961
ㅌㅏㅇㅅㅜ	-9962
ㅇㅝㄴㅎㅕㅇ	-9963
▁ㅁㅏㅅㅇㅣㅆ	-9964
▁ㅇㅑㄱㅎㅏㄱ	-9965
▁ㅂㅜㄱㄱㅡㄱㅎㅐ	-9966
▁Rev	-9967
▁ㅇㅑㄹ	-9968
▁ㄱㅜㄴㅂㅣ	-9969
▁ㅍㅔㄴㅅㅡ	-9970
ㄱㅐㄱㅅㅓㄴ	-9971
▁ㅂㅜㄴㄷㅏㅁ	-9972
▁ㅈㅗㅇㅊㅣㄴ	-9973
▁ㅈㅓㄱㅈㅓㄹㅎㅣ	-9974
que	-9975
atch	-9976
ㅇㅣㄴㅅㅜ	-9977
▁ㄹㅐㄴㄷㅣ	-9978
▁ㅂㅏㄱㅅㅡㅇ	-9979
▁ㅊㅗㅇㅇㅐㄱ	-9980
▁ㄱㅓㄴㄱㅜㄱㄷㅐ	-9981
ery	-9982
▁Mic	-9983
▁ㄴㅏㅂㅍㅜㅁ	-9984
▁ㅂㅓㅁㅇㅛㅇ	-9985
▁ㅅㅗㄹㅈㅣㄱ	-9986
▁ㅇㅏㄹㄹㅔㄴ	-9987
▁ㅇㅝㄹㅂㅜㄱ	-9988
▁ㅊㅓㄴㅈㅓㅇ	-9989
▁ㅈㅓㅇㅎㅘㄱㄷㅗ	-9990
▁ㅎㅕㄱㅁㅕㅇㄱㅜㄴ	-9991
▁ED	-9992
ㅂㅐㄴㅅㅡ	-9993
ㅂㅗㄱㅈㅣ	-9994
▁ㄱㅕㄱㅎㅘ	-9995
▁ㄱㅜㄱㄱㅘ	-9996
▁ㅁㅏㅇㄹㅜ	-9997
▁ㅂㅜㄱㅎㅐ	-9998
▁ㅅㅗㄹㅌㅡ	-9999
▁ㅇㅟㄴㄷㅡ	-10000
▁ㅇㅣㄴㄷㅐ	-10001
▁ㅇㅣㅈㅎㅣ	-10002
▁ㅍㅏㄹㅈㅏ	-10003
▁ㅎㅏㄴㅅㅓ	-10004
▁ㄱㅏㄴㅈㅏㅇ	-10005
▁ㅁㅔㄹㄹㅗㄴ	-10006
▁ㅅㅏㄴㄷㅗㅇ	-10007
cess	-10008
▁LCD	-10009
ㅅㅓㅇㄹㅣ	-10010
ㅎㅐㅇㅇㅓ	-10011
ㅎㅓㅁㅈㅏ	-10012
▁ㄱㅕㄹㅌㅜ	-10013
ㅂㅏㄴㅈㅓㄴ	-10014
▁ㅎㅕㄴㅊㅜㅇ	-10015
▁ㅇㅝㄴㅈㅓㅇㄱㅜㄴ	-10016
86	-10017
▁TG	-10018
▁ㄱㅏㄴㄷㅣ	-10019
▁ㅂㅜㄴㄷㅐ	-10020
▁ㅇㅐㄹㅍㅡ	-10021
▁ㅇㅕㄴㅇㅠ	-10022
▁ㅈㅓㅇㅅㅣ	-10023
ㄴㅕㅁㅅㅣㄱ	-10024
▁ㄱㅕㄹㅅㅣㄹ	-10025
▁ㅇㅑㅇㅂㅜㄴ	-10026
▁ㅇㅣㄴㅅㅣㄴ	-10027
▁ㅈㅓㄴㄹㅏㄴ	-10028
▁ㅅㅓㄴㅇㅓㄴㅁㅜㄴ	-10029
▁ㅁㅓㅅ	-10030
▁1851	-10031
ㅂㅗㅇㅅㅏ	-10032
▁ㄱㅜㄱㅈㅣ	-10033
▁ㄱㅏㄱㄱㅘㅇ	-10034
▁ㄴㅗㄴㅅㅓㄹ	-10035
▁ㄱㅘㄴㅊㅏㄹㅈㅏ	-10036
▁ㅅㅣㄱㅁㅜㄹㅇㅝㄴ	-10037
▁ㄱㅏㅂㅅㅣㄴㅈㅓㅇㅂㅕㄴ	-10038
▁CL	-10039
ㅁㅏㅌ	-10040
▁ㄱㅠㄹ	-10041
ㄹㅐㅇㅍㅣ	-10042
ㅎㅡㅇㅅㅏ	-10043
▁ㅂㅏㄱㄱㅣ	-10044
▁ㅅㅏㅁㅋㅣ	-10045
▁ㅇㅝㄴㅈㅔ	-10046
▁ㅎㅏㅁㅇㅢ	-10047
▁ㄱㅕㄹㄷㅏㄴ	-10048
▁ㄷㅗㄱㅅㅣㄹ	-10049
▁ㅇㅠㄹㄹㅕㅇ	-10050
▁ㅇㅗㄹㄹㅐㅇㅍㅣ	-10051
▁RA	-10052
▁XML	-10053
▁1793	-10054
ㅇㅑㄱㅅㅡ	-10055
▁ㄷㅗㄱㅅㅗ	-10056
▁ㅇㅓㄱㅈㅣ	-10057
▁ㅇㅕㅇㅎㅐ	-10058
▁ㄱㅏㅂㄱㅏㄱ	-10059
▁ㄴㅏㄱㅇㅕㅂ	-10060
▁ㅅㅣㄴㅈㅏㄱ	-10061
▁ㅊㅓㄹㅇㅝㄴ	-10062
▁ㅎㅕㄴㄹㅕㅇ	-10063
▁ㅅㅓㅇㅁㅕㅇㅅㅓ	-10064
▁IA	-10065
ㅁㅏㅎ	-10066
▁223	-10067
▁ㅊㅗㅁ	-10068
▁1854	-10069
ㅅㅗㄴㅈㅏ	-10070
ㅈㅏㅇㄱㅗ	-10071
▁ㅍㅗㄴㅌㅡ	-10072
ㅇㅑㄱㄱㅡㅁ	-10073
ㅇㅣㄴㅇㅕㄱ	-10074
▁ㅇㅕㅇㅅㅏㄴㅎㅚ	-10075
▁ne	-10076
▁301	-10077
▁1839	-10078
▁1856	-10079
▁ㅇㅣㄴㅍㅣ	-10080
▁ㅇㅣㅁㅂㅔ	-10081
▁ㅈㅗㄹㄹㅣ	-10082
▁ㅌㅡㄱㅎㅖ	-10083
ㅁㅜㄹㄹㅗㄴ	-10084
▁ㅂㅡㄹㄹㅏㅇ	-10085
▁ㅇㅠㄱㅂㅏㄱ	-10086
▁ㅈㅓㅇㅂㅕㅇ	-10087
▁ㅎㅕㄴㅊㅓㅇ	-10088
▁ㅇㅏㄴㅈㅜㅇㄱㅡㄴ	-10089
27	-10090
▁UR	-10091
▁Beat	-10092
▁Free	-10093
ㄷㅡㄹㄹㅓ	-10094
▁ㄷㅏㅇㅁㅕㅇ	-10095
▁ㅂㅗㄹㄹㅠㅁ	-10096
▁ㅅㅓㅇㄱㅏㄴ	-10097
29	-10098
HD	-10099
▁FR	-10100
▁ㅁㅕㅇㅈㅣ	-10101
▁ㅂㅏㅇㅈㅗ	-10102
▁ㅇㅠㄱㅇㅏ	-10103
▁ㅈㅣㄹㄹㅔ	-10104
▁ㅅㅓㅇㅊㅏㄴ	-10105
▁ㅅㅣㅁㄱㅡㄴ	-10106
▁ㅇㅡㅁㄱㅕㅇ	-10107
▁ㅈㅓㅇㄱㅏㅇ	-10108
▁ㅇㅓㅇㄷㅓㅇㅇㅣ	-10109
▁ㅎㅙ	-10110
ㄱㅗㅈ	-10111
ㄹㅔㄴㅊㅣ	-10112
ㄹㅣㅇㅋㅡ	-10113
▁ㄱㅜㄷㅇㅣ	-10114
▁ㅊㅜㅁㅊㅜ	-10115
▁ㅊㅜㅇㄱㅗ	-10116
▁ㅋㅐㅇㄱㅓ	-10117
ㅇㅕㄹㅅㅓㅇ	-10118
▁ㅂㅏㄱㅈㅜㄴ	-10119
▁ㅇㅜㅇㅈㅣㄴ	-10120
▁ㅎㅐㄴㄷㅡㄹ	-10121
▁1849	-10122
ㅅㅓㄹㅈㅏ	-10123
▁begin	-10124
▁ㄱㅘㄴㄷㅐ	-10125
▁ㄴㅏㄱㅌㅐ	-10126
▁ㄷㅏㅁㅎㅘ	-10127
▁ㅍㅓㄴㅊㅣ	-10128
▁ㅁㅏㄴㄱㅜㄱ	-10129
▁ㅈㅜㅇㅇㅏㅇㅈㅓㅇㅂㅗ	-10130
ont	-10131
▁ㄱㅜㄴㅁㅜ	-10132
▁ㅌㅐㄱㅈㅣ	-10133
ㅈㅏㅇㄱㅏㄱ	-10134
▁ㅇㅕㄴㅇㅣㅁ	-10135
▁ㅇㅕㄹㅂㅏㄴ	-10136
ㅅㅓㅇㄴㅕㄴㅈㅏ	-10137
▁ㄴㅗㅇㅈㅏㄱㅁㅜㄹ	-10138
▁211	-10139
▁Med	-10140
ㄹㅣㅇㅅㅡ	-10141
ㅈㅜㄴㅇㅓ	-10142
ㅎㅡㅇㅅㅣ	-10143
▁ㄷㅗㅇㄱㅗ	-10144
▁ㅊㅓㄴㄱㅜ	-10145
ㅈㅣㄴㅅㅣㄹ	-10146
▁ㅂㅗㄴㄴㅡㅇ	-10147
▁ㅅㅣㅁㅅㅡㄴ	-10148
▁ㅇㅡㅁㅇㅑㅇ	-10149
▁ㅈㅣㄴㅇㅏㄴ	-10150
ㅇㅛㅇㄷㅗㄹㅇㅣ	-10151
▁430	-10152
▁ㄷㅗㅊ	-10153
▁1855	-10154
▁ㅍㅣㅇㄱㅖ	-10155
ㅅㅏㅇㅎㅕㄴ	-10156
ㅇㅠㄱㅅㅣㄴ	-10157
▁ㅂㅓㅈㄲㅗㅊ	-10158
▁ㅂㅗㄴㅈㅣㄴ	-10159
▁ㅇㅗㄱㅅㅏㅇ	-10160
▁ㅇㅠㄹㄱㅗㄱ	-10161
▁ㅎㅏㄱㄱㅡㅂ	-10162
▁MW	-10163
ㄴㅐㅇ	-10164
ㅆㅏㄹ	-10165
ㅎㅣㄴ	-10166
▁void	-10167
ㄹㅕㄱㅈㅏ	-10168
▁10000	-10169
▁ㅂㅗㄴㄷㅣ	-10170
▁ㅎㅟㄹㅊㅔ	-10171
▁ㄱㅗㅇㅍㅕㅇ	-10172
▁ㅁㅗㅁㅈㅣㅂ	-10173
▁ㅇㅠㄴㅇㅕㅇ	-10174
▁ㅇㅣㄴㅊㅜㄹ	-10175
▁ㅈㅗㅇㅌㅐㄱ	-10176
▁ㅎㅏㄱㅊㅏㅇ	-10177
▁ㄹㅔㅇ	-10178
ㅁㅂㅡㄹ	-10179
ㅇㅑㅇㅅㅜ	-10180
▁ㄴㅏㅁㄹㅗ	-10181
ㅂㅜㄱㅉㅗㄱ	-10182
▁ㅈㅡㅇㅇㅝㄴ	-10183
▁ㅊㅏㄴㅌㅏㄹ	-10184
▁ㅎㅗㄴㄷㅗㄴ	-10185
▁ㅂㅕㅇㅇㅝㄴㅊㅔ	-10186
aff	-10187
▁419	-10188
ㄹㅏㄹㄹㅏ	-10189
▁ㅁㅏㄴㄹㅣ	-10190
▁ㅅㅓㄹㅅㅏ	-10191
▁ㄴㅏㄱㄹㅏㅇ	-10192
▁ㅁㅣㄴㄱㅝㄴ	-10193
▁ㅂㅗㅇㅈㅏㄱ	-10194
day	-10195
▁Po	-10196
▁Top	-10197
▁set	-10198
▁ㅇㅓㅍ	-10199
ㄹㅏㄴㄷㅔ	-10200
▁ㄱㅕㅇㅊㅣ	-10201
▁ㅅㅏㄴㅂㅜ	-10202
▁ㅈㅓㄱㅈㅐ	-10203
▁ㅊㅜㄹㄹㅜ	-10204
▁ㅌㅡㄱㄹㅖ	-10205
▁ㄱㅜㄴㅈㅣㅂ	-10206
▁ㅌㅣㅁㅈㅏㅇ	-10207
▁ㅍㅕㅇㄴㅕㄴ	-10208
▁KC	-10209
▁ㄱㅗㅇㄴㅕ	-10210
▁ㅂㅏㄴㄹㅕ	-10211
▁ㅂㅔㄴㅍㅣ	-10212
ㅈㅓㄴㅈㅐㅇ	-10213
ㅅㅗㅇㄱㅣ	-10214
ㅇㅕㄴㅇㅢ	-10215
▁ㅅㅏㅇㅊㅔ	-10216
▁ㄷㅓㅅㅅㅔㅁ	-10217
▁ㅈㅓㄴㅇㅐㄱ	-10218
ㅇㅣㄹㅅㅣㄴㅂㅗ	-10219
ㅍㅕㅇㅊㅓㄴㄱㅜㄱ	-10220
ma	-10221
▁HK	-10222
irst	-10223
▁ㄲㅏㅇ	-10224
ㅈㅏㄱㅅㅗ	-10225
ㅌㅐㄴㅍㅓ	-10226
ㅎㅏㄴㄷㅗ	-10227
▁ㄱㅕㄴㅈㅣ	-10228
▁ㅅㅓㄴㅎㅚ	-10229
▁ㅈㅗㅇㅈㅜ	-10230
ㅈㅣㄴㅂㅓㅂ	-10231
▁ㅂㅕㄱㅁㅕㄴ	-10232
▁ㅂㅜㄴㅇㅑㅇ	-10233
▁ㅊㅓㅇㄱㅜㄴ	-10234
▁ㅊㅣㄴㅁㅗㄱ	-10235
▁ㅅㅣㄹㅌㅐ	-10236
ㅈㅏㅇㅅㅓㅇ	-10237
▁ㄷㅏㅇㅂㅜㄴ	-10238
▁ㄸㅏㅇㅋㅗㅇ	-10239
▁ㅂㅕㄴㅂㅏㅇ	-10240
▁ㅌㅗㄹㅋㅣㄴ	-10241
▁ㅎㅐㄱㅅㅣㄹㅎㅓㅁ	-10242
ㅂㅓㅅ	-10243
▁ㄹㅓㄹ	-10244
ㄷㅗㅇㄷㅐ	-10245
ㅇㅕㅇㅅㅜ	-10246
ㅊㅏㄹㄱㅣ	-10247
▁ㄱㅕㅇㅅㅜ	-10248
▁ㄷㅡㄹㄹㅕ	-10249
▁ㅇㅑㄱㅈㅔ	-10250
ㅇㅜㄴㅈㅓㄴ	-10251
▁ㅅㅓㄱㅅㅏㅇ	-10252
▁ㅈㅏㅇㄹㅕㅇ	-10253
▁ㅎㅏㄹㅇㅑㅇ	-10254
▁ㄴㅗㄴㅅㅏㄴㅅㅣ	-10255
BT	-10256
▁DL	-10257
▁Big	-10258
▁NAD	-10259
▁ㄴㅓㄱ	-10260
ㄹㅏㅁㅅㅡ	-10261
▁ㅁㅗㄱㄷㅗ	-10262
▁ㅅㅗㄴㅂㅏ	-10263
▁ㅊㅓㅇㅎㅘ	-10264
▁ㅎㅘㅇㅂㅗ	-10265
▁ㄱㅕㄴㅅㅡㅂ	-10266
▁ㄷㅗㄱㄱㅏㅁ	-10267
▁ㅂㅜㄱㅅㅏㅇ	-10268
▁ㅈㅏㅇㅌㅐㄱㅅㅏㅇ	-10269
aut	-10270
▁FBI	-10271
▁1857	-10272
▁ㄷㅏㄹㄹㅐ	-10273
▁ㄹㅣㄴㄷㅡ	-10274
▁ㄱㅣㅁㅁㅜㄴ	-10275
▁ㅁㅏㄴㅇㅕㄴ	-10276
▁ㅇㅕㄹㅍㅜㅇ	-10277
▁ㄱㅏㅁㅇㅕㅁㅈㅏ	-10278
▁ㄷㅗㅇㅂㅜㄱㅉㅗㄱ	-10279
▁SI	-10280
▁YM	-10281
▁239	-10282
ㅂㅗㄹㅌㅡ	-10283
ㅇㅕㄴㄹㅛ	-10284
▁ㅁㅏㄴㄱㅣ	-10285
▁ㅅㅣㄹㄹㅗ	-10286
▁ㅊㅏㅁㅂㅐ	-10287
▁ㅍㅜㄹㅇㅓ	-10288
▁ㅎㅏㅁㅇㅏㄴ	-10289
▁ㅎㅐㄱㅅㅏㄴ	-10290
▁FN	-10291
ㅅㅗㅁ	-10292
▁215	-10293
▁Bro	-10294
▁ㅂㅜㄴㅅㅙ	-10295
ㅅㅣㄴㄱㅏㅁ	-10296
▁ㅁㅜㄴㅅㅓㅇ	-10297
▁ㅅㅣㄹㅊㅐㄱ	-10298
▁ㄲㅗㅊㅂㅏㄷㅊㅣㅁ	-10299
▁JP	-10300
ㅅㅓㅇㅇㅐ	-10301
▁ㅇㅔㄹㅍㅡ	-10302
▁ㅎㅕㅇㅁㅜ	-10303
▁ㅁㅣㅌㅁㅕㄴ	-10304
▁ㅅㅡㅇㅈㅓㄴ	-10305
its	-10306
▁TN	-10307
▁do	-10308
ㅇㅔㄴㄴㅏ	-10309
▁ㄴㅏㄱㅌㅏ	-10310
▁ㅂㅔㄴㅈㅓ	-10311
▁ㅅㅣㄴㄱㅛ	-10312
▁ㅅㅣㄹㄹㅏ	-10313
▁ㅇㅣㄴㅌㅡ	-10314
ㄱㅘㅇㅅㅓㄴ	-10315
ㄴㅏㅁㅉㅗㄱ	-10316
▁ㄱㅓㄹㅁㅏㅈ	-10317
▁ㄱㅕㄹㅈㅣㅂ	-10318
▁ㅂㅏㅂㅅㅏㅇ	-10319
ㄷㅗㄱㄹㅣㅂㄷㅏㅇ	-10320
▁ㅎㅏㄴㄱㅜㄱㄷㅗㄱㄹㅣㅂㄷㅏㅇ	-10321
▁End	-10322
ㅈㅓㄴㅅㅣ	-10323
▁ㅂㅏㄹㅎㅘ	-10324
▁ㄱㅕㅇㅅㅐㄱ	-10325
▁ㅊㅏㄱㅇㅏㄴ	-10326
BL	-10327
▁ㅈㅏㅇㄱㅜ	-10328
▁ㅈㅓㅇㄱㅜ	-10329
▁ㅋㅐㄴㅂㅓ	-10330
ㄴㅏㅁㄱㅜㄴ	-10331
ㅇㅘㅇㄱㅜㄱ	-10332
▁ㄷㅓㅁㅂㅜㄹ	-10333
▁ㅈㅓㅇㅊㅓㄹ	-10334
▁PP	-10335
ㄷㅗㄷ	-10336
ㅈㅐㄱ	-10337
ement	-10338
▁Will	-10339
ㅋㅓㄴㅌㅡ	-10340
ㅎㅏㅇㅈㅔ	-10341
▁ㅁㅏㄹㅅㅗ	-10342
▁ㅅㅗㄱㅆㅣ	-10343
▁ㅅㅣㄴㄴㅏ	-10344
▁ㅇㅓㄱㄹㅠ	-10345
▁ㅇㅛㅇㅈㅏ	-10346
▁ㅇㅣㄺㅎㅣ	-10347
▁ㄱㅜㄹㅇㅛㄱ	-10348
▁ㅈㅏㅁㄷㅡㄹ	-10349
▁ㅈㅣㄴㅈㅓㅇㅎㅏ	-10350
▁ㅊㅜㄹㅅㅐㅇㅈㅣ	-10351
vis	-10352
▁RE	-10353
▁ㅅㅏㅇㅅㅣ	-10354
▁ㅇㅕㄴㅈㅘ	-10355
ㅂㅗㅇㅅㅏㄴ	-10356
▁ㄱㅣㅁㅎㅏㄴ	-10357
▁ㅂㅏㄱㄱㅕㄱ	-10358
▁ㅂㅏㅇㅎㅏㄴ	-10359
ㅈㅡㄹㄹㅐㄴㄷㅡ	-10360
ㅎㅏㄱㅅㅐㅇㅎㅚ	-10361
▁ㄱㅗㅇㅈㅣㄱㅈㅏ	-10362
▁ㅅㅓㅇㄷㅗㅇㄱㅜ	-10363
▁ㅇㅔㄹㅅㅏㄹㅂㅏ	-10364
▁ㅈㅡㅇㅁㅕㅇㅅㅓ	-10365
▁ㄱㅣㅁㅈㅗㅇㅍㅣㄹ	-10366
▁es	-10367
▁ㄱㅕㅇㅇㅣ	-10368
▁ㄱㅜㄻㅈㅜ	-10369
▁ㅂㅗㄴㄱㅣ	-10370
▁ㅇㅏㅂㅅㅗㅇ	-10371
▁ㅈㅣㄱㄱㅝㄴ	-10372
▁ㅍㅣㄱㅅㅕㄴ	-10373
▁ㅋㅟㄴㅈㅡㄹㄹㅐㄴㄷㅡ	-10374
▁WH	-10375
▁Rain	-10376
ㅍㅗㄴㄴㅔ	-10377
▁ㄱㅝㄴㅅㅔ	-10378
▁ㅁㅜㄴㄱㅛ	-10379
▁ㅇㅣㅍㅈㅏ	-10380
▁ㅋㅓㄴㄷㅣ	-10381
▁ㅍㅡㄹㄹㅚ	-10382
▁ㄱㅕㄹㅌㅏㄱ	-10383
▁ㅅㅏㄴㅌㅏㄴ	-10384
▁ㅇㅓㄴㅇㅑㄱ	-10385
▁ㅇㅕㄴㅊㅓㄴ	-10386
▁ㅇㅕㄹㅁㅏㅇ	-10387
▁ㅇㅝㄴㅅㅓㅇ	-10388
▁ㅈㅏㅁㅂㅗㄱ	-10389
▁ㅈㅜㅇㅊㅓㅂ	-10390
HS	-10391
▁NK	-10392
▁ㅍㅚ	-10393
ㅎㅠㅇ	-10394
▁Des	-10395
▁ㄸㅜㅇ	-10396
▁ㅅㅜㅅ	-10397
▁LIVE	-10398
ㅂㅡㄹㄹㅔ	-10399
ㅈㅣㄴㄱㅣ	-10400
▁ㅅㅔㄴㅅㅡ	-10401
▁ㅊㅗㅇㅊㅔ	-10402
ㅇㅝㄴㄷㅗㅇ	-10403
ㅇㅝㄴㅂㅕㅇ	-10404
▁ㅂㅜㄴㅈㅏㅇ	-10405
▁ㅅㅏㄹㄹㅣㅁ	-10406
▁ㅇㅛㄱㅅㅓㄹ	-10407
▁ㅇㅞㄹㄹㅣㅇ	-10408
▁ㅇㅣㅂㅈㅓㄱ	-10409
▁ㅎㅘㅇㄱㅏㄹㅅㅐㄱ	-10410
▁510	-10411
ㅇㅕㄴㄷㅐ	-10412
▁ㄱㅏㄴㅅㅗ	-10413
ㅁㅏㄱㅇㅕㅁ	-10414
▁ㅅㅏㄴㅂㅜㄹ	-10415
▁ㅇㅕㄱㅎㅐㅇ	-10416
▁ㅈㅓㅇㅇㅑㄱ	-10417
br	-10418
▁1776	-10419
ㄴㅏㄴㅎㅐ	-10420
ㅅㅓㅁㅇㅠ	-10421
▁ㅅㅐㅇㅅㅏ	-10422
▁ㅈㅜㄴㅇㅟ	-10423
▁ㅇㅣㄹㄹㅏㅁ	-10424
▁ㅁㅣㄴㅅㅗㄱㅁㅜㄴㅎㅘ	-10425
oup	-10426
▁233	-10427
▁BMW	-10428
ㄹㅔㄱㅌㅡ	-10429
ㅅㅐㅇㅇㅏ	-10430
ㅇㅜㄴㅌㅏ	-10431
▁ㄱㅜㄱㅊㅐ	-10432
▁ㅇㅘㄹㄹㅏ	-10433
▁ㅇㅝㄴㄱㅏ	-10434
▁ㅈㅣㅇㅎㅜ	-10435
▁ㅊㅗㄹㄹㅏ	-10436
ㄱㅕㅇㄱㅜㅇ	-10437
▁ㄱㅕㅇㅁㅕㄹ	-10438
▁ㅅㅡㅂㅅㅓㅇ	-10439
▁ㄷㅗㅇㅁㅕㅇㅇㅣ	-10440
▁ㅇㅣㄹㄱㅏㄴㅈㅣ	-10441
▁ㅎㅕㄴㄱㅡㅂㅅㅣ	-10442
▁ㄷㅗㄱㄹㅣㅂㄱㅜㄱ	-10443
▁OC	-10444
ㄷㅡㄴㅈㅣ	-10445
▁ㅅㅏㄹㅂㅏ	-10446
▁ㅅㅑㄹㄹㅓ	-10447
▁ㅈㅏㅇㅂㅗ	-10448
ㅅㅣㄱㅅㅓㅇ	-10449
▁ㄷㅗㅇㅂㅗㄱ	-10450
▁ㅅㅣㄹㅅㅡㅂ	-10451
▁ㅈㅗㄴㅇㅓㅁ	-10452
▁ㅎㅗㅇㅂㅐㄱ	-10453
▁ㅆㅏㅇㅂㅏㅇㅇㅜㄹ	-10454
ㅎㅓㄹ	-10455
ouse	-10456
▁Pop	-10457
▁del	-10458
ㅈㅣㄴㅎㅗ	-10459
▁ㅂㅏㄹㅈㅜ	-10460
▁ㅅㅏㅇㅍㅣ	-10461
▁ㅋㅗㄴㅌㅡ	-10462
ㅇㅓㄹㅂㅣㄴ	-10463
ㅇㅣㄴㅈㅓㄹ	-10464
ㅈㅜㄴㅇㅛㅇ	-10465
▁ㅂㅏㄴㅇㅣㄹ	-10466
▁ㅅㅣㅁㅅㅣㄴ	-10467
▁ㅈㅜㅇㅅㅐㅇㄷㅐ	-10468
WS	-10469
▁DFB	-10470
▁1792	-10471
▁LOVE	-10472
ㅊㅓㄴㄴㅕㄴ	-10473
▁ㄱㅏㅁㅌㅏㄴ	-10474
▁ㄱㅗㄹㅁㅗㄱ	-10475
▁ㄷㅏㅁㄹㅗㄴ	-10476
▁ㅂㅕㄴㅈㅏㅇ	-10477
▁ㅂㅜㄹㅍㅕㅇ	-10478
▁ㅇㅜㅇㅈㅏㅇ	-10479
▁ㅈㅓㅇㄴㅕㄴ	-10480
▁ㅅㅐㅁㅍㅡㄹㄹㅣㅇ	-10481
▁ㄱㅡㅁㅎㅘ	-10482
▁ㅇㅗㄹㅃㅐ	-10483
▁ㅋㅗㄴㅇㅝㄹ	-10484
▁ㅅㅏㅇㅅㅗㄱㅇㅣㄴ	-10485
▁CT	-10486
▁mg	-10487
ㄴㅅㅣ	-10488
▁TOP	-10489
▁1791	-10490
▁1852	-10491
▁ㅁㅏㄴㄷㅜ	-10492
▁ㅇㅡㅁㅅㅗ	-10493
▁ㅅㅐㄱㅇㅣㄴ	-10494
▁ㅅㅣㄴㅅㅜㄱ	-10495
▁ㅇㅑㅇㄹㅕㄱ	-10496
▁ㄷㅗㅇㅂㅜㄱㅇㅏ	-10497
aj	-10498
ㅁㅣㅇㅇㅓㅁ	-10499
ㅅㅏㅇㅎㅜㄴ	-10500
ㅈㅡㅇㄱㅝㄴ	-10501
▁ㅇㅏㄴㅊㅓㄹㅅㅜ	-10502
▁ㅇㅡㄴㅎㅐㅇㄴㅏ	-10503
be	-10504
▁FX	-10505
ㅇㄱㅣ	-10506
▁Net	-10507
▁ㅅㅣㄹㄷㅡ	-10508
▁ㅎㅏㅇㅁㅗ	-10509
ㅂㅜㄱㄷㅏㄴ	-10510
ㅊㅏㄹㅇㅡㅁ	-10511
ㅍㅏㄹㄹㅔㄴ	-10512
▁ㅅㅣㄴㅁㅕㅇ	-10513
▁ㅈㅓㄹㅁㅕㄹ	-10514
▁ㅌㅏㄴㅎㅘㄴ	-10515
▁ㅎㅏㄴㅂㅏㅇ	-10516
▁ㅁㅗㄱㄱㅓㄹㅇㅣ	-10517
▁NX	-10518
ㅍㅗㄹㅌㅡ	-10519
▁ㅂㅓㄴㅅㅡ	-10520
▁ㅈㅗㄱㅈㅔ	-10521
▁ㅋㅗㄴㄷㅗ	-10522
ㅂㅏㅇㅅㅣㄱ	-10523
▁ㄱㅏㄱㅂㅕㄹ	-10524
▁ㄱㅜㄱㅁㅜㄹ	-10525
▁ㄴㅏㄴㄱㅏㄴ	-10526
▁ㄱㅗㄴㅅㅏㄹㄹㅔ	-10527
ㅎㅐㄱㅅㅐㅇㅁㅜㄹ	-10528
ㄷㅓㅇ	-10529
▁fun	-10530
▁ㄱㅜㄹㄹㅣ	-10531
▁ㅅㅣㄴㅈㅐ	-10532
▁ㅇㅡㄴㅅㅏ	-10533
▁ㅈㅓㅇㅍㅏ	-10534
▁ㅋㅏㄹㄹㅗ	-10535
▁ㅍㅜㅁㄱㅖ	-10536
▁ㅎㅗㄹㄷㅡ	-10537
▁ㄱㅕㄴㅎㅝㄴ	-10538
▁ㅂㅏㄹㅅㅗㅇ	-10539
ech	-10540
▁EF	-10541
▁RD	-10542
▁Eng	-10543
▁ㅈㅡㅂ	-10544
▁Show	-10545
▁ㄱㅏㅈㄱㅏ	-10546
▁ㅇㅏㄴㅎㅜ	-10547
▁ㅈㅏㅇㅌㅓ	-10548
▁ㅎㅏㄴㅁㅏ	-10549
ㄷㅗㅇㅁㅐㄱ	-10550
▁ㅁㅕㅇㅈㅓㄹ	-10551
▁ㅅㅔㄹㄹㅜㄹ	-10552
▁ㅎㅐㅇㅈㅓㅇㄱㅘㄴ	-10553
▁Red	-10554
▁ㅋㅔㅁ	-10555
▁ㄱㅓㄹㅈㅡ	-10556
▁ㅅㅓㅇㅊㅜ	-10557
▁ㅇㅏㄴㄱㅜ	-10558
▁ㅌㅏㄴㅎㅘ	-10559
▁ㅎㅏㅂㅊㅔ	-10560
ㅅㅜㄴㄱㅜㄴ	-10561
ㅈㅓㅇㅅㅜㄱ	-10562
▁ㅊㅣㄴㅈㅓㄹ	-10563
oss	-10564
▁ㄲㅘ	-10565
▁231	-10566
▁ㄱㅡㅂㄱㅣ	-10567
▁ㅅㅏㄴㄷㅡ	-10568
▁ㅅㅓㄴㄷㅓ	-10569
▁ㅇㅕㅇㅇㅏ	-10570
▁ㅈㅣㄱㅈㅔ	-10571
▁ㅋㅗㄱㅅㅡ	-10572
ㅍㅏㄴㅈㅏㅇ	-10573
▁ㄱㅡㄴㅇㅕㄴ	-10574
▁ㅂㅏㄱㅈㅜㅇ	-10575
▁ㅇㅕㅇㅇㅕㄴ	-10576
▁ㅇㅡㅁㄹㅏㄴ	-10577
▁ㄱㅜㄱㅁㅣㄴㅈㅜ	-10578
▁ㅃㅐㄱ	-10579
▁1853	-10580
▁ㅂㅏㅇㄱㅘ	-10581
▁ㅂㅜㄱㅈㅔ	-10582
▁ㅅㅣㄱㄹㅛ	-10583
▁ㅋㅏㄴㅌㅏ	-10584
▁ㅌㅏㄹㄹㅏ	-10585
ㄴㅔㄴㅌㅓㄹ	-10586
ㅎㅘㄹㅅㅓㅇ	-10587
▁ㅂㅜㄱㄷㅏㄴ	-10588
▁ㅅㅣㄹㅎㅘㅇ	-10589
▁ㅂㅏㄴㄱㅗㅇㅈㅜ	-10590
▁ㅎㅐㄱㅇㅕㄴㄹㅛ	-10591
▁ㅁㅕㅇㄹㅠㄴㄷㅏㅇ	-10592
▁UK	-10593
ㅇㅏㄶ	-10594
▁221	-10595
▁ㅇㅕㅌ	-10596
ㄹㅐㄴㅅㅓ	-10597
▁Light	-10598
ㄱㅗㄱㅅㅓㄴ	-10599
ㅂㅐㄱㅅㅏㄴ	-10600
ㅅㅠㄹㄹㅣㄴ	-10601
▁ㅇㅏㄱㅇㅕㄱ	-10602
▁JS	-10603
▁MX	-10604
▁TA	-10605
▁ro	-10606
▁Bar	-10607
▁Over	-10608
ㄷㅏㅁㅎㅚ	-10609
ㅇㅡㅁㄷㅐ	-10610
▁ㄱㅏㄹㄹㅜ	-10611
▁ㅅㅓㅇㅊㅐ	-10612
▁ㅅㅣㄹㅂㅏ	-10613
▁ㅅㅣㄹㅎㅘ	-10614
▁ㄱㅡㅁㄱㅘㅇ	-10615
▁ㅅㅜㄱㅅㅓㅇ	-10616
▁ㅇㅔㅁㅂㅡㄹ	-10617
▁ㄷㅡㅇㄹㅗㄱㄱㅡㅁ	-10618
red	-10619
▁1847	-10620
ㅈㅓㄴㅎㅏ	-10621
▁ㄴㅏㅁㅅㅜ	-10622
▁ㅂㅜㄴㄱㅐ	-10623
▁ㅇㅏㄴㅅㅔ	-10624
▁ㅇㅑㅇㅂㅜ	-10625
▁ㅇㅑㄱㄱㅜㄱ	-10626
▁ㅈㅓㄴㄱㅏㄹ	-10627
▁ㅎㅕㄴㅁㅕㅇ	-10628
echn	-10629
▁228	-10630
▁ㄱㅘㄴㅅㅏ	-10631
ㅈㅓㄴㄱㅜㄴ	-10632
▁ㅁㅕㅇㅍㅜㅁ	-10633
▁ㅂㅏㄴㅇㅕㄹ	-10634
▁ㅅㅓㄴㅅㅡㅇ	-10635
▁ㅇㅕㄴㅈㅏㄱ	-10636
▁ㅈㅐㅇㅈㅓㅁ	-10637
▁ㄱㅘㄴㅇㅏㄱㄱㅜ	-10638
▁ㅁㅗㄱㅍㅏㄴㅂㅗㄴ	-10639
99	-10640
▁ac	-10641
▁212	-10642
▁Har	-10643
ㅇㅗㅇㅈㅜ	-10644
▁ㅇㅝㄴㅎㅘ	-10645
ㄴㅏㅁㄷㅏㄴ	-10646
ㅇㅛㅇㅅㅓㅇ	-10647
▁ㅁㅏㄴㄱㅕㅇ	-10648
▁ㅂㅗㅇㅅㅏㄴ	-10649
▁ㅅㅡㄹㄹㅗㅅ	-10650
▁ㅎㅕㄴㅅㅐㅇ	-10651
07	-10652
ason	-10653
ㅈㅓㄱㅎㅘ	-10654
▁ㄱㅘㄴㅅㅓ	-10655
▁ㅅㅏㅁㅂㅜ	-10656
▁ㅎㅕㄴㄴㅐ	-10657
ㅈㅓㅇㄱㅝㄴ	-10658
▁ㅅㅣㄱㄴㅕㄴ	-10659
▁ㅈㅏㅇㅇㅕㅇ	-10660
ㅈㅡㅂ	-10661
▁ㄸㅜㄱ	-10662
▁1100	-10663
ㅌㅐㄱㅈㅣ	-10664
▁ㅁㅣㄹㄹㅗ	-10665
▁ㅂㅏㅇㅅㅜ	-10666
▁ㅂㅜㄱㄹㅗ	-10667
▁ㅅㅐㅇㅈㅔ	-10668
▁ㅇㅕㄴㅅㅏ	-10669
▁ㅈㅏㅇㅌㅏ	-10670
▁ㄱㅘㅇㄱㅕㅇ	-10671
▁ㄴㅡㅇㅌㅗㅇ	-10672
▁ㅂㅜㄱㅁㅕㄴ	-10673
▁ㅊㅏㅇㅇㅏㄴ	-10674
▁ㅇㅓㄴㅈㅔㄴㄱㅏ	-10675
▁ㅊㅗㅇㅎㅏㄱㅅㅐㅇㅎㅚ	-10676
08	-10677
IE	-10678
▁ㄲㅗㅁ	-10679
▁ㄱㅏㄴㅍㅏ	-10680
▁ㄲㅡㄶㅇㅓ	-10681
▁ㅅㅏㅁㄱㅏ	-10682
▁ㅅㅓㅇㅎㅏ	-10683
ㅈㅏㅇㅅㅣㄱ	-10684
ㅍㅔㄴㅅㅕㄴ	-10685
▁ㄱㅏㅂㅅㅏㅇ	-10686
▁ㅁㅗㄱㄱㅕㄱㅈㅏ	-10687
▁ㅈㅡㅇㅅㅗㄴㅈㅏ	-10688
▁ㅍㅕㅇㅊㅏㅇㄱㅜㄴ	-10689
iet	-10690
ㄱㅜㅂ	-10691
▁LTE	-10692
▁1844	-10693
ㅌㅔㄴㅅㅠ	-10694
ㅌㅗㄴㅅㅡ	-10695
▁ㅇㅣㄱㅈㅜ	-10696
▁ㅌㅔㅁㅍㅗ	-10697
ㄲㅓㅂㅈㅣㄹ	-10698
ㅅㅣㄹㄹㅗㄴ	-10699
▁ㄲㅏㅁㅉㅏㄱ	-10700
▁ㅆㅜㄴㅇㅝㄴ	-10701
▁ㅇㅗㅇㅈㅣㄴㄱㅜㄴ	-10702
▁ㄱㅠㄴㄹㅠ	-10703
▁ㄱㅣㅁㅎㅗ	-10704
▁ㅅㅓㅇㅎㅗ	-10705
▁ㅈㅏㅁㄱㅡ	-10706
▁ㅋㅏㄹㅊㅗ	-10707
▁ㄴㅏㅇㄷㅗㄱ	-10708
▁ㅇㅕㄴㅇㅣㄹ	-10709
▁ㅎㅕㄹㅊㅓㅇ	-10710
ㄷㅓㄹㄹㅐㄴㄷㅡ	-10711
▁ㅈㅓㅇㅊㅏㄹㄱㅣ	-10712
▁el	-10713
▁ㄸㅗㅇ	-10714
ㄱㅏㅁㅈㅏ	-10715
▁ㄱㅜㄷㅇㅓ	-10716
▁ㅂㅏㄴㄷㅣ	-10717
ㄷㅏㅇㄷㅗㅇ	-10718
▁ㅇㅠㄴㅅㅓㄱ	-10719
▁ㅊㅗㄴㄹㅏㄱ	-10720
▁ㅊㅗㅇㅇㅏㄹ	-10721
▁ㅇㅕㄴㅊㅓㄴㄱㅜㄴ	-10722
way	-10723
ㄲㅜㅁ	-10724
ator	-10725
ㅂㅏㄹㄱㅗ	-10726
▁ㅇㅝㄴㄱㅣ	-10727
▁ㄱㅡㅂㅅㅡㅂ	-10728
▁ㅁㅣㄹㅌㅓㄴ	-10729
▁ㅂㅏㄱㅇㅣㄴ	-10730
▁ㅎㅏㅂㅂㅏㅇ	-10731
▁ㅈㅜㅇㅎㅏㄱㅅㅐㅇ	-10732
▁ㅌㅗㅇㅎㅏㅂㅈㅣㄴㅂㅗ	-10733
04	-10734
▁CV	-10735
▁757	-10736
▁Sec	-10737
▁ㄱㅏㅇㅇㅏ	-10738
▁ㅂㅜㄱㅂㅔ	-10739
▁ㅅㅏㅇㄷㅗ	-10740
▁ㅇㅐㄱㅅㅜ	-10741
▁ㅎㅏㄴㄷㅗ	-10742
▁ㅎㅏㅇㅈㅓ	-10743
▁ㅅㅣㄴㅇㅕㅇ	-10744
▁ㅇㅏㄹㄹㅗㄴ	-10745
▁ㅂㅣㄹㅁㅣ	-10746
▁ㅌㅡㅁㅅㅐ	-10747
ㅈㅗㄹㅈㅜㅇ	-10748
▁ㄱㅜㄱㅁㅕㄴ	-10749
▁ㅅㅏㅇㄱㅝㄴ	-10750
▁ㄱㅏㅂㄱㅏㄱㄹㅠ	-10751
▁ㅁㅣㄹㅇㅑㅇㅅㅣ	-10752
▁Sound	-10753
▁ㅇㅏㄹㅋㅏ	-10754
▁ㅇㅏㅇㅋㅏ	-10755
▁ㅍㅕㅇㅅㅏ	-10756
ㄹㅣㅇㅌㅓㄴ	-10757
ㅁㅏㅇㅇㅣㄴ	-10758
ㅁㅗㄱㅁㅣㄴ	-10759
ㅅㅡㅇㄹㅏㅁ	-10760
ㅈㅗㄱㅇㅝㄴ	-10761
▁ㅊㅓㄴㅁㅕㅇ	-10762
▁ㅂㅕㄴㅅㅗㄱㄱㅣ	-10763
▁Hello	-10764
▁ㅎㅣㄹㄹㅓ	-10765
ㄹㅡㅁㅊㅓㄹ	-10766
ㅇㅘㄴㅅㅓㅇ	-10767
▁ㅎㅏㄱㅈㅓㅁ	-10768
▁ㅎㅏㄴㅇㅗㄱ	-10769
ㅈㅜㅇㄱㅜㄱㅎㅐ	-10770
ㅂㅜㅅ	-10771
▁Sum	-10772
▁wid	-10773
▁1837	-10774
▁Road	-10775
ㄷㅡㄴㄱㅏ	-10776
ㅈㅓㅇㅈㅜ	-10777
▁ㄱㅔㄴㅈㅣ	-10778
▁ㅍㅏㄹㄹㅗ	-10779
▁ㄱㅏㄴㅍㅕㄴ	-10780
▁ㄱㅏㅇㅁㅜㄹ	-10781
▁ㄱㅓㄴㅇㅏㄴ	-10782
▁ㅅㅜㄴㅊㅏㅇ	-10783
▁ㅇㅡㄴㄷㅜㄴ	-10784
▁ㅇㅣㅂㅇㅏㄴ	-10785
▁ㅊㅐㄱㅍㅏㄴ	-10786
▁ㅍㅣㄱㅇㅓㅂ	-10787
yl	-10788
▁Af	-10789
▁HE	-10790
vent	-10791
▁Like	-10792
▁ㄹㅗㄹㅅㅡ	-10793
▁ㅁㅜㄴㅂㅜ	-10794
▁ㅎㅗㅇㄷㅐ	-10795
▁ㅅㅏㄹㅅㅏㅇ	-10796
▁ㅅㅏㅇㅅㅓㄱ	-10797
▁ㅅㅓㄹㅂㅓㅂ	-10798
▁ㅊㅓㄱㅌㅏㄴ	-10799
▁ㅌㅏㄴㅇㅝㄴ	-10800
▁ㅍㅏㄹㄱㅏㄱ	-10801
▁ㄱㅝㄴㄹㅕㄱㅈㅏ	-10802
▁ㅂㅏㄹㅁㅕㅇㄱㅏ	-10803
▁ㅈㅓㄴㄴㅕㄴㄷㅗ	-10804
ㅁㅣㄴㅈㅓㅇㅇㅡㅁ	-10805
▁OF	-10806
ㅆㅓㄴ	-10807
ㅋㅐㅅ	-10808
ital	-10809
▁ㅃㅐㅅ	-10810
ㄹㅏㅇㅈㅜ	-10811
ㅇㅣㄴㅎㅚ	-10812
ㅅㅜㄹㅇㅝㄴ	-10813
▁ㅇㅣㅁㅇㅓㅂ	-10814
▁ㄱㅏㄴㅎㅐㅇㅁㅜㄹ	-10815
HT	-10816
ana	-10817
ner	-10818
ric	-10819
ven	-10820
ㄱㅡㅇ	-10821
▁217	-10822
ㅌㅗㅇㅈㅔ	-10823
▁ㅅㅣㄴㅇㅖ	-10824
▁ㅇㅛㄱㄱㅖ	-10825
▁ㅈㅓㄴㅊㅓ	-10826
▁ㅁㅏㅇㅁㅏㄱ	-10827
▁ㅁㅏㅇㅅㅏㅇ	-10828
▁ㅈㅓㅂㅊㅏㄱ	-10829
▁ㅋㅡㄹㄹㅗㄴ	-10830
▁ㅎㅡㅂㅎㅕㄹ	-10831
▁ㅇㅜㄹㄹㅡㅇㄷㅗ	-10832
▁ㅍㅡㄹㄹㅐㄴㅌㅡ	-10833
▁EV	-10834
ㅅㅖㄴ	-10835
▁007	-10836
▁RPG	-10837
ㅇㅔㄴㅌㅡ	-10838
▁ㅂㅏㄱㅈㅔ	-10839
▁ㅂㅓㅇㅋㅓ	-10840
▁ㅅㅐㄱㅈㅗ	-10841
▁ㅆㅓㄴㄷㅓ	-10842
▁ㅈㅓㄹㅌㅓ	-10843
ㄹㅣㄴㅅㅓㅇ	-10844
ㅈㅓㅇㅅㅣㄴ	-10845
▁ㅂㅏㄴㅁㅣㄴ	-10846
▁ㅇㅝㄴㅍㅏㄴ	-10847
▁ㅇㅡㅁㅇㅏㄱㅎㅚ	-10848
▁Pa	-10849
ㅌㅡㅁ	-10850
▁SQL	-10851
▁ㅌㅣㅂ	-10852
▁1794	-10853
ㅇㅑㅇㄷㅐ	-10854
ㅈㅔㄴㅎㅏ	-10855
▁ㄷㅔㄴㅂㅓ	-10856
▁ㅅㅜㄱㅇㅢ	-10857
▁ㅊㅜㄹㅅㅗ	-10858
▁ㄱㅘㅇㅈㅗㅇ	-10859
▁ㅂㅏㅇㅈㅓㄴ	-10860
▁ㅅㅐㅇㅇㅝㄴ	-10861
▁ㅇㅐㄱㅈㅓㅇ	-10862
▁ㅇㅠㄴㅂㅗㅇ	-10863
▁ㅂㅏㄱㄱㅕㄱㅍㅗ	-10864
▁ㅎㅜㄴㅁㅣㄴㅈㅓㅇㅇㅡㅁ	-10865
ㅉㅏㅇ	-10866
orce	-10867
▁Sci	-10868
▁Mnet	-10869
ㅂㅐㄱㅈㅔ	-10870
▁ㅅㅡㅂㅎㅏ	-10871
▁ㅇㅕㅇㅅㅔ	-10872
▁ㅇㅣㄱㅅㅏ	-10873
ㄱㅕㄴㅇㅣㄴ	-10874
ㅇㅑㅇㅅㅓㅇ	-10875
▁ㄱㅣㅁㅇㅡㅇ	-10876
▁ㄷㅏㄴㅍㅏㄴ	-10877
▁ㅇㅓㅁㅈㅓㅇ	-10878
▁ㅈㅣㅂㅎㅕㄴ	-10879
▁ㅊㅣㄴㅎㅕㅇ	-10880
▁ㅇㅐㅇㄱㅡㄹㄹㅗ	-10881
▁ㅈㅣㅂㅎㅏㅂㄹㅗㄴ	-10882
ㄹㅔㅇ	-10883
port	-10884
▁ㅈㅔㅁ	-10885
ㅅㅈㅣㅂ	-10886
ㅈㅔㄴㄷㅓ	-10887
▁ㄱㅗㅇㅎㅚ	-10888
▁ㅅㅓㄴㅎㅏ	-10889
▁ㅊㅏㄱㅇㅗ	-10890
▁ㅎㅓㄴㅈㅔ	-10891
ㅇㅣㅁㅅㅣㄱ	-10892
▁ㅇㅏㅁㅂㅕㄱ	-10893
▁ㄷㅗㅇㅇㅣㄴㄷㅗ	-10894
▁ㅌㅡㄱㄱㅗㅇㄷㅐ	-10895
▁ㄱㅜㄴㄷㅏㄴㅈㅏㅇ	-10896
▁ㅇㅣㄴㅅㅠㄹㄹㅣㄴ	-10897
ism	-10898
▁315	-10899
ution	-10900
ㄹㅕㅇㅅㅣ	-10901
ㄹㅣㄹㄹㅣ	-10902
▁ㅇㅑㅇㅈㅐ	-10903
▁ㅈㅣㄴㄱㅘ	-10904
▁ㅊㅓㄱㅅㅜ	-10905
▁ㅅㅗㅇㅈㅓㅇ	-10906
▁ㅈㅓㄱㅅㅓㅇ	-10907
▁ㅈㅓㅇㄹㅑㅇ	-10908
▁ㅎㅏㄴㅊㅏㅁ	-10909
IDS	-10910
bum	-10911
▁min	-10912
▁ㅋㅟㄹ	-10913
▁CCTV	-10914
▁ㄹㅏㅁㅂㅗ	-10915
▁ㅇㅓㅂㅅㅗ	-10916
▁ㅈㅜㅇㅈㅜ	-10917
▁ㅋㅓㄴㅅㅗ	-10918
▁ㅍㅕㄴㅁㅗ	-10919
ㄹㅜㅇㅈㅏㅇ	-10920
ㅎㅘㄹㅈㅓㄹ	-10921
▁ㄱㅏㅂㅍㅏㄴ	-10922
▁ㅅㅗㅇㄱㅡㅁ	-10923
▁ㅅㅣㄴㅎㅕㄴ	-10924
uk	-10925
ㄱㅝ	-10926
▁IB	-10927
▁1836	-10928
ㄱㅏㅇㄷㅐ	-10929
▁ㄴㅏㄴㅅㅏ	-10930
▁ㅁㅣㄹㅇㅝ	-10931
▁ㅂㅏㄴㄱㅜ	-10932
▁ㅈㅜㅇㅅㅏ	-10933
▁ㅋㅜㄹㄹㅣ	-10934
ㅈㅣㄴㅇㅕㅇ	-10935
▁ㄱㅜㄴㅎㅕㄴ	-10936
▁ㅇㅝㄹㄱㅡㅂ	-10937
▁ㅎㅏㅁㅍㅕㅇ	-10938
ㅅㅓㅂㄷㅏㄴㅊㅔ	-10939
▁ㅇㅟㄴㄴㅏㄴㅅㅓㅇ	-10940
ㅇㅋㅡ	-10941
▁226	-10942
▁520	-10943
▁ㅈㅡㄴ	-10944
▁ㅁㅜㄴㅁㅛ	-10945
▁ㅇㅕㅇㅎㅏ	-10946
▁ㅎㅏㄴㄹㅠ	-10947
▁ㅎㅑㅇㄹㅣ	-10948
ㅈㅔㄹㄹㅏㄴ	-10949
▁ㄱㅘㄴㄱㅗㅇ	-10950
▁ㅇㅣㄹㅈㅣㄱ	-10951
▁ㅈㅓㅇㅅㅜㄴ	-10952
▁ㅎㅏㅂㅈㅓㄴ	-10953
ㅈㅗㅇㅅㅣㄹㄹㅗㄱ	-10954
▁ㅁㅕㅇㅌㅏㅁㅈㅓㅇ	-10955
▁KR	-10956
▁ㅃㅡ	-10957
ㄷㅣㅈㅊㅣ	-10958
ㄹㅐㄱㅌㅣ	-10959
▁ㄷㅏㄴㅎㅗ	-10960
▁ㅁㅔㅁㅍㅣ	-10961
▁ㅂㅐㅁㅍㅏ	-10962
▁ㅅㅓㄴㅁㅜ	-10963
▁ㅅㅡㄹㄹㅔ	-10964
▁ㅇㅏㄹㅌㅏ	-10965
ㅎㅐㅇㄷㅏㄴ	-10966
▁ㄷㅗㅇㅈㅗㄱ	-10967
▁ㅁㅏㄴㅅㅓㄱ	-10968
▁ㅇㅡㅁㅅㅐㄱ	-10969
▁ㅊㅓㅇㄹㅕㅁ	-10970
▁ㅎㅗㄱㄷㅗㄱ	-10971
▁ㅈㅣㅇㅂㅕㅇㅈㅔ	-10972
▁ㅇㅝㄴㅌㅗㅇㅎㅕㅇ	-10973
▁ㄱㅕㅇㅎㅑㅇㅅㅣㄴㅁㅜㄴ	-10974
▁610	-10975
▁ㅁㅣㅁ	-10976
▁ㅅㅔㄱ	-10977
ㅂㅗㄹㄹㅜ	-10978
ㅍㅣㄹㄱㅏ	-10979
▁ㄹㅓㄱㅋㅣ	-10980
▁ㅆㅏㅇㄱㅖ	-10981
ㅂㅕㅇㅇㅝㄴ	-10982
▁ㄱㅡㅁㅅㅏㅇ	-10983
▁ㄱㅣㄹㅁㅗㄱ	-10984
▁ㅅㅡㅇㅌㅏㅂ	-10985
▁ㅅㅣㄴㄱㅏㄴ	-10986
▁ㅈㅓㅂㄱㅕㅇ	-10987
▁ㅊㅣㄴㅅㅜㄱ	-10988
▁ㅋㅗㄴㅅㅔㅂㅌㅡ	-10989
ㄱㅜㄱㅁㅣㄴㄷㅏㅇ	-10990
▁XX	-10991
ㄱㅜㄱㅅㅜ	-10992
ㅊㅓㄱㅊㅜ	-10993
▁ㅅㅓㅂㅆㅣ	-10994
▁ㅅㅓㅇㄴㅕ	-10995
▁ㅇㅡㅂㄴㅐ	-10996
▁ㄴㅏㄱㄴㅗㅇ	-10997
▁ㅁㅏㄴㅊㅏㄴ	-10998
▁ㅈㅓㅁㅅㅓㅇㄱㅏ	-10999
▁ㄷㅗㅇㅅㅣㄱㅁㅜㄹ	-11000
▁OP	-11001
▁720	-11002
▁ㄲㅗㅇ	-11003
▁ㄸㅡㄹ	-11004
▁ㅇㅜㅂ	-11005
ㄷㅗㅇㅅㅗ	-11006
ㄹㅏㄴㄷㅗ	-11007
ㅁㅏㅇㅅㅡ	-11008
ㅇㅕㅇㅎㅘ	-11009
ㅅㅐㅇㅁㅕㅇ	-11010
▁ㅅㅏㄴㄱㅏㄴ	-11011
▁ㅅㅓㅇㅊㅜㅇ	-11012
▁ㅇㅏㅁㅅㅜㄹ	-11013
ㄹㅏㄴㅅㅡ	-11014
▁ㅊㅗㅇㅈㅣ	-11015
▁ㅍㅕㄴㅅㅜ	-11016
ㅌㅣㅇㄱㅔㄴ	-11017
▁ㄴㅗㅇㄱㅕㅇㅈㅣ	-11018
ony	-11019
▁222	-11020
ㅍㅔㄴㅅㅡ	-11021
▁ㅇㅠㄴㅎㅚ	-11022
▁ㅊㅓㄹㅈㅔ	-11023
ㅁㅜㄴㅈㅓㅁ	-11024
ㅅㅐㄱㅅㅡㄴ	-11025
▁ㅂㅐㄱㄱㅜㄱ	-11026
▁ㅊㅏㅁㅂㅗㅇ	-11027
YS	-11028
ㅑㅁ	-11029
IST	-11030
oney	-11031
▁Stud	-11032
▁width	-11033
▁ㅅㅡㄹㅍㅓ	-11034
▁ㅇㅗㄱㄱㅐ	-11035
▁ㅇㅛㅇㅁㅐ	-11036
▁ㄱㅜㅇㄱㅡㅁ	-11037
▁ㅂㅜㄹㅎㅘㅇ	-11038
▁ㅅㅓㄴㄷㅓㄱ	-11039
▁ㅅㅓㅁㅁㅕㄹ	-11040
▁ㅈㅓㄴㄱㅘㅇ	-11041
05	-11042
09	-11043
▁Play	-11044
ㅅㅓㄴㅈㅗ	-11045
▁align	-11046
▁ㄷㅗㄱㄹㅕ	-11047
▁ㄸㅏㄹㄱㅣ	-11048
▁ㅂㅏㄱㅅㅔ	-11049
▁ㅃㅗㅂㅇㅏ	-11050
▁ㅇㅔㅁㅍㅏ	-11051
▁ㅈㅗㄴㅎㅗ	-11052
▁ㅅㅗㅇㅂㅕㅇ	-11053
▁ㅇㅏㄴㅅㅓㅇㅅㅣ	-11054
▁ㅇㅣㅇㄱㅡㄹㄹㅣ	-11055
▁ㅈㅓㅇㅊㅏㄱㅁㅣㄴ	-11056
▁no	-11057
▁ROM	-11058
ㅈㅏㄱㅂㅣ	-11059
▁ㄴㅐㄴㅅㅣ	-11060
▁ㅇㅏㅇㅈㅜ	-11061
▁ㅈㅓㅇㅎㅢ	-11062
▁ㄱㅣㅁㅁㅏㄴ	-11063
▁ㄴㅏㄱㅎㅑㅇ	-11064
▁ㅁㅗㄹㅇㅣㅂ	-11065
ㄱㅝㄹㅅㅓㄴㄱㅓ	-11066
▁ㅎㅕㄴㅇㅏㄱㄱㅣ	-11067
▁ㅇㅞㄹㄹㅣㅇㅌㅓㄴ	-11068
▁ㅇㅡㄿ	-11069
▁2030	-11070
ㅌㅔㅁㅈㅡ	-11071
▁ㅈㅗㅇㄱㅘ	-11072
▁ㅁㅏㄴㄴㅡㅇ	-11073
▁ㅁㅔㄴㄷㅔㄹ	-11074
▁ㅂㅕㅇㅇㅕㅇ	-11075
▁ㅅㅓㅇㄴㅕㄴ	-11076
▁ㅈㅓㅁㅅㅣㅁ	-11077
▁ㄱㅕㅇㅈㅏㄱㅈㅣ	-11078
▁232	-11079
▁ㅋㅏㄱ	-11080
ㄱㅜㄱㄱㅏ	-11081
▁ㅇㅣㅁㅅㅏ	-11082
ㅇㅕㅇㅂㅗㄱ	-11083
▁ㄱㅏㅁㅁㅕㅇ	-11084
▁ㄴㅏㅁㅈㅣㅅ	-11085
▁ㅅㅑㄹㄹㅓㅅ	-11086
▁ㅇㅣㅁㅍㅐㄱㅌㅡ	-11087
▁ㅎㅘㄴㄱㅕㅇㅂㅜ	-11088
ㄸㅔ	-11089
▁not	-11090
▁ㅈㅔㅅ	-11091
▁1806	-11092
▁1842	-11093
▁that	-11094
▁ㄴㅏㄴㅈㅏ	-11095
▁ㄷㅏㄺㄱㅗ	-11096
▁ㅁㅏㄹㄹㅓ	-11097
▁ㅁㅜㄴㅈㅣ	-11098
▁ㅅㅜㄱㄱㅗ	-11099
▁ㄷㅗㄴㄴㅕㅇ	-11100
▁ㅅㅣㅁㅊㅡㅇ	-11101
▁ㅋㅐㅂㅅㅠㄹ	-11102
▁ㅌㅏㄹㅅㅓㄴ	-11103
▁ㅇㅣㄹㅂㅗㄴㄱㅜㄱㅇㅠ	-11104
ㅅㅑㄹ	-11105
▁390	-11106
ㄷㅏㄹㄹㅏ	-11107
▁ㄱㅜㄱㄱㅗ	-11108
▁ㄷㅏㄹㅅㅓ	-11109
▁ㅁㅣㄴㅈㅏ	-11110
▁ㅇㅏㄴㅌㅡ	-11111
▁ㅇㅏㄹㅌㅗ	-11112
▁ㅇㅕㄴㅁㅏ	-11113
▁ㅇㅣㄴㅎㅚ	-11114
▁ㅍㅕㄴㄷㅗ	-11115
ㅇㅕㄴㅈㅏㅇ	-11116
ㅌㅏㄴㅌㅣㄴ	-11117
▁ㄱㅘㄴㅂㅏㅇ	-11118
▁ㅁㅕㅇㅇㅡㄴ	-11119
▁ㅂㅏㅇㄹㅏㅇ	-11120
▁ㅇㅛㄱㅅㅣㅁ	-11121
▁ㅁㅜㄴㅎㅏㄱㄱㅏ	-11122
▁ㄱㅘㄴㄷㅗㅇㄱㅜㄴ	-11123
▁ㅇㅕㄴㅈㅏㅇㅅㅓㄴ	-11124
af	-11125
ush	-11126
▁RO	-11127
ㄱㅏㄱㅎㅘ	-11128
ㄹㅛㅇㅅㅏ	-11129
▁Colle	-11130
▁ㄱㅏㅁㅎㅣ	-11131
▁ㄴㅗㄱㅅㅡ	-11132
▁ㅇㅣㄹㄹㅠ	-11133
▁ㅇㅝㄴㅁㅏㅇ	-11134
▁ㅊㅓㅇㅈㅣㄴ	-11135
▁ㅍㅏㄴㅂㅕㄹ	-11136
▁ㅍㅣㄹㅅㅏㄹ	-11137
▁ㄱㅏㄱㅇㅜㄴㄷㅗㅇ	-11138
UM	-11139
sc	-11140
▁MT	-11141
▁That	-11142
▁this	-11143
ㅅㅓㅇㅇㅣ	-11144
▁ㄷㅗㅇㄱㅘ	-11145
▁ㅅㅏㄴㄷㅗ	-11146
▁ㅇㅘㄴㅌㅜ	-11147
▁ㅊㅏㄴㄱㅏ	-11148
▁ㄱㅏㅇㅇㅏㅂ	-11149
▁ㄴㅏㄱㅇㅣㄴ	-11150
▁ㅈㅣㄴㅇㅑㅇ	-11151
▁ㅊㅗㄱㅎㅏㄴ	-11152
▁ㅁㅜㄴㅎㅏㄱㅅㅏ	-11153
▁ㅂㅗㄱㅈㅏㅂㄷㅗ	-11154
▁Boy	-11155
▁King	-11156
ㅎㅐㅁㅍㅡ	-11157
▁ㄹㅐㅇㅋㅓ	-11158
▁ㅍㅕㄴㅊㅏ	-11159
ㅁㅣㄹㅇㅝㄴ	-11160
▁ㅎㅏㄴㅅㅏㄴ	-11161
▁we	-11162
ㅊㅡㄹ	-11163
ㅋㅝㄴ	-11164
▁216	-11165
▁Rem	-11166
▁ㅅㅓㄴㅈㅣ	-11167
▁ㅇㅑㅇㅅㅣ	-11168
▁ㅇㅕㅁㄹㅛ	-11169
ㅌㅓㄹㄹㅣㅇ	-11170
▁ㄷㅏㄴㅅㅓㅇ	-11171
▁ㄷㅗㄱㅅㅣㄴ	-11172
▁ㅇㅜㄹㅇㅡㅁ	-11173
▁ㅅㅜㄹㅌㅏㄴㄱㅜㄱ	-11174
ㅉㅓㄱ	-11175
form	-11176
▁Sing	-11177
ㅈㅜㄴㅎㅗ	-11178
▁ㅂㅔㄴㅈㅏ	-11179
▁ㅅㅔㄹㅍㅡ	-11180
▁ㅇㅕㅍㄱㅜ	-11181
▁ㅇㅟㄴㅈㅓ	-11182
▁ㅊㅓㄹㄹㅗ	-11183
▁ㅋㅔㄹㄹㅓ	-11184
ㅅㅏㅇㄱㅜㄴ	-11185
▁ㄱㅜㄱㅁㅕㅇ	-11186
▁ㅇㅕㄹㄱㅘㅇ	-11187
▁ㅈㅓㄹㅇㅕㄴ	-11188
▁ㅉㅏㄱㅈㅣㅅ	-11189
▁ㅊㅜㄹㄱㅡㄴ	-11190
▁ㅊㅣㅁㅈㅓㄴ	-11191
ㅌㅡㄹㄹㅐㄴㅌㅣㄱ	-11192
▁ㄷㅏㄹㅅㅓㅇㄱㅜㄴ	-11193
▁ㅊㅓㄹㅇㅝㄴㄱㅜㄴ	-11194
KA	-11195
WA	-11196
ㄱㅠㄹ	-11197
ㄹㅍㅡ	-11198
▁ㅎㅜㄱ	-11199
ㄱㅡㅂㅅㅜ	-11200
ㄹㅡㄴㅎㅏ	-11201
ㄹㅣㅁㅍㅏ	-11202
lement	-11203
▁Great	-11204
▁ㄱㅜㅂㅎㅣ	-11205
▁ㄱㅣㅁㄴㅏ	-11206
▁ㅂㅜㄹㄷㅗ	-11207
▁ㅅㅣㄴㄷㅣ	-11208
▁ㅊㅓㅇㄷㅜ	-11209
▁ㅋㅗㅇㅋㅜ	-11210
▁ㅍㅓㄹㅅㅡ	-11211
▁ㅎㅗㅇㅈㅜ	-11212
ㅊㅗㅇㄱㅘㄴ	-11213
▁ㅂㅏㄴㅈㅡㅇ	-11214
▁ㅊㅓㅇㅌㅏㄱ	-11215
ㅋㅓㄹㄹㅓㅁㅂㅣ	-11216
UT	-11217
▁1796	-11218
ㄷㅏㄴㅈㅗ	-11219
ㅍㅗㄱㅅㅡ	-11220
▁ㅂㅏㅇㄱㅖ	-11221
▁ㅈㅓㅇㅌㅗ	-11222
ㄹㅗㄹㄹㅣㅇ	-11223
ㅁㅜㅅㅇㅣㅍ	-11224
▁ㄹㅣㄴㅌㅓㄴ	-11225
▁ㅅㅓㄴㅍㅜㅇ	-11226
▁ㅅㅓㅇㅂㅓㅁㅈㅚ	-11227
raph	-11228
▁key	-11229
▁1832	-11230
▁ㅅㅡㅂㄱㅣ	-11231
▁ㅇㅣㄹㄱㅜ	-11232
▁ㅈㅓㅇㅌㅐ	-11233
▁ㅈㅡㅇㅅㅓ	-11234
▁ㅍㅜㅇㅌㅗ	-11235
▁ㄴㅐㅇㅂㅏㅇ	-11236
▁ㅁㅕㅇㅊㅏㅇ	-11237
ㅅㅣㅇㅌㅓㄴㅈㅜ	-11238
▁ㅅㅐㅇㅅㅏㄴㅈㅣ	-11239
▁ㅊㅓㄱㅌㅏㄴㅂㅕㅇ	-11240
▁ㄱㅏㄱㅇㅜㄴㄷㅗㅇㄹㅑㅇ	-11241
▁950	-11242
▁1790	-11243
ㅂㅕㅇㅈㅏ	-11244
ㅅㅏㄹㄹㅏ	-11245
▁score	-11246
▁ㅅㅐㄱㄱㅖ	-11247
▁ㅅㅓㄹㄱㅏ	-11248
▁ㅇㅑㅇㅇㅏ	-11249
ㅂㅜㄹㅌㅐㅇ	-11250
▁ㅇㅕㄴㅅㅓㅇ	-11251
▁ㄱㅏㅇㅈㅣㄴㄱㅜㄴ	-11252
ㄱㅙ	-11253
iew	-11254
▁UI	-11255
tain	-11256
▁660	-11257
▁815	-11258
▁ㅋㅏㅅ	-11259
ㅁㅣㄴㅌㅔ	-11260
ㅊㅗㄴㅂㅓ	-11261
▁20120	-11262
▁ㅁㅜㄹㅇㅢ	-11263
▁ㅁㅣㄹㄱㅛ	-11264
▁ㅈㅓㄴㅎㅐ	-11265
▁ㅍㅗㄱㅇㅜ	-11266
ㅈㅓㄴㄷㅗㅇ	-11267
▁ㄱㅗㅇㅅㅐㅇ	-11268
▁ㅈㅓㄴㅍㅗㄱ	-11269
▁ㅊㅓㅇㅍㅜㅇ	-11270
ize	-11271
▁pH	-11272
▁1810	-11273
▁Inst	-11274
▁ㄱㅗㄹㅈㅏ	-11275
▁ㄱㅜㄱㅈㅏ	-11276
▁ㄱㅡㄱㅈㅘ	-11277
▁ㄹㅣㄱㅅㅡ	-11278
▁ㅅㅓㄱㅎㅗ	-11279
ㄹㅏㅂㅇㅣㄴ	-11280
▁ㅂㅕㅇㅇㅣㄴ	-11281
▁ㅅㅗㄱㅎㅕㄴ	-11282
▁ㅈㅓㄴㄹㅑㅇ	-11283
▁ㅈㅓㅇㅅㅓㄹ	-11284
▁ㅇㅏㅍㄷㅏㅇㄱㅣ	-11285
ㄸㅏㄴ	-11286
▁EOS	-11287
ㅌㅔㄱㅅㅡ	-11288
ㅌㅗㄹㄹㅗ	-11289
▁ㄱㅏㅁㄹㅗ	-11290
▁ㄱㅣㅁㅂㅗ	-11291
▁ㅁㅏㄴㅎㅏ	-11292
▁ㅇㅔㅅㅈㅣ	-11293
▁ㅈㅓㅇㄴㅏ	-11294
ㅇㅏㅁㅁㅕㄴ	-11295
▁ㄴㅏㅁㅁㅜㄴ	-11296
▁ㅅㅓㅇㅊㅡㅇ	-11297
▁ㅇㅣㄴㅈㅏㅇ	-11298
▁ㅇㅣㄴㅎㅕㄴ	-11299
▁ㅈㅡㅇㅅㅏㄴ	-11300
▁ㅊㅣㄴㅍㅣㄹ	-11301
▁Project	-11302
▁ㅇㅓㅁㅁㅣㄹㅎㅣ	-11303
lex	-11304
▁GL	-11305
ㄱㅓㄱ	-11306
ript	-11307
▁234	-11308
▁264	-11309
▁Are	-11310
▁LCK	-11311
▁Run	-11312
▁1798	-11313
ㄴㅔㄹㄹㅏ	-11314
ㅇㅣㅁㅅㅜ	-11315
▁ㄹㅣㄴㅅㅡ	-11316
▁ㅇㅝㄴㅇㅖ	-11317
▁ㅈㅏㅇㅁㅏ	-11318
▁ㅍㅔㄴㅌㅣ	-11319
▁ㅍㅠㄹㄹㅣ	-11320
▁ㅎㅏㄱㅈㅔ	-11321
▁ㅎㅔㄱㅌㅏ	-11322
▁ㅎㅔㄹㄹㅏ	-11323
▁ㄱㅕㅇㄱㅏㅁ	-11324
▁ㅇㅏㄴㄷㅏㄹ	-11325
▁ㅇㅕㄱㅅㅡㅂ	-11326
▁ㅈㅏㄴㄷㅏㅇ	-11327
▁ㅋㅏㄹㅂㅣㄴ	-11328
▁ㅍㅏㄴㄱㅏㄱ	-11329
▁ㅂㅕㄴㅈㅡㅇㅂㅓㅂ	-11330
▁ㅈㅣㅂㅎㅕㄴㅈㅓㄴ	-11331
rop	-11332
▁nt	-11333
▁val	-11334
ㄱㅜㄱㄷㅐ	-11335
ㅇㅛㅇㅈㅜ	-11336
ㅈㅏㅇㅅㅜ	-11337
▁ㄱㅏㄹㅁㅐ	-11338
▁ㄱㅣㅁㅎㅖ	-11339
▁ㅇㅠㄴㅈㅣ	-11340
▁ㅈㅐㅇㅊㅟ	-11341
▁ㅂㅣㄴㅇㅑㄱ	-11342
▁ㅅㅏㅁㄴㅏㅁ	-11343
▁ㅇㅕㄴㅅㅓㄴ	-11344
▁ㅍㅕㄴㅈㅣㅂㄱㅣ	-11345
SI	-11346
ady	-11347
elf	-11348
ㄴㅐㅂ	-11349
▁460	-11350
▁ㄷㅣㅁ	-11351
▁ㄹㅣㄴㅊㅣ	-11352
▁ㅇㅏㅍㅂㅜ	-11353
▁ㅊㅓㄹㄱㅛ	-11354
▁ㅎㅏㄴㅈㅣ	-11355
ㅇㅑㅇㄷㅗㅇ	-11356
ㅇㅣㅂㅅㅏㅇ	-11357
▁ㄷㅗㅇㅇㅡㅁ	-11358
▁ㅁㅕㅇㅁㅐㄱ	-11359
▁ㅅㅓㅇㅇㅘㅇ	-11360
▁ㅎㅜㄴㅈㅗㄱ	-11361
▁ㄱㅣㅁㅊㅓㄴㅅㅣ	-11362
▁ㄴㅏㅁㅇㅝㄴㅅㅣ	-11363
ane	-11364
▁FL	-11365
ㄱㅚㅇ	-11366
ㅁㅣㄹㄹㅏ	-11367
ㅇㅣㄴㄱㅘ	-11368
ㅇㅣㄴㄷㅓ	-11369
▁Every	-11370
▁ㅅㅓㅇㅅㅣ	-11371
▁ㅅㅓㅇㅎㅢ	-11372
▁ㅇㅝㄴㅊㅜ	-11373
▁ㅈㅓㄴㅅㅗ	-11374
▁ㅈㅓㅇㅎㅚ	-11375
ㅇㅑㅇㅅㅣㄱ	-11376
▁ㄱㅗㅇㅁㅜㄹ	-11377
▁ㅈㅓㄴㅎㅘㅇ	-11378
▁ㄱㅡㄴㅂㅗㄴㅈㅜ	-11379
▁ㄱㅏㅁㄷㅗㄱㅅㅏㅇ	-11380
ene	-11381
ott	-11382
rag	-11383
▁EL	-11384
▁up	-11385
▁410	-11386
▁640	-11387
▁Met	-11388
▁NHL	-11389
▁Sub	-11390
ㄱㅝㄴㄷㅗ	-11391
ㄷㅗㅇㅂㅜ	-11392
▁ㄱㅣㅁㅅㅗ	-11393
▁ㅁㅜㄱㅅㅣ	-11394
▁ㅎㅏㄱㅂㅣ	-11395
▁ㅎㅐㅁㅍㅡ	-11396
▁ㄴㅔㄱㅅㅡㄴ	-11397
▁ㅅㅣㄴㄴㅕㄴ	-11398
▁ㅅㅣㄴㅂㅣㅇ	-11399
▁ㅅㅣㄴㅊㅏㅇ	-11400
▁ㅇㅕㄹㄷㅡㅇ	-11401
▁ㅇㅕㅇㅇㅣㄹ	-11402
▁ㅈㅏㅇㅇㅓㅁ	-11403
▁ㅈㅓㄴㄱㅕㅇ	-11404
▁ㅎㅓㄴㅈㅗㅇ	-11405
▁ㅅㅐㅇㄱㅣㅁㅅㅐ	-11406
▁ㄱㅕㅇㅇㅕㅇㅈㅣㄴ	-11407
▁ㄷㅏㅁㅇㅑㅇㄱㅜㄴ	-11408
▁ㅇㅕㄼ	-11409
ㄴㅏㄹㄹㅣ	-11410
ㄹㅓㄱㅅㅡ	-11411
ㅈㅏㅇㅇㅓ	-11412
ㅋㅓㄹㄹㅓ	-11413
▁ㅁㅕㅇㅎㅚ	-11414
▁ㅂㅏㄴㅇㅠ	-11415
▁ㅂㅗㄹㄹㅏ	-11416
▁ㅌㅡㄹㅇㅓ	-11417
▁School	-11418
▁ㅅㅓㄴㅂㅓㅂ	-11419
▁ㅊㅗㅇㅎㅏㅂ	-11420
▁ㄱㅏㅇㄷㅗㅇㄱㅜ	-11421
▁ㅇㅔㅂㅅㅣㄹㄹㅗㄴ	-11422
pm	-11423
ㅃㅐㄱ	-11424
▁ㄱㅡㄴㅎㅐ	-11425
ㄹㅣㄱㅅㅡㄴ	-11426
▁ㄱㅘㅇㅅㅓㄱ	-11427
▁ㅅㅓㅇㄱㅡㅂ	-11428
▁ㅇㅏㄹㅎㅕㄴ	-11429
▁ㅌㅗㅇㅇㅕㅇㅅㅣ	-11430
▁ㅅㅣㄴㅇㅣㄴㅇㅘㅇ	-11431
▁PK	-11432
ㅆㅓㅂ	-11433
atic	-11434
▁Cor	-11435
▁Rad	-11436
ㅋㅏㄹㄹㅔ	-11437
ㅍㅔㄹㅌㅡ	-11438
▁ㅅㅣㄴㅍㅏ	-11439
▁ㅇㅏㄱㅎㅏ	-11440
ㅁㅣㄴㅌㅓㄴ	-11441
▁ㄱㅜㄱㅍㅏㄴ	-11442
▁ㄷㅗㄹㅂㅏㅇ	-11443
▁ㅂㅜㄹㅍㅔㄴ	-11444
▁ㅃㅐㄱㅃㅐㄱ	-11445
▁ㅅㅓㄱㅁㅜㄹ	-11446
▁ㅅㅓㅇㅈㅣㄱ	-11447
▁ㅇㅑㅇㅅㅗㄴ	-11448
▁ㅇㅜㄹㅈㅣㄴ	-11449
▁ㅈㅣㄹㅅㅏㄴ	-11450
▁ㅂㅓㅂㅎㅏㄱㅈㅏ	-11451
▁ㅁㅕㅇㅁㅕㅇㅂㅓㅂ	-11452
▁Bad	-11453
▁EMI	-11454
▁GPU	-11455
ㅆㅇㅓㅆ	-11456
ㅂㅏㄹㄹㅏ	-11457
ㅈㅜㅇㅁㅣ	-11458
▁ㅁㅏㄴㄱㅘ	-11459
▁ㅂㅏㄱㅈㅜ	-11460
▁ㅅㅗㄱㅈㅚ	-11461
▁ㅊㅣㅇㄷㅏ	-11462
▁ㅌㅗㅇㅅㅏ	-11463
▁ㄱㅏㄴㅌㅗㅇ	-11464
▁ㄷㅏㄴㄹㅕㄴ	-11465
▁ㅂㅓㅂㄷㅏㅇ	-11466
▁ㅂㅜㄱㅈㅣㄴ	-11467
▁ㅂㅡㄹㄹㅜㅁ	-11468
▁ㅅㅏㄹㄱㅠㄴ	-11469
▁ㅇㅕㄹㅈㅜㅇ	-11470
▁ㅍㅣㄹㅈㅓㄱ	-11471
▁ㅂㅜㄱㅈㅜㅇㅁㅣ	-11472
▁ㅊㅜㅇㅅㅣㄹㅎㅣ	-11473
uth	-11474
ㅍㅓㄱ	-11475
▁255	-11476
▁1831	-11477
ㄴㅗㅇㅅㅏ	-11478
ㄹㅡㄹㅁㅏ	-11479
▁20100	-11480
▁ㅁㅗㅇㅋㅔ	-11481
▁ㅂㅏㅁㅎㅏ	-11482
▁ㅇㅕㄴㄴㅏ	-11483
▁ㅁㅐㄴㅌㅡㄹ	-11484
▁ㅂㅜㄹㅅㅜㄴ	-11485
▁ㅅㅏㅇㅇㅗㄴ	-11486
▁ㅅㅣㅁㅂㅗㄹ	-11487
▁ㄱㅏㅁㅇㅕㅁㅂㅕㅇ	-11488
▁ㅂㅏㄹㅎㅐㅇㅇㅣㄴ	-11489
▁GD	-11490
▁UAE	-11491
▁Web	-11492
▁ㅎㅜㅁ	-11493
▁ㄱㅡㅁㅇㅗ	-11494
▁ㄷㅏㄴㅂㅏ	-11495
▁ㅇㅏㄹㅂㅡ	-11496
▁ㅋㅓㅁㅍㅗ	-11497
▁ㅇㅣㄴㅅㅗㄹ	-11498
▁ㅊㅜㄹㅈㅣㄴ	-11499
▁ㄷㅏㄹㅍㅐㅇㅇㅣ	-11500
▁ㅈㅣㄴㅎㅡㅇㅇㅘㅇ	-11501
▁ㄴㅜㄴㅂㅜ	-11502
▁ㄷㅗㅇㅁㅕㄴ	-11503
▁ㅅㅓㄴㅇㅘㅇ	-11504
▁ㅎㅗㄴㅇㅛㅇ	-11505
▁ㅅㅗㅇㄱㅘㅇㅅㅏ	-11506
▁ㅅㅏㅇㄹㅠㄱㅈㅏㄱㅈㅓㄴ	-11507
ama	-11508
ney	-11509
▁UF	-11510
▁219	-11511
▁ㅈㅓㅂㄷㅐ	-11512
▁ㅊㅜㄹㅈㅔ	-11513
ㅂㅜㄱㄷㅗㅇ	-11514
▁ㅅㅏㄴㄱㅜㄴ	-11515
▁ㅈㅓㅇㅈㅏㅇ	-11516
▁ㅈㅗㅇㅇㅣㄹ	-11517
▁ㅈㅜㅇㅎㅡㅇ	-11518
▁ㅈㅣㄴㅂㅗㅇ	-11519
▁ㅂㅜㄹㅁㅕㅇㅇㅖ	-11520
▁ㅅㅣㄴㅅㅜㄱㅈㅜ	-11521
▁ㅇㅏㄹㄹㅗㄴㅅㅗ	-11522
▁ㅆㅔ	-11523
▁Mod	-11524
▁ㅇㅜㄹㅌㅏ	-11525
▁ㅇㅝㄴㅈㅣ	-11526
▁ㅈㅏㅇㅂㅜ	-11527
▁ㄱㅏㄴㄱㅏㄴ	-11528
▁ㄱㅡㄱㅅㅓㅇ	-11529
▁ㅇㅔㄹㅌㅡㄴ	-11530
▁ㅈㅓㅇㅅㅏㄴ	-11531
▁ㅇㅗㄴㅈㅓㄴㅎㅣ	-11532
▁ㄱㅘㄴㄱㅘㅇㅇㅓㅂ	-11533
▁ㄷㅗㄱㄹㅣㅂㄷㅏㅇ	-11534
▁ㅇㅕㅇㄷㅗㅇㄱㅜㄴ	-11535
eng	-11536
▁DP	-11537
▁MY	-11538
ㅅㅜㅇㅇㅏ	-11539
▁ㄱㅡㅂㅇㅠ	-11540
▁ㅂㅗㄱㄱㅗ	-11541
▁ㅎㅗㅅㅅㅡ	-11542
▁ㅂㅏㅇㅎㅕㅇ	-11543
▁ㅅㅣㄹㄱㅕㄱ	-11544
▁ㅇㅏㅁㅂㅏㄴ	-11545
▁ㅈㅣㅂㅇㅑㄱ	-11546
ㅂㅠㅁ	-11547
ㅈㅔㅅ	-11548
▁213	-11549
▁ㅇㅑㅁ	-11550
▁ㄱㅣㅁㅂㅜ	-11551
▁ㅅㅓㄴㅎㅘ	-11552
▁ㅇㅝㄴㅂㅜ	-11553
▁ㅇㅣㅁㅈㅣ	-11554
▁ㅊㅏㅁㅅㅐ	-11555
ㄷㅓㄱㅁㅕㄴ	-11556
▁ㄱㅣㅁㅂㅗㅇ	-11557
▁ㄴㅏㄴㅂㅏㅇ	-11558
▁ㅅㅏㄹㄹㅗㅇ	-11559
▁ㅇㅏㄴㅅㅏㅇ	-11560
▁ㅇㅛㅇㅁㅜㄴ	-11561
▁ㅈㅏㅇㅎㅕㄴ	-11562
▁ㅈㅓㅇㅁㅏㄹㄹㅗ	-11563
ins	-11564
▁am	-11565
▁1841	-11566
ㄹㅓㄴㅊㅡ	-11567
ㅅㅓㄱㅅㅜ	-11568
ㅇㅛㅇㄱㅏ	-11569
▁ㅎㅏㄴㄴㅣ	-11570
▁ㄴㅐㅇㄷㅗㅇ	-11571
▁ㅁㅕㄴㅈㅓㅂ	-11572
▁ㅁㅣㄹㅊㅏㄱ	-11573
▁ㅅㅣㄹㅁㅜㄹ	-11574
▁ㅊㅓㄹㄱㅝㄴ	-11575
▁ㅊㅜㄱㅇㅑㄱ	-11576
▁ㅋㅡㄹㄹㅏㄱ	-11577
▁ㅍㅏㄴㄱㅝㄴ	-11578
▁ㅇㅡㄴㅍㅕㅇㄱㅜ	-11579
▁ㅈㅏㄱㅇㅛㅇㅅㅗ	-11580
▁ㅊㅏㅁㅈㅓㅇㄱㅝㄴ	-11581
EX	-11582
▁WK	-11583
▁ARM	-11584
▁RCA	-11585
▁1843	-11586
▁ㄹㅣㄴㄴㅔ	-11587
▁ㅂㅣㅈㅇㅓ	-11588
▁ㅍㅏㄴㄱㅛ	-11589
▁ㄱㅏㄱㅇㅣㄴ	-11590
▁ㅇㅕㄴㄱㅗㄹ	-11591
▁ㅇㅝㄴㄱㅠㄴ	-11592
▁ㅈㅏㅇㅈㅣㄱ	-11593
▁ㅋㅡㄹㄹㅣㅂ	-11594
▁ㅌㅏㅁㅇㅛㄱ	-11595
▁ㅍㅕㅇㅇㅑㅇㅈㅣㄱㅎㅏㄹㅅㅣ	-11596
03	-11597
▁Im	-11598
▁VV	-11599
▁ㅈㅜㅁ	-11600
ㅂㅡㄹㄹㅓ	-11601
ㅎㅏㅁㄷㅐ	-11602
▁ㅂㅏㅇㅂㅣ	-11603
▁ㅂㅓㄴㅅㅏ	-11604
▁ㅅㅜㄱㅇㅣ	-11605
▁ㅇㅏㄹㄷㅔ	-11606
▁ㅇㅑㅇㅅㅏ	-11607
▁ㅈㅓㅇㄷㅐ	-11608
▁ㅈㅗㅁㅊㅓ	-11609
ㄱㅘㅇㅅㅓㄱ	-11610
▁ㅂㅏㄴㅈㅏㅇ	-11611
▁ㅌㅏㄱㅂㅏㄹ	-11612
▁ㅂㅓㄴㅇㅕㄱㄱㅏ	-11613
▁ㅎㅏㅁㅇㅑㅇㄱㅜㄴ	-11614
ams	-11615
▁Je	-11616
▁UP	-11617
▁YTN	-11618
▁ㅅㅐㅅ	-11619
▁1809	-11620
▁HTTP	-11621
ㄹㅗㄹㅌㅓ	-11622
ㅍㅏㄹㄹㅗ	-11623
ㅎㅕㄱㅈㅜ	-11624
▁ㅌㅐㅇㅎㅘ	-11625
▁ㅎㅗㄴㅅㅠ	-11626
▁ㅅㅏㄴㅇㅑㅇ	-11627
▁ㅅㅓㄱㅎㅏㄱ	-11628
▁ㅊㅜㅇㅈㅓㄹ	-11629
▁ㅁㅕㅇㅂㅐㄱㅎㅣ	-11630
na	-11631
oph	-11632
▁Rob	-11633
▁ㅃㅑㅁ	-11634
▁1821	-11635
ㄱㅗㄱㅅㅏ	-11636
ㄴㅏㄴㄷㅡ	-11637
ㅅㅏㄹㄹㅗ	-11638
ㅅㅐㅇㄱㅣ	-11639
▁ㅇㅕㄴㅊㅔ	-11640
▁ㅂㅓㄴㅂㅓㄴ	-11641
▁ㅂㅗㄴㅈㅓㅁ	-11642
▁ㅅㅏㄴㅎㅏㄱ	-11643
▁ㅇㅑㄱㅈㅓㅇ	-11644
▁ㅇㅣㄴㅌㅓㄴ	-11645
▁ㅈㅓㅇㄹㅏㅇ	-11646
▁ㅎㅗㄱㅍㅕㅇ	-11647
▁ㅈㅓㅇㅇㅡㅂㅅㅣ	-11648
▁ㅎㅏㅂㅂㅓㅂㅎㅘ	-11649
▁ㅇㅡㅁㅅㅣㄱㅁㅜㄹ	-11650
06	-11651
ㅍㅟ	-11652
▁BSD	-11653
▁ㅁㅐㄹㅋㅓㅁ	-11654
▁ㅈㅓㄴㅎㅚㅇ	-11655
▁ㄱㅡㅁㅅㅏㄴㄱㅜㄴ	-11656
▁ㅅㅓㄴㅂㅏㄹㅈㅓㄴ	-11657
▁ㅇㅡㅁㅅㅓㅇㄱㅜㄴ	-11658
▁ㅊㅏㅇㄴㅕㅇㄱㅜㄴ	-11659
xy	-11660
▁ㅋㅟㄱ	-11661
▁ㅍㅏㅌ	-11662
ㅂㅏㅇㅇㅟ	-11663
ㅈㅜㄴㅅㅣ	-11664
▁ㄱㅜㅇㅈㅣ	-11665
▁ㅂㅐㄱㅁㅏ	-11666
▁ㅅㅏㅇㄴㅏ	-11667
▁ㅅㅔㄹㄹㅏ	-11668
▁ㅇㅣㅂㄱㅛ	-11669
ㄴㅏㄴㅁㅣㄴ	-11670
ㅇㅏㄴㅁㅕㄴ	-11671
ㅊㅏㄱㅁㅣㄴ	-11672
▁ㄱㅕㄹㅅㅗㄱ	-11673
▁ㅂㅜㄹㅁㅕㄹ	-11674
ㅂㅓㅂㅇㅕㄴㅅㅜ	-11675
▁ㄲㅡㄶㅇㅣㅁㅇㅓㅄ	-11676
ㅋㅏㅇ	-11677
▁ㄱㅟㄴ	-11678
ations	-11679
▁ㅁㅣㅌㅂㅜ	-11680
▁ㅅㅣㄴㄷㅡ	-11681
▁ㅇㅣㄹㄱㅐ	-11682
▁ㅇㅣㄹㄹㅖ	-11683
▁ㅈㅏㄹㅊㅡ	-11684
▁ㅊㅜㄹㅌㅚ	-11685
ㅇㅣㄴㅇㅣㄴ	-11686
▁ㄴㅐㅇㅈㅓㅇ	-11687
▁ㅅㅓㄴㅅㅏㄴ	-11688
▁ㅇㅠㄴㅈㅗㅇ	-11689
▁ㅎㅘㅇㄱㅜㅇ	-11690
▁ㅂㅏㅇㅁㅜㄴㅈㅏ	-11691
▁ㅈㅡㅇㄱㅝㄴㄱㅓ	-11692
▁ver	-11693
▁ㅅㅟㅁ	-11694
ㅎㅏㄹㅁㅓ	-11695
▁ㄷㅗㅇㅌㅐ	-11696
▁ㅇㅏㄹㅂㅓ	-11697
▁ㅇㅏㅇㅋㅗ	-11698
▁ㄱㅏㄴㅎㅓㄹ	-11699
▁ㅇㅝㄴㅅㅜㄴ	-11700
▁ㅊㅗㅇㅅㅏㅇ	-11701
▁ㅎㅘㅇㅅㅓㅇ	-11702
erm	-11703
▁Mc	-11704
ㄲㅜㄴ	-11705
▁OVA	-11706
▁ㅁㅕㅇㄱㅣ	-11707
▁ㅁㅣㄹㅋㅡ	-11708
▁ㅅㅐㅇㅂㅜ	-11709
▁ㅇㅑㅇㅈㅔ	-11710
▁ㅈㅡㅇㅇㅕ	-11711
▁ㅌㅔㄴㅌㅡ	-11712
▁ㄷㅗㅇㄱㅕㄹ	-11713
▁ㅂㅜㄴㅅㅣㄹ	-11714
▁ㅅㅣㄴㅊㅗㄴ	-11715
▁ㅊㅗㅇㄱㅘㄴ	-11716
ㅅㅐㅇㅁㅜㄹㅎㅏㄱ	-11717
▁ㅊㅗㅇㄷㅗㅇㅇㅝㄴ	-11718
▁ㅎㅕㄱㅁㅕㅇㄷㅏㅇ	-11719
▁...	-11720
▁1783	-11721
ㅁㅣㅇㄱㅗ	-11722
ㅊㅜㄴㄱㅣ	-11723
▁ㄷㅣㄹㄹㅔ	-11724
▁ㄹㅐㅇㅅㅡ	-11725
▁ㅂㅐㄱㅅㅡ	-11726
▁ㅇㅗㄹㄱㅏ	-11727
▁ㅇㅣㄹㅈㅣ	-11728
▁ㅈㅣㅂㄷㅐ	-11729
ㄹㅜㄴㄱㅜㅇ	-11730
▁ㄲㅏㄹㄲㅡㅁ	-11731
▁ㅅㅏㅇㅎㅑㅇ	-11732
▁ㅇㅝㄴㅃㅜㄹ	-11733
▁ㅊㅓㅇㅊㅓㄴ	-11734
▁ㅇㅓㅁㄱㅕㄱㅎㅣ	-11735
▁EA	-11736
▁ㅉㅜ	-11737
▁ㅋㅡㅁ	-11738
▁1819	-11739
▁1835	-11740
ㄲㅡㄹㅇㅓ	-11741
▁ㅂㅏㄱㅊㅏ	-11742
▁ㅂㅏㄴㄱㅏ	-11743
▁ㅊㅏㅁㅎㅗ	-11744
▁ㅎㅓㅁㅍㅡ	-11745
ㄱㅜㄱㅈㅏㅇ	-11746
▁ㅇㅔㄹㄹㅔㄴ	-11747
▁ㅇㅕㅇㅇㅏㅁㄱㅜㄴ	-11748
▁OR	-11749
▁ㄱㅣㅇ	-11750
▁1623	-11751
▁ㄱㅕㄴㄱㅘ	-11752
▁ㅇㅝㄴㄷㅐ	-11753
▁ㅊㅡㄱㄷㅗ	-11754
▁ㅎㅐㄱㅁㅣ	-11755
▁ㅎㅘㅇㅎㅘ	-11756
▁ㄱㅘㅇㅇㅝㄴ	-11757
▁ㄱㅣㄹㅉㅜㄱ	-11758
▁ㅅㅡㅇㅊㅓㄴ	-11759
▁ㅇㅣㄹㄱㅘㅇ	-11760
▁ㄷㅗㄱㄹㅣㅂㅅㅓㅇ	-11761
▁International	-11762
▁Sk	-11763
▁Inc	-11764
▁ㅇㅞㅁ	-11765
▁1803	-11766
ㄷㅓㄱㄹㅣ	-11767
ㄹㅐㄴㄷㅗ	-11768
ㅂㅡㄹㄹㅏ	-11769
▁ㄴㅏㅁㅋㅗ	-11770
▁ㅂㅗㄴㄷㅡ	-11771
▁ㅈㅓㅇㅁㅣ	-11772
▁ㅌㅗㅇㄱㅏ	-11773
▁ㅎㅘㅇㅈㅜ	-11774
ㅁㅜㄹㅈㅣㄹ	-11775
ㅇㅕㅇㅎㅑㅇ	-11776
▁ㄴㅗㅇㅇㅏㄱ	-11777
▁ㅂㅏㅇㅎㅘㅇ	-11778
▁ㅇㅓㅂㅈㅗㅇ	-11779
▁ㅇㅕㄴㅍㅣㄹ	-11780
▁ㅇㅡㄴㅅㅏㅇ	-11781
▁ㅈㅓㅇㅂㅏㄴㄷㅐ	-11782
▁ㅈㅣㄴㄷㅗㅇㅅㅜ	-11783
▁ㅇㅑㅇㅂㅏㅇㅎㅑㅇ	-11784
NS	-11785
du	-11786
air	-11787
▁GE	-11788
ㄹㅚㅁ	-11789
▁Off	-11790
▁ㅇㅝㅇ	-11791
▁1799	-11792
ㅎㅓㄴㄷㅐ	-11793
▁Korea	-11794
▁ㄱㅡㅂㅂㅜ	-11795
▁ㅅㅔㄱㅌㅓ	-11796
▁ㅅㅣㄴㄷㅔ	-11797
▁ㅌㅡㄱㅍㅏ	-11798
ㅊㅓㅇㅈㅓㅇ	-11799
▁ㄱㅕㄹㅂㅓㄴ	-11800
▁ㄱㅝㄴㅅㅓㄴ	-11801
▁ㅁㅗㄹㅅㅏㄹ	-11802
▁ㅅㅓㄴㅂㅏㅇ	-11803
▁ㅈㅏㅇㄹㅕㄱ	-11804
▁ㄱㅕㅇㅅㅜㄴㅇㅘㅇ	-11805
atur	-11806
▁227	-11807
▁275	-11808
▁316	-11809
▁Ste	-11810
▁Down	-11811
ㄹㅐㄴㅈㅡ	-11812
▁ㄷㅏㅇㄷㅗ	-11813
▁ㅁㅔㅅㄷㅙ	-11814
▁ㅅㅐㅇㅎㅜ	-11815
▁ㅅㅜㄴㅅㅏ	-11816
▁ㅅㅡㅇㅅㅗ	-11817
▁ㅇㅕㄴㄹㅖ	-11818
▁ㅎㅏㅇㄱㅓ	-11819
▁ㅎㅓㄴㅌㅡ	-11820
ㅂㅗㄱㅇㅡㅁ	-11821
ㅈㅓㅇㅍㅏㄴ	-11822
▁ㄱㅜㄴㅇㅘㅇ	-11823
▁ㅁㅣㄴㅈㅣㄴ	-11824
▁ㅊㅗㅇㄹㅕㄱ	-11825
▁ㄱㅘㅇㅁㅕㅇㅅㅣ	-11826
▁ㅊㅣㄴㄷㅗㅇㅅㅐㅇ	-11827
▁VR	-11828
▁She	-11829
ㄴㄷㅔㄴ	-11830
ㄱㅜㄴㄱㅣ	-11831
▁Award	-11832
▁ㄱㅕㄴㅈㅜ	-11833
▁ㄱㅣㅁㅎㅛ	-11834
▁ㄷㅓㄴㅅㅡ	-11835
▁ㅇㅡㅇㄱㅗ	-11836
ㄱㅝㄴㄹㅕㄱ	-11837
ㅅㅡㄹㄹㅏㄴ	-11838
ㅊㅗㄴㅁㅕㄴ	-11839
▁ㄱㅡㄴㅊㅣㄴ	-11840
▁ㅇㅗㄴㅇㅑㅇ	-11841
▁ㅈㅜㅇㅁㅜㄴ	-11842
▁ㄷㅓㄱㅇㅑㅇㄱㅜ	-11843
45	-11844
ㅈㅛ	-11845
▁POS	-11846
▁are	-11847
ㄷㄴㅏㄹ	-11848
▁1813	-11849
▁1845	-11850
▁comp	-11851
ㄱㅔㄴㅅㅠ	-11852
ㅇㅣㄴㄱㅣ	-11853
▁ㅅㅣㄴㅌㅗ	-11854
▁ㅈㅏㅇㅇㅠ	-11855
▁ㅎㅡㄱㅅㅏ	-11856
▁ㄱㅘㄴㅊㅓㄹ	-11857
▁ㄴㅏㅁㅊㅡㄱ	-11858
▁ㄷㅗㅇㄱㅘㄴ	-11859
▁ㅅㅏㄴㅎㅕㄴ	-11860
▁ㅆㅏㅇㅂㅏㅇ	-11861
▁ㅇㅑㅇㄱㅗㅇ	-11862
▁RF	-11863
▁Act	-11864
▁1804	-11865
ㅋㅔㄹㄹㅔ	-11866
▁Micro	-11867
▁ㅅㅏㅇㄱㅓ	-11868
▁ㅈㅗㅂㅎㅣ	-11869
ㅌㅗㅇㄹㅑㅇ	-11870
▁ㅁㅣㄹㅈㅓㅇ	-11871
▁ㅂㅏㄹㄷㅏㄴ	-11872
▁ㅅㅐㄱㅅㅡㄴ	-11873
▁ㅅㅣㄴㅂㅕㄴ	-11874
▁ㅇㅘㅇㅈㅓㄴ	-11875
▁ㅇㅜㄹㄹㅣㅁ	-11876
▁ㅊㅓㅇㅇㅑㅇ	-11877
we	-11878
▁1802	-11879
▁2023	-11880
ㄴㅜㄹㅍㅡ	-11881
▁ㅊㅓㅇㅈㅗ	-11882
▁ㅊㅗㅇㅅㅓ	-11883
▁ㅎㅏㄴㅅㅜ	-11884
ㅈㅜㄴㄱㅕㅇ	-11885
▁ㄱㅏㄴㅊㅓㄱ	-11886
▁ㅇㅘㄴㅊㅜㅇ	-11887
▁ㅂㅓㄴㅇㅕㄱㅂㅗㄴ	-11888
ava	-11889
riv	-11890
aster	-11891
ㄱㅜㄴㄱㅏ	-11892
ㅁㅏㅇㅈㅜ	-11893
▁ㅁㅏㅈㅇㅏ	-11894
▁ㅆㅡㄹㅁㅗ	-11895
▁ㅊㅏㅇㅅㅏ	-11896
▁ㅋㅏㄴㅌㅗ	-11897
▁ㅌㅏㅂㅂㅣ	-11898
ㄷㅗㅇㄱㅜㄱ	-11899
ㅅㅓㅇㄹㅛㅇ	-11900
ㅎㅏㄱㅅㅣㄱ	-11901
▁ㄱㅡㅁㄷㅏㅇ	-11902
▁ㅂㅏㅁㅈㅜㅇ	-11903
▁ㅂㅓㄴㅂㅗㄱ	-11904
▁ㅇㅡㄴㅅㅐㄱ	-11905
▁ㅈㅣㄴㅍㅗㄱ	-11906
▁ㅎㅐㅇㅂㅓㅂ	-11907
▁ㅎㅜㄴㄹㅕㄴㅅㅗ	-11908
ues	-11909
▁218	-11910
▁Bel	-11911
▁Che	-11912
ㅍㅕㅇㄷㅐ	-11913
▁Power	-11914
▁ㄱㅏㄱㄱㅖ	-11915
▁ㄱㅏㄱㅇㅗ	-11916
▁ㄱㅐㄱㅅㅏ	-11917
▁ㅁㅏㄴㅎㅗ	-11918
▁ㅎㅕㅇㅇㅣ	-11919
ㅊㅓㄴㅇㅡㅂ	-11920
▁ㅈㅓㅇㅇㅠㄱ	-11921
▁ㅎㅙㅅㅂㅜㄹ	-11922
▁ㄷㅏㅇㄱㅏㄴㅈㅣ	-11923
▁ㅈㅜㅇㅎㅏㅂㅎㅛ	-11924
▁ㅎㅗㅇㅅㅓㅇㄱㅜㄴ	-11925
ates	-11926
▁all	-11927
▁par	-11928
▁ㅋㅘㄴ	-11929
ㅇㅌㅓㄴ	-11930
▁1824	-11931
▁ㅁㅣㄹㅅㅜ	-11932
▁ㅂㅕㄴㅇㅢ	-11933
▁ㅅㅓㅇㅇㅠ	-11934
▁ㅎㅗㄴㅈㅐ	-11935
▁ㅎㅗㅇㅁㅜ	-11936
▁ㅎㅕㄴㅇㅏㄴ	-11937
irect	-11938
▁ㄲㅗㄱㄷㅜ	-11939
▁ㅅㅣㄴㅂㅗ	-11940
▁ㅎㅐㅇㅈㅜ	-11941
▁ㅎㅓㅁㅎㅏ	-11942
▁ㄴㅏㅁㅁㅕㅇ	-11943
▁ㅅㅜㄴㄱㅜㄱ	-11944
▁ㅇㅔㅇㄱㅔㄹ	-11945
▁ㅈㅓㅇㅇㅜㄴ	-11946
ㅇㅣㄴㅈㅓㄹㅅㅡ	-11947
▁ㅊㅓㅇㄴㅕㄴㄷㅏㄴ	-11948
ittle	-11949
▁YMCA	-11950
ㅌㅏㄴㅌㅡ	-11951
▁ㄱㅏㄴㅆㅜ	-11952
▁ㅂㅓㅂㅈㅜ	-11953
▁ㅅㅓㄴㅈㅜ	-11954
ㅁㅏㄴㄱㅡㅁ	-11955
▁ㅇㅣㅂㅅㅓㄴ	-11956
▁ㅈㅓㄴㄱㅜㄴ	-11957
▁ㅁㅜㄴㅇㅣㄴㅅㅓㄱ	-11958
▁ㅈㅓㄴㅅㅏㄴㅁㅏㅇ	-11959
▁ha	-11960
▁501	-11961
▁Ang	-11962
▁Ind	-11963
▁ㅎㅔㅁ	-11964
▁1805	-11965
▁Game	-11966
▁Just	-11967
ㅎㅐㄱㅎㅘ	-11968
▁ㄱㅡㅁㅈㅜ	-11969
▁ㅇㅣㅂㅅㅗ	-11970
▁ㅊㅔㄹㄹㅣ	-11971
ㄱㅕㄱㅈㅓㄴ	-11972
ㄷㅗㅇㅈㅣㄴ	-11973
ㄹㅡㄴㅅㅐㄱ	-11974
ㅈㅓㄱㄷㅏㄴ	-11975
▁ㄴㅓㄼㅈㅓㄱ	-11976
▁ㄷㅗㄹㅈㅣㄴ	-11977
▁ㅈㅐㅇㅌㅏㄹ	-11978
▁ㅊㅗㅇㅅㅣㄴ	-11979
▁ㅊㅣㅁㅊㅏㄱ	-11980
▁ㄷㅗㅇㅂㅏㄴㅈㅏ	-11981
MI	-11982
ARD	-11983
ㅂㅕㅌ	-11984
▁512	-11985
▁OEC	-11986
▁ㄲㅓㅂ	-11987
ㄹㅐㅅㅂㅜ	-11988
ㅃㅜㄹㅅㅗ	-11989
▁ㄷㅏㄴㅌㅔ	-11990
▁ㄹㅏㄹㅍㅡ	-11991
▁ㅁㅏㄴㄴㅔ	-11992
▁ㅂㅔㄴㅌㅜ	-11993
▁ㅈㅓㄹㄱㅐ	-11994
ㅁㅜㄴㅇㅘㅇ	-11995
ㅅㅜㄹㄹㅕㄱ	-11996
ㅅㅣㄴㄱㅕㅇ	-11997
▁ㄱㅡㄴㅅㅣㅁ	-11998
▁ㅅㅓㅇㅅㅏㅇ	-11999
▁ㅇㅗㄱㅈㅜㅇ	-12000
▁ㅌㅡㄱㅅㅏㄴ	-12001
▁ㄷㅗㅇㅈㅏㄱㄱㅜ	-12002
▁ㅎㅏㅁㅇㅏㄴㄱㅜㄴ	-12003
ㄴㅏㅁㅅㅣ	-12004
ㄹㅗㅇㅋㅡ	-12005
ㅇㅏㄴㅅㅡ	-12006
▁ㄱㅓㅌㅁㅗ	-12007
▁ㅅㅜㄴㅊㅣ	-12008
▁ㅌㅏㄹㅂㅏ	-12009
ㅍㅡㄹㄹㅣㅅ	-12010
▁ㄱㅏㄴㅊㅓㅇ	-12011
▁ㄱㅕㅁㅅㅗㄴ	-12012
▁ㅎㅏㄴㄴㅜㄴ	-12013
▁ㅎㅘㄴㅅㅐㅇ	-12014
▁ㅅㅐㅇㅁㅜㄹㅊㅔ	-12015
▁ㅊㅜㄹㅇㅕㄴㅈㅣㄴ	-12016
ape	-12017
▁ㅊㅞ	-12018
▁ㄱㅜㅇㄴㅕ	-12019
▁ㄴㅓㅁㄴㅏ	-12020
▁ㄹㅏㄹㄹㅣ	-12021
▁ㄷㅏㄴㄴㅕㅁ	-12022
▁ㄷㅗㄱㄷㅏㄴ	-12023
▁ㅂㅐㄱㄱㅡㅁ	-12024
▁ㅅㅓㄴㅂㅜㄴ	-12025
▁ㅇㅘㅇㅁㅏㅇ	-12026
▁ㅈㅏㅂㅇㅡㅁ	-12027
▁ㅊㅏㄴㅂㅏㄴ	-12028
▁ㅎㅗㅇㅁㅕㅇ	-12029
ㅁㅡㄹ	-12030
▁ㄷㅐㄱ	-12031
▁1775	-12032
ㄹㅜㄴㄷㅣ	-12033
ㄹㅜㄹㄹㅜ	-12034
▁ㄱㅣㄴㄲㅗ	-12035
▁ㄱㅣㅁㅈㅘ	-12036
▁ㄷㅏㅇㅂㅜ	-12037
▁ㄷㅗㅇㅇㅜ	-12038
▁ㄹㅗㄱㅅㅡ	-12039
▁ㅁㅏㄱㅂㅏ	-12040
▁ㅂㅗㄴㄱㅏ	-12041
▁ㅇㅟㅇㅅㅡ	-12042
▁ㅇㅠㄱㄹㅠ	-12043
▁ㅈㅜㅇㄹㅠ	-12044
▁ㅎㅏㅁㅍㅗ	-12045
▁ㅂㅏㄴㅌㅏㄱ	-12046
▁ㅅㅗㅇㅈㅜㄴ	-12047
▁ㅅㅣㅁㅎㅕㄹ	-12048
▁ㅈㅏㅇㅊㅜㅇ	-12049
ㄴㅗㄹㄹㅜㄹㄹㅜ	-12050
▁ㅇㅝㄴㄷㅗㅇㄹㅕㄱ	-12051
▁ㅅㅣㄴㅇㅑㄱㅅㅓㅇㄱㅕㅇ	-12052
TO	-12053
▁Em	-12054
ㄱㅐㅇ	-12055
▁303	-12056
▁305	-12057
▁1808	-12058
ㅇㅕㄹㅅㅡ	-12059
▁ㄱㅜㄴㅅㅗ	-12060
▁ㅂㅜㄹㅇㅢ	-12061
▁ㅇㅡㅇㅁㅗ	-12062
▁ㅎㅢㄴㄱㅐ	-12063
▁ㄷㅗㅇㅊㅓㄴ	-12064
▁ㅅㅐㅇㄴㅕㄴ	-12065
▁ㅇㅡㅁㄱㅡㄱ	-12066
▁ㅈㅏㅇㅂㅏㅇ	-12067
▁ㅈㅓㄴㄹㅠㄴ	-12068
▁ㅈㅜㅇㅊㅏㅇ	-12069
▁ㅎㅏㄴㅈㅣㄴ	-12070
▁ㅎㅕㄹㅇㅕㄴ	-12071
▁ㅇㅞㅁㅂㅡㄹㄹㅣ	-12072
▁ㅋㅗㅁㅍㅡㄹㄹㅔㄱㅅㅡ	-12073
▁Tim	-12074
▁Who	-12075
▁1392	-12076
▁ㄱㅏㄱㅅㅓ	-12077
▁ㅂㅗㄹㄱㅏ	-12078
▁ㅅㅏㅇㅇㅏ	-12079
▁ㅇㅡㅁㅅㅜ	-12080
▁ㅈㅏㄱㅎㅘ	-12081
▁ㅈㅏㅇㅁㅗ	-12082
ㅁㅏㄴㄱㅏㅇ	-12083
▁ㄹㅗㄱㅁㅐㄴ	-12084
▁ㅁㅜㄴㄷㅏㅂ	-12085
▁ㅂㅜㄴㄹㅣㅂ	-12086
▁ㅇㅕㅇㅎㅡㅇ	-12087
▁ㅇㅠㄴㅅㅏㅇ	-12088
▁ㅇㅡㅁㄱㅏㄱ	-12089
▁ㅈㅓㄴㅈㅐㅇㅌㅓ	-12090
DR	-12091
▁DX	-12092
▁401	-12093
ㄷㅓㄱㅅㅏ	-12094
ㄹㅣㄴㅌㅗ	-12095
▁ㅅㅡㅇㅍㅐ	-12096
▁ㅇㅛㅇㄷㅜ	-12097
▁ㅇㅜㄹㄹㅏ	-12098
▁ㅇㅝㄴㄱㅓ	-12099
▁ㄱㅏㅁㅅㅗㄱ	-12100
▁ㄱㅜㄹㄱㅗㄱ	-12101
▁ㅅㅓㅇㄱㅕㄹ	-12102
▁ㅇㅣㄴㅁㅐㄱ	-12103
▁RFC	-12104
▁9000	-12105
ㄱㅕㅇㅈㅔ	-12106
ㅅㅐㅁㅍㅡ	-12107
ㅎㅕㄴㄹㅣ	-12108
▁ㄷㅗㅇㅈㅜ	-12109
▁ㅅㅏㄴㄴㅗ	-12110
▁ㅅㅏㅇㅂㅗ	-12111
▁ㅇㅕㅇㅈㅔ	-12112
ㅇㅣㅁㄱㅘㄴ	-12113
ㅎㅐㅇㅇㅝㄴ	-12114
▁ㅁㅏㄴㄹㅕㄱ	-12115
▁ㅂㅏㄱㅊㅓㄹ	-12116
▁ㅅㅓㄱㅊㅜㄱ	-12117
▁ㅅㅣㄴㄱㅔㄴ	-12118
▁ㅈㅡㅇㅅㅓㄹ	-12119
▁Records	-12120
▁ㅇㅠㄴㅅㅓㄴㄷㅗ	-12121
▁ㅎㅏㄱㄴㅕㄴㄷㅗ	-12122
▁ㅎㅏㅂㅈㅜㅇㄱㅜㄱ	-12123
ster	-12124
▁325	-12125
▁Ass	-12126
▁How	-12127
▁1807	-12128
▁Mark	-12129
ㄷㅡㅂㅈㅔ	-12130
ㅂㅗㅇㄱㅜ	-12131
▁ㅅㅏㄴㅅㅔ	-12132
▁ㅇㅐㅇㅁㅜ	-12133
▁ㅇㅠㄱㅈㅗ	-12134
▁ㅇㅣㄴㅂㅓ	-12135
▁ㅊㅏㄴㅅㅡ	-12136
ㅈㅓㄱㅁㅜㄹ	-12137
ㅈㅓㅇㅊㅐㄱ	-12138
▁ㄱㅕㅇㅈㅣㄱ	-12139
▁ㄱㅣㅁㅇㅣㄱ	-12140
▁ㄷㅗㄹㅍㅜㅇ	-12141
▁ㅂㅗㄱㄱㅓㄴ	-12142
▁ㅈㅏㅇㅂㅗㄴ	-12143
CO	-12144
ari	-12145
▁Bu	-12146
▁Dav	-12147
▁FTA	-12148
▁KAI	-12149
▁ㅁㅔㄱ	-12150
▁ㅍㅣㅂ	-12151
▁OECD	-12152
ㅇㅜㄹㄱㅣ	-12153
▁ㄷㅏㅁㅇㅏ	-12154
▁ㄹㅐㄴㅅㅡ	-12155
▁ㅂㅏㄱㅎㅢ	-12156
▁ㅇㅣㄴㅇㅓ	-12157
▁ㅇㅣㄴㅎㅘ	-12158
▁ㅁㅜㄴㄱㅗㅇ	-12159
▁ㅂㅏㄴㅇㅝㄹ	-12160
▁di	-12161
ㄲㅜㄹ	-12162
▁777	-12163
▁Tri	-12164
▁1834	-12165
▁ㄱㅕㅁㅂㅣ	-12166
▁ㄲㅡㅌㅁㅏ	-12167
▁ㄴㅏㄴㅂㅜ	-12168
▁ㅂㅗㅁㅂㅏ	-12169
▁ㄷㅏㄴㅍㅜㅇ	-12170
▁ㅁㅣㄴㅂㅕㅇ	-12171
▁ㅈㅓㅇㅅㅓㄱ	-12172
▁ㅇㅕㅇㅇㅕㄴㅂㅏㅇ	-12173
▁ㅍㅗㄱㅂㅏㄹㅁㅜㄹ	-12174
ㅅㅗㅅ	-12175
▁CNN	-12176
▁Pre	-12177
▁ㅅㅛㄹ	-12178
ㅅㅔㄹㄷㅗ	-12179
▁20200	-12180
▁ㄱㅗㅇㅈㅔ	-12181
▁ㄲㅓㅂㄷㅔ	-12182
▁ㄴㅏㄴㅂㅏ	-12183
▁ㅂㅏㄴㅅㅣ	-12184
▁ㅈㅗㅇㅈㅗ	-12185
▁ㄱㅡㅁㅍㅜㅁ	-12186
▁ㄱㅣㅁㅅㅜㄴ	-12187
▁ㅅㅓㄱㄱㅜㄹ	-12188
▁ㅇㅖㄹㅊㅣㄴ	-12189
▁ㅈㅓㄴㄱㅏㄱ	-12190
▁ㅁㅗㅇㄱㅗㄹㅈㅗㄱ	-12191
▁ㅈㅣㅇㅇㅕㄱㅎㅕㅇ	-12192
ther	-12193
▁224	-12194
▁244	-12195
▁Air	-12196
▁Fire	-12197
ㅅㅔㄹㄹㅏ	-12198
▁ㄱㅗㅇㄱㅜ	-12199
▁ㄱㅜㅇㅇㅖ	-12200
ㄴㄷㅡㄹㄹㅓ	-12201
ㅂㅓㄹㄹㅣㄴ	-12202
▁ㄱㅏㅁㅇㅕㅇ	-12203
▁ㄷㅗㄹㄱㅝㄹ	-12204
▁ㅁㅕㅇㄱㅗㄱ	-12205
▁ㅂㅕㅇㅈㅏㅇ	-12206
▁ㅇㅕㄱㅂㅓㅂ	-12207
▁ㅇㅕㅇㅊㅏㅇ	-12208
▁ㅇㅣㄴㅂㅏㅇ	-12209
▁ㅈㅓㄴㅂㅓㅂ	-12210
ㄱㅓㄴㅂㅗㄱㅈㅣ	-12211
▁ㅅㅣㄴㅅㅐㅇㅇㅏ	-12212
▁ㅅㅐㅇㅅㅏㄴㄹㅕㄱ	-12213
▁ㅈㅜㅇㄱㅜㄱㅅㅣㄱ	-12214
▁ㅈㅜㅇㄹㅏㅇㅈㅏㅇ	-12215
▁ㅎㅗㅇㅊㅓㄴㄱㅜㄴ	-12216
ring	-12217
▁940	-12218
▁net	-12219
ㅅㅂㅣㅊ	-12220
▁1597	-12221
ㄴㅏㄹㄷㅜ	-12222
ㅇㅡㅁㅍㅏ	-12223
ㅋㅗㄴㅌㅣ	-12224
ㅌㅠㄴㅈㅡ	-12225
ㅍㅔㄹㄹㅣ	-12226
▁Dance	-12227
▁ㄲㅓㄲㅇㅣ	-12228
▁ㅅㅐㄴㅌㅏ	-12229
▁ㅌㅣㄹㄹㅣ	-12230
▁ㅎㅗㅇㅈㅗ	-12231
▁ㅎㅘㅇㅁㅜ	-12232
ㄹㅗㅁㅇㅞㄹ	-12233
ㄹㅜㅅㅂㅏㅁ	-12234
ㅅㅓㄴㅈㅗㄱ	-12235
▁ㅂㅗㅇㅅㅡㅇ	-12236
▁ㅅㅜㄴㅈㅓㄹ	-12237
▁ㅎㅘㄹㄹㅕㄱ	-12238
▁ㄱㅘㄴㄹㅏㅁㄱㅐㄱ	-12239
▁ㅈㅜㅇㅇㅏㅇㄷㅏㅇ	-12240
▁IL	-12241
▁TP	-12242
ㅊㅣㅅ	-12243
ited	-12244
▁Hol	-12245
▁imp	-12246
▁Real	-12247
ㄹㅣㄴㅇㅏ	-12248
▁ㅉㅏㄱㅅㅏ	-12249
▁ㅊㅣㄴㄱㅛ	-12250
▁ㄱㅏㅇㅍㅏㄴ	-12251
▁ㄱㅝㄴㅇㅕㅇ	-12252
▁ㅂㅐㄱㅂㅓㅁ	-12253
▁ㅅㅗㅇㅇㅕㅇ	-12254
▁ㅈㅏㅂㅈㅗㅇ	-12255
▁ㅌㅏㄴㅌㅏㄴ	-12256
▁ㅅㅏㅇㄹㅗㄱㅅㅜ	-12257
▁ㅇㅗㄹㄹㅐㄴㄷㅗ	-12258
▁ㄱㅜㄱㄱㅕㅇㅅㅓㄴ	-12259
▁ㅎㅐㅇㅈㅣㄴㄱㅗㄱ	-12260
▁gr	-12261
▁Cal	-12262
Force	-12263
ㄲㅡㄹㄹㅣ	-12264
▁ㄷㅏㅇㄱㅜ	-12265
▁ㅂㅜㄴㅌㅜ	-12266
▁ㅈㅓㄴㅌㅐ	-12267
▁ㅈㅣㄴㅇㅔ	-12268
▁ㅎㅘㅇㅈㅗ	-12269
ㄹㅡㅁㅇㅓㅄ	-12270
ㅈㅗㄱㄱㅘㄴ	-12271
▁ㅇㅑㅇㄷㅏㅇ	-12272
▁ㅂㅏㄹㅅㅏㅇㅈㅣ	-12273
▁ㅈㅓㅁㄹㅕㅇㅈㅣ	-12274
▁TF	-12275
ㅉㅐㅆ	-12276
▁999	-12277
▁Fre	-12278
▁Und	-12279
▁ㅂㅗㅂ	-12280
ㅌㅔㄹㄹㅣ	-12281
▁ㅁㅏㄹㅂㅓ	-12282
▁ㅈㅓㄴㅊㅣ	-12283
▁ㅈㅗㅇㅈㅣ	-12284
▁ㅍㅗㄴㅌㅣ	-12285
▁ㄱㅕㄹㅈㅓㅁ	-12286
▁ㄱㅣㅁㅌㅐㄱ	-12287
▁ㄴㅏㄴㅇㅣㅂ	-12288
▁ㄷㅟㅅㄴㅏㄹ	-12289
▁ㅂㅏㅇㅁㅗㄱ	-12290
▁ㅅㅓㅇㅊㅏㄹ	-12291
▁ㅇㅕㄱㄱㅏㄴ	-12292
▁ㅊㅜㅇㅈㅓㅇ	-12293
▁ㅌㅡㄱㅈㅣㄴ	-12294
ATA	-12295
OCA	-12296
▁237	-12297
▁253	-12298
▁263	-12299
ㄱㅏㄱㅅㅏ	-12300
▁ㄱㅕㄹㅂㅜ	-12301
▁ㄱㅜㄴㄴㅐ	-12302
▁ㅅㅐㄴㄷㅓ	-12303
▁ㅈㅓㅇㄷㅏ	-12304
▁ㅎㅐㅇㅊㅏ	-12305
ㄱㅓㄴㅊㅜㄱ	-12306
ㄱㅗㅂㄱㅡㄴ	-12307
▁ㄱㅏㅇㅁㅣㄴ	-12308
▁ㄷㅏㄹㅇㅣㄴ	-12309
▁ㅁㅜㄲㅇㅡㅁ	-12310
▁ㅂㅏㄱㅁㅕㅇ	-12311
▁ㅈㅜㅇㄴㅕㄴ	-12312
▁ㅈㅣㄴㅇㅘㅇ	-12313
▁ㅍㅜㄹㅂㅏㅌ	-12314
▁ㅅㅣㄹㅈㅗㅇㅈㅏ	-12315
▁ㄱㅗㅇㅇㅑㅇㅇㅘㅇ	-12316
▁;"	-12317
▁DE	-12318
▁321	-12319
▁UTC	-12320
▁org	-12321
ㄴㅏㄴㅎㅣ	-12322
▁ㄹㅏㄱㅅㅡ	-12323
▁ㅂㅗㄹㄹㅔ	-12324
▁ㅅㅗㄱㄱㅣ	-12325
▁ㅍㅏㄴㅁㅜ	-12326
ㄹㅏㅇㅋㅔㄴ	-12327
ㅁㅜㄴㅇㅝㄴ	-12328
ㅈㅜㅇㅅㅓㅇ	-12329
▁ㅍㅜㅇㅅㅏㄴ	-12330
▁ㅈㅓㄴㅇㅣㅁㅈㅏ	-12331
▁ㅇㅡㅁㅇㅏㄱㅅㅏㅇ	-12332
oud	-12333
▁MK	-12334
ated	-12335
▁DMB	-12336
▁ㅅㅞㄹ	-12337
▁ㅉㅣㅁ	-12338
ㄱㅓㄴㅈㅜ	-12339
ㄴㅣㅇㄱㅜ	-12340
ㅂㅏㄹㅇㅠ	-12341
ㅈㅣㄴㄱㅏ	-12342
▁ㅅㅏㅁㅁㅐ	-12343
▁ㅇㅗㄴㄱㅔ	-12344
▁ㅈㅓㅇㅎㅖ	-12345
ㄷㅐㅅㄱㅏㅄ	-12346
ㅇㅣㅁㄴㅔㅅ	-12347
▁ㄱㅜㄴㅇㅕㄱ	-12348
▁ㅁㅗㄱㅊㅜㄱ	-12349
▁ㅁㅣㄴㅊㅓㅂ	-12350
▁ㅂㅗㄹㄹㅣㅇ	-12351
▁ㅇㅟㅁㅂㅡㄹ	-12352
▁ㅍㅕㄴㅍㅕㅇ	-12353
ook	-12354
▁265	-12355
▁Pol	-12356
▁ㄲㅜㅀ	-12357
ㄹㅜㅁㅍㅜ	-12358
ㅁㅗㄱㄱㅜ	-12359
▁ㅇㅐㄴㅌㅡ	-12360
▁ㄴㅏㅁㅁㅏㄴ	-12361
▁ㄴㅏㅂㅂㅜㄱ	-12362
▁ㅂㅏㄹㅁㅜㄴ	-12363
▁ㅇㅑㅇㅌㅓㄹ	-12364
▁ㅈㅓㄴㄹㅕㅇ	-12365
▁ㅈㅜㅇㄱㅜㄴ	-12366
▁ㅌㅡㄹㄹㅣㅁ	-12367
▁ㅇㅘㄴㅅㅓㅇㄷㅗ	-12368
▁ㅎㅗㅇㅂㅐㄱㄱㅏ	-12369
▁ㄷㅏㄴㅇㅑㅇㄱㅜㄴ	-12370
▁ㅍㅐㄴㅋㅡㄹㄹㅓㅂ	-12371
GE	-12372
▁KF	-12373
other	-12374
ㅈㅏㅇㅇㅣ	-12375
▁ㄱㅣㄹㄱㅏ	-12376
▁ㅁㅜㄴㄹㅣ	-12377
▁ㅈㅏㅇㅎㅘ	-12378
ㅅㅏㄴㅎㅏㅇ	-12379
▁ㅁㅕㅇㅅㅡㅇ	-12380
▁ㅎㅐㅅㅂㅕㅌ	-12381
ㄹㅗㄹㄹㅣㅇㄱㅓ	-12382
▁ㄱㅗㅇㄱㅕㄱㄹㅕㄱ	-12383
▁ㅇㅟㅁㅂㅡㄹㄷㅓㄴ	-12384
MC	-12385
bs	-12386
ㅂㅏㄲ	-12387
ning	-12388
▁530	-12389
▁left	-12390
ㄴㅐㅂㅅㅡ	-12391
▁ㄷㅓㅇㅊㅣ	-12392
▁ㅅㅗㄴㅇㅗ	-12393
▁ㅇㅝㄹㄱㅖ	-12394
▁ㅈㅏㅇㄷㅗ	-12395
▁ㅊㅗㅇㅍㅏ	-12396
ㅇㅡㅁㄱㅗㄱ	-12397
▁ㅁㅜㄴㄹㅏㄴ	-12398
▁ㅇㅑㅇㄱㅏㄱ	-12399
▁ㅂㅗㄱㅅㅜㅇㅇㅏ	-12400
▁ㅎㅐㅇㅂㅏㅇㅂㅜㄹㅁㅕㅇ	-12401
mas	-12402
▁Ig	-12403
▁OG	-12404
▁Si	-12405
ㄷㅐㅇ	-12406
ㅋㅟㄴ	-12407
▁245	-12408
▁Jour	-12409
ㅌㅔㅁㅂㅔ	-12410
▁ㅇㅣㅂㅎㅚ	-12411
▁ㅍㅔㄹㄹㅏ	-12412
▁ㅅㅗㄱㅂㅏㄱ	-12413
▁ㅈㅓㄴㅇㅕㅇ	-12414
▁ㅈㅜㅇㄱㅕㅇ	-12415
ㅇㅔㄴㄴㅏㄹㄹㅔ	-12416
▁ㅇㅕㄴㄲㅗㅊㅁㅜ	-12417
▁ㅅㅓㄹㄷㅡㄱㄹㅕㄱ	-12418
ME	-12419
zy	-12420
▁LD	-12421
ㅆㄷㅏ	-12422
ㅌㅖㄴ	-12423
▁Now	-12424
▁def	-12425
▁out	-12426
▁Again	-12427
▁ㄱㅘㅇㄱㅛ	-12428
▁ㅇㅗㄱㄱㅗ	-12429
▁ㅎㅡㄱㅈㅏ	-12430
ㅂㅜㄴㅂㅕㄹ	-12431
▁ㄱㅡㄴㅎㅕㄴ	-12432
▁ㄸㅏㄱㅈㅓㅇ	-12433
▁ㅅㅣㄱㅇㅡㅂ	-12434
▁ㅇㅛㅇㅂㅓㅂ	-12435
▁ㅇㅣㅂㅅㅓㄱ	-12436
▁ㅈㅓㅇㅇㅕㄴ	-12437
▁ㅎㅏㄱㄱㅘㄴ	-12438
▁ㄴㅜㄴㄷㅗㅇㅈㅏ	-12439
▁ㅅㅣㄴㅇㅏㅇㄱㅗ	-12440
lt	-12441
▁540	-12442
ㄹㅔㄴㅌㅣ	-12443
▁ㄱㅘㄴㅂㅜ	-12444
▁ㄴㅣㅅㅋㅗ	-12445
▁ㅅㅏㄴㅊㅗ	-12446
▁ㅅㅏㄴㅎㅜ	-12447
▁ㅅㅣㄴㅅㅜ	-12448
▁ㅇㅏㄴㅅㅗ	-12449
▁ㅋㅓㄹㄹㅣ	-12450
▁ㅋㅣㅂㅊㅏ	-12451
▁ㄱㅏㅇㅂㅏㄱ	-12452
▁ㄷㅡㄹㅍㅏㄴ	-12453
▁ㅁㅜㄴㅎㅏㅇ	-12454
▁ㅅㅓㅇㅇㅕㄱ	-12455
▁ㅇㅡㅇㅊㅜㄱ	-12456
▁ㅈㅣㄴㅍㅕㅇ	-12457
▁ㅊㅏㄴㅅㅗㅇ	-12458
▁ㅎㅔㄹㅁㅔㅅ	-12459
▁ㅈㅓㅇㅅㅓㄴㄱㅜㄴ	-12460
▁ㅊㅣㄹㄱㅗㄱㄱㅜㄴ	-12461
▁-.	-12462
▁311	-12463
▁386	-12464
▁ㅅㅔㅂ	-12465
▁Type	-12466
ㅍㅜㄹㄹㅣ	-12467
▁ㅂㅏㄴㅌㅜ	-12468
▁ㅂㅣㅅㄷㅐ	-12469
▁ㅅㅑㄹㄹㅗ	-12470
▁ㅇㅝㄴㅎㅗ	-12471
▁ㅇㅡㄹㅁㅣ	-12472
▁ㅈㅣㅂㅅㅣ	-12473
▁ㅋㅓㄴㅂㅓ	-12474
▁ㅌㅡㄱㅂㅗ	-12475
ㅈㅏㅇㄹㅑㅇ	-12476
▁ㄱㅏㅇㅌㅏㄹ	-12477
▁ㅍㅏㄴㄷㅗㄱ	-12478
▁ㄱㅘㄴㄱㅗㅇㅅㅓ	-12479
▁ㅂㅏㄱㅇㅝㄴㅅㅜㄴ	-12480
▁ㅊㅜㄹㅂㅏㄹㅈㅓㅁ	-12481
any	-12482
ㄴㅓㄱ	-12483
▁Mer	-12484
▁mod	-12485
▁ㅈㅜㅂ	-12486
▁1833	-12487
▁City	-12488
▁ㄱㅣㅁㅎㅘ	-12489
▁ㅁㅕㄴㅎㅘ	-12490
▁ㅂㅕㅇㅂㅜ	-12491
▁ㅂㅜㄹㅎㅓ	-12492
▁ㅅㅏㅁㅇㅟ	-12493
▁ㅅㅜㄴㅎㅘ	-12494
▁ㅅㅡㅇㅎㅘ	-12495
▁ㅈㅣㄱㄱㅜ	-12496
▁ㅍㅜㅇㅎㅘ	-12497
▁ㅍㅣㄹㅈㅡ	-12498
ㅅㅓㄱㅂㅏㅇ	-12499
ㅈㅗㄴㅅㅣㅁ	-12500
▁ㅇㅕㄴㅎㅕㄱ	-12501
▁ㅈㅓㄱㅎㅕㄹ	-12502
▁ㅈㅗㅇㅇㅛㅇ	-12503
▁ㅋㅐㅂㅋㅗㅁ	-12504
▁ㄷㅡㄱㅈㅓㅁㅈㅏ	-12505
▁ㅅㅏㄴㅊㅓㅇㄱㅜㄴ	-12506
▁ㅇㅕㄹㄹㅣㄴㅈㅣㅂㅎㅏㅂ	-12507
ㄴㅔㅁ	-12508
▁1787	-12509
▁2600	-12510
▁ㄷㅗㅇㄹㅣ	-12511
▁ㅂㅓㅂㄷㅐ	-12512
▁ㅂㅜㄴㄱㅜ	-12513
▁ㅅㅏㅇㅅㅙ	-12514
▁ㅍㅜㅇㅁㅣ	-12515
ㄷㅗㅇㅎㅏㄴ	-12516
▁ㄱㅕㄱㄷㅗㄹ	-12517
▁ㅅㅣㄱㅅㅐㅇ	-12518
▁ㅇㅣㄹㅅㅣㄴ	-12519
▁ㅈㅓㄴㅇㅓㅂ	-12520
▁ㅈㅣㄴㄴㅏㅁ	-12521
▁ㅍㅐㄴㅌㅓㅁ	-12522
▁ㄱㅗㅇㅎㅏㄱㅂㅜ	-12523
ㅇㅑㄱㅅㅓㅇㄱㅕㅇ	-12524
▁ㅈㅓㅇㅇㅑㄱㅇㅛㅇ	-12525
▁Fri	-12526
ㅈㅓㅇㅎㅢ	-12527
▁ㄱㅏㄹㄷㅐ	-12528
▁ㄷㅓㅇㅅㅑ	-12529
▁ㅂㅏㄹㅂㅜ	-12530
▁ㅅㅡㄹㄹㅐ	-12531
▁ㅇㅑㄱㅇㅓ	-12532
▁ㅇㅠㄱㅅㅏ	-12533
▁ㅊㅐㄱㅈㅏ	-12534
▁ㅊㅓㄹㅅㅐ	-12535
ㅌㅡㄷㄴㅏㄹ	-12536
▁ㅂㅗㅇㅊㅓㄴ	-12537
▁ㅅㅓㅇㅅㅣㅁ	-12538
▁ㅇㅑㅇㅇㅘㅇ	-12539
▁ㅊㅐㄱㅅㅏㅇ	-12540
▁ㅇㅕㅇㅊㅓㄴㅅㅣ	-12541
▁ㅈㅓㄱㄱㅏㄹㅅㅐㄱ	-12542
▁ㄸㅏㄱㅈㅓㅇㅂㅓㄹㄹㅔ	-12543
yp	-12544
▁OH	-12545
ield	-12546
▁ㅌㅓㅁ	-12547
▁Home	-12548
ㅈㅓㄹㅈㅔ	-12549
ㅌㅐㄴㄷㅓ	-12550
▁ㄱㅏㄹㄱㅗ	-12551
▁ㅅㅔㄱㅅㅣ	-12552
▁ㅇㅝㄴㅍㅣ	-12553
▁ㅇㅣㅁㅊㅏ	-12554
▁ㅇㅣㅇㅇㅓ	-12555
▁ㅈㅣㄴㅁㅜ	-12556
▁ㅈㅣㄹㅇㅢ	-12557
▁ㅋㅏㄴㄴㅏ	-12558
▁ㅍㅓㄴㅈㅏ	-12559
▁ㅎㅐㅇㅋㅡ	-12560
▁ㄴㅜㄴㅇㅏㅍ	-12561
▁ㄷㅏㄴㄹㅏㄱ	-12562
▁ㄷㅏㅇㅅㅏㄴ	-12563
▁ㅁㅏㄹㄱㅏㄹ	-12564
▁ㅅㅣㄹㄹㅣㅇ	-12565
▁ㅇㅔㄹㄹㅏㅁ	-12566
▁ㅇㅡㅇㅈㅣㅂ	-12567
▁ㅊㅗㅇㅁㅕㅇ	-12568
▁ㄷㅗㅇㅇㅣㄴㅈㅣ	-12569
▁ㅂㅏㄱㅈㅜㅇㅇㅑㅇ	-12570
▁PV	-12571
▁1816	-12572
▁1818	-12573
ㄱㅗㅁㅈㅏ	-12574
ㄹㅡㅂㅆㅡ	-12575
ㅌㅣㄹㄷㅏ	-12576
▁ㅉㅣㅈㅇㅓ	-12577
ㅌㅗㅇㄱㅏㅁ	-12578
▁ㄴㅏㅁㅈㅣㄴ	-12579
▁ㅅㅓㅇㅎㅗㄴ	-12580
▁ㅅㅗㄱㅁㅕㅇ	-12581
▁ㅈㅜㅇㅎㅏㄱ	-12582
▁ㅁㅕㅇㅁㅗㄱㅅㅏㅇ	-12583
▁ㅈㅣㄴㅇㅏㄴㄱㅜㄴ	-12584
▁ㅌㅡㄱㅅㅏㄴㅁㅜㄹ	-12585
ek	-12586
inc	-12587
▁HR	-12588
▁UD	-12589
work	-12590
ㅋㅓㅁㅍㅠ	-12591
ㅂㅕㅇㅊㅓㄹ	-12592
ㅇㅕㄴㅅㅓㄱ	-12593
▁ㄱㅏㄴㅌㅐㄱ	-12594
▁ㄱㅘㄴㅇㅣㅂ	-12595
▁ㅂㅜㄹㅂㅏㄹ	-12596
▁ㅂㅣㅇㅍㅏㄴ	-12597
▁ㅅㅣㄱㄷㅏㄴ	-12598
▁ㅇㅡㄴㅊㅗㅇ	-12599
lin	-12600
vil	-12601
ㄸㅗㅇ	-12602
▁Ber	-12603
▁ㄴㅜㅁ	-12604
▁AIDS	-12605
ㄱㅗㅇㅍㅗ	-12606
ㄷㅠㄹㄹㅓ	-12607
ㅅㅡㅇㅎㅢ	-12608
ㅍㅔㄹㄹㅏ	-12609
▁ㄲㅗㅊㄱㅏ	-12610
▁ㅈㅣㄴㅈㅓ	-12611
▁ㅎㅣㄱㅅㅡ	-12612
▁ㅂㅏㄱㅇㅡㄴ	-12613
▁ㅂㅐㄹㄹㅓㄴㅅㅡ	-12614
▁ㅇㅝㄴㅈㅏㄱㅈㅏ	-12615
▁ㅊㅓㅇㄹㅑㅇㄹㅣ	-12616
gy	-12617
▁680	-12618
▁Vis	-12619
▁ㅃㅗㅇ	-12620
▁ㅈㅏㅅ	-12621
ㅅㅓㅇㅅㅏ	-12622
ㅊㅜㅇㅅㅏ	-12623
▁Techn	-12624
▁ㄹㅓㄴㅌㅏ	-12625
▁ㅂㅕㄴㅈㅔ	-12626
▁ㅂㅕㄴㅌㅐ	-12627
▁ㅍㅜㅁㄹㅠ	-12628
ㅇㅓㅁㄹㅕㅇ	-12629
ㅎㅚㄱㅇㅏㄴ	-12630
▁ㄱㅏㅁㅎㅕㅇ	-12631
▁ㄱㅜㄹㄸㅜㄱ	-12632
▁ㅁㅣㄴㅅㅐㅇ	-12633
▁ㅂㅏㄴㄴㅕㄴ	-12634
▁ㅈㅓㅇㅇㅕㄹ	-12635
▁ㅊㅣㄴㄱㅡㄴ	-12636
▁ㅍㅜㄹㄹㅓㅁ	-12637
▁ㅎㅏㄴㅎㅏㄱ	-12638
▁ㅎㅓㄴㅌㅣㅇ	-12639
▁ㅅㅓㅇㅎㅐㅇㅇㅟ	-12640
▁ㄱㅣㅁㅇㅝㄴㅂㅗㅇ	-12641
▁BJ	-12642
▁Nt	-12643
▁Wr	-12644
▁ㅉㅓ	-12645
ㄷㅓㅍ	-12646
apan	-12647
▁560	-12648
▁Die	-12649
ouble	-12650
ㄱㅏㄴㄷㅡ	-12651
ㄷㅔㄴㅇㅓ	-12652
ㄹㅓㅂㅌㅡ	-12653
ㅈㅓㄱㅇㅡ	-12654
▁ㅇㅏㄴㅅㅏ	-12655
▁ㅇㅔㄴㅅㅣ	-12656
▁ㅈㅣㄴㅈㅏ	-12657
▁ㅍㅏㄴㅎㅘ	-12658
▁ㅎㅐㅇㅌㅐ	-12659
ㅈㅣㄴㄹㅕㄱ	-12660
▁ㄴㅜㄴㄱㅣㄹ	-12661
▁ㅂㅣㄹㄹㅓㅁ	-12662
▁ㅅㅓㅇㅇㅏㄴ	-12663
▁ㅇㅝㄴㄱㅘㅇ	-12664
▁ㅇㅣㄴㅇㅘㅇ	-12665
▁ㅊㅣㅂㅅㅔㅅ	-12666
▁ㅍㅐㄹㅋㅓㄴ	-12667
▁ㅍㅜㅇㄹㅕㄱ	-12668
▁ㅍㅜㅇㅅㅓㄴ	-12669
ㅌㅗㅇㄹㅕㅇㄹㅕㅇ	-12670
▁ㅇㅕㅇㄱㅘㅇㄱㅜㄴ	-12671
▁Hz	-12672
▁NO	-12673
▁262	-12674
▁Ver	-12675
▁ㅈㅟㄹ	-12676
ㄱㅏㅇㄷㅗ	-12677
ㅅㅔㄴㅌㅣ	-12678
ㅇㅜㄴㅅㅏ	-12679
▁ㄱㅣㅁㅁㅣ	-12680
▁ㅎㅏㅂㅅㅔ	-12681
▁ㄱㅕㅇㅇㅘㅇ	-12682
▁ㄷㅏㄹㅂㅣㅊ	-12683
▁ㅂㅏㄱㅎㅕㄴ	-12684
▁ㅂㅕㅇㅊㅏㅁ	-12685
▁ㅇㅕㄱㅇㅣㄴ	-12686
▁ㅈㅣㄴㅂㅓㅂ	-12687
▁ㅌㅏㄹㅇㅗㄱ	-12688
▁ㄱㅕㅇㄷㅓㄱㅇㅘㅇ	-12689
▁ㄱㅡㄱㄹㅏㄱㅈㅓㄴ	-12690
▁ㅂㅜㄹㅁㅕㅇㅎㅘㄱ	-12691
▁ㅈㅓㄴㅎㅘㄴㅈㅓㅁ	-12692
▁ㅍㅕㅇㅇㅑㅇㅅㅓㅇ	-12693
▁Mk	-12694
▁fe	-12695
ling	-12696
▁Fun	-12697
▁Soc	-12698
▁ㅃㅓㄹ	-12699
ㄷㅏㄱㅊㅣ	-12700
ㅅㅓㅇㅂㅜ	-12701
▁ㄷㅗㅇㄱㅡ	-12702
▁ㅈㅏㅇㅈㅜ	-12703
ㄱㅡㄱㅇㅣㄴ	-12704
ㅍㅗㄹㄹㅗㄴ	-12705
▁ㅁㅏㄹㅇㅕㅂ	-12706
▁ㅁㅕㅇㅈㅏㄱ	-12707
▁ㅅㅕㄹㄹㅗㄱ	-12708
▁ㅇㅣㅁㅂㅏㄱ	-12709
▁ㅈㅏㅇㄱㅗㅇ	-12710
▁ㅍㅐㄴㄷㅓㅁ	-12711
▁ㅎㅏㅇㅂㅓㅂ	-12712
▁ㅁㅜㄴㅎㅏㄱㅂㅜ	-12713
UL	-12714
ㄹㄷㅡ	-12715
itch	-12716
▁MLS	-12717
▁ㅁㅔㅇ	-12718
▁Moon	-12719
ㄱㅏㄴㅍㅛ	-12720
ㅁㅐㄴㄷㅡ	-12721
ㅁㅔㄴㅌㅗ	-12722
ㅂㅏㄹㄷㅣ	-12723
ㅇㅏㄴㄷㅔ	-12724
▁Enter	-12725
▁ㄴㅣㄹㅅㅡ	-12726
ㅎㅐㅇㄹㅕㅇ	-12727
▁ㄴㅜㄴㅆㅓㅂ	-12728
▁ㅂㅏㅇㅈㅣㄱ	-12729
▁ㅂㅐㄱㄹㅕㄴ	-12730
▁ㅂㅕㅇㄷㅡㄹ	-12731
▁ㅂㅗㄴㅈㅓㄱ	-12732
▁ㅅㅡㅂㅈㅏㄱ	-12733
▁ㅅㅣㅁㅂㅗㄱ	-12734
▁ㅍㅕㅇㅇㅗㄴ	-12735
▁ㄱㅘㅇㅅㅏㄴㄱㅜ	-12736
raw	-12737
▁Sn	-12738
▁ㅆㅣㅂ	-12739
ㄱㅏㄴㄱㅗ	-12740
ㅇㅣㄴㅎㅏ	-12741
ㅌㅐㄴㄷㅏ	-12742
▁ㄱㅕㅇㅋㅙ	-12743
▁ㅂㅓㅂㅅㅏ	-12744
ㅈㅓㄴㅊㅜㄱ	-12745
▁ㄴㅏㄱㅇㅝㄴ	-12746
▁ㅊㅓㄹㄱㅏㅂ	-12747
▁ㅎㅏㅇㄷㅡㅇㅅㅣㄱ	-12748
▁AEK	-12749
▁Swe	-12750
▁ㄱㅡㄺ	-12751
▁Team	-12752
▁poem	-12753
ㄹㅣㅁㄹㅣ	-12754
▁ㄴㅏㄴㅎㅐ	-12755
▁ㅁㅗㅇㄱㅜ	-12756
▁ㅁㅜㄴㅇㅢ	-12757
▁ㅂㅏㄹㅊㅏ	-12758
▁ㅂㅏㅇㅍㅏ	-12759
▁ㅅㅏㄴㄱㅐ	-12760
▁ㅅㅣㅁㄷㅗ	-12761
▁ㅇㅓㅁㅎㅗ	-12762
▁ㅎㅏㄱㅁㅜ	-12763
ㄱㅘㄴㅊㅏㄹ	-12764
ㅅㅓㅇㅇㅣㄴ	-12765
ㅈㅣㄴㄷㅗㅇ	-12766
▁ㅂㅣㅇㅅㅏㅇ	-12767
▁ㅇㅠㄱㅇㅏㄴ	-12768
▁ㅎㅏㄱㅅㅣㄱ	-12769
▁ㅎㅏㄴㅅㅏㅇ	-12770
▁ㄱㅕㄹㄹㅗㄴㅈㅣ	-12771
▁ㅎㅏㄱㅅㅜㄹㅇㅝㄴ	-12772
▁KM	-12773
ㄸㅗㄱ	-12774
ㅋㅏㅁ	-12775
reet	-12776
ress	-12777
▁1780	-12778
▁1817	-12779
ㄷㅔㄹㅂㅔ	-12780
▁ㄱㅏㅇㅌㅐ	-12781
▁ㄱㅡㄹㅆㅡ	-12782
▁ㄷㅏㄴㄷㅏ	-12783
▁ㅂㅓㄴㄱㅏ	-12784
▁ㅇㅕㅇㄱㅏ	-12785
▁ㅈㅣㅂㅁㅜ	-12786
ㅈㅏㄱㅈㅓㅁ	-12787
▁ㄱㅡㅂㅅㅣㄱ	-12788
▁ㅅㅣㄴㅊㅜㄴ	-12789
▁ㅇㅜㄴㅁㅜㄴ	-12790
▁ㅇㅝㄴㄱㅕㅇ	-12791
▁ㅈㅣㄴㅅㅏㄴ	-12792
▁ㅋㅡㄹㄹㅐㄴ	-12793
▁ㄱㅏㄴㄷㅏㅁㅎㅚ	-12794
▁ㄱㅘㅇㅇㅑㅇㅅㅣ	-12795
▁ㅁㅗㅇㄱㅗㄹㅇㅓ	-12796
▁ㅇㅘㄴㅂㅕㄱㅎㅣ	-12797
▁ㅈㅣㄱㅅㅓㄴㅈㅔ	-12798
▁ㄷㅏㅇㅂㅜㄴㄱㅏㄴ	-12799
▁ㄷㅗㅇㅇㅕㄱㅎㅏㄱ	-12800
▁ㅅㅓㅇㅈㅏㅇㄹㅠㄹ	-12801
ㅍㅣㅅ	-12802
▁1763	-12803
▁1778	-12804
ㄸㅏㅇㅎㅣ	-12805
ㅇㅝㄹㅈㅜ	-12806
▁First	-12807
▁Stage	-12808
▁ㄱㅏㄱㅎㅏ	-12809
▁ㄱㅣㅁㅅㅏ	-12810
▁ㅎㅏㄴㅇㅜ	-12811
▁ㄱㅕㄱㅂㅜㄴ	-12812
▁ㄱㅡㅁㅈㅓㅇ	-12813
▁ㅇㅑㅇㅁㅕㅇ	-12814
▁ㅈㅘㅇㅈㅗㄱ	-12815
▁ㅊㅓㄴㅅㅓㅇ	-12816
ㅇㅕㅁㅂㅏㄱㅈㅟ	-12817
▁ㄱㅏㅇㄱㅕㅇㅍㅏ	-12818
▁ㅈㅜㅇㄱㅕㄴㅅㅜ	-12819
▁ㅂㅓㅂㅅㅏㅇㅈㅗㅇ	-12820
▁ㅂㅜㄹㅇㅏㄴㄱㅏㅁ	-12821
ope	-12822
▁ㅉㅜㄱ	-12823
▁1453	-12824
ㅂㅏㄴㅅㅡ	-12825
▁ㅁㅗㅇㅋㅣ	-12826
▁ㅁㅣㅌㅂㅏ	-12827
▁ㅅㅣㄹㅁㅏ	-12828
▁ㅇㅝㄴㄹㅠ	-12829
▁ㅇㅝㄴㅊㅗ	-12830
▁ㅍㅕㄴㄷㅐ	-12831
ㄹㅠㄱㄱㅜㄴ	-12832
▁ㅂㅏㄴㅅㅗㅇ	-12833
▁ㅇㅣㅁㅇㅕㅇ	-12834
▁ㅍㅕㅇㄷㅏㄴ	-12835
▁ㅎㅡㅇㄱㅜㄱ	-12836
▁ㄱㅘㄴㅂㅏㄱㅈㅟ	-12837
▁ㅅㅓㄴㅇㅣㄴㅈㅏㅇ	-12838
▁ed	-12839
ival	-12840
▁1825	-12841
ㅊㅗㅇㅈㅐ	-12842
▁Album	-12843
▁ㅅㅓㅁㄴㅔ	-12844
▁ㅇㅕㄴㅈㅔ	-12845
▁ㅎㅗㄴㅅㅜ	-12846
ㄷㅗㄱㅅㅓㅇ	-12847
ㄹㅗㄱㅁㅜㄹ	-12848
ㅇㅘㅇㅅㅓㅇ	-12849
ㅈㅏㄱㄴㅗㅇ	-12850
ㅈㅜㅇㅇㅏㅇ	-12851
▁ㄱㅣㅁㄴㅏㅁ	-12852
▁ㅂㅐㄱㅎㅏㅂ	-12853
▁ㅂㅣㄴㅎㅕㄹ	-12854
▁ㅈㅏㅇㄷㅗㅇ	-12855
▁ㅊㅓㄴㅇㅓㄱ	-12856
▁ㅌㅗㅇㅎㅏㄱ	-12857
▁ㅎㅘㄴㄱㅏㄱ	-12858
▁ㅎㅡㄱㅇㅕㄴ	-12859
▁ㄱㅡㅁㅈㅓㅇㄱㅜ	-12860
▁ㅈㅜㅇㅇㅏㅇㅇㅠ	-12861
▁ㅈㅣㅂㅈㅓㄱㅎㅚ	-12862
▁ㅎㅜㄴㄹㅕㄴㅈㅏㅇ	-12863
ican	-12864
▁333	-12865
▁Cre	-12866
▁Sil	-12867
▁ㄲㅘㄱ	-12868
▁ㅌㅜㄱ	-12869
▁SEED	-12870
ㅂㅕㄴㅅㅏ	-12871
ㅅㅏㅇㅂㅜ	-12872
▁ㄱㅣㄹㄹㅣ	-12873
▁ㄹㅏㅁㄷㅏ	-12874
▁ㅂㅗㄹㅅㅡ	-12875
▁ㅇㅕㄹㄴㅕ	-12876
▁ㅇㅝㄴㅇㅓ	-12877
▁ㅈㅓㅁㅈㅏ	-12878
▁ㅈㅣㅂㄱㅔ	-12879
ㄹㅛㅇㅅㅏㄴ	-12880
▁ㄱㅏㄴㄱㅡㄱ	-12881
▁ㄱㅘㄴㄹㅣㅂ	-12882
▁ㄴㅜㄴㄱㅡㅁ	-12883
▁ㅇㅛㅇㄷㅏㅁ	-12884
▁ㅇㅣㄴㅁㅗㄱ	-12885
oom	-12886
▁AW	-12887
▁ㄱㅝ	-12888
ㄲㅘㅇ	-12889
ㄱㅕㄹㅅㅏ	-12890
ㄴㅑㅇㄱㅐ	-12891
ㄷㅓㅍㅇㅣ	-12892
ㅊㅏㄹㅅㅏ	-12893
▁ㅂㅗㅇㅌㅗ	-12894
▁ㅅㅓㅇㄴㅏ	-12895
▁ㅎㅘㄴㅎㅗ	-12896
ㄱㅗㅇㄱㅕㄱ	-12897
ㅂㅏㅇㄱㅘㅇ	-12898
ㅇㅣㄹㅈㅓㅁ	-12899
▁ㄱㅐㅅㅂㅓㄹ	-12900
▁ㅇㅜㄹㅊㅏㅇ	-12901
▁ㅋㅡㄹㄹㅐㅂ	-12902
▁ㅎㅏㄴㄱㅜㄱㅈㅓㄴㄹㅕㄱ	-12903
ely	-12904
ino	-12905
▁Dig	-12906
▁ㄴㅔㅂ	-12907
ㅇㄱㅔㄴ	-12908
ㄷㅗㄴㄴㅏ	-12909
ㄹㅓㄴㄷㅡ	-12910
ㄹㅔㄴㅂㅜ	-12911
▁ㄱㅗㄱㅅㅏ	-12912
▁ㅅㅣㄱㅅㅜ	-12913
▁ㅅㅣㄹㄹㅔ	-12914
▁ㅇㅝㄴㄱㅜ	-12915
▁ㅈㅓㄴㅊㅗ	-12916
▁ㅈㅗㅇㅇㅟ	-12917
▁Little	-12918
▁ㄱㅗㄱㅅㅓㅇ	-12919
▁ㄴㅗㄱㅎㅜㄴ	-12920
▁ㄷㅗㅇㄱㅜㅇ	-12921
▁ㅂㅓㅁㅈㅗㅇ	-12922
▁ㅅㅏㅇㅈㅓㄴ	-12923
▁ㅇㅣㅂㅂㅏㅇ	-12924
▁ㅎㅏㅇㄷㅡㅇ	-12925
▁ㅎㅗㅇㅈㅜㄴ	-12926
▁ㄱㅘㄴㅊㅡㄱㅈㅏ	-12927
ha	-12928
yr	-12929
ㅈㅓㅅ	-12930
▁1593	-12931
▁1788	-12932
▁2024	-12933
▁Happ	-12934
ㄱㅏㄱㄱㅣ	-12935
ㅊㅔㄹㄹㅣ	-12936
▁ㅁㅐㅇㅈㅏ	-12937
▁ㅇㅑㅇㅌㅐ	-12938
▁ㅇㅟㅅㅅㅜ	-12939
▁ㅎㅚㅇㅍㅗ	-12940
ㅇㅛㅇㄱㅜㄴ	-12941
▁ㄷㅗㄱㅎㅏㄱ	-12942
▁ㅅㅣㄴㅅㅣㄱ	-12943
▁ㅇㅑㅇㄱㅘㅇ	-12944
▁ㅇㅕㄹㅎㅕㄹ	-12945
▁ㅈㅓㄴㄷㅡㅇ	-12946
▁ㅈㅓㅇㅁㅗㅇ	-12947
▁ㅈㅓㅇㅇㅐㄱ	-12948
▁ㅈㅡㄱㅅㅓㄱ	-12949
▁ㄱㅏㅇㅇㅕㄴㅎㅚ	-12950
▁ㅁㅜㄹㅂㅕㅇㅈㅏ	-12951
▁ㅈㅓㅇㅅㅏㅇㅂㅜ	-12952
▁ㅂㅐㄱㅎㅕㄹㅂㅕㅇ	-12953
▁ㅅㅣㄴㄱㅕㅇㅁㅏㅇ	-12954
ts	-12955
ves	-12956
▁313	-12957
▁Pet	-12958
▁var	-12959
▁ㅅㅣㅁㅊㅟ	-12960
ㅅㅣㄴㅎㅕㅇ	-12961
▁ㄱㅓㅁㅇㅕㄱ	-12962
▁ㅅㅓㅇㄱㅜㄴ	-12963
▁ㅇㅕㅂㄹㅗㄱ	-12964
▁function	-12965
▁ㄱㅣㅁㅈㅓㅇㅎㅢ	-12966
▁ㅂㅏㅇㅌㅏㄴㅅㅗ	-12967
▁ㅈㅓㄱㅎㅕㄹㄱㅜ	-12968
▁ㅅㅗㅇㅈㅜㄴㄱㅣㄹ	-12969
PG	-12970
ㅃㅣ	-12971
ike	-12972
ㄴㅡㅁ	-12973
▁SAR	-12974
▁main	-12975
ㅇㅣㅁㅅㅐ	-12976
▁ㅁㅜㄴㅎㅗ	-12977
▁ㅇㅑㅇㄱㅣ	-12978
▁ㅇㅗㄻㄱㅕ	-12979
▁ㅎㅘㄹㅎㅘ	-12980
ㄱㅗㄱㅈㅓㄹ	-12981
ㅅㅓㅇㅂㅜㄴ	-12982
▁ㄱㅣㅁㅊㅓㄹ	-12983
▁ㅇㅘㄴㄱㅏㅇ	-12984
▁ㅋㅏㄹㄴㅏㄹ	-12985
▁ㄱㅜㄱㅁㅣㄴㄷㅐ	-12986
RA	-12987
ESA	-12988
▁MI	-12989
ㅇㅑㄱㅈㅏ	-12990
▁ㄱㅜㄴㅇㅢ	-12991
▁ㄴㅏㅁㄷㅗ	-12992
▁ㅋㅗㅂㅌㅡ	-12993
▁ㅍㅗㄹㄷㅡ	-12994
▁ㄷㅗㅇㅅㅓㄴ	-12995
▁ㅅㅓㄴㅈㅓㄱ	-12996
▁ㅇㅑㅇㅈㅣㄹ	-12997
▁ㅇㅕㅇㄱㅗㅇ	-12998
▁ㄴㅏㅁㄷㅗㅇㄱㅜ	-12999
▁ㄱㅣㅁㅎㅗㅇㅈㅣㅂ	-13000
▁ㅂㅏㄴㅎㅕㄱㅁㅕㅇ	-13001
▁ㅅㅐㅇㅅㅏㄴㅁㅜㄹ	-13002
ze	-13003
get	-13004
ird	-13005
ler	-13006
▁OL	-13007
▁VL	-13008
▁323	-13009
▁MBN	-13010
▁PSP	-13011
▁ㅎㅗㅌ	-13012
ㅁㅜㅅㄱㅏ	-13013
ㅇㅓㅂㅂㅣ	-13014
ㅋㅝㄴㅅㅡ	-13015
ㅌㅓㄹㄹㅜ	-13016
▁right	-13017
▁ㄴㅗㄱㅈㅗ	-13018
▁ㅍㅓㅁㅇㅞ	-13019
ㅅㅐㄱㅂㅣㅊ	-13020
ㅇㅜㄹㅇㅕㄱ	-13021
ㅉㅐㅆㄷㅡㄴ	-13022
▁ㅂㅏㄱㅅㅜㄴ	-13023
▁ㅍㅕㅇㅇㅕㅇ	-13024
▁ㅎㅐㅇㄱㅏㄱ	-13025
▁ㄱㅕㅇㅅㅏㄴㅅㅣ	-13026
ECT	-13027
uman	-13028
▁229	-13029
ㅇㅏㄴㅌㅏ	-13030
ㅈㅣㄹㄱㅣ	-13031
▁Never	-13032
▁ㄱㅗㅇㅇㅟ	-13033
▁ㄱㅘㅇㄱㅐ	-13034
▁ㄴㅗㅇㄴㅗ	-13035
▁ㅁㅐㄱㄱㅡ	-13036
▁ㅅㅗㅇㅅㅜ	-13037
▁ㅇㅑㅇㅎㅘ	-13038
▁ㅇㅘㄴㅍㅐ	-13039
▁ㅇㅞㅂㅅㅡ	-13040
▁ㅈㅜㄴㅇㅣ	-13041
▁ㅌㅓㅇㅅㅡ	-13042
▁ㅎㅜㄴㄱㅜ	-13043
ㅅㅏㅇㄱㅡㅂ	-13044
ㅇㅕㄹㅇㅡㅁ	-13045
ㅈㅏㅇㅇㅏㅁ	-13046
▁ㅅㅏㅇㅎㅏㄱ	-13047
▁ㅈㅓㄴㅍㅕㄴ	-13048
▁ㅈㅣㄴㄷㅏㄹ	-13049
▁ㅊㅏㅁㄱㅘㄴ	-13050
▁ㅍㅕㄴㄱㅘㅇ	-13051
▁ㅅㅏㅇㅅㅏㅇㄹㅕㄱ	-13052
yc	-13053
▁960	-13054
▁Sky	-13055
▁ㅈㅓㅅ	-13056
ㅅㅓㄴㅇㅓ	-13057
ㅈㅓㄴㅅㅓ	-13058
▁ㄴㅏㅂㅅㅔ	-13059
▁ㅁㅏㄱㅅㅏ	-13060
▁ㅅㅔㄹㄹㅣ	-13061
ㄱㅣㄹㄷㅗㅇ	-13062
▁Summer	-13063
▁ㄱㅜㄹㅊㅏㄱ	-13064
▁ㄴㅏㄱㄱㅘㄴ	-13065
▁ㅁㅏㄱㅁㅏㄹ	-13066
▁ㅅㅜㄴㅇㅡㅇ	-13067
▁ㅅㅣㅁㄱㅕㅇ	-13068
▁ㅇㅕㄱㅈㅓㄱ	-13069
▁ㅇㅕㄴㄱㅕㅇ	-13070
▁ㅇㅘㅇㅅㅏㅇ	-13071
▁ㅎㅏㄱㅅㅏㅇ	-13072
▁ㅈㅣㄴㅎㅐㅇㅎㅏ	-13073
▁ㅇㅏㄱㅇㅕㅇㅎㅑㅇ	-13074
err	-13075
▁860	-13076
▁ㄷㅚㄴ	-13077
ㅕㄹㄹㅔ	-13078
▁1797	-13079
ㄱㅜㄴㅈㅜ	-13080
ㅅㅏㅇㄱㅜ	-13081
ㅇㅓㅁㅊㅣ	-13082
ㅋㅔㄴㅈㅣ	-13083
ㅍㅣㄴㅅㅡ	-13084
▁ㄷㅏㄴㅂㅜ	-13085
▁ㅁㅏㅇㄹㅏ	-13086
▁ㅁㅣㄴㅋㅗ	-13087
▁ㅇㅑㄱㅊㅔ	-13088
▁ㅈㅡㅇㅂㅗ	-13089
▁ㅌㅗㅇㅅㅜ	-13090
▁ㄱㅜㄱㄱㅝㄴ	-13091
▁ㄷㅗㅇㄱㅏㅇ	-13092
▁ㅂㅐㄱㅅㅓㄱ	-13093
▁ㅇㅏㄹㄹㅏㄴ	-13094
▁ㅇㅓㅁㅈㅜㅇ	-13095
▁ㅊㅗㅇㅌㅏㄴ	-13096
▁ㅍㅕㄴㄴㅕㄴ	-13097
▁ㄱㅘㄴㅊㅡㄱㅅㅗ	-13098
▁ㅅㅣㄴㄱㅏㄴㅎㅚ	-13099
▁ㅈㅏㅇㄷㅓㄱㅅㅜ	-13100
▁ㅈㅣㅂㅎㅏㅂㅊㅔ	-13101
▁ㅈㅣㄴㅊㅓㄴㄱㅜㄴ	-13102
▁ㄱㅜㄱㅁㅣㄴㅈㅓㅇㅂㅜ	-13103
AND	-13104
uro	-13105
▁MG	-13106
ㅂㅌㅣ	-13107
▁Pla	-13108
▁1636	-13109
▁1838	-13110
▁Plan	-13111
▁ㅇㅑㄱㅊㅗ	-13112
▁ㅇㅛㅇㅎㅗ	-13113
ㅂㅏㅇㅇㅝㄴ	-13114
▁ㄱㅗㅇㄹㅗㄴ	-13115
▁ㅅㅣㄴㅈㅡㅇ	-13116
▁ㅇㅣㅁㅅㅓㅇ	-13117
▁ㅋㅗㄴㅋㅡㄹㄹㅏ	-13118
▁ㅅㅜㄴㅎㅘㄴㅅㅓㄴ	-13119
▁If	-13120
▁353	-13121
▁TCP	-13122
▁Tom	-13123
▁1828	-13124
ㅅㅏㅇㄱㅣ	-13125
ㅇㅏㄴㄷㅐ	-13126
▁ㄱㅓㄴㄷㅡ	-13127
▁ㅂㅓㅂㅇㅢ	-13128
▁ㅂㅕㅇㅅㅔ	-13129
▁ㅇㅛㅇㅁㅗ	-13130
▁ㅊㅏㅁㄴㅏ	-13131
▁ㅎㅘㅇㅌㅗ	-13132
ㅂㅜㄴㅂㅓㅂ	-13133
ㅌㅡㄹㄹㅏㄴ	-13134
▁ㅁㅏㄴㅎㅐㅇ	-13135
▁ㅂㅏㄴㅉㅏㄱ	-13136
▁ㅅㅓㅇㅅㅣㄴ	-13137
▁ㅅㅣㄴㄱㅕㄱ	-13138
▁ㅎㅏㄴㅇㅣㄹ	-13139
▁ㄲㅡㄴㅈㅣㄹㄱㅣ	-13140
▁ㅅㅗㄱㅇㅣㅁㅅㅜ	-13141
▁ㅇㅑㅇㅅㅓㅇㅅㅗ	-13142
▁ㅌㅏㅁㅎㅓㅁㄷㅐ	-13143
▁ㄱㅗㅇㅈㅏㄱㅇㅝㄴ	-13144
ACK	-13145
umb	-13146
▁Ap	-13147
▁306	-13148
▁RAM	-13149
▁app	-13150
▁Conc	-13151
▁Hist	-13152
ㅊㅜㄴㅊㅜ	-13153
ㅎㅏㄱㅎㅚ	-13154
▁ㅇㅏㅁㅅㅏ	-13155
ㅅㅓㅇㅈㅏㅇ	-13156
▁ㄱㅕㅇㄷㅏㅇ	-13157
▁ㄱㅘㅇㄹㅡㅇ	-13158
▁ㄱㅡㅁㅂㅏㄹ	-13159
▁ㄴㅏㅁㅁㅕㄴ	-13160
▁ㅂㅏㅇㅈㅣㄴ	-13161
▁ㅇㅕㄱㄱㅘㄴ	-13162
▁ㅇㅝㄴㄷㅏㅇ	-13163
▁ㅈㅓㄴㄱㅡㄴ	-13164
▁ㅋㅡㅁㅈㅣㄱ	-13165
▁ㅌㅣㅁㅇㅝㄴ	-13166
▁ㄹㅗㄱㅍㅔㄹㄹㅓ	-13167
▁ㅎㅏㅂㄱㅕㄱㅈㅏ	-13168
▁ㅎㅗㅇㅈㅜㄴㅍㅛ	-13169
ㅂㅐㄱㅅㅏㄴㅁㅐㄱ	-13170
▁ㅈㅏㅇㅎㅡㅇㄱㅜㄴ	-13171
ㅂㅣㅁ	-13172
▁266	-13173
▁part	-13174
ㅁㅔㄹㄹㅗ	-13175
ㅎㅏㄴㄴㅏ	-13176
▁ㄷㅏㄴㅊㅜ	-13177
▁ㄷㅗㄹㅇㅣ	-13178
▁ㅂㅜㅅㄷㅏ	-13179
▁ㅊㅣㄴㅇㅏ	-13180
ㄱㅘㄴㄱㅘㅇ	-13181
▁ㄱㅓㅁㄷㅏㄴ	-13182
▁ㄱㅜㅇㅍㅣㅂ	-13183
▁ㅁㅏㄹㄸㅜㄱ	-13184
▁ㅁㅏㅈㅁㅓㄱ	-13185
▁ㅁㅜㄱㅅㅏㄹ	-13186
▁ㅈㅓㄴㅂㅗㅇㅈㅜㄴ	-13187
ars	-13188
ris	-13189
▁Sa	-13190
▁ph	-13191
▁so	-13192
ㄴㅜㅅ	-13193
▁810	-13194
▁980	-13195
▁POP	-13196
▁bes	-13197
▁der	-13198
▁8859	-13199
ㄷㅏㄹㄹㅔ	-13200
▁Gener	-13201
▁ㄹㅜㄴㄷㅡ	-13202
▁ㅁㅏㅇㅌㅗ	-13203
▁ㅊㅏㅁㅇㅡ	-13204
▁ㅌㅏㅁㄹㅏ	-13205
▁ㅍㅏㄴㅇㅢ	-13206
▁ㅍㅣㄴㅊㅣ	-13207
ㄱㅡㅂㅍㅜㅁ	-13208
ㅊㅏㄱㄹㅠㄱ	-13209
▁ㅁㅕㅇㄹㅏㅇ	-13210
▁ㅅㅓㄱㅅㅣㄹ	-13211
▁ㅅㅓㅂㄷㅗㅇ	-13212
▁ㅇㅏㄱㅁㅗㅇ	-13213
▁ㅈㅏㅇㅁㅏㄱ	-13214
▁ㅈㅗㅇㅂㅕㄹ	-13215
▁ㄱㅏㅂㅅㅏㅇㅅㅓㄴ	-13216
▁ㅊㅜㅇㅅㅓㄴㅇㅘㅇ	-13217
▁ㅎㅏㄴㄱㅜㄱㅇㅣㄹㅂㅗ	-13218
ㅝㅇ	-13219
▁__	-13220
▁px	-13221
▁SUV	-13222
▁1777	-13223
ㅇㅘㅇㄷㅗ	-13224
▁ㄴㅔㄹㄹㅣ	-13225
▁ㅂㅏㄴㅈㅔ	-13226
▁ㅂㅜㄴㄱㅏ	-13227
▁ㅂㅣㅇㄱㅡ	-13228
▁ㅈㅓㄴㅇㅜ	-13229
ㄱㅕㅇㅅㅓㄱ	-13230
▁ㄴㅗㅇㅅㅣㅁ	-13231
▁ㅅㅓㄱㅈㅏㅇ	-13232
▁ㅇㅕㄱㄱㅕㅇ	-13233
▁ㅇㅕㅁㅈㅓㄴ	-13234
▁ㅈㅓㅂㄱㅕㄴ	-13235
▁ㅈㅜㄴㅇㅛㅇ	-13236
▁ㅈㅣㅇㅂㅏㄹ	-13237
▁ㅅㅏㅁㅅㅓㅇㄱㅡ	-13238
▁ㅈㅓㄴㅇㅛㅇㄷㅗ	-13239
ㅌㅐㅂ	-13240
ific	-13241
▁May	-13242
▁STX	-13243
ㄱㅏㄱㅅㅣ	-13244
ㄱㅓㄴㅅㅡ	-13245
ㅂㅏㄹㄹㅔ	-13246
ㅇㅏㄹㄷㅔ	-13247
ㅇㅔㄴㄷㅡ	-13248
ㅇㅜㄴㅅㅠ	-13249
ㅌㅗㅂㅅㅡ	-13250
▁ㅅㅏㄹㅍㅗ	-13251
▁ㅇㅡㅁㄱㅖ	-13252
▁ㅈㅏㄴㅈㅐ	-13253
▁ㅍㅕㅇㅅㅣ	-13254
▁ㄴㅏㄱㅈㅓㅁ	-13255
▁ㅁㅜㄹㄹㅑㅇ	-13256
▁ㅅㅏㅇㅅㅏㄴ	-13257
▁ㅇㅗㄱㅅㅏㄴ	-13258
▁ㅈㅏㅇㅁㅕㅇ	-13259
▁ㅈㅣㄱㅇㅕㄱ	-13260
▁ㅈㅣㄴㅈㅜㅇ	-13261
▁ㅊㅜㄹㅁㅗㄹ	-13262
▁ㅈㅏㅇㅅㅣㄴㄱㅜ	-13263
ero	-13264
▁DT	-13265
▁Da	-13266
▁.."	-13267
▁273	-13268
▁GHz	-13269
▁Nor	-13270
itude	-13271
umber	-13272
ㄹㅡㅇㅈㅣ	-13273
ㅎㅏㄴㄷㅐ	-13274
▁ㄱㅏㅇㄱㅣ	-13275
▁ㄴㅏㄴㅅㅗ	-13276
▁ㄴㅏㅁㅅㅏ	-13277
▁ㄷㅟㅅㅂㅜ	-13278
▁ㅁㅐㄱㄹㅏ	-13279
▁ㅅㅏㅁㄷㅗ	-13280
▁ㅎㅘㅇㄱㅣ	-13281
ㅈㅓㄴㅅㅓㄹ	-13282
▁ㄱㅘㄴㅇㅣㄴ	-13283
▁ㅁㅏㅇㅅㅓㄹ	-13284
▁ㅇㅏㄱㅇㅛㅇ	-13285
▁ㅇㅏㄴㄱㅜㄱ	-13286
▁ㅈㅓㅇㅈㅜㄴ	-13287
ㅎㅏㄴㅊㅜㄱㄱㅜ	-13288
▁ㅅㅡㄹㄹㅓㅁㅍㅡ	-13289
▁ㅇㅣㄴㄷㅔㄱㅅㅡ	-13290
▁ㅈㅓㄴㄹㅏㅁㅎㅚ	-13291
▁ㄴㅏㅁㅂㅜㄱㅎㅏㄴ	-13292
▁ㅈㅜㅇㅇㅏㅇㄷㅗㅇ	-13293
▁ㅎㅏㄴㄱㅜㄱㅇㅡㄴㅎㅐㅇ	-13294
▁MO	-13295
▁Vo	-13296
▁249	-13297
▁257	-13298
▁880	-13299
▁OFC	-13300
▁Gold	-13301
ㅂㅕㄹㅊㅗ	-13302
ㅅㅓㅇㅊㅔ	-13303
ㅅㅡㅇㅎㅗ	-13304
▁ㅂㅜㄱㅈㅜ	-13305
▁ㅇㅏㄱㅎㅐㅇ	-13306
▁ㅇㅕㄴㅈㅓㅂ	-13307
▁ㅈㅓㅇㄹㅡㅇ	-13308
▁ㅈㅣㄹㄱㅏㅁ	-13309
▁ㅎㅏㄴㅌㅏㄴ	-13310
▁ㅇㅑㅇㅇㅑㅇㄱㅜㄴ	-13311
▁ㅇㅕㄴㅁㅕㄴㅈㅓㄱ	-13312
▁ㅅㅓㄱㅂㅜㄹㅇㅣㅂㅅㅏㅇ	-13313
ren	-13314
ㄹㄹㅔㅅ	-13315
▁ㄹㅣㅂㅅㅡ	-13316
▁ㅂㅣㄴㅅㅡ	-13317
▁ㅇㅓㅁㅎㅏ	-13318
▁ㅇㅣㄴㄴㅐ	-13319
▁ㅍㅐㄱㅌㅓ	-13320
ㅅㅜㄹㅇㅣㄴ	-13321
ㅇㅕㄱㅍㅗㄱ	-13322
▁ㅇㅝㄹㄷㅡㅇ	-13323
▁ㅈㅓㅇㄱㅘㅇ	-13324
ㅋㅗㄴㅅㅣㄴㅈㅜ	-13325
▁ㅂㅡㄹㄹㅗㄱㅊㅔ	-13326
▁ㅈㅜㅇㄴㅏㅁㅂㅜ	-13327
▁ㄱㅡㄴㅇㅕㄴㅈㅗㅇ	-13328
▁TE	-13329
▁ㄹㅕㅁ	-13330
▁ㅌㅓㅅ	-13331
ㄱㅏㄹㄹㅗ	-13332
ㄹㅗㄱㅅㅡ	-13333
ㅂㅗㄴㄱㅡㅁ	-13334
ㅅㅓㄴㅁㅜㄴ	-13335
ㅇㅑㅇㅇㅣㄴ	-13336
ㅈㅓㄴㅇㅕㄱ	-13337
▁ㅂㅏㄴㅊㅣㄱ	-13338
▁ㅂㅕㄴㅁㅕㅇ	-13339
▁ㅅㅗㄴㅈㅏㅂ	-13340
▁ㅇㅓㄴㅇㅑㅇ	-13341
▁ㅇㅗㄴㅁㅗㅁ	-13342
▁ㅇㅠㄴㅇㅝㄴㅎㅕㅇ	-13343
ㅍㅓㄴㄷㅡㄹㄹㅐㄴㄷㅡ	-13344
ross	-13345
▁404	-13346
▁SNK	-13347
ㄷㅡㄱㅅㅔ	-13348
ㅅㅔㄹㄹㅣ	-13349
ㅎㅘㄴㅈㅏ	-13350
ㅁㅣㅇㅌㅓㄴ	-13351
ㅂㅏㅇㅇㅣㄴ	-13352
ㅊㅣㅁㅂㅏㄴ	-13353
▁ㄱㅗㅇㅂㅓㅁ	-13354
▁ㅂㅜㄹㅇㅕㄴ	-13355
ㅂㅏㅇㅂㅗㄴㅂㅜ	-13356
▁ㅊㅗㅇㄱㅏㅁㄷㅗㄱ	-13357
▁ㄱㅜㄱㅁㅣㄴㅇㅡㄴㅎㅐㅇ	-13358
els	-13359
▁KP	-13360
▁RX	-13361
ㄷㅔㅁ	-13362
▁620	-13363
▁Vir	-13364
▁ㄹㅓㅂ	-13365
▁ㅊㅏㅅ	-13366
ㅅㅏㄴㅈㅗ	-13367
ㅌㅔㄴㄷㅣ	-13368
▁Japan	-13369
▁ㄱㅓㄴㄱㅣ	-13370
▁ㄱㅡㄹㄹㅔ	-13371
▁ㅂㅓㄹㅆㅓ	-13372
▁ㅂㅗㄹㅊㅡ	-13373
▁ㅅㅏㅁㅂㅗ	-13374
▁ㅈㅣㄴㅅㅣ	-13375
▁ㅋㅕㄹㄹㅔ	-13376
▁ㅋㅗㄹㅌㅡ	-13377
olution	-13378
▁ㄱㅕㅇㅎㅏㄱ	-13379
▁ㄱㅣㅁㅅㅣㄴ	-13380
▁ㅅㅗㄱㄱㅗㄱ	-13381
▁ㅅㅗㄱㅇㅗㅅ	-13382
▁ㅋㅐㄹㅂㅣㄴ	-13383
▁ㅅㅏㅁㅊㅓㄱㅅㅣ	-13384
era	-13385
▁CW	-13386
▁ㅋㅑ	-13387
ㅅㅣㅅ	-13388
less	-13389
▁236	-13390
▁But	-13391
▁res	-13392
▁1784	-13393
▁ISIL	-13394
ㄷㅡㅇㄱㅣ	-13395
ㅈㅓㅇㅅㅓ	-13396
▁ㅂㅏㅇㅇㅏ	-13397
▁ㅉㅣㄹㄹㅣ	-13398
▁ㅍㅔㄴㅌㅏ	-13399
▁ㅍㅗㄹㄷㅓ	-13400
ㅁㅏㄴㅈㅗㄱ	-13401
▁ㄱㅡㄴㅈㅓㄹ	-13402
▁ㄴㅏㅁㄱㅏㅇ	-13403
▁ㅁㅏㄴㅇㅣㄴ	-13404
▁ㅂㅜㄱㅁㅜㄴ	-13405
▁ㅈㅓㅇㅊㅗㄴ	-13406
▁ㅎㅘㄴㄱㅗㅇ	-13407
▁ㅎㅣㄹㅌㅡㄴ	-13408
ㅎㅕㄱㅁㅕㅇㄷㅏㅇ	-13409
ius	-13410
▁Rh	-13411
ㄴㅗㄹㅈㅡ	-13412
ㄹㅣㄴㅎㅘ	-13413
▁ㄱㅐㄹㄹㅣ	-13414
▁ㅁㅕㄴㄷㅗ	-13415
▁ㅂㅕㄴㅇㅟ	-13416
▁ㅂㅗㄹㄱㅓ	-13417
▁ㅅㅓㄱㅈㅘ	-13418
▁ㅇㅑㄱㅈㅐ	-13419
▁ㅊㅓㄴㅎㅗ	-13420
ㄷㅓㄱㄷㅗㅇ	-13421
ㅅㅣㅁㄹㅠㄹ	-13422
ㅇㅜㄹㅈㅏㅁ	-13423
ㅋㅔㄹㄹㅏㄴ	-13424
▁ㅂㅜㄴㅂㅜㄴ	-13425
▁ㅅㅔㄹㄹㅜㄹㄹㅗ	-13426
▁ㅂㅏㄹㅇㅝㄴㅁㅜㄴ	-13427
▁Pi	-13428
ㅂㅗㅁ	-13429
▁Fla	-13430
▁ㅎㅣㅇ	-13431
ㅁㅜㄴㅇㅖ	-13432
ㅇㅘㅇㅅㅣ	-13433
▁Class	-13434
▁ㄱㅓㅁㄱㅛ	-13435
▁ㄱㅗㅇㅂㅣ	-13436
▁ㄱㅘㅇㅇㅜ	-13437
▁ㅂㅓㅂㅊㅣ	-13438
▁ㅂㅗㄴㄷㅐ	-13439
▁ㅅㅗㅇㅅㅏ	-13440
▁ㅇㅏㄴㄹㅛ	-13441
▁ㅇㅣㄴㅍㅗ	-13442
▁ㅈㅏㅂㅅㅡ	-13443
▁ㅈㅓㄹㅇㅣ	-13444
ㄱㅏㅇㅇㅝㄴ	-13445
ㄱㅓㅁㅊㅏㄹ	-13446
▁ㄱㅗㅇㅅㅓㅇ	-13447
▁ㅁㅜㄹㄷㅡㄹ	-13448
▁ㅂㅏㄱㅁㅜㄴ	-13449
▁ㅂㅏㅇㅅㅏㄴ	-13450
▁ㅂㅜㄱㅊㅓㅇ	-13451
▁ㅅㅣㄴㄹㅕㅇ	-13452
▁ㅇㅝㄴㅇㅏㄴ	-13453
▁ㅊㅓㄴㄱㅗㅇ	-13454
▁ㅇㅗㄴㄱㅓㄴㅍㅏ	-13455
▁ㅅㅏㅇㅈㅣㅇㅁㅜㄹ	-13456
ful	-13457
▁Aut	-13458
▁GUI	-13459
▁Ret	-13460
▁TOUR	-13461
ㅅㅏㅇㅎㅏ	-13462
▁ㄱㅔㄴㅌㅏ	-13463
▁ㄴㅏㅁㅊㅗ	-13464
▁ㅁㅗㄴㅌㅣ	-13465
▁ㅂㅜㄱㅋㅣ	-13466
▁ㅇㅏㄴㅁㅏ	-13467
ㄹㅕㅇㅌㅏㅂ	-13468
▁ㄱㅗㄱㄹㅠㄹ	-13469
▁ㄷㅓㄱㅎㅡㅇ	-13470
GS	-13471
▁Km	-13472
▁630	-13473
▁ESP	-13474
ㄱㅡㅂㅅㅏ	-13475
▁ㄱㅜㅇㄷㅗ	-13476
▁ㄱㅡㅁㄱㅘ	-13477
▁ㅁㅏㅁㄹㅜ	-13478
▁ㅁㅕㅇㄹㅛ	-13479
ㅅㅗㄱㅊㅓㄹ	-13480
ㅅㅣㅂㅁㅏㄴ	-13481
ㅇㅓㄴㄱㅜㄴ	-13482
▁ㄱㅜㄴㄱㅗㅇ	-13483
▁ㅇㅏㅂㅅㅡㅇ	-13484
▁ㅇㅡㄴㄴㅣㄱ	-13485
▁ㅇㅣㄴㄷㅗㅇ	-13486
▁ㅊㅓㄴㅈㅣㄴ	-13487
▁ㅊㅣㅁㅅㅣㄹ	-13488
▁ㄱㅗㅇㄱㅕㄱㅈㅏ	-13489
▁ㅇㅕㅇㅇㅑㅇㅂㅜㄴ	-13490
▁ㅈㅏㅇㅂㅗㄴㅇㅣㄴ	-13491
to	-13492
▁OM	-13493
line	-13494
ople	-13495
ative	-13496
ㄷㅐㅂㅌㅓ	-13497
ㅇㅛㄴㅅㅔ	-13498
▁ㄱㅣㅁㅇㅣ	-13499
▁ㄴㅗㅇㅅㅜ	-13500
▁ㅇㅛㅇㅈㅜ	-13501
▁ㅈㅣㄹㅈㅜ	-13502
▁ㅍㅔㅂㅌㅏ	-13503
ㅅㅏㄴㅇㅕㅁ	-13504
ㅊㅜㄹㅇㅣㅂ	-13505
ㅎㅏㅇㅅㅓㅇ	-13506
▁ㅇㅛㅇㄱㅗㄹ	-13507
▁ㅈㅓㅇㅊㅏㅇ	-13508
▁GeForce	-13509
▁ㅅㅔㄹㅌㅣㄱㅅㅡ	-13510
▁ㅅㅣㄴㅈㅜㅇㄷㅗ	-13511
▁ㅇㅑㅇㅊㅓㄴㄱㅜ	-13512
▁ㅇㅣㄹㅂㅏㄴㅈㅣㄱ	-13513
▁ㅅㅓㄴㄷㅓㄹㄹㅐㄴㄷㅡ	-13514
▁Sl	-13515
▁304	-13516
▁570	-13517
▁ㅊㅏㅂ	-13518
▁Char	-13519
▁Long	-13520
▁Year	-13521
ㅁㅔㄹㄹㅣ	-13522
ㅇㅔㄹㄹㅣ	-13523
ㅎㅕㄴㅇㅜ	-13524
▁Beaut	-13525
▁ㄱㅕㅇㅅㅓ	-13526
▁ㄱㅡㄱㅎㅏ	-13527
▁ㄱㅡㄴㅅㅗ	-13528
▁ㅁㅣㄴㅌㅡ	-13529
▁ㅇㅣㅁㅇㅗ	-13530
▁ㅍㅏㄴㄷㅏ	-13531
▁ㅎㅏㅁㅈㅐ	-13532
▁ㅎㅜㄹㄹㅣ	-13533
ㅇㅣㄴㅇㅝㄴ	-13534
▁ㅂㅗㄴㅂㅏㄷ	-13535
▁ㅂㅜㄹㅅㅓㄴ	-13536
▁ㅇㅣㄹㅇㅑㄱ	-13537
▁ㅈㅏㅇㅇㅕㄴ	-13538
▁ㅈㅓㅂㅇㅕㅇ	-13539
▁ㅇㅕㄴㅎㅏㅂㅊㅔ	-13540
▁ㅎㅘㅇㄱㅡㅁㄱㅣ	-13541
▁ㄱㅘㄴㅅㅡㅂㅂㅓㅂ	-13542
ㄲㅗㄱ	-13543
▁ㅆㅜㄱ	-13544
iness	-13545
ㅇㅜㄴㅅㅡ	-13546
▁Group	-13547
▁ㄴㅏㅁㅇㅣ	-13548
▁ㅁㅓㄱㅎㅣ	-13549
ㄷㅜㄴㄱㅜㄴ	-13550
ㅇㅡㄴㄱㅜㄴ	-13551
ㅇㅣㄴㅅㅓㄱ	-13552
ㅈㅏㅇㄱㅘㄴ	-13553
ㅈㅓㅇㅎㅕㄴ	-13554
▁ㄱㅗㅇㅁㅜㄴㅅㅓ	-13555
▁ㅅㅓㄱㅂㅜㄹㅈㅘ	-13556
▁ㅇㅕㄴㅂㅏㅇㅈㅜ	-13557
ㅂㅗㄱㄷㅗㅇㅅㅐㅇ	-13558
ㄲㅡㅌ	-13559
ㅁㅐㅂ	-13560
ㅅㅔㄱ	-13561
▁470	-13562
▁Bus	-13563
▁ㅇㅟㄱ	-13564
▁1826	-13565
▁Dark	-13566
ㅁㅜㄴㅈㅔ	-13567
ㅎㅏㄴㅎㅣ	-13568
▁ㄱㅕㅇㄹㅣ	-13569
▁ㄴㅗㄱㅈㅣ	-13570
▁ㅇㅑㅇㅎㅐ	-13571
▁ㅇㅡㄴㅎㅘ	-13572
▁ㅇㅣㅁㅈㅐ	-13573
▁ㅈㅏㅂㅇㅣ	-13574
▁ㅋㅗㅇㅋㅗ	-13575
ㅇㅝㄴㄹㅗㄴ	-13576
▁ㅂㅏㄱㅂㅕㅇ	-13577
▁ㅅㅏㄴㅂㅏㄹ	-13578
▁ㅅㅓㄹㄴㅏㄹ	-13579
▁ㅅㅜㄴㅇㅕㄹ	-13580
▁ㅈㅏㅇㅅㅓㄱ	-13581
▁ㅊㅓㅇㅂㅐㄱ	-13582
▁ㄴㅏㅁㅎㅏㄱㅅㅐㅇ	-13583
▁ㅇㅡㄴㅇㅓㄴㄱㅜㄴ	-13584
▁ㅈㅣㄴㅎㅐㄱㅅㅐㅇㅁㅜㄹ	-13585
BSD	-13586
ㅂㅐㅅ	-13587
ㄱㅡㅁㄱㅏ	-13588
ㄹㅓㅂㅎㅣ	-13589
▁ㄴㅔㄱㅅㅓ	-13590
▁ㄹㅐㄹㄹㅣ	-13591
▁ㅅㅏㄴㄷㅐ	-13592
▁ㅅㅏㅁㅈㅣ	-13593
▁ㅊㅏㄹㄴㅏ	-13594
▁ㅊㅜㄹㅎㅏ	-13595
▁ㅎㅔㄹㅁㅜ	-13596
ㅁㅏㄴㅅㅣㄱ	-13597
ㅁㅜㄴㅈㅏㅇ	-13598
ㅂㅏㅇㅁㅕㄴ	-13599
ㅂㅡㄴㅅㅡㄴ	-13600
ㅈㅓㅇㅎㅏㄱ	-13601
▁ㄱㅏㄴㅈㅓㄹ	-13602
▁ㄱㅡㅁㅂㅏㅇ	-13603
▁ㄷㅏㅇㅁㅕㄴ	-13604
▁ㄷㅡㅇㅅㅣㄱ	-13605
▁ㅅㅏㅇㄱㅜㄴ	-13606
▁ㅅㅓㅇㅌㅏㄴ	-13607
▁ㅊㅓㄴㅇㅣㄴ	-13608
▁ㅍㅜㅇㅅㅓㅇ	-13609
▁ㅎㅕㅂㅇㅕㄴ	-13610
▁ㅅㅡㅇㅁㅜㄴㅇㅝㄴ	-13611
▁ㅇㅔㅁㅂㅡㄹㄹㅓㅁ	-13612
ㄸㅗ	-13613
▁IDOL	-13614
ㅊㅓㄴㅎㅜ	-13615
ㅊㅔㄹㄹㅗ	-13616
▁Stand	-13617
▁ㄹㅣㅇㅅㅡ	-13618
▁ㅁㅐㄱㅅㅣ	-13619
▁ㅂㅜㄴㅁㅛ	-13620
▁ㅇㅐㄱㅈㅏ	-13621
▁ㅇㅛㅇㅎㅘ	-13622
▁ㅇㅝㄴㅅㅔ	-13623
▁ㅈㅓㅇㅎㅗ	-13624
▁ㅊㅣㄱㅅㅓ	-13625
▁ㅎㅔㄱㅅㅏ	-13626
▁ㅎㅕㄴㅈㅏ	-13627
ㅈㅓㅇㅎㅘㄴ	-13628
▁Direct	-13629
▁ㅂㅕㅇㅅㅓㄹ	-13630
▁ㅅㅓㄴㅊㅏㄱ	-13631
▁ㅅㅗㄱㅊㅜㄹ	-13632
▁ㅅㅣㄴㄹㅏㅇ	-13633
▁ㅊㅡㄱㅅㅣㄹ	-13634
▁ㄱㅘㅇㅈㅣㄴㄱㅜ	-13635
▁ㅂㅗㅂㅅㅡㄹㄹㅔ	-13636
▁ㅇㅕㅇㄴㅏㅁㄷㅐ	-13637
▁ㅇㅗㅇㅈㅓㅇㅈㅔ	-13638
▁ㅈㅜㅇㅅㅣㅁㄱㅏ	-13639
▁ㅍㅣㄹㅅㅏㄹㄱㅣ	-13640
ㅋㅔㄹㄹㅏㄴㅈㅔㄹㄹㅗ	-13641
ml	-13642
▁AH	-13643
▁Tu	-13644
ㅋㅏㅂ	-13645
ㅍㅏㅅ	-13646
▁God	-13647
▁SHO	-13648
ㅂㅜㄱㅇㅣ	-13649
▁Sweet	-13650
▁ㄱㅜㄹㄷㅡ	-13651
▁ㄴㅏㄴㅅㅣ	-13652
▁ㅅㅓㅇㅌㅗ	-13653
▁ㅇㅏㄱㅅㅏ	-13654
▁ㅇㅣㅇㅌㅐ	-13655
ㅇㅣㄹㄹㅣㅇ	-13656
ㅈㅗㅇㅎㅏㅂ	-13657
▁ㅂㅣㅅㅁㅜㄹ	-13658
▁ㅈㅓㄴㅌㅗㅇㅁㅜㄴㅎㅘ	-13659
AV	-13660
CE	-13661
fr	-13662
▁KL	-13663
▁nd	-13664
ㅁㅜㅇ	-13665
▁710	-13666
ㅁㄷㅗㄹ	-13667
▁Fall	-13668
ㅈㅗㅇㄱㅛ	-13669
▁Staff	-13670
▁White	-13671
▁ㅂㅔㄴㅌㅡ	-13672
▁ㅈㅣㄴㅂㅜ	-13673
ㅈㅣㄴㅎㅡㅇ	-13674
ㅎㅡㅇㄷㅗㅇ	-13675
▁ㄱㅡㅂㄱㅏㅁ	-13676
▁ㅈㅜㅇㅈㅣㄴ	-13677
▁ㅎㅕㄹㅈㅓㄴ	-13678
▁ㄷㅗㅇㅇㅡㅁㅇㅣ	-13679
ㅊㅓㄴㄴㅕㄴㅁㅣㄴㅈㅜ	-13680
bc	-13681
▁BP	-13682
▁345	-13683
▁415	-13684
▁MGM	-13685
▁UFC	-13686
▁STER	-13687
ㅂㅏㄴㅌㅔ	-13688
ㅇㅐㅇㅋㅏ	-13689
▁Elect	-13690
▁ㅂㅏㄴㅁㅣ	-13691
▁ㅂㅗㄱㄷㅗ	-13692
▁ㅅㅜㄴㅁㅜ	-13693
▁ㅇㅣㅁㅍㅔ	-13694
▁ㅈㅐㅇㅇㅣ	-13695
▁ㅊㅓㅇㄷㅐ	-13696
ㄸㅓㄱㅇㅣㅍ	-13697
ㅅㅗㅇㅅㅓㄴ	-13698
ㅊㅓㄴㅇㅕㄱ	-13699
ㅍㅗㄱㄹㅕㄱ	-13700
▁ㄱㅏㄱㅁㅏㄱ	-13701
▁ㄱㅏㅁㄱㅠㄹ	-13702
▁ㄱㅗㅇㅇㅕㄱ	-13703
▁ㄴㅏㄴㅍㅗㄱ	-13704
▁ㅅㅓㄴㄱㅜㄴ	-13705
▁ㅇㅠㅇㅅㅓㅇ	-13706
▁ㄱㅗㅁㅍㅏㅇㅇㅣ	-13707
▁ㅇㅕㅇㅇㅝㄹㄱㅜㄴ	-13708
▁ㅇㅜㄹㅈㅣㄴㄱㅜㄴ	-13709
▁ㅎㅕㄴㅊㅜㅇㅇㅝㄴ	-13710
nal	-13711
▁NCA	-13712
▁NGO	-13713
▁ㅅㅗㅌ	-13714
▁More	-13715
ㅁㅕㅇㅌㅏ	-13716
ㅁㅗㄹㄹㅔ	-13717
▁ㄴㅏㄹㄹㅗ	-13718
▁ㅁㅏㄹㅌㅜ	-13719
▁ㅁㅕㄹㅊㅣ	-13720
▁ㅅㅏㄴㅈㅏ	-13721
▁ㅈㅓㄹㄱㅣ	-13722
▁ㅊㅏㄴㅁㅣ	-13723
ㄱㅗㄴㅂㅗㄹ	-13724
ㅅㅡㅇㅎㅘㄴ	-13725
▁ㄷㅏㄴㅊㅗㅇ	-13726
▁ㅇㅕㄹㅂㅕㅇ	-13727
▁ㅈㅣㄴㅈㅗㅇ	-13728
▁ㅎㅏㅇㅇㅏㅁ	-13729
▁ㅁㅜㄹㅂㅏㅇㅇㅜㄹ	-13730
▁ㅇㅣㅁㅅㅣㄹㄱㅜㄴ	-13731
▁ㅊㅓㅇㅅㅗㅇㄱㅜㄴ	-13732
ㅋㅏㅅ	-13733
▁243	-13734
▁Cry	-13735
▁ㅇㅛㄹ	-13736
ㅈㅏㅇㄱㅣ	-13737
▁ㄴㅏㄹㅈㅗ	-13738
▁ㅂㅜㄱㄷㅜ	-13739
▁ㅇㅏㄴㅅㅜ	-13740
▁ㅇㅏㅂㄹㅠ	-13741
▁ㅈㅓㅂㅎㅣ	-13742
▁ㅋㅝㄹㄹㅣ	-13743
▁ㄱㅕㅇㅈㅏㅇ	-13744
▁ㅂㅏㅇㅇㅕㄱ	-13745
▁ㅅㅗㅇㄱㅏㅇ	-13746
▁ㅇㅏㄹㅋㅗㄹ	-13747
▁ㅇㅛㅇㄴㅏㅂ	-13748
▁ㅇㅣㅂㄱㅜㅇ	-13749
▁ㅎㅏㅁㅊㅜㄱ	-13750
▁ㅈㅜㅇㅅㅣㅁㅈㅜ	-13751
▁ㅍㅡㄹㄹㅔㄱㅅㅡ	-13752
▁ㅈㅏㅇㅅㅓㅇㄱㅜㄴ	-13753
89	-13754
▁ㅎㅑ	-13755
▁mac	-13756
▁Comm	-13757
▁Miss	-13758
▁ㄱㅘㅇㄱㅣ	-13759
▁ㄴㅣㄱㄴㅔ	-13760
▁ㅂㅏㅇㅈㅐ	-13761
▁ㅅㅣㅁㅎㅐ	-13762
▁ㅈㅏㄴㄱㅣ	-13763
▁ㅈㅣㅇㅅㅣ	-13764
▁ㅋㅐㄹㄹㅓ	-13765
ㄹㅐㄴㅈㅐㄱ	-13766
▁ㅁㅕㅇㅁㅏㅇ	-13767
▁ㅍㅏㄹㄷㅏㄹ	-13768
▁ㅇㅡㄴㅁㅣㄹㅎㅣ	-13769
▁ㅎㅗㄹㄹㅐㄴㄷㅡ	-13770
ㄹㅐㄴㅈㅐㄱㅅㅕㄴ	-13771
▁ㅈㅗㄹㅇㅓㅂㅅㅣㄱ	-13772
▁ㅊㅜㄹㅇㅣㅂㄱㅜㄱ	-13773
▁ㅊㅜㅇㅅㅓㅇㅅㅣㅁ	-13774
▁ㅎㅏㄴㄹㅣㅁㅇㅝㄴ	-13775
▁ㅎㅗㅇㄱㅓㄴㅈㅓㄱ	-13776
mb	-13777
▁UH	-13778
ㄱㅣㅇ	-13779
▁DDR	-13780
▁Mem	-13781
▁1811	-13782
ㅂㅏㅇㄱㅏ	-13783
ㅌㅐㄴㅍㅗ	-13784
ㅎㅘㄴㄱㅣ	-13785
▁ㄱㅏㅂㄱㅘ	-13786
▁ㅁㅗㄹㄷㅣ	-13787
▁ㅂㅕㄹㅅㅣ	-13788
▁ㅅㅣㄹㅇㅚ	-13789
▁ㅇㅣㄴㄷㅜ	-13790
ㄱㅜㄱㅅㅣㄱ	-13791
▁ㄱㅏㄴㅇㅓㄴ	-13792
▁ㄱㅜㄱㅎㅏㄱ	-13793
▁ㅂㅏㄴㅅㅡㅇ	-13794
▁ㅈㅏㄱㅇㅡㄴ	-13795
▁ㅊㅏㅇㅂㅓㅂ	-13796
▁ㅌㅏㄴㅊㅏㅇ	-13797
▁ㅎㅏㅇㅂㅕㄴ	-13798
▁ㅎㅐㅇㅅㅏㅇ	-13799
▁ㄱㅗㅇㄱㅕㄱㄱㅣ	-13800
▁ㅅㅣㄹㄹㅕㄱㅈㅏ	-13801
▁ㅋㅡㄹㄹㅐㅂㅌㅡㄴ	-13802
erv	-13803
aven	-13804
▁286	-13805
▁UFO	-13806
▁Roll	-13807
▁mark	-13808
ㅂㅔㄴㄴㅏ	-13809
ㅅㅏㅇㅈㅐ	-13810
▁Girls	-13811
▁ㄱㅏㄴㅇㅣ	-13812
▁ㅂㅓㄴㅎㅘ	-13813
▁ㅅㅏㅇㅂㅣ	-13814
▁ㅅㅣㄴㅇㅑ	-13815
▁ㅇㅕㅇㄴㅐ	-13816
▁ㅇㅞㄴㄷㅣ	-13817
▁ㅈㅏㅇㅎㅗ	-13818
ㅋㅗㅇㄱㅏㅇ	-13819
▁ㅂㅏㅇㄱㅘㅇ	-13820
▁ㅂㅐㄱㄴㅏㅁ	-13821
▁ㅅㅓㅇㅎㅘㅇ	-13822
▁ㅅㅗㄴㄱㅕㄴ	-13823
▁ㅇㅏㄴㅎㅕㄴ	-13824
▁ㅇㅐㄱㅁㅕㄴ	-13825
▁ㅈㅣㄱㅎㅏㄹ	-13826
▁ㅈㅣㅇㅇㅛㅇ	-13827
▁ㅍㅡㄹㄹㅗㅅ	-13828
ㅅㅔㅁㅂㅡㄹㄹㅣ	-13829
▁ㅂㅕㄴㄱㅕㅇㅂㅐㄱ	-13830
ka	-13831
▁Ca	-13832
▁Er	-13833
▁Bra	-13834
▁map	-13835
▁1680	-13836
▁ㄷㅟㅅㄷㅏ	-13837
▁ㄹㅏㄴㄷㅏ	-13838
▁ㅂㅓㅂㅊㅔ	-13839
ㅅㅡㅇㅁㅣㄴ	-13840
ㅇㅣㄴㅅㅓㅇ	-13841
▁ㄱㅓㅁㅈㅣㄴ	-13842
▁ㅁㅜㄹㅅㅏㄴ	-13843
▁ㅇㅕㄱㅂㅕㅇ	-13844
▁ㅇㅛㅇㅇㅠㅇ	-13845
▁ㅈㅗㅇㅂㅏㄴ	-13846
▁ㅊㅓㅁㅌㅏㅂ	-13847
▁ㅂㅜㄴㅊㅓㅇㅅㅏ	-13848
▁ㅇㅗㄹㄹㅣㅁㅍㅜ	-13849
▁Christmas	-13850
▁ㄱㅘㄴㅈㅜㅇㅅㅓㄱ	-13851
83	-13852
led	-13853
▁Fi	-13854
▁LL	-13855
▁jp	-13856
ㅁㅏㅂ	-13857
ible	-13858
▁Lee	-13859
▁TNA	-13860
▁char	-13861
ㄹㅡㄴㅈㅜ	-13862
▁ㄱㅕㄱㄴㅗ	-13863
▁ㄴㅡㄹㅇㅣ	-13864
▁ㅁㅕㄴㅅㅔ	-13865
ㅅㅗㄱㄹㅕㄱ	-13866
ㅈㅣㅇㄱㅡㅁ	-13867
▁ㅂㅜㄴㅁㅏㄹ	-13868
▁ㅂㅜㄹㅇㅜㄴ	-13869
▁ㅈㅓㅇㅍㅕㅇ	-13870
▁ㅋㅣㅇㄷㅓㅁ	-13871
▁ㅇㅜㄴㅈㅓㄴㅅㅏ	-13872
▁ㅋㅓㄴㅅㅔㅂㅌㅡ	-13873
▁ㅎㅘㄱㅈㅏㅇㅈㅏ	-13874
ㄱㅓㅁㅊㅏㄹㅊㅓㅇ	-13875
▁ㅂㅜㄹㅅㅣㄴㅇㅣㅁ	-13876
85	-13877
fin	-13878
▁Us	-13879
ㅆㅏㄱ	-13880
illa	-13881
▁247	-13882
▁Mat	-13883
▁pop	-13884
ㅁㅕㅇㄷㅗ	-13885
ㅇㅏㄴㅌㅗ	-13886
ㅇㅜㄱㄷㅓ	-13887
ㅇㅣㄹㅇㅣ	-13888
ㅈㅓㄴㅅㅏ	-13889
▁style	-13890
▁ㄷㅡㄹㄸㅡ	-13891
▁ㄹㅣㅇㄱㅗ	-13892
▁ㅂㅗㄴㄱㅘ	-13893
▁ㅂㅜㄹㅇㅜ	-13894
▁ㅅㅣㄴㅊㅐ	-13895
▁ㅇㅘㄴㄱㅜ	-13896
▁ㅇㅝㄴㅇㅚ	-13897
▁ㅇㅝㄹㅅㅡ	-13898
▁ㅇㅣㄴㅂㅜ	-13899
▁ㅊㅣㄹㄹㅣ	-13900
▁ㅎㅣㅁㄹㅓ	-13901
▁ㅎㅣㅁㅊㅏ	-13902
ㄴㅔㄴㅌㅏㄹ	-13903
ㄴㅜㅅㅅㅔㅁ	-13904
ㅇㅡㅁㅇㅏㄱ	-13905
▁ㄴㅡㅇㄹㅠㄹ	-13906
▁ㄷㅏㄴㅎㅕㅇ	-13907
▁ㄷㅡㅇㄱㅏㄱ	-13908
▁ㅁㅗㄱㄹㅕㄴ	-13909
▁ㅂㅓㄹㅁㅗㄱ	-13910
▁ㅂㅗㅇㅅㅣㄴ	-13911
▁ㅇㅐㄴㅈㅔㄹ	-13912
▁ㅇㅕㄴㅂㅕㄴ	-13913
bit	-13914
▁JO	-13915
▁QS	-13916
▁302	-13917
▁ㅅㅛㅂ	-13918
▁1620	-13919
▁1822	-13920
ㅂㅐㄴㄷㅡ	-13921
▁Young	-13922
▁ㄷㅏㄴㅍㅏ	-13923
▁ㅇㅏㄹㅋㅔ	-13924
▁ㅇㅑㅇㅁㅗ	-13925
▁ㅇㅣㅍㄱㅕ	-13926
▁ㅍㅐㄴㅌㅓ	-13927
ㅇㅝㄹㄷㅗㅇ	-13928
▁ㄷㅔㄴㅂㅜㄴ	-13929
▁ㅅㅏㅇㄹㅑㅇ	-13930
▁ㅅㅜㄴㅂㅏㅇ	-13931
▁ㅇㅕㄱㅇㅝㄴ	-13932
▁ㅈㅓㅇㄱㅏㄱ	-13933
▁ㅈㅓㅇㅁㅣㄴ	-13934
▁ㅈㅗㅇㅅㅓㅇ	-13935
▁ㅎㅔㄹㄹㅡㅁ	-13936
▁ㅎㅡㅇㅇㅓㅂ	-13937
ㅅㅜㄴㅇㅑㅇㅎㅏㅁ	-13938
ㅇㅣㅁㅂㅓㄹㄹㅣㄴ	-13939
▁ㄱㅏㅁㄷㅗㄱㄱㅘㄴ	-13940
▁ㅇㅗㄱㅊㅓㄴㄱㅜㄴ	-13941
ㄸㅓㄱㅇㅣㅍㅅㅣㄱㅁㅜㄹ	-13942
asy	-13943
soft	-13944
▁URL	-13945
ㄷㅔㅇㅇㅣ	-13946
ㅎㅏㄱㄱㅣ	-13947
ㅎㅡㅇㄱㅜ	-13948
▁Inter	-13949
▁Story	-13950
▁ㄷㅗㅇㅈㅔ	-13951
▁ㅁㅗㄱㅊㅗ	-13952
▁ㅇㅓㄺㅁㅐ	-13953
▁ㅌㅗㄹㄹㅔ	-13954
▁ㅎㅡㄱㄱㅣ	-13955
ㅇㅏㄴㄱㅜㄱ	-13956
▁ㄱㅏㄹㅁㅏㅇ	-13957
▁ㅂㅏㄱㅊㅏㅇ	-13958
▁ㅂㅐㄱㅇㅑㅇ	-13959
▁ㅅㅏㅁㅅㅐㄱ	-13960
▁ㅅㅓㄴㄹㅑㅇ	-13961
▁ㅇㅓㄴㅎㅐㅇ	-13962
▁ㅎㅗㅇㅇㅕㅇ	-13963
▁ㅈㅓㅇㅂㅗㄱㅈㅏ	-13964
▁ㅊㅗㅇㅇㅣㄴㄱㅜ	-13965
▁ㅌㅗㅇㅈㅓㅇㄷㅐ	-13966
▁ㅌㅗㅇㅎㅐㅇㄹㅛ	-13967
ents	-13968
oman	-13969
▁dis	-13970
▁ㄲㅏㄱ	-13971
▁ㅁㅣㅂ	-13972
▁1770	-13973
▁LGBT	-13974
▁ㅂㅜㄹㄱㅣ	-13975
▁ㅌㅓㄹㅇㅓ	-13976
ㄷㅗㅇㅂㅓㅂ	-13977
▁ㄷㅗㅇㅈㅣㄹ	-13978
▁ㅇㅕㅆㅇㅓㅆ	-13979
▁ㅍㅡㄹㄹㅣㄴ	-13980
▁ㅇㅕㅇㅇㅑㅇㅅㅗ	-13981
▁ㅈㅣㄴㄷㅏㄹㄹㅐ	-13982
▁ㅌㅗㅇㅇㅣㄹㅂㅜ	-13983
▁ㅂㅜㄴㄷㅏㅇㅅㅓㄴ	-13984
▁ㅅㅣㄱㅁㅜㄹㅎㅏㄱ	-13985
VF	-13986
li	-13987
▁HM	-13988
ㄴㄷㅣ	-13989
ㅁㅏㅁ	-13990
▁307	-13991
▁TTC	-13992
lease	-13993
ㄱㅣㄴㅅㅡ	-13994
ㄹㅡㄱㅅㅏ	-13995
▁color	-13996
▁ㅁㅏㄴㄹㅜ	-13997
▁ㅂㅗㄴㅇㅟ	-13998
▁ㅇㅏㄹㅅㅡ	-13999
▁ㅇㅔㄱㅅㅗ	-14000
▁ㅎㅏㄴㅅㅣ	-14001
▁ㅎㅑㅇㅇㅠ	-14002
▁ㅂㅕㅇㅇㅑㄱ	-14003
▁ㅅㅏㄴㄱㅜㄱ	-14004
▁ㅇㅑㅇㅇㅏㄴ	-14005
▁ㅇㅕㅁㅇㅝㄴ	-14006
▁ㅇㅕㅇㅇㅏㄴ	-14007
▁ㅍㅗㄱㅅㅓㄹ	-14008
▁ㅊㅏㅁㅅㅓㄱㅈㅏ	-14009
▁ㅅㅐㅇㅂㅏㅇㅅㅗㅇ	-14010
▁ㅇㅡㅁㅇㅏㄱㅇㅣㄴ	-14011
▁ㅇㅣㅁㅈㅣㄴㄱㅏㅇ	-14012
▁ㅌㅡㄱㅂㅕㄹㅅㅏㅇ	-14013
sy	-14014
▁Sur	-14015
▁add	-14016
▁1018	-14017
▁1660	-14018
ㄱㅜㄴㅌㅡ	-14019
ㄴㅏㅁㅇㅓ	-14020
ㅁㅣㄹㄹㅗ	-14021
ㅂㅜㄴㄹㅣ	-14022
ㅅㅏㅇㄷㅡ	-14023
▁Under	-14024
▁ㄹㅐㅁㅈㅣ	-14025
▁ㅅㅗㅅㅇㅏ	-14026
▁ㅈㅓㄹㅈㅣ	-14027
▁ㅋㅗㅁㅍㅡ	-14028
▁ㅎㅘㄴㅅㅜ	-14029
ㄱㅜㄱㅅㅣㅁ	-14030
ㅁㅜㄹㄱㅘㄴ	-14031
ㅅㅗㄱㅅㅓㄴ	-14032
▁Season	-14033
▁ㅅㅐㅇㄱㅏㅇ	-14034
▁ㅇㅣㄹㅇㅣㄴ	-14035
▁ㅈㅜㅇㅇㅣㅁ	-14036
▁ㅎㅏㄴㄱㅕㄹ	-14037
▁ㄷㅏㅇㅈㅣㄴㅅㅣ	-14038
▁ㅈㅜㅇㄴㅏㅁㅁㅣ	-14039
▁ㄱㅕㅇㅇㅕㅇㄴㅏㄴ	-14040
▁ㅇㅠㄴㅂㅗㅇㄱㅣㄹ	-14041
gg	-14042
▁Na	-14043
gram	-14044
▁251	-14045
▁285	-14046
▁LNG	-14047
▁BEST	-14048
▁chem	-14049
ㄱㅕㅇㅅㅏ	-14050
ㄹㅓㅇㅋㅡ	-14051
ㅅㅏㄴㅅㅗ	-14052
ㅇㅣㄴㅎㅗ	-14053
▁ㄱㅔㄴㄹㅗ	-14054
▁ㅅㅣㅁㅈㅐ	-14055
▁ㅇㅏㄱㅌㅣ	-14056
▁ㅇㅘㅇㅅㅏ	-14057
ㅎㅏㄴㅅㅏㅇ	-14058
▁ㄷㅏㄴㅇㅓㄴ	-14059
▁ㅁㅓㄹㄹㅣㄴ	-14060
▁ㅅㅣㄴㅅㅣㅁ	-14061
▁ㅇㅝㄴㅎㅘㄴ	-14062
▁ㅈㅣㄴㄱㅘㄴ	-14063
ㅎㅐㅇㅅㅓㅇㄷㅐ	-14064
▁ㄱㅣㅁㅈㅗㅇㅅㅓ	-14065
▁ㄴㅡㅇㄹㅕㄱㅈㅏ	-14066
▁ㅂㅜㄴㄷㅏㅇㄱㅜ	-14067
▁ㅇㅣㄴㅊㅓㄴㅅㅣ	-14068
▁ㅋㅡㄴㄱㅗㅁㅈㅏ	-14069
▁ㅍㅕㅇㅅㅣㄴㄷㅗ	-14070
▁ㅎㅚㅇㅅㅓㅇㄱㅜㄴ	-14071
by	-14072
ISC	-14073
ald	-14074
▁1604	-14075
ㅂㅜㄴㅂㅣ	-14076
ㅅㅏㄴㅅㅏ	-14077
ㅅㅓㅇㄷㅐ	-14078
ㅇㅝㄴㄹㅣ	-14079
ㅌㅏㅇㅅㅡ	-14080
▁ㅊㅏㅁㄷㅚ	-14081
▁ㅋㅔㄴㅌㅏ	-14082
ㅈㅏㄱㄱㅗㄱ	-14083
▁ㄱㅏㅇㄹㅗㄴ	-14084
▁ㄱㅏㅇㅈㅓㅇ	-14085
▁ㄱㅜㄷㄱㅓㄴ	-14086
▁ㄴㅗㅇㅅㅏㅇ	-14087
▁ㅁㅏㄱㄹㅗㄴ	-14088
▁ㅇㅑㄱㄱㅘㄴ	-14089
▁ㅇㅑㅇㅂㅗㅇ	-14090
▁ㅇㅛㅇㄱㅏㅇ	-14091
▁ㅇㅣㅂㄱㅓㄴ	-14092
▁ㅊㅓㅇㄷㅏㅁ	-14093
ㅇㅕㄴㅎㅘㄴㄱㅕㅇ	-14094
ms	-14095
ㅆㅗ	-14096
lus	-14097
oon	-14098
▁PCI	-14099
▁PHP	-14100
▁Son	-14101
▁per	-14102
▁1519	-14103
ㄱㅕㄴㄷㅐ	-14104
ㅈㅔㄹㄹㅏ	-14105
▁ㅇㅕㄴㅇㅢ	-14106
▁ㅇㅡㅁㅍㅏ	-14107
▁ㅊㅜㅇㅎㅛ	-14108
▁ㅎㅏㄴㄱㅏ	-14109
ㅇㅛㅇㅂㅓㅂ	-14110
▁ㄷㅏㅇㄱㅡㄴ	-14111
▁ㅇㅕㄴㅁㅕㅇ	-14112
▁ㅈㅜㅇㅈㅓㅇ	-14113
▁ㅂㅜㄹㄱㅜㄱㅅㅏ	-14114
▁ㅌㅗㅇㄱㅏㅁㅂㅜ	-14115
▁ㄱㅣㄴㅈㅏㅇㄱㅏㅁ	-14116
▁ㅈㅓㄴㅂㅏㄴㅈㅓㄴ	-14117
DC	-14118
▁*/	-14119
▁246	-14120
▁403	-14121
▁ㅅㅜㅊ	-14122
▁ㅈㅔㅇ	-14123
ㅅㅣㄹㅎㅣ	-14124
ㅈㅣㄴㅅㅜ	-14125
▁ㅂㅜㄹㅍㅗ	-14126
▁ㅅㅏㅇㄹㅣ	-14127
▁ㅍㅏㄴㅅㅣ	-14128
▁ㅎㅐㅁㅂㅓ	-14129
ㄱㅏㅇㅈㅓㄴ	-14130
ㅂㅗㅇㄷㅗㅇ	-14131
▁ㄸㅗㄱㄸㅗㄱ	-14132
▁ㅁㅜㄴㅁㅐㅇ	-14133
▁ㅇㅕㅇㅇㅣㄴ	-14134
▁ㅇㅣㄹㅈㅓㄹ	-14135
▁ㅎㅕㅂㅊㅏㄴ	-14136
▁American	-14137
ㅎㅏㄱㅇㅝㄴㅅㅐㅇ	-14138
▁ㅇㅘㄴㅈㅓㄴㅇㅕㄹ	-14139
▁ㅎㅘㄱㅈㅏㅇㅍㅐㄱ	-14140
mun	-14141
und	-14142
ㄹㄹㅜ	-14143
▁288	-14144
▁Kiss	-14145
▁Spec	-14146
ㄹㅡㅁㄴㅏ	-14147
ㅅㅓㅇㅇㅜ	-14148
ㅇㅞㄹㅅㅡ	-14149
ㅊㅗㅇㅂㅜ	-14150
▁ㄱㅓㅁㅅㅗ	-14151
▁ㄴㅡㅇㅎㅣ	-14152
▁ㅁㅐㄱㅂㅔ	-14153
▁ㅂㅔㄹㄹㅓ	-14154
▁ㅅㅣㄴㅇㅗ	-14155
▁ㅇㅔㄴㄷㅗ	-14156
▁ㅈㅓㅇㅁㅛ	-14157
▁ㅊㅓㄴㅂㅜ	-14158
▁ㅌㅗㅇㅉㅐ	-14159
ㄱㅘㄴㅈㅏㅇ	-14160
ㅇㅣㄱㅎㅕㄴ	-14161
▁ㄴㅏㅁㅇㅕㄴ	-14162
▁ㅅㅓㄴㄱㅜㄱ	-14163
▁ㅅㅣㄴㄱㅘㅇ	-14164
▁ㅇㅝㄹㅅㅓㅇ	-14165
▁ㅈㅓㄱㄹㅣㅂ	-14166
▁ㅌㅏㄹㅇㅕㅇ	-14167
▁ㅌㅏㅁㅈㅣㄴ	-14168
▁ㅌㅡㄱㄱㅓㅁ	-14169
▁ㅎㅕㄹㄷㅏㅇ	-14170
▁ㅁㅗㄱㅈㅓㄱㅇㅓ	-14171
100	-14172
▁CI	-14173
ends	-14174
▁580	-14175
▁Last	-14176
▁ㅎㅟㅂㅆ	-14177
ㅁㅏㄴㄷㅏ	-14178
ㅂㅡㄹㅋㅏ	-14179
ㅅㅏㄴㅈㅣ	-14180
ㅈㅓㄴㅍㅏ	-14181
▁ㅂㅣㄱㅅㅡ	-14182
▁ㅅㅏㅇㅈㅘ	-14183
▁ㅅㅓㄱㅈㅜ	-14184
▁ㅅㅣㄹㄱㅣ	-14185
ㄱㅕㅇㅇㅝㄴ	-14186
ㅎㅘㄴㄱㅜㄱ	-14187
▁ㅂㅓㄴㅇㅏㄴ	-14188
▁ㅆㅏㅇㄱㅡㄱ	-14189
▁ㅇㅓㅇㄸㅜㅇ	-14190
▁ㅇㅗㅅㄱㅏㅁ	-14191
▁ㅈㅜㅇㅌㅓㄱ	-14192
▁ㅇㅡㄴㅅㅣㄴㅊㅓ	-14193
▁ㅈㅜㅇㅅㅓㄴㄱㅓ	-14194
▁ㅎㅏㄴㄱㅜㄱㅇㅖ	-14195
▁ㅎㅟㅂㅆㅡㄹㄹㅣ	-14196
▁ㅎㅡㅇㄷㅓㄱㄱㅜ	-14197
ㅅㅜㄹㅈㅗㅇㅎㅏㅂ	-14198
▁ㅇㅏㄹㄹㅔㄱㅅㅏㅇㄷㅡ	-14199
ㅅㅜㄹㅈㅗㅇㅎㅏㅂㅎㅏㄱㄱㅛ	-14200
▁242	-14201
▁GSL	-14202
▁ㄷㅔㅁ	-14203
▁ㅆㅏㄴ	-14204
▁ㅈㅕㄴ	-14205
▁1829	-14206
ㅂㅔㄱㅈㅜ	-14207
ㅅㅡㅁㄷㅗ	-14208
ㅊㅜㄹㅁㅏ	-14209
▁Child	-14210
▁ㄴㅗㅇㄱㅣ	-14211
▁ㅂㅏㄴㅂㅜ	-14212
▁ㅅㅓㅇㅂㅣ	-14213
▁ㅈㅣㄹㅌㅏ	-14214
▁ㅊㅏㅁㅈㅣ	-14215
▁ㅊㅓㅇㅅㅓ	-14216
▁ㅍㅏㅅㅋㅐ	-14217
▁ㅍㅣㅇㄱㅓ	-14218
ㅇㅑㅇㅁㅕㄴ	-14219
ㅇㅣㄴㅅㅓㄴ	-14220
ㅌㅗㅇㅅㅣㄴ	-14221
ㅎㅕㅇㅁㅜㄹ	-14222
▁ㄱㅏㄱㅊㅣㄱ	-14223
▁ㄱㅕㄱㄴㅏㅂ	-14224
▁ㄷㅗㅇㅈㅜㅇ	-14225
▁ㅂㅗㄹㅌㅓㄴ	-14226
▁ㅂㅜㄴㅅㅓㄱㄱㅏ	-14227
▁ㅂㅡㄹㄹㅐㄱㅂㅓㄴ	-14228
▁ㅊㅓㅇㅇㅑㅇㄱㅜㄴ	-14229
UE	-14230
ex	-14231
SQL	-14232
▁CB	-14233
▁gl	-14234
ㅅㅗㅌ	-14235
ㅅㅜㅍ	-14236
ATION	-14237
▁1598	-14238
▁1610	-14239
▁1823	-14240
ㅁㅏㄴㅎㅣ	-14241
ㅍㅗㄹㄷㅡ	-14242
▁ㄱㅡㅁㅅㅜ	-14243
▁ㄴㅗㄹㄹㅣ	-14244
▁ㅇㅕㄱㅅㅜ	-14245
▁ㅊㅓㅁㅈㅣ	-14246
▁ㅌㅐㅇㄱㅗ	-14247
ㅂㅏㄹㅈㅓㅁ	-14248
ㅊㅜㄱㅇㅣㄹ	-14249
▁ㄱㅓㄴㅇㅝㄴ	-14250
▁ㄱㅕㅇㄱㅗㅇ	-14251
▁ㄱㅗㅇㅈㅣㄴ	-14252
▁ㄱㅜㄴㅇㅏㄱ	-14253
▁ㅁㅜㄱㅇㅣㄴ	-14254
▁ㅂㅗㅇㄱㅡㅂ	-14255
▁ㅂㅗㅇㅎㅐㅇ	-14256
▁ㅋㅗㄹㄹㅗㅁ	-14257
▁ㅂㅐㄱㅎㅕㄹㄱㅜ	-14258
▁ㅅㅓㅇㅇㅏㄱㄱㅏ	-14259
▁ㅇㅏㄴㄷㅏㄹㄹㅜ	-14260
▁ㅈㅜㅇㅎㅏㅂㅊㅔ	-14261
▁ㅎㅘㄹㅇㅕㅂㅅㅜ	-14262
▁ㄱㅗㅇㄱㅡㅂㅇㅝㄴ	-14263
▁ㄱㅗㅇㅅㅗㄴㅊㅏㄴ	-14264
▁ㄲㅡㅀㄴㅡㄴㅈㅓㅁ	-14265
yo	-14266
▁HC	-14267
ㅇㅘㄱ	-14268
ould	-14269
▁930	-14270
▁2025	-14271
▁3500	-14272
▁long	-14273
ㅅㅐㄱㄱㅖ	-14274
ㅇㅔㄱㅅㅡ	-14275
▁ㄱㅘㅇㅇㅢ	-14276
▁ㄴㅏㄴㄹㅠ	-14277
▁ㄴㅏㅇㅌㅡ	-14278
▁ㄹㅜㄹㄹㅏ	-14279
▁ㄹㅣㅇㄴㅔ	-14280
▁ㅂㅔㄴㄷㅓ	-14281
▁ㅂㅗㅇㅌㅜ	-14282
▁ㅈㅓㄴㄱㅏ	-14283
▁ㅍㅜㄹㅌㅏ	-14284
▁ㅎㅏㄴㄷㅜ	-14285
ㅁㅣㄴㄱㅘㄴ	-14286
ㅂㅏㄴㅇㅡㅇ	-14287
ㅅㅡㅇㄷㅏㄹ	-14288
ㅋㅣㄱㅇㅡㄹ	-14289
▁ㅁㅕㅇㅅㅣㄴ	-14290
▁ㅁㅜㄹㅇㅡㅁ	-14291
▁ㅅㅏㅇㅅㅜㄹ	-14292
▁ㅇㅏㄹㄹㅐㅇ	-14293
▁ㅈㅓㅁㅁㅏㄱ	-14294
▁ㅋㅣㄹㄹㅣㅇ	-14295
▁ㅌㅗㅇㄷㅏㄹ	-14296
▁ㅎㅏㄴㅇㅕㅇ	-14297
▁ㅁㅜㄴㄱㅕㅇㅅㅣ	-14298
▁ㅅㅏㅇㄷㅏㅇㄱㅜ	-14299
▁ㅈㅏㅇㅂㅏㅇㅎㅕㅇ	-14300
▁ㄴㅏㅁㅈㅜㅇㄱㅜㄱㅎㅐ	-14301
46	-14302
96	-14303
ki	-14304
rown	-14305
▁346	-14306
▁Val	-14307
▁1827	-14308
▁temp	-14309
ㄴㅏㅁㄱㅗ	-14310
ㅌㅐㄱㄱㅏ	-14311
ㅎㅕㅇㅅㅜ	-14312
▁ㄱㅜㄱㅈㅗ	-14313
▁ㅂㅏㄱㄴㅗ	-14314
▁ㅇㅘㄴㅊㅣ	-14315
▁ㅊㅐㅁㅂㅓ	-14316
▁ㅎㅔㄴㄷㅓ	-14317
ㅊㅐㄱㄱㅏㅁ	-14318
▁ㅅㅜㄴㅈㅣㄴ	-14319
▁ㅅㅡㄹㄹㅣㅂ	-14320
▁ㅈㅏㅇㅍㅏㄴ	-14321
▁ㅈㅓㄴㅅㅐㅇ	-14322
▁ㅊㅓㄴㄷㅗㅇ	-14323
▁ㅇㅣㄴㅌㅔㄹㄹㅣ	-14324
▁ㅊㅜㄱㅈㅓㄴㄱㅣ	-14325
WC	-14326
iano	-14327
▁ㅋㅝㄴ	-14328
ㄱㅡㅂㅈㅏ	-14329
ㅂㅐㅇㅋㅡ	-14330
ㅎㅕㄱㄱㅏ	-14331
▁ㅁㅔㄴㄷㅔ	-14332
▁ㅅㅣㄱㅊㅗ	-14333
▁ㅇㅕㄴㅂㅗ	-14334
▁ㅇㅡㄴㅇㅠ	-14335
ㄷㅣㅇㅌㅓㄴ	-14336
ㄹㅠㄱㅅㅓㅇ	-14337
ㅊㅜㅇㅎㅓㄴ	-14338
▁ㄱㅓㅁㅅㅜㄹ	-14339
▁ㄱㅗㅇㅁㅜㄴ	-14340
▁ㅇㅏㄱㅅㅓㅇ	-14341
▁ㅇㅣㄹㅊㅜㄱ	-14342
▁ㅊㅓㄴㄷㅜㅇ	-14343
▁ㄱㅏㄴㅅㅓㄴㄷㅗ	-14344
▁ㄱㅣㄹㄷㅡㄹㅇㅣ	-14345
▁ㅇㅕㅇㄹㅏㄱㅈㅔ	-14346
ㅅㅏㅁㄱㅏㄱㅎㅕㅇ	-14347
▁ㄱㅗㄱㅅㅓㅇㄱㅜㄴ	-14348
▁ㅁㅏㅈㅊㅜㅁㅂㅓㅂ	-14349
▁ㅍㅏㄴㅁㅜㄴㅈㅓㅁ	-14350
ㅊㅗㅁ	-14351
iter	-14352
▁274	-14353
▁615	-14354
▁EXO	-14355
▁OBS	-14356
▁ㅍㅔㅁ	-14357
▁1689	-14358
ㅁㅏㄴㄷㅗ	-14359
ㅁㅗㄴㅌㅔ	-14360
ㅅㅣㄹㅂㅏ	-14361
▁Party	-14362
▁ㄱㅕㅇㅈㅗ	-14363
▁ㄹㅗㄴㄷㅗ	-14364
▁ㅁㅏㅇㅈㅜ	-14365
▁ㅁㅗㄱㄱㅘ	-14366
▁ㅂㅏㄴㅅㅡ	-14367
▁ㅂㅔㄴㅈㅗ	-14368
▁ㅅㅏㄴㄹㅗ	-14369
▁ㅇㅔㄹㅂㅔ	-14370
▁ㅇㅡㅁㅍㅛ	-14371
ㅇㅣㄹㄷㅗㅇ	-14372
▁ㄱㅜㄴㅈㅏㅇ	-14373
▁ㄱㅡㄴㅅㅣㄴ	-14374
▁ㄱㅣㅁㅊㅐㄱ	-14375
▁ㄷㅏㅂㅅㅡㅂ	-14376
▁ㅅㅓㄱㄱㅘㄴ	-14377
▁ㅈㅏㅇㅅㅗㄴ	-14378
▁ㅈㅣㄹㅊㅐㄱ	-14379
▁ㅎㅘㄱㅈㅡㅇ	-14380
▁ㅂㅏㄴㅇㅕㄱㅈㅏ	-14381
ㅍㅡㄹㄹㅔㄱㅌㅣㄱ	-14382
▁ㅁㅜㄴㅎㅏㄱㄱㅘㄴ	-14383
▁ㅅㅓㅇㅈㅓㄴㅎㅘㄴ	-14384
▁ㅈㅓㄴㅇㅛㅇㅅㅓㄴ	-14385
▁ㅅㅣㅁㅍㅡㄹㄹㅔㄱㅌㅣㄱ	-14386
ㅉㅜ	-14387
ada	-14388
rib	-14389
ㅃㅜㅁ	-14390
▁312	-14391
▁Cap	-14392
▁GTX	-14393
erson	-14394
ㄱㅓㄹㅅㅡ	-14395
ㄹㅐㄱㅅㅡ	-14396
ㅅㅏㄴㅈㅐ	-14397
▁Radio	-14398
▁ㄱㅏㅁㅂㅣ	-14399
▁ㄷㅗㄱㅂㅗ	-14400
▁ㅁㅗㄴㅌㅏ	-14401
▁ㅁㅣㄹㅍㅖ	-14402
▁ㅂㅐㄱㄱㅣ	-14403
▁ㅅㅐㄹㄹㅣ	-14404
▁ㅈㅗㅇㅅㅗ	-14405
▁ㅍㅏㄴㅈㅏ	-14406
ㅈㅓㄱㅎㅏㅂ	-14407
ㅊㅏㅇㄷㅗㅇ	-14408
▁ㅂㅜㄴㅅㅣㄴ	-14409
▁ㅅㅖㅇㄱㅔㄴ	-14410
▁ㅅㅗㄴㅌㅗㅂ	-14411
▁ㅅㅣㄱㅇㅛㄱ	-14412
▁ㅇㅕㅇㅂㅕㄴ	-14413
▁ㅋㅓㄹㄹㅓㅁ	-14414
▁ㅍㅕㅇㅈㅓㅁ	-14415
ㄹㅣㅇㅍㅣㄹㄷㅡ	-14416
▁ㄱㅏㅇㅂㅜㄱㄱㅜ	-14417
▁ㅎㅏㄴㅇㅑㅇㄷㅐ	-14418
▁ㄱㅕㅇㅈㅓㄴㅅㅓㄴ	-14419
▁ㅅㅏㅇㅎㅐㅇㅅㅓㄴ	-14420
▁ㅎㅏㅁㅍㅕㅇㄱㅜㄴ	-14421
izza	-14422
▁252	-14423
▁ㅁㅠㄹ	-14424
▁1774	-14425
▁Core	-14426
▁NCAA	-14427
▁will	-14428
▁ㄷㅔㄱㅅㅡ	-14429
▁ㄹㅗㄱㄱㅘ	-14430
▁ㅁㅕㅇㄷㅐ	-14431
▁ㅍㅜㅇㅈㅗ	-14432
▁ㅎㅜㄹㄹㅏ	-14433
ㄹㅐㄴㅁㅏㄴ	-14434
ㅂㅏㅇㅅㅓㄴ	-14435
▁ㄱㅏㅇㅅㅓㄴ	-14436
▁ㄱㅏㅇㅈㅣㄱ	-14437
▁ㄱㅕㄹㅂㅏㅇ	-14438
▁ㅅㅣㅂㅇㅠㄱ	-14439
▁National	-14440
▁ㄱㅗㅇㅂㅐㄱㄱㅣ	-14441
▁ㅂㅓㅂㄹㅠㄹㄱㅏ	-14442
▁ㅇㅣㄹㅇㅣㄹㅇㅣ	-14443
▁ㄴㅏㅁㅂㅜㄱㄱㅜㄱ	-14444
oul	-14445
▁-"	-14446
▁ㄹㅓㅅ	-14447
▁1413	-14448
▁1617	-14449
▁1624	-14450
ㄹㅣㄹㄹㅗ	-14451
ㅂㅏㅇㄷㅐ	-14452
ㅇㅜㄴㅈㅣ	-14453
ㅋㅓㅅㅈㅜ	-14454
▁ㄱㅏㅁㅂㅏ	-14455
▁ㅂㅏㄱㄷㅐ	-14456
▁ㅇㅑㅇㄱㅗ	-14457
▁ㅋㅏㅁㅊㅏ	-14458
▁ㅌㅡㄱㅁㅜ	-14459
▁ㅎㅗㅇㄱㅏ	-14460
▁ㅎㅡㄱㅎㅐ	-14461
▁ㄱㅏㅇㅅㅏㄴ	-14462
▁ㅁㅗㄱㄱㅗㅇ	-14463
▁ㅇㅕㄴㅇㅝㄴ	-14464
▁ㅈㅓㄱㄱㅜㄱ	-14465
▁ㅊㅗㅁㅊㅗㅁ	-14466
▁ㅌㅗㅇㅅㅓㄹ	-14467
▁ㅎㅕㅇㅍㅕㅇ	-14468
lad	-14469
▁==	-14470
▁FP	-14471
▁IG	-14472
▁295	-14473
▁670	-14474
▁910	-14475
▁cle	-14476
▁ㄴㅓㄴ	-14477
ㄴㅣㅇㅅㅡ	-14478
ㄷㅡㅁㅇㅣ	-14479
ㅇㅣㄹㄹㅔ	-14480
ㅍㅓㄹㅅㅡ	-14481
▁ㄱㅏㄱㄹㅠ	-14482
▁ㄷㅏㄴㅅㅣ	-14483
▁ㅇㅣㄹㄲㅐ	-14484
▁ㅊㅓㄹㅈㅗ	-14485
ㅈㅣㅂㄷㅏㄴ	-14486
▁ㅂㅏㅅㅈㅜㄹ	-14487
▁ㅈㅓㅇㅇㅠㄴ	-14488
▁ㅎㅐㅇㅈㅏㅇ	-14489
▁ㅎㅏㄴㄱㅜㄱㅅㅏ	-14490
▁ㅎㅜㄴㄹㅕㄴㄱㅣ	-14491
▁ㅇㅕㄱㅈㅓㄴㅅㅡㅇ	-14492
110	-14493
ube	-14494
▁GA	-14495
▁RB	-14496
arth	-14497
▁276	-14498
ㄴㅅㅕㄹ	-14499
▁David	-14500
▁ㅁㅏㄹㅊㅗ	-14501
▁ㅁㅗㅁㅅㅗ	-14502
▁ㅅㅓㅇㅁㅜ	-14503
▁ㅇㅏㄴㅈㅣ	-14504
▁ㅎㅏㄴㅇㅢ	-14505
ㅇㅠㅅㄱㅏㅄ	-14506
ㅎㅐㅇㅈㅓㅇ	-14507
▁ㄱㅗㄷㅈㅏㅇ	-14508
▁ㄴㅏㅁㅈㅜㅇ	-14509
▁ㄷㅏㄴㅁㅏㅅ	-14510
▁ㅁㅏㄹㅅㅏㄹ	-14511
▁ㅂㅓㄹㅈㅣㅂ	-14512
▁ㅅㅓㅇㄱㅡㅁ	-14513
▁ㅇㅑㅇㄹㅣㅂ	-14514
▁ㅊㅏㅇㄱㅡㄱ	-14515
▁ㅇㅏㅁㅅㅏㄹㅈㅏ	-14516
KO	-14517
LD	-14518
LO	-14519
▁Oh	-14520
ㄴㅡㄱ	-14521
▁PSV	-14522
▁0000	-14523
▁1750	-14524
ㅂㅔㄴㅌㅗ	-14525
ㅅㅡㄴㅅㅡ	-14526
ㅋㅏㄹㄹㅗ	-14527
▁ㅁㅕㅇㄱㅘ	-14528
▁ㅅㅓㅇㅌㅓ	-14529
▁ㅇㅑㄱㅅㅗ	-14530
▁ㅇㅕㄴㄱㅐ	-14531
▁ㅈㅓㅇㅇㅟ	-14532
▁ㅊㅓㅇㅎㅐ	-14533
▁ㅌㅐㄱㅂㅐ	-14534
▁ㅌㅗㅁㅍㅡ	-14535
ㅇㅑㅇㅍㅜㅇ	-14536
ㅇㅛㅇㅇㅐㄱ	-14537
ㅇㅠㄱㅂㅓㅂ	-14538
ㅈㅗㅇㅅㅓㄱ	-14539
ㅎㅗㅇㅈㅏㅇ	-14540
▁ㅂㅏㅇㅂㅕㄱ	-14541
▁ㅇㅕㅁㅂㅜㄴ	-14542
▁ㅎㅗㄹㄹㅡㅁ	-14543
▁ㅊㅗㅇㅁㅕㄴㅈㅓㄱ	-14544
fer	-14545
ㅂㅏㄼ	-14546
iful	-14547
obal	-14548
▁KNN	-14549
▁MiG	-14550
▁Som	-14551
▁maj	-14552
ember	-14553
▁Come	-14554
▁News	-14555
▁PROD	-14556
▁Park	-14557
▁cent	-14558
ㄱㅡㄹㄹㅗ	-14559
ㅂㅏㄱㅎㅐ	-14560
ㅅㅣㅂㄹㅣ	-14561
ㅎㅏㄴㄷㅡ	-14562
▁There	-14563
▁ㄱㅘㄴㅂㅗ	-14564
▁ㄱㅘㅇㄱㅜ	-14565
▁ㄴㅏㅁㄷㅏ	-14566
▁ㅎㅏㄴㄱㅣ	-14567
ㅅㅏㅁㄱㅜㄱ	-14568
ㅅㅣㄴㄷㅗㅇ	-14569
ㅇㅏㄴㄱㅕㅇ	-14570
ㅇㅣㅂㄱㅜㄱ	-14571
▁ㄱㅘㅇㅊㅓㄴ	-14572
▁ㄴㅏㅂㄷㅡㄱ	-14573
▁ㅂㅏㄴㅊㅜㄹ	-14574
▁ㅇㅑㅇㄱㅗㄴ	-14575
▁ㅇㅑㅇㅈㅜㄴ	-14576
▁ㅇㅚㄴㅂㅏㄹ	-14577
▁ㅈㅗㅇㅇㅣㄴ	-14578
▁ㅈㅡㅇㄷㅡㄱ	-14579
▁ㅊㅜㄹㅇㅝㄴ	-14580
▁ㅌㅏㄹㅂㅜㄱ	-14581
▁ㅂㅏㄹㅇㅝㄴㅈㅣ	-14582
▁ㅇㅝㄹㄱㅏㄴㅈㅣ	-14583
ㅂㅏㅇㅈㅓㄴㅅㅓㄴ	-14584
▁ㅈㅜㅇㄹㅣㅂㄱㅜㄱ	-14585
▁ㅅㅣㄴㅊㅜㄴㅁㅜㄴㅇㅖ	-14586
ENT	-14587
ters	-14588
▁254	-14589
▁299	-14590
▁324	-14591
▁text	-14592
ㄱㅗㅂㅁㅣ	-14593
ㄱㅡㅁㅈㅏ	-14594
ㄷㅗㅇㅎㅐ	-14595
ㅁㅏㄱㅇㅣ	-14596
ㅅㅗㄱㅎㅘ	-14597
ㅇㅡㄴㅎㅏ	-14598
ㅍㅔㄱㅌㅓ	-14599
ㅎㅏㄴㄴㅔ	-14600
▁ㄱㅏㅇㄱㅖ	-14601
▁ㄱㅗㅇㅎㅓ	-14602
▁ㅁㅏㅇㄱㅗ	-14603
▁ㅅㅐㄱㄷㅏ	-14604
▁ㅊㅏㅁㅎㅚ	-14605
▁ㅎㅐㅇㅇㅢ	-14606
ㄱㅗㅇㅇㅕㄴ	-14607
ㅈㅏㅇㄱㅜㄱ	-14608
ㅎㅏㄴㅁㅏㄹ	-14609
▁ㄱㅓㅁㅁㅜㄴ	-14610
▁ㄱㅝㄴㅅㅣㄴ	-14611
▁ㅂㅓㅂㅁㅕㅇ	-14612
▁ㅅㅏㄴㄱㅗㄹ	-14613
▁ㅅㅣㄴㅎㅗㄴ	-14614
▁ㅇㅏㅇㅎㅔㄹ	-14615
▁ㅊㅓㄴㅇㅣㄹ	-14616
▁ㅍㅓㄴㄷㅣㅇ	-14617
▁ㅍㅗㄱㄹㅏㄱ	-14618
▁ㅎㅏㄱㅅㅏㄴ	-14619
▁ㅂㅣㄴㅂㅓㄴㅎㅣ	-14620
ㅁㅏㅇㅇㅝㄴㄱㅕㅇ	-14621
▁ㅇㅕㄴㄱㅡㅁㅅㅜㄹ	-14622
▁ㅎㅐㅇㄹㅕㄹㅅㅣㄱ	-14623
▁;-	-14624
▁GC	-14625
ache	-14626
▁248	-14627
▁269	-14628
▁308	-14629
▁581	-14630
▁und	-14631
▁ㄹㅠㅇ	-14632
▁ㅍㅕㅁ	-14633
ㄷㅣㄱㅌㅡ	-14634
ㅂㅏㄹㄹㅜ	-14635
ㅅㅏㄴㅎㅐ	-14636
▁IDOLM	-14637
▁ㅇㅣㅁㅆㅣ	-14638
▁ㅍㅗㄹㅅㅡ	-14639
▁ㅎㅣㄹㄷㅔ	-14640
ㅇㅓㅂㅈㅏㅇ	-14641
ㅍㅜㅁㅈㅣㄹ	-14642
ㅎㅏㄱㄷㅗㅇ	-14643
▁ㄱㅜㄴㅊㅜㄱ	-14644
▁ㅇㅑㅇㅂㅗㄱ	-14645
▁ㅇㅘㄴㅂㅗㅇ	-14646
▁ㅊㅓㅇㅎㅗㄴ	-14647
▁ㅅㅏㅇㅊㅡㅇㅂㅜ	-14648
▁ㅋㅓㅁㅍㅐㄱㅌㅡ	-14649
▁ㅎㅕㅂㄹㅕㄱㅈㅏ	-14650
▁ㅅㅓㄴㅈㅓㄴㄱㅘㄴ	-14651
SS	-14652
ift	-14653
▁Hy	-14654
▁Kh	-14655
ㅍㅜㅅ	-14656
ruct	-14657
▁241	-14658
▁TBN	-14659
earch	-14660
press	-14661
▁over	-14662
ㄱㅜㄱㅈㅏ	-14663
ㄷㅗㅇㅎㅘ	-14664
ㅂㅔㄱㅅㅡ	-14665
▁ㅃㅏㄹㅊㅣ	-14666
▁ㅅㅏㄴㅁㅗ	-14667
▁ㅈㅓㄴㅍㅐ	-14668
ㄴㅐㄴㅅㅕㄹ	-14669
ㅇㅣㄹㄱㅏㅇ	-14670
ㅋㅣㅇㅇㅓㅁ	-14671
▁ㅂㅏㄴㅇㅝㄴ	-14672
▁ㅂㅕㄴㅈㅓㄹ	-14673
▁ㅂㅕㅇㅅㅏㅇ	-14674
▁ㅅㅣㅁㅊㅓㅇ	-14675
▁ㅈㅏㄱㅂㅕㄹ	-14676
▁ㅍㅜㅇㄴㅕㄴ	-14677
▁ㅇㅡㅇㅇㅝㄴㄱㅏ	-14678
▁ㅊㅗㅇㅇㅕㄴㅈㅏㅇ	-14679
con	-14680
▁JA	-14681
▁NR	-14682
ㅏㅇㅑ	-14683
▁279	-14684
▁JYP	-14685
▁1080	-14686
▁1758	-14687
▁Take	-14688
▁ㅁㅏㄴㅌㅗ	-14689
▁ㅁㅕㄴㅅㅏ	-14690
▁ㅂㅜㅁㅂㅣ	-14691
▁ㅅㅏㄱㄱㅘ	-14692
▁ㅇㅏㄹㅌㅡ	-14693
▁ㅇㅗㅇㄱㅣ	-14694
▁ㅎㅕㄴㅅㅔ	-14695
ㅇㅛㅇㅁㅜㄹ	-14696
ㅈㅡㅇㅇㅣㄴ	-14697
ㅎㅐㅇㄱㅐㄱ	-14698
▁ㄷㅗㅇㄷㅏㄴ	-14699
▁ㄸㅡㅅㅂㅏㄲ	-14700
▁ㅁㅜㄴㅅㅓㄴ	-14701
▁ㅂㅐㄱㅅㅏㅇ	-14702
▁ㅇㅘㄴㅅㅡㅇ	-14703
ㅁㅓㄴㅇㅞㄹㅅㅡ	-14704
ㅍㅕㅇㅈㅏㅇㅅㅏ	-14705
▁ㅁㅏㅇㅅㅓㄹㅇㅣ	-14706
▁ㅅㅣㄱㅁㅣㄴㅈㅜ	-14707
▁ㅁㅗㄱㅇㅛㄱㅌㅏㅇ	-14708
▁ㅇㅣㅂㅎㅓㄴㄱㅜㄴㅈㅜ	-14709
31	-14710
UB	-14711
VB	-14712
INE	-14713
▁318	-14714
▁ㄸㅡㅁ	-14715
▁1506	-14716
▁1603	-14717
▁Trans	-14718
▁ㄱㅏㅄㅆㅏ	-14719
▁ㄱㅏㅇㅈㅜ	-14720
▁ㄴㅏㄱㅎㅜ	-14721
▁ㄷㅏㄹㄹㅔ	-14722
▁ㅅㅕㄹㄹㅣ	-14723
▁ㅅㅣㄴㅅㅡ	-14724
▁ㅅㅣㄹㄹㅜ	-14725
▁ㅇㅝㄴㅎㅚ	-14726
▁ㅈㅓㄱㅇㅟ	-14727
▁ㅍㅐㄴㄷㅓ	-14728
▁ㄱㅓㄴㅂㅏㄴ	-14729
▁ㅁㅏㄱㅅㅣㅁ	-14730
▁ㅁㅕㄴㅊㅐㄱ	-14731
▁ㅁㅜㄴㅇㅣㄱ	-14732
▁ㅂㅗㅇㅅㅓㄴ	-14733
▁ㅎㅕㄹㅈㅡㅇ	-14734
▁ㅅㅣㄹㅇㅓㅂㅈㅏ	-14735
▁ㅌㅏㄹㅂㅜㄱㅈㅏ	-14736
▁ㅅㅓㅇㅅㅏㅁㅁㅜㄴ	-14737
ERT	-14738
▁BGM	-14739
▁Lin	-14740
▁Que	-14741
▁ㄴㅓㅅ	-14742
▁1786	-14743
▁Mach	-14744
▁ㄱㅣㅁㅁㅜ	-14745
▁ㄴㅗㄱㅊㅏ	-14746
▁ㄷㅗㅇㅊㅗ	-14747
▁ㅁㅡㄹㄹㅏ	-14748
▁ㅂㅓㅁㅍㅓ	-14749
▁ㅌㅏㄱㅈㅏ	-14750
ㅎㅕㄴㅅㅏㅇ	-14751
▁ㄷㅟㅅㅅㅏㄴ	-14752
▁ㅁㅜㄹㅁㅏㅇ	-14753
▁ㅂㅐㄱㅅㅓㄴ	-14754
▁ㅅㅓㄱㅇㅕㅇ	-14755
▁ㅈㅓㄴㅇㅕㄴ	-14756
▁ㅅㅣㄴㅈㅓㅇㅂㅜ	-14757
▁ㅅㅣㄹㅈㅡㅇㅈㅜ	-14758
▁ㄱㅣㅁㅈㅏㅇㅅㅐㅇ	-14759
▁TW	-14760
ㅍㅐㅁ	-14761
ㅎㅔㅁ	-14762
ider	-14763
▁293	-14764
▁Del	-14765
▁ㄹㅜㅂ	-14766
▁ㅁㅔㅁ	-14767
▁Songs	-14768
▁ㅁㅕㄹㅎㅏ	-14769
▁ㅇㅕㄱㄴㅐ	-14770
ㄹㅡㄴㅍㅏㄹ	-14771
▁ㄱㅕㄹㅈㅓㄹ	-14772
▁ㄱㅝㄴㅅㅗㄱ	-14773
▁ㅅㅏㅇㅇㅘㅇ	-14774
▁ㅈㅏㅇㅁㅜㄴ	-14775
▁ㅈㅣㄹㅅㅣㄱ	-14776
▁ㅍㅜㅇㅁㅜㄹ	-14777
ㄹㅏㄴㅅㅣㄹㅂㅏ	-14778
▁ㅅㅣㄱㅂㅕㄹㅈㅏ	-14779
▁ㅅㅣㄴㅊㅓㄴㅈㅣ	-14780
ㅂㅜㄴㅈㅣㅂㅎㅏㅂ	-14781
▁ㅅㅏㅂㅇㅣㅂㄱㅗㄱ	-14782
121	-14783
ets	-14784
ㅍㅏㅁ	-14785
▁490	-14786
▁ITV	-14787
▁1050	-14788
ㄷㅣㅇㄱㅓ	-14789
ㅎㅏㄴㅊㅔ	-14790
▁ㄴㅗㄱㅇㅏ	-14791
▁ㄹㅣㄴㅈㅣ	-14792
▁ㅇㅏㅍㄷㅏ	-14793
▁ㅇㅓㄹㅌㅣ	-14794
▁ㅎㅘㅇㅇㅜ	-14795
ㅅㅜㄱㅇㅘㅇ	-14796
ㅅㅡㅇㅇㅕㅂ	-14797
ㅇㅕㄴㅂㅓㅂ	-14798
▁PRODUC	-14799
▁ㄲㅜㄹㅂㅓㄹ	-14800
▁ㅂㅜㄴㄷㅗㅇ	-14801
▁ㅇㅏㄹㅅㅓㄴ	-14802
▁ㅇㅕㅇㄹㅡㅇ	-14803
▁ㅇㅜㅇㅂㅕㄴ	-14804
▁ㅎㅏㄴㅅㅣㄱ	-14805
▁ㄷㅗㅇㄱㅡㅂㅅㅐㅇ	-14806
▁ㅇㅕㅇㅅㅏㅇㅁㅜㄹ	-14807
▁ㅊㅜㅇㅅㅜㄱㅇㅘㅇ	-14808
▁TT	-14809
▁272	-14810
▁335	-14811
▁Ext	-14812
▁JAP	-14813
▁TNT	-14814
▁rem	-14815
bject	-14816
▁1650	-14817
▁1718	-14818
▁Club	-14819
▁cont	-14820
ㄷㅏㅇㅅㅓ	-14821
ㅂㅓㄱㅈㅣ	-14822
ㅍㅐㄴㅈㅣ	-14823
▁ㅂㅐㄱㅎㅗ	-14824
▁ㅂㅜㄹㄱㅡ	-14825
▁ㅅㅏㄹㄹㅗ	-14826
▁ㅅㅣㄹㄹㅓ	-14827
▁ㅇㅘㅇㄷㅐ	-14828
▁ㅇㅜㄴㅌㅡ	-14829
▁ㅇㅝㄴㅈㅚ	-14830
▁ㅈㅏㅇㅇㅓ	-14831
▁ㅈㅓㅇㅆㅣ	-14832
▁ㅊㅣㄴㅂㅜ	-14833
▁ㅋㅔㄴㅈㅣ	-14834
▁ㅎㅕㅂㅅㅣ	-14835
▁ㄱㅗㅇㄴㅏㅂ	-14836
▁ㄱㅜㄱㅇㅡㄹ	-14837
▁ㅁㅏㅈㅇㅡㄴ	-14838
▁ㅂㅐㄱㄱㅜㄴ	-14839
▁ㅅㅐㅇㄷㅗㅇ	-14840
▁ㅇㅣㅁㅊㅓㄴ	-14841
▁ㅈㅓㄴㄹㅣㅂ	-14842
▁ㅅㅏㄹㅇㅣㄴㅂㅓㅁ	-14843
▁ㅈㅏㅇㅎㅏㄱㅅㅐㅇ	-14844
▁JK	-14845
▁351	-14846
▁405	-14847
▁421	-14848
▁CSS	-14849
▁HBO	-14850
▁Mot	-14851
▁USD	-14852
cript	-14853
▁1614	-14854
▁1618	-14855
▁Band	-14856
▁Work	-14857
ㄹㅏㅇㅅㅣ	-14858
ㅇㅑㅇㄹㅣ	-14859
ㅈㅏㅇㄱㅛ	-14860
▁ㅁㅜㅁㅂㅏ	-14861
▁ㅅㅣㄴㅌㅐ	-14862
▁ㅈㅓㅇㄱㅏ	-14863
▁ㅋㅓㄹㅌㅡ	-14864
▁ㅎㅕㅂㅅㅗ	-14865
▁ㅅㅔㄹㅌㅣㄱ	-14866
▁ㅍㅐㄴㅌㅐㄱ	-14867
▁ㄱㅗㅇㄷㅗㅇㅁㅛ	-14868
▁ㅊㅣㅁㅍㅐㄴㅈㅣ	-14869
▁ㅎㅓㄴㅂㅕㅇㄷㅐ	-14870
▁ㅊㅓㄹㄱㅘㅇㅅㅓㄱ	-14871
HA	-14872
ㄸㅡㄱ	-14873
ㅁㅔㅇ	-14874
▁VfL	-14875
▁1785	-14876
ㄱㅓㄹㄹㅣ	-14877
ㄱㅜㄴㅅㅏ	-14878
ㅅㅣㄱㅈㅜ	-14879
▁ㄱㅝㄴㅈㅔ	-14880
▁ㄴㅏㅁㅇㅜ	-14881
▁ㄷㅏㅂㅅㅏ	-14882
▁ㄷㅔㄹㄹㅗ	-14883
▁ㅂㅏㄱㄱㅠ	-14884
▁ㅅㅠㄹㅊㅡ	-14885
▁ㅅㅣㄴㅅㅓ	-14886
▁ㅇㅕㄴㄱㅏ	-14887
▁ㅈㅏㅇㄴㅐ	-14888
▁ㅊㅓㅁㅅㅏ	-14889
▁ㅎㅗㄴㄹㅖ	-14890
ㅇㅣㅁㄷㅏㅇ	-14891
▁ㄱㅣㅁㅈㅜㅇ	-14892
▁ㄴㅏㅁㅈㅓㅇ	-14893
▁ㅂㅕㅇㅇㅛㅇ	-14894
▁ㅂㅗㄲㅇㅡㅁ	-14895
▁ㅅㅏㄴㅊㅓㄴ	-14896
▁ㅅㅓㅇㄱㅘㄴ	-14897
▁ㅇㅏㅁㅁㅜㄱ	-14898
▁ㅊㅡㄱㅅㅓㄴ	-14899
▁ㅌㅏㄹㄹㅣㄴ	-14900
ㅂㅓㄹㄹㅐㄴㄷㅡ	-14901
▁ㄱㅕㅇㅈㅓㄴㅊㅏ	-14902
▁ㄷㅗㄱㄹㅣㅂㅅㅣㄴㅁㅜㄴ	-14903
35	-14904
mus	-14905
ious	-14906
▁GPL	-14907
▁Boys	-14908
ㅇㅕㅇㄱㅜ	-14909
ㅇㅛㅇㅎㅐ	-14910
ㅊㅗㅇㅅㅏ	-14911
▁ㄷㅏㄴㄱㅏ	-14912
▁ㄹㅐㄹㅍㅡ	-14913
▁ㅇㅜㄴㅈㅜ	-14914
▁ㅎㅗㄹㅌㅡ	-14915
▁ㅎㅣㄴㄷㅣ	-14916
ㅇㅕㄹㅇㅘㅇ	-14917
ㅎㅕㄴㅅㅣㄱ	-14918
▁ㄱㅕㅇㄹㅕㄴ	-14919
▁ㅅㅓㄴㅁㅏㅇ	-14920
▁ㅇㅕㅇㅌㅗㅇ	-14921
▁ㅇㅣㄱㄹㅛㅇ	-14922
▁ㅊㅜㅇㅁㅏㄴ	-14923
▁ㅅㅏㅁㅂㅕㄹㅊㅗ	-14924
▁ㅅㅐㅇㅎㅘㄹㅂㅣ	-14925
▁Microsoft	-14926
▁ㅍㅕㄴㅈㅣㅂㅇㅣㄴ	-14927
▁ㅌㅗㅇㄱㅡㄴㅇㅕㄹㅊㅏ	-14928
uss	-14929
▁BA	-14930
▁LE	-14931
▁730	-14932
▁Fly	-14933
▁Mad	-14934
▁WOR	-14935
▁jpg	-14936
ㅂㅣㄴㅊㅣ	-14937
ㅇㅕㅇㅎㅢ	-14938
▁major	-14939
▁ㄱㅏㅁㄷㅗ	-14940
▁ㄱㅜㄹㅈㅣ	-14941
▁ㄷㅡㄹㅋㅣ	-14942
▁ㅅㅣㄴㅇㅏ	-14943
▁ㅍㅏㄹㅁㅏ	-14944
▁ㅍㅕㄴㅇㅣ	-14945
ㅇㅓㅂㄷㅏㄴ	-14946
▁ㄱㅗㅇㅇㅓㄴ	-14947
▁ㅁㅜㄴㅇㅘㅇ	-14948
▁ㅂㅏㅇㅍㅕㄴ	-14949
▁ㅅㅑㄹㄹㅗㅅ	-14950
▁ㅅㅜㄴㄱㅕㄹ	-14951
▁ㅇㅠㄱㅅㅣㄴ	-14952
▁ㅈㅣㄴㄱㅕㅇ	-14953
▁ㅎㅘㅇㅈㅣㄴ	-14954
ㅇㅣㄴㄹㅏㄴㅌㅡ	-14955
▁ㅈㅓㄱㄷㅏㅇㅎㅣ	-14956
▁ㄱㅣㅁㅅㅓㅇㄱㅡㄴ	-14957
▁ㄴㅗㄱㄴㅡㄴㅈㅓㅁ	-14958
▁ㅅㅜㄴㅊㅏㅇㄱㅜㄴ	-14959
▁ㅇㅚㄴㅅㅗㄴㅈㅏㅂㅇㅣ	-14960
ga	-14961
put	-14962
ㄲㅜㅂ	-14963
▁525	-14964
▁870	-14965
▁ㅃㅗㅁ	-14966
▁Want	-14967
ㄹㅏㅇㅊㅐ	-14968
ㅂㅓㅂㅅㅗ	-14969
▁ㅁㅗㄱㅅㅜ	-14970
▁ㅂㅗㅇㅈㅣ	-14971
▁ㅇㅣㄹㄹㅗ	-14972
▁ㅇㅣㄹㄹㅜ	-14973
▁ㅇㅣㅁㅈㅏ	-14974
▁ㅈㅓㅇㅇㅣ	-14975
▁ㅋㅜㄹㄹㅏ	-14976
▁ㅌㅔㄹㅇㅏ	-14977
▁ㅍㅐㄱㅅㅡ	-14978
ㄷㅗㄷㅇㅜㅁ	-14979
ㅈㅜㅇㄹㅕㄱ	-14980
▁ㄱㅘㄴㅈㅏㄱ	-14981
▁ㄱㅜㄱㅇㅝㄴ	-14982
▁ㅁㅜㄴㄷㅗㅇ	-14983
▁ㅅㅣㄴㅇㅣㄹ	-14984
▁ㅈㅏㄱㅍㅜㅇ	-14985
▁ㅈㅜㅇㅈㅡㅇ	-14986
▁ㅌㅡㄱㅈㅣㄹ	-14987
▁ㄷㅓㄱㅎㅡㅇㄷㅐ	-14988
▁ㅋㅏㄹㅂㅐㅇㅈㅜ	-14989
▁ㅁㅏㅈㅇㅡㄴㅍㅕㄴ	-14990
▁ㅌㅗㅇㅊㅏㄹㄹㅕㄱ	-14991
48	-14992
pl	-14993
ti	-14994
▁Dec	-14995
▁Say	-14996
▁ㄱㅚㅇ	-14997
▁ㅅㅗㅂ	-14998
▁Mind	-14999
ㄱㅕㄱㄱㅣ	-15000
ㄷㅡㄱㅇㅣ	-15001
ㅂㅡㄹㅇㅠ	-15002
ㅅㅔㄴㅌㅔ	-15003
ㅇㅡㅁㄱㅣ	-15004
▁ㄴㅏㅁㅇㅟ	-15005
▁ㄹㅏㅂㅂㅣ	-15006
▁ㅁㅏㄴㅎㅚ	-15007
▁ㅅㅓㄱㅂㅣ	-15008
▁ㅅㅓㄹㅍㅏ	-15009
▁ㅇㅏㄹㄱㅏ	-15010
▁ㅇㅕㅇㅁㅛ	-15011
▁ㅇㅠㄱㄹㅗ	-15012
▁ㅈㅏㅇㅈㅐ	-15013
▁ㅁㅕㅇㅈㅓㅇ	-15014
▁ㅅㅏㅇㅎㅕㅇ	-15015
▁ㅅㅓㅁㅈㅣㄴ	-15016
▁ㅅㅜㄱㅈㅓㄱ	-15017
▁ㅅㅜㄴㄱㅕㅇ	-15018
▁ㅇㅕㅇㄷㅏㅇ	-15019
▁ㅈㅣㄴㅊㅓㄱ	-15020
▁ㅊㅓㄹㅇㅣㄴ	-15021
▁ㅌㅗㅇㅍㅜㅇ	-15022
▁ㅈㅏㄱㅇㅛㅇㄱㅣ	-15023
▁ㅊㅜㄹㅅㅣㄴㅈㅏ	-15024
ray	-15025
sch	-15026
▁BN	-15027
▁UM	-15028
▁go	-15029
ving	-15030
▁258	-15031
▁Kid	-15032
ㄷㅡㅇㅇㅓ	-15033
ㅂㅓㄴㅌㅡ	-15034
ㅍㅏㄹㅌㅡ	-15035
ㅎㅏㄴㅎㅚ	-15036
▁ㄱㅕㅇㅁㅣ	-15037
▁ㄹㅗㄹㄹㅏ	-15038
▁ㅁㅕㄹㅅㅣ	-15039
▁ㅅㅣㄹㅅㅔ	-15040
▁ㅈㅏㅂㅎㅕ	-15041
▁ㅊㅓㅇㅇㅓ	-15042
ㅇㅓㄴㅈㅏㅇ	-15043
▁ㄱㅏㄱㄱㅡㅂ	-15044
▁ㄱㅗㄴㅈㅏㄹ	-15045
▁ㄴㅏㅁㅇㅏㄴ	-15046
▁ㅅㅓㅁㅇㅣㄴ	-15047
▁ㅈㅜㅇㅎㅐㄱ	-15048
▁ㅎㅘㅇㄱㅜㄱ	-15049
▁ㅂㅏㄷㅊㅣㅁㄷㅐ	-15050
▁ㅈㅣㅂㅎㅐㅇㅂㅜ	-15051
▁ㅎㅡㅂㅎㅕㄹㄱㅟ	-15052
▁KA	-15053
▁Cat	-15054
▁EFL	-15055
▁log	-15056
▁NADP	-15057
ㄹㅔㄱㅅㅡ	-15058
ㅅㅏㅇㄷㅐ	-15059
▁ㄱㅡㅁㅅㅔ	-15060
▁ㅇㅏㄱㅅㅜ	-15061
▁ㅈㅏㅇㄱㅏ	-15062
▁ㅊㅏㅁㅍㅏ	-15063
▁ㅊㅗㄴㅇㅢ	-15064
▁ㅍㅏㄴㄱㅘ	-15065
ㅅㅓㅇㅇㅡㅁ	-15066
ㅅㅡㄹㄹㅣㄴ	-15067
ㅇㅣㄹㄹㅓㄴ	-15068
▁ㄱㅘㄴㄷㅡㅇ	-15069
▁ㅂㅜㄹㄱㅗㅇ	-15070
▁ㅅㅏㄴㅈㅓㄴ	-15071
▁ㅅㅓㄱㅅㅓㅇ	-15072
▁ㅈㅓㅁㄱㅡㄴ	-15073
▁ㅈㅓㅂㅈㅓㅁ	-15074
▁ㅎㅕㄹㅈㅜㅇ	-15075
▁ㅅㅣㄴㅅㅗㄱㅎㅣ	-15076
▁ㅅㅣㄴㅊㅓㅇㅅㅓ	-15077
▁ㄱㅓㄴㅊㅜㄱㅎㅏㄱ	-15078
▁ㅂㅏㄹㄷㅗㄷㅇㅜㅁ	-15079
III	-15080
▁LM	-15081
▁MF	-15082
▁XL	-15083
▁TOK	-15084
▁ㄹㅖㄴ	-15085
▁Perf	-15086
ㅇㅔㄴㅌㅔ	-15087
ㅈㅏㅇㅈㅣ	-15088
ㅈㅏㅇㅊㅣ	-15089
▁Count	-15090
▁ㄱㅓㄴㄷㅐ	-15091
▁ㄴㅗㄴㅇㅓ	-15092
▁ㅈㅏㅇㄱㅖ	-15093
▁ㅊㅏㅇㅎㅗ	-15094
▁ㅊㅓㄴㅂㅗ	-15095
▁ㅍㅜㄹㄹㅓ	-15096
▁ㅍㅜㅁㅇㅟ	-15097
ㄱㅏㄱㄱㅏㄱ	-15098
ㅇㅕㅇㅎㅜㄴ	-15099
ㅇㅜㄹㄹㅣㅁ	-15100
▁Street	-15101
▁ㄱㅡㅁㅇㅕㄴ	-15102
▁ㅂㅕㄴㅊㅣㄱ	-15103
▁ㅅㅏㅇㄴㅑㅇ	-15104
▁ㅅㅣㄹㅎㅕㅇ	-15105
▁ㅇㅑㅇㅁㅏㄹ	-15106
▁ㅇㅗㄹㅅㅡㄴ	-15107
▁ㅈㅏㅇㅅㅏㄴ	-15108
▁ㅈㅏㅇㅎㅕㅇ	-15109
▁ㅌㅗㅇㄱㅗㄱ	-15110
▁ㅎㅐㅇㅅㅣㄹ	-15111
▁ㄱㅕㅇㅊㅏㄹㄷㅐ	-15112
▁ㄷㅗㄹㅍㅣㄴㅅㅡ	-15113
▁ㅂㅗㅇㅇㅡㄴㅅㅏ	-15114
▁Hi	-15115
▁1781	-15116
▁Hard	-15117
▁JAPAN	-15118
▁ㄱㅏㅂㅅㅏ	-15119
▁ㅁㅏㅈㅎㅣ	-15120
▁ㅁㅗㅇㅌㅔ	-15121
▁ㅂㅜㄱㅅㅡ	-15122
▁ㅅㅓㅇㅅㅗ	-15123
▁ㅇㅡㅁㄷㅐ	-15124
▁ㅈㅣㅂㅇㅛ	-15125
▁ㅍㅔㅂㅅㅣ	-15126
ㄱㅗㅇㄷㅏㄴ	-15127
ㅂㅏㅇㅇㅏㅁ	-15128
ㅈㅜㅇㅅㅣㅁ	-15129
▁ㄱㅏㅁㅅㅣㄹ	-15130
▁ㄱㅘㄴㅂㅗㄱ	-15131
▁ㄱㅜㄴㅅㅣㄴ	-15132
▁ㄴㅓㄱㄴㅓㄱ	-15133
▁ㄹㅗㅁㅁㅔㄹ	-15134
▁ㅁㅗㅁㄷㅏㅁ	-15135
▁ㅂㅏㄱㅅㅓㄴ	-15136
▁ㅂㅏㅁㄴㅏㅈ	-15137
▁ㅇㅑㅇㅁㅣㄴ	-15138
▁ㅊㅗㅇㅇㅕㄹ	-15139
▁ㅅㅣㄹㅎㅏㄱㅈㅏ	-15140
▁ㅇㅐㄹㄹㅣㄱㅅㅡ	-15141
▁ㅂㅜㄱㄱㅡㄱㅅㅓㅇ	-15142
▁ㅈㅓㄴㅁㅜㄴㅈㅓㅁ	-15143
GL	-15144
ula	-15145
▁was	-15146
▁ㅅㅠㅇ	-15147
▁Feel	-15148
ㄴㅏㄴㅊㅓ	-15149
ㅂㅐㅇㅇㅣ	-15150
▁while	-15151
▁ㄱㅏㄴㅅㅔ	-15152
▁ㅅㅏㅇㅈㅣ	-15153
▁ㅎㅏㅂㅈㅜ	-15154
ㅈㅓㄴㅈㅡㅇ	-15155
ㅈㅓㅇㅁㅣㄴ	-15156
ㅌㅗㅇㅁㅏㅇ	-15157
▁ㄱㅜㄴㅇㅕㅇ	-15158
▁ㅂㅜㄴㅎㅗㅇ	-15159
▁ㅅㅏㅇㅂㅗㄱ	-15160
▁ㅇㅜㄴㄴㅏㅁ	-15161
▁ㅈㅓㅇㅂㅏㅇ	-15162
ㅅㅜㅇㄹㅗㄱㄷㅐ	-15163
▁ㄱㅡㅁㅊㅓㄴㄱㅜ	-15164
▁ㅅㅓㄴㄷㅓㄱㅇㅕ	-15165
▁ㅅㅐㅇㅅㅏㄴㅍㅜㅁ	-15166
ICA	-15167
▁HN	-15168
▁OO	-15169
edia	-15170
▁Max	-15171
▁SSG	-15172
▁fis	-15173
▁one	-15174
▁1590	-15175
ㄷㅏㅁㅅㅡ	-15176
ㅁㅜㅇㅊㅣ	-15177
ㅈㅏㄴㄷㅣ	-15178
ㅈㅓㄴㅈㅔ	-15179
ㅈㅓㅇㄱㅓ	-15180
ㅊㅜㅇㅈㅔ	-15181
▁ㄱㅔㄴㄴㅏ	-15182
▁ㅂㅣㄴㅂㅜ	-15183
▁ㅃㅏㄹㅇㅏ	-15184
▁ㅇㅕㅁㅇㅗ	-15185
▁ㅈㅓㄴㄱㅖ	-15186
▁ㅈㅓㄴㅇㅢ	-15187
▁ㅌㅜㄹㄹㅏ	-15188
▁ㅍㅏㄹㅊㅡ	-15189
▁ㅎㅐㅁㅅㅡ	-15190
ㅅㅣㄹㄹㅣㄴ	-15191
▁Instit	-15192
▁ㄱㅕㅇㄷㅗㅇ	-15193
▁ㄱㅜㄱㅊㅐㄱ	-15194
▁ㄱㅜㄴㄱㅜㄱ	-15195
▁ㄴㅏㅁㅍㅕㅇ	-15196
▁ㅂㅏㄴㅊㅏㄴ	-15197
▁ㅅㅣㅁㅇㅑㅇ	-15198
▁ㅈㅗㅇㅈㅜㅇ	-15199
▁ㅊㅗㄱㅌㅏㄱ	-15200
▁ㅎㅗㅇㅈㅗㅇ	-15201
▁ㅅㅓㅇㅈㅏㅇㄱㅣ	-15202
▁ㅇㅕㅇㅇㅓㅂㅅㅗ	-15203
▁ㅊㅏㅇㅇㅓㅂㅈㅜ	-15204
▁ㅊㅏㅇㄱㅕㅇㄱㅜㅇ	-15205
▁ㅎㅜㄴㄹㅕㄴㅇㅝㄴ	-15206
ㄱㅜㄱㅅㅜㅇㄹㅗㄱㄷㅐ	-15207
ular	-15208
▁AAA	-15209
▁NFL	-15210
▁ㅆㅏㅁ	-15211
▁FIBA	-15212
ㅅㅔㄴㅈㅜ	-15213
ㅇㅣㄴㅎㅘ	-15214
ㅈㅓㅇㅅㅣ	-15215
ㅍㅣㅇㅋㅡ	-15216
▁Break	-15217
▁ㄴㅏㅁㅇㅗ	-15218
▁ㄷㅏㅇㅎㅐ	-15219
▁ㅁㅗㄱㅁㅏ	-15220
▁ㅂㅐㄴㄷㅓ	-15221
▁ㅂㅕㅇㅁㅜ	-15222
▁ㅅㅓㄴㅇㅢ	-15223
▁ㅅㅗㄱㄹㅣ	-15224
▁ㅇㅠㄱㄱㅖ	-15225
▁ㅇㅠㄱㅅㅜ	-15226
▁ㅈㅗㅇㅅㅜ	-15227
▁ㅊㅏㅇㄱㅏ	-15228
ㄱㅕㄹㄱㅝㄴ	-15229
ㅎㅕㄴㅈㅣㄴ	-15230
▁ㄱㅜㄴㅂㅓㅂ	-15231
▁ㄱㅡㅁㅇㅡㄴ	-15232
▁ㄴㅏㅇㅇㅣㄴ	-15233
▁ㄷㅗㅇㄱㅘㅇ	-15234
▁ㅁㅏㄴㅁㅣㄴ	-15235
▁ㅅㅣㅁㅂㅓㄹ	-15236
▁ㅅㅣㅁㅅㅓㅇ	-15237
▁ㅇㅕㄴㅈㅓㄴ	-15238
▁ㅈㅣㅇㅂㅓㄹ	-15239
▁ㅊㅓㄴㅅㅣㄱ	-15240
▁ㅊㅜㄹㅇㅗㄱ	-15241
ㅋㅡㄹㄹㅔㄴㅂㅜ	-15242
▁ㅁㅏㄹㄹㅣㄴㅅㅡ	-15243
▁ㅇㅣㄴㅈㅡㅇㅅㅓ	-15244
▁ㅇㅣㅁㅅㅏㄴㅂㅜ	-15245
ㅂㅏㄱㅁㅜㄹㄱㅘㄴ	-15246
▁ㄷㅗㅇㅁㅜㄹㅎㅏㄱㅈㅏ	-15247
IME	-15248
PER	-15249
ense	-15250
▁259	-15251
▁Sal	-15252
▁ㄴㅓㄳ	-15253
▁ㅁㅗㄷ	-15254
▁When	-15255
ㄴㅔㄱㅌㅓ	-15256
ㅂㅜㄴㅅㅜ	-15257
ㅈㅏㅇㄴㅏ	-15258
ㅊㅜㄱㅈㅔ	-15259
▁ㄱㅓㅁㅈㅣ	-15260
▁ㅂㅏㄴㄱㅡ	-15261
▁ㅂㅐㄱㅅㅓ	-15262
▁ㅅㅓㄱㄱㅗ	-15263
▁ㅇㅣㅁㅍㅣ	-15264
▁ㅇㅣㅁㅎㅐ	-15265
▁ㅊㅜㄹㄱㅗ	-15266
▁ㅊㅣㅇㅎㅘ	-15267
▁ㅍㅣㄹㅊㅣ	-15268
▁ㅎㅑㅇㅅㅏ	-15269
ㅅㅓㄴㅇㅣㅁ	-15270
▁ㄴㅣㄹㅅㅡㄴ	-15271
▁ㄷㅗㄹㄹㅣㅁ	-15272
▁ㅁㅣㄹㅈㅣㄱ	-15273
▁ㅂㅏㅇㅁㅏㅇ	-15274
▁ㅅㅐㅇㅇㅠㄱ	-15275
▁ㅅㅐㅇㅎㅏㅂ	-15276
▁ㅈㅓㅇㄱㅏㄴ	-15277
▁ㅊㅓㄴㄱㅜㅇ	-15278
▁ㅊㅓㄴㅁㅣㄴ	-15279
▁ㅋㅗㄹㅁㅓㄴ	-15280
▁ㅎㅕㄴㅅㅗㄴ	-15281
▁ㄱㅕㅇㄱㅜㄱㄷㅐ	-15282
▁ㄱㅡㅂㅅㅓㅇㅈㅏㅇ	-15283
▁ㅅㅣㅂㅈㅣㄴㅂㅓㅂ	-15284
▁ㅇㅕㅇㄷㅓㄱㄱㅜㄴ	-15285
▁ㅈㅓㅇㅅㅣㄴㅂㅕㅇ	-15286
▁ㅍㅗㄱㅂㅏㄹㄹㅕㄱ	-15287
▁ㄷㅗㄱㄹㅣㅂㅅㅓㄴㅇㅓㄴㅅㅓ	-15288
SA	-15289
ily	-15290
▁Cy	-15291
ㅎㅠㄹ	-15292
▁780	-15293
▁ㄲㅝㅇ	-15294
▁ㄴㅠㅁ	-15295
▁ㄷㅡㅁ	-15296
▁ㄹㅐㅂㅍㅓ	-15297
▁ㅂㅓㄹㄱㅓ	-15298
▁ㅅㅣㄴㅌㅏ	-15299
▁ㅇㅐㄴㅌㅣ	-15300
▁ㅇㅖㅂㅅㅡ	-15301
▁ㅋㅏㄱㅌㅔ	-15302
▁ㅍㅕㄴㅁㅣ	-15303
ㅅㅏㄴㅂㅓㅂ	-15304
ㅈㅏㅇㄱㅠㄴ	-15305
ㅈㅣㄱㅂㅓㅂ	-15306
ㅊㅜㄹㅍㅜㅁ	-15307
ㅌㅣㅇㅇㅓㅁ	-15308
▁ㄱㅕㅇㅈㅓㅇ	-15309
▁ㅂㅓㄴㅈㅣㄴ	-15310
▁ㅂㅗㄴㅇㅕㄴ	-15311
▁ㅅㅏㄴㅁㅕㄴ	-15312
▁ㅎㅓㅁㅈㅜㄴ	-15313
▁ㄱㅓㄴㅊㅜㄱㅅㅏ	-15314
une	-15315
▁cl	-15316
▁284	-15317
▁Two	-15318
▁ㅅㅔㅇ	-15319
ㄹㅣㅂㅅㅡ	-15320
ㅁㅜㄹㅍㅗ	-15321
ㅂㅜㄹㅎㅘ	-15322
▁ㅅㅓㄴㄴㅕ	-15323
▁ㅇㅏㄹㄹㅠ	-15324
▁ㅇㅜㄹㅂㅓ	-15325
▁ㅍㅗㄴㅌㅔ	-15326
ㄹㅕㅇㅇㅘㅇ	-15327
ㅇㅑㅇㅅㅣㄴ	-15328
ㅍㅕㄴㅁㅜㄹ	-15329
▁ㄱㅡㄱㅈㅣㄴ	-15330
▁ㄴㅏㅁㅊㅣㅁ	-15331
▁ㅇㅕㅇㅅㅐㅇ	-15332
▁ㅇㅣㄴㄷㅓㄱ	-15333
▁ㅈㅏㅇㅇㅠㄴ	-15334
▁ㅈㅓㅇㅂㅓㅂ	-15335
▁ㅎㅏㅇㅅㅗㄱ	-15336
▁ㅎㅕㅂㄱㅗㅇ	-15337
ㄷㅗㅇㄱㅜㄱㅇㅕ	-15338
▁ㅅㅓㄴㄷㅐㄴㅅㅡ	-15339
▁ㅇㅗㄹㄹㅣㅁㅍㅗ	-15340
▁ㅈㅣㄴㅊㅜㄹㄱㅝㄴ	-15341
▁ㅅㅣㄴㅈㅡㅇㄷㅗㅇㄱㅜㄱㅇㅕ	-15342
oy	-15343
ㅁㅚ	-15344
oot	-15345
▁ag	-15346
▁830	-15347
▁MBA	-15348
▁SIG	-15349
ㅅㅏㄴㅈㅏ	-15350
ㅅㅓㄲㅇㅣ	-15351
ㅅㅓㄴㄱㅟ	-15352
▁ㅇㅣㄹㅅㅗ	-15353
▁ㅍㅏㄱㅅㅡ	-15354
ㅈㅏㅇㅁㅕㄴ	-15355
▁ㅅㅗㄱㅅㅗㄱ	-15356
▁ㅇㅔㄱㅅㅔㄹ	-15357
▁ㅇㅕㄱㅅㅏㅁ	-15358
▁ㅇㅝㄴㄷㅏㅁ	-15359
▁ㅈㅣㄱㅇㅕㅇ	-15360
▁ㅍㅗㄱㅈㅓㅇ	-15361
▁ㅅㅐㄴㅇㅏㄴㅌㅗ	-15362
▁ㅆㅏㅇㄱㅡㄱㅈㅏ	-15363
▁ㅊㅐㄴㄷㅡㄹㄹㅓ	-15364
ola	-15365
▁BE	-15366
▁Ju	-15367
▁268	-15368
▁277	-15369
▁Only	-15370
ㄱㅘㄴㅅㅗ	-15371
ㄹㅏㄹㄷㅏ	-15372
ㅇㅝㄹㄹㅣ	-15373
ㅇㅣㄴㅇㅐ	-15374
ㅋㅡㄹㅅㅡ	-15375
▁ㄱㅓㄴㅅㅜ	-15376
▁ㄱㅓㄴㅈㅐ	-15377
▁ㅅㅜㄴㅇㅣ	-15378
▁ㅅㅣㄴㅈㅔ	-15379
▁ㅇㅏㅁㅌㅡ	-15380
▁ㅇㅏㅂㄱㅜ	-15381
▁ㅇㅟㄴㅊㅔ	-15382
▁ㅇㅣㄹㅎㅚ	-15383
▁ㅈㅐㅇㅇㅢ	-15384
▁ㅎㅗㅁㅅㅡ	-15385
▁ㅎㅡㅇㅅㅏ	-15386
▁ㅎㅣㄹㄹㅣ	-15387
ㄱㅕㅇㄷㅏㄴ	-15388
▁ㄱㅏㅇㄹㅣㅁ	-15389
▁ㄱㅣㅁㄱㅡㄴ	-15390
▁ㄷㅣㄱㅅㅡㄴ	-15391
▁ㅁㅏㅇㄱㅏㄱ	-15392
▁ㅁㅣㄴㅂㅏㅇ	-15393
▁ㅂㅜㄹㅆㅏㅇ	-15394
▁ㅅㅏㄴㅇㅕㄱ	-15395
▁ㅅㅓㄱㅍㅏㄴ	-15396
ㅇㅔㄴㅈㅔㄹㄹㅔ	-15397
▁ㅅㅡㅇㄱㅏㅇㄱㅣ	-15398
▁ㅈㅏㄱㄱㅗㄱㅈㅏ	-15399
▁ㅋㅗㄹㄹㅗㄴㅌㅏ	-15400
▁ㅎㅡㅇㄱㅜㄱㅅㅏ	-15401
▁ㅌㅡㄹㄹㅣㅁㅇㅓㅄ	-15402
120	-15403
irc	-15404
alth	-15405
▁328	-15406
▁475	-15407
▁Bet	-15408
▁ㄲㅗㄴ	-15409
▁ㄴㅕㅁ	-15410
ㅅㅐㅇㄷㅐ	-15411
ㅇㅏㅂㅂㅜ	-15412
ㅊㅓㄹㅅㅗ	-15413
▁House	-15414
▁ㄱㅗㅇㅈㅓ	-15415
▁ㄱㅡㄱㅈㅣ	-15416
▁ㄴㅏㄱㅁㅏ	-15417
▁ㅅㅏㅁㄱㅖ	-15418
▁ㅈㅏㅇㄱㅗ	-15419
▁ㅈㅗㅇㅅㅣ	-15420
▁ㅈㅣㅂㅌㅓ	-15421
▁ㅎㅕㄹㄹㅠ	-15422
▁ㅎㅘㅇㅅㅐ	-15423
ㅁㅜㄴㄷㅗㅇ	-15424
▁ㄱㅣㅅㄷㅡㄹ	-15425
▁ㄹㅓㄴㄴㅣㅇ	-15426
▁ㅂㅕㄴㅎㅏㅁ	-15427
▁ㅅㅜㅇㅅㅏㅇ	-15428
▁ㅇㅕㄴㅇㅑㄱ	-15429
▁ㅇㅗㄴㄷㅗㄹ	-15430
▁ㅍㅕㅇㄱㅏㅇ	-15431
▁PRODUCE	-15432
▁ㅇㅏㅁㅎㅐㅇㅇㅓ	-15433
▁ㅎㅡㅇㅊㅓㄴㅅㅏ	-15434
▁ㄱㅏㄱㅂㅗㄴㅅㅏㅇ	-15435
▁ㄷㅏㅇㅅㅏㅇㄱㅘㄴ	-15436
▁ㅈㅜㅇㄷㅡㅇㅎㅏㄱㄱㅛ	-15437
uch	-15438
▁BY	-15439
▁267	-15440
▁840	-15441
▁NET	-15442
▁Reg	-15443
▁ㄹㅐㅅ	-15444
▁ㅅㅜㅌ	-15445
▁1637	-15446
▁1644	-15447
▁Some	-15448
ㄹㅏㅇㅋㅐ	-15449
ㅂㅐㄱㅅㅣ	-15450
ㅅㅣㄱㄱㅣ	-15451
ㅎㅡㄹㄹㅣ	-15452
▁Apple	-15453
▁ㅂㅓㄴㄷㅔ	-15454
▁ㅂㅜㄴㄱㅗ	-15455
▁ㅇㅘㄴㄱㅗ	-15456
▁ㅊㅏㅇㅈㅔ	-15457
ㄴㅕㅁㅌㅏㅂ	-15458
ㅇㅕㄹㄷㅏㄴ	-15459
ㅇㅕㅇㄷㅗㅇ	-15460
ㅌㅡㄹㄹㅣㄴ	-15461
▁ㄱㅗㅇㅊㅓㅇ	-15462
▁ㄴㅗㅇㅇㅑㄱ	-15463
▁ㄷㅟㅅㅂㅏㄹ	-15464
▁ㅂㅜㅇㄷㅏㅇ	-15465
▁ㅅㅗㄴㅂㅏㄹ	-15466
▁ㅈㅓㄱㅅㅓㄹ	-15467
▁ㅈㅣㄱㄱㅡㅂ	-15468
▁ㅊㅓㅁㅈㅓㅇ	-15469
ㄱㅜㄴㅈㅓㄹㄷㅗ	-15470
▁ㄱㅗㅇㄱㅡㅂㅈㅏ	-15471
▁ㅋㅡㄹㄹㅐㄴㅅㅣ	-15472
▁ㅎㅐㅇㅅㅓㄴㅈㅣ	-15473
▁ㅈㅏㄱㅇㅓㅂㅈㅏㅇ	-15474
▁ㅈㅜㅇㄹㅕㄱㅈㅏㅇ	-15475
43	-15476
ICE	-15477
lish	-15478
▁990	-15479
▁Face	-15480
ㄷㅐㄴㅅㅡ	-15481
ㄷㅡㅇㄱㅗ	-15482
ㅅㅏㄴㄱㅏ	-15483
ㅅㅓㄱㅅㅏ	-15484
ㅈㅔㄴㅂㅔ	-15485
ㅈㅔㄴㅌㅔ	-15486
ㅌㅏㄹㄹㅔ	-15487
▁ㄱㅏㄱㅈㅜ	-15488
▁ㄱㅕㄴㄷㅗ	-15489
▁ㄱㅜㄴㅈㅔ	-15490
▁ㄴㅏㄱㅅㅓ	-15491
▁ㄷㅗㅇㄷㅗ	-15492
▁ㄷㅣㄹㄹㅣ	-15493
▁ㄸㅏㄱㅎㅣ	-15494
▁ㅁㅣㄴㅅㅜ	-15495
▁ㅇㅣㄹㅉㅣ	-15496
▁ㅍㅓㄹㅍㅡ	-15497
▁ㅍㅣㄹㄹㅓ	-15498
▁ㅎㅘㅇㅎㅢ	-15499
ㄹㅣㄹㄹㅠㅁ	-15500
ㅇㅣㄴㅈㅓㅁ	-15501
ㅎㅕㄴㅁㅕㄴ	-15502
▁ㄱㅡㄱㅂㅗㄴ	-15503
▁ㄷㅗㅇㅌㅏㄴ	-15504
▁ㅇㅣㄴㅇㅑㅇ	-15505
▁ㅈㅓㄻㅇㅡㅁ	-15506
▁ㅊㅜㅇㅈㅓㄱ	-15507
▁ㅍㅗㅇㅌㅔㄴ	-15508
▁ㅎㅕㄹㅈㅏㅇ	-15509
▁ㅎㅕㅇㄹㅑㅇ	-15510
ㅅㅣㄴㄹㅗㄴㅈㅏ	-15511
▁ㄱㅕㅇㅈㅐㅇㅅㅏ	-15512
▁ㅅㅏㅁㅊㅗㅇㅅㅏ	-15513
▁ㅈㅏㅇㅈㅜㄴㅎㅏ	-15514
▁Beautiful	-15515
▁ㄱㅣㅁㄷㅓㄱㄹㅕㅇ	-15516
ste	-15517
[...]
