[UNK]
[CLS]
[SEP]
[PAD]
[MASK]
!
"
#
$
%
&
'
(
)
*
+
,
-
.
/
0
1
2
3
4
5
6
7
8
9
:
;
<
=
>
?
@
A
B
C
D
E
F
G
H
I
J
K
L
M
N
O
P
Q
R
S
T
U
V
W
X
Y
Z
[
\
]
^
_
`
a
b
c
d
e
f
g
h
i
j
k
l
m
n
o
p
q
r
s
t
u
v
w
x
y
z
{
|
}
~

ᄀ
ᄁ
ᄂ
ᄃ
ᄄ
ᄅ
ᄆ
ᄇ
ᄈ
ᄉ
ᄊ
ᄋ
ᄌ
ᄍ
ᄎ
ᄏ
ᄐ
ᄑ
ᄒ
ᅡ
ᅢ
ᅣ
ᅤ
ᅥ
ᅦ
ᅧ
ᅨ
ᅩ
ᅪ
ᅫ
ᅬ
ᅭ
ᅮ
ᅯ
ᅰ
ᅱ
ᅲ
ᅳ
ᅴ
ᅵ
ᆨ
ᆩ
ᆪ
ᆫ
ᆬ
ᆭ
ᆮ
ᆯ
ᆰ
ᆱ
ᆲ
ᆳ
ᆴ
ᆵ
ᆶ
ᆷ
ᆸ
ᆹ
ᆺ
ᆻ
ᆼ
ᆽ
ᆾ
ᆿ
ᇀ
ᇁ
ᇂ
ㄱ
ㄲ
ㄳ
ㄴ
ㄵ
ㄶ
ㄷ
ㄸ
ㄹ
ㄺ
ㄻ
ㄼ
ㄽ
ㄾ
ㄿ
ㅀ
ㅁ
ㅂ
ㅃ
ㅄ
ㅅ
ㅆ
ㅇ
ㅈ
ㅉ
ㅊ
ㅋ
ㅌ
ㅍ
ㅎ
ㅏ
ㅐ
ㅑ
ㅒ
ㅓ
ㅔ
ㅕ
ㅖ
ㅗ
ㅘ
ㅙ
ㅚ
ㅛ
ㅜ
ㅝ
ㅞ
ㅟ
ㅠ
ㅡ
ㅢ
ㅣ
##ᅮ
##ᆯ
##ᄀ
##ᆼ
##ㄱ
##ㅋ
##e
##a
##d
##s
##h
##o
##t
##ᅡ
##ᆨ
##ᄋ
##ᅨ
##ᄆ
##ᅧ
##ᆫ
##r
##c
##u
##n
##i
##ᅵ
##ᄒ
##ᄃ
##ᅩ
##0
##1
##4
##8
##m
##p
##k
##l
##ᅪ
##3
##9
##7
##M
##R
##V
##Y
##ᅥ
##ᄌ
##ᆸ
##N
##P
##T
##A
##G
##ᅢ
##ᄉ
##ᅳ
##ᄅ
##f
##@
##?
##&
##*
###
##!
##"
##g
##v
##F
##C
##q
##b
##ᆷ
##ᆻ
##ᄂ
##ᅲ
##ᄐ
##ᅭ
##ᅦ
##y
##z
##ᄎ
##ㅚ
##ㅅ
##ᆺ
##ᄏ
##O
##ᄇ
##ᅯ
##6
##ᄑ
##J
##W
##E
##5
##x
##w
##K
##ᅣ
##2
##S
##ᅬ
##ᄍ
##ᅴ
##D
##X
##j
##ㅢ
##ㅌ
##ᇀ
##B
##U
##L
##.
##ᅰ
##,
##'
##ᅱ
##ᆽ
##I
##ᇂ
##H
##Z
##ᆶ
##ᆩ
##ᄄ
##ᄈ
##ᅤ
##ᄁ
##ᆿ
##\
##[
##/
##ㅎ
##ㅈ
##ㅍ
##ᇁ
##Q
##ㄲ
##ㅇ
##)
##]
##ᆱ
##ㅏ
##%
##^
##ᆮ
##ᆹ
##ㅝ
##ㄻ
##ᅫ
##ᆾ
##ᄊ
##=
##ㅠ
##ㄷ
##ᆭ
##ㄴ
##ᆬ
##ㅒ
##ㅁ
##ㅆ
##ᆲ
##ㄳ
##ㄹ
##ㅡ
##ㅊ
##ᆳ
##;
##-
##ㅐ
##ㄶ
##ㅄ
##ᆰ
##ㄵ
##ㅙ
##{
##_
##$
##ㅞ
##ᆪ
##:
##~
##ㅘ
##ㅂ
##ㅟ
##ᆵ
##ㅣ
##ㅜ
##ᆴ
##ㅀ
##ㄾ
##ㅑ
##ㅖ
##ㅗ
##ㄽ
##|
##ㅛ
##ㅉ
##+
##ㄺ
##ㅓ
##<
##>
##}
##ㄼ
##ㅔ
##ㄸ
##(
##ㅕ
##ㄿ
##`
##ㅃ
##
이
##ᅳᆫ
##ᅳᆯ
##ᅡᆫ
에
다
는
하
##ᅥᆫ
##ᅡᆼ
의
##이
가
을
##ᅧᆫ
##서
##ᅳᄅ
고
어
아
##ᅮᆫ
##ᅧᆼ
지
##지
도
##리
##다
를
은
시
한
##시
##ᅥᆼ
기
##ᅡᆯ
##스
##ᅩᆼ
##ᅮᆯ
##ᅡᆨ
##ᅳ로
##ᅩᆨ
로
되
있
해
##ᅧᆨ
사
거
##ᅩᆫ
으로
에서
주
##ᅳᆼ
##ᅥᆨ
##기
나
##어
과
대
##나
들
자
인
마
수
게
##가
보
##고
라
여
##ᅮᆨ
었
그
##라
##ᅢᆼ
와
일
##도
##ᅥᆷ
##ᅯᆫ
모
전
##ᅳᆷ
##니
##ᅥᆯ
##드
##사
##로
##인
적
##장
##요
##우
##하
부
면
바
##자
것
##만
년
##대
##트
만
##치
스
오
미
정
화
조
##화
##미
##ᅧᆯ
##해
##ᅦ이
상
유
##아
20
##수
했
##정
##ᅣᆼ
##는
공
그ᄅ
비
##터
때
##상
##주
##전
위
제
중
경
##ᅢᆨ
##게
##데
한다
##국
##르
##용
차
##히
##력
##제
##한
##ᅯᆯ
##부
소
무
##신
된
세
##성
없
노
##구
##문
##ᅳᆨ
등
성
##ᅥᆸ
##야
지만
##면
##려
##키
며
##과
않
##마
##오
##원
월
##격
##동
개
던
에게
할
##간
으
구
서
내
았
타
##타
리
##ᆯ리
선
201
동
피
##러
##ᅵᆷ
##진
장
방
연
##비
후
##유
영
신
우
카
요
발
##그
##체
까
##선
안
##ᅢᆫ
당
말
생
##소
버
##작
##일
야
였
진
더
##거
치
는데
##며
##명
##무
##계
파
원
처
추
포
##여
회
때문
명
##재
19
강
까지
##식
데
##위
##의
##보
최
##티
##ᅳ리
문
##00
##당
##후
##운
불
실
같
##카
아니
##른
##크
##음
번
##래
레
관
단
##교
코
받
라고
라는
##행
##물
호
##실
##단
##와
##즈
##능
결
##학
배
##역
##회
반
##ᅦᆫ
이ᄅ
초
많
##공
##들
특
##디
##피
##ᅦᆯ
다고
작
역
##람
##임
##속
##토
##버
##모
##내
된다
매
계
면서
##반
##차
드
분
##점
남
##분
##조
##산
##ᅳᆯᄅ
국
알
##ᅧᆻ
##생
경우
10
##프
##각
##본
니
함
출
사용
현
건
##록
다는
물
공격
##연
두
##중
##두
본
예
이후
##군
##관
##호
##류
자신
교
##안
따
못
감
입
학
통
저
재
##저
또
그리
점
편
키
캐
##민
##태
##세
패
으며
메
##영
좋
그러
사람
##코
##노
디
##바
##준
##급
##ᅮᆷ
##금
##경
정도
애
##방
##법
##발
##적
##종
군
속
##으
설
형
##건
부터
##ᅳ라
##든
##업
##통
##습
김
##포
참
토
가능
##난
다른
##승
외
##양
평
너
##술
##워
##루
##온
종
##파
##브
음
##린
##테
##료
권
이나
##녀
##직
승
12
살
간
죽
##레
##심
보다
팀
체
##ᆯ라
200
뒤
해서
등장
##스트
직
##션
히
판
는다
##입
##투
11
아이
돌
##표
용
루
그리고
확
게임
시ᄌ
하나
잘
운
행
경기
변
걸
심
..
네
테
맞
ᆫ다
##론
##개
##판
쓰
박
##약
##족
다가
##울
##er
사실
채
활
나오
투
집
끄
시간
##황
대한
##령
날
##형
##출
##에
##량
##너
목
##져
듯
달
엔
##매
필
양
##련
약
##설
##합
언
각
높
##께
사이
##향
##청
시작
표
##품
##석
##현
##언
일본
##더
위해
##복
이상
##망
이름
모습
왕
순
시키
##츠
태
함께
크
##니다
##란
존
##질
##외
##지만
##까
려
준
상대
##ᅳᆯ레이
임
어서
프로
##ᆨ터
독
증
베
한국
문제
15
새
##환
거나
다시
병
##머
천
만들
##네
합
총
잡
손
##in
효
가지
하지만
능
##스터
티
생각
커
별
힘
##독
완
볼
캐리
##럼
으면
끝
겠
##송
막
또한
항
##병
들어
##혀
##목
폭
난
##천
스키
가장
복
근
스ᄐ
광
산
##험
식
##ᅮᆼ
당시
##배
##대로
시즌
##ᆫ다
보여
삼
플레이
먹
##막
처럼
캐릭터
및
18
씨
검
##on
능력
줄
싸
##년
모두
##락
친
누
상황
열
보이
##립
백
충
##색
상태
으나
따라
민
##ᅳ러
##결
##감
##퍼
##쪽
##근
쿠
##말
머
모든
길
추가
러
금
결국
빠
슈
라이
앞
##랑
세계
##악
선수
##an
##함
터
##초
16
##벨
##or
스킬
##담
##졌
카드
곡
느
##살
##케
##미지
##ᅳᆯ리
##탄
##것
그래
업
##렸
현재
##등
##ᅳ래
##겨
##쿠
악
넘
##메
##편
다만
##남
많이
##쟁
##ᅥᆯ어
전투
쉬
효과
다음
30
급
그러나
##했
눈
존재
그런
얼
온
지역
13
미국
페
취
##할
시리
첫
##ᇂ게
##움
##항
청
##접
##어나
##냥
14
199
매우
##예
될
레이
법
황
##ar
창
##택
트
허
습
이ᄇ
북
##름
절
17
##견
극
##존
프ᄅ
##절
대학
얻
##ᅢᆫ드
##페
골
##강
##처
상당
나온
레벨
기록
##범
##he
시리즈
찾
큰
째
스타
##집
괴
##at
여기
탄
이유
기술
긴
뿐
철
다면
물론
무기
바ᄁ
##득
엄
겨
어ᄄ
팬
이러
이용
아서
탈
##은
여러
##왕
처음
##규
자체
##패
##커
방송
곳
100
##날
이런
같이
##인다
##별
필요
영화
워
##템
실제
환
##널
##쳐
해당
25
달리
마법
피해
주인
##왔
##곡
##ᆨ스
귀
꼬
##탈
##열
일반
##글
돌아
규
거의
아닌
해야
질
역시
버리
##으나
##추
바로
못하
리그
학교
혼
범
##달
잠
사건
##거리
##큼
##en
혀
인지
이야
특히
인데
관련
유니
기본
2017
붙
둘
##느
대해
플
놓
##착
##박
즉
부분
위치
류
란
몬
뜨
진행
##ou
##ᅳ레
글
아무
방어
격
갈
2018
클
밖
##칭
이야기
##부분
축
대표
돼
담
냐
떨어
##창
마지
국가
좀
는지
없이
##으며
제작
##권
##찰
헤
활동
인간
찌
##틀
동안
##찬
##육
밝
작품
올
##례
웨
증가
에선
##변
싶
##때
봐
올라
##ᆯ러
##괴
대부분
샤
##진다
##al
접
비스
##런
마지막
본인
몸
자기
떠
2019
풀
##ᅳ레이
일부
##혼
계속
##활
통해
##시아
21
암
서울
라면
##극
##을
몇
내용
만큼
##es
##광
팔
##순
##켜
든
주인공
##률
2016
덕
감독
##희
참고
속도
관계
50
##철
밀
해도
##월
맡
##끼
##전히
##슨
어려
중국
##베
대신
수준
올리
이전
우리
그냥
##턴
##없
쪽
타이
비슷
어느
나이
논
##징
##리아
전쟁
##돌
지금
보인다
희
##응
성공
22
벌
스토
들어가
낮
기준
##갈
홍
슬
##애
뛰
인물
새로
습니다
##불
##ᅦ이션
도시
울
협
퍼
##벌
198
상당히
공격력
그녀
도록
자리
24
##율
마다
최대
나가
기사
##블
인해
##민국
##랴
프리
결과
홈
지원
그대로
평가
##ᆷ버
시절
##증
너무
블ᄅ
넣
육
뉴
##ᅦᆫ트
므로
따르
##략
제외
보스
##it
연구
##씨
케
##버지
의미
망
##친
##한다
나타
##ᅦ이지
몰
먼
센
##축
##백
짜
측
소속
##린다
##북
이미
봉
실제로
##귀
승리
칼
직접
전체
2015
##책
영상
대한민국
향
23
##굴
그렇
유닛
원래
체력
여자
로서
##부터
언급
##획
맨
대로
드라
##념
묘
개발
데미지
멤버
다르
##ing
유저
갖
##st
##le
머리
##학교
##ic
휴
쉽
이동
##앙
마음
설정
##몬
40
##다가
컨
정보
책
씩
당하
지나
쇼
문서
방법
##라이
선택
애니
이것
님
##re
##늘
##ᆷ피
과거
##ᆯ로
쓸
으니
가까
몬스터
##운드
써
왜
츠
줘
##평
이어
출연
차이
성우
송
깨
갑
친구
돈
포함
##걸
##욱
침
##dd
석
##가지
##닝
농
뜻
이루
소리
압
크리
대하
탑
파이
대상
설명
##ᅦ이스
##ᅦ일
엄청
##짜
배우
혹
어ᄍ
사회
##총
바람
플레이어
장면
##딩
우승
최고
##슬
여성
##봉
나온다
##침
버전
사랑
링
바뀌
아버지
빼
##웅
마이
동시
공식
##팅
유명
시대
거리
2014
##켓
즈
나왔
준다
됐
발생
생기
영향
사망
주로
꽤
만나
대회
려고
프랑
##주의
궁
남자
층
엘
색
결정
보내
부르
##곤
조금
발매
블
비해
섬
26
주장
출신
빨
아이템
나라
##플
##ff
멀
초반
000
역사
##ᆯ린
인터
학생
늘
전부
버스
공개
사라
28
##를
##쉬
운영
서로
유지
콘
답
스토리
##밀
잔
##el
위하
27
대사
구성
듣
##염
파괴
제대로
그것
##am
정부
스ᄏ
방식
음악
만든
강화
자주
31
모르
중요
아직
후반
이때
또는
노래
월드
모드
the
정치
##델
과정
형태
최종
독일
역할
래
흐
억
시스
마리
좌
휘
최초
르
대전
##라도
##필
##벽
##ᅦ이트
딜
착
뽀
찍
알려
이벤트
다니
##om
##머니
어떠
강력
아래
정말
##얼
변경
회복
움
##맨
##먹
##확
기존
어떤
싱
바이
그런데
##잡
##우스
트ᄅ
영국
끼
보통
드래
비교
##었
소환
라도
의해
##갑
##겼
정신
##객
폐
마찬
마찬가지
##la
##림
조선
당연
인기
##측
특성
##is
##컬
성능
빌
확률
속성
앨
마을
##프트
푸
##번
행동
##이도
한다는
##훈
2013
끌
다이
슈퍼
오히
노선
모양
윤
##덕
이제
오히려
풍
메이
##풍
##어난
자유
턴
했으나
##써
아들
교육
197
발견
시켜
위한
차량
##억
라인
##퇴
##휘
29
수록
##길
게다가
술
32
##스ᄐ
하이
부족
특수
##et
불리
이번
00
의하
대학교
##누
확인
성격
그래서
문화
프랑스
트리
유일
빈
활약
##손
차지
어야
흑
##ol
2012
장비
느ᄁ
관리
##ion
아예
##ᅳ라이
스페
영웅
응
일단
입장
녹
그래도
칸
찾아
##럽
액
##른다
생산
시스템
빛
이렇게
##지어
제국
가진
##클
흔
훈
숨
##폭
고등
뽑
##웨
못했
버렸
##숙
에피
##ᅮᆸ
먼저
심지어
득
##ᅦ임
프로ᄀ
##던
경찰
반대
##디오
계획
주변
졌
거기
넘어
운동
2010
맵
힘들
앨범
자동
##골
획
완전히
조건
드러
데이
우주
기간
사진
##ᅢᆼ크
애니ᄆ
난이도
부대
개인
##옥
곤
##ᅳ려
적용
발동
기능
##ow
##새
지구
뮤
왔
클ᄅ
건물
60
##먼
감소
위원
잃
##nd
##간다
km
##멸
##20
축구
자세
##통령
##튼
##il
내려
##ig
##므로
중심
아야
어디
모델
##ed
실패
견
클리
딸
에이
##곳
쏘
혹은
중앙
선거
라며
현대
35
으로서
헌
회사
덕분
##ᆼ장
##인트
초기
세트
전혀
얼굴
##롯
##너지
작가
##였
시기
##ᅩᆾ
듀
표현
국내
바다
##충
##ᅳ루
##탁
원작
뭐
대통령
패배
민주
##웃
처리
##슈
순간
TV
크로
##볼
하루
데ᄇ
동일
지속
드라마
반응
지방
##익
##뢰
##균
도움
얼마
짓
더라도
인정
##버스
참여
기관
맥
##ᅳ램
애니메이션
출시
##니아
일어나
명칭
##ac
판매
담당
데뷔
##as
오브
##엘
퇴
##BS
##압
정확
##나마
요구
획득
##낸
196
땅
합니다
굉장
##없이
##룡
생활
그렇게
of
시점
컴
따라서
2011
작중
다양
발표
벨
설치
밖에
후보
게이
그룹
상승
##끔
진출
선발
아군
구조
기억
항목
Lv
영어
만화
나타나
가격
움직
쳐
탐
물리
단계
족
그림
##프리
##소드
꺼
밤
특별
빠르
마스터
실력
##ve
오래
어도
그나마
한다고
핵
랑
졸
떨어지
조차
세이
##죄
량
드래곤
아마
싸우
새로운
##릴
01
가져
##욕
야구
죽이
킹
다며
시장
##긴
덱
맛
수비
낙
The
위해서
가족
죠
사고
##비스
아주
범위
##찮
특징
##넷
경제
려는
꾸
시청
방향
##소리
연기
대체
##놓
패치
##찌
##ᆨ트
경험
계약
고려
퀘
드리
##ot
##ᆸ니다
숙
##트리
확실
##웠
참가
국제
딱
디자
에피소드
500
발사
세대
어머니
폭발
묘사
어렵
아르
로부터
오리
##스티
##덤
주의
한테
프로그램
고등학교
80
믿
활용
2000
브라
어떻게
쓴
라서
상위
결혼
무시
##폰
굴
##이드
비판
목적
##효
더욱
준비
했으며
##탕
##못
중간
나무
##밍
각각
##ad
펼
제한
쿨
보호
37
##냐
러시아
45
챔피
버프
##맹
이ᄁ
나와
##스타
##ᅳ럽
##렌
런
라운드
굉장히
이미지
십
웃
패턴
##혔
##채
국민
##궁
히로
##혹
위험
진짜
옆
참조
##답
꿈
유리
##검
대미지
생명
조직
조사
죄
론
싸움
단순
듯이
혼자
과학
밝혀
나ᄈ
여담
린
케이
스피
타입
##뷰
흡
염
어린
으므로
소모
세력
현실
파워
St
느끼
##힌
안타
시도
##씬
제공
욕
주요
구간
묻
불러
흥
통하
율
찬
194
불구
줬
전문
알리
지하
일으
유럽
연속
##칙
부산
세기
나머
순위
논란
조합
한정
포인트
괘
사실상
헬
약간
##춰
나머지
동료
##스크
##어지
##id
70
기에
분위
성장
훨
09
##ay
##스로
무장
여전히
디자인
돌아가
즐
징
분위기
당연히
취급
항공
출전
##트로
이해
90
학년
얘
엄청난
일정
지도
버린다
떠나
규모
등급
##혁
싫
훨씬
FC
##ER
놀
투수
소설
한편
예정
##나라
인구
운행
블랙
성적
##협
읽
지니
##빈
부상
쌍
기대
자연
옥
엔딩
기타
익
살아
삼성
벽
폴
계열
mm
##쳤
스러
똑
괜
02
해결
2009
03
사업
##ch
스테이지
##킹
센터
##켰
틀
##혜
방면
연결
어두
갔
미션
300
콤
가스
방영
최근
못한
의견
튀
으면서
연합
텐
수정
##짝
짧
##us
48
변화
도망
종류
##완
자면
##ir
##드리
이탈
##센
곧
표기
프
잘못
률
칭
전용
오르
벌어
배치
##받
걸리
05
대해서
엘리
195
추정
33
for
탓
퀘스트
2008
발전
벗
##척
소녀
##혈
36
쓰이
강하
08
대화
보였
거대
정상
##엄
직업
끊
안정
척
07
지키
##ur
도중
져
언제
죽음
엔진
충분
스스로
큐
만드
종료
##참
작전
이라
##티브
##파이
스카
강한
수상
챔피언
세상
##ᆫ스
품
나중
##둥
옵
##같
독립
무려
##엇
일행
벤
비행
쓰러
요소
##샤
##ᅳ레이드
랜
캠
느낌
##칠
##텐
##취
수도
마저
녀
당신
메인
HP
굳
로보
##액
보상
에너지
방어력
달성
비롯
전설
팩
보여준
무리
##..
공연
##od
미사
06
력
동물
솔
배틀
##BC
부활
특정
##춘
장착
훈련
절대
##뜨리
렌
##갔
오른
th
##아내
삭
졸업
철도
전기
##싸
요리
##im
##자기
기업
##암
포켓
위기
넓
지휘
행정
싱글
번역
##틴
##륙
번호
근접
더불
제목
건설
04
##아들
만약
관심
아이돌
다운
미래
황제
입니다
내부
남성
버린
##렬
스코
반면
점수
득점
##un
충격
##ut
신경
##뉴
SK
시험
전차
이기
누구
지지
##난다
##ᅳᆯ레
바라
봤
군사
##ᆯ레
목소리
목표
홈런
소재
덤
뚜
나ᄂ
전사
2007
##려서
크리스
##데이트
플래
인사
업데이트
정체
멸
you
##운데
공간
##지션
똑같
끝나
가끔
앤
무대
카이
픽
시설
사이트
타격
셈
로마
브
오늘
34
뒷
꽃
##인물
##즘
다리
##컵
##흥
배경
쥬
빅
링크
록
클래
지정
장소
각성
전작
서비스
공중
##트라
빙
최소
##빠
도로
##큐
항상
날아
브ᄅ
##ro
냉
교체
그만
파티
전국
##닉
맹
분노
무엇
##알
##폐
생존
작곡
북한
##리스
등장인물
켄
정식
부여
예상
##수록
스포
당했
자랑
의원
멘
작업
##붙
##란드
잉
포켓몬
홀
사냥
##디어
##쇄
지내
분류
종족
으로써
밀리
##층
인도
악마
##ag
가리
##igh
소개
야마
##어들
38
##너스
마치
올림피
아파
##ᅳ림
아도
아키
얘기
달라
겸
##ver
단체
혈
애초
인터뷰
괜찮
가수
필드
##ec
결승
##동안
cm
판정
롯
이끌
기계
쌓
클리어
75
연출
목록
각종
외국
했었
하늘
컵
이외
타카
한데
명령
##ent
2006
##ᅪᆯ
제일
초등
##레이
기체
병력
지상
깊
파일
카운
재미
로봇
개념
스타일
아카
트위
55
페이
으려
전반
확정
기동
in
##콘
교통
옛
션
아라
가르
정작
옷
##촌
193
건담
왼
레어
비용
퀴
##다니
별로
##ak
료
##이트
한다면
화력
장갑
올림픽
수행
##인지
몽
군대
니까
사항
가운데
##허
표시
크기
##뮤
일으키
따로
인식
시티
행위
사격
스럽
수치
경쟁
베이
2020
납
이게
사거리
to
##um
깔
##최
빠른
열리
기반
변신
갑자기
저항
감정
',
##쿄
였으나
들어오
나름
포지션
비밀
컬
아쉬
##젝트
진화
가문
이걸
이탈리아
완전
평균
뇌
왕국
##흐
단점
보유
##짓
집중
인천
스티
시켰
코미
교수
##셉
근처
롭
통합
기회
병원
vs
폰
직전
던전
이르
노력
임무
띄
##러스
냐고
의식
자원
전자
특이
칠
국회
설립
탈출
##화국
정의
오버
둔
바꾸
쯤
##윤
압도
나올
##ST
달려
혁
이닝
옮
월드컵
부모
단어
촬
부정
환경
##해서
##em
고양
현상
##ub
정리
사례
잠시
놈
사정
##앗
어째
##비아
판단
효율
시전
다크
제품
##리오
##줄
이쪽
올라가
기다
마르
##튜
펜
밑
극장
치명
인가
구하
스위
일러
본래
내리
라이브
##ᆯ링
##낙
던지
주제
##말로
무슨
##셔
촬영
##픈
더니
##000
삭제
털
##헌
붕
##르트
상관
사무
의외
빠져
주문
위원회
전력
겪
동생
##븐
고속
##어로
원인
주민
갤
태어나
대구
짐
당한
##묘
저지
지켜
여행
물건
지배
제거
널
발언
강제
소련
연습
치료
병사
포기
이건
위력
요시
롤
도전
전개
2005
이하
골드
역대
##째
책임
낸
해군
중학교
기념
##요일
도입
정책
뭔
##섭
완성
웹
복귀
##싱
실험
##ight
화면
42
봐도
유사
고정
려면
도쿄
공주
##렉
살인
##링
루트
의사
아스
음식
41
##학생
##좌
노트
##야마
별명
다루
파트
받아들
차원
직후
선생
이적
인하
히어로
레드
불가
다수
셋
뿌
사기
중반
스러운
꾼
39
##섯
티어
전략
어둠
##ᆸ히
분명
밴드
##무리
마나
##랜
붉
공동
도착
2004
히트
미니
꼭
##모토
##특
비하
접근
윈
시킨
언어
녀석
가치
제도
EX
LG
에게서
정당
컴ᄑ
으로부터
은데
회피
텔
추천
타임
조종
나이트
정규
쫓
밝히
사상
어요
시민
대기
브리
점프
예전
반드
##ce
고자
확장
노리
아파트
신체
지난
##랜드
##숨
셰
##그레이드
업그레이드
맞추
쥐
마사
구매
##AR
연장
롯데
리더
자료
로드
랭크
몰라
스ᄑ
이곳
반드시
폭탄
##os
투표
탈락
타이틀
인터넷
##밥
부탁
장치
단지
##프리카
##시마
앙
학원
가까운
완벽
간다
라이트
미사일
##리어
종교
44
##찍
우선
##ri
소유
닌
형식
해외
고대
##AN
구역
장점
사령
최강
놀라
시킨다
힐
심각
산업
##듀
##벤
아내
##셀
##ula
Ch
금지
늦
시킬
##ON
덴
수마
##역시
탱
추측
버그
펼치
실시
##십
잇
No
자마
위키
마무리
##ap
43
99
대장
##홍
##몇
클럽
몇몇
공포
가사
##나이
하드
생겼
##ᆨ정
노동
##벼
가깝
콜
##and
빠지
모아
2002
연재
이사
끝내
구분
복수
멜
st
검사
달러
범죄
톤
합류
돌아오
점점
##꺼
서버
킬
가드
##쓰
다소
조정
##ᅳᆯ랜드
요청
로스
행사
차례
드로
form
레인
옵션
##탑
떡
흐ᄅ
재료
보병
##꾸
그야
밥
높이
##둔
조작
선정
선언
수많
마법사
##텔
전통
택
교회
잭
타자
걱정
프로젝트
kg
##듬
그리스
종종
개그
알아
47
스포츠
46
##빙
데이터
51
##르크
191
##첩
좋아
##이치
컴퓨
개월
암살
이라고
부하
광고
빨리
형제
##ᆨ시
formula
템
열차
##져서
성향
대중
개최
셔
평범
폼
거두
자마자
KBS
코스
##ᆯ리스
##조건
숲
##덴
그야말로
##죽
실점
포스
한계
모자
스페인
구단
채널
도와
##맞
뻔
대결
올려
설계
##ter
거부
통신
언론
코드
아무리
보조
워낙
생물
다행
##맥
비중
종합
행성
컴퓨터
민족
기지
##털
and
##셜
앞서
전화
맺
한글
무한
보여준다
디스
투입
개봉
해석
무조건
값
##럭
캡
본격
영혼
맞춰
넘어가
뉴스
냐는
굳이
운용
진다
트로
##ul
MA
평소
정확히
실수
엑스
회장
늘어나
원정
광주
##IN
이어지
뛰어난
지적
그걸
였으며
박사
소년
##타임
연주
##ᆺ자
지명
와중
엄청나
##무라
사라지
인상
1000
위협
2003
걸로
##ᆯ리아
미드
멋
##ᅳᆯ링
젊
회의
상징
샷
충분히
##꽃
##op
등록
움직이
생긴
그린
##몽
##ᆺ수
는가
사태
집단
대형
가정
대응
대비
보너스
터미
아웃
카메
자동차
##ᅯᆻ
소비
##돈
엠
##ck
전원
##라인
공사
보컬
체제
바르
페르
시청자
%,
데스
뚫
태양
세우
##되
특유
희생
150
오프
조각
##드로
개조
가면
무사
65
##FA
혐
군단
##ation
빵
편성
네이
봉인
##엔
리어
여름
MBC
마력
밸
흉
##스케
##니스
SP
흘
통과
일종
기자
밝혔
##ra
떠오
트레이
피하
일러스트
프레
192
잊
육군
##콩
간단
##펜
혜
발음
##자리
장군
공항
냈
어려운
##녕
낫
생성
얼마나
##의원
시나
그럼
분리
방문
64
모른다
오리지
##있
II
##오스
##젤
##ᅦ이크
섞
촉
고양이
장르
블루
동맹
드러나
장기
##꼬
하야
함정
오랜
반복
##칸
서술
##튜브
튜
##넘
소식
의도
미치
전환
빼앗
사쿠
분야
로써
디지
근데
앉
갤러
52
불과
유튜브
랭
바닥
영입
락
안전
##온다
##엽
경기도
인한
브레이
괴물
저격
제안
##빌
##텐츠
느리
##리카
##깨
흡수
점령
You
##깐
속하
의지
는다는
그라
예선
##시스
초대
루이
필살
최후
##니티
세요
400
그때
개선
공략
유도
화염
##남도
##빛
나서
숫자
독자
오토
전술
##art
코치
미리
그저
방해
##님
주력
액션
확보
덜
외모
인원
평화
매일
버티
진입
터미널
이론
##니까
규정
데려
관통
VS
나누
클래스
수사
라디오
장난
심하
##런스
넥
##팔
나쁘
49
힘든
##랄
날려
된다는
이치
투자
##ᅳᆺ
승부
컨셉
느냐
눈물
체육
목숨
형성
적극
패러
인류
##ᅳ레스
방패
AP
56
돌리
남기
뭔가
상자
비트
##핑
음반
몹
해졌
모험
시내
사과
아름
왼쪽
적절
핀
한국어
계기
보도
살아남
##풀
2001
함대
구축
##낸다
서브
##동생
거짓
의심
약점
챙
겹
예술
공화국
##롱
역전
##논
궤
인형
##퀴
기원
53
오리지널
54
비디오
카페
##페이지
작성
완료
##모리
...
못한다
##킨
공부
수리
은퇴
솔로
코어
회전
단순히
닉
더블
대단
질문
In
PC
셀
편집
##냈
황금
닮
마침
쓴다
벌이
뮤직
훌
날개
##ᅳ래프트
##바이
핑
모리
홈페이지
덩
착용
와서
필수
민주당
##시브
트랙
웬
상대방
멈
보수
새롭
전하
꾸준
85
해제
##옷
##삼
선보
을지
##토리
랍
젠
엄마
아프리카
드라이
경상
##ia
사단
습격
장관
1990
현장
사장
비난
포르
희망
코스트
났
원거리
##ill
스트리
청소
수원
밴
##ie
재판
뜬
분석
하위
랄
명중
테러
아시아
퓨
진정
에스
무력
선물
##RA
##올
성인
수호
관한
묶
누군
ST
마시
##로드
삶
##덜
모티브
##IA
비고
스파이
콩
확실히
##어진
##몰
행복
경계
저주
감안
중단
태도
겐
가슴
190
##ik
마크
카즈
꼴
임명
남편
공원
기획
핸
쿄
에이스
지식
이루어지
관광
##나다
표정
허용
승강
스마
당해
돌려
쿨타임
장애
수단
오른쪽
탑재
##으니
입히
바탕
본선
딱히
인민
제시
상처
소프트
주도
##무원
##여서
썼
당장
59
롱
##연히
떼
##북도
의문
영역
유래
기점
유우
테마
캔
소울
고통
##라스
테크
리스
보급
미야
나아
##ab
컷
베르
직원
불명
돌파
기어
멀티
베이스
위주
##닥
작용
고유
주목
제압
대답
120
##워드
58
나카
잠깐
주연
##마스
그려
카운터
여부
엉
제기
순서
측면
체계
도서
##est
탯
57
업무
우수
진영
박스
부인
##th
텔레
MP
멀리
어찌
문명
텍
카메라
패스
횟수
##푸
드립
후속
멸망
통일
온라인
##all
버튼
공장
시나리오
지점
거주
갱
케이스
귀족
나뉘
##ea
66
95
코너
문자
가벼
당선
##ᆸ터
##쇠
뛰어나
##뇌
겨우
모으
협력
차별
특기
##잔
계산
소수
뱀
펀
떨
지옥
댓
눈치
약속
듀얼
삼국
최악
브로
춤
뉴욕
찰
가로
##워서
테이
에어
Sh
시체
연계
##머리
딜러
은행
##로스
거치
크로스
빌리
Lo
##ct
살해
좁
ddd
깎
##핀
유키
on
을까
개편
오후
갖추
1999
융
Re
붕괴
잖
틈
배신
제로
게시
대놓
데리
자격
혁명
전해
블레이
자치
봄
날리
매치
웨이
어울
군주
부담
##픽
##라이더
처치
110
##ddd
##드라
dddddd
Sp
자이
컨트로
게이지
1998
괴로
##트ᄅ
됨
미스
##AL
해금
누르
겨울
터지
국회의원
견제
증거
레이저
외부
최대한
군인
장전
교사
필살기
오스
##AT
제조
62
출발
진실
자살
후지
핵심
##PS
##레이션
정권
균
스테
대원
미나
여왕
전장
##륭
조지
궁극
다름
미군
섭
##OR
중화
연방
##쇼
용병
느껴
##니어
마왕
아메
로켓
니코
아침
옹
##래도
##VE
##루스
낳
에겐
바꿔
거절
충전
댄스
룰
건너
한화
타이밍
출생
생겨
난다
유용
공산
SS
부른다
일본어
기분
SBS
버려
이성
커뮤
조준
만족
충돌
고급
브랜드
도구
단위
취소
는다고
블로
애매
교환
지닌
스피드
부진
거래
넷
##어도
##ate
스킨
##나가
##겁
구해
##사카
##멘
수학
흔히
누군가
##ess
피해자
##컨
##라리
극장판
Th
##터리
##ell
카르
61
토스
반란
제주
무게
##광역시
발휘
세계관
얼음
##ard
76
플라
##읍
낼
장수
뛰어
파악
후반부
우려
자고
##ang
끼리
단독
마츠
아무래도
##ᅮᆯ러
모션
레전
인생
홍콩
패시브
공통
##IC
줄어들
##하라
스파
누가
삽
벗어나
기다리
근무
판타
좋아하
##ue
신화
##릉
비록
빔
격투
파라
##아리
아머
한자
##ant
하트
##ack
순수
##레스
프라
자라
##ers
따위
피아
Al
NP
77
커버
쪼
구입
정령
파이터
##ine
88
공군
1997
##다수
운전
72
등등
##톤
이래
혼란
계급
쿼
자식
가입
수입
스코어
닥터
##심히
회수
권력
경력
본부
갓
채용
지시
##세이
공작
근거
탄생
생일
밸런스
변하
그게
해방
비율
##흑
기절
##촉
건강
지하철
언니
##웨이
용도
꾸준히
##가락
병기
표준
갤러리
BG
##헨
타워
실질
돌격
알려져
에리
지대
##ok
##OS
##스탄
납치
증명
협회
반영
홍보
남부
지급
##피아
오스ᄐ
##둑
다ᄅ
아사
대공
강조
입학
be
오오
인지라
불안
된다고
업체
벌어지
온가
랜덤
373
FI
윙
유형
왕자
해진
외교
요원
##디션
경영
or
델
##유키
놔
고서
대륙
감염
경향
쏟
98
제이
fff
온갖
훌륭
광역
감사
페이스
CD
gt
##젠
연대
마녀
춘
트라
실행
장식
##솔
노르
문학
##ive
패러디
울트라
기독
서포
덮
스펙
메탈
물질
600
입단
##오리
재생
가까이
그럴
쉬운
건지
약하
##크래프트
아나
##럿
##바로
스페셜
화살
추진
주년
어차
밀려
집안
고민
내내
설득
대다수
계승
1996
미친
승강장
살짝
사카
선배
기ᄈ
어차피
부문
폐지
따지
##ast
캐나다
##고기
이슬
PS
##AS
영원
정지
와이
대놓고
신문
고기
떨어져
1995
이거
##어리
베트
밟
흰
보물
낭
적당
짜리
##메달
킥
오류
신뢰
사전
꺼내
##멍
연예
작사
즉시
기기
##즈키
갈리
##uby
",
짤
크루
나쁜
룬
전선
당황
##ED
미소
##운다
함선
##tt
##휴
##다지
68
뒤집
페이지
##ee
어쩔
폭풍
쇠
브라질
등판
은근
스트라이
lt
오픈
800
소문
짝
봐야
탑승
헤드
명예
열심히
약한
상품
끝난
화장
입수
레전드
오프닝
무서
필리
별도
갑옷
경유
심리
시행
##딘
##거나
파리
아리
경기장
령
단일
63
##쳐서
마이크
의회
1980
변호
통제
마련
늑
라스
##다운
랩
지나가
##카와
공유
댓글
반격
##ong
틱
##AM
ruby
일어난
둘러
운명
가면라이더
##시오
정류
응원
레오
후쿠
한때
커뮤니티
신청
쓰레
트위터
격파
헤이
##브리
라이벌
사령관
##ort
김성
못해
그레이
주전
고전
기독교
출판
공기
흘러
습득
##툰
열린
이승
##웨어
가이
컨트롤
중계
깃
편의
퀄
##ith
하수
수업
심장
숨겨
오해
##친다
넘기
불만
신고
끌어
마인
마주
흔들
두산
울산
##아먹
71
##if
74
관객
당한다
본다
외국인
카나
정말로
##나무
전함
보정
주위
##ly
러브
##fff
건축
출장
##아버지
##났
....
용어
MV
랜드
##ld
향해
때려
그곳
전달
닿
73
여론
67
메이저
ffffff
민간
내놓
사운드
절반
##피스
우스
조치
##티컬
메리
지형
가졌
가토
물러
갈등
여신
##도우
붙잡
임시
##ᆯ릭
묵
무적
즐기
##학자
재능
챠
가득
클로
아오
전공
둥
없애
압박
NC
카라
##ain
리버
##가와
별개
나타내
엔터
뿌리
초월
##ist
96
알렉
오로
종점
연구소
요새
네이버
##묵
##쥐
스튜
##멀
1994
##ind
안드로
북쪽
##놈
전형
추적
팝
두려
##따
TH
그다지
메타
##ᆫ가
시각
돕
180
탁
##ᆷ프
컨텐츠
남쪽
플ᄅ
디아
낚
늑대
메가
보장
원수
##렴
발매되
로운
이란
AC
돌진
시야
소멸
##서트
판타지
쉐
걷
81
AT
##팩
먹이
결승전
샘
전시
따른
움직임
클라
타점
넌
든지
##크리
다행히
파이어
곰
일부러
무지
##per
잖아
동기
불꽃
서부
그만큼
동네
환자
##듀서
프로듀서
##ps
강원
##지컬
##EN
여동생
문제점
화려
화이트
##츠키
##봐
드러내
그림자
선호
왕조
동원
이마
폭력
상향
아티
께
파이널
회원
대만
본명
치명타
유비
유로
북부
정해
신세
##EC
자는
신라
소드
78
잉ᄀ
##식간
들어갔
91
강해
##크로
##OL
##콤
수요
순식간
##어스
연상
무난
##ew
도서관
아시
##ᅥᆷ프
##텀
맘
향상
전역
메시
그런지
매력
학과
종이
차트
아가
전적
변형
##더스
아무런
엑
최상
헨
전방
저런
부품
##팡
84
CP
체포
영토
성과
일상
수집
붙이
크리티컬
암흑
전투력
게이트
##사키
코믹스
팅
테스트
플로
시드
영업
##LC
마술
##녔
me
인수
토모
##ry
수용
됩니다
조절
파견
드디어
꺾
폭격
의한
복잡
학살
유전
복장
아우
82
대우
어쨌
떡밥
릭
취하
##lo
입력
##납
구현
때리
편지
##껏
##융
개통
생명력
낸다
호환
오빠
현지
97
니시
추락
신인
사자
천사
도달
고향
콜라
빨간
동부
닌자
사토
네덜
청년
네덜란드
86
##찾
창작
반지
경비
점차
작동
맞이
콘서트
##ᅥᆼ이
연관
떨어진
토리
프레임
교황
##일랜드
한국인
쓰레기
수송
출현
##캐
노예
스톤
기초
바이오
키우
사쿠라
덧
짱
모바
추격
아트
it
해체
해설
69
객
##퍼스
다시피
##어버
몰래
지나치
여서
땐
조용
구도
보단
충청
##ᅦᆯ라
의상
걸려
심판
엘프
간격
공급
녹음
##노스
키스
나루
진지
is
주먹
##모로
##히로
식물
아무것
퀸
막장
시위
조성
NPC
겟
프리미
##디아
전투기
가리키
조조
##ᆷ새
##IT
제자
연사
브레
##둥이
수술
무효
스마트
어리
연애
검색
슬롯
만난
실드
향하
감시
##타로
스카이
레스
US
그래픽
일제
블록
##오프
꼬리
아이스
법원
동쪽
##특별
마리오
거쳐
마스
경험치
구체
MS
##ᅦ이터
고교
옛날
까다
받아들이
붙여
##오카
An
통상
총기
김정
무르
뼈
카미
범인
누리
룡
##워하
알려진
구속
긍
베트남
라이더
킨
##ust
신규
신분
대립
버릴
장교
은하
연락
끔
어깨
국립
예외
할지
쿠키
앵
##주시
##칼
##럴
250
몰아
KT
마리아
##다고
강의
아닐
인근
해진다
입구
탱크
지도자
신성
뷰
다섯
차단
규칙
##50
글자
되찾
불편
대대
##뜩
메카
이랑
불렀
겁
마도
훔
올라오
평타
창조
##헤
요정
언제나
올렸
박살
코인
바보
안습
총선
##에도
##ᆼ이
드물
유희
모바일
동작
당할
##도로
토론
옮기
후기
##밀리
전라
##ᅢᆫ스
##비전
##홀
여러모로
환상
들이
189
사라졌
거짓말
노출
이리
기여
의료
샌
##파이어
권총
세월
소총
리아
이득
푸른
에드
농구
어택
##즌
##자키
일원
상하
다이아
자이언
무료
신호
##렘
편하
블레이드
202
서쪽
##영상
이날
1992
##버트
부위
출처
음성
정복
개혁
미술
키리
폭주
##깔
극단
잠수
##와서
고생
92
##옹
헌터
##BO
##ore
어쩌
##싼
##저히
##ᅢᆼ이
간부
겉
Ar
참전
반발
전직
교전
고용
무너
투어
대체로
들어간
양산
일자
밀어
보석
길이
고문
폴란드
대량
연도
상점
83
글로
렙
라이프
제법
호평
상상
제어
사마
동영상
수영
정류장
##레나
승격
마루
전대
Te
출력
아프
##보드
날아가
사양
합격
89
기습
##FF
101
터치
93
1993
공학
잉글랜드
지휘관
북미
De
MAX
##준다
제작진
기병
윌리
촌
득표
중대
쟈
가시
앱
94
요괴
잡히
합성
미디어
##크스
머신
환승
보일
인증
널리
법률
com
부수
79
적어도
죽여
탄약
브루
조심
가량
박근
런던
##일드
회차
구출
매니
요즘
스태
탱커
##FC
파일럿
의혹
##ᆨ시코
##타인
원소
띠
re
더러
활성
동방
유령
포탑
하수인
##로운
노멀
삼진
침공
트레
밝혀졌
믹
분기
87
디지털
하고
의무
이재
마이클
##란색
톱
개정
서양
알파
가톨릭
묘지
인공
빠진
돌아다니
가게
부리
홀로
볼넷
이슬람
똑같이
네임
첨
사이드
가속
다면서
치가
결성
##one
ᆫ다는
예비
대략
스웨
학자
들어간다
On
여겨
이자
히데
블러
치르
패널
##쩡
경고
레인저
쾌
##우드
계정
##폼
쓰인다
보고
##se
##다른
축제
##ip
헌법
소화
전면
이내
아일랜드
귀여
##거운
##AC
부부
AI
DJ
썬
특화
##RE
익숙
용사
상호
횡
캐스
갤럭
이시
드ᄅ
##ere
고르
##먼트
문장
블리
그로
바이러스
메모리
워치
근육
대항
람
불법
##PG
BGM
MC
슛
플레이오프
베스트
도망치
SN
자매
떨어진다
유행
한방
줘야
개체
어지
##리티
##ity
도발
쿠로
타케
어린이
##붕
##ath
김영
##녁
핫
삐
##창기
고지
보안
핸드
육성
걸어
##넣
일시
예측
##륜
예고
냐며
##닫
소닉
빗
제임
자금
갤럭시
총리
루시
살리
맞서
##컷
슈트
스크리
검찰
##달리
취임
멕시코
신기
FIFA
터키
마냥
정면
결론
사제
형사
길드
##end
나와서
##조리
국방
만났
리스트
스톰
고백
1991
루타
구멍
파크
식사
쓰러뜨리
통한
마구
아기
##어져
리치
세이브
호텔
통해서
곧바로
##컴
레이스
상업
이명
감옥
여유
!!
##펙트
저장
번개
절망
개방
제임스
부서
##렀
진심
원자
투구
찾아가
사이즈
구원
나갔
대가
유대
볼트
초창기
플랫
세르
THE
700
타마
FA
##고리
피부
너무나
바위
배차
##워크
##요시
박정
청소년
오랫
팀원
웬만
흥행
으니까
강철
엮
여지
럭
카타
던져
씬
그레
콜로
무언
착각
좌우
##특별시
전철
리ᄆ
##구리
아쉽
1988
파트너
발달
##티나
세포
리메이크
스미
MVP
##톱
왠
소형
어울리
처벌
그동안
서울특별시
이즈
현역
##쾌
레이드
신설
올랐
관하
긍정
험
주식
융합
##데스
훗
##네스
주간
써서
일지
외계
##로나
분량
아빠
차라리
프라이
달린
정착
Ro
위장
잦
미카
살려
가볍
##OT
인정받
반사
돼지
챕터
합의
##디언
식민
랭킹
그랬
내성
##성기
정하
내주
##스키
봇
목격
쏴
알레
인연
누적
사우
협박
전문가
내장
장악
##다는
단장
게스트
의뢰
화학
빌드
CC
방지
에서부터
포스트
펠
사신
립
에다
브레이크
잡지
줄이
박근혜
Wh
흐르
몰려
심한
해병
영향력
공지
곁
크라
논리
방출
안드로이드
동의
태그
국왕
방사
는다면
AK
##삭
시즈
대지
타이거
그럼에도
빨라
조약
그대
뭉
각자
끈
요코
배트
한번
룸
관할
저녁
지능
##ect
##ᅳ르
멍
##다이
DLC
실버
골든
하필
국군
htt
라면서
통치
대폭
Se
1970
된다면
야스
흠
의존
##롭
최소한
양쪽
도우
놀이
아크
손가락
토르
Le
악역
마침내
호주
스프리
스턴
스리
동화
연맹
과목
변호사
##김
닫
공무원
무언가
유치
'.
후속작
막차
기구
수련
수수
본작
이뤄
무역
소지
드림
He
면역
돌아온
보관
소원
오랫동안
무덤
PD
빡
##age
##지마
오사카
웹툰
주말
역임
오카
##IS
어쨌든
귀신
##바라
육체
연인
기원전
al
혐의
해리
스튜디오
일어났
썩
내구
명중률
##끄러
확대
셨
재산
카오스
접촉
호감
불교
노부
적대
기도
대리
kt
##잡이
대처
깜
네트
명성
펼쳐
플라이
써먹
강남
##다리
태평
익스
계단
올해
전후
Go
비행기
연료
넘겨
예능
정비
Me
으론
출마
모이
간혹
슈팅
테일
윌
##페인
##윈
오늘날
합체
딘
트레이드
##아지
예ᄈ
화제
컬러
모모
권한
정치인
마키
부장
뺏
##어날
한지
흐름
정원
섀
퀄리티
개성
츄
소장
로즈
리드
시마
바라보
체인
지우
안내
학부
이지
오전
게시판
GT
준수
휴대
접속
저그
수익
권리
1989
KIA
빚
특집
더라
연극
##og
외형
금융
##ake
칼리
##ide
끌려
박물
하우스
갇
내려가
걸린
선전
트래
옮겨
김태
새벽
고마
허리
상당수
윌리엄
톰
##OM
Be
피격
이집
My
초간
나간
이집트
카스
WW
무렵
공공
##미야
뻐
##흡
주기
오스트리
환영
편곡
페이즈
떨어졌
일기
130
최다
둘째
시계
금속
포르투
보냈
플레
소스
나치
넉
고구
AR
메르
##ss
원칙
싸울
으려고
결합
SC
##ark
림
##ime
숭
연타
##ire
##구치
누나
알렉산
SM
편입
식당
리얼
할아버지
유물
개입
한동안
문재
캠퍼스
인조
어른
매직
렛
##세스
웅
지진
거인
188
전신
소중
아니면
극복
wh
116
블로그
전진
시선
성립
영문
##듭
my
Su
딩
##ES
정찰
사도
은근히
멈추
회상
헤비
정글
아바
주사
바리
기사단
##스턴
SD
협상
캐스팅
메뉴
궤도
뜯
갈라
스웨덴
##ID
깨닫
시내버스
##셰
팬덤
Tr
음원
부디
유이
튀어나
는지라
대개
작곡가
손해
##ite
그건
비싸
##던가
합쳐
오가
대충
독특
재단
수십
동굴
가하
우위
더더
보라
안티
복무
##아시아
우라
고수
민주주의
용기
외치
식량
##부르크
트럭
160
빛나
뱅
젤
교차
종목
세이버
이익
해안
##회사
미라
처형
##ound
##맨드
조언
##겐
일찍
멀쩡
SR
이렇
클래식
과제
리듬
이끄
드레
하얀
위상
##iv
##닌
원본
더더욱
##ᆺ지
HD
쉴
''
커맨드
펀치
##가스
신비
나아가
김민
##베르
타인
박물관
힙
보낸
##미니
신부
눌러
##가미
##iz
##OP
삼국지
훗날
##ge
##마디
증언
해적
다를
갈수록
멘탈
날짜
허나
절대로
천재
적군
IC
자국
꽂
일격
마비
내세
신앙
위원장
구사
##OW
채우
아름다운
올린
##으면
노인
각본
이길
재미있
무릎
코우
중독
느라
##큐어
기적
재정
죄다
세종
주포
집행
양성
구나
슬로
스승
튼
철학
하락
참석
가져가
마이너
지위
어떻
캠페인
과연
비례
아닌가
정수
개시
##팀
호수
예산
결코
국적
적응
패션
호위
교류
관중
비해서
뭘
작화
##렛
##큰
크리스마스
남겨
한참
##쓸
탄창
깡
매체
##가리
이중
##LL
열쇠
##덩이
안경
히메
시아
앞두
##ome
줄어
활발
##프레
데이비
경기력
Gr
##쩍
펫
##ᅮᆫ다
선출
투명
십자
툴
##테르
해상
상한
바퀴
안타까
with
냥
우연히
김종
루수
체크
##BA
희귀
명단
고리
녹색
##UN
충성
화성
##리스트
##리그
진보
곽
미안
스타크래프트
왈
피스
헤어
져서
들리
원주
이영
원하
칭찬
개수
칩
잡혀
사막
개막
돌아왔
첫차
주일
##아웃
결말
IS
위대
헝
행적
전성기
##몬드
미츠
기아
모래
죽일
렉
제정
세워
당일
인지도
흔적
크레
꼽
들어서
1987
상급
##돌리
기종
챌린
후방
업적
##플레이
오스트리아
de
미터
강점
어릴
BE
px
임대
상성
140
농담
어려움
어지간
김동
포로
웃음
##스라
사유
계통
몰랐
##ᅳ란
켈
대수
##MA
Pr
##블리
들어갈
버스터
재현
대학원
취미
면적
모여
무작
매년
##ord
스프링
Love
못할
비상
오직
토끼
바뀐
체육관
클릭
심사
##ud
일반인
포항
으라
고스트
펑
개량
##치기
사후
##닉스
신장
나갈
거점
프리큐어
돋
첼
생존자
유적
이정
##값
남북
켜
강도
헛
자책
흘리
과장
ch
본체
모조리
##양함
##빨
자본
어마
자극
괴수
덧붙
예수
클레
이주
##코드
죽인
닥
가을
##mp
부지
##케이
휘두
파츠
##사자
ᆫ다고
화물
##데미
스탠
##10
부작
저작
전멸
나눠
불린다
##ame
맥스
기용
소위
나간다
UE
선고
##멜
##ance
아메리카
캡틴
연금
별다른
추구
##티아
아티스트
새끼
SKT
##ax
##카드
인격
흥미
자세히
an
가짜
출입
판매량
JR
공세
##ure
아카데미
뮈
유나이
유니폼
지켜보
꽈
##ix
텐데
900
일치
차기
GS
로그
승점
채택
무라
포격
##뜻
공룡
일방
단편
으러
태어난
유나이티
취향
아쉬운
아미
##ick
소송
##mer
스마트폰
도주
포드
집어
탈퇴
코코
늘리
꼽히
일본인
##지로
##ice
부자
막대
사형
여야
연패
프린
할머니
기량
색깔
타율
##둘
바까
피아노
바깥
로고
##힐
로우
귀찮
##our
제작자
한마디
Bo
유통
건조
썰
코리아
상실
##이즈
타선
화장실
드라이브
구경
후계
치유
아즈
온다
마린
라이온
영구
적혀
몽골
측정
EP
닭
노벨
##나미
식민지
비주
요금
햄
##시로
##맛
자전
보존
1986
쳤
##펴
거듭
##보내
##시타
나타난
##공화국
##보이
선택지
쌍둥이
초코
잠재
1960
아이콘
가요
OST
상인
심해
##든가
무방
레디
##켄
찢
쵸
커피
훼
강요
풀리
##코토
레이더
메시지
인민공화국
KO
올라왔
##{{
Un
간신
언스
초보
이민
##고속
이슈
통산
##드러
팽
찌르
동력
가상
고도
릴
Ex
아요
포수
어드
신사
도끼
##얄
넥센
조연
색상
숨기
피터
##AD
캐논
명확
오타
##듈
몰락
연승
##qu
##그마
주택
화재
사원
꿀
여객
##멘트
루카
교장
어째서
네트워크
주소
타락
곡명
귀환
##oc
가루
어스
베네
헐
##ᅳ런
냄새
{{{
외전
내지
불타
기울
쟁
벼
콜라보
##반도
유희왕
모토
나포
제갈
말리
달하
실망
판결
##80
소라
이브
##시스트
남녀
칭호
##카리
괴롭히
GB
대선
담배
퍼지
블라
경로
힌
레알
수장
##핵
UEFA
##스틱
항공기
펄
이터
스페이스
광역시
핏
위반
몰라도
##플레
깔끔
매니저
포르투갈
DS
고구려
채워
타수
연합군
186
##own
sh
##ys
##오르
들려
발라
반동
##렁
아마도
라인업
##가시
순환
CPU
##노우
혐오
##나카
브라이
교실
스터
영주
떠올리
항복
법인
오라
백성
커다
너희
관찰
복지
등지
뿔
타운
잠수함
##ber
미스터
단단
비서
주역
주자
적합
캠프
배터리
낚시
매장
수류
시노
거미
##ᆫ다는
We
스와
관람
AM
사라진
릿
예시
유효
강원도
딴
커리어
드래프트
##괄
데드
히어로즈
##저스
챙겨
가해
105
벌레
공성
공업
##av
글러
아쿠
##OC
트라이
흑인
하단
인치
유학
댄
아끼
##쌍
이스라
엿
튕
##데이
승객
고개
##old
지르
예언
용량
##정부
김재
동성
.."
고작
##땅
본사
##아나
상단
줘서
##슬리
승률
국경
##일보
추억
소프트웨어
CF
면모
천만
마약
포위
휴식
서구
티켓
치킨
관측
LI
철수
수출
일대
첩
그러니까
##긋
##orld
도적
##랑이
곤란
중립
자폭
카운트
생략
개국
표지
적당히
##섬
성남
수류탄
모를
터널
상술
비싼
턱
변환
##일러
음모
들어온
##곱
조별
클랜
마드리
기생
좌석
허가
합병
다름없
추종
##위대
형상
윗
소대
사이버
실전
되돌
##늬
정기
후술
주어지
아랍
문구
김대
내전
마드리드
읍
통계
1984
디스크
보험
메달
인종
차이점
마디
##머스
넘치
##ont
1985
글로벌
최신
근본
복구
숨겨진
지경
입지
언더
액티브
사명
타로
연예인
187
서포터
증오
SH
지뢰
후손
함수
이스라엘
스트라이크
용서
아시안
후배
맡기
에르
구석
##프라
오크
3000
똥
사정거리
위성
일족
시너지
대인
크리스탈
오마
망치
AD
##ies
허락
LC
기숙
고위
스틸
DF
급격
자막
그랜드
즉위
모노
휩
리타
숙련
태어났
논의
##죠
하차
전주
부각
약해
텔레비전
공방
lo
KBO
행보
어뢰
미묘
경주
봐서
골라
물려
나타난다
굿
이수
토벌
##하면
쓸모
모니
감각
발행
해피
이른
컸
든다
네요
##타이
언덕
서식
It
뻗
왕위
았었
이겨
##lay
연령
특전
XX
준우
씹
중첩
##넬
태평양
부딪
취약
가만
뜬금
구글
후원
게리
오랜만
제약
쿼터
블러드
루나
##어마
아츠
노동자
구슬
무척
침략
저렴
정화
간신히
##자드
총알
기관총
##OD
침입
##그리
세븐
MF
드롭
간접
일본군
생년
파르
들여
##US
아르헨
기뻐
방어구
구리
히나
워커
흡혈
분쟁
싸워
법정
입대
까진
제트
헬기
이루어진
학습
혹시
균형
전이
드럼
살펴
맛있
가동
아테
CV
느린
가져오
진압
강자
이스
카카
산하
이젠
WWE
만날
##눈
.....
사귀
##PM
아르헨티나
##ann
잡아먹
곳곳
밝혀진
찬스
공용
텍스트
소방
평생
양자
따라가
여우
분열
네오
NE
도망가
아이언
SE
어마어마
주차
부른
자이언츠
##40
관점
중세
인디
신전
##낼
약화
악당
금방
정차
아포
125
##pe
걸쳐
##첨
이토
거울
##30
##뚱
포트
트랜스
애정
부적
페널
결심
루비
지리
나리
가라
남겼
경상북도
##픔
딜링
반전
제작사
격추
옳
제출
느낄
상기
##네임
성당
앨리스
이어서
어려워
##sh
연고
쫓아
올라온
보호막
your
이혼
부러
크림
스팀
노스
통화
라기
토너
##NA
호흡
표면
폐쇄
걸치
코르
##배우
뎀
사령부
아저
금액
나선
어라
결전
구축함
엘리트
간주
##마크
히토
악화
저택
보완
뮤지컬
미즈
창원
구름
이식
리온
##크라
인권
얻어
아저씨
몰리
지라
충실
##VD
채팅
스크린
CJ
김현
선거구
생긴다
멜로
AS
분해
용인
상관없
##츄
더군
참모
아까
전파
초록
열매
주둔
느려
##라이트
지불
DE
도라
인용
하루카
##ᆯ라이
유력
##은행
암시
대왕
천안
##키아
##ng
프란
##io
긴장
정예
교과
남아
##천시
흩
토니
동양
유발
문재인
서서
보건
존재감
헨리
성별
모자라
공정
##뛰
우에
##셋
경남
체결
릴리
로리
시인
배포
학력
상세
소유자
벌어진
##그라
남긴
수석
시라
선보이
커플
후계자
;&
악기
접하
머물
##짐
답변
드라이버
겹치
짜증
상영
##oo
무너지
토너먼트
원리
재밌
수호자
도둑
사인
전승
로이
엑스트라
악명
행운
개설
호기
로버트
베리
170
이듬
도박
Pro
언젠가
구미
본관
업로드
잔뜩
미쿠
테라
기인
선두
##ᆻ다
플리
에요
은신
불사
기숙사
##틱
##싱턴
##월일
##ave
뱀파이어
만남
양식
실종
교도
중량
에다가
막히
지팡
##포트
저질
요인
백인
##걸이
쭉
탐험
##LE
정황
기운
부임
임신
난입
중력
아동
처분
대책
임금
동점
비아
놓치
LV
관리자
캐스터
미키
디지몬
큐브
심심
사라진다
##번트
잡아내
##베이
방송국
that
논문
야생
칼날
UP
항의
##릿
관계자
생년월일
해명
백작
돼서
시카
유독
탄환
분명히
##센트
베타
##우마
호칭
##슬링
복합
늘어난
도루
서번트
카와
금메달
말투
윈도우
##ION
동명
##ᆺ갈
생명체
문단
진주
써야
자녀
##ream
와일드
패키
할인
법칙
수백
가방
##엣
다이아몬드
씌
려던
발렌
ED
1500
단축
뿜
절차
정통
잃어버
EN
해골
분신
외계인
무관
잘라
영광
기상
루이스
운동장
하향
온도
시합
##슬러
라틴
이듬해
멋진
피할
주술
##드레
닛
분대
인력
프로필
리뷰
무서운
##ond
##스틴
알려졌
창고
1982
밍
->
데몬
딜레이
부스터
기름
이온
왠지
리오
끔찍
광장
로얄
##란다
플래시
##게임
미네
##팩트
##iss
Com
5000
막내
사살
의학
기둥
조리
빠졌
자르
창설
뛰어넘
보드
전동
니스
건국
성질
전북
셜
조이
##메이
한쪽
유인
공허
체험
레딧
장인
부사
퇴장
나마
그렇지만
물고기
유격
존경
집착
민첩
커녕
울프
우정
##운서
쓰러지
삽입
디젤
아나운서
##탐
걸맞
상식
알아보
##에르
##즐
참가자
아키라
승자
1950
##블린
살아가
공산당
##카이
##IP
##11
내려오
귀여운
창단
요약
마신
휘말
시상
감지
시원
작년
쏠
진학
시공
모터
솜
나타났
증상
그램
전제
독재
천하
마블
수면
조기
1983
하츠
애플
의장
불펜
##60
학기
커다란
출구
신지
##ian
복제
??
by
##소녀
오디션
##도르
he
싫어
나츠
둠
웨스트
샌드
갖춘
유산
힐러
망가
비전
덩치
##커스
##이어
철저
선제
발굴
가공
##룩
여주
BL
하이퍼
단원
투스
스위스
깨달
유전자
스폰
&#
반박
##유럽
go
그럭
레지
엔젤
트럼프
맷
항구
탕
타석
리스크
미만
##세대
돌입
##저럭
안녕
꼼
갑작
코트
중형
스쿨
콘텐츠
스위치
##티스
다카
비주얼
그럭저럭
싹
사법
주니어
##쟁이
곱
노바
##Hz
통로
준우승
배정
##TV
돔
수명
백제
##놀
마스크
사용자
대거
어필
히라
##앤
이드
출격
이겼
기재
휘하
상륙
라이플
논쟁
웨이브
럼
정교
이펙트
본진
단행
슬래
대조
자전거
가죽
##투스
커지
배트맨
보충
였을
얀
토마
팟
##ory
딕
신도
##베스
훈장
호소
##우리
##TE
시리아
회담
스트레스
식품
##필드
격차
국장
축복
빅토
인질
##ace
##rom
케인
코미디
휘두르
Co
##늄
##다나
##세서
아인
가려
실책
##틀러
폴리
근대
완결
위안
Bl
옹호
학문
파편
##카이도
태국
평양
지사
공화
유기
저지르
마우스
##레이터
라니
다닌다
;&#
트리플
경전
공립
##누스
갈아
워싱턴
두들
팬텀
오키
부근
동인
적중
DVD
가르쳐
##필더
승인
미드필더
Br
원문
보인
토지
침묵
소음
다녀
##팬
마케
메이드
##부로
소요
기갑
기동성
##끈
경직
플래그
부실
Or
중국어
세부
##뚝
달라지
께서
따온
##oth
와타
내렸
근거리
우르
뱅크
축하
배출
##ows
내각
막판
결투
경상남도
##ᅲᆷ
보이스
##산시
복선
시신
오염
트루
솔직
파동
떠났
방위
##MP
##춤
연습생
마감
동계
남매
리카
머무
비치
수능
디즈
내일
삼각
루스
간단히
먹히
차체
과학자
후퇴
동급
기후
그치
##잠
고객
임기
날카
##TS
철거
죽였
센스
넘버
##빵
우세
슬라이
##먼스
헝가리
무작위
수급
왜곡
상담
학위
손상
롬
##화점
##신교
##든지
국정
##무시
노조
한반도
노려
괜히
지향
규격
무인
스케
##IG
영지
장거리
야수
안개
##곽
가르치
##셔널
램
CG
약탈
마법소녀
일당
해치
중시
하마
##주교
기세
무사히
##그나
##경기
##aw
해요
선행
185
고치
##하마
##잘
토크
라라
유성
요한
##텐도
닌텐도
패키지
##딱
##에이
최상위
멜로디
장탄
킬러
싱크
과도
콰
##포르
미나미
물러나
야구장
##몸
간간
신발
대포
세인트
부를
양상
록맨
성전
##ale
SNS
출루
카츠
프리미엄
지칭
타쿠
그날
즈음
골키
둘러싸
변수
개발자
##아키
PV
들어왔
스트리트
다룬
주류
올릴
##ike
대치
모데
독일군
벌어졌
개별
페이스북
후자
##하시
무산
특별히
더군다나
저러
여러분
영원히
##들이
임팩트
놀리
사키
##밋
전망
장사
초인
1945
##틀랜드
입주
물체
Cl
챌린지
집권
데모
벙
업계
바디
농업
모로
챙기
For
무시무시
군수
부착
원조
흰색
했으니
데이비드
동남
##야수
암살자
첼시
매번
RPG
틸
나미
왜냐
청주
만주
시달리
##OU
중복
브라운
시비
펴
##자와
Dr
질병
오이
손실
휠
야마토
틀리
최적
악몽
##바닥
서서히
필리핀
챈
##ep
선조
바뀐다
취득
##irl
##man
피트
폭행
핑크
동아리
구할
##ach
##ile
175
동경
수비력
리프
1981
Sc
인방
BB
틴
여인
##여객
호랑이
어렸
골키퍼
OP
##ᅳ렸
해양
부동
올스타
서클
어이
구별
102
##공항
잠입
헤르
117
지팡이
##ᆯ레스
꿰
걸렸
고장
진격
인피
시켜서
파생
##12
Team
106
배역
라우
칭하
잎
교토
룩
선보였
##VA
LA
해킹
물량
##철도
##ink
플러스
Sk
선임
일람
파울
제독
리라
퍼포
신나
의외로
사회주의
굵
Mo
체인지
퍼포먼스
어딘가
끊임
페널티
직장
GP
카를
합계
권위
중장
가만히
##뇨
국당
기호
##킬
레코드
공수
청와
DD
##데드
마물
무술
115
응용
싸웠
김경
세팅
메이커
사립
캐릭
데이트
코난
못지
팡
##어진다
원형
쌀
제네
웰
이웃
평점
이종
약물
가디언
기동전
주행
귀국
언데드
신입
최우
연산
사라져
쓰였
##ial
스펠
FM
##승부
나비
풋
청와대
##아이
아닌데
밀도
투쟁
캄
개장
##토스
##킥
##ish
엘리자
장로
국어
당대
에릭
SU
파란색
1979
서기
빌려
후임
어두운
여전
에디
긴급
집합
UN
이와
일으켜
만만
반해
쏜
냐면
끝난다
배달
엔드
카트
며칠
징역
챔피언십
억지로
스파이더
프로토
건가
포즈
오스만
선사
끼치
테츠
합리
쇼핑
개신교
분포
권장
오우
장신
김상
기장
행방
발리
추방
##ower
택시
저하
천연
공백
회색
감동
##네시아
갑작ᄉ
안양
전무
크ᄅ
해산
은지
일화
궁금
프리미어
연구원
독점
증폭
신자
수동
##플리
##슴
즉사
모스크
확산
##II
명의
관여
야간
주관
Bla
면허
교단
걸린다
여학생
공인
방치
스캔
재회
임의
##비치
모집
폐기
듀오
##블ᄅ
##하르트
빌딩
유미
##오루
##앉
대단히
조상
혼돈
이글
라이너
만일
명백
김진
##GE
전남
썬더
몫
##운동
##블로
프레이
코멘트
감상
아레나
캘리
미루
바둑
성경
렌즈
눈치채
버섯
사무소
줄어든
CH
처지
떠오르
매출
다녔
도마
##늦
분당
we
풀려
찾아보
캐치
고블린
자비
피닉스
##벌레
스즈
##ᅳᆯ란
발목
토시
돌연
BS
##IM
출간
조명
타이거즈
처참
Ne
##!!
불량
Star
벨트
오메
장미
광산
닐
##ᆯ로그
깜짝
광선
박지
고인
로빈
승무원
김기
동해
리코
이루어져
전라남도
구성원
드루
륜
포켓몬스터
비웃
시트
상관없이
복원
PR
해머
우월
고소
실장
ID
##거지
##듯
##언스
밝힌
우주선
고로
##벳
질투
히가시
목사
쿠라
스타디
되게
통틀
하인
평일
계수
##히코
간호
지연
난사
와카
##번에
배급
##쿠라
지냈
Wind
미국인
버드
수색
드러났
화산
350
라이온즈
닝
유출
협정
##99
유언
##벅
아름답
세리
파이트
수립
탐정
엄격
시외
조롱
늘어났
up
##라기
풍부
무스
##전자
붐
스탠드
자꾸
우유
운수
서포트
LP
재학
파멸
심의
찾아오
DC
골렘
한두
우익
##카락
국무
산맥
War
머리카락
메이플
fe
체감
And
살펴보
정발
뤼
스텝
시바
친한
의자
호시
검술
온천
##체스터
도저히
##ass
텟
드릴
받아들여
떨어뜨리
##바르
당사자
청구
치열
나기
모험가
귀엽
말ᄊ
합동
##브라
육상
토미
##타카
알라
포장
치즈
국제공항
뒤늦
사이코
##ms
반부
##me
키타
젤리
시사
360
Man
터뜨리
레일
소용
##뜨려
실내
커서
이라크
오로지
오니
다운로드
본토
나빠
112
마코토
축소
기력
권유
특급
조용히
극도
에픽
규제
디즈니
승진
터져
배수
##gh
따뜻
트릭
톨
우치
##CG
세라
낙하
비명
루머
108
루크
##가드
##뮬
러시
##도리
All
려다
AKB
흔하
나노
티아
##tle
하계
니아
##pp
##ble
##amp
세웠
흔들리
그만두
충청남도
반감
범죄자
바르셀
지인
루피
오락
출범
바르셀로나
##를린
처하
넨
스테이
비유
우즈
##ft
지목
여섯
떠난
수직
##스리
뮌
##느리
베이징
페리
알아내
안쪽
속한다
토큰
##농
간지
중지
단종
##궐
##ᆯ러스
일요일
103
프렌
수월
경북
세금
탐지
폭파
황후
능력자
이걸로
전당
##슬라
협의
바치
바니
크리스티
리즈
어시스트
##yle
스타디움
서머
##70
실은
이글스
여파
##ous
중순
물품
직선
미르
실현
배제
조우
신데
##사이
모임
##졸
##now
베테
##atch
##sp
신학
막아내
리버풀
카구
불행
사리
분산
##튀
부ᄉ
그래서인지
극한
당당
조커
One
앗
타르
다스
Mar
망했
아가씨
모듈
##orm
수염
미미
생전
손자
김해
평론
얻어맞
캐시
토키
유의
신용
New
To
##뚜
ON
명문
퍼부
엑시
거북
기묘
바꾼
드론
추세
바론
여고
무승부
ex
타일
체중
막상
낙선
##스티벌
나루토
나요
진상
페스티벌
##버그
수비수
IN
경악
진이
토요일
던가
BR
올라갔
맥주
하프
##민주
##구나
천문
까이
Part
##우치
스미스
돌아와
수습
엽
친해
태풍
메일
가난
더빙
채보
KR
기수
마카
연봉
함락
향한
김용
Gam
할로
##쿨
강등
##렐라
비극
센서
넬
강사
시로
알바
되살
SF
주최
후회
비틀
실리
패전
힙합
홋
##ING
바꿀
대성
극히
##쉽
집어넣
잠실
산탄
고속도로
CS
좌절
적자
엄밀
국판
듀스
명목
배려
동반
쓰여
팁
붓
엎
끓
훼손
스핀
꽉
인접
유망
대시
무섭
노가
실시간
세운
개척
코마
##ment
구르
철권
리가
기부
PP
나르
그거
##방송
에로
추리
에반
사무실
##ae
바스
반짝
케이블
야쿠
주체
늙
##64
하여
128
##더라
뻥
원시
스티븐
압력
##펠
상반
고증
모스
장탄수
꼬마
캣
가까워
햇
샤이
젖
스테이션
##불명
유재
혜택
투척
도장
에미
신속
포탄
닉네임
인자
##ase
줄여
견디
혈액
호남
중화민국
##사기
배드
코믹
스러워
친다
우드
농장
마땅
아이러
각지
##ree
장성
쳐들
이타
바지
재개
조카
역습
주교
걸즈
##잎
음료
유니크
휴가
키워
벤치
히틀러
반도
##밭
암호
쇼크
도리
구조물
소니
고시
짙
구장
날씨
샷건
##구장
##버리
모음
변동
총장
En
캘리포
##킷
네티
확장팩
퍼즐
얽
쿤
##노리
##어트
제갈량
그라운드
시상식
##사리
짐작
##클ᄅ
기리
1978
질서
1973
오페
챔
근원
믹스
레온
JT
함부로
##저리
일으킨
감싸
버려서
트로피
사나
해병대
어쩌면
184
사퇴
로맨
거론
오브젝트
##az
##bo
아ᄐ
대행
캘리포니아
보라색
슬라
올라간다
찬성
라즈
첫째
갈색
다가오
짐승
AN
상사
가담
깊이
십시오
##렐
각오
인재
여의
거든
##앞
사로
친하
World
##ason
양손
구동
##AY
111
##러그
##케이션
그랑
두들겨
샵
쿠데
220
여럿
##붙이
안심
호불
##iki
호불호
쉬워
저지른
퇴각
무용
백화점
껍
최저
쳐서
혁신
##베리
사야
공감
갚
183
##돌이
크레이
강림
메트로
키보드
정반
결제
지수
##키스탄
킷
베기
감수
JP
건드리
##저기
건네
오더
포스터
데려가
##테이
동서
프린세스
말기
트레이너
진급
마계
전날
계층
베어스
리미
고무
네티즌
원더
알렉스
시그
동아
##ear
So
중동
경호
빨간색
나스
대령
특별시
피로
동행
산타
흡사
##hen
후반기
하하
##끗
장례
버ᄐ
셔틀
노란색
여기저기
중부
장난감
마오
240
사관
막강
타이탄
리처
##MS
뜬금없이
신선
##ᆯ릿
sp
수지
세뇌
핀란드
학생회
##키스
아베
##are
포획
드레스
견해
##ᆸ스
FW
베를린
##기에
탐색
엔지
헬리
##릇
##스트라
요미
클린
뉘
인과
보좌
유혹
GO
매주
선수단
날뛰
양반
늘려
담긴
교복
패밀리
유입
봉쇄
국도
기르
페어
영감
우호
비추
강렬
원곡
스코틀랜드
연쇄
후미
뮌헨
상주
입자
##직자
##어내
##혀서
케이드
선진
1974
##차기
워크
찾아내
방송사
무공
문화재
뽑아내
프랑스어
생체
쫓겨
바른
재건
tv
클론
우측
박쥐
려다가
소재지
트라우마
파란
마일
도어
역명
점유
차리
운송
토대
##이너
렐
콤비
방탄
무실
경찰서
아이러니
드로우
##케이드
위로
##올리
왕실
띄우
결계
김준
##넌
와인
서바이
잭슨
흙
약자
신중
공격수
지워
결혼식
세로
##ᆺ불
http
수여
##하나
침대
##던지
지부
1972
연금술
복사
생길
##90
##둘러
##ven
래퍼
모시
트윈스
##ife
포터
쇄
관료
화폐
도덕
제물
전락
비스트
집회
기스
거친
통칭
바나
https
##싸움
지녔
윈드
##스톤
로이드
완공
튼튼
트랩
옴
첸
##ade
##와라
허무
장판
프라임
순양함
리안
##AP
Wi
취업
##베이터
##줘
역량
디시
스즈키
선장
소금
콘솔
폭스
탐사
##박스
라마
세자
덴마크
영양
출혈
강경
디오
마라
우회
쓸데
빈도
탭
내게
##act
도감
MB
##웰
##데레
글씨
~!
쏟아
##ai
대타
일곱
홀드
##ank
아바타
##깨비
##gin
도트
연설
이순
억제
여단
간섭
%/
관통력
카리
상무
공대
낭비
do
코스ᄐ
단행본
##aby
히든
루프
##으로
부작용
노무
##뒀
메이지
오노
모형
창문
104
영화제
청나라
승차
##out
전동차
인도네시아
소통
법무
Fate
no
트레일러
##흔
##다보
전격
침투
성씨
프론
술사
손꼬
합치
재직
태클
워크래프트
페미니
줌
하스
당초
매니아
일으켰
한창
커스ᄐ
다큐
1975
쿠데타
커스텀
라크
마피아
까마
##lect
시카고
신데렐라
실상
ᆫ데
히로시
LIVE
간간히
부재
형편
백업
제재
파밍
123
설령
손오
출산
라가
치우
성실
쌓이
스탈
우루
깃발
##트리스
끊임없이
##ET
범용
##에른
튕겨
##우트
##토니
공산주의
장애물
스나이
익히
경연
강간
해라
김일
할리
스트라이커
##oll
NH
우승자
벨기에
끌어들
전향
소득
시호
스타리그
검증
조종사
##UM
##모스
토요
중점
Up
품질
이른바
왕비
OS
불렸
노르웨이
여타
카자
1976
라스트
are
근접전
소나
말레이
행하
클라이
나나
변이
벌였
항해
외곽
될지
III
##ork
렉스
##천군
크라이
스피릿
##륨
할까
새겨
파도
성분
강릉
최선
원주민
을수록
정석
마산
사악
사사
대접
혈통
섀도우
모니터
그러므로
##추어
##렷
발명
판사
유료
##바야
Do
단기
타가
##ary
이어받
하급
갖춰
구상
##다면
특공
선박
리모
카더라
Oh
제왕
공통점
왜냐하면
검열
맞붙
광물
##way
하반
티스
전생
오지
일리
왼손
포도
스텔
##루션
##페이
동전
##니시
입문
119
내보내
태우
느꼈
키라
브라이언
유연
##바지
트리거
굴러
천천
중상
명분
탄핵
거둔
##ey
##ich
명사
공헌
고종
맞춘
장남
전송
원장
사로잡
##께끼
135
수수께끼
급행
소모량
중심지
단검
109
##슈타인
##모함
초콜릿
중고
김수
박정희
미지
바이에른
초상
우울
코스튬
중기
지선
##저우
##타입
ES
중위
트롤
확신
푼
대변
##플링
흔한
Mk
공단
##콜
입증
펼쳤
베테랑
화해
한나라
일체
모스크바
잔인
##능력
한나라당
##키리
관우
벅
이스트
엘리베이터
기다려
검토
오페라
시모
저자
수인
이긴
마틴
시게
Ad
잉여
예약
시온
단발
조국
부패
질주
친절
불태
손오공
대법
아이디어
lv
땅볼
부유
##샷
대동
가진다
긁
내린
너머
##벤처
교리
all
##동자
Day
어드벤처
강호
발판
보스턴
아스카
성배
##헬
가질
터스
유망주
천황
케빈
콘스탄
울리
AFC
가벼운
시외버스
원한
곡인
스태프
도쿠
부속
퀵
이병
스트로
에버
천천히
nd
체코
버스트
렘
압축
##하루
##버려
충족
학사
##pt
고는
182
아지
##orn
##크림
과자
카카오
이현
메리트
진단
니혼
돌아간다
카시
굴욕
구독
무제
도깨비
그릇
##ᅦ이머
프로게이머
치ᄅ
분할
올드
동정
손님
해져
오메가
강전
싼
화상
군부
자제
연수
깨어나
나폴레
루마
토마스
다가가
친분
플랜
어색
후일
대박
지붕
되돌아
히스
위엄
민중
싱가
싱가포르
항공모함
들어와
디자이너
평등
닦
마트
쯔
##가루
121
존스
홋카이도
치카
미궁
레이디
나폴레옹
마운
지력
모은
##ᅳ레일리아
고고
삼성전자
라그나
으려는
1971
땡
일관
발레
머니
Windows
##의자
##네마
왕복
얇
레이블
박살내
와이번
FF
##톡
이오
동구
테이블
쫒
폭격기
스택
에이지
145
사체
즐겨
사촌
극대
##네이
107
묘하
맹세
디펜
##툼
망명
이모
톡
되돌리
드문
돌아갔
="
이경
현금
RA
열정
날아오
비리
이틀
싸운다
찰스
엑시즈
물어
광기
합작
1977
진에
점검
자아
강점기
지오
대전차
##ah
김포
이어졌
엔트리
##EM
기차
하이라이트
카리스
여포
질량
일가
유탄
창립
DP
변태
종결
썸
팔리
##사스
원숭이
후드
촉수
아아
하사
작위
마타
깨지
ML
굽
고집
AA
엘레
퍼스트
##very
##ᅳ롤
신동
자율
리퍼
##uck
마술사
이럴
보고서
##클레
재배
존중
조화
츠카
본질
해질
그레이트
독일어
의해서
##첼
표절
##막지
사족
무지막지
챔프
총합
오렌
일어날
원전
ne
변해
천장
선교
IT
공신
굴리
평행
엔지니어
자네
보르
br
석유
구로
쳐들어
중거리
자존
감탄
브라더스
임진
이이
전라북도
피카
##ph
Sw
DPS
젬
자책점
##둬
BPM
손쉽
게이머
JTBC
소집
정사
##된
지분
농민
물자
란스
210
스포일러
메카닉
카마
봉사
노무현
연간
해소
178
인칭
##ero
몸통
저기
스가
1969
털리
이대로
과일
##자치
113
유가
스티브
관장
리처드
".
대위
##본다
물리치
나섰
키를
유격수
쿠스
교과서
무실점
##끄럽
리틀
교차로
##ool
타구
사수
서적
드러난다
겹쳐
동속
검정
레이어
노가다
165
##바나
으라고
오스트레일리아
광명
부숴
싸이
브레이커
어나
마유
김지
1968
하치
맨체스터
동대
솟
##루미
1963
냉정
데빌
주식회사
철저히
##ical
총독
토트
쨩
불쌍
빙판
명시
출판사
시골
NBA
부원
프랜
건데
러스
바ᄈ
힘입
입사
필름
주축
장타
##urn
부산광역시
가구
착륙
##퍼드
겜
백만
##ype
다니엘
Ph
병역
블리자드
탄압
실체
슬픔
##ARD
부천
Con
준다는
놀랍
2021
말씀
에드워드
윤리
모순
##구미
카레
##anc
주사위
호의
##센스
스노우
매각
##그러
##ᆺ속
고아
광경
마당
제니
지장
깨끗
유치원
터보
미오
매드
섹
불능
마인드
아님
스폰서
페스
목걸이
싫어하
지로
넘어갔
{{{#
뜬다
어벤
부스트
라이언
고쳐
##은색
김유
155
떠난다
서열
##프로
##폴
완화
지혜
찾아온
용산
Cr
변장
##ung
참사
평론가
엄연히
줄기
유니버스
이라도
멍청
OVA
안타깝
예쁘
수천
김승
울트라맨
##긴다
답답
##멧
명명
우타
문양
하나하나
보편
ᆫ지
개명
122
Qu
망하
서류
트윗
었었
퍼져
본다면
상금
납득
미러
초청
워프
##항공
배구
모델링
씨앗
외국어
평상
시뮬
Station
181
레인지
프로그래
제리
##들리
##업자
압권
TVA
멈춰
이노
뚜렷
치안
열혈
가설
144
중구
정문
난무
친척
##테일
진동
펠리
취재
댐
집계
가져다
디바
중원
박수
엘리자베스
##소년
##떨어
본능
수위
아닐까
##시피
##어졌
LO
발키리
향후
##ww
고사
앓
절친
좌익
KOF
재앙
철갑
마케팅
자산
서명
주석
리나
헷갈
성명
##그ᄅ
오죽
우연
녹화
고등학생
##끼리
이케
##iver
도심
이어진
케이크
카지
애칭
무늬
##잉
초능력
소생
작정
어나더
at
패자
행진
서방
브래
강민
쿵
국토
사연
사직
시조
##DD
련
신하
열렸
곤충
어이없
152
서울대
일렉
테스
아픈
느낀
아리아
드래곤볼
잠들
유아
용암
골프
love
##쥬
결의
로프
아마추어
경부
실용
액체
학대
실사
착한
##폭탄
이태
시어
##ens
경사
산소
국방부
##뜨렸
정성
발발
호크
멋대로
자사
쿠니
마그
표적
츠바
전지
이대
as
워터
편리
벙커
사우스
좌측
##밤
유엔
쫄
##ost
스카우트
민간인
도색
##이동
##르타
TR
자칭
##테이션
침몰
114
엄밀히
##ᆺ말
워즈
##켈
베인
사투
주머니
이소
마음대로
스케일
##워즈
##ence
1930
##흉
우마
다케
라이즈
거지
wiki
몰살
정해진
마하
##마리
박성
롤러
우린
인성
만점
미성
IM
##nt
변명
의정부
훔쳐
직책
##띠
제치
##마루
개교
초록색
망토
##변이
개구리
돌연변이
from
기질
초점
항모
##ise
##이나
루리
다스리
옥상
즐거
각도
코토
각인
법사
웜
##int
리본
##시스코
움직일
이진
##리나
매달
습니까
더럽
파운드
텍사스
이누
1920
손꼽히
원피스
스런
템플
마모
##뱅
아자
스컬
##롤
179
방학
포크
##드ᄅ
만능
이념
고의
정밀
!"
엮이
찾아볼
발급
##AK
유스
일까
##하여
통째
죄책
등극
따왔
학급
일커
Super
일컫
이원
포탈
올라갈
에디션
MG
찔러
아냐
Fr
격려
1940
이명박
BJ
can
##oy
번지
로라
##지능
용자
보낸다
인공지능
쓰인
동성애
조항
아담
방심
##넨
포병
슈퍼맨
미인
혼인
정신력
이빨
www
##ign
발탁
##젤레스
아닌지
적절히
CM
선동
이어진다
변했
오렌지
엉망
관직
종영
##부지
인벤
연전
##ans
협동
바쿠
177
북아
마찰
붙인
안동
기소
쳐도
어설
대역
##타운
멧
제사
남동생
버틸
죄책감
소비자
##과이
튜버
##버렸
다닐
에도
추후
네이션
리사
호러
##ug
##딴
포착
최순
Dream
헬멧
펌프
풍선
##팽
정반대
트릴
갯
게르
다거나
##바이트
장벽
##바야시
아케이드
써도
공속
감당
124
이윤
은폐
부시
##전차
블럭
##이치로
억울
1967
##야스
금강
선로
너스
노라
한다며
저서
크래
닷
##베트
맞춰서
유진
갱신
고가
원로
커스
반경
127
다시금
아이디
##글링
잊혀
마에
USB
킴
그해
아무튼
오른손
교역
타츠
오다
협조
펭
페어리
정점
용이
씻
나인
도약
##으므로
예의
##트론
##짱
아사히
부동산
날아다니
아쿠아
신곡
해운
시오
this
##IR
다비
내기
##뒤
유카
##나베
페르시아
1200
퍽
니다
중국인
##코트
##vel
분홍
트윈
##셈
쉴드
타치
놀라운
왓
450
잔혹
시타
고발
카운티
부채
연동
쿠마
왕족
##이크
두드러
기본기
밀어내
피오
##철수
욕설
독립운동
##질랜드
컴백
아울
##지사
ERA
##ode
군요
시크리
민감
뉴질랜드
출동
교도소
초과
두려워
크래프트
아메리
누스
절벽
선원
카테
쓰리
##uk
들어올
##VER
놨
버텨
대차
수신
지역구
##빡
비단
##쭉
호드
시크릿
네크로
감추
수감
무도
후쿠오카
사방
어ᄊ
침착
버거
사무라이
Fl
발각
방침
깐
스토어
밭
Pl
감자
후유
변한
회관
덩어리
청춘
대세
팔라
툰
밝혀진다
물려받
젼
보강
Ver
스로
대피
##나기
베스
##역사
연이
제의
CE
##생활
슬리
얹
칼라
그러면
구형
급격히
키미
들키
스케이
게끔
EC
종전
철도역
진에어
부스
디스플레이
EXP
##텍
연소
카리스마
재즈
##공사
style
내외
함장
애완
측근
##민주당
발전소
히카
방사능
##헤이
선포
로렌
꾀
스쿼
코스프레
코노
애인
그란
가마
실존
레나
유재석
##ier
마야
아랫
겔
신한
궁합
가위
퇴치
달려가
반성
토라
판도
강대
현자
카쿠
리바
격렬
기법
분자
워리어
Sch
가오
예방
미아
잔류
##페이스
김구
Girl
당국
Season
사물
##뱃
인문
##틈
1962
##ash
징계
IP
오퍼
러쉬
박자
무거운
문신
##속기
왕가
##뜨
##렉션
ar
자이언트
근로
La
이놈
DM
시시
모욕
전담
화기
약혼
잃어버린
강타
NO
반역
162
이카
흡혈귀
카피
유동
이단
정조
흑마
tr
사치
중견
118
흥분
왕후
종로
친애
지루
기하
화석
WC
시종
점심
쿠바
퀴즈
홀리
끼워
고립
피자
제주도
그루
노아
기동력
카네
분배
##reat
1966
##IX
아처
팔레
벨라
유우키
타리
이용자
명나라
위쪽
부가
레이싱
부친
##꿈
##나와
어려울
단백
타이어
##ib
아비
황당
준다고
박진
경성
비비
계곡
떨어질
벌써
##렙
이행
##시고
달려들
김치
314
##돌프
끝날
자존심
학술
꾸미
##딸
##치아
##뱀
생김새
제노
##슐
스나이퍼
태생
탈환
##usic
월간
##끄
Max
##사랑
##보기
브론
중소
피지컬
남동
##탐정
우두
관문
스모
##우라
실적
돌아갈
로스트
한양
망설
750
입시
##방울
1964
낮추
바시
금요일
대검
뚱
골치
조르
##ᆫ다고
그간
떴
내세우
안무
능가
적시타
불길
뜨거운
속한
##수리
스프
Vol
TS
사와
뱅가드
뿌려
숙소
라미
소서
유고
DNA
##트릭
여태
그쪽
정전
토트넘
오케
내셔널
얼티
피우
빠져나가
잼
일어
급속
스파이더맨
Ed
아오이
천상
##}}
--
궁전
시범
중재
요격
##ose
ld
할로윈
통솔
레아
모종
성사
머무르
대학생
코파
어째서인지
중도
나이프
사슬
탈취
스피어
진술
스타즈
##트럴
로키
AV
존슨
에메
호리
헤라
까마귀
직위
한꺼
미쳐
한꺼번에
강했
##닛
##시대
소소
입원
괴인
과시
나이츠
황태
도르
amp
욕망
계절
##서스
불참
Col
혼합
끌려가
##부키
##te
야당
so
생태
기껏
##미터
샀
오만
학년도
항공사
GM
비자
저글링
갇혀
점멸
HE
터졌
질환
미정
##사르
시킵니다
극심
뷔
##ail
벌인
까다롭
##msys
페르소
우지
##ition
ldmsys
원판
간판
케리
달라진다
모빌
스탈린
천국
충청북도
스탭
히드라
틀린
이별
테르
도대
필사
과금
욱
부끄러
슨
마기
rd
보로
즐길
빼앗기
Night
각국
해냈
##구니
욕심
하지
##아치
BC
차장
날린다
마르코
테리
얄
상냥
토우
급하
나들
강인
not
조립
다치
인해서
레버
시안
회로
##당초
앨런
미녀
저질렀
고추
나들목
스타트
리버스
##워프
##IL
이사장
이어져
김주
뻘
위해선
아케
단자
스매
승패
지지율
요코하마
암컷
공국
##히토
변한다
얌
##ild
##랭
입힌다
하여금
168
일일
김광
페르소나
오토바이
Let
수소
보낼
툭
슌
##ᅣᆷ
지크
물약
도미
##렇
병행
배운
희생자
디아블로
오사
제발
키요
군데
학회
넘쳐
피난
##티노
단백질
굶
상부
##깃
난민
스크롤
##ody
바텀
만렙
테니스
등재
목욕
사탕
빙결
Black
어원
펑크
159
##바리
졌으며
일환
코끼리
밀리언
갸
신작
말라
무녀
스윙
이승만
##세지
미노
도배
퍼펙트
BD
꿈꾸
평택
##클린
무신
말레이시아
라인하르트
부처
아마존
피치
인쇄
리자
여주인
사이클
섞여
해변
##진호
때로
올라와
해역
오즈
파고
##빗
신생
화신
금발
무지개
환생
돌아온다
가이드
##브로
둥지
슬퍼
삿
마도카
파스
대니
직행
1948
mar
##ough
마쓰
응답
껴
해전
발사기
아메리칸
국기
##톨
푸르
진흥
맑
던진
날카로운
AF
늪
MM
절단
엉덩이
1944
미소녀
세례
도대체
모의
무능
1965
성벽
OG
부제
히사
##33
##모습
명장
쿠르
유머
중공
일조
로스앤
로스앤젤레스
모나
퓨전
스텔스
섬멸
노부나가
충남
석사
방언
프랑크
회계
불상
스쿼드
노릇
아카네
##멘터리
주저
RE
섭취
울음
날렸
와이번스
수중
##겔
수아
약체
필라
4000
눈앞
Op
예요
##gr
일명
대국
조수
안토니
그쳤
좌파
전임
##타리
빅토리아
사임
카일
바꿨
고래
동상
##무지
집필
##클리
객관
출석
겐지
##aster
지면
접수
빌보드
공교
외야수
##app
마을버스
그리스도
메디
##orts
평상시
목포
확립
한가
비평
인피니티
이나마
아유
선회
사이토
대안
##성군
그리핀
잡아
뾰
대승
연세대
어려웠
유메
##uc
보살
사르
쿄코
베이비
두루
사천
교향
에코
드워프
애용
혼혈
1946
##고속도로
다투
십자군
아수
신관
##은이
공동체
워드
모아서
성지
이계
앞선
주공
PK
다큐멘터리
##ᅩᆯ
주입
##시티
루미
해고
장본
알렉산더
무자
옐로
서울시
최상급
보우
컨디션
넘어서
츤
그랑프리
코레
동북
위시
휴게
높여
스카웃
김대중
##CE
이무
주파
챔스
까다로운
##스카
스기
셀레
##ject
대면
못해서
en
편의점
스타워즈
껍질
평판
이니
교대
##OO
EXT
##ᆸ트
쓰러진
마주치
탄소
침해
..?
카토
블라디
득표율
비로
가령
태워
아쉬움
##ari
단련
줄리
폭로
프랭크
math
낯
믿음
카게
아리스
자력
컴뱃
전도
방안
##겹
면제
수컷
사지
퍼시
민폐
집사
le
휴대폰
AL
리리
흑막
진도
테이프
라비
CR
독백
##셨
크롬
히로시마
솔저
정서
숙청
##스레
소마
섬광
아르바이트
EZ
리프트
두려움
막부
멋지
튀어나오
##프란
성대
리부
타우
##각형
와타나베
구호
달콤
뛰어들
밈
만난다
큐어
고맙
경제학
생겨나
항성
원자력
##iel
감성
터진
우미
팜
안겨
달인
공명
단서
강동
지각
냉장
남학생
##퍼니
관광객
151
홈경기
##리얼
##미르
줍니다
찬양
하와
보복
격퇴
138
Gu
신념
스틱
로비
신조
SA
던지라
가해자
장본인
티저
광복
남양
개업
320
하도
172
잡힌
GSL
눈동자
은메달
##려고
해준다
##애나
타카하시
뺨
정우
휴먼
벡터
수성
##오피스
늘어난다
상시
남한
끊기
가이아
훔치
##TA
제라
김병
배울
천주교
ATK
##스ᄅ
정답
##ats
순천
##ye
##도전
의의
비키
즐겁
어벤져
단역
실린
보직
강아지
EU
##eah
##바람
말려
불화
동아시아
가져온
개막전
자루
주한
315
수라
시네마
1961
##총장
##부인
컬렉션
노비
나란
풍경
GD
서바이벌
일각
어제
배리
천지
배후
걸음
테레
짠
##중간
얼티밋
투고
고난
탔
TOP
Mag
오공
158
균열
동사
##디스
대교
내정
그리하여
라이드
샹
CL
표기법
트러
볶
상원
재질
도스
탁월
##다드
깃털
흑역사
카사
놓여
손잡이
가왕
악행
캡슐
무한도전
통보
스칼
##이센
마미
스톡
시련
추모
다간
로맨스
AB
민병
NT
##꿉
내린다
짬
물리학
##쑤
여수
ver
리믹스
수확
걸까
카이저
흉내
동메달
로제
내면
일산
숭배
루마니아
UC
##oh
##eth
이순신
충고
표식
##ron
스파크
박스오피스
소꿉
쿠사
슬라이드
제대
독보
결과물
병살
이세
금고
##ings
일어난다
아이즈
##짤
주차장
이호
김일성
ᄇ니다
청사
쿠리
유마
구제
아스트
##메리카
사범
신상
제인
어판
매그
떠돌
그레이드
건립
레이지
만지
176
공로
도요
##운수
컴퍼니
방정
배웠
크라운
기뻐하
아무렇
##룬
다저스
딥
삽질
으신
will
##ᆯ리언
간파
운반
펌
지미
도사
Is
ME
재수
예고편
리플레
테오
보가
##떡
직무
##느님
##저래
계략
저항력
테란
병과
호응
벗겨
발톱
##inal
궁수
심정
##==
126
차림
김윤
신임
올린다
1949
오로치
로크
안드레
정의당
마수
클레이
Am
##성이
과격
대명
완벽히
하느님
자작
기온
폴아웃
승려
바랍니다
자카
상어
친일
우두머리
이점
구울
주의자
10000
식스
몸매
으려면
Don
보루
문법
팍
대해선
감금
퉁
산다
속해
유라
서원
타스
##ult
랴
노란
모인
크로우
라이트닝
무선
##세요
바이킹
응급
코로나
##로우
테크노
154
사망자
like
레시피
LE
패왕
세르비아
총사
흉악
계시
변함
WH
방울
맷집
{{{-
KB
뒤쪽
Time
리볼
132
##총리
##MAN
주황
적힌
##핏
전법
서리
총선거
법안
유해
드루이드
무비
웨폰
거꾸
부드러
김성근
레슬링
센트럴
아테나
난리
new
##넛
막혀
##덕션
성폭
##런트
베어
어긋
성직자
강서
##13
멸종
응시
##빨리
지배자
이즈미
##스트레이
강습
천체
저승
이래저래
돌아올
218
완성도
이용객
테크닉
이리저리
르노
Mi
피드
##낭
장신구
##GA
로열
코디
국민당
##ov
니트
취지
차가
##oul
두꺼
급식
털어
충격파
트론
##18
웃기
상의
##곰
라이징
손목
하우
선봉
리츠
##조합
이영호
탐구
유신
키노
당나라
짝사랑
더미
무겁
지터
##ob
제너
핑계
태조
전염
리우스
야망
##나르
미남
##겸
프린스
과언
블랙홀
유능
후반전
어드ᄇ
고조
##ould
이쿠
##전사
##처럼
통틀어
156
아ᄁ
##보우
마가
..!
iOS
##트랙
무궁
Ser
마마
마친
##친구
뢰
one
카제
시켜야
164
스크래
##alk
미세
##렉터
##tern
##yn
재벌
##레븐
숙련도
139
배율
나란히
필두
모에
##활약
보트
얼라이
유카리
묻히
##15
##버린
비기
##슬림
시간대
이인
##up
구청
153
조던
하츠네
아호
덧붙여
##라미
고우
먼지
벚
교정
저격수
Gaming
하나님
##reak
반장
콜롬
공격기
거꾸로
무슬림
커플링
양심
합법
초등학생
나열
김두
이광
##der
##able
GK
하드웨어
##고사
##제스
접전
리터
전두
청장
엉뚱
성숙
세미
하비
후면
지성
패하
엇
상공
오바
최하
148
디비전
오른다
신주
들어온다
Car
맞먹
##ions
##ᅮᆨ스
허브
인천광역시
##사고
연달
노린
탄막
실업
셋째
니콜라
##엘라
스케줄
표창
동등
Your
얼라이언스
마티
타키
##ᆼ가
단의
벌금
주유
##문화
167
끝났
볼드
장시
김선
냉장고
스마일
##널드
대등
가져왔
가히
맞대
203
동지
북서
늘어
예쁜
배열
지표
몰아넣
부ᄃ
##바스
황혼
프로덕션
##ᅳᆯ루
##쿠스
애국
데미
SSR
창작물
누이
##백과
##주의자
##PA
카렌
사료
무색
두르
1958
섞인
브라우
가나
1941
음향
나뉜다
174
스나
오역
주술사
파인
야마모토
승급
##왜
적이
영화배우
##ull
으리
##ᅰ어
휴스턴
도모
치러
공모
무죄
##올라
샤를
사야카
##프란시스코
##시다
샌프란시스코
어그
전례
라틴어
진로
##재기
##뼈
종말
여주인공
se
유타
타당
아수라
동년
##뱉
##스텔
Min
설탕
법학
드러난
버블
번식
##프라인
처녀
앞세
무안
RO
##셉트
시뮬레이션
선지
142
자키
##니코
밀라
통행
지지자
바이크
사내
##상가
LTE
광범
레이븐
영등
##껑
문헌
들으면
일러스트레이
헤드샷
빈약
인명
염색
스페인어
##타르
##타니
카인
주가
순간이동
##무네
163
겁니다
##않
혼동
코프
원화
런처
과감
박탈
가라앉
한층
##스트로
##기업
배상
수령
맹활약
토비
레인보우
득실
이오리
차일드
프로이센
##ube
##ECT
일련
러너
거칠
비즈
아슬
마스코트
꼴찌
1954
우편
염두
BGA
레바
리볼버
##아티아
졸업식
크로아티아
덤벼
강수
월요일
부드럽
네스
안보
##ll
제자리
##보라
전학
콜레
have
플레임
후쿠시마
사가
##로그
pr
태권
회견
맥락
제지
놓이
단식
찰나
설마
황실
out
레슨
절정
음력
오리온
수하
##퉁
밀레
실려
기관포
페미니즘
내려갔
대목
연막
능숙
른
발현
대외
득표수
크리스토
장례식
상속
약칭
이만
##스티스
##ICE
##랄드
내ᄈ
초상화
환호
안제
단총
연고지
사소
NM
대군
복음
토론토
올라간
파우
143
137
라든가
둬
인텔
공고
대법원
##레인
죄수
알려준다
부호
앞면
당원
한강
미트
##크리트
소우
시흥
너클
오피
릴리스
방벽
공짜
투사
##베르트
창당
313
현직
맞물
맡겨
노골
혹평
Sum
무단
솔직히
평창
다지만
내뱉
한정판
##귄
인듯
소꿉친구
사당
박종
펙
양국
빙의
북동
##바루
차분
HS
인체
외관
싸운
ALL
플라스틱
오비
경찰청
꿇
가미
자포
두뇌
무식
CN
IV
추출
##ᅳ레이크
랜서
위함
이력
치마
##소수
1943
십자가
230
이준
전반기
앵커
알아차
반란군
##ᅨᆫ
바티
오딘
아테네
태자
터트리
뮤지션
##대사
모른다는
델타
지요
북구
순찰
맹독
남미
난투
오케스트라
프로스트
기술력
우산
157
관계없이
해상도
##모어
렀다
강탈
여도
오쿠
극악
133
숙주
##FL
기이
슬슬
키드
공자
갈리아
미시
먹여
un
브레스
출제
146
팬티
129
극우
뚝
잔해
윈터
확고
구독자
세키
##더슨
000000
바비
플레이버
1942
광범위
별칭
지극
프레스
넘겼
##곧
청룡
화약
##STER
비참
제프
173
시에
나카무라
카오루
BO
워너
드러냈
가져갔
##결승
걸릴
종사
설비
진구
모았
##탱
박명
힌트
키즈
경선
##드리히
채찍
여장
여겼
리뉴
리셋
쑤
##천사
기쁨
그려진
클리셰
원년
폐허
##챈
margin
##맷
섹스
실바
수영복
know
서치
카테고리
오디오
연안
멘붕
전수
해태
로그인
##무게
호출
텔레포트
##얀
몸무게
베일
후대
칠레
폴리스
팀장
##MAX
set
##무이
방화
##DX
키로
쟁이
나락
생물학
##날두
청원
OF
호날두
통증
##블레
당해서
기행
공습
공천
136
Play
체스
리베
넘어갈
생애
BT
사나이
틀어
##믹
팩션
미하
파랑
시초
##ica
정교회
CB
메테
##che
##소총
Of
서장
애쉬
태종
##ock
히카루
우크라
라시
번갈
포니
미모
휩쓸
얼터
As
la
개판
벗어난
##풀이
망상
##박이
##브러
##YP
증기
제조사
메세지
슬픈
빈번
저조
Red
##내리
##회장
럭키
Type
BM
하의
##제국
양대
##14
불문
##산역
오른팔
줄여서
띄워
일러스트레이터
조력
심화
복도
클라우드
149
버터
##ᆺ대
대패
정준
바인
혼다
아름다
라이센스
우파
박영
브루스
##다르
친정
산탄총
##에몽
##전설
치바
돌보
교육청
유선
ᆫ가
바나나
때려잡
트랜스포
킬로
샤오
BA
헤어지
포맷
##ict
미끼
범주
##지르
##17
라파
스ᄂ
심야
134
올바
1900
지킬
슬라임
1956
미숙
책임지
캐슬
인터페이스
불쾌
뒤지
오키나와
미도리
해독
경지
가의
TP
입국
춤추
냉동
가혹
지주
진리
목재
DI
떨어져서
##ster
레슬러
신세계
책상
사일
공손
퍼센트
##ange
나사
##마르
##ater
대사관
EV
개미
괴롭
부흥
운항
해선
가로막
밧
깡패
뫼
진짜로
##티넘
김천
플래티넘
해져서
슈가
바그
구마
왕관
High
태미
##이스
슬램
##ons
오세
캇
##권자
##뿔
무수
##메라
달ᄀ
자부
편한
열세
마니
파손
심히
파괴력
트레이닝
제이슨
장갑차
pro
중후
앞뒤
##레슬링
땀
분쇄
알렸
교양
노하
스매시
초래
플루
개개
내버려
자켓
무명
판다
feat
진형
요우
입법
TE
원망
프로그래밍
NEW
미들
로지
수시로
섹시
외면
프로레슬링
페이크
재림
슬러그
찰리
축구단
죽인다
##왜란
악곡
지나친
옌
향한다
임진왜란
##ple
보디
증인
중급
열기
랜스
싱어
경질
칙
방정식
퇴역
쇼트
사천왕
전두환
##넉
스바루
내밀
##지오
##콕
시집
주고
모어
##교통
%.
뒷면
콕
##슬란
연말
##니스트
147
스팅
공과
골목
비로소
건다
Light
##차례
아래쪽
패스트
미식
박해
호프
##나리
자회사
##두리
퓨처
상대식
심상
클러
AE
안철수
생선
앰
꽁
##주군
##무늬
폐선
어둡
280
##바다
세일러
배우자
실로
##세서리
최정
엄폐
2500
소령
##카미
제우스
헐크
##아닌
바란다
하지메
가브리
저스티스
드리블
오프라인
MO
수용소
선인
GHz
철갑탄
##텍스
착지
직통
데려오
메구미
Gen
아랑
웨일
관절
222
나뭇
차관
마켓
토막
##to
CO
의아
격리
테일러
히나타
##구역
편견
##토랑
##니즘
##의회
실천
레스토랑
##에트
따라잡
던졌
~"
수다
더구나
보잉
세츠
줄어드
강세
수상자
1939
음색
##더기
배속
김연
##CC
개그맨
알아채
was
라임
파이프
브랜
What
제단
무서워
소행
가르침
미쓰
면접
꼼수
템포
감행
날린
레규
프로세서
배신자
내보
용의자
##산동
복용
##고래
Kor
166
묻혀
미호
증권
의대
고음
치루
타고
원종
연기력
1959
##컨드
이른다
쏟아지
반론
겸하
도쿠가와
지문
##ics
1936
야전
프랜차
명탐정
풍기
세컨드
동조
맞출
섬유
인트
소설가
롤링
속이
일삼
두목
##사관
찾아와
신칸
우물
달래
준공
냉기
술집
하후
탈당
쥰
##투아
새기
재임
##ACK
화소
Heart
율리
산화
러닝
레프
공영
발간
Tw
유즈
종착
펭귄
돋보이
조교
소노
스콧
프랜차이즈
##les
##드려
플로리
케리건
미수
내역
역학
LOVE
들린다
필터
웨인
oh
1955
GPU
삼촌
미스터리
##ex
##사와
팰
기피
다툼
뱃
병종
##BM
이아
트랜스포머
모함
어벤져스
잡혔
랙
거니
체격
아이스크림
지그
##모니
하카
##어붙
낡
투신
NHK
AG
##쫓
에그
##데르
걸어가
반환
아이폰
찌질
걸려서
마요
전광
어린아이
위키백과
Mr
파문
##니스탄
신칸센
책략
동문
루키
콘셉트
토가
채취
사모
기술자
Blo
##툴
동호
재활
PL
하이브리
경보
호무
속편
영등포
보였으나
참으로
이방
시가
##ᅣᆯ
물가
야마다
하이브리드
빠진다
그제
##lass
전열
##무실
테일즈
##어버리
솔라
장학
버림
##16
인구수
푹
특훈
부도
##테스
##드리아
뭔지
냉각
봉기
레귤러
자질
반군
다름아닌
FPS
랏
성기
원했
MK
투성이
##AND
부당
준결승
장편
방호
TO
스트리밍
최대치
방송인
좌표
##힌다
서민
마의
그렸
##아슬
아슬아슬
말년
Par
보행
정형
##전트
##스타인
하라
소사
##nder
##플러스
어때
##규모
인사이드
스크립트
로테이션
모던
1952
쓰러져
쐐
패드
라바
상행
time
포식
뇌물
적립
수량
가와
소매
전반전
공존
범행
ll
330
수도원
내뿜
##교육
##튠
라곤
##더링
하반기
엣지
거뒀
##좀
270
사슴
캔디
카즈야
##ors
Fe
##볼루션
교통사고
륙
패닉
얼어붙
노래방
도청
##ME
도호
뺀
표본
단과
죠죠
신수
김도
LED
카니
정계
불가리아
경과
오타쿠
속력
유대인
서해
몹시
스텔라
##해야
담임
직속
중년
뱉
끝장
스윕
카우
원한다
태극
순정
여배우
뚜껑
였음
어미
들러
입양
에메랄드
거느리
매지
멋있
발라드
교섭
테러리스트
함성
우체
파키스탄
출고
디렉터
1947
GTA
파격
동로
이에
원고
##단지
스퀘어
필립
춘천
#!
솜씨
225
평안
모양새
네놈
##대기
Good
살라
더러운
얕
두근
##콥터
전속
블레
르네
거품
심문
박상
맴
방공
직격
##트라이
소시
상쇄
영동
우상
곡선
재빨리
여긴
저희
무고
현존
##테리
섬기
Per
유지비
적색
세스
현황
다이노스
프리드리히
사투리
##딕
핸드폰
##틀리
쓰러트리
멜론
##수수
선대
바닷
영남
로저
줄어든다
자각
순교
광대
쥬얼
호구
배리어
##뿌
호스
단말
자칫
오를
산악
하행
##글라스
오락실
뜰
시가지
스파이크
프랑스군
마초
고마워
카를로스
그랜
월등
신흥
담겨
벚꽃
어워드
다기
##ᆺ집
앤디
SL
넘어간다
am
##HT
##파리
사탄
텀
넉넉
성서
석상
발렌타인
할수록
하시
신병
아제
적재
레즈
갈래
260
스내
급히
라프
##eep
우천
1800
격전
래스터
유나
바닐라
요미우리
유니콘
하리
미유키
##윽
MSL
##뚫
메이트
타이완
더욱이
선우
구절
부관
1919
리바운드
##무기
홀딩
비춰
갈구
본의
고산
냅
호투
실력자
브이
휩싸
IIDX
보리
호박
부사관
공약
추궁
닥치
중학생
박살나
불신
아홉
##ott
원내
호르
즉각
프로모
심연
질풍
비타
간호사
야만
기함
상용
차용
핸들
몰아내
Kn
ab
정정
상장
신정
다룰
일례
유니온
0900
퐁
미티
남작
군림
소실
징크스
유한
Li
로스터
지기
눈빛
시부
꿰뚫
대본
증발
카이사르
부류
선형
유방
장원
운석
##메다
이례
EBS
단정
고분
적성
다중
카탈
wid
브레인
유정
포워드
프로토타입
Wii
지름
##문트
에바
##수아
와라
츤데레
텅
도시락
찾아왔
불릴
##메스
최우수
프롤로그
This
근력
안성
호그
드레드
훈훈
여관
미로
설화
성비
하와이
악령
조준경
##산물
축적
픽셀
##IV
길거리
헬리콥터
구타
##자동
휘둘러
유무
양보
벌리
유승
회귀
Baby
더라면
##25
##IK
소규모
본가
카디
페인
후루
망원
라던가
남서
##anna
허위
격투기
기관차
##두사
##파크
루루
자본주의
감기
깽
교훈
트러블
스콜
실정
진수
제보
전산
켈리
농사
정재
습관
HARD
Sm
바오
불평
느껴진다
존대
일레븐
럴
가두
ONE
주워
스토커
탄탄
동요
달랐
생겨서
떄
충북
서정
유코
빈틈
깔려
히데요시
루터
킹덤
1953
대중교통
에필로그
거세
서태
자문
게임즈
밀집
대진
중성
샤워
##델피아
필라델피아
GN
##포드
민정
1938
모라
리키
심리학
##other
총괄
관념
마쳤
원작자
좋아한다
Rock
송출
격침
##행위
첫날
169
프렌즈
us
모른다고
회화
단속
풀린
##19
##르바
박용
청산
석방
##바키아
이선
빌라
구두
##세포
구한
미팅
치고
##마치
책정
독서
뽐
리부트
550
야외
그려져
만료
만루
자격증
미칠
##똑
##앙스
벌어진다
놀란
총회
장풍
해내
width
##지도
고토
말미
양측
파벌
넘어지
수수료
##팍
수평
##icro
Live
라나
날라
##케인
고든
수복
요시다
일품
리조
김원
페르난
호세
생산량
병장
심했
노트북
Ac
특이점
온몸
술탄
뉘앙스
보증
##ins
죄송
내수
황태자
여권
히카리
멀리서
유유
달아나
리우
##토르
클립
할리우드
##oss
미니언
##ru
DB
희대
결사
따른다
연금술사
##크라이
동래
그리드
대마
##하이
마차
미라이
부딪히
결함
따져
페이커
흘러가
##ᆷ마
레이트
여당
니카
가창
왕좌
끌어올리
독수리
우가
장동
##받침
뒀
완구
의석
교내
혜성
에밀리
하부
성수
헥
유배
협약
바래
##노스케
자니
윌슨
쇠퇴
나고
cc
정해져
글리
고스
교시
은혜
걸어서
후안
놔두
홈즈
OK
연의
##gain
##ction
Blue
##턱
정체불명
경쟁자
Dark
##EL
버릇
누명
재위
1957
배송
도라에몽
사안
제작비
비꼬
고성
체형
KTX
##거진
원활
가축
초교
##플리케이션
우루과이
아르카
오리진
무사시
저술
메모
라오
서대
텍스
##0000
짚
""
전세
켄지
방과
게시물
토마토
자크
편안
셰프
진행자
천마
강팀
로브
주거
불어
로컬
부턴
Champ
자발
말소
환수
더비
##툭
말아먹
예배
소비에트
속박
수강
특허
포대
보구
원흉
격기
아울러
경순
##na
박혀
발차기
분기점
RC
오시
편찬
비토
피에
Im
주파수
실루
유비트
분장
Sun
##ood
밀려나
첨단
##agon
브론즈
##UT
캐스트
유로파
진군
##자재
타다
트로이
두려워하
게릴라
탯이
넥서스
바이올린
++
친목
OCG
모친
##ᆯ리티
닉스
Can
직결
일일이
장제스
스케이팅
포럼
프랭
리액
랩터
Bat
해적단
선곡
깨알
상가
##스티니
수녀
MHz
back
취한
타카시
환사
자손
니나
##ky
북극
연루
코즈
요리사
DR
유영
205
##토리얼
쓸데없이
##훼
뜯어
재무
센티
##버드
경감
미성년
통수
용감
관해
기획사
키트
정동
본성
튜토리얼
돌려주
이창
##놀이
주고받
##통수
달라붙
na
박재
미즈키
열람
열악
무제한
기성
수식
후지와라
데스티니
##꼴
Summer
대출
배워
금색
다짐
RP
##코스
단선
그립
권능
뽑히
모범
움직여
니코니코
##일으
요시노
##ty
불러일으
플레어
김명
##irst
셰이
분홍색
야마구치
##사벽
넘사벽
매수
명곡
##DS
민영
한다거나
야심
농촌
당주
##ᅳ롱
살상
브레이브
자판
산책
빅토르
도검
##ady
##코프
목동
양키스
##무소
야시
##land
Korea
쫓아내
흠좀
갑작스럽
흠좀무
대대로
Music
탄도
원천
헌신
##소스
제스
중추
항아리
창세
동족
하워드
비시
스파르타
그래프
##셸
서초
##드립
오디
남발
##드르
자처
레이첼
레이너
휴게소
함재기
엘리스
발광
##저드
소극
BEMAN
타나카
달라졌
세레
라트
그릴
##균관
병합
급기
줄줄
1914
행렬
박찬
개칭
반기
토이
올라서
노동당
코지
루이지
계란
프리즘
도마뱀
무진
불려
안산
카타르
##프ᄅ
기괴
슈터
필연
어느새
베이스볼
강행
반대편
잠재력
청하
셸
합당
임원
BEMANI
장안
파산
실무
##현우
악의
만행
일렉트로
##OID
따윈
감전
토로
루팡
나레이션
Fire
##석민
했어도
무상
다이스케
열린다
무너뜨리
설상가
리턴
윌리엄스
프로모션
설상가상
제휴
블래
##기지
##현진
금호
##마당
인어
성모
재난
OB
now
학점
교관
살아나
솔리
김형
댄서
##숍
성균관
##커녕
밀란
유난
650
야기
하원
정한
살인마
누워
음악가
힐링
정벌
캐서
펜듈
펜듈럼
창업
조직원
버려진
211
주심
실습
손톱
##곡동
목적지
마운트
화합
대각
문고
북방
입체
이질
위탁
복면
아타
총격
##킨스
후궁
시코
자란
악어
차선
포토
##ium
지온
광속
청동
호기심
여정
평원
달걀
정립
폭동
쐐기
진정한
세션
##티지
농락
##테이너
귀중
듀크
싣
관해서
낀
치사
커졌
피에르
GG
##룸
점사
Life
ㅏㅆ
CA
서독
뒤통수
진나라
##혁명
계열사
둔다
인데다
가성
육지
사다
3164
##즈카
##ush
냉전
해수
STR
고령
재판소
로코
##메어
양호
퓨리
##기사
한발
소동
문어
반하
반항
실명
성도
Ma
분화
피카츄
##떠
노릴
##ount
스냅
가급
모닝
스캔들
까닭
페니
But
세탁
리엘
염려
꼽힌다
별점
1951
동탁
##프스
호노
쓰일
Just
똑똑
어퍼
로저스
##르기
증가량
풍속
##그룹
204
##멋
자수
총재
프런
한탄
돌이
진성
코리
투니
펼쳐지
월급
내륙
동체
대상자
줄게
후예
털어놓
##쉐
라구
네이트
진료
스킵
아토
신대
선제골
연회
불로
##그레
DX
##CH
나이트메어
고속도
창시
##궤
지극히
여진
네코
대공포
시몬
플로리다
선방
Ste
##때로
이복
우아
day
아깝
##년기
한숨
Sy
##ger
어선
숀
##놔
레기
건너가
프로리그
사면
미끄러
박경
들어와서
##퍼런스
향기
FFF
하타
일진
pt
남극
감히
개개인
##덮
올바른
Dance
에스파
사찰
강연
캐리어
마운드
박명수
스완
일본식
해임
공익
개연
행방불명
츠바사
할당
파장
출근
##저것
이것저것
현상금
FB
상표
야드
한도
발칸
Gold
여친
쌓여
홍성
석탄
나폴리
CON
치아
지상파
실루엣
국산
샨
호로
Grand
주황색
적료
이노우
스퍼
##블릿
##듣
테루
##봐도
지휘자
Pre
오의
회고
페루
저상
Ev
민법
##티콘
기복
음주
눕
1600
콘티
광전사
VOC
구단주
블루스
효소
##ne
암울
##ally
HK
아프가
채집
##ution
서지
따내
이속
괄
시간표
LCK
예언자
전과
성체
슬로우
벌인다
글래
아르메
기타리스트
대주
##준표
괴상
차후
괴력
난감
##미스
아줌마
##pr
지중
화자
번트
일식
##들여
대표작
피고
##트니
관동
스네이크
##징어
영진
미쳤
매너
전교
접점
이뤄지
##줌
구급
파수
파업
열등
수락
get
통신사
세일
카이토
부여받
사우루스
##마침
샘플
##클럽
바꿔서
##잖
##미즈
TW
Over
외우
가까웠
##보그
##나갔
케이지
정세
목요일
코다
군복
패했
이변
콘크리트
옮겼
부평
교직
투하
두드러지
셉
1937
카르마
램프
##사이드
리마
##ator
훅
브란
ARM
추기
매스
포효
호쿠
경찰관
정확도
아틀레
##서야
정자
신축
##흘
때마침
딸기
스레
##껍
beat
젝
##장난
출루율
미사키
출연진
소피아
고질
전리
박치기
합창
러셀
한스
가브리엘
##빼
아이유
매출액
무궁화
으리라
UF
##체스
변질
외래
금화
지어
차종
샐러
##베르토
리에
뛰쳐
선구
달라진
뷰티
홍진호
DJMAX
서인
##봇
행정부
예지
회오리
##air
각기
클레어
자진
연발
Sec
배기
내릴
코바야시
비장
새우
어리석
따돌리
주어진
남아프리카
왠만
차가운
퇴출
등교
tvN
픽업
대부
쪼개
챌린저
처절
시치
크루즈
##아스
대쉬
일절
최영
##네이터
개인전
베네치아
코카
백신
##르드
세세
고요
달아
##브레
##토시
출중
피츠
아카리
##엎
교향곡
##나드
아프가니스탄
BBC
부과
동창
Out
캉
합쳐서
부드러운
지침
조영
커비
영리
사극
접근성
느니
고릴라
슬ᄅ
한성
마누
태수
신원
만세
쾨
##inc
광부
점거
간선
잘려
##줬
상류
##히트
회심
간략
경매
수험
경희
코요
딱딱
검은색
이은
##축구
##장이
체이
모른
영조
완수
##언트
밋
부대원
스피커
합친
망한
컨트롤러
##로이드
쫓기
준하
풍자
잘리
##츠카
##ᆯ렛
달빛
상체
리티
비운
다이너
양주
El
주된
Dis
but
아드
책임자
Win
가소
전년
##흙
기다렸
미판
사이보그
##꿈치
케이트
사스케
강판
유난히
##동원
타니
상하이
수요일
저렇게
VOCAL
조형
당기
##바ᄁ
##펑
군함
베이더
에티
총열
빅뱅
은밀
##...
뒤덮
이용해
리플렉
용맹
천공
##펄
처한
##라노
후문
계좌
##봐야
콜드
콜롬비아
##휴일
둥글
총사령
볼까
연구실
소수자
즐거운
##ART
막아
백색
접어들
촉진
천둥
카구라
미술관
UI
소감
잔디
##use
##바시
평민
벵
바우
##쩌
고속버스
덥
전류
몬테
sc
케로
정크
6000
##앵
런닝
##수스
미코토
못지않
자신감
ᆫ다면
퍼붓
여더
조제
##터스
Mon
예명
스플리
혹사
##베이스
기밀
웨어
HG
워낙에
제다이
김두한
영장
로워
##ring
성형
안면
민원
앙리
중견수
##로니
판권
##XT
페이트
man
차남
비즈니스
~~
##LS
매칭
레이나
Af
조류
역과
오인
이동하
퓨어
이야말로
레몬
권고
장기간
비요
카가미
라자
우와
Power
태블릿
임관
학계
대문
함포
샴
사출
##ina
##대교
튜닝
Res
애드
철회
고선
요건
정렬
매개
스님
샤프
##관총
##몫
집결
우체국
내야수
아폴로
뽕
정거
소절
형편없
망령
380
강해서
퀄컴
매진
발전기
기합
At
호전
##궈
도피
섀도
일수록
리전
무효화
##소문
체리
건전
OPS
패미
}}}
바주
##ᅡᆼ스
피스트
혈액형
지자
퇴사
경쟁력
여덟
ㅕ서
노엘
256
줘도
입술
키무라
떠날
추첨
나고야
직구
똘
SCP
캐서린
NG
욕구
유서
전전
이성계
묘한
조달
Fem
강성
금성
부려
입힐
국사
##범죄
당첨
자취
베니
때때로
동갑
카지노
공휴일
동참
속공
##하하
##포스
걸친
농협
섬세
볼리
아카이
놀랐
휘말리
존속
볼륨
##맥스
맏
##래시
페가
타치바나
##ᅢ신
총탄
김영삼
어쌔신
코시
##ᅳᆯ랜
붙였
증후
##ittle
무빙
타국
영미
쑥
적발
sm
경량
##베리아
초고
##아르
유포
김택
Fi
서사
MR
임하
옵티
오징어
직역
립스
무소
색채
성역
터질
쳐다보
아르메니아
MX
##심장
악용
채소
명대사
페더
궤적
가호
방어선
집중력
여사
내구력
애시
공성전
부추
건재
화가
허공
가급적
코이
대인배
Sing
전해진다
카노
안기
조력자
낙인
거제
본국
##베르크
1910
아부
FL
라드
보여서
##숨에
단숨에
마에다
장병
도메
저널
##ERO
츠나
SG
카즈마
##싹
##de
노기
광탈
틀림
##be
넥슨
피드백
gr
궁지
횡단
고안
러시아어
젊은이
허구
부식
##ello
베토
괴리
공방전
재고
##트릭스
정거장
사육
타나
MT
가명
태세
##reen
SV
##삐
쿠루
서진
샬
##ual
피라미
김정은
조인
끌어들이
피처
창의
억지
비니
승천
IG
적진
생산력
족장
##대부
세조
소용돌이
예장
견인
근성
로사
밀렸
무전
증세
포지
레닌
막바지
기미
복싱
매운
절규
##코어
##ᅳ레이트
정명
줄거리
##르노
##첸
돌격소총
통용
군사력
하임
노이즈
휴전
주재
##틀린
MLB
##바퀴
동인지
데우스
Pv
모방
디펜스
후후
뒤이
Rem
라지만
던진다
맥도
어울린다
후진
건축물
서킷
표방
##프레스
카오리
Ep
가뜩
친선
추적자
역병
##ational
원격
999
연예계
대파
군기
타시
어인
수군
##돼
##riend
##af
발상
아이작
히토미
##ars
카바
파이브
##bs
신주쿠
리트
므
두부
설계도
주어진다
소진
결장
출몰
루카스
Vo
깊숙
흘러나
카에
쩔
##IE
기쁘
가뜩이나
전했
초당
슈퍼스타
넘어간
정은
홍준표
##해군
양파
모호
스타팅
발악
택하
급기야
숏
##ivers
주방
##퇴근
수비진
기보
증후군
노드
테이크
후려
네모
폭포
트렌
자유자재
인벤토리
조폭
VOCALOID
양현
그려지
IDOL
리쿠
악랄
터진다
꽝
초선
오로라
간다는
판서
럼블
포트리스
박격
고양시
Leg
King
수원시
상임
블래스트
##에이터
에우
중전차
애교
고원
연호
김희
풋볼
베가
##회의
미야자키
마이어
병단
실황
이루어진다
깽판
HT
핵무기
YOU
BF
강변
깰
자유주의
헤매
벽돌
just
##쏠
시스터
히노
이치고
무림
아몬
제시카
태그팀
제르
에이전트
상회
세인
##외선
엄지
표출
세나
산지
징징
쏠쏠
분경
응원가
다다
코타로
추기경
콘테
억압
##SS
일자리
윈스
School
##MC
지령
신시
후한
운운
Miss
선도
##클레스
김창
마테
질러
CEO
키사
치이
랜턴
1935
팔찌
##atic
간행
인맥
UFC
진가
Rec
##ᆺ이
삼거리
GR
대제
이를
끈질
##일본
뭉치
바루
유토
what
사사키
배분
옥타
츠루
고베
재사
경유지
???
##니클
##카즈
수고
스티커
##토미
극소수
뒷받침
밀접
1918
치명상
##ern
소피
티베트
마르크스
다단
자바
포고
##itch
조지아
코스타
벅스
당분
알고리
기한
데카
이노우에
##ts
장타율
맞춤
빨강
베드
STER
달렸
별자리
1934
따라다니
운동가
레스터
본디
Che
돌릴
허리케인
쿠파
131
창병
아이언맨
하르
파파
스타크
지났
ADV
'''
기마
일보
국력
임상
손아
아의
##연합
겨루
##사전
여고생
플래닛
어드밴스
평면
게임기
천도
##셔츠
고폭탄
End
퍼시픽
프론트
덧붙이
방금
자주포
천적
##날드
시중
로만
VR
##rain
맛보
Ge
Di
피겨
쿠시
##큘라
다룬다
이가
위나라
함경
도리어
인내
독성
였으니
Air
쇼군
불태우
##tr
지낸
단골
포레
마이너스
편대
세간
디에
토하
얼리
메라
과부
남구
쌓인
방황
놨다
##어질
미스트
군산
##루살
새로이
휘말려
대명사
무성
입성
##루살렘
고어
넓이
노조미
도도
명령어
성문
알고리즘
헬스
##oot
Mod
한심
줄곧
사부
마사키
강유
##노미야
깎이
글러브
군벌
if
전편
##춘다
간다고
종일
##긍
마이트
야쿠자
그리스어
단조
교주
줍
인프라
걸작
멀쩡히
자민
밝힌다
표명
안다
예술가
실험실
안나
경신
##재판
흡연
교란
##의사
초사
드라큘라
서드
취직
위즈
포털
##웬
##ren
마커
어긋나
피리
굴복
피코
에일리언
정유
뇨
이화
박주
착수
남용
관악
시립
송도
솔로몬
col
담당자
킹스
광신
지날
##같이
체질
금전
작별
단절
자랐
타케시
메스
샤크
덫
첨가
##UE
악장
카로
풀렸
상반기
EMP
아이리스
떠서
##크라이나
우크라이나
지망
##칼리
꾸며
카스미
미ᄅ
##55
##쿠로
갈린다
예비군
집정
##콰
예루살렘
해운대
여의도
저격총
PVP
직관
천계
될까
왕궁
시드니
부서지
관제
이치로
학번
벌여
##UR
옵티머스
원호
휴일
제후
##데아
성추
초원
로딩
비오
추이
토오루
광석
미성년자
만류
##rist
night
사교
주범
비늘
매사
스플
진흙
손녀
타노스
떠올라
도미니
##ony
##ma
청색
##꿀
카린
Sound
토착
사쿠라이
POP
도망쳐
쏟아져
느냐는
Hy
염소
키워드
회복력
작인
화요일
총대
끼어들
해지
##중국
양도
스트레
제식
##사우
문과
정중
연희
광저우
하세
불멸
컨테이너
백합
어우
해커
무작정
##세데스
김전
드립니다
메르세데스
그걸로
##iew
쿠노
요동
고독
괴담
아역
나온다는
프런트
착하
거주지
DO
유소년
따라오
출퇴근
상수
리노
군중
맞히
블라디미르
뵈
진작
연구자
팔라딘
don
##ope
벼슬
행태
좌익수
유교
양면
##시계
조운
MASTER
노숙
대칭
오너
현명
##그램
요르
한지라
##틀랜
아산
##데기
노이
성채
애틀랜
모터스
바주카
저리
잉크
캘
##수엘라
법무부
인테르
신디
발트
민족주의
시한
MD
눈ᄊ
고려대
EM
ㅋㅋ
나날
흐른
유수
징병
##ana
유목
아니하
손바닥
##리히
반다이
커리
아야카
게리온
후유증
빌헬
묶여
배지
툼
먹방
##atale
기와
##어찌
드라군
##즈루
선비
카트리
과실
카무이
제멋
교육부
조장
넵
##던트
데이비스
스코프
프레데
무너져
하야토
바쁘
차려
퍼스
Femme
##oon
취해
베토벤
청량
로망
바뀔
사업자
##라비아
콜로니
효력
그닥
SO
##스트리
Cat
사에
시그마
칼럼
way
황족
##패스
액셀
명작
이마트
##ox
깨어난
농어
BAS
이안
의거
빈사
어찌어찌
끌어내
레이터
##ield
대용
재팬
##덩
언행
마도사
라지
브라더
금기
갈아타
일부분
편해
득점자
경인
박준
사우디아
##천동
얼핏
bl
##클랜드
학업
망가지
텔레콤
섭외
성주
가치관
##22
애당초
티코
애프
베르크
다나카
베네수엘라
역설
EA
미토
##노이
1100
수산
매복
이우
##안군
소심
우시
펄스
ㅏ서
쟁탈
##무장
1932
##야샤
타협
극찬
스위트
이누야샤
WE
생사
흑백
한몫
경장
알코
각색
굴려
##의정
활주
친밀
##olog
습한
알프레
트림
1931
그놈
피라미드
광학
1933
XP
수준급
무어
민국
링컨
해인
초토
선체
아루
택배
미지수
대잠
##티어
보답
총통
폴더
겉보기
친위대
이윽
사바
이윽고
증원
껄
##가요
재혼
##언정
확연히
로드리
패기
양념
창원시
대두
클리ᄇ
웃긴
브릿지
##푼
조율
일쑤
중앙선
광주광역시
렸
강적
##변속기
스루
##무스
일으킬
##Fatale
전리품
씁
조선일보
##맨더
못한다는
FemmeFatale
중얼
With
반말
병살타
Hard
자연스레
Run
이관
다던가
스테이트
빅터
효과음
위화
카도
외출
꼬이
안토니오
다정
마모루
미타
건의
시력
피어
바하
##퀄
피곤
진해
참패
XXX
##돼지
자잘
쾌속
지중해
다인
김전일
사위
부회장
마징가
추석
두께
임용
악한
흐리
수려
복종
CT
가든
칭송
##제이
##AA
연비
인테
후타
나진
키가
탈옥
번영
##쿠버
엇갈
수작
무찌
성폭행
미디
340
토머스
부화
준다면
클리블랜드
Not
정장
중령
베라
커브
전념
폭발물
든가
탤
##무진
봉황
App
성가
카가
직감
이스터
신이치
진공
셜록
가솔린
안테
승기
손흥
##elf
Rev
슈타인
가산
여건
##암동
입맛
질리
추대
니콜
##ouse
묻혔
도전자
RS
설득력
말장난
프랑켄
소이
1928
##선거
제정신
214
캡콤
##사의
기병대
CCTV
식신
봉하
스폰지
동봉
송구
흑화
압살
아그
##ᅥᆫ지
RG
충주
환원
도널드
호대
토탈
성공회
신다
나왔으며
셀프
제이스
dis
##라이어
후세
부츠
놀림
명인
채무
##저트
술법
##그라드
예리
키퍼
난전
악세
Da
바늘
미셸
치중
꼭두
환각
체조
게재
손흥민
사용법
보인다는
무의
든든
쓸모없
들이대
박격포
외무
듀엣
아지트
서문
붙여서
##ᆨ션
카세
송이
쇼핑몰
돌아간
밀어주
##75
VIP
가출
꺼리
##무니
꺼지
생겨났
장래
시동
##인드
조세
쓸데없
이ᄆ
의병
어떨
페로
접시
안도
서식지
순진
##레이드
육식
충성심
키리토
뾰족
마포
경위
##투수
SHOW
피신
좀처럼
미라클
쏜다
유감
##생긴
쇼코
재사용
종자
재해
바이스
으시
울려
협곡
반칙
스왑
댔
분사
박힌
마작
삼각형
메테오
##아아
서면
광양
도호쿠
완전체
공채
위생
선발투수
##마사
아종
변종
아즈사
##득점
상권
선진국
진과
넘긴
릉
사우디아라비아
UM
트린
시궁
계보
육박
Elect
하코
임창
관습
봐선
오스카
마음껏
사각
서북
깬
기만
윈스턴
빠질
아치
시구
##니치
허세
RAW
어처
온화
북유럽
##츠루
바흐
느낀다
시위대
리포트
초식
##방향
빌미
혼종
불가사의
폭사
co
##ORE
미츠루
Ke
141
##컨대
She
우기
학창
웨이트
310
대강
동국
##슬로
만회
사마의
순조
호노카
콜린
체가
8000
땜
제비
두터
잠복
스플래시
정인
##투표
결별
격돌
프레디
작살
액세서리
드러낸다
강해졌
##we
저번
##ecial
가가
과다
최전
석궁
넘어오
홈구장
도르트
동물원
쫓아가
에리카
일으킨다
연주자
현행
백미
##뎌
##치오
제구
향수
입학식
버지
구자
철학자
사과문
패트릭
벡
대여
Get
낙원
서부터
생각나
입당
김혜
협의회
사다리
존댓말
앞쪽
찔
아픔
발산
렴
만두
수법
정적
뮬
##조각
탄종
풀백
대관
단테
##요환
홍대
본문
##asy
제이크
기요
호스트
##ane
하이드
다뤄
날아간다
포르노
라거나
##66
수렴
승부차기
갇히
콜라보레이션
불사조
레고
헷갈리
무거
앨리
쌈
샌디
평정
##its
DT
Ang
스크래치
애플리케이션
world
모여서
##미아
상정
블레이즈
사설
오미
타라
움직인다
올림
##28
비석
임요환
김세
수레
와우
정제
갇힌
어처구니
비정
쫓겨나
오리콘
시엘
콧
무자비
보태
1924
정류소
##미사
부풀
열풍
까먹
유죄
왼팔
##히사
최면
white
크로니클
거물
당당히
듀티
엑소
480
스튜어트
대담
##쿤
속삭
송병
설사
김인
학파
식별
소인
##짜기
기각
##먼드
헌데
순교자
차세대
선보인
강당
볼텍스
분수
##EX
양동
재선
느냐고
촉구
제이드
안장
##ze
밸리
손수
뚫리
다지
SW
해한다
##힘
영분
알루미
앞장
침체
007
이룬
##용차
원동
가까스로
밀라노
박병
이과
수배
더스트
0000
Cy
다이브
한조
대전광역시
탐욕
치뤄
추산
시애
부합
하드코어
돌아보
영락
깠
헤딩
냄
네메
선공
##원수
열받
##크로스
대변인
니키
느껴질
스칼렛
##포로
우익수
콘스탄티노
su
##ness
망원경
어기
난동
베른
720
주주
사이퍼
가네
기총
안치
착공
플랫폼
어비스
전태
에덴
Song
목성
프리즈
Big
다이어트
거스
애리
다른데
Comm
시저
호조
발렌시아
국무총리
##24
격하
자위대
비약
편제
합방
Back
선명
##인간
처단
클로즈
동포
##appy
주작
데이빗
도르트문트
420
폿
팔꿈치
강남구
정무
신민
Arm
류현진
##매매
마더
##도니아
선교사
##즈마
시애틀
의미심장
찍힌
이류
점하
디트로
디트로이트
서점
룽
교구
광화
검찰청
빌헬름
레트
커먼
승계
품종
황자
화수
삽화
##스란
매트
##지대
방대
망자
익스프레스
##ny
유쾌
해서인지
갈기
출입구
화장품
이산
격노
동대문
코이치
대한항공
오버로드
##제리
매거진
조선인
리젠
기울이
항로
목표물
##ke
교감
##벨트
##평가
랫
히로유키
특권
골리
##드래
창출
Order
기라
##어쓰
유명세
##제품
##RAM
##마이
##sc
받아들였
##슬라비아
유고슬라비아
적정
##부대
1929
미주
대각선
##모자
바바
1911
부두
##틱스
빡빡
마고
민병대
포화
역기
줄일
카야
로마자
와이드
후일담
알루미늄
대장군
Skill
리액션
젤다
스케치
미련
나우
단신
센트
전복
꼭대기
타고난
서재
정현
어려우
송파
방랑
##네트
커네
인디언
되돌려
con
주군
디디
>,
##35
김준호
대머리
헤일
법령
국수
KS
플러그
돋보
배척
떨구
유추
선천
벌칙
집정관
독재자
서커스
농부
##chor
스탠다드
웨일스
주성
매입
씁쓸
TB
나주
케네
##평군
프리스트
리조트
태연
지아
사이오
퇴근
안드로메다
고를
##공격
첩보
아벨
허영
클락
인즈
차출
평하
UR
즘
발효
겸임
1925
시즈카
아론
문의
열전
가제
Every
페인트
사토시
다라
##다간
자택
브뤼
과반
행선
##느니
좀비
##let
토네이
토네이도
세균
버금
노후
발해
새해
수분
일직
토의
졸개
무협
정규군
김정일
연기자
연하
##실히
당분간
오재
타지
보유자
PSP
cl
듬
서경
윤종
크루세이
부름
##카스
분교
##드릭
국정원
투르
조회
입상
디테일
돌렸
병영
장단
난폭
##푸스
##UC
모티
경이
내년
태고
흘려
##AG
나지
양아치
##예프
운전자
괴롭힘
##니트
짤방
영화판
석화
리히
That
구이
##파니
비행선
사상자
나나미
위조
알코올
어휘
뜨겁
가즈
속옷
총사령관
##각시
상대편
마늘
수반
왕녀
##ᆺ거리
박세
난해
1917
성추행
커터
##자카
성취
느긋
불리우
qu
208
해협
화랑
망해
쓰러진다
이에야스
활주로
간식
가차
##눅스
동거
샤아
단거리
##묻
##양군
지독
전염병
생리
치타
##패드
추월
##작전
##타자
합산
조비
노랑
##페스트
심포
돌아와서
공병
괴도
상경
갈고리
펜스
선발전
프랭클린
##폴리스
te
받쳐
지체
온전히
누군지
라운
춘추
이따
자석
마장
TCG
인민군
신종
##비우스
시노부
비숍
복권
홍수
늘어놓
자부심
단말기
슬퍼하
마는
개화
숙종
212
켄타
##괘
츠카사
리눅스
공직
출세
역전승
해저
마그마
원산
비욘
##정역
카트라이
##애미
세이부
밀린다
관광지
유행어
##bps
Des
모을
스트라
마이애미
최진
이어인
동남아시아
대적
교재
제멋대로
Har
##운전
무너진
위임
##바위
##ert
갑판
교원
비밀리
콩고
초급
잔당
토요타
눌
##ious
##정동
불운
낭만
나츠미
파고들
##옌
##끝
FX
##르르
등산
영기
내비
171
##ient
라이터
NL
Top
한해서
앞마당
왕따
게이밍
타쿠미
구세
항쟁
올리버
235
튜너
모건
요일
##단체
침식
체이스
##net
판본
연방군
떠들
채굴
크롤
능동
##모사
스펙터
GL
아델
파열
댄다
자의
영창
개종
850
유체
##게요
Tri
누마
##위치
심부
법조
의리
##비히
EXH
지켰
##유산
크리스토퍼
야채
##노기
##러지
##ret
틀렸
사절
255
이제동
으라는
1927
조슈
FR
농도
##ideo
후작
NS
..'
패거리
가주
악보
리오스
오드
어중간
일선
직계
키메라
푸드
마츠모토
정진
관대
근래
가변
플레이트
##튀기
캬
##니지
장녀
레이크
일찍이
비대
백악
##누르
법정동
클라이언트
##넓
던질
구치
래스
##pl
뻥튀기
주임
매기
RF
해밀
줄리아
##버릴
##호도
##olution
신한은행
Amer
차갑
골대
헌병
##둘기
는군
공전
중산
와일드카드
미완
내심
매트릭스
열려
어로
쉘
어지간히
햇빛
모기
왕건
##토록
Em
초동
용품
206
스플릿
##주곡
트리오
연평
특출
유니버
이의
상고
이승엽
유세
애틀랜타
치렀
와이어
인스
부메
서스
나탈
자며
투기
안중
PO
텐션
빼내
DEF
드레이크
##IST
인신
쳐내
LCD
작렬
##ᆼ크
##자스
off
삿포로
럽
##co
경호원
##버릇
소량
리브
##ERS
드러낸
각본가
유민
버디
오아
정직
가메
##비언
바트
리바이
사역
면은
커트
성남시
둘러보
알파벳
중공업
구애
이지스
갈라지
우로
##교도
벨벳
켄이치
333
게르만
장학금
주스
Act
외로
잠금
밀어붙이
프라이즈
튕기
기통
사비
끼어
UFO
부메랑
쫒아
요크
원제
가쿠
정경
내걸
드리프트
치부
데뷔작
209
무로
이신
카터
메아리
버니
청주시
##ful
##밟
엘런
##mania
ve
판도라
에프
절묘
데이브
빗나가
290
Pe
##라이터
지바
kn
기겁
LS
케르
우메
메소
줄줄이
꼭두각시
남원
피크
노렸
깨우
쭈
##츠라
작물
무난히
튜브
KG
코지마
햄버
리투아
토템
암석
리투아니아
동선
##피어
정종
소아
소음기
##ner
##ham
##고쿠
동이
뇌격
##놨
TD
형법
##사우루스
시킴
막힌
머스
특공대
내려놓
토와
##틀링
주름
##캐슬
인기투표
지켜야
Bar
Fre
215
쎄
진전
받침
이로
선풍
##나간
친근
오바마
파드
##슘
가창력
트레이서
데프
성녀
외야
단단히
아다
세단
##하니
Ext
소중히
##조선
비틀즈
루즈
런닝맨
AMD
가한다
시정
우습
이민자
##태우
시궁창
자드
God
자연수
데일리
Str
1926
생계
통역
데스크
희미
송곳
나루호도
되려
레미
다이묘
항우
뉴캐슬
브로드
독립운동가
##숭
내려온
안타까운
##곡리
뺏기
##ning
동산
GDP
괴멸
탈리
나가사키
브라우저
처했
Hot
팩토리
Bea
재상
끝냈
뭉쳐
가중
Ab
경관
도망쳤
##ERT
STAR
##캐스트
밀러
비어
모를까
오마주
규명
RAM
anchor
덩크
위화감
우투
마드
배운다
음양
##ump
아우구
김제
샤이닝
가세
클라우
나츠키
어린애
Char
노사
항소
전폭
성종
##렉트
자정
##서리
보전
고스란
요하
고스란히
러블리
'-
케네디
로페
상해
##ward
일지도
심심찮
마카오
Met
Rain
다구
심슨
시발
바빠
##day
점포
Sil
굶주
소셜
초중
every
대의
서남
중소기업
마천
공시
최성
헛소리
알맞
##ATION
인장
위인
갭
데이즈
FN
##여행
경상도
무심
아이리
랄까
##하늘
탄수
제레
평지
오일
입힌
최적화
동유럽
간장
산호
박민
투여
**
뮤즈
만화가
해결책
수리검
시달
시르
영재
체류
want
이시다
성령
뒤따
##상스
채울
이목
재화
싸워야
FE
이분
White
##88
비하인드
Inf
옥스
헤라클레스
로버
찬사
랜디
최우선
신촌
1400
##내기
헌납
yout
세무
팔레스타인
채권
##트럼
셔츠
##트림
경의
심플
미얀
인피니트
요지
기판
대리인
수주
레비
문호
##매니아
카자흐
제각
발도
십상
바사
눈부
물러났
주시
반가
수료
유우야
이송
계승자
사생활
젯
코나미
나선다
KD
포이
로니
명품
북두
루드
충동
이블
성동
바람직
알아듣
##리안
군단장
수영장
안테나
조승
세토
현수
역관
앤더슨
퀑
김태균
down
최재
긴장감
more
탬
단다
벌어질
멸자
데려온
과잉
황무지
오덕
May
불분
버지니아
길목
애리조
##대표
건너편
정연
207
마케도니아
그물
키바
감속
스트레이트
이치카
Pop
잔여
IDOLM
다이렉트
한인
주부
도보
개틀링
권역
##살이
오퍼레이터
발령
빈스
로로
대도
스쳐
여행자
근로자
Master
저스틴
청문
몰려오
주권
장막
들어선
게ᄋ
내무
##소통
빠뜨리
흑룡
배럴
대한제국
터무니
##대군
의류
휘둘
의사소통
하렘
트랜
##son
체로
지자체
코로
한결
한다던가
창세기
하데스
편집자
영국인
##드래곤
며느리
고모
투항
##뮤직
##au
마른
부녀
분과
치도
서울역
유부
치밀
##ANC
PA
찐
외교관
자음
우사
##oud
노마
농어촌
냐면서
병맛
박기
머들
볼프
심리전
##ves
불러오
##트르
아르테
익명
사단장
##지리아
단연
감도
나이지리아
이긴다
포유
##피탈
몸체
쓰러졌
Game
시크
대입
초연
##밖
숙명
나기사
공석
불분명
##엠
이범
뛸
지갑
##실록
노동조합
멧돼지
무법
가신
여객철도
OR
사병
##밑
촛불
플라워
로자
빼앗긴
스펙트럼
나시
는데도
나눈
충실히
##쌀
수년
##뚤
수뇌
안식
분전
161
올라온다
경희대
미분
##마츠
they
끝판
감시자
##지물
이룬다
1922
사카모토
##ift
티탄
송라이터
행동력
빠져서
여대
체급
란트
만화책
둘러싼
##블랑
리비아
엠파이어
##ship
즉석
전용기
명확히
서유럽
호타
서둘러
스패
##노프
##ape
애프터
COM
동독
너구리
쿠미
라데
유시
제품군
##부짖
성검
울부짖
중심부
벗어날
Are
##갱
일어서
한중
몰린
경시
##ᅳ러운
카에데
신령
##감치
랄프
GAM
기공
그토록
##원군
오반
공적
##찌감치
피고인
조로
치세
미하일
지친
박히
들통
떨치
##그로
경합
리언
1923
열렬
죄인
슬레이
지출
체내
세츠나
괴로워
##았
TN
행각
WAR
민지
기생충
국물
절약
역전패
간편
터리
넘길
1921
고갈
기린
자재
구만
##현동
TG
외래어
스노
김택용
##lock
좌석버스
레베
##ᆺ빛
불가피
카트라이더
크러
차마
아닙니다
반자동
재빠
메커
산출
평했
요양
몸집
트레인
Bu
달라서
거신
깔리
가야
무네
Bra
##또
멀린
나데
520
only
시세
로미
언론사
마오쩌
마오쩌둥
##ien
아노
마우
##도사
멱
시프트
생겨난
익스트림
천문학
Yeah
부설
버즈
날릴
경전철
바쳐
##관계
마비노기
여겨진다
##미리
애덤
DA
의약
단번에
##less
필기
사시
준장
쿼드
이장
비둘기
##ize
새겨진
특색
news
학부모
소망
짓밟
크림슨
아만
##산면
##장구
도타
순순
살릴
##zy
음식점
루시퍼
Cont
##LD
마취
능하
완패
절감
케어
##니케이션
##스르
메이크
이트
솔리드
피니시
##겨서
리시
헤더
성급
피버
커뮤니케이션
오스틴
pl
터미네이터
신공
걸스
제명
하얀색
아란
등용
제네시스
##EE
이라든가
덤비
프란츠
##형제
캐로
탤런트
##아라
티나
밴시
##떼
예하
산산
바쁜
Hea
창간
서약
빨려
친화
트레버
##플러
##ᅪᆫ
욘
치소
인분
##45
됐으며
월터
르네상스
임페
항속
이도
장대
진한
활기
##led
##고루
유스케
##omb
올려서
일갈
섹터
강령
전투원
자치구
아세
당근
일생
포괄
극동
궁정
폐하
##준호
비범
저거
콘테스트
영화관
남아공
다마
독도
구스타
설문
무패
급여
붉은색
종로구
구비
운임
켠
##똥
간첩
급제
위태
독설
포진
행해
##기어
댈러스
단간
설레
녹여
출생지
재차
##ited
Project
교직원
##HD
##법인
살피
그지
락스
팀킬
온게임
온게임넷
##부리
##마드
와타루
7000
세련
리포
배고
##람쥐
민속
##문화재
알림
복부
Joh
통한다
회자
##조작
다이스
##ALL
Off
자위
온전
Battle
불허
##마트
이상민
TEC
응징
생포
붕대
1912
읊
TF
노스케
불안감
플라잉
정선
선상
외침
이유로
스릴러
다트
우동
메츠
계약자
순순히
미뤄
##ita
승부조작
유다
다이빙
정주
화내
발자
회유
이어폰
##준혁
JC
##소타
선별
Open
##ORM
톡톡
성유
##ton
원상
반죽
태후
DDR
~'
정국
협공
척하
조나
성품
빵빵
##29
노브
순차
뭣
천연가스
wiz
칸나
Sky
원한다면
돌풍
지못
백지
풀려나
지못미
##을지도
패미컴
##낮
우이
Moon
무너졌
나뭇잎
븐
조니
전투복
브리핑
케미
번거
......
조부
##웹
소주
221
##ENT
BASIC
이석
연장전
노원
기염
관건
알비
미네소타
##선스
일직선
777
나타날
얀데레
쉔
스몰
벨리
불러서
반짝이
맞대결
good
##23
스켈
인다
카르타
쏴서
일컬
힌두
저력
타츠야
라리
전라도
하늘색
진다는
##row
##27
레코
1300
##촬
야자
섭정
꼼짝
##돔
데려다
##슬란드
##메르
짤막
펼쳐진
매도
급진
키웠
##개골
아틀
네타
차크라
카즈키
감염자
Like
다듬
##com
##위원
남짓
내려찍
체구
아이슬란드
무모
성원
말린
살린
마코
라이선스
청취
초회
아껴
수족
WCS
##ling
라든지
소탕
멜리
희박
경비원
김현수
밀쳐
Special
구했
##즐리
엠블ᄅ
화속
2022
조개
오모
음란
순항
흉터
여느
물들
망설이
갱단
마자
졸지
찍히
beatmania
##의지
니즘
방어전
개드립
##타기
네메시스
Bad
눈썹
탈탈
류지
##클라
노프
샌드박스
도메인
아틀라스
##나들
재주
비서관
강호동
##교회
짊
톱니
누락
검거
관현
이나즈마
막말
둔화
낙하산
중사
음모론
루리웹
경영학
디에고
하천
TT
키움
티셔츠
탈주
일정량
산체스
업자
악인
이북
빼놓
릭스
통학
데이터베이스
Soul
긋
합금
바이올렛
##일관
파병
두꺼운
치과
백수
다이크
넵튠
추위
부상자
팽창
Med
코팅
이어질
세이지
는구나
##rop
도망친
멕
미달
모치
주립
급상
취했
탈것
프라이드
##도스
성범죄
특촬
착취
원로원
사죄
##브러리
벤츠
브래드
##말라
213
쓸어버리
드래곤즈
##방식
##더리
임프
거창
반대쪽
이천
이시카와
크레이지
지폐
마호
낮춰
호라이
##UB
칠흑
때릴
박태
서스펜
형벌
end
시끄러
쪽지
Po
##vent
마사무네
앵글
티타
Hey
over
정관
섰
피쳐
환불
생방송
이끈
대지진
FBI
##산리
##뜸
##먹이
픽처
이메일
##line
일간
##ute
저렇
맞물려
Now
WOR
무당
일파
조현
반납
자기장
셔서
Dragon
성희
예뻐
Bur
여하
223
글ᄅ
찜
##play
유노
빽
넘쳐나
명백히
our
사카이
##xt
폴라
철벽
헤지
275
밀양
밸브
해프
드미
히코
스피리
햄버거
전갈
메커니즘
스탠딩
바실리
부통령
##드류
끊이
옮긴
baby
관용
양지
막스
##나가와
자자
파괴자
정부군
##stem
래쉬
001
처해
권하
니즈
#,
미처
몰렸
으ᄅ
이바
신봉
##oney
세속
옥수수
Eng
##쓴
에테르
미유
장동민
거머
매점
린다
순례
내려왔
##소니
버퍼
치히로
대장장이
사오
미카엘
fl
성운
반달
왕립
급습
원나라
##맵
받아들일
1907
##방사기
헬로
화염방사기
하시모토
##96
만장
연성
스탠스
민심
팬클럽
수차례
폭군
스투
자선
일찌감치
구루
온건
본드
액트
ac
신탁
몰라서
영령
손책
하얗
사라질
에로게
비행장
개관
아카기
Way
전한
파나
쩌
코브라
일개
##글러
올리브
제너럴
민사
##ᆩ이
세비
급증
강서구
인승
결선
##규어
##두근
종속
슬쩍
노보
Alb
##FFF
조원
했으므로
##IGHT
골리앗
결단
외환
##콥
애써
딸리
패권
수당
##미츠
원어
##eng
설립자
햐
써니
해프닝
수납
엠마
see
볼일
라이브러리
마리사
겸비
1905
부서진
관전
렀
암기
펠트
황소
케니
카논
연대기
행군
테슬라
##벅지
외쳤
새신
포자
디비
설교
마레
##lt
문성
럭스
수퍼
번번
참모총장
차오
제국주의
졸라
##는데
구스
티모
탄다
탄두
갈아입
DAY
튀김
러시아군
아득
골짜기
빈센트
뒤쳐
태백
슬라이딩
##나우
Int
송신
365
바꾼다
Cent
조문
방관
max
레그
악질
속사
미나토
Comp
현무
증진
향년
초전
도망친다
전령
일괄
쓸쓸
희생양
Match
모리스
부기
트리스
앤드류
타케루
날카롭
##툭튀
##시즘
선글라스
슬러
놀란다
##홍철
##라트
골고루
##뜬
은가
##영향
수송선
모로코
됬
코일
료마
클로버
Ass
거행
극성
샤르
갑툭튀
##ᆺ소리
216
대구광역시
최형
두개골
백두
##26
지탱
보급품
바깥쪽
##짖
제드
변모
블루투스
반주
총구
명장면
검출
끌리
구라
"'
사생
미용
하남
거니와
물음
아이오
Yes
초필
충무
욕먹
템플러
자결
명실
데니스
본거지
밴쿠버
##건설
##스탕스
370
레지스탕스
좆
언락
왕성
아데
다량
동아일보
마공
##드루
막론
파기
리더십
say
시베리아
블랑
NAS
최하위
여명
행세
Fla
##렁이
바란
승하
증강
사업가
쓰러뜨린
레프트
right
사주
알제리
이남
자판기
복식
메두사
재규어
이문
매지컬
격납
암흑기
재발
따랐
푸른색
수속
라일
미공
덕택
정대
서유
발하
토토
만년
코칭
남긴다
kr
매매
양육
##열차
크루세이더
홰
소란
##독부
붙잡혀
경전차
해발
텐더
마르티
한복
세레나
##ude
마셔
교제
포상
메르시
슬프
##맹이
전위
CIA
##원지
##천리
샬로
장기전
Ook
##내셔널
부르크
인터내셔널
라파엘
사파이어
##디우스
좌완
거머쥐
광동
하버드
미코
세운다
PvP
포레스트
이달
##ata
잠식
레오나
##ᆺ밤
베이커
SUP
부어
던져서
##공주
패한
에어컨
에노
아츠시
사서
토사
왕세
뛴
구실
드래그
##큐버스
케로로
리벤
오카다
##뜯
수혜
시오리
맞췄
사력
공안
연화
폐위
시연
사드
선역
Last
아날
엘라
몽땅
XY
쌩
에러
호우
총애
상승세
시종일관
우즈베
거미줄
동맹군
IF
보호자
매달리
척추
##게이
밀가루
이터널
화판
개찰
장담
TWICE
무안타
결투장
##짚
현질
누님
앞장서
부전
처방
##ius
북서쪽
쟁탈전
거유
명왕
래리
크로노스
굉
헤븐
카메오
소름
쿠퍼
##스코
화질
명은
자멸
급상승
아랍어
플레인
##고스
야구단
도입부
440
정윤
공중전
막시
미약
잘린
나카노
##III
가ᄂ
봐라
##red
부적절
수뇌부
배반
유족
센다
마운틴
##나시
적기
난장
카멜
자치령
하반신
깁
네로
##로프
기어이
간직
의존도
추상
##오피아
순삭
에티오피아
아디
팰리스
끌어올
이강
##당기
잽
키울
불발
Core
BRV
큼
숨겨져
##ets
퇴임
자백
크리에이터
불린
넓히
정보원
돌린
지도부
한국군
Mir
Show
##76
##ated
시라이
보이드
there
납품
스맥
좌상
발병
##매치
##ara
두각
약해서
왕정
철퇴
저질러
관세
풀어
츠바키
감찰
아이젠
석가
배급사
최장
돌기
필승
원반
예매
국내외
스맥다운
오피스
쌍용
공민
비잔
Nor
가져와
데스매치
1908
##넘기
내줬
편도
개리
범하
조선소
원성
##cl
거둬
백룡
센트리
사이먼
깜빡
피칭
신약
##가타
장려
his
아리사
HOT
정몽
프론티어
우대
크리드
##데라
소모품
부술
파비
MI
수전
저축
횡령
승낙
또래
키운
베레
보름
시어터
악수
얌전
막혔
바이퍼
퇴마
##44
톈
보좌관
대북
들려주
##페어
견고
묵직
테츠야
레니
판과
적도
리비
호화
pe
입혀
##천역
아레스
걷어
가넷
오보
micro
자가
신격
필적
##지리
##ᆯ리온
돌아서
퍼트
잔재
례
바운드
슬로건
성단
##일기
솔루션
물류
엘소드
다친
모탈
위아
##ely
자아내
졌으나
##클론
수박
연못
반려
tw
승승
##블루
원자로
비우
어다
통근
몰입
노태우
치를
##산군
무방비
Mark
문인
투석
쿠도
급한
시녀
##테면
컨퍼런스
저항군
신빙
전문학교
오산
변속기
씌우
뒤바ᄁ
란다
미얀마
노획
지으며
소나무
커맨더
얼룩
If
사하
##이즈미
이를테면
##UST
##거스
제복
충공
지나갈
빈곤
슬래시
근위
나눌
컬링
섞이
비열
다크니스
에어리어
각별
뜬공
Art
지명타자
Best
First
##임수
##영수
이니셜
혈관
##픈뮤직
팝픈뮤직
쿠폰
RPM
수제
허술
##디난
난쟁이
스케이트
이탈리아어
Sur
어진
블리츠
서태지
got
남산
##KO
오클랜드
나온다고
따오
김소
거처
터프
악영향
삼국사기
호르몬
구워
How
맨날
가늠
앞둔
그제서야
보인다고
파주
바드
첨부
키나
액수
재미없
크리스티안
who
##트루
시미즈
츠치
틈새
앞세워
##OCK
용왕
id
부피
허벅지
큰일
##꼼
식인
인플레
여운
칼리지
-.
직면
베아
통찰
금서
Sl
고뇌
열광
Christ
언론인
##85
진행할
Ap
##멈
카프
히이
근방
처한다
219
##INE
지쳐
이대호
뛰어다니
위안부
이형
피그
감마
떨어진다는
엮인
분출
##니르
간절
연합국
이규
인제
압둘
가르시아
중론
페달
훈련소
구미호
##ga
아스타
부토
후카
푸쉬
알몸
프리드
웨딩
자유당
##udio
해밀턴
어쩌다
틀어막
낱
##ERF
치른
문관
무리수
평의회
머릿속
여겨졌
토코
한족
시리우스
비타민
린치
Down
거라
소폭
다이어
김신
난징
복각
급속도
RED
중화기
FFFFFF
임페리얼
저음
폰트
남친
정시
곧장
책봉
Never
NA
##푸르트
동급생
추론
팔려
##ric
입니까
유창
민트
Sam
투르크
950
키치
벼락
알아차리
##지기
전황
##다녔
##만도
오자
섣
Tour
약수
겉모습
마키나
말살
파탄
feel
어딜
화전
군세
송병구
백과
밤중
##work
Free
NAT
어웨이
티거
활약상
##통일
이조
하이브
540
클럭
빨라서
아유미
##ther
흩어지
시커
나오키
금곡
골수
##ley
덩달
닛산
퍼니
주루
마토
내쫓
소홀
셧
용인시
고고학
매그넘
##캣
활발히
화룡
Na
시술
단타
김호
Side
질질
전우
검도
펼친
뚱뚱
대나무
동결
장자
##세우스
##ux
##깽
GX
화끈
416
돌려보내
GPS
미움
Magic
심해서
병신
환산
올바르
옵스
##메이션
##NG
##HC
전쟁터
##럴드
하쿠
카츠키
독단
중의원
분비
키쿠
##ᆷ핑
일기토
나리타
그분
제동
박차
사쿠야
궤멸
지치
조짐
사복
영수
지저
##다듬
선후
체하
##erm
응하
미니게임
동성애자
yeah
##hy
투수진
페이퍼
엑셀
인테리어
Track
몸싸움
##폴리
##황후
##트린
뻔하
전패
세가
##요리
될수록
정치가
미완성
서동
치곤
판명
길러
투표율
외장
곡사
유역
허니
탐험가
페미니스트
이반
엄폐물
트라웃
개더링
다채
패트리
형주
찍혀
지석
통영
Sim
차린
정승
토바
##사관학교
동남아
갑주
개헌
9000
직진
창시자
상서
배틀필드
정착지
로토
노린다
내공
픽처스
지하실
시속
KN
조선총
전곡
검색어
아재
진범
페라리
해설자
체크카드
KCC
라르
스커
##들인
경비병
엠블럼
다발
끝없이
톰슨
제곱
알프레드
조선총독부
거액
마크로스
밀린
충원
윤성
태양계
신년
##ird
KA
한미
공연장
랍시고
##가르드
바그너
어시
마라톤
한눈
Pol
##러기
페드로
쓴다는
면도
야말로
끝낼
##뭉
포식자
girl
사학
스쿠
오레
덮치
성희롱
City
보리스
프리킥
노선도
PM
##전쟁
##생물
망할
조공
굳히
빅토리
지질
화보
갈려
##월드
대영
##사람
오데
245
드러머
오아시스
Happy
앤드
스턴트
쉬우
##랗
방망
공황
불계
대구경
아름다움
성시
Party
##고생
참수
##BOX
##이인
절제
축출
두른
접한
##삭스
밧줄
광화문
충공깽
우여
포섭
슬립
Edition
두근두근
##UL
가무
현종
지상군
코데
김한
잠정
##rew
족보
플랑
쿡
야마자키
Perf
뽑힌
메탈기어
AW
##니컬
초계
올레
험악
##21
리제
재결
골절
노블
능욕
난데
평준
##소년단
비룡
야인
##슬쩍
090
짱구
캄보
한들
라카
오도
힘쓰
멘토
늘릴
##UK
돌봐
도망칠
청문회
라다
카르텔
미우
퍼진
의뢰인
Cap
낙동
##플렉스
BP
YG
넷째
쥬라기
Fall
234
숙지
쥔
고아원
di
깍
신천
이츠키
물결
샬롯
이ᄈ
Final
실감
천왕
초딩
엑스맨
콩두
옴니
아와
코러스
약사
눈치챈
##aka
##ᆺ코
선율
##코스터
질수록
벤트
로어
아날로그
RT
##엉
그리폰
##yes
퍼플
수사관
life
##선다
치프
그러다가
EB
블룸
세워진
박병호
차우
허다
삽입곡
즐거움
##ᆼ스
까다로
롤러코스터
토우마
애니메이터
226
싱크로
Will
아로
##ris
##블렘
난장판
우디
풀이
249
알바니아
엠블렘
주화
부우
로스쿨
김하
다비드
##프레이
야스오
동명이인
미식축구
송나라
아야노
##거래
규율
끼쳤
판단력
마사토
정한다
포구
라티
출국
이어주
로렌스
쓴다면
블로킹
PT
##트레
하키
세바스
부록
스트림
주지
안톤
악평
위닝
왔으며
방사선
안젤리
##오버
##분투
##레톤
망각
꾹
카툰
호각
소방서
업종
북동쪽
넬슨
도봉
바알
차인
사냥터
소나타
티라노
방탄소년단
만성
백병
Angel
호라이즌
생식
토카
##핍
논하
우선시
메가트론
켈트
뽐내
RX
##카르
남인
저명
스켈레톤
잊혀진
소양
카자마
##글리
관현악
##워했
길래
야구부
유승민
분양
Stage
Net
Spring
make
강진
흡입
겹쳐서
##게스
효용
적과
이룩
향했
겁쟁이
숫
클라크
니퍼
조그
재보
##que
마실
퍼뜨리
맥시
##arius
겨누
SEED
치워
우먼
217
최원
보이즈
곧이어
함유
스테이크
오리지날
WHIP
로선
상소
슈리
퇴직
410
카츠라
컬럼
##하임
신태
튀어나와
배수량
해낼
김은
##데오
방영일
BMW
시프
증대
들으며
엘더스
제주특별
##자치도
제주특별자치도
##ONE
험한
경순양함
카라스
##재욱
와도
재일
인삼
##tain
동률
##곡절
흉기
사적
속주
##트려
린이
Boy
플랜트
보성
##부사
Club
생몰
예민
우여곡절
루돌프
##ision
자행
채운
에이미
웍스
디바이
그레이브
나아지
시킨다는
애시당초
하강
##럭스
##높
반도체
괄호
기교
전자기
호족
디럭스
표준어
쌔
샌드위치
ff
귤
슬라이더
발사체
도래
경부선
요가
##모델
1906
월등히
혼잡
228
잊어버
ABC
BW
사요
소품
뛰어났
Come
Great
피노
##str
가져간다
깐다
RR
미상
233
##걸음
압승
빨아들
옅
매료
산전
밀려서
찾아다니
중순양함
레바논
향토
##네이션
라이토
잔존
계약서
##폴트
홉
최연
애니플러스
가맹
익산
##95
한승
Cor
면하
경멸
파커
초라
캠핑
마석
토드
버금가
내용물
##ASS
도네
검기
억양
아돌프
루기
##ader
김시
칼질
##ama
혈압
시끄럽
교무실
재래
##OWN
궁궐
치토
옥타브
유상
고철
미도
과열
##ague
난다고
이보
기념일
나타낸다
소대장
악단
양말
여중
독살
티르
잠자
벗어났
##신기
유하
part
수만
리만
천진
캄보디아
##쑥
골격
철자
용호
중대장
미네랄
Class
고른
황폐
트렌드
##ause
타원
진기
##팔로
예컨대
##IME
들켜
편애
224
몰아붙이
메우
IMF
평이
초구
##시장
파라오
Break
MY
스팟
Fly
포커
투영
속임수
약품
잔소리
375
##ross
진다고
텐트
황색
##ival
연마
실탄
취항
역전재판
사우디
has
삼키
아르타
SKE
서주
엘릭
im
Legend
염동
해낸다
발열
##보살
설진
친왕
바티칸
피파
신진
발포
항일
목조
자릿수
cont
산림
Little
하자드
놓인
내려와
PH
##츰
구가
박한
버크
티격
경대
##바인
인원수
강대국
##ism
사이비
퍼블리
센고쿠
##83
임재
##관리
환율
최형우
된다며
aqu
기증
하인리히
허약
발기
복수심
머독
청자
시부야
기압
##상부
신승
문경
잠든
띵
조각상
위저드
##레즈
벌일
##와르
젠지
자서
부러지
시우
##장치
치는
레볼루션
양방향
광폭
Girls
북벌
코퍼
틀림없
우등
용납
##att
Univers
클러치
발족
코우지
##뻔
##모트
집요
기보단
만우
##테라
예비역
##레인저
##IVE
코바
황해
낙서
쓴다고
싫어한다
거든요
만악
보스니아
RB
세터
나왔었
어설트
는커녕
세계수
Swe
뜸
구식
##erry
털렸
수송기
'~
ER
NFL
##불리
교황청
고참
튀어나온
##끌
서산
키사라기
정찰기
승용차
##슐리
회원국
fr
코요미
##대왕
공평
초음
는다며
사춘
뮐러
김구라
시급
보그
파워레인저
강정
John
EXO
조동
별거
깨진
프랑크푸르트
은색
아누
모금
APC
윤종신
폭언
수목
심복
이완
치하
김규
숨결
##르슈
##네즈
질려
연합회
##ᆯ로지
빙글
아소
대주교
전주시
##도어
카자흐스탄
몬트리
깃든
never
몬트리올
에마
출진
301
음료수
슴
녹스
레인저스
셔먼
스틸러스
비방
##교사
벳
코미디언
로젠
모차
박원
포메이션
출연자
글래스
비야
팻
마이티
폄
남아메리카
우왕
##uch
목장
증표
냉혹
again
초심
천자
성우진
바이트
만우절
야나기
픈
##구멍
##매김
순회
해부
##플레이션
평야
heart
이바라
##티티
끈질기
Gl
후사
몰두
추축
빈민
챙겼
##보스
##피온
치솟
우려먹
자객
자리매김
켓
컵스
CGV
미스테리
개전
오거
호위함
위아래
광해군
열대
돗
오정
크로스오버
스테판
시메
잘생긴
227
하동
폭넓
##ords
PRO
정민
겨냥
헌트
Mem
Take
호문
러스트
이면
악연
하로
##시온
##전함
호모
올인
착안
마사히로
도요토미
봄버
히다
레이카
##충류
램지
히브리
성소
##서니
국보
사츠키
콴
사춘기
무예
헤엄
모자란
노홍철
실록
담보
##샤인
조슈아
TBS
명지
쇼타
강국
살아온
390
1913
악세사리
대기실
잖아요
비평가
em
헤이세이
에버튼
통폐
린드
건축가
미공개
뺑
댈
보류
지원군
##람회
눈보라
숙이
볶음
한판
인계
원사
모자이크
낙양
라몬
512
떠올랐
교묘
##마니
화성시
##미트
니르
윤영
##ubl
골라서
강희
론가
화합물
라이엇
우울증
제때
요령
불러일으키
매튜
1909
차고
오우거
였었
북위
은신처
레티
휴지
루시안
거침
캔자스
프렌드
어르
힘내
##베트남
동탄
##조림
괴이
##칼리버
징집
##란트
쑨
비견
지식인
제천
진하
프로토콜
생생
미시마
##스타일
멈출
이여
숙박
고야
sk
브리지
정설
줄무늬
서신
점성
편향
내준
에라
대련
임정
1915
마방
스미레
이리스
교명
##질러
정치력
다녀오
알라딘
중종
##거렸
남동쪽
##포동
은빛
011
##ᆯ림
인턴
무함
토치
달려오
xx
##스부르크
계엄
갈비
유권자
베풀
##body
정근
##그래
Cry
mA
뻔뻔
의약품
오승
오컬
큐트
저상버스
Hol
가온
도가
1700
타쿠야
의결
근황
##정리
아슈
오베
각광
맹렬
망가진
북아메리카
대니얼
반입
나오미
뽑혔
##토모
##ital
견습
김종국
내려서
유키노
##브론
흑색
뜬금없
크류
모하
##로이
철혈
제네레이션
에디터
대성공
사칭
총수
##apan
스냅드래곤
수첩
뜻밖
종파
돌변
품목
##주니어
##세움
쌍검
엿보
원가
맹수
정명훈
분파
활력
식용
시티즌
시칠리아
##스기
위드
페가수스
재기
애착
양양
ISO
내분
할지라도
정했
개표
장지
##iny
떠올
시트콤
크리스티나
울산광역시
모사
EPL
껌
얍
타도
반공
쿄스케
##넌트
나크
##리즘
##제프
거래소
백스
ad
반쪽
허물
귀한
푸시
##ura
##전대
더듬
투덜
폐업
##뉴스
OO
싸인
컴파
##시간
주선
예거
서대문
통폐합
나성
##브ᄅ
거쳐서
전압
비터
##ople
기권
둔기
아틀란
재계
##ler
키시
##cy
김종민
귀속
숙제
##마을
카오
here
폐인
##REME
Ho
간과
오컬트
Gal
##ᅥᆯ트
DSP
도맡
오사무
나아졌
어썰트
담원
뉴타입
Sn
이븐
클레멘
붙인다
1904
##DDR
니콜라스
오현
##펠러
문예
낯선
크레인
관람객
747
코네
꼬박
스스
Ind
OM
무마
커져
Mbps
##라이어티
HR
~?
경복
버라이어티
##oun
표류
슬로바키아
기금
달린다
둘째치
bb
브록
정박
쾌락
펠릭스
남서쪽
군청
##ino
##집니다
데미안
바닷가
전조
인기가요
##훈련
밤새
##irect
소외
손발
춥
김장
올라타
naver
매크로
MUS
에너
\]
동자
릴레이
##78
내레이션
야요
스러움
합숙
공소
풀타임
가둬
기념관
##메이트
##TH
##팽이
##IO
시제
맡겼
요르단
퍼졌
여차
일면
엄연
카즈미
GTX
도넛
자물
스러웠
고이
입점
이룰
확진
펩
아린
모용
상층
데인
231
다이노
우스개
##떨어지
단결
##겨운
세이야
체이서
성북
테드
역도
잔치
##십자
##헤드
설리
##길이
전광판
고온
방아
쟤
오라클
FO
루가
트리니티
노미야
증식
추격전
|[
우즈베키스탄
Real
프레데터
aquarius
더해
사고방식
1916
##가키
일전
##벡
자물쇠
Rad
선샤인
마스터즈
##aker
bo
운하
식구
무트
NORM
조경
상역
계신
여긴다
252
SMG
when
지효
##소연
류우
깨졌
급감
튀르크
환장
꽃잎
당부
금세
진중
단호
가비
서라
##후미
완주
타카히로
사각형
돌려서
라이덴
섬뜩
염증
경비대
느려서
닛폰
Sou
##AE
##by
그늘
강급
컬트
실물
암묵
받아들인
교통부
역적
238
짝퉁
서바이버
닷컴
잠겨
끌어오
##ᆸ시고
트롤링
프레드
원치
##식물
특혜
붙잡히
가리킨다
서강
백종
아라시
나카지마
선단
장시간
##젓
gu
주지사
그딴
노노
수학자
뱌
파헤
커진다
let
##ᆺ값
툭하면
Aut
선가
##lex
아쉬웠
순전히
아오키
엿볼
##UD
중용
NORMAL
##부수
타오
친일파
찔리
코스모스
거스르
이동기
When
이따금
야요이
조만
질책
소리치
##박혀
협주곡
신뢰도
유괴
신해
아이파크
##줄기
430
any
##유예
샛
주변인
돌려받
데이지
가도
계주
기대감
다리우스
닳
가락
주조
뿌요
Park
만신
손길
명심
받아들인다
Single
##BY
무함마드
새턴
지나간
이코
애꾸
##너드
고체
수없이
어쩐지
물려주
똑바로
##드라인
로켓단
공모전
##36
조건부
세이프
하가
웨스턴
츳코
견뎌
성매매
##노트
찾아갔
에니
카니발
송곳니
싯
Who
샤이니
Esp
등기
독소
엑스포
나츠메
고영
죽임
취할
EXTREME
멱살
play
해온
마커스
##lection
노미
근교
##onder
뒤서
머큐
PG
공표
신노스케
Hi
마일리
웬디
##anger
강해진다
##gy
스타킹
숙적
타사
집게
프로테
폭투
금정
걔
방주
영도
롱주
탁구
##48
실컷
양분
매춘
농성
도키
향신
밝혀져
브리튼
하르트
우의
테디
원정대
냅다
선량
피렌
출토
가계
차차
##무르
타카오
머물렀
##나타
카디널
고군
##사노
사이다
Feel
퍼레이드
안주
래빗
달려드
min
틈타
일루
##설수
육신
묻힌
이크
카모
공구
기념비
붙여진
Du
레타
##raft
펠레
Album
Je
해봐도
무례
##눌
스러울
그랜트
mAh
가늘
엣
수양
루팅
합격자
버팔로
JYP
을시
서두
광란
프리퀄
알렉산드로
뒤바뀌
북아프리카
명제
##RO
로더
여제
전범
##ONG
서슴
동맹국
아틀란티스
하즈
개요
진명
코니
한국식
백웅
팔다리
Cal
Mix
낙사
ap
개머리
금단
사무총장
아카이브
##닷
우터
달했
끝낸
동시대
hp
데르
des
차츰
기형
타깃
스프레이
Inv
플리트
즌
홍익
##꼽
파충류
격분
내려간
업소
서스펜션
자오
부대장
하야테
##게이트
지평
분실
분광
팽팽
##로니카
신스
치요
두껍
열강
코비
부치
레베카
##산부
풍습
깃들
SNK
나설
키네
외동
##98
포커스
계책
코스모
##ya
주점
추운
이효
탄산
red
WWF
Ret
방콕
완승
츠네
Hero
음파
박동
Kim
도면
테두리
규슈
주유소
야유
수식어
##타마
연정
광년
##비슷
앙상
우치하
베가스
조반
##태격
쿠보
티격태격
항공대
날아갔
##ations
실권
재편
투지
어떡
Ult
은혼
놀러
합하
짓거리
근육질
껍데기
QP
##혐
236
##뽀
대첩
공문
기다려야
이광수
킬로미터
장민
텝
넥스트
##ᆷ없이
사보
감격
##ouble
코라
플롯
##클립
다테
##제비
이레
굳건
단국
껴안
모차르트
##뮬러
대서
면담
공무
작자
슈테
계몽
먹혀
굴림
##ball
성물
태어날
다나
서큐버스
눈길
꺼져
Blood
소자
코아
##병기
##뇽
가할
라디
관내
윤석민
Fun
some
은근슬쩍
역행
꺼려
대장간
음절
STA
한신
외친다
##투르
KE
배당
속출
경제력
자습
평온
불계승
치환
장문
당겨
지원자
카스티
국지
나자
요절
흘렸
##나르도
어정
##정사
통통
##uture
인페
피시
Sol
리플
크래시
공예
별장
몽환
루트비히
타일러
수비대
를르슈
터너
보크
오기
##eck
모였
최민
아구
거슬러
탄력
##vil
성화
피했
총무
라이스
독일인
엥
달릴
need
다닌
이라든지
원안
Sweet
##르도
로아
##더미
윤지
010
격납고
지네
수트
##eek
승승장구
때렸
매혹
악재
다람쥐
##사태
변기
##ocal
KBL
Ag
##떨
##ather
스콜피온
앞부분
잭스
시게루
Val
원료
코타
##배기
일렉트릭
스무
##숲
제련
강함
Tech
횃불
화순
피어스
들어도
중수
열화
자서전
##TC
피통
요요
혹독
기신
구한다
돌고래
천안시
유니버설
이견
신야
좋아했
사타
265
홀수
햄튼
사념
실격
반열
하모니
##비어
마리나
##볼트
실린더
CBS
들이닥
꼼꼼
얽히
워스
조련
유품
스트롱
결번
이베
하룻밤
투자자
넷플리
넷플릭스
정액
강북
희소
금천
꾸리
앙쥬
개머리판
Say
왕권
밝기
##HN
한류
내신
##ᅳ러미
료코
주둔지
로드리게스
조례
헤어진
스펜
USS
전면전
피쉬
순종
##날레
##암리
끌어안
##ANCED
자일
재탕
##arth
알려준
3500
초밥
봉건
한없이
비화
치어리
명계
딸려
나눈다
##리학
루디
격변
클라라
쌓았
##츠리
이언
가열
불륜
이윤열
아멜
설날
벗기
청량리
캅
최승
##피드
Def
꾀하
커진
야가미
복판
##onna
눈여
교육감
510
Space
바카
언뜻
도카이
호크스
802
왼발
박살난
어려서
컷인
야권
다케다
홍차
뚫려
기색
장이
난도
232
맥도날드
이다
사루
손대
충당
로밍
스메
정신병
흑발
반년
매카
##34
가했
말뚝
사이클론
them
제이미
대항전
노련
Beat
##뚜기
레터
##태인
최준
##바탕
프리랜
##ours
옐로우
클루
후추
앞머리
이불
특별자치
빙하
노리코
특별자치시
공판
경계선
오소
조시
하루히
예선전
뭉개
르블랑
상디
댁
국한
기니
염기
시영
히타
페르디난
일제히
박인
her
다르크
훌쩍
산산조각
레이브
대항해
이연
한문
기껏해야
판례
타이베이
로빈슨
고비
보여진다
가우스
##사무소
명절
##티시
변칙
싸워서
##ena
빗대
제하
실기
비지
##hammer
작센
##더스트
위그
WORLD
렬
한하
메기
엽기
태반
선보인다
대덕
수교
보아
원군
히로미
알렌
변속
가까울
640
안즈
새겨져
외과
넘어선
프랑켄슈타인
##뽕
번성
Orig
영정
컨버
##ames
제각각
클리프
ADVANCED
꼬맹이
쥴
메모리얼
부포
직사
희한
간다면
과하
인위
랠리
GC
미우라
공식전
훔친
우라늄
하네
애호
카리브
서초구
마니아
그레이스
##발리
향신료
만연
팔아먹
족족
세카
파미
##출력
총체
이부키
##지부
도왔
스캇
두렵
통솔력
##걱
##와일
얼른
Dest
월트
딱지
파라과이
Mac
##토니아
이리야
세습
##매기
스트링
불명예
##콧
마음먹
레드삭스
좁혀
LCS
다던
칼데아
##ement
##thing
히데키
##게일
엘사
사일런트
외할
무찌르
고라
씌워
이국
연막탄
신영
걸러
Zero
발진
레테
황녀
!!!
LOL
홍련
##rough
##aid
##틸
##노부
누른
코피
밀리터리
속죄
##욕장
견딜
##로리
세네
##츈
##ways
장영
아라비아
##투사
병풍
밀짚
젠더
GOT
분단
슈타
결속
##입구역
밀수
자하
포박
프로세스
분담
독창
나니
포뮬러
신재
카나코
고딕
번쩍
트란
Story
부순
타타
장발
종업
무궁화호
빤
황룡
워킹
셴
305
푸딩
강좌
폭죽
덴마
파피
##알라
교량
형용
한테서
찬란
첩자
무토
편차
325
살아왔
들이받
she
쇼우
##프로스
끼친
PERF
길가
클라이맥스
Home
##DER
모란
유린
아스가르드
가한
##우옌
##경민
##느러미
##UG
피의자
공격진
프리랜서
##ta
연장선
한라
플린
역마
이모티콘
아드리
##ano
뫼비우스
와해
수로
안영
실비아
살포
파이팅
수렵
##마르크
놓쳤
우소
다는데
철구
디스코
아닌지라
-!
마즈
##une
정근우
자초
라키
등록금
열도
쿠루미
러프
동일본
##so
다의
익혀
불어넣
KC
조병
슐
##뉴얼
전단
주저앉
달랑
##린다는
더욱더
##테르담
정변
감춰
머큐리
Ry
대방
끼우
브리스
권력자
##ait
웅장
쿠즈
##ANG
##티모어
NASA
전한다
심볼
빠져나
에인
전구
봉투
빡세
갉
간수
잠자리
근친
금빛
나눠서
왕세자
은둔
상병
관례
뒤엎
통치자
특례
교외
##파르
피아니스트
남겨진
동호회
IBM
가희
쏙
의과
수기
폐교
찾아온다
마르셀
호루스
##조사
조나단
Japan
##데시
유가족
Stri
인플레이션
짭
에비
조라
교포
##날리
질럿
갔으나
포세이
몰아치
죽여야
물어뜯
포세이돈
미야코
방수
셰퍼드
아라이
화나
소굴
왓슨
기폭
리얼리티
김건
섬머
로건
우니
친숙
땅굴
##self
행정동
포츈
##신문
김우
##err
잃어버렸
수모
묵묵
피스톨
타오르
메사
사회학
선호도
MAD
가져올
인디애나
장진
아키타
이사벨
마츠다
지날수록
기조
반신
다이애나
클레오
에지
고척
마개
직렬
각주
치아키
##bal
고압
오줌
찼
마구잡이
Hel
함부르크
중앙일보
붕어
위축
독주
딜런
이뤄진
피렌체
엑스칼리버
부끄러워
눈여겨
Lee
칵
##ASY
들려오
Fight
남코
스에
본대
종식
떠도
비르
칭한다
돼지고기
##ML
유흥
토성
이슬람교
생소
국외
재킷
아이덴
아이덴티티
Bro
Gun
bit
에볼루션
강과
현저히
사이키
허정
람보
강민호
대물
우한
발랄
줄리엣
익힌
뿜어내
거둔다
기하학
괴짜
미니건
단수
키는
절실
##ands
드로이드
동백
아쉬워하
신예
디나
양천
클로이
세울
문화유산
Young
BLACK
##jo
##르바이
장화
마네
증차
페라
##arm
아키코
납부
데려왔
셀렉
##르바이잔
##카타
니콜라이
가요제
AAA
ph
##TER
에리스
걸림
토모코
여객기
항만
묘소
캡쳐
Wanna
취한다
Champion
발자국
사옥
위계
간담
뜨거
셀러
노무라
앳
##65
##위성
SUV
##ᅥᆼ크
경산
##iful
로미오
수프
타코
Pla
기로
일회
에그맨
총점
갈망
##light
비들
국문
동향
판교
229
243
##osh
포터블
치뤘
아제르바이잔
가우
조그마
개인차
이클립
클래시
이클립스
카밀
속했
망신
##elie
자그마
##진구
여길
##위원회
당진
무리뉴
수호신
페널티가
옐
나와야
스탠리
바가지
단도
감명
승선
경기관총
급소
조성주
##떨어진
DL
쿠페
가까우
야오
##팝
살아갈
뻔한
##릭
리디
660
이브스
##회전
737
불굴
Storm
아오바
김학
뒤쫓
삼켜
about
컬럼비아
클로드
지마
용족
급수
블러디
박진영
거쳤
휘둘리
케일
없음
##ortex
유희열
펌웨어
NXT
메릴
존기
이하일
과부하
안대
워페어
육아
방탄복
DIO
마성
동강
공격대
아사쿠라
표지판
얌전히
어항
625
##놀드
이케다
MIX
볼티모어
상반신
Pa
루시아
익사
Kill
가닥
한겨
중남
교화
패트
슬하
늘어날
EL
IEM
##깊
바바리
정가
유구
돌출
담장
잔잔
경원
분지
##바꿈
바퀴벌레
미적
엘더
지방도
정상급
피츠버그
다그
마로
김홍
##eter
티오
정훈
##보레
직종
봉화
560
##ᅪᆨ
##니발
소고
흩어져
어우러
##수원
떨어뜨려
Jo
TC
단가
황산
노우
요법
마르크
비닐
충신
터빈
sec
시그널
SUPER
노을
##lease
하야시
;/
옹립
쳐들어오
결정력
갈릴
##브르
바운
천리
깨져
래더
녹이
약혼자
동두
속아
넛
2400
밀어붙
정준하
Friend
마세요
백호
자연히
나돌
권혁
타케우치
빨라진다
##산성
저속
띈다
콜로세움
힛
심영
사토미
XBOX
다분
프라모델
불량배
양현종
아귀
쓸려
가져간
##다이스
건달
혹시나
목욕탕
컨트리
맥크리
내세운
심부름
했다간
프로페
Line
목격자
칩셋
태극기
##ume
Warhammer
##구석
자동변속기
공조
게이츠
공용어
어설프
흘러나오
다림
명동
##ines
먹일
264
##센터
##77
마담
##윤수
There
이매
낙태
국악
클린턴
응우옌
자상
정오
벽화
분대장
볼프강
##ATE
여군
되돌아가
FS
##구르
현악
사이렌
임종
come
하오
오하
체르
트인
주제가
미행
조예
티비
their
구매자
조종당
##OK
의인
유주
##현수
국공
청각
노려보
클러스터
##드런
나오토
##ene
거란
##학생회
신문사
##봤
모색
아카시
요나
디언
줄인
래디
포도주
미츠키
니스트
포이즌
고트
침범
밑바닥
가뭄
##ral
도하
League
사이코패스
페르난도
##벌이
쓰러뜨릴
체코슬로
체코슬로바키아
도핑
노장
계룡
투혼
핑거
어울려
전시회
스도
치료제
로디
학명
ATM
노화
가차없이
끼얹
밀짚모자
res
사오리
노하우
백종원
프리티
소각
##노세
EXTRA
도살
못했으며
징수
##샤바
Road
##굽
가장자리
황인
굴절
Apple
ma
입각
Green
슬럼프
##ᆯ론
들어맞
지니어스
765
쾌적
대격
전경
포신
초신
라오스
##리카와
구룡
파나마
덤블
##뿌리
원만
빼앗겼
내세워
부착물
힌두교
평시
헬싱
히키
붙일
가로지르
피콜로
성산
당내
관행
커밍
이재명
##자락
백설
곡물
사파
매뉴얼
한큐
양의지
##플라이
파운
얏
요네
호적
왔으나
##zz
연행
##라잇
헤비급
##ODE
##ᆺ감
무구
구부
과거사
우에노
나즈
버들
놓친
못한다면
명실상부
##und
##낌
어머
대함
##무로
루니
리빌
장정
Intern
서자
선더
볼리비아
였으므로
##ORA
순발
효자
두어
몸값
세리카
펼친다
GE
체면
303
관리인
글로브
##수아비
가관
허수아비
노어
251
샤인
제타
리차
##에스
총학생회
거주민
아코
은인
안파
교활
트와일
피해야
러시아인
데스노트
묶이
트와일라잇
유파
디셉
사이킥
Death
화이
성의
소말
나온다면
##utiful
컬쳐
탈락자
순발력
Tom
모성
케이스케
살벌
골랐
참치
종사자
눌러서
net
공의회
뱃지
창법
스캐
되살리
백마
##ha
연두
합스부르크
Dead
양정
룰렛
노기자카
그리워
##환경
르브론
호시노
사벨
##인더
구레
단층
몰아붙
티아라
슬라브
코퍼레이션
고쿠
실례
타이가
##VEL
NATO
AO
SB
보헤
253
짜여
##어야
상록
색소
장작
연어
프로그래머
##워진
늄
궁예
되살아
청혼
외상
양재
##백호
##ible
피셔
슈퍼주니어
##PN
뎁
황천
늦추
남방
국영
병자
316
정신기
하피
뒤돌
이뤄졌
##동물
명하
건만
완투
피지
신룡
##INAL
들렸
부팅
코만도
인페르노
살육
##내려
스텐
묶인
알렉산드르
모조
모태
전보
237
가격대
Champions
제아
김남
##에리
죠셉
NV
민수
한나
완력
대대장
안팎
사변
Del
##대장
불곰
##창민
샬러
긍지
1896
미나모토
스코어링
아우라
-,
노다
레진
연구회
원내대표
스트레인지
펑펑
머물러
로맨틱
타츠미
원동력
바사라
."
공양
성자
##베다
프리덤
239
개찰구
지간
소니아
반반
니지
글루
##rol
건널
TEAM
##펀
김응
지켜봐야
해줘
라울
##독스
##송이
탐지기
허접
궁중
후타바
##AF
노지
원대
양평
##마이트
피르
##펫
환기
인대
냉철
지난해
조계
따름
판독
사토루
입찰
씨름
##빔
구내
스타더스트
페널티킥
##기둥
##츠미
맨서
드래건
액스
살인범
앙상블
Mal
Que
##END
보람
내림
친족
약해진
모니카
내포
##가짐
삭스
460
유티
앤서니
니까요
다우
디스트로
허드
알아볼
한니발
크랭크
어정쩡
열릴
파오
젓
고창
김문
항전
제니퍼
이방원
남대
어려워졌
##해머
분식
군포
##썩
나토
받들
샘플링
hats
해트
발당
##루냐
쿠토
막아서
하세가와
걷어차
<<
유네스
중앙아시아
##꼬리
한겨레
미역
유이치
##신저
사나다
명치
브룩
그려진다
##껴
분투
종회
양조
마슈
환관
연산군
라벨
저편
아이카
프롬
놀려
루시우
##췌
느와르
김상수
물리학자
디스트로이어
비나
##uss
아사미
##OUR
성계
성악
범퇴
##총사
거북이
비호
들어야
보위
##키오
충이
이회
적시
EXPERT
##84
한수
닫히
농어촌버스
##즉
은총
비료
베로니카
사카키
폐기물
레츠
순화
##성장
촉매
펀드
전산망
가발
신검
##oup
전해졌
두루마리
DH
##vy
원통
애원
레이서
##융합
보안관
물방울
천성
##할시
바로잡
돌발
OC
의기
거하
노티
천수
충청도
힐러리
스노우볼
파우스트
지낸다
어류
핵융합
Full
거슬리
팥
문파
계투
하나같이
중퇴
번들
##ental
낙동강
도자기
##합니다
Pass
코쿠
아이코
효고
광교
옆집
핍
혐한
헤드폰
아놀드
과대
면치
니라
헤카
##퀸
름
거르
유투
조준기
마셨
##대상
다이너마이트
필리프
깨달음
빙글빙
hatsan
XC
골문
웬리
1895
이타치
##??
##이라
김보
빙글빙글
수이
혈연
의구
벌려
낄
풍미
조그만
곧잘
에델
속국
픽션
TSM
아르테미스
서커
짜장
쌍방울
레전더리
##ᅢᆨ스
무법자
안락
번화
페퍼
석탑
원술
##ily
##우먼
비누
다급
자궁
명상
통장
나와도
올림피아
위크
선한
손잡
인가요
짝수
훤
시진
호도
백악관
프랑스인
아키야마
호가
위용
팔렸
시즈쿠
왕창
담기
협업
낙타
레일건
Tra
이큐
##aser
WCW
모선
니티
흑기사
Games
모나코
발주
안건
포옹
##보잡
메꾸
브렛
시빌
파스타
칠곡
엔도
##ground
패럴
듣보잡
폭락
아서스
흉노
패러독스
얽힌
부양
##훤
도화
됐었
날아간
##ᆺ자루
그렌
포제
패해
스타터
242
##퐁
남해
탈바꿈
숙부
들어섰
어부
얼라
##OSS
시브
조셉
##공원
태아
501
태권도
럿
황재
팬더
선점
명맥
통조림
##리아스
징벌
Set
퀀
우루스
달한다
244
##아내리
##에이고
샌디에이고
호라
농림
차르
건대
느슨
아키텍
선구자
아키텍처
미화
작아
휘발
히로키
냄비
떄문
재빠르
스니
##페리
설치류
차징
니케
##UND
불태워
left
나약
파치
타이머
스레드
##퓨
사샤
청계
샤먼
흔치
로메
터뜨려
리어스
하체
요술
헐리
##awn
알마
산란
공산주의자
쾰
FT
남궁
뼈아
MAN
아샤
나아진
후원자
탈영
왜구
이을
적외선
와이파이
와야
반대파
랜드마크
##ormal
OT
비문
Pack
모서리
감리
앤트
유형문화재
유대교
갑작스런
GAME
샬럿
의구심
per
안산시
빠름
난데없이
IR
쁘
도류
프루
##스티아
카이바
가위바위
가위바위보
비와
SKY
합쳐진
MUSIC
방아쇠
##86
##볶이
##ttack
파라다이스
메이크업
약초
##밍고
사냥감
망설임
권속
알렉산드리아
바오로
살림
훈련장
위법
연장자
메이스
##74
보육
Mad
거들
##사상
원점
대통령령
자라나
마츠리
##IDE
라피
개소
sw
신의
하산
후리
풍요
##ISS
연꽃
구덩이
탑승자
알린
속초
귀여워
쉬워진다
##gg
방전
입석
##푸르
고귀
##레오
##ider
백병전
군용
무기고
글렌
아그니
어업
객차
##ᆼ아
사스
##하키
경화
라쿠
보통학교
쫓아오
어떨까
볼링
부잣집
역부
울릉
들어올리
공포증
이시스
오트
동진
건방
양팔
괴뢰
위너스
승마
행크
송지
530
무의미
베티
선거법
내보냈
대림
박람회
탄자
꼰
##드라이
부조리
항마
레이팅
##티움
약했
##절로
성폭력
딤
서귀
##윗
취역
##폭풍
##댔
뒤져
고구마
짬뽕
지단
사구
스구
양수
pop
소림
잡힌다
매달려
플루토
Ah
들인
모국
모셔
##야구
안방
프랑코
칸다
난다는
자급
걸쳐서
줄지
ᆯ지
개원
두세
우리나라
잇따
long
##꽁
북경
퓨처스
못한다고
쉐보레
##빼미
세분
출소
##다이라
예견
뉴비
##leep
이동한
##OWER
##달린
역장
특검
라이저
바르샤바
네기
윤상
데려와
길들이
환술
츠지
압수
어르신
246
헌정
재판부
wanna
##전력
촉한
블리치
비겁
합쳐져
위급
선취
##ouch
SDRAM
요제프
실세
구축전차
콘스탄티
##화물
살렸
##스텐
into
촌장
아즈텍
켄트
이비
실크
핵폭탄
##ESS
승자전
##코르
크리스틴
##프리트
Bet
Long
소프
규범
진풍
입혔
참호
쳇
##찔
부끄럽
미겔
##빠진
요코야마
김광현
경주시
해야지
떠다니
왜냐면
op
기약
만담
변조
심도
분당선
제위
저절로
판넬
##onic
신학교
##솥
##코리아
노카
동복
김봉
태초
254
치어리더
버린다는
척도
호타루
주춤
신변
초빙
유공
문하
고층
##진우
돼요
욕하
택했
승조
석조
##ience
어감
달라질
불상사
거너
강압
증축
금물
갑작스레
Tem
블링
전륜
발작
델라
누비
켐
거리낌
단기간
유목민
시디
##마음
윈도
동방신기
드럼매니아
약탈자
로트
문건
반찬
잘난
코드네임
##ology
세르게이
다자
초조
니어
복서
고글
기꺼
재량
##워키
워해머
울타리
##yo
브금
트로트
재생성
GU
커널
페러
밀크
##고르
위선
저것
뒷담
가져갈
##니엄
경도
규탄
사운드트랙
신세기
코사
재물
군장
구세주
기일
자이로
##덩어리
은평
중전
##reet
Step
Glo
한국사
##바라기
해치우
디바이스
크툴
텃
모모코
크툴루
##갛
MTV
바벨
알버트
거쳐야
릴리즈
NR
미흡
##지부지
박건
흐지부지
오토봇
벨라루스
##임새
사이타마
종업원
거시
윤회
오피셜
영덕
너비
##ᅳ라이즈
been
카나타
NMB
;,
Dem
방한
물러서
해온다
긴가
묘비
빨래
##웨이트
겁먹
였음에도
폄하
자경
콥
려나
카미조
NCT
1080
##저곳
삼총사
이곳저곳
##도시
##자위대
봉지
귀여움
방망이
고군분투
기업인
알아챈
watch
##괭이
##ting
자대
일그러
##버섯
누렸
비스마르크
연장포
##box
조끼
황궁
##iet
힘드
맞춰야
제조업
마일리지
오두
등대
민망
배틀로
Ele
에콰
빗자루
난간
USA
맹독충
에콰도르
야미
AH
##메트
##꼬박
크라이시스
꼬박꼬박
마부
라멘
요도
디어
금상
248
휴양
##ots
굼
서든
알래
쿠사나기
##get
도산
수세
외화
##illa
스크랩
그지없
쾰른
성불
애벌레
친부
크레용
Brave
구위
##비지
##테인
지드
레토
호밍
##네시
수완
신천지
nm
진위
실재
학군
카나메
프라이스
유적지
비주류
##br
하운드
##자유
만물
오성
총검
카루
지금껏
커다랗
보옥
##글라
넘어온
맨손
콜트
카미야
뒤따라
유네스코
TRA
##셀러
VI
bla
사채
국교
엄호
멈춘
브루노
Level
##흠
고해
소관
불시
싸그리
야쿠르트
##za
표했
쿠웨이트
적의
피사
처칠
Chap
666
해안가
미끄러지
Her
##이야
두드리
시발점
정산
안구
감축
##본부
박승
306
액자
우에다
디멘
기아스
디멘션
##꾼
스톨
##32
노년
스테미
다승
구운
안착
데비
레퀴
단군
##저지
달력
손질
글ᄊ
##ander
박지성
알래스카
nb
리지
질타
박찬호
##슬ᄅ
차질
통지
속칭
연구생
케이티
ATP
구청장
에뮬
넋
톡톡히
번복
##GP
눈알
큐라
수두
##국수
##들러
System
도난
허준
코코로
Cortex
금수
도우미
양복
페미
프랑수아
신인왕
Call
반디
285
올빼미
포르쉐
유키코
Key
이홍
##너티브
총칭
얼터너티브
이신형
화살표
사카가미
##mas
##노버
방향키
졸지에
##ᅪᆼ
##부진
선착
근소
김재환
투옥
법제
귀걸이
##풋
Spe
MOV
벌집
말버릇
흥국
신혼
설원
극명
녕
뉴저지
에스토니아
오랑
포천
문무
남색
표범
타카미
미소년
Ant
샐러드
레너드
##IAL
떨쳐
##체어
블로우
반역자
Direct
세밀
시험장
대금
위스
코그
크나
20000
퀼
해리슨
공손찬
커튼
Stand
적잖
쿠지
불릿
오구
야마시타
부러진
한기
까칠
아모
오열
경음
매리
내세웠
ah
주특
계양
LPDDR
주특기
Mil
##블러
멸시
요시카
나코
포톤
순양
토리노
성대모사
단추
##enn
풀린다
떡볶이
휠체어
GA
위스키
외주
인조인간
변호인
가샤
자형
때린
프로파
스치
스필
지만은
야루
충실하
쟝
주희
Cha
외교부
po
이세이
하교
가람
와드
요충
손견
##ense
팍팍
해남
추력
##함수
Mer
이스탄
서고
이스탄불
##94
소거
곡괭이
뉴턴
몽키
밀레니엄
어쿠
중랑
월화
##천년
음주운전
##WAR
발버
잠잠
도로시
미야모토
소송법
갖췄
의복
선술
편파
애슐리
이상일
스톱
##OTH
North
##ied
과묵
247
둥근
쓰여진
재수없
Eur
다네
엑스박스
##ka
가타
번역본
포스코
기꺼이
에토
##궂
새천년
블랭크
카디널스
인술
수진
수병
비관
구와
잠적
마귀
동면
머나
##효과
전기톱
모의고사
et
역이
메즈
맥아
디바인
Gener
아브
구작
##차원
LB
미워하
유년기
브라이트
에인절
사계
980
시라이시
어의
구토
키쿠치
Die
LM
화교
take
아발
남주
쓰러뜨려
재결합
역부족
쉼
다이나
굴러가
도인
특무
송정
BMS
시경
차명
##갈색
왔었
다짜
##고짜
교배
크루저
다짜고짜
파출
EASY
나래
전고
활로
산성
##프레소
무라카미
정품
성행
262
한자어
쿼터백
에스파냐
color
레논
종양
밀워키
러서
보임
리세
명언
호신
보컬로이드
그렉
유토피아
유틸리티
##ILL
요금제
##ki
속여
직설
##베니아
동차
메로
##까봐
HKT
둘레
이루어질
마츠이
이산화
연휴
단락
리그베다
어려워서
꾸민
아브라
무가
심경
농경
숨긴
##미사일
지울
스펜서
시이
쇄도
TECHN
조광
권투
판자
레이코
걸어다니
Mel
Mnet
##뿐
웅진
##햄
무형
신명
패망
혼용
##드라마
발성
박석민
부적합
회식
결정타
린네
철제
헤르메스
비잔티움
던데
키프로스
애기
종반
바이어
##ove
본점
##쓸이
Hell
발단
바야
후크
##윅
수조
알트
Heaven
##my
나연
약국
실제론
슬로베니아
전근
옆구리
구원자
마누엘
함량
토기
센다이
##원장
현관
승수
총신
망언
쿠우
실증
쉰
렴구
서귀포
어학
근위대
유유히
외로움
봐요
콘스
김연아
은어
로베르토
축전
꺼낸
필립스
##샹
모면
앤드루
##ents
Port
UK
을까요
레오나르도
이양
공범
장창
외견
늘어지
470
관련자
아미타
와다
엘렌
열등감
##로트
음역
무기력
서ᄑ
간결
마땅히
cr
하층
셔터
##St
##도현
백발
##누마
내려간다
##go
##거린다
이뤘
308
끊겼
무용지물
데일
세손
순번
상류층
문체
복숭아
노이드
쓰레기통
비키니
뒤섞
##구려
알아낸
680
공물
기념물
아람
홈플러스
제퍼
##트러
시멘트
현세
##ember
##김없이
대법관
결집
##바흐
##에타
수학여행
후지타
건국대
의왕
jp
요마
펜타
아이린
없앨
소켓
룰루
미켈
##화당
버나
최용
숄
Shad
김유진
다방
점장
핸디
부담감
명랑
습지
탈피
객실
라트비아
번작
케이틀린
튀기
환상향
송파구
어쿠스틱
에미야
##하고
오션
습하
이마이
재판관
시공간
레퀴엠
절판
이희
선종
함인
맛집
유의미
도안
절도
말썽
갈굼
겨자
##umb
잊어버리
토모야
이륙
모교
키예프
##합중국
##껄
구판
용접
혼수
넘긴다
ROX
대의원
메이슨
##경찰
천차
##ince
서해안
Hello
탄피
스칸
아키하
생물체
시달렸
##IF
본업
착시
경쾌
##워커
dr
해바라기
적국
니치
하락세
배달부
QS
어윤수
##당겨
결핍
!!"
비행단
겹친다
묵시
KGC
우후
당뇨
리벤지
일침
추앙
Rep
볼드모트
직급
베누
손색
##yr
거린다
색적
911
영사
군량
징표
구인
문정
필명
##트륨
카트리지
Lun
호아
종용
레이다
만든다
덩굴
미네르바
팟캐스트
##add
숨통
황금기
단축키
카빈
치즈루
관성
커크
##uth
적나라
야사
양날
아이스하키
구스타프
일병
제츠
관상
침수
어두워
##va
모레
조미
솔러
노역
산물
켄시로
산업단지
미합중국
접할
북아일랜드
중얼거리
사이퍼즈
드레이
도굴
오나라
영산
우러
둔갑
챙길
##생명
엘다
자명
전권
월광
신창
##파치
높일
병음
노르망
인공위성
마진
용시
304
스타스
흐트러
굴릴
##ection
꿔
샤우
241
건가요
카카오톡
에보
경마
케이타
동위
카푸
템페스트
상동
부사장
구마모토
헤임
카키
##바드
디셉티콘
##39
우진
정신줄
밤하늘
##ures
사무엘
시즈오카
최태
신경전
쟈니
오지환
위압
##iri
덤벼들
서일본
야타
강가
난관
에스프레소
##녹
강기
##사슬
조디
군정
김강
증설
펼칠
브렌
김성현
쉬워졌
RGB
##일치
네버
스카이워커
한술
위니
터져서
##ility
Fil
##ates
희극
김기태
Network
##보리
알폰
도부
오와
버저
원서
디폴트
Inc
헤이즈
1899
Cup
##ELL
사울
영천
문항
케도
##irc
진홍
슬기
유리창
맹장
가옥
대열
타무라
저스트
로이스
Mach
ser
##룰
아레
확충
ㅋㅋㅋ
Esports
모지
중파
역순
길티
타카기
연평균
인척
역동
##렌스
캘리포니아주
이덕
해마
ZZ
이나바
##테르부르크
##고로
라칸
참신
##aph
쾌감
아즈마
미륵
University
##WA
##펙터
미츠루기
한림
311
##ometh
##십리
선동열
기나
내란
조종석
환승역
그레고리
Again
구명
동치
처장
호송
후쿠다
##벙
구구
앰프
이용규
울림
몰려들
눈치챘
아약
터뜨렸
무서워하
모세
불빛
매화
빙그레
##튬
노량
개중
##razy
look
아캄
##궐선거
재보궐선거
rem
자속
본심
벤처
몽고
김해시
마샤
##미디어
##조부
다가와
##ORPG
브랜든
상아
변할
먹인
마이스터
세주
맨몸
아일
##사병
두리
사냥개
제라드
소행성
가릴
퇴화
EE
주어졌
게오르
칸자키
싹쓸이
하디
전소
펜싱
샌즈
로바
노쇠
문학상
세비야
때린다
##부상
기동대
거주자
미노루
바랬
타란
풍성
미니맵
트이
철폐
울버린
번역가
##닭
##어머니
군자
##atter
영등포구
어는
윳
##위안
이용한
Only
실화
몸길이
집행유예
무스메
솟아
##ᅳᆯ렉스
컴플렉스
끓이
카르타고
Burst
bet
궐
디온
소용없
주니치
파시즘
별반
mg
해했
놋
노하라
변방
뒷부분
아나스타
##bit
사미
##hem
##집합
LPL
Dig
은화
##태현
판타스틱
인산
수축
헬레나
비축
블라인
우스갯소리
##윙
##ᆨ스피어
셔플
에밀리아
신차
반포
홍문
방위군
백조
##AKA
셰익스피어
소고기
리토
장흥
몬스터즈
찢어지
Days
미어
##공화당
양궁
##플로
민주공화당
패자전
오심
패티
담담
관음
꼬여
네이션스
##pm
##보트
도레
비등
##딜
##플린
알리스타
키아
마르세
꿍
##뱅이
고찰
##전생
콤플렉스
여신전생
##ether
무수히
패퇴
꺾이
스터디
간담회
로케
MiG
##TN
장윤
파가
디저트
잡음
사업소
Winter
##ips
##돌린
최단
점프ᄅ
점프력
로카
모독
##우로스
안ᄃ
싸구려
제이콥
리옹
영월
초안
최유
나았
능통
소린
반갑
자립
숟
매끄럽
##에나
섣불리
도란
알로
놀랄
튀니지
대소
자림
think
브루클린
천문학자
지코
302
랜딩
합성수
LF
여래
레반
죄악
nbsp
수난
유화
트립
stay
윽
##LA
불의
에스퍼
은지원
해수욕장
Gh
낌
필멸
온다는
토리코
신통
머피
##평동
손아귀
"...
라흐
##더지
마음가짐
박용택
##갱이
걸림돌
Jack
##uj
##영웅
귀가
##ids
IB
심기
이름값
슈우
온의
이공
다물
고졸
시국
바빌
그리스인
율리우스
손아섭
아약스
부조
구설수
디노
태사
아리마
안양시
##cess
##제르
방청
메신저
뒤흔
아이비
정할
문화방송
##imes
##unk
INT
크나큰
로군
##기수
때우
##레로
암스
##샵
앙고
땄
키타로
군마
육탄
신음
송광
시설물
Va
수갑
##걸스
스크림
격발
원심
Sports
엇갈리
name
스사노
잘렸
##als
타마키
복음서
피에로
라사
버트
푸에르
노동력
약해졌
사인회
차근
뒷모습
미카도
꾸짖
신형
외양
좌천
자장
원투
강시
흉부
1903
민다
수도사
룩셈
비정규
전액
윅
범퍼
올려야
굵직
##톨레
##진보
음질
골머리
빙빙
보조금
Inter
WA
산요
밀림
룩셈부르크
유예
##코인
서프라이즈
수회
체자
내려지
괴로워하
DEX
어설픈
도원
만인
##일비
학설
권수
간사이
삼가
따라붙
송창
제리코
티타늄
Kar
뻑
부의
테레비
공관
##산업
드링크
##uman
630
쿠미코
가고
대참
기승
##이지
고동
##진창
레일리
Knight
House
대망
데어
마르틴
카가미네
속속
##커버리
##그라운드
엘레나
출입문
2100
색기
머나먼
##ᆯ라이나
튀어나온다
사생아
부트
필리스
린스
노르망디
프로펠러
오릭스
보수당
music
에루
발췌
주박
씰
##ald
흘린다
궈
에밀
전업
##부르
칠드런
##XX
##지우
말단
오사카부
대모
적분
불씨
누드
Wr
했었으나
만수
구금
샐
##orce
푸틴
관중석
이너
화풍
올라프
드미트리
##치히
종신
창건
푸치
코너킥
쇠사슬
##ved
작품상
빼먹
토목
논산
행선지
기단
갖가지
착탄
##팔구
졸리
수잔
강구
오른발
북동부
도태
유폐
당과
잔상
슈퍼볼
깎인
크랙
원체
십중
즐거워
안드레아스
GF
세타
번외
팔린
어야지
그람
십중팔구
기다릴
유골
승화
##ico
계약금
렌더링
겸손
플릭
사선
불경
케냐
##혜진
시니어
iP
##37
적장
제패
산드라
쉬웠
개당
##거슨
웰스
에인절스
표하
헌팅
였음을
모루
근간
##폭력
개인기
##isode
둬야
맡긴
파밀리아
자야
분개
니깐
키카
아인슈타인
카탈루냐
조만간
Snow
##수단
종래
고장나
##크레
에레
선데이
##양이
옮길
##emy
네온
눈매
윤보
##REAM
엉망진창
CLG
초토화
바로크
포르투갈어
전서
건드려
무한히
처박
올가
다이나미
다이나믹
More
##ᆯ리니
천년기
철판
유세이
장료
증정
나가토
뿅
속마음
토레스
착오
염라
##VEN
도교
##기념
##공업
종군
살려서
쿠르드
##IKA
성조
파천
편집장
백두산
바크
캐쉬
탈모
샌드백
초판
##적으로
미국식
오토메
베르나
NCR
오키타
플러그인
게일
잡담
이사회
사나에
후우
##거시
밝혀내
마포구
제레미
##lin
After
오유
##31
순천시
객원
타이거스
수은
리허
따라선
##겨우
경부고속도로
질린
객체
에반스
어김없이
파묻
출항
달팽이
티온
획기
꺼냈
공민왕
##진보당
were
##사업
내력
뜻대로
덮개
탐험대
공백기
카이지
히데오
은지라
이프
도선
중증
처자
##리아나
선승
일신
오펜
나이스
SSD
광명시
핸들링
요시코
mod
의성
산동
다이버
Ice
한바탕
영의정
##내티
홀로그램
신시내티
##BE
기물
침략자
##ella
주이
##국적
안상
##갈이
김동현
남양주시
딛
길동
웨스
지나간다
##림동
나뭇가지
서건
시식
일류
구약
서현
컨설
깡통
Year
속수
760
공기업
배틀로얄
미마
놀래
럭비
기뢰
발화
투게
질소
%]
가나가와
위구르
교의
김무
온리
찾아와서
아나키
묵인
외쳐
영화상
골든글러
나빴
골든글러브
송시
정치학
조승우
리크
귀인
보령
타파
아이샤
990
장로회
학장
아이패드
용역
그래미
염원
아머드
xC
하청
네프
뿌린
마주친
보드게임
영통
놓쳐
555
##왈
승산
##ori
##헐
파프
사이조
데릭
봄이
근거지
##기스
까치
현혹
접착
석판
발버둥
##fl
도합
보어
빈자리
마사유키
번번히
이바라키
하복
아과
미개
혼내
붙잡힌
팝콘
진구지
총살
심포니
악녀
투게더
이징
찝
밀착
##촌동
부렸
메피스
권법
백상
##oph
쟁취
렐름
him
장만
They
Lost
놔서
마그네
아톰
연필
##세어
보일러
##기니
전처
정호
유타카
토양
황건
칼로리
960
우르스
만져
공화정
뽑아낼
밀려났
강수량
PPV
라모스
그만둔
##72
정태
항문
헤일로
로움
##어처
방글라
우버
저우
미니어처
핫토리
방글라데시
맥스웰
중성자
~.
2200
케스
윤치
하야미
부천시
음표
와스
영예
야만인
game
수순
힘겹
마이크로
섹션
열폭
비웃음
##피디아
날렵
Arc
매월
재방송
삼척
트랭크
하진
붙들
TA
로엔
소파
박제
##현실
황도
보나
공파
히터
농산물
생활관
공생
외지
위키피디아
##프레이즈
책임감
사유리
Under
대작
요스케
반증
알론
주택가
최경
따를
내려갈
맘대로
험난
점원
##마이오스
##othing
##남동
295
부지기수
수문
키르
투창
독사
병실
죠타
리차드
바빌론
면세
통곡
##륵
킬링
갈렸
굴곡
시켰으며
Rob
높였
합세
404
610
덧붙였
우에스기
면회
실각
Cur
##촨
호이
##zer
좁히
에르난
소시지
Mc
갈아엎
영력
카메룬
사마귀
프린터
부딪혀
대전차포
dream
##만화
후견
초유
토해
퍼거슨
프리츠
네이밍
Imp
관청
##....
자가용
아편
헬레
포르테
정공
제이나
Gra
상응
몰이
컬처
침입자
물어본다
역이용
카봇
알린다
580
바닷물
##ving
Anim
정복자
동양인
png
무투
##호마
축물
특별법
교통국
VC
용문
깔린
##ITE
펠리페
##자마
미스틱
강우
세바스찬
삭감
질투심
MMORPG
쑹
도출
도무지
주세
받아
간사
조선왕
관심사
먹힌다
##YS
Why
간간이
##컥
죽여서
신기록
블라인드
주상
명색
봉신
stop
##잖아
강승
퍼블
마유미
테레사
수두룩
##ᆺ가
보더
##ARK
하류
도용
공언
당도
독신
##ᅥᆯ없
로시
장보
승전
단체전
##캐피탈
껄끄러
피날레
뱃속
남하
재야
천정
##지아
포그
지낼
top
880
##order
Kiss
걍
자만
채색
이리나
자타
##ᅢᆫ티지
엔리
405
콜럼
탯은
강의실
어드밴티지
##omething
다희
가독
수심
야크
이라던가
캐치프레이즈
해답
마조
구걸
원탑
##천면
Spir
소질
##ᆺ가루
무참
채웠
보여도
체육복
짖
기모
여리
장터
문선
떨어트리
브렉
Enter
대천사
##랑카
##덕지
##92
002
살라딘
##fore
연무
Secret
비너스
##테라스
##베로스
아우르
쭉쭉
vol
기고
산재
없앤
기흥
공상
김범
풍신
머스키
여하튼
소말리아
##WS
대종
266
김대엽
파출소
자갈
즉흥
혁명군
##82
전래
##구름
체온
시뮬레이터
모녀
판인
남양주
거장
##차림
형체
언리얼
난이
온통
##INK
미야기
##쿨루스
결여
초소
속기
외인
현대캐피탈
기나긴
여력
파주시
귀도
490
HL
Ann
war
위세
루갈
박현
왕도
##광이
##ANCE
ACT
크라켄
중기관총
비뚤
소미
사이언스
갔으며
포스팅
갉아먹
TL
가린
불복
##ury
튠
아리랑
저쪽
달리기
혈전
쿠로사키
기민
##부림
신교
애니맥스
속삭임
away
중무장
매듭
혈족
유리카
마사시
아오야마
FINAL
blo
양세
됐으나
아마테라스
잡혀서
Pan
다곤
셰리
제철
애비
변덕
길쭉
미제
##해하
건과
파이크
블레이크
쇠약
쟁쟁
##씌
서영
겨우겨우
악귀
습성
의논
광신도
한진
나팔
부자연
차렸
갬
올라올
일주
오닐
박성준
##라면
오거리
머슬
하이스
매그너스
쿠가
가젯
마킹
카시오
말다
그래피
윤정
보였으며
##mon
##중심
본연
박형
##시아키
Roy
성욕
퇴진
##URE
상선
단면
귀하
카밀라
SNH
Dan
베이시스트
425
Reg
합성어
김주찬
알렉산드로스
만찬
1890
마제
생도
폐차
아나토
톱니바퀴
가부
정읍
레저
독고
독실
초심자
IZ
##Pa
미노리
##일체
##활성
깨물
가톨릭교회
Hun
Sal
동당
명소
벌어져
알아주
강남역
어땠
blue
JB
수시
속보
##병원
Remix
코마츠
ed
의역
연옥
특대
##페르
뚜벅
시계탑
Normal
light
일색
##미온
타노
데저트
트렁크
햄스터
##반짝
세이렌
더해져
무더기
성룡
반짝반짝
서건창
Vir
유모
반월
강력히
아키토
##aking
부엌
비일비
통나무
##코지
비일비재
전일
발가락
천룡
악취
넥타이
개정안
민영화
From
되풀이
얼떨
질렀
그려졌
Plus
쇼트트랙
그런가
잡힐
Micro
해리스
문도
실태
현저
다이고
응모
지민
기저
노면
태화
열중
우주인
피부색
위너
입김
훈련병
엡
장조
발터
올리비아
토론회
로하
글라스
##못해
플라자
BEST
되살아나
일일히
요충지
견훤
즐겼
API
str
무효표
변함없
display
Nat
영종
트램
마두
폭염
탄식
찾아낸
움직였
로마인
##스턴트
노틸러스
타루
연격
신타로
반한
초장
080
마사루
밥상
고분군
GRE
해결사
용산구
지름길
##바겐
검문
상급자
America
had
킵
애쓰
앵무
쓰러뜨린다
실과
##esh
도망간다
이그
고하
사산
인스턴트
영유
퇴학
베이컨
##뚝뚝
HA
##저버
캐롤
짤짤
두꺼비
Easy
리알
##코타
옵저버
##엔드
이래서
사치코
PERFECT
add
무표
도련
345
당파
원탁
뒤편
고심
은거
명수
스페이
점령지
By
LR
##ney
무뚝뚝
공격자
무릅
작명
##불복
005
JAP
돈다
과천
##급수
플로우
결탁
긴토
시코쿠
화사
비법
방진
재력
복불복
혼잣말
을래
로터스
우방
엘리엇
##듐
Dri
상봉
창녕
져야
Band
하긴
유병
##들였
납작
패스트볼
총대주교
형용사
검투사
진풍경
소정
스테레오
##GO
지프
거센
할려고
함양
박소
글로리
찔려
수서
질색
당선자
크래쉬
심신
항시
불러들이
자작곡
XI
##38
식칼
칠성
더글라스
국과
Ob
손패
맞선
Ha
능선
색감
810
말려들
정파
##파시
드리스
배신감
브레멘
퍼스널
이부
우릴
##erson
부딪치
소방관
빨갛
288
발암
##손자
안티오
모뎀
경례
재촉
긴밀
허드슨
##차근
달마
청순
흘린
##OLD
차근차근
현란
산적
레이더스
대학살
쓰러뜨렸
어지럽
Wol
##con
저게
518
경복궁
퀘이크
스테인
##페리온
페네
한동
출품
##연의
유니코드
도미니카
##으려
동학
사이언
기대치
da
수긍
일판
관구
시마즈
준결승전
레코딩
##무책
포티
들였
참혹
##히드
영애
진시
문희
코앞
그리워하
토에이
루주
임창용
PTS
롤리
구린
야지
##무트
식이
송은
272
휘감
Fant
오치
내쉬
권영
볼거리
MSI
GIR
##기구
수훈
15000
홍진
미치광이
리아스
Series
사본
사흘
모기업
학실
아키오
유키오
연명
땅콩
숱
경치
무턱
연다
명부
택지
범람
이해도
780
##테이커
would
##게티
권선
##스탱
뚫린
명종
평가전
고려사
신분증
AJ
##감독
bu
##orry
##메드
신학자
근현
미스코리아
유혈
##순환
좋아해서
언더테이커
모닝구
Video
재조
570
##땐
돛
영연
별세
##협회
두건
막사
줄였
##반구
김미
오가타
미혼
재경기
탐사선
GEN
##닿
소스케
상층부
##나스
평평
##ublic
단언
고루
판박이
법규
840
기프트
소다
초승
드가
보주
지닌다
폼페이
##도르프
번화가
특강
식단
중개
걸레
##져야
스커트
편히
액세스
MED
고강
미자
치켜
왕래
차량기지
1901
##블레스
하퍼
도이
텔레파시
한대
기득
아이치
박헌
태안
프래
##wn
유야
탐탁
##idae
마상
야하
려니
병법
탈진
척탄
가인
게인
리니어
회랑
코우타
에고
석재
머스킷
PE
동형
당수
재외
아라타
대주자
다목
창구
##길동
가르쳤
OGN
메피스토
번뇌
레거시
주제곡
극단주의
속수무책
부총리
키보
국제선
버텼
MOD
민요
숟가락
af
변화구
쥐어
보건소
승룡
만장일치
진통
재연
용신
1860
함교
챌
멀록
지청
쓰다듬
401
연합뉴스
지선버스
오재원
가고시마
다재
##키치
알아들
286
쐈
GIT
복량
근사
##ato
미사토
코스타리카
UB
조쉬
노토
영영
##피오
SPEC
서연
비스타
노려볼
마노
오오타
중공군
톈진
응수
지구력
JK
xB
사커
박희
비트코인
Force
##타니아
맹공
칵테일
##케이크
화분
금주
문화사
ACE
##ITY
저기압
결점
절멸
이경규
매개체
인양
후부키
홍명
마나카
페르시
심상정
주문서
SHD
카카시
하노이
지노
누릴
작성자
춘천시
의수
명함
토도
역사학
1898
지안
주정
신현
치수
레이튼
스파이럴
니퍼트
카코
물의
끼칠
##ATA
ro
##MI
장현
창조주
용기사
용지
산토스
321
사민
작아지
난조
꺼낼
플랭크
공학부
중독자
고드
정열
분분
순이
천명
민선
##쿠사
299
스포츠카
하노버
##ison
물러난
아랑전설
눈부신
가망
타쿠마
사황
##마키
당직
야한
찡
몰아주
동호인
장검
국철
능한
깨뜨리
윗부분
##미안
동거리
##외과
누설
센토
##umber
둘러싸여
##기리
위문
예감
트렉
!!!!
STAGE
620
쳐다
번호판
제네바
##hn
도나
##TLE
파마
RES
바를
모니터링
한답시고
편법
##파르트
픽시
1902
과반수
Div
피한다
안데르
용돈
알레르기
##현희
슈마
쉬울
싸늘
기계식
정미
발송
죽전
빨랐
호문쿨루스
상국
히트맨
FK
##만별
폭우
독립군
천차만별
무턱대
기전
화단
후지와라노
Lu
아흐
구획
억누르
쇠고기
어쨌거나
본전
허점
캥
##메리
GITAD
제논
##디나
체의
금광
몸소
뺐
우노
총력
향교
출자
이해관계
EF
##권력
논외
영웅전설
차례차례
삼국지연의
하하하
검법
헥터
재계약
질식
와시
두더지
페트로
1897
KV
아네
발군
정윤종
짤짤이
##석희
끈다
치에
찾아간다
몽둥이
구수
야키
##BT
완장
무신론
도울
##트페
상트페
##벗
이동해
영업소
MOVIE
부의장
상트페테르부르크
바짝
조엘
##즙
파티마
프란치
아자르
이서
도성
바레
##루가
##샘
ㅓㅆ
발린
뎃
플라스
퀘벡
냈으며
먹잇감
Ta
강지
메오
레기온
무표정
고국
자생
312
린코
셋쇼
셋쇼마루
점막
모아야
JAPAN
성신
개소리
타순
출정
Future
췌
고저
오븐
타개
장난치
짊어지
미워
접목
##tm
고운
태운
##핑크
폭스바겐
나성범
세네갈
die
불스
준이치
357
유도탄
boy
자퇴
불패
얼려
링고
블랙리스트
ZERO
거진
화원
건들
흥하
쏟아부
힘껏
##amb
than
조선왕조
820
##비행
얀다
천호
로데
비드
결방
음식물
묵묵히
pre
시들
한상
수저
엘튼
국방군
총독부
##넨탈
신안
계파
건반
용광
돌린다
헤어졌
북서부
하코다
장단점
곡사포
쿰
케라
FD
채광
307
밥값
355
출장소
리허설
찍혔
Here
한단
처우
호머
그린다
##방위
엉터리
버려야
Fin
el
다느니
수거
비안
진언
토했
행정학
디아스
수아레스
Championship
너트
Aq
뒤틀린
꾸역
무턱대고
cod
##지옥
##다능
이랜드
벽면
종착역
영암
스리랑카
다재다능
이한
하구
박철
막대기
블라드
##가야
발의
der
피한
역세
웨이드
떠오른
하울
면사무소
유자
발사관
##irth
카우보이
전량
찮
피안
휴재
왈츠
could
오대
중학
산티아
##득이
##read
335
가로채
International
가트
거만
자우
연약
안달
원단
##hed
마르세유
유년
광자
쿠타
네이비
올라섰
소인수
##나츠
##해튼
##강하
2600
무인역
교부
직함
청도
##odu
코즈믹
초승달
지스
기내
일축
##브스
몬드
##acy
선후배
Queen
##ror
따라간다
퇴원
꾸려
1894
##46
한다든지
반문
간헐
마틸
경작
망나
Exper
이수근
프란시스
부추기
모티프
김하성
황재균
새천년민주당
기류
화승
프톨레
프톨레마이오스
녜
소변
애도
누를
만주국
잣대
오ᄅ
리자드
##분별
페트
드라고
스물
직경
복역
말다툼
조나라
멩스
GITADORA
일수
계급장
리콜
섬광탄
해파리
자조
##댄다
리저
급강하
리포터
맞닿
양덕
사라져서
다레
청라
묶음
나지완
##무쌍
코볼트
열연
쉽사리
메인보드
모덴
덧붙여서
적재량
최전방
로또
추태
대성당
셔틀버스
power
주신
만기
안지
역공
교파
심층
트럼
테크니컬
Pat
특사
알람
매킨
육수
왜건
첼로
엔지니어링
Old
채식
태엽
셀카
증명서
관찰사
산티아고
마동
암스ᄐ
youtu
호른
아마노
##테크
황야
숙성
시비르
how
대합
는데요
옷차림
##ctor
짤리
페르난데스
중남미
Ill
앙코르
##맞춤
안드레아
묵시록
다윗
지략
노론
##두고
이경우
상이
호두
루이즈
##드름
아케치
FOR
드려
떡칠
Mor
주리
전학생
금나라
경찰차
시에라
##마다
후열
##unch
걸어오
##RC
##ᅳ렁
벤자
강경파
여과
##화기
세공
날아갈
Look
BLUE
##iw
오수
미신
오르페
710
Work
꼬꼬
틈틈
아나킨
유시민
pla
조진
데바
달달
황급
봉우리
##icle
옥토
카이로
테크놀로지
접대
지지부진
수백만
##iant
거구
라메
파이어볼
무릅쓰
VT
##ᅳ럼
야포
강백호
사회당
최연성
다진
오영
용모
고함
도수
본기
포항시
##노르
토레
로도스
피력
우키
플러
놓아
컨벤
이제야
##아프리카
강물
핵전쟁
가져온다
이겨야
합창단
##꿍
마아
모카
JD
호연
도카이도
원주시
애런
애증
잠긴
메이든
횡포
##티아스
보보
널려
유례
털린
암스트롱
미생물
코랄
호쾌
손승
시리얼
아야메
정찰병
아우구스
카츠라기
Er
Fore
Give
##고양이
##킴
얽혀
##ces
선녀
코린
##핀스
크레이그
이근
세실
토아
통행료
내무부
청취자
비활성
장강
포포
국세
폭약
세이라
##QU
주안
이봉
유실
무분별
배양
빼앗겨
오웬
화포
리빙
왕전
##메탈
플라톤
Dyn
드나들
츠요시
##ᆷ스
##꿔
날려서
넘어뜨리
공리
방통
걸프
효종
나루미
Cla
마셜
맨해튼
자카르타
##cal
##LY
미첼
심취
궁녀
##otion
프랜시스
문종
클라인
##els
갱생
피난민
Aqours
Ber
##su
김민철
후세인
핥
일라이
오클라
장승
애너
각하
탈레
오클라호마
##WC
마그나
##프스키
스털
강풍
국부
##스럽
한국전력
멈췄
고의로
문수
346
전화기
276
칸국
빌리지
의용
여실히
배낭
베리아
급조
음악중심
션트
보컬리스트
스탬프
구미시
뒤쳐지
er
유관
법관
##브리지
Dav
주괴
자해
번안
영화사
치매
알프스
백석
##불사
송환
전국구
맹주
콜렉션
타미
함종
대표자
성리학
##글러스
구조대
케이코
낱말
리거
메들리
##파트라
##에미리
아득히
클레오파트라
##가나
총액
기쁜
퍼니셔
와트
진사
칸트
놀이터
아랍에미리
아랍에미리트
공직자
원초
강박
##ask
더글러스
스트ᄅ
청부
##혜원
브리오
##ender
##댄
피타
속내
조선족
하이트
더라고
페일
##엉이
빌린
짧아
뒷목
만다
##박사
##ami
황금색
여수시
제수
차오르
동귀
술래
##스름
추축국
이철
속곡
에이핑크
절로
ARC
거듭나
Plan
np
##시원
마중
마오카
식감
휴고
즙
후려치
##sy
라타
지원금
RNG
요직
충만
캐롤라
사조
히미
온천욕
루미너스
이그니스
Fort
들르
미요시
방독
필로
양민
금연
슈이치
아우디
TFT
키네시스
들릴
카다
결렬
김밥
소비량
TBD
이설
학관
달서
광주시
펼쳐진다
동해선
Player
구급차
개항
##그라들
켰
면했
러커
CI
##치락
큐티
sy
지브리
친동생
그레이엄
넘버링
##대신
파훼
교신
쿠쿠
글꼴
육군사관학교
세워졌
발명품
##원숭이
See
##주석
우레
말싸움
출가
롭스
high
치욕
델리
나가노
밀릴
애드온
전태양
간토
페페
##ular
최지
박하
효도
큐리
지지층
타임스
##다오
조아
##여래
##elieve
PTSD
비교적
안젤라
초신성
괌
세심
국유
슈츠
##재주
접선
##젠더
art
MH
##기름
리파
반야
베이직
소유주
모모카
가마쿠라
WIN
한껏
관철
항체
프라하
##SH
##사탕
예식
자코
디그
변론
낙점
펀딩
뜯어내
고흥
연중
포츠
##예스
당해도
얽매
Sub
반향
메트
##테리아
철인
침실
선제공격
인내심
고상
도그
카톡
스타인
아폴론
hPa
상습
언어학
직장인
Ever
##ᆯ리우스
치치
주성욱
컨벤션
배회
흥덕
죽여도
우치다
INF
오두막
으세요
남경
##뿔소
##레일
매물
금관
쾌거
스털링
Dec
시일
최종병기
Another
시바타
Make
Squ
숨겼
670
##캡
갈라져
이정훈
둘러싸이
사노
우성
기어코
아까운
무쌍
선의
깎여
무전기
##tus
##EP
할려
굽히
펀트
신해철
무드
쿠와
258
지켜본
이승기
IOC
슬링
진열
최동
덴오
Wonder
안마
완치
불러도
트랙터
카나에
샌더스
CU
ml
##쏘
찹
외롭
독스
조석
##ICK
비취
분탕
룻
골밑
웡
격상
감독관
답니다
707
940
##세우
페티
론도
970
말미암
어메이
지검
##대원군
257
줬으며
야마가타
미카사
오블리
실마리
판별
터틀
승하차
벤자민
가쓰
성호
말렸
본즈
이끌려
Roll
rec
##itt
##트리아
385
포위망
##거미
어울릴
에드가
정실
화음
서운
선악
예금
바랐
중생
히요리
열망
##덴부르크
뿌리치
its
스며
권한다
광둥
얼버
카를로
상계
장합
밀폐
프리스
APK
##호크
커질
하양
했어야
잡졸
박지원
장항
독음
키리시마
끊임없
무진장
깁슨
자유민주
나트륨
수혈
군국
은하영웅
기상청
츳코미
은하영웅전설
##ddy
부차
##비티
용액
배웅
꿋
##쓰기
여객선
낌새
노블레스
동군
탈리스
뉴올리
기다린다
##ᆺ수염
Ben
기입
설명서
맹목
브롤
얼떨결
유원지
동그라
신참
심재
석회
263
찬탈
알론소
도운
데꿀
규합
코스케
이랬
비올레
데꿀멍
San
다키
아누비스
송은범
중일
죽창
아타리
파사
궁이
바이저
탯을
소매치기
이딴
건너뛰
게으ᄅ
후시
후륜
류큐
##지먼트
레브
철강
아르마
매니지먼트
간소
울트론
##OME
부비
비벼
발걸음
심할
민자
콘도
각성기
왼손잡이
에두
성왕
외벽
커티스
##93
대혁명
파즈
김갑
극회
아주머니
525
org
하녀
가전
길리
파로
탈의
곤도
LoL
세미나
징병제
Card
##vice
에일
##도바
만리
##버른
삼림
##추세
상륙작전
양부
라이오
팬서
##곡역
즉발
bbq
구릉
학우
##저찌
김부
##포인트
떠돌이
쏠리
어찌저찌
이승현
Sea
무루
연유
친했
이슈타르
되돌아오
무도회
##미남
류노스케
블락
딴지
##side
모체
소르
단시간
맞아
낙후
##ellow
된장
구문
요루
파블로
김포시
아워
영차
알베르토
궁을
타카야마
오야
장도
포틀랜드
토종
덜덜
일리노이
평택시
들러붙
암스테르담
비결
##실신
금동
에리나
오블리비언
Ko
인건
내막
방종
추진력
hello
액정
Mind
이교도
한다든가
승리자
전임자
괴롭혔
따돌림
지산
자메이
세제
요시히로
프레이야
아리스토
자메이카
과외
##유리
판테
온다고
써져
브래들리
군도
##any
##hes
잔느
떡실신
미치루
방사성
##ava
되돌릴
총격전
대꾸
조난
호나우
##민턴
귄
풀릴
수리비
BY
유표
리서
스토크
우승컵
좌회전
데프콘
사륜
필리아
줬으나
전문점
%~
버마
##카운
잉카
매사추세
매사추세츠
##실베이
학도
펜실베이
한양대
펜실베이니아
세바
방계
발끈
##피언
##츠크
마다가스
송금
듀란
찬다
본다고
친해졌
기네스
사무국
불도
백야
사대부
##카가
##ote
스푼
##PGA
##네이루
매카트니
노먼
단맛
필하
망쳐
믿기
시스터즈
포가
죠니
즐비
배드민턴
AGE
##크루
주현
##가르트
당혹
실렸
종언
삼중
클라리
유리코
##셰비
팔레트
글레이
후신
오퍼레이션
칙령
경의선
비정규직
부럽
소박
문대
국내선
730
로페즈
Pal
##form
방귀
돼야
니시노
유즈키
##빅
진루
캐넌
황선
273
이시이
자청
데코
##워졌
잔다
참판
산정
급속히
Ra
메드
조직력
소화기
실리콘
모처럼
장렬
영판
치닫
지난번
어려워진다
나나세
야인시대
꿋꾸
영생
양해
독침
산군
##막이
맥기
칭기
폭주족
아미노
곶
국면
속인
시보
수표
세시
시작점
병아리
-'
이펙터
양각
##reas
전해져
고사하고
성년
##개미
운동회
흥선
리딩
야영
링크스
통신망
대참사
에린
도지사
생쥐
강신
마르스
투표수
star
그로기
under
원유
깔보
뱌쿠
판테온
##ican
이즈모
서예
다양체
youtube
SPECIAL
황급히
##ih
소연
반일
루아
##ories
골판
불꽃놀이
잡혀가
디펜더
시어머니
이색
도형
일설
오호
##구동
역인
독기
얻어먹
##니파
##치우
요란
김석
왜성
연예대상
푸르지오
오시리스
##YY
##리지
미비
9999
카타리나
Beautiful
컴파일
HIV
특출난
인파
##마차
코딩
아르고
맥아더
Emp
고룡
사피
본교
김사
쥬리
##스러운
주무
정영
구야
캐럴
크론
##oto
True
GSM
볼드체
회고록
구시
장구
군관
친아버지
라이어
본다는
공대공
대양
대죄
##진군
##몬트
##ffer
yul
유강
제프리
콜리
격자
빼돌
멜버른
다뤘
피로도
YTN
종국
##레마
청담
벌벌
마리카
##필레이션
컴필레이션
코소
배너
잠기
을지언정
다윈
시이나
402
gonna
오송
태커
애니멀
벨로
유사시
미즈노
애호가
조민
유랑
소티
교인
나옴
복속
핀치
리버티
어메이징
에테
수의
비빔
소치
연립
버로우
그래야
온난
동일시
전반부
아낌
거룩
민회
웅덩이
##ollow
{{{#!
그루브
Electr
KM
어니스트
주영
##요한
프리트
글쎄
고착
선미
##토프
잉어
토미노
다마스
다국적
부릴
상도
##들린
뽀삐
구박
카산
관입
##iness
든다고
국민회
앵그리
리라는
칭기즈
볼로
324
흘렀
흠집
Id
ep
마안
##처리
쳐야
전미
정색
화난
당했으며
##면서
스위칭
나탈리
지저분
입소
유우나
MSM
Trans
##미나
##라이즈
930
SI
##슬레
정찬
정략
등짝
건륭
경영자
트라이얼
은커녕
미형
양학
##북자
스팸
회생
집시
벌점
##ific
커넥트
조연상
알아냈
기척
외로운
팀워크
독가스
283
가르드
트레이스
TOUR
위업
크로즈
김민성
군부대
시판
미스티
등신
두고
뽀뽀
닥쳐
비슈
타의
##재호
##난방
총동원
민경
늦춰
##ister
에른
##핸
달려서
빠를
끊겨
가려져
마요이
맞춤법
손익
포세
검진
혹자
마리코
흥원
유희관
라이프치히
리플레이
동티
결판
도망갔
마나미
SSS
시타델
돋보인다
두고두고
급사
뛰어가
벗겨지
Bus
아연
최현
켄치
해괴
주마
타이트
##달리스트
가져다주
여태껏
차우찬
방독면
로커
##토메
석권
행진곡
##press
사표
강할
참회
늘렸
영웅전
헬렌
리오넬
##scape
284
386
멍청이
달아났
국호
##워스
백동
멜라
플로어
##쯔
들린
네드
스타드
도플
비워
피폭
##락스
플라밍고
김유신
으뜸
카본
진주시
희석
261
끓여
박원순
하물
적히
##자원
픽스
004
맡긴다
Shadow
VF
추증
반점
##드레드
비비안
여간
리븐
선례
##ress
지류
엄친
##ada
정준영
밋밋
오락가락
-.-
Av
VOD
소국
##모아
극락
령우
렐리아
초석
종주
##현상
흔드
클로즈업
##태자
Arch
상세히
알비온
아니마
결산
살아난
아스널
치러진
불로불사
이뤄지지
OFF
이학
로다
##당당
##onight
우림
##벌리
##해방
유충
##부치
후폭풍
금괴
sky
아스트라
숙달
Dep
배타
##las
발표회
시흥시
깊숙히
정년
무위
개근
백승
윤서
마사미
마주쳤
햇살
박보
나쁠
갔었
##bow
구려
줘요
엘자
끊긴
아라키
정몽주
YES
##쿵
원킬
##컬레이터
에스컬레이터
테이머
망가져
염색체
일렉트로닉
##afe
du
남군
##amage
##스티안
이지선
송시열
이등
더치
히치
보호법
돌림
##금속
종단
용법
가루다
프란시스코
플릿
여진족
투석기
피플
따진다
대서양
TECHNIKA
##민정
직권
##ives
Ve
구력
산스
비행사
김동준
##oid
현은
러버
터득
황위
Two
한식
항법
##APP
방랑자
아만다
다쳤
277
의례
##디슨
##토크
쓰시마
케이이치
##큘
무한대
무서워서
Ka
did
유루
인민해방
근본주의
인민해방군
비엔
영상물
벌어들이
경쟁사
이정현
으르렁
Hz
퓌
앞날
사쿠마
개척자
라쿠텐
Fro
##나물
##와트
축구팀
Chapter
Tur
시테
감화
떨리
##뎅이
내통
폴로
레노
맞닥
몰아가
보디가드
이택
성교
추악
항변
##MM
해일
##어져서
야성
##누이
바렛
야후
후지이
고관
살생
맨션
묘역
강화도
015
파스칼
##캉
조서
노포
월경
관저
용검
양준혁
수동변속기
파니
파급
##잭
부영
정병
진천
주창
불어나
판국
요시유키
김태원
호수비
베네딕
재조명
독려
##쿠젠
스핑
아발론
추존
##ini
Intel
지양
습기
전군
##아다니
남송
순혈
스테파
870
험하
안일
323
율법
지킨다
Leader
신동엽
전의
키코
인문학
하기
금산
4500
##맡
코에이
양키
민가
통합진보당
낸다는
하후돈
티라노사우루스
920
TK
타바
타블로
디안
완충
꼬드
딜레마
화염병
베스트셀러
엎드려
Vi
군가
하루하루
Head
Cost
KK
상전
덴버
크리스티아
사가라
불고기
난타
프리스타일
테마파크
오디세이
동종
##회원
커세어
덜렁
주구장
CHA
노원구
주구장창
UD
아탈
전상
빅스
##비안
##군다
총평
민주자유
멸칭
부지런
이종범
##갱어
쌤
도플갱어
민주자유당
##ja
##어사
안ᄊ
핵미사일
려는데
전망대
신우
왕릉
악동
창녀
희곡
뻔히
쫓겨난
캔자스시티
##샨
##AMP
동갑내기
리보
피살
지나갔
무심코
셧아웃
프란치스코
생모
키오
나잇
료타
Christmas
Earth
##97
파쿠
실베
보패
형광
금사
##골목
아시카가
친선경기
Silver
Burn
##무사
양극
이범호
미학
군의
294
##먼지
특촬물
##높이
NBC
느림
##제철
추신
발사대
대문자
옴니버스
Tok
이왕
에무
냈으나
비서실
miss
대청
잿
녹턴
현대인
마닐라
Global
##CO
야코
황보
레즈비언
내시
히데아키
공수부대
영락없
Double
모피
지킨
가리켜
눌렀
척탄병
수액
소체
북스
레스큐
동력원
리츠코
강정호
.?
아드리아
세피
씨족
냉소
HERO
work
##디트
베오
##ones
러일
274
Street
다운타운
가졌으며
신일본
세기말
리턴즈
킬리
효능
줄까
뉴올리언스
##Boy
##꽝
##시설
위례
데포르
##티엄
변변
끝자락
악세서리
맡길
빼돌리
펜티엄
코코아
Hand
JO
완행
##친왕
Want
XL
다든가
학비
메노
원산지
휘발유
##ASH
트랜스젠더
이끼
리의
포인
##ery
식탁
고우키
터무니없
하찮
글귀
050
Cloud
하물며
다현
버클리
예보
여성향
003
##눕
중흥
선덕
타카다
성가신
2800
창립자
서두르
비켜
무반
타령
누에
##ᅳᆯ리에
Reb
===
네츠
증류
LD
어태
노크
리무진
반다
267
무한정
수색대
랴오
Techn
미발
경춘
각개
담화
노르드
거침없이
한일
##상어
동고
##보성
농지
338
좋아해
리미터
##베라
착실
##충전
걸어야
소지품
지크프리트
##껍질
##앵글
코메
감차
농가
택한
아케미
메디치
##KE
나침
백정
아웃사이
EDG
아웃사이더
김나
병마
라이노
쇼타로
멈춘다
##과학
치진
박력
롯데월드
천문대
big
##미널
피스톤
올라와서
왜군
##aint
아츠코
미케
##부쿠로
선왕
외판
지법
띄운
ind
##라지
음독
박선
친히
머금
널널
김정우
##ii
나타낸
교도관
##카이저
뛰쳐나
##ues
##port
아트로
등불
신드
##홈
준말
캠벨
렌지
진다면
젊음
미주리
보헤미아
오차
정월
리퀴
파시스트
재충전
김풍
곰팡
동대구
세인트루
맥시멈
Hal
이능
현과
##코비치
경차
연작
우겨
황교
오르간
춰
해왔
강석
번주
순욱
법대
271
브루드
PART
##츠로
대웅
미온
영식
궁사
268
명목상
올라갈수록
법조인
어림
기침
사간
바쳤
실효
키도
잡아냈
아유무
미확
단풍
##팜
츠노
##67
여초
키릴
복직
샤드
트라이앵글
조군
받아치
권세
중간중간
틀어지
스즈카
##OTHER
MOM
원할
맞은
논평
세르히
##전등
재원
##ating
유일무이
through
Thank
뺨치
제퍼슨
##ken
하버
불후
##탄두
의무병
싸이코
헉
동하
##거품
켄신
화물선
하이스쿨
##gen
해동
나일
정단
야고
참배
경기병
임성
경제학자
꽁꽁
이롭
부득이
효성
전란
바네
##쿠보
케이프
모터쇼
상환
찻
혼나
아야네
바티스타
Second
점성술
Oper
맬
##천후
패인
금제
거성
수풀
베히
##덕이
수원역
남길
라던지
부군
조전
영연방
Pur
위자
곡식
관계없
성장기
타임즈
맞은편
임박
블럼
체인지업
##타스
몰카
아쉬울
마츠오카
플란
신앙심
어가
마쿠
누굴
뺄
Studio
415
Cho
안치홍
##하타
피니
표차
항렬
순양전함
박대
생겼으며
루시드
TUN
수스
반미
뒤집어쓰
응원단
고지대
DREAM
고칠
신겐
치장
베일리
##HS
로터
##aa
오선
해법
##iko
헤이안
카스티야
중문
행한
혈투
##어먹
수건
청정
환시
정의감
Vita
##YO
장부
핏줄
##bert
서강대
give
점쳐
무지하
야쿠모
통찰력
MAR
소이치로
서른
반정부
딧
액터
초음파
AU
십니까
475
주사기
떨어뜨린
che
##KA
시현
리암
코야마
휘장
짤렸
수력
뭇
유럽연합
퇴계
아쉬워
퀸시
친해진
주거지
모신
관서
깼
287
징조
헥토르
##꼭
카림
탄성
Hor
##jor
이발
시럽
자스
학당
빵집
두터운
##사건
문득
산개
엘리시
치료법
Group
Electrical
Water
병조
폴드
codice
RW
그어
부산시
앙드레
댕
모텔
##화학
노시
교문
귀순
##딩크
들여다보
Qual
외딴
도망갈
스테파니
바꿔치기
LIG
라네
마천루
시무
자파
당사
##발트
촉발
1880
서사시
가평
아차
바키
성좌
최수
손주
괴한
하이드라
헬름
맞춰져
##나도
자외선
천인
머스탱
모이라
대마초
Sign
XG
필중
먹혔
레이프
블로거
끌어당기
석가모니
문산
실프
현충
쇠뇌
로울
배재
##던스
불사신
##ael
파이퍼
스위프트
트럼펫
샤라
##oman
프로그레
수집가
짜장면
##도록
우완
떨쳤
경향신문
정해졌
이웃집
리네
##홀름
다항
개의
##stal
암살단
뼈대
거실
무속
##쿠니
다이몬
앞섰
흔들림
Gre
XIII
##랙
이찬
잡이
##lad
자유도
##꾸역
심해졌
라엘
호동
악순환
이태양
꾸역꾸역
Vers
피넛
부녀자
##ior
조식
노자
##토쿠
패튼
톳
별빛
찾아간
홀더
닭고기
기하급수
수줍
Jr
Wel
비버
Radio
떄문에
HC
연시
신오
백혈
국민정부
녹색당
다로
too
롯데마트
태양광
황건적
연신
요셉
히딩크
날조
기능사
이효리
나방
정돈
츠키
318
##꾸러기
Bill
데크
기뻐했
지하철역
개정판
오명
공덕
##면체
##개발
청송
에이즈
##ANT
카스가
원더걸스
나경
대식
피조
740
가나가와현
줄래
금리
작업장
+,
부린다
코모
현도
물든
몰타
뽑아
##imate
오프사이드
휴식기
##기아
전회
##니카
포용
포교
자유투
레인즈
프로그레시브
으셨
피나
송영
변국
완파
침례
날아온
넥톤
폭풍우
조리개
모비스
소신
축약
핏빛
##uz
국명
하이데
스프린
마무
##미경
외워
친자
육손
켄타로
디스토
선보여
의문점
##ipp
노량진
시역
##하트
##대전
소타
노구
##왕후
Right
##만장
서천
본색
꼬치
Know
모더
노니
망가뜨리
빨아들이
소독
서핑
메뚜기
갈겨
다를까
Cross
##uff
타에
##호테
오리아나
류중
묘호
키리코
플랑크
Speed
는다거나
티라
309
590
이병규
##셰비키
여몽
중보
성심
애드립
절기
몽크
마틸다
조소
##비나
미친다
돌이킬
Original
Sin
상작
유급
히지
압구
##ters
대주주
일장
단두
##포츠
식욕
송강
스티어
다녀온
DOS
쎈
캐터
베끼
병무
윤석
양산시
사나운
세리아
알토
알콜
플로라
탈레반
무에
세하
그러다
네빌
투병
달렉
쇼고
낚아
##axy
run
했을지도
말벌
##챙이
가뿐
교동
##usion
스모크
해보
##레프
쑤셔
호그와트
정강
음유
흑자
##이스트
최윤
##세르크
타이라
##애자
옆면
##어가
마세
##roid
초대장
END
god
##come
화풀이
중서
첫눈
밸류
대원군
카게야마
나침반
TM
##수선
강현
아야세
덮쳐
read
남동부
조타
매립
묵살
Where
인더스
선다
막심
##쿠르
슈퍼컵
국제법
리베로
이방인
Episode
#==
케임
모랄
##당선
Extra
시진핑
##뮈
##마켓
부르주
정우람
카탈로그
도저
##부아르
친형
만듭니다
미치코
지와
월남
개역
포에
황성
259
조지프
유러
떠넘기
TRPG
Ki
들여서
바타
신랑
급부상
잠그
쫒겨
부끄러운
kW
##쩔
고승
대작전
비위
안재
알렉세이
호흡기
자폐
인코
입안
##바오
샤론
기념품
VOL
배꼽
##적거리
현수막
장권
연선
라일라
##ative
빠짐없이
pack
소하
요트
보상금
타케다
끈끈
##겹살
치토세
South
노회
머리띠
살아났
김성주
일기장
일회용
video
보훈
픽시브
해적선
모노레일
아트록스
##live
원석
문물
저수
반지름
꼽혔
Lab
##68
##썬
공론
문맥
호건
디나모
Ju
먀
하중
동태
네스트
슈미트
전사자
힐데
Born
유장
칫
관리국
지구인
야마노
버틴다
채무자
유러피언
공법
노도
##키드
불출
##버스터
별관
삼겹살
칭했
으려다
쩔쩔
little
size
도지
올랜
펼쳐졌
리시버
야노
김효
청록
##북면
중요도
브라보
와카야마
끌어들여
불시착
Mill
Us
지병
##젤로
혹성
Shin
Land
만한
신계
신판
역경
축산
##UMI
최전선
더위
친딸
팝업
Pres
유라시아
COL
전말
신궁
살인자
Walk
기정사
김옥
환전
282
정규직
집단군
프레시
신조어
기정사실
티엘
오카야마
노총
원샷
배영수
검단
##stic
POWER
TNA
하아
우도
결실
먹였
##창호
꼰대
진우
역수
##저냥
느닷
오오츠카
탁자
뷰어
기말
무득점
개사
니켈
직류
누카
접해
휴학
나카타
할로우
Rel
외고
승상
정상인
춘향
로버츠
##ji
스컴
류중일
FP
잰
도매
대손
탈선
어딨
##펜하
해산물
PRE
이스타
전뇌
슈투
마사코
효고현
Some
유종
물병
수호천사
하후연
이마스
도킹
라브
장어
취약점
Mid
##ks
가나다
확연
투아
산신
##벼락
문호준
htm
유생
답장
기모노
friend
부심
발원
향로
니시무라
오카베
히다카
발길
준코
샐리
저지른다
주먹밥
흉내내
인덕
명회
Chall
갈라진
노벨상
적출
프로즌
펜던트
##마타
009
그레고
피폐
외삼
강태
숍
아키모토
제제
할퀴
장태
호퍼
점퍼
종장
스탄
파이로
퇴위
조중
저전
317
이성열
알렉산드라
may
##yl
한다던지
안목
양승
약관
중앙부
블리스
김재호
와카바
SoC
넘어섰
사대
레더
론드
마사오
바운스
비이
후렴
그냥저냥
홍시
민병헌
청동기
Iron
##**
민스
혹한
아우구스투스
세인트루이스
도다
바일
KL
속어
이동국
##웃음
마르쿠스
##셔리
연주회
Ref
남겨둔
동질
##바도르
식수
백금
런들
럭셔리
풀어놓
라던
콧수염
남베트남
##ora
낙오
기울여
##깍
부왕
##정보
동떨어진
골자
##트라인
##akes
West
car
##댕
다든지
##고시
동과
##유사
버틀러
아오모리
승조원
믈
밉
상심
포우
강선
역주
티티
279
창업주
미추
승단
Forever
골판지
로치
수경
영하
298
네덜란드어
지으면
##다임
리도
재지
자유민주당
아라드
청소부
온다면
이카리
거사
치른다
다가올
급박
##슈타
카즈토
뒤집어
막힌다
카와이
##자치단체
봉해
수혜자
성토
카스트
존엄
근절
##날린
패러다임
##REAK
턱없이
휩쓸려
black
##vin
고은
장차
난방
##다녀
일깨
선양
이봐
##풍선
핸드볼
##here
기가
나위
외신
##hel
탈북자
뿌렸
댄싱
두텁
File
VV
하태
정희
코보
계명
폐렴
가입자
##aeb
장원준
이혜
##퉁이
##더니
순애
손재주
눕히
길버트
칼초
츠츠
갓난
하라다
명반
문지기
##공학
##aki
아프간
저작물
이회창
하코다테
Dynam
나베
불순
청탁
칸타
int
겁니까
룸메이트
세르히오
위헌
매몰
패링
교통카드
##IZ
전병
부다
폐역
항공편
융통
카운트다운
##FE
시의
빨아먹
숨길
곤잘
그레인
라운지
공권력
##ese
##raw
주치
성정
걸출
못했으나
아르토
져도
협력자
기급
부엉이
유달리
성찬
헤로
스기타
people
파헤치
##부패
개굴
데블
헌제
##HO
바케
##진다는
부정부패
WBC
채영
COST
##ault
##of
현생
속담
##평리
제스처
##큘럼
고배
356
훌린
선인장
해시
갈매기
색다른
278
어벤저스
오승환
위도
##유희
호실
인편
##라시
신보
키라리
캐피탈
꼭지
##볕
신대륙
도당
다가왔
센텀
전근대
Ray
고열
제미니
구파
남초
갈레
다이쇼
020
ha
mind
파쇄
김도우
##셔스
comp
드락
Circ
이족
인부
전희
렉터
함흥
##바바
테트리스
맞설
289
윤희
##edia
올랜도
Lord
##IVER
##버러
씽
탐방
쾌활
컨버터
##퀀
##티에
참작
정전식
리니
##네그로
단체장
커리큘럼
경시청
촘
루도
보이콧
급작
미에
메키
극작
전가
통할
하루나
##돈나
수십만
미라쥬
이데아
에어로
협소
다녀야
=,
비무장
##주얼
김천시
용가
심성
##립니다
Prot
사법부
림프
동음
레게
2300
찾아냈
신분당선
다와
아플
숯
조규
외친
테트라
검수
금강산
보름달
ElectricalBoy
Award
수현
힘든데
고노
증서
폭장
칼집
크로마
카이사
불타오르
소대원
아키하바라
NFC
##사메
말린다
일본도
LT
체스터
듄
아킬레스
미군정
Collection
대항해시대
에르난데스
아나톨리아
다혈
건져
##연기
악성
돌아다닌다
삑
이와타
선지자
##cc
##꺽
히마
남서부
옥스퍼드
Pet
sl
츠구미
미하엘
박민우
미확인
OL
##뿍
타테
후마
발할
##실험
쇼지
차이나
sur
장모
게임차
나올지
매니악
끌려갔
사형수
미성숙
소풍
##와키
스토킹
월계
원균
캐주얼
910
집어삼
##드레날린
Gar
방도
버질
남장
참새
히비
조인성
해주
라치오
오파
위배
산양
벤제
고명
성내
##승지
백모
##맞이
안무가
아랑곳
로랑
경종
키츠
속셈
외질
008
실패작
1889
알베르
저건
가디
##수소
##처치
짜내
269
솔트
냉면
쫓아다니
총기류
JS
ㄴ다고
가레스
위연
입담
이베이
한성부
학동
##텔레스
들판
##라도나
##끓
하카타
앵무새
병약
황충
그럴싸
룩스
스완지
텃밭
mon
넘나들
나이키
나이토
브리기
깨어났
건널목
##드렸
##사쿠
장마
식초
플레이스
빨라졌
def
둘러싸인
지존
정용
상명
카잔
카락스
치비
망정
책사
핵탄두
작사가
무너질
TER
물거품
쿠소
엄정
마쓰다이라
LH
##냉
초롱
아마게
펜리
APEX
후쿠오카현
mag
소코
컴팩
경영진
레버쿠젠
벤제마
Wild
고액
집념
빙자
핀잔
Plat
시퀀
극치
돈독
지휘부
아리스토텔레스
Ze
변해서
온실
혼령
링링
교육학
리카르도
군의관
구강
압록
다혈질
##ios
서성
나아갈
메르스
이케부쿠로
형량
##andy
스핑크스
하즈키
구기
입헌
DRA
도재욱
보면
조총
에이리
골목길
지느러미
예절
##제트
##공신
스턴스
지회
강병
탈리아
버렸으며
선취점
##uh
##행성
##멜로
바레인
리호
내리막
벼랑
굴러다니
백과사전
홍천
마음속
가져와서
가속도
은닉
그나
유두
코크
##들레
##놀림
권외
궁기
폭발력
토모미
##이야기
##공산
급전
휴즈
백자
따라갈
##이어티
이로하
||
주나라
마론
라피스
##개토
순경
독약
민물
쓸어버
296
리서치
fire
##LV
치노
초성
절충
브뤼셀
히이라기
도탄
서너
명가
곡예
득점력
##킨슨
주먹질
간청
곤봉
444
니시키
##메이커
후견인
에른스트
RK
마스터스
둔감
오카자키
아드레날린
부축
비행대
ass
기우
리튬
채태인
급급
자길
배기량
##일점
박시
터트려
##ouri
EXE
콤비네이션
음양사
자영
스네이
당구
혹여
##빽
에트
로한
민호
용기병
1870
스톡홀름
슈가맨
소사이어티
의태
구포
프리깃
순정만화
로베르
화강
호지
돌격대
김유정
보시
안위
감점
##lear
내려치
보수주의
미적분
##핌
핌
저마다
직각
양질
스타이
홍지
협찬
다이어리
운전석
리벨리온
바움
##데자
차역
국화
물기
##파인더
광개토
호소다
방조
니모
합시다
국가원수
띄어쓰
감염증
두들기
\[
닷지
인회
##인명
레우스
외가
트집
품위
빽빽
Lim
지탄
보관소
##ISE
fun
일말
쓰촨
앙헬
690
imp
##스톱
국고
del
font
고세이
예우
1884
에디슨
Ban
빌더
자료실
MCU
백운
행정관
리자몽
돋보였
##뷔
은발
적수
정모
명과
##노동
##불교
박정현
전준
위버
##물질
체벌
몸담
리우데자
외동딸
피조물
리우데자네이루
자괴
현우
닉슨
IL
##그란
하소연
조재
산역
먹인다
갈림
단두대
TJ
제창
코츠
재치
384
리스본
##동사
스카프
시아파
읍내
시찰
소바
피디
초속
006
삼성그룹
한다면서
브리기테
Hall
면전
281
충전기
측정기
토벌전
폴리곤
오현민
Mich
WD
wr
##xy
반했
용수
still
지리산
사이좋
Bon
상큼
토고
광원
297
헬륨
카즈오
코노미
Vf
##ᆺ물
리소스
코뿔소
##두라스
군무
온두라스
육전
앙숙
와이즈
##istory
루스벨트
##심원
EG
KAC
##다발
구전
신마
코오
스포르
##쓸리
여호
부응
그르
Child
##크린
관악구
##히메
푸아
##드롬
CONC
몬테네그로
Jump
구심
영과
데니
레이즈
토모에
미시시피
에타
##하우스
공보
장경
임파
뽑혀
옥황
336
포니테일
Round
몰수
옥좌
멤
##폭스
떠나가
휩쓸리
기슭
해로운
사부로
우표
라고도
##받이
하여튼
서한
장고
교우
손전등
히로아키
만신창
대권
무주
운다
Mart
Nav
Wo
파레
내려온다
쿨러
카산드라
##ba
배설
증산
망한다
##ising
베르나르
히라가나
ft
랜더
팩터
샐러리
듬뿍
HAPP
전입
스몬
홍설
윤하
일지라도
Guard
아무로
격화
웨슬리
읽히
롤스터
베르디
박해민
Eyes
##uel
과소
미운
포춘
강룡
그리움
##cept
요금소
수필
브리타니아
모래시계
내디
##태평
770
레스테
약혼녀
센티넬
전년도
애덤스
박건우
##TO
비보
빛깔
레드불
내던
요오
워렌
넓혀
돌려보
헤비메탈
하등
도일
유현
음직
북측
쓰러질
Dist
지에
조스
카발
군소
씨스타
##잔치
동반자
도진
조안
입금
##츠바
온과
농축
##찌개
네이마르
경춘선
Bas
이지만
##스토
적설
합전
츠시
##땀
풀려난
Rh
우타이
쿠다
앞바다
대법원장
고프
도축
기엔
수화
경무
##타리오
음차
30000
Ball
##ever
메구
보이저
봉선
##reme
컵라면
히토시
sub
아보
지은
##가면
공제
무왕
데자
역린
음악실
아울렛
하이바라
생활비
##oke
##뇰
RD
##토무
독식
플렉스
where
흩어진
어조
유리아
후쿠이
페르디난트
케임브리지
tell
대야
와리오
##비에
삼지
아마미
라세
만월
요츠바
불거지
니이
독학
프시
맴돌
콘스탄티노폴리스
Royal
의향
적병
수족관
OH
전초
조윤
포경
##여왕
호죠
319
익혔
고춧가루
GDI
으레
지으
노파
창백
휴머
덜하
익스플로
서장훈
나탈리아
익스플로러
par
비탄
폭렬
에이트
유키나
기선
무희
노상
행패
합본
골인
거상
낙엽
뇌신
Inst
삼국유사
흐릿
지겹
스벤
안부
##호란
종북
투데이
떠맡
팔콘
품격
에뮬레이터
흥선대원군
가논
코버
예프
종시
판치
##inity
산불
쉬운데
해졌으며
권위주의
LEVEL
파우더
American
온건파
two
##ker
도큐
라플
화법
할애
장량
목판
약함
홍백
##푸드
쏟아졌
깁스
해버릴
때려서
제원
먹힐
밥줄
##cer
##56
아라곤
##똘
블린
핵실험
부여군
후훗
마역
타크
파스텔
반투
양력
휘청
대합실
RM
뤄
노로
우현
용마
헤아
챙긴
##캐로
마스미
부러워
휩싸이
이티
내동
신월
양구
새뮤
티미
교육자
미덕
리링
생화학
난항
잔나
860
사로잡혀
##ᆸ니까
##찜
고환
로베르트
무브
##ᆯ리스크
배짱
샌가
강동구
간선버스
오벨리스크
송창식
노른
합참
책자
##교동
커쇼
##쿠마
페레
철조
마사지
열람실
VO
에렌
와전
김철
석양
##캐롤라이나
tri
리피
리그컵
결정체
326
Style
헐리우드
라그
히루
천거
나눔
김재현
Parad
sing
번즈
머릿수
익룡
산청
406
입장권
꿀리
쫓겨났
항해사
##타나
언동
##둥절
어리둥절
아닐지
카파
팀플레이
박은
##ddle
##스트림
어퍼컷
둑
종가
쿠치
##추얼
끼친다
벤쳐
성전환
들끓
제군
동공
카포
요한다
원해
도미노
제니스
외식
네즈
보여줘
Luc
정청
야라
호국
저해
열거
끌어올려
알베르트
그래비티
격한
##acle
보안법
마가렛
관현악단
가곡
##산맥
평형
덕아웃
##제일
안시
잡다
수감자
고출력
도토리
오목
##비크
##역학
다가온다
##까요
##vers
요시키
호쿠토
##ugh
##BL
거둘
꼬시
##akao
스테파노
Fa
코고로
산수
충렬
292
떠올려
젓가락
first
보노
피라
신랄
요이치
심수
레이건
참모장
##ㅋㅋ
카고
살의
Stop
숭실
기뻐한다
화정
차녀
요상
real
무브먼트
##기병
##빌라이
포부
디브
꽃미남
비올라
진서
타카유키
욱일기
시끄러운
마샬
padd
대당
대했
인품
##ᆯ리나
광휘
넘나드
NEXT
닛타
일과
만무
덕수
피오나
사디
장외
장년
초이스
약소
함경남도
영능
뒤떨어지
접어
Bell
HO
등부
브로드웨이
유공자
가모
할래
재석
친환경
##alth
깨진다
이치노세
~!!
##대성
신족
꽃피
롤백
2030
##르츠
신이치로
흑사병
사우론
바네사
타박
루츠
커즈
##를로
교통수단
붉히
자책골
중재자
고물
비수
리니지
임산부
찬반
영남대
##73
노안
베개
##배추
##악단
지상주의
무거워
곰팡이
하일
마돈나
보궐
육사
크로커
벤투
##샤오
삥
칼리스타
시한부
OUT
이간
##나항공
미연
선라이즈
신아
니시오
밀치
아시아나항공
Cast
돌프
언저리
앞발
박살났
1885
##즈미
##민당
##덧
헷
풍족
람다
곤잘레스
펜리르
사하라
적벽
했잖아
영걸
엉성
양성소
홀딩스
##ule
떠오른다
MSX
2023
명문가
제노스
##른베르크
##락부
극비
풀어내
뛰어올라
대졸
엔드게임
Golden
##이시
##자루
폭정
와일리
레카
배합
군비
든다는
Alex
기간제
촬영장
해적판
라미아
알폰소
Our
은사
드니
##rie
exp
##trl
서유기
박헌영
##핸드
##ᆫ지
자구
수포
바랄
소희
집니다
모리슨
장타력
VII
순결
늘린
강해질
스스무
시퀀스
공해
루브
금치
망전
바쿠간
섬멸전
들으면서
##43
성가시
작열
니노
교가
3200
굴하
STX
카요
설욕
외톨
프리뷰
힐다
네이팜
스파게티
글로리아
ref
되살려
이씨
모우
노와
성진
찬물
Far
아뢰
남우
천억
금품
뭉쳐서
매킨토시
느닷없이
FU
암드
then
찬가
재판장
라로
묠
##ᆷ픽
##슝
괴로움
이겨서
얄짤
얄짤없
HMS
피워
테네시
퇴적
느릿
스트릭
카미유
Dear
흐른다
##min
##랜더
##이츠
요시아키
불우
대표단
기관지
익주
모리타
이주민
카세트
서당
##유행
문턱
코스터
##디부아르
판금
##석탑
베츠
산단
친위
축조
김영철
멍하니
코트디부아르
Flash
손승락
##타주
1001
깨워
##슛
졸전
벤다
나눴
육탄전
꺄
가브
##데우스
우시오
호성
식료
갑각
아킬레
##ARE
##눈물
파피루스
?"
고바야시
폐해
뿌린다
셰필드
하수구
유성구
강릉시
가맹점
애꿎
조반니
##볐
아산시
은유
중신
레비아
교지
페그
##걸리
국민학교
위기감
##층석탑
연대장
이지영
레비아탄
rpm
안다고
군신
토호
약학
요시타카
스파르
무인기
Mini
수나라
장서
활짝
##애플
##ᆷ피스
Stars
키노시타
시망
##시험
##인구
독차
악덕
레이버
역사가
연주가
##ought
군체
아라카와
카시와
수성구
특출나
새뮤얼
Code
전유
매달린
분별
난바
에스페
허리띠
김수현
설레발
이츠카
지소
인디아
최충
애절
세계사
꼬인
일단락
트레저
성전사
고을
대란
라헬
정판
화형
선화
씹히
쉬움
##바이크
GOLD
MIN
영세
카슈
간대
논술
상점가
황교안
Attack
잤
라간
말풍선
종편
간디
페스트
회사원
쥘
남녀공학
함의
철창
트리스탄
뮤츠
대관식
콘스탄티노플
윤성환
컨설팅
와선
전등
왕왕
류승
샤프트
정조준
html
고티
나영
대연
##파스
온타리오
덕양
##iter
즐긴다
오카모토
##ucky
other
##por
##ko
##ᆺ사
이데오
형질
총상
갈증
블록버스터
must
song
##GN
##다란
장충
더그
겸직
휴게실
##ternal
디비시온
Ti
Ur
영제
원당
불합
레다
배팅
엔투스
취침
705
오버래
##피카
예종
##천하
간절히
염라대왕
pp
~,
##AV
집무실
헬리오스
앞세운
ret
로킹
자른
연개
예멘
증감
칼슘
즈이
343
공사장
##랄라
BAT
단짝
염보성
도민
자업자
갑니다
자업자득
bec
자시
구례
실신
토니아
탄광
##amu
서양인
Rap
기주
##만큼
서러
815
사마소
##ᆯ리즘
피눈물
##orrow
쉬워서
미야비
생몰년
사이타마현
의형제
봅
릴리아
투시
바꿔야
830
Mob
끝장내
background
아탈란
공터
##문고
성관
발드
채권자
양아버지
총학
쿠르트
인덱스
Ven
WOW
##kn
깅
해버
주니
##주머니
안가
뉴타운
아카바
부르주아
ᆯ수록
로큰
여분
상연
##소디
야근
##탈출
답례
419
삼국전
그리스도교
Engine
padding
app
노모
노점
출도
점착
병동
책장
아키즈키
533
안타까움
고고학자
NTR
친일인명
성북구
친일인명사전
도제
군산시
##예술
벌목
야구팬
331
트래비스
날카로
고장난
나나코
이택근
act
##bat
빈유
조용필
PVE
##gar
명기
485
쥬스
hellojo
##po
가용
무카이
선입
난국
산둥
지나칠
히타치
우솝
나단
수구
매국
음악회
휙
계산기
line
##under
타계
291
엎드리
패럴리
지반
중의
송승
구자욱
TNT
모치즈키
Chaos
이바지
노려서
원이
##eca
검사장
평안북도
;;
Yo
##Force
마라도나
모드레드
행실
허스키
##패닉
헤쳐
염주
클로저
히스패닉
크리스티아누
##리쿠
코에
역자
변성
극렬
곤살
무소속
탈리야
소홀히
break
마정
타전
영자
니토
따라갔
홍길동
퇴색
뒷골목
오피스텔
유익
터로
##박쥐
흔쾌
렌치
뒷이야기
록키
가역
용례
완다
미카미
여차하면
HYP
##땡
정평
Princ
박주영
Fair
버나드
멤피스
npc
차수
서막
뒤틀
맞받
양배추
철기
담론
꿈속
##ORY
##그래피
레모
국소
판문
크리에이
국민은행
실종자
일으켜서
##uke
컴팩트
크리에이티브
GUMI
##도그
불살
집안일
히메네스
하하하하
되도록
사철
내재
##레온
준주
322
밝힐
미라지
요격기
쁘띠
구해서
포리
쉬프
망고
##케이트
의정
##스태
모략
세크
할게요
움켜
##프릭스
기타프릭스
빗발
always
Wave
도륙
잿빛
킬라
곤경
쏘아
조선왕조실록
Got
##42
오에
정순
료우
435
중추원
##르ᄅ
아방
아칸
난립
##셔닝
보병대
아사노
낭독
캣츠
포지셔닝
LW
노진
참견
양주시
쿠션
어대
절박
케모
border
fall
##자르
노이어
개점
번리
매디슨
천신
커드
쬐
몸부림
351
덮친
애완견
비대칭
CAN
DG
부랴
레퍼
간만
Galaxy
OZ
성냥
불변
표제
힘차
북송
브리티시
하비에르
가와사키
소포
노심
네리
충칭
러니
중국식
만든다고
랩소디
##olding
EVER
오름
비공
군락
혼신
도독
호통
매터
체공
삼보
친아들
##ᆯ로기
꽂혀
휘말린
성동구
가부장
이데올로기
DN
오존
포카
문전
잡스
갖은
좌지우
##USH
좌지우지
Tell
free
사용량
급유
페터
짰
띄운다
787
렛츠
성상
메다
팔콤
야구팀
##채기
콩트
우스꽝
MID
바친
북해
스탑
505
구해야
##ITION
히바
허기
403
어떤지
516
버려졌
모여들
과감히
흐려
상파
준위
간다르바
로리콘
##sung
남도
342
후지모토
펠로
Face
특명
황정
어렴
내려졌
신경질
방문객
주종
게스
상쾌
이브라
찌푸
색인
##ota
훼이크
ESC
##드랑
영유권
히지카타
지고
수증
무쇠
구지
도로공사
도레미
방청객
Ak
나트
오답
루퍼
열량
쑨원
'"
##후무
##연구
딸린
[...]
